{"<|endoftext|>":0,"!":1,"\"":2,"#":3,"$":4,"%":5,"&":6,"'":7,"(":8,")":9,"*":10,"+":11,",":12,"-":13,".":14,"/":15,"0":16,"1":17,"2":18,"3":19,"4":20,"5":21,"6":22,"7":23,"8":24,"9":25,":":26,";":27,"<":28,"=":29,">":30,"?":31,"@":32,"A":33,"B":34,"C":35,"D":36,"E":37,"F":38,"G":39,"H":40,"I":41,"J":42,"K":43,"L":44,"M":45,"N":46,"O":47,"P":48,"Q":49,"R":50,"S":51,"T":52,"U":53,"V":54,"W":55,"X":56,"Y":57,"Z":58,"[":59,"\\":60,"]":61,"^":62,"_":63,"`":64,"a":65,"b":66,"c":67,"d":68,"e":69,"f":70,"g":71,"h":72,"i":73,"j":74,"k":75,"l":76,"m":77,"n":78,"o":79,"p":80,"q":81,"r":82,"s":83,"t":84,"u":85,"v":86,"w":87,"x":88,"y":89,"z":90,"{":91,"|":92,"}":93,"~":94,"¡":95,"¢":96,"£":97,"¤":98,"¥":99,"¦":100,"§":101,"¨":102,"©":103,"ª":104,"«":105,"¬":106,"®":107,"¯":108,"°":109,"±":110,"²":111,"³":112,"´":113,"µ":114,"¶":115,"·":116,"¸":117,"¹":118,"º":119,"»":120,"¼":121,"½":122,"¾":123,"¿":124,"À":125,"Á":126,"Â":127,"Ã":128,"Ä":129,"Å":130,"Æ":131,"Ç":132,"È":133,"É":134,"Ê":135,"Ë":136,"Ì":137,"Í":138,"Î":139,"Ï":140,"Ð":141,"Ñ":142,"Ò":143,"Ó":144,"Ô":145,"Õ":146,"Ö":147,"×":148,"Ø":149,"Ù":150,"Ú":151,"Û":152,"Ü":153,"Ý":154,"Þ":155,"ß":156,"à":157,"á":158,"â":159,"ã":160,"ä":161,"å":162,"æ":163,"ç":164,"è":165,"é":166,"ê":167,"ë":168,"ì":169,"í":170,"î":171,"ï":172,"ð":173,"ñ":174,"ò":175,"ó":176,"ô":177,"õ":178,"ö":179,"÷":180,"ø":181,"ù":182,"ú":183,"û":184,"ü":185,"ý":186,"þ":187,"ÿ":188,"Ā":189,"ā":190,"Ă":191,"ă":192,"Ą":193,"ą":194,"Ć":195,"ć":196,"Ĉ":197,"ĉ":198,"Ċ":199,"ċ":200,"Č":201,"č":202,"Ď":203,"ď":204,"Đ":205,"đ":206,"Ē":207,"ē":208,"Ĕ":209,"ĕ":210,"Ė":211,"ė":212,"Ę":213,"ę":214,"Ě":215,"ě":216,"Ĝ":217,"ĝ":218,"Ğ":219,"ğ":220,"Ġ":221,"ġ":222,"Ģ":223,"ģ":224,"Ĥ":225,"ĥ":226,"Ħ":227,"ħ":228,"Ĩ":229,"ĩ":230,"Ī":231,"ī":232,"Ĭ":233,"ĭ":234,"Į":235,"į":236,"İ":237,"ı":238,"Ĳ":239,"ĳ":240,"Ĵ":241,"ĵ":242,"Ķ":243,"ķ":244,"ĸ":245,"Ĺ":246,"ĺ":247,"Ļ":248,"ļ":249,"Ľ":250,"ľ":251,"Ŀ":252,"ŀ":253,"Ł":254,"ł":255,"Ń":256,"Î±":257,"Î¿":258,"ÏĦ":259,"Î¹":260,"Îµ":261,"Î½":262,"ĠÏ":263,"Ïĥ":264,"Ïģ":265,"Îº":266,"ÏĢ":267,"Î·":268,"Î¼":269,"ĠÏĤ":270,"Î»":271,"ĠÎ±":272,"Ïħ":273,"Î¯":274,"Î¬":275,"ĠÎ¹":276,"ĠÎ½":277,"Î¿ÏĦ":278,"ÎŃ":279,"Î³":280,"Î´":281,"ÏĮ":282,"Î·ÏĦ":283,"Î®":284,"Ïī":285,"Î±Îº":286,"Ïĩ":287,"ĠÎµ":288,"Î¿ÏĢ":289,"Î¸":290,"Ġ,":291,"ÎºÎ¹":292,"ĠÏħ":293,"ĠÎ·":294,"Ïį":295,"ÏĨ":296,"ĠÎ¿":297,"Î±ÏĦ":298,"ÏħÎ¿":299,"Î¯Îµ":300,"Ïİ":301,"ĠÎ¹Î±Îº":302,"ĠÎ¿ÏĦ":303,"ÏĤ":304,"Î²":305,"Î¿Ïģ":306,"Î¹Îµ":307,"ÏĦÏĥ":308,"ĠÎ±Î½":309,"ĠÏĮ":310,"ÏģÎµ":311,"Î½Î±":312,"Îĳ":313,"ĠÎ®":314,"ĠÎ±Î¹":315,"Î±Î¼":316,"Ġ.":317,"ĠÎ½Î·ÏĦ":318,"ĠÎ¬":319,"ĠÎ¹Îµ":320,"Î±Ïģ":321,"Îķ":322,"Î¾":323,"ÏĢÎ±":324,"Î±Î½":325,"ĠÏħÎ¿ÏĦ":326,"ĠÎµÎ¼":327,"Î¹Î´":328,"ĠÏĤÎ·ÏĦ":329,"Î¶":330,"Î£":331,"ĠÎ±ÏĦ":332,"ĠÎ½Ïī":333,"Îł":334,"Î¤":335,"Î»Î»":336,"Î±ÏĢ":337,"Î¹Ïģ":338,"ĠÏĤÎµ":339,"Î¿Î½":340,"ĠÎ·Ïĥ":341,"ÎŃÎ¼":342,"ÎŁ":343,"Î¿Î¼":344,"ÎºÎ¹ÏĦ":345,"ÎµÎ¼":346,"Îļ":347,"ĠÏħÎ¿ÏĢ":348,"Î¿Î»":349,"ĠÎ±Î¹Î³":350,"ĠÎµÏĥ":351,"Î¹ÏĦ":352,"ÏĢÎµ":353,"ÏħÏĥ":354,"Îľ":355,"Î¯Ïģ":356,"Î·Ïĥ":357,"ÏħÎ¿ÏĦ":358,"ĠÎ·ÏĦ":359,"ĠÏĮÏĢÎ±":360,"ÏħÎµ":361,"Î¿ÏģÏĢ":362,"Î¿Îº":363,"ĠÎ±Î¯":364,"ĠÎ½ÏīÏĦ":365,"ÎĶ":366,"Î½Î¬":367,"Î½Îµ":368,"ÏĥÎ¹":369,"ĠÎ½Î¿ÏĦ":370,"ĠÏĤÎ±":371,"ĠÎ¹Î±ÏĦ":372,"..":373,"ÎĹ":374,"ÏĮÏģ":375,"ÎµÎ´":376,"ĠÏĤÎŃ":377,"ÎĻ":378,"ĠÎ½ÏħÎ¿":379,"ĠÎ¹Î±Î½":380,"Î¬Ïģ":381,"ĠÏį":382,"Î»Îµ":383,"ĠÎ¿ÏĦÏĥ":384,"ÏįÎ¿":385,"ÎºÎµ":386,"ÏħÎ±":387,"ĠÏĤÏī":388,"ĠÏĤÎ®":389,"ÎĿ":390,"ĠÎ½Ïİ":391,"ĠÎ¹Î±Î½Î¯Îµ":392,"ĠÎ±Î¼":393,"Î¹Î»":394,"ÏĦÏĮ":395,"ĠÏħÎ¿":396,"Î¹Ïĥ":397,"ÏģÎŃ":398,"ÏģÎµÏĢ":399,"ÏģÎ±":400,"Î½Ïī":401,"ÏĩÎŃ":402,"ĠÏĤÎ¹Îµ":403,"Î·Î»":404,"ÏĪ":405,"âĢ":406,"ĠÎ±Î¸":407,"ĠÎ¹Î¿":408,"ĠÏĤÏħÎ¿ÏĦ":409,"Î±Î¹Î´":410,"Î±Î»":411,"ĠÎ½Î·ÏĦÏĥ":412,"ĠÎ¯Îµ":413,"Î¿ÏĨ":414,"ÏģÎ¬":415,"Î½Î¹":416,"Îĵ":417,"ĠÎµÏĦ":418,"ĠÏī":419,"Î¿ÏĢÎ±":420,"Â»":421,"Â«":422,"ĠÎĹ":423,"Î±Ïĥ":424,"Î½Ïİ":425,"ÏĥÎ®":426,"Î·Î¸":427,"Î³Î±":428,"ĠÏĤÏĮ":429,"Î½Î¯":430,"ÎºÎ±":431,"Ġ:":432,"Î½Î¿":433,"ÏĥÎ±":434,"ĠÎ½ÎµÎ´":435,"Î¬Î¼":436,"Î¯ÏĦ":437,"ÏĦÏħÎ±":438,"ĠÎ®ÎºÎ¹":439,"ÏīÏģ":440,"ĠÏĤÎ¹ÏĦ":441,"Î½ÏħÏĥ":442,"Î¬ÏĦ":443,"Î³Ïģ":444,"Î·Î´":445,"Î¬Îº":446,"Î¿Î´":447,"Î¹ÏĢÎµ":448,"ÏĢÏħ":449,"Î¿Î¹":450,"ÎµÏĦ":451,"Î¹ÏĢ":452,"ÎµÏģ":453,"ÎĽ":454,"ÏĥÏĮ":455,"Î½ÎŃÎ¼":456,"Î±Î¯":457,"ĠÎ¹Î±ÏĦÎµ":458,"Î¿ÎºÎ¹":459,"Î¾Îµ":460,"ĠÏĤÎ·Ïĥ":461,"Î¥":462,"Î¡":463,"ÏģÏĦ":464,"ÎµÎ¸":465,"ÎŃÎ¸":466,"ĠÎ¹ÏĦÏĮ":467,"Î½ÏĮ":468,"Î³Î¿Î»":469,"Î»Î±":470,"ÎºÏĥ":471,"ĠÏĮÎºÎ¹":472,"ĠÎ¬ÏĦ":473,"ĠÏĤÏħÎ¿":474,"ĠÎŁ":475,"ÎĴ":476,"02":477,"ÎŃÎ»":478,"Î±Î¹":479,"Î»ÏĮ":480,"ÏĩÏĥ":481,"ÎŃÏĦ":482,"ĠÎ¯":483,"ÏİÏģ":484,"Î¹Î¼":485,"Î»Î»Î±":486,"Î·Î¼":487,"Î·Î½":488,"ĠâĢ":489,"ÎŃÏģ":490,"Î·Ïģ":491,"ĠÎ¬ÎºÎ¹":492,"Î±Î½Î±":493,"ĠÎ½Î±ÏĦ":494,"ÏģÎµÏĦ":495,"ÏĢÎ¼":496,"Î±ÏģÎ³":497,"ÏĥÎ¿ÏģÏĢ":498,"Î²Î¼":499,"ÎºÎ³":500,"Î¹ÏĦÏĥ":501,"Î§":502,"Î¯Î»":503,"Î¿ÏĢÎ¼":504,"Î±ÏĦÎ±Îº":505,"Ġ-":506,"Î¹Î¿ÏĢ":507,"...":508,"Î·ÏĦÏĮ":509,"ÎµÎ»":510,"ÏģÎµÎ¼":511,"ÏĥÎ¬":512,"Î¿ÏĢÏħ":513,"ĠÎ¿Î¤":514,"Îĺ":515,"Î±Ïĩ":516,"ĠÎ±Ïģ":517,"Î»Î¬":518,"ĠÎµÎ¼ÏħÎ¿":519,"ĠÎ·ÏĦÏĥ":520,"ĠÏĤÎ¿":521,"Î´Î¯":522,"ĠÎ±Î½ÎŃ":523,"Ġ)":524,"ĠÂ»":525,"ĠÏĤÎ±ÏĦ":526,"Î±ÏģÎ±ÏĢ":527,"ĠÏĤÏīÏĢ":528,"Î»Î»Î¬":529,"ĠÎ±ÏĦÏĥ":530,"ĠÎ±Î¹Î¼":531,"Î¿ÏĢÎ¿":532,"Î½ÎŃ":533,"ĠÏİ":534,"Î¦":535,"ĠÎ±ÏĦÎ±Î¼":536,"Î±Îļ":537,"ÏĥÏİ":538,"ĠÏĤÎ±Î¯":539,"ÏĥÎ¯":540,"ÏĮÏģÏĢ":541,"ÏħÎ´":542,"Î±Î²":543,"ÏįÎµ":544,"ĠÎµÎº":545,"Î»Î±Îº":546,"ĠÎ¹ÏĦ":547,"Ġ0":548,"Î³ÏģÎµ":549,"Î»ÎµÏĦ":550,"ĠÏĤÎ±Î¼":551,"Î¿ÏĦÎ±Î¼":552,"Î´Îµ":553,"ĠÎ®ÎºÎ¹ÏĦ":554,"Î»Î¿":555,"ĠÎ¹ÎµÏĩÎŃ":556,"ÏįÏĥ":557,"ÎĪ":558,"ĠÏĤÎ·":559,"ĠÎ½Î±":560,"102":561,"Î¿ÏģÏĦ":562,"Î®ÏĦ":563,"Î¶Î¯":564,"Î·Î»Î»":565,"ĠÎĳ":566,"re":567,"ĠÎ±Ïĥ":568,"ÏĤÎµ":569,"ĠÎµÏĦÏĥ":570,"ĠÏĤÏİ":571,"ÏħÎ¿ÏĢ":572,"Î¿ÏĦÏĥ":573,"Î¹Î±":574,"Î±ÏĦÏĥ":575,"Î¬Î»":576,"ÏģÎ¿ÏĨ":577,"ÏįÎ¿Ïģ":578,"Î¹ÏģÎµÏĢ":579,"Î³ÏĮ":580,"ĠÏĤÎ®ÎºÎ¹":581,"ÏħÏĦ":582,"ĠÎ½Î¿ÏĦÏĥ":583,"ÏģÏĩ":584,"Ġe":585,"ÏħÎº":586,"ĠÏĤÎ¹ÏĦÏĥ":587,"Î½ÎµÎ¼":588,"ÏĨÎ±ÏģÎ³":589,"Î¹ÎµÎ»":590,"ĠÎ½Î±Ïĥ":591,"Î¶Î¬":592,"Î´Î¬":593,"ÏĨÎ¼":594,"ĠÏĤÎµÏĦ":595,"Î®Î»":596,"ÏĮÎ¼":597,"ĠÎ¯ÎµÎ¸":598,"ÎºÎ¯":599,"ĠÎ¬ÎºÎ¹ÏĦ":600,"Î¹Î±ÏĢ":601,"ÎŃÎ½":602,"Î¼ÏĮ":603,"ĠÎ¬Î»Î»Î±":604,"ĠÏħÎ¿Î¼":605,"ĠÎµÏĦÎµ":606,"ĠÎ±Î¯Îµ":607,"Î¼Î¿Î½":608,"ÏİÏĩ":609,"ĠÎ·ÏĥÏī":610,"ÏģÎ±ÏĢ":611,"ÏĨÎµ":612,"Î¸Î±Îº":613,"ÎĮ":614,"ÏħÎ£":615,"ÏĬ":616,"ĠÎ±Î¹Îµ":617,"Î³Îµ":618,"Î¿Ïĥ":619,"Î±ÏĦÎµÎ¼":620,"Î®Î¼":621,"Î»Î¿ÏĢ":622,"ni":623,"Î³Î±Ïģ":624,"Î³ÎµÎ¼":625,"ÏįÎ¿ÏĦ":626,"ĠÏĮÎºÎ¹ÏĦ":627,"Î·ÏĦÏĥ":628,"ĠÎ¹ÎŁ":629,"Î½Ïĩ":630,"ÏģÎµÏĦÏĮ":631,"ÏīÏĩ":632,"ĠÏĤÎŃÎºÎ¹":633,"ÏĤÎ¹Îµ":634,"ĠÎµÏĦÎ¯Îµ":635,"ĠÎ£":636,"Ġs":637,"ÏīÎ½":638,"ÏĤÎ·Ïĥ":639,"ĠÎµÎºÎ·Î¸":640,"ÏģÏĮ":641,"ÏįÎ´":642,"ĠÏĤÎ±Ïĥ":643,"ÏģÎ¿ÏĢÎ¼":644,"ÏĦÏĥÎ¹":645,"ĠÏĮÏĦÏħÎ±":646,"ÏħÎ¸":647,"Î½Î¬Îº":648,"Î¯ÎµÎ¼":649,"Î¹Î±Îº":650,"Î½Î±Îº":651,"ĠÎ¹Î±ÏĦÎ½":652,"ĠÏĤÎµÎ¯":653,"Î±ÏĨ":654,"ÏĩÏģÎ¬":655,"ÏħÏĨ":656,"Î¹ÏĦÎ½Î±":657,"Î½Î·Î»Î»":658,"ÏĮÏģÏĩ":659,"ĠÎ½ÏİÎºÎ¹":660,"Î©":661,"Î¹Î±ÏĦ":662,"ĠÎ·ÏĥÎ·":663,"ĠÏįÎ¿ÎºÎ¹":664,"ÏħÎ¿Î¼":665,"ÏģÎ¿":666,"ÏģÎŃÏĨ":667,"ÎµÏĥ":668,"Î¬Î½Î±":669,"Î³ÏĮÎ»":670,"ĠÎ½ÏħÎ¿ÏĩÎŃ":671,"Î½Î±Î¼":672,"ĠÏĤÎ¿Ïģ":673,"Î¿Î½ÎŃÎ¼":674,"ĠÎ·Î¾":675,"ÏĥÎµ":676,"ĠÎ½Î±ÏĦÎ®":677,"Î®ÏĦÏĥ":678,"!!":679,"Î¹ÏĨ":680,"Î»Î»Îķ":681,"Î½Î¬ÏĢ":682,"ÏĩÏĮ":683,"no":684,"ÏİÏģÏĢ":685,"ĠÎ¹ÎµÏĢ":686,"ÏħÏģ":687,"ÎµÏĢ":688,"Î³Î·":689,"ÏħÎĳ":690,"ÏĤÎ±":691,"ÏĥÏĦ":692,"ÏĤÎ±Î¯":693,"na":694,"ĠÎ±Î¯Ïģ":695,"ĠÎ±Î¯Ïĥ":696,"ĠÎ½Î¿":697,"Î±Îł":698,"ÏĦÏĥÎ¹Ïģ":699,"Î¹Î»Î¿ÏĢ":700,"ÏĩÏģÎ±":701,"ĠÏįÎ¿":702,"Î®Î´":703,"ĠÎ½Îµ":704,"ĠÏĤÎ±Î½":705,"ĠÏĮÎ¼":706,"ĠÎ¹Îº":707,"ÏĩÎµ":708,"Î¯ÏĢÎµ":709,"Î¯Î¿ÏĢÎ¿":710,"Î¬Î²":711,"Î¬ÏģÎ³":712,"Î»ÏĢ":713,"Î·Î»ÏĢ":714,"ĠÎ¹ÎµÏĥÎ®":715,"ĠÏĤÎ¹ÎµÏĥ":716,"Î¿ÎºÏĥ":717,"ĠÏĤÏīÏĢÏĮ":718,"ĠÎ±ÏĦÎ·ÏĦÏĮ":719,"ĠÎ¿ÏĥÏĮ":720,"ÏįÎ¿Î»":721,"ÏģÎµÏĦÏį":722,"Î¬ÏĢ":723,"Î½ÏĮÏģÏĩ":724,"ĠÎ¿Ïģ":725,"Î½ÏĮÎ¼":726,"Î½Î¹Î¿Îº":727,"ĠÎµÎ¸":728,"91":729,"Î½Î¿Ïģ":730,"Ġ5":731,"ĠÎ½ÏįÎ¿":732,"ĠâĢĵ":733,"Î³Î³":734,"Î¿ÏĦÏĥÎ¹":735,"ÏĮÏĦ":736,"Î±ÏģÎº":737,"Ġ!":738,"ÎĨ":739,"ĠÏĤÎ¹ÎµÏĥÎ®":740,"ra":741,"ÏĤÎ®":742,"ÏīÏĦ":743,"ĠÏħÎ¿Î¯Ïģ":744,"Î½ÏħÎ¿":745,"Î¯ÏĢ":746,"Î¶Î¯Ïģ":747,"ĠÎ¿Î¼":748,"Î½Îĳ":749,"ĠÎ±Î¤":750,"âĢ¦":751,"ĠÏĤÎ¯Îµ":752,"ĠÏĤÎ¿Î»":753,"ÏīÏģÏĢ":754,"ÏįÎ¿Î¼":755,"Ġ1":756,"Î®Î¸":757,"Î¹ÎµÏĩ":758,"ÏĥÎ¹Ïģ":759,"ĠÎ¿Î¹ÏĢ":760,"ĠÎ·Î¼":761,"Ġ2":762,"ÏīÏĥ":763,"Î¥ÎŁ":764,"Î´Î¬Î»Î»Îķ":765,"ĠÎ±Î¯Î¼":766,"Î¿ÎºÎ¹Î¿":767,"Î»Î·":768,"ro":769,"Î¬ÏĦÎ±Îº":770,"Î½Î¿Î¼":771,"Î¿Î¼Î·Î´":772,"Î¬ÏģÎ±ÏĢ":773,"Î¯Ïĥ":774,"ĠÎ¹Î±ÏĦÎ½Î¿":775,"ÏĦÏĥÎ±":776,"ÏĢÎĳ":777,"ÏĤÏħÎ¿ÏĦ":778,"ÏĩÎ¯Îµ":779,"ĠÎ¬ÏĦÎ±Îº":780,"ÏĤÎ±Î¼":781,"ĠÎ¹ÎµÏĥ":782,"ÎŃÏģÏĢ":783,"Î¾Î±":784,"Î¿ÏģÎł":785,"ĠÎ¹ÎµÎ½Î¯":786,"ĠÏįÎ»Î¿ÏĢ":787,"ĠÏĤÎ¿ÏĦ":788,"Î´Î¬Î¼":789,"ĠÎ½Î±ÏĦÏĮ":790,"Î¿Îł":791,"ÎºÎ¹Î´":792,"ĠÎ¯ÏĦ":793,"ÎŃÏĢ":794,"ÏħÎ¿Î»":795,"ĠÎ®Ïĩ":796,"Î¹Î³":797,"Ġ;":798,"Î¹Îº":799,"Î·ÎĶ":800,"Î¯ÏģÎµÏĢ":801,"ĠÎķ":802,"Ġ\"":803,"ÏĦÎµ":804,"ÏħÎķ":805,"ĠÏĤÎ¿ÏĦÎ±Î¼":806,"ÎºÎŃ":807,"ts":808,"Î¬Î¹Î´":809,"Î¿ÏĦÏħÎ±":810,"ĠÎĻ":811,"ĠÎ½Î±Îº":812,"Î®Ïģ":813,"Î»Î»Î¿ÏĢ":814,"Î½Î¹Îº":815,"ÎºÎ¹ÏĦÎ±Î¼":816,"ÏĤÎ·ÏĦ":817,"ÏīÏĨ":818,"Î½Î¸":819,"ÏİÏĦ":820,"Î¹Î²":821,"ÏģÎµÎ¸":822,"Î¼ÏħÏĥ":823,"Î½ÎµÎ¼ÏĮ":824,"Î¿Î¹Î´":825,"ĠÏħÎ¿Î¯":826,"ÏĩÏģÎ¬ÏĢÏħ":827,"Î¿Î³":828,"ĠÎ¿Î¯Îµ":829,"ĠÎ¹ÎµÏĢÎŃÏģÏĢ":830,"ÎµÎ¾":831,"ĠÎ½ÎµÎĶ":832,"ÏħÎ»":833,"ĠÏĤÏįÎ¿":834,"ĠÎ¿Î¹Ïģ":835,"Îĸ":836,"ÏĦÎ·":837,"ÏīÎ¶":838,"ÏĥÏĥÎ¹":839,"ĠÏĤÏħÎ¿ÏĦÏĥ":840,"la":841,"Ġ8":842,"ĠÎ¯ÎµÏģÎ¿ÏĢÎ¼":843,"ÎºÎ³ÏħÏĥ":844,"ÏĩÎ¹":845,"ÏĨÎ±":846,"ĠÏĤÎµÏģ":847,"ĠÎ¬ÏģÎ¿ÏĨ":848,"ĠÎ½ÏĮ":849,"Ġ3":850,"ÏīÎ½Î³":851,"ĠÏĤÎ¿Î½":852,"ÎºÎ¹Î¼":853,"ÏĥÏĮÎº":854,"ĠÎ¿Î»":855,"Î½ÎµÎ³":856,"ÎºÎ±Ïģ":857,"Î¹ÎĶ":858,"ĠÎ±Î»":859,"Î¯Îķ":860,"ne":861,"00":862,"Î±Î¹Î³":863,"Î±ÏĦÎ±Î¼":864,"Î±ÎºÎ¹Î´":865,"Ġ4":866,"ÏįÏĦ":867,"ÏĤÎŃ":868,"ĠÎµÎ¸Î¬Îº":869,"ĠÏģ":870,"ÏĮÏģÏĦ":871,"Î·Î»Îº":872,"ÏĤÏħÎ¿":873,"ĠÎ·ÏĥÎ·ÏĦ":874,"ĠÎ®ÏĦÏħÎ±":875,"Î·ÏģÏĩ":876,"Î¿ÎºÎ±":877,"ĠÎ¬ÏĦÎµÎ¼":878,"Î»Î¬Î³ÎµÎ¼":879,"ĠâĢĻ":880,"ĠÎ·Î½ÎŃÎ¼":881,"ĠÎ½Î±Î½":882,"ÎĳÎł":883,"Î¼Î±ÏģÎ³":884,"ÏĤÎ·":885,"Î¿Ïĩ":886,"Î¯Î¿ÏĢ":887,"Î¹Î±ÏĦÎµ":888,"Î±ÏģÏĦ":889,"Î³ÏģÎŃ":890,"rg":891,"ĠÎ¿Î½ÎŃÎ¼":892,"ÏģÎµÎ¼Î®":893,"ĠÏĤÏĮÎ¼":894,"Î³Ïī":895,"Î¿Î¹ÏģÎµÏĢ":896,"Î´Î¹Îµ":897,"ĠÎ½Î¹Ïģ":898,"Î¿Î²":899,"ĠÏĤÎŃÎºÎ¹ÏĦ":900,"ĠÎ¿Î½ÏĮÎ¼":901,"Î³Î±ÏģÏĢ":902,"ĠÎµÏĩÎ¯Îµ":903,"ti":904,"ÏĦÏĢ":905,"ÏĥÎ¹ÏĦ":906,"ĠÏħÎ¿Ïĥ":907,"ĠÎ±Î¯Î¿ÏĢÎ¿":908,"ÎºÎ¬":909,"Ġa":910,"Î»ÎŃ":911,"Î¿Îļ":912,"Î³ÏģÏħÎ¿":913,"ĠÎ±Î¹Îĵ":914,"ÏħÎ³":915,"ÏĮÎº":916,"Î¸Î½Î±":917,"ĠÎ¹Î±Îļ":918,"ĠÎ±Î½ÎŃÎ¼":919,"ĠÏĤÎ¿ÏģÏĢ":920,"ĠÎĿ":921,"ĠÎµÎľ":922,"ĠÎ·Î½":923,"Î½Î±ÏĢ":924,"ÏĩÏģ":925,"Î±Î½Îĳ":926,"ĠÎ®Î¼":927,"Î±Î½ÏħÎ´":928,"Î¸Î·":929,"ÎµÏĩÏĥ":930,"ÏģÎµÏĨ":931,"ĠÎ·ÏĪ":932,"Î³ÎŃ":933,"ĠÏįÎ¿Î¼":934,"ĠÎ±ÏĥÎŃÎ¼":935,"ĠÏĮÏĦ":936,"Ġ,Â»":937,"ĠÏİÎ½Îµ":938,"ÏĥÏĥÎ¹ÏģÎµÏĢ":939,"ÏħÎµÎºÏĥ":940,"ÏĮÎºÎ¹":941,"Î¿ÏģÎ´":942,"Ġ6":943,"Î¯Î´":944,"ĠÏĤÎ¯Ïģ":945,"Ġ7":946,"Ġ,)":947,"Î»ÏħÎ¿":948,"ÏįÎ¿Î½":949,"ĠÏĤÎ®ÎºÎ¹ÏĦ":950,"ĠÎ¿ÏįÎ´":951,"Î½Î·Î»Î»Îµ":952,"ĠÎ¹Î±ÏĦÎ¯Îµ":953,"ÎºÏĬ":954,"ÎŃÏĩÏĥ":955,"ÏĮÏĢÎ±":956,"ĠÎ¿Î¹":957,"ÎµÏģÎ·":958,"Ġt":959,"Ġâ":960,"ÏģÎ¿Î¼":961,"ÏħÎ¼":962,"oo":963,"Î½Î¿Î½":964,"Î½Î¿ÏĦ":965,"Î¯ÎµÎ´":966,"ÎĳÎļ":967,"Î¹ÏĢÎķ":968,"Î¯ÏĦÎ½Î±":969,"ÏīÎ»":970,"Î®ÏģÏĩ":971,"ÏīÎ´":972,"ÏįÎ¿ÏģÎ¿ÏĢÎ¼":973,"Î²Î¼ÏħÏĥ":974,"ÎºÎķ":975,"Î¿ÏģÎµ":976,"ÎºÏģ":977,"Ġ'":978,"Î¿Î½Î±":979,"Î¹ÏģÏĦ":980,"Î²ÏħÎº":981,"ÏħÎ¿Ïģ":982,"Î¸Î®":983,"ÏĩÏħÏĦ":984,"Î²Î¿ÏģÏĢ":985,"ĠÎ¿ÏĢ":986,"ÏĤÎ±Ïĥ":987,"ĠÎ®ÏĦ":988,"ÏĥÎ±Î³ÏģÎµ":989,"Î¶Î±Î¼":990,"Î¬ÏģÏĢ":991,"Î³ÏģÏħÎ¿Î¹Î¼":992,"ĠÏĤÎ±Ïģ":993,"Î¿Î¼Î¹Ïĥ":994,"ÎŃÎ¼Î·":995,"ĠÏĤÎŃÏĦ":996,"ÎµÎ¼ÏĮ":997,"Ġ...":998,"ÏįÎº":999,"Î±Î»ÏĢ":1000,"ÏĥÏħÎ¿":1001,"Î¹ÎµÎº":1002,"ĠÏĤÏİÎ¸Î±Îº":1003,"Î¹ÎµÎ¼":1004,"li":1005,"Î³Î±Î½Î±":1006,"Î¯Î±":1007,"Î³ÏģÏħ":1008,"ĠÏĤÏĮÏĦ":1009,"ĠÏĤÎ±ÏĦÎ½Î¿":1010,"á½":1011,"Î²Îµ":1012,"ĠÏĤÎ¿Î¹":1013,"ta":1014,"Î·Î¶":1015,"ĠÎ±Î»ÏĮ":1016,"ÏģÎµÎł":1017,"mo":1018,"Î½ÏīÎ½Î¹Î¿Îº":1019,"Î¹Î¿Î»":1020,"Î½Î¿ÏģÏĩ":1021,"ÏįÏģ":1022,"ÏģÎ¿ÏĢ":1023,"Î´Î¹":1024,"âĢľ":1025,"Î·ÏĪ":1026,"ĠÎ½Î·":1027,"Î¬Î½":1028,"ÏĥÎ¹ÏĢÎµ":1029,"Î³ÏģÏħÎ¿ÏĢÏħ":1030,"er":1031,"Îŀ":1032,"Ġo":1033,"Î´Î¬Î¼Î¿":1034,"Î³ÏģÏħÎ¿ÏĦ":1035,"ÏħÎ¿Îº":1036,"ÎĻÎķ":1037,"Î¬Î¹":1038,"Î·Î½Î¯":1039,"ĠÏĤÎ¯ÏģÏīÏĩ":1040,"Î¯ÏģÎ²":1041,"ÏįÎ£":1042,"ÏģÎµÏĦÏĮÏĥÏĥÎ¹ÏģÎµÏĢ":1043,"Î»Îº":1044,"Î¹ÏģÎº":1045,"Î»ÎµÏĦÎ¿ÏĢÎ±":1046,"ĠÎ¹ÏģÏĩ":1047,"ci":1048,"ÏģÎµÎ¼Î®Ïĥ":1049,"Î¼Î¿Î½Î¿ÎºÎ¹Î¿":1050,"ĠÏĤÎ¹ÎµÏĥÏİ":1051,"ÏĮÎºÎ±":1052,"ĠÎ¹ÎµÎ¶Î¯":1053,"ÎĻÎ¡":1054,"Î¹Îĵ":1055,"ÎŃÏĨ":1056,"Î±Îľ":1057,"Î´Î¿":1058,"Î±ÏģÏĦÏĥ":1059,"le":1060,"Î¹Î´Î¯":1061,"ĠÏĤÏīÎ¼ÏĮ":1062,"Î±ÏĦÏħÎµ":1063,"ĠÎ¬Ïģ":1064,"Î¤Î£":1065,"ÏĮÏĢ":1066,"ĠÎ¹ÏģÏĩÎŃÎ¼":1067,"Î¾Î±ÏĦ":1068,"ĠÎ½ÏįÎ¿Î¸":1069,"Î³ÏģÏħÎ¿Î¹Î¼Î·Î´":1070,"ĠÎ±Î´Î¯":1071,"ÏĥÎŃÎ¼":1072,"01":1073,"Î½Î¸Îµ":1074,"ĠÎ½ÏİÎºÎ¹ÏĦ":1075,"Î³Îĳ":1076,"ÏįÎ»":1077,"Î¬ÎºÎ¹":1078,"ĠÏħÎ¿Î»":1079,"ĠÎ·Î»":1080,"ĠÎµÎ£":1081,"ĠÏĮÏĢÎĳ":1082,"ĠÎ·ÏĥÎµÎ¸":1083,"ÏĥÎŃ":1084,"ca":1085,"ĠÎ½ÏīÏĦÎ¬Î¼":1086,"ĠÏĤÎ±ÏĦÎ½Ïİ":1087,"Î´Î¹Î±ÏĢ":1088,"ÏĩÎ¹Î¿ÏĦÏĥ":1089,"Î®Î¶":1090,".Â»":1091,"ĠÎ¹Î¿Î»":1092,"ÏģÎµÎ¼Î·":1093,"Î¯ÏĨ":1094,"Ġy":1095,"ÏĦÎ±Îº":1096,"ÏĢÎŃ":1097,"Î¹ÏĥÏħÎ¿":1098,"ĠÎ±Î¹Ïģ":1099,"ĠÎ½Î·Î¼":1100,"Î±ÏĦÎ·ÏĦÏĮ":1101,"ĠÎ¹Î±Î¼":1102,"ÏįÎ¸":1103,"Ġd":1104,"Î¹ÏģÎ±":1105,"Î²Î¼Î±Î»":1106,"ol":1107,"ÎµÎľ":1108,"ĠÎ¹Î±ÏĦÎµÎ½Î¯":1109,"ÏįÏĨ":1110,"ĠÎ¹Î±Î½Î¯Îķ":1111,"ĠÎ½Î±ÎºÎ·Î¸":1112,"ÏĨÎ¬ÏģÎ³":1113,"ĠÎ±Î¹Î½ÏĮÏģÏĩ":1114,"Î¹ÎµÎ´":1115,"Î±Î¹ÎĶ":1116,"ĠÎ¹ÏĩÏĮ":1117,"Î·Î½ÏģÎŃ":1118,"ÏħÏĩ":1119,"ĠÎ½ÏİÏĦ":1120,"ĠÎ½ÏīÎµ":1121,"ĠÏīÎ½Î¬ÏĢ":1122,"ĠÎ¹ÎµÎ¾":1123,"Î»ÎµÏĥ":1124,"ĠÎµÏĦÏĮ":1125,"ĠÎ±Î½Ïī":1126,"ĠÏħÎ¿Î½":1127,"ĠÎ¯ÏĦÎ±Î¹Î³":1128,"Î»Î¿Î²":1129,"Î¹Î¿ÏĢÎ¿Î¼Î¹Ïĥ":1130,"Î±ÏĦÏħÎµÎ»ÎµÏĦ":1131,"Î¿ÏĦÎ±Îº":1132,"ÏģÎŃÏĦ":1133,"ÏĮÎ½":1134,"ĠÏĤÎ±Î¯Îµ":1135,"Ġre":1136,"Î¯ÏģÎº":1137,"Î½Î±ÏĨ":1138,"ĠÎ¹ÏĥÏĦ":1139,"Ġ%":1140,"Î³Î¯Î»":1141,"Î¿ÏĨÎ±":1142,"Î³ÏģÏħÎ¿ÏĦÎ¹ÎµÎ»":1143,"ĠâĢ¦":1144,"Î½ÏīÏĦ":1145,"ÏĤÎµÏĦ":1146,"ÏĢÏī":1147,"or":1148,"ĠÎ¬Î¹":1149,"Î¶ÏĦ":1150,"ÏīÏģÎ¸":1151,"ĠÏĤÎ·Î½":1152,"ĠÎ®ÏĨ":1153,"ÏĤÏī":1154,"ÏĥÎ¹Îµ":1155,"Î³Ïħ":1156,"ĠÎ¹ÎµÎ½":1157,"ÏĢÎ¼Îµ":1158,"Î¾ÎŃ":1159,"ÎļÎĻ":1160,"ĠÏĤÎ¿Î¼":1161,"ÏħÎļ":1162,"ĠÎ¹ÎµÎ½Î¬Îº":1163,"ĠÎ½Î¬":1164,"Î±Î³":1165,"Î¹Î¿ÏĦ":1166,"ÎºÏģÎ±":1167,"ÏĥÎ±Î²":1168,"ÏħÎ¿Ïĥ":1169,"ĠÎ®Î»":1170,"Ġâĸ":1171,"ĠÎ·Î´":1172,"ĠÎ±Î½ÏīÏĨÎ¼":1173,"ÎµÎ½":1174,"ĠÏĤÏĮÎºÎ¹":1175,"ma":1176,"ÎŃÎ»ÏĢ":1177,"ÏģÎ¬ÏĢ":1178,"Î½ÏħÎ£":1179,"Î½Î±Î³Ïģ":1180,"Î¿Î¼Î·ÎĶ":1181,"Î½Î³":1182,"ĠÎ½Îĳ":1183,"ÏĢÏİÏģ":1184,"Î¿ÏĢÎ¬Îº":1185,"ÎµÎĺ":1186,"Î±Î¹Îµ":1187,"ĠÏħÎ¿ÏĢÏĮ":1188,"ÏĢÎķ":1189,"Ġâĸº":1190,"002":1191,"Î¬ÏĦÏĥ":1192,"ĠÎ±Î´Î¬Î»Î»Îķ":1193,"ĠÎ½ÏħÎ¿ÏĥÎ®":1194,"ÎµÎ³":1195,"Î±ÏģÎ´":1196,"ÎĽÎķ":1197,"ÎºÎ±Î¹Ïģ":1198,"ĠÎ¬Î¹Î´":1199,"Î»Î±Î³ÎµÎ¼":1200,"ĠÏħÎ¿Ïģ":1201,"se":1202,"ÏĩÎµÎ½ÏħÏĥ":1203,"ĠÎ¿Î¯Î¿ÏĢÎ¿":1204,"ĠÎ¹ÎµÎ½Ïİ":1205,"ĠÎ½Î¹ÏģÏĢ":1206,"ĠÎ¹ÎµÏĥÏİ":1207,"ĠÎ±ÎŃÎ½":1208,"ÏĤÎ¿ÏĦÎ±Î¼":1209,"ĠÏįÎ¿ÎºÎ¹ÏĦ":1210,"ÏģÏħÎµ":1211,"Ġ_":1212,"ÎµÏģÎ·ÏĢÏħ":1213,"Î¯ÎµÏĩ":1214,"ÏĨÏĥÎ±":1215,"ĠÏĤÎ±Î½ÎŃ":1216,"uo":1217,"Î¹Î¿ÏĢÎ¿Î¼Î¹ÏĥÎ·ÏģÏĩ":1218,"ÎµÎ¼Î¼ÏħÏĥ":1219,"ÏħÎµÏĦ":1220,"Î½Î¿Î»":1221,"ÏģÎµÏĦÏįÎ»Î±Îº":1222,"ÏĮÏģÎł":1223,"Î¹Ïĩ":1224,"ÎĳÎľ":1225,"Î±Î³ÏģÎµ":1226,"Î³Î±ÏĦ":1227,"Î·Î½ÏģÎŃÎ²ÏħÎº":1228,"Î»ÎŃÎ¸":1229,"ÏĢÎµÎ»":1230,"Î½Î±Ïĩ":1231,"ĠÎ¬ÏĦÏħÎ±":1232,"ĠÎ·Ïģ":1233,"ĠÎµÏĦÏĥÎ±Î¼":1234,"ĠÏĤÎµÎ¯Ïģ":1235,"ĠÎ¿ÏģÏĦ":1236,"ÎŃÎĿ":1237,"ĠÎ¹Î±ÏĦÎ½Î¿Î½":1238,"Î½ÏħÎ¸":1239,"Î½ÏīÎ½Î¹":1240,"Î³Î¹ÏĦÏĥ":1241,"Î¯Î¼":1242,"Î¯ÎµÏĦ":1243,"ÏĦÏĥÎ¹ÏĢ":1244,"ĠÎ¿ÏĦÎ£":1245,"ÏĢÏīÏĥÎ¿ÏģÏĢ":1246,"Î±Î¯Ïģ":1247,"ÏĥÏĮÏģÏĢ":1248,"Î±Î´":1249,"ÏĨÎ¼ÏħÏĥ":1250,"ĠÏħÎ¿Î½ÎŃÎ¼":1251,"ĠÎ¹ÎµÎ¶Î¬":1252,"ÏģÎ±Îº":1253,"ĠÎ¹ÎµÏĩÏģÎ¬ÏĢÏħ":1254,"Î´ÎµÏĢ":1255,"Î±ÏĢÏīÏģ":1256,"Î¿ÏĢÎĳ":1257,"Î±ÏĢÎ±":1258,"Î½Î·Î»Î»Îķ":1259,"Ġ9":1260,"Î»ÎµÎ³Î³":1261,"ÎºÎµÎ¾":1262,"ĠÎ±ÏģÎµÎ¼Î®Ïĥ":1263,"ĠÎ¯Î¶Î±Î¼":1264,"Î¿ÎĿ":1265,"ĠÎ¿ÏĥÏĮÏĦ":1266,"ĠÎ®Ïĥ":1267,"ĠÎ¹ÎµÏģÎŃÏĨ":1268,"Î½Î±ÏĦ":1269,"ÏĩÎ£":1270,"ÏĤÎ¿":1271,"Î±Î¼Î·Ïĥ":1272,"Î½Î®Î¼":1273,"ĠÎ½ÏīÎ½ÎŃÎ¼":1274,"ÏĢÏħÏĦ":1275,"Î³Î·Î´":1276,"ÏĮÏĢÏħ":1277,"Î®ÏĢ":1278,"ÎºÎ±ÏģÎ±Ïĩ":1279,"Î¬ÏģÎº":1280,"ĠÏĤÎ¿ÏĢ":1281,"Î¿ÏĨÎ¿Ïģ":1282,"te":1283,".)":1284,"Î¹ÏģÎºÎµ":1285,"Î²Î¼Îµ":1286,"Î¯ÎµÎºÎµ":1287,"ĠÎ¹ÏĦÎ¬Îº":1288,"Î¹Î¿":1289,"ÏīÏģÎ¸Î½Î¬":1290,"ĠÎ±Îĺ":1291,"ĠÎ¿Î¹Ïĥ":1292,"ĠÎ½Î±Ïĩ":1293,"ĠÏĤÏĮÎ½Îµ":1294,"Î½ÏįÏĥ":1295,"ĠÎ±Î¹Î´Î¯":1296,"ĠÎ±Î¼ÏĮÎºÎ±":1297,"ĠÎ±ÏģÏİ":1298,"ÏįÎ¿Îº":1299,"Î½Î±Î¼Î·Ïĥ":1300,"ÏĩÏħ":1301,"Î±Î½ÏħÎ³":1302,"ĠÎ±ÏģÏĦ":1303,"ÏħÎ¿Î´":1304,"ÏĢÎ¿":1305,"Î¹Î¿Îº":1306,"ĠÎµÏĦÏĥÏİ":1307,"ÏĥÏĥ":1308,"si":1309,"ÏįÏĩ":1310,"ÏįÎµÏĦ":1311,"ÏĨÎ¼Îµ":1312,"ÏīÎµÎ¸":1313,"ĠÏĤÎ¹ÎµÏĥÎ¬":1314,"ÏĥÎ¹Î¼":1315,"Î³ÎµÎ»":1316,"ÏĮÏģÎ´":1317,"ÏĨÎŃ":1318,"ĠÎ±Î¹ÏĦ":1319,"Î¹ÏĥÎ¿Î¼Î·Î´":1320,"koo":1321,"ĠÏĤÎ·Î»":1322,"Î±ÏģÎ±Îł":1323,"ĠÎ·Î¼ÏĮ":1324,"Î»Î·Î´":1325,"ĠÎ½Î±Î½ÎŃ":1326,"Î½Î·Î¼":1327,"Î½Î¹ÏģÎµÎ¼":1328,"Î³ÏīÎ³":1329,"Î¯ÏģÏĦ":1330,"ÏģÎµÏĦÏī":1331,"ĠÎ¹ÎµÏĪ":1332,"ĠÎ¯Î¿":1333,"Ġ00":1334,"ĠÏīÏĦ":1335,"ĠÎµÎ´":1336,"ĠÏĮÏģ":1337,"ĠÏĤÎ¹ÎµÎ¾":1338,"ĠÎ¥ÎŁ":1339,"ÎŁÎł":1340,"Î¾Î±ÏĦÎµÎ¼":1341,"ĠÏĦ":1342,"Î¸Î±Î²":1343,"ĠÎ±ÎĿ":1344,"Î¼Î¿Îº":1345,"Î¶ÎµÏĢ":1346,"Î½Î±Îł":1347,"ĠÎµÎºÎ·ÏĦ":1348,"Î¹ÏĥÏĦ":1349,"Î½Î®":1350,"ĠÏĤÎ±ÏĦÎ·ÏĦÏĮ":1351,"ĠÎ·ÏĦÏİÏģÏĢ":1352,"ĠÎ·ÏĥÎ·Î¯Î¿ÏĢ":1353,"Î½ÏĩÎµÏĦ":1354,"ÎºÏĥÎ¯ÏģÎ²":1355,"ĠÎ¹ÎµÏĥÎ¬":1356,"Î¹Î¿ÏĢÎ¬Îº":1357,"ĠÎ½Î·ÏĦÎ£":1358,"Î²Î¹Î²":1359,"ÏĢÎ¹Î¿Î»":1360,"ĠÎ¹Î¤":1361,"Î»Î¿ÏĩÏĥ":1362,"Î®Î»ÏĢ":1363,"Î±Î½ÏħÏĥ":1364,"ĠÏĤÎ®ÏĦ":1365,"di":1366,"ÏĨÏģÎ¿Î¼":1367,"ÏĢÎ¿ÏģÏĦ":1368,"Î±ÏĦÏĥÎ¬ÏĦÎ±Îº":1369,"ÏįÎ¿ÏĢ":1370,"ĠÎµÎ¾":1371,"Î¹ÏģÎ¬":1372,"Î·Î¾":1373,"Î¬ÏģÎ´":1374,"ĠÎ·Î»ÏĮ":1375,"ĠÏĤÎ±ÏĦÎ½Î¿Î½":1376,"Î½Îķ":1377,"Î¹ÎµÏĩÎ¹ÏĢÎµ":1378,"ĠÎ±Î¹Î´":1379,"ÏĥÏħÏĨ":1380,"ĠÏĤÎ±Î¯Ïĥ":1381,"ĠÏĤÎ·Î¾":1382,"ÏĨÏĥ":1383,"ĠÏħÎ¿Î¯Îµ":1384,"Î½Î¬Î²Î¼Î±Î»":1385,"Ġg":1386,"Î¿Î½ÏħÏĥ":1387,"ÏĥÎ¯ÏĢ":1388,"Î³Î¿":1389,"ĠÎ±Î¼Ïĥ":1390,"Î¹ÎµÏĢ":1391,"ÎĳÎĿ":1392,"ĠÎ±Î¯Î»":1393,"Î³Î·Î´Î¿":1394,"Î½Î¿Îº":1395,"ĠÎ¿Î¯":1396,"ĠÎ·ÏĥÎ±ÏĦ":1397,"ĠÏĤÎµÎ½ÎŃÎ¼":1398,"Î¿ÏĦÏīÏĨ":1399,"Î¸ÏģÎ¬":1400,"ĠÎ·ÏĥÏħÎµ":1401,"ÎĹÎ¤":1402,"ÎĳÎ¡":1403,"ĠÎ±Îº":1404,"Î»ÏĢÎ±":1405,"ÎºÎ®Î¸":1406,"81":1407,"ĠÎĳÎĻ":1408,"ÎµÎ²":1409,"ÎºÎµÎ»Î·":1410,"Î»Î»Î¬Î²":1411,"ĠÎ¹Î¿Î½":1412,"Î¿ÏģÏĦÏĥ":1413,"ĠÏħÎ¿Î¯Î»":1414,"ĠÏĤÎ±Î¹Î¼":1415,"ĠÏįÎ¾Î±ÏĦÎµÎ¼":1416,"ÏħÏĢ":1417,"Î±ÏĢÎ¼":1418,"Î¹Î´Î¹":1419,"Î½ÏİÏĦ":1420,"ÏĤÏĮ":1421,"Î¬Îļ":1422,"Î¿Î¼ÏģÎ±":1423,"am":1424,"Î³Î¬":1425,"ÏĩÏģÎĳ":1426,"ĠÎ½Î¿ÎŃÎ»ÏĢ":1427,"Î®ÎĶ":1428,"ĠÎ·Î¼ÏĮÎºÎ±":1429,"ÏĨÎ¿ÏĢÎ±":1430,"ÎºÎ¹ÏĢÎµ":1431,"ÏħÎ¿Î¤":1432,"ÎµÎ»ÎŃÏĦ":1433,"ÎŃÎ½Î±":1434,"Î®ÎºÎ¹":1435,"Î¹Î½":1436,"ÏĤÎµÏģ":1437,"ÏįÎ¼":1438,"ÏĬÎ¿ÏģÏĢ":1439,"Î¥Î£":1440,"ÏĤÎ¿ÏĦ":1441,"ĠÎµÏĦÎ¿ÏĢ":1442,"Î½ÏīÏĨ":1443,"ÎŃÎ»Î²":1444,"ĠÏĤÎ¬":1445,"Î½Î±Î¼ÏģÎµ":1446,"ÎŁÎ¡":1447,"Î·Î¸Î±Îº":1448,"ĠâĢĿ":1449,"Î·Î¯Î¿ÏĢ":1450,"Î±ÏĢÎµ":1451,"ĠÎ»":1452,"Î½Î±Î¸":1453,"ĠÎ¹ÎµÎ½Î¯Î³":1454,"ÏĮÏĨ":1455,"ĠÎ½Î·Î¤":1456,"ĠÎ½ÏįÎ¿ÏĦ":1457,"ĠÏĮÏĦÏħÎĳ":1458,"ĠÎµÏĪ":1459,"ÎĳÎĻ":1460,"ÏįÎ»Î±Îº":1461,"ĠÎµÎ¼ÏįÎ¿":1462,"ĠÎ±Î´":1463,"ÏĮÎ»":1464,"Î½ÎŃÎ³":1465,"Î¹ÏģÎºÎµÎºÎ³ÏħÏĥ":1466,"Ġ&":1467,"ÏĤÎ¿Î»":1468,"ÏģÎµÏĢÏħ":1469,"ÏħÎ¿Î³":1470,"!!!":1471,"ÎĳÎ¤":1472,"ĠÎ½ÏħÎ¿ÏĩÏģÎ¬ÏĢÏħ":1473,"Î¹Î¿Î¼":1474,"sa":1475,"lo":1476,"Î¿ÏĢÎµ":1477,"ĠÏīÏĥÎŃÎ¼":1478,"ĠÎ±Î¼Î·ÏĦ":1479,"ret":1480,"ÂŃ":1481,"ÎĦ":1482,"Î®Î½":1483,"ÏĢÎ¬":1484,"Î·Î³":1485,"ĠÎ¿Î½":1486,"Î¹ÎµÏĥ":1487,"Î±Î¯Îµ":1488,"Î¿ÏĨÎ¿ÏģÎ·Î»ÏĢ":1489,"Î¿Î»Î¿":1490,"ĠÎ¹Î¿Ïģ":1491,"Î±Î¸":1492,"Ġ.)":1493,"Î·Î»Î¸":1494,"ÏĨÎ¿":1495,"ÏĢÎ±Î½Î±":1496,"ĠÏĤÏīÎŃ":1497,"ĠÎµÎ½Î¹":1498,"Âµ":1499,"ÏģÎ¹Î±ÏĦÎµ":1500,"ÏĢÎ¥":1501,"Î¹ÎµÎ»Îº":1502,"Î¿Î³Î±":1503,"á¼":1504,"ĠÎµÎ¼ÏħÎ¿ÏĩÎŃ":1505,"ÎķÎľ":1506,"Î³Î²":1507,"ĠÎ®ÎºÎ¹ÏĦÎ±Î¼":1508,"ÏĨÎµÎº":1509,"Î·Î¹Î¿ÏĢ":1510,"ĠÎ¿Î½ÎµÎ¼ÏĮ":1511,"Î³Î±ÏģÏĦ":1512,"Î½ÏĩÎ¹Î±ÏĢ":1513,"Ġ01":1514,"Ġno":1515,"Î¹Î»Î¿Îł":1516,"Î·ÏĦÎ±Îº":1517,"ÎºÎ³Îµ":1518,"Î½Î¿Î³":1519,"ÏĥÎµÎĺ":1520,"Î½Î±ÏĩÎ·Î¼":1521,"Î¯ÏĦÎ±Î¼":1522,"Î®Î¸Îĳ":1523,"ĠÏĤÎ±Î¹Îµ":1524,"ĠÎµÏĦÏįÎ¿":1525,"Î¹ÏģÎµÎł":1526,"ĠÎ®ÏīÎ¶":1527,"ÎºÏģÎ¬":1528,"Î¿ÏģÏĩ":1529,"ĠÎ¿ÏĢÎ±":1530,"ÏĦÎ½Î±":1531,"21":1532,"Î¬Î¸":1533,"ÎŃÏģÏĦ":1534,"ĠÏĮÎºÎ¹Î´":1535,"ÏįÎ¸ÏħÎµ":1536,"Î·Î»Î²":1537,"ÎºÏĬÎ±ÏĢÏīÏģ":1538,"be":1539,"ÏįÎļ":1540,"ÏģÎ±Î²":1541,"ÏģÏĮÏĨ":1542,"ĠÏĤÎŃÏģÎ¿ÏĨ":1543,"ÏĤÎ¹ÎµÏĥÎ®":1544,"ĠÎ¹Î±Ïĥ":1545,"Î±Î¯Ïĥ":1546,"ÏĤÎ¹ÎµÏĥ":1547,"ÏĮÏĦÏħÎ±":1548,"ĠÎ½ÏħÎ¿Ïĥ":1549,"ÏĩÏģÎŃ":1550,"ÎļÎķ":1551,"Î·Î½Î¯Îº":1552,"ĠÎ½ÏħÎ¿Î½Î¯":1553,"ĠÎ¹Ïģ":1554,"ÏģÎµÏĦÏįÎ»Î±Î³ÎµÎ¼":1555,"ĠÎ·ÏĥÏīÏģ":1556,"ÏĮÎ´":1557,"Î½ÏīÎ½Î¹Î¿ÎºÎ¹":1558,"ĠÏįÎ¿ÏĨÎ±":1559,"Î¿ÏĨÎ±Î¹Î´":1560,"ĠÏīÏĦÎ¬Îº":1561,"Î±Î´Î¬Î»Î»Îķ":1562,"ĠÎ½Î±ÏĩÎ¯Îµ":1563,"ĠÎ·ÏĥÎŃÎ¸":1564,"ĠÎ¿Î¹Î´":1565,"Î·ÏĨ":1566,"Î½Î¿ÏģÏĦ":1567,"Î¿Î¹Ïģ":1568,"Î³Î¬ÏģÏĢ":1569,"ÏĦÏĥÎ¹Î»":1570,"ĠÎ¹ÏĥÏĦÎŃ":1571,"Ġ000":1572,"ĠÏĤÎ±Î¯Ïģ":1573,"Î±Î¹Î´Î½Îµ":1574,"ÏĤÎ±Ïģ":1575,"ÏģÏĦÎ½Îµ":1576,"Î¹Î¿Î½":1577,"Î¸Î¬ÏĢ":1578,"Î¹Î»ÏĮ":1579,"Î»Î¬Î²":1580,"ÎºÎ±Î¼":1581,"ĠÎ¬ÎºÎ¹ÏĦÎ±Î¼":1582,"ĠÏĤÏįÎ¿Î¼":1583,"ÏģÎ±Ïĩ":1584,"Î³ÏħÏĥ":1585,"ĠÏĮÎ¼ÏĥÎ¹":1586,"Î±ÏĥÏĥÎµÎĺ":1587,"Î¿Î¹Î¾Î±":1588,"ĠÎ¹ÎµÎ¶":1589,"ĠÎ·Î»Î¬Î³ÎµÎ¼":1590,"Îī":1591,"ĠÎ¬ÏĦÏĥ":1592,"ĠÎµÏĦÏĮÏĦ":1593,"to":1594,"ÏĩÎĪ":1595,"ĠÎµÎ½":1596,"ÏģÎŃÎ¾":1597,"ĠÎ¿ÎŃÎ½":1598,"gol":1599,"ÏįÎ³":1600,"Î¿Î´Î¿":1601,"ĠÏĤÎµÎ¹Îµ":1602,"ÏĨÎ±ÏģÎ³Î¿ÏĦÏīÏĨ":1603,"ĠÏĤÎ¿Î½ÎŃÎ¼":1604,"Î³Î¿Î»ÎºÎµ":1605,"ĠÎµÏĥÏī":1606,"51":1607,"ÏģÎ®":1608,"ĠÏĤÎµÎ»ÏĮ":1609,"Î»Î»ÏħÏĥ":1610,"ĠÎ±ÏģÏİÏĦ":1611,"Î¿ÏĦÎ±Î¼Î³Î±ÏģÏĢ":1612,"Î¯ÏĢÏĥ":1613,"ÏĩÎŃÎ½ÏħÏĥ":1614,"Î´Î½Î±":1615,"hc":1616,"ĠÎ±ÏģÏİÏĩ":1617,"ĠÎ¬Î¹Î´Î¹Î±ÏĢ":1618,"Î¯Î»Î¿ÏĢ":1619,"ÎºÎ±Î¹Ïĥ":1620,"ÎµÏĦÏĥ":1621,"ĠÏİÎ´Îµ":1622,"ĠÏīÎ³ÏĮÎ»":1623,"ĠÎ±Î´Î¬Î¼Î¿":1624,"Î·Ïĩ":1625,"we":1626,"Î¯Î±Î¹Î´":1627,"ĠÎ½Î¹ÏģÎł":1628,"Î½Î¿Î³Îµ":1629,"Ġ.Â»":1630,"ĠÎ¬Î»Î»Î¿ÏĢ":1631,"ĠÏĤÎ·ÏĥÎ¯ÏĢÎµ":1632,"âĢĿ":1633,"ÏĢÎ¿ÏĦ":1634,"Î²Î¬Î»":1635,"ĠÎ®ÏĨÎ±ÏģÎ³":1636,"Î·Îº":1637,"Î½ÏįÎ¿":1638,"ÏĥÏħÎ¿Î¼":1639,"ÏĦÏĥÎ¹Î½Ïī":1640,"ÏĩÎ¿Î¹ÏģÎµÏĢ":1641,"ÏįÎ±":1642,"ÏīÏĥÏĮÏģÏĢ":1643,"Î¹ÎµÏģÏĩ":1644,"ÎķÎĶ":1645,"ÎµÎ¼Î¬":1646,"ĠÎ¹ÎµÏĥÎ¯":1647,"ÏİÎ½Î³":1648,"ĠÏħÎ¿Î¯ÏģÎ±":1649,"Î´Î±Î»":1650,"Î½Î¸Îķ":1651,"ÏģÎµÎº":1652,"ĠÎ¹Î±ÏĦÎµÎºÏĥÎ¯ÏģÎ²":1653,"Î¼Î¿Î½Ïħ":1654,"Î»Ïħ":1655,"Î¿Î´Î¿Î½":1656,"Ġ/":1657,"ĠÎ½ÏħÎ¿Î¶Î¯":1658,"Î½Î¿Î³ÎµÎ³":1659,"ĠÏİÏģÏħÎµ":1660,"ÏĢÎ¼ÏħÏĥ":1661,"Î¯ÎµÎ¸":1662,"ÎµÎ¼Î¹ÏĦÎ½Î±":1663,"ĠÎ±Î¼ÎŃÎ¸":1664,"ĠÎ½ÏįÎ¿ÏģÎ¿ÏĢÎ¼":1665,"ÎŁÎ¤":1666,"Î½ÏĢ":1667,"11":1668,"ĠÎ±ÏĦÎ½Î¬ÏĢ":1669,"ĠÎ±Î½ÏīÏĨÎ¼ÏįÏĥ":1670,"Î¨":1671,"....":1672,"ga":1673,"Î¾Îķ":1674,"Î·Î½Î¹Îº":1675,"Î»ÏħÎ¿Î²":1676,"ĠÎ¹Î¿ÏĢ":1677,"ĠÏĤÎŃÎ¼":1678,"ÏģÎµÏĦÏĥ":1679,"ÎµÎ»Î·ÏĦ":1680,"ht":1681,"ÎºÎ±Î»":1682,"Î½Î¿ÏĢ":1683,"ÏįÎ¿ÏĦÏĥ":1684,"8102":1685,"ĠÎ·ÏĥÏīÏĦÏĢ":1686,"Î²Î¬":1687,"ir":1688,"ĠÏĤÎ¹ÎµÏĪ":1689,"Î·Î¸Î±Î¼":1690,"Î²ÎŃ":1691,"Î±ÎºÎ¹Î´Î±Î¹Î´":1692,"Î¹ÏĥÏħÎ¿ÏģÎ±ÏĢ":1693,"ÏįÎ¿ÎºÎ±":1694,"ÎķÎ¤":1695,"Î½Î±Î³ÏģÎ¿":1696,"ĠÎŁÎ¤":1697,"Î½Î±ÎºÎ¹":1698,"ÎºÎ±Î¹Îµ":1699,"ÎºÎ¯Î´":1700,"ĠÎ¼":1701,"Î²Î±Î»":1702,"Î³Îķ":1703,"ÏĩÏĮÏĦÏĥ":1704,"ĠÎ½ÏīÎ¯":1705,"ÏĦÎ±Î¼":1706,"ÏģÎ²":1707,"Î·ÏĦÎºÎ±ÏģÎ±Ïĩ":1708,"Î»Î·ÏĪ":1709,"ĠÎ¿Î½ÎµÎ¼":1710,"ĠÎ±Î¼Î¼Î±ÏģÎ³":1711,"Î±Î£":1712,"ÏĤÎµÎ´":1713,"ÏģÎµÏĦÎ¯Î±Î¹Î´":1714,"ĠÏĮÏĦÏĥ":1715,"ÏīÏģÎµ":1716,"Ġi":1717,"ĠÏĤÏįÎ¿ÎºÎ¹":1718,"ĠÎ¹Î±ÏĦÎµÎ½Î¯Î³":1719,"Î±Î¹Ïģ":1720,"Î¯Î±ÏĢ":1721,"Ġla":1722,"ĠÎ±ÏģÎµÏĦÏĮ":1723,"ÎºÎ±Îľ":1724,"Ġse":1725,"ÏįÎµÏģ":1726,"Î¿ÏĢÎ¿ÏĦ":1727,"ĠÎ±Î¹Îľ":1728,"ÏĢÎ¯Îµ":1729,"Î¼Î¬ÏģÎ³":1730,"ĠÎ¹Î±ÏĦÎµÎ¶Î¬":1731,"Î·ÏĦÏģÎ¬":1732,"Î±Î½Î¿Î¼":1733,"ĠÏĤÏħÎ¿ÏĢ":1734,"ĠÏĤÎµÎ´":1735,"ÎµÎ»ÎŃÏĦÎ¿ÏĢÎ±":1736,"Î½ÏīÏĨÎ¼ÏħÏĥ":1737,"Î±ÏģÎ²":1738,"Î»Î±Îļ":1739,"Î±Î¹Îĵ":1740,"ĠÏĤÎ¿Îº":1741,"Î¬ÏģÏĦ":1742,"ĠÎ¿ÏĢÏĮÏģÏĦ":1743,"Î³Î³Î±":1744,"ĠÏĤÎµÏĦÎ·ÏĦÏĮ":1745,"Î¿Î´ÎµÎ´":1746,"ĠÏħÎ¿Î¯ÏģÎ²Î¼Îµ":1747,"ĠÏĤÎ¬Ïģ":1748,"Î¿Î»Îº":1749,"Î½ÎµÎ¸":1750,"ÏĥÎ¹Î±":1751,"ĠÎµÎ¼Î±Ïĥ":1752,"Î¿Î³Î·ÏĦÎ±Îº":1753,"ĠÏĤÎµÎ»":1754,"ÏħÎ¿Î¯":1755,"Î®Î½Î±":1756,"ĠÏĤÎ¹ÎµÏĥÎŃÎ¸":1757,"ÏİÏģÎ¸Î½Î±":1758,"Î»Î»Îĳ":1759,"Î®ÏĪ":1760,"Î³Î±Î»Î»Î±":1761,"ĠÏĤÎŃÏĦÏħÎ±":1762,"ÎµÎ¼ÏħÎ¿":1763,"ĠÎ¹Î±ÏĦÎµÎ¶Î¯":1764,"Î½Î±ÎºÎŃ":1765,"Î½ÎµÎĵ":1766,"ĠÎ¿Î¯ÎµÎ¼":1767,"ÎŃÏĦÎ¿ÏĢ":1768,"ÏĢÎ±Î¹Î´":1769,"ÎļÎŁ":1770,"ÎºÎ³Î¬Î½Î±":1771,"ĠÎ¯ÎµÏĦ":1772,"Î³ÏģÎµÎ½Îµ":1773,"ĠÎµÏĦÎ¿ÏĢÎ®Î´":1774,"Î¹Î±Î½":1775,"Î½Î¿Î»Î±ÏĥÏĥÎµÎĺ":1776,"ÏĥÏħ":1777,"ÏħÎ¿Î»Î¿ÎºÎ±":1778,"ĠÎ¿Î»ÏĮ":1779,"Î¼Î¹ÏĦ":1780,"Î³Î¿Î¼ÏģÎ±":1781,"ĠÏįÎ¿Î¼ÏĥÎ¹":1782,"Î½ÏĮÏĬÎ¿ÏģÏĢ":1783,"Î³Î¯":1784,"ĠÎ¿Î³Î¯Î»":1785,"ÎµÎº":1786,"ÏīÏĢ":1787,"Î¹Î±ÎºÎ¹Î´":1788,"Î¸Î·Î¿Î²":1789,"ĠÏĤÎ¹ÎµÏĥÎ®ÏĦ":1790,"ĠÎ¹ÎµÎ¶Î¯Ïģ":1791,"Î»Î±ÏĨÏĥÎ±":1792,"Î¹ÏĢÎ¼":1793,"Î½Î¹Ïģ":1794,"ÏĦÏĥÎ±Ïģ":1795,"ww":1796,"Î±Î²ÎŃ":1797,"Î³ÏīÎ³Î±ÏģÎ±ÏĢ":1798,"ÏīÎ¯":1799,"ĠÎ®ÎºÎ¹Î´":1800,"ÎķÎł":1801,"ĠÎ±Î½Ïİ":1802,"Î±ÏĦÏĥÎ¿ÏģÏĢ":1803,"Î³Î¿Î»Î¹ÏĢÎµ":1804,"Î¹ÏģÎºÎ±":1805,"ÎµÏģÏĩ":1806,"Î¯ÏģÏħÎº":1807,"ĠÎ®Î´Î¹Îµ":1808,"ĠÎµÏĥÎ·ÏĦ":1809,"ÏĢÏİÏģÏħÎķ":1810,"ĠÎ¹Î¿Î»ÏĮ":1811,"ÏĦÏĥÎ¹ÏĦ":1812,"Î´Î¯Î»ÎµÏĥ":1813,"Î¬Îľ":1814,"ÏģÎĳ":1815,"ĠÎ½ÏīÎµÏĥ":1816,"âĢĻ":1817,"ĠÎ±ÏģÎŃ":1818,"ÎºÎ¯Î½Î¿Î»Î±ÏĥÏĥÎµÎĺ":1819,"Î³ÏħÏĨ":1820,"ÏħÎµÎ»":1821,"Î·ÏĦÏĥÎ¹ÏĢÎµ":1822,"Î®ÏĨ":1823,"Î³ÏīÎ³Î±":1824,"ĠÎ½ÏįÎ¿Ïģ":1825,"Ġ02":1826,"Î±ÏĦÎ½Î±":1827,"ÏīÎº":1828,"ĠÎµÎ½Î¹Î³ÎŃ":1829,"Î½Î±Î¼ÏģÎµÎĵ":1830,"ĠÏĤÎ¿ÏģÎ´Îµ":1831,"Î¿Î´Î²Îµ":1832,"Î½Î±ÏĨÎ¼Îµ":1833,"Î¯ÏĢÎķ":1834,"Î½Î¬ÏĢÎ±":1835,"Î½Î¿ÏģÏĦÎºÎµÎ»Î·":1836,"Î¬Î»Îµ":1837,"ĠÎ±Î¹ÎµÎºÏģÎ¬":1838,"ĠÎ·ÏĥÎ·Ïģ":1839,"ÏģÎµÏĦÎ¯Î±Î¹Î´Î¹":1840,"ĠÎ±Î»Î»Î¬":1841,"Î»Îĳ":1842,"ÏİÏĥ":1843,"Î³Î¿Î»Î¿":1844,"ĠÎ¯Î¿ÎºÎ¹":1845,"Î½ÏīÎµ":1846,"ĠÏĤÎ¿Î¸":1847,"Î¿ÎºÎ¹ÎŁ":1848,"ÏīÎ»Î®Î´":1849,"ĠÏĤÏīÏĦ":1850,"ÎĲ":1851,"ÎŃÏĢÏħ":1852,"ĠÏĤÎµÎ¯Ïĥ":1853,"ĠÎ±Î½ÎĪ":1854,"ĠÎ¹Î»Î¬":1855,"ĠÎ¿Î¹Î´Î¯":1856,"ÏħÏĦÏĢ":1857,"Î½Î±Ïģ":1858,"ÎŃÎ´":1859,"ÏħÎµÎ´Î¹Î±ÏĢ":1860,"ĠÎ¹Î¿Î½ÎŃÎ¼":1861,"Î¹ÏģÎ®ÏĦÏĥ":1862,"ÏĥÎ¹ÏĦÎ±Î¼":1863,"ĠÎ·Î½ÎµÎ¼ÏĮ":1864,"Ġ8102":1865,"da":1866,"Î½ÏīÏĦÎ¬Î¼":1867,"Î·ÏĢ":1868,"ĠÎ¿Î»Î»Î¬":1869,"ĠÎ±ÏĥÏĮ":1870,"Ġk":1871,"ĠÎĳÎ¤":1872,"ÏįÏĩÏĥÎ¹":1873,"ĠÎ·Î´Î®":1874,"ĠÎ®Î¼Î³Î¹ÏĦÏĥ":1875,"ÎºÎ¯Î±Î½ÏħÎ³":1876,"Î³ÏģÏħÎ¿ÏĢ":1877,"Î®Î²":1878,"ĠÎ¹Î±ÏĦÎ¹ÎµÎº":1879,"ÎŃÎł":1880,"ÏĤÎµÎ¯":1881,"ÏģÎ±Î¼":1882,"Î¸Î¹ÏģÎ±":1883,"Î»Î¿ÏĦ":1884,"ĠÏĤÏĮÎ¼ÏĥÎ¹":1885,"ĠÎ½ÏįÎ¿Î»":1886,"ĠÎ·ÏĥÎ·Î½ÏģÎŃÎ²ÏħÎº":1887,"Î¬Î³":1888,"Î¬ÎºÎ¹ÏĦ":1889,"ĠÎµÎ¼ÏħÎ¿ÏĥÎ®":1890,"Î³Î·Î¿ÏģÏĢ":1891,"ÏĢÎ±Î³Î±":1892,"Î±Î½ÏįÎ´":1893,"ĠÎ·Î»Î»Î¬":1894,"Î·ÎºÏĥ":1895,"ĠÏĤÏħÎ¿Î»":1896,"Î¿Î¹Î²":1897,"ĠÏīÏĩÎŃ":1898,"ĠÎ·ÏĥÏīÏĦÏĢÎ¯ÏģÎµÏĢ":1899,"Î³ÏģÏħÎ¿ÏĢÎ¥":1900,"Ìģ":1901,"ĠÎº":1902,"ÎºÏģÏħÎ¿Î¤":1903,"el":1904,"Î¸ÏħÏģ":1905,"ĠÏĤÎ¿Î¯Î¿ÏĢÎ¿":1906,"ÏĤÎ±Î½":1907,"Î½Î¯Îº":1908,"ĠÎ½Î±ÏĦÎĮ":1909,"ĠÎ±Î¯Î±ÏĦÏħÎµÎ»ÎµÏĦ":1910,"Î³ÏģÎŃÎ½Îµ":1911,"ĠÎ·ÏĥÎ±ÏĦÏĥÎ¬ÏĦÎ±Îº":1912,"liam":1913,"ĠÎµÎºÎ·Î¸Î®":1914,"ĠÎ®Ïģ":1915,"ĠÎ®Î´Î±Î»":1916,"ÏħÎ±ÏĦ":1917,"Î¹ÎµÏĦ":1918,"Î½Î¯Î¿Îº":1919,"Î¹Î±ÏĢÎ±":1920,"ÎµÏģÎ¿ÏĨÎ±Î¹Î´":1921,"Î¹Î¾":1922,"vi":1923,"ÏħÏĦÏĢÎ¬Î½Î±":1924,"ÏģÏīÏĩ":1925,"ÎºÎµÎĶ":1926,"ÏĥÎ¹ÏģÎ¿":1927,"Î»Î¹ÏĨ":1928,"Î¹Î»Î»":1929,"ÏģÎ±Îľ":1930,"Ġ--":1931,"ÏĥÎ¬Î¹Î´":1932,"ĠÎ¹Î´Î¯":1933,"ĠÎ·ÏĥÎ®ÏģÏĩ":1934,"ĠÎ¿ÏĦÏİÏģÏĢ":1935,"ÏĢÎµÏģ":1936,"Î´ÏĮ":1937,"Ġ03":1938,"Î´ÎµÏĩÏĥ":1939,"Î½ÎŃÎº":1940,"ĠÏĤÏħÎ¿Î»ÏĮ":1941,"ĠÎ½ÏħÎ¿Î½Î¬Îº":1942,"ĠÏĤÏįÎ¿ÏĦ":1943,"Î´Î¯Î±ÏĢ":1944,"ÏĥÎµÎ¸":1945,"ÎĿÎĳ":1946,"ÏįÎ½":1947,"ÎµÏĦÎ½Î¯":1948,"ÏĦÎ±Î½ÏħÎ´":1949,"ĠÏĤÏħÎ¿Ïģ":1950,"ĠÎ¿Î¹Î»":1951,"á¿":1952,"ĠÏĤÎ¿Î»ÎŃÏĦ":1953,"Î±ÏĨÏĮÏĢÎ±":1954,"ĠÎ¯ÎµÎ»ÎµÏĦÎ¿ÏĢÎ±":1955,"Î³Î·ÏĢ":1956,"ÏĢÎ¿ÎºÏĥ":1957,"ĠÎµÎ½Î±ÎºÎŃ":1958,"Î¸Î±ÏĢ":1959,"hT":1960,"ĠÎ±Î¹ÎµÎºÏģÎ¬Î¹Î´":1961,"ÎºÎ±ÏĦ":1962,"Î»Î±Î½Î±":1963,"Î¿Î»Î±Îº":1964,"ÎŃÏĦÎ±Îº":1965,"ĠÏĤÏĮÏģ":1966,"ĠÎ®ÏĩÎ¿Î¹ÏģÎµÏĢ":1967,"ĠÎ½ÏīÎµÏĥÎ®":1968,"Î³ÎµÎ»ÎŃ":1969,"Î·Î½Î¼":1970,"de":1971,"ĠÏĤÏĮÎºÎ¹ÏĦ":1972,"ÏĢÎµÎ£":1973,"Ġá½":1974,"ÏĩÎµÏĦ":1975,"ÏĥÎ¿Îº":1976,"Î±Î¯ÏĥÏħÎ¿":1977,"Î¬Îł":1978,"Î¶Î±Î³ÏģÎµ":1979,"ĠÏĤÏĮÏĦÎºÎµ":1980,"ÏĢÎ¿Îº":1981,"Î±ÎºÎ¹":1982,"ÏĦÏĥÎ±ÏĦÎ±Îº":1983,"ĠÎ±Î¯ÏĥÏħÎ¿":1984,"ÎµÏģÎ¹Î±":1985,"Î¸Î¬ÏĢÏĥÎ¿ÏģÏĢ":1986,"ĠÎ±Î¼Î·ÏĦÏĥ":1987,"ĠÎ±Î¯ÏĥÎ±Î³ÏģÎµ":1988,"Î¿Î¹Î»":1989,"Î¬ÏĦÎµÎ¼":1990,"ĠÎ·ÏĥÎŃÏĩÏĥ":1991,"Î®ÏĦÏĥÎ¹ÏĢÎµ":1992,"Î®Î»Î²Î¿ÏģÏĢ":1993,"ÎºÎ¹Î»Î·":1994,"ÏĥÎ±Î»":1995,"ĠÎ£ÎŁ":1996,"Î¬ÏģÏĨ":1997,"ÏĩÎŃÎ´":1998,"Î²Î¹ÏģÎºÎ±":1999,"so":2000,"ÎŃÎ¸Î±Î¹Î´":2001,"ÏĩÎŃÏĦ":2002,"Ïĭ":2003,"Î¿ÏģÎµÎ±":2004,"ÏīÏģÎł":2005,"ÏĢÏĥ":2006,"ĠÎ¿Î»Î¬Î³ÎµÎ¼":2007,"Î¹Î¿ÏĢÎ¿":2008,"ĠÎ¯ÏĢÎµ":2009,"ÏĦÎ·Î¶":2010,"Î½Î¬Î³Ïģ":2011,"ÎŃÏģÎ±ÏĢ":2012,"ĠÏĤÎ¿ÏģÎŃÎ¼":2013,"ÏħÎµÎºÏĥÎ±ÏĦÎ±Îº":2014,"po":2015,"Î³ÏģÏİ":2016,"Î¿ÏĦÏīÏģÏĢ":2017,"ĠÎ¬ÎºÎ¹ÏĦÎµÏĩÏĥ":2018,"ru":2019,"ĠÏĤÎŃÎ»Î»Î¿ÏĢ":2020,"Î½Ïģ":2021,"ĠÎ®ÎºÎ¹ÏĦÎ¹Î»Î¿ÏĢ":2022,"Î¿ÏĦÎµÎ¼Î¼ÏħÏĥ":2023,"ĠÂ":2024,"Î²Î¼ÏħÎ£":2025,"ÏģÎµÏĦÏįÎµÎ´":2026,"ÏģÎŃÏĨÎ±Î½Î±":2027,"Î½Î±Î½ÎŃ":2028,"Î¶Î¤":2029,"ĠÎ±Î¹Î¿ÏĢÎ¬Îº":2030,"ĠÏĤÎµÎ¼":2031,"ĠÎ¿Î½ÏĮÏģÏĩ":2032,"koobe":2033,"ĠÎ±Î¯ÎµÏĩÎ¹Î¿ÏĦÏĥ":2034,"ÏħÏĩÏĥÎ¹":2035,"ĠÎ¯ÏĦÎ±Î¹Îĵ":2036,"Î³Î¿Î»Î¿Î½":2037,"tse":2038,"ĠÏĤÎµÎ½":2039,"ÏįÎµÎ´":2040,"ÎµÏĨ":2041,"ÎºÎ¹ÏĦÎ±Î¼Î³Î±ÏģÏĢ":2042,"ÎºÎŁ":2043,"Î¾Î¬":2044,"Î±Î²ÎµÎ²":2045,"ÎŃÎ¾Îµ":2046,"Î¹ÏģÎ·ÏĦÏĥ":2047,"ĠÎµÏģÎµÏĨ":2048,"ÏĦÏĥÎµ":2049,"ÏħÎ»Î¿ÏĢ":2050,"ÎĽÎŁ":2051,"Î±Î¹Î½ÏĮÏģÏĩ":2052,"Î®ÏĦÏħÎ±":2053,"ÎŃÏģÏĩ":2054,"ĠÎ¬Î½Î±":2055,"ÏĥÎ¹Ïĩ":2056,"ÎłÎķ":2057,"Î½Î±Î¸Î¹ÏĢ":2058,"Ġna":2059,"ĠÎ½ÏħÎ¿Î½Ïİ":2060,"Î½Î¹Î±ÏĦ":2061,"ĠÎ½ÏİÎ¼":2062,"ÏĥÎĻ":2063,"Î¹Î½Î¬":2064,"Î¿ÏĦÎ¬":2065,"ĠÎ¿Î¹Î¼":2066,"03":2067,"koobeca":2068,"ÎºÎ±Î¹ÏģÏħÎļ":2069,"Î½Î¹ÏģÎµÎ¼Î·Î¸Î±Îº":2070,"fo":2071,"Î¸ÏĨ":2072,"ri":2073,"ĠÏĤÎ¯ÎµÎ¼":2074,"Î¿Î½Î¹":2075,"ĠÎ¬ÎºÎ¹ÏĦÏĥ":2076,"Î¯ÎµÎ»":2077,"ÏĦÎ±":2078,"ÏĥÎ¯Î¼":2079,"Î¹Îĳ":2080,"ĠÏįÎ¿ÏĦ":2081,"Î¿Î»Î¹ÏĨ":2082,"Ġl":2083,"ÏģÎµÎ½":2084,"ĠÎ·ÏĥÎ¿Î´":2085,"ÏĩÎ¿Ïģ":2086,"ĠÎ¿ÏģÏİÏĩ":2087,"ÏİÏģÏħÎµ":2088,"ÎŃÎľ":2089,"Î½Î¹ÏĦ":2090,"ĠÎ¹Î±ÏĦÎµÎ½Ïİ":2091,"ĠÎ±ÏģÎŃÎ¼":2092,"ÏĨÎ·ÏĪ":2093,"ĠS":2094,"ĠÎ±ÏģÎŃÏĦ":2095,"71":2096,"Î¹Î±Îł":2097,"ĠÎ¹ÎµÏĦ":2098,"ÏĩÏħÏĪ":2099,"ĠÎ½ÏħÎ¿Î¶Î¬":2100,"Î¿Î´Î¿Î½ÎµÎ¾":2101,"41":2102,"ĠÏħÎ¿ÏĢÎ¯ÏģÎµÏĢ":2103,"ĠÎ¬Î»Î±Îº":2104,"Î£Îĳ":2105,"ĠÎĻÎĳÎļ":2106,"Î¬ÏģÎ²":2107,"Î»Î¿Îł":2108,"Î³ÎŃÎ»":2109,"ce":2110,"ÏħÎµÏģÎŃ":2111,"Î¯ÎµÎ»Îº":2112,"ĠÎµÏĢÎ¯Îµ":2113,"Î®ÎºÎ¹ÏĦ":2114,"ÏįÎµÎ»":2115,"Î³Î¿Î¼ÏģÎ±ÏĨÎµ":2116,"ĠÎ±ÎŃÎĿ":2117,"Î¯ÏĦÎ±ÏģÎº":2118,"ÏħÎĶ":2119,"ÏģÎ¿Î³Î±":2120,"Î½ÏħÎ¸ÏįÎµ":2121,"ÏĮÏģÎ±ÏĢ":2122,"Î»ÏĮÏĢ":2123,"Î»Î·ÏĪÏħ":2124,"ÏĤÎ¿Ïģ":2125,"ĠÎ¬Î¼":2126,"ĠÎĳÎĿ":2127,"ĠÏĤÎµÎ´Î¬":2128,"Î½ÎŃÎ³Î¿ÎºÎ¹Î¿":2129,"Î»Î¹Îµ":2130,"Î½Î¯Î¿ÎºÎ±Î½Î±":2131,"ÎŃÎĺ":2132,"Î¬Î´":2133,"Î³Î±ÏĢ":2134,"moc":2135,"ÎŃÎ¼Î¿ÏĦ":2136,"Î¹Î»ÏĮÏĩÏĥ":2137,"Î¿ÎºÏįÎµ":2138,"61":2139,"ÏĢÏİÏģÎ¸Î½Î±":2140,"Î´ÎŃ":2141,"Î¹ÎµÎ»ÏħÎ¿Î´":2142,"ĠÎ®Î´Î±Î»Î·Î´":2143,"ĠÎµÏĦÎµÏĥÎ®":2144,"ĠÎ¬ÏģÎ¿ÏĨÎ±":2145,"Î¹Î±Î»":2146,"Î¼Î¿Î½ÏħÏĦÏĥÎ±":2147,"Î±ÎĽ":2148,"ÏħÎ¿Î¯Ïģ":2149,"ÏĤÏĮÎ¼":2150,"ÏĨÎ¿ÏģÏĦ":2151,"Î»ÎµÎ²":2152,"ĠÏĤÏīÏĢÎĮ":2153,"ÏħÎ¿Î½Î±":2154,"ĠÏĤÎ¿Ïĩ":2155,"ĠÎµÎ¶":2156,"Î³Î·ÏĦ":2157,"Î±Î½ÎŃÎ¼":2158,"ĠÎ±Î½ÏīÏĨÎ¼ÏįÎ£":2159,"31":2160,"Î»Î»Îµ":2161,"ĠÎ¿Î´Î¿":2162,"ĠÎ±Î¼Î¼Î±ÏģÎ³ÏĮÏģÏĢ":2163,"Î®Ïĩ":2164,"ÏĥÏĮÎ´":2165,"ÏĦÏĥÎŃ":2166,"ÎºÏĥÎ¹ÏĢÎµ":2167,"Î´Î¬Î¼Î¿Î´Î²Îµ":2168,"52":2169,"ĠÎ¬ÏģÎ±ÏĢ":2170,"ÏģÎµÎ¼Îĳ":2171,"Î¹ÎµÎ¼Î·Ïĥ":2172,"Î¿ÏĦÎŃÏĦ":2173,"Ġrg":2174,"Î½ÏīÎ½Î¹Î¿ÎºÎ¹ÏĢÎµ":2175,"ĠÏĤÏīÎ¯ÏģÏħÎº":2176,"Î½Î±ÏĢÎµ":2177,"ĠÎ¯ÎµÎºÎµ":2178,"Î½Î¹ÎºÎµÎ¾":2179,"ÏħÎµÎ´Î¹Î±ÏĢÎºÎµ":2180,"ĠA":2181,"ĠÎ±Î¼ÏĥÎµÎ»ÎŃÏĦÎ¿ÏĢÎ±":2182,"ÏģÎ¹ÎµÏĩÎ¹ÏĢÎµ":2183,"ÏįÎµÎ»Îµ":2184,"Î²ÎµÎ¦":2185,"ÏĢÎ±ÏģÎµÎ¸":2186,"ĠÏħÎ¿Î½ÎŃÎ¼Î¹ÎµÎº":2187,"Î²Î±Î¹Î´":2188,"ĠÎŃÏĦÎ¿ÏĢ":2189,"ĠÎ®Î»Î¿Î²":2190,"Î¬ÏĨ":2191,"ÏĩÏħÏĦÎ¹ÏĢÎµ":2192,"ÏĤÎ±ÏĦÎ·ÏĦÏĮ":2193,"ÏģÎµÏĦÏĥÎ¹Ïģ":2194,"ĠÏĤÎµÎ»Î»Î¬":2195,"ĠÎ½ÏħÎ¿Î¶":2196,"ĠÏĢ":2197,"ĠÎ·ÏĦÎ£":2198,"ÏİÎ¹":2199,"tS":2200,"ĠÎ¿ÏģÎµÏĦÏĮ":2201,"ÎķÎĿ":2202,"42":2203,"ĠÎ¬Î¹Î»":2204,"ĠÎ¹Î±ÏĦÎµÎ¶":2205,"ĠÏĤÏĮÎ³ÏģÏħÎ¿ÏĢÏħ":2206,"Î·Î»Î²ÏĮÏģÏĢ":2207,"ĠÎ¹Î±ÏĦÎ½ÏįÎ¿":2208,"ĠÏĮÎºÎ¹ÏĦÎ±Î¼":2209,"ĠÎ·ÏĥÎ¬Î²":2210,"ĠÎ®ÎºÎ¹ÏĦÏĥ":2211,"ÏĤÎŃÏĦ":2212,"ÏįÎ»Î¿ÏĢ":2213,"Î¿ÎºÏĥÏįÎ´":2214,"Î¼Î¿Î½Î¿ÎºÎ¹ÎŁ":2215,"ÏģÎ¿ÏĢÎľ":2216,"ÏħÎµÎ»ÏħÎ¿Î²":2217,"ÏĤÎ±ÏĦ":2218,"ĠÎ¿Î¼ÏĥÏĮÎº":2219,"ĠÎ±Î¼Î³":2220,"ĠÎķÎľ":2221,"Î¯Î±Ïģ":2222,"Î¯Î±Î»ÏĢ":2223,"mi":2224,"ĠÎ·ÏĥÏīÎ»":2225,"nu":2226,"Î»Î±ÏĦ":2227,"ĠÎ±Î´Î¯Î»ÎµÏĥ":2228,"ÏĥÎ¿ÏĢ":2229,"Î±ÏĩÏģÎ±":2230,"ÏħÎ¿Î½Î±ÎĻ":2231,"Î¼ÏĮÎº":2232,"pa":2233,"Î¯ÎµÎº":2234,"Ġgni":2235,"ÎŃÎ¼Î·Î½Îµ":2236,"ÏħÎ½Î®Î¼":2237,"th":2238,"ĠÎ½Î¿Î»Î»":2239,"Î»ÎµÎ´":2240,"ĠÏħÎ¿Î¯Î»ÏħÎ¿":2241,"ĠÏĤÏİÏĢ":2242,"ÎµÎĵ":2243,"ĠÎ¿ÏģÎµÏĦÏĮÏĥÏĥÎ¹ÏģÎµÏĢ":2244,"Î¹Î¿ÏĢÎ¿ÏĦÎ±Î¼Î³Î±ÏģÏĢ":2245,"Î½ÏĮÏĦ":2246,"ĠÏĤÎ·ÏĥÏī":2247,"ĠÎ±Î¯ÏģÎ¿ÏĦÏĥÎ¹":2248,"Î¿Î»ÏĢ":2249,"ĠÎµÏĦÎ¯ÎµÎĶ":2250,"ÎŃÎºÏĥ":2251,"ĠÎ·ÏĥÎ·ÏĦÎ®Î¶":2252,"Î¬Î½ÏħÎ´":2253,"Î³Î¿Î»Î¿Ïģ":2254,"ÏĤÎ·Î»":2255,"Î¿Î»ÎºÏħÎº":2256,"ĠÎ¹ÏĦÎ½Î±Î½ÎŃ":2257,"ĠÎµÏģ":2258,"ĠÎºÎµ":2259,"ÏħÎ»ÎŁ":2260,"ÏĮÎ¼Î·Î´":2261,"Î½Î±Î´":2262,"ÏīÎ¹":2263,"ÎłÎĳ":2264,"ĠÎµÏĥÎ¹":2265,"ĠÏĤÎ¿Î´":2266,"ĠÎ½ÏīÎ»ÏĮ":2267,"Î´ÎµÏĢÎ¯ÏĢÎµ":2268,"Î»Î»ÎŃ":2269,"ÎºÏĬÎ±ÏĢÏīÏģÏħÎķ":2270,"ÏħÎ¿ÏģÎ²ÎµÎ¦":2271,"ÎĸÎĻÎ¡":2272,"ĠÎ¬ÏĦÎµÎľ":2273,"ÏģÎŃÏĩ":2274,"ÏģÎµÎ²ÏħÎº":2275,"ĠÎ±ÏĦÏĥÎ¹Î»":2276,"ÏħÎ»ÏĮ":2277,"Î¹ÏģÎµÏĢÎ¼ÏħÏĥ":2278,"Î±ÏģÏĮ":2279,"Î¹ÎµÎ³":2280,"Î¹Î¿ÏĦÎµ":2281,"Î£ÎĹ":2282,"ÏħÎµÎ»Îµ":2283,"mu":2284,"ĠÎ®Î´Î¹ÎµÏĢÎµ":2285,"ÏħÎµÏģ":2286,"ÏħÎµÎºÏĥÎ±ÏģÎ±Îł":2287,"Ġ,\"":2288,"Î¹Î±ÎºÏħÎµ":2289,"Î³ÏģÎ±":2290,"Î¾ÎŃÎ»":2291,"ÏĤÎ±Î¯Îµ":2292,"Î¿ÏģÏĢÎ¼":2293,"Î³ÏħÎĳ":2294,"ÏĥÎµÎ´":2295,"991":2296,"Î¿Î½Î¿":2297,"ÏĮÎºÎ¹Îµ":2298,"ÏħÏĪ":2299,"ÏģÏĦÎŃÎ¼":2300,"Î½Î·Î»Î»ÎĪ":2301,"ÏģÎµÎ¼Î·Î½Îµ":2302,"ÏīÎ¡":2303,"ÏįÎµÏĦÏĥÎ¹ÏĢ":2304,"ĠÏīÏĥÎ¯ÏĢ":2305,"ÏĩÎµÎ´":2306,"ÏģÎ±Îł":2307,"gi":2308,"ÎµÏĦÎ½Î¯Î²":2309,"Î»Î¯Îµ":2310,"ÎŃÏģÏĦÏĥ":2311,"ĠÎ¹ÎµÎŃÎ»":2312,"ÏĢÎ±Îł":2313,"edi":2314,"Î¬Î³ÎµÎ¼":2315,"ÏĥÏĮÎ¼":2316,"ĠÎĿÎ©":2317,"Î½Î¸ÎµÎ¹Î´":2318,"Ġ51":2319,"ĠÏĮÏĢÏħ":2320,"ÎµÎºÏģÎ±":2321,"Î±ÏĦÎ±Îļ":2322,"ĠÎ±Î¹ÎµÎ¸Î®":2323,"ĠÏĤÎµÏĦÏĥ":2324,"ĠÎ¹Î±ÏĦÎµÎ½Î¯Î±ÏĨ":2325,"Î¿Î¼Î¿Î½":2326,"nI":2327,"ÏĥÏİÎ»":2328,"Î¹ÏĦÎ±Î¼":2329,"Î³ÎµÎľ":2330,"Î¹ÏģÏīÏĩ":2331,"ĠÎ¿Ïĩ":2332,"Î¿Î¼Î¿":2333,"ĠÏĤÎµÎ¯Î¿ÏĢÎ¿":2334,"noi":2335,"ÏħÎ»Î¬":2336,"Î¶Î¹":2337,"Î¹ÎµÏĢÎ¼Îµ":2338,"ÎµÏĦÎµ":2339,"Î½ÏĩÎ¯ÎµÎ´":2340,"koobecaF":2341,"Î·Î»ÎºÏĥ":2342,"ÏĤÎ¬":2343,"Î£Îķ":2344,"ÏĤÏįÎ¿":2345,"ĠÎ¬ÏĦÎ½Î¿Îº":2346,"ÏīÏĦÎµÎ¼Î¹ÏĦÎ½Î±":2347,"Î½Î¿Î´Îµ":2348,"Î³ÏģÏİÎ¹Îĵ":2349,"ĠH":2350,"gni":2351,"ÏĦÏĥÎ¹ÏģÎ·ÏĦÎºÎ±ÏģÎ±Ïĩ":2352,"Î±Î²Î¼":2353,"ĠÎ¹ÎµÎ½Î¯Î±Î¼Î·Ïĥ":2354,"ĠÏĤÎµÎ¯ÏģÎ¿ÏĨÎ¿ÏģÎ·Î»ÏĢ":2355,"Î¹Î»Î¹Ïĩ":2356,"ÏģÏīÎµÎ¸":2357,"Î·Î¸Îĳ":2358,"Î¯Î»Î²Î¹Î²":2359,"Î¿ÏģÎŃÏĨ":2360,"ÏħÎµÎ»ÏĢ":2361,"Î¼ÏħÎ¸":2362,"Î¿ÏĢÎ¥":2363,"Î½Î±ÏĦÏĥ":2364,"Î¯ÏĥÎ¤":2365,"ĠÎ½ÏĮÏĢÎ¹Î¿Î»":2366,"ÏħÎŁ":2367,"ÎºÎ¹ÏĦÎ½Î±":2368,"ÏīÎ¹Î´Î¹":2369,"ĠÏĮÎºÎ¹ÏĦÏĥ":2370,"Î·Î»ÎºÎ¿Î»Î¿":2371,"Î¹Î»Î»Î±Îº":2372,"Î£ÎŁ":2373,"ÏĦÎ¯ÏĦ":2374,"Î±ÏĩÏħÎµ":2375,"Î»ÎµÎ³Î³Î±ÏĢÎµ":2376,"ĠÎµÎ¼ÏħÎ¿Ïĥ":2377,"ÏİÏģÏĩ":2378,"ÏģÎ·ÏĦ":2379,"ĠÎ±Î¼Î¿Î½":2380,"ĠÎ®ÏĢÎ¿ÏģÏĦ":2381,"ĠÏĤÎ¯ÎµÎ½Î±Îº":2382,"Î»Î¹Î¼":2383,"ĠÎ¹ÎµÎ¸":2384,"ÎĳÎĽ":2385,"ĠÎ¿ÏħÎ´":2386,"Î¹ÏĢÎ¼ÏħÎ»ÎŁ":2387,"ĠÎ·ÏĥÎ¹Ïģ":2388,"ĠÎ±Î½ÎµÎ¼":2389,"Î½Î¬ÏĨ":2390,"ĠÏħÎ¿Î½ÎŃÎ¼Î¹ÎµÎºÎ¿ÏģÏĢ":2391,"Î¹Î¿Îľ":2392,"Î½ÏĮÏĢ":2393,"Ġ21":2394,"ÎºÎ±Î¹":2395,"Î¯ÏģÎ¤":2396,"ĠÎ¹Î±Î½Î¹Îµ":2397,"ĠÏĤÏĮÏĦÏħÎ±":2398,"Î·ÎºÎ¹":2399,"ĠÎ¿Î¹ÏĥÎ¯Î±Î»ÏĢ":2400,"ĠÏĤÏİÎł":2401,"ÏģÎ¿ÏĦÏĥÎ¹":2402,"Î½ÏīÎ³":2403,"ÏħÎ¿Î²":2404,"Î¹Î±Î½Î¯Îµ":2405,"ĠÎ±Î¹ÎµÏĩÎŃÎ½ÏħÏĥ":2406,"ĠÏĤÏĮÎ½Î¿Î³ÎµÎ³":2407,"Î±ÏģÎŃÏĢ":2408,"Î¶Î¯ÏģÏīÎ½Î³":2409,"ÏħÎµÎ¹Î´":2410,"ĠÎ¹ÎµÎ½ÎŃÎ¼":2411,"Î·ÏĦÎº":2412,"Î¹Î¦":2413,"Ġni":2414,"Î¼Î¿ÏĦÎ±Îº":2415,"Î¿Î¹Î³":2416,"ÏĮÎºÎ¹ÏĦ":2417,"Î½Î¬Î¹Îĵ":2418,"ĠÎµÏĦÎ¯ÎµÏĦÏĥÎ±Ïģ":2419,"Î±Î§":2420,"ĠÎ®ÎºÎ¹Î½Î·Î»Î»Îµ":2421,"Î½Î¬Î¼":2422,"ĠÎ±Î¯ÏĦ":2423,"Î¿Î¯Îµ":2424,"Î¾ÏħÎ±":2425,"ÎĸÎĻÎ¡Î¥Î£":2426,"ĠÎ·ÏĥÎ±ÏĨÏĮÏĢÎ±":2427,"Î²Î¼ÎµÏĦ":2428,"ÏĤÎ¯Îµ":2429,"ĠÎ¹Î±ÏĦÎµÏĩÏģÎŃ":2430,"Î³Î¿Î»Î¿ÏĢÏħ":2431,"ĠÎ±ÏĥÎµÎ¼":2432,"Î®Î¼ÏĦ":2433,"ÏħÏģÎ¿Îº":2434,"ĠÏĤÎ±Î¯ÏĥÎ±Î³ÏģÎµ":2435,"Î¬ÏģÎ¿Î³Î±":2436,"ÎµÎ¸Î¿ÏĢÎ¿ÏĦ":2437,"ÏĤÎ·Î½":2438,"Î²Î¼ÎµÏĦÏĢÎµÎ£":2439,"ĠÎµÏĦÏĥÎ±Î¼ÏĮ":2440,"ÏĩÎ¬Î¼":2441,"ÏĦÎº":2442,"Î¡Îķ":2443,"7102":2444,"Ġ(":2445,"swe":2446,"ĠÎ±ÏĦÎ·ÏĦ":2447,"ÏħÎµÎĶ":2448,"Î¹ÏĦÎ¬Î¼":2449,"ÏģÎµÏĦÏīÎ¾Îµ":2450,"ĠÎĳÎł":2451,"Î¿ÎºÏĥÎ¯ÏģÎ²":2452,"ÎºÎ¹Îµ":2453,"Î´Î½Î¬":2454,"ĠÎ½ÏħÎ¿ÏĥÏİ":2455,"Î±ÎºÎµÎ´":2456,"ĠÎ¬Î½":2457,"ĠÎ½ÏīÎ¼":2458,"ĠÏīÏģ":2459,"Î¹ÏģÏħÎº":2460,"ÏįÎ¿Î³Î·Î¿ÏģÏĢ":2461,"ĠÏĤÎ·Î´":2462,"Î¬Î»ÏħÎ¿ÏĦ":2463,"ĠÏĤÏįÎ¿ÎºÎ¹ÏĦ":2464,"ĠÎ®Î»Î¿ÏĦÏĥ":2465,"Î¿ÎºÎ¿Ïĥ":2466,"ÏħÎ¿ÏĢÎ¼":2467,"ÏİÎ´Îµ":2468,"ÏģÎ±Î½Î±":2469,"ÏīÎ¸":2470,"ÏĥÎ±Î¹Î´":2471,"ÏĤÎ¿Î½":2472,"ĠÎ¹Îļ":2473,"ĠÎµÏĦÎ¯ÎµÏģÎ¿ÏĢÎ¼":2474,"Î³ÎŃÎ»Îµ":2475,"ÎºÎ¬Ïģ":2476,"ĠÎ¹ÏĦÎ¯ÏĢÏĥ":2477,"ÏĭÎ¿ÏģÏĢ":2478,"ÎºÎ¬ÏĦ":2479,"ĠÎµÏĦÎµÏĩÎŃ":2480,"Î¬Î»ÏĢ":2481,"ÎºÎ¯Î½":2482,"ÎºÎ±Î½Î±":2483,"ÏħÎ¿Î»Î¿Îº":2484,"ÏģÏįÎ¿":2485,"ÎŃÎ´Î¹":2486,"Ĥ¬":2487,"Î¿ÏĢÎ¯ÏĦ":2488,"ĠÏĤÎ¿ÏģÎ´ÎµÏĮÏģÏĢ":2489,"ĠÎ½ÏħÎ¿Î½":2490,"ĠÎ·ÏĥÎ·Î¸":2491,"me":2492,"ÏĤÎµÎ¯Ïģ":2493,"ĠÎ®ÏĦÏĥ":2494,"ĠÎ±Î¹ÏĦÎ¬Î¼":2495,"ĠÏĤÎ¹":2496,"ÏĥÎ¿ÏģÎł":2497,"ĠÏĤÎ¹ÎµÏģÏĦ":2498,"Î³ÏįÏĥ":2499,"Î¿ÏĥÎ¿ÏĢ":2500,"Î¿ÏģÎµÏĦÏĮ":2501,"ÏĢÎ¯ÏĥÎ¤":2502,"Î¿Î½Î¹Î¿Îº":2503,"golB":2504,"ĠÏİÎ³Îµ":2505,"Î¶Î¹Ïģ":2506,"wo":2507,"ĠÎ±Î¹Î»ÏĮ":2508,"ÏħÎµÏģÎµ":2509,"ĠÏįÎ¿Îº":2510,"ÏĮÎ»Î¿":2511,"ĠÎ®ÏĦÏħÎĳ":2512,"Î¿Î¹ÏĥÎ¿Î¼Î·Î´":2513,"ÏīÎ¹ÏĦ":2514,"ĠÏĤÎ¿ÏĨ":2515,"Î·ÏĦÎ¹":2516,"Î½ÏĩÏħÏĥ":2517,"Î±Î½Ïİ":2518,"ÏħÎ¿Îļ":2519,"ĠÎ±Î¼Î·ÏĦÏĥÏįÏĥ":2520,"ÎĿÎĻ":2521,"12":2522,"Î»Î®":2523,"Î½Î¬ÏĦ":2524,"ÏĤÎ±Î¯Ïģ":2525,"Î¯ÏĥÎ¿Î¼Î·Î´":2526,"Î¬ÏģÎ±Îł":2527,"ĠO":2528,"ĠÏĤÎµÎ½ÏĮ":2529,"ĠÏĤÎ·ÏĥÎ·":2530,"ĠÎ¿Î³ÏĮÎ»":2531,"Î±Î²Î¼ÏħÏĥ":2532,"ÎºÎ¹ÎµÎ´":2533,"Î»Î¿Î½ÏħÏĥ":2534,"Î·ÏĦÎ®Î¶":2535,"ĠÎĦ":2536,"ĠÎ±ÏĥÏħÎ¿":2537,"ĠÎ®Î»Î±Îº":2538,"ĠÎ¬ÏģÎ¹ÎµÏĥ":2539,"ĠÎ¿Î³ÏģÎŃ":2540,"ĠÎ±Î½ÎµÎ¼ÏĮ":2541,"ĠâĢ¢":2542,"Î½Î¿Î´ÎµÎºÎ±Îľ":2543,"Î±ÎĴ":2544,"Î·Îľ":2545,"ĠÎµÎºÎ·Î¸Î®ÏĦ":2546,"ÏĤÎ®ÎºÎ¹":2547,"Î³Î¹Î»":2548,"Î»Î¿ÏĩÎ£":2549,"ÏĤÏīÎ¼ÏĮ":2550,"ÏĮÎ¼ÏģÎ±":2551,"ĠÎ½ÏħÎ¿ÏĦ":2552,"Ġ*":2553,"ĠÏĤÎ¹Î»":2554,"ÏīÎ¼":2555,"ki":2556,"ĠÎ·ÏĥÏīÎ»Î®Î´":2557,"ÏħÎ¿ÏĢÏĮ":2558,"ÏģÎµÏĦÏĮÏģ":2559,"Î·Î¼Î±Ïĩ":2560,"Î¬Ïĩ":2561,"ĠÎ½ÏİÎ¹":2562,"ĠÎ®Î½":2563,"ĠÏĤÎµÏģÎµÏĦÏĮ":2564,"ÏĥÎ±Î¹ÏģÎ±":2565,"ÏĢÎ¬Î³Î±":2566,"Î½ÎµÎ¾":2567,"ĠÎ¹ÎµÎ»ÎŃÎ¸":2568,"ÏįÎ¿Î¼ÏĥÎ¹":2569,"ÏĥÎŃÎ»ÎµÏĦÎ¿ÏĢÎ±":2570,"ĠÎ¿Ïĥ":2571,"nil":2572,"ĠÎ½ÏİÎ¹Ïĥ":2573,"ĠÎ®ÎºÎ¹ÏĩÏģÎĳ":2574,"ÏĤÎ±Î¯Ïĥ":2575,"ÎŃÎº":2576,"ĠÎ¹ÎµÎ½Î¬Î²Î¼Î±Î»":2577,"Î³ÏģÎķ":2578,"ÎµÏģÏĩÎ¿ÏĢÏħ":2579,"ÎŃÏģÎ¿ÏĨ":2580,"ĠÎ¹Î¿ÏĢÏīÏģÎ¸Î½Î¬":2581,"ÎµÎºÏĥ":2582,"ÏģÎµÎ¼Î·ÏĨÎµ":2583,"Î±ÏģÎµÎ¼Î®Ïĥ":2584,"Î¯Î±ÏĨ":2585,"ÎĽÎĳ":2586,"ĠÎ¹ÏĦÎ¿":2587,"Î¹Î¼Î¸":2588,"ĠÎµÏĦÏĥÎ±Î¼Î¯Îµ":2589,"ĠÎ½Î¿ÏĦÏĥÎ¹Ïĩ":2590,"Î½Î±ÏĦÏĥÎ½Ïī":2591,"Î¹ÎĽ":2592,"ĠÎ·Î»ÎŃÎ¼":2593,"Î±Î¤":2594,"ĠÎ±Î¹ÏģÎ¬":2595,"Î»Î»Î¬Î²Î¹ÏģÎµÏĢ":2596,"ÎºÎµÎ»":2597,"Î´ÏħÎ¿ÏĢ":2598,"ĠÎ¹Î»Î¬ÏĢ":2599,"Î±ÏĦÎ£":2600,"Î¿Î¼ÏĥÏĮÎº":2601,"ĠÏĤÎµÏģÏİ":2602,"ÏĤÎ¹ÎµÏĥÏİ":2603,"ÎĬ":2604,"ÏĨÏħ":2605,"Î±Î½ÎŃ":2606,"ĠÎ±ÏĦÎ·ÏĦÏĮÏĦÎ±Î½ÏħÎ´":2607,"Î³Î¿Î»Î¿Î¹":2608,"Î±ÏĦÏĥÎ¹":2609,"ÏīÎ´ÎŃ":2610,"co":2611,"ĠÎ¹Î±Î¼Î¯Îµ":2612,"ÎµÎ¾Îµ":2613,"ÎµÏģÎ²":2614,"ÏħÎµÏĦÏĥ":2615,"Î¿Î½ÏįÏĥ":2616,"ÏĦÏĥÎ¹Î½ÏīÎ³Î±":2617,"ĠÎ¬Î»ÏĢÎ±":2618,"Î¸Îµ":2619,"Î¹ÏĦÎ½Îĳ":2620,"Î¹ÎºÎ¿Î´":2621,"ĠÎµÎºÎ·Î¸Ïİ":2622,"ĠÏĤÎ¹ÎµÏĩÎŃ":2623,"Î®ÏĦÏĥÏħÏĥ":2624,"Î¹Î»Îº":2625,"ĠÎ½ÏīÎ¯Îµ":2626,"ĠÏĤÎ¹Î»ÏĮÎ¼":2627,"ĠÏįÎ¿ÏĦÏħÎ±":2628,"ÎºÎ¹Î¿":2629,"ĠÎ±ÏĦÎ±Î¼ÎŃÎ¸":2630,"ĠÎ½ÏħÎ¿Î¾":2631,"ĠÏĤÎ¹ÏĦÎ£":2632,"ĠÏĮÎ»Î±Îº":2633,"ĠÎ±Ïĩ":2634,"Î»ÏħÎ¿ÎĴ":2635,"ĠÎµÏĦÎµÏĥ":2636,"ĠÏĤÎ®Ïĩ":2637,"Î½ÎŃÎļ":2638,"ĠÎ¬Î»Î»Îĳ":2639,"ĠÎ·Î¸":2640,"ĠÎ·ÏĥÎ±Î²":2641,"ÏīÏĦÎºÎŁ":2642,"ĠÎ¹Î¿Î¼":2643,"ĠÏĤÎ·Î¼":2644,"ĠÎµÏĦÎ¯ÎµÏĦÏĥÎ±ÏģÎ¹Î¿Îľ":2645,"Î±ÏģÎĵ":2646,"ÏĨÎ®ÏĪ":2647,"ÏĥÎ±ÎĴ":2648,"ĠÎ±ÏĦÎ±Î¼Î³Î¬ÏģÏĢ":2649,"pu":2650,"ÏħÎ»Î³":2651,"Î¥Îķ":2652,"Î»ÎµÎ¸Î®":2653,"Î¯Î±Îº":2654,"ĠÏĤÎµÎ¸":2655,"ÎºÎ±Îº":2656,"ai":2657,"ĠÎ±ÏĦÏĥÎ¹Î»Î¬Î¼":2658,"ÏģÎµÏĦÏīÏĥÎµ":2659,"Î·Î»Î¸Î±":2660,"ĠÏħÎ¿Îº":2661,"ÏħÎµÎ´Î¯Î±ÏĢ":2662,"Î¿Î½Îµ":2663,"ĠÎ£Îķ":2664,"ĠÎ¹ÏģÎ¬":2665,"Î¬ÏģÎ¿ÏĨ":2666,"Î¼Î¬ÏģÎ³Î¿ÏģÏĢ":2667,"ĠÏīÏģÏįÎ³":2668,"ÏĥÏħÎ¿Îľ":2669,"ĠÏħÎ¿Î¯ÏģÎ²Î¼ÎµÎºÎµÎĶ":2670,"Î´Î±":2671,"su":2672,"ĠÏĤÎ·Î½ÎŃÎ¼":2673,"ĠÎ±Î¼ÏħÎ½Î®Î¼":2674,"Î±Î²ÎŃÎ²":2675,"ĠÎ£ÎĹ":2676,"05":2677,"bu":2678,"ĠÎĶ":2679,"Î¬ÏĢÎ¼":2680,"Î¿ÏģÎµÎ¼":2681,"ĠÏħÎ¿Î¯ÏĦ":2682,"ÏģÎµÎ¹":2683,"Î¹ÏģÎ§":2684,"Î¿Î¹ÎĶ":2685,"ĠÎ®ÏĨÎ¿ÏģÏĦÏĥ":2686,"ĠÎ½ÏĮÎ´ÎµÏĩÏĥ":2687,"Î¸Ïģ":2688,"Î½ÎµÏĢÎµ":2689,"ĠÎ¯Î¿ÎºÎ¹ÏĦ":2690,"Î®Î»Îº":2691,"Î½ÏİÎºÎ¹":2692,"ĠÏĤÏīÏĥÎ¯":2693,"Î¯Î³":2694,"Î±Î¯ÏĥÏħÎ¿ÏģÎ±ÏĢ":2695,"ÎµÏģÎ¹Î±Î¾Îµ":2696,"ÎŃÏģÎ²":2697,"ĠÎ½Î¿Î¹":2698,"ÎºÎµÎ½":2699,"ÏĩÏĮÏĦ":2700,"Î¸Î±ÏĦÏĥ":2701,"ÏĥÎ±Î¹ÏģÎ±Î³Î¿Î»":2702,"ÏİÎ½":2703,"ÎŃÎ»ÎµÎ¼":2704,"tne":2705,"ÏħÎ¿Î³Î¯Ïĥ":2706,"ĠÏĤÏįÎ¿ÏĦÏħÎ±":2707,"ÏįÎµÎ¹ÏĥÎ¿Î¼Î·Î´":2708,"Î®ÏģÎ³":2709,"ÎºÎ³Î±ÏĢ":2710,"Î½Î¹ÏģÎµÎ¼Î·Ïĥ":2711,"ĠÎ±ÏģÎµÏĦÎ¯Î±Î¹Î´Î¹":2712,"ĠÎ¹ÎµÎ³":2713,"ĠÎĳÎĻÎĵ":2714,"Î¯Î²":2715,"Î¬Î¹ÏĦ":2716,"ĠÎ¯Î¿Î¼":2717,"Î¸ÏīÏģÏĢ":2718,"Î¯ÎĿ":2719,"ĠÎ±Î¹ÏģÎ®ÏĦ":2720,"ĠÎ±Î»ÎĮ":2721,"Î¯Î»Îµ":2722,"Î¯ÎµÏĢ":2723,"ĠÎµÏĥÎ·":2724,"ĠÎ½Î·ÏİÏģÏĢ":2725,"ÎµÎ½Î±":2726,"ÏĥÎ¹ÏĢ":2727,"ĠÎ¿Î´":2728,"Î´Î¹Îķ":2729,"ÏįÎ¿Î»Î±Îº":2730,"Î¿ÏĦÏĥÎĻ":2731,"Ġel":2732,"ĠÎµÏĦÏĥÎ®":2733,"ĠÎ·ÏĥÎ·Î³":2734,"Î·ÏģÎ¹ÎµÏĩÎ¹ÏĢÎµ":2735,"Î¿ÏĩÏĥ":2736,"hC":2737,"Î¹Î´Î¹Î±ÏĢ":2738,"ĠÏĤÏħÎ¿Î½ÎŃÎ¼":2739,"ĠÏīÎ¶Î¯":2740,"ÏĩÏģÎ¬ÏĢÎ¥":2741,"ÏħÎ´Î½ÏħÏĥ":2742,"ÏīÎĻ":2743,"ĠÏĤÎ¿Î¹Î¿ÏĢ":2744,"Î³Î¿Î»Î»ÏħÏĥ":2745,"al":2746,"pt":2747,"Î·Î»ÎºÏĮÎ»Î¿":2748,"ÏĦÏĥÏī":2749,"ÎĿÎŁ":2750,"ĠÏĤÎ¹ÎµÏĥÏİÎ»Î·Î´":2751,"Î¹ÎµÎ»ÎºÎ¿ÏĢÎ±":2752,"ĠÏĤÎ±Î¯Î»":2753,"ĠÎ±Î¼Î·Î»Î²ÏĮÏģÏĢ":2754,"ÏĥÏįÎ¿":2755,"ĠÏħÎ¿Î¯ÏģÎ²Î¼ÎµÏĦÏĢÎµÎ£":2756,"ĠÎ±Î¯ÏĥÎ±ÎºÎ¹Î´Î±Î¹Î´":2757,"Î¯Î±ÏģÎ±ÏĢÎ±":2758,"Î¿Î¹Î´Î¹":2759,"ĠÎµÏĦÏĥÎ¬Î²":2760,"Î¹Î»Î¬":2761,"ĠÎ¤":2762,"ÏĥÏİÎ»Î³":2763,"ĠÎ½Î®ÏĦÏħÎ±":2764,"ĠÎ¹Î±ÏĦÎ¹ÎµÎºÏĮÏģÏĢ":2765,"ÏħÏĦÎºÎ¯Î´":2766,"tiw":2767,"Î³Î±Îł":2768,"tu":2769,"ĠÎ±Î½ÏİÎ³Î±":2770,"ĠÎ®ÎºÎ¹Î¼":2771,"ÎºÎ±ÏģÏĢ":2772,"ÏħÎ»ÏĮÏĢÎ±":2773,"ĠÏĤÎµÎ½Î·Î»Î»ÎĪ":2774,"ĠÏīÎ½Î¬":2775,"ĠÎ¹Î´":2776,"ĠÏĤÎµÎ½Î®Î¼":2777,"Î»ÎµÎ¤":2778,"Ġ7102":2779,"ĠÎ±ÏģÎµÏĦÏĮÏĥÏĥÎ¹ÏģÎµÏĢ":2780,"ÏĨÏģÎ¿Î¼ÏĮ":2781,"Î¾Î¿Î´":2782,"ĠÏĤÎ¹ÎµÏĥÎ¬ÏĦ":2783,"ÎºÎ®Î¸Î½ÏħÏĥ":2784,"ĠÏĤÎµÏģÎŃÎ¼":2785,"âĢĺ":2786,"Î·Î£":2787,"ĠÎ¿Î¹ÏģÎ®ÏĦ":2788,"Î®ÏĦÎºÎ±ÏģÎ±Ïĩ":2789,"Î½ÏħÎ¿ÎĻ":2790,"ĠÎ±ÏĦÎ±Î¼Î®Î»Î²Î¿ÏģÏĢ":2791,"ĠÎ½Î¬Îµ":2792,"Î±ÎºÎŃ":2793,"ÏģÏĦÎ½ÎµÎº":2794,"ĠÎ¿Î¼Î¹Ïĥ":2795,"ĠÏħÎ¿Î¯ÏģÎ±ÏħÎ¿Î½Î±ÎĻ":2796,"ĠÏĤÎ®ÏīÎ¶":2797,"ÏĥÎ±Î´":2798,"Î±Î¸Î±Îº":2799,"Î¿Î½Î¹Î¿Îļ":2800,"ÏĤÎ±Î¹Îµ":2801,"Î½ÎŃÏĢ":2802,"ĠÏĤÏħÎ¿Î¼":2803,"Î·ÏĢÎ±Î³Î±":2804,"ÎµÎ½Î¬":2805,"Î·ÏĩÏĥ":2806,"Î³Î¿Î»Î¿Î½ÏĩÎµÏĦ":2807,"ĠÏħÎ¿Î¯ÏģÎ±ÏħÎ¿ÏģÎ²ÎµÎ¦":2808,"Î½Î±ÏĦÏĥÎ½ÏīÎļ":2809,"Î±Î»Îµ":2810,"ĠÎµÎºÎ·ÏĦÏĥ":2811,"Î¹Î±ÏĨ":2812,"Î¸Î¬":2813,"ĠÎ¹Î±ÏĦÎ½Î¿Î¶Î¯":2814,"ĠÏĤÏİÎ²Î¹ÏģÎºÎ±":2815,"ĠÎ½Î¿ÏĥÏĮ":2816,"ĠÎ¹Î±ÏĥÎ¯Îµ":2817,"ÎºÎ¹Î´Î¹Îµ":2818,"ĠÏĤÎ·ÏĪ":2819,"ĠÎ±ÏĢ":2820,"ĠÎ¯ÎµÎ¸Ïī":2821,"Î±ÏĦÎµÎľ":2822,"Î³ÏģÏī":2823,"ĠÎ¹Î±ÏĦÎµÎ½":2824,"22":2825,"ĠÎ¹ÎµÏĥÏİÎ´":2826,"ÎµÏģÎº":2827,"ĠÎ·Î½ÎµÎ¼":2828,"ĠÎ±ÏĥÎµÎ¼Î¬Î½Î±":2829,"ĠÎ¯ÎµÏĦÏĥ":2830,"Î½ÎĨ":2831,"ĠÎ±Î¹ÎµÎ»":2832,"ĠÎ±ÏĦÎ±Î¼Ïİ":2833,"Î½Î±Î²":2834,"ĠÎ·Î»ÏĮÏĢ":2835,"ĠÏįÎ¿Ïģ":2836,"ÏĩÏģÎ±Î¼":2837,"Ġ11":2838,"ĠÏīÏĢ":2839,"Î¹ÏģÎ·ÏĦÏĥÎ±ÏģÎ´":2840,"ĠÎ¬ÎºÎ¹Î»ÎµÏĦ":2841,"Î²Î¬Î£":2842,"Ġh":2843,"Ġle":2844,"Ġliam":2845,"ĠÎ½Î±ÎºÎ·ÏĦ":2846,"ÏĩÎµÎ¹ÏģÎµÏĢ":2847,"ĠÎ±ÏĦÎ£":2848,"ÏĩÏĥÎ±":2849,"Ġ..":2850,"ĠÎ½ÏħÎ¿ÏĪ":2851,"ÎŃÎ¤":2852,"ÎŃÏĢÎµ":2853,"Î»Î¬ÏĨÏĥÎ±":2854,"Î¾ÎµÎ½Î±":2855,"ÏĮÏĦÏĥ":2856,"ÎµÏĦÎ¿ÏĢÎ±":2857,"ĠÏĤÎ¿ÏģÎ¬Î²":2858,"ÏĥÏĮÎºÎ³Î±ÏĢ":2859,"ĠÎ¬ÏĦÏĥÎ¿ÏģÏĢÎ¼":2860,"Î¸Î®Î½ÏħÏĥ":2861,"ĠÏĤÏįÎ¿Î½":2862,"ÏħÏĩÎ±ÏĦ":2863,"ĠÎ½Î±Î¾":2864,"Ġ05":2865,"ĠÎ¿ÏģÎ¸ÏģÎ¬":2866,"Î·ÏĦÏĥÎ¿ÏĢÏħ":2867,"ĠÎµÏĥÏįÎ¿ÏģÎ¿ÏĢÎ¼":2868,"ar":2869,"ĠÎ¹Î±ÏĦÎµÎ¶Î¯Ïģ":2870,"Î¿Î½Î±ÎºÎ¹":2871,"ÎŃÎ»Î²Î¿ÏģÏĢ":2872,"Î¿ÏĥÏĮ":2873,"Î·Î½Î¯ÎºÎµÎ¾":2874,"ĠÎ½ÏīÎ¯Ïģ":2875,"Î¿Î¹Îµ":2876,"ÏįÎ¿Î»ÏĢ":2877,"ĠÏīÏĥÎ®":2878,"ĠÎ¿Î¹Î´ÎŃÏĩÏĥ":2879,"ÎĻÎ¤":2880,"ĠÎ¿Î¯ÎµÎ¼Î·Ïĥ":2881,"ÏģÏĮÏĢ":2882,"ĠÏĤÎ±Îº":2883,"ĠÎ½ÏĮÏĦÏħÎ±":2884,"Î¿ÏĦÎ±Î¼Î·ÏģÏĩ":2885,"ps":2886,"ÏĦÎµÎ¤":2887,"ĠÎ®ÏĩÎ¿ÏĦÎµÎ¼Î¼ÏħÏĥ":2888,"ĠÎĻÎŁ":2889,"ĠÎ¹Î´Î¯Î½ÏĩÎ¹Î±ÏĢ":2890,"ĠÎ·ÏĥÎ·Î¾":2891,"ÎĿÎķ":2892,"nA":2893,"ĠÎ¹Î¿ÏĦ":2894,"ÏĦÎĳ":2895,"32":2896,"ĠÎ¹Î¿ÏģÎĮ":2897,"ÏħÏģÎº":2898,"ÏįÎ¿Î²":2899,"ĠÎ£ÎĹÎ¤":2900,"ĠÎ¹ÎµÎ½Î¯Î´":2901,"ĠÎ±Î¯Î¼Î±Îº":2902,"ÏĨÎ¿ÏģÏĦÏĥ":2903,"ĠÎ¹Î±ÏĦÎ½Î¿ÎºÏĥÎ¯ÏģÎ²":2904,"ĠÎºÎ¹":2905,"ÏĦÏĥÎĳ":2906,"ĠÏĤÎ¹ÎµÏĥÏİÏĦÏĢ":2907,"ĠÏĮÎºÎ¹Î¼":2908,"ĠÎ¯Î¿ÏĦÏħÎ±":2909,"Î±Î½Î¬Î¸":2910,"Î¯Î¿":2911,"ĠÏĤÎ¿Î¹Î¿ÏĢÎ¬Îº":2912,"Ġ,.":2913,"ÎºÏĬÎ±ÏĢÏīÏģÏħÎµ":2914,"ÏģÎµÎ¸ÏįÎµÎ»Îµ":2915,"Î±ÏģÎºÎ¿Î¼":2916,"Î¹ÎµÎ´Î¬ÏģÎ±ÏĢ":2917,"ÏģÎ¬Ïĩ":2918,"ÏİÏĥÎ¿ÏģÏĢ":2919,"ĠÎ±ÏģÏĦÎŃÎ¼":2920,"ÏīÏģÎ¸Î½Î±":2921,"ÏĦÎ±ÎºÎµ":2922,"Î½ÏīÎ³Î±":2923,"Î¼Î¿ÏĦÎ±ÎºÎµ":2924,"Î¿Î»Ïħ":2925,"ĠÎ¥ÎŁÎ¤":2926,"ĠÎ½Î¿ÏĦÏĥÎ¹ÏĩÎ¬Î»ÏħÎ¿ÏĦ":2927,"Î¿ÏĦÏħÎĳ":2928,"ĠÎ±Î¼Î¿Î½ÏĮ":2929,"ÎºÎ¯Î±ÏĢ":2930,"Î®ÏģÎ§":2931,"ÏģÎµÏĦÏĥÎ¹ÏģÎ±":2932,"ÏģÎ¬Îº":2933,"Î¬ÏģÎµÏĦ":2934,"ĠÏħÎ¿Î¯ÎµÎ¼":2935,"Î±ÏģÏī":2936,"Î·ÏĥÎ¯ÏĢÎµ":2937,"ÏģÎ±Î²Î¿Ïĥ":2938,"ĠÎ±Î¹ÏĢ":2939,"ĠÏīÎ½Î¬ÏĢÎ±ÏģÎ±ÏĢ":2940,"ĠÎµÏĥÏīÎ»Î®Î´":2941,"Î½ÏİÎ¼":2942,"Î·ÏĥÏī":2943,"ÏģÎµÎĻ":2944,"ĠÎ¿Î¹Î¿ÏĢÎ¬Îº":2945,"Î¸Î±":2946,"Î´Î¯Î´":2947,"Î³Î±Î»Î»":2948,"Ġx":2949,"ÏĩÎ¿Î´Î¿Î½ÎµÎ¾":2950,"Î®Î¼Î·ÎĶ":2951,"Î±ÏĥÎ¹Îµ":2952,"ÏģÎ¬Î²":2953,"Î±Î½Îµ":2954,"ĠÎ±Î¹Î¿ÏĢ":2955,"vo":2956,"ĠÎ¯ÎµÎ¸Î·":2957,"Ġte":2958,"ÏĩÏįÏĦ":2959,"ÏģÎµÎ²":2960,"Î±Î»ÏĮ":2961,"ĠÎ±Î»ÏĢ":2962,"ĠÎ¹ÏĥÏĦÎĪ":2963,"Î¸ÏģÎ¿":2964,"ĠÎ¹Î±ÏĦÎ½Î¿Î¶Î¬":2965,"Î½Î¿ÏĨ":2966,"ĠÏĤÎ±ÏģÏİÏĩ":2967,"Î½ÏīÎ½Î¹Î¿Îļ":2968,".\"":2969,"Î¯ÎµÏĩÎ¹ÏĢÎµ":2970,"ĠÎ½ÏİÏģ":2971,"Î½Î¿Î½Î±Îº":2972,"ĠÎļÎŁ":2973,"Ġ81":2974,"ĠÎ¹ÎµÏĦÏĢ":2975,"ÎºÏģÏħÎ¿ÏĦ":2976,"Î³ÏģÎµÎ½ÏħÏĥ":2977,"ĠÎŃ":2978,"Î½Î¬Î½ÏħÏĥ":2979,"ÏħÎ»Î¬Îº":2980,"Î¸ÏħÎ¿Î»Î¿ÎºÎ±":2981,"Î½Î±Ïĥ":2982,"ĠÎ¹Î¿Î¯Î¿ÏĢÎ¿":2983,"Î¹ÎĴ":2984,"Î¹ÎµÏĥÎ®":2985,"ÏĨÎķ":2986,"ĠÎ±Î¯Î³ÏģÏħÎ¿ÏĦÎ¹ÎµÎ»":2987,"Î·Î½Î±":2988,"ĠÎ±Î¯ÏĥÎ±Î³ÏģÎµÎ½ÏħÏĥ":2989,"Î·Î½Î¯ÎºÎ¿ÏĦÏħÎ±":2990,"ÏħÎĵ":2991,"Î¹ÏĪ":2992,"ĠÎ·ÏĥÎ·Î¼":2993,"ÎļÎĻÎ¤":2994,"Ġ]":2995,"ÏģÏĦÎ±":2996,"ĠÎ½ÏīÎ»Î»Î¬":2997,"ÏħÎµÎ½":2998,"ĠÎ±Î¯Î³Î¿Î»":2999,"lu":3000,"Î¹ÏĦÏĮ":3001,"Î»ÏĢÎ¹Î´":3002,"ÏİÎ¶":3003,"ĠÎ¹Î±ÏĦÎµÎ¶Î¬Î¹ÎµÏģÏĩ":3004,"ĠÎ¯ÏģÎµÏĢ":3005,"Î±Î²Î²Î¬Î£":3006,"Î½ÎµÎ¸ÏĥÎ±":3007,"Î¬ÏĦÏĨ":3008,"ĠÎ¿ÏģÏĦÎ½ÎŃÎº":3009,"www":3010,"Î±Î¹Î»ÏĮÏĩÏĥ":3011,"Î»ÎµÎ¼":3012,"ĠÏĤÎ·Ïģ":3013,"ÏįÎ¿Î³Î±ÏģÏĦ":3014,"Î³Î¿Î»Î¿ÏģÎ¿ÏĨ":3015,"ĠÏĤÎµÎ½Ïİ":3016,"ÏģÏĦÎµÎ¼":3017,"ÏģÎ±Îļ":3018,"Î½Î¯Î³":3019,"ÏīÎ½Î³Î±Î½Î±":3020,"ĠÏĤÎµÎ´Î¯":3021,"ĠÎ·ÏĥÎ½ÏħÎ¸ÏįÎµ":3022,"ÏĥÎ¹Î´":3023,"Î®ÏģÎļ":3024,"ÏģÎµÎ¼Î±":3025,"ÏħÎµÎ´":3026,"ĠÎ±Î¯ÎµÏĦ":3027,"Î¾ÎµÎ´":3028,"''":3029,"Î±ÏĨÏĥÏĮÏģÏĢ":3030,"ÏīÏĢÏħÏĦ":3031,"ĠÎ¯Î´Î¹Î±ÏĢ":3032,"Î¿ÏĢÏĭÎ¿ÏģÏĢ":3033,"ĠÎ½ÏİÏĦÎµ":3034,"6102":3035,"ĠÎ±ÏĦÎ±Î¼Î®ÏĦ":3036,"eL":3037,"ÏģÎµÎ¸ÏħÎµÎ»Îµ":3038,"ĠÎµÏĢÎµÏģ":3039,"Î¹Îķ":3040,"Î¼Î¬Î½ÏħÎ´":3041,"ÏģÎ¿ÏĢÎ±":3042,"Î·ÏĦÏĮÎ´":3043,"Ġai":3044,"ÎºÎ³ÎŃ":3045,"Î®Î½Î¹Îº":3046,"Î½Î¬Î³ÏģÎ¿":3047,"ĠÎ±Î¹ÎµÎ¸Î¬ÏĢÏĥÎ¿ÏģÏĢ":3048,"ÏģÎ®ÏĢÏħ":3049,"Î£ÎĳÎł":3050,"ĠÎ¿Î¹Î³":3051,"Î®Îº":3052,"ĠÎ½Î¿Î¤":3053,"Î½Î±Îļ":3054,"ĠÎ±ÏģÎŃÎ¼Î·":3055,"ÏįÏģÎº":3056,"Î³Î¥":3057,"ĠÎ½Î±ÏĪ":3058,"ÎŁÎ¡Îł":3059,"Î¹Î»Î±ÏĢ":3060,"ÏĥÎµÎ»ÎµÏĦÎ¿ÏĢÎ±":3061,"Î¬Î»Îº":3062,"Î¬ÎºÏĥ":3063,"Î±Î²Î±Î»":3064,"ÏįÎ¿ÎºÎ¹":3065,"Î³Î±Î½Î±Îł":3066,"ÏİÏģÎµ":3067,"ĠÎ·ÏĪÎ·Î»":3068,"ÏĩÎ³ÎŃÎ»Îµ":3069,"ĠÎ·ÏģÎµÏĦÏįÎ»Î±Îº":3070,"ĠÎ®ÎºÎ±Î¹ÏģÏħÎļ":3071,"ĠÏĤÏħÎ¿ÏĥÏĮ":3072,"ÏīÏģÏĦ":3073,"Î½ÏįÎ£":3074,"Î²ÏīÏĦÎºÎŁ":3075,"ÏĪÏį":3076,"ĠÏĤÎµÎŃÎ½":3077,"ĠÎ·Î¾ÏħÏĦÏĢÎ¬Î½Î±":3078,"ĠÎ¹ÎµÏģÎ¬ÏĢ":3079,"ÎºÎ±Î»ÏħÏĨ":3080,"ĠÏĤÎ±Î´Î¬Î»Î»Îķ":3081,"ĠÎ¬ÏĦÎµÎºÏģÎ±":3082,"Î¸ÏĥÎ¹Î¼":3083,"Î¹ÏģÏĢÎĳ":3084,"ÎµÏģÏīÎ´":3085,"ĠÏĤÎµÎ½ÎµÎ¼ÏĮ":3086,"ĠÎ¹ÎµÏģÎŃÏĨÏĥÎ¿ÏģÏĢ":3087,"ĠÏĮÎºÎ±":3088,"ĠÏĤÎ®Î¼":3089,"Î¹ÏĥÏĮÎ¼Î·Î´":3090,"ÏīÎ¹ÏĦÎ±ÏģÏĦÏĥ":3091,"ĠÎ¹ÎµÎ¬ÏĢ":3092,"ĠÎ±Î¯ÏģÎ¹Î±ÎºÏħÎµ":3093,"Î·Î»Î±":3094,"Î¡Îĳ":3095,"ÏįÎ¤":3096,"ĠÎ½ÏįÎ¿Î¸Î·":3097,"Î¶ÎµÏĢÎ±ÏģÏĦ":3098,"ikoo":3099,"ĠÎĻÎķ":3100,"Î»Î»Î±Îĵ":3101,"ÏĦÏĥÎ±Î¹ÏĥÏħÎ¿":3102,"Î·Î¸ÏĥÎ¹Î±":3103,"Î´ÏħÎ¿ÏĢÏĥ":3104,"ĠE":3105,"Ġne":3106,"ĠÎ¯ÎµÎ¸Ïĩ":3107,"ĠÎ¬Î¹Î¼":3108,"//":3109,"ÎµÎ»ÏĮÏĢ":3110,"ĠÏĤÏįÎ¿Ïģ":3111,"Î·Î»ÎºÎºÎķ":3112,"ÏĮÎ¼ÏĥÎ¹":3113,"Î¯ÎµÎ¼Î·Ïĥ":3114,"ÏģÎµÎ¼Î®Î£":3115,"ÏīÏģÎŃÎ¼Î·Î½Îµ":3116,"ĠÎµÏĦÎµÎ»":3117,"ÏģÎ±ÏĨ":3118,"Î½ÏīÎ¶":3119,"ĠÏįÎ¿ÎºÎ±":3120,"ĠÎ±Î½Î®Î¸Îĳ":3121,"ĠÏĤÎµÏģÎŃÎ¼Î·":3122,"ÏĢÎ¼Î¿ÏĢ":3123,"ĠÏħÎ¿Î¯ÏģÎ²ÏīÏĦÎºÎŁ":3124,"ĠÏĤÎ®ÏĦÎ·":3125,"Î¯Î»Îº":3126,"ĠÏĤÎŃÏģ":3127,"ĠÏĤÎ¿Î¹Ïģ":3128,"ÏĢÎ¼ÎŃÎł":3129,"ĠÎµÏĥÎ·Ïģ":3130,"tro":3131,"ÎºÎ¯Î¿Î¹Î´":3132,"Î¯ÏĦÎµ":3133,"Î²Ïĥ":3134,"ÎŃÎ³":3135,"ÏħÏĩÏĥ":3136,"ÏīÎ¦":3137,"ÏįÎ±Î¼":3138,"ĠÏĤÎ®ÎºÎ¹ÏĦÎ±Î¼":3139,"do":3140,"ĠÎ±ÏĦÏİÏģÏĢ":3141,"Î±ÎĿ":3142,"ptth":3143,"Î±Î´Î¯":3144,"ĠÏĤÎŃÏĩÏģÎ±":3145,"ÎĹÎĶ":3146,"!!!!":3147,"ĠÏĤÎµÏģÎµÏĦÏĮÏĥÏĥÎ¹ÏģÎµÏĢ":3148,"Î¹Îľ":3149,"Î®Ïĥ":3150,"ÏħÎµÎºÏĥÏħÏĥ":3151,"ĠÏĤÎµÎ¯Î»":3152,"Î®ÏĦÎº":3153,"ediv":3154,"ĠÎ¹Î±ÏĦÎ½Î¿Î¶":3155,"ÏħÎµÎ½ÏĢ":3156,"ĠÎ·ÏģÎµÏĦÏįÎ»Î±Î³ÎµÎ¼":3157,"Î·Î»Îł":3158,"Î¼Îµ":3159,"ÎµÏģÏĦ":3160,"Î±ÏģÎ¹Îµ":3161,"ÏĩÎ±Î¼":3162,"ÏĤÎ¹ÎµÏĥÎ¬":3163,"ĠÎ®Î³Î¿Î¼ÏģÎ±ÏĨÎµ":3164,"Ġ52":3165,"ĠÎ¬ÏģÎ¿Î³Î±":3166,"ÏģÎ¿Î¹Î³":3167,"ĠÏĤÎ¯ÎµÎ¼Îµ":3168,"ĠÎ½ÏīÏģ":3169,"ĠÎ±Î½Î¯":3170,"ĠÎ±Î¯ÎµÏģÎ¹Î±ÏĦÎµ":3171,"ĠÎ½ÏħÎ¿ÏĥÎ¬":3172,"Î±ÏģÎµÏĦÏĮ":3173,"ĠÎ¿Î´Î¿Î¯ÏģÎµÏĢ":3174,"ĠÎĳÎłÎĹ":3175,"ĠÎ¿ÏĥÏĮÏĢ":3176,"ĠÎ®ÏĨÎ±ÏģÎ³Î³Îķ":3177,"pi":3178,"ÎºÎµÏĦ":3179,"//:":3180,"891":3181,"Î±ÏģÏĨ":3182,"ĠÎ¬ÏĦÏĢÎµÎ»":3183,"ÏģÎ±Î½Îĳ":3184,"Î±Î½Î±Îł":3185,"ĠÎ±Î¹Î»":3186,"ÎĿÎ©":3187,"Î³Î±Î¼":3188,"ĠÎ±Î»Î·Î»Î»":3189,"ÏĥÏįÎ¿Î³ÏħÎĳ":3190,"Î¿Î½ÏĮÎ¼":3191,"ÏģÎµÏĥÏĥ":3192,"Î¹ÏģÎ®ÏĦÏĥÎ¿ÏĢÏħ":3193,"ÏĤÏİ":3194,"Î»ÎµÏģÎ±ÏĢ":3195,"Î³Î¿Î»Î¬Î½Î±":3196,"ĠÎ½ÏħÎ¿ÏģÎŃÏĨ":3197,"ĠÎ¬ÏĦÎ±Îļ":3198,"ÏĩÏįÎ¿":3199,"ĠÏħÎ¿Î¯ÏĦÏģÎ±Îľ":3200,"Ġnoi":3201,"ĠÎ·ÏĥÎ·Î¾ÏįÎ±":3202,"Î½ÎŃÎ¸":3203,"Î±ÏĥÏĦ":3204,"Î±ÎŃÎ¸":3205,"ÎĹÎĽ":3206,"ĠÎ¿Î»ÏĮÏģ":3207,"ĠÏħÎ¿Î»ÏĮ":3208,"Î¿Î´Î¿ÏĢ":3209,"ĠÏīÎ¾ÎŃ":3210,"ÎŃÏģÏĦÎ¹ÏĢÎµ":3211,"ÏĤÎ·Î´":3212,"ÎŁÎļ":3213,"Î¿ÏģÎ´ÏħÏĩÎ±ÏĦ":3214,"ĠÏĤÎµÎ¯ÏĥÎµÏģÎ·ÏĢÏħ":3215,"Î¾Î¬ÏĦ":3216,"Î½Î¿Î»Î»":3217,"Î½ÎŃÎ¼Î¹ÏģÎµÏĢ":3218,"ĠÎ¹ÎµÏģÎŃÏĨÎ±Î½Î±":3219,"ĠÎµÎ¼ÏįÎ¿ÏģÎ¿ÏĢÎ¼":3220,"ĠÎ±ÏģÎµÏĦÏįÎ»Î±Îº":3221,"ĠÏĤÎ¬ÏĦ":3222,"ÎµÎ»Î¿ÏĢ":3223,"ĠÏĤÏħÎ¿ÏĢÏİÏģÎ¸Î½Î±":3224,"Î½Î¿ÏģÎŃÏĨ":3225,"Î±Î½Î®Î¸Îĳ":3226,"ĠÎ·ÎºÎ³Î¬Î½Î±":3227,"ÎµÏĦÎ±Îº":3228,"ĠÎ·ÏĥÎ±ÏĦÏĥ":3229,"ÏģÎŃÎº":3230,"ÏĢÎ»Îµ":3231,"ĠÎ¿Î¯Î»Î²Î¹Î²":3232,"oru":3233,"ĠÎµÏĦÏĥÎ¬Î²Î±Î¹ÎĶ":3234,"ĠÎ¹ÏĦÎ½Î±Î½ÎŃÏĢÎ±":3235,"Î¿Î½Î¿Î¼":3236,"ÏīÎ¯Î±ÎºÎ¹Î´":3237,"Ġ61":3238,"ĠÎ®ÏĩÏģÎ±":3239,"ĠÏĤÏĮÏĦÎ½Îµ":3240,"ÏģÏĦÎ±Î¹":3241,"ĠÎ½ÏħÎ¿Î¶Î¯Ïģ":3242,"ba":3243,"ÏĥÎ¹ÏĦÎ¹Î»Î¿ÏĢ":3244,"ĠÏĤÎµÏģÏİÏĩ":3245,"Î´ÏģÎµÎº":3246,"ĠÏħÎ¿Î¯ÏģÎ²Î¼ÎµÎ¿ÎĿ":3247,"ÏĨÎ¼Î±":3248,"ĠÏĤÎ®ÏĦÏħÎ±":3249,"ĠÎµÏĦÎ½ÎŃÏĢ":3250,"Î»Î±Ïĩ":3251,"Î±ÏĢÎ±Îł":3252,"Î¾ÎµÎ¹Î´":3253,"ĠÎ±Î½ÏĮÎºÎ¹Îµ":3254,"ĠÏĤÎ±Î½ÎĪ":3255,"ÏİÏĢÎ±":3256,"ÏĥÎ±ÏĨÎ¿ÏĢÎ±":3257,"tiwT":3258,"Î¶ÎµÏĢÎ¬ÏģÏĦ":3259,"ÎµÎĿ":3260,"ĠÏĤÎ±ÏĦÎ½Î¿Î¶Î¯":3261,"Î¼Î±ÏģÎ³Î¿ÏģÏĢ":3262,"ÏģÎµÏĥÏĥÎŃÏĦ":3263,"ĠÎ¯ÎµÎ»Î±Îº":3264,"Î¯Îº":3265,"ÎºÎ¹Î¿ÏĦÎ±Îº":3266,"ĠÎ½ÏİÏĦÏĥ":3267,"ÏĮÎ½Î¿":3268,"Ġ?":3269,"ĠÎµÎ¼ÏħÎ¿Î½Î¬Îº":3270,"Î¿Î¾Îµ":3271,"Î±ÏģÎŃ":3272,"ĠÎ±Î¯ÎµÏģÎ¿ÏĢ":3273,"Î»Î·Î¼Î±Ïĩ":3274,"04":3275,"ÎµÎ¸Î±Îº":3276,"ĠÎµÏĦÏĥÎ¯Îµ":3277,"ĠÏħÎ¿Î¯Î¼":3278,"Î¿ÏģÎºÎ¹Î¼":3279,"ĠÏĤÎ¿Î³ÏĮÎ»":3280,"Î±ÏĦÎ½Î±ÏĨ":3281,"ĠÏĤÎµÎ¯Îµ":3282,"ÎķÎļ":3283,"ÏħÏģÎ§":3284,"ĠÎ¹ÎµÏĥÎŃ":3285,"ĠÎ½ÏīÎµÏĥÏİ":3286,"lA":3287,"Î½ÏīÎµÏĥ":3288,"ĠÎ±Î¼Î·":3289,"Î»Î±ÏĨÎµ":3290,"ĠÎ½ÏİÏĦÏħÎ±":3291,"ĠÎ¬ÎºÎ¹ÏĥÏħÏĨ":3292,"Î³Î¿ÏĦ":3293,"ĠÏĤÎŃÏĩ":3294,"ÏĮÎ¹":3295,"Î»ÎµÏĦÏĥ":3296,"ĠÎ®ÏĩÎ¿ÏĢÎµ":3297,"Î¿ÏģÎµÏĦ":3298,"ÏįÏĦÎºÎ¹Î´":3299,"ÏĢÎľ":3300,"Î¹Î¿Îł":3301,"Î¾Î¿":3302,"ĠÎ®ÎºÎ¹Î¼Î¿Î½Î¿ÎºÎ¹Î¿":3303,"ĠÎ·ÏĥÏīÎ¯ÎµÎ¼":3304,"ĠÎ¿ÏĩÏĮÏĦÏĥ":3305,"ĠÎ½ÏħÎ¿ÏĢ":3306,"ÎĻÎĶ":3307,"ÎµÎ¶":3308,"ka":3309,"ĠÎ±Î¯ÎµÎ¼":3310,"ĠÎ®Î³Î¿Î»Î¹ÏĢÎµ":3311,"ĠÏħÎ¿Î¼Î®ÎĶ":3312,"Î½ÏİÏģ":3313,"Î»Î»ÎĨ":3314,"Î¿ÏĢÎ¬":3315,"Î®Î³":3316,"ÏħÎ±ÏģÏĦ":3317,"Î½ÏīÎ½ÎŃÎ¼":3318,"ĠÏħÎ¿Î¯Î½ÏħÎ¿ÎĻ":3319,"Î¹ÎµÎ»ÏĢ":3320,"ĠÎ·Î¾Î±ÏĦ":3321,"ĠÎ½ÏİÎ½":3322,"ĠÎµÎ²Î±Î»":3323,"Ġn":3324,"Î¾ÎµÏĥ":3325,"ĠÎ±ÎºÎ¹":3326,"ĠÎ®Î½Î¿Î¼":3327,"ÏģÏĦÎ®Î¼Î·ÎĶ":3328,"ĠÏĮÎºÎ¹Î½Î·Î»Î»Îµ":3329,"ÏīÏģÎ·Î»ÏĢ":3330,"eR":3331,"ÏģÎ¿Ïĩ":3332,"ĠÎ¬Î¹ÎµÎ»ÏħÎ¿Î´":3333,"Î³Î·ÏĦÎ±ÏģÏĦÏĥ":3334,"Î·Î½ÎŃÎ¼":3335,"Î±ÏģÎ±Îļ":3336,"ÎºÎĪ":3337,"ĠÎµÏĢÎµÏģÏĢÎŃ":3338,"Î¼ÏĮÎ½":3339,"Î³Î±ÏĦÎ½ÏħÏĥ":3340,"Î¹ÏĥÎ·Î½":3341,"ĠÏĤÎŃÎºÎ¹ÏĦÎ±Î¼":3342,"ĠÎ·ÎºÎ®Î¸":3343,"ÎºÏĬÎ±Î»":3344,"dna":3345,"Ġ41":3346,"ÏħÎ´Î½Î¯Îº":3347,"ĠÏīÏĥ":3348,"ĠÎµÎ½Î¬":3349,"Î¬ÏģÏĨÎºÎµ":3350,"ÏĢÎŃÎºÏĥÎ¹ÏĢÎµ":3351,"ĠÎ¿Î¹ÏģÎ®ÏĦÏĥ":3352,"5102":3353,"Î±ÏĢÎľ":3354,"Î½ÏĮÎ¸":3355,"ÏĨÎĳ":3356,"Î½Î®Î»Î»Îķ":3357,"ĠÎ±Î¹ÏģÎŃÏĩ":3358,"Î±ÎºÎ¹ÎĶ":3359,"Î½Î¬Ïĩ":3360,"ÏİÎ´":3361,"âĢĵ":3362,"ĠÎ½ÏįÎ¿Î½":3363,"ĠÎ±Î¯Î³ÏģÏħÎ¿Î¹Î¼Î·Î´":3364,"Î±Î»Î±":3365,"Î·ÏĦÎ¯Î±ÏģÎ±ÏĢÎ±":3366,"ÎºÏĮÎº":3367,"Î¹ÏĥÎ±Î²":3368,"ÏĤÎ¿Î¼":3369,"Î¿ÎµÎ½":3370,"ĠD":3371,"Î»Î¿ÏĦÎ±Î½Î±":3372,"ÏĮÏĦÏĥÎ¹":3373,"ĠÏĤÎ¬Î¹":3374,"ĠÎ¹ÎºÎ¬":3375,"Î¹Î±ÏĨÏĥ":3376,"Î·ÏģÎ¸":3377,"Î¯ÏĦÎ±ÏģÎºÎ¿Î¼Î·ÎĶ":3378,"Ġro":3379,"ĠÏĤÏīÎ¼":3380,"ĠÎ¿ÎµÏĦÎ½Î¯Î²":3381,"Î±ÏģÏİÏĦ":3382,"ÏĩÏħÏĥ":3383,"tra":3384,"ÎĳÎĻÎĶ":3385,"ÏīÏģÎŃ":3386,"Î´ÎµÎ½ÏħÏĥ":3387,"Ġ31":3388,"ÏħÎ¿Î»ÏĮ":3389,"ĠÏĤÎ¿Î½Î¿ÏģÏĩ":3390,"ÏĤÎ®ÎºÎ¹ÏĦ":3391,"Ġsi":3392,"Î½Î¿ÏģÏĨ":3393,";;":3394,"tA":3395,"ĠÎ¬ÎºÎ¹ÏĦÎ±Î¼Î³Î±ÏģÏĢ":3396,"ĠÎ¬ÎºÎ¹Î´":3397,"ĠÏĤÏħÎ¿Î»Î»Î¬":3398,"ÏĥÎ¯Î±":3399,"ÎµÎł":3400,"ĠÎ¬ÏĦÎ±Î¼":3401,"Î·Î»Î²Î¿ÏģÏĢ":3402,"ĠÎķÎ¤":3403,"ĠÎ¹ÎµÏĥÎ®ÏĦ":3404,"ÏĦÎµÎ¼Î¼ÏħÏĥ":3405,"ÏįÎ½ÎºÎ¹ÎµÎ´":3406,"ĠÎ±Î¯ÏĥÏħÎ¿ÏģÎ±ÏĢ":3407,"Ġfo":3408,"Î¹Î»ÎŃÎ¾Îµ":3409,"ĠÎ¹ÏĦÏĮÎ¹Î´":3410,"ĠÂ·":3411,"ĠÎ±Î¼Î¿ÏĦÎ¬":3412,"ÏĦÏĥÎ¹ÏģÎ±ÏĩÏħÎµ":3413,"Î±Î¯Î»":3414,"ĠÎ½Î±ÏĥÎ¹":3415,"ĠÎ±Î¹Î³ÏĮÎ»":3416,"ĠÏĮÏĦÏħÎ±Îµ":3417,"ĠÎ½ÏħÎ¿Î»ÎŃÎ¸":3418,"ÎŃÏģÎł":3419,"ĠÎĿÎĹÎ¤":3420,"ÏħÎ¿Î¯Î»":3421,"ÎŃÎ»Î±Îº":3422,"ĠÎ±ÎºÎ¯Î±Î½ÏħÎ³":3423,"Î¿ÎºÎ³":3424,"82":3425,"ĠÏĮÎºÎ¹ÏĦÎ½Î±Î¼Î·Ïĥ":3426,"Î±ÏģÎ¹ÎµÎł":3427,"ikooc":3428,"ÎºÎ³ÏħÎ£":3429,"Î½Î¹Î¿ÎºÎ±Î½Î±":3430,"ĠÎ·ÏĥÎ·Î»":3431,"ÏĢÎµÎ¾":3432,"Î¯ÏĦÎ½Î±Î½Îµ":3433,"ÏħÎµÏĦÎ½ÎŃ":3434,"Î¯ÎµÏĩÎ±Î¹Î´":3435,"Î·ÏĦÏģÎ¬Î½Î±":3436,"reg":3437,"Î¿ÏĨÎ¿Î»ÎºÏħÎº":3438,"ĠÎºÎ³":3439,"Î¸Î±ÏĢÏĥÎ¿ÏģÏĢ":3440,"ĠÏĤÎĳ":3441,"ĠÎ±ÏĥÎµÎ¼Î¬":3442,"ÏħÏĩÏĥÎ¯":3443,"Ġ71":3444,"Î½ÎŃÎ¼Î±Î½Î±":3445,"ĠÏĤÎŃÏĦÏĥ":3446,"Î±Î¹Î»":3447,"Î¿Î³Î®ÏģÎ³":3448,"Ġ42":3449,"ĠÎ©":3450,"ÎŃÏģÏĦÏĥÎ¹ÏĢÎµ":3451,"Î¯ÏĥÎ±ÎĴ":3452,"ĠÏįÎ¿ÏĢ":3453,"Î½ÎµÎº":3454,"ĠÏĤÎ¿Î¹Î´Î¯":3455,"ĠÎ®ÎºÎ±":3456,"Î½ÏİÎ¶":3457,"Î½Î¿Î¼Î·ÏĦÏĥÎ¹ÏĢÎµ":3458,"Î±Î¹Ïĥ":3459,"ĠÎ±ÏģÎ¬":3460,"ĠÎ±Î¯Î½ÏīÏĨÎ¼ÏħÏĥ":3461,"ĠÎ¿Î´ÎµÏĢÎ¯ÏĢÎµ":3462,"Î½ÎĻ":3463,"Î·Î³Î®":3464,"ĠÏĮÏģÎºÎ¹Î¼":3465,"ĠÎ¹Î¿Î½ÎµÎ¼ÏĮ":3466,"Î¿Î´Î±ÏģÎ±ÏĢ":3467,"ÏĦÏĥÎ¹Î½ÏīÎ³Î±ÏĦ":3468,"ÏīÎ§":3469,"Î½Î¿Îľ":3470,"ÏİÏĦÎµÎ¼Î¹ÏĦÎ½Î±":3471,"Î·Î´Î¯Îµ":3472,"ĠÎ¹ÎµÏĨÎ¬ÏģÎ³":3473,"Î¾ÎµÏĢÎµ":3474,"ĠÎ¬ÎºÎ¹Î´Î¹Îµ":3475,"Î¬Î¹Î´Î¹Î±ÏĢ":3476,"ĠÎ·ÏĥÎ¹Î½Î¬":3477,"ĠÎ±Î¹ÏģÏįÎ¼":3478,"ĠÎ¬ÏģÏħÎµÎ»ÏĢ":3479,"ÏĥÏĥÎ¹ÏģÎµÎł":3480,"Î¹Î¿ÏĦÎŃ":3481,"Î½ÏīÎµÏĥÎ®":3482,"va":3483,"Î³Î¿Î»Î»":3484,"ĠÎ±Î¯ÏģÏĦ":3485,"ÎµÏģÎĴ":3486,"ÏģÎ¿Î³":3487,"ĠÎ·Î½Î¿ÏģÏĩ":3488,"ÎĻÎĽ":3489,"Î¬Î¹Î»":3490,"ÏĦÏĥÎ©":3491,"791":3492,"Î±Î´Î¯Î»ÎµÏĥ":3493,"ĠÎ±ÏĦÎ±Î¼ÏĥÎŃÎ»ÎµÏĦÎ¿ÏĢÎ±":3494,"ÏİÎ¹Î´":3495,"ÏĥÎ±Î¹Î´ÎµÏĩÏĥ":3496,"ÏĨÎ±ÏģÎ³Î³ÏħÏĥ":3497,"ĠÏħÎ¿Î¯Î»ÏħÎ¿ÎĻ":3498,"ĠÏĮÎ½":3499,"ÏģÎµÏĢÎ¼":3500,"Î¿ÏģÎŃÏĨÎ±Î¹Î´Î½Îµ":3501,"ĠÎ·ÏĥÎ·Î½Î¯Îº":3502,"ĠÎļÎķ":3503,"ĠÎ½ÏħÎ¿ÏĥÎ¯":3504,"ĠC":3505,"oruE":3506,"Î¿Î´Î¹Îµ":3507,"ÏĦÎ½Î±ÏĢÎ±":3508,"ÎķÎķ":3509,"Î¿ÏĦÎ½Îµ":3510,"ĠÎµÏĦÎ¯ÎµÎ´":3511,"Î·ÏģÎ§":3512,"ÏĮÏĥÎ¹Îµ":3513,"ĠÏįÎ¿Î¹":3514,"ÏħÏĦÏģÎ±Î¼":3515,"Î¿ÏģÎµÏĦÏĮÏĥÏĥÎ¹ÏģÎµÏĢ":3516,"ĠÎ®ÏģÎºÎ¹Î¼":3517,"ÏĩÎ¹Î¿Î½Î±":3518,"Î³Î±ÏģÏĢÎ±Î¹Î´":3519,"ĠÎ¿Î¯Î±ÏĦÏħÎµÎ»ÎµÏĦ":3520,"Î·ÏĥÎ·":3521,"Î¿ÏĩÏĥÎ±":3522,"Î½ÏİÎ¹":3523,"ÏĩÏģÎµ":3524,"Î±Î½Î±ÏĦÎ±Îº":3525,"ĠÏīÏĦÎ¬ÎºÎ±ÏģÎ±ÏĢ":3526,"ĠÎ®ÏħÎµÎºÏĥÎ±ÏģÎ±Îł":3527,"ĠÎ·ÏģÎµÏĦÏįÎµÎ´":3528,"ĠÏįÎ¿ÎºÎ¹Î½Î¿ÏģÏĦÎºÎµÎ»Î·":3529,"Î±ÏĢÏħ":3530,"ĠÏĮÏĢÎ¿ÎºÏĥ":3531,"Î·Î²":3532,"Î±Î½Î·Î¸":3533,"Î½ÏİÏĦÎµ":3534,"ĠÎ¬Î¹ÏĦ":3535,"Î½Î¹Î±ÏĨ":3536,"ÏįÎĶ":3537,"ĠÎ±ÏĩÎ¯Îµ":3538,"ĠÎ±Î¼Î·ÏĦÏĥÎ¬Î¹Î´":3539,"Î»Î¯ÏĨ":3540,"ĠÏĤÎµÎ´Î¬Î¹Î»Î¹Ïĩ":3541,"Î®Î¼Î¤":3542,"ÏīÏģÏĩ":3543,"Ġ12":3544,"ÏĩÎ¹Î¿ÏĦÏĥÎ¯ÏĦÎ½Î±":3545,"Î³Î±ÏĨ":3546,"ÏĦÏĥÎ¹Î»Î±ÏĨ":3547,"ĠÎµÏĥÏīÎ´ÎŃ":3548,"ÏħÎ¿Î»Î¿ÎºÎ±ÏģÎ±ÏĢ":3549,"ÎºÎ±Î¹Î´":3550,"Î¹ÏģÎºÎ±Î¼":3551,"Î½ÏīÎ½Î¹Î¿ÎºÎ¹ÏĢÎķ":3552,"ÏĥÎ¤":3553,"ÏĥÏĮÏĢÎ±":3554,"Î¹Î¿Î½Î¬":3555,"ÏīÏĦÏĢ":3556,"ĠÏĤÎ·ÏĥÎ·Î¯Î¿ÏĢ":3557,"ĠÏĤÎµÏĥ":3558,"Î¿Î»Î¿Î´":3559,"Î½ÏīÎ¯":3560,"ĠÎ¹Î¿ÏĥÏĮ":3561,"ĠÏħÎ¿Î¯Î»Î¹ÏģÏĢÎĳ":3562,"Î»Î»Î¿Îł":3563,"ÏģÎ¬ÏĢÏħ":3564,"ĠÏĤÎ¬Î¼":3565,"ÏģÎµÎ¸Î±ÏĦÏĥ":3566,"ĠÏĤÎ¹ÎµÎ¾Î¬ÏĦ":3567,"ÏģÏĮÎ¼":3568,"ÏĨÎ¿Ïĥ":3569,"ÏģÎ§":3570,"ÏĤÎµÎ¹Îµ":3571,"ÏİÏģÎł":3572,"Î·Î½ÏħÎµÏģÎµ":3573,"Î¿ÎºÏĥÏħÎ´":3574,"ĠÎĳÎĸÎĻÎ¡Î¥Î£":3575,"ĠÏĤÎµÎºÎ¯Î±Î½ÏħÎ³":3576,"Î¹Î¶":3577,"ĠÎ±Î¯Î´":3578,"ÏģÎµÎ¾":3579,"ĠÎ¯ÎµÎ¸Î·Î¹Î¿ÏĢ":3580,"ĠÎ¹Î±ÏĦÎ½Î¿ÏĩÏģÎŃ":3581,"ÏĤÏįÎ¿Î¼":3582,"Î¯ÎµÏĦÎ¿ÏģÏĢ":3583,"Î½Î¹ÏĢÏİÏģÎ¸Î½Î±":3584,"ĠÎ·ÏģÎµÏĦÏĮ":3585,"Î½ÎĪ":3586,"Ġde":3587,"ÏģÎ¬ÏĦÎ±Îº":3588,"ÏģÎŃÎ¸":3589,"ĠÎ¹ÎµÏĩÎĪ":3590,"Î¿Î¹Ïĥ":3591,"tis":3592,"Î¿Î»Î»Î¬":3593,"ĠÏĤÎ¹ÎµÏĥÏĮÎ´":3594,"ÏħÎµÎĽ":3595,"Î½Î±Î¼ÏģÎµÎ³":3596,"Î²Î±Ïģ":3597,"ÏĤÎ±Î´Î¬Î»Î»Îķ":3598,"ÎºÎ®Î½Î±":3599,"ĠÏĤÎµÎºÎ®Î¸Î½ÏħÏĥ":3600,"Î¬Î»Î¹Î¼":3601,"ĠÎ½Î¿Î¯ÏĦÎ½Î±Î½Îµ":3602,"ĠÎ½Î¬Îķ":3603,"ÏĢÎ»Îº":3604,"Î½Î±ÏĢÎ±":3605,"ĠÏĤÏīÏĥÎŃÎ¼":3606,"ÎµÎ»Î¬Îº":3607,"ĠÏħÎ¿ÏģÎ´":3608,"ĠÎ®ÎºÎ¹Ïģ":3609,"ÎµÎ¼ÏįÎ¿":3610,"ĠÎ·Î¼Î±Î½ÏįÎ´":3611,"4102":3612,"ĠÎ®Î¼Î¹ÏĦ":3613,"ÏĥÎ±Î¼":3614,"ĠÎ±Î¹ÏģÏĦ":3615,"ĠÎµÎºÎ·ÏĦÏĥÎ¯":3616,"ĠÎ¹ÎµÎ²Î¬Î»":3617,"ĠÎ¿Î¹Î»ÏįÎ¿":3618,"ĠÏĤÏīÎµ":3619,"ĠÎ®ÏĨÏģÎ¿Î¼":3620,"Î·Î»ÎºÎºÎµ":3621,"Î®ÏģÎ²":3622,"ĠÏĤÎ±Î¯Î¼":3623,"pS":3624,"ĠÎ¹Ïĩ":3625,"Î±ÏģÏĦÎ£":3626,"ÏīÏĩÎµÎ¾":3627,"Î¿ÏģÎµÎ¼Î·":3628,"ĠÎµÎºÎ·ÏĦÏĥÎ¬":3629,"ĠÎµÏĦÎ¯ÎµÎ¸":3630,"RA":3631,"ĠÏħÎ¿ÎŃÎ½":3632,"ĠÏħÎ¿Î¯Î³Îĳ":3633,"ÏīÏģÎ·Î»ÎºÎ¿Î»Î¿":3634,"ĠÎ¹ÎµÎ¬":3635,"ÏħÎ¿Î³Î±ÏģÏĦ":3636,"ĠÎ¿ÏĦÎ±Î²Î²Î¬Î£":3637,"ĠÏĤÎ¿ÏĢÏīÏģÎ¸Î½Î¬":3638,"ÎµÎºÎ·Î¸":3639,"ĠÎ±Î¯ÏģÎ¹ÎµÏĢÎ¼Îµ":3640,"ÏģÎ¿ÏĢÎ¼Îµ":3641,"ĠÏĤÏħÎ¿Î´":3642,"ĠÎ·Î»Î¬":3643,"62":3644,"ÏģÎ¿ÏĨÎ¬Î¹Î´":3645,"ĠÎ½Î±ÏĦÎī":3646,"retni":3647,"Î¹Î±ÏĦÎ½Î¿":3648,"ÏīÎ£":3649,"ĠÏħÎ¿ÏģÏĦ":3650,"Ġ001":3651,"hs":3652,"ĠÎ¿Î¼ÏĮÏģÎ´":3653,"ĠÎ£ÎĻÎķ":3654,"tso":3655,"ÏħÎ²":3656,"ĠÎ¹Î±ÏĦÎ½Î¿Î½Î¯Î³":3657,"Ġm":3658,"ĠÎ¿Î½ÏĮ":3659,"Î·ÏĥÎµÎ¸":3660,"ÏĥÏħÎ¦":3661,"ĠÏĤÎ®ÏĢÎ¿ÏģÏĦ":3662,"ĠÏĮÏĦÎ·":3663,"ĠÎµÏĥÏįÎ¿":3664,"ĠÎµÏģÎ®ÏĢ":3665,"ÏħÎ¿ÎĴ":3666,"Î»Îķ":3667,"Î±ÎºÎµ":3668,"Î´Î½Îĳ":3669,"Î·ÏĦÎ¹Î¿ÏĨ":3670,"ÎŃÎ¸ÏĥÎ¿ÏģÏĢ":3671,"ÏĮÎºÏĥ":3672,"ĠÎ±ÏĦÎ½ÏĮÏĬÎ¿ÏģÏĢ":3673,"ĠÏİÎ´":3674,"ÏģÎ¬ÏĦÎµÎ¤":3675,"Î¹Î¸":3676,"ÏģÎ¬ÏĦ":3677,"ĠÏħÎ¿Î´ÏĮ":3678,"ÏĤÎ±ÏģÏİÏĩ":3679,"Î±Î½Î±ÏĢÎµ":3680,"ĠÎµÎ¼ÏħÎ¿Î¶Î¯":3681,"ĠÎ±ÏĦÎ¿ÏĢÎ¯ÏĦ":3682,"ĠÎ±Î¹Î¿ÏĦÎŃÏĦ":3683,"ĠÏĤÎ¿Î³ÏģÏİÎ¹Îĵ":3684,"Î±ÏģÎ¤":3685,"Î·Î¸ÏįÎ¿Î»":3686,"ÏĢÎ¼Î¿ÏĢÎºÎµ":3687,"ÏįÎµÎ³":3688,"ÏĤÎµÏĦÎ·ÏĦÏĮ":3689,"ÎļÎĳ":3690,"ÏĥÏĮÎºÎ³Î±Îł":3691,"ÏĥÎ±ÏħÎ´Î½ÏħÏĥ":3692,"Î½Î±ÎºÎ¹ÏģÎµÎ¼Î±":3693,"ĠÎ¹Î¿Î»Î»Î¬":3694,"Î¿Î¸Î±Îº":3695,"ÎŃÏĦÎ½Î¿Î¼":3696,"Î®Î½Î¼":3697,"Î£Î©":3698,"ÏħÎ¸Î¹ÏĢÎµ":3699,"Î¿Î£":3700,"Î²Î¼ÎŃ":3701,"Î¹ÎµÎ»ÎµÏĦ":3702,"ÏģÎ±Î¸Î±Îº":3703,"ĠÏħÎ¿ÏĦÏĥÏįÎ¿Î³ÏħÎĳ":3704,"ĠÎ½ÏįÎ¿Î»ÎµÏĦÎ¿ÏĢÎ±":3705,"72":3706,"ÏĦÎ·Îľ":3707,"ÏĮÎ³":3708,"ĠÎ±Î¼ÏīÎ¯Î±ÎºÎ¹Î´":3709,"ÎºÎ·Î»ÏĢ":3710,"Î¹ÏĥÎ¬":3711,"ĠÎ¯ÎµÏģÎ¿ÏĢÎľ":3712,"ĠÎ¿Î½Î¯":3713,"Î®ÏīÎ¶":3714,"Î±ÏģÏĢ":3715,"Î»Ïĩ":3716,"ĠÏĤÎµÎ»Î¬Î³ÎµÎ¼":3717,"ĠÎ¶":3718,"ÏĩÏįÎ½":3719,"ÏĥÎ±Î»Î¬Î¸":3720,"golb":3721,"ĠÎ¿ÏģÎµÏĦÏįÎ»Î±Î³ÎµÎ¼":3722,"ÏħÎ±Î½":3723,"Ġ6102":3724,"Î½ÏĮÏĢÎ¹Î¿Î»":3725,"ĠÎ·ÏĥÎ¹Î¼Î¸":3726,"Î»Î±Î§":3727,"ĠÏĮÏģÎµÎ½":3728,"Î³ÏįÏĨ":3729,"ÏĥÏħÎ¸":3730,"Î½ÏİÎ½":3731,"ÎµÏģÎ·ÏĢÎ¥":3732,"ĠÎ¹Î±ÏĦÎµÎ¸":3733,"ÏİÏģÎ·Î»ÏĢ":3734,"Î±Î¹Î¼":3735,"Î·Î½Î¿ÏĢ":3736,"Î³ÏģÎĳ":3737,"ĠÎ±ÏģÎŃÏĦÏħÎµÎĶ":3738,"ĠÎµÎ½ÎŃÎ»":3739,"ser":3740,"ÏĮÏĢÎĳ":3741,"hp":3742,"ÎµÎ´Î¹":3743,"Î¹ÏĢÏİÏĦÎµÎ¼Î¹ÏĦÎ½Î±":3744,"ĠÎ¿ÏģÎµÏĦÏįÎ»Î±Îº":3745,"ĠÏĤÎ·ÏĥÎ·ÏĦ":3746,"Î¿ÏĦÎ±":3747,"ĠÎ¹ÎµÎ½Î¯ÎµÎ¼":3748,"Ġdna":3749,"ÎŃÎ»Î¿ÏĢ":3750,"Î¬Î»Î»Î±":3751,"ÎºÎĳ":3752,"Î¬ÏĦÏħÎ±":3753,"Î¼ÏħÎ³":3754,"ĠÎµÎ¼ÏħÎ¿ÏĥÏİ":3755,"Î»Î¯ÎµÏĨÎ¿":3756,"ĠÎ¯ÏīÏģÏĢ":3757,"ĠÏħÎ´":3758,"ÏįÎµÎ½":3759,"Î»Î±Î²":3760,"ĠÎ¹ÎµÎ½ÏĩÎ¯ÎµÎ´":3761,"ÏĩÏħÏĦÏĥ":3762,"ĠÏĨ":3763,"Î¿ÏĨÎ¬Î¹Î´":3764,"ĠÎ¿Î¯ÎµÏĩÎ¿Î´Î¿Î½ÎµÎ¾":3765,"ÏĥÎ±ÏĨ":3766,"Î»Î±Î¸":3767,"ĠÎ±ÏĦÎ½Î¬":3768,"ÎµÏģÎ±ÏĢ":3769,"ĠÎµÎ¼Î±Ïĩ":3770,"ÏİÎ½Î±":3771,"ĠÎ¬Î½ÏĩÏħÏĥ":3772,"Î³Î®ÏĢ":3773,"ya":3774,"Î³ÏĮÏĢÎ±":3775,"ÏĦÏĥÎ¹ÏģÎ§":3776,"ĠÏĤÎ±Î´Î¬Î¼Î¿":3777,"Ġ04":3778,"ĠÎ·Î½ÎµÎ¼ÏĮÏĢÎµ":3779,"Î½Î¹Îļ":3780,"ÏįÎ¾":3781,"ĠÎ¹Î±ÏĦÎµÎ½ÎŃÎ¼Î±Î½Î±":3782,"Î¯Î±ÎºÎ¿Î»Î±Îº":3783,"ĠÎ½Î¿Î»Î»Î¬Î¼":3784,"Î¬Î»Î±Îº":3785,"Î½Î¿ÏĢÏĥ":3786,"Î½Î±Î³ÏģÎ¿Î¹Î´":3787,"ÏīÏĢÏħÏĦÎ½Îµ":3788,"ÎĳÎłÎĹ":3789,"ĠÎ±Î½ÎŃÎ½Î±Îº":3790,"Î½ÏħÎ¸ÏħÎµ":3791,"Î±Î½Î·Î¸Î±Î½Î±Îł":3792,"ĠÏĮÎºÎ¹ÏĦÎ¹Î»Î¿ÏĢ":3793,"ĠÏĤÎ±ÏģÎŃÏĦ":3794,"ÏīÎ½ÎĪ":3795,"ÏĩÎ¯":3796,"ĠÎ·ÏĥÏįÎ»":3797,"ĠÎ·ÏĥÎ¯ÏģÎº":3798,"Î¿ÏĦÎ½ÎŃ":3799,"ĠÎ¹Î±ÏĦÎ½Î¿Î½Ïİ":3800,"ĠÎ±Î¹Îº":3801,"ĠÎµÎ¼ÏįÎ¿Ïģ":3802,"Î¿Îľ":3803,"ĠÎ±Î¹ÏĥÏĮÎ¼":3804,"ÏĦÎµÎºÏģÎ±":3805,"Î½Î¬ÏīÎĻ":3806,"ĠÏĤÎ·ÏĥÎ·Î½ÏģÎŃÎ²ÏħÎº":3807,"Î½Î¿ÏģÎŃ":3808,"Î¿ÏĦÎ½":3809,"Î¯Î¿Î¼":3810,"ĠÎ±Î¼ÏĥÎ¹":3811,"Î·Î»ÏĢÎ¼ÏħÏĥ":3812,"ĠÎ±Î½ÏħÎµÏģÎŃ":3813,"Î¯Î»ÎµÎ¾Îµ":3814,"001":3815,"Î±ÏģÏİ":3816,"ĠÎ½ÏīÎµÏĥÎ¬":3817,"ĠehT":3818,"Ġ22":3819,"ĠÎµÏĥÎ¹Ïģ":3820,"ÎŃÎ´Î½ÏħÏĥ":3821,"ĠÎ±Î³ÏģÎŃ":3822,"ÏįÎ»Î±ÎºÎ¿ÏĢÎ±":3823,"Î½ÎµÎĴ":3824,"ĠÏĤÎ®ÎºÎ¹ÏĦÎ¹Î»Î¿ÏĢ":3825,"ĠÎµÏĦÎµÎ½Î¬Îº":3826,"ĠÏĤÎ¿Î¼ÏĥÏĮÎº":3827,"il":3828,"Î·Î»Î»Î¬ÏĦÎ±Îº":3829,"ÎĵÎŁ":3830,"ĠÎ·ÏĢÏİÏģÏħÎķ":3831,"ĠÏĤÎµÎ´Î¬Î¼Î¿":3832,"ĠÎ·ÏĥÎ±Î²Î¼":3833,"ÏĤÏħÎ¿ÏĢ":3834,"Î½Î¯Î¼":3835,"ĠÏĤÎ¿Î½ÎµÎ¼ÏĮ":3836,"Î¹ÏģÎ²":3837,"ÏĢÏīÏĦÎµÎ¼Î¹ÏĦÎ½Î±":3838,"ĠÏĤÎ±Î´":3839,"ĠÎ¿ÏģÎµÏĦÏįÎµÎ´":3840,"Î½ÎµÏĥ":3841,"Î½Î±Î¹ÏĦÏĥ":3842,"ĠÎ±ÏģÎµÎ¼Î®Î£":3843,"ÎµÏĩÎ£":3844,"ĠT":3845,"xe":3846,"ĠÏĤÎ¿Î»ÎŃÎ¼":3847,"ĠÎĿÎķÎĶ":3848,"ĠÎ±Î¼ÏĥÎ¹Ïģ":3849,"Î±ÏĢÏĥÎ¿ÏģÏĢ":3850,"Î·ÏĢÏħ":3851,"ÎºÎµÎ¹Î´":3852,"ÏģÎµÏĥ":3853,"ĠÏİÎ´Îķ":3854,"ÎµÏĦÏĮ":3855,"ĠÏĮÎ½Î¹Î¿Îº":3856,"ĠÎ¹ÎµÏĥÎ¯Ïģ":3857,"ĠÏħÎ´Î¬ÏģÎ²":3858,"ÏįÏĢ":3859,"ĠÏĤÎŃÏĩÎ¿Î¹ÏģÎµÏĢ":3860,"ÏĤÎ·Î¾":3861,"ĠÏĤÎ·ÏĥÎ¯ÏĢÎķ":3862,"rettiwT":3863,"ĠÎ¿Î¹Îµ":3864,"ÎºÎ¬Î´":3865,"ÏĤÏħÎ¿Î»":3866,"ĠÎ±ÏĦÎ±Î¼Î®Î¸":3867,"Ġ91":3868,"Î±ÏģÎºÎ¿Î¼Î·Î´":3869,"Î¬Î²Î¼Î±Î»":3870,"Î³Î¿Î»Î¿Î¼":3871,"Î±ÏĦÎ½Îµ":3872,"Î·Î½ÏģÎ±":3873,"Î¾ÎµÎ»Îĳ":3874,"ÏĥÏħÎ´":3875,"ĠÎ¹Î±ÏĦÎ¹ÎµÎºÏĮÏģÎł":3876,"ĠÎ½Î¿ÏĦÎ£":3877,"ĠÎ±Î¼ÏİÏĥ":3878,"ĠÎµÏĥÎ·Î»":3879,"ĠÏĤÎµÏĦÎ¯Î»Î¿ÏĢ":3880,"ÏįÎ¿Î½Î¹Î±Îº":3881,"ĠÎ½ÏīÏĦÎ®ÏĦ":3882,"ĠÏĤÎ¹ÎµÎ½Î¬Îº":3883,"motA":3884,"ĠÎ¿ÏģÏĢ":3885,"ÎŃÏģÎº":3886,"uga":3887,"ĠÎķÎķ":3888,"Î¹Î±Î¼":3889,"Î³ÏħÎµ":3890,"ĠÏĤÎµÎ¯ÏĨÎ±ÏģÎ³Î¿ÏĦÏīÏĨ":3891,"Î®Î»Îµ":3892,"ĠÏĤÎŃÏĦÎ·Î¸Î±Î¼":3893,"ĠÏĤÎµÎ¹Î¿ÏĢÎ¬Îº":3894,"ĠÏĤÎŃÎ³Î¿Î»ÎºÎµ":3895,"ÏĥÎ®ÏģÏĩ":3896,"ĠÏĤÎ¹ÎµÏĥÎŃÏĩÏĥ":3897,"ÏİÎ½Î³Î±Î½Î±":3898,"Î¹ÏĢÏĥ":3899,"Î»Î»Î±ÏĦÎµÎ¼":3900,"ÏĩÏħÎµ":3901,"ĠÎ½Î¿ÏģÎŃÏĨÎ±Î¹Î´Î½Îµ":3902,"Î·Î»Î»ÎĪ":3903,"ĠÎ¿Î»ÏĦÎ¯ÏĦ":3904,"ĠÎĳÎľ":3905,"Î½ÏĮÎº":3906,"Ġ!!!":3907,"ĠÎ±Î¹Ïĥ":3908,"ĠÎ±Î¼Î·Î¸":3909,"Î¿ÏģÎ±ÏĢ":3910,"Î¹ÎºÎ¹":3911,"Î±Î²ÎµÎ²Î¹ÏĢÎµ":3912,"Î¿ÏĦÎ½ÏįÏĥ":3913,"ĠÏĤÎ¿ÏģÎµÏĦ":3914,"Î·ÏĦÏĥÎ¹ÏĢÎµÎ½Î±Îł":3915,"ĠÎ·ÏĥÎµÎ¸Î¯ÏĢÎµ":3916,"ĠÎĳÎ¡":3917,"ÏĤÎ·ÏĥÎ¯ÏĢÎķ":3918,"ĠÎ·ÏĥÎ½ÏħÎ¸ÏįÎµÎ¹Î´":3919,"ÏĤÎ®ÏĦ":3920,"Î¿ÏģÏĢÏįÎļ":3921,"ĠÎ·ÏĥÎ·ÏĦÎ½Î¬ÏĢÎ±":3922,"ĠÏīÎ½Î¬Îº":3923,"ĠÎ½ÏīÎŃÎ½":3924,"ÏħÎµÏĦÎ½ÎŃÎ½ÏħÏĥ":3925,"ÎĲÎ±Îľ":3926,"Î»ÎµÎ³Î³Î±":3927,"ĠÏĤÎ®ÎºÎ¹Î½Î·Î»Î»Îµ":3928,"Î¿ÏģÏħÏĢ":3929,"ÎŃÎ½Î±Îº":3930,"Î£ÎĻ":3931,"ĠÏĤÎŃÎºÎ¹ÏĦÏĥ":3932,"ÏģÎ±ÏĢÏį":3933,"Î±Î»Î¬":3934,"ĠÎ®Î»Î¿ÏĦÏĥÎ¿ÏĢÎĳ":3935,"ĠÎµÎ¼ÏįÎ¿Î´":3936,"ÏĥÎ±Î½Î±":3937,"ĠÎ®ÎºÎ¹Î½Î·Î»Î»Îķ":3938,"Î³ÏģÏīÎµÎĵ":3939,"Î¶Î¬Î²":3940,"ÏĢÎ¿ÎºÎ±Î¹Î´":3941,"Î¹Î¼Î¿Î½":3942,"ĠÎ¹ÏĦÎ¬Î¼":3943,"ĠÎµÎ¸Î¬Îļ":3944,"ÏģÎ¿ÏĨÎ±":3945,"ÏħÎµÎ´Î¯Î±ÏĢÎºÎµ":3946,"3102":3947,"ĠÎ·ÏĥÎ±ÏĦÏĮÏģÏĢ":3948,"ĠÏįÎ¿ÎºÏĬ":3949,"Î³Î³Îĳ":3950,"ĠÎ½Î¿Î»Î»ÎŃÎ¼":3951,"Î¬Î»Î»Îķ":3952,"ÏįÎºÎ¿ÏģÏĢ":3953,"ÏģÎ¿Îº":3954,"ĠÏĤÎ®Ïĥ":3955,"Î³ÏģÏħÎ¿ÏĢÏħÎ¸ÏīÏģÏĢ":3956,"ĠÎ¬ÎºÎ¹Î¼":3957,"ĠÎ·ÏĥÎ½":3958,"ĠÎ·ÏĥÎµÎ¸ÎºÎŃ":3959,"Ġra":3960,"Î½Î¸ÎµÎ¹ÎĶ":3961,"Î½ÏįÎ¸ÏħÎµ":3962,"ÏĨÏĥÎĳ":3963,"ĠÎ®Î³Î±Î»Î»Î±":3964,"ĠÎ½ÏİÎ¹Ïģ":3965,"ĠÎ±Î¼ÏħÎµ":3966,"ĠÏĤÎ±Î£":3967,"Î½ÏħÎ¿Î¼":3968,"tna":3969,"Î½Î±ÏĩÎ·Î¼Î¿Î¹Î²":3970,"ĠÏĮÏĦÏĥÎ¿ÏĥÎ¿ÏĢ":3971,"ĠÏĤÎ¯ÎµÏģÎ¿ÏĢÎ¼":3972,"ÏįÏĥÎ¿Î¹":3973,"ĠÎ±ÎŃ":3974,"ÏįÎ¿ÏĢÎ¼":3975,"ĠÎ¹ÎµÎ´":3976,"Î¥Îĳ":3977,"ĠÎ¿ÎºÎ¹":3978,"Î±ÎºÎ³Î±Î½Î±":3979,"Î³Î·Î¾Îµ":3980,"ĠÎ½Î¬ÎµÏģÏīÎ´":3981,"Î¥ÎŁÎ¤":3982,"Î½Î¯Ïģ":3983,"ĠÎµÎ¼ÏįÎ¿ÏĦ":3984,"Î¬ÏģÎ¤":3985,"ĠÏĤÎ·ÏĥÎ·Ïģ":3986,"ÎµÏģÎ·ÏĢÎµ":3987,"ĠÎµÏĦÎµÏĥÎ¬":3988,"Î»Î±ÏħÎ¼":3989,"ĠÎ±Î¯ÎºÏģÏħÎ¿Î¤":3990,"ÎºÏįÎº":3991,"ÏħÎ¸ÏįÎµ":3992,"Î¯ÎµÎºÎ¹ÏĦÎ½Î±":3993,"ĠÏĤÎ¿ÏĢÏĮÏģÏĦ":3994,"ĠÎ¯ÎµÏĦÏĥÎ±":3995,"Î±Î»Îº":3996,"ĠÎµÎ½Î±":3997,"ÏĢÎŃÎ½ÏħÏĥ":3998,"Ġ.\"":3999,"Î½Î¬Ïģ":4000,"ÏĥÎŃÎ´":4001,"Î¹Î¿ÏĢÎ¿ÏĦ":4002,"ĠÏĮÏģÎ¹Î±Îº":4003,"ÏįÎ»Î¿ÏĢÎ±":4004,"Î±ÏĦÏīÏģÏĢ":4005,"ÏİÏĢ":4006,"ÏĩÏħÏĦÏĢ":4007,"Î·ÏģÎ·ÏĦ":4008,"ĠÎ±Î´Î¯Î»ÎµÏĥÎ¿ÏĦÏĥÎ¹":4009,"ĠÏħÎ¿ÏĢÏįÏĦ":4010,"ÏįÏĩÎ±ÏĦ":4011,"Î·Î»Î»Î¬":4012,"Î²Î±ÏģÎ²":4013,"ĠÏĤÎ¹ÎµÎ¼Î¬Î½ÏħÎ´":4014,"??":4015,"ĠÎ·Î½Î¯ÎµÎºÎµ":4016,"ĠÎ½ÏħÎ¿Î½Î¯Î³":4017,"ĠÏħÎ¿Î´":4018,"ÏĤÎ¿ÏĢ":4019,"Î¹ÏĥÎ¬ÏģÏĢ":4020,"ÎºÏģÎ±Î¹Î´":4021,"ÏĤÎ±Î¯ÏĥÎ±Î³ÏģÎµ":4022,"ĠÎ·ÏĪÎµÎºÏĥ":4023,"ÏĤÎ¿Î´":4024,"Î¹Î¼Î¿":4025,"ĠÎ±Î¹ÎµÎ¸Î®Î»Î±":4026,"á¼Ĳ":4027,"ĠÎ½Î±Î¶":4028,"Î¹ÏģÏĩ":4029,"Î¹Î¾Î±ÏĦ":4030,"ÏħÎ¿Î¯Îµ":4031,"Î»ÎŃÎĺ":4032,"ĠÎ¿Î¹ÏģÎ¬":4033,"Î¹ÏĥÎ±ÎĴ":4034,"ĠÎ½ÏİÎºÎ¹ÏĦÎ±Î¼":4035,"Î¸Î¬Î²":4036,"Î¹Î¿ÏĦÎŃÏĦ":4037,"ĠÎ·ÏĥÎ¿Î´ÎºÎŃ":4038,"Î¬Î¼Î¹Î¿ÏĦÎµ":4039,"ĠÎ±ÏĦÎ±Î¼Î®":4040,"raM":4041,"ĠÎ¬Î¹Îµ":4042,"Î±ÏģÏİÏĩ":4043,"ÏĮÎ²":4044,"ÎºÎ¹Îľ":4045,"Î±Î½Î±Î¾":4046,"ÏĤÎµÎ»":4047,"63":4048,"ÏģÎŃÎ´":4049,"ĠÎ·ÏĥÎµÎ¸ÏĮÏĢÏħ":4050,"Î®ÏĢÏħ":4051,"Î·ÏĥÎ±ÏĦ":4052,"ĠÎ±Î¼Î®Î¼ÏĦ":4053,"Î®Î»Î±ÏĦÎ±Îº":4054,"ĠÎ£Îĳ":4055,"2102":4056,"Î¹ÏĨÎ®ÏĪ":4057,"ÏĦÏĥÎµÎ¸Î±Îº":4058,"Î±ÏĪ":4059,"Î·ÏĥÎ·ÏĦ":4060,"ÏĥÎ¯Ïģ":4061,"Î¿Î½Îĳ":4062,"Î±Î¹ÏĢ":4063,"tsa":4064,"ÏģÎ¬Îľ":4065,"Î½ÏīÏģ":4066,"Î³ÏĮÎ»Î¿Î¹Î¾Î±":4067,"ÏģÎ¬ÏĨ":4068,"ÏĥÏħÎ¸Î·Î»ÏĢ":4069,"Î±Î¯Î¼":4070,"92":4071,"Î¿ÎĴ":4072,"ÏħÎľ":4073,"ÏħÎ´Î½Î¯":4074,"Î¹Î±Ïĩ":4075,"Î¬ÏĦÎµÎ¾Îµ":4076,"ĠÎ¿Î½Î¿ÏģÏĩ":4077,"ÏģÎµÏĢÎµÎ¾":4078,"Î±ÏģÎ³ÎŃ":4079,"Î¹Î±Ïĥ":4080,"Î¿ÏĥÎ¹":4081,"Î±Î¯Î´":4082,"ĠÎ±Î½Î®Î¼":4083,"ĠÏħÎ¿Î¯ÎµÎ¼Î¿ÏģÎ´ÏħÏĩÎ±ÏĦ":4084,"âĤ¬":4085,"ÏĤÎµÎ¯Ïĥ":4086,"ÏĦÏĥÎ¹Î³Î¿Î»Î¿ÏĢÏħ":4087,"ĠÏĤÎŃÎ¼Î¹ÏĦ":4088,"ĠÎ·ÎºÎ¯Î½":4089,"ĠÎµÏĦÎ±Ïĥ":4090,"ĠÎµÎºÎ·Î¸Î®ÏĦÏģÎ±Î½Îĳ":4091,"ĠÏĤÎ·ÏĥÎµÎ¸":4092,"ÏĩÏĮÏĦÏħÎ±ÏĦ":4093,"Î¯ÏĦÎ¹Î±":4094,"ĠÎ·Î¾ÎŃÎ»":4095,"ÏģÎŃÏĨÎ¹ÏģÎµÎł":4096,"ĠÏĤÏīÏģ":4097,"Î¹ÎµÎ´ÎŃ":4098,"Î¼Î±ÏģÎĵ":4099,"Î¿Î½ÏĮÏģÏĩ":4100,"Ġá¿":4101,"ĠÏĤÎµÎºÎ³Î¬Î½Î±":4102,"ĠÏĤÎ¿Î´Î¿":4103,"ĠÎ±ÏĥÏĦ":4104,"Î¬Î½Î±Î¸":4105,"ÏĤÎ¿Î½ÎŃÎ¼":4106,"Î»Î»ÏħÎ£":4107,"ÏħÎµÎ¼":4108,"ĠÎµÏĦÎ¿ÏĢÎ®Î´Î±Î¹":4109,"Î½Î±Î´Î¹":4110,"Î±Î½Î¯":4111,"Î½ÏīÎ³Î±Î¹Î´":4112,"Î¹Î³Ïħ":4113,"Î¿ÏģÎ³Î±":4114,"ĠÏİÏģÎ¿ÏĢÎ¼":4115,"Î¿ÎºÎ¿ÏĥÎ¿Î½":4116,"ÎºÎ·Î¸":4117,"ĠÎ·ÏĥÏīÎ»Î®Î´ÎºÎµ":4118,"ĠÎ®ÎºÎ¹Î³Î¿Î»":4119,"Î¯Î±Ïĩ":4120,"ĠÎ±Î¯ÏĩÏħÏĦÎ¹ÏĢÎµ":4121,"ÎºÎ±Î»Î»":4122,"ĠÎ·ÏĢÎ¬Î³Î±":4123,"Î¯Î±ÏĦ":4124,"ĠÏįÎ¿Î½":4125,"Ġ5102":4126,"ĠÎ¯Î¿Î»Î»Î¿ÏĢ":4127,"Î½Î¹Î¼":4128,"RE":4129,"reggolB":4130,"Î¹ÏĢÏĮÏĦ":4131,"ÏĥÎ±ÏģÎµÏĢ":4132,"ĠÎ¹ÎµÎ»Î¬Î²":4133,"ĠÎ±ÏģÏİÎ¤":4134,"ĠÎ¿ÏĥÏĮÏĦÏĥÏī":4135,"ĠÎ½ÏİÎ¹Îµ":4136,"ÎĵÎĳ":4137,"ĠÎ¯Î¿Ïģ":4138,"ĠÎ¿ÏģÏĦÎ½ÎŃÎļ":4139,"ÏĥÎ¹Î±Î½ÏħÏĥ":4140,"ĠÎ¬Î½Î±Î¾":4141,"dra":4142,"Î¿Î³Î¿Î»":4143,"Ġá½¶":4144,"ÎĹÎ¤Î£":4145,"Î¯ÏĢÎ±":4146,"ĠÎ®ÏĦÎ·":4147,"ĠÏĤÎ¿ÏĦÎŃ":4148,"Î½Î¬Îļ":4149,"Î¿Î´Î¿ÏĢÎ±":4150,"Î®ÏĨÎ±":4151,"Î²Î±Î£":4152,"ĠÏĤÏīÎł":4153,"ÏįÎµÏĦÎ±Îº":4154,"Î·Î»Î»Î±":4155,"Î½ÏĮÏģ":4156,"ĠÎ¹Î»":4157,"691":4158,"ĠÎ±ÎŃÎ¼Î¿ÏĦ":4159,"ĠÎ±Î½ÎŃÎ¼Î¿Î´ÎµÎ´":4160,"Ġci":4161,"ĠÏĤÎµÎ³Î¯Î»":4162,"ÏĦÏĥÎ¹Î»Î±ÏĨÏĥÎ±":4163,"ĠÎ±Î»ÏĢÎ¯Î´":4164,"Î·Î½ÏģÎµÎ²ÏħÎº":4165,"ÎµÎĽ":4166,"ĠâĤ¬":4167,"Î±Î¼Î¼Î±ÏģÎ³":4168,"ĠÏĤÎ±Î´Î¯":4169,"Î³ÏħÎ¶":4170,"ĠÎ±Î¯Î½Î¹Î±ÏĦ":4171,"ĠÎ·ÏĥÎ¬ÏĦÏĥ":4172,"Î³Î·Î¸Î±Îº":4173,"ĠÎµÏĦÏĥÎ®ÏĦ":4174,"ĠÎµÏĥÎ·Î½Î¯ÎºÎµÎ¾":4175,"Î¹ÏĩÏĮ":4176,"ĠÎ½ÏīÎ»":4177,"ĠÎ±Î´Î¬":4178,"Î»Î¿Î²Î¿ÏģÏĢ":4179,"ĠÎ±Î¹Î±Î²ÎŃÎ²":4180,"ÏĮÎ½Î¿Î³ÎµÎ³":4181,"ĠÎ½Î±Î½Î±ÎºÎŃ":4182,"ĠÏĤÎµÎ¸Ïĩ":4183,"ÏīÏĥÏĮÏģÏĢÎºÎµ":4184,"ÎŃÎ¿ÏģÏĢ":4185,"Î¹ÏĦÏĥÎµ":4186,"ÏĮÎ¼Î·ÎĶ":4187,"Î½Î·ÏĦ":4188,"ĠÎ±Î¹ÏĦÎ½Î¬":4189,"ÎµÎ¸ÏĥÏĮÏģÏĢ":4190,"ĠÏĤÎ±Î½Ïİ":4191,"ĠÎ½ÏīÎµÎ¾":4192,"Î½Î¿Î»Î»Î¬Î²Î¹ÏģÎµÏĢ":4193,"Ġliame":4194,"Î¿ÏĢÏĮÏģÏĦ":4195,"ÏĢÎ¹Î¿Î»ÏĮÏĢÏħ":4196,"Î¹Î»Î»Î±":4197,"ĠÎ¿ÏģÎ´Îµ":4198,"Î±Î¯Î²":4199,"Î¹ÏĨÎ±":4200,"ÏįÎ¿Ïĥ":4201,"ĠÎµÎ»Î±":4202,"ĠÎµÏĦÎ¯ÎµÏģÎ²":4203,"ĠÎ·ÏĥÎ·ÏĦÎ½Î¬Î½ÏħÏĥ":4204,"Î½ÎŃÎ´":4205,"Î®Îľ":4206,"Î¼Î¿Î½ÏħÏĦÏĥÎĳ":4207,"ÏħÎ¿ÎĽ":4208,"Î¹ÎµÎ»Î»ÎŃ":4209,"Î¿ÏĦÏīÏģÎł":4210,"Î¬Î¹Ïģ":4211,"ÏħÎ½Ïİ":4212,"ĠÎ·ÏĥÏīÎ½Î¯Î¿ÎºÎ±Î½Î±":4213,"ĠÎ¬Î¹Ïģ":4214,"ÎºÎ±Î¹ÎµÏģÎµÏĨ":4215,"ÏİÎº":4216,"ĠÏĤÎ¿ÏģÎ´ÎµÏĮÏģÎł":4217,"ÎºÎ¯Î¿ÏĦÎ±Îº":4218,"Ġ,âĢĿ":4219,"ĠÎ±Î¹ÏģÏįÎ¼Î¼Î¿ÏĦÎ±ÎºÎµ":4220,"ĠÎ±Î»Î¬Î³ÎµÎ¼":4221,"ĠÎ·ÏĦÏģÎ¬ÏĦÎµÎ¤":4222,"ĠÎŁÎłÎĳ":4223,"ĠÏĤÎ¹ÎµÏĥÎ¬ÏĦÏĥ":4224,"erG":4225,"Î·ÏĨÎ¬":4226,"ÏģÏĦÎ½ÎµÎļ":4227,"ĠÏĤÎŃÎ³Î±Î»Î»Î±":4228,"Î¿ÏĦÏĥÎ¹ÏĢ":4229,"Ġ32":4230,"ĠÏĤÎ¬ÏģÎ¿ÏĨ":4231,"ĠÎ®Î¼ÏģÎ¿ÏĨÎ±":4232,"ÏĨÎ±Ïĥ":4233,"ÏģÎ¬Î¼":4234,"Î³Î¹Îĳ":4235,"Î¹Î£":4236,"ĠÎ¹ÎµÎ¬ÏĦ":4237,"ge":4238,"Ġsu":4239,"ÏīÎµÏģÏĩÎ¿ÏĢÏħ":4240,"ve":4241,"ÏĥÎ¹Îķ":4242,"ÏĤÎ®Î¾Îµ":4243,"ÏģÎµÎ³":4244,"Î¿ÏĩÏħÏĪ":4245,"ĠÏĤÏīÏĥÎŃÎ¼Î±":4246,"Î©Î¡":4247,"Î¹Î½ÏĮÎ¼":4248,"ĠÎ¿Î½ÎŃÎ¼Î¹ÏģÎºÎµÎºÎ³ÏħÏĥ":4249,"ĠÎ¬ÎºÎ¹ÏĦÏĥÎ¹ÏģÎ·ÏĦÎºÎ±ÏģÎ±Ïĩ":4250,"Î¯ÎµÎ´Î¹Î±Îł":4251,"ĠÏĤÏħÎ¿ÏģÏĮ":4252,"Î¹ÏģÎŃ":4253,"Î¹Î»Î¿ÏĩÏĥ":4254,"Î³ÏĮÎ»Î¿":4255,"Î±Î¼Ïĥ":4256,"ĠÎ½ÏĮÏĦ":4257,"ÎŃÎ½ÏħÎ£":4258,"ĠÎ¯Ïĥ":4259,"ÎºÎµÎ´":4260,"Î½Î±Î³ÏģÎŁ":4261,"hP":4262,"ĠÎ·Î»ÎŃ":4263,"ĠÏĤÎ¹ÎµÏĥÎ¬ÏģÎ´":4264,"ÏĥÎ¯Î¼Î¸ÏħÏģ":4265,"ĠÏĤÎµÏĦÎŃ":4266,"Î¸Î±Îļ":4267,"ÏįÎķ":4268,"ĠÏīÏģÎŃÏĦ":4269,"ĠÎ½ÏīÏĢ":4270,"ÏĥÎ¹ÏģÎ¿Î¹ÏģÎµÏĢ":4271,"ĠÎ½Î·Îľ":4272,"pe":4273,"bo":4274,"Î·Î»Î¸Î¬ÏĦ":4275,"ĠÏĮÏĦÏĥÏīÎ½Î³":4276,"ÎºÏĥÎ±":4277,"ÏİÏģÏĦ":4278,"ĠÎ½ÏīÎ½Î®Î»Î»Îķ":4279,"ÏģÎµÎ£":4280,"ĠÎ±Î´Î¬Î¼Î¿Î´Î²Îµ":4281,"ÏİÎ¹Î½":4282,"ĠÎ¬ÏĦÎ·ÏĦÏĮ":4283,"Î½Î±ÏĦÎ±Îº":4284,"Î®ÏĦÏĥÎ¹ÏĢÎµÎ½Î±Îł":4285,"ÏĮÏģÎ¹Î±Îº":4286,"ÏĩÏĥÎ±ÏĢÎ±":4287,"ÏĢÏħÏĦÏĩ":4288,"ĠÏĤÎ·ÏĥÎ¹Ïģ":4289,"Î¹Î±ÏĦÎķ":4290,"ĠÂ«":4291,"oediv":4292,"ĠÎ¹ÎµÏĦÎŃÎ¸Î±Î¹Î´":4293,"Î¬Î¼ÎµÎ³":4294,"Î±ÏĢÏĥ":4295,"ĠÎ¿Î²":4296,"ĠÏĤÎ±ÏĦÎ½Î¿ÏĩÎŃ":4297,"ÏĤÎŃÎ¼":4298,"ÏĤÏĮÎ¼ÏĥÎ¹":4299,"Î¬ÏĪ":4300,"Î¹ÏĦÏĨ":4301,"ĠÎ¹Î±ÏĦÎ¯ÎµÏĦ":4302,"Î¿Î¶":4303,"Î¹ÏĦÎ»ÎµÎ²":4304,"Î·ÏĢÏİÏģÏħÎķ":4305,"Î³ÏįÎµ":4306,"ÏįÎ´Î½ÎµÏĢÎµ":4307,"ĠÎ±Î¯ÏĥÎ±ÏĦÏĥÎ¿ÏģÏĢ":4308,"ÎķÎĺ":4309,"ĠÎ¯ÎµÎ¸Î·ÏĦ":4310,"Î¹Î±ÏĨÏĥÎ¿Î´Î¿ÏĢ":4311,"Î½ÏİÎºÎ¹ÏĦ":4312,"ÎºÎ¹Ïģ":4313,"ĠÏĤÏħÎ¿Î³ÏĮÎ»":4314,"Î¿Î¶Î±Î³ÏģÎµ":4315,"ÏħÏĦÎºÎ¹Î´":4316,"ĠÎ·ÏĥÎ·Î¯Î¿ÏĢÎ¿Î½Î¹Î¿Îļ":4317,"ĠÏĤÎ¿ÏĦÎ¬ÏģÎº":4318,"Î¶ÎµÏĢÎ¬ÏģÎ¤":4319,"ĠoT":4320,"ĠÏĤÎ¯ÎµÎ½Î¿Î³":4321,"Î½Î±ÏĦÎµÏģÎĴ":4322,"Î½ÎµÎ³Î¿ÎºÎ¹Î¿":4323,"Î¯Î¿Î½Î±":4324,"ĠÏĤÎ¹ÎµÏĥÏİÏĦÏĢÎ¹ÏģÎµÏĢ":4325,"ÏĨÎ¬Ïģ":4326,"ĠÎ±Î¯Î½ÏīÎ½Î¹Î¿Îº":4327,"ĠÎµÏĦÎ¿ÏĦ":4328,"Î±Î¶":4329,"Î¿ÏģÎ¹ÎµÏĩ":4330,"Î¯ÏĦÎ½Î¿ÏģÏĨ":4331,"ĠÎ±Î¹Î»ÏĮÏĩÏĥ":4332,"ĠÎ½Î±ÎºÎ·Î¸Î®":4333,"ÎµÎ´Î½ÏįÏĥ":4334,"Î²Î¼ÏįÏĥ":4335,"ĠÏĤÏĮÏĦÏħÎĳ":4336,"ĠÎĶÎĿ":4337,"ÏįÎ¿Î´":4338,"ĠÎ¹Î¾ÎŃ":4339,"ĠÎ±Î½Î¿Ïģ":4340,"ÏĨÎ·ÏĪÎ¿":4341,"ÎºÎ³ÏįÏĥ":4342,"ĠÎ±ÏĦÎ·ÏĦÏĮÎºÎ¹":4343,"ĠÎ½ÏįÎ¿ÏģÎ¿ÏĨÎ±":4344,"ĠÏīÎ»ÎŃÎ¸":4345,"ĠÎ±Î¹Î¿Î½":4346,"Î¹ÏĨÎ·ÏĪ":4347,"ĠÎ¿Î»Î¿Î½ÏįÏĥ":4348,"ÎµÏĦÏĥÎ±Î¼":4349,"ĠÎ·Îº":4350,"ĠÎ¥ÎŁÎł":4351,"ĠÎ½ÏįÎ¿ÏĦÏĥ":4352,"ĠÎ½ÏħÎ¿Î½ÎŃÎ¼":4353,"ÏİÏĦÏĢ":4354,"ÎºÎµÎ»ÎĹ":4355,"ÏĤÎ¹ÎµÏĪ":4356,"Î¸ÏĩÎµ":4357,"ĠÎ±ÏģÎŃÏĢ":4358,"ÏĨÎ»ÎµÎ´":4359,"ĠÎ¹ÎµÏįÎµ":4360,"ÏīÎµÎ³":4361,"Î½ÎŃÎ¾":4362,"ĠÏĤÎ®Î»Î±ÏĨÎµ":4363,"Î¿ÏĦÎ¬Îº":4364,"Î¬ÎºÎµÎ´":4365,"tsi":4366,"nO":4367,"ĠÏĩ":4368,"Î¿ÏĦÎµÎ¼":4369,"ĠÏĤÏīÎ¸Î®Î½ÏħÏĥ":4370,"Î±Î¼Î³":4371,"ÎºÎ±Î´":4372,"Î¹Î³ÎŃ":4373,"ĠÎ¹Î±ÏĦÎµÏĩÎŃÎ´":4374,"ĠÎ±Î¼Î·ÏĦÎ®Î¶":4375,"ÏīÎ¹Î¾Î±":4376,"Î¿ÎµÎĺ":4377,"Î½Î¹Î¿ÏĢ":4378,"ĠÎ¿ÏĢÏħ":4379,"ĠÎ½ÏīÎ¯Î¿ÏĢÎ¿":4380,"ÏĦÏĥÎ¯":4381,"ÎĶÎķ":4382,"ÎµÎ»ÏĢ":4383,"Î¹ÎµÏĢÎ±":4384,"ĠÎ¬Î¹Î½Î¿ÏģÏĩ":4385,"Î¬Î»ÎµÏĢ":4386,"ĠÏĤÎ·Î½Î½Î¬Î¹Îĵ":4387,"ĠÎ·ÎºÎ¬":4388,"ÎºÏģÎ±Îº":4389,"Î±Î¼ÎŃÎ¸":4390,"ÏįÏĩÏĥÎ¹Î½Îµ":4391,"ÏģÎ±Î½ÎŃ":4392,"ÎµÎ¸Î¯ÏĦÎ½Î±":4393,"ĠÎ±Î¹ÎºÎ¬":4394,"lle":4395,"ĠÎ¬ÏĦÏħÎĳ":4396,"ĠÎµÏĦÎ¿ÏĢÎ®Î´Î±Î¹Î¿ÏĢÎ¿":4397,"ĠÎ½ÏħÎ¿Î½Î¬Î²Î¼Î±Î»":4398,"Î±ÏģÏĮÎµÎ»Î·ÏĦ":4399,"Î±Î¹Î´Î¯":4400,"ÎŃÏĥ":4401,"ĠÎ±Î¹ÎµÎ¸Î®Î¿Î²":4402,"Î¸Î®Î»Î±":4403,"Î±ÏĦÏĨÎŃ":4404,"ĠÎ¹ÎµÏĢÎŃÏģÎł":4405,"ÎĳÎĿÎĳ":4406,"ĠÏĤÎ¿Î¹Î³":4407,"Î±Î¼Î±Î£":4408,"Î½Î¿ÎŃÎ»ÏĢ":4409,"ÎµÏģÎ¬":4410,"ĠÎ·ÏĦÏĢÎ¼ÎŃÎł":4411,"Î½Î±ÏĢÏĥÎĻ":4412,"ĠÎ¹Î±ÏĦÎµÏģÎŃÏĨÎ±Î½Î±":4413,"ÏĢÎ¬Î½Îĳ":4414,"ĠÎ·ÏĥÎ¬ÏģÎ´":4415,"ÏĥÎķ":4416,"ĠÎµÎ¸ÏģÎ®":4417,"ÏĮÎļ":4418,"Î»Î±Î³ÏģÎµ":4419,"ĠÏĤÎµÏĦÏİÏģÏĢ":4420,"Î¿ÏģÎ¸ÏģÎ¬":4421,"Î¹Î»Î·":4422,"ÏģÎ¹ÎµÏĩ":4423,"ÏīÎĶ":4424,"Î²Î¹ÎĴ":4425,"ĠÎ·ÏĥÎ·ÏĦÎ®Î¶ÏħÏĥ":4426,"ĠÏħÎ¿Î¤":4427,"ĠÎµÎ¼Î±ÏĩÎ¯Îµ":4428,"ĠÎ½Î±ÏĦÎ½Î¿":4429,"ĠÎµÏĩÏģ":4430,"ÎŃÎ¸Î±Îº":4431,"ĠÏĤÎ¿ÎºÎ¯ÎĿ":4432,"Î½Î±ÏĦÎ½ÏīÎ¶":4433,"Î»Î»Î±Î²":4434,"ĠÎ®ÏĨÎ¿ÏģÏĦ":4435,"Î¿Î½Î½Îµ":4436,"ĠÎ¯ÏĦÎ½Î±":4437,"Î·Î½ÏģÎŃÎ²":4438,"ĠÏįÎ¿ÎºÎ¹Î½Î·Î»Î»Îµ":4439,"ĠÎ¹Î±ÏĦÎµÎ¸Î¯ÏĦ":4440,"ĠÏĤÎ©":4441,"ÏģÏīÏĩÎ¿ÏģÏĢ":4442,"ĠÎ±Î¹ÏĥÏĮÎ¼Î·Î´":4443,"ĠÏħÎ¿Î³ÏĮ":4444,"Î±ÏģÎºÎ¿Î¼ÏģÎµÎ¸":4445,"ĠÎ·ÏĥÎ·ÏģÎ®ÏĦ":4446,"ĠÎ±Î¯ÏĨÎ±ÏģÎ³":4447,"hS":4448,"Î¹Î±ÏĢÎŃ":4449,"ÏĥÎµÎ¼":4450,"ÎµÎ¯ÏĢ":4451,"ĠÎ·Î½ÎŃÎ¼Î¹ÏģÎºÎµÎºÎ³ÏħÏĥ":4452,"Î·Î´Î±Îº":4453,"ĠÎµÎºÎ·Î¸Î®Î½":4454,"ĠÎ±ÏģÏħÎ¿Î³Î¯Ïĥ":4455,"ÎŃÏĥÎ¿ÏģÏĢ":4456,"ĠÎ¹ÎµÎ½Î¯Î±Î²Î¼ÏħÏĥ":4457,"Î»ÎµÎľ":4458,"Î±ÏĢÏīÏģÏħÎķ":4459,"ĠÎ¿ÏħÏĦÎºÎ¯Î´":4460,"ÏħÏĦÏĢÎ¬Î½Îĳ":4461,"ÏĢÎ¿ÎµÎ»Î·ÏĦ":4462,"ĠÎ±Î¯ÏĥÎ±Î¼":4463,"ÏįÎ³Î³":4464,"ÏĩÎµÎ¾":4465,"Î±ÏģÏĥÎĻ":4466,"ÏĥÎ¹ÏĢÎķ":4467,"ĠÎ±Î»Î¿ÎºÏįÎµ":4468,"ÏģÎ¿ÏĦ":4469,"ÏħÏĩÏĥÎ¯Î½Îµ":4470,"ĠÎµÏĦÏĥÎµ":4471,"ÎŃÏģÎ¿ÏĢÎ¼":4472,"ÎµÎ´Î½ÏħÏĥ":4473,"ÎĹÎľ":4474,"Î¾Îĳ":4475,"Î·Î¾ÏħÎ±":4476,"ÏĩÏħÏĦÏħÎµ":4477,"ĠÎĿÎ©Î¤":4478,"ÏĤÎµÏģÏİ":4479,"Î¯ÏĦÎ½Îĳ":4480,"Î¯ÏĦÎº":4481,"ÏĦÏĥÎ¹ÏĢÎ±Î¹Î´":4482,"ĠÎ¹ÎµÎ½Î¬Î²Î¼Î±Î»Î¹ÏģÎµÏĢ":4483,"ÏįÎ¿Î¤":4484,"Î®Î»ÎºÎ¿Î»Î¿":4485,"Î¬Î½Î±ÏĦÎµÎ¼":4486,"ĠÎ¿Î¹Î¿ÏĢ":4487,"Î½Î·Î¼Î¿ÏģÎµÎ¼Î·":4488,"Î²Î¿ÏĨ":4489,"ÏĥÎµÎľ":4490,"Î¯ÏĦÎµÎ±ÎºÎµÎ´":4491,"Î·Î½Îķ":4492,"ÏģÎ·ÏĦÎ±Î¹Î´":4493,"ĠÎ½Î±ÏģÎµÏĨ":4494,"ĠÎ·Î¤":4495,"Î½Î·Î¼ÏģÎµ":4496,"ĠÎ±Î»Î¬":4497,"ĠÎ¬ÎºÎ¹ÏĦÏĥÎ¹ÎµÎ»ÎºÎ¿ÏĢÎ±":4498,"Î·ÎºÎ¯Î½Î¿Î»Î±ÏĥÏĥÎµÎĺ":4499,"Î¿Î´Î¿ÏĢÏħ":4500,"ÎºÎŃÎ´":4501,"ĠÎ±Î¯ÎµÎ³Ïħ":4502,"Î³Î·ÏĩÏģÎ±":4503,"Î¬Î¼ÏħÎ¸":4504,"ĠÎ®ÎºÎ¹ÏĦÎ¹Î»Î¿Îł":4505,"ĠÎ±Î¹ÏģÏĮ":4506,"ĠÎ±ÏĥÎŃÎľ":4507,"ĠÎµÎ¼Î±Îº":4508,"ĠÎ±Î¯ÏģÎ¿Î³Î·ÏĦÎ±Îº":4509,"ĠÎ¿Î½ÏĮÎľ":4510,"ĠÏĤÎ±ÎŃ":4511,"ÏħÎ±Îº":4512,"Î·Î³Î®Î´":4513,"ÏĤÎ¬Î¹":4514,"ĠP":4515,"Î½ÏģÎ¯Î±ÏĢ":4516,"ÏģÎ¿Îµ":4517,"Î½ÏįÎ¿ÏĦ":4518,"Î½ÏīÎ¼":4519,"ĠÎ±ÏĦÎ±Î¼Î®ÏģÏĩ":4520,"ĠÎ·ÏģÎ®Î»ÏĢ":4521,"Î¹Î¿Î»ÏĮÏĢÏħ":4522,"ĠÎĻÎ¤":4523,"ĠÏĤÎ¯ÏģÏīÎ§":4524,"Î½Î±Î½ÏħÏĥ":4525,"ĠÎ·Î¾Î¹Î»ÎŃÎ¾Îµ":4526,"ĠÎ·Î¼Î¹Ïĥ":4527,"ÏħÎ±ÎĿ":4528,"53":4529,"ĠÏĤÎŃÎºÎ¹Î´":4530,"ĠÎ±Î¯ÏĦÎµ":4531,"ĠÎ±ÏģÎ¿ÏĨÎ¬Î¹Î´":4532,"ĠÏĤÎ¿ÏĦÎŃÏĨ":4533,"ĠÎ·ÏĥÎµÎ¼Î¬":4534,"Î·Î½Î¿ÏĢÎ¿ÏģÏĢ":4535,"Î±Î¼Î·ÏĦ":4536,"ĠÏĤÎ·ÎºÎ¬":4537,"Ġ4102":4538,"Î³ÏģÏįÎ¿":4539,"491":4540,"ĠÏįÏĥÎµ":4541,"Ġma":4542,"Î¿ÏĢÎ¼Îµ":4543,"ĠÏįÎ»Î¿Îł":4544,"ĠÎ·Î¼ÏİÎ½Î³":4545,"ÎºÎ±Î¹ÏĥÎ¿Î´Î±ÏģÎ±ÏĢ":4546,"Î¥Îļ":4547,"Ġso":4548,"ĠÏīÏģÎŃÎ¾":4549,"ĠÎµÎ¼ÏįÎ¿Î¸":4550,"ugaeL":4551,"ĠÎ±ÏģÎ¬ÏĢ":4552,"ĠÎ·ÏĥÏħÎ»Î¬":4553,"Î·ÏĦÏĥÏħÏĥ":4554,"Î¹ÏĥÎ¹Îµ":4555,"Î¿ÏĥÏĮÏĦÏĥÎ©":4556,"Î±ÏģÎ±ÏĦ":4557,"ĠÎ®ÎºÎ¹ÏĥÏħÎ¿Î¼":4558,"ÏĤÎ±Îº":4559,"ĠÎ½Î±ÏĥÎ·":4560,"ĠÎµÏĦÏĮÏĢ":4561,"noita":4562,"ĠÎ½ÏİÎ¹ÏĥÎµÏģÎ·ÏĢÏħ":4563,"ĠÏĤÏĦ":4564,"ĠÎ®ÏĢÎ¿ÏģÏĦÎ¹ÏĢÎķ":4565,"ÏħÎ¿Î£":4566,"NI":4567,"Î¡ÎŁ":4568,"ĠÏĤÎ®Î»Î±ÏĨÎµÎºÎ¹ÏĢÎµ":4569,"Î¹Î¤":4570,"ĠÎ¿ÏĩÎ³ÎµÎ»ÎŃ":4571,"ÏĩÎ¿ÏģÎŃÏĢÏħ":4572,"Î·Î¼Î¯ÏĦ":4573,"Ġret":4574,"Î±Î½ÏħÎ´Î±":4575,"ĠÎ¬Î¹Î´ÏģÎ±Îº":4576,"ÏĥÏħÏģÏĩ":4577,"Î½ÏģÎķ":4578,"ĠÎµÏģÎµÏĨÎŃÎ½Î±":4579,"Î¸Î·Î»Î±":4580,"ÏĨÎŃÎºÏĥ":4581,"ÎµÎ¸Î¿Î¼Î¿Î½":4582,"ĠÎ¿Î´ÎµÏĢ":4583,"06":4584,"ĠÎĻÎĳÎĿ":4585,"ĠÎ±Î¹Î»ÏĮÏĩÎ£":4586,"08":4587,"ĠÎ»Îµ":4588,"Î³ÏģÎµÏĢÎ±":4589,"sre":4590,"Î³ÏħÎµÎ¶":4591,"ĠÏĤÎ·Î»ÏĮÏĢ":4592,"ĠÏĤÏħÎ¿Î½ÎµÎ¼ÏĮ":4593,"Î¿ÏĥÎ¹Îµ":4594,"ĠÏĤÏĮÎºÎ±":4595,"ĠÏĤÎŃÏĦÎ·":4596,"Î®Î¼Î³Î¹ÏĦÏĥ":4597,"ĠÎĹÎļÎĻ":4598,"Î®Î½Î±Î»ÏĢ":4599,"ĠÎ½ÏħÎ¿ÏĩÏģÎ¬ÏĢÎ¥":4600,"ĠÎ®Î³ÏīÎ³Î±ÏģÎ±ÏĢ":4601,"Î¿ÏĢÎ¿ÏģÏĦ":4602,"ĠÎ±Î¯ÏĥÎ±Î¼Î·Ïĥ":4603,"ÏĤÎµÎ½Î®Î¼":4604,"fa":4605,"ĠÎ½ÏħÎ¿Î¸":4606,"ÏħÎ¿Î¼ÏĥÏĮÎº":4607,"ÏĩÏģÎ±Î¹ÏģÏħÎº":4608,"1102":4609,"ĠÎ¿ÏĥÎĮ":4610,"ÏģÏĮÎº":4611,"ÏħÎ¸Î±Îº":4612,"ĠÏģÎŃÏĢÏħ":4613,"ruo":4614,"ĠÎ±Î¯ÎºÎ¹Î»Î·":4615,"ĠÎ¹ÎµÎ½ÎŃÎ¼Î±ÏģÎ±ÏĢ":4616,"Î·Î´Î¹Îµ":4617,"Î¹ÎµÎ»ÎŃÏĦ":4618,"ÏģÎ±ÎĴ":4619,"Î¿ÏĨÎ¬ÏģÎ³":4620,"ĠÎ¹Î¿Î¹Î¿ÏĢÎ¬Îº":4621,"Î½Î¿Î¼Î·Î½Î¼":4622,"ÏĦÎ·Î¶ÏħÏĥ":4623,"ÏĦÏĥÏīÎ½Î³":4624,"ÏģÎµÏĨÎ±Î½Î±":4625,"ÏĥÎ¬Î´":4626,"ĠÎ¿Î¹ÏĦ":4627,"Î¿ÎµÏĦÎ½Î¯Î²":4628,"ĠÎĹÎ¤":4629,"Î³Î·Îł":4630,"ĠÏħÎ¿Î¯Ïĥ":4631,"ÏģÎ±Î¾Îµ":4632,"ĠÎ¹ÎµÎ½Î¬":4633,"Î½Î¼":4634,"Î¹ÎµÏĩÎ±Î¹Î´":4635,"ĠÎ±Î¶":4636,"ĠÏĤÎ®Î»":4637,"ÏħÎµÏĪ":4638,"ĠÏĤÏīÎ½ÎŃÎ¼":4639,"ĠÎ±Î¼Î³Î¹ÎµÎ´Î¬ÏģÎ±ÏĢ":4640,"ĠÎ¿Î½ÎµÎ¼Î¯ÎµÎº":4641,"Î½Î¬Î³ÏģÎ¿Î¹Î´":4642,"Î¬ÏĦÎ½Îµ":4643,"ĠÎ¿ÏĢÏīÏĥÏĮÏģÏĢ":4644,"ĠÎ¿Î»Î»":4645,"Î¿ÏĥÎ¿ÏģÏĢ":4646,"ĠÏĤÎ¹ÎµÏĥÎ®ÏģÎ¹ÎµÏĩÎ¹ÏĢÎµ":4647,"ÏĤÎ®Î»":4648,"ĠÎµÏĦÎµÎ»ÎŃÎ¸":4649,"ĠÎ½Î±Î½Î¹Î³ÎŃ":4650,"ÏģÎµÎ´":4651,"Î±ÎºÏĥ":4652,"ĠÎ¹Î±ÏĦÎ½Î¿Î¶Î¯Ïģ":4653,"Î¹ÏģÏįÎº":4654,"Î¯ÏģÏĦÎ±ÏĢ":4655,"ÏĩÎŃÎ»ÎµÏĦÏĥ":4656,"Î¹Îļ":4657,"ĠÏĤÏįÎ¿Î»Î»Î¿ÏĢ":4658,"sweN":4659,"Î¿ÎºÎ±Îº":4660,"Î¸Î¯Î±":4661,"ÎºÎ¹Î½ÎµÎ³":4662,"ĠI":4663,"ĠÏĤÎŃÎºÎ¹ÏģÎµÎ¼":4664,"ĠÏĤÎ·ÏĥÏħÎµ":4665,"ĠÎ±Î»Î»Î±":4666,"Î·ÏĥÎµÎ¼":4667,"ĠÎµÎºÎ·Î¸ÎŃÏģÎ²":4668,"ĠÎ·ÏĥÎ±Î²ÏĥÏĮÏģÏĢ":4669,"Î¹ÏģÎ¬ÎĽ":4670,"Î±ÏģÎµ":4671,"ÏģÎ¯Î±ÏĢ":4672,"ÏīÎĸ":4673,"ĠÎ½ÏįÎ¿Î¼":4674,"Ġ82":4675,"ĠÎ®ÎºÎ¹ÏĦÎ½Î±Î¼Î·Ïĥ":4676,"du":4677,"ĠÎ·ÏĦÎ¯ÏģÎ¤":4678,"Ġeht":4679,"ÏĦÎ±Î¼Î±ÏĦÏĥ":4680,"ĠÎ¿Î¯ÎµÎ³ÏģÏħÎ¿ÏĢÏħ":4681,"Î³Î¿ÏĦÎ½ÏģÎķ":4682,"ĠÏĮÏĥÎ¿ÏĢ":4683,"ĠÎ¹Î¿Î»ÎĮ":4684,"ĠÎ¬Î»":4685,"ÏģÏħÏĥ":4686,"ĠÏĤÏħÎ¿Î»Î¯ÏĨ":4687,"ĠÎ¹ÎµÏĥÎ¬ÏģÎµÏĢ":4688,"ĠÎ·ÏĥÎ·Î³Î®":4689,"Î»Î»Î¬ÏĦÎµÎ¼":4690,"sihT":4691,"ĠÏįÎ¿Î¼ÏĥÎ¹ÏĦ":4692,"ĠÏĮÎºÎ¹ÏĢÏīÏĥÎ¿ÏģÏĢ":4693,"Î»Î±ÏĦÎĻ":4694,"ĠÏĤÎ±ÎŃÎĿ":4695,"ÏīÎ½ÎĹ":4696,"ÏĢÎ¼ÎŃ":4697,"ĠÎ¿Îº":4698,"ÏĥÎ±Î³ÏģÎķ":4699,"ÏħÎ´Î½Î¯ÎºÎ¹ÏĢÎµ":4700,"ĠÎ»Î¬Î²":4701,"ĠÎ¹ÎµÏĩÎŃÏģÎ±ÏĢ":4702,"ĠÎ¯Î¿ÏĦ":4703,"Î³Î¯Î¿Î½Î±":4704,"ÏĤÎ·ÏĥÎ·":4705,"Î½Î¯ÎµÎ¼":4706,"ĠÏĮÎº":4707,"Î±Î»ÏįÏĨ":4708,"ÏħÎµÏĦÎ¯Î»Î¿ÏĢ":4709,"ĠÎµÏĦÏĮÏĢÎ¿":4710,"Î±Î½Î¯ÏĢ":4711,"ĠÎ±Î¼Ïī":4712,"ÏįÎ¿ÏģÏĦ":4713,"sihTgolB":4714,"ÏįÎ½Î·Î¼":4715,"rA":4716,"ĠÏİÎ³Îķ":4717,"Î¿ÏĦÏĥÎ¹ÏĢÎµ":4718,"ĠÎ®Î¼Î¿ÏģÎ´":4719,"Î¸ÏħÎµ":4720,"Î½Î¬ÏĢÎ¼":4721,"Î½ÎµÏĦ":4722,"Î¬ÏģÎł":4723,"ÏģÎ±ÏĢÎµ":4724,"Î½Î¬ÏĦÏĨ":4725,"ĠÏĤÎ¹ÎµÏĥÎ®ÏĦÏģÎ±Î½Î±":4726,"ĠÏĮÎ¼Î¸Î¹ÏģÎ±":4727,"Î½ÎŃÎºÎ³ÏħÏĥ":4728,"ÏĨÎµÎºÏĥ":4729,"ĠÏĤÏİÏĩÏħÏĦÏĥ":4730,"Î¸ÎµÎ¼":4731,"ĠÎ¯ÎµÏĦÏĥÎ¹":4732,"ÏĤÎ¿Î¸":4733,"ĠÎ·Î½ÏįÎ¸ÏħÎµ":4734,"ĠÏĤÎ±Î¯Î³ÏģÏħÎ¿ÏĦÎ¹ÎµÎ»":4735,"ÏĢÏį":4736,"ÏħÎ¸ÏįÎµÏĢÏħ":4737,"Î»Î±ÏĨÏĥÎ±Î¾Îµ":4738,"Î»Î±ÎĴ":4739,"ÏįÎ³Î³ÎµÎ»":4740,"ĠÎ±Î³Î¿Î»Î¬Î½Î±":4741,"ÎŃÏĨÎ±Îº":4742,"Ġp":4743,"Î¯ÎµÏĩÎ¿Î´Î¿Î½ÎµÎ¾":4744,"ÎµÏĢÎ¯Îµ":4745,"Î±ÏĨÏħÏģÎ¿Îº":4746,"ĠÏĤÎ¿ÏĦÏĥÏĮÎº":4747,"ĠÏīÏĦÏĥÎŃ":4748,"ĠÎ±Î³Î¯Î»":4749,"Î»ÏĢÎĳ":4750,"ĠL":4751,"ĠÎ½ÏĮÏĬÎ¿ÏģÏĢ":4752,"ĠÎ®ÎºÏĬÎ±ÏĢÏīÏģÏħÎķ":4753,"ĠÎ¹ÎµÏĪÎ¬ÏģÎ³":4754,"ÏħÎ¿ÎºÏĥ":4755,"ÎŃÏĢÎ¿Îº":4756,"ĠÎµÏĥÏīÎ½Î¯Î¿ÎºÎ±Î½Î±":4757,"ÎĶÎĻ":4758,"Î±Î³Î²":4759,"Î·ÏĦÏģÎ¬Î¾ÎµÎ½Î±":4760,"Î±ÏĦÏĥÎ¹ÏģÎµÏĢ":4761,"fi":4762,"Î¯ÎµÎ»ÎµÏĦ":4763,"ÏĦÏĥÎ¹ÏĦÎ¹Î»Î¿ÏĢ":4764,"Î¯Î£":4765,"ĠÏĤÎŃÎºÎ¹ÏĦÎ¹Î»Î¿ÏĢ":4766,"Î³Î·Ïģ":4767,"Î±ÏĩÎŃ":4768,"ÏĦÏĥÎ¹ÏģÏħÎ¿ÏĦ":4769,"Î¿Î´ÎµÏĢ":4770,"ĠÎ±Î¹ÎµÎ³ÏģÎŃÎ½Îµ":4771,"Î·ÏĨÎ±Î¹Î´":4772,"Î®Î½Î¹ÎºÎ¿ÏĦÏħÎ±":4773,"ĠÎ¹Î±ÏĦÎµÏģÎŃÏĨ":4774,"ÏģÎŃÎ¼Î¿ÏĦ":4775,"ÎºÏħ":4776,"ÏĤÏīÏĦ":4777,"ÏįÎºÏĥ":4778,"ÎĿÎĶ":4779,"Î¿ÏĨÎ·ÏĪ":4780,"ĠÏħÎ¿Î¼ÏĥÏĮÎº":4781,"Î¹ÏĦÎ¯ÏĢÏĥ":4782,"ĠÎ®ÎºÎ¹Î½Î¸Îķ":4783,"ĠÎł":4784,"ÏħÎ»Î±Î½Î±":4785,"Î½Î·ÎºÏĥ":4786,"Î³ÏģÏħÎ¿Î¹Î¼Î·ÎĶ":4787,"ĠÎ¹ÎµÎ¾ÏģÎ¬ÏĢÏħ":4788,"ÏĤÎ¹ÎµÎ¾":4789,"Î±ÏģÎŃÎ¼":4790,"ÏĤÎ®ÏīÎ¶":4791,"ĠÎ¯ÎµÎ³ÏģÏħÎ¿ÏĦÎ¹ÎµÎ»":4792,"ÎľÎŁ":4793,"ÏįÎĳ":4794,"Î±ÏĦÏĥÎ¿ÏģÎł":4795,"Î¹Îł":4796,"rt":4797,"tseretni":4798,"ĠÎŁÎ¤Î£":4799,"ĠÎ±ÏĦÎ·ÏĦÏĮÎ¼":4800,"ÏĮÎ½Î¹":4801,"ĠÎ±Î¯Îľ":4802,"ĠÎ½Î±Î»":4803,"Î»ÏĢÎ¿Î¾Îµ":4804,"Î·Î³Î®Î´Î¿":4805,"Î¹ÏģÎ¤":4806,"ÎŃÎ¹Î´":4807,"ĠÎ±Î¯ÎµÎ¼Î·Ïĥ":4808,"ĠÎ½ÏīÎµÏĥÎŃÎ¸":4809,"Î¬Î³ÏģÎµÎ½ÏħÏĥ":4810,"ĠÎ¹ÎµÏĦÎŃÎ¸":4811,"ÏģÎ¬Î¹Î´":4812,"ĠÏĤÎ¿Î»Î»Î¬":4813,"ÏģÏĦÎºÎµÎ»Î·":4814,"Î»Î¬Î½Î±ÏĦÎ±Îº":4815,"ÏĨÎ·ÏĪÎ¿Î¹ÎµÎ»ÏĢ":4816,"ĠÎ®ÎºÎ¹Î½ÏīÎ½Î¹Î¿Îº":4817,"Ġ72":4818,"Î¸ÏħÎ¼":4819,"Î³Î¿Î»Î¿Î¹Î±ÎºÎ¹Î´":4820,"ĠÎ·ÏĥÏīÏģÎŃÎ¼Î·Î½Îµ":4821,"Î±ÏģÎºÎ¿Î¼Î·ÎĶ":4822,"ĠÏĤÏħÎ¿Î½":4823,"Î½Î±ÏĨÎ¿ÏģÏĢ":4824,"ĠÎ·ÎºÎ¹":4825,"ĠÎ±Î»Î·Î»Î»Î¬ÏģÎ±ÏĢ":4826,"ÎŁÎłÎĳ":4827,"ĠÎĳÎĺ":4828,"ĠÏĤÎ¹ÎµÎ´":4829,"ÏĢÎŃÎ»Î²":4830,"ĠÎ®Î½Î¹ÏģÎµÎ¼Î·Ïĥ":4831,"ĠÎµÏĥÎ¹Î½ÏĮÏĦ":4832,"ÏħÎ¿ÏĢÏĮÏĦ":4833,"Ġ005":4834,"ÏĤÎ·ÏĥÎ®ÏģÏĩ":4835,"ĠÏĤÏħÎ¿ÏģÎŃÎ¼":4836,"Î±Î¼Î¿":4837,"ĠÏĤÏīÏĨ":4838,"Î»ÎµÎĶ":4839,"ÎŃÏĦÎ£":4840,"Î¬Î¼Î¹ÎºÎ¿Î´":4841,"ÎµÏģÎ¯Î±":4842,"ĠÎ±Î¯ÏĨÎ±ÏģÎ³Î¿ÏĦÏīÏĨ":4843,"ĠÎµÏĩÏģÎ®ÏĢÏħ":4844,"tseretniP":4845,"ĠÏĤÎ®ÎºÎ¹Î½Î¸Îķ":4846,"ĠÏĤÏīÎ¼ÎĮ":4847,"Î½Î¿ÏģÎŃÏĨÎ¼ÏħÏĥ":4848,"Î½Î¬Î¶":4849,"ÎŃÏĦÏĥ":4850,"Î½Î¿ÏģÎŃÏĨÎ±Î¹Î´Î½Îµ":4851,"ÏīÏģÏħÎµ":4852,"ĠÎ±Î¼ÎŃÎĺ":4853,"Î±Î¼Î³Î±ÏģÏĢÎ±Î¹Î´":4854,"ÏģÎµÏĦÏīÎ¾Îķ":4855,"ĠÎ¯ÎµÎ¹Î¿ÏĢÎ¿Î¼Î¹ÏĥÎ·ÏģÏĩ":4856,"ĠÎ±Î¹ÏĦÎ½Î¬Î½Îµ":4857,"Î½Î¬Îł":4858,"ĠÎ¹ÏģÎŃÏĩ":4859,"Î½Î¿ÏĦÎº":4860,"Î»Î¬Î³Î²":4861,"ÏħÎºÏĥ":4862,"ĠÎ·ÏĩÎ¬Î¼":4863,"ĠÏĮÎºÎ¹Ïģ":4864,"ĠÎ¹ÎµÏĩÏģÎ¬ÏĢÎ¥":4865,"ĠÏĤÎµÎ½ÏİÎ³Î±":4866,"Î¿ÏĥÎ¯Îµ":4867,"ĠÎ®ÎºÎ¹ÏĦÎµÏĩÏĥ":4868,"ĠÎ±Î¼Î¼":4869,"gm":4870,"ĠÏįÎ¿ÎºÎ¹Î¼":4871,"Î¯ÏģÎ¿Îº":4872,"ĠÎ½ÏīÏĢÏİÏģÎ¸Î½Î±":4873,"ÎŃÏĢÎ±":4874,"ÏİÎļ":4875,"ĠÎ±ÏĦÎ·ÏĦÏĮÎºÎ¹ÏĦ":4876,"ÏĨÎ±Î»Îµ":4877,"ĠÎºÎ¹Î»Îº":4878,"Î±Î»Îł":4879,"Ġ>":4880,"ĠÎ·ÏĨ":4881,"Î¸ÎŃ":4882,"roF":4883,"ĠÎ¿ÏĥÎŃÎ¼":4884,"ÏħÎ¿ÏĦÏĥÎ¹Ïģ":4885,"ĠÎ½ÏīÏĦÎ½ÏĮÏĬÎ¿ÏģÏĢ":4886,"ĠÏĤÎµÏĦÎºÎ¯Î±ÏĢ":4887,"ÏĤÎ®Ïĩ":4888,"ÏīÎ»Î±Î½Î±ÏĦÎ±Îº":4889,"ĠÎ¿Î¹Î¿ÏĦÎŃÏĦ":4890,"Ġ62":4891,"ĠÎ¹ÏĦÎ¬Î¼Î¼Î¿Îº":4892,"Ġevi":4893,"dni":4894,"Î²Î¬Î»Î±Î½Î±":4895,"ĠÏĤÎ±ÏĦÎ½Î¿Î¶Î¬":4896,"ÏĤÎ·ÏĥÎ®ÏģÎ§":4897,"ÎĳÎĸÎĻÎ¡Î¥Î£":4898,"ĠÎ±ÏģÎ¿Î³Î®ÏģÎ³":4899,"ÏĤÎŃÎºÎ¹":4900,"ĠÎľ":4901,"ĠÎ·ÏĥÏħÎµÎ´Î¯Î±ÏĢ":4902,"ÏĤÎµÏĦÏĥ":4903,"ĠÏħÎ¿ÎĲÎ±Îľ":4904,"uq":4905,"Î·Î»ÏĮ":4906,"ÎŃÎ»Î·ÏĦ":4907,"ĠÎ½Î±Ïģ":4908,"ĠÏĤÎ·ÏĥÎ±ÏĦ":4909,"ÏįÎµÎ¼":4910,"ÏħÎ»Î¿Îł":4911,"ĠÎ±ÏĦÎ·ÏĦÏĮÎºÎ¹ÏĦÎ±Î¼Î³Î±ÏģÏĢ":4912,"ÏħÎ´Î½ÎµÏĢÎµ":4913,"ÎºÎ±Î¹ÏģÏĢÏħ":4914,"ĠÎ±ÏģÎµÏĦÏĥ":4915,"ÎķÎ¡":4916,"ĠÏĤÎ±ÏĦÎ½Î¿Î½Ïİ":4917,"ĠÎµÏĦÎµÎ¸":4918,"Î½ÎµÎ¾Î¿Î»Î¹ÏĨ":4919,"Î±ÏĩÏģÎĳ":4920,"ĠÏĦÎµ":4921,"Î±ÏĦÎ±ÎºÎ³Îµ":4922,"Î»ÎµÎ¸":4923,"ĠÏĤÎ®ÎºÎ¹ÏĦÏĥ":4924,"ĠÎ±Î¹ÎµÎ½ÎŃÎ³Î¿ÎºÎ¹Î¿":4925,"Ġ!!":4926,"ĠÏĤÏİÎ»ÎµÏĦ":4927,"Î®Î»Î²":4928,"ĠÏĮÎ¼ÏĥÎ±Î¹ÏģÎ±Î³Î¿Î»":4929,"ĠÏĤÎ®Î»Î¿Î²":4930,"Î½ÏĮÎ³":4931,"ĠÏĤÎ±Î¯ÏĥÏħÎ¿":4932,"Î¬Î¼Î¿Î½Î¿":4933,"Ġenil":4934,"Î¿Î¹Î¼":4935,"Î¾ÎŃÎ»Î¹ÏĢÎµ":4936,"ĠÎ¹ÏĩÎĮ":4937,"Î³Î¿Î»Î¿ÏĢÏĭÎ¿ÏģÏĢ":4938,"Î½Î¯Î´":4939,"cna":4940,"Ġ3102":4941,"goo":4942,"Î±Î»Î·Î´":4943,"ĠÎ·ÏĥÎ±Î¯ÏĥÏħÎ¿ÏģÎ±ÏĢ":4944,"Î¬Î¹ÎĶ":4945,"ĠÏĮÎ¼ÏĥÎ¹Ïģ":4946,"ĠÎ±Î¹ÏĦÏĥ":4947,"Î½Î¿Î³Î¬ÏģÎ±ÏĢ":4948,"Î¿Î¤":4949,"ĠÎ¬ÏģÎ¿ÏĨÎ±Î¹Î´":4950,"ĠÏĤÎµÎ¯Î±ÏĦÏħÎµÎ»ÎµÏĦ":4951,"ĠÎ¹ÏģÏĩÎŃ":4952,"ĠÎ·ÏĦÎŃÎ»ÎµÎ¼":4953,"ĠÎ½ÏīÎ´":4954,"13":4955,"Î»Î·Î´ÎºÎµ":4956,"ĠÎ±Î½Îµ":4957,"--":4958,"Î±ÏĦÏĥÎ¯":4959,"Î½ÏīÏĨÎ¼":4960,"Î¹ÏģÎĳ":4961,"Î¿Î½ÎµÎ¼ÏĮ":4962,"ĠÎ½Î¿ÎŃÎ»ÏĢÎ¹ÏĢÎµ":4963,"ĠÎ¿Î¹Î³ÏĮÎ»":4964,"ÎµÏģÏĢ":4965,"ĠÏĤÎµÎ½ÎµÎ¼":4966,"ĠÎ·ÏĥÎ¹":4967,"ĠÏĤÎ±ÎŃÎ½":4968,"Î¹ÎµÎ½ÏĮ":4969,"ĠÎ¯ÎµÎ¸ÏħÎ¿Î»Î¿ÎºÎ±":4970,"ĠÏĤÎµÏģÎ¿ÏĨÎ¬Î¹Î´":4971,"ÏħÎ±Î¸":4972,"ĠÏĤÎ·ÏĥÎ®ÏģÏĩ":4973,"ĠÎ¿Î½ÎµÎ¼ÏĮÏĢÎµ":4974,"ĠÎ¾Îµ":4975,"ĠÎ±ÏĦÎ±Î¼ÏİÎ¹Î±ÎºÎ¹Î´":4976,"ĠÏĤÎ¿ÏĩÏģÎ±Î¼":4977,"Î¬Î¹ÏĦÏĨ":4978,"ĠM":4979,"ĠÎ½ÏİÎ¹Î´Î¹Î±ÏĢ":4980,"ÏīÏĥÎ¿ÏģÏĢ":4981,"ÎµÎ¤":4982,"ĠÎ¹ÎµÏĢÎ¼":4983,"ÏĤÎ·ÎºÎ¯Î½Î¿Î»Î±ÏĥÏĥÎµÎĺ":4984,"Î¿ÏĥÏĦÎ·Îľ":4985,"Î·Î¶ÏħÏĥ":4986,"ÏĤÎ·Î»ÏĮÏĢ":4987,"ĠÎ±ÏĦÎ±Î¼Î³":4988,"Î¹Î³Î±":4989,"Î½Î¿ÏĦÎ¹ÎµÎ³":4990,"ĠÎ¬Î½Î¹ÏģÎµÎ¼Î·Î¸Î±Îº":4991,"Î¯Î±Î³Î¹Îĳ":4992,"ÏīÏĪ":4993,"ĠÎµÏĦÎ¯ÎµÏĦÏĥÎ±ÏģÎ¹Î¿ÎľrettiwT":4994,"ÏīÎ½Î³Î¬":4995,"Î¯ÏĦÎ»ÎµÎ²":4996,"ĠÎ±Î´Î¯ÏģÎµÎ¼Î·ÏĨÎµ":4997,"ĠÎ½ÏħÎ¿Î¼":4998,"ĠÏĤÎ¿Î¸Î¬Î»":4999,"ÏĤÎ·ÏĥÏī":5000,"ÏĥÎ¯ÏĢÏīÏĦÎµÎ¼Î¹ÏĦÎ½Î±":5001,"ÎŃÏĦÎµÎ¼":5002,"Î®Î»Î¸":5003,"ĠÏħÎ¿Î¯Î¼Î·ÏĦÏĥÎ¹ÏĢÎµÎ½Î±Îł":5004,"Î®ÏĦÎºÎ¿Î¹Î´Î¹":5005,"ÏģÏĮÎĴ":5006,"Î¯ÏĦÎ½Î±ÏĦÏĥÎ½ÏīÎļ":5007,"ÏģÎ¿Îļ":5008,"ĠÎ½ÏħÎ¿Î½ÏĩÎ¯ÎµÎ´":5009,"ÏģÎ±ÏĦ":5010,"ĠÏĤÎ±ÏĦÎ½ÏİÏĦ":5011,"Î¹ÏĥÎµÎ¸":5012,"ÏħÎł":5013,"Ġeno":5014,"Ġ).":5015,"ĠÎ±Î½ÎŃÎ¼Î¹ÏģÎºÎµÎºÎ³ÏħÏĥ":5016,"ĠÎ·ÏĥÎµÎ¸Î¬Î¹Î´":5017,"ÎµÏĢÎŃ":5018,"ĠÎµÎ»Î¹Îµ":5019,"ĠÏĤÎ¹ÎµÏĥÎ¬ÏĦÏĥÎ±ÏĦÎ±Îº":5020,"ÏįÎµÏĦÎ±ÏĦÏĥÎ¿ÏģÏĢ":5021,"Î¹ÏĨÏģÎ¿Î¼":5022,"ÎŃÎĽ":5023,"ÏģÎµÏĦÏĮÏģÎ¹ÎµÏĩ":5024,"ĠÎ½ÏīÎ½":5025,"ÏįÎŁ":5026,"ĠÎ£Î©":5027,"ĠÏĤÎµÎ¯ÏĦÎ±Î¼":5028,"ĠÏĤÏĮÎ¼Î¸Î¹ÏģÎ±":5029,"ÏĤÏĮÎºÎ¹":5030,"Î¸Î½Îµ":5031,"Î§ÎŁ":5032,"Î½Î®Î»Î»Îµ":5033,"Î»Î±ÏħÎ¿":5034,"Î½Î±Î²Î»Îĳ":5035,"ĠÎ½Î¿Ïĥ":5036,"ĠÎ¿Î¯ÎµÎ³ÏģÏħÎ¿ÏĢÎ¥":5037,"Î¿Î¦":5038,"ĠÎ±Î¼Î®Î²":5039,"ĠÎ·ÏĥÎ·Î½":5040,"ĠÏĤÎ·ÏĥÎ·ÏĦÏģÎ¬Î½Î±":5041,"ĠÎ·Î½ÏĮÎ¼":5042,"ÏģÎµÏĦÏĥÎ¹ÏģÎĳ":5043,"Î¹Î¿Ïģ":5044,"ĠÎ¬Î³":5045,"Î¬Î¶":5046,"Î¹ÎµÏĥÏİ":5047,"ĠÎ¿Î³Î¿Î»":5048,"ÏįÎµÎ½ÏĢ":5049,"Î¹ÏĩÏģÎ±":5050,"ÎºÎ¹Î´ÎºÎµÎ¹Î´":5051,"Î³ÏģÎ¿":5052,"ÏĮÎºÎĳ":5053,"ĠÎµÏĥÎµÎ»Î¬Îº":5054,"ÏĦÏĥÎ¹ÏģÏīÏĩÎµÎ¾":5055,"ÏįÏĦÏĢÎ±Î½Î±":5056,"ĠÎļÎŁÎ£ÎĳÎł":5057,"EN":5058,"ĠÎ¹Î±ÏĦÎ½ÏįÎ¿Ïģ":5059,"ĠÎ¬ÎºÎ¹ÏĦÎ½Î±Î¼Î·Ïĥ":5060,"ĠÎ¹Î´Î¯Î¾Î±ÏĦ":5061,"Î·ÏĥÎ·Î½ÏģÎŃÎ²ÏħÎº":5062,"ÏħÎ¿ÎºÎ±":5063,"ĠÎ±Î½Î¿ÏģÏĩÏĮÏĦÏħÎ±ÏĦ":5064,"ÎŃÏģÎ´Î½Î±":5065,"Î½ÏīÎ³Î±ÏĦ":5066,"Î¬Î»ÏħÏĨ":5067,"ĠÎ¬ÎºÎ¹Î¼Î¿Î½Î¿ÎºÎ¹Î¿":5068,"ĠÎ±Î²":5069,"ĠÎ¹ÎµÎ¾Î¯ÎµÎ´":5070,"ĠÎµÏĦÏĥÏī":5071,"ĠÎ±Î¹Î´Î¯Î½ÏĩÎ¹Î±ÏĢ":5072,"ĠÎĻÎĳÎĿÎĻÎķ":5073,"Î³Î¯ÎĽ":5074,"Î¹Î¿ÏĢÎ¿Î¼Î¹ÏĥÎ·ÏģÎ§":5075,"Î¸ÏģÎŁ":5076,"ÏĦÎºÎ¿ÏĢÎ±":5077,"0102":5078,"ĠÎ±Î¯Î¾Î±":5079,"ÎµÎ¸Î¹ÏĢÎµ":5080,"Î·Î¸ÏĨ":5081,"Î¿Î¹Î¿ÏĢÎ¿":5082,"ĠÏĮÎ¼Î¸Î±Î²":5083,"ÎŃÎ¾":5084,"Ġá½¶Î±Îº":5085,"ÏīÏĦÎ¬Îº":5086,"ÏĦÏĥÎ¹ÏģÎ¿":5087,"09":5088,"ĠÎ±Î¹Î¿Îł":5089,"ÏĨÎ·Î»":5090,"ÏĨÎ¿ÏģÏĦÏĥÎ±ÏĦÎ±Îº":5091,"SI":5092,"ÏĤÎŃÏģÎ¿ÏĨ":5093,"ÏĨÎ±Î¾Îµ":5094,"ĠÎ®Î³ÏīÎ³Î±":5095,"ÏįÎ¿ÏĦÏħÎ±":5096,"Î·ÏģÏīÎµÎ¸":5097,"ÏĨÎ¬ÏģÎ³Î¿Î¹ÏĥÎ¿Î¼Î·Î´":5098,"Î¯Î¦":5099,"07":5100,"ĠÎ½Î¿ÏĥÏĮÏĨÎµ":5101,"ĠÎ±ÎŃÎ´Î¹":5102,"ÏĥÎµÎ³Î·":5103,"Î®ÏĦÏĥÎ±ÏĦÎ±Îº":5104,"ĠÏĤÎ®ÎºÎ¹Î¼Î¿Î½Î¿ÎºÎ¹Î¿":5105,"Î¹Î¼Î·Î¶":5106,"Î½Î±Îľ":5107,"Ġ2102":5108,"ĠÏĤÏĮÎºÎ¹Î´":5109,"ÎºÎµÎŀ":5110,"ĠÎµÎ¼ÏħÎ¿Î½Ïİ":5111,"Î¾Î¬Î»Î»Î±":5112,"ĠÏĮÎ»Î±ÏħÎ¼":5113,"ĠÎ½Î¿Î»Î»Î¬Î²Î¹ÏģÎµÏĢ":5114,"ÏħÏĦÏĥ":5115,"Î·ÎºÎ¹Î¿Î¹Î´":5116,"ÎºÎ±Î¹ÏĥÏīÏĢÏħÏĦÎ½Îµ":5117,"ÏĦÏĥÎµÎ»ÎµÏĦ":5118,"ÏĩÏħÏĥÎ·Î½Î±":5119,"ĠÏĤÎ·ÏģÏĦÎ®Î¼Î·ÎĶ":5120,"Î½Î·Ïģ":5121,"Î¹Î¼ÏĮÎ½":5122,"Î¶ÎµÏĥ":5123,"Î¿Î½ÏħÎ£":5124,"ĠÎ¹ÏģÏĩÎŃÎľ":5125,"fe":5126,"ĠÏĤÎ¿ÏĦÎ±Î¼Î¼Î¬ÏģÎ³Î¿ÏģÏĢ":5127,"ĠÂ©":5128,"ÏĮÎĿ":5129,"ĠN":5130,"Î±ÏģÎŃÏĦ":5131,"ÏĤÎµÎ¯ÏģÎ¿ÏĨÎ¿ÏģÎ·Î»ÏĢ":5132,"ĠÎµÎ¾ÏģÎ®ÏĢÏħ":5133,"Î³ÏīÎ³Î±ÏĥÎ¹Îµ":5134,"ĠÎĿÎ¥ÎŁ":5135,"Î½Î±ÎºÎ¹ÏģÎµÎ¼Îĳ":5136,"ĠÎ·ÏĥÎ·Î¯Î¿ÏĢÎ¿Î½Î¹Î¿ÎļkoobecaF":5137,"ÏħÎ¸Î¬ÏģÎ±ÏĢ":5138,"ĠÎ¹Î±ÏĦÎ¯ÎµÏģÏīÎµÎ¸":5139,"ĠÎ·ÏĪÎ¿ÏĢÎ¬":5140,"Ġ92":5141,"ĠÏĤÎ·ÏĥÏīÏģÎŃÎ¼Î·Î½Îµ":5142,"ÏĤÎµÎ´Î¬Î¼":5143,"ĠÎ½ÏįÎ¿ÏĦÏĥÎ¹":5144,"ÏģÎŃÎ¼Î¿ÏĦÏĢÎµÎ»":5145,"ÏģÎŃÏĦÏĥ":5146,"ÏĥÎ¹ÏģÎ¿Î¿ÏģÏĢ":5147,"ÏĢÏīÏģÎ¸Î½Î±":5148,"Î¹Î¿ÏĦÎµÎ¿ÏģÏĢ":5149,"ĠÏĤÏħÎ¿Î´Î¯Îµ":5150,"ÏİÎ¸":5151,"ĠÏĮÎ¹ÏģÏīÏĩ":5152,"Î¿Î³ÏģÎµ":5153,"Î®ÏĢÎ¼":5154,"Ġ:)":5155,"Î¹Î¿Î½ÎŃÎ¼":5156,"ĠÏĦÎ½":5157,"83":5158,"ÏĮÏĢÎ¼":5159,"ĠÎ¬Î¹ÏģÎºÎ±Î¼":5160,"ĠÏĮÎºÎ¹ÏĥÏħÏĨ":5161,"ĠÎ¿Î¹Î»ÏįÎ¿Î²Î¼ÏħÎ£":5162,"Î¯Î±ÏĨÏĥ":5163,"Î·ÎºÎ¬":5164,"Î±Î»Î±Îļ":5165,"Î»Î»Î±Î¼":5166,"ĠÎ¿Î¹ÏĥÏĮÎ¼Î·Î´":5167,"ÏĩÎ®":5168,"Î¿ÎºÎ£":5169,"ÎŃÏģÎ´Î½Î±ÏĢÎ±Îł":5170,"ÏįÎ±Î»":5171,"cu":5172,"Î»ÎµÎ£":5173,"Î½Î¹ÎºÎºÏĮÎº":5174,"ÏħÎµÎ»Îķ":5175,"ĠÏħÎ¿Î¯Î»ÏħÎ¿Î²Î¼ÏħÎ£":5176,"ĠÎµÏĦÎµÏĥÏİ":5177,"Î¿Î´ÎºÎµ":5178,"ĠÎµÎ¼ÏħÎ¿ÏĪ":5179,"Î¹ÏĥÎ±ÏĨ":5180,"ÏīÏģÎµÎ¼Î·Î½Îµ":5181,"ĠÎ¯Î¶":5182,"Î½Î¹Î³":5183,"ĠÎ½Î±Î£":5184,"Ġï":5185,"Î¸ÏįÎ¼":5186,"Î¤Î£ÎĻ":5187,"ĠÎ±Î¯ÎµÏĢÎ±ÏģÎµÎ¸":5188,"Î¯ÏĦÏĥ":5189,"Î¯Î¿ÏĦ":5190,"ĠÎķÎ£":5191,"ĠÏĤÏįÎ¿Î¼ÏĥÎ¹":5192,"ĠÎ¬ÏģÎ±Ïĩ":5193,"ĠÏįÎ¿ÎºÎ¹ÏĦÎ±Î¼":5194,"Î½Î¿Î»Î»ÎŃÎ¼":5195,"ÏĩÎµÎ¤":5196,"ĠÎµÏĥÎ·Î¯Î¿ÏĢ":5197,"ÏĢÎ±ÏĢ":5198,"ĠÏĤÏħÎ¿ÏĨ":5199,"ĠÎ±Î¼ÏİÏģÏĩ":5200,"ĠÎ·ÏĥÎ¹Î½Î¬ÏĨÎ¼Îµ":5201,"Î³Î³ÏħÏĥ":5202,"Î±Î¼Î·ÏĦÏĥ":5203,"ĠÏįÎ¿ÏģÎµ":5204,"tno":5205,"ÏĤÎ¹ÎµÏĥÎŃÎ¸":5206,"ÏīÏģÏħÎķ":5207,"ĠÏĮÎºÎ¹Î»ÎµÏĦ":5208,"Î¹ÏĦÎ¬Î¼ÏīÎ´":5209,"ÏĨÎ¿ÏģÏĦÎ±Î¹Î´":5210,"ĠÎµÎ¼ÏħÎ¿ÏĦ":5211,"ĠÎµÏĦÎ¯ÎµÏģÎ¿ÏĢÎľ":5212,"ĠÎ®ÏĨÎ¿ÏģÏĦÏĥÎ¹ÏĢÎµ":5213,"ĠÎ¬ÏģÎºÎ¹Î¼":5214,"Î½Î¿Îļ":5215,"ÏĥÎ±Îļ":5216,"Î¿Î¼ÎŁ":5217,"Î³ÎµÏĦÏĥ":5218,"ĠÎ±Î»Î»":5219,"ÏģÏįÎ¿Î¤":5220,"Î¹ÎµÎ½Î±Î´":5221,"ĠÎ¿ÏģÎµÏĦ":5222,"Î½Î¹Î»":5223,"ĠÎ¿ÏĦÎ·Î½Î¯ÎºÎ¿ÏĦÏħÎ±":5224,"ÎłÎŁ":5225,"ĠÏĤÎµÏĥÏĮ":5226,"Î³Î¹":5227,"ĠÎ½ÎµÎ¸":5228,"ĠÎ½ÏħÎ¿ÏĦÏĢ":5229,"Î±Î½Î±ÏĦÎµÎ¼":5230,"Î½Î¬ÏĨÎ¹ÏĢÎµ":5231,"Î±ÏĩÏħÎķ":5232,"Î½Î¿Î»ÎµÎ¸":5233,"ÏįÎ¶":5234,"ĠÎ¹ÎµÎ¸ÏģÎŃ":5235,"ĠÏĤÎ®ÎºÎ¹Î½ÏīÎ½Î¹Î¿Îº":5236,"ĠÎµÏĥÎ¹ÏĩÏģÎ¬":5237,"ÏīÎļ":5238,"Î¿ÏģÎ¤":5239,"54":5240,"Î±Î»Î±Îł":5241,"ĠÎ·Î»Î¿ÏĢ":5242,"ĠÎ±Î»ÎµÎ¸Î®":5243,"ĠÎ¹Î±Î¼Î¯Îķ":5244,"Î¿ÏĦÏĥÎ¿ÏĢÎ±":5245,"ĠÎ¿ÎºÎ¹ÏĦ":5246,"ĠÎ·ÏĥÎ¹ÏĢÏİÏĦÎµÎ¼Î¹ÏĦÎ½Î±":5247,"ÏĮÏĢÎ¼Îµ":5248,"Î¿ÏģÎ¸":5249,"Î±Î»ÎŃ":5250,"Î¹ÎµÎ¶Î¯":5251,"Î½ÏħÎ¸ÏħÎµÎ¹Î´":5252,"ÎĽÎĳÎļ":5253,"ĠÏįÎ¿Î¼ÏĥÎ¹Ïģ":5254,"ĠÎ·ÏĢ":5255,"ĠÎ¬ÎºÎ¹ÏĦÎµÏģÎ¹Î±Î¾Îµ":5256,"Î½ÎµÏĦÏĥ":5257,"Î±ÎºÎ³":5258,"Î±Î¹ÎµÏĩÎŃÎ½ÏħÏĥ":5259,"ĠÎ±ÏĥÏĥÏİÎ»Î³":5260,"ĠÏĤÎ®ÎºÎ¹Î½Î·Î»Î»Îķ":5261,"Ġgol":5262,"ĠÎ±Î¹ÏĥÎ¯":5263,"Î½ÏīÎ¯Îµ":5264,"ĠÎ¥":5265,"Î»Î¯ÎµÏĦÏĥ":5266,"Î·ÏĥÎ±ÏĦÏĥÎ¬ÏĦÎ±Îº":5267,"ÏģÎŃÎľ":5268,"Î½ÎµÎ²":5269,"ÏħÎµÎ´Î¯Î±ÏĢÎºÎķ":5270,"ĠÏĮÎºÏĬ":5271,"ÎŃÏģÎ·ÏĢÏħ":5272,"Î½ÎµÎ´":5273,"lla":5274,"ĠÎ¹Î¿ÏģÎµÏĦÏĮÏĥÏĥÎ¹ÏģÎµÏĢ":5275,"ÏģÏĦÎ½ÎµÎºÎ³ÏħÏĥ":5276,"Î¼ÏħÎ£":5277,"Î®Î½Î¹":5278,"ĠÎ®ÏħÎµÎºÏĥÎ±ÏĦÎ±Îº":5279,"Ġmu":5280,"Î¿Î½Î·ÎºÏĥ":5281,"ĠÏĤÎ®ÏĢÎ¿ÏģÏĦÎ¹ÏĢÎķ":5282,"ĠÎ¿Î¹Î¼Î®ÏĦÏĥÎ¹ÏĢÎµÎ½Î±Îł":5283,"Î²Î¬Î»Î±ÏĦÎ±Îº":5284,"ĠÏĤÎ¿Î¹Î¿Îł":5285,"ĠÎ·ÏĥÎ¬ÏĨ":5286,"ĠÏĮÎ½Î¹":5287,"Î±ÏĦÎ½Î¬ÏĢ":5288,"Î½Î¬Î´":5289,"ĠÎ¹ÎµÎ¾Î¬Î»Î»Î±":5290,"ÎµÎŀ":5291,"ĠÎ®ÎºÎ¹Î½Î¸Îµ":5292,"ĠÎ¹Î±ÏĦÎ½Î¿ÏģÎŃÏĨ":5293,"Î³ÎŃÎľ":5294,"ĠÎ¿ÏģÎµÏĦÏĮÎ³Î¹Î»":5295,"Î¹ÏģÎ±Îº":5296,"Î½ÏİÎ¹Ïĥ":5297,"Î³Î¿Î»Î»ÏįÎ£":5298,"ĠÎµÏĥÏįÎ¿ÏĦ":5299,"ĠÎ·ÏĪÏħÎ»Î¬Îº":5300,"ĠÏħÎ¿Îł":5301,"ĠÎ±Î¹ÎµÎ»ÏİÏĢÎ±":5302,"ĠÎµÎºÎ·Î¸Î®Î¹Î¿ÏĢÎ¿ÏĦÎ±Î¼Î³Î±ÏģÏĢ":5303,"Î¿ÏĦÎ±Î¼Î·Î½Î¹Îº":5304,"ÏĢÎŃÏģÏĦ":5305,"ĠÏĤÏİÎ»ÏĢÎ±":5306,"za":5307,"ĠÏĤÎ±ÏĢ":5308,"ĠÏĤÎ¿ÏĦÎ±Î¼Î®ÏĦÏĥÏħÏĥ":5309,"Î·ÎºÎ¹Î¿Î¹ÎĶ":5310,"ĠÎ®ÎºÎ¹ÏĦÏĥÎ¹":5311,"ĠÎ±ÏģÎµÏĦ":5312,"ÏĥÏİÎļ":5313,"ÏĤÎ¬Ïģ":5314,"Î±Î½ÏħÎĵ":5315,"Ġda":5316,"ĠÎ½Î¿Î¹Î¿ÏĢÎ¬Îº":5317,"ĠÎ±ÏģÎŃÏĦÎ·Î¼":5318,"ĠÎ±Î¼Î¹Ïĥ":5319,"ÏĮÎ¡":5320,"ÏįÎ´Î½Î¹Îº":5321,"RO":5322,"ÏĦÏħÎ±ÏĦ":5323,"ĠÎ¹ÎµÏĥÎŃÏģÎ±":5324,"ÎŃÎ»Î±ÎºÎ¿ÏģÏĢ":5325,"ĠâĨ":5326,"ÏİÎ¹Î±ÎºÎ¹Î´":5327,"Î¿Î½Î±ÏĦÎ±Îº":5328,"ĠÎ½Î±ÏĥÏī":5329,"ÏĮÏĥÎ¹ÎµÏĢÎµ":5330,"ĠÎ¹ÎµÏģÎ²":5331,"ÏĦÎ®":5332,"ÏĤÎ·Î¼":5333,"Î¿Î¹Ïħ":5334,"Î²ÏįÏģÎº":5335,"ĠÎ®Î»Î¿ÏĦÏĥÎ¿ÏĢÎ±":5336,"Î±Î¯ÎºÏģÏħÎ¿Î¤":5337,"ÏĤÎ¬Î¼":5338,"ĠÏĢÎ¼":5339,"Î¹ÎµÏģÎµÏĨ":5340,"ĠÎ±Î¼Î·Î»Î¸Î¬ÏĦ":5341,"Î¹Î¿ÏĦÏĥ":5342,"ĠÎ¿Î¯ÏĦ":5343,"orp":5344,"Î¹ÏĥÏĦÎĪ":5345,"ĠÎµÎ½Î¹ÎµÎ¼":5346,"ĠÎ¬ÎºÎ¹ÏģÎµÎ¼":5347,"Î½Î¿ÏĨÎ¿Î»Î¿Î´":5348,"ĠÏħÎ¿Î½ÏĮÏģÏĩ":5349,"Ġ1102":5350,"ĠÎ±ÎºÎŃÎ´":5351,"ĠÏĤÎ±Î¯ÏĦÎ¹Î±":5352,"ĠÏĮÎºÎ¹Î½Î¿ÏģÏĩ":5353,"ĠÏĤÎ¹Î¤":5354,"vre":5355,"ÏħÏģÎ®Îº":5356,"ĠÎ»Î®":5357,"Î½ÏħÎ¿ÏĥÎ®":5358,"ĠÏĤÎ¹ÎµÏĥÎ¯":5359,"ĠÎ½ÏħÎ¿Î½Î¯Î´":5360,"Î½ÏİÏĦÏĥ":5361,"Î»ÎŃÎ´":5362,"ĠÎ¬ÏģÎ¿ÏĨÎ±Î½Î±":5363,"ĠÏĤÎµÎ»ÎĮ":5364,"ĠÎ¹Î±ÏĥÎµ":5365,"ĠÎµÏĦÏĪ":5366,"ÏīÏĥÎ¿ÏģÎł":5367,"ĠÏĤÏįÎ¿Î½Î¸Îµ":5368,"ÏĨÎµÎ½":5369,"ĠÎ½Î±ÎºÎ·ÏĦÏĥ":5370,"ÎºÏĥÎ¹ÏģÎ²":5371,"ĠÏĤÎ¹ÏģÎµÏĥÏĥÎŃÏĦ":5372,"Î¸ÏħÎ¿Î»Î¿ÎºÎ±ÏģÎ±ÏĢ":5373,"ke":5374,"ĠÎļ":5375,"ĠÎ¬ÎºÎ¹Î½Î·Î»Î»Îµ":5376,"Î±Î³ÏģÎķ":5377,"ÏįÏĥÎ¿Î¼":5378,"ÏģÎ¹Î±ÏĦÎķ":5379,"Î½Î®ÏĨÎ±":5380,"ĠÎ½ÏİÎºÎ¹Î¼Î¿Î½Î¿ÎºÎ¹ÎŁ":5381,"ĠÎ¹ÎµÏįÏĩÏĥÎ¹":5382,"ÏģÎ¿ÏĥÎ¹":5383,"ĠÎ±Î¯Î¼Î¿Î½Î¿ÎºÎ¹Î¿":5384,"ĠÎ±Î¹ÎµÎ´Î¬":5385,"Î¹ÏĦÏĥÎ¬ÏģÎµÏĦ":5386,"Î³ÏģÎµÎ½Î±":5387,"Î·ÏĦÏĮÎ´Î¿ÏĦÎ±Î¼Î·ÏģÏĩ":5388,"ĠÎ®Îº":5389,"ÏīÎ½Î¬ÏĢ":5390,"Î±Î¯ÏģÎ´ÎµÎ½ÏħÏĥ":5391,"nna":5392,"Î·Î¸Î±Îļ":5393,"ĠÎ¯ÎµÎ»Î±ÎºÎ¿ÏģÏĢ":5394,"Ġtne":5395,"ĠÎ®Î»ÏħÎ¿ÎĴ":5396,"Î©Î¦":5397,"ĠÏĤÎ·ÎºÎ¯Î½Î¿Î»Î±ÏĥÏĥÎµÎĺ":5398,"ĠÏįÎ¿ÏĦÏĥ":5399,"ÎºÎ¹Î½":5400,"Î±Î»Î±ÏĨÎµÎº":5401,"Î¿ÏĦÎ½Î±":5402,"ÏĤÎ¿Îº":5403,"ĠÎ±ÏĦÎ±Î¼ÏĥÎ¬":5404,"Î¹Î¿ÏĢÎ¿Î´Î¹Îµ":5405,"ĠÎµÎ¼ÏħÎ¿ÏĥÎ¯":5406,"Î±Î²Î±Î»Î±ÏĦÎ±Îº":5407,"ĠÎµÎ¼ÏħÎ¿Î¶Î¬":5408,"Ġ06":5409,"Î¬Î½ÏģÎµÏĢ":5410,"ĠÎµÏĩ":5411,"Î¹ÏĨÏģÎ¿Î¼Î¿":5412,"ÏģÎ¿Îł":5413,"ÏĨÎ±ÏģÎ³Î³ÎŃ":5414,"ÏįÎ»Î±ÎºÎ±Î½Î±":5415,"ÏĢÏįÏĦ":5416,"ĠÎ·ÏģÎ¬Ïĩ":5417,"ĠÏĤÎ¿ÏĦÏİÏģÏĢ":5418,"Î¿ÏĦÏīÎ¦":5419,"Î½Î¯ÏĦ":5420,"ĠÎ±Î¯ÏĥÎµÏģÎ·ÏĢÏħ":5421,"Î±Î½ÏįÎ´Î±":5422,"Î¿ÏĢÎľ":5423,"ĠÏĤÎ®ÎºÏĬÎ±ÏĢÏīÏģÏħÎķ":5424,"Î¿Î»ÎŁ":5425,"ĠÎµÎ¼Î±":5426,"Î½Î¿ÎĽ":5427,"ÏĮÏģÎºÎ³ÏħÏĥ":5428,"Î±ÏĦÎ¿ÏĢÎ¯ÏĦ":5429,"Î¹Î±ÎºÎ¿Î»Î±Îº":5430,"ĠÎķÎļ":5431,"ĠÏĤÎ¹ÎµÏĥÎ¬ÏĨÎ¿ÏĢÎ±":5432,"Î¸Î¬Îº":5433,"ĠÎµÎ½Î¬ÏĢ":5434,"ĠÎ½Î±ÎºÎ·Î¸Ïİ":5435,"ĠÎ±ÏĦÏĥÎ¯Î»":5436,"ĠÏĤÏĮÎ¼ÏĥÎ¹Ïģ":5437,"ram":5438,"Î®ÏĩÏĥ":5439,"Î¬Î¹ÏĢ":5440,"ÏģÏħÎ¿":5441,"Î±ÏĢÎ¯Îµ":5442,"Î¬Î»Î±":5443,"ĠÏĤÎµÎ¯ÏĥÎ±Î³ÏģÎµ":5444,"ÏģÎµÎľ":5445,"Î¹Î±Î»Î±ÏĢ":5446,"ĠÎ¹ÏģÎ¯Î±ÎºÎ¿Î»Î±Îº":5447,"ÏĤÎŃÏģ":5448,"ĠÎµÎ»Î±Î²ÎŃ":5449,"Î¯Î±Î½ÏħÎ³":5450,"ÏĮÏģÎµÎ½":5451,"ĠÎ½ÏīÎ½ÎµÎ¼ÏĮ":5452,"Î¯ÎĽ":5453,"ĠÎ·Î¾ÏģÎ±Î½ÎŃ":5454,"Î¬ÏģÎĶ":5455,"ĠÎ¹ÎµÏĥÎ®Î½Î¹ÎºÎµÎ¾":5456,"ĠÏĤÎ±Î¯ÎºÎ¹Î»Î·":5457,"Î¿Î¹Î¿ÏĢ":5458,"ĠÎ±Î¹ÎµÎ»Î¬ÏĨÏĥÎ±":5459,"ĠÏĤÏĮÎ³ÏģÏħÎ¿ÏĢÏħÎ¸ÏīÏģÏĢ":5460,"ÏģÎµÏĦÏĮÏģÎºÎ¹Î¼":5461,"ĠÏĤÎ¿Î½ÎµÎ¼":5462,"ĠÎµÎ¼ÏħÎ¿Î¶":5463,"ÏĤÎ±Î´":5464,"ĠÎ½á½":5465,"Î·Î´Î¹ÎµÎ½ÏħÏĥ":5466,"ÎºÎ±ÏģÎĹ":5467,"Î·ÏĥÎ·Î¯Î¿ÏĢ":5468,"ÏīÎ½Î±Î³ÏģÎ¿":5469,"ĠG":5470,"ÏĤÎŃÎºÎ¹ÏĦ":5471,"Î½ÏħÎ¸ÏįÎµÏĦÎ±Îº":5472,"Î½ÏİÎ³Î±":5473,"ĠÎ¿Î»Î¿ÎºÏĥÏįÎ´":5474,"Î¿ÏĦÏĮÏĦÏĥÎ¹":5475,"ĠÏĤÎ®ÎºÎ¹Î¼":5476,"ĠÏĤÎµÎ½ÏĮÎºÎ¹Îµ":5477,"Î³Î·ÏģÎ¿Ïĩ":5478,"ĠÎ½Î±ÏĥÏįÎ¿":5479,"ĠÏĤÏħÎ¿Î¯":5480,"Î·ÏĢÎ±":5481,"ÏĤÏĮÏĦ":5482,"ÎĶÎĿ":5483,"ĠÎ¿ÎºÏĥ":5484,"Î¹ÏĢÎ±Îº":5485,"ÏħÎ¿ÏĢÎ±":5486,"Î»ÏĮÎ²":5487,"Î¿Î½ÎµÎ¼":5488,"ĠÏĮÎºÎ¹Î»Ïħ":5489,"Î±ÏĦÎĻ":5490,"ĠÎ·ÏĥÎ·ÏĦÎ®Î¶Î±Î½Îĳ":5491,"ĠÏĤÎ±ÏģÏĢÎ¯ÏĥÎ¤":5492,"ĠÎ±Î¹ÏĥÏĦ":5493,"ĠÎ¿ÏģÏĮ":5494,"ĠÏħÎ¿ÏģÎ¸ÏģÎ¬":5495,"ĠÏĤÎŃÎºÎ¹Î¼":5496,"Ġ002":5497,"Î¿ÏĨÎ¿ÏģÎ·Î»Îł":5498,"ĠÎ±Î¯Î»Î²Î¹Î²":5499,"Î¹ÏģÏĦÎ±ÏĢ":5500,"ÏįÎ¿ÏĦÏĥÎ¹ÏģÎ§":5501,"ĠÎ¿Î½ÏħÎ´Î½Î¯Îº":5502,"ĠÎ·Î»ÎŃÏĦ":5503,"Î®ÏĩÎ¿Î¹ÏģÎµÏĢ":5504,"ĠÎ¹Î¿Îº":5505,"Î¹Î¿ÏĢÎ¿Î¸Î·":5506,"ÏĤÏĮÏģ":5507,"ĠÎ¬ÎºÎ¹ÏĦÎµÏĩÎ£":5508,"ĠÏĤÎ¿Î»ÏħÎ¿ÏĢ":5509,"ÏĤÎ¿Ïĩ":5510,"33":5511,"Ġseikooc":5512,"ÏİÏģÎ·Î»ÎºÎ¿Î»Î¿":5513,"Î¿Î¯":5514,"Î±ÏĦÏħÎµÎ»ÎµÎ¤":5515,"ĠÏĤÎ¹ÎµÏĥÎ¬ÏĦÎ¿ÏģÏĢ":5516,"ĠÏĤÎµÎ½Î¿Î¼":5517,"ÏīÏĦÎŃÎ¼":5518,"ÏĩÎµÎ´Î½Îµ":5519,"Ġ,%":5520,"Î±ÏĢÎ±Î½Î±":5521,"Î±Î»Î¬ÏĨÎµÎº":5522,"ÏįÏģÎ´Î¹":5523,"Î¸Î·Î½ÏħÏĥ":5524,"ĠÎ½Î±ÏĥÎ·ÏĦ":5525,"ĠÎ½Î¿Î½ÏĮÎ¼":5526,"Î¿ÎºÎ¹ÎĿ":5527,"Î±ÏĦÏĥÏħÏĥ":5528,"ĠÎ®Î½Î¹Î¿Îº":5529,"ĠÏĤÎŃÎ¹":5530,"Î£Î¤":5531,"ĠÎ¹ÎµÎ½ÏģÎ¯Î±ÏĢ":5532,"Î½ÏĩÎ¬ÏĪ":5533,"ĠÏĤÎ¿ÎŃÎ½":5534,"ĠÎµÎ¼ÏħÎ¿ÏĢ":5535,"Î¿ÏģÎºÎ±":5536,"ÏģÏħÎµÎ»ÏĢ":5537,"ĠÎ·ÏĥÏīÎ½ÎĪ":5538,"ĠÎ½ÏİÎºÎ±":5539,"Î½ÏģÎµÎ²ÏħÎº":5540,"ĠÎ½ÏīÎ½ÎŃÎ¼Î¿Î´ÎµÎ´":5541,"ĠÏģÎµÏĦ":5542,"ĠÏĤÎ¿Î½ÏĮÏģÏĩ":5543,"Î±ÏĦÏĥÎ±":5544,"ĠÎ®Î½Î¹":5545,"ĠÎ®ÏĦÎ±Î½ÏħÎ´":5546,"Î±ÏĦÎ·ÏĦ":5547,"ÏħÎ¿ÏĢÎľ":5548,"ĠÎ®Î»Î¿Î²Î¿ÏģÎł":5549,"ĠÏĤÎ¿Î¹Î»":5550,"ĠÎĽÎķ":5551,"ĠÎ®ÎºÎ¹ÏĦÏħÎµ":5552,"90":5553,"ĠÎ¿Î¹ÏģÏįÎ±":5554,"ÎµÏĪ":5555,"ĠÎ·Î»Î¬Î³ÎµÎľ":5556,"ĠÏįÎ¿ÏĨ":5557,"Î¿Î½Î±Î¹Î´":5558,"Î·Î¸Î¬ÏĢ":5559,"Î³Î¬ÏģÎ±ÏĢ":5560,"ĠÏĤÎ±Î¯ÎµÏģÎ¹Î±ÏĦÎµ":5561,"ÎºÎ¯ÎĿ":5562,"ĠÎ£ÎĳÎľ":5563,"ÏĢÎ»":5564,"ÏģÎ¬Î§":5565,"ĠÎ¬Î¹Î¼Î±Îº":5566,"ĠÏĤÎ¹ÎµÏĪÏĮÏĢÎ±":5567,"Î´Î¬Î¼ÎŁ":5568,"ĠÎ·ÎºÎ¯Î½Î¿Î»Î±ÏĥÏĥÎµÎĺ":5569,"ÏĨÎ±ÏģÎ³Î³Îµ":5570,"Î¼Î±Îº":5571,"Î½Î¿Î»Î»Î±Î²":5572,"ĠÎ¹ÎµÎ¶Î¯Î±ÏĢ":5573,"ÏĤÎŃÎ»":5574,"ÎŃÏĢÎ±ÏģÏĦ":5575,"ĠÏĤÎ®Î³ÏīÎ³Î±ÏģÎ±ÏĢ":5576,"Î¹ÎµÏĢÎŃ":5577,"ÏģÎ±ÏĦÎµÎ¼":5578,"ÎŃÎ¼Î·ÏĥÎµÎ¼":5579,"ĠÎ½ÏİÎ»ÎµÎ¼":5580,"ÏĤÎµÏģÎŃÎ¼Î·":5581,"ÎµÏģÎ·ÏĢÏħÎ¾Îµ":5582,"gooG":5583,"ĠÎ±Î¹Î´ÎŃÏĩÏĥ":5584,"000":5585,"Î¾Î¿ÏĦ":5586,"ĠÎµÏģÎµÏĨÎ¬ÏĦÎ±Îº":5587,"lB":5588,"Ġti":5589,"ÎĳÎ§":5590,"ĠÎ¿Î¯ÎµÎ»Î¿ÏĩÏĥ":5591,"ÏģÎµÎ±":5592,"Î±ÏĩÏħÏĦ":5593,"ĠÎ½ÎµÎ¼":5594,"ĠÏĤÎ±Î¯ÎµÎ³Î¥":5595,"ÏĮÎ¼ÏģÎ±ÏĨÎµ":5596,"ÏīÏĦÏĥÎ¹ÏĢ":5597,"Î¬ÏĦÎ±Îļ":5598,"ĠÎ±ÏĦÎ·ÏĦÏĮÎ¹Î¿ÏĢ":5599,"ĠÏĤÏĦÎ±Î¼":5600,"Î»Î±ÏħÎ¿Î¾ÎµÏĥ":5601,"ĠÎµÏĥÎ·ÏĦÎ®Î¶":5602,"ĠÎ¯ÎµÎ³Î·Î´Î¿":5603,"ĠÎ¯ÎµÎ¸Î·Î¹Î¿ÏĢÎ¿ÏĦÎ±Î¼Î³Î±ÏģÏĢ":5604,"ĠÎ¹ÎµÏĥÎ®Î¸Î·Î¿Î²":5605,"ĠÏĤÏİÎ»ÎµÏĦÎ½Îµ":5606,"Î¿Î¹Î´Î¯":5607,"ĠÎ®ÎºÏĬ":5608,"Î·Î´Î¯ÎµÎ½ÏħÏĥ":5609,"Î¶ÏħÎ²":5610,"ĠÎ·ÏĥÎ·ÎºÏĥ":5611,"ÏĮÏģÎ´Î¿ÏģÎµÎ±":5612,"ĠÎ¿ÏĦÎ±Î½Î¬Î¸":5613,"ĠÏĤÎ®ÏĩÎ¿Î¹ÏģÎµÏĢ":5614,"ÏĩÎ±ÏĦ":5615,"ĠÎ½ÏīÏģÏĦÎŃÎ¼":5616,"á¼Ģ":5617,"Î¿ÏĢÎ±ÏĦÎ½Î±":5618,"ĠÎ·ÏĥÏīÏĨ":5619,"Î¬ÏģÎļ":5620,"ĠÎµÏĥÎµÎ¸":5621,"ĠÎ½ÏİÎ¹ÏģÏĦ":5622,"ĠÎ¬ÎºÎ¹ÏĦÏĥÎ±Î¹ÏĥÏħÎ¿":5623,"Î¿ÏģÏģÎ¿ÏĥÎ¹":5624,"ÏĮÎ½Î±":5625,"ÏĮÏĥ":5626,"Î±ÏģÎ¹ÎµÏĢ":5627,"ĠÎ¹ÎµÎ¶Î¬Î¹ÏĥÏħÎ¿ÏģÎ±ÏĢ":5628,"ĠÏĤÎµÎ¯ÎµÏģÎ¹Î±ÏĦÎµ":5629,"ĠÎ±Î¼Î¼ÏĮÎº":5630,"ĠÎ±Î´ÎµÏĢÎ¯ÏĢÎµ":5631,"Î·Î»ÎºÎ³Îµ":5632,"ĠÏĤÎ·ÏĥÎ¿Î´":5633,"ÏħÏģÎ´Î¯":5634,"ÎĹÎĺ":5635,"ÏīÏģÎ·Î»":5636,"ĠÎ·Î¾ÏħÎµÏĦÎ½ÎŃÎ½ÏħÏĥ":5637,"ĠÎ½ÏįÎ¿Î»Î±Îº":5638,"ĠÏĤÎŃÏĨ":5639,"Î½ÏİÏĦÎ½Îĳ":5640,"ÏīÎµÎ»":5641,"Î±ÏĥÎµÎ¼":5642,"ĠÎ·ÏĥÎ¹ÏģÎ¯ÎµÏĩÎ±Î¹Î´":5643,"ĠÎ±ÏģÎµÏĦÏĮÎ³ÏģÎ±":5644,"ÏĦÏīÏģÏĢ":5645,"ĠÎµÎ¼Î±Î½":5646,"Î½Î±Î¹ÏĦÏĥÎ¹ÏģÏĩ":5647,"Î¶ÏħÎ¿Îº":5648,"Î³ÏģÏįÎ¿Î¹Î¼":5649,"ĠÏĤÏħÎ¿Î¯Î¿ÏĢÎ¿":5650,"Î±Î³Î·ÏĢ":5651,"ĠÎ·ÏĥÎ·ÎºÎ¯Î¿Î¹Î´":5652,"ÎŃÏģÎ´Î½Îĳ":5653,"ĠÎ·ÏĥÎ·ÏĦÎŃÎ¸":5654,"Î½Î¿ÏģÏĦÎºÎµÎ»ÎĹ":5655,"ĠÎ·ÏĥÎ±ÏĦÎºÎŃ":5656,"ĠÏĤÎ¿ÏģÏİÏĩ":5657,"Î¿Î¡":5658,"Î½ÏİÎ½Î·Î¸Îĳ":5659,"ĠÏĤÎ±Î¯ÎµÎ³Ïħ":5660,"Î·Î½ÏģÎŃÎ²ÏħÎļ":5661,"ÏīÏĨÏģÎ¿Î¼":5662,"ĠÎ·ÏĥÎ¹ÏģÎº":5663,"ÏģÎµÏĦÏįÏģÏħÎµ":5664,"ĠÎ½ÏĮÏĦÎ±Î½ÏħÎ´":5665,"ĠÎ¹ÎµÏĩÎŃÎ¹ÏģÎµÏĢ":5666,"ĠÎĳÎĻÎķ":5667,"Î¹Î»Î¬ÏĨÏĥÎ±":5668,"ĠÎ¹ÎµÎ½ÏģÎŃÏĨ":5669,"ĠÎµÎĶ":5670,"Î½Î±Î§":5671,"ĠÎ¹ÎµÎºÎ®Î½Î±":5672,"Î¹ÎºÎ¬":5673,"Î¹ÏģÎºÎµÎºÎ³ÏħÎ£":5674,"ĠÎ·ÏĦÎŃ":5675,"ĠÎ¬ÎºÎ¹Î»Î¿Î½ÏħÏĥ":5676,"Î¯ÏģÎºÎ±Î¹Î´":5677,"Ġ0102":5678,"ĠÎ®Î¾":5679,"ĠÏĤÏħÎ¿ÎŃÎ½":5680,"ĠÏĤÎ±ÏĦÏĥÏİÎļ":5681,"ÏģÎ·ÏĦÎ±ÏģÎ±ÏĢ":5682,"ĠÏģÎµ":5683,"ĠÏĤÏĮÏĦÎºÎķ":5684,"Î®Î¼Î¹ÏĦ":5685,"ĠÎ½ÏİÎºÎ¹Î½ÏīÎ½Î¹Î¿Îº":5686,"ĠÏĮÎºÎ¹Î´Î±Î½Î¿Î¼":5687,"ĠÎ®Î½Î¸ÎµÎ¹Î´":5688,"ÎľÎķ":5689,"ÏĢÎ·Î»":5690,"Î»ÏħÎ¿Î²Î¼ÏħÏĥ":5691,"ĠÏħÎ¿Î³ÏģÎŃ":5692,"ÎµÎ¡":5693,"ÏįÎ¿ÏĢÎ±":5694,"80":5695,"Î±ÏĥÎ¤":5696,"Î³Î¿Î»Î¿ÎµÎ´Î¹":5697,"Î³Î³Îµ":5698,"ĠÎ±Î´Î¯ÏģÎµÎ¼Î·":5699,"ĠÏĤÏħÎ¿Î»ÎŃÏĦ":5700,"ÏĨÎµÎ»":5701,"ÏģÎŃÏĢ":5702,"Î±ÏģÎµÏĦÏĮÏĥÏĥÎ¹ÏģÎµÏĢ":5703,"ÏĢÎ¿Î¿ÏģÏĢ":5704,"ÎŃÎ»Îķ":5705,"Î±Î½Î®Î¼":5706,"retnI":5707,"Î½ÏĮÎ¸Î»ÎµÏģÎ±ÏĢ":5708,"ÏīÏģÎ®Î»":5709,"Î½Î¹ÏĦÎµÏĨ":5710,"ĠÎ·ÏĥÎ±ÏĦÏĥÏĮÏĢÎ±":5711,"ĠÎ½ÏİÎ½Î·Î¸Îĳ":5712,"ĠÎ·ÏĥÏīÎ¯":5713,"ÏĤÎ·ÏĥÎ¯ÏĢÎµ":5714,"ÏģÏĦÎ±ÎĻ":5715,"ĠÏīÏĩÎĪ":5716,"tel":5717,"ÏİÎµÎ¸":5718,"Î±ÏģÎºÎ¹ÏĢÎµ":5719,"Î½ÏįÎ¿Î¸":5720,"moH":5721,"Î¹Î±ÏģÎµÏĢ":5722,"Î½ÏīÏĨÎµÎ»Î·ÏĦ":5723,"ÏĨÏģÎ¿Î¼Î±Î¹Î´":5724,"Î¿Î¹ÏĦ":5725,"ĠÏĤÎ¿Î½ÏĮÎ¼":5726,"ĠÎ®Î¼Î¼Î±ÏģÎ³":5727,"cs":5728,"ÏĦÎ½Î±Î½ÏħÏĥ":5729,"Î±ÎºÎ³Î±":5730,"Î¯ÎµÎºÎķ":5731,"ĠÏĤÎ¿ÏĨÎ¬ÏģÎ³":5732,"Î±Î²Î¿Ïĥ":5733,"ĠÏĤÎŃÎ³Î¿Î»Î¹ÏĢÎµ":5734,"ÏīÎ¹Î±ÎºÎ¹Î´":5735,"ÏħÎµÎºÏĥÎ·ÏģÎ¸":5736,"ĠÎ½ÏīÏĦÎ½ÏĮ":5737,"10":5738,"Î»ÏīÏĢ":5739,"ĠÎ·Î¾Î¬ÏģÏĢ":5740,"ÎĽÎŁÎł":5741,"ĠÎ¹Î±ÏĦÎ½Î¿Î½Î¬Î²Î¼Î±Î»":5742,"ÏĤÏħÎ¿Î¼":5743,"cS":5744,"ĠÎ·ÏĥÎ·ÏģÏİÏĩ":5745,"Î¹ÎµÎ¶Î¬":5746,"ÏģÎķ":5747,"ÏĥÎ¿ÎºÎ³Î±ÏĢ":5748,"ĠÎµÎ¼ÏħÎ¿Î»ÎŃÎ¸":5749,"ĠÏĮÎ¼ÏĥÎ¹ÏĦÎ±Î¼":5750,"ĠÎ·Î½Î½Î¬Î¹Îĵ":5751,"Î½ÏĩÎµÎ¤":5752,"70":5753,"ĠÎ®ÎºÎ¹ÏĢÏīÏĥÎ¿ÏģÏĢ":5754,"Î»Î¿ÏĦÎ±Î½Îĳ":5755,"ÎŃÎ»Îĳ":5756,"sse":5757,"ÎµÎ»ÎµÎ¼":5758,"Î½ÏĨÎ±":5759,"ÎµÎ³ÎŃÎ¼":5760,"ÎŃÎ»Îº":5761,"ĠÎ»Î¿ÎºÎ³":5762,"ĠÎ±Î¼ÏħÎµÎ³ÏĮÏĢÎ±":5763,"ÏīÏĦÏĨ":5764,"ĠR":5765,"Î¹ÎµÎĽ":5766,"Î»ÎŃÏĦÏĥ":5767,"ÏĥÏĮÏģÎł":5768,"ĠÎ·ÏĩÎŃÎ»ÎµÏĦÏĥ":5769,"ĠÎ·ÏĥÎ±ÏĦÏĥÎ¬ÏģÎ±ÏĢ":5770,"ĠÎ¬ÎºÎ±":5771,"lli":5772,"Î·Î¸Î®":5773,"ĠÏĤÎµÎ¼Î¹Ïĥ":5774,"ĠÏĤÎµÎ¹Î¿ÏĢ":5775,"Î¦Îķ":5776,"Î¹ÎµÎºÎ¹ÏĦÎ½Î±":5777,"iv":5778,"ĠÎµÎ³ÏħÏĨ":5779,"ĠÎµÎ¼ÏħÎ¿Î¾":5780,"ÏģÎ¿ÏĨÎ¿Î»ÎºÏħÎº":5781,"Î¹ÎºÎ¹Î¿ÏĢ":5782,"ÏĥÎ®ÏģÎ§":5783,"Î¸Î»ÎµÏģÎ±ÏĢ":5784,"Î¿ÏĥÎµÎ¼":5785,"Î¹ÏĥÎ¬ÏĨÎ¿ÏĢÎ±":5786,"ĠÎ·ÏĥÏīÎ½Î³":5787,"60":5788,"ÏģÏĮÎ²":5789,"ĠÎ¬Î¹Î³":5790,"ĠÏĤÎµÎº":5791,"ĠÎ±Î¼Î®Î¼Î¤":5792,"Î»Î¿Î²Î¼ÏħÏĥ":5793,"ĠÎ·ÏģÎŃÎ¼":5794,"ĠÎ±ÏĦÎ±Î¼Î¼Î¬ÏģÎ³Î¿ÏģÏĢ":5795,"ĠÏĤÎ¿ÏĩÏĮÏĦÏĥ":5796,"Îİ":5797,"Î±ÏĢÎ¿":5798,"Î¯ÏĦÎµÏĩÏĥ":5799,"pA":5800,"ÎŃÏģÏĨ":5801,"ÎµÎĶ":5802,"ĠÎµÏĥÎ·ÏģÏİÏĩ":5803,".âĢ¦":5804,"Î³Î¿Î»Î¿Î¹Ïĥ":5805,"Î³ÏģÏĮ":5806,"ĠÏĤÎ¿Î¼Î®ÎĶ":5807,"Î±ÏĦÎ±Î¼Î³Î¬ÏģÏĢ":5808,"ĠÏĮÎ¼ÏĥÎ±ÏħÎ´Î½ÏħÏĥ":5809,"Î¿Î»Î±":5810,"ÎŃÏĦÏĢÎµÎ£":5811,"Î»ÏĢÎ¼":5812,"ÏģÏħÏĢ":5813,"ĠÎµÎ¼Î¬ÏĦ":5814,"Î³ÎŃÎ¼":5815,"ĠÎ¬ÎºÎ¹ÏĩÏģÎ±":5816,"ÎºÎ¹ÏĦÎ½Î±Î¼Î·Ïĥ":5817,"ÎłÎ¥":5818,"ĠÏĤÎµÏģÏĦ":5819,"ĠÏħÎ¿Î»ÏĮÎ¸Î±Îº":5820,"Î·Î¶Î±Î½Î±":5821,"ĠÏħÎ¿Îľ":5822,"Î½ÏīÎ¯Ïģ":5823,"ÏīÎ½Î±":5824,"ĠÏĤÎµÏĦÏİ":5825,"ĠÎ®ÏĦÏĥÏīÎ½Î³":5826,"ÏħÎµÏĦÏĥÎ¯ÏĢÎ±":5827,"ĠÏĤÎ¯ÎµÏĥÎµ":5828,"ÏĨÎµÎºÏĥÎ¹ÏĢÎµ":5829,"ĠÎ¹ÎµÏĥÎ¬ÏĦÏĨ":5830,"ÏĨÎ¼Îķ":5831,"591":5832,"ĠÏĤÎ¿ÏĪÏį":5833,"50":5834,"Î»Î±Î½":5835,"ĠÎ¹Î±ÏĦÎµÏĢÎŃÏģÏĦ":5836,"ÏİÎ¹Î³Î±Î½Î±Îł":5837,"ÎºÎ±Î»Î»Î±Î½Îµ":5838,"Î²Î¼ÎŃÏĦÏĢÎµÎ£":5839,"Î·Î¸ÏįÎ¿Î»Î¿Îº":5840,"ÏįÏģÎ±Î²":5841,"ĠÎ±ÏģÎ®ÏĦÎºÎ±ÏģÎ±Ïĩ":5842,"ĠÎ·ÏĥÏīÏģÏĦ":5843,"Î½Î±ÏģÏħÎ¿":5844,"ĠÎ±Î¹ÏĥÎ¯Î±Î»ÏĢ":5845,"ĠB":5846,"Ġya":5847,"ĠÎ·Î¾Î¹ÏģÎ®ÏĦÏĥ":5848,"ĠÏĤÎ¿Î´Î¯Îµ":5849,"Î¶Î¹Î½ÎµÎĴ":5850,"ĠÎ½ÏİÎºÎ¹ÏĦÎ¹Î»Î¿ÏĢ":5851,"Î¿ÏģÎ¿ÏĨ":5852,"Î½ÏĮÎºÎ¹Îµ":5853,"ĠÎ¯ÎµÎºÎķ":5854,"Î½Î¿ÏĦÎ½ÏħÏĥ":5855,"ĠÎ®ÏĩÏħÏĪ":5856,"ĠÎµÏĥÎ±ÏģÎŃÏĢ":5857,"ĠÎ·ÏĥÎ·ÏĦÏģÎ¬":5858,"nuo":5859,"Î¯Î¤":5860,"ĠÎ·Î½ÎŃÎ¼ÏĥÎ¹":5861,"Î½Î½ÎµÎ³":5862,"ĠÏĤÏīÏĦÎ½Î¬ÏĢ":5863,"Î¹ÏĦÏĥÎµÎ¦":5864,"ĠÏĤÏĮÎ±Î»":5865,"ĠÎ¯ÏĥÎ·Î½":5866,"ÏĤÏħÎ¿Î»ÏĮ":5867,"ÎŃÏĪ":5868,"Ġlai":5869,"go":5870,"ĠÎ±Î¼Î³Î¬ÏģÏĢ":5871,"ĠÏħÎ¿Î¯Î¿ÏĢÎ¿":5872,"Î¼Î¹ÏĦÎºÎµ":5873,"ĠÎµÎ¼ÏįÎ¿ÏĦÏĥ":5874,"Î½ÏĮÎ¼Î·Î½Î¼":5875,"ÏĥÎ±Î´Î¹Î´":5876,"ĠÎ±Î¹ÏĦÏĥÎ¬ÏģÎµÏĦ":5877,"Î½ÏīÏĢÎ±":5878,"ĠÏĤÎ¹ÎµÎ¾Î¯Î»ÎµÎ¾Îµ":5879,"ÏįÎ½ÎºÎ¹ÎµÎ´Î¿ÏĢÎ±":5880,"kca":5881,"ĠÎ½ÏİÎºÎ¹Î¼":5882,"Î»ÎµÎ¾Îµ":5883,"Ġpo":5884,"ĠÎ±Î¯Î½Î±Î¼ÏģÎµÎĵ":5885,"Î½ÏĩÎµÎ¾":5886,"ĠÎ¿Î½Î¬":5887,"rof":5888,"Î±Î´Î¬Î¼Î¿":5889,"ÏĢÏīÏĥÎ¿ÏģÎł":5890,"Î·ÏģÎ¯ÎµÏĩÎ¹ÏĢÎµ":5891,"ĠÎ®ÎºÎ¹Î½ÏĩÎµÏĦ":5892,"ĠÎļÎķÎĳ":5893,"Î¹ÏĩÏģÎĳ":5894,"ÎľÎĹÎĶ":5895,"ÏģÎ±Î¹Î´":5896,"Î½ÏħÎ¿Î²":5897,"ĠÏĤÎ¯ÎµÎ¼Îķ":5898,"ÏģÎµÎĺ":5899,"ĠÎ±Î¼Î¼Î±ÏģÎ³ÏĮÏģÎł":5900,"Î»Î»Î±Î³":5901,"Î»Î»Î±ÏĢÏħ":5902,"Î¹Î»Î¸":5903,"Î¿Î½Î¹Î±Îº":5904,"ĠÎ¿ÏįÎĶ":5905,"ĠÎ±Î¹ÏģÎ®ÏĦÏĥ":5906,"Î³ÏħÎ¶ÏįÏĥ":5907,"ĠÎļÎŁÎĳÎł":5908,"Î²ÎŃÎ½ÏħÏĥ":5909,"Î±Î¹ÏĦ":5910,"ÏįÎ¿ÏģÏĨ":5911,"ÏĩÎ¿ÏģÎ±ÏĢ":5912,"Î¬Î½ÏħÏĥ":5913,"Ġetis":5914,"Î¹ÏģÏĦÎ±Îł":5915,"Î±ÏģÎ´Î¯ÏĦÎ½Î±":5916,"ĠÎ¹ÎµÏģ":5917,"Î±Î¼ÏīÏĥ":5918,"Î³ÏģÏįÎ¿Î¹Î¼Î·Î´":5919,"ÏīÎ¼Î¹ÏĦ":5920,"ĠÏĤÎ·Î¾ÏħÏĦÏĢÎ¬Î½Î±":5921,"ĠÎ±Î¹Î¼ÏĥÏĮÎºÎ³Î±ÏĢ":5922,"ĠÎµÏĦÏĥÎ±Î¼Î¯Îķ":5923,"ÏĤÏīÏĢ":5924,"Î¹ÎµÎ½Î¯":5925,"ĠÏĤÎ±Î¯ÎµÏĦ":5926,"Î¿ÎĽ":5927,"Ġ+":5928,"ÏĥÏīÏģ":5929,"ĠÎ·ÏĥÎ¹Î¼Î¸ÏįÏģ":5930,"ĠÏĤÎ±ÏĦÎ½Î¿Î¶":5931,"Ġ''":5932,"Î±Î¯ÏģÎ¿ÏĦÏĥÎ¹":5933,"ÎĳÎ¡Îĵ":5934,"ÏĩÎµÎ½ÏħÎ£":5935,"ĠÏĤÎµÏģÎµÏĦÏįÎ»Î±Îº":5936,"ĠÎ¿ÏģÏĮÏĨ":5937,"Î·Î½Îľ":5938,"ĠÎµÎºÎ·Î¸ÏĮÎ´":5939,"ÏĤÏĦ":5940,"ÏįÎ±Îº":5941,"á½Ĳ":5942,"Î»Î¹ÎµÏĢÎ±":5943,"Î¼Î±Îļ":5944,"Î¬ÏģÎ±Ïĩ":5945,"ĠÎ±Î¯ÏģÎ±Îľ":5946,"ĠÎ·ÏģÎµÏĦÎ¯Î±Î¹Î´Î¹":5947,"Ġth":5948,"73":5949,"ĠÎ±Î¹Î´ÏĮÏĢ":5950,"Î½Î¿ÏĢÏĥÎ¿Î¼ÎŁ":5951,"ĠÏĤÏįÎ¿Î»":5952,"ĠÎ¹Î±ÏĦÎ½ÏįÎ¿Î»":5953,"ÏĤÎ¹ÎµÏĥÎ®ÏĦ":5954,"Î¹Î¿ÏĨ":5955,"ÏģÎµÏĦÏħÎµÎ´":5956,"Î¸ÎŃÎ¼":5957,"ĠÏĤÎµÏĦÏĢÎŃÎºÏĥÎ¹ÏĢÎµ":5958,"Î¬Ïĥ":5959,"ĠV":5960,"ÎŃÎ¶Î¹Î½ÎµÎĴ":5961,"ÎºÎ¯ÎµÎ´":5962,"ĠÎ½ÏīÏģÏĮ":5963,"ĠÎ®ÎºÎ±Î¹Îµ":5964,"ÏħÎµÏĦÎ¯Î»Î¿ÏĢÎ¹ÏĦÎ½Î±":5965,"ĠÎ½Î±ÏĥÏįÎ¿ÏģÎ¿ÏĢÎ¼":5966,"ĠÎ¿Î½ÎµÎ¼ÏĮÏĩÎµÎ¹ÏģÎµÏĢ":5967,"ÏĥÎ±Î²ÎµÏĥ":5968,"Î·Î»Î¿ÏĢ":5969,"ÏĥÎ¹ÎµÏĥ":5970,"ÏįÎµÎ»ÏħÎ¿Î´":5971,"ÏħÏĦÏģÎ±Î¼Î±Î¹Î´":5972,"Ġsre":5973,"Î¿Î½Î·Î»Î»":5974,"ÎŃÎºÎ±ÏĢ":5975,"ĠÎ·ÏĥÎ·ÏĦÎº":5976,"ĠÎ±Î¹ÏĦÎ¯ÏĢÏĥ":5977,"ÏīÎ¾Îµ":5978,"ÏĦÎ½Î¬":5979,"ĠÎ¹Î±ÏĦÎ½ÏįÎ¿ÏĦ":5980,"ĠÎ¹Î¿Î¯":5981,"Î¿ÏģÏİÏĩ":5982,"Î½Î½Î±":5983,"ĠÏĤÎ±Î¯ÏĦÎ±ÏģÎºÎ¿Î¼Î·ÎĶ":5984,"ĠÎ·ÏĥÎ·ÏģÎ¯ÎµÏĩÎ¹ÏĢÎµ":5985,"ÎºÎ¬ÏĦÎ¿ÏĥÏĦÎ·Îľ":5986,"ĠÎ·ÏĥÏħÏĩÏĥÎ¯Î½Îµ":5987,"ÎºÏģÏįÎ¿Î¤":5988,"Î¿Î¹ÏģÎ·ÏĦÏĥ":5989,"Î¬ÏĦÎ½Î¿ÏĦ":5990,"ĠÎ¿ÏĥÏĮÎł":5991,"ĠÎ·ÏĥÎµÎ´Î½ÏįÏĥ":5992,"Î·ÏĦÎ®Î¶Î±Î½Î±":5993,"ÏģÎ±Ïĥ":5994,"Î»Î»Î¬Î²Î¹ÏĢÎµ":5995,"ÏĨÎµÎ¾":5996,"ĠÎ½ÏİÎºÎ¹ÏĦÏĥ":5997,"ĠÎ®Î´Î¹ÎµÏĢÎķ":5998,"ĠÎµÏĥÎ¹ÏĥÎ¬ÏĨÎ¿ÏĢÎ±":5999,"ĠÎµÏĥÎ±Ïģ":6000,"ÎºÎ¹Î»":6001,"ÏħÎ¿Î¡":6002,"Î½ÏĮÏģÎ±ÏĢ":6003,"ĠÎ®ÏĩÎ¿ÏģÎ±ÏĢ":6004,"ĠÎ¹Î¿Î¹Î¿ÏĢ":6005,"Î·Î»Î¸Îĳ":6006,"ĠÎµÎ¼ÏħÎ¿ÏĥÎ¬":6007,"Î½Î±Î»":6008,"ÏĤÎ¿Î¹":6009,"ĠÎ½ÏĮÎ¸Î»ÎµÏģÎ±ÏĢ":6010,"ĠÎ¹Î±ÏĦÎµÏĦ":6011,"ÏħÎ¿Î½ÎŃÎ¼":6012,"ÏĢÎµÎ½ÏħÏĥ":6013,"ÎĿÎķÎľ":6014,"ĠÎ¿Î½ÏīÏĨ":6015,"ÏĥÎ±Î»Îº":6016,"Ġtse":6017,"ÏįÎµÏĦÎ±Î¼Î³Î±ÏģÏĢÎ±Î¹Î´":6018,"sor":6019,"Î·ÏĦÏĥÏħÎ±":6020,"ÏįÏĥÎ±":6021,"Î»ÏĢÏĮ":6022,"ÏĮÎ¹Î¾Î±":6023,"ĠÏĤÎ¿Î¯":6024,"ĠÏĤÎ±ÏĦÎ½Î¿ÏĦ":6025,"Î¿Î»Î¹Î¦":6026,"zi":6027,"Î½ÏīÎ»Î»Î¬":6028,"Î±Î¡":6029,"ÎŀÎķ":6030,"ĠÎµÏĥÏįÎ¿Ïģ":6031,"ĠÏĤÎ®ÎºÎ±":6032,"Î±Î¼ÏģÎ¬ÏĨ":6033,"ÏĨÎ±ÏģÎĵ":6034,"ĠÎ½ÏīÎ´Î¬":6035,"ĠÎµÎ¼ÏħÎ¿Î½":6036,"Î³ÏīÎ³Î±Ïģ":6037,"ĠÎĿÎŁÎ¤":6038,"Ġ13":6039,"ĠÎ½Î±Î¸":6040,"ÏħÎ¿Îĵ":6041,"Î¿ÏģÏĩÎ³ÏįÏĥ":6042,"ÏĤÎ¿Î»ÏħÎ¿ÏĢ":6043,"ĠÎ®ÎºÎ¹Î´Î±Î½Î¿Î¼":6044,"ĠÏĤÎ·ÏĩÏģÎ¬":6045,"Î½Î¿ÎºÎ¹Îµ":6046,"ĠÏĤÎ¹ÎµÎ¾ÎŃÎ»":6047,"ÏĮÎµÎĺ":6048,"ĠÎ®ÎºÎ¹ÏĨÎ±ÏģÎ³":6049,"ĠÎ¹ÎµÎ¶Î¯ÏĩÎµÎ½ÏħÏĥ":6050,"Î¹ÏĨÎ¼Î±":6051,"ĠÎ½ÏīÏģÏĮÏĨ":6052,"Î½Î¿Î´":6053,"ĠÎ¹ÎµÏĥÎ¯ÏĩÏģÎ±":6054,"tsu":6055,"Î¼ÏħÎĵ":6056,"Î¹Î¼Î·":6057,"ĠÏĮÎºÎ¹ÏģÎµÏĦÏīÏĥÎµ":6058,"ĠÏĤÎŃÏĦÎµÎºÏģÎ±":6059,"Ġu":6060,"ÏĥÎ¿Ïģ":6061,"ĠÎ·ÏĥÏīÏĨÏģÏĮÎ¼":6062,"ĠÏĮÎºÎ¹ÏĨÎ±ÏģÎ³":6063,"ÏĨÎµÎļ":6064,"ff":6065,"ĠÎī":6066,"Î»ÎµÎ³Î³Î±ÏģÎ±ÏĢ":6067,"ĠÏĤÎµÏĥÏħÎ¿":6068,"ÏīÏĦÏĢÎ¯ÏģÎµÏĢ":6069,"ĠÎ·Î´Î¯Îµ":6070,"ĠÎ·Î¾Î¹ÏģÎ®ÏĦÏĥÎ¿ÏĢÏħ":6071,"Î¹ÎµÎ»ÎºÎŃ":6072,"Î±ÏĢÎ¯ÏĦÎ½Î±":6073,"ĠÎ·ÏĥÎ·ÏĦÎ¯Î±":6074,"ÏĨÎŃÏĢ":6075,"ÎµÎ»ÎŃÏĦÎºÎµ":6076,"ÏģÎµÏĦÎ±Îļ":6077,"ĠÏĤÎ®Î¾Îµ":6078,"Î¿ÏģÎºÎ±Î¼":6079,"ÏģÎ¬Îł":6080,"ĠÎĿÎĹÎ¤Î£":6081,"ĠÎ¹ÎµÏĢÎŃÎ»Î²":6082,"ĠÎ·ÏĥÎ·ÎºÏĥÎ¬":6083,"Î±Î¹Îº":6084,"ĠÏĤÎŃÎ¼Î³Î¹ÏĦÏĥ":6085,"ĠÎ®ÏĢÎ¼Î¿ÏĢÎºÎµ":6086,"Î½Î¿ÎµÎ»ÏĢ":6087,"ÏīÏĩÎ¿ÏģÏĢ":6088,"ÏİÏĥÎ¿ÏģÏĢÎºÎµ":6089,"ÏĩÎ¿ÏĦÏĥ":6090,"ĠÎ¿ÏĢÏĮÏĦ":6091,"ssa":6092,"ĠÎ¹Î¼":6093,"ĠÎµÎ¾Î±":6094,"Î½ÏĮÎ´":6095,"20":6096,"Î±ÏģÎºÎ¿Î¼Î¿ÏģÏĦ":6097,"ÎµÎ¸ÏįÎµÎ»Îµ":6098,"ÏģÎŃÏĨÏĥÎ¿ÏģÏĢ":6099,"Î·ÏĦÎºÎ¿Î¹Î´Î¹":6100,"ĠÎ¿Î¼Î®ÎĶ":6101,"Î½ÏīÎ´":6102,"ĠÎ±Î¼ÏĮÎºÎĳ":6103,"ĠÎ®ÏĨÎ±ÏĢÎµ":6104,"Î¼ÏĮÏĦÎ±":6105,"ĠÏĤÏħÎ¿ÏģÎ®Î»ÏĢ":6106,"ĠÎ·Îľ":6107,"ĠÎ¿Î½ÎŃÎ¼ÏĥÎ¹":6108,"ÎºÎ±Î¼ÏģÎ±ÏĨ":6109,"ĠÎ·ÏĥÎ¹Î¼":6110,"43":6111,"Î±Î½Î¼ÏħÎ³":6112,"ĠÎ½ÏīÎº":6113,"Î¾ÎŃÎ»Îĳ":6114,"ÎºÎ¯Î¿Î¹ÎĶ":6115,"dne":6116,"ÎĻÎłÎķ":6117,"Ġlla":6118,"ĠÎ±ÏĢÏīÏĥÏĮÏģÏĢ":6119,"Î½Î¬ÏĢÎ±Î´":6120,"Î¿ÎºÎ¹ÏĦ":6121,"Î¿ÏģÎ·Î»ÏĢ":6122,"Î¼ÏħÎ¸Î¹ÏĢÎµ":6123,"Î£ÎĳÎľ":6124,"ĠÎ·ÏĥÎ·Î¯Î¿ÏĢÎ¿":6125,"ĠÏĤÏīÏĥ":6126,"Î½Î±Î¼Î®":6127,"ĠÎµÏĦÎµÏĪ":6128,"Î±Î¼Î·ÏĦÏĥÏįÏĥ":6129,"ĠÎ®ÏĦÏĥÏīÏĥ":6130,"ÏħÎµÏĦÏĥÎ¯ÏĢ":6131,"Î´Î¯ÏĢÎµ":6132,"ÏĩÎ¹Îľ":6133,"ÏģÎŃÏĢÏħ":6134,"hta":6135,"ĠÎ¿ÏģÎ´ÎµÏĮÏģÏĢ":6136,"ĠÎµÎ»ÎµÎ¸Î®":6137,"Î¹ÎµÏĥÎ¬":6138,"ĠÏĤÎ¿Î¹Î³ÎĨ":6139,"ÏĥÏĮÎļ":6140,"Î®Î»Î¸Î±ÏĦÏīÏģÏĢ":6141,"Ġ08":6142,"ÏĩÎ¿ÏģÎ²":6143,"ĠÎ½Î¹ÏĢÏĮÏĦ":6144,"ĠÎ®ÎºÎ¹ÏĦÎ¹ÏģÎº":6145,"Î½ÏİÏĨ":6146,"Î·Î½ÏħÎº":6147,"ÏħÎ¼Î±":6148,"Î½Î¬ÏĢÏĥ":6149,"ÏħÎĽ":6150,"ĠÏĤÎ¬Î¼Îµ":6151,"ÏīÎ½Îĵ":6152,"ĠÎĳÎļÎĻ":6153,"Î¬ÏĦÎ½Î±":6154,"ÏħÎ¿Î½":6155,"ĠÎ±ÏģÎ¸ÏģÎ¬":6156,"ÎºÎ¿ÏĢÎ±":6157,"ĠÎ½ÏİÏĦÎ¹Î»Î¿ÏĢ":6158,"Î½ÏĮÎ¸Î¿":6159,"Î¬ÏĦÎ£":6160,"ĠÏĤÏīÏģÎ®Î»ÏĢ":6161,"ĠÎµÏĦÏĥÎ®Î¸":6162,"Î·ÏĮÎ½":6163,"Î±Î½ÏİÎ¹Î±":6164,"ĠÎ®Î³Î·ÏĢ":6165,"reb":6166,"ÏįÎł":6167,"ĠÎ±Î¯ÏĥÎµÎ¸Î¿ÏĢÎ¿ÏĦ":6168,"ÏīÎ¿ÏģÏĢ":6169,"Î±Î»Î·Î»Î»":6170,"Î¹Î§":6171,"Î·ÏģÏİÏĩ":6172,"ĠÏĤÎ·Î¾Î±ÏĦ":6173,".....":6174,"ÏħÎ±ÏĦÏĥ":6175,"ĠÎ¹Î±Î¼Î¿":6176,"Î±Î´Î¬Î¼Î¿Î´Î²Îµ":6177,"ĠÎ½ÏħÎ¿ÏĥÏİÎ´":6178,"Î¼Î¹Ïģ":6179,"Î®Î³Î²":6180,"ÏīÏģÎ®":6181,"ĠÎ±ÏģÎµÎ¼":6182,"ĠÏĤÎµÏĦÎ½Î¿":6183,"Î³Î·ÎºÎ¹Î´":6184,"ĠÏīÎ¶Î¯Î¼Î¿Î½":6185,"ĠÎ·Î´Ïİ":6186,"ĠÎĴ":6187,"Î¹Î½Î±":6188,"ĠÎ®ÏĦÎµ":6189,"ÏĨÎ¿ÏĥÎ¿Î»Î¹ÏĨ":6190,"Î±Î»Î±Îº":6191,"ĠÏĤÎ¿ÏģÏĮ":6192,"ĠÎ¬ÏģÎ¿ÏĨÏĥÎ¿ÏģÏĢ":6193,"Î¾Î±Î¤":6194,"ĠÏĤÏīÏĢÎ®Îľ":6195,"ĠÎ¹Î´ÏįÎ¿Î³Î±ÏģÏĦ":6196,"Î¸ÏĥÎ¹Î±":6197,"swen":6198,"ĠÏĮÎºÎ¹Î½Î·Î»Î»Îķ":6199,"ĠÎ¿ÏĢÏīÏģÎ¸Î½Î¬":6200,"Î´Î¯Î»ÎµÏĥÎ¿ÏĦÏĥÎ¹":6201,"ĠÎ·ÏģÎ·Î»ÎºÏĮÎ»Î¿":6202,"ĠÎ¹Î¶":6203,"Î±Î»ÎµÏģÏĦ":6204,"ÎµÎ¼Î¬Î½ÏħÎ´":6205,"ÏİÏĨ":6206,"Î³ÎŃÎ»Î¹ÏĢÎµ":6207,"ĠÏĤÎ±ÏĦÎ½Î¿Î½Î¬Îº":6208,"ĠÏħÎ¿Î¯ÎµÎ³ÏģÏħÎ¿ÏĢÎ¥":6209,"ĠÏħÎ¿Î»Î»Î¬":6210,"ĠÏĮÎºÎ¹Î½ÏīÎ½Î¹Î¿Îº":6211,"ÏĩÏį":6212,"ÏĩÎŃÏģÏĦ":6213,"ÏĤÎµÎ½":6214,"ÏįÎ¿Îļ":6215,"Î½Ïħ":6216,"ĠÏģÎµÏĢ":6217,"ĠÎ·Î´Î¯":6218,"ĠÏĤá½":6219,"ĠÎ¯ÎµÎ¸ÎµÏģÎ²":6220,"ÏĥÎ¬Î»Î±Î¸":6221,"ĠÎ¹ÎµÏĢÎŃÏģÏĦÎ¹ÏĢÎµ":6222,"orP":6223,"Î¹Î±Î¹Î´":6224,"ĠÏīÏĪ":6225,"Î·ÏĥÎ¯ÏģÎº":6226,"ĠÎ¹ÎµÏĨ":6227,"9002":6228,"Î±ÏĦÎ·ÏĦÏĮÎºÎ¹ÏĦÎ±Î¼Î³Î±ÏģÏĢ":6229,"ĠÏħÎ¿ÏĢÏįÎ¤":6230,"ĠÏĤÎ·ÏĥÏīÎ½ÎĪ":6231,"Î¹ÏĥÏĦÎŃ":6232,"Î±Î½ÎµÎ¼":6233,"ĠÏĤÎ¿Î¹Ïĥ":6234,"ĠÏĤÎ±Î¯ÎµÎ¸ÏħÎµ":6235,"ĠÎµÏĦÎ½Î¬Îļ":6236,"Î¹ÎŃ":6237,"ÏĦÏĥÎ¹Î½ÏīÎ³Î±ÏĦÏīÏģÏĢ":6238,"ĠÏĤÏİÏĩÎµÎ½ÏħÏĥ":6239,"ĠÎ»Î¬Î²Î¹ÏĦÏĥÎµÎ¦":6240,"ĠÎ±Îľ":6241,"ÏĤÎ¿Î»ÎŃÎ¤":6242,"ÏįÎ±Î¸":6243,"ĠÎ½ÏīÎ½ÎµÎ¼":6244,"ĠÎ·ÏĥÏħÎ»Î¬Î½Î±":6245,"Î±ÎµÎ¸":6246,"Î±ÏĢÎķ":6247,"Î±ÏĦÎ½":6248,"ĠÎµÏĦÎ¯ÎµÏĦ":6249,"ĠÏīÏĥÏİ":6250,"pma":6251,"ĠÎ®Î»Î±Îļ":6252,"ĠÎ¬ÎºÎ¹ÏĦÎ¹Î»Î¿ÏĢ":6253,"Î½Î¿Î»ÎµÎ¸Îµ":6254,"Î¶ÎŃ":6255,"ĠÎ·ÏĥÎ·Î»Îº":6256,"ĠÏĤÏħÎ¿ÏĪÏį":6257,"Î½Î±ÏĩÎ·Îľ":6258,"Ġ53":6259,"ĠÏįÎ¿Î»":6260,"ĠÎ±Î¯Î±ÏĦÏħÎµÎ»ÎµÎ¤":6261,"Î»Î±Î³":6262,"ĠÎ¬ÏĦÏĥÎ¹":6263,"nE":6264,"ÎºÎ¹Î±Î½ÏħÎ³":6265,"ÏħÎ¿Îľ":6266,"ÎµÏĦÎ½Î¯ÎĴ":6267,"ĠÏĤÎ¹ÎµÏĥÏİÎ»Î·Î´ÎºÎµ":6268,"ÏĮÎ¼Î¿":6269,"Î¬Î£":6270,"ĠÎ¯ÎµÎ³ÏģÏħÎ¿Î¹Î¼Î·Î´":6271,"Î±Îĵ":6272,"ĠÎ·ÏĥÏīÏĦ":6273,"ÏĩÎŃÏĦÎ¹Î»Î»Î±Îº":6274,"Î£Î¥":6275,"ÏĤÎŃÎ³Î¿Î»ÎºÎµ":6276,"ÏĤÎµÎ¼":6277,"ÎŃÏģÎ¹Î±":6278,"Î¿Î¹ÏģÎ·ÏĦÏĥÎ±ÏģÎ´":6279,"ÎĳÎĴ":6280,"ĠÎµÏĦÏįÎŁ":6281,"ÏĤÎ±Î¹":6282,"ĠÎ¹ÎµÏĥÎŃÎ¸":6283,"ÎºÎ¹ÎĶ":6284,"ĠÎ·ÏĥÏīÎ¯ÏĦÎ»ÎµÎ²":6285,"ĠâĢĶ":6286,"ĠÏħÎ¿Î³ÏĮÎ»Î»ÏħÎ£":6287,"ĠÎ¹ÎµÏģÎŃÎ¾":6288,"Î¯Îľ":6289,"ĠÏĤÏħÎ¿ÏģÏİÏĩ":6290,"ÏĤÏİÏĩ":6291,"ĠÏĤÏįÎ¿ÎºÎ±":6292,"ÏİÎ»Î±Îº":6293,"ĠÎ±ÎºÎ·Î¸":6294,"Î¹Î±Î²ÎµÎ²":6295,"ÏģÎŃÎļ":6296,"ĠÏĤÎµÎ½ÎµÎ¼ÏĮÏĢÎµ":6297,"ĠÎ±ÏģÎ´ÎŃ":6298,"Î±Î¯Î½Î±Î¼ÏģÎµÎĵ":6299,"Î±ÏģÎŃÎ¼Î·":6300,"Î·ÏĦÏģÎ±":6301,"ÏģÎ±ÏĢÏħ":6302,"ÏħÎ¿Î»Î¿ÎºÎĳ":6303,"ĠÎµÎ¼ÏħÎ¿ÏĩÎĪ":6304,"ÏįÎ¿Î½Î¹Îº":6305,"Î±Î½ÏİÎ³Î±":6306,"DI":6307,"ĠÎ½ÏħÎ¿ÏģÎ¬ÏĢ":6308,"ÏĨÏĥÎ±Î¹Î´":6309,"ĠÏħÎ¿ÏģÎ´ÎŃÎ¿ÏģÏĢ":6310,"ĠÎ±Î¯Î½Î·Î¼Î¿ÏģÎµÎ¼Î·":6311,"ĠÏİÏĦÏĥÎ¹ÏģÎ±ÏĩÏħÎµ":6312,"ĠÏĦÏĥ":6313,"ĠÎ¹Î±ÏĦÎµÎ½Î¬Î²Î¼Î±Î»":6314,"Î¸ÏģÎĨ":6315,"ĠÏĤÏħÎ¿Î¼ÏĮÏģÎ´":6316,"ÏħÎ³Î³Îµ":6317,"ĠÎ¹Î¿Î½ÎµÎ¼":6318,"ĠÎ¹ÎµÎ³ÏįÏĨ":6319,"ĠÏįÎ¿ÏĨÎĳ":6320,"Î¹Î±ÎĿ":6321,"ĠÏĤÎ¿Î´Î¬Î»Î»Îķ":6322,"nU":6323,"Ġsa":6324,"ÏįÎ±Îł":6325,"ĠÏĤÎ®Î»Î·ÏĪÏħ":6326,"ĠÏĤÎ±Î¯ÏĦÎ¹Î±Î¾Îµ":6327,"ĠÎ®ÎºÎ¹Î»ÎµÏĦ":6328,"puS":6329,"ÏģÎ±ÏĦÎ±Îº":6330,"Î¬ÏĦÏĢÎµÎ»":6331,"Î¹Î¿ÏĢÎ¿Î»Ïħ":6332,"ĠÎ±Î¯Î»ÏħÎ¿Î²":6333,"ĠÎ¿ÏģÎ·Î»ÎºÏĮÎ»Î¿":6334,"ÏĥÎĳ":6335,"ĠÎ¿ÏĦÏħÎ±":6336,"Î¿ÏĩÎµÎ¹ÏģÎµÏĢ":6337,"ĠÏĤÎµÎ´Î¬ÎºÎµÎ´":6338,"Î§Îķ":6339,"ĠÎ®Î»Î¿ÏĦÏĥÎ¹ÏĢÎµ":6340,"ĠÎ¯ÎµÎ¸Î¿Î´":6341,"ĠÎ±ÏĦÏĮÎ½Î¿Î³ÎµÎ³":6342,"ÏįÎ±Î»Î¿ÏĢÎ±":6343,"ĠÎ¬ÎºÎ¹Î»Ïħ":6344,"Î±ÏģÎļ":6345,"ÏĩÎ¯ÎµÎ´":6346,"Î¹Î´Î¯Î½ÏĩÎ¹Î±ÏĢ":6347,"ĠÎ±Î½ÏİÎ¹Î±":6348,"ĠÎ½Î±ÎºÎ·Î¸ÎŃÏģÎ²":6349,"ÎĳÎ£":6350,"ĠÎ®ÎºÎ¹Î»":6351,"ÏĤÏħÎ¿Ïģ":6352,"ÏĦÏĥÎ¹Î½ÏīÎ³Î±ÏĦÎ½Î±":6353,"ĠÎ·ÏĥÏīÎ½Î¬Î³ÏģÎ¿":6354,"ĠÎ¿Î¯ÎµÏĨÎ±ÏģÎ³":6355,"ÏīÎ¹ÎµÎ¼":6356,"Î¯Î´Î¹":6357,"ĠÎ®ÏĩÎ¿ÏĥÎ¿ÏģÏĢ":6358,"Î·ÏĢÏįÏĦ":6359,"Î¹Î´ÏģÎŃÎº":6360,"Î¹ÏĥÎ¤":6361,"âĢ¦[":6362,"ĠÏĮÎºÎ¹ÏĦÎ¿Î¼Î·ÎĶ":6363,"Î³ÏģÎ±ÏĦÎ±Îº":6364,"ĠÎ·ÏĥÏİÎ½Î³":6365,"ÏĤÎ±Î¯Î»":6366,"Î³Î·Î¿ÏģÎł":6367,"ĠÎ¬Îº":6368,"ĠÎ±Î¹Î¿Î½Î½ÎŃ":6369,"gir":6370,"Î¿ÏģÏĦÎ·Îľ":6371,"ĠÏīÏģÎŃÏĦÎ¹Î±ÏģÎµÏĢ":6372,"ĠÏĤÏħÎ¿Î¤":6373,"ĠÏĤÏĮÏģÎ¹Î±Îº":6374,"ÏħÏĦÎºÎ¹Î´Î±Î¹Î´":6375,"Î¬ÏĦÎ½ÏħÏĥ":6376,"ĠÎ¹Î³":6377,"ÎķÎľÎĹ":6378,"Î³Î³ÎŃÏĥÎ¿ÏģÏĢ":6379,"Î¿Î´Î¿ÏĦÎ±Î¼Î·ÏģÏĩ":6380,"ÎĵÎķ":6381,"ĠÏĮÎºÎ¹Î½Î¸Îķ":6382,"ĠÎ·ÏĪÎ¹ÎµÎ»Î»ÎŃ":6383,"ciM":6384,"ÏįÎµÎ´Î¿Î½ÏħÏĥ":6385,"Î³Î¿Î»Î¿Î½ÏĩÎµÎ¤":6386,"ÏįÎµÏĪ":6387,"ÎºÎ±Î¹ÎµÏģÎµÏĨÎ¹ÏģÎµÎł":6388,"Î¹Î¾ÎµÎ´":6389,"Î³ÏħÏĨÏĥÎ¿ÏģÏĢ":6390,"ĠÏĤÎ®ÏĦÏĥ":6391,"ÏīÎµÎĺ":6392,"ĠÏĤÎµÎ¶ÎµÏĢÎ¬ÏģÏĦ":6393,"ĠÎ¹Î¿ÎºÎ¹":6394,"Ġei":6395,"ÏĤÎ¿Î»ÎŃÏĦ":6396,"ÏħÎµÎ´Î¹Î±ÏĢÎºÎķ":6397,"ĠÎ¹ÎµÎ½ÏİÎ»Î·Î´":6398,"Î»Î²":6399,"Î®ÏħÎµÎºÏĥÎ±ÏģÎ±Îł":6400,"Ġta":6401,"ÎºÎ¹ÏĦÎ±Î¼ÏĥÎµÎ»ÎµÏĦÎ¿ÏĢÎ±":6402,"ĠÎ¹ÎµÏĩÎµ":6403,"ĠÎ½ÏİÏĩ":6404,"ÏģÎ´":6405,"ÏħÎ¼Î¬":6406,"ĠÏĤÎ¹ÎµÏĥÎ®Î½Î¹Îº":6407,"ĠÎ½ÏīÎ½ÎŃÎ¼Î¿Î¶Î±Î³ÏģÎµ":6408,"ĠÎ¯ÎµÎ¸ÎµÏĦ":6409,"Î»ÎµÎ³":6410,"Î±Î¦":6411,"Î¬ÏģÎ¹Î¿Î¼":6412,"ĠÎ·ÏĥÏīÏĢÏįÏĦ":6413,"Î·ÏģÎ±Ïĩ":6414,"ĠÏĤÏīÏĢÎ®Î¼":6415,"ĠÎ¿Î¹ÏģÏįÎº":6416,"ĠÎ±Î¹ÏĥÎ®":6417,"Î¯Îĳ":6418,"Î¶Îµ":6419,"ĠÏĤÎŃÏģÎ¿Î³Î±":6420,"Î½ÏīÏĨÎ¼ÏħÎ£":6421,"93":6422,"Î¿ÏģÎºÎ³ÏħÏĥ":6423,"Î»Î¿Î²ÏģÎµÏĢÏħ":6424,"Î½Î®Î»Î»ÎµÎ½Î±Îł":6425,"ĠÎ±ÏĦÎ¹ÎµÏĢÎŃ":6426,"SA":6427,"Î¯ÏĦÎ±ÏģÎºÎ¿Î¼Î·Î´":6428,"ÏĤÎ·ÏĥÎ·ÏĦ":6429,"Î¸Î¬Î¼":6430,"NA":6431,"ÏģÎŃÏĨÎ±Î¹Î´Î½Îµ":6432,"ÏīÏĨÏģÏĮÎ¼":6433,"ÏħÎ¿ÏĨ":6434,"Î¹Î±ÏģÎµÏĦ":6435,"Î½Î¯Î¼Î±ÏĦ":6436,"ĠÎµÎ¼ÏħÎ¿Î½Î¯":6437,"ÎŃÏĢÎ¼":6438,"ÏĦÏĥÎ±Î¹Ïĥ":6439,"Î¿ÎĶ":6440,"Î³Î±Î»Î»Î±Î½ÏħÏĥ":6441,"ÏįÎ»Î±Î½Î±":6442,"ĠÎŁÎĻ":6443,"44":6444,"ĠÎµÎ³Î®ÏĢ":6445,"ÏįÏĥÎ¿ÏĦÏĥÎ¹":6446,"Î±Î¼Î·Î»Î²ÏĮÏģÏĢ":6447,"ÎĹÎĽÎĽÎķ":6448,"Î·ÎºÏĥÎ¬":6449,"ĠÎ½ÏĮÏģÎ±ÏĢ":6450,"ĠÎ·Î¼Î·ÏĥÎ¯ÏĢÎµ":6451,"ĠÎµÏĪÎ±ÏģÎ³ÎŃ":6452,"ĠÏĤÎ·ÏĥÎ±ÏĦÏĥÎ¬ÏĦÎ±Îº":6453,"Ġero":6454,"ĠÎ¹ÎµÎ¶Î¯ÏģÏīÎ½Î³":6455,"Î½ÏįÎ¿Ïģ":6456,"ÏĤÎ±Î»":6457,"ÏĢÎ¿Î¤":6458,"Î¯Îļ":6459,"ĠÎ±ÏĦÎ±ÏĦ":6460,"Ġeg":6461,"Î²Î·":6462,"Î¿Î´Î²":6463,"ÏĥÎ¹ÏĨÎ¼Î±":6464,"Î¬ÏĢÎľ":6465,"ĠÎ¬Î¹Î»Î±ÏĢ":6466,"Î³Î·Î½Î±ÏĢ":6467,"ĠÎ·ÎºÎ¹ÏĦ":6468,"ĠÎµÎºÎ·Î¸Ïĩ":6469,"ĠÎ±ÏĦÎ±ÏĨÏĥÏĮÏģÏĢ":6470,"SE":6471,"ÎºÎ¹ÎŁ":6472,"ĠÏħÎ¿Î³ÏĮÎ»":6473,"Î¿ÏĨÎµ":6474,"Î½ÏĢÎ±Îº":6475,"ĠÏĤÎ±Î¯Î´":6476,"ĠÎµÏĦÎ¾":6477,"ĠÏĤÎ±Î¹ÎµÎ³ÏģÎŃÎ½Îµ":6478,"Î±Î¼Î³Î¹ÎµÎ´Î¬ÏģÎ±ÏĢ":6479,"ÏĤÎ¯ÎµÎ¼":6480,"Î¹Î´ÏĮÎ¼ÏģÎ±":6481,"ĠÏħÎ¿Î¯ÎµÎ³ÏģÏħÎ¿ÏĢÏħ":6482,"Î´Î½Î±Î»":6483,"ĠÎ®Î¿Ïģ":6484,"ĠÎ¬ÎºÎ¹ÏĢÏīÏĥÎ¿ÏģÏĢ":6485,"ĠÏĮÎ³ÏģÏħÎ¿ÏĢÏħ":6486,"Î»ÎµÎ³Î³Î±ÏĦÎ±Îº":6487,"ÏĢÏįÎļ":6488,"ĠÏīÎ¶":6489,"moC":6490,"ÏįÎ¿ÏģÎ±ÏĢ":6491,"ĠÎ·ÏĥÏħÎµÎ´Î¯Î±ÏĢÎºÎµ":6492,"Î¿ÏĦÎ£":6493,"Î¿ÎºÎ¿ÏĥÎ¿ÎĿ":6494,"ĠÎµÏĥÎ±ÏĦÏĨÎŃ":6495,"Î¹Î±Îļ":6496,"ĠÎ±Î³":6497,"ĠÎ£Î¥ÎŁ":6498,"Î·ÏĥÎ¬Î¹Î´":6499,"cne":6500,"Î¹ÎµÏĪ":6501,"30":6502,"ÏİÏģÎ·Î»ÏĢÎ¼ÏħÏĥ":6503,"ÏĨÏī":6504,"ĠÏĤÎ¯ÎµÏģÎ¿ÏĨ":6505,"Î¿ÏĦÎ±Î²":6506,"ĠÎ¹Î±ÏĦÎµÎ¶Î¯Î½Î±ÏĨÎ¼Îµ":6507,"ĠÎ·Î¾Î¹ÎµÎ´":6508,"ÏīÎ¹Î´":6509,"ĠÏĮÏĦÎ±Î½ÏħÎ´":6510,"Î»Î¬Îľ":6511,"ÏįÎ¿Î¼ÏĥÎ¹ÏĦ":6512,"ÏĮÏģÎ³Î±":6513,"Î¹Î±ÏĦÎ½Î¿Î½":6514,"ÎºÎ±Î¼Î¿ÏĢÎ±":6515,"ÏİÎ¹Î´Î¹ÏĢÎµ":6516,"Î®ÏĩÎ¿":6517,"Î³ÏģÏħÎ¿ÏģÎ¹ÎµÏĩ":6518,"ĠÏĤÏīÎµÏĥ":6519,"Î¹ÎµÎŃÎ»":6520,"ÏģÎ¤":6521,"ĠÎ±ÏģÏĢÎ¯ÏĥÎ¤":6522,"ÏĤÎ·ÏĪ":6523,"ÏģÎ¿ÏĢÎ¿ÏģÎµÎ±":6524,"ĠÏĤÏīÏĥÎĬ":6525,"ĠÎ¹Î±ÏĦÎ½Î¿ÏĦ":6526,"xi":6527,"ÏĦÏĥÎ¹ÏģÎ¹Î±ÏĨÏĥÎ¿Î´Î¿ÏĢ":6528,"Î·Î»ÎµÎ¼":6529,"ÏĢÏħÎ¾ÎŃ":6530,"ĠÏĤÏİÏĦÏĥÎµÎ¸Î±Îº":6531,"Î¿Î³Î·ÏĦ":6532,"ĠÎ¬ÎºÎ¹ÏĦÎµÏģÎ¿ÏĨÎ±Î¹Î´":6533,"ĠÏĤÏĮÎµÎĺ":6534,"ĠÏĤÎ¿Î»ÎŃÎ¤":6535,"ĠÏĤÎµÏģÎ´Î½Î¬":6536,"Î®Î¸Î±Îº":6537,"ÏĮÎ¹Î´":6538,"Î¯ÎµÎ»ÎºÎ¿ÏĢÎ±":6539,"ÎµÏģÏĦÏĥ":6540,"OC":6541,"ÎłÎľ":6542,"Î³Î·Î´ÎŁ":6543,"ÎĿÎĳÎł":6544,"ĠÎµÏĦÎ¿ÏĢÎ®Î´Î¿Î¹Î¿ÏĢÎ¿":6545,"ÎºÏģÎ±Î½":6546,"Ġgolb":6547,"Î±Î¹Î³ÏĮÎ»":6548,"ĠÎ±Î¯ÏĨÎ·ÏĪÎ¿Î¹ÎµÎ»ÏĢ":6549,"Î¿Î¹Î»Î²Î¹Î²":6550,"Î¬ÏĥÏĦ":6551,"Î¿Î»ÎµÎł":6552,"Î½Î±ÏĨÎ±Î¾Îµ":6553,"ĠÎ·ÏĥÎ·Î¸ÏĥÎ¯Î±":6554,"ĠÎ®ÎºÎ¹ÏĦÎ±Î¼Î³Î±ÏģÏĢ":6555,"ĠÎ·Î½ÎµÎ¼ÏįÎ¿Î³Î·Î¿ÏģÏĢ":6556,"ĠÏīÏįÎµÏĦÏĥÎ¹ÏĢ":6557,"Î²ÎµÎ½Î±":6558,"Î½Î¬Î¹Î³":6559,"Î»Î¹ÎµÏĨÎ¿":6560,"ĠÏĤÎ±Î¯ÎµÎ´Î¹Î±Îł":6561,"ĠÏĤÎ±Îľ":6562,"Î¿Î½Î³Î±":6563,"Î¬ÏĦÎ½Î¿ÏĦÎ±ÎºÎµ":6564,"ĠÎµÏĥÏīÎ´":6565,"ĠÏĮÎ¼ÏĥÎ¹ÏĦ":6566,"ÎºÏĥÎ·ÏģÎ¸":6567,"Î¸Ïħ":6568,"ÏģÏĦÎ±ÎµÎ¸":6569,"Î³ÏħÏĨÏĥÏĮÏģÏĢ":6570,"ĠÎ·ÏĥÎ·Î¼Î¯ÏĦ":6571,"ĠÏħÎ¿Î¯ÏģÎ·ÏĦ":6572,"ĠÎ¹Î»Î¬ÏĨÎµÎº":6573,"Î±ÏģÎĴ":6574,"ĠÏįÎ¿Î³ÏģÏħÎ¿ÏĢÏħ":6575,"Î®Î´Î±Î»Î·Î´":6576,"ĠÏĤÎ¿ÏĦÏĥ":6577,"ÏĤÏĮÎºÎ¹ÏĦ":6578,"ÏħÎ¿ÏĦÏĥÎ¹ÏģÎ§":6579,"Î¿ÏħÏĦÎºÎ¯Î´":6580,"Ġmoc":6581,"Ġot":6582,"ĠÏħÎ¿Î¼ÏĮÎ½":6583,"ĠÎµÎ¼Î¬":6584,"ĠÏĤÎ±Î½ÎŃÎ¸Î±Îº":6585,"Î±Î¯Î½ÏīÎ½Î¹Î¿Îº":6586,"ĠÎµÏĦÏĮÎ¤":6587,"riA":6588,"ĠÎ¬ÎºÎ¹Î½ÎµÎ³":6589,"Î¹Î´Î¹Î½ÏĩÎ¹Î±ÏĢ":6590,"ĠÎ¿Î¯ÎµÏĥÏħÎ¿Îľ":6591,"Î½ÏīÎ³Î±ÏĦÎ½Î±":6592,"Î¬Î¹Î´ÏģÎ±Îº":6593,"ÏĦÏĥÎ¹Îł":6594,"ĠÎµÎ²Î±Î»ÎŃ":6595,"Î½Î±ÏģÎº":6596,"ÎŃÏĩ":6597,"Î±ÏĢÏĥÎŃ":6598,"ĠÎ±Î¯ÎµÎ»Î¿ÏĩÏĥ":6599,"ÏħÎ¿Î²Î¼ÏįÏĥ":6600,"Î¿Î´ÎµÏĢÎ¯ÏĢÎµ":6601,"Î»ÎµÏģÏĦ":6602,"ĠÎ½Î¿Î¹Î¿ÏĢ":6603,"Î¹ÏĦÎº":6604,"ĠÏĤÎ±Î½Î·Î»Î»ÎĪ":6605,"Î¿ÏĨÎ±Î´ÎŃ":6606,"Î¿Î¸":6607,"ÏĥÎ®Î½":6608,"ÏįÎ³Î³ÎµÎ»Î·Î»Î»Î±":6609,"Î»ÏħÎ¿ÏĢ":6610,"Î²Î¯Ïģ":6611,"ĠÎ®Î³Î¿Î»Î»ÏħÏĥ":6612,"ĠÏĤÎ¬ÏģÎ¿Î³Î±":6613,"ÏĩÏĮÏĦÎ£":6614,"Î¹ÏĨÎ®ÏĪÎ¿ÏĢÏħ":6615,"ÏģÏĮÎ³Î±":6616,"Î¬ÏģÎºÎ¹ÏĢÎµ":6617,".âĢĿ":6618,"ÏįÏĥÎ¿ÏĦÏĥÎ¹ÏĢÎ¼Îµ":6619,"ĠÎ¹Î¿Î»Î¯ÏĨ":6620,"Ġnoita":6621,"ÏİÏĦÎºÎŁ":6622,"ÏģÎ¿Î³Î·ÏĦÎ±Îº":6623,"Î¹ÏģÎ±ÏĩÏħÎµ":6624,"ĠÎ¿Î½Î¯ÎµÎºÎµ":6625,"ÎŃÏĩÎ£":6626,"ĠÎ¿ÎŃÎĿ":6627,"Î±Î½Î·Î¸Îĳ":6628,"ÏįÎĽ":6629,"ĠÎ½ÏİÏģÎ¿ÏĨ":6630,"ten":6631,"Î¿Î¹Î´ÏĥÎ¿ÏģÏĢ":6632,"Î¹ÏĦÎºÎµ":6633,"ÏħÎ±ÏĦÎ£":6634,"Î¿Î½ÎŃ":6635,"Î·ÏĥÎŃÎ¸":6636,"ĠÏĤÎ¹ÎµÎ¾Î¬ÏĦÎ±Î¹Î´":6637,"ÏĤÏħÎ¿ÏĢÏİÏģÎ¸Î½Î±":6638,"ĠÎ·Î¾Î¬ÏĦ":6639,"ÏħÎ¿Î»ÏĮÎºÎ±":6640,"Î½Î¿ÎŃÎ»ÏĢÎ¹ÏĢÎķ":6641,"Î¿ÏĥÎµÎľ":6642,"ĠÎ±ÏĦÎ±Î¼Î®ÏĦÎ·Î¶":6643,"ĠÏĤÎ±ÏģÎŃÏĦÎ±ÏĢ":6644,"ÏĩÏįÏĦÎµÏĢ":6645,"Î¹ÎµÎ»ÏİÏĢÎ±":6646,"ÎĻÎ¦":6647,"ÏĦÏĥÎ¹ÏĦÎ±Î¼":6648,"ĠÎ½Î±Î²Î±Î»":6649,"Î½ÎŃÎ¸ÏĥÎ±":6650,"40":6651,"ĠÎµÎ³ÎµÎ»ÎŃ":6652,"ĠÎ¿ÎºÎ³":6653,"ĠÎ·Î¼Î®Î½Î¼":6654,"ĠÏĤÎ·Î½ÎµÎ¼ÏĮ":6655,"ĠÎ¹ÏĢÎ¼":6656,"Î±Î¼ÏĥÎµÎ»ÎŃÏĦÎ¿ÏĢÎ±":6657,"ĠÏĤÏīÎ¯":6658,"ÎŃÎ¼Î·Î½Îķ":6659,"ÎºÎ¿Î´":6660,"ÏİÎ³Îµ":6661,"ĠÎµÏĥÎµÏĢÎŃ":6662,"ĠÎ±Î¯ÎµÏĦÎ±Î»ÏĢ":6663,"Î¯ÎµÏĦÏĥ":6664,"ĠÏĤÎ¹Î»ÏĮ":6665,"Î½ÏĨÎ±Î¾":6666,"23":6667,"ĠÎ¬ÏģÎ¿ÏĨÎ¹ÏģÎµÏĢÎ¼ÏħÏĥ":6668,"ÏħÎ¿ÎºÎ¬":6669,"ĠÏĤÎ·Îº":6670,"ĠÎµÏĥÏįÎ¿Î»":6671,"ĠÎŃÏĦ":6672,"ĠÎ¹Î¿Ïĥ":6673,"ĠÏĤÎµÎ¹ÎµÎ³ÏģÎŃÎ½Îµ":6674,"ediV":6675,"ĠÏīÏĥÎ¬":6676,"ĠÏĤÎ¿ÎŃÏģÏĩ":6677,"Î±Î¸Î±Î¼":6678,"ĠÎ¿Î¯ÎµÏĩÎ¹Î¿ÏĦÏĥ":6679,"es":6680,"ĠÎµÎ¼ÏħÎ¿ÏĢÎŃÎ»Î²":6681,"Î½Î±ÏĦÎ®":6682,"ĠÎ±ÏģÎŃÏĦÎ±ÏĢ":6683,"ĠÏīÏĢÎŃÎ»Î²":6684,"ÏħÎ¿Î¯ÏģÎ²Î¼Îµ":6685,"ÏħÎ»Î¬ÎºÎ±Î½Î±":6686,"Ġhc":6687,"ĠÎ±Î¾":6688,"ĠÎ±Î¹ÏĦÏĮ":6689,"Î»ÎµÎ³Î³Î±ÏĥÎ¹Îµ":6690,"liame":6691,"ĠÎ¯ÎµÎ¸Î±ÏĢÏĥÎ¿ÏģÏĢ":6692,"ĠÎ¹ÎµÎ¶Î¯ÏĩÏģÎ±":6693,"ÏģÎŃÎ¸ÏħÎµÎ»Îµ":6694,"Ġá¿¦":6695,"ÎµÎ»Î²":6696,"tuo":6697,"Î³ÏģÏħÎ¿ÏĦÎ¹ÎµÎĽ":6698,"ĠÎ®ÎºÎ¹Î½ÎµÎĵ":6699,"ÏīÏĥÎķ":6700,"ÏħÎ¿Î¯Î»ÏħÎ¿":6701,"ÎĿÎŁÎ¡":6702,"roP":6703,"Î¹ÎµÏĩÎŃ":6704,"ÏħÎ¿Î½ÏĮÏģÏĩ":6705,"Î¹ÎµÎ½Ïİ":6706,"96":6707,"ĠÏĤÎ¿Î»ÏħÎ¿ÏĢÏĮ":6708,"ĠÎ¹ÎµÏĥÎ¬Î²":6709,"Î·Î½Î¯ÎºÎ±":6710,"ĠÏĮÎºÎ¹Î³Î¿Î»":6711,"ÏħÎºÎ³":6712,"Î¿ÏģÎ·Î»Îº":6713,"cip":6714,"Î±Î¯ÏĥÎ±Î³ÏģÎµ":6715,"Î½Î¬Î¼Î¹Î»":6716,"ÏįÎ¸ÏħÎµÏĢÎ±":6717,"ĠÎ½ÏīÎ³ÏģÎŃ":6718,"Î·ÏĥÎ¿Î½":6719,"ĠÎ¯Ïģ":6720,"ÏĥÏİÎ¡":6721,"Î·Î¸ÏįÎ¿Î»Î¿ÎºÎ±":6722,"ÎµÎ½Î±Î½Î±":6723,"ÏĤÎ·ÎºÎ¬":6724,"Î´Î¿Î¾ÎŃ":6725,"ĠÎ±ÏģÎµÏĦÏĥÏį":6726,"ĠÏĤÎ¹ÎµÏĥÎ¯Î¼Î¸ÏħÏģ":6727,"Î¬Î³ÎµÎľ":6728,"Î½ÎŃÎ»":6729,"ĠÎ±ÎºÎ¹ÏĦ":6730,"ÏħÎ´Î¬ÏģÎ²":6731,"Î»Î»Î¬Î²Î¹ÏģÎµÎł":6732,"ĠÎ¿Î½Î·Î¼":6733,"Î½Î±ÏĢÎķ":6734,"ÏĢÏīÏĥÎ¿ÏģÏĢÎ¹ÏĦÎ½Î±":6735,"ĠÎ¹ÎµÏĥÎ¬Ïĩ":6736,"ÏĥÎ¬Î½Î±ÏĢÎµ":6737,"Î¯Î¼Î¿":6738,"ĠÎ¹ÎµÎ½Î¯Î±Î²":6739,"ĠÏĤÎµÏĦÏĥÎ®ÏģÏĩ":6740,"Î½ÏīÎµÏĥÏİ":6741,"ĠÎ±ÏģÎµÏĥÏĥÎŃÏĦ":6742,"Î±Î¹ÏĦÏĥÎµ":6743,"ÎĹÎŁ":6744,"Î¹ÏģÎļ":6745,"ÏįÏĥÎ¿Î¹Î±ÎºÎ¹Î´":6746,"ĠÎµÎ¼ÏįÎ¿ÏĢ":6747,"ĠÏĮÎºÎ¹ÏĦÏĥÎ¹":6748,"Î¸Î®Î¿Î²":6749,"ĠÎµÎ¼ÎŃÎ»":6750,"Î½Î¹Î¿Îļ":6751,"ĠÏĤÎ¿Î¸ÎµÎ³ÎŃÎ¼":6752,"Î±Î¼ÏħÎµ":6753,"Î¹ÎµÎ§":6754,"ĠÎ¹ÎµÎ³Î²":6755,"Î¹ÏĦÎ¹ÏĢÏĥ":6756,"ÏħÏĦÏĢÎ±Î½Î±":6757,"Î±Î»Î»Î¬":6758,"Î·ÏĥÎ¿Î´":6759,"ĠÎ½ÏīÎŃ":6760,"ĠÎ¬Î¹ÏĦÏīÏĨ":6761,"ĠW":6762,"Î·ÏĦÎ¹Î±Î¹Î´":6763,"ĠÎ½Î¬Î³Î¿ÏĦÎ½ÏģÎķ":6764,"ĠÎ¹ÎµÎ²Î¬Î»Î±Î½Î±":6765,"ĠÎµÎ¼ÏįÎ¿Î»Î±Îº":6766,"ĠÏĮÎºÎ¹ÏĥÎ±Î²":6767,"ÎºÎ¹Î´Î±":6768,"dro":6769,"ÏħÏĦÏĩ":6770,"ĠÎ¿Î½ÎµÎ¼ÏįÎ¿":6771,"ĠÎ®ÎºÎ¹ÏĥÏħÏĨ":6772,"ÏħÎ¿Î¯Ïĥ":6773,"ÎŁÎĶ":6774,"ĠÎ·ÏģÏĮÎº":6775,"Î¶Î¬Î¹ÎµÏģÏĩ":6776,"ĠÎ¿Î´Î¿Î¾ÎŃ":6777,"eno":6778,"ĠÎ±Î¯ÏģÎ¹Î±ÏĦÎµ":6779,"ÏĤÎµÏģÏİÏĩ":6780,"ĠÎ¹ÎµÎ¶Î¬Î¹Î¿Î¼":6781,"ĠÎ¬ÏģÎ¿ÏĨÎ±ÏĦÎµÎ¼":6782,"ÎºÎ·Ïĥ":6783,"Î±Î¹ÎµÎ¸Î®Î»Î±":6784,"Ġoi":6785,"ĠÏĤÎŃÎºÎ¹Î½Î·Î»Î»Îµ":6786,"ĠÎ±ÏĪ":6787,"ĠÎ¿ÏĦÏįÎ¿ÏĦ":6788,"Î²Î¼ÎŃÎºÎµÎĶ":6789,"nar":6790,"Î´ÎµÎ¿ÏģÏĢ":6791,"oi":6792,"Î·Î¸ÏĥÎ¹Î±Î½ÏħÏĥ":6793,"Î®ÏĩÏģÎ±":6794,"Î½ÏīÎ»":6795,"Î¿Î½Î±Î²Î¼Î±Î»":6796,"ĠÎŃÏĨÎ±Îº":6797,"ÏģÎµÏĦÏīÏĥÎķ":6798,"ĠÎ±Î¯ÎµÏĨÎ±ÏģÎ³":6799,"ĠÏĤÎ®ÏĩÎ¿ÏĦÎµÎ¼Î¼ÏħÏĥ":6800,"Ġ:.":6801,"Î»Î»Î±ÏĦÎµÎ¼ÎºÎµ":6802,"ĠÎ½ÏħÎ¿ÏįÎµ":6803,"ĠÎ¹ÎµÎ½ÏİÏģ":6804,"Î·Î³Î±ÏĨ":6805,"ĠÏĤÎ±ÏģÏĦ":6806,"ĠÎ±Î¹Î´ÏįÎ¿Î³Î±ÏģÏĦ":6807,"Î·Î»ÏĮÏĢ":6808,"ĠÏĤÎµÎ¹":6809,"ĠÎ·ÏĥÎ·Î¸Ïİ":6810,"ĠÌģ":6811,"Î±Î¯ÎµÏĩÎ¹Î¿ÏĦÏĥ":6812,"Î¹Î¾Î±ÏĦÎ½ÏħÏĥ":6813,"ÏįÎµÏĦÏīÏģÏĢ":6814,"ĠÏīÎ´":6815,"Î¹ÏģÎ¹Î±ÏĦ":6816,"ĠÏĮÎ±Î»":6817,"Ġ....":6818,"ĠÎ±ÏĦÎ½Î¿":6819,"ĠÏĤÎµÎŃÎ´Î¹":6820,"ĠÎ®ÏĥÎµÎ¸":6821,"ĠÏĤÏħÎ¿ÏĦÎ¬ÏģÎº":6822,"ĠÏĥ":6823,"ĠÎµÎ¾Î¹ÎµÎ´ÎŃ":6824,"ĠÏĤÎ±Î¹Ïĥ":6825,"Î»ÏĮÎº":6826,"ĠÎ·ÏģÏĦÎ®Î¼Î·ÎĶ":6827,"Î¸ÏīÏģÎł":6828,"ĠÎ¹ÎµÏĥÎ®Î³Î·Î´Î¿":6829,"ĠÎ·ÏĥÎ±ÏģÏĨ":6830,"ÏįÎµÎ¼ÏĥÎµÎ´":6831,"ĠÎĳÎĶ":6832,"Î§Î£":6833,"ĠÏĤÎ¯ÎµÎ½ÎµÎ¸ÏĥÎ±":6834,"ĠÎ®ÏĨÎ¿ÏģÏĦÎ±Î¹Î´":6835,"ĠÎ¬ÏģÎ±Î²Î¿Ïĥ":6836,"ĠÎ±ÎŃÏģÎ±ÏĢ":6837,"Î¿ÏģÎ³Îĳ":6838,"Î±Î¶ÏĦ":6839,"ĠÎµÎ¼Î¬ÏĢ":6840,"Î±ÎŃÎĺ":6841,"ĠÎ¿ÏĨ":6842,"ĠÎ±Î¼Î¿ÏĦÎ½ÏįÏĥ":6843,"Î¹Î¼Î¿Î½ÏħÏĥ":6844,"Î®Î´Î¿ÏĥÎ¹Îµ":6845,"ĠÏĤÎ±Î½ÏİÎ³Î±":6846,"Î±ÏĦÏĦ":6847,"Î¿ÏģÎµÎĳ":6848,"Î¸Î·Î¼":6849,"Î½Î¹ÏģÎº":6850,"ÏĤÎ±Î½Î®Î¸Îĳ":6851,"Î·ÏĥÏħÎµ":6852,"ĠÎ·Î½Î¯":6853,"ĠÎ¹ÎµÏĥÎ®Î³ÏģÏħÎ¿Î¹Î¼Î·Î´":6854,"ÏīÎ»ÏĢÎ¹Î´":6855,"Î±ÏģÎ¿":6856,"lp":6857,"á¿¶":6858,"Î¼Î¿Î½Î¬ÏģÎ±ÏĢ":6859,"Ġ54":6860,"ĠemoH":6861,"ÏħÎºÎ³Îµ":6862,"ĠÎ·ÏĦÏħÎ»ÏĮÏĢÎ±":6863,"ÏħÎµÏģÎĪ":6864,"ĠÏĤÎ®ÏĦÏħÎµÎ»ÏħÎ¿Î²":6865,"ÏĢÎµÎ»ÏĮ":6866,"ĠÏĤÎ¹Î»ÏĮÎľ":6867,"ĠÎ±ÏĥÏĮÏĦ":6868,"ĠÎ¹Î¿Î½ÎµÎ¼ÏĮÎ¶Î±Î³ÏģÎµ":6869,"Î¿ÎºÎ¹Î´":6870,"ĠÎ½ÏīÎ¯ÎµÏĩÎ¹Î¿ÏĦÏĥ":6871,"ÏħÎºÎ±":6872,"ĠÎ¹Î±ÏĦÎ¯ÎµÎ»Î±Îº":6873,"ĠÎ¯Î±Îº":6874,"ĠÎ±Î¯Î»Î¹Î¼Î¿":6875,"Î¬ÎºÎ³Î±Î½Î±":6876,"ĠÏĤÎµÏĦÏĮ":6877,"ĠÎµÏĥÎ·Î»Î¯Î¼":6878,"ĠÎ¹Î¿Î³ÏĮÎ»":6879,"Î¾Î¬Î¹ÏĦÏĨ":6880,"ÏĤÎ¬Î¼Îµ":6881,"Î±ÎºÏģÏħÏĢ":6882,"Î³Î¿Î»Î¿Î¹ÏĥÏħÏĨ":6883,"ĠÏīÎŃÎ»":6884,"ĠÎ¹Î¿Î¹Î¿Îł":6885,"ÏĤÎµÎ¯ÏĨÎ±ÏģÎ³Î¿ÏĦÏīÏĨ":6886,"ÏĤÎ·ÏĢÏİÏģÏħÎķ":6887,"ĠÎ¹ÎµÎ´Î¯Î´":6888,"ÏĩÎŃÏĦÎµÎ¼Î¼ÏħÏĥ":6889,"Î¬Î»Î»Î¿ÏĢ":6890,"ĠÎ·ÏĪÎµÎºÏĥÎ¯ÏĢÎµ":6891,"ĠÎ±Î¯Î³Îĳ":6892,"Î½ÎŃÎ²":6893,"ĠÎ®Î½ÏīÏĨ":6894,"Î¯ÎµÎ³":6895,"Î±ÏĦÎ±Î¼ÎŃÎ¸":6896,"ĠÎµÎ½Î±Î¸":6897,"weN":6898,"ĠÎ±Î¯ÏĥÏīÎ¡":6899,"ĠÎ¹Î±ÏĦÎµÏįÎµÏģ":6900,"Î¹Î¿ÏĢÎ¿Î³ÏģÎµÎ½Îµ":6901,"Î¯Î½Î±":6902,"ĠÎ·Î¾ÏģÎ±ÏĢÏį":6903,"ÏĤÏīÎ¼":6904,"ĠÏĤÎ±ÏĦÎ·ÏĦÏĮÎ¹Î¿ÏĢ":6905,"ÎµÎ¸Î¿Î¹Ïħ":6906,"ĠÎ±ÏĦÏħÎ»ÏĮÏĢÎ±":6907,"ĠÎ¿ÏĦÎ¯ÏģÏĦ":6908,"ĠÏĤÎ®ÎºÎ¹Î´":6909,"ÏħÎ´Î½ÎŃ":6910,"ĠÎ±ÏĥÏħÎ¿Î¸Î¯Î±":6911,"ĠÏĤÎ±Î¯ÎµÎ¸ÏħÎµÏĢÎ±":6912,"Î¿ÏĥÏĦ":6913,"ÏįÎ¿ÎºÎ¹ÏĦ":6914,"Î¿Î¯ÎµÎ¼":6915,"ĠÎ¹Î½ÏĮ":6916,"ĠÏīÏĥÎ¯":6917,"Î»Î»Î¿Îº":6918,"ÏįÏĥÎ¿Î¹Î±ÎºÎ¹ÎĶ":6919,"Î±Î»Î·Î»Î»Î¬ÏģÎ±Îł":6920,"Î²ÏİÏĦÎºÎŁ":6921,"kS":6922,"ĠÏĤÏīÏĦÏįÎ»Î¿ÏĢÎ±":6923,"Î¬Î¹ÎµÎ»ÏħÎ¿Î´":6924,"ĠÏĤÎ±Î»":6925,"Î¿ÎºÏħÎµ":6926,"ÏģÏĮÎ¥":6927,"enil":6928,"ÏĢÎµÏģÏĢ":6929,"Î½Î¿ÏĦÎºÎµÏĦ":6930,"ĠÎ½ÏħÎ¿ÏģÎŃÏĨÏĥÎ¿ÏģÏĢ":6931,"Î·Î»Î¿ÏĩÏĥÎ±":6932,"Î¿Î¹ÎĴ":6933,"ĠÎ±Î¯Î±ÏģÏī":6934,"ĠÏĤÎµÎ¯Î½Î¹Î±ÏĦ":6935,"ĠkoobecaF":6936,"ĠÎ¾":6937,"ÏħÎĺ":6938,"Î½Î¹ÎµÏĦ":6939,"ÏīÎ»Î·Î´":6940,"Î¹Î´ÏħÎ¿Î³Î±ÏģÏĦ":6941,"ÏĥÏĮÏĢÏħ":6942,"ĠÎµÏĥÎ±ÏĩÎŃ":6943,"ÏģÎŃÏĨÎ±ÏĦÎ±Îº":6944,"ĠÎ¯Î¿ÏĦÏħÎĳ":6945,"ĠÏĤÎŃÎºÎ¹ÏĦÎµÏģÎ¿ÏĨÎ±Î¹Î´":6946,"ÏĢÎ¼Î±Î»":6947,"ÎŃÎ²":6948,"ÎĵÎ¡":6949,"ÏĥÎ¬ÏĨÎ¿ÏĢÎ±":6950,"lia":6951,"ÎµÎ»ÏĮ":6952,"Î½ÎµÎ³Î³ÏħÏĥ":6953,"ÎµÎ³Î³":6954,"ĠÎ¹ÎµÎ¶Î¯Î¾Î±":6955,"Î·Î¸ÏĥÎ¯Î±":6956,"ĠÎ±ÏĥÎ¬":6957,"ĠÎ½ÏİÎ»Î»Î¿ÏĢ":6958,"ÏĢÏīÎ¹Ïĥ":6959,"EL":6960,"ĠÏĤÎ±Î¯Î¿ÏĢÎ¿":6961,"Î½ÏİÎ¹Î±":6962,"Î»ÎµÎĴ":6963,"ĠÏĤÎ±ÏĦÎ½Î¿Î¶Î¯Ïģ":6964,"Î²Î¼ÎŃÎ¿ÎĿ":6965,"ĠÎ±Î¼Î·Î»":6966,"ĠÎ¬Î¹Î¸Î±Î²":6967,"ĠÎ®ÎºÎ¹ÏģÏĦÎ½ÎµÎº":6968,"Î³Î¿ÎĽ":6969,"Î¯ÏĦÏĩ":6970,"ĠÎ¿Î»ÎŃÏĦÎ½Î¿Î¼":6971,"ĠÎ±Î¼Î·Î»Î¸Î¬ÏĦÏīÏģÏĢ":6972,"Î®ÎºÎ¹ÏĦÎ¹Î»Î¿ÏĢ":6973,"Î¹Î±ÏģÎµÏĦÎ¿ÏģÏĢ":6974,"ÏĥÎ¹ÏĩÎ¬Î»Îµ":6975,"ĠÏĤÎµÎ¹ÎµÎ¸Î¬ÏĢÏĥÎ¿ÏģÏĢ":6976,"ĠÎ·ÏĥÎ·ÏĦÏİÏģÎµ":6977,"ÏĦÎ·Î¶Î±Î½Î±":6978,"ĠÏĤÎµÎ¯ÏģÎ¿Î³Î·ÏĦÎ±Îº":6979,"ĠÎ¹ÎµÏĥÎŃÎ»Î±ÎºÎ¿ÏģÏĢ":6980,"Î»ÎµÏĦÎ¿ÏĢÎĳ":6981,"Î¹Î±ÏĨÏĥÏĮÎ¼":6982,"Î¿ÏĦÎ±Î½Îĳ":6983,"ĠÎ¹ÎµÎ²":6984,"ĠÎ¯ÎµÏĦÏĥÎ¹Ïģ":6985,"Î¸ÏħÎ±":6986,"ĠÎ¬Î³Î¹Ïĥ":6987,"ÏģÎ¿ÏĢÎĳ":6988,"ÏĮÎ´Î¿":6989,"ÏģÎµÎ¾Î®":6990,"Î·Î¤":6991,"ĠÎ¿ÏĦÎ±ÏĦ":6992,"Î·Î¸ÏĥÎ¹Î±ÏħÎµ":6993,"ĠÎ¹Ïĥ":6994,"ÏħÏģÎ´":6995,"ÎºÎ¹ÏĦÎķ":6996,"Î¹ÎµÎ¶":6997,"Î±Î³Î±Î¼":6998,"ĠÎ¿Î¯Î´ÎµÏĢ":6999,"ĠÎµÏĥÎ·ÏĨÎ¬":7000,"ÏĥÎŃÏģÎ±":7001,"ĠÎ½ÏħÎ¿ÏĩÎŃÏĦÎµÎ¼Î¼ÏħÏĥ":7002,"ĠÏĤÏħÎ¿ÏĦÎŃ":7003,"Î¬Î¹Î½Î¿ÏģÏĩ":7004,"ÏģÎ¿Î²":7005,"ĠÏīÎ»ÎŃÎĺ":7006,"Î³ÏģÎŃÎ¹Î»Î»Î±Îº":7007,"Î³ÏĮÎ¼":7008,"Î½ÎµÏģ":7009,"ÎĳÎĶ":7010,"ĠÏİÏĦ":7011,"ĠÏĤÎ±Î½Î®Î¸Îĳ":7012,"Î¹Î´Î±":7013,"eg":7014,"ĠÎ·Î³":7015,"dno":7016,"ĠÎ¹Î±Î¼Î¿Ïĩ":7017,"ÎļÎŁÎ£ÎĳÎł":7018,"ĠÏĤÎ¹ÎµÏĥÏįÎ»":7019,"Ġeta":7020,"Î±Î»Î±ÏĢ":7021,"ĠÏĤÎŃÏĦÏħÎµÎ»ÏħÎ¿Î²":7022,"Î¹Î¿Î¼Î±":7023,"ÎµÏģÎ¹Î±Ïĩ":7024,"ĠÎ½ÏħÎ¿Î¶Î¯ÏģÏīÎ½Î³":7025,"Î£ÎĹÎ¤":7026,"ÎŃÏģÏĩÎ¿ÏĢÏħ":7027,"ĠÎ·ÏĥÎŃÎ¼":7028,"ÏĨÎ¿Î£":7029,"ÏįÎ¦":7030,"ĠÎ½Îķ":7031,"ĠÏĮÎºÎ±Î¹Îµ":7032,"Î¬ÏĦÎ½Î±ÏĨ":7033,"ĠÏĮÎºÎ±Îº":7034,"ĠÏħÎ¿ÏģÏİÏĩ":7035,"ĠÏĤÎŃÎ³Î·ÏĢ":7036,"ĠÏĤÎ±Î¯ÏĥÎ±ÏĦÏĥÎ¿ÏģÏĢ":7037,"Î¿Î³Î·ÏĦÎ±Îļ":7038,"Î½Î¿Î»Î»Î±Î²Î¹ÏģÎµÏĢ":7039,"ÎĳÎĽÎĽÎķ":7040,"ĠÎ®ÏĪ":7041,"ĠÎ®Î½Î¹ÏģÎµÎ¼Î·Î¸Î±Îº":7042,"Î¬ÎĽ":7043,"ÎµÏĦÎºÎµ":7044,"ÏĢÏħÎ»":7045,"ĠÎ±ÏĥÏĥÎ±Î»Î¬Î¸":7046,"Î·Î»Î»Î¬ÏĢÏħ":7047,"Î£ÎŁÎ¡Îł":7048,"ĠÏĤÎ¿ÏĢÏīÏĥÏĮÏģÏĢÎºÎµ":7049,"Î½Î±ÎºÎ·Î¸":7050,"ĠÎ¬ÎºÎ¹ÏģÎ¿ÏĨ":7051,"ÎĽÎļ":7052,"Î³Î±Î»Î»Îĳ":7053,"ÏīÎºÏģÎ±Î½":7054,"Ġdi":7055,"ĠÎµÎºÎ·Î¸Î®Î½Î½ÎµÎ³":7056,"ĠÎ·ÏĥÎ¿Î´Î¬ÏģÎ±ÏĢ":7057,"ÏģÎµÏĨÎ±Î¹Î´Î½Îµ":7058,"ĠÎ¬ÏĦÏĥÏīÏĥ":7059,"ĠÎ½ÏīÎµÏĥÎ®ÏĦ":7060,"ĠÎ¬ÎºÎ¹Î»":7061,"Î±ÏĥÎŃÎ¼":7062,"ÏīÎ»Î®Î´ÎºÎµ":7063,"ĠÎ½ÏĮÏĩÏħÏĦ":7064,"ĠÎµÏĥÎ¹Î¼":7065,"ÎĳÎŁ":7066,"ĠÎ®ÎºÎ¹Î´Î¹Îµ":7067,"ÏĢÎ¿ÏĦÎ½Îµ":7068,"ĠÎ·ÏĦÎ¯ÏģÏĦ":7069,"Î¯ÏģÎļ":7070,"ĠÎ·ÏĥÏİÏĦÏĢ":7071,"ĠÎ±Î¼Î¯Î»Îº":7072,"lC":7073,"ÎŃÏĦÎ½Î±":7074,"ĠÎ·Î»Î¿ÎºÏĥÏįÎ´":7075,"ÎĽÎĽÎĳ":7076,"ĠÏĤÎŃÏĦÏĥÎ¹":7077,"ÏĥÎ¹Î³Î¿Î»":7078,"Î¬Î§":7079,"ÏĨÎ»ÎµÎ´Î±":7080,"ĠÎ·ÏĥÎµÏģ":7081,"Î¹Î±ÏĨÏĥÏĮÎ¼ÏĦÎ±":7082,"ÎĵÎŁÎĽ":7083,"ĠÏĤÏĮÎ¼ÏĥÎ¹ÏĦ":7084,"ĠÎ½ÏħÎ¿ÏĥÎ®ÏĦ":7085,"Î¹ÎµÎ³Î±Î¼":7086,"Î±Î¯ÏĦ":7087,"ÏģÎµÏĩ":7088,"Î¯ÏģÎĴ":7089,"ÏĦÎ£":7090,"ÏĩÎŃÎ´Î¿ÏĢÎ±":7091,"Î¹Î±Î»Î±Îł":7092,"Î±Î¼ÏĮÎºÎ±":7093,"ĠÏĤÎŃÏģÎºÎ¹Î¼":7094,"Ġf":7095,"ÎºÎ¹Î¿Î½Î±":7096,"ÏĢÏħÎ¾":7097,"ĠÎķÎ¤Î£":7098,"Ġkca":7099,"ssi":7100,"ĠÏĤÎ·ÏĢÏİÏģÏħÎķ":7101,"ÏİÏģÏĦÏĥ":7102,"ĠÎ·ÏĥÏįÏĨ":7103,"ĠÏħÎ¿ÏįÏĦÎºÎ¹Î´":7104,"Î¿Î´ÎµÎĶ":7105,"Ġ07":7106,"ÏģÎ¿Î³Î®ÏģÎ³":7107,"ÏİÏĦÏĢÎ¼ÏħÏĥ":7108,"ÏīÏĢÎ¿":7109,"ĠÏħÎ»Î¿ÏĢ":7110,"Î¹ÏĦÎºÎ±":7111,"Î¯ÏģÏīÎ½":7112,"ĠÏįÎ¿ÎºÎ¹Î½Î·Î»Î»Îķ":7113,"ĠÎµÏģÎµÏĨÎŃ":7114,"Î£Î¥ÎŁ":7115,"Î·ÏĢÏįÏĦÏĩ":7116,"ÏĤÎµÏģÎŃÎ¼":7117,"Ġ003":7118,"Î»ÎµÎº":7119,"tce":7120,"Î±Î±":7121,"ĠÎ±Î¼Î·ÏĦÎ¯Î±":7122,"ĠÎ¯Î¿Î½":7123,"Î¯ÎºÏģÎ±Îº":7124,"ĠÎ¬ÏĦÏĢÎµ":7125,"Î±ÎµÎ½":7126,"Î¬Î¹Ïĥ":7127,"ĠÎ®Î»ÏĢÎ±":7128,"ĠÏĤÎ®ÎºÎ¹Î½Î¸Îµ":7129,"Î¸ÏģÏĮ":7130,"Î½ÏħÎ¿Î¼Î¼Î¿Îº":7131,"Î»Î»ÏħÏĨ":7132,"ĠÎµÏĦÎ½Î¬Îº":7133,"Î¬Î¡":7134,"Î³Î¿Î»Î¿Î¼Î¿":7135,"ĠÏĤÏįÎ¿Îº":7136,"Î®ÏĦÎ·Î½Î¹Îº":7137,"ĠÏĤÎŃÎºÎ¹ÏĦÎ½Î±Î¼Î·Ïĥ":7138,"Î·ÏĥÏīÏĦÏĢÎ¯ÏģÎµÏĢ":7139,"Î¿ÎºÎ¹ÏģÎµÏĢ":7140,"Î·ÏĦÏĥÎ¹ÏĢÎķ":7141,"ÏģÎŃÏĨÎ¹ÏģÎµÏĢ":7142,"rga":7143,"ĠÎ¹ÎµÎ¸Î»ÎŃ":7144,"Î±Î¼ÏĥÎ¹":7145,"ĠÏįÎ¿ÎºÎ¹Î´":7146,"ÎŃÎ¹ÏĢ":7147,"tsop":7148,"ĠÎ¹Î±ÏĦÎ¯ÎµÎ¹Î¿ÏĢÎ¿Î¼Î¹ÏĥÎ·ÏģÏĩ":7149,"ĠÎ¿ÏĢÏħÏĦ":7150,"ĠÎ·ÏĥÎ±Î¯ÏģÎ´ÎµÎ½ÏħÏĥ":7151,"ÎºÎ±ÏĦÎºÎŃ":7152,"ÏģÎ¿ÏĨÏīÎµÎ»":7153,"Î£ÎĻÎķ":7154,"Â».":7155,"Î½Î±Î½":7156,"Î³ÏħÎ£":7157,"ÎķÎ¤ÎĿÎĻ":7158,"ĠÎ±ÏĦÎ·ÏĦÏĮÏģ":7159,"Î¹Î±ÏĨÏĥÏĮÎ´":7160,"ĠÏĤÎ±ÏĦÎ½ÏİÎ¹Î¿ÏĢÎ¿Î¼Î¹ÏĥÎ·ÏģÏĩ":7161,"ÏİÎ£":7162,"ÏħÎ½":7163,"ĠÎ¿Î»Î¿ÎºÏįÎµ":7164,"Î´ÎŃÎ½ÏħÎ£":7165,"ÏĨÎ±ÏģÎ³ÏīÎ¶":7166,"Î½ÏİÏĩ":7167,"xE":7168,"Î¹Î½ÏĮ":7169,"ÎºÎ¹Îķ":7170,"Î³ÏģÎµÎ¯ÏģÎµÏĢ":7171,"ĠÏĤÎµÏĦÎ¬Î³ÏģÎµÎ½ÏħÏĥ":7172,"ÏħÎ±Î¼":7173,"Î¯Î´Î¹Î±ÏĢ":7174,"ĠÏĮÎºÎ¹Î¼Î¿Î½Î¿ÎºÎ¹Î¿":7175,"ĠÎµÎºÎ·":7176,"Î»Î¯ÏĨÎ¿ÏģÏĢ":7177,"ÏĦÎ±Î»ÏĢ":7178,"ÎºÎ¹Î¿Î¹Î´":7179,"OR":7180,"ĠÏĤÎ¯ÎµÎ¸":7181,"ĠÏĤÎ·Î»Î¬Î³ÎµÎ¼":7182,"ÏħÎ¿Î¯ÏģÎ±":7183,"Î¯ÎµÎ¸Î·":7184,"ĠÎ·ÏĥÏīÎ»Î¬Î½Î±ÏĦÎ±Îº":7185,"ĠÎµÏĥÏħÎµ":7186,"ĠÎ¹Î±ÏĦÎ½ÎµÎ¸":7187,"ÎĻÎŁ":7188,"ÏĢÎµÎºÏĥ":7189,"ĠÎ¹Î±ÏĦÎµÏĥÏĥ":7190,"ĠÎ¹Î±ÏĦÎµÎ½Î¬":7191,"ĠÎ±Î´Î¯ÏģÎµÎ¼Î·ÏĨÎķ":7192,"ĠÎ¯ÎµÎ²Î¼ÏħÏĥ":7193,"84":7194,"TA":7195,"ĠÎ½ÏįÎ¿Î¸ÏħÎ¿Î»Î¿ÎºÎ±":7196,"Î½Î¹Î²":7197,"Î¹ÎµÎ¾":7198,"ĠÎ½ÏħÎ¿Î¼Î®":7199,"ĠÏĤÎµÎ¯ÏĥÎ±ÎºÎ¹Î´Î±Î¹Î´":7200,"Î¿Î¸ÏĨ":7201,"ĠÎ·ÏĪÏĮÏĢÏħ":7202,"ĠÏĮÎºÎ¹Î´Î¿Î¹ÏģÎµÏĢ":7203,"ĠÎ®ÎºÎ¹ÏĢÎ¿ÏĦ":7204,"ĠX":7205,"yo":7206,"ĠÏįÎ¿Î±Î»":7207,"sser":7208,"ĠÎ¿ÏģÏĢÏįÎļ":7209,"ÏĢÎµÎ»ÏĮÏģÎµÏĦÏħÎµÎ´":7210,"ÏģÎ±Î¸Î¬":7211,"ĠÎ±Î¯ÏĦÎµÎ±ÎºÎµÎ´":7212,"Î¿Î´Î¿Î½ÎµÎŀ":7213,"Î»Î¿ÏĩÏĥÎ±":7214,"Îª":7215,"ĠÎ·ÏĥÏħÎµÎ»ÎŃ":7216,"ÎµÏģÎł":7217,"ĠÏīÎ½Î¯":7218,"Î¯Î»Î·":7219,"Î¬ÏĦÎ±ÏĢ":7220,"ĠÏĤÎ¿Î³Î¿Î»Î»ÏįÎ£":7221,"Î¬ÏĦÎµÎ¼Î¼ÏħÏĥ":7222,"Î¿ÏĨÎ¿ÏģÏĦ":7223,"ĠF":7224,"Î±ÏĦÎ¿ÏĢ":7225,"ÏħÎµÎºÎ¹Î´Î¹Îµ":7226,"ĠÎ±ÏĦÎ±Î¼Î®Î¸Î±Î¼":7227,"ÎĽÎ¥ÎŁ":7228,"ĠÎ¤ÎĿÎĶ":7229,"ĠÎķÎļÎļ":7230,"ew":7231,"Î½ÏİÏģÏĦ":7232,"ĠÎ¹ÎµÎ¶Î¬Î»Î»Î±":7233,"ĠÏĤÎµÏĦÎ·ÏĦÏĮÎ¹ÏģÎ·ÏĦÏĥÎ±ÏģÎ´":7234,"ÏĤÎ·ÏĥÎ·Î½ÏģÎŃÎ²ÏħÎº":7235,"ÏħÎ¿Î¯ÏĦ":7236,"Î±Î½ÏĮ":7237,"Î½Î¯Î±Îº":7238,"Î»Î±ÏĦÏĥ":7239,"ĠÏĤÎ¿Î³Î¿Î»":7240,"Î½Î¿Î»Î»ÎµÎ¼":7241,"ĠÎ¹Î¿Î¹Î´Î¯":7242,"ĠÎ½ÏīÎ´Î¯":7243,"ĠÎ±Î¼Î¯Î±":7244,"ÏĤÎ¿Î´Î¬Î»Î»Îķ":7245,"Î¬Î½Î¿Î¼":7246,"ÏģÎŃÎŀ":7247,"Î»Î±ÏĦÎ¹":7248,"ĠÎ½ÏīÎ¯Ïĥ":7249,"ÏĦÎ½":7250,"ĠÎ¹Î±ÏĦÎµÎ³ÎŃÎ»":7251,"ĠÎ½ÏīÏĥÏĮ":7252,"Î±ÏĦÎ±Î¼Î®Î»Î²Î¿ÏģÏĢ":7253,"ĠÎ·ÏĥÏīÏģÎ®Î»ÎºÎ¿Î»Î¿":7254,"ÏģÎ¿ÎĴ":7255,"ĠÎŁÎ¡":7256,"ÏīÏģÎ·Î»ÏĢÎ±Î½Î±":7257,"ĠÎ¯ÎµÏģÏīÎµÎ¸":7258,"ĠÎ·ÏĪÎŃÎºÏĥ":7259,"ĠÏİÎ½Îķ":7260,"ÏħÎ´Î½Î¹Îº":7261,"ĠÎ·Î½ÎŃÎ¼Î·":7262,"8002":7263,"Î¯Î¿ÎºÎ¹":7264,"Î³Î±Îľ":7265,"Îı":7266,"ĠÎ±ÏĦÏĥÏİÎļ":7267,"Î¿Î³ÏĮÎ»":7268,"ĠÏīÎ¾":7269,"ÎĻÎ¡ÎŁ":7270,"ĠÏĤÏİÎ¹Î»Î»Î±":7271,"ÏħÎµÏĦÎ¬Î¼":7272,"Î·Î´Î±ÎºÎĳ":7273,"ero":7274,"ÏİÎ¼":7275,"Ġz":7276,"ĠÎµÏĦÎµÏĥÎ¯":7277,"ĠÎµÎºÎ®ÏģÎ²":7278,"Î±Î¹ÏģÎ®ÏĦ":7279,"ÏĥÎ±ÏĦ":7280,"ĠÎ·ÏĥÏīÏģÏĦÎ½ÎŃÎºÎ³ÏħÏĥ":7281,"ÏĩÏħÏĦÎ¿ÏĢÎ±":7282,"ĠÏĤÎ®Ïģ":7283,"Î¿ÏĦÎº":7284,"ÏĥÎ±ÏģÎµÏĢÏħ":7285,"my":7286,"ĠÎµÎ»Î¹ÎµÏĦÏĥÎŃ":7287,"ĠÎ·ÏĥÎ±":7288,"ÎµÏĦÏĮÏĦ":7289,"ĠÏĤÎŃÎºÎ±":7290,"ÏĩÏĥÎ¬ÏĦÎµÎ¼Î¼ÏħÏĥ":7291,"ĠÎ½Î±ÎºÎ·ÏĦÏĥÎ¬":7292,"ĠÎ»Î¬":7293,"ĠÎ±ÏĢÎ¹Î¿Î»ÏĮÏĢÏħ":7294,"Î¹Î¿Ïĩ":7295,"ÏħÏģÎĴ":7296,"Î±Î¼Î³Î¬ÏģÏĢ":7297,"ĠÏĤÎµÎ¹Ïģ":7298,"Ġ9002":7299,"ÏĤÎµÎ¯Î»":7300,"Î¬Î²Î±Î½Î±":7301,"ĠÎ¹ÎµÎ¶Î¯ÏģÎ·ÏĦÏĥÎ¿ÏĢÏħ":7302,"ĠÏħÎ¿ÏģÎµÏĦ":7303,"Î½Î±Î¼Î±ÏģÎ±Îļ":7304,"ĠÎ¿Î»Î±":7305,"ĠÎ¿Î½ÎµÎ¼Î¯ÎµÎºÎ¹ÏĦÎ½Î±":7306,"Î¬Î¹Î½Î½ÎµÎ³":7307,"Î·Î»Î±Îļ":7308,"ÏĮÎł":7309,"ĠÎ½ÏĮÎ¶ÎµÏĥ":7310,"ĠÎ±Î¼Î·ÏĦÏİÏģÎµ":7311,"ÏħÎ±Î½ÏħÏĥ":7312,"Î·ÏĦÎ®Î¶ÏħÏĥ":7313,"ĠÎ±ÏģÎŃÎ±":7314,"eB":7315,"ĠÎ±Î¼Î·Ïĩ":7316,"Î¹ÎµÎ¸":7317,"ĠÏĤÎ±Î¯ÏĥÎ±Î³ÏģÎµÎ½ÏħÏĥ":7318,"ÎºÎ±Î¹ÏĥÎ±Î³ÏģÎµ":7319,"Î´ÎŃÎ½ÏħÏĥ":7320,"ĠÎķÎľÎ¥ÎŁ":7321,"Î³ÏģÎµÎ¹Î»Î»Î±Îº":7322,"Î»Î»Î¬Î²Î¼ÏħÏĥ":7323,"ĠÏĤÎ·Î»Î¿ÏĢ":7324,"ĠÎ®ÏĥÎ·ÏĦ":7325,"Î½ÎµÏĢ":7326,"ĠÎ¬ÏĦÏĨÎµÎ»":7327,"ÏĤÎµÎ½Î·Î»Î»ÎĪ":7328,"ĠÎ¹ÏģÎŃÎ¼Î·ÏĥÎµÎ¼":7329,"Î¿ÏĥÎŃ":7330,"ÏĥÏĮÎľ":7331,"ĠÏĤÎ¿ÏģÎł":7332,"Î»ÎµÏĦÎºÎµ":7333,"ĠÎ¹Î½Î¬":7334,"Î±Î¹Î½Îµ":7335,"ĠÎ¿Î¼ÏĮÎ½":7336,"ĠÏĤÎ¿Î»Î¬Î³ÎµÎ¼":7337,"ĠÎ¬ÎºÎ¹Î³Î¿Î»":7338,"Ġten":7339,"ÏĮÏģÎºÎ¹Î¼":7340,"ÏįÎ¿Îł":7341,"ÏģÎ±ÏĦÎŃÏĦ":7342,"ÏĬÎ¿ÏģÎł":7343,"Î®Î³Î·Îł":7344,"ÏĩÎŃÎ¤":7345,"Î¿Î½Î¿ÏģÏĩ":7346,"Î¿Î´Î½Îµ":7347,"ÏįÏģÎ·Îº":7348,"Î¹ÏĥÎ·Î»ÏĢ":7349,"ĠÏĮÎºÎ¹ÏģÎ¿ÏĦÏĥÎ¹":7350,"ÏīÏģÎķ":7351,"ĠÎ¬Î¼Î¿Î½":7352,"ĠÎ½ÏİÎºÎ¹ÏģÎµÏĦÏīÎ¾Îķ":7353,"ĠÎ·Î¼ÏĮÎºÎĳ":7354,"Î·ÏĢÎ¬Î³Î±":7355,"ÏĢÎ¼Î±Îº":7356,"ÎºÎ¹ÏĢÎķ":7357,"ĠÎ¹ÎµÏĩ":7358,"Î·ÎĿ":7359,"ÏĮÏģÏĢÎ±":7360,"Î¥Î¤":7361,"ÏģÎ±Î½ÏħÏĥ":7362,"ĠÎ±ÏĦÎ±Î¼Î¼":7363,"Î·Î½Î¹Îļ":7364,"ĠÏĮÏģÏĦ":7365,"Î·Î»ÎŃÏĦÎ±Îº":7366,"ĠÎłÎķ":7367,"ÏģÎŃÎ²":7368,"ÏģÎ±ÎµÎ½":7369,"ĠâĨ³":7370,"ĠÎ±Î¯ÏĥÎµÎ³Î·":7371,"Î¿ÎºÏĥÎ¯":7372,"ÏĢÎ¿ÏģÏģÎ¿ÏĥÎ¹":7373,"ĠÎ·ÏĥÎµÎ¯ÏĢ":7374,"ÏģÎĨ":7375,"ĠÎ½ÏįÎ¿Î¹Î¿ÏĢÎ¿Î¼Î¹ÏĥÎ·ÏģÏĩ":7376,"Î·Î¸Î¬ÏĢÏĥÎ¿ÏģÏĢ":7377,"ĠÎ¹ÎµÎ½Î¬ÏĦÏĨ":7378,"ÏĢÎ»Îķ":7379,"ĠÎ¯Î¼":7380,"ĠÎĺ":7381,"ĠÎ±Î¯Î³Î¿Î»Î¿Î½ÏĩÎµÏĦ":7382,"ĠÏħÎ¿ÏĨÎ¬ÏģÎ³":7383,"ĠÎĿÎŁ":7384,"Î±ÏģÏĦÎŃÎ¼":7385,"):":7386,"55":7387,"Î¹ÏĢÏİÏģÎ¸Î½Î±":7388,"ĠÎ±ÏĦÎ±Î¼ÏĥÎ¯":7389,"ĠÎ¹ÎµÏĦÏĢÏįÎºÎ¿ÏģÏĢ":7390,"âĢ¦âĢ¦":7391,"Î½Î¯Î¼Î±ÏĦÎ¹Î²":7392,"ĠÏįÎ¿ÎºÎ¹ÏĦÎ¿Î¼Î·ÎĶ":7393,"ÏĦÎµÎ¼":7394,"ÎºÎ¹Î½Î¸Îµ":7395,"ĠÎ±ÏĦÎ±Î¼Î®Î¼ÏĦ":7396,"Î½Î¿ÏĦÎ½ÎŃ":7397,"ÏīÏģÏĦÎ½Îµ":7398,"Î½ÏīÎµÎ¾":7399,"á½·":7400,"ĠÏĮÎ»":7401,"ĠÎ¬ÎºÎ¹ÏĦÎºÎµ":7402,"ĠÏĮÏĢ":7403,"ĠÎ·ÏĥÎ·Î»ÎºÏĥ":7404,"Î¬ÎºÎ¹ÏĦÎ±Î¼":7405,"Î¬ÏĦÏģÎ¿ÏĢ":7406,"ÏĦÎ¹Î»":7407,"ĠÏĤÎŃÏĨÎ±ÏģÎ³":7408,"ĠÏĮÎºÎ¹Î´ÏīÎº":7409,"ÎµÏģÏīÎĶ":7410,"ĠÎ±Î¯ÏĥÎ·Î»ÎºÎºÎķ":7411,"ĠÎ±Î¯Î»Î±ÏģÎ±ÏĢ":7412,"ĠÏĤÎ·ÏĦÏİÏģÏĢ":7413,"ĠÎ¬Î¹Î¾ÎµÎ´":7414,"ĠÏĤÎ±Î½ÎŃÎ½Î±Îº":7415,"ĠÎ·Î¸ÏĨ":7416,"ĠÎ®ÎºÎ¹ÏĦÏĥÎ¹Î½ÏīÎ³Î±":7417,"ÏĨÎ¼ÎŃ":7418,"ĠÎ±ÎŃÎ¸":7419,"ĠÏĮÎ¼ÏĥÎ±":7420,"ÏħÎµÏĢÎ±ÏģÎµÎ¸":7421,"Î¹Î»ÎµÎ¼":7422,"ÏģÎµÎ´Î±":7423,"Î³ÏĮÎĽ":7424,"Î½Î±Î¹Ïģ":7425,"ÏħÏģÎ´Î¹":7426,"ĠÎ½Î±ÏĥÏįÎ¿ÏĦ":7427,"ĠÏĮÎºÎ¹ÏĦÎ±Î¼Î³Î±ÏģÏĢ":7428,"Î½ÏĩÎ¯Ïģ":7429,"Î±ÎºÎ¯Î´":7430,"ĠÏĤÎµÎ½ÏĮÎ½Î±Îº":7431,"ĠÏĤÏİÏĩÏħÏĦÏĥÏħÎ´":7432,"Ġ:Â»":7433,"ĠÎ·ÏĥÎ¿Î´ÏĮÏĢÎ±":7434,"ĠÎ¿ÏģÏĦÎ±ÎŃÎ¸":7435,"ÏĩÏĥÎ¬Îł":7436,"ĠÎ±Î¯ÏĥÏħÎ¿Î¾Îµ":7437,"Î¹ÏģÎ¬ÏĩÏħÎµ":7438,"ĠÎ½ÏħÎ¿ÏģÎŃÏĨÎ±Î½Î±":7439,"ĠĠ":7440,"Î¬ÎºÎ³":7441,"ÎķÎ¤ÎĿÎĻÎĴ":7442,"ĠÏĤÎ·ÏĥÎ¯ÏģÎº":7443,"Î±Î²ÎŃÎĴ":7444,"ÏħÎµÏĦÎ±ÏĦÏĥÎ¿ÏģÏĢ":7445,"ÎļÎĻÎĿ":7446,"ĠÏĤÎ±Î¯ÎºÏģÏħÎ¿Î¤":7447,"Î¿Î³ÏģÎŃ":7448,".%":7449,"Î¯ÏģÎµÎł":7450,"Î¹ÏĥÎ±ÏģÎµ":7451,"ĠÎ±Î¯ÏģÎ¿ÏĦÏĥÎĻ":7452,"ĠÎ®ÎºÎ¹ÏĦÎºÎ±ÏĦ":7453,"ĠÎ®ÏĨÏħÏģÎ¿Îº":7454,"ÏīÎ¯Î´":7455,"ĠÎ®ÎºÎ¹Î½ÎµÎ³":7456,"ÏģÎŃÏĦÏĥÎ±":7457,"ÏĤÎ¹ÎµÎ¾Î¬ÏĦ":7458,"ĠÎ±Î¯Î»ÏħÎ¿Î²Î¿ÏĦÏīÏģÏĢ":7459,"ĠÏįÎ¿ÎºÎ¹ÏĢÏīÏĥÎ¿ÏģÏĢ":7460,"Î½Î¿Ïĩ":7461,"ĠÎ±Î¼ÏģÏĮÏĨ":7462,"Î±ÏĢÏīÏģÏħÎµ":7463,"ĠÎ£ÎĳÎĻ":7464,"ĠÎ¹ÏĦÎ¬Îļ":7465,"Î¯ÏĦÎ±Î¼Î·ÏĩÏĥ":7466,"ÏĤÎ¿Î»ÏħÎ¿ÏĢÏĮ":7467,"ĠÏĤÏĮÎ¼ÏĥÎ±":7468,"ho":7469,"Î¿ÎµÎĿ":7470,"ĠÎ½Î¿Î»Î»Î¬":7471,"ĠÎ®ÎºÎ¹ÏģÎ¿ÏĦÏĥÎ¹":7472,"Î½ÏħÎ¸ÏħÎµÎ¹ÎĶ":7473,"**":7474,"ĠÏĤÎ¿ÏĦÎ½Î¿":7475,"Î¹ÎµÎ´Î¬":7476,"toH":7477,"ÏįÎ¿Î¹":7478,"ĠÏĢÎ¼Î±ÏģÎ¤":7479,"ĠÏĤÎ±Î¯Î³Îĳ":7480,"Î±Î¯ÎµÎ³Ïħ":7481,"ĠÏĤÎ®ÏĩÎ¿ÏĢÎµ":7482,"Î½Î±ÏĩÎ±Î»":7483,"Î³ÏģÏİÎµÎĵ":7484,"ĠÎ®ÎºÎ±Î¹Ïģ":7485,"Î»ÎŃÎ´Î±Î½ÏħÏĥ":7486,"Î¹ÎµÎ¹Î³Ïħ":7487,"ĠÏĤÏĮÎºÏĬ":7488,"Î¹ÎµÎ½Î¿":7489,"Î±ÏģÎ±Îº":7490,"ĠÏĤÎ·ÏĥÎ±Î²":7491,"Î®ÏĦÎµ":7492,"Ġyti":7493,"Î³Î³Î±ÏĦÎ±Îº":7494,"Î½Î±Î¹Îĵ":7495,"ĠÎ·ÏģÎµÎ¸ÏįÎµÎ»Îµ":7496,"ÏħÎ»Î±Î½Îĳ":7497,"Î±Î¼Î¯Î»Îº":7498,"ĠÎ±ÏģÏĦÎ½ÏĮÎº":7499,"ĠÎ½ÏīÎ»Î¬Î³ÎµÎ¼":7500,"ÏĮÎ¤":7501,"raP":7502,"ĠÏĤÏħÎ¿ÏģÎ¬Î²":7503,"Î±Î¹Î²":7504,"ÎĽÎķÎ¤":7505,"ÏĦÏĥÎ¹ÏĦÎ¹Î»Î¿Îł":7506,"ĠÏĤÎ¹ÎµÏĪÎŃÎºÏĥ":7507,"Î½Î±Î¼ÏģÎŃÎ¸":7508,"ÎĵÎ¥":7509,"ÎºÎµÏģ":7510,"ĠÎ¹ÎµÏĢÎŃÎ»Î²Î¿ÏģÏĢ":7511,"Î¿Î½Î¬":7512,"Î®Î½Î¹ÎºÎ±":7513,"Î·Î¿Î½":7514,"Î¿ÏĢÎķ":7515,"ĠÏħÎ¿ÏĩÎ³ÎŃÎ»Îµ":7516,"Î¹Î±ÏĦÎ¯Îµ":7517,"ĠÎ·ÏĨÏģÎ¿Î¼ÏĮ":7518,"Î¼ÏĮÏĦ":7519,"ÎĳÎ¡ÎĳÎł":7520,"ĠÏĤÎ±Î¯Î³Î¿Î»":7521,"ĠÏĮÎºÎ¹ÏģÎµÏĦÏīÎ¾Îµ":7522,"ĠÎ¿Î¼ÎµÎ»ÏĮÏĢ":7523,"ĠÎ¹ÎµÏĥÎ®ÏģÏīÏĩÎ¿ÏģÏĢ":7524,"Î¹Î¿ÏĢÎ¿Î¹Î¾Î±":7525,"Î¿ÏĦÏĥÎ¹ÏģÎĳ":7526,"Ġeni":7527,"Î¹ÏĨÏĮÏģÏĦ":7528,"ÏĨÏĮ":7529,"Î½Î¹Î»Îº":7530,"ĠÎ¿Î¼Î¿ÏĦÎ¬":7531,"Ġenilno":7532,"ĠÎ¹Î±ÏĦÎµÎ³Î¬":7533,"ĠÎ¿Î´ÎµÏĢÎ®Î³":7534,"ÏħÎ½Îµ":7535,"ĠÏĤÎ¹ÎµÏģÎŃÎ¾":7536,"ĠÏĤÎµÎ½Î¿Î¼Î®ÏĦÏĥÎ¹ÏĢÎµ":7537,"ÎºÎ¹ÏĦÏĥ":7538,"ÏīÏģÎ®Î»ÏĢ":7539,"Î»Îļ":7540,"ĠÏĤÏįÎ¿ÏĢ":7541,"ÏħÎ¿ÏģÏĦ":7542,"ÏĤÎ¬ÏģÎ¿Î³Î±":7543,"Î¹Î»Î±":7544,"ÏĤÎ®ÏĩÎ¿Î¹ÏģÎµÏĢ":7545,"Î³ÏīÎ³Î±ÏĦÎ±Îº":7546,"ĠÏĤÏħÎ¿Îº":7547,"ĠÎ¹Î±ÏĦÎ¬ÏĦ":7548,"ÏĤÎ±Î´Î¯":7549,"Î·Î½Î½ÎµÎ³":7550,"ÏįÎ¿ÎĴ":7551,"ĠÎ¬Î¼Î¿Î½ÏĮ":7552,"Î½ÏħÎ¼Î±":7553,"Î¯Î¶Î±Î¼":7554,"ĠÏĤÎµÎ¹Î¿ÏĦÎŃÏĦ":7555,"ĠÎ±ÏĦÎ±Î¼Î¼ÏĮÎº":7556,"ĠÏĤÎ¿Î½Î¯ÎµÎºÎµ":7557,"uorg":7558,"ko":7559,"ĠÎ½ÏİÏĦÎ·":7560,"ÏĢÎ¼ÏħÎ£":7561,"ÏĦÏĥÎ¹Î»Î±ÎºÎ¹Î´":7562,"Î¬Î¤":7563,"ÏĤÎ®Î¼":7564,"Î¿Î³Î±ÏĢÎ±":7565,"Î½ÎµÎ³ÏįÎ¿ÏĦÏĥÎ¹ÏģÎ§":7566,"ÎµÎ¼ÏĮÎ¹Î»Î¹Ïĩ":7567,"Î±Î½Î±Î¸":7568,"ĠÎ½ÏīÎµÏĥÎ®ÏģÎ¹ÎµÏĩÎ¹ÏĢÎµ":7569,"ĠÏĤÎ¹ÎµÎ»ÎŃÎ¸":7570,"ĠÏĤÎµÎ´Î¬Î½Î¿Î¼":7571,"ÏĮÏĦÎĿ":7572,"eugaeL":7573,"ĠÎ¹ÎµÎ½Î¯ÎµÏĦÎ¿ÏģÏĢ":7574,"Î¬ÏĢÎ±":7575,"ĠÏĤÎµÏĦÎ·ÏĦÏĮÏĦÎ±Î½ÏħÎ´":7576,"Î¯Î»Î¿":7577,"ÎºÎ¿Îº":7578,"]âĢ¦[":7579,"ĠÎ±ÏĦÏĩÏįÎ½":7580,"ĠÎ½Î¹ÏĢÏĮÏĦÎ±Îº":7581,"ÎºÎµÏĢÎµ":7582,"57":7583,"ÎŃÏģÏĦÏĥÎ±ÏĦÎ±Îº":7584,"ĠÎ¬ÏĦÎ·Î¶":7585,"ÎºÎ¯ÏĢÎµ":7586,"ĠÏħÎ¿ÏĢÎ¬Îº":7587,"ĠÎ±Î³Î¿Î»":7588,"ÏĩÏģÎ¬Î¼":7589,"ĠÏĤÎ±Î¯ÎµÎ»Î±ÏĨÏĥÎ±":7590,"Î·Î¸Î±Îľ":7591,"ÏĦÏĢÎ¹ÏģÎµÏĢ":7592,"ĠÎ¹ÎµÎº":7593,"ĠÎķÎľÎľ":7594,"ĠÎ·ÏĥÏħÎµÎ¯ÏĥÎ¿Î¼Î·Î´":7595,"ÎĻÎ¡ÎķÎł":7596,"ĠÎ±ÏĦÎ·ÏĦÏĮÎ½Î±ÎºÎ¹":7597,"ÏģÎ±Î£":7598,"Î¿ÏģÏĦÎºÎµÎ»Î·":7599,"ĠÏįÎ¿ÏģÎµÎ½":7600,"Î³Î¬ÏĦ":7601,"ĠÎĻÎĳÎ¤":7602,"Î½Î¹ÏģÏĢ":7603,"Ġ.âĢĿ":7604,"ÎºÎ¹Î´Î¹Îķ":7605,"Î¼Î»Ïĩ":7606,"ĠÏĤÎ·Î¾Î¬ÏĦ":7607,"ÏģÏĮÎ¦":7608,"ĠÏĮÎºÎ¹Î»":7609,"ĠÎ¬ÎºÎ¹Ïģ":7610,"ĠÎ¹ÎµÏĥÎ¯ÏĩÎµÎ½ÏħÏĥ":7611,"ÏĦÎ±Î§":7612,"ĠÏĤÎ±Î¯Î¾Î±":7613,"ER":7614,"ĠÎ·ÏĥÎ½ÏħÎ¸ÏįÎµÎ¹ÎĶ":7615,"ÏĩÏħÎ¨":7616,"Î¯ÏģÎ·ÏĦÏĥ":7617,"ÏĢÎ¼ÏįÏĥ":7618,"ĠÎ·ÏĥÎ·Î³ÏģÎ¬ÏĦÎ±Îº":7619,"ĠÎ±ÏĦÎ±Î¼ÏĮÎ½Î¿":7620,"Î¿ÏģÎ´Ïħ":7621,"Î¿ÏĦÏĥÎ¹Ïĩ":7622,"Î½Î¹Î±Îº":7623,"ĠÎ±Î¼Î³Î±ÏĦ":7624,"ÏĦÎŃÏĢ":7625,"ÏĤÎµÎ´Î¯":7626,"ĠÏĤÎ¹ÎµÎ»ÏĮÏĢ":7627,"Î¹ÏĦÏĥÎ½ÎĻ":7628,"ÏĩÎµÎŀ":7629,"Î¹Î±ÎºÎ¯Î´":7630,"Î¹ÎºÏĥ":7631,"ĠÏĤÏħÎ¿ÏĢÏĮÏģÏĦ":7632,"ĠÎ½ÏİÏĦÎ·Î¸Î±Î¼":7633,"ĠÎµÎ¼ÏħÎ¿Î¶Î¯Ïģ":7634,"ÏĥÎ¹Î»":7635,"ĠÎ±ÏģÎŃÎ¼ÎĹ":7636,"ĠÏĮÎºÏĬÎ±ÏĢÏīÏģÏħÎķ":7637,"ĠÎ£Î¥ÎŁÎ¤":7638,"Î½ÏīÎº":7639,"ĠÎ½Î±ÏĩÏģÎ®ÏĢÏħ":7640,"ĠÎ½ÏħÎ¿ÏĢÎŃÎ»Î²":7641,"Î»Î±ÏĨÏĥÎĳ":7642,"ÎķÎ£":7643,"ÏģÏĦÎŃÎ¼Î±Î½Î±":7644,"ĠÎ±Î»ÎŃ":7645,"ĠÎ¹Î¿ÎŃÎ½":7646,"Î®Î¸Î±Î¼":7647,"ĠÎ·ÏĪÎ®Î»":7648,"ÏħÏĦÏģÎ¬Î¼":7649,"Î³ÏģÏįÎ¿Î½Î¹Î±Îº":7650,"ĠÏĮÎ»Î±Îļ":7651,"ĠÏĮÎºÎ¹ÏģÏĦÎ½ÎµÎº":7652,"ĠÏħÎ¿ÎŃÏģÎ´Î½Î±ÏĢÎ±Îł":7653,"ÏīÏģÎ±Î½Î±":7654,"ĠÎ®ÎºÎ±Î¹":7655,"Î½ÎµÎ¼ÏħÎ¿":7656,"ĠÏĤÏįÎ¿Î¼Î¸Î±Î²":7657,"ĠÎµÂµ":7658,"Î·ÏĦÏĥÎ¹ÏĢÎµÎ½Î±ÏĢ":7659,"ĠÎ¿Î¹Î³ÎĨ":7660,"ÏİÎ»":7661,"Î±ÏģÎµÏĦ":7662,"Î¬Î¾Îµ":7663,"ĠÎ·Î½ÏĩÎŃÏĦ":7664,"ÏĤÏħÎ¿Î½ÎŃÎ¼":7665,"Î³ÏģÎŃÎ½Îķ":7666,"Ġdra":7667,"ĠÎ½Î±ÏģÎ®ÏĢ":7668,"ÏįÎ¿Î³":7669,"ÎŃÏģÎ·ÏĢÏħÎ¾Îµ":7670,"ÎĿÎ¥Î£":7671,"ĠÎ½ÏīÎ´ÏĮ":7672,"rep":7673,"ĠÎ¹Î±ÏĦÎµÎ»Î¯ÎµÏĨÎ¿":7674,"ĠÎµÏĦÎµÎ½Î¯":7675,"Î¿Î½Î±Î²Î¼Î±Î»Î¹ÏģÎµÏĢÎ¼ÏħÏĥ":7676,"ÏĥÎµÎ´Î½ÏįÎ£":7677,"lc":7678,"ÎµÏģÏĦÏĥÎŃ":7679,"Î¾ÎµÎ»":7680,"ĠÎ½ÏįÎ¿Î³ÏģÏħÎ¿ÏĦÎ¹ÎµÎ»":7681,"ÏħÎĴ":7682,"ÏģÎ±Î¼Î±":7683,"ĠÎµÎ½ÎµÎ¼":7684,"Î¿Î¹Î´Î±Ïģ":7685,"Î±Î¹ÏĦÎ¬Î¼":7686,"ÏĤÎ·Îº":7687,"Î½ÏīÏĦÎ®ÏĦ":7688,"ĠÏħÎ¿ÏĢÏİÏģÎ¸Î½Î±":7689,"hca":7690,"ĠÎĿÎĳ":7691,"Î¹ÎµÎ´Î±":7692,"Î½ÏĩÎµÏĦÎ¿Î³Î¿Î»":7693,"Î²Î¼ÎµÏģÎ±ÏĢ":7694,"Î±Î¼Î·ÏĦÏĥÎ¬Î¹Î´":7695,"ĠÎ±Î¯ÎµÎ´":7696,"Î¥ÎĶ":7697,"ÏĢÏħÏĦÏĮ":7698,"ĠÏģÎµÎ»":7699,"ÎŃÏģÏĦÎ±ÏĦÎµÎ¼":7700,"ĠÏĤÎŃÏĦÏħÎĳ":7701,"stro":7702,"ĠÎ½Î±ÏĦÎ½":7703,"Î»Î»Î¬ÏĦÎµÎ¼ÎºÎµ":7704,"ĠÎ½ÏħÎ¿ÏĥÎ¯Ïģ":7705,"ÎºÎ±Î´Î¹Î´":7706,"ĠÎ®ÎºÎ¹ÏĦÎµÏģÎ¿ÏĨÎ±Î¹Î´":7707,"ĠÏĤÎ·Î¤":7708,"ĠÎ½ÏįÎ¿Î¸Ïĩ":7709,"Î¼ÏĮÎļ":7710,"Î¿Î§":7711,"ĠÎ±Î½Î±":7712,"Î³Î±ÏģÎł":7713,"Î·ÏĦÎ±Î¹Î´":7714,"ĠÎ½Î±ÏĥÏīÎ´ÎŃ":7715,"ĠÎ¹Î±ÏĦÎ½Î¿Î¶Î¬Î¹ÎµÏģÏĩ":7716,"Î´Î¬Î¼Î¿Î´Î²":7717,"ĠÏĤÎµÎ´Î¬ÏĦÎ½Î¿ÏĦÎ±ÎºÎµ":7718,"ÏģÎ±Î¸Î¬ÎºÎµÎ¾":7719,"ĠÏħÎ¿Î½Î¿ÏģÏĩ":7720,"ĠÎµÏĦÏĥÏīÎ»Î»Î¬":7721,"Î¿ÎºÎ¹Î¿Î½":7722,"ÏİÎ¸Î¹ÏģÎµÏĢ":7723,"et":7724,"ĠÎ®ÏĥÏī":7725,"ÎĻÎĽÎŁÎł":7726,"ĠÎµÎºÎ·ÏĦÏĥÎ¯Ïģ":7727,"Î¹Î±ÎºÎ¹ÎĶ":7728,"ÏįÎ»Î±Î³ÎµÎ¼":7729,"Î¿Î³Î¿ÏĢÎ±":7730,"ĠÎ®ÏĨÎ¿ÏģÏĦÏĥÎ±ÏĦÎ±Îº":7731,"Î¯Î¡":7732,"Î³Î¯Î¿Î½Îĳ":7733,"ĠÎ¹Î±ÏĦÎ¯ÎµÏĦÎ¹Î±ÏĢÎ±":7734,"Î¹ÏĦÎ¬Îº":7735,"Ġsse":7736,"ĠÎ¬Î½Î¹ÎºÎµÎ¾":7737,"ĠÏĤÏĮÎºÎ±Î¹ÏĢÎ¼ÏħÎ»ÎŁ":7738,"Î¿ÏģÎ´Î±Î¹Î´":7739,"Î¹ÏģÏįÎļ":7740,"Î»ÎµÏĨÏī":7741,"ÏĤÎµÎºÎ¯Î±Î½ÏħÎ³":7742,"ĠÎ±Î¯ÎµÏĩÎ¿Î´Î¿Î½ÎµÎ¾":7743,"ĠÎ½ÏİÎºÎ¹Î½Î·Î»Î»Îµ":7744,"ĠÎ¹Î¿ÎºÎ¹Î¿ÏĦÎ¬Îº":7745,"ĠÎ±Î¯Î½ÏīÎ½Î¹Î¿ÎºÎ¹ÏĢÎµ":7746,"ĠÎµÏĥÎµÏģÎ¬":7747,"ĠÎ½ÏīÎ¯ÏģÎ·ÏĦ":7748,"ĠÎ¿Î¹Îł":7749,"Î¸Î±Î³Î±":7750,"Î¸Î½Îĳ":7751,"ĠÏĤÎ±Î¹Î¼Î¸Î¬Î²":7752,"Î¯Î±ÏĦÎµ":7753,"ĠÎĹÎķÎĶ":7754,"ĠÎ±Î¹ÎµÏģÎŃÏĨÎ¹ÏģÎµÎł":7755,"Î½ÏįÎ¿ÎĻ":7756,"Î·ÏģÎ®ÏĦ":7757,"ĠÏĤÏħÎ¿Î´ÏĮ":7758,"Î±ÏĦÏĥÎ±Î½Îĳ":7759,"ĠÏĤá¿":7760,"nia":7761,"ÏĤÎ±Î¯ÏĥÏħÎ¿":7762,"PS":7763,"ÏĥÎµÎ¸ÏĮÏģÏĢ":7764,"Î¬Îĸ":7765,"Ġá½°":7766,"ĠÏįÎ¿Ïĥ":7767,"ÏįÎ±ÏĦÎ£":7768,"ĠÏįÎ¿Î½Î¹Î¿Îº":7769,"Î±ÏĢÎĳ":7770,"Î±Î¼Î¼Î±ÏģÎ³ÏĮÏģÏĢ":7771,"ÎºÎ±Î¹Î´Î±ÏĦÏĥ":7772,"ĠÎ·ÏĥÎµÎ¸Î¯ÏĦÎ½Î±":7773,"ĠÏĤÎµÎ½ÏħÎµÏģÎŃ":7774,"hcs":7775,"Î±ÏĥÏĥÎ±Î»Î¬Î¸":7776,"ĠÏĮÎºÎ±Î¹Ïģ":7777,"Î¿ÏģÎŃ":7778,"ÏĨÎ®ÏĪÎ¿ÏĢÏħ":7779,"wodni":7780,"ĠÎ·Î¸Î¬Î»":7781,"ÏħÎºÎ³ÎŃ":7782,"Î½ÏīÏĢÏİÏģÎ¸Î½Î±":7783,"Î¼Î¿ÏĦÎ±ÎºÎµÏĥ":7784,"Î¬ÏĦÎ¹Î¿Îº":7785,"Î½ÏħÎ¿Ïĥ":7786,"ĠÏĤÎ¿ÏĩÏģÎ±Î¼Î®Î´":7787,"ÏĥÎ¹ÏĦÎ±Î¼Î¼Î±ÏģÎ³Î¿ÏģÏĢ":7788,"ĠÏĤÎµÎ´Î¬Î¼Î¿Î´Î²Îµ":7789,"tsnI":7790,"Î¼Î¹ÎµÏĩ":7791,"ĠÎ¹ÎµÏĪÏĮ":7792,"ĠÎ·ÏĥÎ½ÏħÎ¸ÏįÎµÏĦÎ±Îº":7793,"Î¯ÏĢÎ¿ÏĦ":7794,"ĠÎ±Î¯ÏĥÎ±ÏģÎºÎ¿Î¼ÏģÎµÎ¸":7795,"Ġ=":7796,"ÎĶÎĵ":7797,"ĠÎ¯Î¿Î½Î±":7798,"Î¿Î³Î·Ïģ":7799,"Î±Î¯Î½Î¿Î´ÎµÎºÎ±Îľ":7800,"ĠÏĤÎµÏĢ":7801,"ĠÏĤÎ¹ÎµÏĥÎ®Î´Î¹Îķ":7802,"hsa":7803,"ÏĤÏħÎ¿Î³ÏĮÎ»":7804,"Î¹Î»Î»Î±Îļ":7805,"ĠÎ¯ÎµÎ¸ÏīÎ¹ÎµÎ¼Î·Ïĥ":7806,"ĠÎ±Î¯ÏĦÎ±ÏģÎºÎ¿Î¼Î·ÎĶ":7807,"ĠÎ¹Î±ÏĦÎ½Î¿Î¶Î¯Î½Î±ÏĨÎ¼Îµ":7808,"ĠÎ®ÎºÎ¹Î½Î¿ÏģÏĦÎºÎµÎ»Î·":7809,"Î¹ÏĥÎµÎ¸Ïĩ":7810,"Î±Î¼Î¿ÏĦÎ¬":7811,"LA":7812,"ĠÎ±Î¯Î±ÏĨÏħÏģÎ¿Îº":7813,"ĠÏīÎ½Î¬ÏĢÎµ":7814,"ĠÎ±Î¼Î·ÏĥÎ¯ÏĢÎµ":7815,"Î¬ÏĦÏģÎ¿Î¹Î³":7816,"Î·ÏģÎ¹ÎµÏĩ":7817,"tops":7818,"ĠÎµÎ½Î¹ÎµÎ¼ÎŃ":7819,"ÏįÎľ":7820,"Î±ÎŃÎ½":7821,"ĠÎ¿Î´Î¿ÏĥÎ¯Îµ":7822,"Î±ÏĦÎ±Î¼Î®ÏĦ":7823,"ĠÎ¿Î¹Î¼ÏĮÏģÎ´Î¿ÏģÎµÎ±":7824,"ÏģÏįÎ¿ÏĨ":7825,"Î³ÏįÎ¿ÎºÎ±":7826,"Î¿ÏĢÏħÏĦ":7827,"ĠÏĤÎ·Î¾ÏħÏĦÏĢÎ¬Î½Îĳ":7828,"ĠÎ¹ÎµÎ½Î®ÏĨÎ±":7829,"Î½ÏİÎ¹Ïģ":7830,"yal":7831,"ĠÎµÏĩÏħÏĦ":7832,"ĠÏĤÎŃÎ»":7833,"ĠÏĤÎ·Î»Î¯ÏĥÎ±ÎĴ":7834,"div":7835,"ĠÎ¹ÎµÏĥÎŃÏĢ":7836,"ĠÎ½ÏħÎ¿Î»Î¬Î²":7837,"ÎŃÎ¶":7838,"ÏħÎºÏģÎŃÎļ":7839,"ÏģÎµÏĦÏĥÏħÎ¸Î±Îº":7840,"ĠÏĤÎ¹ÎµÎ¶Î¯":7841,"Î·Î´Î±ÎºÎ±":7842,"ĠÏĤÎ®Î½":7843,"ÏĤÎ·Î»Î¿ÏĢ":7844,"ĠÏĮÎ´Î¿":7845,"Î±Î¯ÎµÏĦ":7846,"ÏĮÎºÏĬ":7847,"Î®Îł":7848,"ÏħÎºÎ³ÏħÏĥ":7849,"ĠÏħÎ¿Î»Î»":7850,"ĠÎ±Î´Î¯ÏģÏĦÎ±ÏĢ":7851,"ĠÎµÏĦÎ¿ÏĢÎ¬Îº":7852,"ĠÏĤÎ¿Î²":7853,"ÏħÎ¿Î´ÏĮ":7854,"ĠÎ±ÏĢÎ¼":7855,"ĠÏĤÎ¿Î¸Î¬Î²":7856,"ÏĤÎ¿ÏĦÎ±Î¼Î®ÏĦÏĥÏħÏĥ":7857,"Î¬ÏģÏĦÏĥ":7858,"Î»Î¬Î¼":7859,"ĠÎ½ÏħÎ¿Î½ÎŃÎ¼Î±ÏģÎ±ÏĢ":7860,"ĠÎ±Î¼Î·ÏĦÏĥÎ¬ÏĦÎ±Îº":7861,"ĠÎ±ÏĦÎ±Î¼ÏİÏģÏĩ":7862,"Î¿Î´ÏģÎµÎº":7863,"ĠÏĮÎºÎ¹Î´Î¹Îµ":7864,"ĠeugaeL":7865,"ĠÎ®ÎºÎ¹ÏĩÏģÎ±":7866,"ÏĤÎ¿ÏĦÎ¬ÏģÎº":7867,"ĠÎ·Ïĩ":7868,"Î¹Î±ÏĨÏĥÏĮÎ´Î¿ÏĢ":7869,"ÏĦÏĥÎ¹ÏģÎ±ÏĩÏħÎķ":7870,"ĠÏĤÎµÏĦÎ¬Î»ÎµÏĢ":7871,"ĠÎ±Î½ÎµÎ¼Î¯ÎµÎº":7872,"Î±Î»ÎµÏģÏĦÎµÏĢ":7873,"Î®ÏģÎ¹Îµ":7874,"ĠÎ¿Î½ÎµÎ¼ÏĮÎ½Î¹Î±ÏĨ":7875,"ĠÎµÏĥÏīÎ¯ÎµÎ¼Î·Ïĥ":7876,"ÏįÎ¿Î±Î»":7877,"ĠÎ·ÏĦÏĥÎ®ÏģÏĩ":7878,"tc":7879,"Î±Î½Î¿Îľ":7880,"ĠÎ¬Î¹Î»Î»Î±Î¼":7881,"nam":7882,"ÎĻÎŁÎł":7883,"Î¿Î½Îķ":7884,"tek":7885,"ĠÎ·ÏĦÎ¬ÏģÎº":7886,"ĠÎ±Î¯Î²":7887,"ĠÏĮÎºÎ¹Î½Î¸Îµ":7888,"ĠÏĤÎ®ÏĦÎ·Î³Î·Î¸Î±Îº":7889,"ĠÏĤÎ·ÏĥÎ¹ÏģÎ¯ÎµÏĩÎ±Î¹Î´":7890,"Î¹Î±Î¯Î´":7891,"Î¯ÏĦÎ±Î¼ÏħÎ±ÏģÏĦ":7892,"koobecaf":7893,"EC":7894,"Î¼Î¹ÏĦÎ¿ÏģÏĢ":7895,"Î½Î¹ÏģÏīÏĥÎ¿ÏģÏĢ":7896,"Î½ÏİÎ¹Îµ":7897,"Î½Î±ÏĦÎµÏģÎ²":7898,"ĠÎ¬ÎºÎ¹ÏĥÎ±Î²":7899,"Î½ÏĩÎµÏĦÎ¹Î»Î»Î±Îº":7900,"ĠÏīÎ¸":7901,"ĠÎ¹Î±ÏĦÎŃ":7902,"Î¹ÏĦÎ±ÏģÏĦÏĥ":7903,"oc":7904,"Î¿Î¹Î»Î²Î¹ÎĴ":7905,"ĠÎ¿ÏĨÏģÎ¿Î¼ÏĮ":7906,"ĠÎ·ÏĥÎ±Ïģ":7907,"seikooc":7908,"Î¿Î¹ÏģÎ®ÏĦÏĥ":7909,"Î±ÏģÎ±ÏĦÎ±Î¹Î´":7910,"ÎµÎ¼Î±Ïĥ":7911,"Î»Î¬ÏĨÏĥÎĳ":7912,"ÎºÎ®Î¸Î¿ÏĢÎ±":7913,"ĠÏĤÎ¹ÎµÎ¾Î¯ÎµÎ´":7914,"ĠÏĤÎ¿Î¼ÏĮÏģÎ´":7915,"Î¾Î±ÏĦÎµÎľ":7916,"ĠÎ±ÏĦÎ·ÏĦÏĮÏĥÎ¿ÏĢ":7917,"ĠÎ·ÏĥÎ·Î¯Î¿ÏĢÎ¿ÏĦ":7918,"ÎŁÎ¤Î©Î¦":7919,"Î©Î¤":7920,"ĠÎ±Î¹Î¼ÏĥÏĮÎºÎ³Î±Îł":7921,"ĠÏĤÏİÎ½Î±ÏĨÎ¿ÏģÏĢ":7922,"doo":7923,"ĠÏĤÎ¿ÏĦÎ±Î¼Î®Î¼Î¤":7924,"Î·ÎĻ":7925,"ĠÏģÏĮ":7926,"Ġto":7927,"ĠÏĤÎ·ÏĦÎ¯Î»Î¿ÏĢ":7928,"Î±ÎŃÎ¼Î¿ÏĦ":7929,"ÏģÎ¹ÏĢÎµ":7930,"ĠÎ±Î¼Î®ÏĩÏĥ":7931,"ĠÎ·ÏĩÏįÏĦ":7932,"ĠÎ±Î¹ÎµÎ»ÎŃÏĦ":7933,"ĠÏįÎ¿ÎºÎ¹ÏĦÏĥ":7934,"Î»Î±Î¹Ïĥ":7935,"ÏħÎ¶":7936,"Î®ÏĨÎ±Î¹Î´":7937,"ÏĪÏħ":7938,"raC":7939,"ÏĥÎ¯ÏĢÎ¿ÏĦÎ½Îµ":7940,"ĠÎ·Î½Î¿ÏĦÎ½ÎŃ":7941,"ÏĤÎ±Î¯ÏĦÎ±ÏģÎºÎ¿Î¼Î·ÎĶ":7942,"nai":7943,"ĠÎµÎ¼ÏħÎ¿Î¶Î¯ÏģÏīÎ½Î³":7944,"ĠÎ½ÎµÎ¸Î®Î´":7945,"Î¹Î±Î²ÎµÎ²Î¹ÏĢÎµ":7946,"ĠÏĤÎ¿ÏĩÏĮÏĦÎ£":7947,").":7948,"ĠÎ·ÏĥÎ·Î³ÏĮÎ»Î¿Î¹Î¾Î±":7949,"Î±ÏģÎ¹Î¿Î¼":7950,"ĠÏĤÎ¯ÎµÎ½Î¸ÎµÎ¹Î´":7951,"ĠÏħÎ¿Î½ÎµÎ¼ÏĮ":7952,"ĠÎ±ÏĦÏģÏĮÏĢ":7953,"ÎµÎ½Î¹":7954,"ĠÏħÎ¿Î³ÏģÏİÎ¹Îĵ":7955,"Î±Î´Î¬":7956,"ĠÏİÎ»Î±Îº":7957,"Î¬ÏĦÎ¿ÏģÏĢ":7958,"ĠÏĤÎ®ÎºÎ¹ÏĦÏħÎĶ":7959,"ĠÎµÎ³":7960,"ĠÏĮÎºÎ±Î¹":7961,"ĠÎ¹Î±ÏĦÎµÏĢÎŃÏģÏĦÎ¹ÏĢÎµ":7962,"ĠÎ¬ÏģÎ±Î¸Î±Îº":7963,"viv":7964,"á½ĲÎ±":7965,"ÏĤÎŃÏĦÏħÎ±":7966,"ÏĢÎ¿ÎºÎ¹ÏģÎµÏĢ":7967,"ĠÏĤÏįÎ¿ÎºÎ¹Î´":7968,"erB":7969,"ÏģÎµÎ»":7970,"ĠÏĤÎ®Î½Î¿Î¼":7971,"ÏįÎ»Î¿Îº":7972,"Î¯ÏĥÎ±Î²":7973,"ÏģÎŃÏĨÎ±ÏĦÎµÎ¼":7974,"ÎºÎ¹Î»Î¹Îµ":7975,"Î½Î·ÏģÏħÏĢ":7976,"ĠÎ¯Î¿Î¼ÏĥÎ¹":7977,"Î·Î»ÏĢÎºÎŃ":7978,"ĠÏĤÎµÎ¯Î³Î·Î´Î¿":7979,"ĠÎ±ÏģÎµÏĦÏĮÏĥÏĥÎ¹ÏģÎµÎł":7980,"ĠÎ®Î»Î·ÏĪÏħ":7981,"en":7982,"sne":7983,"ÏĮÏģÎ¤":7984,"ĠÎ±Î¯Î¼Î¿Î½ÏħÏĦÏĥÎ±":7985,"ÏĦÏĥÎ¹Î»Î±ÎºÎ¹Î´Î½ÏħÏĥ":7986,"Ġ004":7987,"Î¼ÎŃ":7988,"ĠÎµÏĥÎµÎ»Î¬ÎºÎ¿ÏģÏĢ":7989,"ĠÎ®Î»Î¿ÏĦÎ½Îµ":7990,"Î¹ÎºÎºÏĮÎº":7991,"ĠÏħÎ¿ÏģÏĢÏįÎļ":7992,"uoY":7993,"im":7994,"ĠÎ·ÏĩÏģÎ¬":7995,"Î·Î¹Î¿ÏĢÎ¿Î½Î±ÎºÎ¹":7996,"ÏĥÎ¯Î¼Î·ÏĨÎ±Î¹Î´":7997,"ĠÎ·Î»Î¿ÎºÏįÎµ":7998,"ĠÏĤÎµÏĦÎ½Î¿Î³Î¬ÏģÎ±ÏĢ":7999,"Î¯ÏģÏĢÎĳ":8000,"Î¬ÏĩÎµÎŀ":8001,"ÎķÎłÎ¥":8002,"Î¹ÏĦÎ½Î±ÏĦÏĥÎ½ÏīÎļ":8003,"Î¹ÎµÏģÎ¿":8004,"ĠÎ·Î¸ÏĨÎ®Î»Îµ":8005,"ĠÏĤÎ±Î¯Î½ÏīÎ½Î¹Î¿ÎºÎ¹ÏĢÎµ":8006,"Î±Î½ÏħÎ£":8007,"Î±Î¼Î¼":8008,"ĠÏįÎ¿ÎºÎ¹ÏĦÎ¹Î»Î¿ÏĢ":8009,"ĠÏħÎ¿Î½ÎŃÎ¼Î¿ÏĩÎµÎ¹ÏģÎµÏĢ":8010,"ĠÎ±Î¯Î±ÏĩÏģÎ±":8011,"Î£ÎĳÎĴ":8012,"rB":8013,"ÎµÎ´Î½Îµ":8014,"ĠÏĤÎŃÎ½":8015,"ÏħÎ¿ÏģÎºÎ³ÏįÏĥ":8016,"Î³Î·Î»ÏĢ":8017,"Î·Î»Î»ÏįÏĥ":8018,"ĠÎ¯ÎµÏĦÎ¹Î±ÏĢÎ±":8019,"ĠÎ½Î±ÏĦÏĮÎºÏĥÎ¹ÏģÎ²":8020,"Î±ÏĦÏĥÎ¹Î»Î¬Îľ":8021,"ÎµÏĥÎ¹":8022,"Î³Î¿Î»Î¿Î¹Î¾Î±":8023,"ĠÎ¿Î½ÎµÎ¼ÏĮÏĢÎķ":8024,"rre":8025,"ĠÎ¯ÎµÎ¸ÏĨÎ·Î»":8026,"ÏħÎ¿Î³ÏįÎĳ":8027,"tnA":8028,"ĠÎ±ÏĦÎ½ÏĮ":8029,"Î»ÎµÎ³Î³Î±ÏĢÎķ":8030,"ÏĮÎºÎ¹ÏģÎµÏĦÏīÎ¾Îµ":8031,"ĠÏĤÎŃÎ»Î±Îº":8032,"eni":8033,"Î®ÏĦÏĥÎ¹ÏĢÎµÎ½Î±ÏĢ":8034,"ĠÏĤÎµÎ¹Ïĥ":8035,"ÏħÎµÏĦÎ¬Î¼Î³Î±ÏģÏĢÎ±Î¹Î´":8036,"ÏģÎĴ":8037,"ĠÎ¹ÎµÎ¶Î¬Î²":8038,"bi":8039,"Î»ÎµÎ³Î³Îĳ":8040,"ÏįÎ¿Î²Î¼ÏħÏĥ":8041,"ĠelgooG":8042,"Î·ÏĩÏĥÎ¬":8043,"ÎºÎ³Îķ":8044,"ĠÎ½ÏīÎ½Î¯":8045,"ĠÏĮÎºÎ¹ÏĦÎµÏģÎ¿ÏĨÎ±Î¹Î´":8046,"ĠÏĤÎ±Î¯Î½Î¿Î´ÎµÎºÎ±Îľ":8047,"Î²Î¯ÏģÎºÎ±":8048,"ÎºÏĥÎ¿ÏģÏĢ":8049,"Î±Î¹ÎºÎ¬":8050,"Î¹ÏĥÎ¿Î¼Î·ÎĶ":8051,"ÏįÎ¿ÎµÎĺ":8052,"ÏĥÎ¬Î»":8053,"dnA":8054,"ÏīÏĥÎ¯ÏĢ":8055,"Î¼Î¬ÏģÎ³Î¿ÏģÎł":8056,"seR":8057,"Î·Î¶ÏĦÎ±Î§":8058,"ĠÏĤÎ·ÏĥÏħÎµÎ´Î¯Î±ÏĢÎºÎµ":8059,"Î·Î¨":8060,"Î½Î¿ÏģÏĩÎ³ÏįÏĥ":8061,"ĠÏĮÏĦÎ·Î½Î¹Îº":8062,"ĠÎ±ÏĦÎ±Î¼Î®ÏĦÏĥÏħÏĥ":8063,"ÏīÏĨÎŃÎ»Î·ÏĦ":8064,"ĠÏħÎ¿Î»Î¬Î³ÎµÎ¼":8065,"ĠÏħÎ¿ÏĦÏİÏģÏĢ":8066,"Î®ÏĢÎ¿ÏģÏĦ":8067,"ÎºÎ±Î²":8068,"ĠÏĤÎ¿Î¸Î®Î»ÏĢ":8069,"Î¼Î¼Î±ÏģÎ³":8070,"Î±Î¼Î¼Î±ÏģÎĵ":8071,"Ġpu":8072,"ĠÎ·Î½ÏİÎ¶":8073,"ĠÏīÎ½":8074,"Î¬ÎºÎ¹Î´":8075,"ĠÎ¬ÏģÎ±Îł":8076,"erg":8077,"ĠÎ¬Î¹ÏĥÎ·Î½":8078,"Î±Î¼ÏİÏĥ":8079,"ĠÎ¹Î±ÏĦÎ½ÎµÎ¸Î¯ÏĦ":8080,"ÎŁÎ¡Î¤":8081,"Î¡ÎĳÎł":8082,"ĠÎ·ÏĥÎ±ÏģÎ´Î¯ÏĦÎ½Î±":8083,"ĠÎ¿Î½ÎµÎ¼ÏĮÏĩÎµÎ´Î½Îµ":8084,"ĠÎ½ÏħÎ¿Î½Î¯ÎµÎ¼":8085,"Î¹Î¿ÏĢÎ¿ÏĦÎ·Î½Î¹Îº":8086,"ÏįÎ¿ÏģÎ±Ïĩ":8087,"ĠÎ½ÏįÎ¿Î¸Î±ÏĢÏĥÎ¿ÏģÏĢ":8088,"ĠÏĤÎ¹ÎµÏĥÎ¬ÏĦÏĥÎ±ÏĦÎ±ÎºÎ³Îµ":8089,"ÏĥÎ¬ÏĦÏĥ":8090,"ĠÏĤÎ·ÏĥÎ·Î½Î¯Îº":8091,"Î±ÏģÎ¸":8092,"Î¹ÎµÎ½Î¬Îº":8093,"Î¿Î¼Î¿ÏģÏĦ":8094,"Î±Î¯Î»Î»Î±Îĵ":8095,"ĠÎ¿Î¯ÎµÎ¼Î¿ÎºÎ¿ÏĥÎ¿Î½":8096,"ĠÏĤÎ·Î¾ÎŃÎ»Îĳ":8097,"ĠÎ¯ÎµÎºÏģÎ±":8098,"ĠÎ±Î¹Î»Î¬":8099,"ĠÏĤÎµÎ´Î¯Î»ÎµÏĥ":8100,"ĠÎ±Î½ÎµÎ¼ÏĮÏĢÎµ":8101,"ÏĤÎ®ÎºÎ¹ÏĦÏĦÎĳ":8102,"ÏįÎµÎ½ÏħÎ´Î½Î¹Îº":8103,"Î·ÏĦÏģÎ¬Î¾Îµ":8104,"ÏĨÎ±Îº":8105,"ĠÎ½Î±ÏĩÎ¯ÎµÏĦ":8106,"64":8107,"rG":8108,"Î¯ÏĥÏĦ":8109,"ĠÎ±Î¹ÎµÎ½Î¬ÏĨÎ¹ÏĢÎµ":8110,"ÎµÎ¼ÏħÎ¿ÏĥÎ®":8111,"ĠÏĤÎ¿ÎºÎ®Î¼":8112,"ĠÎ½ÏħÎ¿ÏĦÎŃÎ¸Î±Î¹Î´":8113,"ĠÏĤÎ±ÏĦÎ½Î¿ÏĢ":8114,"Î¬Îĺ":8115,"Î¹ÎµÎ½":8116,"Î¯ÎµÎ»Î±ÏĦÎ±ÎºÎ³Îµ":8117,"Î¹ÎºÎ³":8118,"ĠÏĤÎŃÎºÎ¹Î½ÏīÎ½Î¹Î¿Îº":8119,"ĠÎ½ÏħÎ¿Î½Î¬":8120,"ĠÎµÏĦÏĥÎ®Î½ÏīÎ½Î¹Î¿ÎºÎ¹ÏĢÎķ":8121,"ÏĤÎ±Î´Î¯Î»ÎµÏĥ":8122,"Î®ÏĨÎ±ÏģÎ³":8123,"Î·Î¼Î·ÎĶ":8124,"Î±ÏģÏĦÏĥÏħÎĳ":8125,"ĠÏĤÏħÎ¿ÎŃÏģÏĩ":8126,"ÎºÎ±Î¹ÎµÏģÎµÏĨÎ¹ÏģÎµÏĢ":8127,"ĠÎ±Î´Î¯Îµ":8128,"Î½Î±Î¹ÏĦÏĥÎ¹ÏģÎ§":8129,"ĠÎ¿Î¯ÎµÏĩÏģÎ±":8130,"Î½Î¬Îŀ":8131,"ĠÎ±Î¯Î´ÎµÏĢ":8132,"ĠÎ±Î¹ÏĦÎ¬Î¼Î¼Î¿Îº":8133,"ÏīÎ½Î¿Î¼":8134,"ĠÎ¬ÎºÎ¹Î½Î·Î»Î»Îķ":8135,"ĠÏĤÎ¿Î¼ÏĮÎ½":8136,"Î±Î½ÎŃÎ¼Î¹ÏģÎºÎµÎºÎ³ÏħÎ£":8137,"ĠÎ®ÎºÎ¹ÏĦÎµÎ¸":8138,"ĠÎ¹Î¿Ïĩ":8139,"Î¬ÏĦÎµÎľ":8140,"ÎºÏģÎĳ":8141,"ĠÎ¿Î¹Î»ÏĮÏĩÏĥ":8142,"ĠÎ·Î½Î¿ÏģÏĩÎ³ÏįÏĥ":8143,"Î¿ÏĦÏĥÏīÎ½Î³":8144,"ÎµÏģÏĦÏĥÎŃÏĢÎµ":8145,"ĠÎ¹Î±ÏĦÎ±ÏĦÏĥÎ¯":8146,"ÏĥÏĮÎ¼ÏģÎ±":8147,"Î³Î¿Î»Î¿Î¼Î¸Î±Î²":8148,"ĠÎµÎ´Î¯Îµ":8149,"ÏħÎ»Î¬ÎºÎ¿ÏĢÎ±":8150,"dem":8151,"ĠÎ½Î¬ÎµÏģÏīÎĶ":8152,"Î¼Î¿Î½Î¿Î¹ÏĥÎ¿Î¼Î·Î´":8153,"ĠÏĤÎµÎ½ÎŃÎ¼ÏĥÎ¹ÏģÎ¿":8154,"ĠÎ½ÏħÎ¿Î½ÏģÎ¯Î±ÏĢ":8155,"ÏħÎ±Îľ":8156,"ĠÏīÎ¶Î¬":8157,"ĠÎ½ÏħÎ¿ÎºÎ®Î½Î±":8158,"Î¿ÏģÎµÎĴ":8159,"ÎµÏĨÎ±":8160,"Î¼ÏħÎ¸Î½Îµ":8161,"ĠÏĮÎºÎ¹ÏĦÎµÏĩÏĥ":8162,"ÏĮÏĩ":8163,"ÎŁÎĿ":8164,"ĠÎ±ÏĥÎ¹":8165,"ĠÎµÎ¾Î±ÏĦ":8166,"Î¯Î§":8167,"ĠÏĤÎ±Î¯Î½ÏīÎ½Î¹Î¿Îº":8168,"ĠÎ¿Î½ÎµÎ¼ÏįÎ¿Î³Î·Î¿ÏģÏĢ":8169,"ÏĤÎ®ÎºÎ¹ÏĦÎ¹Î»Î¿ÏĢ":8170,"hPi":8171,"ĠÏĤÏĮÎ³ÏģÏħÎ¿ÏĢÎ¥":8172,"ĠÎ·ÏĥÏħÎµÎ»":8173,"Î¯ÏĨÎ·ÏĪ":8174,"ĠÏĤÏħÎ¿ÏĦÎ£":8175,"ÏĥÏĥÏīÎ»":8176,"Î±ÏģÎ²Îķ":8177,"ÏĤÎµÎ½ÎŃÎ¼":8178,"¸ÏĦ":8179,"ĠÏĤÎ·ÏĥÏīÎ¯":8180,"ĠÎ±Î¯Î½Î¿Î´ÎµÎºÎ±Îľ":8181,"ÎºÎ¹Î¼Î±Î½ÏħÎ´":8182,"Î±ÏĦÎ½ÎµÏĢ":8183,"Î²Î¬Î»Î²":8184,"Î·Î»ÏĮÏĩÏĥÎ±ÏĢÎ±":8185,"ĠÎ±ÏĦÎ·ÏĦÏįÏĩÎ±ÏĦ":8186,"ÏĮÏģÏĦÎ±Î¹Î³":8187,"Î¸Î±ÏĦÎ£":8188,"ÏħÏģÏĩ":8189,"Ġeci":8190,"ÏģÎµÎ³ÎŃ":8191,"Î¯ÎµÏĩÎ±Î¹ÎĶ":8192,"ÏįÎ¼Î¼":8193,"Î¯Ïĩ":8194,"ÎŃÎ³Î³Î±":8195,"ÏĤÎ±Î¯ÎµÎ³Ïħ":8196,"ĠÎ¿ÏģÏĦÏĥ":8197,"Î±ÎŃ":8198,"Î¹ÏĥÏħÎ¿Î¸Î½Îµ":8199,"ÏĨÎ±ÏģÎ³Î¿ÏĦÏīÎ¦":8200,"ĠÏĤÎµÏĦÎŃÎºÎ¹ÏĦÎķ":8201,"ÏĤÎ¹ÎµÏĥÎ¬ÏĦÏĥ":8202,"ÏĢÏĮÎº":8203,"ÏĤÎµÎ¸":8204,"ĠÎ¿Î¹Î¼ÏĥÏĮÎºÎ³Î±ÏĢ":8205,"Î®Î»ÏħÎ¿ÎĴ":8206,"Î¬ÏģÏĦÎµÏĦ":8207,"ĠÎ±Î½ÏĮ":8208,"ÎºÎ±ÏģÎ±Î§":8209,"ÏīÏĥÎ®":8210,"Î¿Î¼ÏĮÏģÎ´":8211,"ÏħÎ´Î½ÎŃÏĢÎµ":8212,"Î¿ÏĢÏīÏģÎ¸Î½Î¬":8213,"Î¾ÎµÎ»ÎŃ":8214,"ĠÏĬ":8215,"Ġyb":8216,"ĠÎ±Î¼ÏģÎŃÎ´":8217,"ĠÎ£ÎŁÎľ":8218,"ĠÎ¹Î±ÏĦÎ½ÏįÎ¿Î»Î±Îº":8219,"Î¾Î±ÏģÏĢ":8220,"Î±Î´Î¯Îµ":8221,"ÎºÎ±Î¹ÏģÏĢÏħÎļ":8222,"ÎĿÎŁÎľ":8223,"ĠÎµÎ¼Î¬Î»Î¹Î¼":8224,"ÏĤÎŃÏĦÏĥ":8225,"ÏħÎ¿ÏįÏĦÎºÎ¹Î´":8226,"ĠÏĤÎŃÏģÎ¿ÏĨÏĥÎ¿ÏģÏĢ":8227,"Ġ09":8228,"ĠÎ±ÏĦÎŃ":8229,"ĠÎ¹Î±ÏĦÎ¯ÎµÎ»ÎµÏĦÎ¿ÏĢÎ±":8230,"Î¹ÏĦÏįÎ»Î¿ÏĢ":8231,"ĠÏĤÎ±ÏģÎŃ":8232,"ÎºÎ¬ÏģÎĺ":8233,"ÏģÎµÎ¸ÏħÎµÎ»Îķ":8234,"ĠÎ·ÏĥÎ¹ÏĦ":8235,"ĠÎ±Î¹ÎµÏĢÎŃÎ½ÏħÏĥ":8236,"Î»ÏħÎ¿Îº":8237,"Î¿Î¹ÏģÎ®ÏĦ":8238,"ĠÎµÏĥÎ±Î²":8239,"Î½Î¬ÎºÎ¹":8240,"WEN":8241,"ÏģÎŁ":8242,"ĠÎ·ÏĥÎµÎ¸ÏĮÏĢ":8243,"ÏħÎ¿ÏĦÎ®Ïģ":8244,"Î»Î¬Î³ÎµÎľ":8245,"Î³ÏħÏĦ":8246,"ĠÎ±ÏĦÎ·ÏĦÏĮÎ¹ÏģÎ·ÏĦÏĥÎ±ÏģÎ´":8247,"Î¬ÎºÏĥÎ¿ÏģÎµÎ±":8248,"ĠÎ±Î´Î¯ÏĢÎ»Îµ":8249,"Î¹Î´ÎµÏĩÏĥ":8250,"ĠÎ¹Î½Î¬Î¼Î¹Î»":8251,"ĠÏĤÎµÏģÎµÏĦÏįÎ»Î±Î³ÎµÎ¼":8252,"ĠÎ½Î±ÏĦÏĥÎ±Î¼":8253,"ĠÎ±ÏĨÏģÎ¿Î¼ÏĮ":8254,"Î¬Î²ÎµÏģÎº":8255,"ĠÎ¿Î»Îµ":8256,"ĠÎ½ÏħÎ¿ÏĨÎ¬ÏģÎ³":8257,"ÏĮÎºÎ¹ÎĿ":8258,"ĠÎµÏĦÏĮÎł":8259,"Î¿ÏĦÏģÎ¿ÏĢ":8260,"ĠÎ®Î´Î±Î»Î·ÎĶ":8261,"ÎºÎ±Î»Î±Î¼":8262,"Ġht":8263,"ĠÎ·ÎºÎ¯Î´":8264,"ĠÎ·ÏĥÎ·ÏĦÏģÎ¬Î½Î±":8265,"ĠÎ±ÏĦÎ·ÏĦÎ¯Î±ÏģÎ±ÏĢÎ±":8266,"Î·ÏĦÎ®ÏģÎļ":8267,"ĠÎ½Î±ÏĦÎ½Î¿Î½":8268,"ĠÎ½ÏİÎ¹Î»":8269,"Î²Î¹ÏĢÎµ":8270,"Î±ÏĦÎ±Î¼ÏĥÎŃÎ»ÎµÏĦÎ¿ÏĢÎ±":8271,"ĠÏĮÎ»ÏĢÎ±":8272,"Î·ÏģÎĺ":8273,"ĠÏģÎŃÏĦ":8274,"ĠÎ±Î¯ÏĦÎ¹Î±":8275,"ĠÎ¿ÏģÏįÎ±Î¼":8276,"ĠÎ±ÏĦÎ±Î¼Î®Î²":8277,"ÎŃÎ»ÎĴ":8278,"dA":8279,"ÎµÎ´ÎµÎ´Î½ÏħÏĥ":8280,"voN":8281,"ĠÎ½ÏİÎºÎ¹Î¼Î¿Î½Î¿ÎºÎ¹Î¿":8282,"xa":8283,"ĠÏĤÏħÎ¿ÏģÎµÏĦÏĮÏĥÏĥÎ¹ÏģÎµÏĢ":8284,"Ġoediv":8285,"Î±ÏĥÏħÎ¿":8286,"ÏįÎµÏĦÏĥÎ¹Îł":8287,"Î¯Î»Î¿Îł":8288,"ÏĩÏįÎ¿Î¹Î¾Î±ÏĦÎ½ÏħÏĥ":8289,"Î½ÎµÎ½ÏħÏĥ":8290,"ĠÎ½ÏįÎ¿Î¸Î·ÏĦ":8291,"ĠÎ®ÎºÎ¹Î³Î·ÏĦÎ±ÏģÏĦÏĥ":8292,"ĠÏĤÎ·ÏĪÎ·Î»":8293,"ĠÎ·ÏĥÎ·Î»ÏİÏĢ":8294,"ÏĤÎ·ÏĦÎ®ÏģÎļ":8295,"py":8296,"ÏħÎ¨":8297,"ĠÎ½ÏİÎ¼ÏĥÎ¹":8298,"ĠÎ·Î½ÎŃÎ»Îķ":8299,"ĠÎ±Î»Îµ":8300,"ÏģÎ±ÏĢÎľ":8301,"ĠÏĤÎ¹ÎµÏĥÎ®ÏĦÎ½Î±ÏĢÎ±":8302,"thgi":8303,"Î¹ÎµÏģÎ§":8304,"ĠÎ½ÏįÎ¿ÏĦÎ·Î¶":8305,"ÏģÎŃÎ¸ÏħÎµÎ»ÎµÏĢÎ±":8306,"Î®ÏĦÏĥÎ¹ÏĢÎķ":8307,"Î´Î½Î±Î»Î»":8308,"Î¹ÎµÎºÏģÎ¬Î¹Î´":8309,"ĠÏħÎ¿ÏģÏĮÏĨ":8310,"Î²Î±ÏģÎĳ":8311,"ĠÎ¶Î¬":8312,"9102":8313,"ĠÏĮÎ¼Î¸Î±ÏĦÏĥ":8314,"ÏĤÎµÏĦÎ¯Î»Î¿ÏĢ":8315,"ÏįÎ¿ÏĨ":8316,"ĠÎ¡":8317,"ĠÏĤÎ±ÏĦÎ·ÏĦÏĮÎ¼":8318,"ĠÎµÎ²Î±Î»ÎŃÎ½Î±":8319,"ĠÎµÏĦÏĥÎ±Î¼ÏĮÎ¶":8320,"Î±Î¯Î¼Î¿Î½Î¿ÎºÎ¹Î¿":8321,"ÎķÎľÎľ":8322,"Î¬Î½Îĳ":8323,"ĠÎ±ÎºÎ¹Î´":8324,"ĠÎ±Î½ÎŃÎ¼Î¼":8325,"ĠÎ±Î¯ÎµÏĦÎ±Î¼":8326,"Î±Î½ÏĮÎºÎ¹Îµ":8327,"ÏįÎ¿ÏĦÎ¹Î±ÏĢÎ±":8328,"ĠÎ±ÏĦÎ±Î¼Î®Ïģ":8329,"ÏĥÎ±ÏħÎµÎºÏĥÏħÏĥ":8330,"Î¯Î¶":8331,"ÏĦÏĥÎ¹Î»Î±ÏĦ":8332,"ĠÏĤÎµÎ¯ÎµÏĦ":8333,"ÏĩÎ¹Î±":8334,"ĠÎĳÎĻÎľ":8335,"ĠÏİÏĦÎº":8336,"Î¯Î¿Îº":8337,"ĠÏĤÏīÏĦÎ½ÏĮ":8338,"ĠÎ±ÎºÏĥ":8339,"Î´ÎµÎ½ÏħÎ£":8340,"ĠÎ±Î¹ÎµÏģÏĮÎĴ":8341,"ÏĤÎ·ÏĥÎ¯ÏģÎº":8342,"poC":8343,"ÎºÎĵ":8344,"ĠÏħÎ¿Î¯Î´ÎµÏĩÏĥ":8345,"eT":8346,"ĠÎ½ÏİÏģÎµÎ¼Î·":8347,"Î´Î±ÏĢÎ¿":8348,"Î¬Î³ÏģÎµ":8349,"ÏĤÎ®ÏĦÏĥ":8350,"ĠÏĤÎµÎ½ÎŃÎ¼Î¹ÏģÎºÎµÎºÎ³ÏħÏĥ":8351,"ÏīÎ´Î¿ÎµÎĺ":8352,"ÎµÎ½ÎµÎ³":8353,"Î¬Î»Îł":8354,"ÏĤÎµÎ¯Îµ":8355,"Î¿ÏĦÏĥÏĮ":8356,"ĠÎ®Î»Î¿ÏĩÎ£":8357,"ÎĻÎĳ":8358,"ĠÎ½ÏħÎ¿Î½ÏİÏģ":8359,"Î½ÏħÏģ":8360,"ĠÏĤÎŃÏĢÎ¿ÎºÎ±Î¹Î´":8361,"loC":8362,"ÏĥÏħÏģÎ§":8363,"Î¿Î¼Î¹ÏĥÎ·ÏģÏĩ":8364,"Î¯Î±ÏģÎ±ÏĢ":8365,"ĠÎµÎºÎ·Î¸ÏģÎŃÏĨÎ±Î½Î±":8366,"ÏģÎµÏĦÎ£":8367,"Î±Îĸ":8368,"Î¸Î®Î»":8369,"Î·Î»ÎºÎ¿ÏģÏĢ":8370,"ĠÎ¬Î»Î¹Îº":8371,"ĠÏĤÎŃÏĦÎ·ÏĦÎ¹Î¿ÏĨ":8372,"Î´Î¿Î»Î»Î±":8373,"Ġed":8374,"TI":8375,"ĠÏħÎ¿ÏĢÏĮÏĦ":8376,"ĠÎ·Î²ÎŃÎ½ÏħÏĥ":8377,"ĠÏīÏĩÎµ":8378,"ĠÏĤÏħÎ¿Î½ÎµÎ¼ÏĮÎ¶Î±Î³ÏģÎµ":8379,"ĠÎ½ÏİÏģÏīÏĩ":8380,"ÏģÎµÎ½Î±ÏĨ":8381,"ĠÏĤÎ¿Î»ÏĮÏģ":8382,"ĠÏĤÎ±Î¯Î¼Î¿Î½Î¿ÎºÎ¹Î¿":8383,"Î¯ÎĶ":8384,"ÏīÏģÏĦÏĥ":8385,"ĠÏĤÎŃÏĦÎ·Î½ÏħÎµÏģÎµ":8386,"ĠÎ±ÏĦÎ±Î¼Î®ÏĦÏĥÎ±ÏĦÎ±Îº":8387,"ĠÏĤÎµÏĦÏĥÎ¬Î½Î±ÏĦÎµÎ¼":8388,"ĠÏħÎ¿Î¯Î»Î²Î¹Î²":8389,"ĠÎµÏĪÎ±ÏģÎ³":8390,"ÏħÎ¾":8391,"ĠÎ±ÏĦÏĦÎ®":8392,"ĠÏĤÎ¹ÎµÏĥÎ®ÏĦÎ¹Î±ÏĢÎ±":8393,"gu":8394,"ÎµÏģÎ¯Î±Î¾Îµ":8395,"Î¬ÏģÎ±ÏĢÎ±":8396,"Î¬Î²Î¿ÏĨ":8397,"ĠÎ±Î½Î±ÎºÎŃ":8398,"ĠÎ½ÏİÎº":8399,"ĠÎ±Î»Î¿ÎºÏĥÏįÎ´":8400,"ĠÎ¬ÎºÎ¹ÏĥÏħÎ¦":8401,"ĠÏĮÎ½Î±Î¸Î¹ÏĢ":8402,"ÏĢÏħÏģ":8403,"ÏĢÎµÎ½Î±":8404,"Î¼Î¿ÎĿ":8405,"Î±ÏģÏĢÎ¯ÏĥÎ¤":8406,"ĠÏįÎ¿ÎºÎ¹Î½ÏīÎ½Î¹Î¿Îº":8407,"Î¹Î»ÎŃÏĥ":8408,"ĠÎ¹ÏĦÎ±Î¹Î³":8409,"Î¿Î½ÏħÎµ":8410,"Î±ÏĩÎ±Ïĩ":8411,"ĠÏĤÏĮÏĦÏĥÏīÎ½Î³":8412,"ĠÏĤÎµÎºÎ¹":8413,"Î¼Î¿ÏĦÎ±ÎºÎµÏĥÎ¹Î´":8414,"ĠÏĤÎ¿ÏģÏĦ":8415,"ĠÎµÎ»ÏĢÎ¼":8416,"Î½Î¬Î¶Î¿Îļ":8417,"ÏİÏĦÏĨ":8418,"ĠÎ±Î¹ÏĥÏįÎ¿Î»ÏĢ":8419,"Î±Î¯ÏģÎ¿Î³Î·ÏĦÎ±Îº":8420,"Î»Î±ÏĨÏĥÎ±Î¹Î´":8421,"ĠÏħÎ¿ÏģÎŃÏĦ":8422,"ÏĢÎ¹Î»":8423,"ĠÎ½ÏįÎ¿Î»Î±ÎºÎ¿ÏģÏĢ":8424,"ĠÎµÏĥÎ¹Î´ÏģÎŃÎº":8425,"ĠÎ·ÏĥÎ±ÏģÏĮÎµÎ»Î·ÏĦ":8426,"ĠÏİÏĦÎºÎ¿":8427,"Î®ÎºÎ±Î¹ÏģÏħÎļ":8428,"Î¹ÏĦÎ¿ÏģÏĢ":8429,"rF":8430,"ĠÎ±Î¹ÏģÏĦÏĥ":8431,"Î¿Î´Î¿Î¯ÏģÎµÏĢ":8432,"ÎŃÏĢÎ¹ÏĢÎµ":8433,"ĠÎ¿Î½ÎµÎ¼ÏįÎ¿Î³Î·Î¿ÏģÎł":8434,"ÎºÎ·Î¸Î¿ÏĢÎ±":8435,"Î®ÏĨÎ¿ÏģÏĦ":8436,"Î±Î¯Î»Î±ÏĦÎĻ":8437,"ÏİÎ¹Î²":8438,"ĠÏĤÎ¿Î¹ÏģÎ¬":8439,"ÏħÎ¿ÏĥÏĦ":8440,"Î»Î»Î¬Î²Î¿ÏĢÏħ":8441,"Î·Î½Î¹":8442,"á½³":8443,"ĠÎ¯ÎµÏĦÏħÎµ":8444,"ÏĨÎŃÎ¾Îµ":8445,"Î·ÏģÏīÏĩ":8446,"Î¬Î¼Î±Î»Î±Îļ":8447,"ĠÏĤÏħÎ¿ÎºÎ¯Î¿ÏĦÎ±Îº":8448,"xo":8449,"ĠÏĤÏħÎ¿ÏĩÏĮÏĦÏĥ":8450,"ÏĩÎ¯Î´":8451,"Î±Î¼ÎŃ":8452,"ÏĤÏīÎ¼ÎĮ":8453,"Î´ÏħÎ¿ÏĢÎ£":8454,"ĠÏĤÏĮÎºÎ¹ÏĦÎ±Î¼":8455,"ĠÎ¹ÎµÏĥÎ®ÏĦÎ±Î¼Î±ÏĦÏĥ":8456,"ĠÏĤÎ¹ÎµÏĥÎŃÎ¸Î¿ÏĢÏĭÎ¿ÏģÏĢ":8457,"ĠÎ¿Î½Î¹ÎºÎºÏĮÎº":8458,"ÏīÎµÎĵ":8459,"ĠÎ¯ÎµÎ¸Î±ÏĦÏĥ":8460,"ĠÎ½ÏīÎµÎ¼Î¬Î½ÏħÎ´":8461,"ÏİÎ½Îµ":8462,"Ġá¿¦Î¿ÏĦ":8463,"ÎµÏĦÎ½Î±Ïģ":8464,"Î±ÏģÎŃÏĦÏħÎµÎĶ":8465,"ĠÎ½ÏīÏĦÎ¬Î¼ÏīÎ¹Î±ÎºÎ¹Î´":8466,"Î¬ÏģÎ´Î¹ÏĦÎ½Î±":8467,"Î½Î¹ÏĢ":8468,"ÎļÎŁÎĳÎł":8469,"ĠÎ½ÏīÎµÏĪ":8470,"Î±Î¼Ïī":8471,"ĠÎµÎºÎ·Î¸ÎŃÏĦ":8472,"Î²ÏĥÎµÏģÏĢ":8473,"ĠÎ¬ÎºÎ¹Î½ÏīÎ½Î¹Î¿Îº":8474,"ÏīÎ½Î¬ÏĢÎ±ÏģÎ±ÏĢ":8475,"ĠÎ±Î¹ÏĦÎ¬Î¼ÏīÎ´":8476,"Î±ÏĦÏĥÎ±Î½Î±ÏĢÎµ":8477,"ĠÏĤÎ®ÎºÎ¹Î½ÏīÎ½Î¹Î¿Îļ":8478,"Î¿ÎºÎ»Î±":8479,"ĠÎ®ÎºÎ¹ÎºÏģÏħÎ¿ÏĦ":8480,"ĠÎ¹ÏĦÎĮ":8481,"Î±Î¯Î³Î¿Î»":8482,"ĠÏĤÎµÏģÎµÏĦÏĮÏĥÏĥÎ¹ÏģÎµÎł":8483,"ÏĮÏĦÎ±ÏģÏĦÏĥ":8484,"Î¯Î¿ÎºÎ¹ÏĦ":8485,"ÏİÏĦÎ±Îº":8486,"Î¿ÎµÏģÏĩ":8487,"naM":8488,"ĠÎ±Î¶ÎµÏĢÎ¬ÏģÎ¤":8489,"ÏīÎ³Î±ÏģÏĦ":8490,"Î¬ÏĦÏģÎ¿ÏĢÎµÏģ":8491,"Î±Î¹ÎµÏģÏĩ":8492,"ĠÎ¹ÎµÎ½ÎŃÎ¼Î¹ÏģÎµÏĢ":8493,"Î¡Î§":8494,"ÏİÎ¡":8495,"ÏģÏħÎ¿ÏĦ":8496,"ĠÏĤÎŃÎºÎ¹Î¼Î¿Î½Î¿ÎºÎ¹Î¿":8497,"ÏĤÏħÎ¿ÏĦÎ¬ÏģÎº":8498,"ÏĤÎ±ÏģÎŃÎ¼Î·":8499,"ĠÎ®Î»Î¿Î²Î¿ÏģÏĢ":8500,"ÎĳÎ¤ÎĳÎļ":8501,"ĠÎ±Î»Î¬ÏĢÎ¼":8502,"Î±Î½Î¼ÏħÎĵ":8503,"SU":8504,"Î³ÏįÎµÏĨ":8505,"Î½ÏīÏĢÎ±ÎĻ":8506,"Î¹Î±ÏĦÎµÎ¶Î¯":8507,"ĠÎ½Î±ÏĥÎ¹ÏĩÏģÎ¬":8508,"ĠÏĤÎ¹Î´":8509,"Ġb":8510,"\".":8511,"Î¹Î±Ïģ":8512,"Î·ÏĢÎ±Î½Î±":8513,"Î½ÏĮÏĢÎ¿ÏģÏĢ":8514,"ĠÏĤÎµÎ¯Î¼":8515,"ĠÎµÎ¾Î¹Î¿Î½Î¬":8516,"ĠÎ¿Î¯ÏĦÎ»ÎµÎ´":8517,"Î¦ÎŁ":8518,"ÏĮÎºÎ±Îº":8519,"Î½ÎµÎ¼Î¹ÎµÎºÎ¹ÏĦÎ½Î±":8520,"Î¿ÏģÏĦÎ±Î¹Î³":8521,"ÏįÎ¿Î½Î¹ÏĦÎ½Î±ÏĦÏĥÎ½ÏīÎļ":8522,"ÎĻÎĳÎļ":8523,"ÏĤÎŃÏĩ":8524,"ÏįÎµÎ¹ÏĥÎ¿Î¼Î·ÎĶ":8525,"Î±Î³Î»ÏħÎ¿ÎĴ":8526,"ĠÏĤÎ¿Î¹Î¿ÏĢÏĮ":8527,"ÏĥÎ¹ÏĦÎ±Î¼ÏħÎ±ÏģÏĦ":8528,"Î¹ÎµÎ»ÎºÎ¬Ïģ":8529,"ĠÎ±ÏĦÎ½Î¿ÏģÎŃÏĨÎ¼ÏħÏĥ":8530,"ĠÏĤÎ·ÏĥÏħÎµÎ´Î¯Î±ÏĢÎºÎķ":8531,"ĠÎ½ÏįÎ¿ÏģÏīÎµÎ¸":8532,"Î¸Î®Î¼":8533,"Î·ÏĥÏįÎ»":8534,"ĠÎ±Î»Î¿":8535,"Î±Î¯ÏĥÏīÎ¡":8536,"ĠÎ¹Î±ÏĦÎµÏĩÏģÎŃÎ¿ÏģÏĢ":8537,"ĠÎ½Î±ÏĥÏįÎ¿Ïģ":8538,"Î¹Î¿ÏĢÏīÏģÎ¸Î½Î¬":8539,"ĠÎķÎ¤ÎĻÎķ":8540,"EM":8541,"Î¸ÎµÏĢ":8542,"Î½Î½Î±ÏīÎĻ":8543,"ĠÎ¹Î±ÏĦÎ½Î¿ÏĢ":8544,"ÏħÎ»Î±Îº":8545,"ĠÏĤÎ¹ÎµÏģÎ²":8546,"ĠÏĤÎ±Î¯ÏĥÎ±ÏĦÏĥÎ¿ÏģÎł":8547,"ĠÎ¹Î±ÏĦÎµÏĨÎ¬ÏģÎ³":8548,"ĠÎ±Î¼Î·Î½Î¯Îº":8549,"Î¹Î¼Î¸ÏįÏģ":8550,"ĠÎ±Î¯ÏģÏħÎº":8551,"ÎºÏĥÎ¬ÏĢÎ¼":8552,"ĠÏĤÎ±ÎŃÏĦ":8553,"ĠÎ¿ÏģÏĦÎ±ÎŃÎĺ":8554,"ĠÎ·ÏĥÎµ":8555,"Î¬ÏģÎ¹ÎµÏĢ":8556,"ÏĢÎ±Î½Îĳ":8557,"Î¿Î»ÏĢÎ¼":8558,"wodniW":8559,"ÏĩÏģÎ±Î¯ÏģÏħÎº":8560,"ĠÎ±Î¼Î·Ïģ":8561,"ÏĤÏįÎ¿Ïģ":8562,"ĠÎµÎ¼Î±ÎºÎ®Î¸":8563,"Î¹ÏĢÎµÎ½Î±":8564,"ÎĳÎłÎķ":8565,"ĠÏĤÎ±ÏĦÎ½Î¿Î³ÎŃÎ»":8566,"56":8567,"ĠÎ¯ÎµÎ¸Î·Î»Î²":8568,"ĠÏĤÎ¹ÎµÎ¾Î¬ÏģÏĢ":8569,"ĠÎ½ÏİÎºÎ¹ÏĢÏīÏĥÎ¿ÏģÏĢ":8570,"ÏĤÎ¿ÏĨ":8571,"ĠÎ¹ÎºÎ¬Ïģ":8572,"Î³Î±ÏĢÎ¿ÏģÏĢ":8573,"sptth":8574,"Î¯ÏĨÎ¿ÏģÏĦ":8575,"Î¯ÏīÏģÏĢ":8576,"ĠÎ®ÎºÏĬÎ±ÏĢÏīÏģÏħÎµ":8577,"Î®ÏĨÎĳ":8578,"Î¿Î¼ÏģÎ±ÏĨÎµ":8579,"ĠÏįÎ¿Îł":8580,"ĠÏĤÎ¹ÎµÏĥÎ¬ÏĦÎµÎ¾Îµ":8581,"Î¿ÏĦÎ±ÏģÎº":8582,"ĠÎ±Î¼Î·Î¸Î¬Î¼":8583,"ĠÏħÎ¿Î»ÏįÎ¿ÏĢ":8584,"Î¹ÎµÏĩÏģÎ¬ÏĢÏħ":8585,"Î±Î¼Î·":8586,"ĠÏĤÎ¿ÏĦÎ±Î¼ÎŃÎ¸":8587,"ÏħÎ¼ÎĨ":8588,"Î¿ÎµÏĦÎ½Î¯ÎĴ":8589,"ĠÎ®ÎºÎ¹ÏĦÎµÏģÎ¹Î±Î¾Îµ":8590,"ĠÎ·ÏĥÎ·Î¯Î¿ÏĢÎ¿Î»Ïħ":8591,"ĠÏĤÎ±ÎŃÏĨÎ±ÏģÎ³Î³ÏħÏĥ":8592,"ÎŃÎ¿ÏģÎł":8593,"Î¿Î»Î±Î³ÎµÎ¼":8594,"ĠÏĤÎ·Î½Î¯":8595,"Î¿ÏģÎ²":8596,"Î±ÏĢÏģÎµÏĢ":8597,"ĠÎµÎºÎ®ÏĢÎ¼":8598,"ĠÎ¹Î¿ÏĥÎĮ":8599,"ĠÎ¿Î³ÏģÏİÎ¹Îĵ":8600,"Î·ÎºÎ¬Ïģ":8601,"ĠÎĳÎ¤ÎĳÎľ":8602,"Î¬ÏĦÏĥÎ¹":8603,"Î±ÏĦÏħÎ¿Îº":8604,"Î·Îļ":8605,"ÏĩÎ¿Î´Î¿Î½ÎµÎŀ":8606,"ĠÏĤÎ®Î³Î¿Î»Î¹ÏĢÎµ":8607,"Î¹Î½Î¬ÏĨÎ¼Îµ":8608,"Î¹ÎµÎ»ÎºÎ¬ÏģÎĹ":8609,"ĠÎ®Î½Î·ÎºÏĥ":8610,"ks":8611,"ĠÎ·ÏĥÎ¬ÏĦ":8612,"ĠÎĹÎļÎĻÎ¤":8613,"ĠÏĤÏįÎ¿Î½Î¸ÎµÎ¹Î´":8614,"ÏĤÏįÎ¿ÎºÎ¹ÏĦ":8615,"ĠÎ¹ÎµÎ¬Î»Î¹Î¼":8616,"Î»Î¿Î´":8617,"Î½ÏįÎ¸ÏħÎµÎ¹Î´":8618,"ĠÎ¯ÎµÏĦÏĥÎ±Î¹ÎµÏģÏĩ":8619,"ĠÎµÏĦÎµÏĥÎ¬Ïĩ":8620,"ĠÏĤÎ±Î¹ÎµÏģÎŃÏĨÎ¹ÏģÎµÎł":8621,"Î³ÏĮÎ»Î¿Î¹":8622,"Î¬Î»Î²":8623,"ĠÎ®Î¼Î¿ÏģÎ´Î±Î¹Î´":8624,"ĠÏįÎ¿ÎµÎĺ":8625,"Î³ÏģÏīÎµÎ³":8626,"ĠÎ±Î¯ÏĥÎ±Î³ÏģÎµÎ¾ÎµÏĢÎµ":8627,"nim":8628,"Î¹ÏģÎ¯Î±ÎºÎ¿Î»Î±Îº":8629,"ĠÎ¹Î±ÏĦÎ½Î¿ÏģÎŃÏĨÎ±Î½Î±":8630,"Î»Î»Î¬Î²Î¿ÏģÏĢ":8631,"ĠÎ½ÏīÎ¯Î»":8632,"ÏĤÎ±Î´Î¬Î¼Î¿":8633,"Î±Î¹Î±Î²ÎŃÎ²":8634,"ĠÏĤÎ±Î¯ÏģÎ¿ÏĦÏĥÎ¹":8635,"Î¬ÏģÎĵ":8636,"ĠK":8637,"Î¿ÏģÎµÎ¸":8638,"ĠÎ½ÏįÎ¿Î³Î·Î´Î¿":8639,"eD":8640,"Î¹ÎµÎ´Î¬Î½Î±":8641,"ĠÏĤÎµÎ¹Î´Î¯":8642,"ĠÎµÎ¼Î±Î³":8643,"ĠÎ·ÏĦÏĥÎ¹":8644,"ĠÏĤÎ±ÏĦÎ½Î¿ÏģÎŃÏĨ":8645,"ĠÎ¬ÎºÎ¹ÏĦÎµÎ¸":8646,"ÏįÎµÏģÏĦ":8647,"ĠÏĮÎºÎ¹ÏĦÏĥÎ¹ÏģÎ·ÏĦÎºÎ±ÏģÎ±Ïĩ":8648,"ĠÏįÎ¿ÎºÎ±Î¹":8649,"ÏĥÏĮÎ½":8650,"Î½ÏħÎ¿Î¶Î¯":8651,"ĠÎ¿Î¹Î¼ÏĥÏĮÎºÎ³Î±Îł":8652,"Î¹ÏĦÎ¿":8653,"Î±Î¼Î¿Î½Î¿":8654,"ĠÏİÎ¸":8655,"Î³Î¿Î»ÎºÎµÎ¿ÏģÏĢ":8656,"ÎºÎ±ÏĦÎºÎĪ":8657,"Î¹ÏĥÎ±ÏĨÎ¿ÏĢÎ±":8658,"ĠÎ±Î¹Î¿ÏĢÏĮ":8659,"ĠÎ·Î½Î¹ÏĢÏİÏģÎ¸Î½Î±":8660,"Î·Î¸ÏįÎ¿Î»Î¿ÎºÎ±ÏģÎ±ÏĢ":8661,"sweni":8662,"ĠÎ¿ÏģÏİÎ´":8663,"Î¯ÎºÎ¹":8664,"ÏīÎ»Îº":8665,"Î³Î±ÏģÎ¤":8666,"Î¿Î³Î¯Î»":8667,"7002":8668,"Î¸ÏģÎ±":8669,"Î·Î½Î½ÎŃÎ³":8670,"Î¹ÏģÎ¿Îº":8671,"ĠÎ±Î½ÎŃÎ¼ÏĥÎ¹":8672,"ĠÎµÏĦÎ¿ÏĦÎ½Î¬ÏĢ":8673,"ĠÎ¿Î¹Î´ÎŃÏĩÏĥÎ¿Î¼Î¿Î½":8674,"Î²Î¼Î¿Î²":8675,"Î±Î¼Î¿Î½":8676,"ĠÏĤÎ¿Î½Î¯ÏĦÎ½Î±ÏĦÏĥÎ½ÏīÎļ":8677,"ĠÎ·ÏĦÎ±ÏĨÏĥÏĮÏģÏĢ":8678,"Î·ÏĥÎ¹Îµ":8679,"ĠÏĤÎµÎ¹ÎµÏĢÎŃÎ½ÏħÏĥ":8680,"ĠÎ¹ÎµÎ½Î¯ÎµÎ¼Î±ÏģÎ±ÏĢ":8681,"Î»Î±ÏĨÎµÎº":8682,"ÏĤÎ¿ÏĢÏīÏģÎ¸Î½Î¬":8683,"Î±ÏĦÏĥÎ¬ÏģÎ±ÏĢ":8684,"ÏģÎ±Î»Î±Ïĩ":8685,"ĠÏĤÎ±Î¹":8686,"ÏģÎµÎļ":8687,"ĠÏĤÎ¹ÎµÏĥÏİÏĦÏĢÎ¹ÏĢÎµ":8688,"ÏħÎ¿ÏģÏĢÏįÎļ":8689,"ĠÏĤÎŃÎ¼Î¼Î±ÏģÎ³":8690,"ĠÎµÎ¼ÏħÎ¿ÏĦÎŃÎ¸":8691,"ĠÎ¬Î³ÏģÎ±":8692,"ĠÎ±ÏĩÏįÎ¿Ïģ":8693,"ĠÏĮÎ½Î±":8694,"ĠÎ¿ÏģÎ´ÎµÏĮÏģÎł":8695,"ĠÎ½Î±ÏĦÏĮÎ¶":8696,"ĠÏĮÎºÎ¹Î½Î¿ÏģÏĦÎºÎµÎ»Î·":8697,"ĠÏĤÎ·ÏĥÏīÏģ":8698,"ÏĤÎ¹ÎµÏĥÎ®ÏģÎ¹ÎµÏĩÎ¹ÏĢÎµ":8699,"ÎµÏĦÎµÎ¼":8700,"ruS":8701,"ss":8702,"ĠÎ®ÏĦÏģÎ¿Î¹Î³":8703,"ĠÏĮÎºÎ¹ÏĦÏĥÎ¹Ïģ":8704,"Î¿Î´Î¿ÎºÎ¹Î¿":8705,"Î®ÏģÎ¹Îķ":8706,"ÎŃÎ¼Î±Î¹Î´":8707,"Î·Î¶ÎŃ":8708,"Î±ÏĦÎ±Î¼Î®":8709,"ĠÏĤÏİÏĩÏħÏĦÏĥÏħÎĶ":8710,"erP":8711,"ÏħÎ¿ÏĢÏįÎ¤":8712,"topsgolb":8713,"ÎµÏĦÎ¯Îµ":8714,"ÏĨÏħÏĦ":8715,"ĠÎµÏĦÎµÎ½Î¯ÎµÎ¼":8716,"99":8717,"ÏĤÏħÎ¿Î»Î»Î¬":8718,"ĠÎ¹ÎµÎ³Î¯Î¿Î½Î±":8719,"ĠÏĤÎ¹ÎµÏĥÎ®ÏĦÏīÏģÎµ":8720,"ĠÎ¿Î»Î¿":8721,"ĠÎ¹ÎµÎ¶Î¯ÏĢÏīÏĦÎµÎ¼Î¹ÏĦÎ½Î±":8722,"ÏħÎ¼Î¼Î¿ÏĦÎ±ÎºÎµ":8723,"ĠÎ±Î¹ÎºÎ¬ÏĦ":8724,"ĠÏĮÏĦÎ·Î³Î±ÏĨ":8725,"ĠÏĤÎ¹ÎµÏĥÏİÎµÏģÏĩÎ¿ÏĢÏħ":8726,"ĠÎµÎºÎ·Î¸ÏĨ":8727,"ÎŃÎ¸Î¿Î½Î·ÎºÏĥ":8728,"Î¹ÏģÏĮ":8729,"lP":8730,"eh":8731,"Î±ÏģÎµÏĦÏĮÎ³ÏģÎ±":8732,"ĠÏĤÎ±Î½ÏħÎµÏģÎŃ":8733,"ĠÎ±ÏĦÎ±Î¼ÏİÏĦÏĢÎ¼ÏħÏĥ":8734,"ĠÎ±Î´Î¬Î¼ÎŁ":8735,"Î³Î¿Î»Î¿ÏĢÎ±":8736,"ĠÎ»Î®Î±ÏģÏĥÎĻ":8737,"ria":8738,"ĠÏĤÎ·Î´Î¯":8739,"ĠÎ¯ÎµÎ¹Î¿ÏĢ":8740,"ĠÏįÎ¿Î²":8741,"ÏĤÎµÏĥ":8742,"Î¹ÏģÏĦÏĥ":8743,"ĠÎµÏĦÎµÎ¾":8744,"ÏįÎ¿ÏĢÎ±ÏĢ":8745,"ĠÏĤÎµÎ¹ÎµÏģÎŃÎ¼Î¿ÏĦÏĢÎµÎ»":8746,"Î¬Î¼ÏģÎ±ÏĨ":8747,"Î½ÏīÎ´Î¯":8748,"ÏħÎ¦":8749,"Î¯ÎµÎ¸ÏħÎµ":8750,"ĠÏĤÎ¿ÏĩÎ³ÎµÎ»ÎŃ":8751,"ĠÎ±Î½ÎŃÎ¼Îµ":8752,"ĠÏĤÎ®ÏĨÎ±ÏģÎ³":8753,"ĠÏĤÎ¹ÎµÏĪÎ®Î»":8754,"ÏĥÎµÎ¸Î¿ÏģÏĢ":8755,"Î¿ÏģÏĦÏĥÎ±":8756,"Î¸ÏħÎ²":8757,"74":8758,"Î¿Î¯ÎµÎ»Î¿ÏĩÏĥ":8759,"Î¹Î¸Î±Îº":8760,"005":8761,"Î·ÏģÎ¹ÎµÏĩÎ¹ÏĢÎķ":8762,"ĠÎ·ÏĥÎ·ÏĦÎ®Î¶Î±Î½Î±":8763,"ÏįÎ±Îľ":8764,"Î³Î¿Î»Î¿Î¹Î±ÏĩÏģÎ±":8765,"ÏĤÎµÎ½ÏĮÎºÎ¹Îµ":8766,"ĠÏħÎ¿ÏģÎ´ÎŃÎ¿ÏģÎł":8767,"Î½ÏİÎ¹ÏĥÎµÏģÎ·ÏĢÏħ":8768,"Î±Âµ":8769,"ĠÎ±Î¯Î»Î»Î±Îĵ":8770,"Î£ÎķÎĺ":8771,"Î±ÏģÎºÎ±":8772,"ĠÏĮÎºÏĬÎ±ÏĢÏīÏģÏħÎµ":8773,"ÎļÎķÎĳ":8774,"Î»Î»ÏĮÏĢÎĳ":8775,"ĠÎ·ÏĥÎ¹Î½Î¬ÏĨÎ¼Îķ":8776,"ÏĦÏĥÎ¹Î»Î±ÏĦÎ¹ÏĢÎ±Îº":8777,"ÏĤÎ·ÏĥÎ·Î¯Î¿ÏĢ":8778,"ĠÎ¬Î¸Î·Î¿Î²":8779,"ÏģÎŃÏĦÏĥÏħÎ¸Î±Îº":8780,"ĠÎ·Î´ÏģÎŃÎº":8781,"ĠÏĤÎ®ÎºÎ¹ÏĦÏĦÎĳ":8782,"Î¹Î´ÎŃ":8783,"ĠÎ®ÏĨÎ±ÏģÎ³Î¿ÏĢÏħ":8784,"Î½ÏĩÏħÎ£":8785,"ĠÎ¹ÎµÏĥÎ®ÏĨÎ±":8786,"ĠÎ½Î±ÏĩÎ¯ÎµÏĦÎµÎ¼Î¼ÏħÏĥ":8787,"ĠÏĮÎºÎ¹ÏĦÏħÎµ":8788,"ĠÏĤÎ¿Î½ÏħÎ´Î½Î¯Îº":8789,"ĠÎµÏĥÎ·Î³Î®Î´Î¿":8790,"Î´Î¯Îµ":8791,"ĠÎ¿Î¼Î¿ÏģÎ´":8792,"ĠÏĮÏĥÎ¹Î¼":8793,"ÎŃÏģÎ¿Îļ":8794,"Î¾Î¿Î´ÏĮ":8795,"Î³ÎµÎ»Îµ":8796,"Î±Î¹Î´ÎµÏĩÏĥ":8797,"Î´Î¬Î¼Î·Ïĥ":8798,"ĠÎ¯Î¿Î»Î»Î¿Îł":8799,"Î¹Î±Î»Î±ÏĦ":8800,"Î½ÏİÏĦÎ¹Î»Î¿ÏĢ":8801,"ĠÎ·ÏĥÎ·ÏĦÏĮÎ´Î¿ÏĦÎ±Î¼Î·ÏģÏĩ":8802,"Î½Î·ÏĦÏĥ":8803,"ĠÎ½ÏīÎ¼ÏĮÏĦÎ±":8804,"ÏĮÎºÎ±Î¹ÏĢÎ¼ÏħÎ»ÎŁ":8805,"ĠÏĤÎ¿ÏĦÎ±Î¼Î¼ÏĮÎº":8806,"Î±Î¹ÏģÎ¬":8807,"bew":8808,"ĠÎ¿Î¹ÏĦÏĥÎ¬ÏģÎµÏĦ":8809,"ĠÎ¹ÎµÎ¾Î¯Î¿Î½Î±":8810,"Î²Î¹ÏģÏĦ":8811,"Î¬Î´Îµ":8812,"Î½ÏīÎ½Î®Î»Î»Îķ":8813,"ĠÎ½Î±Î»Î±Î²ÎŃ":8814,"TS":8815,"ÏĮÎ»Î¹ÏĨ":8816,"ÎµÏĦÎ£":8817,"Ġ8002":8818,"ĠÏĤÎ¿Î¹ÏģÏįÎº":8819,"ĠÏĤÎ±Î¯ÏĥÎ·Î»ÎºÎºÎķ":8820,"ĠÎ¬Î»Î»Î¿Îł":8821,"Î³Î¿Î»Î±Î½Î±":8822,"Î·Î»Î»Îĳ":8823,"Ġ23":8824,"ĠÎ¹ÎµÏĥÎ¯ÎµÎ»Îº":8825,"ÏħÎµÎºÏĥÎ±ÏĦÎ±Îļ":8826,"ĠÎµÏĥÎ±Î¯ÏĥÏħÎ¿ÏģÎ±ÏĢ":8827,"ÎµÎºÎ·ÏĦ":8828,"Î¿ÎºÎ¹Îµ":8829,"Î½Î¿ÏĦÎºÎµÏĦÎ¹ÏĩÏģÎ±":8830,"ĠÎ±ÏĦÎ·ÏĦÏĮÎ½Î±Î¸Î¹ÏĢ":8831,"ĠÏĤÎ¹ÎµÏĥÎŃÎ¸Î¹ÏĢÎµ":8832,"ĠÎ¹Î¿Î½ÎŃÎ¼ÏĥÎ¹":8833,"Î»Î®Î½Îµ":8834,"Î·ÏĦÏīÏĥ":8835,"ĠÎ±Î´Î¿ÏĥÎŃ":8836,"ÎĻÎ¡Î¤":8837,"ÏĦÏĥÎ±Î»Îµ":8838,"ĠÏħÎ¿ÏģÏĦÎ½ÎŃÎļ":8839,"ĠÎ±ÏĦÎ±Î¼ÏįÎ½Î·Î¼":8840,"ĠÎ±Î»Î·Î»Î»Î¬ÏģÎ±Îł":8841,"ÏĤÎ¿Î¸Î¬Î»":8842,"ĠÎµÏĦÎ¿ÏĢÎ¯ÏĦ":8843,"ĠÎ¿ÏĥÏĮÏĦÏĥÎ©":8844,"Î¯Î¼ÏĥÎ¿ÎºÎ³Î±ÏĢ":8845,"Î·Î¸ÏĥÎ¯Î±ÏħÎµ":8846,"ĠÎ±ÏĢÏħÏĦ":8847,"ÏħÎµÎºÎ¹Î´Î¹ÎµÎ¾Îµ":8848,"ÏįÎµÎ»Îķ":8849,"ĠÎ¯Î¶Î±Îľ":8850,"ÏĮÎºÎ£":8851,"ĠÎ¬ÏģÎµÏĦÏĥÎ¹ÏģÎ±":8852,"ÏįÏģÎ´":8853,"ĠÎ½ÏİÎºÎ¹ÏĦÏħÎµÎ´Î¹Î±ÏĢÎºÎµ":8854,"ÏĤÎ±Î¯Î½Î¿Î´ÎµÎºÎ±Îľ":8855,"Î¤Î£ÎĻÎ¡":8856,"Î±ÏĦÎĿ":8857,"ĠÎµÏĦÎ±ÏĥÎ¬ÏĩÎµÎŀ":8858,"ĠÎ½ÏħÎ¿Î´":8859,"ÏĮÎ´Î±ÏĢÎ±Îł":8860,"Î±Î¹Î´Î¯Î½ÏĩÎ¹Î±ÏĢ":8861,"oediV":8862,"Î±ÏĦÎ½ÏĮÏĬÎ¿ÏģÏĢ":8863,"ĠÏįÎ¿ÎºÎ¹ÏĥÏħÏĨ":8864,"ÎµÎ¸Î¯ÏĦÎ½Îĳ":8865,"Î»Î¿ÏĩÏĥÎ±ÏĢÎ±":8866,"ÎļÎ£":8867,"ĠÏĤÏħÎ¿Î¹Î¿ÏĢÎ¬Îº":8868,"ÎºÎ±ÏģÎł":8869,"ĠÎ¹Î±ÏĦÎµÎ½ÏİÎ¹ÎµÎ¼":8870,"á¼°":8871,"ÎµÎ´Î¯Î´":8872,"ĠÎ®Î³ÏħÏĨ":8873,"cre":8874,"ÏĦÏĥÎ¯ÏĢÎ±Î¹Î´":8875,"ÎºÎ¹ÏĢÏīÏĥÎ¿ÏģÏĢ":8876,"ĠÎ¹ÎµÎ³Î¯Î¿Î½Îĳ":8877,"ĠÎµÏĦÎµÎ¶Î¯":8878,"Î±Î¼Î·ÏĥÎ¹ÏĢÎµ":8879,"ĠÎ½ÏħÎ¿Î¶Î¯Î±ÏĢ":8880,"Î½ÏĮÏĨ":8881,"ĠÎ¿Î¹ÏģÏĮ":8882,"Î¿Î¹Îĵ":8883,"ÎºÎ·Î»ÏĢÎºÎµ":8884,"ĠÎ±Î¹Î½ÏĮÏģ":8885,"ÏĦÏĥÎ¹ÏĦÎ±ÏĦÏĥ":8886,"Î¼ÎµÎ³":8887,"ÏįÎ¿ÏģÎºÎ³ÏħÏĥ":8888,"ĠÏĤÎ·ÏĥÎ±ÏĨÏĮÏĢÎ±":8889,"ĠÎµÏĦÎ¯ÎµÏģÎĴ":8890,"ĠÎ¹ÎµÏĩÎŃÏĦÎµÎ¼Î¼ÏħÏĥ":8891,"ĠÎ¿Î¹ÏģÎ´ÎŃÎ½ÏħÎ£":8892,"Î±ÏĢÎŃ":8893,"ÎŁÎķÎ¤ÎĿÎĻÎĴ":8894,"ÏĩÎ¹Î¿ÏĦÏĥÎ¹ÏĦÎ½Î±":8895,"Î¿ÏģÏħÎ¸Î¬ÏģÎ±ÏĢ":8896,"Î»ÏħÎ¿ÏĥÏħÎ¿Î¼":8897,"Î½ÏĩÎµÏĦÏħÎ»Î¿Îł":8898,"ĠÏĤÎ·ÏĥÎ¬ÏģÎ´":8899,"Î±ÏĦÏĥÎ¹Î»Î¬Î¼":8900,"Î¿ÏĦÎ±Î²Î²Î±Î£":8901,"Î¯Î¿ÏĨ":8902,"ÏħÎ¿Î»ÏįÎ¿ÏĢ":8903,"ĠÎ±Î¹Î½ÏĮ":8904,"Î»Î¿Î¹ÏģÏħÎº":8905,"Î»Î±ÎºÏĥÎ±Î´Î¹Î´":8906,"ÏĤÏįÎ¿ÏĦÏħÎ±":8907,"ÏĦÏĥÎµÎ»ÎµÏĦÎ½ÏħÏĥ":8908,"ĠÎ·ÏĥÎ±Î²Î¼ÎŃÏģÎ±ÏĢ":8909,"ÎĻÎĴ":8910,"ĠÎ·Î¾ÎŃÎ»Îĳ":8911,"ĠÏĤÎ¬ÏĥÎµ":8912,"ĠÏĤÎµÎ¹ÏģÏĦ":8913,"ÏįÎ¿ÎĻ":8914,"ÎºÎµÎĿ":8915,"kna":8916,"Î±ÏģÎµÎ¼Î®Î£":8917,"Î»Î±ÏĢÎ¼":8918,"ĠÎ¬ÎºÎ¹Î»ÎµÎ¤":8919,"Î½Î±Î¹Î´":8920,"Î·Î´ÏĮÏĥÎ¹Îµ":8921,"Î¹ÏĩÎĮ":8922,"Î½ÏĩÎ¬Î¹ÏĦÏĨ":8923,"ÏĮÎ£":8924,"Î´Î½Î±Î¾ÎŃÎ»Îĳ":8925,"ĠÎ·ÏĥÏįÎµÎ³":8926,"dnu":8927,"ÎµÎ³Î·":8928,"Î¿Î¼ÏĮÏģÎ±ÏĢ":8929,"ÏīÏĢÏįÏĦ":8930,"ĠÏĤÏħÎ¿Î»ÎŃÏĦÎ¹ÏĢÎµ":8931,"ĠÏĤÎ±ÏĦÎ½ÏİÎ»Î¹Î¼":8932,"ĠÎµÎ¼ÏħÎ¿ÏģÎŃÎ¾":8933,"ÏĦÏĥÎ¹Î»Î±Î¹Ïĥ":8934,"Î¿ÏįÎ´":8935,"ĠÎ§":8936,"Î£ÎĳÎĻ":8937,"ĠÏĮÎºÎ±Î¹Ïĥ":8938,"ĠÏİÏģ":8939,"ÏĨÎ¬ÏģÎĵ":8940,"ÏĥÎ¹ÎµÎ»ÎºÎ¿ÏĢÎ±":8941,"ÏĮÏģÎ±Îł":8942,"ĠÎ¿Î¹Î´Î¬ÏĦÏĥ":8943,"ĠÎ±Î½Î¯ÎµÎºÎµ":8944,"34":8945,"ÏīÎ»Î±Îº":8946,"ĠÎ½ÏīÏģÏĦ":8947,"ĠÎ¹ÎµÏĥÎ®ÏĦÎ·Î¶":8948,"ĠÎ£ÎŁÎ¡":8949,"ĠÏĤÎ·ÏĦÏİ":8950,"ĠÎ±Î¯ÏģÎµÎ¸ÏħÎµÎ»Îµ":8951,"ĠÏħÎ¿Î²":8952,"Î½Î±Î³":8953,"ĠÏĤÎ®ÎºÏĬ":8954,"Î¬Î´Î¹Î´":8955,"ĠÎ½ÏħÎ¿ÏģÎŃÎ¾":8956,"ppA":8957,"Î½ÏİÏĦÏħÎ±":8958,"Î¿ÏĦÏĥÎ±Îļ":8959,"miT":8960,"Î·Î¸Î®Î¿Î²":8961,"ÏĤÎ±Î¯ÎµÎ³Î¥":8962,"ÏħÎ¿Î²Î¿ÏĦÏīÏģÏĢ":8963,"Î¹Î¶Î±ÏģÎĴ":8964,"ÏģÏħÎ¿Îº":8965,"ĠÎ²":8966,"Î¹ÎµÏģÎµÏĨÎ¹ÏģÎµÏĢ":8967,"ĠÏĤÎ¹ÎµÏĥÏĮÎ´ÎºÎµ":8968,"ÏįÎ¿Î£":8969,"ÎµÏĦÎ½":8970,"ĠÏĤÎ®ÎºÎ¹Ïģ":8971,"ĠÎ·ÏģÎµÏĦ":8972,"ĠÎ±Î½Î¿ÏĦÎ½ÎŃ":8973,"ÎµÏĨÏĮ":8974,"ĠÎ¹Î±ÏĦÎµÏĢ":8975,"ĠÏħÎ¿Ïĩ":8976,"Î±ÏĥÏĥÏİÎ»Î³":8977,"ĠÎ¹ÎµÎ½Î¯Î±Î³Î²":8978,"ÏĤÎ¯ÎµÎ½Î±Îº":8979,"ÏĤÎ±ÏģÏĢÎ¯ÏĥÎ¤":8980,"Î½Î±ÏģÎºÏħÎŁ":8981,"ÏĥÏħÎ»Î±":8982,"rb":8983,"ĠÎ®ÏĢÎ¿ÏģÏĦÎ¹ÏĢÎµ":8984,"maH":8985,"Î±ÏģÎĶ":8986,"ÏħÏģÏĮ":8987,"ÏģÎµÎ¸ÏħÎµÎ»ÎµÏĢÎ±":8988,"ĠÏĤÎ·ÏĥÎ·ÎºÎ¯Î¿Î¹Î´":8989,"Ġthgir":8990,"Î·Î¾ÏħÏĦÏĢÎ¬Î½Î±":8991,"ĠÏħÎ¿Î¹":8992,"ĠÎ½Î±Î½ÎŃÎ½Î±Îº":8993,"ÎµÎ»Î¿Îł":8994,"Î³Î±Î»Î»Î±ÏĦÎ½Î±":8995,"ĠÏĤÎ¿ÏĦÏĥÎ®ÏģÎ§":8996,"eri":8997,"ĠÎ½ÏīÎ´Î¬Î¼Î¿":8998,"ÎĺÎķ":8999,"ĠÎ½ÏİÎ¹ÏĥÎ±Î³ÏģÎµ":9000,"Î±ÏģÎµÏĦÏįÎ»Î±Îº":9001,"ĠÎµÎ¼ÏħÎ¿ÏĥÏİÎ´":9002,"ĠÎ¹ÎµÏģÎŃÏĨÎ±ÏĦÎ±Îº":9003,"ĠÎµÏĩÎ¯Îķ":9004,"ha":9005,"ĠÏĤÎµÎ½ÏĮÎºÎ¹Îķ":9006,"ĠÎ±Î½ÎŃÎ¼ÏĥÎ¹ÏģÎ¿":9007,"ĠÎĹÎ£ÎĹ":9008,"Î»Î¬Ïĥ":9009,"ĠÏĤÎ¹ÎµÏĥÎ®ÏĦÏģÎ±Î½Îĳ":9010,"Î·Î¼ÏĥÎ¿Îº":9011,"Î±ÎµÏģ":9012,"Î¿ÏĦÎ±Î¼ÏīÎ¹Î¾Î±":9013,"ÎŁÎľ":9014,"ÏĤÏİÎ¹":9015,"ĠÏĤÏħÎ¿Î½ÎµÎ¼":9016,"ĠÏĤÎ¹ÎµÏĥÎ¬ÏģÎ´Î¹ÏĦÎ½Î±":9017,"Î³ÏĮÎ¼Î±Ïĩ":9018,"ĠÏĤÏīÏĩÎ¯Î´":9019,"Î±Î½Î±Îļ":9020,"ĠÎ¿Î½ÎŃÎ¼Î·ÏĢÎ±Î³Î±":9021,"ĠÏĤÎ®Î³Î¿Î¼ÏģÎ±ÏĨÎµ":9022,"Î¹ÎµÎ¾Î¬ÏĦ":9023,"Î¹Î»Î¬ÏĢ":9024,"mA":9025,"of":9026,"ĠÏĤÎŃÏĨÏģÎ¿Î¼":9027,"mor":9028,"ĠÏħÎ¿ÏĦÏįÎ¿ÏĦ":9029,"ĠÎķÎĳÎł":9030,"ÏĢÎµÏĢ":9031,"ĠÏģÎ¿ÎºÏĥ":9032,"ĠÏĤÎ·ÏĥÎ±Î²Î¼":9033,"deM":9034,"Î³Î¿Î»Î¿ÏĦÏĥÎ¹":9035,"ĠÏįÎ¿ÎºÎ¹Î½Î¸Îķ":9036,"ÎºÏĥÎ±Î¹Î´":9037,"ĠÎ±ÏĦÎ±Î¼Ïĥ":9038,"Î¬ÎĴ":9039,"ĠÎ±ÏĦÏĥÎ¹Î»Î¬Îľ":9040,"ĠÎ±Î¹ÏģÏįÎº":9041,"ÏīÎ³Î±ÏĢ":9042,"ÏģÎŃÎ£":9043,"ĠÎ¹Î¿Î½ÏĮÎ¼":9044,"ĠÎ½Î±ÎºÎ·ÏĦÏĥÎ¯":9045,"ĠÎ¿Î½Î¿Î¼":9046,"Î¾ÎµÎ»ÎŃÏĢÎµ":9047,"ĠÏĤÎ¹ÎµÏĥÎ¬Î²":9048,"ÏģÎ±Î¦":9049,"ĠÎ±Î¯ÏģÎ¿ÏĨ":9050,"Ġ.%":9051,"ĠÎ·ÏĦÏĥÎ¯ÏĢ":9052,"ÏįÎ²":9053,"ÏīÏģÎµÎ¹ÏĨÎ±":9054,"Î±Î¯ÏģÏħÎ£":9055,"ÎµÏĦÏīÏģÏĢ":9056,"ĠÏĤÎµÎ¯ÏģÎ¿ÏĦÏĥÎ¹":9057,"ĠÏĮÏĦÏĢÎµÎ»":9058,"ÏĢÎ¹":9059,"Î±Î»ÎµÎ¼":9060,"Î±ÏĦÎµÎ¾Îµ":9061,"ĠÎ®ÎºÎ¹Î½Î¿Î¼Î·ÏĦÏĥÎ¹ÏĢÎµ":9062,"ÏīÏģÎ·":9063,"ÏĥÎ¯Î¾Îµ":9064,"ĠÎ¿ÏĨÎ±ÏģÎ³":9065,"ĠÎµÏĦÎµÎ¶Î¬":9066,"ÏĩÎ±Î¼Î¼ÏħÏĥ":9067,"Î¬Î½Î±Î¾":9068,"ĠÎ±Î¼ÏĮÏĦÏĥ":9069,"ĠÏĤÎŃÎ½Î¸ÎµÎ¹ÎĶ":9070,"Î³Î¹ÎµÎ´":9071,"Ġrets":9072,"ĠÎ¹ÎµÎ²Î¬Î»Î±ÏĦÎ±Îº":9073,"ĠÎ¥ÎŁÎľ":9074,"Î¹ÎµÏĢÎŃÏģÏĢ":9075,"Î·ÏħÎ¿Î£":9076,"Î¹ÏģÏĢ":9077,"ĠÎ®ÏĨÎ±ÏģÎ³Î³Îµ":9078,"ĠÏĤÎ¿ÏģÏĮÏĨ":9079,"ÎŃÎ¸Î½ÏħÏĥ":9080,"ÎºÎ¹Î¿Î½Îµ":9081,"Î»ÏĦÎº":9082,"MA":9083,"ĠÎ¬ÏģÎ¿":9084,"Î±Î»ÏĮÎ²Î¼ÏħÏĥ":9085,"Î½ÏīÏĨÎ±Î¹Î´":9086,"ĠÎ½ÏħÎ¿ÏĩÎĪ":9087,"ĠÏĤÏīÏĢÎ¬Îº":9088,"ÏĢÎµÏģÏĦ":9089,"Î¿ÏģÎ´Î½ÏħÏĥ":9090,"ÏīÏĢÎ¹Î±Î»Î±ÏĦ":9091,"ÎĻÎľ":9092,"ÏģÏįÏĥ":9093,"Î¿Î²ÏįÎķ":9094,"ÏĨÏħÎ¿":9095,"ĠÎ±ÏģÏħÎ¿Î³":9096,"Î¸Î·Î¼Î¿ÏģÏĢ":9097,"ÏĦÏĥÎ±ÏĦÎ±ÎºÎ³Îµ":9098,"ÏĤÎ±Î¯ÎºÏģÏħÎ¿Î¤":9099,"ĠÎ½ÏħÎ¿Î²Î¬Î»":9100,"ĠÎµÎ½ÏħÎ¿":9101,"ĠÎ¹Î¶Î¬":9102,"Î¿ÏĩÏĥÎ±ÏĢÎ±":9103,"ĠÏħÎ¿ÎºÎ¯ÎĿ":9104,"ĠÎ·ÏĥÏīÎ½Î¬Î³ÏģÎ¿Î¹Î´":9105,"ÎºÎ±Î¹ÏģÏĢÏħÎº":9106,"Î±ÏģÏĦÎ¬Îł":9107,"Î¬ÎºÏĥÎ±Î´":9108,"ÏĨÎ±Ïģ":9109,"ĠÏĤÎŃÎºÎ¹Î´Î¹Îµ":9110,"ĠÏĤÎŃÎºÎ¹ÏĥÎ±Î²":9111,"ÏīÏģÏĦÎ½ÎŃÎºÎ³ÏħÏĥ":9112,"ÏħÎ¿ÏģÏĨ":9113,"Î¬ÏĦÎ¿ÏĢ":9114,"Î±Î»ÎµÏĢ":9115,"ĠÎ¹ÎµÎ¬Î½ÏģÎµÏĢ":9116,"Î©Î§":9117,"Î·Î»ÏİÏĢ":9118,"ÏįÎ¿Î¼ÏĥÎ¹Ïģ":9119,"Î½ÎµÎ¼Î±Î½Î±":9120,"ĠY":9121,"Î´Î¿ÏĢÎ¼Îµ":9122,"ĠÏĤÎŃÎºÎ¹Ïģ":9123,"ĠÎ·ÏĥÎ±ÏĦÎ½ÎŃ":9124,"ĠÎ¹ÎµÎ³ÏįÎµ":9125,"ĠÎ±ÎºÎ±Î¼ÏģÎ¬ÏĨ":9126,"Î¹Î±Î»Îµ":9127,"Î·Îĸ":9128,"ÏģÎ¬Îļ":9129,"Î½Î¹Î¼ÎµÏĥ":9130,"Î½Î¯Î¿ÎºÎ±Î½Îĳ":9131,"ĠÎ±ÏĢÎ¯Îµ":9132,"ĠÎ®ÎºÎ¹ÏģÏĦÎ½ÎµÎļ":9133,"ÎºÏģÎ¬Î¼":9134,"ĠÎ±ÏİÎ¶":9135,"ĠÎ¹ÎµÏĥÎ¯Î´ÏģÎµÎº":9136,"Î³ÏĮÎ»Î¿Î¼Î¿":9137,"Î¬ÏĦÎ±Î¹Î´":9138,"ĠÎµÏĢ":9139,"ĠÏĤÎ¹ÎµÏĥÎ®Î»Îº":9140,"ĠÎ±Î½Î·Î»Î»ÎĪ":9141,"ĠÏĤÎ±ÏģÎ´ÎŃ":9142,"gro":9143,"ĠÎ±Î¯ÏģÎ¿ÏĨÎ¿Î»ÎºÏħÎº":9144,"Î¹ÏģÎºÎŃ":9145,"ÏĩÎµÎ»ÎµÏĦÏĥ":9146,"Î¿ÏĥÏĮÏĦÏĥÏī":9147,"ÏįÎ¿ÎºÏĥ":9148,"ÎŃÎ½Î±ÏĢ":9149,"ĠÎ¯ÎµÎ¸ÏīÏģÎ·Î»ÎºÎ¿Î»Î¿":9150,"ĠÏĤÏħÎ¿Î½Î¯ÎµÎºÎµ":9151,"ĠÎ¬Î¹ÏĦÎ±Î¼":9152,"ÏĢÏħÎļ":9153,"ÏĩÎ¿Î½Îµ":9154,"Î¬ÎºÎ¹ÏĦÏĥÎ¹ÏģÎ·ÏĦÎºÎ±ÏģÎ±Ïĩ":9155,"ĠÎ®Î³Î±ÏĦÎ½ÏħÏĥ":9156,"ÏĤÎµÎ´Î¬Î¼Î¿Î´Î²Îµ":9157,"ĠÎ¹Î±ÏĦÎµÏĢÎŃÎ»Î²Î¿ÏģÏĢ":9158,"Î±Î¹ÏĦÏĥ":9159,"ÏħÎµÏĦÎ¯ÏĢÎµ":9160,"ÏīÎ¹ÎºÎ¹Î»Î·":9161,"ĠÎ¿ÏģÎ±":9162,"ÎĻÎĵ":9163,"Î»Î¿Î²Î±ÏĦÎµÎ¼":9164,"Î·ÏĢÎ±Î³Îĳ":9165,"Î³ÏħÏĪ":9166,"Î·Î»ÎµÎ¼Î¹ÏĢÎķ":9167,"Î»Î¹Îľ":9168,"ĠÎ¹Î±ÏĦÎ¯ÎµÎ¹Î¿ÏĢ":9169,"ĠÎ±Î¯Î»Î±ÏĦÎĻ":9170,"ĠÎ·ÏĥÎ±Î¯":9171,"ĠÏĤÎ®ÎºÎ¹ÏģÏĦÎ½ÎµÎļ":9172,"Î¿Î½ÎµÎ¼ÏĮÏĩÎµÎ¹ÏģÎµÏĢ":9173,"ĠÎ¹Î±ÏĦÎµÎºÏĥ":9174,"Î´Î½Î±Î»Î»ÎŁ":9175,"ĠÎ½ÏīÎ¯Î´":9176,"Ġtro":9177,"Î½Î±ÏĥÎ±Î²":9178,"Î±ÏģÏĦÏĥÎºÎµ":9179,"ÏĤÏīÎµ":9180,"ĠÎ¹Î¿ÎºÏģÏįÎ¿Î¤":9181,"ĠÎ¹Î±ÏĦÎ¬Î¼":9182,"ĠÎ·ÏģÎºÎ¬":9183,"ĠÏĤÎ·Î½Î½Î¬ÏīÎĻ":9184,"ĠÎ·ÏĦÎ®Î½Î±Î»ÏĢ":9185,"Î±Î½Î¯Îļ":9186,"ÏĮÎ½Î±ÏĦÎ±Îº":9187,"sei":9188,"ÏĩÏģÎ±ÏĢÎµ":9189,"ÏĮÏģÎ¹Î±ÎºÎ¹ÏĢÎµ":9190,"ed":9191,"ĠÎ½ÏİÎºÎ¹Î´":9192,"ĠÎ·ÏĦÎ·ÏĦÎ¯Î±ÏģÎ±ÏĢÎ±":9193,"Î¼Î¼":9194,"ĠÎ±Î¯ÏģÏīÎµÎ¸":9195,"ĠÎµÏĦÎµÏĩÎĪ":9196,"Î®ÏĨÎ¿ÏģÏĦÏĥ":9197,"ĠÎ½ÏħÎ¿ÏģÎ²":9198,"ĠÏīÎ¬ÏĢ":9199,"IL":9200,"Î¿Î¼Î¿ÏģÎ´":9201,"ĠÎ¿Î½ÎŃÎ¼ÏĥÎ±ÏģÎµÏĢ":9202,"ĠÎ·ÏĥÎ·Î¸ÏİÎ¿ÏģÏĢ":9203,"ĠÎ·ÏĦÎ±ÏĦ":9204,"ĠÎ·ÏĥÎ±ÏĦÎºÎŃÏĢÎµ":9205,"ÏĢÎµÎ»Î²ÎŃ":9206,"ĠÎ®Î»Î¿Î²Î±ÏĦÎ±Îº":9207,"Î¹ÏģÏİÎ½Î³":9208,"Î¹ÎºÎ»Î±Î§":9209,"Î»ÎµÎ³Î³Î¬":9210,"ÏīÎ¾ÎŃ":9211,"ĠÎ½ÏİÎºÎ¹Î±Î½ÏħÎ³":9212,"ÎŃÏģÎ±Îº":9213,"ĠÎ¿ÏģÏĦÎŃÎ¼":9214,"ĠÏįÏĩ":9215,"Î±ÎºÎ¯Î±Î½ÏħÎ³":9216,"Î¯Îł":9217,"ÏģÏįÎ¼":9218,"Î³Î³ÎµÏĥÎ¿ÏģÏĢ":9219,"ÏħÎµÎ¼ÏĥÎŃÎ´":9220,"ĠÏĤÎ¿ÏĨÎ±Î´ÎŃ":9221,"ĠÎ±ÏĦÎ±Î¼ÏįÎ¸":9222,"Î³ÏīÎ³Î±Î¹ÏĢ":9223,"ĠÎĳÎķÎĿ":9224,"ĠÎ·Î»ÎŃÏĨÎ¿":9225,"ÏĥÎ¹Î±Î»ÏĢ":9226,"Î·Î¼Î¹ÏĦ":9227,"ĠÏĤÎ±ÏĦÎ½Î¿Î½Î¯Î´":9228,"ĠÎ¬ÎºÎ¹ÏĦÏĥÎ¹Ïģ":9229,"Î½ÏħÎ¸ÏįÎµÎ¹Î´":9230,"ÏħÎ¿Î¯ÏĦÏģÎ±Îľ":9231,"Î±ÏĦÏħÎ±":9232,"ĠÎ±Î´Î¹ÏĦ":9233,"ĠÎ¹ÏģÎ¬Î³ÏħÎµÎ¶":9234,"ĠÎ±ÏĦÎ±Î¼Î³Î¯ÎµÎ´":9235,"Î±Î¯ÎµÎ¼":9236,"ĠÎ·Î»Î·Î»Î»Î¬ÏĦÎ±Îº":9237,"ĠÎ®ÏĩÎµÎ½ÏħÏĥ":9238,"ĠÎ±Î½ÎŃÎ¼Ïĥ":9239,"pir":9240,"Î¬Î»Î¿ÎºÎ¿Ïĥ":9241,"ÎºÎ¯ÎĶ":9242,"ĠÎ±Î¼Î·ÏĮÎ½":9243,"ÏĤÎ±Î¯Î½ÏīÎ½Î¹Î¿ÎºÎ¹ÏĢÎµ":9244,"ĠÏħÎ¿Î´ÏĮÎ¹ÏģÎµÏĢ":9245,"ĠÎµÎºÎ®Î³Î²":9246,"ÏĩÏħÎ½":9247,"Î½ÏīÏĩ":9248,"ĠÏīÏģÎŃÏĦÏīÎ½Î±":9249,"Ã©":9250,"ĠÎ¬ÎºÎ¹ÏĨÎ±ÏģÎ³":9251,"ÏĤÎ±Î¯Î¼":9252,"Î£ÎŁÎļ":9253,"ÏĩÏħÏĦÎ±":9254,"ĠÎĹÎ£Î©":9255,"ĠÎ·ÏĦÎ®ÏģÎļ":9256,"ÏĩÏģÎĪ":9257,"ĠÎ¹Î±ÏĦÎ½ÏįÎ¿Î¹Î¿ÏĢÎ¿Î¼Î¹ÏĥÎ·ÏģÏĩ":9258,"ÏĤÏħÎ¿ÏģÎ¬Î²":9259,"ĠÎ±Î¯Î¾":9260,"ĠÎ·Î¾Î±Î»ÏįÏĨ":9261,"ĠÎ½ÏħÎ¿ÏĥÎ®Î¸Î·Î¿Î²":9262,"ĠÏĤÎ¯ÎµÎ¼Î¿ÏĦ":9263,"ĠÏĤÎ±Î´Î¬":9264,"ĠÏĤÎ±ÏĦÎ·ÏĦ":9265,"Î¹ÏĦÏĥÏĮÏģÏĢ":9266,"ÎĻÎĳÎł":9267,"ÎĻÎł":9268,"ĠÎ¿ÏģÎµÎ¼Î®":9269,"Î»ÎµÏĦÎ½Î±Îł":9270,"Î¿Î¹ÏģÎµÎł":9271,"ĠÎ·ÏģÏī":9272,"ĠÏįÎ¿Î¼ÏĥÎ¹ÏĦÎ¹Î»Î¿Îł":9273,"ĠÎ¹Î±ÏĦÎµÎ¶Î¯ÏĥÎ±Î²":9274,"Î±Î»Î»Îµ":9275,"ÏģÎµÎ¼ÎĹ":9276,"94":9277,"ÏİÎ§":9278,"ĠÏīÎ½Î¬Îł":9279,"ĠÏĤÎµÎ¯ÏĦÎ±Î¼Î»ÎµÎ³Î³Î±ÏĢÎµ":9280,"ĠÏĤÎ®Î»ÏħÎ¿ÎĴ":9281,"Î¿Î»Î»":9282,"Î¹Î¼ÏĮ":9283,"Î¿Î¹Î»ÏĮÏĩÏĥ":9284,"poruE":9285,"NO":9286,"ÏįÎ»Î±Î¹Î´":9287,"ĠÎ¹Î±Î¼Î¿Î½":9288,"Ġera":9289,"Î¾ÏħÏģÎĴ":9290,"Î»Î®Î½Î±":9291,"Î»Î»Î±Îļ":9292,"ĠÎ±Î¼ÏĥÎ¹ÏĨÎ®ÏĪ":9293,"ĠÎ·ÏĥÎ·ÏģÎ®ÏĦÎ±Î¹Î´":9294,"ÏĥÎ¬ÎºÎµ":9295,"Î¿Î¾":9296,"ĠÎ¹ÎµÏĥÎ®ÏĦÎºÎ¿ÏĢÎ±":9297,"Î½ÏģÎ±":9298,"ĠÏĤÎ±ÏģÎŃÎ¼Î·":9299,"Î±ÏĩÎ¹Îľ":9300,"ÏĤÎ±Î¯ÎµÎ´Î¹Î±Îł":9301,"ÎŃÎ³Î·":9302,"ĠÎ±Î¹ÏģÎ®ÏĦÎ¹ÏģÎº":9303,"ĠÎ£ÎŁÎ¤":9304,"Î¸Î¬ÏĦÏĥ":9305,"ÏĤÏħÎ¿ÎŃÏģÏĩ":9306,"ĠÏĤÎµÎŃÎĿ":9307,"ÏħÎµÎ½Îł":9308,"ÏĤÎ±Î¯Î½ÏīÎ½Î¹Î¿Îº":9309,"ÏĮÎ»Î±Îº":9310,"Î¹Î±ÏĩÏģÎ±":9311,"ÎµÎĴ":9312,"ÏĤÎŃÏĢÎ¿Îº":9313,"Î£ÎĳÎ¡":9314,"ĠÎ¹ÎµÎºÏĥÎ¯ÏģÎ²":9315,"Î²Î·ÏĨÎµ":9316,"ĠÏĤÎ·Î½ÎµÎ¼":9317,"ĠÏħÎ¿Î¯ÎµÎ»":9318,"Î¹Î¿Î½ÎĨ":9319,"Î¯Î¿ÏĦÏĥ":9320,"Î¹ÏĨÎ¿Î¼Î·Î´":9321,"Ġega":9322,"ĠÎµÎ³ÏħÏĨÎŃ":9323,"ypoC":9324,"ĠÎ¯Î¿Î³":9325,"tlu":9326,"Î·ÏĥÎ·ÏĦÏģÎ¬Î½Î±":9327,"ĠÏĤÎ·ÏĦÎ®ÏģÎļ":9328,"Î¸Î±Ïģ":9329,"ĠÎ±Î¯ÏĥÎ±Î¼Î¿Î½Î¿":9330,"Î®ÎºÎ¹ÏĥÏħÎ¿Î¼":9331,"ÏħÎºÎŃÎ¿ÏģÏĢ":9332,"ÏĩÎķ":9333,"ĠÎ½Î±ÎºÎ·Î¸Î®ÏĦ":9334,"Î¿ÏĦÎ¿Î½Î¹Î±Îº":9335,"ÏħÎ¿Î»Î»Î¬":9336,"ĠÎ¯ÎµÏĢ":9337,"Î³ÏīÎ³Î±Î¾Îµ":9338,"Î±Î¹Î´Î±":9339,"Î±Î¹ÎµÎ³ÏģÎŃÎ½Îµ":9340,"Î¯Î¿Î»":9341,"ÏĤÎ·ÏĥÎµÎ¸":9342,"ĠÏĤÎ¿Ïĥ":9343,"Ġli":9344,"ĠÎ¹Î±ÏĦÎ½Î¿ÏĨÎ¬ÏģÎ³":9345,"Î±Î»ÏĮÎºÎ¹ÎĿ":9346,"ĠÎ½ÏįÎ¿Î³ÏģÏħÎ¿Î¹Î¼Î·Î´":9347,"ÏĦÏħÎ±Î¤":9348,"ĠÎ±ÏģÏĦÎ½ÎŃÎº":9349,"ÏĨÏħÏģÎº":9350,"Î½ÏİÎ¹Î´Î¹Î±ÏĢ":9351,"ĠÎķÎĶ":9352,"buT":9353,"ĠÏĤÎ®ÏĦÎ½ÏħÎ¸ÏħÎµÎ¹Î´":9354,"Î½ÏīÎ½ÎŃÎ¼Î¿Î´ÎµÎ´":9355,"ĠÏģÏĮÎºÎµÏģ":9356,"Î§Î¡Îĳ":9357,"ÎµÎ¼Î·":9358,"Î¿Î½Î¹Î±ÏĨ":9359,"Î´Î½Î±Î¾ÎµÎ»Îĳ":9360,"ĠÏĤÎ¿Î»Î¯ÏĨ":9361,"ÏįÎ¿Î²Î¼ÏħÎ£":9362,"ÏīÏģÏĦÎ½ÎµÎºÎ³ÏħÏĥ":9363,"ÏģÎ¹ÎµÏĩÎ¹ÏĢÎķ":9364,"ĠÎ¹Î¿Î½Î¯ÎµÎºÎµ":9365,"Î¹Î¿ÏĢÎ¿Î´Î¹ÎµÎ¿ÏģÏĢ":9366,"ÏĦÎ¹ÏĦ":9367,"Î¬ÎĿ":9368,"ÏĤÎ±Î¹ÎµÎ³ÏģÎŃÎ½Îµ":9369,"ÏīÎ½Îµ":9370,"Î¹ÏģÎ·ÏĦ":9371,"ĠÏĤÎ¿ÏĩÏģÎ±Î¼Î®ÎĶ":9372,"ĠÎ¬Î»Î·ÏĪ":9373,"ĠÎ¬Î½Î¹":9374,"ĠÎ·Î¾ÏħÏģÎ®Îº":9375,"Î²ÎµÎ£":9376,"ÏĨÎ¿ÏģÏĦÎ½ÏįÏĥ":9377,"Î¹ÎµÎ»Î¯ÏĥÎ±ÎĴ":9378,"ĠÎ½ÏħÎ¿ÏįÎµÏĦÏĥÎ¹ÏĢ":9379,"Î½Î¿Î½Î±Îļ":9380,"ĠÎ¿Î½Î¹ÏĢÏİÏģÎ¸Î½Î±":9381,"ĠÏĤÎ¿ÏĦÎ±Î¼ÏİÏĥ":9382,"ĠÎ¬Î»ÏĢÎĳ":9383,"ĠÎ®ÎºÎ¹Î»Î¿Î½ÏħÏĥ":9384,"Ġeu":9385,"Î¿Î»Î¿Îļ":9386,"Î¬Î¼Î±ÏĦÏĥ":9387,"ĠÎĻÎķÎ¤":9388,"ÎºÎ¹Î´Î±ÏĦÎ±Îº":9389,"ÎºÎŃÏĢÎ±":9390,"ÏĮÎºÎ¹ÏĦÏĥ":9391,"ÎºÎ±ÏĨ":9392,"!Â»":9393,"Î¿Î¼Î±Ïĩ":9394,"ÏįÎµÎ´Î¹Î¾Î±ÏĦ":9395,"ĠÎµÎ¼Î±Ïģ":9396,"ĠÎ½Î±ÏĦÏĮÎ½Î¹Î³":9397,"ĠÎ¿Î½ÎŃÎ¼Î¼":9398,"Î»Î¹Î¦":9399,"ĠÎ±Î¼ÏįÎµÎ½ÏĢ":9400,"Î¯ÏģÏģÎ¿ÏĢÎ±":9401,"Î½ÎµÎ´Î·Î¼":9402,"Î±Î¼ÏĥÎ¹Ïģ":9403,"ĠÎ¹ÎµÎ½Î¯Î±ÏĢÎ¼":9404,"ÏĥÏĮÎ¼ÏģÎ±ÏĨÎµ":9405,"ĠÎ·Î½Î¬":9406,"Î½Î±Î¼Î·Î£":9407,"ĠÎ¹ÎµÎ¶Î¬ÏģÏĨÎºÎµ":9408,"Î½ÎµÎ¸ÏħÎ¿ÏĢ":9409,"ĠÏģÎµÏĦÏĥ":9410,"ĠÎ±Î¯Î½Î¿ÏĨÎ¿Î»Î¿Î´":9411,"ĠÏĮÎ½Î¹ÏģÎµÎ¼Î·Ïĥ":9412,"ĠÏĤÎ±Î¹ÎµÎ½ÎŃÎ³Î¿ÎºÎ¹Î¿":9413,"ĠÎ¹ÎµÎ¾Î¯Î±ÏĢ":9414,"ĠÏĤÏīÎµÏĥÎ®":9415,"Î±Î¼ÏİÏģÏĩ":9416,"Î¿ÏģÎ·Î´":9417,"Î¬ÏģÎĻ":9418,"Î¶Î±Îļ":9419,"Î³Î²ÎŃ":9420,"ĠÏĤÎ¬Î¹Î»":9421,"ÏĤÏįÎ¿ÎºÎ¹":9422,"ÏģÎµÏĢÎ¼ÏħÏĥ":9423,"ĠÎ·Î³Î¯Î»":9424,"ĠÎ½ÏīÏģÎ¬":9425,"Î¹ÎµÏģÎµÏĨÎ¹ÏģÎµÎł":9426,"ÏĦÏĥÎ¹ÏģÎ¹ÎµÏĩÎ±Î¹Î´":9427,"Î©Î¡Îł":9428,"ÎµÏĦÏĥÏī":9429,"Î¾ÎŃÎ»Î¹ÏĢÎķ":9430,"ĠÏĮÎºÎ¹ÏĦÏīÎ¹Î´Î¹":9431,"ÏħÎ¿ÏģÎº":9432,"ĠÎ±ÏĦÎ·Î½Î¯ÎºÎ¿ÏĦÏħÎ±":9433,"Î·ÏģÎ·ÏĦÎ½ÏħÏĥ":9434,"Î¹Î±Î¹Î´Î¹":9435,"ĠÎ·Î½ÏĮÎ¸Î¿":9436,"Î±ÏĦÎ±ÏĢÎ¼":9437,"Î¬Î½ÏħÎĶ":9438,"Î»ÎµÏĢ":9439,"ĠÏĤÏĮÎ³Î·Î´Î¿":9440,"ĠÎ±Î¯Î±Î´":9441,"Ġlaico":9442,"Ġ63":9443,"ÏĢÏįÎ»Î±Îº":9444,"Î¸ÏįÎ¼Î±ÏģÎ±ÏĢ":9445,"ÏħÎµÏĥÎ¿ÏģÏĢ":9446,"ĠÎ®ÎºÎ¹ÏģÎµÏĦÏīÏĥÎµ":9447,"ĠÎ·ÏĥÏīÎŃÏģÏĩÎ¿ÏĢÏħ":9448,"Î±Î»Î»":9449,"ÏĢÎ¿ÏĢ":9450,"ÏħÎ¿Î³ÏĮÎ»":9451,"ÎļÎĻÎŁ":9452,"ÏħÎ¿Î¯ÏģÎ²":9453,"ĠÎ¹Î±ÏĦÎµÎ¶Î¬Î¼Î¿Î½Î¿":9454,"ÏīÏģÎ®Î»ÏĢÎ¼ÏħÏĥ":9455,"ĠÎ¹Î¶ÎŃÏĢÎ±ÏģÏĦ":9456,"ĠÏĤÎŃÎºÎ¹ÏĢÎ¿ÏĦ":9457,"ÎĳÎĻÎĵ":9458,"Î±Î½ÏħÎĶ":9459,"ĠÏįÎ¿Î¹Î´Î¹Î±ÏĢ":9460,"Î±Î½ÎŃÎ¼Î¿Î´ÎµÎ´":9461,"ĠÏĤÎµÎ¯ÏĥÏħÎ¿":9462,"Î¿ÏĢÏīÏĥÏĮÏģÏĢ":9463,"ĠÎ½ÏħÎ¿Î½ÎŃÎ¼Î¹ÏģÎµÏĢ":9464,"ÏħÎµÎ»ÏħÎ¿Î²Î¿Î½Î¹Î¿Îº":9465,"ÎºÏħÏĢ":9466,"Î¯ÏĦÎ±Î¹Î³":9467,"ĠÎ±ÏģÎŃÎ¹ÏģÎ±Îº":9468,"Î½Î¿Î»ÎºÎ³ÏħÏĥ":9469,"ĠÏĤÎµÏģÎµÏĦÏĮÎ¹Î±Î»Î±Îł":9470,"ĠÎ®ÎºÎ¹Î¼Î±Î½ÏħÎ´":9471,"ĠÎ¹ÎµÏĥÏİÏģÎ·Î»ÏĢ":9472,"Î¬ÏģÏĢÎľ":9473,"Î³ÏģÎĪ":9474,"ĠÏĤÎ¿Î½ÎŃÎ¼ÏĥÎ¹":9475,"ÎºÎ±Î½":9476,"Î±Î¹Î½Î·Î¼":9477,"ĠÎ¿Î»Î·Î»Î»Î¬ÏĦÎ±Îº":9478,"ĠÏĮÏĦÏĥÏīÏĥ":9479,"Î±Î¸ÎµÏĢ":9480,"Î½ÎµÎľ":9481,"ÎĿÎŁÎ¡Î§":9482,"Î»Î»ÎŃÎ¾ÏħÏģÎĴ":9483,"Î±Î¯ÏĥÎ±ÎºÎ¹Î´Î±Î¹Î´":9484,"ÏĩÏįÎ¿Î¹Î±ÎºÎ¹Î´":9485,"Î·ÏĥÏħÎµÎ´Î¯Î±ÏĢÎºÎµ":9486,"ĠÎµÏĦÎµÎ½":9487,"Î¯Î¼Î·":9488,"ĠÏĤÎ±Î¹ÎµÎ»Î¬ÏĨÏĥÎ±":9489,"Î·ÏĨÎ¯ÏģÎµÏĢ":9490,"noC":9491,"ĠÏĤÏħÎ¿ÏģÏĮÏĨ":9492,"Î¶ÏħÎĴ":9493,"Î¹ÏģÏĦÎ¯Îº":9494,"Ġsne":9495,"ĠÎ¹Î±ÏĦÎµÎ´Î¯Î´":9496,"ĠÎ½ÏĮÎ½Î±Î¸Î¹ÏĢ":9497,"ĠÎ±ÏĥÏįÎ¿ÏģÎ±ÏĢ":9498,"ĠÏĤÎ¹ÎµÎ½Î¯":9499,"Î¸Î®Î¼Î¿ÏģÏĢ":9500,"ÏģÎµÎ´Î¹ÏĢÎµ":9501,"ĠÎ¹ÎµÎ¸Î¬Î¼":9502,"ĠÎ·ÏĥÎµÎ¸ÎºÎĪ":9503,"ĠÎ±ÏģÎ¿Î½ÏįÏĥ":9504,"ny":9505,"Î¹ÎµÏĦÎ¿ÎºÏĥ":9506,"Î±Î¼Î¹ÎºÎ¿Î´":9507,"roW":9508,"ĠÎ±Î¯Î»Î¹ÎºÎ¹Î¿ÏĢ":9509,"ĠÏĤÎµÎ³ÏħÏĨÏĥÏĮÏģÏĢ":9510,"ÏħÎ¿Ïĩ":9511,"ĠÎ¿ÏĢÎ¹Î¿Î»ÏĮÏĢÏħ":9512,"ÎµÎ¾Î¿Î»Î¹ÏĨ":9513,"tca":9514,"76":9515,"ĠÎ¿ÏĦÎ·ÏĦÎ¯Î±ÏģÎ±ÏĢÎ±":9516,"Î¯Î¿ÏĢÎµÏĢ":9517,"ĠÎµÎ¼Î±Î»":9518,"Î¯ÏģÏĢ":9519,"ÎºÎ·Ïģ":9520,"ĠÏħÎ¿Î¼ÏĮÏģÎ´":9521,"Î´Î½Î¬Î¾ÎµÎ»Îĳ":9522,"Î¯Î´Î½Î¿ÎĽ":9523,"ĠÎ·ÏĥÎ·ÏĦÎŃÎ¸Î¿ÏĢÎ¿ÏĦ":9524,"ĠÎ¹ÎµÎ¶Î¯Î½Î¿ÏĦ":9525,"ÏħÎ»Î¯ÏĢÎµ":9526,"Î¤ÎĿÎĶ":9527,"ĠÏĮÎºÎ¹ÏĦÎµÎ¸":9528,"ÏģÏĮÎ³Î±ÏĢÎ±":9529,"Î»ÎµÎ´Î±":9530,"ÏĢÎ¼ÏħÎ¿Îº":9531,"noc":9532,"ĠÎ»Î¯ÏĨ":9533,"ÏįÏģÎ´ÎĻ":9534,"ĠÎ®ÎºÎ¹ÏģÏĦÎ±Î¹":9535,"ÏĤÎ·Ïģ":9536,"Î³ÎµÎ»Î¹ÏĢÎµ":9537,"rP":9538,"ĠÎµÏĥÎ·ÏĦÎ½Î¬ÏĢÎ±":9539,"rT":9540,"ÏħÎµÏģÎķ":9541,"Î¯ÏĨÎ·ÏĪÎ¿ÏĢÏħ":9542,"ÏħÎ¿Î¯ÏģÎ²ÏīÏĦÎºÎŁ":9543,"ÏĩÏĥÎ¬ÏĢ":9544,"ĠÎ·ÏĦÏİÏģÎł":9545,"ĠÎ¹ÎµÎ»Î¬Î³Î²":9546,"ĠÎ®ÏĩÎ¿ÏĦÎ±Îº":9547,"ĠÎ±ÏģÎµÏĦÏįÎ»Î±Î³ÎµÎ¼":9548,"ÏĤÎµÎºÎ®Î¸Î½ÏħÏĥ":9549,"ÎºÏĮÎļ":9550,"ĠÏĤÎ·ÏĦÏĥ":9551,"ĠÎ¹Î±ÏĦÎ½Î¿ÏĩÏģÎŃÎ¿ÏģÏĢ":9552,"ĠÎ®ÏĥÏħÏģÎ§":9553,"Î³Î¹Î±ÏĦÎ±Îº":9554,"Î¹Î³Î±ÎºÏģÏħÏĢ":9555,"Î½Î¹ÏģÎ¹Î±ÎºÎ¿Î»Î±Îº":9556,"ĠÎ¹ÎµÏįÎµÏĦÏĥÎ¹ÏĢ":9557,"ĠÏĤÎ±Î¯Î²":9558,"ĠÏĤÎ¿ÏĦÎ±Î¼Î®ÏĦ":9559,"Î·ÏĪÏħ":9560,"ÎµÎ»ÏĮÎł":9561,"ÏĤÎ±Î¯Î¼Î¿Î½Î¿ÎºÎ¹Î¿":9562,"Î³Î±Î¹Î³":9563,"Î¬ÎºÎ¹ÏĦÏĥ":9564,"ÏĤÏīÏĨ":9565,"ÏģÎ±ÏĢÎ±":9566,"Î±Î¹Î¿Î½":9567,"Î½ÏģÎµÏĦ":9568,"ĠÏĤÎ¹ÎµÏĥÏİÎ½Î³":9569,"ĠÎ·ÏĥÎµÎ¸Î¬ÏĦÎ±Îº":9570,"ÏħÎ¿Î»Î³":9571,"Î¬Î¹Î±ÏģÎ¹ÎµÎł":9572,"ÏħÎ¿Î¯Î½ÏħÎ¿ÎĻ":9573,"ĠÏĤÎŃÎºÎ¹ÏĦÎµÏĩÏĥ":9574,"ĠÏĤÎµÎ½ÏįÎ¸ÏħÎµ":9575,"ĠÎ·ÏĦÎ¯Î»Î¿ÏĢ":9576,"ÏģÏįÎ¼Î£":9577,"Î·Î¸ÏĥÎ¹":9578,"Î®Î»ÎºÎ³Îµ":9579,"ÏĤÏįÎ¿Î¼ÏĥÎ¹":9580,"Î±Î¼Î¹Î¿ÏĦÎµÎ¿ÏģÏĢ":9581,"Î¯ÎµÎ»Î»Îµ":9582,"Î²ÏĮÎº":9583,"Î½ÏĩÎ¹Î±Îł":9584,"ĠÏħÎ¿Î¼Î®Î´":9585,"ĠÎ¿Î½ÏīÏĨÎŃÎ»Î·ÏĦ":9586,"ĠÎ¹ÎµÎ»Î¯ÎµÏĨÎ¿":9587,"rgatsnI":9588,"Î±Î¹Î´Î¿ÏģÏĢ":9589,"Î¹ÏĥÏĦÎ±Ïģ":9590,"Î·Î¹Î¿ÏĢÎ¿ÏĦÏĥÎ¹ÏĢ":9591,"ÏĩÏĥÏĮÏĢÏħ":9592,"ÎŃÏĢÎľ":9593,"ÎĳÎķ":9594,"ÎĻÎ¡Î¥Îļ":9595,"ÏĩÏīÏĦÏĨ":9596,"ÎŃÎ¼Î±":9597,"ÏħÏģÎ´ÎĬ":9598,"ÏħÏĨÎŃÎ³":9599,"Î®ÏĩÎ¿ÏĢÎµ":9600,"ĠÎ¿Î¹ÏĥÏĮÎ¼Î·ÎĶ":9601,"ĠÏĤÎ±ÏĥÏħÎ¿":9602,"Î½Î¿Î¼ÏģÎ±":9603,"ĠÎ¹ÎµÎ½ÏİÎ½Î±Î³ÏģÎ¿Î¹Î´":9604,"ĠÏĤÎ¹ÎµÏĥÎ®ÏĦÎ·Î¶ÏħÏĥ":9605,"ĠÎ¿Î¹ÏĦÎ¬Î¼ÏīÎ´":9606,"ĠÎµÎ½Î±Î¼Î®":9607,"ĠÎµÎ¼ÏħÎ¿Î½ÎŃÎ¼Î¹ÏģÎµÏĢ":9608,"ĠÎŁÎļ":9609,"ĠÎ±Î¼ÏĥÎ¬":9610,"ĠÏĤÎ¹ÎµÏĢ":9611,"ĠÏĤÎ·ÏĥÎ·Î¸":9612,"ĠÎ®ÏĦÏĥÎ¹Î³Î¿Î»Î¿ÏĢÏħ":9613,"ĠÎ±ÎºÎ·ÏĦ":9614,"ĠÏĮÎ¼ÏĥÎ±Î¹Î´ÎµÏĩÏĥ":9615,"ĠÏĤÎ®ÏĥÏħÏģÎ§":9616,"uorgoruE":9617,"ĠÎ¹Î±ÏĦÎ¯ÎµÎ½Î¹Îº":9618,"ĠÏĤÎµÏģÏĦÎ½Î¬":9619,"ĠÎ¯ÎµÏģÎ·ÏĦÎ±Î¹Î´":9620,"ĠÎ±ÏģÏĮÏĨ":9621,"Î½Î¿ÏĦÎºÎ¿ÏĦÏħÎ±":9622,"ÏĤÎŃÏĢÎ¿ÎºÎ±Î¹Î´":9623,"ĠÎ¹ÎµÏĥÎ¯ÏĢÏīÏĦÎµÎ¼Î¹ÏĦÎ½Î±":9624,"ĠÏĤÏĮÎºÏĬÎ±Î½Î·Î¸Î±Î½Î±Îł":9625,"ĠÏĤÎŃÎ»ÏħÎ¿Î²Î¼ÏħÏĥ":9626,"ĠÏĤÎ±ÏĦÎ½":9627,"Ġbu":9628,"ĠÎ½Î±ÏģÎŃÏĢ":9629,"ÎºÏģÎ±Ïĥ":9630,"ĠÏĮÎºÎ¹Î½Î±Î´Î¹":9631,"Î½Î¿Îł":9632,"Î»ÎµÎ³Î³Î±ÏĥÎ¹Îķ":9633,"Ġsser":9634,"ÏĥÎ±ÏĩÎŃ":9635,"Î¿Î¹ÎµÏģÎ¿Î²":9636,"ĠÏĤÎ®ÎºÎ¹ÏĦÎ¹Î»Î¿Îł":9637,"eH":9638,"ĠÎ¹ÎµÎ½Î¬Ïĩ":9639,"Ġá¼":9640,"Î¬Î¼Î¿ÏĦÎ½":9641,"ĠÎ±Î½ÎµÎ¼Î¯ÎµÎºÎ¹ÏĦÎ½Î±":9642,"ĠÎ¹Î±ÏĦÎ½Î¿Îº":9643,"ĠÏĤÎµÏĦÎŃÎ»ÎµÎ¼":9644,"ĠÎ¬ÎºÎ¹Î½ÏĨÎ±Î¾":9645,"ÏģÎµÎ¼Î·Î½Îķ":9646,"ĠÎ±ÎŃÏĦ":9647,"Î¿Î½Î±Ïĩ":9648,"ÏīÏĩÎ±Î¹Î´":9649,"Î±Î¹ÏĥÏĦ":9650,"ÏħÎ»Îĵ":9651,"Î¯ÏĢÎ£":9652,"Î¾Î¿Î´Î¿Î¹":9653,"ĠÎ½ÏİÎ¹ÏĦÎ±Î¼":9654,"Î±ÏģÎŃÎ±":9655,"ĠÏįÎ¿Î¼ÏĥÎ±":9656,"Î·Î¼ÏĮÎºÎ±":9657,"Î±ÏĩÎ¿ÏģÏĦ":9658,"Î½ÎµÎ¸ÏħÎ±":9659,"ÎĳÎ¡Î¤":9660,"ĠÎ½ÏİÎ´Î¹Îµ":9661,"Î¹Î¿Îļ":9662,"ÎµÏģÎµÏĦÎ£":9663,"ĠÏĤÎ¿ÏĦÎ±Î¼Î®Î¼ÏĦ":9664,"ÏĥÎŃÎĽ":9665,"ĠÎ·ÏĥÎµÎ»ÎŃÏĦÎºÎµ":9666,"ÏĢÏħÏĦÎ¿ÏĢÎ±":9667,"ĠthgirypoC":9668,"ĠÎ·ÏĥÎ·Î³Î®ÏģÎ¿Ïĩ":9669,"ÏģÎµÎĵ":9670,"Î¹ÏģÎºÎ±Î¹Î´":9671,"ĠÎ±Î»Î±":9672,"Î½ÏĮÏĦÏħÎ±":9673,"Î¾Î±Îľ":9674,"ĠÏĮÎ¹Î»Î±ÏĢ":9675,"ĠÎ±Î´Î¯Î»ÎµÎ£":9676,"Î·Î»Î¸Î±ÏĦÏīÏģÏĢ":9677,"ÏģÎ±Î¸":9678,"Î·ÏĥÎ®ÏģÏĩ":9679,"Î¬Î¹ÏģÏħÎļ":9680,"ĠÎ½Î±ÏĦÎ·":9681,"ÎµÏĥÏī":9682,"ÏįÎµÏģÎµ":9683,"ĠÎ½ÏħÎ¿ÏĩÎŃÎ¹ÏģÎµÏĢ":9684,"Ġsnoi":9685,"ĠÎ¯Î¿Î»":9686,"vir":9687,"Î±ÏĦÎ½Î±Î¦":9688,"ĠÏģÎ¬":9689,"ĠÏĤÎ±ÏĦÎ·ÏĦÏĮÎºÎ¹ÏĦ":9690,"ĠÎ¯ÎµÏģÎ¿ÏĨÎ¿Î»ÎºÏħÎº":9691,"Î¿ÏĢÏĥ":9692,"__":9693,"Î³ÏģÎµÎ½Î¬":9694,"ĠÎ¿Î½Î¹ÏĥÎ¬ÏģÏĢ":9695,"ĠletoH":9696,"ĠÎ¹ÎµÏĥÎŃÎ»ÎµÏĦÎ¿ÏĢÎ±":9697,"Î½Î¿ÏģÏĩÎ³ÏħÏĥ":9698,"ĠÎ±Î´Î¿Î¾ÎŃ":9699,"row":9700,"Î¹ÏģÏİÏĩ":9701,"ĠÏĤÎŃÎ»Î»Î¿Îł":9702,"ĠÎ½ÏīÎºÎ¯Î¿ÏĦÎ±Îº":9703,"ĠÏħÎ¿ÏĨ":9704,"ĠÎ®ÎºÏĬÎ±Î»":9705,"ĠÎ±Î¯ÏĥÎ·Î»ÎºÎºÎµ":9706,"Î¶Î±Î½":9707,"ĠÎ¹Î±ÏĦÎµÎŃÎ´Î½ÏħÏĥ":9708,"Î¹ÎµÏĥÎ¯":9709,"ĠÎŁÎļÎĻ":9710,"ÏĢÏĥÎ¿ÏĢÎ±":9711,"Î·Î½ÏĮ":9712,"ĠÏĤÎ¹ÎµÏĢÎŃÎ»Î²":9713,"ÏįÎµÎĶ":9714,"ĠÎ¹Î¿ÏģÎµÏĦ":9715,"ĠÏĤÎ®Î¼Î³Î¹ÏĦÏĥ":9716,"Î½Î¿ÏĢÎ¿Î»ÎµÎł":9717,"ÏĮÏĨÎ¿Î»ÎºÏħÎº":9718,"Î±Î¾ÎµÎ¹Î´":9719,"ĠÎ¯Î¿ÎºÎ¹ÏĦÎ¹Î»Î¿ÏĢ":9720,"ÏĤÏİÏĩÏħÏĦÏĥ":9721,"eS":9722,"ÏĤÎ¹ÎµÏĥÏĮÎ´":9723,"ÏīÎ´Î¹Îµ":9724,"ĠÏįÎ¿ÎºÏĬÎ±ÏĢÏīÏģÏħÎķ":9725,"ĠÎĹÎľ":9726,"ĠÎ¹ÎµÏĨÎŃÏģÏĦÏĥÎ¹ÏĢÎµ":9727,"ĠÏīÎ½Ïİ":9728,"ÎŃÎ¸Î±ÏĦÎ±Îº":9729,"ĠÏĤÎ¯ÏģÏīÎ½":9730,"Î»ÎµÏĢÎ¼":9731,"Î½ÏħÎ¿Î¶":9732,"Î³ÏĮÎ»Î»ÏħÏĥ":9733,"ÏħÎºÎ³ÎĨ":9734,"ÏĨÎŃÎºÏĥÎ¹ÏĢÎµ":9735,"Î¿ÏħÏĦÎºÎ¯Î´Î±Î¹Î´":9736,"Îĩ":9737,"Î¹ÏģÎ¬Î¸Î±Îº":9738,"ĠÎ¿ÏĢÏħÏĦÏĮ":9739,"ĠÎ·ÏĥÎ¹Î³Î³ÎŃÏĥÎ¿ÏģÏĢ":9740,"enilno":9741,"ÏģÏĮÏĢÎ±":9742,"ÏĤÎ¿ÏģÎŃÎ¼":9743,"Î¬Î¦":9744,"ĠÎ½ÏīÏĥÎŃÎ¼":9745,"ĠÏĤÏįÎ¿Î½Î¸ÎµÎ¹ÎĶ":9746,"Î¬Î»Î¿ÎºÎ¹ÎĿ":9747,"ĠÎ·ÏĥÎ±ÏĨÎ¼ÎŃ":9748,"ĠÏĤÏīÎ¯Î´Î¹":9749,"Î¹Î±Î´":9750,"ÏĢÎ±Îļ":9751,"ÏħÎ³Î·Î½Î±ÏĢ":9752,"Î±Î»ÎŃÏģÏĦ":9753,"Î·ÏĩÎ¿":9754,"ĠÏĤÎ·ÏĥÎ·Î¼":9755,"ÎŃÎ»Î¹ÏĢÎµ":9756,"ÏįÎ¿ÏĥÏĦ":9757,"ÏįÏĢÎ£":9758,"Î¹Î²Î¼ÏħÏĥ":9759,"Î¿Î½Î¹ÏĦÎºÎ±":9760,"ĠÎ·ÏĥÎ·Î½ÏģÎŃÎ²ÏħÎļ":9761,"ĠÎ¬Î¹Î±ÏģÎ¹ÎµÎł":9762,"66":9763,"Î»ÏħÎ¿Î´":9764,"Î¿ÏĦÏģÎ±Ïĩ":9765,"ĠÏĤÎµÏģÎµÏĦÏĮÎµÎĿ":9766,"Î½ÎŃÎ²ÏħÎ¿Îº":9767,"Î±ÎĶ":9768,"ĠÎ½ÏħÎ¿ÏĢÎ¼":9769,"ĠÎ¹ÎµÏĦÏĢÏįÎ»Î±Îº":9770,"ÏħÎ½Î·Î¼":9771,"ĠÎµÏĥÏįÎ¿Î½":9772,"ĠÎ½Î±ÏĢÎ¯Îµ":9773,"Î·ÏĦÏģÎ¬ÏĦÎµÎ¤":9774,"ÏįÎ¿Î»Î¿Îº":9775,"ĠÎµÏĥÎ·Î³ÏģÏįÎ¿Î¹Î¼Î·Î´":9776,"Ġ051":9777,"ĠÎŃÏĥ":9778,"Î¬Î¼ÏħÎ±Î¸":9779,"ÏįÎ¿Î»ÏħÎ¿Î»":9780,"Î®Î»Î»Î±ÏĢÏħ":9781,"Î»ÎºÏħÎº":9782,"Î¯ÏģÎ±Îľ":9783,"Î²Î¼ÏįÎ£":9784,"ĠÎ±T":9785,"Î·Î¸ÏĨÎ®Î»Îµ":9786,"ĠÎ¹ÎºÎ¬ÏĦ":9787,"ĠÏĤÎ¹ÎµÎ¾Î¬ÏĦÎ½ÏħÏĥ":9788,"Î³Î·ÏĦÎ±ÏģÏĦÎ£":9789,"ĠÎ±Î¼ÎµÏģ":9790,"ÏĦÏĥÎ±ÏħÎµÎºÏĥÎ±ÏĦÎ±Îº":9791,"ĠÎ±Î»Î±Îº":9792,"Î¾Î±ÏĦÎ½ÏħÏĥ":9793,"gna":9794,"ĠÏĤÎ¿ÏĦÎ±Î¼ÏĥÎ¯":9795,"Î·Î¼ÏįÎ¸":9796,"ĠÏĤÎ¿ÎºÎ¹":9797,"ÏĤÎ¬ÏģÎ¿ÏĨ":9798,"ĠÎ½ÏİÏĨ":9799,"Î¹ÎºÎµÎ¾":9800,"Î±Î¯ÏĥÏħÎ¿ÏģÎ±Îł":9801,"ÏĨÎ±ÏģÎ³Î³Îķ":9802,"Ġ)!":9803,"ÏĤÎ·Î´Î¯":9804,"ĠÎ¼Î»Ïĩ":9805,"ĠÎ½Î¹ÏĦ":9806,"Î¿ÏĩÎµÎ´Î½Îµ":9807,"ĠÎ¬ÎºÎ¹ÏĦÏĥÏħÎ¼":9808,"ĠÏħÎ¿ÏĦÎ¬Î½Î±Î¸":9809,"Î¹ÎºÎ¬Î»ÏħÏĨ":9810,"ĠÎµÎ¼ÏħÎ¿ÏĥÎ¯Ïģ":9811,"á½±":9812,"ĠÎĵ":9813,"ĠÎ½ÏĮÎ¹":9814,"ĠÏĤÏĮÎ»Î±Îº":9815,"ĠÎ±ÎºÎ³":9816,"ĠÎµÎ¼ÏħÎ¿ÏģÎ¬ÏĢ":9817,"Î´ÎµÎºÏĥÎ±Î¹Î´":9818,"Î»ÎŃÎ³Î³":9819,"Î¼Î¸Î±Î²":9820,"ece":9821,"85":9822,"Î±Î¼Î·Î´Î±ÎºÎ±":9823,"ÏĦÎŃÏĢÎ¹ÏģÎµÏĢ":9824,"Î´ÏħÎµÏĪ":9825,"ĠÎµÏĦÏĥÎ®ÏĦÎ±Îł":9826,"Î»ÏĢÎ¿":9827,"ĠÎ®Î½Î¿Î¼Î±ÏģÎ±ÏĢ":9828,"ĠÎµÏĦÏĥÎ®ÏĨÎĳ":9829,"Î¹ÏĦÏĥÎµÏĨ":9830,"ÏįÎ¿Î¶":9831,"Î³ÏįÎµÏĨÎ¿ÏĢÎ±":9832,"Î·Î¼Î¯ÏĦÎºÎµ":9833,"24":9834,"ĠÏĤÎµÎ¹ÎµÎ½ÎŃÎ³Î¿ÎºÎ¹Î¿":9835,"ĠÏĤÎµÎ¯ÏĦÎµÎ±ÎºÎµÎ´":9836,"ĠÎļÎķÎ¦":9837,"ĠÎ¿Î¯Î±ÏģÏī":9838,"ÎŃÏģÏħÎµ":9839,"ÏİÏĦÎ¿ÎºÏĥ":9840,"ÏħÎ±Îł":9841,"ĠÎµÏĦÎ¾ÎŃÎ»Î¹ÏĢÎķ":9842,"ĠÎ®ÏģÏħÏĩÏĥÎ¹":9843,"ÏĦÏĮÎºÏĥ":9844,"ĠÎ½ÏħÎ¿Î¶Î¯ÏĢÏīÏĦÎµÎ¼Î¹ÏĦÎ½Î±":9845,"ĠÎ®ÎºÎ¹ÏĥÎ±Î²":9846,"ĠÏīÏĦÎ¬Îļ":9847,"ĠÎ±ÏĦÎ·ÏĦÏĮÎ½Îµ":9848,"ÏįÎ½ÎºÎ¹ÎµÎ´Î±Î½Î±":9849,"OE":9850,"ĠÎµÎ¸Î»Î®":9851,"Î²ÎŃÏĥ":9852,"Î¹ÏģÎ¬Ïĩ":9853,"ĠÎ¬ÎºÎ¹Î´Î¹Îķ":9854,"Î»Î»Î¬Î²Î±ÏĦÎ±Îº":9855,"ÎĿÎĳÎļ":9856,"ĠÏĤÎŃÎºÎ¹Î½ÏĩÎµÏĦ":9857,"Î´ÎµÏĩÎ£":9858,"Î»Î¿ÎºÎ³":9859,"ĠÎµÏĥÎ¹ÎµÎ»ÎºÎŃ":9860,"ĠÎ®Î»Î¿Î²Î¿ÏĢÏħ":9861,"ĠÎ·ÏĥÎ±ÏĦÎŃÎ¾Îµ":9862,"ÎºÏĥÎ¹Ïģ":9863,"ĠÎ¿T":9864,"vivruS":9865,"ĠÏĤÎ·ÏĥÎ·ÏģÎ®ÏĦ":9866,"ĠÎ±Î¯ÏĥÎ±Î¼Î¹Î¿ÏĦÎµÎ¿ÏģÏĢ":9867,"ĠÎ±Î¯ÏĥÎµÏģÎ·ÏĢÎ¥":9868,"ĠÎ¹ÎµÏĥÎ®Î¸ÏħÎ¿Î»Î¿ÎºÎ±":9869,"ÎŃÎºÏĥÎ±Î¹Î´":9870,"Î¿Î¼Î¹Î±":9871,"ĠÎ¿Î¹Î±Î»Î¬ÏĨÎµÎº":9872,"Î¹Î´Î¿Î¼ÏģÎ±":9873,"eb":9874,"ÎĹÎķÎĶ":9875,"Î½ÏīÏĢ":9876,"ĠrepuS":9877,"Î¯Î±ÏĨÎ±":9878,"ĠÏĤÎ®Î»Î¿ÏĩÎ£":9879,"ÏħÎµÎ³":9880,"Î½Î±ÏĦÏĮ":9881,"Î·Î½ÏĩÎµÏĦ":9882,"ĠÎ·ÏĥÎµÎ¸Î½ÏįÏĥ":9883,"65":9884,"ĠÏĤÎ¹ÎµÏĥÏįÎ´Î½ÎµÏĢÎµ":9885,"ĠÎ®Î³ÏīÎ³Î±ÏĥÎ¹Îµ":9886,"ĠÎ·ÏĪÎ·Î»Î¬Î½Î±":9887,"ĠÎµÏĦÎ¿ÏĢÎ®Î´Ïĥ":9888,"ĠÎ®Î½Î±ÏĩÎ·Î¼":9889,"ĠÏĤÎŃÎ½Î¸ÎµÎ¹Î´":9890,"Î¿Î¹Î»Î¹Ïĩ":9891,"ĠÎ¹Î±ÏĦÎ½Î¿Î¶Î¯ÏĦÎµÏĩÏĥ":9892,"Î¼Î¯Î»":9893,"Î¯Î¼Î·Î¶":9894,"Î·ÏĦÏģÎ±Î¾ÎµÎ½Î±":9895,"Î®Îĸ":9896,"ĠÏĤÏĮÎ¹Î¿ÏĢÎ¿Î¸Î·":9897,"Î±ÏĦÎ½Î¬":9898,"Î·ÏĦÎºÎ±ÏģÎ±Î§":9899,"Î»Î±Î½Î±ÏĦÎ±Îº":9900,"Î½Î±Î¼Î¹Îº":9901,"Î³ÏįÏĨÎ¿ÏĢÎ±":9902,"Ġsei":9903,"ĠÏĤÎ¿ÏĦÎ±Î¼Î®":9904,"ĠÎ»ÎŃ":9905,"á¾":9906,"Î·ÏĥÎ±ÏģÏĮÎµÎ»Î·ÏĦ":9907,"Î²ÎµÏĦÎ±Îº":9908,"Î¯ÎµÎ»Îļ":9909,"ĠÎ¿Î³Î¯ÎĽ":9910,"ĠÎ®ÎºÎ±Îº":9911,"ÏįÎ¿Î¹Ïģ":9912,"Î»Î±ÏĢÎ±":9913,"ÏĥÎ±Îł":9914,"ĠÎ·ÏĥÎ±ÏĦÏĥÎ¬ÏĦÎ±ÎºÎ¿ÏĢÎ±":9915,"ÏĤÎ±ÎŃ":9916,"Î³ÎŃÏĦÏĥ":9917,"ĠÎ·ÏĥÎ·ÏĦÎ¬ÏģÎº":9918,"Î»ÎµÏĦÎ¹ÏĢÎµ":9919,"ÏĮÎ¼ÏĥÎ¹ÏĦ":9920,"ÎĿÎĻÎŁÎļ":9921,"ÏįÏģÎºÎ±Î¼Î¿ÏĢÎ±":9922,"ÏħÎ¿ÏĢÏİÏģÎ¸Î½Î±":9923,"ĠÎ¹ÎµÏģÎ¬":9924,"Î¯ÏģÎ´":9925,"ĠÎ·ÏĥÎ±ÏĦÏĥÎ¬ÏĦÎ±ÎºÎ³Îµ":9926,"Î¬Î½Î±Îĺ":9927,"fosor":9928,"Î½Î¬Î³Î¿ÏĦÎ½ÏģÎķ":9929,"ÎĻÎĳÎ¤":9930,"Î¿Î´Î¹ÏĢÎµ":9931,"ĠÎ¬ÏģÎµÎĻ":9932,"Î¬Î²Î¹ÏĢÎµ":9933,"Î½ÏħÎ¸ÏįÎµÎ¹ÎĶ":9934,"Î±Î¼ÏħÎ±Î¸":9935,"Î·Î»Î±Î»Î»ÏħÏĥ":9936,"Î»Î¹ÏĨÎ¿Î¼Î·Î´":9937,"ÏĨÎ¼Îĳ":9938,"Ġ33":9939,"ĠÎµÎºÎ·Î¸Î¬ÏĦÏĥ":9940,"ĠÎ±ÏĦÎ·ÏĦÏĮÎ½Î¹Î¿Îº":9941,"strops":9942,"ÏĤÎ·ÏĥÏħÎµ":9943,"ĠÎ·ÏĥÎµÎ¸ÏĮÏĢÏĭÎ¿ÏģÏĢ":9944,"ĠÏĤÎ®ÎºÎ±Î¹Îµ":9945,"ĠÎ¹Î±ÏĦÎµÎ½Î¯ÏģÎº":9946,"ÎµÎºÏĥÎ¯ÏĢÎµ":9947,"ĠÏĤÎ®ÏħÎµÎºÏĥÎ±ÏĦÎ±Îº":9948,"ĠÎ¹ÎµÏĦÏĢÏįÎ»Î±ÎºÎ¿ÏĢÎ±":9949,"eci":9950,"Î±Î¼ÏīÏĥÎ½Îµ":9951,"ua":9952,"ĠÏĤÎ·Î»ÏĮ":9953,"ÏĩÎŃÏģÎ±ÏĢ":9954,"Î¸ÏīÎ¿ÏģÏĢ":9955,"ÏģÎµÏĦÏĥÎŃ":9956,"ĠÏĮÏģÎ±Î²Î¿Ïĥ":9957,"Î³Î¬Îł":9958,"Î¬ÏĨÎµ":9959,"Î±ÏĨÏĥÏĮÏģÎł":9960,"Î¹Î±ÏĦÎµÎ½Î¯Î³":9961,"ÏĮÎ½Î¹Î¿Îº":9962,"evi":9963,"Ġswe":9964,"ĠÎ®ÏĥÎ¹":9965,"Î¬ÎºÎ¹Î»":9966,"ÏģÎµÎ¤":9967,"Î¸ÏģÎ¿Î¹Î´":9968,"ÏĦÏĥÎ±ÏģÏĨ":9969,"Î¿ÏĢÎ¼ÏħÏĥ":9970,"Î±ÏģÎ¿Î³Î®ÏģÎ³":9971,"ĠÏĤÎ¿Î¼ÎµÎ»ÏĮÏĢ":9972,"Î·Î¼Î±Î½ÏįÎ´":9973,"ÏįÎ¿ÎĽ":9974,"VT":9975,"ÏĩÎµÎ´Î¿ÏĢÎ±":9976,"ÏĮÏĨÎ¿ÏģÎ·Î»ÏĢ":9977,"Î¦ÎĳÎ¡Îĵ":9978,"ĠÏįÎ¿Î´":9979,"ĠÏĤÎ¹Î¿ÏĦ":9980,"ĠÏĤÎ·ÏĥÎ·Î³Î®":9981,"ĠÎ¯Î´":9982,"ĠÎ½Î®ÏĦ":9983,"ĠÏĤÎ±Î¯ÏĥÎ±ÎºÎ¹Î´Î±Î¹Î´":9984,"Î³Î·Î½ÏħÎº":9985,"ĠÎ½Î±ÏĥÎ·Î¯Î¿ÏĢ":9986,"Î²Ïħ":9987,"ÏĮÏĦÎ±Î¹ÏĦÏĥÎµ":9988,"ĠÎ·Î¾Î±ÏĦÎ½ÎŃ":9989,"ĠÎµÏĥÎµÏģ":9990,"ÏģÎŃÏĦÎ½Î¿Î¼":9991,"Î¿Î½ÏĢ":9992,"ĠÎ¹ÎµÎ½ÏİÎ¹ÎµÎ¼Î·Ïĥ":9993,"Î±Î¯ÏĩÏħÏĦÎ¹ÏĢÎµ":9994,"ĠÎ±Î¯Î³ÏģÎµÏĢÎ±":9995,"ĠÎ¹ÎµÏįÎµÏģ":9996,"ÏħÎµÎºÏĥÎ·ÏģÎĺ":9997,"ĠÏĤÏīÏĦÎ½Î¬Îł":9998,"ÏĮÎĴ":9999,"ĠÏĤÎ±Î¯ÏĦÎµÎ±ÎºÎµÎ´":10000,"ĠÎ±Î½Î¿Î¼":10001,"ÏĮÎ±Î»":10002,"ĠÎµÏĥÎ·ÏĦÏĥ":10003,"Î¼Î±ÏģÎ³ÎµÎ³":10004,"ĠÎ½ÏįÎ¿Îº":10005,"ÏĥÎ±Ïģ":10006,"ÏĩÎ¿ÏģÏĦ":10007,"##":10008,"ĠÎ±ÏģÏĦÏĥ":10009,"Î¿Î´ÏĮ":10010,"ĠÏĤÎ®Î»Î¿Î²Î¿ÏĢÏħ":10011,"Î½Î¹Î¿ÎºÎ±Î½Îĳ":10012,"Î¹ÎµÎ»Îļ":10013,"Î½Î±Î¹Î»":10014,"tni":10015,"gre":10016,"ĠÎ£ÎķÎ¤":10017,"Î¯ÎĴ":10018,"ĠÎ±ÏģÎ´":10019,"ĠÎ¹ÎºÎ¬Î»":10020,"Î¿ÏĥÏĥÎ¹":10021,"Î½ÎµÎ¼ÏħÎ¿ÎºÎ¹ÎŁ":10022,"wa":10023,"ĠÏĤÏįÎ¿ÎºÎ¹ÏĦÎ¹Î»Î¿ÏĢ":10024,"ĠÎ¾ÎµÏĥ":10025,"ÏĦÏĥÎ¹ÏģÎ±":10026,"Î»Î±Î³Î¿ÏĦ":10027,"ÏĨÎ±ÏģÏĦÏĥ":10028,"Ġke":10029,"ĠÎ·ÏĥÎ·Î´Î¯Îµ":10030,"ÎŃÎ±":10031,"ÏģÎµÏĢÎ¥":10032,"Î·ÏĦÎ®Î½Î±Î»ÏĢ":10033,"Î·ÏĦÏĢÎ¼ÎŃÎł":10034,"Î¹ÎµÎ»ÎŃ":10035,"ĠÏĤÎ¬ÏģÎ¹ÎµÏĥ":10036,"ĠÎ±Î¹Î½ÏĮÏģÎ§":10037,"Î¹ÎµÏĩÎ¹Î¿ÏĦÏĥ":10038,"ĠÎ¹Î¿ÏĦÏİÏģÏĢ":10039,"Î³ÏģÎµÎ½ÎµÎ¹Î´":10040,"Î·Î½Î³Î±Î¼":10041,"ĠÎ¬ÏĦÏĥÎ¹Î¸Î±Îº":10042,"dlo":10043,"ĠÎ¹ÎµÎ¶Î¯Î¾Îĳ":10044,"tohp":10045,"Î¹ÏĢÎľ":10046,"Î·Î»ÎºÎ¿Î»ÎŁ":10047,"Î·ÏĦÏīÏģÎµ":10048,"Î³Î±Î»Î»Î±ÏĢÎ±":10049,"ÏĩÎĳ":10050,"Î¿Î½Î·Î»Î»Îµ":10051,"Î½Î¿Ïĥ":10052,";;;":10053,"ÏĨÏģÎ¿Î¼ÎŃÎ½Î±ÏĢ":10054,"Ġ,).":10055,"ĠÎ¿Î¹ÏģÎ¯ÏĦÎº":10056,"ĠÎ±Î¹ÎµÏģÏĮÎ²":10057,"Î¿Î»Î»Î±":10058,"Î»ÎĨ":10059,"ĠÎ¹ÎµÏĪÎŃÏģÏĦÏĥÎ¹ÏĢÎµ":10060,"ĠÏĤÎ·Î½ÏĩÎŃÏĦ":10061,"ĠÎ·ÏĦÏİ":10062,"Î¹ÏĢÎŃ":10063,"ÏĥÎ±Ïĩ":10064,"95":10065,"Î¹ÏĥÎ¬ÏħÎŁ":10066,"ffo":10067,"Î³Î¿Î»Î»ÏįÏĥ":10068,"Î±ÏģÎ´Î±Î¹Î´":10069,"ÏģÎ¿ÏĢÎ¼Îķ":10070,"ĠÎ±ÏĦÎ¹ÎµÏĢ":10071,"ĠÎ¹Î¿ÏĢÏĮÏģÏĦ":10072,"ĠÎ¿Î¯ÎµÎ²Î±ÏģÎ²":10073,"ÏĩÎ¿Î´":10074,"ÏħÎ¿ÏĦÎ®ÏģÏģÎ¿ÏĢÎĳ":10075,"Î±Î¹ÎµÎ½ÎŃÎ³Î¿ÎºÎ¹Î¿":10076,"Î³ÎµÎ»ÏĨ":10077,"Î·ÏģÎºÎŃ":10078,"ĠÎ¿Î¸":10079,"ĠÎµÏĥÎ¹ÏĦ":10080,"Î±Î´ÎŃÎºÏĥÎ±Î¹Î´":10081,"ĠÎµÏĥÎ±ÏĢÏĥÎŃ":10082,"ÏħÎµÏĦÏĥÎ¯ÏĢÎĳ":10083,"ĠÎ½á¿¶":10084,"ÏħÎ¿Î½Î¯":10085,"ÎºÎ³ÎµÎ»":10086,"ĠÏĤÎ¿ÏģÎµÏĦÏĮ":10087,"uG":10088,"ÏįÎ³Î³Îµ":10089,"ĠÏĤÎŃÎ»Î¿Î²Î¿ÏģÏĢ":10090,"ĠÎ¹Î±ÏĦÎ½Î¿ÏĥÏĥ":10091,"ÏħÎ¿ÏĢÏĥ":10092,"ĠÎ½ÏīÎ»Î®":10093,"ĠÎµÎºÎ·Î¸ÏĩÎŃÎ´":10094,"ĠÎ®Î¼ÏīÏģÎ·Î»ÏĢ":10095,"Î½Î¹ÏģÎºÏħÎµÎ¹Î´":10096,"ÏĤÎ®ÏĩÎ¿ÏĢÎµ":10097,"ĠÎ±ÏģÏĦÎµÎ¼ÏĮÎ¹Î»Î¹Ïĩ":10098,"ĠÎ¬ÎºÎ¹Î½ÎµÎĵ":10099,"ĠÎµÏĦÎ¿ÏĦÏĥÎ¬ÎºÎµ":10100,"ÏģÏĦÎ±Î»":10101,"ĠÎ®ÏģÎ±Î²Î¿Ïĥ":10102,"Ġrof":10103,"ÏįÏģÏĦ":10104,"Î¡ÎŁÎł":10105,"Î½ÏīÎ½":10106,"Î±Î¯ÏĥÏħÎ¿Î¾Îµ":10107,"ĠÏĤÎ±ÏĦÎ½Î¿ÏĨ":10108,"ĠÏİÏģÏīÎµÎ¸":10109,"ÏĩÎ±Î»":10110,"Î¿ÏĥÎ¿ÏģÎł":10111,"Î¹Î»ÎŃÏĥÎ¿ÏĦÏīÏģÏĢ":10112,"ÏĩÎ±Î½Î¿Î¼":10113,"Î±ÏģÎµÎº":10114,"eG":10115,"Î·Î¸Î½Î¬Îŀ":10116,"ĠÎ±Î½Î±Î³ÏģÏĮ":10117,"ĠÏĤÎ·Î½ÏİÏĦÎ½Îĳ":10118,"ĠÎ·ÏĥÎ¹ÏģÎºÎ³ÎŃ":10119,"ÏĤÎ¯ÎµÎ¼Îµ":10120,"ĠÏĤÎ¬ÏĦÎ·ÏĦÏĮ":10121,"Î¬ÎºÎ¹ÏĥÏħÏĨ":10122,"Î¿Î¯Î»Î²Î¹Î²":10123,"Î¥ÎŁÎľ":10124,"ĠÏĤÎ±Î¯ÏĥÎ±Î³ÏģÎķ":10125,"á¿¦":10126,"ĠÎ¹Î±ÏĦÎµÎ¶Î¯ÏģÎ¿":10127,"ÏĤÎ®ÏĢÎ¿ÏģÏĦ":10128,"ÏĮÏģÎĶ":10129,"ĠÎ·Î´Î¬":10130,"Î¹ÎµÏĢÏĮÏĢÎ±":10131,"ĠÎ·ÏĥÎ¹ÏģÎºÎ³ÏįÏĥ":10132,"ĠÎ±Î¯Î¼ÏħÎ¸Î¹ÏĢÎµ":10133,"ffO":10134,"ĠÏĤÎŃÏģÎ¿ÏĨÎ±Î½Î±":10135,"ÎķÎĽ":10136,"ÎºÎ»Î±Î§":10137,"ĠÎ½Î±ÏģÎµÏĨÎ¬ÏĦÎ±Îº":10138,"ĠÎ®Î»Î¿Î²Î¼ÏħÏĥ":10139,"Ġwo":10140,"Î¹Î»Îµ":10141,"ÏģÎŃÏĦÎ½":10142,"ÏĤÎµÎ¯ÏĥÎµÏģÎ·ÏĢÏħ":10143,"Î·Î½Î¹ÎºÎ¿ÏĦÏħÎ±":10144,"Î¹Î²Î±ÏģÎ±ÏĢ":10145,"ÎºÎ£":10146,"ĠÎ±Î¯Î¼Î±Î½ÏħÎ´Î±":10147,"ĠÎ®ÎºÎ¹ÏĦÎºÎ±ÏģÏĢ":10148,"Î»Î¬Î¹Î´":10149,"ĠÎµÎ¾Î±Î»Î»Î¬":10150,"ĠÏĤÎ·ÏĦÏİÎ¹Î³Î±Î½Î±Îł":10151,"Î»Î±ÎºÎ¿ÏĢÎ±":10152,"ĠÎ¿Î»ÎºÏįÎº":10153,"Î¹Î»ÎµÎ¼ÎµÎ¸":10154,"ÎĳÎ¤Î£":10155,"ĠÎ¹Î±ÏĦÎµÎ½ÏİÏģ":10156,"ĠÎ½Î¿ÏĥÎĮ":10157,"ÏĦÏĢÎ±ÏģÎ³":10158,"Î¹ÎµÏĢÎ±ÏĦ":10159,"ÏĤÏħÎ¿ÏĨ":10160,"ĠÎ¿ÏħÏĦÎºÎ¯Î´Î±Î¹Î´":10161,"ĠÎ½ÏħÎ¿Î¶Î¯ÏģÎ·ÏĦÏĥÎ¿ÏĢÏħ":10162,"ĠÎ¬ÏĦÏĥÏīÎ½Î³":10163,"ĠÎ·ÏĥÏīÏĢÏįÏĦÎ½Îµ":10164,"Î»Î®Î±ÏģÏĥÎĻ":10165,"Î½Î¬Î½ÏħÎ£":10166,"ĠÎ±Î»Î¬Î³":10167,"ÏīÎ¹Î²":10168,"ĠÎ»Î¯ÏĨÎ¿ÏģÏĢ":10169,"Î½ÎµÎ³ÏģÎĳ":10170,"Î±Î¯ÏĨÎ±ÏģÎ³":10171,"ÎķÎłÎĳ":10172,"ĠÎ¿Î¹ÏģÎ´ÎŃÎ½ÏħÏĥ":10173,"raB":10174,"Î±ÏĦÏīÏģÎł":10175,"Î½ÎµÏĨÎ±":10176,"ÏħÏĩÏĥÎ¹Î½Îµ":10177,"ÏĩÎ¯ÏĦÏĥ":10178,"Î¶ÏĦÎ¿Îļ":10179,"ÏĦÏĥÎ¹Î±Î»Î±Îł":10180,"Î½ÎµÎºÎ¯ÏĢÎµ":10181,"ob":10182,"ÏħÎ¿Î¯Î»ÏħÎ¿ÎĻ":10183,"ÎµÎ¸Î¬Îº":10184,"ĠÏĤÎµÎ½ÎŃÎ¼ÏīÎ½ÎĹ":10185,"ÎµÎ»Î·Î¤":10186,"Î·Î³Î¿Î»Î¿Î¹Î±ÎºÎ¹Î´":10187,"ÎķÎļÎļ":10188,"ÏħÎ¿Î¶":10189,"ĠÏĤÎŃÎºÎ¹Î»":10190,"Î½Î¬Î¼Î·Ïĥ":10191,"ĠÎ¿Î¯Î¿Î»ÏĢ":10192,"ÏĤÎ¹ÎµÏĥÎ®Î´Î¹Îµ":10193,"Î¿Î»Î¿Îº":10194,"Î½ÏīÏģÏĦÎŃÎ¼":10195,"ÏĤÎ±Î¯ÎµÏĦ":10196,"Î¿ÏģÎºÎµÎ½":10197,"Î½Î¿Î¹ÎĶ":10198,"Î³Î¬ÏĦÎ½ÏħÎ£":10199,"ĠÎ±ÏĦÏģÎ¬Îº":10200,"ĠÎ¹ÎµÏĥÏĥ":10201,"Î¼ÏģÎµÎ´Î¹ÏĢÎµ":10202,"Î¸Î¬Î»Î±Îº":10203,"ĠÎ¹ÎµÏĥÎŃÏģÎ¿ÏĢÎ¼":10204,"suo":10205,"ĠÏĮÎ¼ÏĥÎ±Î²ÎµÏĥ":10206,"uQ":10207,"ÏİÏģÏħÎº":10208,"Î²Î¹Î¿Î¼Î±":10209,"ĠÎ½ÏįÎ¿Î¸Î·Î¿Î²":10210,"Î½Î±Î¾":10211,"ÎµÎ³Î³Î¬":10212,"ĠÎ¹Î±ÏĦÎµÏįÎµ":10213,"Î¿Î½Î·Î»Î»Îķ":10214,"Î·Î½Î¬":10215,"ĠÏĤÎ±Î¯Î³Î¿Î»Î¿Î½ÏĩÎµÏĦ":10216,"ĠÏĤÎ¹ÎµÎ¶":10217,"ĠÎ¬ÎºÎ¹ÏĦÏĥÎ¹":10218,"Î¹Î½Î¯":10219,"ĠÎµÏĥÏīÎ¯":10220,"ĠÎ·Î¾Î±ÏĦÎ½ÏįÏĥ":10221,"ĠÏĤÎ®ÏĨ":10222,"Î·ÏĦÎ±ÏģÎ±ÏĢ":10223,"ĠÎ½Î±Î½Î¹ÎµÎ¼":10224,"ÎµÎ¹Î²":10225,"ÎºÎŃÏĦÏĥ":10226,"Â«(":10227,"ĠÎ¬ÎºÎ¹ÏģÎ¿ÏĨÎ±Î½Î±":10228,"ÎĶÎĵÎł":10229,"ĠÎ¯ÎµÎ¸Î·Î³ÏģÏħÎ¿Î¹Î¼Î·Î´":10230,"ĠÏĤÎ±Î¯Î½ÏīÏĨÎ¼ÏħÏĥ":10231,"ĠÎŁÎ¤ÎĳÎĿ":10232,"ĠÎ¹ÏĦÏĮÎ¹ÎĶ":10233,"ĠÎ£ÎĻÎ¤":10234,"Î½Î¿Î¹ÎµÎ¼":10235,"ĠÎ±Î¼Î¿Î½ÎĮ":10236,"Î½ÏĩÎµÏĦÎ¹ÏĥÎ±ÏģÎµ":10237,"ĠÎ±ÏģÏħÎ¿Î³Î¯Î£":10238,"ĠÎ±Î½Î¯Îļ":10239,"ĠÎ±Î»ÏĢÏĮ":10240,"ĠÎµÏĩÎ¯ÎµÏĦÎµÎ¼Î¼ÏħÏĥ":10241,"Î³ÏīÎ³Î±ÏģÎ±ÏĢÎ±Î½Î±":10242,"Î²Î¼ÏĮÎº":10243,"ĠÎ½Î±ÏĥÎ·Î»":10244,"Î¼Î¬Î»":10245,"Î½ÏħÎ¿Î¶Î¬":10246,"CI":10247,"Î·ÏĦÏĮÎ´Î¿":10248,"ĠÎ±ÎºÎ±Î½Î¯ÏĢ":10249,"ÏĤÎ·ÏĥÎ±ÏĦ":10250,"fosorciM":10251,"ÏħÎ¿ÎŃÏģÎ´Î½Î±ÏĢÎ±Îł":10252,"ĠÎµÎ½Î¹Î±Î³":10253,"ÎĳÎĵ":10254,"ĠÎ½ÏīÎ½ÏĮÏģÏĩ":10255,"Î¿Î¼Î¹Î¼Î¿Î½":10256,"ĠÎ·ÏĥÎ½ÏħÏģ":10257,"ĠÏĤÎ¿Î»ÎµÏĨÏĮ":10258,"ĠÎ·ÏĥÏīÎ½":10259,"Î¿ÏĦÎ±Î²Î²Î¬Î£":10260,"ĠÎ¬ÎºÎ¹ÏĢÎ¿ÏĦ":10261,"ĠÏĤÎ¹ÎµÏĥÎ®ÏĦÎ¹Î±":10262,"ÏīÎºÏħÎµÎĽ":10263,"ĠÏĤÎ±ÏģÎ´Î½Î¬":10264,"ĠÎ¿Î¯ÎµÎ»Î±Î³ÏģÎµ":10265,"Î½ÏīÎ»ÏĮ":10266,"tta":10267,"ĠÎµÎºÎ·Î¸Î®Î³ÏģÏħÎ¿Î¹Î¼Î·Î´":10268,"ĠÎ¬ÏĦÏĥÎ¿ÏĥÎ¿ÏĢ":10269,"Î½ÏįÎ¿Îº":10270,"ÏĨÎ±ÏģÎ³ÎŃ":10271,"ĠÎ·ÏĥÎ·Î¼Î¯ÏĦÎºÎµ":10272,"Î¹ÎµÏĨÎ¿":10273,"ĠÎ®ÎºÎ±Î»ÏħÏĨ":10274,"ÎµÎ»Î±Îº":10275,"ĠÎ·Î¾Î¹ÎµÎ´Î¬Î½Î±":10276,"75":10277,"ÏįÎµÎºÏĥ":10278,"ÏĨÎŃÏģÏĦÏĥ":10279,"Ġnai":10280,"Î»Î¬ÏĢ":10281,"ÏĥÎ±Î½Î±Î¸":10282,"ÎºÎ·Î»ÏĢÎ±ÏĦÎ±Îº":10283,"ĠÎ·Î½ÎŃÎ¼ÏĥÎ±":10284,"Î±Î»ÏĥÎ¹":10285,"ĠÏĤÎ¿Î»ÏħÎ¿Î²Î¼ÏįÏĥ":10286,"ÏĢÎµÎ»Î²":10287,"ĠÎ·ÏĥÎ±ÏģÎ´Î¯ÏĢÎµ":10288,"ĠÏĤÎ®ÏĩÏģÎ±":10289,"ĠÎĽ":10290,"ĠÏĤÎ·ÏĥÏīÎ½Î¬Î³ÏģÎ¿":10291,"ĠÎ¿ÏģÏįÎ³":10292,"xerB":10293,"ĠÎ±Î¹Î²":10294,"Î±ÎŃÎĿ":10295,"ĠÎ¹Î±ÎĿ":10296,"ĠÏĮÎºÎ¹ÏĦÎ±ÏĦÏĥÎ¹ÏģÎµÏĢ":10297,"wor":10298,"Î±Î¼ÏģÎ±ÏĨ":10299,"ĠÎ·ÏĥÏīÎ½Î¯Î¿ÎºÎ±Î½Îĳ":10300,"ÏĤÏħÎ¿ÏĦÎŃ":10301,"ĠÏīÎ¶Î¯Î¼Î¿ÎĿ":10302,"ĠÎ±Î¼Î¿Î´":10303,"ÎŃÎ½ÏħÏĥ":10304,"Î¿Î´Î¹ÎµÎ¿ÏģÏĢ":10305,"ĠÎ¬ÎºÎ¹Î½Î¿Î½Î±Îº":10306,"ĠÏĤÎµÎ¯ÏģÎ¹Î±ÎºÏħÎµ":10307,"Î³Î±ÏģÎ¬":10308,"Î·Î»Î±Îº":10309,"ÏĥÎŃÎľ":10310,"ĠÎ±ÏĦÎ»ÏĮÎ²":10311,"ĠÎ¬ÏģÎµÎ½":10312,"ÏĦÏĥÎ·Î»":10313,"ĠÏĤÎ±ÏĥÏĦ":10314,"Î±Î¯ÎµÏĢÎ±ÏģÎµÎ¸":10315,"ĠÏįÎ¿ÎºÎ±Î¹ÏĢÎ¼ÏħÎ»ÎŁ":10316,"ÏįÎ¿ÏĦÎ»ÏħÎ¿Îº":10317,"ĠÏĤÎ±Î¹ÏĥÏĮÎ¼Î·Î´":10318,"Î¹Î´Î¹Î¾Î±ÏĦ":10319,"ÏģÎ¿ÏĦÎºÎ±ÏģÏĢ":10320,"ÏįÎºÎ±":10321,"Î¸Î®Î»Îĳ":10322,"Î·Î»Î»Î¿Îº":10323,"ÎµÏĦÏĥÎ±Î¼Î¯Îµ":10324,"ÏĤÎµÎ´Î¬Î¼Î¿":10325,"Î¯Î±ÏĦÏĨ":10326,"ĠÎĹÎļ":10327,"ÏįÏĦÏģÎ±Î¼":10328,"ÏħÎ¿Î½Ïģ":10329,"ÏįÏĥÎ¿Î¼ÏħÎºÎ³Îµ":10330,"Î¹ÎµÎ½Î¯Î³":10331,"Î¯ÎµÎ´Î¹Î±ÏĢ":10332,"ÏįÎ³Î³ÎµÎ»Î·Î»Î»Îĳ":10333,"ĠÏĤÎ±ÎŃÏģÎ´Î½Îĳ":10334,"Î»ÎµÏĢÎ±":10335,"ĠÎ½ÏħÎ¿Î¶Î¬Î¹ÏĥÏħÎ¿ÏģÎ±ÏĢ":10336,"Î¹ÏģÎ®ÏĦ":10337,"ĠÎ·ÏģÎµÏĦÏĮÏĥÏĥÎ¹ÏģÎµÏĢ":10338,"ÏģÎ³":10339,"ĠÎ¶Î¬ÏĦÏģÎ¿ÏĢÎµÏģ":10340,"ĠÎ½ÏħÎ¿Î¶Î¯ÏĩÎµÎ½ÏħÏĥ":10341,"ĠÎ¿ÎºÎ¯ÎĿ":10342,"Î®Î½Î¿Î¼":10343,"ĠÎ½ÏİÎ¹ÏģÎ¿ÏĨÎ¿ÏģÎ·Î»ÏĢ":10344,"ĠÏħÎ¿Î¼ÎŃÎ»Î¿ÏĢ":10345,"Î·Î¼ÎºÎµÏĦ":10346,"0002":10347,"ĠÏĤÏĮÎ½":10348,"ÎŃÎ½Îĳ":10349,"ĠÎ¯Î¿ÏģÎºÎµÎ½":10350,"ĠÎ·Î¾Î®Î»":10351,"Î¬ÏĩÎ¹Îľ":10352,"ĠÎ¹ÏĦÎ±Î¼Î³Î¬ÏģÏĢ":10353,"ĠÎ®ÏĩÏģÎĳ":10354,"rC":10355,"ertS":10356,"NE":10357,"ĠÎ¿ÏģÎµÏĦÎ¯Î±Î¹Î´Î¹":10358,"ÏĤÎ¹ÎµÏĥÎŃÏĩÏĥ":10359,"Î¶Î¯ÏģÎ¿":10360,"ĠÎ¿Î½Î¿ÏģÏĩÎ³ÏįÏĥ":10361,"ÏĥÎµÎ´Î½ÏįÏĥ":10362,"Î¬Î²Î²Î±Î£":10363,"ĠÎµÎºÎ·Î¸Î®Î¹Î¿ÏĢ":10364,"ÎľÎ¥Î£":10365,"ÏĤÎ¿Î³ÏĮÎ»":10366,"kci":10367,"ÎµÏģÎºÎºÎµ":10368,"Î¿ÏģÎº":10369,"Î»Î±Î¹ÏĥÎ¿Ïĥ":10370,"ÏħÎ¿Î¯ÏģÎ²Î¼ÎµÏĦÏĢÎµÎ£":10371,"ĠÎ·ÏĥÎ±Î»":10372,"ĠÏĤÏİÎ¸Î±Îļ":10373,"Î·ÏĥÎ¬Î²":10374,"ÏģÎ±ÏĩÎ¬Î¶":10375,"ÏīÏĦÎ¬ÎºÎ±ÏģÎ±ÏĢ":10376,"ĠÎ±Î¹ÏģÎ¬Î»Î¿Î´":10377,"Î½Î±Î¼ÏīÎ¸":10378,"Î´ÎµÏĮÏģÏĢ":10379,"Î½ÎŃÏĦ":10380,"Î»Î±ÏĦÎ¹ÏĢÎ±Îº":10381,"ĠÎ½Î±ÏĢ":10382,"ÏĥÏİÎ½":10383,"Î·Î¿Î²":10384,"Î½Î¹ÏģÎµÎ¼Î·Î¸Î±Îļ":10385,"Î»Î¿Î¸Î±Îº":10386,"ÎĹÎ£":10387,"ĠÎ±ÏĥÎ·ÏĦ":10388,"ÎĶÎŁ":10389,"Î¹Î¾ÏħÏĦÏĢÎ±Î½Î±":10390,"ĠÏĤÎµÎ¯Î»Î¿ÎºÏĥÏħÎ´":10391,"ĠÏĤÎ¿Î´Î¿Î¯ÏģÎµÏĢ":10392,"Î¿Î³Îĳ":10393,"ĠÎ·ÎºÎ®Î¸ÏĥÎ¿ÏģÎł":10394,"ĠÎ·ÏĥÏĮÎ´":10395,"Î½ÏĮÎ¼Î·Î½Îľ":10396,"ĠÏĢÎ±":10397,"Ġ43":10398,"ÏĦÎ¿ÎºÏĥ":10399,"ĠÎ½Î¹Ïĥ":10400,"DIV":10401,"ĠÎ¿ÏĦÎŃÎºÎ±ÏĢ":10402,"ĠÎ®ÎºÎ¹Î½Î¿ÏģÏĩ":10403,"ĠÎ·ÏĥÎ·ÏģÏİÎµÎ¸":10404,"ÏħÎµÏĦÏĥÎ¹ÏĢ":10405,"Î®ÏĦÏĢ":10406,"ĠÎ·ÏĥÎ¹Î¼Î¸Î¬Î²Î±Î½Î±":10407,"ÏħÎ±Ïĥ":10408,"Î¿Î¹Î¾Î±ÏĦÎ½ÏħÏĥ":10409,"Ġema":10410,"Î¼ÏģÎµÎ¸":10411,"Î»Î»ÎŃÎ³Î³Î±ÏĦÎ±Îº":10412,"ÎŃÏĦÏĥÎ¹ÏĢ":10413,"Î±ÏĨÎŃ":10414,"ĠÏĤÎ±Î¯ÏģÎ¿ÏĨÎ¿Î»ÎºÏħÎº":10415,"Î·ÏĩÎ±Î¼":10416,"llo":10417,"Î´Î¿Î¿ÏģÏĢ":10418,"Î¹ÏĦÎĿ":10419,"ĠÎ½Î±Î¼":10420,"ÏįÎ¿ÎºÎĳ":10421,"ĠÏħÎ¿ÏĢÏİÏĥÎ¿ÏģÏĢ":10422,"ĠÎ®ÏħÎµÎºÏĥÏħÏĥ":10423,"ÏħÎµÎ»ÏħÎ¿ÎĴ":10424,"ĠÏĤÎ¿Î´Î¿Î½":10425,"ĠÎ¬Î¹Îº":10426,"ĠÏħÎ¿Î¯ÏģÎ·ÏĦÏĥ":10427,"Î·ÏĥÎ¬ÏģÎ´":10428,"ÎŃÎ½Î±Î½Î±":10429,"ĠÎ¹ÎµÏĥÎ®Î»Î¹Î¼":10430,"Î»Î¿Îļ":10431,"TO":10432,"ĠÎ½ÏħÎ¿ÏĥÎ¬ÏģÎµÏĢ":10433,"ÏİÏĦÏĥÎµÎ¸Î±Îº":10434,"tte":10435,"ÏĤÎ¿ÏģÎ¬Î²":10436,"Î½Î±ÏĨÎ®":10437,"Ġ)%":10438,"Î¿ÏĩÏħÎ¨":10439,"eta":10440,"ĠÎµÏĦÎ¿ÏĢÎ®Î´Î¹ÏĦÎ¿":10441,"Î¹ÏĥÎ¬ÏģÎł":10442,"ĠÎ·ÏĥÎ±Î²Î¼ÏįÏĥ":10443,"ÏĥÏİÎ»Îĵ":10444,"ÏĥÎ¯Î±Î½ÏħÏĥ":10445,"ÏĩÎµÏĥÎ¿ÏģÏĢ":10446,"lb":10447,"ÏĥÏħÏĥ":10448,"Î¿Î¹ÏģÏįÎ±":10449,"ĠÎ½Î±ÏĥÎ·Î½Î¯ÎºÎµÎ¾":10450,"Î·Î»Î»ÏħÏĥ":10451,"Ġ84":10452,"ĠÎ·ÏĥÎµÎ¼":10453,"Î·Î½Î¯ÎºÎµÎŀ":10454,"ĠÏĤÏĮÎºÎ¹ÏĦÎ¹Î»Î¿ÏĢ":10455,"Î»Î±Ïĥ":10456,"ĠÏĤÎŃÏĨÎ¿ÏģÏĦ":10457,"Î³ÏĮÏĥÎµÎľ":10458,"Î±ÏģÎ®ÏĦÎºÎ±ÏģÎ±Ïĩ":10459,"Î½ÏĮÎł":10460,"Î¹ÏĢÎ¿ÎºÎ£":10461,"ÏĤÎ±Î¯ÏĥÎ±Î³ÏģÎķ":10462,"scip":10463,"ĠÏįÎ¿Î²ÎµÏĦÎ½Î±Ïģ":10464,"ĠÎ¹ÎµÎ»Î¯ÎµÏĦÏĥ":10465,"Î·ÏĥÏīÏģ":10466,"ÎĿÎķÎĵ":10467,"Î¹ÏģÎµÎ¼":10468,"ĠÎ·ÏĥÏħÏģÎ´Î¯":10469,"Î¯Î±ÏĨÏĥÎ¿Î´Î¿ÏĢ":10470,"ĠÎ®Î¼Î¿Î½":10471,"Î±Î½ÎµÎ¼ÏĮ":10472,"Î±ÏģÎŃÏĢÎ¼ÏħÏĥ":10473,"ÎºÎ¿Î´ÏĥÎ¿ÏģÏĢ":10474,"ĠÎµÏĥÏīÏģ":10475,"ÏĥÏĥÎ±Î»":10476,"ĠÏĤÎµÏĦÏĮÏģÎ³Î±":10477,"Î¿ÎºÏĥÎ¯ÏĢÎµ":10478,"Î±Î´Ïħ":10479,"ĠÎ®ÎºÎ¹ÏĦÎ±Î¼Î»ÎµÎ³Î³Î±ÏĢÎµ":10480,"Î¯ÏģÎµ":10481,"Â¨":10482,"Î¬ÏĦÎµÏĢ":10483,"Î¯ÎµÏĢÎĹ":10484,"ĠÏĤÏĦÎ¹Î²":10485,"Î½Î±ÏĢÎ±Î´":10486,"ĠenohPi":10487,"ÏģÎ±Î³":10488,"ĠÎµÏĦÎ¯ÎµÎ¹Î¿ÏĢÎ¿Î¼Î¹ÏĥÎ·ÏģÏĩ":10489,"ĠÎ½ÏīÎµÏĥÎŃÏĩÏĥ":10490,"Î±ÏģÏħÏĢ":10491,"ĠÎ®Î½Î¿Î¼Î±Î¹Î´":10492,"ĠÎ±Î¹ÎµÎ½Î¬Î´":10493,"ĠÏĤÎµÎ½Î¯ÎµÎºÎµ":10494,"ÏĨÎ¿ÏģÏĦÏĥÎ¹ÏĢÎµ":10495,"ĠÏĤÏĮÎ³Î·ÏĩÏģÎ±":10496,"Î·Î¾ÏįÎ±":10497,"ĠÎ¬Î¹ÎµÎ½ÎŃÎ³Î¿ÎºÎ¹Î¿":10498,"Î½Î¬Î»":10499,"ĠÎ·ÏĥÎ¬ÏģÏĨ":10500,"htA":10501,"ĠÎ¬Î¹Î½ÎµÎ³":10502,"ÏħÎ½ÏİÏĢÎµ":10503,"AR":10504,"ÏĥÎŃÎ´Î½ÏħÏĥ":10505,"ĠÎ®ÎºÎ¹Î½Î±Î¼ÏģÎµÎ³":10506,"ĠÎ½Î¿Î½":10507,"ÎºÎ¿Î»":10508,"ĠÎ½ÏİÎºÎ¹Ïģ":10509,"ĠÎµÎ½Ïī":10510,"LE":10511,"Î±Î»Î¿":10512,"ĠÎ·ÏģÎµÏĦÏįÏģÏħÎµ":10513,"Î¿ÏĦÎ±ÏĦ":10514,"ĠÏĤÎµÎ½Î¯":10515,"ĠÎ¯ÎµÎ¸Î·Î¹Î¿ÏĢÎ¿Î¼Î¹ÏĥÎ·ÏģÏĩ":10516,"ĠÎ·Î½ÏĮ":10517,"ÏĮÎ´Î¹ÏĢÎµ":10518,"ÎŃÎ´Î¹Î¾Î±ÏĦ":10519,"Î¬ÏģÎ±ÏĦ":10520,"ĠÎ½Î±ÏĥÏįÎ¿Î»":10521,"ÎºÎ¹ÏĦÏīÎ¹Î´Î¹":10522,"ĠÏĤÎ®Î³ÏīÎ³Î±":10523,"ĠÎ±Î²Î±Î»":10524,"Î¿Î»Î±Îļ":10525,"ĠÎ·ÏĦÎ¬Î¼ÎµÎ³":10526,"ĠÎ¿Î½ÎŃÎ¼Ïī":10527,"Î¹Î»Î¸Î¬ÏĦÎ±Îº":10528,"ÏĢÎ¿Î»Îº":10529,"ĠÎ¹Î±ÏĦÎ¯ÎµÎ¹Î¿ÏĢÎ¿ÏĦÎ±Î¼Î³Î±ÏģÏĢ":10530,"ĠÎ¬ÎºÎ±Î¹Î´Î±ÏĦÏĥ":10531,"Î¯Î»Î¸":10532,"88":10533,"35":10534,"ĠÏįÏĩÏĥÎ¹":10535,"Î¿ÏĩÎ·":10536,"ĠÎ¬ÎºÎ¹ÏĦÏħÎ´":10537,"Î¿ÏĩÎ£":10538,"ĠÏĮÎ¼Î¸ÏħÏģ":10539,"Î¹Î²Î¹ÏĢÎµ":10540,"ĠÏĤÎ·Î¾Î¹ÏģÎ®ÏĦÏĥ":10541,"ÏħÎ¿Î¹Îĵ":10542,"ĠÎ½ÎŃÎ´":10543,"ÏĩÎ¹Î¿Î½Îĳ":10544,"ĠSO":10545,"ĠÎĳÎļÎĻÎ¤":10546,"Î¯Î±ÏĩÎ±Î¼":10547,"ĠÎ¿Î½ÎŃÎ¼Ïĥ":10548,"ÏħÎ¿Î²Î¼ÏįÎ£":10549,"Î¾ÎŃÏģÏĦ":10550,"ĠÏīÎ³Îµ":10551,"Î¹ÎµÏĢÎ¼ÎŃ":10552,"ĠÎ®ÎºÎ¹Î´Î¹Î±ÏĢ":10553,"ÏĤÏĮÎ½":10554,"Î¸Î½Î±Î¾":10555,"Î±Î³Î³":10556,"ĠÏĤÏĮÏĦÎ±Î¼":10557,"ĠÎ®ÎºÎ¹ÏĦÏĢÎ¿Î¿ÏģÏĢ":10558,"ĠÎ¿Î½ÎŃÎ¼Î·":10559,"Î»ÎµÏĦÏħÎ»Î¿ÏĢ":10560,"Î½ÏİÎºÎ¹Î¼Î¿Î½Î¿ÎºÎ¹ÎŁ":10561,"Î©Îĸ":10562,"Î¬Î»Î±Ïĥ":10563,"ÏĥÎµÎ¾":10564,"ĠÏĤÎ¹ÎµÏĥÎ®Î½ÏģÎµÎ²ÏħÎº":10565,"Î½Î¿ÏĦÎºÎ¿Î½":10566,"Î¿Î¹ÏģÎ¬":10567,"Î®ÎĽ":10568,"ĠÎ¿Î¹ÏģÎ¬Î½ÎµÏĥ":10569,"Î¿ÏģÏģÎ¿ÏĢÎ±":10570,"ĠÎ±Î¹ÏģÎ®ÏĦÎ¹ÏĥÎ¹Îµ":10571,"ĠÏĤÎ¿Î¹Î¿ÏĢÎĮ":10572,"ÏħÎ»Î¿ÏĢÎ±":10573,"ĠÎ¯ÎµÏĢÎ±ÏģÏĦ":10574,"ĠÎĩ":10575,"ĠÏĤÎŃÏģÎ¿ÏĨÎ±Î¹Î´":10576,"......":10577,"Î±ÏĦÎ·ÏĦÏĮÎºÎ¹":10578,"4002":10579,"Î¹ÏģÎ·ÏĦÏĥÎ¹ÎµÎ»ÏĢ":10580,"ĠÏĤÏįÎ¿ÎºÎ¹ÏĦÎ±Î¼":10581,"ÎµÏģÏĨ":10582,"ÏĢÎ¿ÎºÎ¿ÎµÏģÏĩ":10583,"ÏģÎµÏĨÎ¼ÏħÏĥ":10584,"ĠÎ·Î½ÎŃÎ¼ÏĥÎ±ÏģÎµÏĢ":10585,"ĠÏħÎ¿Î£":10586,"ĠÎ¯ÎµÎ¸ÏħÎ¿Î»Î¿ÎºÎ±Î¾Îµ":10587,"ĠÎ®ÎºÎ¹ÏĦÎ±Î¼ÏħÎµÎ½ÏĢ":10588,"ĠÏĤÎ·ÏĥÎ·Î³ÏĮÎ»Î¿Î¹Î¾Î±":10589,"ÏīÎ¹ÏģÏĦÎ±ÏĢ":10590,"ĠÎ·ÏĥÎ·ÏĦÎºÏĮÏĢÎ±":10591,"Ġnot":10592,"erC":10593,"ĠÎ®ÎºÎ¹ÏĦÏīÎ¹ÏĦÎ±ÏģÏĦÏĥ":10594,"ĠÏĤÎ¬ÏģÎ¿ÏĨÎ±ÏĦÎµÎ¼":10595,"kco":10596,"ĠÏħÎ¿Î¹Î´Î¯":10597,"ĠÎ½ÏħÎ¿Î¶Î¯ÏĦ":10598,"Î±Î½ÏħÎµÏģÎŃ":10599,"Î·Î¼ÏĦ":10600,"Î¦Îĳ":10601,"Î¯Î±Î´ÏħÎ¿ÏĢÏĥ":10602,"ĠÎ¹Î¿ÏģÎµÏĦÏĮ":10603,"14":10604,"ĠÎ¯ÎµÏĨÎ±ÏģÎ³":10605,"ĠÏĤÎ±ÏĦÎ½Î¿Î½Î¬Î²Î¼Î±Î»":10606,"Î·ÎºÎ¯Î½":10607,"Î¿Î´Î¿ÏĨÎ¿ÏģÏĦ":10608,"ÎµÎ»ÎŃ":10609,"ĠÏĤÎ¿ÏĢÏĮÏĦ":10610,"ĠÏĮÎºÎ¹ÏĦÏĥÏħÎ¼":10611,"ĠÎ¹ÏĥÏĦÎ¯ÏģÎ¿Îº":10612,"ÎºÎ±ÏģÎ¸":10613,"Î±ÏĦÎ½ÏīÎ¶":10614,"Î¹ÏĥÏīÏĢÏħÏĦÎ½Îµ":10615,"Î»ÎĹ":10616,"Î·ÏĥÎ·Î½Î¯Îº":10617,"ĠÎµÏĦÎ¿Î»Î»Î¬":10618,"Î¬ÏĦÏĥÎ¿ÏģÏĢ":10619,"Î¹Î±ÎºÎ³ÎŃ":10620,"Î¿ÏģÎ·Î»Îł":10621,"ĠÎ±ÏĦÎ±ÏĦÏĮ":10622,"ĠÎ½ÏİÎ¹Î´":10623,"Î³Î·Î¸Î±Îļ":10624,"ÏĩÎ¹Î¿ÏĦÎ£":10625,"ĠÎ·Î½ÏįÏĥÎ¿ÏĦÏĥÎ¹ÏĢÎ¼Îµ":10626,"ĠÎ¹ÎµÎ¶Î¯Î¼ÏħÎ¸":10627,"ĠÎ¹Î¶Î¬Î¹Î³Î±":10628,"Î½Î¿ÏĢÏĥÎ¿Î¼Î¿":10629,"ÎµÎ£":10630,"ÎµÎ¸Î¿Î½Î·ÎºÏĥ":10631,"ĠÏĤÎ®ÎºÎ±Î¹ÏģÏħÎļ":10632,"ÏħÎ¿ÏģÏİÏĩ":10633,"ĠÎ·ÎŃÏģÏĩ":10634,"Î²ÏīÎ»":10635,"ÏĦÏĥÎ¿Îº":10636,"ĠÏĤÎ±Î»ÏĮ":10637,"Î³Î¯Îĳ":10638,"Î·ÏĥÏĥÎµÎľ":10639,"ĠÎ®Î»Î¹ÎµÏĢÎ±":10640,"Î»Î±ÏĨÎµÎºÎ³Îµ":10641,"ÎĶÎĻÎķ":10642,"ĠÎµÎºÎ·ÏĦÏĥÎ¯Î½Î±ÏĨÎ¼Îµ":10643,"ÏĥÎ®Î½Î½Î¿ÏĢÎ¿Î»ÎµÎł":10644,"ĠÏĤÏħÎ¿ÏģÎµÏĦÏĮ":10645,"Î¹ÎµÎ´Î¿ÏĢÎ±":10646,"ĠÎ½ÏİÎºÎ±Î¹":10647,"ĠÎµÏĥÎ±ÏģÏĨÎŃÎ¾Îµ":10648,"ĠÎ±Î¹ÏĦÏĮÎ½":10649,"ĠÏĤÎ·ÏĦÎºÎ¯Î±ÏĢ":10650,"Î±ÎºÏĥÎ¬Î´":10651,"ĠÎ±ÏģÎµÎ¼Î¬Îº":10652,"ÏģÎµÎ¼Î¬Îº":10653,"ĠÏĤÎ·Î½Î¿ÏģÏĩ":10654,"ĠÎ®ÎºÎ¹ÏĦÏĥÎ¹Ïģ":10655,"ÏĤÎµÎ¶ÎµÏĢÎ¬ÏģÏĦ":10656,"ÏģÎŃÏĥ":10657,"ĠÎ¬ÎºÎ¹Î½Î¿ÏģÏĩ":10658,"ĠÎ¹ÎµÎ³Î¬":10659,"Î»Î¿ÏĦÎ±Î½Î±ÏĥÎ¿ÏģÏĢ":10660,"ÏģÎµÎ²Î¿ÏĨ":10661,"ĠÎ¹ÎµÎ¬Î¸Î·Î¿Î²":10662,"ÏįÎ±ÏĢ":10663,"ĠÎ·ÏĥÏīÏģÏįÎº":10664,"ĠÎ¿Î´Î¿Î½Î¬":10665,"ÏĤÎ±Î¯Î´":10666,"ĠÎ·ÏĥÎ·Î¯Î¿ÏĢÎ¿Î¹Î¾Î±":10667,"ĠÏĤÎŃÏĦÎ·Î»Î¸Î±":10668,"Î¿ÏĦÎ±Î½Î±":10669,"ĠÎ¯ÎµÎ¼":10670,"Î±Î¼ÏīÎ¡":10671,"Î³ÏĮÏĢÏħ":10672,"lm":10673,"Î»Î»Î±Îº":10674,"Î±Î½Î±ÏĨ":10675,"ĠÎµÏĦÎ¿ÏĢÎ®Î´Î½Î¿":10676,"Î½Î¬Î¹":10677,"ĠÏĤÎŃÎºÎ¹Î³Î¿Î»":10678,"ppa":10679,"ÏĤÎ¿ÏĦÎŃ":10680,"ÏįÎ¿Î½ÎµÎ¾Î¿Î»Î¹ÏĨ":10681,"ĠÎµÏĦÎ¯ÎµÏĨÎ±ÏģÎ³Î³Îķ":10682,"ÏħÎ¿Î³ÏģÎŃ":10683,"ÏĢÏĮÎºÏĥ":10684,"ĠÎ½Î¹":10685,"ĠÏĮÎ»Î·ÏĪÏħ":10686,"ÏĤÎ±Î¯ÎµÏģÎ¹Î±ÏĦÎµ":10687,"Î³Î¿Î¼ÏģÎ±ÏĥÎ¿ÏģÏĢ":10688,"ĠÏįÏĥÎķ":10689,"Î³Î¿ÏĥÎµÎľ":10690,"ÏħÎµÎ¸Î·Î¼Î¿ÏģÏĢ":10691,"ÏīÎ²":10692,"ÏħÎµÎºÏĥÎ±ÏģÎ±ÏĢ":10693,"ÏİÏģÎ²":10694,"ĠÎ¹ÎµÎ¾Î¯Ïģ":10695,"ÏĥÏĥÏīÎ»Î³":10696,"Î±ÏĨÎµÎļ":10697,"ĠÎ·Î»Î¯ÏĥÎ±ÎĴ":10698,"Î¿ÏĦÎ±Î¼Î·Î½Î¹Îļ":10699,"ĠÎ¿ÏĦÏħÎ»ÏĮÏĢÎ±":10700,"ĠÏĤÏİÎ»Î±Îļ":10701,"ÎµÏģÏĮ":10702,"ĠÎ½Î±Î»ÎµÎ¸Î®":10703,"ĠÎ¿ÏĩÎ¹Î¿ÏĦÏĥÎ¯ÏĦÎ½Î±":10704,"ÎºÎ¹ÏĢ":10705,"ĠÏĤÎµÎĶ":10706,"ĠÎ½ÏįÎ¿Î¼ÏħÎ¸Î¹ÏĢÎµ":10707,"ĠÏĮÎºÎ±Î¹ÏĢÎ¼ÏħÎ»ÎŁ":10708,"ĠÎ·ÏĥÎ¹ÏģÏİÎ½Î³Î±Î½Î±":10709,"ĠÎ½ÏīÏģÏĮÏĨÎ±Î¹Î´":10710,"ĠÎµÏĪÏħÎ»Î¬ÎºÎ¿ÏĢÎ±":10711,"Î·ÏģÎļ":10712,"ĠÏĤÎ®ÎºÎ¹Î³Î¿Î»":10713,"Î½Î±ÎĶ":10714,"ÏģÎµÏĦÎ¯Î±Î¹Î´ÎĻ":10715,"ĠswodniW":10716,"Î·Î»Î·Î´":10717,"ÎŁÎłÎ¥":10718,"Î½ÏħÎ¿ÏĥÏİ":10719,"Î¹Î¼ÎµÏģÏĢ":10720,"Î¼Î±":10721,"ĠÏĤÏĮÎ¼ÏĥÎ¹ÏĦÎ±Î¼":10722,"ÏĥÎ¿Îļ":10723,"Î±ÏĦÏĦÏįÎº":10724,"ÎºÎ¬ÏĨ":10725,"ÏĢÎ¼ÎŃÏĢ":10726,"Ġhsa":10727,"ĠÎ¿Î½ÎŃÎ¼ÏĥÎ±":10728,"ĠÎ½ÏİÏģÏĦ":10729,"Î·ÏĦÏģÎ¬Î¾ÎµÎ½Îĳ":10730,"ĠÏĤÎŃÎºÎ±Î¹":10731,"Ġaci":10732,"ĠÎ¹ÎµÏĪÏĮÎ½Îµ":10733,"ĠÏĤÎ¹ÎµÏĥÎ®Î´Î¹Îµ":10734,"ĠÎ½ÏīÎ¯Î±ÏĦÏħÎµÎ»ÎµÏĦ":10735,"ĠÏĮÎ¼ÏĥÎ¹Î½ÏīÎ³Î±Î¹Î´":10736,"ĠÏĤÏİÎºÎ¹":10737,"ÏĤÎŃÏģÎ¿Î³Î±":10738,"ĠÏĤÎ±Î¯Î³ÏģÏħÎ¿Î¹Î¼Î·Î´":10739,"Î¸Î±Î»":10740,"Î¹ÏģÎŃÏĩ":10741,"Î¹Î³Î±Î¼":10742,"ĠÎ¿ÏģÏĦÎ½ÎµÎºÎ¯ÏĢÎµ":10743,"ĠÎµÎºÎ·Î¸ÏİÎ¹ÎµÎ¼Î·Ïĥ":10744,"Î¹Î¼Î¸ÏħÏģ":10745,"ĠÎ½Î¿Î¹Î¿ÏĢÏĮ":10746,"ĠÏĤÎµÏĥÏĦ":10747,"ĠÎ¿Î½ÏĮÏĢ":10748,"ĠÎ·ÏĪÎ·Î»Î¯ÏĦÎ½Î±":10749,"ĠÏĮÎµÎĺ":10750,"ĠÎ¹Î±ÏĥÎ¯Îķ":10751,"lbu":10752,"MB":10753,"ĠÎµÏĥÎ·ÏģÏİÏĩÎ¿ÏģÏĢ":10754,"ÎºÎ¹Î¿Î¾Îµ":10755,"ĠÎ¿ÏĨÎ±ÏģÎ³Î³ÎŃ":10756,"ĠÎµÏĦÎµÏģÎŃÎ¾":10757,"Î®ÎºÎ¹ÏĦÏĥ":10758,"ĠÎ±Î¹ÎºÎ¬Ïģ":10759,"ÏħÎ¿Î²Î¼ÏħÏĥ":10760,"ÎĽÎĳÎĵ":10761,"Î½Î±Î²Î»Î±":10762,"45":10763,"Î³Î·ÏĨÎ±":10764,"ĠÎ¿ÏĩÏģÎ±Î¼":10765,"ĠÎ·ÏĥÏīÏģÎŃÎ¸ÏħÎµÎ»ÎµÏĢÎ±":10766,"Î¬ÏĢÎ¿Î½Î¿Î¼":10767,"Î½ÏīÏĦÎ½ÏĮ":10768,"ĠÎ¹ÎµÏĥÏįÎ¿ÎºÎ±":10769,"Î®ÎºÎ¹ÏģÎµÎ¼Îĳ":10770,"ĠÎ±Î½ÎŃÎ¼Î·ÏĢÎ±Î³Î±":10771,"ĠÎ±ÏĦÎ±Î¼Î®ÏĦÏīÏģÎµ":10772,"ĠÎµÎ¼Î±ÏĥÎ®":10773,"ĠÏĮÎ¼ÏĥÎ¹Î½Î±Î³ÏģÎ¿":10774,"ĠÏĤÎŃÎºÎ¹ÏĦÎºÎ±ÏģÏĢ":10775,"ÎºÎŃÏĦ":10776,"Î¹Î¼Î·ÏĨÎ±Î¹Î´":10777,"ĠÎ±ÏĦÎ½Î¬Îł":10778,"ÏĤÎ®ÎºÎ¹ÏģÎµÎ¼Îĳ":10779,"ĠÎ±Î½Î¯ÏģÎµÏĦÎ±Îļ":10780,"ÏĢÎŃÏĥÏĦ":10781,"ĠÎ¿ÏĩÎ¿ÏģÎŃÏĢÏħ":10782,"ÎºÎµÎ´Î¿ÏĢÎ±":10783,"stropsnO":10784,"ĠÎ®ÎºÎ¹ÏģÎµÎ¼Îĳ":10785,"Î¿ÏģÏī":10786,"ÏħÎ¿Î¯ÏģÎ²Î¼ÎµÎ¿ÎĿ":10787,"Î¿Î½Î±ÎºÎ¹ÏģÎµÎ¼Îĳ":10788,"ĠÎ±ÏģÎ¹Î±ÏĨÏĥÏĮÎ¼ÏĦÎ±":10789,"ĠÎ®ÏĨÎ¿ÏģÏĦÏĥÎ¹ÏĢÎķ":10790,"ĠÎ±Î´Î¬Î½Î¿Î¼":10791,"nne":10792,"Ġpi":10793,"ĠÏĤÎ·ÏĥÎ±Î²ÏĥÏĮÏģÏĢ":10794,"Î¬ÏĢÎ¼ÎŁ":10795,"ÏĮÏģÎ¹ÎµÏĩ":10796,"Î¤Î¡Îķ":10797,"ĠÏħÎ¿ÏĦÎ®Î½Î¹ÎºÎ¿ÏĦÏħÎ±":10798,"ĠÎµÎºÎ·Î¸Î®Ïģ":10799,"ĠÏĮÎºÏħÎµÎ»":10800,"Î¿Î³Î¿ÎĽ":10801,"ĠÎ®ÎºÎ±Î¹Ïĥ":10802,"ĠÎ±Î¼ÏħÎµÎ¯ÏĥÎ¿Î¼Î·Î´":10803,"ĠÏİÏĦÏĥÎ¹ÏģÎ±ÏĩÏħÎķ":10804,"ĠÎ¬Î¹Ïĥ":10805,"ĠÏĤÎµÏĦÎ·ÏĦÏĮÎ½Î±Î¸Î¹ÏĢ":10806,"ÏģÏīÏĩÎ¿ÏĢÎ±":10807,"25":10808,"ĠÎĻÎ§ÎŁ":10809,"ÏįÏĦÎ±":10810,"Î¿Î»Îµ":10811,"ĠÏĤÎ¹ÎµÏĥÏįÎµÏĦÎ±Î¼Î³Î±ÏģÏĢÎ±Î¹Î´":10812,"Î¬ÎµÎ¸":10813,"ĠÎ»ÏĮ":10814,"ĠÎ¹Î¿ÏĢÏīÏĥÏĮÏģÏĢÎºÎµ":10815,"Î¿ÏģÎµÎ¼ÎĹ":10816,"ĠÎ½ÏįÎ¿Î¸Î·Î¹Î¿ÏĢÎ¿Î¼Î¹ÏĥÎ·ÏģÏĩ":10817,"ĠÎĳÎĻÎ¡":10818,"ĠÎµÎ¼ÏħÎ¿ÏģÎŃÏĨÏĥÎ¿ÏģÏĢ":10819,"ĠÎ®ÎºÎ¹Î¼Î¿Î½":10820,"ĠÎ£ÎķÎĿ":10821,"ÎĹÎĿ":10822,"ĠÎ·Î½ÎŃÎ¼Ïī":10823,"Î±ÏĦÏĨ":10824,"hcS":10825,"Ġeca":10826,"ĠÎ±Î½ÎµÎ¼ÏĮÎ¶":10827,"Î¯ÎºÎ¹Î¿ÏĢ":10828,"Î¼Î¬":10829,"rD":10830,"ÏĤÏīÎ½ÎŃÎ¼":10831,"Î¿Î½Î·ÏĦÎº":10832,"ĠÎ½Î¿Î¹ÏĢ":10833,"6002":10834,"Î¹ÏģÏīÎ½Î³":10835,"ÏĢÎ¼Îķ":10836,"ĠÏĤÎ®Î¼Î¹ÏĦ":10837,"ĠÎ·ÏĥÏħÎµÏģ":10838,"ĠÎ±ÏĦÎ·ÏĦÏģÎ¬Î¾ÎµÎ½Î±":10839,"ĠÎ·ÏĥÏīÏģÎŃÎ¼Î·Î½Îķ":10840,"ÏīÏģÎ·Î»ÏĢÎ¼ÏħÏĥ":10841,"ĠÎ¯ÎµÎ³Î·Î¾Îµ":10842,"ĠÎ½ÏİÎ³Î¿Î»ÎºÎµ":10843,"ĠÎµÏħÎµ":10844,"Î¹ÏģÎ±ÏĩÏħÎķ":10845,"Î¿Î¹Î´ÎŃÏĩÏĥ":10846,"ÏĦÎµÎł":10847,"AM":10848,"Ġts":10849,"Î¸Î¹ÎµÏĢ":10850,"ĠÏįÎ¿Î¹ÏĦÎ¹ÏĢÏĥ":10851,"Î±ÏĦÎ±Î¼ÏĥÎ¬":10852,"Î¿Î¾Î¬":10853,"ĠÎ®ÎºÎ¹Î»Î±ÏħÎ¿Î¾ÎµÏĥ":10854,"ĠÎ±Î¯ÏĥÎ±ÏĦÏĥÎ¿ÏģÎł":10855,"ÏħÏģÏĦ":10856,"ĠÎ®ÏģÎ·Î»ÎºÏĥ":10857,"ĠÎ¬Î¹ÏĨÏģÎ¿Î¼Î¿":10858,"ÏħÎ¿Î³Î·Î¿ÏģÏĢ":10859,"ĠÎ·Î½ÎŃÎ¼Ïĥ":10860,"ĠÏĤÏīÎ½ÎŃÎ¼Î¿ÏĩÎµÎ´Î½Îµ":10861,"ÏĥÎ¬Î½Î±ÏĢÎķ":10862,"ĠÎ¹Î±ÏĦÎ½Î¿Î½Î¬Î²Î¼Î±Î»Î¹ÏģÎµÏĢ":10863,"ĠÎ®ÎºÎ¹ÏĦÎ±ÏģÎº":10864,"ÏĥÏĥÎ¯":10865,"ĠÏĤÎŃÎºÎ¹ÏĦÏĥÎ¹":10866,"ÏĥÏĥÎµÏĦ":10867,"ĠÎ¿ÏĦÏĥÎ¹":10868,"ĠÎ¹ÎµÎ½Î¬Î²Î¼Î±Î»Î±Î½Î±":10869,"ÏģÎ¿ÎºÏĥ":10870,"ÏģÎŃÏĢÎ±":10871,"ĠÎ±Î¯ÎµÎ»Î±Î³ÏģÎµ":10872,"ÎºÏīÏģÏĢ":10873,"ĠÏĤÎŃÎºÏĬÎ±ÏĢÏīÏģÏħÎµ":10874,"ÎŃÎ»ÏħÎ¿Î´":10875,"ĠÏįÎ¿Î¼ÏĥÏħÎ¸Î·Î»ÏĢ":10876,"Î±Î²Î¹ÏĢÎµ":10877,"ĠÎĳÎ¤Î£":10878,"ĠrettiwT":10879,"ĠÎ±Î¯Î³Î¿Î»Î¿Î¼":10880,"ĠÎ·ÏĥÎ±Î¯ÏĥÏħÎ¿ÏģÎ±Îł":10881,"Î³Î·Î¹Î´":10882,"ÏįÎ»Î¿ÎºÏħÎµÎ¹Î´":10883,"ÏĦÎ½Îĳ":10884,"ĠÎ±Î¼ÏīÏģÎŃ":10885,"ĠÎ±Î¼ÏįÎ¸":10886,"ĠÎ¹ÏĦÎ±Îº":10887,"Î¹ÏĦÏīÏģÎ±Î½Î±":10888,"hoJ":10889,"Î¿Î¹ÏĦÎ¿Î½":10890,"Î²Î¼ÏĮÎ²":10891,"ĠÏĤÎ±ÏĦÎ·ÏĦÏĮÎºÎ¹":10892,"ĠÎ±Î¯ÏģÏħÎ£":10893,"ÏĮÏĦÏħÎĳ":10894,"Ġá½ģ":10895,"ĠÎ¿Î½Î¬Î»ÏĢ":10896,"Ġlanoita":10897,"ĠÏĮÏģÏħÏĩÏĥÎ¹":10898,"ĠÏĮÏģÏīÎ¼":10899,"ÏģÎµÎ²ÏħÎļ":10900,"ĠÎ·ÏĥÏħÎµÎºÎ¯":10901,"dE":10902,"ĠÎ»ÎµÎº":10903,"ÏģÎµÎ¼Î·Î¾":10904,"ĠÎ®ÎºÎ¹ÏģÎµÏĦÏīÎ¾Îµ":10905,"ÏĥÎ±Î²Î¬Î¹Î´":10906,"Î±ÏĦÎ±Î¼Î®ÏģÏĩ":10907,"Ġ7002":10908,"Î¿Î½ÏĩÎµÏĦ":10909,"ĠllA":10910,"ĠÎ±ÏĦÎ¿ÏĢ":10911,"Î¬ÏģÏĢÏĥÎ¹Îµ":10912,"ĠÎ¹ÎµÎ¬Î½Î¹ÎºÎµÎ¾":10913,"Î®ÏģÏħÏĢ":10914,"ÏīÏĨÏģÎ¿Î¼Î±Î¹Î´":10915,"ĠÎ¿Î¹ÏĥÎ¬ÏĦÏĥ":10916,"ĠÎ½ÏİÏĩÏģÎ±":10917,"ĠÎ½ÏįÎ¿ÏĦÏĥÎ±":10918,"ĠÏĤÎ¯ÎµÎ½Î±Îļ":10919,"ĠÎ½ÏīÏĦÎ¬Î¼Î·Î»Î²Î¿ÏģÏĢ":10920,"ĠÎ·ÏĦÎ¬Î»ÏĢ":10921,"ĠÏĤÏĮÏģÎºÎ¹Î¼":10922,"Ġ~":10923,"Ġ!!!!":10924,"ÎŃÎ¡":10925,"Î¿Î¸ÏĨÎ±Î¹Î´":10926,"Î¬ÏģÏħÎµÎ»ÏĢ":10927,"ĠÏĤÎµÎ½ÎµÎ¼ÏįÎ¿Î³Î·Î¿ÏģÏĢ":10928,"ĠÏĤÎ¿Î¹Î³ÏģÏİÎµÎĵ":10929,"Î¿ÏĦÏĥÎ¹ÏģÎ§":10930,"ÏĤÎŃÏĩÎ¿Î¹ÏģÎµÏĢ":10931,"ĠÎ½ÏįÎ¿ÏĢ":10932,"ÏĮÎ¼ÏĥÎ¹Ïģ":10933,"Î±Î»Î¿ÎºÏįÎµ":10934,"Ġtce":10935,"ĠÏĮÎºÎ¹ÏĦÏħÎµÎ´Î¹Î±ÏĢÎºÎµ":10936,"ĠÎ¹ÎµÎ¶Î¬Î³Î²":10937,"Î³Î±ÏģÏĨÏĥ":10938,"Î¹Î»ÏįÎ¾":10939,"ÏģÎĻ":10940,"ĠÎ¿ÏĥÏĮÎ¤":10941,"Î»Î±ÏĨ":10942,"ĠÎ±Î¹ÎµÎ»ÎŃÎ¼":10943,"Î¿Î´Î¿ÏģÏĢ":10944,"ĠÎ¹ÎµÏģÎŃÏĨÎ±ÏĦÎµÎ¼":10945,"ĠÎ¯Î¿ÎºÎ±":10946,"ÏīÎ¹ÏĦÎ»ÎµÎ²":10947,"ĠÏĤÎ¬ÏģÏħÎµÎ»ÏĢ":10948,"ÎµÏģÎºÎ³":10949,"ĠÎ»ÏħÏĦÏĥ":10950,"ĠÎ½ÏİÏĦÏĥÎ±Î½Î±ÏĦÎµÎ¼":10951,"Î½ÏİÏģÎ·Î»ÏĢ":10952,"ÏĦÏĥÏħÎĳ":10953,"ĠÎ¬Î¹ÏģÏīÏĩ":10954,"Î¬ÎºÎ¹Î»ÎµÏĦ":10955,"ÏħÎ¿Îł":10956,"Î¯ÏģÏħÎ¿ÏĦ":10957,"ĠÎ¹Î±ÏĦÎ½ÏįÎ¿Î¹Î¿ÏĢ":10958,"ĠÎ¿ÏĦÎ¬Î¼ÎµÎ³":10959,"Î±Î½Î¿Ïģ":10960,"Î±Î¯ÎµÎ»Î¿ÏĩÏĥ":10961,"Î¹ÏĥÏħÎ¿Î¹ÏģÎµÏĢ":10962,"ÏĥÎ¹ÏģÎ¿Î¸Î±Îº":10963,"ÎµÏģÎµÏĦÏĥ":10964,"ÏīÏģÎ¸Î½Îĳ":10965,"Î¿ÏģÏĦÎ½ÎŃÎº":10966,"ĠÎ±Î¹ÏĥÏĦÎ¯ÏģÎ¿Îº":10967,"Î½ÏĮÎ½Î±Îº":10968,"ĠÎ¿Î»Î¯ÏĨ":10969,"Î¿Î¯ÎµÏĩÎ¿Î´Î¿Î½ÎµÎ¾":10970,"ÏĤÎ±ÏģÎŃÏĦ":10971,"ĠÎ¹ÎµÏĥÎ¯ÏĥÎ±ÏĨÎ¿ÏĢÎ±":10972,"Î¿ÏĢÎ¿Î¤":10973,"77":10974,"ÏģÎµÏĩÏħÏĦ":10975,"ÏįÏĥÎµ":10976,"ÏħÎ³Î³":10977,"ĠÏįÎ¿ÏģÎ¹Î±Îº":10978,"Î¬Î¹ÏĦÏīÏĨ":10979,"Î½Î±ÏĢÎ¼":10980,"Î¹ÎµÏĦÎŃÏĢÎµ":10981,"ĠÏħÎ¿Î¯Î±Î»ÎµÏģÏĦÎµÏĢ":10982,"ÏĤÎ¬ÏĥÎµ":10983,"ĠÎ½ÏħÎ¿Î½Î¯Î±Î²Î¼ÏħÏĥ":10984,"Î³ÏģÎµÎ¾ÎµÏĢÎµ":10985,"ÏĤÎ·Î½Î¯":10986,"pO":10987,"ĠÏĤÎ±Î´Î¯ÏģÎµÎ¼Î·ÏĨÎµ":10988,"Î·Î³Î®Î¾Îµ":10989,"ĠÎµÎ¼ÏħÎ¿Î¶Î¬Î²":10990,"ÏĤÏīÏĦÎ½Î¬ÏĢ":10991,"Î¿ÏĦÎ·Î½Î¯ÎºÎ¿ÏĦÏħÎ±":10992,"ĠÎ¹ÎµÏĥÎ¬Î¹ÏĥÏħÎ¿ÏģÎ±ÏĢ":10993,"Î±ÏģÎµÏĦÏĮÏĥÏĥÎ¹ÏģÎµÎł":10994,"Î½ÏħÎ¿Îº":10995,"Ġlm":10996,"ÏĮÎ½Î¿Î¼":10997,"Î³Î±ÎĽ":10998,"46":10999,"ĠÏĤÎµÎ¯Î¾Î±":11000,"ÏĢÎ¿ÏĢÏį":11001,"ĠÏģÎµÏĢÏįÎ¿Ïĥ":11002,"ĠÎµÎ½Î±Î¸ÎŃÏĢ":11003,"ĠÎµÏĦÎµÏĢÎŃÎ»Î²":11004,"ĠÏĤÎ¿ÏĢÎ¯Î»":11005,"ĠÎ¹ÎµÎ¬Î½":11006,"Î¹ÏģÏħÎºÎ¿ÎºÎ¹Î¿Î½":11007,"ĠÎ¬ÎºÎ¹ÏĦÎ±ÏĦÏĥÏħÏĥ":11008,"ĠÎ¹ÎµÎ½Î¯Î±Î¼Î·ÏĥÎ¹ÏĢÎµ":11009,"ĠÎĳÎļ":11010,"ĠÏįÎ¿ÏĦÎ½Î±ÏĢ":11011,"ÎĳÎłÎŁ":11012,"Î»Î±Î³Î¿ÏĦÏģÎ¿Îł":11013,"ÏĦÏĥÎ¹Î´":11014,"Î¿Î½ÏįÎ£":11015,"ĠÎ¹Î±ÏĦÎµÎ½Î¯Î´":11016,"ĠÎ®ÏĢÎ¿ÏģÏĦÎ±Î½Î±":11017,"ĠÎ¤Î¡Îķ":11018,"Î´ÎµÎ¿ÏģÎł":11019,"Î¹ÏģÎ±Îľ":11020,"ĠÎ¹ÏģÎ®ÏĦÏĥ":11021,"ĠÏħÎ¿Î½ÎµÎ¼":11022,"ĠÎ±Î´ÎµÏĢ":11023,"Î±ÏģÏĮÎ³Î±":11024,"Î¿Î¼ÎµÎ»ÏĮÏĢ":11025,"ĠÎ½ÏīÎ¯ÏģÏħÎ¼Î¼Î¿ÏĦÎ±ÎºÎµ":11026,"Î®Î²Î±Î¹Î´":11027,"ĠÎ±Î½Î½ÎµÎ³ÏįÎ¿ÏĦÏĥÎ¹ÏģÎ§":11028,"Î¬ÏĦÎĿ":11029,"ĠÎ£ÎĶ":11030,"ĠÎ¬Î»Î±Îļ":11031,"Î½ÏħÎ¿ÏĩÏģÎ¬ÏĢÏħ":11032,"ÏħÎ¿Î»Î±":11033,"ĠÎ±ÏĥÏįÎ¿ÏģÎ¿ÏĢÎ¼":11034,"ĠÏĤÎŃÏħÎµÎºÏĥÏħÏĥ":11035,"58":11036,"ĠÎ½ÏīÎŃÏģÎ¿ÏĨ":11037,"Î½Î¿Î¼Î·ÏĦÏĥÎ¹ÏĢÎķ":11038,"Î¿ÏģÎ¸Î±Î»":11039,"ĠÎ¿Î»ÏĢÏĮ":11040,"Î³Î·Î²":11041,"ĠÏĤÎ±Î¶ÎµÏĢÎ¬ÏģÎ¤":11042,"Î¹Î¿ÏĢÎ¿ÏĦÎ·Î´Î¹ÎµÎ½ÏħÏĥ":11043,"ÎĹÎ¡":11044,"Î¬Î»Î¹Îľ":11045,"ĠÎµÎ¼Î±Î½Î¬Îº":11046,"ĠSWEN":11047,"ĠÏĮÎºÎ¹Î½ÎµÎĵ":11048,"Î½ÏįÎ¿ÏĦÏĥ":11049,"ÎµÏĦÏĥÎ±Î¼ÏĮ":11050,"Î·Î¾Î±ÏĦ":11051,"ÏģÎ¿ÏĨÎ¿ÏģÎ·Î»ÏĢ":11052,"Î¹Î¿Î¹":11053,"Î¹Î»Î¿":11054,"ÏĮÎºÏĬÎ±Î½Î·Î¸Î±Î½Î±Îł":11055,"ÏĤÎ±ÏĦÎ½Î¿":11056,"art":11057,"tuA":11058,"ĠÏĤÎµÏĦÎ®ÏĦÎºÎ¿Î¹Î´Î¹":11059,"Î¹Î±ÏĦÎµÎ½Î¯":11060,"ÏĤÎµÏĥÏĦ":11061,"ĠÏĤÎŃÎºÎ¹ÏĢÏīÏĥÎ¿ÏģÏĢ":11062,"ĠÎ¹Î±ÏĦÎ½Î¿Î½Î¯Î±ÏĨ":11063,"ĠÎ¯Î¿Î´":11064,"Î¿ÏĦÎ±Îļ":11065,"ĠÎĳÎĽÎŁ":11066,"ĠÏĤÎ·ÏĥÎ¹ÏĦ":11067,"Î¹ÏģÏħÎļ":11068,"gise":11069,"Î·Î»Î»Î¬ÏģÎ±ÏĢ":11070,"Î¿ÏĦÎĿ":11071,"ÏħÏģÎ¿Îļ":11072,"tnem":11073,"ĠÏĤÎ¿ÏĨÎ¬ÏģÎ³Î¿Î¹ÏĥÎ¿Î¼Î·Î´":11074,"ĠÎ½ÏīÎ³ÏįÏĨ":11075,"ÎŁÎĳ":11076,"ĠÎµÎ¼ÏįÎ¿Î¶":11077,"Î½Î¿Îĵ":11078,"AF":11079,"ĠÎ¿Î¹Î´ÏĮÏĥÎ¹ÎµÏĢÎµ":11080,"Ġ73":11081,"ĠÏĤÎ®ÏĦÎ·Î½Î¿ÏĢÎ¿ÏģÏĢ":11082,",)":11083,"Î³Î·ÏĥÎ¹Îµ":11084,"ĠÎ·ÏĥÏīÏĨÏģÏĮÎ¼Î±Î¹Î´":11085,"ĠÎ±ÏĩÎ¹Î¿ÏĦÏĥÎ¯ÏĦÎ½Î±":11086,"ÎµÏĥÎ·ÏĦ":11087,"ĠÏĮÏģÏħÎµÎ»ÏĢ":11088,"Î¹ÎµÏĦÏĮÏģÏĢ":11089,"ĠÏĤÎ·ÏĥÎ·ÏĦÎ®Î¶Î±Î½Î±":11090,"Î¹ÏĦÏĮÎĿ":11091,"Î½ÎŃÎ³ÏħÎ¿ÏĦÏĥÎ¹ÏģÎ§":11092,"ĠÎ®ÎºÎ¹Î½Î±Î´Î¹":11093,"ĠÎ±Î¯Î³ÏģÏħÎ¿Î¹Î¼Î·ÎĶ":11094,"Î¹Î±ÏĦÎ½ÏįÎ¿":11095,"ĠÏĤÎ¿Î¹ÏĨÎ®ÏĪÎ¿ÏĢÏħ":11096,"Ġ006":11097,"ĠÎ±Î¹ÏĨ":11098,"ÏĤÏĮÎ½Î¿Î³ÎµÎ³":11099,"ĠÎ¹ÎµÏĦÏĨÎŃÏĢ":11100,"ĠÎ±Î¼Î¹ÏĨÏĮÏģÏĦ":11101,"ĠÎµÎ¼ÏįÎ¿Î¹Î¿ÏĢÎ¿Î¼Î¹ÏĥÎ·ÏģÎ§":11102,"ÎķÎ¤Î¥":11103,"Î¹ÏĨÎµ":11104,"Î¬Î¼Î¹Î¿ÏĦÎµÎ¿ÏģÏĢ":11105,"ĠÎµÏĥÎ·Î¸ÏįÎ¿Î»Î¿ÎºÎ±":11106,"ĠÎĹÎ¤Î£":11107,"Î¹ÏĢÏĥÎ¬":11108,"ĠÎ·ÏĥÎµÎ´":11109,"Î½ÏĮÎ¶ÎµÏĥ":11110,"ÏħÏĨÏĥ":11111,"Î½Î¹ÏĦÎ½Î¿Îº":11112,"Î½ÏħÎµÏģÎµ":11113,"ĠÎ·ÏĥÎ·ÏĦÎ½Î¬Î½ÏħÎ£":11114,"ĠÎ½Î±Î¸ÏģÎ®":11115,"ĠÏįÎ¾Î±ÏĦÎµÎľ":11116,"ÏħÎµÏĦÎ¹ÏĢÎµ":11117,"ĠÎŁÎĻÎķ":11118,"ĠÎ±Î¼ÎŃÏģÎº":11119,"Î¹Î½Î¿Î³":11120,"ÏĢÎµÏģÎ¸":11121,"ĠÎ®Î³Î±Î»Î»Îĳ":11122,"Î¬ÏĩÏĥ":11123,"Î·ÏĥÎ±ÏĨÏĮÏĢÎ±":11124,"Î¹ÎµÎ»ÎŃÎ¸":11125,"ÏīÏĢÏĮÎ½Î¹":11126,"Î¿ÏĦÏĢÎµÎ»":11127,"Î¯ÏģÎºÎ³Îµ":11128,"ĠÎ½ÏįÎ¿Î¸Ïī":11129,"ĠÎ¬ÏĥÎ¿ÏĢ":11130,"ĠÎ¹Î±ÏĦÎµÏĩÎŃÎ´Î½Îµ":11131,"ĠÎ½Î¿Î»":11132,"ĠÏħÎ¿Î¯ÎµÎ»Î¿ÏĩÏĥ":11133,"ÏĢÎ¿ÎºÎ£":11134,"Î½ÏīÏĦÎ½ÏĮÏĬÎ¿ÏģÏĢ":11135,"Î¿ÏģÎ¿ÏĨÎ±Î¹Î´":11136,"Î¿Î¹Î³ÏĮÎ»":11137,"Ġ83":11138,"Î±ÏģÎ³Ïħ":11139,"wol":11140,"ĠÎ½Î·Î»ÏĢ":11141,"ÏįÎ¿ÏģÎµÎ½":11142,"Î³Î®":11143,"Î½ÏħÎ¿ÏĦ":11144,"ĠÏĤÏĮÏĢÎ¿ÎºÏĥ":11145,"Î¹Î¾Î±":11146,"Î¯ÏģÏī":11147,"Î½Î±Î²Î¼Î±Î»":11148,"Î¹ÏĥÎµÎ¸Î±Î¹Î´":11149,"ÏģÎ¬ÏĢÎ£":11150,"ĠÎµÏĥÎ·Î¸Î¬ÏĢÏĥÎ¿ÏģÏĢ":11151,"pmahC":11152,"ĠÏĤÎµÎ»Î¿ÎºÏĥÏįÎ´":11153,"Î¹Î¿Î»Î»Î¬":11154,"ĠÎĻÎķÎĿ":11155,"ÏĦÎ½Î±Î¾Îµ":11156,"Î¹Î¿Î¼Î¿":11157,"IF":11158,"ĠÎ»ÎµÎºÏģÎŃÎľ":11159,"Î¿Î½Î¹Îº":11160,"ĠÎ½ÏīÏĨ":11161,"Î½ÏħÎº":11162,"ĠÎ¹Î±ÏĦÎ¬ÏĦÏģÎ±Î¾Îµ":11163,"Î¶Î¬Î¼":11164,"Î±Î½Î±Îº":11165,"ĠÎµÎ¼ÏįÎ¿ÏģÎ²":11166,"ĠÎ¹ÎµÏĩÎŃÏģÏĦ":11167,"Î»Î»ÎŃÏĦÏĥ":11168,"Î³ÏģÏįÎł":11169,"Î¯Î¾Î±Îľ":11170,"ĠÏĮÏĦÎµÎºÏģÎ±":11171,"Ġeki":11172,"Î±ÏģÏĦÎµÏĦ":11173,"Î®ÏĢÎ¥":11174,"ÏīÎ¸ÏĥÎ¹Î¼":11175,"ÏģÎ±Î§":11176,"ĠÎ½Î¿Îº":11177,"ÏĤÎ·ÏĥÏħÎµÎ´Î¯Î±ÏĢÎºÎµ":11178,"ÏĤÎ±ÏĥÏĦ":11179,"Î¥ÎŁÎ¡":11180,"ĠÎ¿Î½Î¯ÎºÏģÎ±Îº":11181,"ĠÎ±Î¹Î´ÏĮÏĥÎ¹ÎµÏĢÎµ":11182,"ÎĳÎļÎķ":11183,"ĠÎ®ÏĢÎ¿Îº":11184,"Î»Î·ÎĶ":11185,"ĠÏĮÎºÎ¹Î¼Î±Î½ÏħÎ´":11186,"ĠÎ¹ÎµÎ¶Î¯ÏģÎ·ÏĦÏĥ":11187,"Î¿ÏĢÏīÏģÎ¸Î½Î±":11188,"ĠÎ±Î¯Î½Î±ÏĩÎ·Î¼Î¿Î¹Î²":11189,"Î¹ÎĿ":11190,"ĠÎ·ÏĥÎ±ÏĨ":11191,"á½»":11192,"ĠÏĤÏħÎ¿ÏģÎ¿ÏĨÎ¬Î¹Î´":11193,"ĠÎ½ÏīÎ½ÏİÎ³Î±":11194,"Î½ÎŃÎł":11195,"ĠÎ¿Î¼Î¹ÏĥÎ¯ÎµÎ»Îº":11196,"Î½Î¹Ïĥ":11197,"ÏģÏħÎµÎ½":11198,"ÏģÎ¬Ïĥ":11199,"Î±ÏĦÎ·ÏĦÏĮÎ¼":11200,"Î±Î¯ÎºÎ¹Î»Î·":11201,"ĠÎ¹ÏĥÎ¿Îº":11202,"Î»ÎµÎ³Î³Î±ÏħÎķ":11203,"ĠÏĤÎ¹ÎµÏĪÎŃÎ»Î²Î¿ÏģÏĢ":11204,"ÎŁÎ¤ÎĳÎĿ":11205,"ĠÎ±Î½ÎµÎ¼ÏĮÎ½Î¹Î±ÏĨ":11206,"Î±Î¯ÏĦÎ±ÏģÎºÎ¿Î¼Î·ÎĶ":11207,"ĠÎ±Î½Î¬Î¼":11208,"ÏĥÎ¯Î´":11209,"ĠÎ¿ÏĦÎ·":11210,"ĠÎ¹ÏģÎ®ÏĦ":11211,"Î¸ÏħÏģÎµ":11212,"ĠÎ·Î½ÎŃÎ¼Î·ÏĢÎ±Î³Î±":11213,"Î²ÏīÎ»ÎºÎ³Îµ":11214,"ĠÎ½ÏīÏĨÎ¬ÏģÎ³":11215,"ĠÎ¹Î¿Î¹Î¿ÏĢÎ¬Îļ":11216,"Î±Î²Î¬Î»":11217,"ĠweN":11218,"ĠÎµÏĥÎµÎ¸ÏĥÏĮÏģÏĢ":11219,"ĠÎ®ÎºÎ¹Î½Î±ÎºÎ¹ÏģÎµÎ¼Î±":11220,"ĠÏĤÎ®ÏĨÎ¿ÏģÏĦÎ±Î¹Î´":11221,"ĠÎ®ÎºÎ¿Î»":11222,"ÏİÏģÎ·Î»":11223,"yti":11224,"ÏįÎ¿Î¹Î±ÎºÎ¹Î´":11225,"ĠÎ±Î¼ÏħÏģÎ´ÎĬ":11226,"ĠÎ¹Î±ÏĦÎ½Î¿ÏįÎµ":11227,"Î³ÏĮÎ»Î»ÏħÎ£":11228,"ÏĩÏĮÏĦÏħÎ±Î¤":11229,"Î·ÏĦÏĥÎ®ÏģÏĩ":11230,"Î·Î´Î¯":11231,"ĠÎ¹ÎµÎ½Î¬Î¾ÏħÎ±":11232,"Î±Î¸Î±ÎºÎµÎ¾":11233,"Î£ÎķÎľ":11234,"hsi":11235,"ĠÎ¹ÎµÏģÎŃÏĨÎ±Î¹Î´Î½Îµ":11236,"Î±Î´Î¹ÏĦ":11237,"ĠÎ±Î¯Î³Î¿Î»Î¿":11238,"Î±ÏĦÎ±ÎºÎ¹ÏĦÎ½Î±":11239,"ĠÎ±Î¹Î¼Î¸Î¬Î²":11240,"Î±Î´Î¯Î»ÎµÎ£":11241,"ÏģÎ¹Î±ÏĢÎŃ":11242,"Î¿Î»ÎºÏħÎļ":11243,"ĠÏĤÎ±ÏĦÎ½ÏİÎ»Î±Îº":11244,"ÏĦÏħÎº":11245,"ĠÎµÏĦÎ¿ÏĢÎ®Î´ÏħÎ¿":11246,"ĠÎ·ÏĥÎ·Î»ÎºÏĮÏģÏĢ":11247,"ÏħÎ¿Î¯Î±Î³Î¹Îĳ":11248,"Î³ÏīÎ³Îĳ":11249,"RG":11250,"ĠÎ¬Î½Î±ÏĦÎ½ÏīÎ¶":11251,"ÏĤÎ·Î¾ÏħÏĦÏĢÎ¬Î½Î±":11252,"Î½Î¿Î´Î¿":11253,"ÏīÏģÏħÎ¼":11254,"bmo":11255,"ÏħÎ¿Î¯ÎµÎ»":11256,"Î¯ÎµÎľ":11257,"Î·Î¾Î¬ÏĦ":11258,"ĠÎµÎ½Î¹ÏģÎºÎŃ":11259,"ĠÏĤÎ¿ÏģÎµÏĦÏįÎ»Î±Îº":11260,"ĠÎµÎºÎ·ÏĦÏĩÎŃÎ´":11261,"Î½Î±ÏģÎ¦":11262,"ĠÏĤÎ®ÎºÎ¹ÏĦÏĥÎ¹":11263,"Î»Î¿ÏĦÎ½Îµ":11264,"ĠÎ¹Î¿ÏģÏĮ":11265,"Ġ[":11266,"ĠÎ¹Î±Î¼Î¬Î¼ÏħÎ¸":11267,"ĠÎµÎºÎ·Î¸ÏİÏģÎ·Î»ÎºÎ¿Î»Î¿":11268,"ĠÏĤÎµÎ¹Î¿Îł":11269,"ĠÎ®ÎºÎ¹Î»Î¿ÏĩÏĥ":11270,"nor":11271,"ÏĥÎ¹Î¼Î¿Îļ":11272,"ĠÏĤÎ®ÏĩÏħÏĪ":11273,"ÎŃÎ»Î¿ÏĢÎ±ÏĦÎ±Îº":11274,"ĠÎ®Î½Î¹ÏĦÎµÏĨ":11275,"ĠÏħÎ¿Î¯Î±Î³":11276,"SO":11277,"Î³Î±ÏĨÏĥ":11278,"Î¿ÏģÏĮ":11279,"Î±ÏĢÏģÎ±Î½ÏħÏĥ":11280,"ĠÎµÏĥÎ±Î¯":11281,"ĠÎ®Î¼Î¿Î´":11282,"ĠÎ¯Î¿ÎºÎ¹Î¼Î¿Î½ÏħÏĦÏĥÎ±":11283,"Î¶Î¹ÏģÎ¿":11284,"ĠÏĤÎµÎ½Î¬ÏĢÎ±Î´":11285,"ÏħÎ¿ÏģÏĮÏĨ":11286,"ÏħÎºÎ»Îµ":11287,"ĠÎ±Î»Î»ÏįÏĨ":11288,"ĠÎ¬ÏĦÏĩÎ¹Î¿Î½Î±":11289,"ÏĤÎ¹ÏĦ":11290,"ÏįÎ»Î³":11291,"ĠÎ±Î¼Î¼ÎŃÎ»Î²":11292,"ĠÎµÏĦÎµÎ¸Î¬Îľ":11293,"ĠÎ¹ÎµÏĥÎ®ÏĦÎ±ÏģÎº":11294,"ÏĦÏĥÎ¹Î»Î±ÎµÏģ":11295,"Î·ÏĮÎ½Î¿ÏĦÏħÎ±":11296,"ĠÎ±Î¯ÎµÏģÎ¹Î±ÏĦÎķ":11297,"ÏħÎ¿ÏĦÏĥÏįÎ¿Î³ÏħÎĳ":11298,"Î¹ÏĦÏĨÎŃ":11299,"ĠÏĤÎŃÎ¹Î´":11300,"Î¯ÏĦÎ±Î¼Î·ÏģÎ¹ÎµÏĩÎ¹ÏĢÎµ":11301,"Ġnam":11302,"ĠÎ·Î¾Î·Î»ÏĢÎºÎŃ":11303,"ĠÎ¿Î²ÏĮÏĨ":11304,"Î»Î¿Îº":11305,"ĠÎ±Î¯ÎºÎ¹Î¿ÏĦÎ±Îº":11306,"Î²Î¼ÎµÏĢÎµ":11307,"ĠÎ·ÏĥÎ·ÏĦÏĮÎ´":11308,"ĠÎ¬ÎºÎ¹Î½Î¿ÏģÏĦÎºÎµÎ»Î·":11309,"ĠÏĤÏīÏģÎºÎ¬":11310,"ÎµÏĦÎµÏĥÎ¬":11311,"ĠÎ·ÏĥÎ·Î»ÎºÏĥÏĮÏģÏĢ":11312,"cA":11313,"ÏħÎµÎ¼ÏĥÎµÎ´":11314,"ĠÏĤÎ®Î½Î¸ÎµÎ¹Î´":11315,"ÏĩÏħÏĦÏħÎķ":11316,"ÎµÎ´ÏħÎ¿":11317,"ĠÎ¬Î´":11318,"ĠÎ±Î¹Î´Î¬Î¼Î·Ïĥ":11319,"ÏģÎ±Î½":11320,"ĠÎ®ÏĩÎ¿Î´Î¿ÏĢÎ±":11321,"ĠÎ¿ÏģÎµÎ¸ÏįÎµÎ»Îµ":11322,"Î¹ÏģÎºÎ¿ÏĢÎ±ÏĦÎ½Î±":11323,"ĠÎ½ÏħÎ¿Î½Î¬Î²Î¼Î±Î»Î¹ÏģÎµÏĢ":11324,"Î±ÏĦÎ±Î¼ÏİÎ¹Î±ÎºÎ¹Î´":11325,"ĠÏĤÎ¬ÏģÎ±Î¼Î±Î£":11326,"ĠÎ¿ÏģÎ¹ÎµÎ½ÏĮ":11327,"Ġ55":11328,"ÏĦÎ·Î²":11329,"erF":11330,"ĠÏĮÎºÎ¹Î½Î¿ÏģÏĦÎºÎµÎ»ÎĹ":11331,"ĠÎłÎĳ":11332,"ĠÎ±Î¯ÎµÏĩÏģÎ±":11333,"ĠÏĤÎ®ÎºÎ¹ÏĥÏħÎ¿Î¼":11334,"lE":11335,"ÎĻÎĻ":11336,"Î¹ÏĨÎ·ÏĪÎ¿ÏĢÏħ":11337,"Î±Î»Î¿ÎµÎ½":11338,"ĠÎ·Î½ÎµÎ¼ÏĮÏĩÏģÎµ":11339,"ĠÏħÎ¿Î¹Î¿ÏĢÎ¬Îº":11340,"ĠÎ®ÏĥÎ¹Î¼":11341,"Î±Î¯ÏģÎ¹ÎµÏĢÎ¼Îµ":11342,"ĠÏĤÎ·Î³":11343,"ĠÎ¬ÎºÎ¹Î»Î¿ÏĦÎ±Î½Î±":11344,"ĠÎ®Î½Î¿Îľ":11345,"ÏħÎ»Î¿Îº":11346,"Î¸ÏĥÎ¹":11347,"ÎŃÎ»Îł":11348,"ĠÎµÎ¼Î±Î´Î¯Îµ":11349,"ĠÎ±Î¹ÏģÎ®ÏĦÎ·ÏģÎ±Ïĩ":11350,"ĠÏįÎ¿Î³ÏģÏħÎ¿ÏĢÏħÎ¸ÏīÏģÏĢ":11351,"ÏĥÎ±ÏĦÏģÎ¿Îµ":11352,"ĠÎ±Î¼Î¿ÏĦ":11353,"Î½ÏħÎ¿Îľ":11354,"ĠÎ·ÏĥÏħÎ¿ÏģÎºÎ³ÏįÏĥ":11355,"ĠÎ±ÏĥÏħÎ¿ÏįÎµÏĦÏīÏģÏĢ":11356,"Î¹Î¿ÎĽ":11357,"Î¹ÏģÏī":11358,"ÎĳÎĻÎķ":11359,"ÎĴÎķ":11360,"ĠÎµÎ½Î±Îº":11361,"ĠÎ±Î¯ÏĦÎ±ÏģÎºÎ¿Î¼Î·Î´":11362,"ĠÎ¿Î¯ÎµÎ¼Î±Î¤":11363,"ÎµÎ²Ïĥ":11364,"Î³Î¬Ïģ":11365,"ÏĤÎ¿ÏĦÎŃÏĨ":11366,"ÏįÎ¿ÎĶ":11367,"Î±ÏĩÎ¹Î¿ÏĦÏĥ":11368,"Ġ0002":11369,"ĠÎ¿Î¹ÏĥÏįÎ¿Î»ÏĢ":11370,"ÏįÎ¿ÏĦÎ½Î±ÏĢ":11371,"Î¯ÏģÎ±ÏĩÏħÎµ":11372,"ĠÏĤÎµÏĦÎ·ÏĦÎ¯Î±ÏģÎ±ÏĢÎ±":11373,"ÏģÎµÎ¼Î±Î¹Î´":11374,"ĠÎ®ÏĢÎ¿ÎºÎ±Î¹Î´":11375,"Î±ÏĦÎ·ÏĦÏĮÎºÎ¹ÏĦ":11376,"ÏħÎ¿Î¯Î³Î¿Î»Î¿ÏĦÏĥÎ¹":11377,"Î¹ÏģÎ±Î¸Î±Îº":11378,"ĠÎ±Î¯ÏĪ":11379,"ÏĤÎ·ÏĥÏīÎ½ÎĪ":11380,"ĠÎ¿ÏģÎ¸ÏģÎĨ":11381,"ÏħÎ¿ÏĥÎµ":11382,"ĠÎ½Î±ÏĦÎŁ":11383,"ĠÎ¹ÎµÎ¶Î¬ÎµÏģÎ·ÏĢÎµ":11384,"Î®Î½Î³":11385,"ÎºÎ±Î¹ÏģÏįÎº":11386,"ĠÏĤÎ¿ÏģÎ´Î½Î±Î¾ÎŃÎ»Îĳ":11387,"ĠÎ½Î®":11388,"ĠÏĤÎµÎ¯ÏģÎ¿ÏĨÎ¿ÏģÎ·Î»Îł":11389,"Î·Î¾Î¬ÏģÏĢ":11390,"ĠÏĤÎŃÎ³Î¿Î¼ÏģÎ±ÏĨÎµ":11391,"Î½Î·ÏĥÏĥÎµÎľ":11392,"ÏĢÎĻ":11393,"ei":11394,"ÎŃÏģÏĦÎ¿ÏĢÎ±":11395,"ĠÎ¿Î¯Î±Î³Î¹Îĳ":11396,"ĠÏĮÎºÎ¹ÏĦÎ·ÎºÎ¹Î¿Î¹ÎĶ":11397,"Ġani":11398,"ÎŃÎ¸Î¿ÏĢÏħ":11399,"ĠÎ®ÎºÎ¹ÏĦÏĥÎ±":11400,"Î½ÏīÎ³Î±Î¹ÎĶ":11401,"ĠÏĮÎ³ÏģÏħÎ¿ÏĢÎ¥":11402,"Î¯ÏĦÎ±Î¼ÏīÎ´":11403,"ĠÎ±ÏĨ":11404,"maHx":11405,"ÎµÏĦÎµÏĥÎ®":11406,"Î½Î¹ÏģÎºÎ¹Î»Î¹Îµ":11407,"ĠÏĤÎ¹ÎµÏģÎ¤":11408,"ÏĤÎ·Î½ÏĩÎŃÏĦ":11409,"Î·Î¸Î±ÏĢ":11410,"ĠÎ½ÏİÎ½Î·Î¼":11411,"ĠÎ¹Î´Î¬Î»":11412,"ÏĤÎ¿ÏĨÎ¬ÏģÎ³":11413,"Î·ÏĦÏĥÎ±ÏĦÎ±Îº":11414,"ĠÎ½ÏįÎ¿Î¸ÏĨÎ·Î»":11415,"ĠÏĤÎ±Î¯ÏĥÏħÎ¿Î¾Îµ":11416,"Î¼Î¬ÏģÎ³Î¿ÏĢÏħ":11417,"ÎŃÎ»Îµ":11418,"ÏİÎ½Îĳ":11419,"Î±Î¯Î½Î¹Î±ÏĦ":11420,"ĠÎ·ÏĥÎ±Î²Î¼ÎŃÏĢÎµ":11421,"ÏĤÎ¹ÎµÎ¾ÎŃÎ»":11422,"86":11423,"ĠÏĤÎµÏĦÎŃÎ³Î·":11424,"Î½ÏīÎ»Î¿Îł":11425,"ĠÎ½Î±ÎºÎ®ÏģÎ²":11426,"Î±Î¹ÎµÎ»Î¬ÏĨÏĥÎ±":11427,"ĠÎ¹Î¿Î»Î¬Î³ÎµÎ¼":11428,"ĠÏĤÎŃÏĨÎ±Ïĥ":11429,"Î½Î®ÏĦÏħÎ±":11430,"Î´Î½Î¬ÎºÏĥ":11431,"ÏĤÎŃÎ¼Î¹ÏĦ":11432,"ÏĤÎ¹ÎµÏĥÏİÏĦÏĢÎ¹ÏģÎµÏĢ":11433,"ÎķÎĵ":11434,"ĠÎµÏĦÎ¯ÎµÏĦÏĥ":11435,"ÏĩÏģÎ±Î½Î±":11436,"erf":11437,"ĠÎ±ÏĦÏĥÎ¹Ïĩ":11438,"ĠÏĤÎ®ÎºÎ¹Î½ÎµÎĵ":11439,"Î±Î»Î²":11440,"ĠÎ±Î¶ÎµÏĢÎ¬ÏģÏĦ":11441,"ÏīÎ¸ÏģÏĮ":11442,"ÏīÏĦÎŃÎ¼Î¹ÏĦÎ½Î±":11443,"ÎºÎ¹ÏģÎ·ÏĦÏĥÎ¿ÏĢÏħ":11444,"Î·ÏĥÎµÎ¸ÏĮÏĢÏħ":11445,"ÏīÎ¹Î¾":11446,"Î¹ÏĢÎ¿ÎºÏĥ":11447,"ĠÏĤÏīÎ¯ÎµÎ»ÎµÏĦ":11448,"ĠÎ¹ÎµÎ³Î¬ÏģÎ±ÏĢ":11449,"ĠÏĤÎ¹ÎµÎ¶Î¬":11450,"-.":11451,"ĠÎ½ÏīÏģÎŃÏĦ":11452,"ĠÏĤÎ®ÎºÎ¹ÏĦÏĥÎ¹Î½ÏīÎ³Î±":11453,
[...]
