#version: 0.2
Ġ d
e s
Ã ©
Ġ l
Ġ p
e n
o n
o u
Ġ c
Ġ s
r e
Ġd e
Ġ a
e r
a n
a i
t i
q u
Ġ m
en t
e t
â Ģ
i s
t e
n e
l e
âĢ Ļ
Ġ v
Ġ qu
a r
Ġ t
u r
i n
Ġ Ã
Ġl a
Ġ f
ou r
Ġ et
Ġl e
Ġ u
ti on
o r
ĠÃ ł
i l
i t
Ġ n
Ġ r
Ġ en
o m
a s
m ent
Ġl es
Ġp r
ou s
es t
Ã ¨
Ġd es
Ġ j
u s
Ġ b
e l
an t
a l
ai s
c e
e u
Ġp our
a u
o i
on t
Ġa u
v e
a tion
Ġu n
an s
o s
Ġp ar
m e
c h
t re
Ġ Ã©
Ġqu e
r i
Ã© s
Ġd u
c i
a g
Ġp as
Ġp l
. .
Ġ g
l i
qu e
ai t
Ġd Ã©
on s
Ġu ne
Ġt r
Ġ re
Ġc om
Ġc h
r es
a t
Ġs ur
Ġd ans
d e
Ġ est
s i
Ġpr o
Ġqu i
m p
Ã© e
s e
Ġ C
Ġ in
Ġv ous
d i
Ġs e
t Ã©
a c
Ġpl us
l es
Ġ L
Ã ª
a b
Ġr Ã©
i e
f f
Ġ e
u n
ou t
ai re
o l
Ġ 2
er s
u i
ou v
Ġc e
Ġ ne
p r
Ġc on
Ġj e
Ġ 1
en d
a p
i en
Ġ (
a v
Ġa ve
i r
a m
Ġ :
el le
Ġ h
o is
it Ã©
Ġ ou
Ã¨ s
Ã© r
ur s
Ġ il
ag e
Ġ P
ai n
Ġave c
Ġs i
oi r
t er
o p
o tre
Ġ M
Ã¨ re
Ġ S
u is
Ġ Â
a le
u re
Ġa v
Ġp eu
t r
Ġd i
an d
.. .
Ġa n
u l
Ġ !
on n
et te
c es
Ġt out
a ti
Ġ te
qu es
Ġ A
Ġm ais
t es
Ġs ont
Ġg r
Ġ o
Ġm o
u e
Ġ E
or t
Ã© es
an ce
Ġe x
Ġ D
Ġ i
Ġn ous
Ġ2 0
eu x
ch e
Ġl i
on ne
p e
g e
Ġm e
m b
c tion
o it
Ġ J
o t
or m
v i
u ne
Ġs er
I l
Ġc ons
Ġb ien
Ġ ?
our s
c t
Ġv otre
Ã ł
m i
f i
r Ã©
Ġs on
il le
au x
Ġcom p
ent re
in s
Ã© t
ai l
n i
ation s
Ġm on
Ġf ait
Ġau x
Ġc ont
Ġs u
o c
Ã© ri
au t
en ce
is e
Ġf aire
o g
Ã© c
ĠÃ© t
Ã ´
Ġ B
Ġ T
or s
u x
ab le
en s
p os
Ġa c
Ġc ette
m es
Ãª me
ou ve
Ġ F
Ġp er
a d
Ġ y
ĠÃ ª
Ġv i
Ġpar ti
Ġd is
u t
Ġ N
l Ã©
Ġs a
ĠÂ »
Ġa p
er t
d u
Ã© n
ant s
Ġcom m
Ġp e
a te
Ġa r
a ce
us si
0 0
u m
Ġp ers
âĢ ¦
o in
Ġ20 1
Ġa l
i g
L e
Ã §
Ġ R
Ġ on
Ġcom me
Ġtr Ã¨s
Ġt ou
ĠÂ «
ti t
Ġp os
b re
Ġ V
e au
i que
ou p
o re
ti l
p ar
end re
Ġm ar
ĠÃª tre
i d
Ġ 3
Ġpeu t
t en
o y
es s
ment s
i on
b li
Ġm Ãªme
ĠdÃ© c
mp s
Ġ Il
a y
ai res
l er
Ġa s
Ġf r
ar d
on d
Ġc ar
Ġm a
l le
tion s
i m
e ur
Ġau t
Ġ ont
Ġs es
or d
al is
ĠÃ §
Ġqu el
ĠÃ© tÃ©
ĠÃ§ a
an g
Ġ entre
Ġa ussi
o ci
on c
Ġpr Ã©
e z
b le
Ġt u
i c
Ġ "
Ġtr av
Ġle ur
ent s
ai ne
Ġt ous
an de
j et
si on
Ã ¢
el les
i ne
Ġ G
L a
Ġr Ã©s
Ã¨ me
pr Ã¨s
m et
e x
Ġf in
Ġpr Ã©s
en ti
Ġc es
il l
s er
Ġs uis
oi re
te ment
Ã© g
Ġc r
is t
v en
Ġte mps
f orm
Ġs ou
J e
n Ã©e
ap p
ĠL e
L es
Ġde ux
Ã ®
ale ment
Ġn om
Ġj our
ĠJ e
Ġp re
f in
re r
Ġs ui
Ġn otre
Ġa t
Ġp u
Ġs ans
ent e
Ġv os
ch er
) .
r ai
ĠÃ© c
Ġi mp
Ġc el
ouv er
Ġdi ff
Ġp h
es p
Ġ O
Ġj us
Ġt er
Ġen c
Ġc o
ag es
en se
v re
o b
Ġf or
Ġdi re
ti n
s t
Ġ elle
Ġa d
us e
Ġm Ã©
o li
til is
ti v
c om
Ġpre mi
ĠL a
Ã »
t s
te ur
E n
Ġl ui
U n
Ġan s
r a
Ġin ter
it Ã©s
Ġ 4
Ġs t
er ci
c u
Ġpro f
i er
as s
Ġe ff
al itÃ©
v ent
n es
n er
Ġ 5
m in
an te
Ġm es
Ġper met
Ġde m
Ġc a
il s
P our
ti que
qu i
Ġc l
ti f
d Ã©
p uis
Ġc as
le ment
Ġb eau
v er
Ġenc ore
Ġd onn
Ġ -
Ġtrav ail
Ġs p
ci p
Ġap p
Q u
Ġj eu
Ġcon c
ĠL es
it s
Ġa m
Ġr en
Ġm an
on g
Ġpro pos
Ġc ol
Ġpro du
ul t
Ġd onc
Ġpers onn
Ġpr i
Ġex p
j our
Ġde v
Ġ I
Ġde r
Ġv is
l Ã¨
Ġf ois
Ġv ie
Ġgr and
ĠrÃ© p
Ã ¹
Ġn os
Ġm al
Ãª tre
Ġpar t
at s
Ã¨ res
ai ent
an c
av oir
Ġm oi
Ġm in
Ġb on
ti s
Ġch a
Ġsi te
Ġre c
ain s
g r
v es
ĠE n
it u
Ġav ant
al es
mb re
Ġen v
Ġs eu
ĠrÃ© g
Ġc rÃ©
j ours
re z
Ġv rai
Ġsu p
ol u
Ġp uis
Ġpe tit
ti c
Ġpu bli
Ġf orm
Ġ1 9
Ġcon n
Ġs oci
Ġm et
Ġder ni
Ġs y
Ġ H
is te
Ġr es
U ne
! !
or te
Ġmo ins
Ġd r
end ant
in si
Ġmon de
Ġ âĢ
Ġo Ã¹
i tion
Ġf aut
Ġ or
Ġtou jours
al l
Ġs Ã©
Ġc li
j e
e mp
o le
Ġnom bre
Ġav oir
Ġser vi
ur es
ne ment
Ġn on
Ġf a
i ci
Ġquel ques
om me
ou te
Ġan n
Ãª te
ĠF r
Ġtou te
Ġpers onne
c oup
Ġs oit
eu re
d es
Ġde puis
Ġ ti
i te
Ġn ouv
Ġc ert
Ġs al
Ã© d
e m
ĠÃ© g
ou l
in g
Ġch os
Ġ ,
Ġas s
Ġp ay
ais s
c ation
ar i
) ,
Ġo ff
Ġac c
Ġl ors
ĠE t
Ġcel a
v ers
Ġo b
Ġs ous
Ġtout es
Ã© ci
Ġn i
ain es
Ġ 6
Ġv a
es tion
m is
Ġqu and
as se
Ġen f
it er
Ġa prÃ¨s
g an
an ces
Ġp ouv
ce p
ĠdÃ© j
Ġu tilis
Ġbeau coup
ou le
u er
ĠdÃ© p
ĠP ar
Ġser a
ĠC h
Ġc our
Ġtr ans
Ġf on
mb le
r it
Ġa insi
ais on
Ġb l
Ġm il
Ġcom pr
Ġv oir
ĠÃ©t ait
v ous
Ġl ong
Ġm i
an ge
Ġcon f
Ġse c
Ġle urs
Ġm ain
ol og
ĠdÃ© b
at ure
u it
Ġm om
Ġg Ã©n
ac c
Ġpos si
Ġj u
Ġcomm un
Ġdiff Ã©r
Ã´ t
Ġn ouve
Ġc or
Ġm ois
Ã© v
Ġp oin
Ġb r
Ġpro jet
g ne
ĠprÃ©s ent
il itÃ©
ch es
ouve z
Ġpas s
Ġcont r
Ġcont re
Ġd ont
Ġal ors
Ġph ot
ati que
Ġpersonn es
Ġpl ace
ĠÃ© v
qu er
Ã© tÃ©
Ġm ont
ĠÃ©g alement
Ġfon ction
Ġtr op
Ġf il
ab les
is s
h ui
an Ã§
om m
Ġin tÃ©
ac t
ai te
Ġi m
ate ur
ĠdÃ©j Ãł
Ġsi mp
Ġ ;
Ġc oup
is es
Ġd it
ĠdÃ© v
en ces
i mp
l s
Ġj ours
g n
ch Ã©
ri r
l us
E t
Ġ 7
ĠM ais
Ġb es
u es
Ġpro p
Ġaut res
Ġre pr
Ġ1 0
Ġil s
Ã© lÃ©
el op
Ġpro b
r o
i de
gan is
Ġd Ã©s
a re
Ġ ent
V ous
Ġl Ãł
ĠP our
Ġin s
ces s
om mes
a Ã®
Ġat t
i re
Ġr app
Ġr est
Ġmom ent
Ġt our
Ġr ien
Ġ op
Ġn o
i es
ie urs
Ġav ait
Ġ ...
is se
Ġb as
Ġprof es
p h
Ġap pr
te urs
Ġa b
Ġf i
Å ĵ
Ġ 8
Ã© m
Ġa g
r ait
Ġj ou
Ġv er
oi x
Ġpay s
en ne
el s
Ġ20 0
Â «
Ġc i
en ir
ĠgÃ©n Ã©r
Ġf am
ang er
c ont
a di
Ġau tre
on om
b les
Ġt h
Ġa ur
Ġj am
Ġcom ment
Ġpr Ã©c
Ġf er
Ġse m
anÃ§ ais
t ant
Ġn Ã©
i ques
ĠrÃ© alis
Ġp ouvez
Ġcha que
jour d
m er
Ġsou h
res s
Ġdr oit
d re
Ġvrai ment
Ġte ch
Ġs ouv
Ġave z
tr u
it es
m ar
ate urs
ĠdÃ©v elop
Ãª t
ve z
Ġch ar
ant es
Ġre tr
Ġs avoir
Ġs itu
Ġ w
ĠC e
Ġd oit
Ġb onne
ĠFr ance
Ġre l
Ġb i
Ġch e
Ã©t ait
Ġplus ieurs
Ġpr in
Ġcomp te
Ġc ap
Ġs c
Ġch ez
S i
Ġa fin
C e
ti ve
N ous
Ġsp Ã©ci
Ġpe ti
ct u
Ġg ar
ou pe
Ġv ers
aut res
Ġdis pos
Ġre cher
Ġ Qu
a ur
ex p
Ġcons e
Ġjus qu
Ġav ons
Ġc ours
ti ques
Ġf em
Ġc et
on e
Ġd ur
Ġ .
Ġ eu
Ġjam ais
Ġme ille
Ġs ais
pr ise
Ġf ais
Ġpar f
Ġin form
c ri
Ġm is
si onne
se z
ail le
ui te
ent es
Ġmet tre
Ġpr endre
Ġp oli
ien s
Ġtr ouve
ĠÃ© qui
di c
Ġenf ants
Ġ W
Ġar ri
Ġi ci
tic le
Ġparti e
Ġre g
Ġmi eux
ĠÃ© le
Ġ 9
b e
i ons
ĠrÃ© f
Ġp i
ag n
ĠV ous
Ġpeu vent
m Ã©
Ġsui te
Ġpri x
us es
p ort
Ġmo d
Ġman i
Ġa ff
Ġm at
ri c
Ġl oc
et s
Ġch er
Ġ1 5
Ġm ati
o il
Ġprodu its
el on
Ġmo y
Ġchos e
Ġprofes sionne
ĠâĢ ĵ
ĠN ous
Ġpubli c
ri b
v Ã©
t out
Ġp le
qu Ã©
Ġpremi Ã¨re
Ġimp ort
a ch
Ġb ou
pe ct
Ġgr ande
Ġpremi er
o de
ai r
00 0
mp l
Ġnouve au
Ġni ve
ĠdÃ©c ouv
cu li
com p
Ġd ou
ag er
Ġtr ois
Ġdem ande
Ġli eu
at t
l u
Ġqu alitÃ©
Ġr ap
v is
o ins
Ġc eux
Ġm us
ati f
ĠI n
Ġd om
Ġdem and
Ġi d
Ġ ess
Ġnouv elle
Ġre t
Ġfr anÃ§ais
tit u
ist oire
c tif
Ġp ense
Ġqu estion
Ġpossi ble
Ġt Ã©lÃ©
an che
ap h
Ã© li
Ġ Un
l les
Ġann Ã©es
Ġ k
Ġt on
Ġparti culi
Ã¨re ment
Ġau c
Ġp endant
ĠO n
Ġren cont
Ġs or
qu oi
Ġinter n
Ġl Ã©g
il les
ction s
tÃ© ri
er n
Ġres te
elle ment
olu tion
Ġin di
A u
Ġservi ce
Ġpouv oir
Ġtr ouver
Ġ es
Ġf ond
on i
Ġn ature
.. ..
Ã© p
Ġ1 8
il i
ur op
v ant
Ġli gne
b er
g er
Ã ī
â Ĥ
Ġpr es
âĤ ¬
Ġbes oin
am me
ag ne
ĠS i
Ġa i
Ġpoin t
2 0
Ġmil li
D ans
Ġ esp
Ġs oir
ĠE lle
Ġc an
am ment
p er
ĠdÃ© t
Ġmain ten
Ġv oy
Ġparti r
en c
Ġ K
Ã©c ur
Ã© l
Ġm ag
Ġparti cip
ui re
ĠD e
Ġmais on
Ġpro gr
l a
Ġm ise
ent r
or is
Ġp ens
Ġ ouv
res se
Ã§ on
ons e
ati ve
Ġv ol
Ġdis p
Ġnive au
Ġqu oi
Ġex emp
Ġv ille
Ġ201 8
n ent
te l
Ġcr ois
D e
c c
Ã» t
ĠdÃ© f
Ġt oi
ĠnÃ© cess
Ġeff et
Ġin c
Ġor ganis
eur es
Ġl ais
ĠÃ©t u
a de
Ġpeti te
ti er
Ġv ais
ĠÃ© p
Ġjus te
Ġm en
Ġsouv ent
Ã©r ation
Ġrecher che
Ġac tiv
Ġ 0
Ġpl ais
p s
pe ment
Ġan nÃ©e
Ġc ad
av ais
E S
Ġf our
Ġ Une
Ã¨ ne
d r
Ġt a
ti r
Ġc al
ant Ã©
Ġcel ui
Ġm er
Ġpl an
u tilis
Ġsy st
Ġsur tout
b ilitÃ©
Ġpas ser
t res
in es
Ã´ le
Ã© rer
Ġt y
Ġs oi
ven ir
ĠM ar
ig n
f r
Ġcol le
ĠÂ» ,
Ġch ois
Ġch oix
Ġrapp ort
Ġh ab
si ons
ue il
Ġv u
Ã¢ ce
Ġs ens
ĠrÃ©p ond
Ġau jourd
Ġcon tin
Ġtech ni
Ġs Ã©cur
de z
or ter
Ġs ommes
Ġsu jet
Ġv eu
ve c
Ġr is
Ã¨ g
a ff
Ġderni er
o o
v oir
Ġs au
Ġ3 0
am b
fi er
Ġ1 2
et tes
au d
Ġn ot
ult ure
ĠA u
ĠdÃ©b ut
M ais
Ġt ant
an nÃ©e
Ġcon di
ti en
Ġdonn er
Ġv oit
Ġpro ch
el l
tÃ© r
t u
Ġsem aine
Ġr esp
Ġpr is
Ġprin cip
ĠrÃ©s ult
Ġv en
tion ne
Ġservi ces
O N
Ġl u
Ġp ort
ri er
c ul
Ġc Ã´
Ġs elon
par t
ĠC om
Ġfam ille
Ġre m
Ġrap ide
ac tion
ter n
Ġtr ouv
Ġt en
p te
au tre
in t
Ġb Ã©n
onne ment
Ġin st
Ġdonn Ã©es
en v
li c
og r
P ar
Ġ [
Ġw e
ĠÂ» .
Ġdes s
Ġpr om
Ġas sez
res sion
Ġplais ir
is tr
Ġdisp oni
Ġs Ã»
Ġsouh aite
Ġpas se
ten tion
O n
te z
end u
Ġs our
Ġn ation
Ġcert ains
Ġs ol
Ġg en
Ġpar ce
u d
Â »
Ġter r
Ġjour nÃ©e
Ġfa ci
in form
ĠÃª tes
Ġap par
Ġv oul
or i
g Ã©
ct ure
Ġpeu x
Ã© ment
Ġsimp le
re t
an ci
ati s
Ġenv ir
Ġgr os
e urs
Ġsup er
l Ã¨me
w w
Ġgr oupe
Ġexemp le
Ġcad re
oi ci
Ġex c
Ġchos es
Ġphot os
ĠrÃ©s er
ti e
ĠdÃ© m
Ġs Ã©ri
Ġmin u
Ġreg ard
Ġrepr Ã©s
ill et
Ġquel que
u b
ĠG r
Ġser ait
Ġret our
I n
Ġfa Ã§on
Ġform ation
Ġpro c
Ġc oule
Ġr i
Ġser ont
Ġprob lÃ¨me
s s
oi e
Ġh eures
vi er
Ġen se
l ar
pr ises
t h
Ġal l
Ġpropos e
Ġmainten ant
Ġc elle
ab l
d s
a z
os si
Ġv ue
on de
Ġin f
al i
l ors
v Ã©e
h Ã©s
Ġs antÃ©
Ġjeu nes
Ġre p
Ġa id
le x
3 0
Ġsyst Ã¨me
Ġ1 4
Ġdire c
ar r
Ġseu l
Ġb elle
at h
o d
om b
ai me
ĠprÃ© f
je ctif
es tions
ar ge
ap pr
Ġconn aiss
as ion
Ã© fi
Â °
Ġvi dÃ©
vi ent
mb l
e c
or me
Ġr ess
Ġ z
ati ques
Ġc uis
i eu
f s
at Ã©g
os e
ĠdÃ©couv rir
r ent
Ġnot amment
ri e
ĠÃ©c onom
Ġcom b
Ġp orte
g ie
Ġn um
ure r
oc u
Ġresp ons
li que
ĠdÃ©velop pement
cri p
Ġa ch
g rÃ©
d ess
C ette
ĠrÃ©g ion
Ġg ens
Ġd oi
ĠprÃ© v
u c
ĠPar is
ĠsÃ©cur itÃ©
âĢ Ŀ
Ġp age
Ġseu lement
o les
Ġm ai
Ġf ut
i ti
Ġ201 7
Ġet c
ag it
Ġr ou
Ġp Ã©ri
Ġt ot
Ġinform ations
te mps
Ã©ri ence
lÃ© ment
is me
ĠP r
Ġ âĢ¦
Ġsoci Ã©tÃ©
ai tement
Ġnombre ux
Ġcon fi
is tre
aÃ® tre
Ġg l
Ġh um
ĠcÃ´ tÃ©
ici le
Ġfil m
" ,
Ġbl og
Ġsu ff
Ġ1 7
oi res
Ġd onne
Ġgr Ã¢ce
Ġpour quoi
ac es
ogr aph
Ġan im
Ġf ont
o Ã»t
in ter
Ġ U
Ġpar c
Ġpi Ã¨
Ġ %
Ġsup p
ĠdÃ© ci
Ġal ler
Ġl og
Ġli v
Ġ1 6
ce mbre
Ã¨ le
Ġpr Ã¨s
g es
ri que
Ġgr at
Ġ1 1
ĠrÃ© c
Ġa ctu
Ġfor me
x im
ut Ã´t
Ġqu estions
o v
Ġprodu it
un i
us t
Ġf l
Ã© h
ĠbÃ©n Ã©fi
p es
h eure
isse ment
Ġmar chÃ©
Ġli vre
Ġch ange
Ġm Ã©t
Ġsui v
i Ã¨me
fi que
pte mbre
g l
fi c
Ġt Ãªte
rib u
Ġr Ã¨g
at ri
out er
Ġpl u
E R
Ġnouv elles
o bre
lle ment
a que
Ġsal le
el a
e aux
Ġre f
ar ri
ĠT r
Ġh eure
t ent
Ġ eux
Ã ¯
a h
ais e
Åĵ u
Ġmani Ã¨re
Ġpr end
is tes
le ction
op h
C h
Ġd Ã¨s
r ont
Ġminu tes
Ġ2 5
ar t
Ġconc ern
urop Ã©
Ã© qu
Ã©r ence
ĠC ette
Ġpass Ã©
c re
Ġv ale
Ġr aison
m Ãªme
Ġte x
ĠdiffÃ©r ents
ain t
al y
olog ie
ĠD ans
B on
Ġpl utÃ´t
use ment
Ġm ess
fi cation
Ġtrav ers
Ġbas e
Ġpetit s
Ġf ac
Ġh aut
Ġb out
m ment
li r
mb res
an vier
ore r
e ff
Ġcondi tions
Ġ elles
Ġfem me
Ġv al
Ġar ticle
er ne
Ġac comp
ct obre
ab ilitÃ©
Ġc in
Ã© qui
ve mbre
Ġl oin
ten ir
ai e
u le
Ġjeu ne
y c
al itÃ©s
an n
Ġf ace
oci ation
Ġa j
ĠÃ© ch
or ation
is er
Ġsitu ation
Ġpar ler
Ġfem mes
E N
op ul
Ġ! !!
Ġauc un
Ġc er
Ġc entre
Ġl oi
Ġin d
r on
ĠdÃ© cembre
s es
Ġcli ents
Ġcomm enc
Ġconse il
g ent
m and
Ġ Q
b il
ĠA n
Ġun ique
Ġpoli tique
s uite
ĠintÃ© ress
Ġ 000
Ġaut our
ĠIl s
Ġderni Ã¨re
M erci
Ġme mbres
Ġg estion
u p
Ġd ocu
min istr
Ġ1 3
tÃ©ri eur
Ġg ouver
li cation
er a
Ġe mpl
Ġcor ps
Ġcont ac
m an
Ġsu b
Ġp o
ĠÃ©qui pe
Ġ201 6
Ġse ptembre
cu p
ĠÃ ī
r il
" .
Ġpour rait
Ġple in
Ġch ac
av ant
oc c
au te
d ent
Ġv ois
Ġpr atique
Ġca mp
Ġc ulture
Ġdev ant
Ġm erci
Ġphot o
Ġou i
Ġmat Ã©ri
Ġenv ie
ĠsÃ» r
tr a
Ġapp el
Ġju in
u li
Ġv eux
et er
g ment
y ant
Ġty pe
Ġl it
Ġcont en
ĠreprÃ©s ent
Ġse mble
oil Ãł
Ã©r Ã©
Ġmo t
ense ig
Ġprogr amme
oy er
Ġmes ure
ense mble
Ġm ort
Ġentre prises
anc er
ac tiv
Ġj anvier
Ġl ien
Ġre v
Ġt est
t t
Ġmo di
Ġp ie
pe c
ĠdÃ© fin
Ġpar ten
O U
cep tion
Ġad ap
Ġp opul
Ġseu le
Ġli re
Ġti tre
ven tion
Ġcomp os
Ġv ac
id ent
Ġo bli
Ġrec onn
Ġc ou
d er
Ġdi m
Ã© di
oc k
Â Ń
p endant
am bre
âĢ ĵ
Ġno vembre
Ġsouh ait
Ġp or
Ġch i
h ab
Ġvis ite
Ġfour n
A N
Ġveu t
o que
Ġcons id
Ã¢ te
Ġe uropÃ©
Ġimport ant
emp l
Ġprop ri
o x
se ment
Ġcons omm
Ġv Ã©r
Ã§ u
Ġb ois
Ġv endre
ĠrÃ© ussi
ne ments
ĠâĢ ľ
Ġaur a
Ġar r
aille urs
Ġmar s
Åĵ ur
Ġc ir
o ti
Ġ2 4
en f
ert s
Ġchar ge
age ment
Ġr endre
h istoire
hÃ©s ite
C om
Ġprop re
ĠsÃ©ri e
qu el
Ġintern ation
Ġvi te
Ġa li
p l
Ġche v
tif s
Ġf ort
ces si
Ġfor um
Ġoff re
Ġim m
Ġmati n
Ġch au
Ġ1 00
ĠdÃ© r
ai de
as si
Ġmoy en
Ã¨ te
Ġ Y
i tions
ĠdÃ©t ail
a me
Ġl iste
ĠÃ ¢
d it
Ġen g
Ġfr ais
o te
Ġ201 5
o ff
r an
ur i
au v
Ġn uit
Ġt able
ch i
ĠdiffÃ©r entes
occ asion
Ġvoy age
ati ves
ĠR e
Ġf eu
Ġprojet s
it aire
A r
Ġdoi vent
Ġo ctobre
onn es
Ġcar te
ĠcrÃ© er
Ġy eux
Ġvi ent
n Ã©
Ġcol l
Ġdis t
Ġpr ise
Ġentre prise
Ġeff e
Ġbes oins
20 1
Ġlais ser
Ġav is
Ġvac ances
Ġt ard
Ġn orm
Ã©ri c
t at
ĠdÃ©p l
ĠrÃ©pond re
D es
ĠtÃ©lÃ© ph
Ġeff ic
Ġactiv itÃ©s
Ġgen re
entre prise
Ġdis c
o w
Ġ /
Ġnouve aux
Ġparf ois
ĠÃ©t aient
T out
ĠD es
Ġcli ent
Ġaut ant
Ġmilli ons
Ġs ci
ac itÃ©
Ã©r o
e k
ĠnÃ©cess aire
Ã¨ tres
Ġ5 0
ĠÃ©tu di
end s
Ġin v
Ġb ut
Ġar tis
Ġmar i
R E
i le
ð Ł
Ġs enti
Ã© b
Ġb ar
T I
ag ner
Ġlors que
ĠvidÃ© o
Ġl arge
le z
Ġm ul
ĠbÃ©nÃ©fi ci
ar ticle
Ġd oute
Ġp ap
aÃ® t
it al
Ġca use
Ġgar an
Ġris que
Ġsimp lement
Ġv enir
ord in
er re
li er
Ġsy mp
oti di
Ġt es
oo k
ĠspÃ©ci alis
in c
ĠcrÃ© ation
Ġre com
Ġma j
ouver te
is ation
Ġh omme
Ġju illet
Ġcons tru
en si
crip tion
Ã «
Ġs aison
Ġp oi
Ġnombre uses
il es
ĠdÃ© mar
ĠmÃ© dic
Ġess ay
Ġpoin ts
^ ^
u el
able ment
or ganis
/ /
ouv ert
Ġtrav aux
Ġl ang
Ġaid er
al ler
Ġou til
ĠprÃ©c is
Ġob jectif
Ġcompr is
Ġfaci le
d uire
c le
mis sion
ien ne
ĠrÃ©sult ats
Ġqu otidi
Ġvi vre
Ġgrand s
Ġjour n
Ġab s
Ġdom aine
Ãª tes
Ġe ur
Ġli m
Ġ! !
x e
ĠA r
ĠsÃ© lection
Ġa yant
or itÃ©
h i
Ġmeille ur
ge ment
Ġs olution
m oi
Ġ2 1
Ġcert aines
ĠÃ© vi
ul aire
Ġsi Ã¨
Ġte mp
Ġcompr endre
Ġdes tin
li g
Ġsi gn
Ġt om
Ġe mp
at oire
esp Ã¨re
alis ation
a tre
Ġag rÃ©
Ġc ri
Ġrapide ment
Ġli b
Ġcuis ine
ĠpÃ©ri ode
ot h
ri Ã¨re
ĠS aint
Ġchac un
acc ord
I S
: //
Ã© ch
di d
Ġ âĤ¬
Ġd ate
y n
Ġren dez
Ġp an
g u
Ġfin anci
pr it
Ã´ tel
ill age
g ue
ais se
ĠÃ© lÃ©
ar m
Ġf ab
Ġsi g
A prÃ¨s
hÃ©site z
Ġb al
Ã©t u
ĠprÃ©s ente
Ġat te
Ġtech n
Ġauc une
ĠÃ©c rit
Ġrest aur
ĠdÃ©c is
ĠgÃ©nÃ©r al
Ġgouver nement
1 0
in er
utilis ation
ĠsÃ© jour
Ã©c u
Ġ ðŁ
Ġh istoire
Ġv ente
âĢ ¢
au teur
Ġth Ã©
Ġmati Ã¨re
Ã©qui pe
Ġaur ait
Ġlong temps
Ġpar ents
Ġt ent
ĠÃ©t ant
Ġass oci
Ġcomp Ã©t
Ġr Ãª
Ġf ille
av ait
us s
ĠdÃ© l
y si
Ġl un
k e
Ġs ites
Ġv ont
Ġmo de
Ġch ambre
Ġh ommes
l et
E lle
Ġp ati
Ġpr en
ĠrÃ©p onse
ĠrÃ© un
Ġcomp lÃ¨
Ġutilis er
a ci
Ġam is
i ch
Ġ Åĵu
Ġ201 4
ole il
Ġdi vers
olu tions
Ġter rit
in dre
s ance
te ction
Ġc it
Ġmar que
Ġav ril
Ġr end
Ġau prÃ¨s
a rer
Ã©v rier
Ġa im
Ġc Åĵur
Ġsem aines
o che
Ġcon ne
Ġcomm erci
ĠT out
5 0
Ġprofessionne ls
r Ã©e
Ã© ti
u its
ĠT u
par tement
Ġcan did
a prÃ¨s
ins t
in tÃ©
entr Ã©e
r u
r Ã©s
oi te
Ġr ais
Ġm or
ti m
tic les
Ġv ari
ab ord
Ġcommun ic
Ġj oli
Ġdonn Ã©
Ġch ance
Ġtr ait
ĠÃ© tr
Ġdiff icile
u bli
Ġaut om
inform ation
Ġj ard
Ġtrouv Ã©
Ġter me
Ġconf ort
Ġdroit s
Ġintern et
Ġrencont re
ĠD E
Ġmo ts
res p
ie z
env ir
ĠmÃ©t h
c teur
Ġg Ã©
ĠdÃ© g
Ġv it
ven u
on ce
mi Ã¨re
in d
ĠmÃ© di
Ġpersonne l
ĠÃ© lÃ¨
Ġsec ond
uer re
r as
Ġor ig
Ġj eux
Ġlong ue
Ġid Ã©e
Ġvale ur
ĠrÃ©s eau
Ġpro tÃ©
u ve
Ġre ce
f ois
ĠdÃ©c lar
Ġcomm ande
du ction
Ġtr aitement
Ġs us
mÃ© di
Ġb an
Ġcl asse
Ã©t ais
Ġsui vre
Ġg ui
Ġ19 9
Ġre mpl
Ġoff ici
a j
Ġdispos ition
Ġense mble
dess ous
Ġcher che
Ġ X
Ã©h ic
Ġch anger
Ġg ard
Ġsa me
Ġobli g
Ġ2 2
Ġcolle c
on es
l ent
Ġdiff ic
Ġex iste
qu elle
lÃ¨ mes
Ã« l
Ġb Ã¢
Ġs ait
pos ition
onom ie
Ġhab it
Ġconcern ant
ard s
Ġdirec tement
Ġconse ils
Ġter re
onn er
Ġjou er
Ãª mes
Ġretr ouver
li quer
Ġan ci
Ġver sion
Ġeur os
ĠÃ©le ct
Ġph ysi
Ġt end
Ġsec teur
a mp
T r
A R
Ġ ^^
Ġn Ã©g
ĠrÃ©alis er
Ġmess age
Ġcont act
Ġwe b
Ġm auv
Ġh tt
onse il
qu ant
Ġv Ã©hic
r ais
Ġen fin
Ġs tr
Ġs ac
ci ne
Ġres pect
ĠN o
Ġmus ique
Ġd ossi
Ġtechni que
enti el
T u
ord re
Ġprob lÃ¨mes
Ġc ent
Ġmon di
n ov
Ġman que
or ig
Ġexp Ã©rience
Ġdev rait
ti ers
ĠprÃ© par
tive ment
ri m
Ġau gment
ĠN e
ve ment
C omme
in on
ac k
Ġsou ff
ĠA l
Ġvoit ure
Ġchois ir
Ġpri v
re g
Ġla quelle
ĠrÃ©g uli
Ã©ri que
Ġf Ã©vrier
Ġcon te
Ġpar le
Ġf av
Ġh y
ni vers
r age
Ġsouhaite z
in f
Ġse in
Ġsame di
Ġenvir on
Ġpart ager
ĠÃ© di
Ġvi ol
Ġenf ant
Ġpermet tre
Ġou bli
en nes
Ġwe ek
ĠIn tern
amb res
Ġb ord
ves tis
a k
Ġsy n
ĠmÃ© de
Ġi dÃ©
Ã© tr
I N
j oin
... )
Ġp s
Ġo c
re ux
Ġp ot
Ġqu atre
is c
Ġdemand er
ti le
Ġtechni ques
Ġma Ã®
n ous
Ġf aud
ac er
Ã©d er
tÃ© es
r ant
Ġb at
Ġs oleil
dr oit
si onn
Ġ201 3
Ġcor resp
olog ique
Ġqu ar
Ġprof iter
Ġmal adi
Ġquel qu
Ġen suite
A lors
Ġparticuli er
ĠM erci
Ġdim anche
Ġun i
ti ent
Ġf ai
Ġr om
Ġst y
Ġr oute
met tre
Ġprodu ction
ĠC ela
Ġdur Ã©e
Ġsoi ent
qu ent
Ã¨ mes
ĠP ro
Ġfait es
Ġdisponi ble
atis f
Ġper mis
Ġli bre
Ġl o
Ġp ol
1 9
Ġdur ant
Com ment
Ġali ment
ĠdÃ© part
ien nent
ra Ã®
Ġcontac ter
il ler
Ġcorresp ond
tr ait
Ġconf ir
Ġvendre di
Ġpro tection
Ġtrans port
Ġass ur
Ġcons er
Ġc elles
er ce
Ġpe au
Ġb ure
Ġcha mp
Ġre mar
Ġcoule urs
Ġ201 2
Ġpres que
it able
? ?
i me
Ġam Ã©ric
h omme
Ġac cep
ap os
O ui
ci pe
Ġsu cc
ĠC ar
Ġpos t
ĠT h
Ġcommunic ation
Ġr ac
til ise
Ġstr atÃ©g
Ġmod Ã¨le
Ġre mp
en g
ouvert ure
Ġt aille
Ġch ambres
Ġpe ur
Ġsc ol
u g
urop e
Ġco eur
Ġam Ã©li
Ġconfi ance
Ġma xim
u me
Ġgrand es
Ġter min
Ġcons ul
ĠÃ©lÃ¨ ves
Ã©n er
ap e
u elle
a f
Ġ4 0
Ġcoule ur
Ġouv ert
ar de
au che
Ġpour rez
Ġl aiss
an e
ille urs
Ġmil ieu
Ġpeti tes
Ġmag ni
Ġc op
Ġpropri Ã©t
oule z
rai ent
Ġproch aine
ace ment
Ġ2 3
Ġcon d
Ġs atisf
en sion
Ã©c ole
Ġbl anc
A n
Ġjard in
ĠS e
p our
s on
f or
Ġen droit
Ġpossi bilitÃ©
ch Ã©s
fi ques
re f
Ġr Ã´le
L E
Ġn et
Ġm ail
ĠÃ©conom ique
ĠC es
Ġtravail ler
Ġfor ce
Ġche min
activ itÃ©
Ġcert aine
m ail
l am
Ġparticuli Ã¨rement
Ġrest er
Bon jour
r is
Ġs pect
ti me
Ġtr adi
Ġcons Ã©qu
ĠC an
Ġar ticles
Ġm ouve
Ġcoll ab
Ġs tru
at es
Ġmul ti
ĠC onseil
Ġt aux
tin g
ĠÃ Ģ
Ġtex te
Ġacc ord
c teurs
c er
ĠprÃ©s ident
ĠÃ© ner
ĠtÃ©lÃ©ph one
Ġjus ti
are il
Ġpour ra
Ġmoy ens
Ġindi vi
Ġh ist
Ġk m
Ġtr ain
p p
Ġp ous
Ġper form
ĠÃ©t at
Ġ )
Ġco de
ĠS t
Ġdeux iÃ¨me
Ġte llement
Ġs av
Ġcontr Ã´le
ĠfranÃ§ais e
Ġcomm ence
id enti
Ġplu part
Ġpl ate
Ġb onnes
Ġchi ff
v ir
ĠÃ©lÃ© ments
ĠA lors
Ġan ti
Ġa mi
Ã¨ de
en de
Ġte l
atif s
Ġl ut
acc Ã¨s
oy ez
Ġmeille ure
A vec
Ġvol ont
Ġs olutions
p ir
Ġcomm une
Ã Ģ
Ġprofessionne l
Ġf all
ĠdÃ© li
tiv es
Ġsp ort
i ble
ĠprÃ© p
Ġpro v
Ġsui vi
Ġpos s
Ġpar mi
Ġa illeurs
Ġexp l
ur g
Ġ +
Ġv oulez
ĠpiÃ¨ ces
Ġle cture
Ãª ts
Ġpr est
Ġlun di
Ġple ine
c o
ĠÃ©v Ã©
Ġdocu ment
Ġderni Ã¨res
Ġsor tie
Ġsup Ã©ri
ĠC on
Ġv iens
aire ment
ĠÃ©t abl
Ġa mb
Ì ģ
Ġg uerre
o ch
aiss ance
ud g
Ġpie d
orig ine
ance ment
er ie
Ġmani f
Ġappr Ã©ci
Ġrep as
orm ais
acc ueil
ĠM ont
Ġfi x
Ġn av
Ġu s
ven ue
qu is
Ġsoir Ã©e
1 2
Ġress our
Ġl et
T E
Ġterr ain
mi ne
Ġmin im
p t
Ġsoci aux
v ation
id Ã©e
S ur
ĠprÃ©s ence
Ġen ti
Ġquotidi en
Ġlais se
au tÃ©
ĠrÃ©sult at
ĠdÃ©ci dÃ©
Ġchau ff
Ġde vez
am our
or ie
Ġv as
Ġsuff it
o f
Ġpos ition
Ġv Ã©ri
Ġ Z
Ġf le
r ons
Ġlors qu
Ġqu elle
Ġconstru ction
Ġnum Ã©ro
Ġconn aÃ®tre
ter min
Ġcons tr
Ġr ob
l Ãł
Ġconn ais
Ġsal ari
o des
ar gent
Ġob jet
ĠL i
Ġorig in
v al
Ġrel ation
ĠÃ©c ri
Ġpe ine
c tr
Ġm Ã¨re
oi gn
Ġnation ale
et Ã©
ou bli
e b
ĠP l
ĠrÃ© v
Ġacc ueil
Ġdi ri
du it
Ġdisponi bles
Ġpro g
a vez
Ġid enti
ĠM on
ĠagrÃ© able
oup es
Ġsor tir
Ġsoci ale
Ġcontr at
Ġpropos er
Ġpour tant
e ct
Ġprogr am
Ġuni vers
De puis
Ġch ale
Ġr enseig
it ation
Ġa oÃ»t
ass ur
Ġpermet tant
Ġa ide
Ġma ch
ĠÃ©v iter
Ġcons titu
Ġlog ici
Ġn oir
Ġca de
Ġcl ub
it aires
Ġcert ain
ve ur
Ġb udg
cre di
Ġid Ã©es
Ġtr uc
Ġad ministr
ĠmÃ© l
Ġmar che
P lus
l in
h eur
Ã©ner gie
Ġproch ain
Ġ ir
y s
ad es
Ġconten u
Ġle quel
ent Ã´t
Ġd ois
m ais
f ace
Ġpoi ds
Ġactiv itÃ©
Ġmin istre
Ġatt end
o k
Ġp Ã¨re
Ġpro cess
Ġg u
tis s
Ġrecom mand
aly se
Ġc atÃ©g
l ant
ier re
Un is
Ġcomm and
v res
is p
ot s
di que
Ġc ul
Ġtrouve rez
Ġs ort
Ġps y
i ers
eu t
ĠpiÃ¨ ce
Ġrapp el
Ġe mb
Ġinst all
A S
ĠP as
us er
Ġderni ers
titu de
Ġres pec
empl oi
Ġsucc Ã¨s
Ġpremi ers
ur b
ĠrÃ¨g les
or Ã©
O u
ĠprÃ©c Ã©d
Ġs oli
Ġfab ri
Ġde venir
du cation
Ġob tenir
Ġfaci lement
Ġ2 8
Ġin iti
ĠrÃ© par
Ġsui vant
Ġcli m
y th
Ġexc ell
ĠB r
Ġpour s
ach at
on ie
Ġb ons
Ġs ensi
. "
ad resse
C es
Ġv e
Ãª ter
Ġtravail le
imp orte
qu Ã©e
ri mer
Ġhab itu
ĠbÃ¢ ti
b ook
Ã© lÃ¨
Ġparticip er
Ġ2 6
Ġr ue
âĢ¦ ]
Ġcommun i
ĠA prÃ¨s
Ġrem erci
L ors
P r
Ġpubli que
h um
ĠA vec
Ġv oici
ĠrÃ© alitÃ©
ci dent
k i
ul ation
vis ion
ĠmÃ©de c
Ġdou ce
c on
Ġv oix
ĩ a
Ġdess us
Ġin dÃ©
i ce
Ġp aie
Ġ201 1
Ġvi a
Ġf rÃ©
fi Ã©
ie ur
f orme
Ġf ig
Ġpermet tent
ĠdÃ©cis ion
Ġconc ours
Ġcon v
Ġprocess us
a us
omm age
Ġsoci al
Ġmeille urs
Ġarri ve
Ġpr Ãªt
Ġfr oi
ist ance
Ġp is
ĠIntern et
Ġp at
qu Ãªte
Ġt Ã©m
Ġpens er
Ġcommenc er
ex c
Ġim ages
Ġdossi er
ĠdÃ©s ormais
Ġt ari
ob jet
Ġacc Ã¨s
Ġhtt p
Ġm anger
Ġproc Ã©d
an ti
ĠprÃ©sent er
a Ã¯
Ġ2 7
Ġre pos
Ġutilis Ã©
Ġpart age
ass ociation
Ãª che
al og
u les
Ġal lez
alis er
m o
Ġmo bil
ad ore
Ġbi entÃ´t
ĠO u
Ġconnaiss ance
en ez
Ġat tention
!! !
Ġse x
Ġqu it
Ġv illage
Ġsitu Ã©
Ġp ages
Ġ x
Ġsty le
Ġchange ment
h y
Ġann onc
Ġsal on
Ġdis par
Ġbure au
Ġr adi
Ġv oilÃł
Ġcons ci
1 5
de mment
Ġpuis que
res ser
in Ã©
B ien
Ġpass age
be c
Ġeffic ace
Ġphysi que
re c
Ġenvir onnement
A l
N otre
Ġsig ni
lic ations
Ġav aient
ĠCom ment
ĠvÃ©r itable
Ġmal grÃ©
ĠS ur
Ġg amme
Ġan gl
v ie
Ġc m
ĠgÃ©nÃ©r ale
Ġco Ã»
ust ri
u y
on ique
Ã© le
Ġp ou
ĠÅĵu vre
ar itÃ©
iss ent
Ġoutil s
ch ant
ĠmatÃ©ri el
Ġv ou
Ġspect ac
Ġli eux
ĠÃ©qui p
Ġcomp agn
re ment
Ġth Ã¨me
Ġh ors
in tÃ©rieur
imp ression
Ġ â
Ġa ctions
Ġsou tien
e mb
Ġsupp lÃ©ment
Ġz one
ĠC omme
m m
Ġpopul ation
Ġlu miÃ¨re
Ġpos er
im age
an im
x te
ĠrÃ©s eaux
Ġmoy enne
in tÃ©r
i ge
Ġche f
Ġ6 0
Ġ3 1
i tif
Ġsp or
Ġindivi du
ch ar
Ġpro che
A C
ĠcompÃ©t ences
ai mer
Ġb o
Ġre ven
ww w
Ã¨ les
Ġm ains
Ġpr atiques
avant age
Ġf ou
Ġconc erne
exp Ã©rience
ĠrÃ©s id
ĠsiÃ¨ cle
Ġs oins
Ġterrit oire
es prit
Ġressour ces
Ã©t at
Ġpres se
ĠdÃ© termin
se mbl
Ġpos te
Ġs ang
our n
dess us
b es
Ġg agner
ĠdÃ©velop per
Ġ201 0
a x
Ġgar de
Ġs orte
Ġess enti
Ġgrat uit
ob il
cri re
Ġmagni fique
Ġb elles
Ġcamp agne
Ġretr ouve
h Ã©
ci e
iss ant
Ġadap t
Ġprofessionne lle
Ġliv res
ri g
ĠD ieu
end ra
Ġsup port
Ġrespons able
ac tions
Ġprom o
Ġmanif est
as ser
Ġdr oite
ĠL ire
U E
Ġcal me
Qu and
V oici
or ique
Ġris ques
c rit
Ġsuff is
Ġent endu
Ġeffe ctu
Ġdire ction
Q ue
is ter
Ġex tr
Ġtrans form
Ġbon heur
Ġvi c
Ġch oc
Ġd os
Ġ[ âĢ¦]
Ġai me
Ġpuis se
Ġunique ment
Ġcin q
Ġm Ã©c
Ġo cc
ĠC omm
organis ation
Ġmes ures
c r
ur r
Ġpoli tiques
E x
Ġn our
Ġrais ons
1 1
Ġ is
Ġmis sion
ĠintÃ© r
qu Ã©s
Ġsc Ã¨ne
Ġtemp Ã©r
Ġsci enti
Ġa te
Ġcl assi
ĠQ ue
Ġfam ili
ĠP lus
ribu tion
Ġcons tat
Ġc am
tionne l
Ġtr ad
ĠmÃ© m
b l
Ġfonction ne
envir onnement
esp ace
in te
ve ill
ĠÃ© l
ĠNo Ã«l
U R
Ġmaxim um
Ġac cessi
ĠFr anÃ§ais
Ġcar act
Ġactu ellement
Ġpuis s
Ġcontin u
Ġv ir
Ġne u
ĠE x
s p
O r
Ã¨ que
as e
es tiv
ĠrÃ©f lex
a ve
Ġjou eurs
us ion
Ġs ent
b res
ber tÃ©
Ġg auche
ĠÃ© n
Ġca f
Ã§ ons
Ġcontin uer
Ġnation al
Ġempl oy
oc r
Ġb Ã©b
Ġpart out
a ment
Ġrou ge
Qu el
Ġparc ours
Ġfer a
ag Ã©
Ġesp ace
Ġd ir
Ġcol lÃ¨
Ġc entr
om bre
Ġmag as
ĠnÃ©cess aires
exp l
Ġop Ã©r
Ã¢ ge
v Ã©s
Ġjeu di
z e
1 8
Ġre Ã§u
Ġparf ait
al u
Ġrece voir
Ġlang ue
ĠÃ©le ctr
Ġper dre
Ã¨ rent
Ġ2 9
Ġst ock
di re
Ġfais ant
ĠrÃ©f Ã©rence
Ġh or
itu de
b r
Ġfor c
Ġse mbl
Ġob ser
ad a
inform ations
Ġcontin ue
E st
on te
f ie
Ġcit oy
Ġp orter
Ġmer credi
tr o
Ġdocu ments
ig ne
as i
Ã¨ se
xim itÃ©
Ã´ te
Ġpos e
Ġfonction nement
Ġcap it
i eux
li quÃ©
ad ap
aur ais
ĠintÃ© ri
Ġ19 8
Ġrec ette
es te
Ġsouv enir
li e
ou x
s ur
Ġmaladi e
Ġv aut
Ġdire ct
Ġd Ã»
Ġcal cul
Ġconn u
Ġf Ãªte
c ons
Ġphot ograph
Ġmulti p
ang es
ĠJe an
Ġs omme
Ġregard er
Ġgard er
Ġcon vi
yn am
ĠÃ©tu des
ul er
Ġmouve ment
Ġex ist
p end
Ġf ils
pr en
Ġm Ãªmes
Ġgr oupes
Ġles qu
Ġpro ximitÃ©
Ġmauv ais
ang Ã©
ch ir
ĠdÃ© partement
Ġex pos
Ġcons ult
ist Ã¨re
tionne lle
Ġmont ant
Ġchev eux
Ġpsy ch
Ġo eu
Ġl anc
Ġmar di
ĠS er
Ġpap ier
Ġcap acitÃ©
ĠD i
Ġind ustri
app el
ĠB ien
ĠrÃ©guli Ã¨rement
m ation
en n
ou e
Ġconsid Ã©r
ĠÃ©di tion
Ġb ain
Ġtr an
om p
Ġconsul ter
Ġexp Ã©ri
Ġren for
ĠprÃ©sent ation
Ġparti es
ĠÃ©c l
intÃ©r Ãªt
om e
ou er
nov ation
Ġcour t
Ġretr ouv
ĠS on
Ġcher cher
uni cip
Ġst at
Ġpublic s
Ġparten aires
Ã©n om
Ġde vient
ĠD Ã©
O R
Ġcommun autÃ©
Ġcons tit
Ġl iens
Ġimport ante
am en
ol l
I T
Ġarri ver
Ġv ert
i ance
Ġser vir
Ġfil les
A L
Ġchois i
Ġh aute
Ã©c ouv
ĠrÃ© cup
Ġcl air
ĠD u
Ġc oin
Ġb le
Ġ &
Ġloc aux
ari at
Ġpis cine
Ġcomment aires
Ġsour ce
enf ant
Ġt op
ĠB l
b um
Ġpl ac
Ġtour n
ci eux
Ġ8 0
Ġgl ob
ĠrÃ©alis ation
Ġcons ac
Ġaut oris
Ġcomp ter
ĠÃ©tudi ants
O M
Ġanim aux
ten ant
di o
Ġl ois
Ġt omb
Ġmat ch
g nes
se ur
Ġ: )
li ers
Ġdispos e
heure usement
ac tÃ©r
ĠprÃ©f Ã©r
app lication
Ġm Ã¨tres
Ġp Ã©n
Ġs out
Ġh i
isse ments
Ġt ri
Ġconsomm ation
ĠintÃ© gr
ort s
d ans
Ġin vestis
Ġcour ant
d is
Ġa it
Ġte lle
Ã¨ tre
Ġ ordin
Ġobjectif s
Ġex cep
is Ã©
ass es
mi te
Ġf aite
rit ure
Ġper du
Ġhabit ants
Ġg oÃ»t
Ġmont re
imp ort
estiv al
Ġpouv ait
Ġad op
a che
Ġparf aitement
Ġr av
Ġtr a
r aison
Ġp al
alis te
Ġtr ou
Ġcomp lex
Ġp il
utilis er
Et at
ĠrÃ© d
Ġcontr aire
Ġm as
p le
Ã©t Ã©s
ĠdÃ© pos
Ġprin cipe
olog iques
I L
Ġli bertÃ©
Ġch ap
Ġmo tiv
ites se
Ġfor te
est re
Ġform ulaire
ĠdÃ© di
Ġminim um
Ġpouv ons
Ġ200 9
Ġen reg
al le
R e
Ã¢te au
Ġv in
ĠB on
ĠeuropÃ© enne
Â ²
am Ã©li
ĠP h
ĠdÃ©c ouverte
Ġbudg et
ille z
Ġcrois sance
U ni
a vec
f ait
Ġcon cep
ti Ã©
ons es
Ġquar tier
ĠR Ã©p
Ġder riÃ¨re
Ġloc ation
ministr ation
hui le
Ã© bec
Ġfaud ra
C E
ul tÃ©
Ġc at
TI ON
Ġcomp let
Ġtot alement
ol Ã©
ord onn
Ġty pes
Ġfac il
Ġqu ali
Ġv oie
âĢ ľ
Ġpremi Ã¨res
ĠdÃ©tail s
Ġtot al
or de
Ġmont rer
agn Ã©
Ġad resse
ur ent
1 4
ĠF ace
ĠrÃ©g ime
ĠL A
ĠA m
Ġs oin
ing t
e ction
Ġpermet tra
ti es
Ġsau f
os s
i ent
h Ã©r
Ġ( ...)
Ġpay er
Ġac teurs
ab s
Ġprop res
Ġch aud
isp ens
Ġcir cul
Ġim mÃ©di
Ġre Ã§
d el
Ġsu d
ĠðŁ ĺ
ĠprÃ©v u
Ġdem ain
Ġcar actÃ©r
eu ner
Ġmari age
ĠintÃ©ress ant
Ġp Ã©d
Ã¨ ve
Ġappr endre
ĠÃī t
Ġrespons abilitÃ©
Ġde mi
Ġcomp lÃ©ment
di e
i Ã¨re
ĠrÃ©alis Ã©
Ġnet t
ĠO r
Ġfais ait
Ġcommenc Ã©
ap on
Ġad ul
Ġacc ue
Ġmod Ã¨les
Ġpaie ment
ch ite
Ġb el
Ġs an
Ġfam illes
ĠprÃ©p arer
ac comp
olog ies
ĠvÃ©hic ule
entre r
Ã©tu de
Ġme mbre
Ġv o
Ġessay er
Ġenv oy
ĠG o
Ġcompr end
Ġautom atique
Ġpie ds
ĠÃ©qui pes
Ġdou ble
Il s
Ġcomb at
c ar
Ġdi pl
Ġm ic
Ġcons t
h ors
Ġsec onde
Ġa ction
al er
Ġpl age
Ġdemand Ã©
Ġfr anc
C I
Ġre mb
Ġpr ati
Ġd ynam
Ġrel ations
ois e
b on
Ġrom an
uni vers
r oit
Ġdi x
Ġfonction n
Ġre join
Ġcomp ar
Ġr are
Ġc yc
Ġim ag
Ġpro t
Ġdom icile
Ġc ab
ar c
Ġk il
g Ã©e
Ġ tit
Ġp atri
nivers aire
Ġmom ents
Ġsi m
ons ieur
or itÃ©s
Ġcomm is
h Ã´tel
En fin
Ġ erre
ct ures
Ġrencont rer
Ġb les
Ġfin alement
eur os
Ġnum Ã©rique
6 0
Ġm am
Ġvis age
ĠmÃ© tier
Ġim age
Ġdes ign
ubli que
Ġbr as
ĠdÃ©p end
ab il
ĠdÃ©velop p
Ġin t
isse z
G r
Ġg az
Ġre venir
Ġmaj oritÃ©
Ġv ent
Ġw ww
ve ille
a qu
Ġs h
ot te
ossi ble
Ã©v olution
inst all
Ġapp orter
ĠrÃ©p onses
ĠvidÃ© os
res si
Ġind ispens
assur ance
Ġach eter
ĠmÃ©th ode
Ġcr ise
ĠÃ© vent
ĠÃ©tr ang
Ġsymp a
mi di
Ġent raÃ®
Ġp ois
og le
Ġh auteur
Ġfr uits
ĠÃ© qu
Ġatt endre
Ġtend ance
Ġvale urs
ĠQu Ã©bec
Ġf isc
EN T
Ġcomp Ã©ti
Ġfin ir
Ġ19 7
Ġj uri
Ġcaract Ã¨re
Ġb anc
Ãª tÃ©
u te
Ġnav ig
Ġcin Ã©m
Ġeff ets
. )
ain te
Ġper te
ĠN otre
Ġv itesse
A ss
Ġcr oire
Ġt enir
li ne
olu ment
Ġcomm erce
Au jourd
Ġheure ux
Ġm ent
Ġper man
Ġt Ã¢
Ġangl ais
ĠEt ats
Ġdev oir
Ġrestaur ant
Ġoff rir
h e
is tiques
Ġ5 00
Ġcour se
Ġpours ui
Ġcar tes
ĠC ons
Ġm unicip
Ġs il
ur Ã©
ĠbÃ©b Ã©
Ġ200 8
Ġutilis ateurs
moi ne
au l
g Ã©s
D u
Ġco Ã»t
ar es
Ġl ancer
Ġliv raison
Ġt al
ail les
ous e
Ġcompagn ie
ĠM in
ri ce
ĠcomplÃ¨ te
Ġre d
Ġfav oris
Ġcaf Ã©
Ġab ord
ĠE st
u els
Ã´ me
ĠdiffÃ©r ence
m ande
ent ure
Ġli mite
alis Ã©
ust rie
ni que
op ri
Ġren ouv
P ro
Ġce pendant
Ġpre uve
Ġstru cture
Ġr endu
Ġnature l
ĠðŁ Ļ
k ing
A M
1 7
Ġv Ã©l
I I
ĠdÃ©f aut
Ġdiri ge
ch arge
ĠM al
Ġcoup le
Ġb oul
N e
Ġex ac
Ġcondi tion
o ot
Ġpoli ce
ult Ã©s
Ġc ouv
Ġch at
Ġvolont Ã©
Ġf act
Ġex ig
Ġvis i
Ġpe int
Ġfin i
erci ce
ai x
Ġmo teur
Ġla b
ec tivement
ĠC or
ĠmaÃ® tr
op Ã©ration
Ġ7 0
our g
Ã® te
Ġcolle ction
Ġinternation ale
2 4
Ġsi x
m a
Ġlo gement
ĠbÃ©nÃ©fici er
ag r
ĠQu and
Ġforc Ã©ment
Ã©r ap
Ġexp lique
Ġmondi ale
an dic
ĠP e
ass urer
Ġr ig
mi que
us Ã©
Ġfond s
Ġrencont res
n o
Ġcomp t
im m
char ger
u ff
obil ier
Ġenti Ã¨rement
Ġv oi
Ġpor tes
Ġbou tique
m Ã©e
vi te
ĠÃīt ats
ĠmÃ©c an
Ġparticip ants
Ġrel ative
o Ã»
ont er
ur ation
ap par
Ġre le
Ġmilli ards
Ġveu lent
as h
Ġr yth
lus i
1 3
Ġgr aph
Ġg Ã©rer
ti mis
andic ap
ĠsÃ© ance
Ġs inon
ĠstratÃ©g ie
Ġte ls
in ation
ĠdÃ©mar che
A P
ob jectif
ĠmÃ©m oire
M oi
Ġag ric
ĠidÃ© al
enti ss
Ġjou e
P as
ĠFace book
Ã¢ tre
ĠL E
ti ne
as tique
Ġfroi d
Ġsur face
Ġst and
ĠgÃ©nÃ©r alement
2 00
Ġsa ur
ĠcomplÃ¨ tement
Ġparticip ation
Ġob ten
Ġass urer
ol lar
o h
ĠPr Ã©s
ins tant
ĠrÃ© duire
Ġlet tre
Ġb eaux
Ġbeau tÃ©
Ġconsci ence
Ã¨ nes
Ġvoul ais
ens es
Ġval id
Ġcomment aire
ĠGr and
Ġcon form
Ġtou che
Ġpersonn ages
Ġu tilise
im ag
it ant
O S
Ġaim Ã©
ĠprotÃ© ger
lÃ© g
ni es
ĠQu el
Ġv illes
ĠN on
E urope
and onn
Ġu tile
ti les
abl issement
Ã© ducation
ai der
Ġch ien
ĠcatÃ©g orie
Ġaff ir
ĠV i
N E
ĠCan ada
at ures
r og
Ġconnaiss ances
ĠT V
m ain
in di
ĠðŁĻ Ĥ
ol at
ĠO ui
Ġfin al
Ġcr it
Ġver re
Ġfai ble
Ã©n agement
M on
Ġr ub
ĠamÃ©li orer
ĠprÃ©par ation
Ġnouv el
Ġlut te
av ance
Ġscol aire
v ille
ĠrÃª ve
Ġcer ti
oc ation
Ġ iss
Ġt Ã´t
Ġcade au
Ġlogici el
Ġv oire
r y
Ġpropos ons
c al
ti Ã¨re
Ġconc urr
m atique
N on
Ġbles s
Ġper d
av enir
Ġg al
Ġf en
Ġpriv il
u alitÃ©
ĠE lles
ĠÃ©tu de
Ġfilm s
c s
D E
us te
Ġtrois iÃ¨me
Ġapp lication
ĠmÃ©dec in
Ġ3 5
ĠM e
ou reux
Ġter mes
Ġsalari Ã©s
Ġcha uss
Ġl ait
Ġf aute
l o
ur ant
Ġgui de
ĠrÃ©ser ve
ĠrÃ© duction
Ġcontr Ã´
ag og
ĠcrÃ© Ã©
ation al
Ġl our
ĠdÃ© n
T ous
Ã©p oque
Ġau rez
Ġterr asse
Ġd ollar
Ġconne c
alog ue
ou re
C ela
Ġmen tion
Ġaj outer
ĠdÃ©m ocr
ĠmÃ©di as
as t
Ġsour ire
ĠdÃ©l ai
ĠN ord
ĠÃ©t ape
Ġten u
A T
c l
n Ã©s
Ã©couv rez
arri ve
ĠrÃ©f lÃ©
ĠS ud
au tes
Ġop Ã©ration
Ġ201 9
ad ministration
ch ent
ĠS a
Ġmach ine
ĠdÃ©s ir
Ġr ay
Ġins titu
Ġb il
Ġvis iter
fic ations
Ġh ier
Ġtrans f
Ġdur able
Ġposs Ã¨de
it ent
Ġch ans
Ġ =
Ġor gan
Ġfait s
Ġpersonn age
ĠrÃ© el
Ã©c onomie
m oins
Ġd avantage
Ġobjet s
del Ãł
Ġsujet s
Ġconte xte
Ġti ent
Ġm ur
ĠA insi
atri ce
que z
c is
Ġdiffic ultÃ©s
ĠC ol
Ġdist ance
ĠÃ©lect rique
Ġfi ch
Ġjusti ce
Ġvi eux
Ġpas sionn
Ġten ue
M ar
Ġv olu
Ġstat ut
ment ation
Ġil lus
OU R
ci er
ĠÃ©v olu
ti mes
Ġsuiv ante
Ġsu c
ĠÃ ĩa
... ]
Ã© min
Ġch an
ĠprÃ©c ise
Ġcap able
Ġass ure
ĠÃ©t ab
Ġsa vez
2 5
ĠdÃ©b at
Ġ ouverte
ap es
ait es
Ġno te
Ġtechn ologie
4 0
Ġdi min
Ġde hors
Ġpan ne
Ġimp os
ĠreprÃ©s ente
Ġvis ion
ĠC l
ou n
Ġ9 0
ri x
Ġm ises
ĠV oici
ĠimmÃ©di ate
Ġapp are
Ã©n Ã©r
ti rer
z z
ĠR Ã©
Ġl is
Ġeffe ct
Ġpour ront
Ġrecher ches
Ġh andicap
Ġs oup
Ġaff aires
or tÃ©
Ġ _
ĠÃ©vi demment
o Ã¹
as tr
Ġall ons
Ġli gnes
Ġgr av
Ġdemand es
off re
Â» ,
Ġci v
Ġsuiv antes
Ġsuiv ants
ĠS h
on ge
it re
Ġpubli Ã©
Ġn aissance
1 6
Ġabs olument
V oilÃł
A s
Ġpro fi
Ġ tiss
Ġcha Ã®
ail l
Ġdisc ussi
Ġappar tement
ĠdÃ© ch
Ġdoi g
F r
ĠT ous
Ġfourn ir
ĠL ors
Ġm Ã©n
f rique
u mes
Ġpuis sance
onne ur
ĠrÃ¨g lement
ĠC entre
Ġm eu
Ãªte ments
h Ã´
ĠtempÃ©r ature
Ġpas sion
ers onne
* *
Ġst ation
tiv itÃ©
m n
Ġli c
C et
install ation
Ġ ..
Tr Ã¨s
ul le
se urs
Ġsyst Ã¨mes
ert ains
Ġdess in
alis me
Ã©r ant
ĠÃ¢ ge
Ġmo b
ke ting
i a
Ġpr im
Ġqu ant
ĠrÃ©un ion
pr o
Ġinter ven
Ġrem ise
in ce
Ġins tru
Ġdes c
Ġspectac le
Ġpri vÃ©
Ġoblig atoire
du c
u elles
Ġdom aines
Ġpr ises
Ġdi z
ĠC our
entre tien
ĠprÃ©sent Ã©
Ġd oule
att end
ri ques
Ġsur prise
Ã§ a
aimer ais
ĠvÃ©ri fier
Ġinternation al
enseig nement
Ġri che
Ġcertaine ment
Ġsoli d
Ġform es
ĠrÃ©g lement
Ġvoul u
r ou
Ġpro ches
Ġsu cre
Ġpropri Ã©tÃ©
g ner
Ġcollab or
entiss age
s ons
Ġform at
ĠsÃ© par
Ġchale ur
Ġ200 7
Ġpense z
er ti
Ġprincip al
ĠcinÃ©m a
âĢ¦ )
bil itÃ©s
Ġb ac
Ġvi v
or tement
or ies
our ir
Ġn u
Ġret ard
ag ue
ĠÃ©vÃ© nements
ĠS oci
oit ation
hi ver
f aire
Ġ ....
Ġpres sion
Ġv Ã©g
ĠRÃ©p ublique
ĠCh ar
v age
Ġtex tes
arri vÃ©e
Ġpl at
al ie
Ġcon vient
alis tes
Ġannonc Ã©
Ġcour age
Ġimp ossible
Ã©r ences
hab itude
Ġen d
Ġci el
A m
ĠW eb
ĠB el
Ġprest ations
is l
ĠÃ© mo
Ġ4 5
av o
Ãī tat
Ġv iennent
or k
s h
Ġjoli e
ĠT e
Ġ Ġ
Ġn ord
ad er
y st
n aire
t on
Ġlit tÃ©r
u ellement
Ġan aly
un itÃ©
Ġmoi tiÃ©
ag ir
av ons
Ġtable au
Ġpl aces
ĠprocÃ©d ure
c les
Ġj au
Ġpatri moine
sembl Ã©e
Ġfer me
ĠdÃ©clar Ã©
ĠC ont
Ġmess ages
ĠbÃ¢ti ment
ous se
Ġtom ber
P S
Ġb us
V otre
aff aires
Ġnorm al
di r
y l
Ġgr ave
Ġfall ait
r Ã©es
Ã©r os
Ġann once
Pour quoi
Ġconv ain
Ġen tier
Ġz ones
Ġt ap
M E
Ġclassi que
ĠGo ogle
Ġassoci ations
Ġp ire
Ġcont ribu
av is
Ġtent er
aut ant
Ġ '
ĠvÃ©hic ules
ĠmÃ©l ange
Ġgaran tie
ĠPour quoi
Ġoc cup
and es
Ġfut ur
au me
Ġoff res
Ġfich ier
ĠrÃ© ception
lique z
Ġdollar s
urg ence
Ġaff i
Ġrespec ter
Ġmar ques
ĠpÃ©d agog
ter ie
Ġp aix
Ã¨ ge
it Ã©e
Ġsyn dic
ins cription
Ġavant ages
ĠdÃ©f ense
Ġense ign
Ġrec ru
Ġser t
ass Ã©
ĠrÃ©flex ion
] .
is tique
Ġexc lusi
intÃ© gr
Ã© dÃ©
Ġst ress
Ġc os
Ġv end
ili bre
Ġoubli er
Ġcommun es
Ã§ ant
Ġtran qu
g i
ou tÃ©
ag nement
Ġpr os
Ġfin ancement
on f
Ã©t ablissement
Ġdev ait
ĠDe puis
ĠdÃ©c or
Ġloc al
Ġre li
Ġr at
Ġre mettre
ne l
ĠP re
Ġvoul oir
Ġpuis qu
ĠpropriÃ©t aire
I C
Ġde venu
Ġre lig
Ġr asse
Ġprogram mes
Ġchoc olat
ci d
S E
alu ation
vi ce
Ġpropos Ã©
Ã© an
es se
ĠdÃ©fin i
Ġal bum
Ġfav or
Uni on
p as
ag Ã©e
Ġf id
ĠE urope
Ġsi gne
Ġsoci Ã©tÃ©s
os itÃ©
at aire
ĠvÃ©g Ã©t
Ġrec ettes
Ġu l
Ġcon ception
Ġpersonne lles
Ġfor ces
at oires
an i
ĠcrÃ© dit
ess es
In s
Ġb ate
Ġpour raient
Ġarri vÃ©
I E
um Ã©
Ġen j
Ġgen til
Ġou tre
Ġas pect
Ġcomp lÃ©
v itÃ©
ag ers
Ġdivers es
ĠÃ©t apes
qu Ã©es
Ġg oÃ»
Ġpeu ple
Ġj oin
g g
Ġh Ã´tel
o quer
Ġor ient
our age
ĠM Ãªme
oc cu
Ġa ir
Ã©di tion
Ġaccessi ble
bli oth
ay s
rib un
Ġqu anti
ĠdÃ©j euner
Ġcompr en
w s
Ġcar riÃ¨re
p i
Ġ3 00
Ġmeille ures
Ġmor ce
ĠdÃ©r ou
t ure
Ġvisite urs
Ġconstr uire
in et
Ġrenseig nements
Ġryth me
Ġesp Ã¨
Ġconseil ler
c ore
Ġconne x
S elon
oris ation
ĠdÃ© fi
Ġtest er
ĠÃ©c oles
Ġbi o
te ments
Ġatt endant
Ġpri vÃ©e
ĠrÃ¨g le
Ġmagas in
Ġprincip alement
Ã¨ che
ĠCe pendant
Ġdirec teur
id es
oc cup
Ġri ches
Ġti ers
ĠrÃ©ussi te
tel lig
A h
Ġdis cu
Ġmodi fier
or es
Ġh u
Ġqu asi
A U
Ġparticuli ers
ri ez
Ġcrit Ã¨res
Ġvi de
Ġnive aux
onc er
ay er
Ġno ter
Ġtechn ologies
Ġb our
âĢ Ķ
_ _
d o
Ġse rez
an alyse
ind ustrie
ĠvÃ©l o
Ġv ingt
Ġconc ert
Ġf Ãªtes
ar tis
ĠR en
Ġutilis ation
Ġmauv aise
Ġgros ses
l en
aut Ã©s
ĠlÃ©g isl
Ġin dic
ĠprÃ©s er
Ġatte indre
Ġrapp elle
mar t
Ġhist orique
ouver tes
ain tenant
h t
Ġph ras
Ġmin istÃ¨re
ĠÃ©p is
out es
Ġsitu Ã©e
A t
4 5
Ġpouv ant
m un
Ġappr oche
lus ion
Ġprivil Ã©g
ĠprÃ©s ents
or g
Ġretr aite
Ġtoute fois
Ġan niversaire
Ġmod erne
Ġconcep t
Ġconf Ã©rence
Ġfaud rait
cu le
Ġpati ents
ce mment
Ġatt entes
m Ã©s
fi Ã©e
tit ut
oil es
ex tÃ©rieur
Ġj oie
I R
on y
in i
i onn
Ġmob ile
Ġexac tement
D onc
Ġprof onde
Ġm ut
envir on
Ġatt a
Ġcandid ats
Ġp au
ĠC a
al ise
Ġcompr ends
Ġmar ch
Ã© tique
ric itÃ©
ul Ã©
Ġindispens able
Ġcr Ã¨me
âĢ¦ .
Ġsimp les
us tr
o e
Ġmais ons
aut om
u il
mi er
Ġprob ablement
Ġmer veille
Ġb aisse
Ġform ations
Ġfonction s
u per
Ġd ommage
Ġs o
r un
ograph ie
ai tre
ĠT oute
ĠE T
ĠprÃ© al
Ġb ande
Ġcomb ien
Ġcomp ortement
Ġrejoin dre
ĠAu jourd
Ġpos i
ai gn
ti ens
Ã©ri e
Ġse ction
ĠR Ã©s
ĠÃ©tabl issements
Ġal le
ĠdÃ©m ont
ĠtÃ©m oign
ĠðŁĺ ī
Ġprof ond
Ġhum ain
ĠÃ©vÃ© nement
Ġquanti tÃ©
Ġf ant
Ġli Ã©s
Ġcli quez
Ġenv is
Ġl yc
Ġvic times
oy age
ĠS al
Ġdis tin
Ġocc asion
Ġkil om
ĠD onc
ĠindÃ© pend
Ġm ens
ve au
b i
Ġaut oritÃ©s
Ġcomp tes
Ġce ci
de ur
Ġfabri cation
aj outer
Ġr entrÃ©e
Ġmar chÃ©s
Ġchiff res
ĠA d
Ġhum aine
g ues
rÃ© t
ĠconsÃ©qu ences
Ġ >
Ġph ase
Ġvrai e
Ġv ote
Ã©ri r
Ġcomm er
Ġc lÃ©
Ġv Ãªtements
Ġcr oy
Ãª cher
Ġbien s
p ital
Ġsoci ales
Ġass ociation
ĠlÃ©g umes
Ġ20 00
Ġf Ã©d
Ġtr aite
Ġ urb
Ġorganis ation
ĠÃ©cri re
ĠdÃ©couv ert
Ġprin temps
Ġmilli ers
Ġexcell ent
ĠsupÃ©ri eur
ĠspÃ©ci fique
Ġcont ent
c un
Ġm and
Ġal tern
Ã© ni
Ġenv oyer
Ġtari fs
Ġcont rib
Ġble u
ou d
Ġmo indre
Ġartis tes
ĠJ u
Ġadap tÃ©
Ã©c ran
ĠintÃ©r Ãªt
Ã´ mes
ĠeuropÃ© en
Ġfle urs
us Ã©e
mb ler
Ġsuper be
Ġpass ant
Ġin te
- )
Ġch angÃ©
Ġh aus
Ġ os
Ġadul tes
Ġdispos itions
Ġb is
ĠD ire
n et
Ġdestin ation
Ġchiff re
ri re
ĠÃ©ner gÃ©
l y
Ġcr u
Ġac cess
Ġfi che
U S
ff e
Ġsy mb
Ġmic ro
Ġf ati
Ġconse ill
Ġre gr
ĠM a
Ġinform ation
t ons
Ġreg ret
ĠB i
Ġrepr endre
Ġneu f
ou che
ĠmÃ©th odes
Ch aque
Ġchange ments
A G
Ġf estival
Ġpl ans
Ġpous s
!! !!
am a
Ġp Ãªche
Ġperform ance
Ġextr Ãªme
3 9
Ġlarge ment
Ġmin i
Ġpr on
Ġd ange
N os
ĠdÃ©l ais
ci en
Ġmi di
Ġeffect uer
Ġpl antes
ĠsÃ©ri eux
uis se
ĠâĢ Ķ
Ġtot ale
gue ur
ĠÃ©conom iques
Ġall ait
ati e
en er
Ġprincip aux
Ġf an
Ġf oot
ui r
Ġc Ã´t
Ġf Ã©min
Ġdispos itif
au f
Ġph Ã©nom
ex ist
ar s
Ġc Ã©lÃ¨
um er
ĠamÃ©ric ain
Ġad ress
Ġpens Ã©
8 0
Ġconte mp
2 2
r os
Ġfacil iter
ct oire
g ique
se mble
Ġvi gueur
R O
Ġne ige
Ã©c oute
Ġcolle ctif
Ġl ance
Ġst age
Ġav anc
import ance
ĠopÃ©r ations
Ġin vite
Ġsu gg
Ĩ Ĵ
Ġd on
Ġate liers
Ġju ge
Ġb illet
ĠÃ©lectr onique
Ġcor rec
pr is
ag nes
ĠQ ui
g Ã©es
ag ent
ĠdÃ©velop pe
Ġ[ ...]
onn Ã©
Ġm ine
l Ã©e
Ġconf l
Ġparten ariat
qu et
ĠrÃ©sid ence
ui tement
Ġcomp orte
Ġplate forme
agn os
app elle
ac cep
Ġrec ours
Ġbou che
Ġdev is
Ġgrat uite
chi ers
it ter
ĠF or
Ġmar keting
Ġin ten
Ġcitoy ens
r ain
in vestis
Ġremerci e
L ire
l age
Ġsou cis
Ġsitu ations
Ġjou eur
ĠrÃ© ellement
Ġr ire
co ol
Ġat ten
ĠF in
Ġsenti ment
b all
Ġch in
Ġcons iste
ĠCom mission
Ġprof il
Ġesp aces
C ont
se ments
Ġrenouv el
Ġmam an
Ġmus ic
us se
Ġsal les
Ġreven us
Ġcollab oration
Ġindi quÃ©
Ġp Ã¢
at aires
ĠM an
l and
ob tenir
r up
A c
Ã©r op
Ġaccomp agner
Ġc oupe
Ġhum ains
ach eter
Ġpati ent
Ġaim er
ĠÃ©le vÃ©
Ġju di
Ġpeint ure
veill ance
Ġconstit ue
r oy
Ġin qui
Ġdi v
oles c
Ġfr an
er m
Ġgrat uitement
ĠV al
Ġdynam ique
Ġaj out
P h
Ġch asse
Ġeff ectivement
Ġappr is
Ġve ille
Ġreg arde
ĠvÃ©r itÃ©
ĠmatÃ©ri aux
Ġempl oi
lÃ¨ ve
u tÃ©
Ġbil an
j ou
Ġordin ateur
Ġcommis sion
ĠG Ã©nÃ©r
Ġcond am
Ġcl airement
Ġpar is
j u
Ġutilis Ã©s
Ġscienti fique
l ais
Ġdi ver
Ġt ente
Ġre vient
le ur
Ġdi g
Ġinst ant
Ġsou mis
Ġh as
Ġparten aire
Ġacc Ã©der
T oute
and is
Ġmal heureusement
ĠV ille
Ġaccueil lir
pr endre
Ã©v Ã©
Ã©tr anger
a use
Ġch ron
Ġport Ã©e
Ġl ux
Ġfinanci Ã¨re
Ġt ar
Ġfi chiers
Ġd o
Ġ200 6
Ġlanc Ã©
ĠintÃ©ri eur
en sions
expl oitation
Ġoeu vre
Ġorganis Ã©
Ġmont er
Ġti ens
Ġplu ie
ann once
Ġsenti r
A vant
g ies
ĠfrÃ© qu
Ġv entes
ĠprÃ©f Ã¨re
ĠS ans
ĠA ss
Ġfr Ã¨re
Ã® le
Ġdev ra
ĠrÃ© cemment
Ġbout on
Ġprincip ale
Ġapp areil
Ġpossi bilitÃ©s
Ġven u
ĠA lle
Ġjourn al
Ġsigni fie
ous s
Ġrev anche
Ġ $
Ġes prit
ĠC et
Ġte lles
Ġsymp ath
on du
ĠEn fin
is Ã©e
Ġatte int
A d
in tes
Ġrespons ables
Ġm ir
Ġb re
p it
Ġre ten
M al
Ġremp lir
Ġfourn isse
fi Ã©s
Ġta x
Ġcoup s
Ġcon tient
ill on
Ġpar lÃ©
Ġlaiss Ã©
Lors que
ĠÃ©c ole
ch Ã©e
Ã©le ct
Ġapp ort
os ph
Ġautomatique ment
u ves
D F
ĠtÃ©lÃ© charger
ur Ã©e
Ġe au
ĠL y
ĠC r
Ġhaus se
g rer
Ġa mp
Ġvou dr
ex position
ĠÃ©le ctions
Ġpubli cation
ĠE N
ut ri
Ġparf aite
Ġimp res
pr Ã©s
Ġsou li
el ui
Ġse xe
oir s
Ġsour ces
an ne
appr entissage
Ġanci en
Ġsou ci
ĠÃ© lÃ©ment
ari o
in aire
Ġrepr o
ouv rir
Ġconvi vi
ĠÃ©quipe ments
Ġci vi
ĠR Ã©g
v Ã©es
ĠP uis
Ġconnex ion
Ġat tr
Ġenreg istr
re ts
Ġbo Ã®te
Ġcommuni quer
g ence
Ġdis cip
Ġtom be
S A
Ġf ar
Ġpro l
Ġpropos ition
Ġins pir
ĠimmÃ©diate ment
Ġplan Ã¨te
alis Ã©e
2 1
er c
h onneur
Ġd orm
P uis
ume ur
Ġfond ament
c ou
Ġp Ã¢te
Ġv ill
Ġex tÃ©ri
Ġboul ot
Ġrub rique
Ã©m ie
Ġdu re
Ġdiffic ultÃ©
et r
Ġlesqu els
C on
Ġf re
Ġpar ole
Ġpromo tion
Ġach etÃ©
rÃ© al
ac te
Ġlog ique
Ġdou x
abs ence
Ġdou che
Ã©c l
ori z
Ġpossi bles
ĠchaÃ® ne
et tre
Ġent rÃ©e
Ġutilis ant
Ġnorm es
om pe
ĠspÃ©ci fiques
ĠT our
Ġaur ont
us age
Ġ15 0
Ġsc Ã©n
ĠM aison
Ġarri vÃ©e
Ġpar king
ĠdÃ©clar ation
Ġal li
A D
ĠPrÃ©s ident
Ġ19 6
ent ation
Ġmort s
Ġapp orte
Ġaff aire
ri ne
Ġc uri
Ġcor re
Ġseu ls
Ġin tr
tiv itÃ©s
Ġban que
Ġapp lications
Ġl ende
ĠrÃ©ser vation
ge ments
Ġent end
Ġmont agne
Ġport ant
al lÃ©
Ġsecond es
Ġbi blioth
Ġg ri
C ons
C ar
o eu
Ġsu it
Ġph il
Ġins crit
ĠnÃ©g oci
ob ile
in iti
Ġdi agnos
us qu
Ġmultip les
Ġtr Ã©s
ĠdÃ©ch ets
ou i
ĠW i
l ons
Ġpour rais
Ġessay Ã©
Tout es
Åĵ il
ĠdÃ©ci de
Ġimport ants
f ric
Ġcl Ã©s
Ġt re
Ġhas ard
Ġpubli ques
p pe
Ã© lection
d itÃ©
ĠmÃ© tÃ©
Ġrest ent
Â ´
Ġparti s
at tention
ĠrÃ© vÃ©
ph one
ĠtÃ©lÃ© vision
Ġs om
Ġav ions
Ġchale ure
ex ercice
ĠCh ine
tionne ls
titu tion
Ã¨ tes
Ġactu elle
es ti
t ation
O L
Ġpar am
Ġjus tement
ac Ã©
l an
ĠrÃ©g ions
ĠsiÃ¨ ge
ou til
Ġs el
ĠM ad
ain tes
ĠP eut
ĠÃ©c ran
- -
Ġprend s
Ġmen u
Ġ #
Ġcir cons
Ġsor ti
utilis ateur
u tilise
A pp
Ġtrouv ent
C H
u jet
os se
ĠTr Ã¨s
Ġlende main
op Ã©r
Ġin cont
Ġcontemp or
Ġh om
ir s
Ġparticuli Ã¨re
Ġd anger
in qui
ou dre
Ġanci ens
Ġexp liquer
ĠdÃ© tr
ĠB eau
Ġc re
au gment
Ġaliment aire
Ġgros se
Ġmaladi es
de ment
R Ã©
m Ãªmes
d enti
Ġm m
Ġcl in
Ġloc ale
an o
ĠCh aque
Ã´ ts
ber gement
Ġmondi al
E L
emp le
Ġprof it
ve urs
OU S
Ġmet s
Ġb ains
S e
Â» .
Ġcapit ale
Ġbl oc
Ġfa veur
Ġscienti fiques
Ġh Ã©
ĠrÃ©v olution
erti se
Ġch ou
Ġretour ner
o quÃ©
Ġdisc ours
tis sement
Ġfor Ãªt
Ġvolu me
Ġsup pos
cep ti
M a
Ġamb iance
id Ã©
Ġvoit ures
ci te
Ġtour ner
Ġfin ale
Ġm ig
ab ri
an a
Ġpers pec
Ġdist ribution
ĠdÃ©c oration
ĠM ich
di ents
ĠmÃ© tiers
Ġn ul
Ġam our
Ġin nov
Ġs oyez
Ġre venu
l ise
Ġpau vre
Ġc u
Ġoubli Ã©
ĠR oy
Ġsec ret
ĠÃ©tabl issement
act ualitÃ©
Ġcir cu
Ġlet tres
ĠsupplÃ©ment aires
Ġimm obilier
Ġm ass
Ġp ierre
Ġt oit
f e
crip tions
ĠbÃ©n Ã©v
ĠcaractÃ©r istiques
Ġaccomp agn
os oph
re ur
A cc
y r
ĠNe w
di ction
Ġinform atique
Ġpropos Ã©s
Ġcomplex e
ĠM oi
eff et
mi ques
Ã©li c
Ġarri Ã¨re
Ġnature lle
Ġach et
Ġh Ã´te
Ġop tim
Ġsouvenir s
Ġeff orts
er tes
ĠprÃ© vention
ĠdiffÃ©r ent
Ġappare ils
ouv oir
Ġser ais
Ġ; )
Ġcade aux
Ġcri tique
Ġpr Ã©t
ĠP rÃ©
Ġvoul ait
Ġc ouverture
Ġarr Ãªt
aiss ent
ĠcoÃ» te
ci ens
Ġmis sions
a ments
reg istre
A I
Ġinf lu
Ġre voir
Ġtari f
ĠB ar
ĠthÃ© Ã¢tre
Ġcommerci al
Ġfr on
ĠdÃ©cis ions
Ġc Ã©lÃ©
au jourd
Ġoffici el
Ġress enti
Ġcel lu
ent raÃ®
ribun al
ap er
Ġkilom Ã¨tres
ĠI s
m on
ĠÃ©p oque
Ġper tin
.. ...
Ġc Ã©r
Ġate lier
Ġradi o
Ġconfort able
Ġtrait er
ĠV otre
Ġvoudr ais
ri mÃ©
Ġcom itÃ©
lic itÃ©
Ġsus p
Ġcon ven
Ġloc ales
Ġcon Ã§
r ages
ĠprÃ©sent es
D I
Ġs mart
Ġciv il
Ġcircul ation
ĠT erre
Ġla c
Ġdev raient
ette z
Ġb oule
Ġm Ã©ri
Ġerre ur
Ġaccue ill
2 3
Ġex tra
Ġr oul
Ġfor tement
Ġsout enir
ograph ique
Ġmainten ir
Ġexp erts
Ġâ ĨĴ
Ġcont ente
ass in
t a
aff aire
Ġcompr Ã©h
inter vention
ĠcÃ´t Ã©s
Ġinf Ã©ri
arr Ãªt
Ã©tu des
Ġb oute
in tern
ap pe
9 0
Ġbr uit
Ġ200 5
Ġcli quant
Ġv Ã©cu
Ġam Ã©n
ĠsÃ© ances
Ġchauff age
Ġvis ible
Ġen quÃªte
Ġhi ver
ĠÃ©ch anges
Ġjeunes se
Ġcent res
vre z
Ġau teurs
Ġe mail
U nivers
Ġremb our
A fin
M Ãªme
ne z
Ġvi vant
Ġl ar
Ġconse ille
Ġmo des
anche ment
â Ĩ
Ġco ordonn
Ġg agn
Ġenj eux
oli que
ĠComm un
com me
Ġmarch and
Ã©v iter
fi ant
ĠC H
ĠM onde
Ġcal end
Ġcour rier
in o
Ġinv itÃ©s
Ġf oi
ĠA ut
ay ant
Ġch ant
k a
Ġouv rir
Ġb eur
Ġpl ong
Ġoffici elle
ĠA t
ĠC o
Ġmati Ã¨res
ĠsÃ» re
Ġin ves
Ġcr Ã©e
A p
Ġconser ver
ĠexpÃ©ri ment
identi tÃ©
ĠfÃ©d Ã©r
qu Ã©rir
m agne
A lle
ac itÃ©s
Ġser aient
it ations
Ġr ent
Ġg our
av oue
A F
Ġviol ence
Ġent endre
Ġchar me
En tre
Ġcommand es
Ġvis ites
Ġconsomm ateurs
Ġre mis
Ġcompos Ã©
Ġ7 5
Ġp ain
A TION
ĠEn tre
in a
e use
ĠmaÃ®tr ise
v a
exp ression
un is
est ation
Ġf asse
ĠexpÃ©ri ences
Ġtit res
ĠS uisse
O T
Ġenvoy Ã©
ĠprÃ©cÃ©d ent
7 0
end roit
Ġmani p
Ġchev al
ĠgÃ©nÃ©r ation
Ġex am
Ã©c riture
Ġcond uite
Ġpren nent
ĠG u
Ġlesqu elles
C a
ue ur
oubli ez
Ġchac une
Ġ *
h ier
r ist
Ġpl ats
Ġjuri dique
Ġam ie
Ġ! )
Ġas si
Ġbar re
ĠÃ©t age
Ġrapport s
ĠgÃ© ni
Ġann on
Ġli Ã©es
g ation
Ġtrans par
Ġcandid at
ĠsupplÃ©ment aire
c une
Ã©v aluation
as c
Ġtour isme
n Ã©es
Ġm asse
ens er
Ġconfi g
Ġconn aÃ®t
m age
As semblÃ©e
Ġdess ous
Ġbate au
Ġcamp ing
anci en
A insi
ĠrÃ©cup Ã©rer
ĠÃ© li
ver se
Ġc out
Ġfen Ãªtre
Ġentre r
U N
Ã ĩa
tis me
ĠintÃ©r Ãªts
ĠrÃ©ussi r
Ġr entrer
Ã©ri ques
il lÃ©
M ENT
ĠTV A
Ġcar b
ĠS p
Ġgr an
Ġutilis Ã©e
Ġpropos itions
Ġmus Ã©e
Ġt oil
Ġdoig ts
Ġemploy Ã©s
at te
ĠN os
ĠcÃ©lÃ¨ bre
arri Ã¨re
ĠmÃ©t al
d a
Ġu tiles
ĠprÃ©v ue
ĠJ eu
Ġexig ences
Ġav ais
Ġsec teurs
Ġar t
Ġe aux
Ã©rop ort
anÃ§ ois
Ġh Ã©s
Ġan alyse
Ġ3 6
op tion
Par ce
Ġrappel er
ĠÃ©nergÃ© tique
Ġdonn ent
Ġchar ges
Ġre vi
Ġcap ital
n a
Ġh e
Ġdiff usion
3 5
Ì Ģ
Ġb ref
Ġlongue ur
Ġcon du
Ġpersonne lle
ag ence
re uve
Ġdiscussi on
quis ition
Ġt Ã©l
Ġin fr
uc lÃ©
am es
Q ui
ĠÃ©n orm
Ġense ig
Ġcap acitÃ©s
Ġop port
t te
Ġinc roy
ĠM onsieur
Ġtransport s
ation ale
Ġprincip es
ag Ã©s
Åĵu vre
Ġr ang
Ġ4 8
ĠdÃ©p enses
ĠÃ© mis
Ġpro duire
Ġas tu
Ġre b
Ġcon ver
Ġpens Ã©e
Ġsuffis amment
che z
Ġhtt ps
Ġquit ter
Ã© re
ĠF ond
Ġphil osoph
Ġc ancer
Ġnom s
Ġcivi le
Ġenv ers
Ġsus cepti
ĠamÃ©ric aine
Ġf ins
Ġdiscu ter
ĠapprÃ©ci Ã©
Ġgaran tir
Ġnour riture
ĠextrÃªme ment
ar re
Ġst atis
Ġcentr ale
n is
i f
ĠcoÃ» ts
enf ants
Ġchans on
Ã©cu tion
Ġprob lÃ©
eff ect
ne lle
Ġf it
Ġpoin te
ĠpropriÃ©t aires
Ã© ter
oute z
h enti
ĠS elon
ĠF l
a w
Ġv ise
Ġpot entiel
amÃ©li orer
Ġd at
ĠD r
lle ctu
Ġ4 00
Ġt rim
ĠmaÃ® tre
Ġbeur re
Ġtranqu ille
tionne lles
Ġf aux
Ġti rer
Ġp ont
b y
Ġpar ent
R Ã©s
ĠA pp
Ġt andis
Ġdoule ur
Ã©t aient
Ġag ents
ĠprÃ©al able
ric ulture
ins crire
Ġcent aines
ĠP ierre
Ġg out
Ġjou Ã©
Ġscol aires
Ġperform ances
ic acitÃ©
Ġc oc
ĠsupÃ©ri eure
B ref
Ġmig r
Ġvic time
Ġlogici els
Ġclient Ã¨le
Ġpersonne ls
Ġrob e
Ġp Ã©r
Ġc oul
Ġimport antes
an itÃ©
ĠM es
Ġchar gÃ©
ĠCh e
ob ser
Ġfig ure
Ġc ess
b as
Ġconsult ation
Ã¨ nement
Ġphras e
Ġfinanci ers
Ġsouhait ent
ĠmÃ©dic aments
Ġmil itaire
Ġdossi ers
Ġt ab
Ġaux qu
Ġv ar
Ġter ri
ĠMont rÃ©al
Ġus age
201 8
Ġconcurr ence
Ġb u
Ġam oureux
Ġinter ne
Ġpro ven
Ġman ge
ul aires
Ġaccess oires
Ġcan adi
Ġch iens
Ġsout en
cont re
Ġprog ressi
Ġaut o
Ġpl aÃ®t
Ġillus tr
Ġtruc s
Ġdans e
Ġhor aires
Ġprincip ales
am i
Ġfr ag
Ġph arm
on ction
Ġmen er
P e
ĠPar ce
Ġl Ã¢
Ġcyc le
ĠspÃ©cialis te
ĠC rÃ©
Ġl Ã¨
ĠdÃ©di Ã©
lu b
Ġj et
grÃ© dients
Ġfinanci er
ist ant
D Ã©couvrez
Ã©lect ricitÃ©
Ġpol lu
Ġgar Ã§on
Ġhy p
Ġlang ues
ĠM er
ais ser
Ġconf ront
p lus
is Ã©s
ĠrÃ©f orme
ĠÃ©vi d
Ġj ur
ch au
ĠdÃ©fin ition
S inon
ĠS ec
ĠM ac
Ġquel s
amb iance
chite cture
ĠÃ©c r
R I
Ġcherche urs
Ġaugment er
Ġm ou
Ġretr ait
Ġrestaur ation
ĠR i
aff i
Ġlim ites
Ġpol y
D Ã©
g nÃ©e
Ġarr ÃªtÃ©
Ġref us
arm Ã©e
Ġren v
ĠrÃ©flÃ© chir
ĠÃ©quip Ã©e
Ġeng agement
Ġt ort
Ġprofes seur
Ġsav ent
Ã©r Ã©e
Ġrenfor cer
Ġdist ribu
Ġexcell ente
ow s
Ġop pos
ĠC ap
âĢĿ ,
Ġces se
Ġm urs
ĠJ apon
ĠM ai
Ġrecom mande
Ġb all
w itter
Ġconten us
Ġth Ã©rap
Ġparti cipe
form es
Ġsp ir
Ġr ose
ob ili
Ġh Ã¢te
ĠmÃ© d
Ġsim il
Ġorganis ations
Ġs it
appr Ã©ci
Ġtest s
3 3
Ġtou cher
Ġcuis son
ĠcompÃ©ti tion
Ġne z
Ġre par
Ġfr aÃ®
ĠN ouv
Ġ ital
Ġpopul aire
ex tr
Ġde ven
Ġcomp liquÃ©
ri me
ĠD U
tru ction
Ġh os
d om
Ġdis ent
Ġbanc aire
Ġclasse ment
Ġch ir
Ġbr Ã»
Ġprofi te
ĠmÃ©ri te
ox y
Ġfeu illes
Ġjudi ci
P E
ĠlÃ©g Ã¨rement
ti ce
Ġcommuni quÃ©
Ġform ule
exc ell
Ġmodi fication
Ġalle mand
ĠrÃ©ser ver
Ġmai rie
ĠÃ© lus
m ise
ais es
ĠprÃ©f Ã©rÃ©
ĠC li
Ġvir tu
Ġcontr ats
Ãªt res
Ġsomme il
Ġapp elle
ĠdÃ©fin ir
au de
onc Ã©
Ġop timis
Ġobten u
os er
de mn
Ġb ag
Ġal lÃ©
Ġman quer
etr ouvez
Ġvas te
Ġfle ur
Ġpr Ãªts
ĠA c
ĠrÃ© di
Ġr andonn
Ġpos tes
Ġimp orte
l ure
Ġadapt Ã©e
app areil
exist ence
ĠrÃ©p ondu
in novation
ĠÃ©t oiles
A ut
ĠnÃ©cess itÃ©
k et
Ġj apon
Ġclim at
Ġvi ctoire
Ġser veur
ĠÃ©vi dent
Ġactu el
ar a
Ġan g
aur ait
Ġinter pr
Ġbas es
ve iller
Ġsci ences
ali mentation
Ġtrans p
investis sement
Ġun s
ch a
er r
ti fi
Ġs avais
ot o
ĠB en
Ġst u
Ġeffectu Ã©
oo d
V E
ĠprÃ© venir
ĠdÃ©t ente
ĠtÃ©lÃ© charge
Ġenseign ants
Ġsouhait er
Ġjourn Ã©es
ure ment
n ant
S I
Ġfavoris er
Ġav enture
ĠlÃ©g Ã¨re
Ġcer veau
ĠphÃ©nom Ã¨ne
av ail
Ġtermin Ã©
Ġl ancement
Ġfr om
Ġb ill
Ġse pt
ĠlÃ©g er
Ġres semble
Ġvi ande
ente ment
ĠrÃ©alis Ã©e
Ġco ok
ut Ã©s
Ġac cident
ĠÃ© duc
Ġc Ã¢
cessi te
ar ch
Ġali ments
Ġ200 4
Ġquel les
Ġm Ã©r
ac le
ĠD ES
Ġfourn it
Ġaj outÃ©
Ġmag az
Ġappel Ã©
Ġs ki
ann Ã©es
Ġn uclÃ©
Ġlut ter
Ġfai bles
adap ter
Ġentre tien
2 6
it h
c a
Ġlo gements
Ġpass Ã©e
Ġle cteurs
activ itÃ©s
v ait
eng age
ou jours
ĠtÃ¢ ches
ĠdÃ© lic
Ġall ant
Ġser ai
Ġth Ã©m
Ġcalend rier
Ġacc ro
g Ã©n
Ġti r
Ġre jet
D eux
Ġtravaille urs
Ã©r ance
Ġqu in
ĠB onne
ĠmÃ©dec ins
erci ces
er te
. ,
Ġbl anche
D i
Ġop tions
Ġrestaur ants
Ġlong ues
e d
ĠÃ ®
ir a
Ġexp li
Ġcon duire
Ġd ates
ler a
ĠLy on
ĠdÃ©termin er
o bli
an ches
Ġac tes
Ġpoursui vre
en registre
ĠsÃ» rement
Ġsec rÃ©t
oc at
Ġ19 4
Ġdit es
Ġt abl
Ġcou cher
Ġdem eure
7 5
Ã©r Ã©s
Ġconstit uer
Ġlais sez
Ġparf um
Ġch ances
le ver
eff icacitÃ©
Ġcon Ã§u
m erci
ĠÃ©cl air
Ġorigin al
Ass ociation
Ġg Ãª
ĠP ays
Ġr u
Ġno tes
ĠrÃ©s istance
Ġpens ais
ĠC ode
ĠbÃ¢ti ments
Ġchauss ures
ubli c
ot t
Ġp istes
Ġmo du
Ġ ordre
Ġmach ines
. Â»
Ġma qu
di ques
Ġexpl oit
E T
Ġcandid ature
Gr Ã¢ce
or iques
ĠM i
Ġcollec tivitÃ©s
ou is
ĠcollÃ¨ gues
Ġqu alitÃ©s
Ġimm obili
Univers itÃ©
Ġtal ent
est es
Ġvis ant
Ġhist oires
Ġc itÃ©
Ġmouve ments
Ã©ch ange
Ġindi que
ĠrÃ©g ler
Ġrempl acer
Ġcorrec tement
ĠespÃ¨ ces
Ġsensi bil
oi le
ĠrÃ©s oudre
Ġpro d
ĠM o
Ġpos ter
Ġre qu
ĠnÃ© cessite
Ġanim al
Ġinte llectu
S on
eu ble
appr endre
Ġme ur
Ġ3 2
Ġsom met
d its
E sp
Ġeng age
ex iste
ĠcatÃ©g ories
ass ure
o tes
Ġcomb in
Ġrel atives
join t
Ġheure use
Ġpublic itÃ©
Ġconstr uit
Ġparticip Ã©
ise z
ĠA b
P eut
Ġb oire
Ġc ath
Ġex tÃ©rieur
aur ai
Ġconstat er
Ġpr Ãªte
Ã©t ant
Ġ? ??
Ġendroit s
ien nes
Ġvoy ages
9 9
0 1
Ġmod alitÃ©s
Ġsyn th
ĠrÃ© mun
Ġpot enti
Ġdirige ants
ame di
Ġcab inet
ay e
Ġsil ence
Ġess entiel
Ġhum aines
Ġfour ni
ag rÃ©
al cool
Ġpris on
Ġm assi
Ġag ence
Ġt ut
Ġinstall ations
Ġle cteur
ĠS es
p el
am Ã©nagement
tr op
Ġr ond
Ġsci ence
Ġcollabor ateurs
Ġin u
Ġvou d
Ġp Ã©tr
Ġau di
rit an
Ġrev ue
Ġcomp li
Ġfamili ale
ĠdÃ©r oul
l Ã©s
Ġth Ã¨mes
Ġdivers itÃ©
ĠBel gique
ĠprÃ©s id
app er
Ġco tÃ©
ĠrÃ© comp
en quÃªte
Ġo re
Ġven ez
Ġartis tique
ad is
Qu elle
ct ur
Ġch em
iss ait
olog ue
h u
Ġp iste
Ġrec ueil
ĠÃ©ner gie
us ter
m osph
Ġ!!! !
Ġconfir mation
Ġchin ois
Ġpl astique
ĠS E
av enture
O ff
Ġlu mine
Ġdonn ant
Ġlim itÃ©
ĠGr ande
Ġr oy
al lÃ¨
att a
os t
Ġpropos Ã©es
ĠS eu
imp act
Ġinter rog
c te
Ġmet tent
y p
Ġinc lus
ĠdÃ©pl ace
Ġreconn u
Ġdonn Ã©e
, ...
Ġstru ctures
ĠfrÃ© quent
ort h
Ġdouce ur
Ġsol d
ĠrÃ©c ol
Ġch Ã¢teau
Ġ19 5
Ġes c
Ġcommerci ale
Ġchau de
or ge
as tru
Ġdiagnos tic
ag on
alis Ã©s
ĠGr Ã¢ce
Ġrais onn
Ġenreg istre
ct or
ĠC ertains
Ġcl asses
k m
Ġreconn aissance
esp oir
Ġcour ri
Ġap er
Ġoff ert
ĠrÃ© elle
Ġre port
âĢ ī
ĠrÃª ves
Ġadapt Ã©s
Ġop tion
ĠP ort
g ar
Ġbi ais
ĠrÃ© novation
Ġorganis er
ĠdÃ©li v
ĠdÃ©pl acer
arr Ãªter
i i
ĠÃ©n orme
m at
ĠspÃ©ci alement
Ġpat ron
Ġoc cu
att ente
Ġnett oyage
S al
Ġser r
i b
Ġnature ls
I s
env oyer
C onc
Ġpropos ent
Ġenti Ã¨re
si e
off rir
Ġgrosses se
Ġaccue ille
Ġven ue
Ġtrou bles
ol Ã©e
anim ation
Ġveu illez
Ġimpres sionn
Ġapp lic
Ġb en
Ġmo bilitÃ©
Ġsur f
Ġdi alogue
Ġrencont rÃ©
P rÃ©
Ġprest ation
d us
Ġsau ve
ĠrÃ© duit
Ġfer met
Ġinf os
un g
Ġaliment aires
s c
Ġsymp t
2 8
ĠspÃ©ci al
Ġar mes
Ġpouvoir s
n on
ĠP C
Ġex position
op e
ĠÃ©trang ers
Ġremb ours
ĠmÃ©dic al
Ġincont ourn
igne ur
Ġac quis
ĠE sp
ĠD is
tellig ence
Ġcomm en
Ġlab or
t oi
hÃ©s ion
Ġfi xe
Ġhy dr
vi es
R A
Ġorganis mes
Ġfac teurs
atis ation
n aires
ons tr
ĠÃ©l ab
Ã©qu ilibre
Ġr ues
Ġac tive
Ġentre pren
ĠdÃ©c Ã¨s
ĠA cc
Ġconc entr
ar me
ati vitÃ©
inst aller
Ġr am
Ġ0 6
ĠdÃ©couv re
Ġr ares
Ġmotiv ation
ĠTh e
Ġprogr Ã¨s
in ion
Ġappr opri
Ġsur veillance
ch ons
ĠdÃ©c ret
ĠD Ã©c
ĠdÃ© te
Ġcoordonn Ã©es
k y
c m
Ġn utri
Ġdev ons
Ãª tement
2 7
ĠprÃ©c iser
Ġsign al
O P
Ġdorm ir
ouv re
oe il
Ġam ateurs
Ġcer tes
Ġa Ã©ri
oin t
m ont
Ġcircons t
s tÃ©
Ġaspect s
v et
ĠL u
P endant
ais sez
Ġs able
gn Ã©
Ġar gu
Ġst ade
Ġin grÃ©dients
Ã©v elop
A frique
Ġsit ue
Ġinst allÃ©
Ġapp li
Ġpor tÃ©
Ġtiss u
cr its
Ġau quel
Ġprofessionne lles
Ġins crire
Ġrepr ise
it y
ĠÃ©norm Ã©ment
env ie
Ã©cur itÃ©
Ġbi z
Ġd ents
w e
oris er
Ġpleine ment
ĠprivilÃ©g i
or al
Ġsatisf action
Ġban ques
Ġjau ne
% .
âĢĿ .
ĠN ic
ĠPour tant
Ġch rÃ©
ĠÃ©ch ange
er cer
Ġmand at
Ġav ance
pir ation
ĠdÃ©mar ches
ci des
Ġcas ser
it ons
Ġmont age
tien nent
Ġmorce aux
ti Ã¨res
an moins
ĠidÃ© ale
Ġterrit ori
Ġsolid aritÃ©
Ġfr ont
Ġg are
ol ue
Ġsor ties
Q UE
Ġ3 3
ri ch
amÃ©li oration
in v
ĠrÃ©par ation
ĠcÃ©r Ã©m
t Ã©s
ĠSer vice
Ġen ce
h or
C rÃ©
Ġaur aient
Ġcha mps
ĠS ite
Ġlyc Ã©e
Ġrembour sement
Ġdange reux
Ġproch aines
Ġautre ment
Ġpren ant
Ġrac onte
tr ont
Ġmagas ins
Ġtour ne
Ã©s us
Ġes tim
ĠcomprÃ©h ension
Ġs tim
Ġc ot
Ġchap itre
ĠconsÃ©qu ence
Ġminu te
ĠCom p
Ġdiffic iles
Ġlim iter
Ġdis que
ĠN i
Ġpl ait
ĠB ou
ĠB an
Ġa fric
Ġir rÃ©
Ġes time
Ġmus ul
ĠCom itÃ©
ci ers
ĠÃ©c oute
ĠB er
Ġpren ez
Ġm ille
ĠnÃ© anmoins
al ais
Ġpos itif
Ã¨ ce
Ġcon vention
Ġar gent
vis i
vi ces
ĠfranÃ§ais es
Ġtransf ert
Ġam en
' s
til itÃ©
ĠeuropÃ© ens
ĠcrÃ© ations
Ġb ulle
Ġcour te
Ã©r a
Ġdi am
ĠrÃ© action
Ġouv rage
Ġs inc
Ġpri oritÃ©
ĠprÃ©cis ion
Ġhe in
ordin aire
b it
Ã´ mage
Ġbiblioth Ã¨que
or ce
Ġtransform ation
Ġgar s
ĠprÃ© occup
Ġco ol
I M
ĠÃ©mo tions
Ġquotidi enne
Ġch ute
att ends
Ġh Ã´
ĠFr anc
Ġf ier
Ġsatisf ait
Ġinter vention
h er
Ġcli quer
Ġf ans
accomp agnement
c itÃ©
Ġerre urs
Ġbill ets
Ġport able
ĠrÃ©f Ã©r
ĠSoci Ã©tÃ©
Ġcor ri
ĠR ou
Ġorigin ale
ĠconsÃ©qu ent
ĠP er
Ġcoup er
Ġdiz aine
Ġ ois
ĠspÃ©cialis Ã©e
ali ers
in ge
Ġrelative ment
ĠdÃ©f endre
Ġpl af
Ġp ause
oil a
oi d
ou est
ĠspÃ©cialis tes
ti te
Ġco ff
ĠMar ie
Ã©c rire
Ġpar aÃ®t
Ġtrad u
Ġprol ong
Ġdestin Ã©
ĠrÃ©d action
vie w
autom ne
occu per
Ġaccessi bles
Ġpuiss ent
Ġc uire
Ġcerti fic
Ġd ent
Ġk g
2 9
Ġent our
Ġinst aller
Ġl oup
Ġlois irs
mi gr
Ġpar venir
Ġcours es
Ġp en
k er
ens itÃ©
ĠÃ©t onn
Ġcook ies
Ġbat terie
Ġen ne
Ġi gn
F aire
Ġlux e
k o
ĠcomplÃ© ter
ui de
Ġo f
Ġar bres
aut aire
Ġaff ich
ĠmÃ©de cine
ol y
ĠÃ©c outer
ĠE uropÃ©
Ġinter dit
ĠD eux
Ġb att
ĠA p
con que
S itu
Ġsupp rimer
Ġsal aire
hab it
Ġpr Ã©nom
Ã©vÃ© nement
At tention
agn ol
Ġf ur
Ġpays age
on iques
c ole
Ġses sion
Ġgraph ique
ĠÃ©lect riques
Ġculture l
Ã©t aire
vis ions
am mes
ot tes
ĠB e
Ġmet tant
Ġexemp les
Ġconsid Ã©rÃ©
Ġhy per
Ġpours uit
entre prises
ĠcollÃ¨ ge
ag i
Ġad olesc
O I
ĠPe tit
Ġsub st
gl ise
Ġf us
ĠreprÃ©sent ant
ĠÃ©tab li
or Ã©e
ĠS antÃ©
AN T
S ans
Ġavant age
oi gne
Ã©t h
Ġplac Ã©
t Ã©e
Ġh uit
ĠdÃ©velopp Ã©
Ġassur ance
U I
Ġcontrib uer
Ġl ouer
âĢ¦ âĢ¦
Ġimp act
o ter
Ġes ti
Ġfor fait
ĠG en
al uer
of t
Ġrel atif
Ġutilis Ã©es
ern itÃ©
ĠdiffÃ©r ente
Ġne ws
Ġre tirer
Ġac te
un ion
ĠrÃ©c lam
Ġv ins
u ter
ĠâĢ ĺ
ĠÃ©lÃ© g
app ort
all Ã©e
ab e
ĠreprÃ©sent ants
uis ent
Ġproc Ã©der
Ġchan tier
oure use
oli e
Ġsembl ent
Ġca che
ĠL ES
Ġinc onn
hy p
Ġp el
les se
ĠÃ©v olution
ĠprÃ©s identi
ĠR ien
ĠFr anÃ§ois
Ġe mm
hÃ© tique
Ġsensi ble
Ġann uel
ce voir
Ġinstall ation
chi ves
Ġsign ature
Ġcontac tez
du its
c an
Ġsau ver
Ġpl omb
Ġri vi
Ġconn aitre
Ġco opÃ©ration
ch et
Ġorganis Ã©e
Ġ3 4
Ġc uir
ĠmÃ©tÃ© o
intÃ©gr ation
Ġremerci er
a Ã©roport
Ġtra fic
ĠtÃ¢ che
est er
Ġbr ut
Ġglob ale
Ġcollec tive
ĠdÃ©v oil
Ġmat erne
Ġmodi fications
Ġtravail lÃ©
Ġmar cher
Ġach at
Ġcon duit
Ġaccomp agnÃ©
Ġch Ã´mage
Ġtermin er
Fr ance
Ġ5 5
ĠlÃ¨ vres
Ġinstitu tions
Ġmainten ance
Ġj eter
Ġcon vers
Ġde venue
Ġmanifest ation
Ã©tu di
Ġp areil
Ġfonctionn alitÃ©s
Ġlib Ã©r
ĠA s
ert aines
ĠprÃ©cis Ã©ment
Ġform er
ou Ã©
di te
i as
O b
Ġsalari Ã©
ent er
Ġar m
Ġaccep ter
ĠTout es
in ess
b ien
Ġper f
ĠfraÃ® che
Ġtrans mettre
Ġex ter
M aintenant
Ġlang age
Ġrecru tement
Ġp ommes
O h
Ġp ur
Ġgr as
Ġprofonde ur
ne x
Ġvi vent
Ġl ol
Ġspir itu
Ġco tis
l ot
C omm
Ġdimin u
Ġdr Ã´le
Ġarr Ãªter
ĠÅĵu vres
Ġd Ã®
Ġtr iste
Ġpl acer
Ġ0 1
ol f
ces sion
Ġb oite
S T
r ance
Ġsign Ã©
Ġexp liquÃ©
Ġche fs
ĠÃ© m
Ġ1 000
Ġplan i
ag riculture
qui de
Ġmag ie
Ã©d Ã©ration
Ġex trait
intÃ© resse
ĠdÃ©pl acement
arr Ãªte
R en
F i
Ġoff rant
Ġrac onter
ad Ã©
Ġfab ric
ĠÃ©pis ode
Ġtraite ments
Ġ3 8
ĠrÃ© alise
c tes
ten sion
Ġpois son
Ġappr o
Ġgl ace
Ã©r ons
Ġmag ique
Ġpays ages
Ġconnaiss ent
Ġpersonn alitÃ©
Ã©g lise
a a
ĠrÃ©alis Ã©s
Ġa x
Â ·
Ġsympath ique
Ġfact ure
ctif s
Ġpos Ã©
Ġtrim estre
ig u
Ġme c
Ġsatisf aire
omm ages
Ġtra jet
Ġemp run
Ãª le
ol le
Ġmanifest ations
Ġphysi ques
Ã¨ ques
ĠdÃ©mocr atie
Ġach ats
Ã©l ab
Ce pendant
g o
Ġouv re
cie use
Ġdis ait
Ġcar di
ĠC E
Ġg agnÃ©
ĠrÃ©s olution
Ġ6 5
ĠToute fois
Ġconfi denti
Ġprom en
ĠM ag
ĠA h
Ġmat h
ussi e
Ġsy stÃ©
ci de
ĠhÃ´te ls
Ġdis ant
qu ette
m il
Ġty p
ĠA U
Ġson d
Ġconnais sez
ĠdÃ©ci der
eng agement
Ġsimp li
ut ation
astr oph
Ġtoi le
Ġenc our
id itÃ©
ĠPar ti
ĠdÃ©s i
or p
P l
Ġanci enne
ĠbÃ©nÃ©v oles
Ġc ur
Ġta xe
Ġv acc
Ġen vies
imp Ã´t
Ġsou pe
Ġdiz aines
Ġfall oir
Ġprom ouvoir
Ġli Ã©
Ġtu er
ĠÃ© ti
eu illez
ange ment
u ie
aut o
Ġmar quÃ©
ĠdÃ©t our
Ġorgan ise
Ġlic ence
empl oy
Ġgr is
Ġle ver
Ġcommer ces
Ġt ribunal
Ġad Ã©qu
ĠindÃ© pendant
ĠgÃ©nÃ©r ales
r ob
En suite
Ġaugment ation
D Ã¨s
Ġac tif
Ġ25 0
Ġtradi tion
ret agne
Ġcompos ition
Ġcircu it
f eu
ĠE l
d on
A IS
ind ows
ĠC elui
Ġreconn aÃ®tre
ĠA v
Ġretrouv Ã©
Ġoblig ations
Ġpass ent
r aine
tre r
Ġnature llement
Ġass is
Ġno tion
ĠJ Ã©sus
Ġeffic aces
Ġpl ant
Ġad hÃ©r
ate lier
f es
Ġm ang
En core
ĠL ig
ĠLors que
ess ayer
ĠdÃ©c len
Ġre met
appr oche
ĠÃ©conom ies
Ġmaj eur
ux elles
ĠY ork
ĠG ar
Ġrare ment
ĠGr oupe
Ġv ain
Ġco ach
Ġvie ille
Ġfoot ball
Ġme me
uy er
ist res
Ġproc Ã¨s
Ġv entre
Ġen ch
D Ã©s
Ġau teur
Ġsig nes
ex emple
ap Ã©
hÃ´ pital
M S
Ġcop ie
l as
ĠspÃ©cialis Ã©
Ar t
ĠrÃ©ser vÃ©
or able
Ġastu ces
gu Ã©
Ġpouv ais
ĠdÃ© gr
ĠQu elle
di tion
Ġn uits
ĠlÃ©g iti
ĠdÃ©f is
Ġconfl it
Ġannon ces
Ã¨g es
Ġtemp or
ul Ã©e
asse mbl
ĠP L
Ġex ige
Ġn oire
Ġremar que
Ġpou dre
ab lir
ĠPre mier
at er
m l
Ġbure aux
Ġsouv iens
Ġsens ation
Ġvoy ez
Ġsembl ait
ai es
Ã© mission
Ġmon u
Ġg agne
ui le
m ir
Ġins cription
C liquez
Ġcou che
ĠpropriÃ©t Ã©s
ĠTr ans
onn Ã©s
ĠcÃ´ te
âĨ ĳ
Ġpar oles
ex ception
Ġdim ension
m ant
ĠS am
Ġex ercices
Ġfr uit
c ent
ĠÃ©volu er
Ġsub s
ĠprÃ© voir
Ġoff rent
Ġconn ue
Ġvo ter
onn aie
ti enne
Ġincroy able
Ġstock age
in Ã©e
Ġrec yc
Ġtest Ã©
ĠspÃ©ci ale
ĠC ON
Ġsauve g
ĠP ersonne
I F
Ġm aire
Ġpro je
Ġtrans ition
ĠÃ©li min
Ġag ir
Ġver ra
m atiques
ex Ã©cution
ol er
env oi
Ġcol Ã¨re
t alie
Ġdev ront
Ins titut
Ġstatis tiques
ĠS Ã©n
Ġr oi
Ġartis an
Ġaliment ation
Ġl ook
or di
ĠprocÃ©d ures
Quel ques
Ġcar rÃ©
Ġpar lement
g re
Ġmain tien
Ġr al
ĠreprÃ©sent ent
ĠCon f
Ġp ul
Ġcomp ati
Ġpens Ã©es
our t
Ġ200 3
Ġsoli de
tel li
ĠdÃ©p Ã´t
ĠÃ©quip Ã©
Ġth er
Ġterr oris
b ert
hum anitÃ©
Ġmil itaires
ess entiel
cid ents
l on
Ã¨ne ments
enti s
en nent
ens Ã©
Ġ6 00
ul te
ĠcontrÃ´ ler
Ġref aire
ĠcompÃ©t ence
iss ue
endre di
Ġdisponi bilitÃ©
Ġs Ã¨che
Ġresp ir
Ġrecommand Ã©
Ã©s ie
er nes
v ert
Ġac tifs
Ġdess ins
Ġdes cription
Ġcl aire
Ġblanc s
ol is
Ġfinanci Ã¨res
Ġcommand er
par avant
M es
Ġconc r
Ġsmart phone
ĠRÃ©g ion
Â Ĵ
Ġb asse
val ent
ĠA vant
ĠMar oc
Ã´ les
Ġdis s
n ie
Ġ200 2
ĠCh amp
an es
ĠS ci
ĠreprÃ©sent ation
Ġn ette
Ġessenti ellement
Ġs avait
Ġtransform er
Ġsouff le
ĠdÃ©pos er
Ġm orte
Ġcontr aintes
Ġprop or
Ã©r ateur
Ġimp li
oi ff
Ġfeu ille
ĠI N
Ġpubli er
ĠG e
Ġb ox
ĠintÃ©ress ante
Ġfa Ã§
Ġfer ont
ri d
ĠC lub
ĠF orm
ĠIn s
op p
Ġcat astroph
Ġfais ons
Ġconform Ã©ment
Ġpopul ations
Ġst ric
Ġremar qu
ĠbÃ©nÃ©fici e
ur a
Ġconf Ã©rences
Ã©lÃ¨ ve
ĠR ussie
Ġcollec te
Ġpois sons
Ġm ourir
che c
Ġjam bes
v ations
Ġmagni fiques
ĠÃ© tions
Ġnavig ation
Ġpu b
ĠA ff
ĠPar c
Ġbat tre
ol as
Ġsa chant
Ġat out
A B
Ġsol aire
ĠcomplÃ©ment aires
ch Ã©es
ac tif
di tions
artis te
ĠV oilÃł
ĠA frique
rup tion
Ġconseil lÃ©
ĠR ob
3 4
Ġdim ensions
Ġfran ch
ĠÃ©c ologique
aur a
ĠrÃ©s umÃ©
Ġprogram mation
Ġde dans
Ġanim ations
Ġchamp ionn
Ġsec ours
Ã©g alitÃ©
Ġpl ages
Ġconfir me
Ġexemp l
v ons
Ġproch ains
a ques
ĠvÃ©r it
Ġprofes sion
i x
Ġvis u
Ġrec ord
au g
Ã©ch elle
C O
. âĢĿ
mosph Ã¨re
0 6
Ġadap tÃ©es
Ġli quide
pos er
ĠcÃ©rÃ©m onie
Ġr entre
organis me
ent end
ĠF estival
ĠprÃ©v ues
ĠS y
ĠgÃ©ni al
Ġmont rÃ©
Ġfr anchement
0 5
Ġat ti
Ġa gr
n ing
res sions
Ġh umeur
Ġaut onom
Ġbis ous
Ġr up
Ġconn ait
Ġinternation ales
j Ãł
Ġcu ill
ĠdÃ©r oule
Ġfa Ã§ons
Ġmagaz ine
Ar ticle
fi Ã©es
univers itÃ©
Ġgar age
Ġb aign
ic k
mi Ã¨res
l ation
ĠÃ© chÃ©
Ġnature lles
Ġinvestis sement
Ġconten ant
att endre
Ã´ ne
ĠT witter
Ġfermet ure
Ġcherche z
ĠCh rist
Ġav enir
ĠprÃ©v oit
ac quisition
Ġbien venue
Ġd ommages
imag ine
ĠcrÃ© ativitÃ©
Ġnouve autÃ©s
op timis
Ġh Ã©ros
o Ã¯
Ġcorrespond ant
all en
Ġhabitu des
ĠJ ourn
Ġrepr is
Ġven ait
Ġjudici aire
Ġsur vi
og ue
Ġconcern Ã©s
oeu vre
Ġmo teurs
an ie
Ġparam Ã¨tres
ĠÃ© mer
ĠO b
Ġremp li
Ġpriv Ã©s
Ġfl ux
Ġinv itÃ©
Ġet re
j oux
tit Ã©s
ĠgoÃ» ts
ĠrÃ©p ert
ĠC ong
L I
Ġven us
Ġpr ess
Ġnorm alement
Ġp ne
ĠP rix
Ġaccep tÃ©
Ġsympt Ã´mes
Ġrelig ion
Ġfor tes
Ġaccomp agne
F in
3 6
! )
Ġr outes
R etrouvez
ĠL ond
Ã¢ me
Ġmal ade
Ġterri ble
Ġh arm
aiss es
Ġcl Ã´t
ang lais
Ġfonction ner
Ġcor p
Ġc ouvert
Ġsou d
ĠPh ili
S S
ell ent
B r
Ġb ol
ĠÃ¢ gÃ©es
an isme
er me
ĠC as
Ġtrans mis
Ġdipl Ã´me
ĠdÃ©c o
ĠprÃ© cieux
Ġrec ul
Ġp on
oi ent
Ġplaf ond
Ġr ur
qu ait
Ġremar quÃ©
Ġriches se
Ġplate au
Ġpersonn alisÃ©
h ous
ch on
at ric
Ġbr ill
inf o
g el
ouve au
Ġcont ribution
j a
ern ant
ĠthÃ© orie
Ġatt ribu
Ġ1 20
Ġsigni fic
Ġad orÃ©
eure usement
Ġb ritan
ri te
orde aux
Ġci ble
Ġgour mand
Ġg Ã¢teau
Ġch ats
av al
Ġpar allÃ¨
Ġcol is
Ġn at
ac teur
Ġfournisse urs
ĠG al
Ġc ass
Ġvit am
ĠIn st
Ġbat aille
Ġjourn alistes
Ġappr end
ve il
ogr amme
Ġspor tif
Ġlour d
Ġval able
Ġstu dio
b ourg
i res
Ġp oul
c k
i v
effect uer
Ġf un
or itaire
aul t
hum our
Ġl ot
Ġv ul
gi Ã¨ne
Ġcellu les
un di
Ġdev rais
Ġregr oup
Ġcirconst ances
as p
Ġ3 7
av ion
ĠpÃ©dagog ique
Ġfut urs
ac u
ili b
ĠBr uxelles
Ġcl ass
S a
abil itÃ©s
ĠrÃ©un ions
A b
ĠN ational
Ġp es
ri ers
ĠD om
Ġiss us
Ġconst ante
Ġlib res
Ġc oute
Ġobli gÃ©
Ġt or
Ġsport s
ĠMich el
ĠmÃ©dic ale
at a
Ġcr oit
Ġrepr ises
Ġab andonn
out u
Ġ er
Ġcri tiques
Ġqu Ãªte
ĠPar lement
aci e
ĠdÃ©p asse
Ġsour is
Ġterrit oires
hÃ© bergement
Ġg el
Ġconstitu ent
' t
ac ques
ĠC D
h a
Ġexcep tionnel
im anche
Ġsui vent
ĠD Ã©couvrez
3 1
ult ures
Ġcontac ts
Ġpo che
j outer
app Ã©
Ġrenseig ner
enc er
Ġmus cul
Ġper t
am er
ĠS ar
Ġsenti ments
A V
Ġpl aque
l og
Ġinform er
Ġquasi ment
ĠsÃ©ri es
Ġprodu cteurs
oy en
e y
ĠprÃ©ser ver
Ġmot o
app orter
Ġm Ã¢
Ġimp ati
Ġv oc
us ses
Ġfar ine
Ġmeu bles
Ġquar tiers
is mes
Ġin vent
0 9
ĠC oupe
initi ative
od uire
Ġav ancer
Ġins cri
Ġtradu ction
Ġfort s
Ġcompren ant
Ġconsac rÃ©
Ġmen ace
ĠA g
v ue
exp rimer
Ġintern autes
Ġpuiss ant
se ille
ĠJ our
Ġtend ances
ĠTe ch
Ġ200 1
Ã©b Ã©c
ĠB ref
Ġprog ression
Ġculture lle
in tention
O C
ili ation
Ġn er
ĠT er
ĠcrÃ© Ã©e
Ġt ox
ĠMin istÃ¨re
Ġpl ante
Ġsais ir
Ġappar aÃ®t
de urs
ĠdÃ©p asser
ĠscÃ©n ario
eu e
Ġ ur
t al
ĠdÃ©c rit
Ġla ve
ĠP OUR
Ġrou ges
ac tez
ag Ã©es
Ġh er
Ġexp lications
ĠpÃ©ri odes
Ġar ts
ĠrÃ©gion al
Ġ0 4
âĢ ĺ
Ġlog o
Ġ? ?
Ġcat alogue
3 2
hous ias
Ġtr ouvez
ĠlittÃ©r ature
1 00
Ġprati quer
ative ment
Ġju gement
iss ons
Ġconst ate
om is
Ġfer mÃ©
ĠV oir
Ġconfir mer
Ġdom in
Ġar chite
ĠM us
ĠrÃ© chau
Ġboute ille
Ġfer ait
Ġtradi tionnelle
Ġau dio
Ġstand ard
ap partement
M A
Ġvoy ager
Ġex Ã©cu
fi tez
ĠU S
Ġsur pris
Ġpar u
Ġesp Ã©rant
Ġenf ance
Ġ8 00
ĠprÃ©sidenti elle
ĠintÃ©ri eure
ĠNouv elle
Ġchaleure ux
qu in
ĠrÃ©c it
Ġde vi
ĠrÃ©f Ã©rences
Ġdir ais
Ġconnec tÃ©
onom ique
Ġspor tifs
ĠS tr
Ġd est
Ġessenti elles
ĠnuclÃ© aire
Ġfai m
Ġfin it
Ġr usse
il li
op position
Ġsuppos e
end ue
Ġconnec ter
cri min
d f
Ġaut henti
ony me
Ã© rez
Ġ3 9
organis er
l ande
s ans
Ġp aqu
eu le
l ait
Ġav ent
Ġaj oute
Ġ4 4
ĠR E
v el
ĠMar s
Ġlaiss ant
ĠeuropÃ© ennes
or ale
Ġrepos e
Ġc Ã©rÃ©
c ol
Ġdir ait
& #
sh ir
Ġadul te
Ġtom e
Ġfrom age
Ġtrans mission
ĠdÃ© par
ĠN ationale
Ġre j
ar que
Ġassur Ã©
Ġpri me
uis e
ĠÃ©tr ange
Ġempl ois
Ġchans ons
ĠrÃª ver
aut orisation
Ġclassi ques
Ġinterven tions
att aque
atri Ã¨me
Ġfix Ã©
Ġsou l
ĠrÃ© t
Ġjoin dre
Ġcyc l
Ġle ader
Ġnum Ã©riques
ĠprÃ©p are
3 8
Ġtent Ã©
F aites
ti g
ĠrÃ©alis Ã©es
Ġ; -)
Ļ ¥
ĠC onc
ĠP AR
ĠS te
Ġfranc oph
ĠCe ci
Ġsupport s
Ġaime z
Ġagric ole
ĠÃ©vent uellement
mÃ©di aire
Ġj oy
ĠB as
B onne
Ġf ine
ass istance
Ġ ouvertes
P rÃ©s
Ġl ing
Ġcentr al
Ã¨ dent
Ġam us
is ser
arri ver
Ġtot alitÃ©
ol ation
Ġvois ins
Ġten sion
Qu ant
Ġutilise z
Ġfall u
oth Ã©rap
ĠrÃ©glement ation
Ġpor trait
ĠrÃ© uss
Ġcertific at
âĢ¦ ).
Ġg este
Ġca uses
ĠnÃ©g li
0 4
l Ã©es
av aient
Ġre lÃ¨ve
Ġport ail
Ou est
M e
Ġperspec tive
Ġimm ense
cu les
Ġproc Ã©dÃ©
H istoire
ĠI ci
Ġdouce ment
cher che
Ġm yth
Ġ @
Ġrenfor ce
ĠamÃ©ric ains
Ġperman ence
Ġrem ont
uff is
Ġtravail lent
Ġfr Ã¨res
Ġadop tÃ©
Ġcommerci aux
Ġinv itons
Ġp ier
i tifs
Ġinternation aux
Ġmont Ã©e
Ġann uelle
ĠP S
ĠdÃ©s ign
Ġprim aire
V oir
p re
ar g
ue use
Ġexp ertise
Ġpropos ant
en fin
ĠG uerre
ĠintÃ©ress Ã©
Ġvi vement
C l
intÃ© ress
Ġclim atique
Ġm ign
Ġbal ade
Ġeffic acitÃ©
Ġpous ser
app lique
Ġsav ons
Ġorganis me
ig ner
our ce
ex amen
Ġaper Ã§u
c tive
M P
Ġvois in
Ġrap pr
ai d
ĠmÃ©n age
aiss elle
Ġconsid Ã¨re
Ġ? !
Ġv ues
Ġenc ad
Ġdispos er
Ġexclusi vement
ol d
Mal grÃ©
Ġpermet tront
Ġfil i
uis ant
ĠT oul
Ġcr a
Ġsor tes
un itÃ©s
ĠF aites
ĠV ie
Ġpr ud
Ġm onsieur
ĠrÃ© no
Ġregr oupe
Ġvisi bilitÃ©
ĠrÃ©f ug
ĠRoy aume
ĠLond res
Ġs ing
ĠSe igneur
Ġmilli on
rim Ã©s
Ġcourri el
Ġimport ance
Ġter mine
ĠL oi
Ġan c
ĠtempÃ©r atures
Ġcom Ã©di
Ġde grÃ©
Ġexcep tionnelle
ĠV is
ĠL eur
Ġvoyage urs
tifi ci
S er
aine ment
o tion
iter ran
ess ai
ĠdÃ©b arr
Ġcompos Ã©e
Ã©lab oration
Ġapp liquer
Ġperf ection
Ġlun ettes
ais ons
ĠW indows
ĠmÃ©dic ament
Ġrecommand ations
Ġqu an
S uper
ni Ã¨re
Ġb Ã©t
C ertains
ing ue
Ġtrait Ã©
R ES
Ġre fr
t ait
Ġaugment e
Ġfati gue
p in
c el
aff ich
as ter
occu pe
Ġh onn
Ã©an moins
Ġr amen
ĠM aintenant
ar chitecture
tin s
Ġincontourn able
ra Ã«l
ĠÃ©cri te
Ġdi ab
ĠÃ©trang Ã¨res
Ġfin ances
Ġs Ã©r
Ġre ti
Ġven deur
ĠM or
ul ations
ĠÃ©vid ence
Ġcour ir
Ġex ercice
Ġassoci Ã©s
l ut
U tilis
Ġl its
Ġconc lusion
acc ro
Ġouvert ure
m s
Ġul tra
Ġf au
oh n
Ġrup ture
ar b
Ġvoi es
Ġbi joux
Ġch ers
mp e
ch age
Ġrepos er
av er
0 2
Sal ut
aut onomie
oriz on
Ġindivi dus
Ġcommerci ales
0 7
Ġrest era
Ġjoli es
Ġinf o
ti ge
ĠgÃ©nÃ©r ations
Ġprom is
0 3
Ġtomb Ã©
Ġfam eux
ĠÃ©v Ã¨nements
9 5
ĠreÃ§ oit
ĠprÃ©cÃ©d ente
au rez
AN S
av ier
Ġcit ron
Ġaff ec
Ġpati ence
di a
ri v
ĠPl an
of on
Ã® tes
Ġmi x
Ġpan ier
Ġass ister
ac un
ĠsecrÃ©t aire
Ġbr avo
og ne
ĠO p
ti nÃ©e
ĠdÃ©di Ã©e
Ġvie ill
auv res
ĠdÃ©g Ã¢
Ġmauvais es
agr aph
Ġin tit
ad Ã©mie
Ġmunicip al
Ġcuri eux
Ġimp Ã©r
d ou
Ġmus ici
al ors
Ġrivi Ã¨re
Ġ4 2
Ġli Ã©e
s ant
201 7
Ġcontr airement
ond issement
Ġrandonn Ã©e
V I
ĠS inon
an ou
Ġdirec te
3 7
Ġrempl acement
enregistre ment
de x
Ġrele ver
ol a
Ġessenti elle
Ġsau ce
Ġatt endu
A g
ri es
oli ve
ass oci
Ġcar t
ch ette
Ġrac ont
ĠmÃ©can ique
Ġr af
am in
Ġbiz arre
Ġd ot
ĠCon tin
Ġs ois
onne z
O p
ĠJ us
Ġc ant
Ġal ent
Ġk it
D Ã©c
Ġso eur
ĠEx p
Ġreli gie
Ġab ou
Ġc oiff
ĠV I
ori entation
Ġsc ul
T S
Ġa y
Ġpeu p
Ġcomp arer
Ġress or
Ġch ante
Ġfin ance
Ġh onte
ouver nement
titu des
ĠÃ©mis sions
Ġp are
ff er
iss ante
z y
ĠsystÃ© matique
omm un
Ġ ord
Ġconn us
Ġf oyer
Ġr os
o tel
Ġtour istique
Ġaid es
as pect
ossi bilitÃ©
Ġexp ert
tro duction
Ġtour istes
Ġsur prises
Ġposi tive
Ġenc ourage
ĠÃ© lu
enti n
i mes
Ġmorce au
ouv ent
E s
in ves
Ġt ol
ĠthÃ©rap eu
form ation
Ġ 00
ri ces
g il
M ise
Ġt onnes
Ġv ague
Ġs ombre
ĠprÃ©sent ent
Ġc ous
av id
Ġd oc
Ġphotograph ie
Ã Ĭ
ĠO ff
Ġpens ent
Ġprogressi vement
lu ence
en die
Ġno ti
Ġappel er
Ġindustri els
Ġsaur a
m en
ĠintÃ© resse
Ġchev aux
atri ces
ĠÃ¢ me
j eu
ĠCh ambre
Ġa qu
Ġfamili al
Ã©cl air
ĠF re
ĠP aul
Ġtour nÃ©e
Ġvir us
Ġois eaux
ĠM ic
Ġper p
Ġnorm ale
c Ã©
Ġinvestis sements
Ġr aff
Ġimp ression
ond es
ĠtÃ©l Ã©c
Ġc ultures
dÃ© pend
Or ganis
isp oni
Ġgar Ã§ons
Ġconnaiss ais
Ġgrat uits
ĠV er
ni ques
Ġdr ap
ĠdÃ©b ats
Ġsoir Ã©es
Ġmor al
Ġmobil es
ĠstratÃ©g ique
ĠAn gl
Ġchron ique
ac Ã©s
ĠL Ãł
Ġdiscussi ons
ense z
ĠÃ©qu ilibre
i ces
4 4
ĠprÃ©f Ã©rence
Ġjourn aliste
aut oritÃ©
ang le
ĠD Ã¨s
... "
et our
s ol
ĠsÃ© p
Ġcontin ent
Ġau paravant
Ġvari Ã©tÃ©
Ġbois sons
Ġres sembl
Ġtr aces
Ġmodi fiÃ©
Ġri z
Qu els
Ġpanne aux
Ġdispos itifs
h om
Ġnavig ateur
ĠMar seille
Ġt ables
ler ie
Ġdu rer
Ġarri vent
ĠdÃ© ri
ne ur
0 8
Ġp ir
y m
Ġouv erts
Ġconf orme
H omme
ĠB ordeaux
ĠD em
Ġh ommage
ĠrÃ©v Ã¨le
ĠsÃ© min
Ġlabor atoire
ĠCli ent
erre ur
ouv rage
li m
Ġoc cident
Ġm ac
i bles
Ġeffic acement
Ġf Ã©lic
entre pren
Ġp aire
u tes
Ġsimp licitÃ©
com mer
Ġlim itÃ©e
h aus
Ġsais ons
or Ã©s
Ġver sions
ĠdÃ©c ouvertes
f ort
emp Ãªcher
Ġrepr end
Ġai ment
ĠrÃ© jou
ĠapprÃ©ci er
Ġmon te
in aires
Ġvol et
ĠĠ ĠĠ
Ġin demn
Ġexist ent
Ġqu atriÃ¨me
Ġrel ax
ĠSal on
Ġpil ote
ĠintÃ© grer
Ġch Ã¨re
Ġp auvres
Ġphilosoph ie
fait s
ĠÃ©v alu
Ġfer ai
E lles
Ã§ ue
Ġt ours
Ġvi ce
ĠI I
an til
Ġindic atif
Ġfen Ãªtres
Ġdoule urs
Ġsol lic
ĠEn suite
ĠÃ©tudi ant
Ġter res
Ġb Ãªte
si ne
Ġutilis ateur
Ġpar agraph
S uite
Ġad vers
Ġinter venir
mi ditÃ©
c ter
Ã©qui pement
ent endre
ĠdÃ©c l
Ġpropos Ã©e
Ġinc ap
ĠdÃ® ner
Ġv ap
ĠdÃ©si rez
ĠC N
al bum
exp liquer
Ġtap is
S t
Ġst ages
au di
Ġsupp ression
ĠÃ©conom ie
ĠrÃ©p utation
ĠP AS
si Ã¨re
Ġfin ancer
Je an
Ġclub s
ĠP os
ber ge
ordin ateur
Ġculture lles
Ġnett oyer
Ġouv rages
ard in
ĠEn core
Ġv ocation
m ans
ĠD Ã©s
ti tion
Ġdispar u
ĠU N
Ġhist oriques
Ġar tifici
Ġsouhait ons
Ġins crits
aff ir
Ġsuscepti bles
Ġconfig uration
Ġpap a
Ġsold ats
Ã©ti tion
Ġti re
ĠC Ã´te
Ã©t ation
affi che
Ġtiss us
ĠÃ©ch anger
Ġtoil ettes
Ġfroi de
Ã©g al
Åĵ urs
Ġprov ince
ouv Ã©
Ġconc erts
A gence
inter pr
ĠD roit
Ġp ure
â ĸ
ĠR om
Ġimag iner
Ġg Ã¢
Ġconne ct
anci enne
Ġdes tinÃ©e
Ġmaj eure
imp os
Ġ0 8
ĠC elle
Ġh on
Ġm ol
ĠC al
g in
Ġsec rets
Ġspectac les
Ġtr ente
ĠP Ã¨re
Ġ0 2
ĠCh ris
Ġmerveille ux
ĠdiffÃ©r ences
agr am
Ġeff ort
Ġv endu
Ġpar ait
B eau
Ġins criptions
Ġf lex
Ġpersonne llement
Ġbas Ã©e
Ġc y
Ġbou ger
Ġprofes seurs
Ġmo tifs
Ġgui d
Ġdev iennent
ĠrÃ©c ente
In tern
iss age
ĠtÃ©moign ages
re uves
Ġr oule
Ġdonner a
Ġai ent
Ġlong s
Ġbas Ã©
Ġutilis ent
P ierre
L ES
Ġsecond aire
Ġm ons
Ġm ys
ĠLig ue
Ġc um
is Ã©es
astru ctures
P ersonne
ĠrÃ© tr
Ġhyp oth
Ġidenti tÃ©
Ġr o
Ġmod ernes
lÃ¨ vement
Ġs urement
ĠF Ã©dÃ©ration
Ġre z
ĠmÃ©l anger
Ġjard ins
Ġp ath
Ġpe in
ĠD Ã©velop
.... ..
Ġgrav es
yst Ã¨me
ail li
Ġre tenir
Ġcap ables
Ġconsid Ã©rer
Ġpier res
ĠIn ter
Ġs chÃ©
aisse ur
i Ã©s
Ġmo tif
emp Ãªche
Ġidenti fier
Ã Ī
ur gie
mi de
Ġsuper fi
Ġfi able
ĠN ations
ĠC O
Ġcr o
ĠsiÃ¨ cles
k s
Ġpart agÃ©
ĠdÃ©place ments
Ġ0 9
Ġpass Ã©s
ĠsÃ© qu
ĠP RO
appr o
tin Ã©r
ĠstratÃ©g ies
Ġmont agnes
ĠP endant
ĠÃª tres
Ġ <
Ġde b
hy dr
Ġag ences
app ui
Ġcomplex es
am m
ĠdÃ©li cieux
Ġartis te
di en
Ġalent ours
Ġco des
I B
Q U
T T
ĠÃ©p au
Ġconvain cre
ĠJ uli
Ġse mbler
exp Ã©ri
Ġ ordonn
id Ã©es
ĠdÃ©s olÃ©
Ġdimin uer
Ġcomporte ments
Au tre
Ġquit te
Ġjus que
Ġautom obile
Ġtal ents
as te
Ġremar quer
ĠdÃ©s ire
Ã©li b
all age
Ġb assin
Ġpous se
j euner
ĠdÃ©gÃ¢ ts
Ġimp Ã´ts
ĠprÃ©cis Ã©
ant al
Ġex amen
Ġvingt aine
ĠdÃ©fini tivement
Ġdestin Ã©s
Ġemp Ãªcher
fin i
m Ã¨re
Ġtradi tionnel
Ġbon us
Ġmin Ã©r
ra Ã©li
om ber
Ġspor tive
Ġquel conque
ins piration
Ġbou tiques
ac tive
Ã¨ vre
Ġr ab
ĠcomplÃ©ment aire
ĠÃ©tab lir
an Ã©ment
ĠX X
ac les
f iez
b an
ven us
ĠM me
Ġb ric
Ġ! "
I G
Ġcot on
ĠsÃ©lection ner
ĠBan que
Ġcommun autÃ©s
t able
Ġ8 5
h ist
Ġdoig t
Ġrespons abilitÃ©s
ĠS uper
Ġfisc ale
Ġfid Ã©l
qu ettes
b o
ĠÃ©pis odes
Ġca cher
app liquer
av es
Ġbi Ã¨re
Ġt as
Ph one
ĠC ulture
Ġaccomp agnement
Ġoff rons
P A
Ġgr Ã¨ve
Ġsac s
Ġjapon ais
Ġautoris ation
ri ent
ĠdÃ© ten
Ġartis ans
si ez
ager ie
Ġfer mer
Ġprofi tez
Ġpollu tion
e ment
augment ation
ill a
ar ticles
ĠmÃ© trop
ĠG R
Ġinc on
h tt
Ġress ent
Ġm onnaie
B en
Ġproc ure
o di
Ġconvers ation
port s
Ġc aisse
ci Ã¨re
4 8
ĠrÃ© agir
Ã¨ tement
Ġp av
Ġm it
Ġfix er
Ġlanc Ã©e
Ġprog resser
Ġtabl ette
Ġy a
ach et
Ġrest ant
ar ts
Ġcontr act
ses sion
Bien venue
Ġatt ach
ĠdÃ© ni
Ġ ).
ĠspÃ©cialis Ã©s
obli gation
Ġform id
ĠIntern ational
Ã¨s es
Ġinu tile
ĠC OM
Ġconfidenti alitÃ©
Ġconform itÃ©
Ġraisonn able
Ġlic en
ag issait
Ġf uite
Ġinform Ã©
Ġviol ences
Ġrem onter
ar mes
Ġfac ilitÃ©
adap tation
ĠM usÃ©e
I ci
ail s
Ġv ag
ĠÃ©ner gies
Ġindividu elle
Ġp ack
Ġiniti ative
Ġaffi che
R ien
Ġrec ons
ĠP eu
en ch
Ã©tÃ© r
ĠbÃ©nÃ©fi ce
Ġch Ã¨que
i ve
ĠadhÃ©r ents
z aine
ain dre
Ġvoul ons
le y
Ġrepro duction
Ġore illes
Ġgr aines
Ġad mis
Plus ieurs
v eux
Ġr ajouter
ES T
Ġmath Ã©m
Ġcas se
Ġ4 6
Ġsur pren
ard er
ac Ã©e
ĠP i
ĠintÃ© grÃ©
Ġenvir ons
Ġfi ches
Ġpar lent
Â ®
Ġoblig ation
ĠgoÃ» ter
on al
entraÃ® nement
Ġst ar
Ġgui der
Ġconsomm er
ĠmatÃ©ri els
] ,
ĠprÃ©sent Ã©s
Ġpour riez
acc Ã©der
it t
m ag
Ġpar adis
Ġchampionn at
ur o
Ġcan apÃ©
ĠdÃ© lÃ©g
ĠB our
it ure
Ġspor tives
Ġ? "
ĠS ch
ĠrÃ© actions
Ġver te
Ġsouli gne
v u
Ġnom mÃ©
or ent
Ġfavor able
ĠF aire
Ġmatch s
or a
assembl Ã©e
Ġh uile
Ġd ose
Ġ9 5
Ġadress es
Ġpers o
P re
m al
Ġtourn oi
Ġbal con
ĠN et
Ġdiscip line
Ġdis ais
Ġpon ctu
Ã©r itÃ©
Ġps eu
Ġp Ã©
Ġextra ordinaire
Ġchi miques
C F
Ġsc and
Ġprochaine ment
Ġsensi bles
Ġqu art
Ġglob al
Ġcommenc ent
Ġrat tr
V D
ĠA ussi
Ġr aj
Ġt ac
ĠsÃ© v
Ġde tte
at tr
Ġg uer
Ġ0 5
l ocu
Ġest hÃ©tique
Ġcomp l
Ġconser vation
ĠI mp
Ġauxqu els
ĠprÃ©par Ã©
Ġb ap
og Ã¨ne
Ġpriv Ã©es
ĠMal grÃ©
Ġju ger
ĠmÃ© tro
b lÃ©
ĠM ari
ĠD el
ass ade
Ġquit tÃ©
u aire
ĠprÃ©sent ant
p rix
ĠFond ation
ini um
Ġcad res
as tiques
Ġanci ennes
Ġgr ille
Ġprofes sionn
Ġcam Ã©ra
Ġintellectu elle
Ġray on
Ġpubli Ã©e
Ġperman ente
op ath
uit es
Ġconfl its
vÃ© ni
Ġconc lu
Ġsouhait Ã©
M er
Ġmor ale
Ġgal erie
oli d
. ).
Ġdi vis
E ff
Ġvi es
ĠdÃ©couv rez
Ġchou ette
en ant
Ġf e
ven tions
Ġconcentr ation
ĠprÃ© cip
Ġdiam Ã¨tre
Ġch allen
Ġapp els
Ġindispens ables
in telligence
Ġis lam
ĠprÃ©v us
Ġdiver si
Ġv an
ĠN ature
Ġagric oles
Ġnation ales
L A
Ġmes urer
Ġindi quer
og a
Ġcul tiv
Ġjau nes
Ġ: -)
ins crit
ni er
ond re
ordin ation
Ġc ig
Ã©l as
pr opri
ĠH aut
Ġin tellig
ĠrÃ©f rig
Ġpay Ã©
ill Ã©e
ĠdÃ©p utÃ©s
Ġg estes
ment aire
ĠreprÃ©sent er
ĠrÃ©flÃ© ch
onne ments
Ġn orme
Ġam ende
Ġvill a
ad ers
Ġcomp ose
Ġindustri elle
ct rice
Ġblog s
ĠlÃ©gisl ation
Ġseu les
Ġdesc end
h ommes
Ġth e
Ġaffir me
Ġregret te
hab itation
ĠNic olas
ĠG l
ĠMad ame
eng ager
Ġprot oc
ĠextÃ©ri eure
Ġr assur
Ġdest ru
Ġn Ã©e
ĠT ur
ĠdÃ©ci d
Ã® tre
ĠH aute
ĠdÃ©g uster
Ġde vrez
bre r
int ure
Ġla ver
ales tin
Ġvill ages
ctu eux
in Ã©s
Ġpar aÃ®tre
Ġall Ã©e
az on
cip er
ĠCont r
Ġdispar ition
ĠQuel ques
Ġmass age
Ġprom et
Ġpan or
eff ort
Ġproc urer
inform atique
Ġmet tons
ĠW e
Ġvoy ant
un es
Ġappar tient
om be
Ġpre uves
end a
Ġmen Ã©e
Ġar b
Ġm yst
ĠÃ©qu ilib
alis Ã©es
Ġtour istiques
Ġsign aler
% ,
Ġman agement
Ġti rage
am user
P R
Ġenvis age
il ier
Alle magne
ac tifs
Ġcitoy en
Ġrevi end
v ages
Ġref user
ra di
Ġterr ains
Ġn oix
) :
ur ier
ou f
Ġclin ique
ĠA ir
Ġmodu le
Ġatt aque
s Ã©
Ġtomb Ã©e
H Ã´tel
Ġtranspar ence
Ġence inte
ĠproblÃ© matique
... ).
indi vi
Ġmar ge
Ġcontrib ue
V enez
en i
Ġm oul
Ġf Ãªter
Ġdipl Ã´
Ġven ant
Ġvoi le
inf os
Ġprim ordi
Qu elles
7 8
Ġp ompe
5 5
Ġf asc
Ġple ins
iti Ã©
Ġfron tiÃ¨re
Ġparticip ant
Ġrecom m
Ġsex uelle
V is
ĠespÃ¨ ce
ĠA li
Ġmont rent
ense ign
Ġchem ins
Ġrav ie
augment er
ograph iques
Ġadop ter
Ġ4 9
Ġs Åĵur
Ġs ap
ĠÃ©p reuves
Ġf oule
E U
ĠprÃ©c au
Ġdiff us
Ġbr an
ĠtÃ©moign age
Pe tit
Ġexpl os
Ġcompar aison
ĠrÃ©d uite
Ġdispos ent
Ã´ tre
Ġtr ace
u mp
Ġess ais
um inium
ĠfrÃ©qu ence
T e
ĠprÃ©fÃ©r able
ĠpÃ©tr ole
Ġfournisse ur
Ġconsul tez
oy ers
anc Ã©
Ġmal ades
Situ Ã©
Ġvert u
ĠdÃ©b it
Ġdig it
Ġmaterne lle
oc ats
Ġfac iles
am ique
Ġheure usement
o tique
ĠJu in
Ġconfir mÃ©
ay ez
Ġac teur
Ġpr ouver
Ġtable aux
Ġ0 3
Ġassoci Ã©
rib uer
Ġdemand ent
M I
ĠrÃ©fÃ©rence ment
Ġchois issez
Ġin j
P I
Ġsub i
Ġg uit
Ġfac teur
as ions
h an
Ġv rais
olog ues
Ġvoi ent
ĠB elle
enf ance
oy ons
Ġcamp agnes
Ġsuffis ant
commer ce
ĠS u
Ġrelig ieux
Ġcalcul Ã©
Ġindustri el
ĠÃ© pr
ri ons
Ġobser ver
um Ã©e
Ġob st
ĠTh Ã©
ic ation
Ġdipl om
Ġrend ent
Ġfron tiÃ¨res
Ġabs ence
Ġsu bli
Ġfut ure
Ġmobil isation
u yant
Ġpoli ciers
ag eux
ĠS an
ĠbÃ©nÃ©fi ces
ĠÃ© par
ĠV ers
Ġd ons
ĠgÃ© ographique
Ġchir urg
Ġrev iens
t o
Ġimp lique
Ġil lÃ©g
Ġoffici ellement
Ġg astr
mb lement
Ġcoup les
il de
Ġsupp orter
Ġappar tements
ĠsÃ©rie usement
ĠnÃ©goci ations
Ã§ ait
onn Ã©es
Ġprov oquer
Ġcuri ositÃ©
Ġconsomm ateur
ure au
Ġbritan nique
ĠÃ©v Ã¨nement
oy Ã©
Ġtr ompe
Ġinf ir
Ġpopul aires
ĠB retagne
ĠindÃ©pend ante
y pe
Ġappar aÃ®tre
Ġconseill ers
ĠDire ction
ab and
intÃ© grer
v ais
Ġtr aÃ®
ĠÃ©le vÃ©e
op port
Ġhor aire
Ġqu Ã©bÃ©c
Ġac qu
Ġar me
Ġrap ides
Ġpassionn Ã©s
I mp
ou ff
Ġdis crimin
ĠtÃ©lÃ©charge ment
Ġgaran ties
Ġprof itÃ©
ograph e
ĠN orm
Ġcouv rir
ar n
Ġiniti atives
Ġa igu
Acc ueil
ell o
Ġti endra
Ġmeur t
ĠPhili ppe
Ġaltern ative
aimer ai
ĠcrÃ© dits
Ġinform atiques
Conc ernant
c tivitÃ©
Ġass ist
ĠJ ohn
oy ant
7 7
Ġb e
end er
ĠP oli
ĠgÃ©n Ã©
ĠÃ ¨
ĠÃ©v o
Ġnour rir
let ter
Ġsac ri
eter re
Ġli qu
Ġress ort
Ġmi el
Ġcons Ã©cu
and re
Ġma x
ĠG ouvernement
gr Ã©s
Ġus agers
Ġav ion
ĠparallÃ¨ le
ĠrÃ©mun Ã©ration
D em
Ġin oubli
Ġsig ner
Ġex ercer
g Ã©rie
Ġinten se
om Ã©t
ass ent
ĠrÃ©guli Ã¨re
ĠdÃ©m onstr
Ġsp aci
201 6
Ġapp ortÃ©
r en
Ġd ress
az z
tÃ©ri eure
ati n
Ġsan itaire
Ġin gÃ©n
Ġamb i
is on
Ġc iter
Am Ã©rique
Par mi
Ġz Ã©ro
ĠBeau coup
am an
ot age
Ġc ock
Ġadministr ative
ac teurs
6 5
ĠÃ©qui pement
Ġparc our
employ eur
u ge
Ġinvestis seurs
Ġmil it
imm obilier
Ġser ons
ĠJ eux
Ġg onf
Ġphotograph e
g y
Ġeng agÃ©
Ch ez
Ġadministr atif
ĠL ouis
at ch
Ġvol s
Ġcon j
in verse
Ġbi ologique
Ġlar mes
Ġautonom e
migr ation
Ġcoc o
ĠAt tention
Ġport ent
am itiÃ©
ĠV os
ĠC eux
Ġl inge
Ġp ic
and a
Ġpl ainte
pe ction
âĢ ĭ
Ġess ai
Ġav er
ag nies
Ġbout ons
ess aie
ĠP DF
Ã© par
Ġindividu el
Ġb ri
Ġhum an
Ġjusti fier
f er
Ġdom es
te xte
ri en
. -
Ġal g
ĠAlle magne
Ġpar ois
Ġpar lant
Ġlumine ux
Ġas c
Ġchois is
ĠrÃ©alis ations
Ġren dement
Ġgu eule
ĠdÃ©f il
Ġconvain c
or ant
Ġg ain
Ġcorre ct
Ġsynth Ã¨se
Ġtax es
Ġv erts
empl acement
Ġca us
Ġpri ori
or b
Ġdi gne
exp ertise
ag a
ĠS Ã©curitÃ©
ĠÃ©lÃ¨ ve
Ġtu y
Ġref use
S ous
Ġpro te
ĠintÃ©ress Ã©s
d ont
Ġj ui
Ġinc lu
Ġc le
ĠS ainte
u Ã©
Ġdocument aire
ite z
Ġcondu cteur
Ġadministr atives
or y
Ġth erm
AG E
Ġcomm iss
Ġun itÃ©s
all ais
ac ts
Ġexpos itions
am is
Ġrest Ã©
ĠO h
ĠV ol
Ġenregistr Ã©
Ġtr es
ĠÃ©t ais
Ġappr ofon
Ġsouff rance
Ġbac tÃ©ri
ĠdÃ©t endre
Ġin com
Ġpo Ãªle
exp lique
ue z
Ġfer ais
Ã©r Ã©es
ĠPar mi
im ages
Ġmaqu illage
Ġther mique
ĠA lex
ĠE s
ĠÃ©p reuve
ĠD ou
Ġsan ction
Ġm Ã¨ne
Ġjuri diques
Ġpeup les
v in
Ġsc Ã¨nes
r omp
Ġforum s
ĠÃ©v olutions
Ġad ore
Ġcorri ger
v ence
outu be
et h
ĠdÃ©c lin
an niversaire
Ġ7 00
affich age
Ġ4 7
ĠSer vices
Ce ci
Ġca hier
or ations
vis ible
ĠentraÃ® ner
ti ble
Ġcer cle
ĠDÃ© partement
Ġsecond aires
Ġsub ir
Ġesp agnol
ĠdÃ©li b
Ġcontempor ain
Ġavent ures
Ġregard Ã©
Ġprend ra
ĠFor um
Ġlib ert
Ġcent aine
ul teurs
op ie
orig in
Ġtrad uit
Ġparti cul
vi demment
ju di
ront er
Ġvari Ã©s
Ġeu t
tr Ã¨s
Ġregard ant
Ġt ur
Ġf urent
it aine
Ġ199 9
ou ill
est res
Ġcour ts
ĠdÃ©gr ad
Ġs ir
Ġempl acement
Ġ18 0
ĠrÃ©gion ale
ĠdÃ©mocr atique
r om
ĠW C
othÃ©rap ie
ĠPlus ieurs
Ġfranc s
ĠprotÃ© ines
shir t
Ġmaxim ale
Ġsur v
Ġtou chÃ©
ow n
Ġh all
Ġ% .
Ġc Ã©lib
G E
Ġperspec tives
ber g
I V
Ġmobil ier
ĠÃ©le vÃ©s
S ujet
Ġinves tir
ĠD avid
vers itÃ©
Ġser vent
Ġcomp agnies
ne y
Ġd oul
D is
Ġconstitu Ã©
ĠÃ©lectr oniques
end ront
ĠÃ©v aluer
ĠB al
v atoire
un s
ĠrÃ©flex ions
Ã©c outer
m ois
Ã¢te aux
hÃ´ tes
Ġnation aux
Ġsond age
Ġde grÃ©s
Ġi nex
A vez
ang ent
Ġc ens
Ġ199 0
Ġcompos ants
Ġpratique ment
Ġpl onge
Ġ4 3
ĠPr in
f ense
si ble
Ġj al
Ġsal aires
Ġhos pit
Ġaugment Ã©
Ġjur y
Ġv Ã©tÃ©r
ĠI CI
Ġeur o
b ri
C ou
Ġdemande z
Ġ6 4
F R
Ġrecher cher
Ġconc er
Ġtit ulaire
Ġpert urb
Ġp omp
Ġa che
Ġh a
ĠfÃ©dÃ©r al
Ġvi gil
C T
ĠSur tout
Ġres pe
outil s
ter ies
Ġrob ots
ol o
ĠToul ouse
Ġhu iles
Ġvar ier
atte indre
Ġoptim ale
Ġre de
vi d
OU T
Ġd ys
Ġ20 20
ĠÃ©tudi er
Ġrespec te
Ġessenti els
Ġat tirer
F orm
ĠM oyen
y a
ĠdÃ©b uter
Ġpaqu et
h orizon
Ġl istes
Ã§ ants
Ġanaly ses
ur ance
ĠFranÃ§ais e
Ġvisu aliser
Ġfid Ã¨le
ĠdÃ©c al
Ġdange re
ĠÃ©t ats
er ai
Ġbr anche
Ġrel atifs
ĠE h
Ġcos tu
ac cident
ĠNo vembre
Ġa is
Ã©p reuve
ĠdÃ© lÃ©
ĠMon di
Ġoff erts
as es
ĠH e
Ġâ Ļ¥
Ġcompren nent
Ġatta ques
ad option
tis ser
ri ct
Ġbus iness
ac cessi
s auf
ume urs
lan tique
Ġs ain
Ġprofond Ã©ment
Ġl une
Ġcam ar
ĠmÃ©dic aux
Ġle aders
Ġradi c
Ġbr on
Ġsuis se
au cun
Ġd ame
Ġv esti
Ġaff ect
Ġengage ments
oi gner
__ __
Ġrejoin t
Ġnum Ã©ros
Ġattend ent
i teur
z a
Alle z
ĠT unis
5 9
?? ?
Ġparagraph e
Ġst agi
ĠS N
dÃ©pend ance
I X
Ġdess ert
ĠthÃ©m atiques
Ġhaut s
Ġautoris Ã©
Ġv allÃ©e
Ġmul titude
ĠprÃ©sent Ã©e
Ġpsych ologique
Ġinter vient
Ġgaran tit
Ġtermin Ã©e
Ġs in
Ġl ou
Ġpublic ations
Ġen n
" ...
Ġch al
Ġproven ant
Ġfil iÃ¨re
Ġsimil aire
ĠJourn al
an aly
Ġdev ais
Ġver rez
ĠH oll
L Ãł
Intern et
Ġmin istres
Ġmati nÃ©e
Ġt endre
Ġcol on
Ġab us
ĠbÃ©t on
ĠMac ron
or teur
l d
al titude
ĠrÃ©p arer
Ġde lÃł
E h
Ġcri mine
om per
Ġsau vage
Ġpens es
Ġg re
Ġtrouv ait
appar ition
Ġav ocat
Ġm ien
ais er
j i
em me
Ġis raÃ©li
ĠpÃ©dagog iques
Ġr as
ĠprÃ©cÃ©d entes
ĠQu ant
er tion
av a
Ġt ric
Ġpri Ã¨re
Ġat tir
Ġr entr
ĠSe ptembre
Ġcouv re
ĠTr ois
Ġconc entrer
Ġm out
Ġar bre
a rez
n am
Ġ( +
u f
ĠrÃ©s ist
Ġt ailles
Ġan d
Ġsur vie
ĠV enez
Ġper tes
enti r
Ġm l
Ġpass Ã©es
Ġse mi
Ġmusic ale
Ġappare mment
Ġpas sez
o om
Ġinter view
en nies
Ġg la
Ġchar gÃ©e
Ġreconn ue
ĠÃ© mission
ĠdÃ©c oup
Ġjou ent
Ġunivers itaire
Ġaid Ã©
dÃ© jeuner
ĠrÃ©s ister
av Ã¨re
Ġent housias
ĠdÃ©s agrÃ©
Ġliv rer
ĠdÃ©r ange
Ġatte inte
r ois
F F
Ġr ide
Ġm ettez
inf luence
ag isse
Ġcas e
Ġpauvre tÃ©
Ġm ous
Ġco qu
Ġcolle ctions
ĠopÃ©r ateurs
onn Ã©e
Ġimm euble
Ġs ages
ĠR ec
Ġr onde
Ġne ur
ĠMin istre
acc ent
Ġpouv aient
Ġst abilitÃ©
lus ions
ĠM is
ĠdÃ©c ennies
Ġgouver n
Ġrenseig nement
Ġformid able
Ġsymb ole
Ġvalid ation
4 9
Ġs Ã©n
est aur
Ã©n itÃ©
Ġpoi gn
Ã¨ lement
hy giÃ¨ne
Ġcuill Ã¨re
Ġp un
V os
et e
Ġcaract Ã¨res
Ġb aisser
Ġopport unitÃ©s
ĠdÃ©pl oie
ut en
Ġcon cevoir
Ġserr ure
Ġrel ais
Ġp ince
ĠdÃ©m Ã©nagement
t age
\ \
Ġdu e
ĠdÃ©rou lement
Ġpass agers
Ġexter ne
g les
ĠsÃ©cur isÃ©
ĠdÃ©g ust
ĠcÃ©lÃ© br
Ġh ect
mi rer
Ġcar ton
U L
Ġadolesc ents
am s
ĠprÃ©sent Ã©es
Ġrec ti
Ġrou es
Ġpap iers
hu miditÃ©
Ġst up
Ġg end
ĠÂ °
uss Ã©e
Ġgr aisse
Ġsan itaires
Ġdispos ez
ĠP alais
Ġh orm
Ġconstitu tion
gl om
Ġurb ain
Ren dez
av i
fi ce
gr Ã¨s
Ġp oil
ment er
ĠS UR
Ġaut or
Ġcli c
Ã©c onom
ĠmaÃ®tr iser
Ġen s
Ġpour cent
Ġpl ai
J eu
Ex p
ĠdÃ© Ã§u
Ġ9 9
Ġgu Ã¨re
v ain
Ġsoi gner
Ġla v
ĠÃ©chÃ© ant
Ġsa chez
Ġh aine
Ġst able
Ġrig ueur
I D
ĠdÃ© fic
apprÃ©ci e
ad ress
ci r
% )
Ġten ant
d onc
b ox
Ġb or
Ġ5 6
Ġtu Ã©
Ġg rec
Ġsac rÃ©
Ġent ourage
ins ertion
ou ille
Ġtr ent
201 5
a o
Ġatt ente
Ġf out
J usqu
Ġinter locu
Ġmas que
t tes
Ġtechn ologique
Ġ0 7
Ġvalid er
ĠbÃ©b Ã©s
Ġcas que
Ġcon g
ĠthÃ©m atique
ĠV e
ĠM Ã©d
Ġtr omp
Ġ7 2
Ġray ons
oi vent
Ġcock t
Ã©di teur
Ġp omme
Ġf ailli
IN E
Ġauxqu elles
C omb
ob tention
Ġs aut
Ġbien faits
ĠL in
T C
Ġen lever
m man
Ġf olie
ĠTr avail
Ġtent ative
T ER
ul tez
ĠtÃ©lÃ©ph onique
Ġaut onomie
Ġad resser
Ġinter nes
Ġgr en
ĠGÃ©nÃ©r al
Ġ6 6
onn iers
ĠM Ã©
Ġmusul mans
b ler
Ġinterven ants
Ġmil ieux
o ctobre
Ġve iller
Ġlib Ã©rer
Ġpos tÃ©
ĠdÃ©mar rer
Ã©clair age
4 2
is ode
ĠC R
Ġentre ten
Ġdiff user
opp ing
Ġret ours
8 5
T oujours
Ġsaur ait
Qu oi
ĠproblÃ© matiques
Ġconstat Ã©
Ex c
Ġinflu ence
Ã© vent
g uer
Ġcarb one
identi fier
us h
au m
ĠrÃ©par tition
4 6
Ġcher chent
Ġs k
attend ais
pr its
Ġw i
Ġp ique
Ġeffectu Ã©e
ĠT Ã©lÃ©
Ġesp Ã©rons
ĠrÃ©fug iÃ©s
ang ers
p Ã¨re
is tÃ©
ĠbÃ©nÃ©fici ent
ĠAff aires
Ġparticuli Ã¨res
ĠintÃ©ress ants
Ġde me
Ġimp rim
Ġmus cles
Ġrenouv ellement
Ġstric tement
Ġretour ne
ĠQ UE
ĠDÃ©velop pement
ons oir
Ġbel ge
ĠS ous
Ġb er
inqui Ã¨te
Ġf oc
Ġentrepren eurs
ĠTr ump
f onction
Cont r
ĠintÃ©ress antes
Ġcomb ats
ĠconsidÃ©r Ã©e
omb res
Ġven til
tionne llement
Ġ4 1
ĠentraÃ® ne
ĠC amp
Ġchemin Ã©e
Ã©g ard
ĠrÃ©g l
au re
Ġun iques
is ant
Ġarri vÃ©s
Ġment ale
g a
Ġfabri quer
ĠÃ© b
Ġacc us
app li
8 9
Ġins uffis
S eu
ur itÃ©
y e
Ġst ations
anim al
Ġc enti
Ġoptimis er
ĠB ern
Ġsensibil isation
au rer
ĠGen Ã¨ve
oc Ã©an
Ġdo tÃ©
Ġbless Ã©s
si ve
Ġlibre ment
Ġmar quer
Ġinfr astructures
ĠrÃ© vision
ĠEuropÃ© enne
ĠdÃ©c ro
Ġc ord
Ġm ousse
ĠJ acques
Ġenv ah
or aires
Ġpl aques
dom ad
Ġrap pro
Ġf es
Ġbanc aires
Ġlit res
av ril
Ġprob able
ĠsÃ©r Ã©nitÃ©
Ġn ulle
Ġo k
u h
Ġcig are
Ġ199 8
Ġretrouv ent
ht ml
eb domad
Ġrece v
Ġbour se
o ble
Ġchar te
Beau coup
h Ã©rence
mp ire
Ġtechn ologiques
Ġsyndic ats
f a
ann age
Ġex erc
s y
Pour tant
accomp agner
ĠinfÃ©ri eur
Ġnette ment
Ġtr ous
F ace
Ġgu Ã©r
dr oid
ĠA fin
qu ante
extr Ãªme
Ġco ins
âĤ¬ .
oxy d
ĠC V
Ã©t ablir
m Ã©es
e me
Ġfil tre
imp ose
in vent
Ġdeb out
feu ille
Ġr ock
tr age
Cou cou
ĠGÃ©nÃ©r ale
ĠdÃ©rou lera
Ġconvain cu
Ġan ne
Ġmen Ã©
Ġdis si
lÃ¨ te
Ġvol ets
Ġculture ls
Ã© dez
Ġsa veurs
Ġsc ru
Ġoccu pe
Ġlu dique
Ġconsac rÃ©e
Ġdi te
ĠÃ® le
C C
ĠS up
land ais
h ou
ĠPl ace
Ġla s
ab y
ĠC i
Ġorig ines
Ġcomp ort
Ġplong Ã©e
Ġannonc er
Ġf ir
ĠrÃ©cup Ã©ration
Ġr acc
Ġpers u
Ġsitu Ã©s
Ġinstru ment
Ġrec on
f t
Ġti ennent
Ġcou ches
Ġ5 2
Ġmer de
ĠrÃ©frig Ã©rateur
ass age
Ġun es
at Ã©ri
Ġtab ac
ĠdÃ©pos Ã©
II I
Ġcos mÃ©
Ġfisc al
Ġjourn aux
Ġpr it
Ġmilli ard
Ġmarchand ises
ob e
Ġoccu per
Ġpromen ade
Ã¨ gne
ro ge
Ġm ait
I A
Ġcol onne
Ġorganis Ã©es
ĠQu els
ti p
ac el
Ġh au
Ġemp Ãª
Ġsurf aces
ra me
Ġpanne au
cri vez
Ġsc ore
Ġ om
Ġcommun s
ĠÃ©cr its
Ġapplic ables
Ġfr ustr
ĠindÃ©pend ants
Ġin se
Ġpubli Ã©s
or gan
Ġamen Ã©
Ġcar net
ĠAlle z
al a
Ġsuper bes
ut Ã©e
Ã©t aires
ot ter
D er
Ġgaran tiss
Ġcorp ore
Ġcon grÃ¨s
ĠÃ©ch elle
ĠÃ©cl at
am ille
Ġti rÃ©
7 6
ĠprÃ©c ises
ĠD VD
Ġpoul et
ag nÃ©e
par ole
Ġconst amment
Ġrappr oche
Ġpos itions
Ġvol er
ĠdÃ©barr asser
Ġparc ourir
Ġl um
ĠrÃ© du
ĠcrÃ© di
ĠL o
A ussi
ĠN antes
ĠJ anvier
ĠrÃ©pond ant
Ġpo Ã©sie
Ġexp rimer
Ġf ous
Ġvers er
Ã©r ations
Ġcondam nÃ©
Ġpl aire
pi rer
Ġweek end
Ġcompagn on
ĠPro fes
ne c
' '
Ġvar ie
ĠlÃ©g ales
T Ã©lÃ©
Ġbou ge
ĠdÃ©m Ã©n
Ġ5 4
ar bre
P er
mi ers
Ġcommun autaire
Ġconcern ent
ff Ã©r
Ġsol s
at ar
Ġactu els
Ġper Ã§
te ch
Ġconcern Ã©es
li ance
ri ra
Ġrespect ant
ah a
Ġrou ler
Ġt asse
n oc
ĠM aur
Ġaffi cher
Ġtop ic
In ter
Ġcher ch
Ġconc lure
n Ã©r
Ġd il
Ġprov in
op inion
ĠprÃ© visions
Ġactu elles
Ġcommunic ations
Ġsau ter
ĠrÃ©g ul
Ġstation nement
ĠAr t
Ġtyp ique
Ġdispar aÃ®tre
ĠB le
Ġadap ter
p age
Ġremarqu able
it a
ĠrÃ©p and
in fr
Ġac quÃ©rir
ubli Ã©
oubli e
Ġen qu
ĠdÃ©faut s
aut or
Ġatt ent
or Ã©es
ui vre
Ġdev riez
Ġlibert Ã©s
Ġchauff er
Ġch ic
ĠÃ¢ gÃ©
Ġremar ques
htt p
Ġnoir s
Ġreport age
Ġesti mÃ©
ĠC G
Ġvo tÃ©
Ġperman ent
Ġvend us
ĠInst agram
ĠdÃ©par tements
Ġmar iti
Ġco ordination
re urs
is ent
O rient
ĠJ usqu
ĠÃ¢ gÃ©s
Ġmys tÃ©ri
ĠF er
hi b
o ol
Ã® t
ĠDire cteur
N o
ĠprÃ© judi
ĠS amedi
ĠQu oi
Ġtempor aire
Ġscul pt
Ġs aine
Ġmir oir
Ġser re
ĠAcc ueil
Ġ7 8
dr ome
dit ation
Ġ q
ĠJour nÃ©e
Ġpseu do
ĠC ertaines
Ġsour i
Ġconcern Ã©
Ġsuscepti ble
ode ur
Ġen rich
Ġag ent
ĠL ui
Ġcon joint
E l
Ġactiv er
ie use
Ġcombat tre
Ġconseill ons
ĠrÃ©c ent
V euillez
Ã©t end
V i
Ġ6 8
ĠBr avo
l ines
Ġcon gÃ©
Ġaccueil li
O Ã¹
Ġm u
ĠJu illet
Ġrob ot
rÃ©s il
S aint
Ġdocument ation
Ġinstru ments
Ġcasser ole
ĠB re
Ġjou ets
Ġbless ures
Ġkil os
inter rog
Ġaccord s
ĠdÃ©fini tive
Ġprof ils
Ġcombin aison
ĠdÃ©cl are
Ġf rig
ĠO ctobre
Ġconsac rer
Ġg olf
Ġh oriz
gu Ã©s
Ġsuiv ie
Ġco opÃ©r
ess ence
di um
in age
ĠM P
Ġcri ti
ffe ment
ĠC liquez
en ri
Off ice
tr Ã©e
Ġun itÃ©
Ġdestru ction
ĠÃ©v aluation
Ġsens ations
ĠH eureusement
Ġboute illes
Ġar chives
Ġfavor ise
Ġlarge ur
Br avo
v oire
ĠMal heureusement
ĠrÃ©ser ves
Ġmine urs
Ġqu eue
Ġ tic
ri gue
Ġesp Ã¨re
Ã©c art
Ġtoil ette
Ġes tiv
Ġquin ze
Ġphotograph ies
Ġharm onie
adap te
Ġsouff re
ĠS A
is ion
Ġesp Ã©rer
ĠR es
Ġimp rÃ©
ĠprotÃ© gÃ©e
Ġocc asions
Ġchallen ge
Ġbate aux
Ġcontinu ent
end es
r ay
Ġconvivi alitÃ©
ul Ã©s
ĠprÃ©c on
Ġorig ine
Ġconcurr ents
in q
b al
te lier
ill Ã©s
ill ons
Ġfa me
Ġinst ants
Ġimmobili ers
ĠDÃ© cembre
Ġcan al
Ġcri me
Ġprov o
er se
Ġaffir mÃ©
ois issez
Ġsuperfi cie
Ġreconn aiss
ri ment
Ġp ension
Ġav ouer
Ġmusici ens
obser vation
Ġb omb
Ġreg istre
ĠU SA
ĠÃ© lar
B as
im ie
Ã¨g re
op ter
ĠprÃ©cÃ©d ents
D S
pe tit
Ġpro vis
ĠO Ã¹
ĠgÃ© ant
ĠB ur
Ġ5 9
C A
mp er
ĠrÃ©pond ent
ĠRÃ© union
ĠE c
ĠdÃ©lic ate
ĠcontrÃ´ les
entrepren eur
Ġintit ulÃ©
ĠnÃ©cessaire ment
Ġsensi bilitÃ©
Ġdestin Ã©es
Ġoeu vres
ĠhÃ© ber
Ġrom ans
Ġg am
Ġexam ens
ĠR P
Ġcl avier
ur Ã©s
ĠH um
ch at
ign ons
Ġinstru ctions
ĠsÃ© cher
4 7
Ġm Ãª
ten dez
Lors qu
Ġsauveg arde
ri p
Ġsouli gnÃ©
Ġpass ages
D urant
Ġmigr ants
ĠÃ® les
ĠsÃ©lection nÃ©
Ġurb aine
Ġat titude
Ġajout Ã©e
onf ort
Ġindividu elles
ON U
Ġas pir
opport unitÃ©
Ġm n
Ġlog istique
v ateur
Ġsp ati
cip ation
Ġpal ais
Ġar tic
Ġsoi gne
ĠL ux
Ġtechni ciens
Ġrapp orte
ĠcrÃ© ateurs
ĠAn d
au cune
Ġten nis
ĠfÃ©min in
Ġimp lant
in ts
Ġfonctionn aires
ĠM A
ense ur
Ã ¼
ĠchaÃ® nes
ĠrÃ©un ir
li ques
ĠrÃ© ci
o tiques
Ġax es
Ġab onnement
tis te
ON T
elop pe
Ġbal le
ĠY ou
Ġmultip li
Ġsal ade
r Ã¨s
Ġhi Ã©r
Ġconstru cteur
Ġcl assÃ©
Ġnews letter
Ġp antal
ig nes
Ġt at
a Ã§ant
Ġgl isser
inÃ© a
Ġca ve
ĠÃ© ducation
Ġh arc
Ġsolid aire
P os
ĠMar c
ĠSci ences
Ġcoff re
Ġsui vez
Ġdi ct
Ġf oie
Ġus ages
Ġocc asi
Ġsugg estions
Ġpos session
ĠS c
Ġs ons
ĠpÃ©ri ph
ĠclÃ´t ure
Ġman uel
Ġvul nÃ©r
Ġble ue
Ġphras es
Ġseu il
ĠE ss
s te
si f
ĠdÃ©c rire
Ġtom ates
Ġtrent aine
Ġcher chÃ©
identi fication
k g
Ġfourn is
Toute fois
ĠC A
Ġch Ã¢
ĠR D
ĠnÃ©g atif
arr y
Ġcorrespond ent
ĠL ab
Ġparis ienne
Ġanaly ser
Ġcoute au
Ġobli ge
Ġvi endra
Ġeffectu Ã©s
es cal
201 4
tes te
IL LE
Ġeng agÃ©e
Ġfor Ãªts
ache z
dÃ© l
Tr ois
Ġvap eur
Ġfut ures
ois es
Ġressenti r
Ġh Ã©r
ĠinfÃ©ri eure
Ġpil otes
Ġsouhait ant
Ġper m
Ġs ouver
i z
ĠP ME
Ġsou lig
ĠS alle
ĠdÃ©s ert
ĠA N
E M
Ġrest re
Ġr assure
si eurs
Ġes prits
h h
Ġr ot
Ġcardi aque
h arm
ĠprÃ©fÃ©r Ã©e
Ġvisi bles
S amedi
Ġin comp
Ġball on
Ġser veurs
b ar
Ġvis uel
Ġanim Ã©
ĠCommun autÃ©
ĠcÃ¢ ble
av re
Ġm ate
or ges
je urs
ĠB ureau
Ġpassionn Ã©
Ġbut s
Ġpourcent age
Ġcons ole
li p
et nam
Ġtradi tionnels
ĠnÃ©g ociation
Ġroul ant
Ġ! ).
ĠAu cun
.... ....
Ġparc s
Ġat h
cha ussÃ©e
ad ame
ĠC ath
Ġa cier
u u
Ġch aise
g ure
Ġartis tiques
Ġbulle tin
rÃ© g
qu ants
en is
Ġacc um
Ġdiab Ã¨te
Ġemp Ãªche
Ġl entement
ĠÃ©t h
ĠQu elles
Ġam oureuse
Ġn uis
ĠÅĵu fs
Ġad di
ĠâĤ¬ .
it ch
Ġsou mettre
Ġoeu fs
Ġvari able
uis ine
ĠmaÃ® tres
Ã©t ape
ĠN Ã©anmoins
Ġf eux
onn ier
Ġvol ant
ne lles
ĠL uc
Ġ5 8
ot os
ĠrÃ©pert oire
ar k
Ġrenforce ment
it oy
ĠrÃ©guli er
Ġb ug
Ġmod ern
ĠâĢ Ŀ
m Ã¨tre
att ache
Ġvie illes
Ġrecherche z
in dÃ©pendance
r ac
Ġaccep te
Ġgran di
Ġcons entement
Ġ? )
Ġd outes
Ã¨g lement
Ġliv rÃ©
Ã©li min
Ġhect ares
iss es
ĠsÃ©par ation
eu bles
Ġsur veiller
ĠprivilÃ©gi Ã©
ent ends
Ġsubst ances
he im
intÃ©gr alitÃ©
Ġital ien
6 6
ĠmÃ©th od
is h
Ġsouff rir
Ġtex ture
Ġpri oritÃ©s
Ġc og
b ou
ĠÃ©di tions
Ġauthenti que
Ġco hÃ©r
ĠspÃ©ci fic
Ġfr app
ĠgÃ©n ie
F A
Ã©t age
Ġvolont aire
V al
ig h
Ġoccup Ã©
Ġspect ateurs
Ġpuis siez
an Ã©e
Ġin tro
Ġis ol
que mment
Ġhabitu ellement
ĠS T
Ġf Ã©ri
Ġver d
AN CE
Ġin telli
m Ã¨tres
ĠD imanche
ĠB rÃ©sil
ĠP R
ctu ellement
che ment
pos Ã©
enn etÃ©
Ġexp ression
Ġmodu les
Ġreten u
ĠÃ§ Ãł
inves tir
4 1
ĠrÃ©g al
Ġsimil aires
Ġex cessi
Ġ198 0
Ġgu ilde
ĠrÃ©un is
h eures
V u
ĠdÃ©p utÃ©
bl og
Ġremerci ons
p ire
Ġarr ondissement
ĠsÃ©rie use
Ġfabric ant
yc l
ul sion
ĠhiÃ©r arch
ĠG estion
ĠgÃ©n Ã©rer
Ġchois ie
ul ter
ER S
a el
Ġrest ait
ĠrÃ©vÃ© ler
Ġsan ctions
Ġg Ã®te
Ãī glise
Ġenne mis
ĠsÃ© jours
Ġmani Ã¨res
ne ls
itÃ© es
ĠL oire
ĠdÃ©clar ations
Ġclim atiques
Ã´ tÃ©
Ġconvivi al
Ġposs Ã©d
Ġsoci o
Ġpos Ã©e
Ar r
Ġfais ais
ros oft
c ade
Ġargu ments
Ġsty les
Ġlaiss ent
ĠlÃ¢ cher
Ġtr anche
ĠN ice
ĠCh Ã¢teau
ĠJ ack
Ġsur n
Ġcr oix
i bilitÃ©
accep ter
i Ã¨res
si er
Ġchir urgie
Ġop inion
ore ille
ĠÃ©p ouse
Ġfond Ã©e
ĠÃ©tonn ant
r Ã¨te
Ġiniti ale
ĠC P
ĠAv ril
ĠspÃ©ci ales
Ġquan titÃ©s
mman uel
Ġindi quant
Ġp oit
ĠGr en
Ġmyst Ã¨re
Ġpersonn alitÃ©s
Ġquali fiÃ©
asse z
Ġdesc endre
isponi ble
Ġplate formes
Ġcar re
at or
Ġfant astique
ist an
gu Ã©e
ĠlÃ©g al
AN D
ĠM y
Ġfondament aux
Ġmusul man
Ġfi le
i Ã©
Ġpotenti els
ĠS im
Ġprot Ã¨ge
ĠrÃ©sid ents
ĠJeu nes
Ġcop ine
9 2
Ġcatastroph e
E C
ĠP ers
ĠcollÃ¨ gue
ad hÃ©sion
en ue
Ġcout ure
a xe
Ġloc ataire
ĠÃ©cr ans
Ġref usÃ©
Ġpat tes
Ġav eu
Ġlib rai
Ã©m er
form ations
ĠR el
Ġeng agÃ©s
Comb ien
appel er
rai ment
Ġ= )
Ġcr oyez
Ġt Ãªtes
Ġalle mande
Ġtrait Ã©s
Ġapplic able
indivi du
ĠdÃ©f end
ĠdÃ©but s
Ġte int
Ġcorre ction
Ġpersonn alisÃ©e
Ġmassi f
Ġj ob
Ġco propri
ĠP ap
Ġen le
Ġincon vÃ©ni
Ãī t
Ġstatut s
in os
Ġf ri
Ġsp ont
omb r
Ġm g
til les
ĠmatÃ©ri au
Ġrend ue
Ġinter dite
aj out
Ġorganis ateurs
Ġesp oir
ï »
ĠspÃ©ci aux
ĠdÃ©mar rage
Ġavanc Ã©es
ĠV OUS
crip t
ĠdÃ©tr uire
Ġtr omper
Ġcotis ations
e il
Ġparticip ent
ati ne
j outez
Ġpl anche
Ã©couv rir
Ġten ues
M ettre
omber ie
g le
Ġ5 7
ï» ¿
ĠlittÃ©r aire
Ġass istance
Ġma jeurs
Organis ation
Ġval ide
Ġbaign oire
pos e
Ġoffici els
ĠX V
Ġconf ection
Ġdr am
em mes
off ice
it age
ĠÃ©trang Ã¨re
esp ons
ĠsystÃ©matique ment
Ġab and
Ġr anger
Ġcli chÃ©s
Ġtr istes
Ġenv oie
Ġl y
Ġacc Ã©l
Ġm aux
Ġplomb ier
Ġcrois e
Ġparti elle
av ent
Ġapp uy
or tÃ©es
r op
ĠQ U
Ġsatisf ais
Ġchar ger
Ġac cidents
Ġver nis
Ġiss u
en di
Ġrappel Ã©
ĠBl anc
ĠrÃ©gion ales
Ġbre vet
Ġexpl orer
r ale
Ġgraph iques
Ġdeven us
ĠnÃ©gli ge
Ġvolont aires
Ġvi ve
Ġbois son
as bourg
S p
Ġling uis
Ġappar aissent
Ġex haus
Ġfact ures
ĠApp le
id er
ĠAr ts
Ġfaute uil
Ġgouver nements
Ġag it
Ġform ules
Ġopport unitÃ©
Ġent rain
Ġconsid Ã©ration
Ġappel Ã©e
Ġsouten u
s a
Ġ urg
onn ant
ĠschÃ© ma
ine z
ĠconsidÃ©r ablement
Ġf lu
Ġterroris me
Ġt ue
r ise
Ġbr acel
Ġay ez
Ġcru ci
ĠG re
Ġvirtu elle
ĠÃ©pau les
Ġh ebdomad
Ġprofessionn alisme
ĠlÃ©giti me
ĠH er
Ġsal ut
v ants
objet s
Ã©ch anges
Ġexist ence
ĠrÃ© uni
Ġhabitu de
Ġmar oc
Ġson ore
Ġs tre
Ġre quis
Ġfl ash
Ġrend us
un ique
ĠvÃ©ri fication
ĠrÃ©s ide
or ld
Ã© chec
4 3
Ġsou tient
Ġs aint
an k
i rer
ĠdÃ©lÃ©g ation
Ġgagn ant
ĠA R
a oÃ»t
Ġtransp orter
av ocat
ar dez
ĠvÃ©l os
ex tension
ĠCong rÃ¨s
Ġtour nÃ©
Ġrem onte
ou c
ĠU nivers
Ġface book
or iste
Ġhandicap Ã©es
c f
s oit
Ġp op
ĠS U
Ġf autes
ĠtÃ©m oins
ul l
Ġdi vision
Ġr endant
dÃ© al
Ġl aine
ĠS auf
Ġtravers er
Ġrele vÃ©
l ui
Ġten sions
Ġc anc
Ġop tique
M ich
Ġconc rÃ©
Ġconc lusions
Ġ14 0
li vier
Ġtravail lant
inter mÃ©diaire
Ġ5 3
d d
in dique
Ġ199 7
Ġver tic
Ġfond re
e e
Ġposs Ã¨dent
in ant
ar mer
s al
Ġtr ag
Ġdi eu
Ġnour r
Ġr angement
Ġdiri ger
Ġimpati ence
Ġlib Ã©ration
Ġment al
Ġl Ã¨ve
Ġfi abilitÃ©
inter face
ĠM ax
I talie
o z
ai gne
Ġpar d
t y
Ġr ace
Ã©lÃ© ments
ant aine
ĠÃ©g al
Ġph ases
Ġsenti ers
Ġ5 1
E D
Ġm ienne
ĠmathÃ©m atiques
Ġabord er
ĠdÃ©tail lÃ©
6 7
Ġbio di
Ġcommand Ã©
8 8
Ġinoubli able
Ġgentil lesse
Pro fitez
Ġenf er
form Ã©ment
201 3
Ġmign on
at mosphÃ¨re
Ġse re
ĠmÃ©can ismes
Ġcl os
ĠD er
S es
exp erts
ĠP al
ĠSÃ©n at
f ond
ĠprÃ©c Ã©
ĠV an
ĠprÃ©t end
ot amment
Ġclim atisation
ĠRen dez
Ġconser ve
Ġp ut
Ġbl o
ac Ã©es
Ġrasse mble
Ġtrou ble
ĠÃ©l oign
im migration
Ġcontempor aine
Ġmonu ments
ĠSe ine
Ġguit are
empl ois
Ġtrans met
ĠL Ã©
J uste
Ġad mir
Ġposi tifs
Ġordin aire
ad olesc
Ġintr ac
Ġorigin ales
Ġexempl aires
Ġfi Ã¨re
anc Ã©e
Ġprotoc ole
Ġm angÃ©
Ġ urgence
ct oires
Ġman quÃ©
ensi ble
Ġrac ines
Ġst art
Ġrest ri
Ġsoulig ner
Ġi tinÃ©r
Ġa h
Ġp Ã©p
ari ats
ĠdÃ©mont rer
ĠfaÃ§ ade
Ġb ah
ĠÃ©v olue
Ġfid Ã¨les
ĠdÃ©s olÃ©e
Ġfa usse
Ġfi bres
ingt on
A ux
mes ure
ĠL ac
Ġcon tiennent
onn ais
Ġemb ar
Ġmus Ã©es
Ġpan ique
ĠprÃ©occup ations
Ġpi zz
x i
ĠB is
Ġa lÃ©
ĠrÃ©c entes
Ġb uff
Esp agne
en a
Ġvais se
Par ti
k in
I P
Ġrece vrez
u eux
ĠÃ© puis
Ġcop ain
Ġar abe
oi es
Ġr Ã¨gne
v iennent
off res
ĠE ff
Ġcompr omis
ĠDÃ© fense
ĠÃ©ch antil
ter r
Ġ orth
Ġchauff e
ĠprÃ©fÃ©r Ã©s
ĠpÃ¢ tes
Ġdemand ant
Ġno tions
ĠdÃ©p ression
ĠdÃ©b ute
Ġcr ist
Mal heureusement
os c
ac quÃ©rir
s ous
el er
and er
o vi
ĠfrÃ© quemment
Ġcompati ble
Ġmonu ment
ĠchrÃ© tiens
is lam
Ġorganis Ã©s
Ġvin ai
ĠB D
ĠhÃ© bergement
e ctions
Ġtranquille ment
ay a
ĠR ome
ĠRe g
Ġcommer Ã§ants
ĠrÃ© veil
Ġple urer
Ġbou ill
ĠprÃ©cÃ© demment
ĠF R
Ġgard Ã©
ass ujet
Ġatout s
ĠB ois
Ġv ot
ĠB ourg
ces se
ĠtrÃ©s or
inform er
Ġbou cle
ĠÃ©g ard
ĠP atri
Ġinspir Ã©
ĠdÃ©p annage
ĠvÃ©rit ables
cie uses
Ġc ac
Ġv oila
i p
Ġpour rai
ĠAu tre
ĠM il
us ine
Ġpar rain
Ġprodu cteur
ĠM Ã©l
Ġramen er
ĠdÃ©b ou
Ġaccomp agnÃ©e
al lez
ĠAm Ã©ric
ĠL ille
ph ones
Ġmanip ulation
Ġquali fication
ouv ant
R Ã©p
R em
ing s
B l
ĠrÃ©g imes
Ġcap t
Ġtranqu ill
Ġb ail
ĠdiffÃ©r en
Ġin time
c Ã©e
ĠÃ©t ages
ul ent
m od
ĠextÃ©ri eurs
Ġpropor tion
vir onnement
Ġmin ce
oue ment
Ġpermet trait
Ġdevoir s
f il
ons ci
Ġaur ais
Ã©le vage
Ġpi ano
Ġrenouvel ables
or ti
Ġ1 30
Ġsex y
Ġbr un
Ġproven ance
Ġpo ils
Ġtrans actions
Ġ199 5
imp lant
Ġbiodi versitÃ©
h op
Ġgr Ã©
Ġcop ains
ĠCons titution
Ġdistin gue
Ġs age
Ġmont Ã©
Ġy oga
Ġpl omberie
inst alle
Ġeffectu Ã©es
b onne
em m
ĠrÃ©ser vÃ©s
Ġs oix
ĠÃ©limin er
Ġinstall Ã©s
Ġpass ait
L i
Ġin tention
Ġplani fication
u tilitÃ©
Ġcomp ens
alis ations
Ġn au
Ġfranch ise
cl Ã©s
accueil lir
Ġin no
M ont
Ã©le ctr
Ġ7 7
Ġexpos Ã©
Ġtr oupes
Ġcol ler
ac ter
Ġm ette
ĠS itu
Ġpne us
ĠlÃ©g ale
Ġexp lication
Ġ- -
Ġci bl
O G
oly mp
Ġcont enir
Ġtr oupe
Ġrec ue
Ġfig ur
Ġfi bre
ĠmÃ©can isme
Ġintrac ommun
Ġtrans forme
Ġrav i
Ou tre
Ġli ve
Ġporte feuille
Ġle ctures
Ġgout tes
abil iser
Ġman quent
ari um
Ġfix Ã©e
ĠÃ© ter
, âĢ¦
ĠPre miÃ¨re
Ġconfort ables
ĠV endredi
Ġ6 9
Ġemploy Ã©
Ã©lÃ© rer
com mun
ĠRe cherche
ĠRÃ©s er
ch ose
ĠS yn
ĠO N
Ġplace ment
Ġvi f
Ġcam ion
Ã©p isode
Ġpoit rine
Ġencour ager
ĠF aut
ĠbÃ©nÃ©fici ez
Ġb andes
ĠÃ©le cteurs
Ġsoup le
Ġvolu mes
Ġunivers itÃ©s
Ġlu miÃ¨res
ustr alie
M B
assujet tissement
Ġch air
ĠamÃ©li oration
Ġpar s
Ġp ais
end rait
ĠK ar
Ġgouvern ance
Ġ199 6
Ġcomplex itÃ©
Ġassur ances
Ġpr enne
Ġr h
Ġsh ow
Ġpoi gnÃ©e
ĠI talie
am Ã©ric
Ġdiminu tion
ĠfidÃ©l itÃ©
Ġsil en
Ġexp Ã©di
201 2
ĠcÃ©lÃ© brer
Ġgratuit es
Ġchau di
ani el
Ġprom esse
is ations
c or
ĠhÃ´ tes
oph e
age ments
ĠF Ãªte
it res
Ġper ception
Ġdou ze
Ġco hÃ©rence
6 9
Ġfant as
Ġpasser a
Ã©m otion
Ġag ressi
Ã©vÃ© nements
Ġcerti fication
hab ite
gn ant
Ġintracommun autaire
it Ã´t
Ġquin zaine
Ã©ch anger
Ġloc ations
O k
Ġmen Ã©es
ĠmÃ©n ages
Ġcon fier
ĠÃ©vi te
ĠtÃ©m oin
y le
5 00
Ġ3 50
ĠsÃ©lection nÃ©s
un d
Ġcomb att
Ġo deur
rÃ© tion
Ġrefr oi
ĠrÃ© veill
Ġrepar tir
Ġlab el
ĠrÃ©pond it
an Ã©
Ġcri mes
Ġv ole
n ale
intern ational
âĢ ¯
Ġ6 7
Ġcarb urant
bec ue
Ġbr och
Ġquotidien nement
Ġcompt able
Ġir a
ĠA V
F aut
ĠconÃ§ us
Ã¨ ches
Ġfamili ales
pr of
l is
ad resser
Ġmus iques
Ġcollec tivitÃ©
Ġoblig atoires
ĠR os
Ġp Ã©ni
activ er
Ġprog ress
i ff
Ġg Ã¨re
Ġreconn aÃ®t
ĠAn droid
Ġmet tr
Ġmunicip alitÃ©
Ġform Ã©
app uie
Ġcoup Ã©
ĠM O
ĠMar tin
oli ques
ĠrÃ©ser vÃ©e
emp run
Com p
Ġchant er
Ġcon join
Ġme cs
Ġangl aise
Ġaj outez
AI RE
ĠÃ©c ras
ĠW ord
achet eur
Ġfr appe
Ġmar re
Ġcant on
ĠcrÃ© ant
Ġjoin t
ĠconÃ§ ue
Ġ9 00
am as
OR T
Ġcour ants
E c
Ġquestion naire
ĠBl ack
Ġent rÃ©es
oin g
ĠSt ar
p Ã©
ĠForm ation
Ġinte mp
Ġrec ouv
ĠrÃ©v Ã©lÃ©
idÃ© al
Ġfabric ants
Ġdu quel
Ġbless Ã©
s ante
Ġj olis
Ġrap iditÃ©
onn age
Ġle Ã§on
Ġ16 0
Ġrepr oduire
Ġnu ages
intern et
Ġbou c
Ġpubli e
ab es
il er
Ġa si
onse ils
6 8
Ġscru tin
Ġsais ie
Ġav ocats
Ġin je
Ġconcert ation
Ġrappro cher
Ġfi ction
Ġval orisation
rÃ© p
ĠCh acun
vers er
ie d
ĠJ uste
v ise
est ations
ĠMar ine
ĠC re
mpl oi
ĠX IX
adi o
amp leur
Ġt rib
excell ence
ĠmÃ© ditation
ĠF i
ul ant
ol age
cip lin
Ġdr ogue
tis Ã©
Ġca chÃ©
ĠCh ez
ĠM os
an die
Ġvisible ment
B onsoir
Ġagric ulteurs
P P
Ġvari Ã©es
ĠM c
s oci
Ġaid era
Ġfau ne
glom Ã©ration
ĠC er
Ġfonctionn alitÃ©
Ġord res
g Ã¨ne
Ġenvis ager
Ġmusic al
Ġcollectif s
Ġst op
ct s
Ġrasse mbl
Ġplong er
Ġchap eau
ar th
Ġvi gn
Ġno ctur
ĠAm Ã©rique
Ġmen aces
Ġtourn age
qu and
Ġo eil
Ġ197 8
ti an
di er
Ġcircu its
ĠTh om
Ġprovis oire
Ġtechni cien
r ue
d eux
Ġc av
ĠEsp agne
Ġprodu ctivitÃ©
Ġab ond
tilise z
Ġlis ant
ĠprotÃ© gÃ©
Ġindividu els
Ġperd ue
Mar ie
la h
ĠStr asbourg
S ui
Ġcontribu Ã©
Ġdiv orce
Ġinf orme
tÃ© n
ti Ã¨me
Ġcath olique
ĠdÃ©ploie ment
Ġfais aient
Ġmas cul
pl ay
ent rÃ©
Ou vert
or ange
an at
hab il
ĠrÃ©un it
Ġavanc Ã©
Ġin Ã©d
Ġinstall Ã©e
ĠF ab
Ġsem estre
Ġdys fonction
Ġri di
Ġgui des
Ġdev aient
Ġh autes
at Ã©r
le c
Ġtradi tions
Ġm Ã¨res
Ã¨ nent
Ġtravail lons
Ġsyndic at
hab itu
ĠÃ© dit
Ġtax i
ver sion
l ing
ac cess
omm Ã©e
n ers
Ġpar les
ĠU tilis
uss itÃ´t
Ã© en
ĠâĢ ¢
M aison
Ġre lie
prÃ©s ident
ac ent
ve illes
am ais
Ġpour suite
Ġr ation
Ġsensibil iser
ĠdÃ©c la
ĠdÃ©termin ation
Ġprop ag
til le
R ec
bon jour
Ġiss ues
Ġsau vages
ĠdÃ©monstr ation
Ġentre tenir
Ġbl anches
ĠvÃ©rit ablement
ĠprÃ©cis ions
Ġchar m
Ġr itu
ĠlÃ©g ende
P ers
ĠdÃ©tail lÃ©e
Ġam ener
Ġpublic itaires
ĠintÃ© resser
Ġa de
Ġeng ager
Ġemploy eur
h Ã´te
Ġsal ons
ĠÃ©volu Ã©
Ġ olymp
P rix
ĠS ui
Ġpsy chi
Ġin aug
ĠA ux
ĠdÃ©pend ance
Ġsusp ension
am el
ĠM ise
Ġfil et
Ġg lu
Ġcotis ation
Ġidenti que
Ġfin ition
Ġr Ã´les
ĠdÃ©gust ation
Ġincap able
Ġrempl acÃ©
Ġquali fiÃ©s
ĠJus tice
Ġsurvi vre
Ġpar ts
ĠÃ©v oque
Ġsoli des
ĠP Ã¢
ĠsÃ©min aire
Ġac adÃ©
Ġam ont
Ġtut ori
Ġaur as
ĠlÃ©gisl atives
Ġvitam ines
Ġcontr ainte
v ateurs
Ġ Åĵil
Ġvoud rait
Ġpar as
T RE
S O
Ġaccompagn Ã©s
ĠAu cune
Ġsi Ã¨ges
Ġordin ateurs
Ġad mirer
Ġpersonn aliser
Ġarr Ãªte
enc ore
Ġrav is
enc ad
Ġinscri te
a e
Ġdess iner
ĠsÃ© duire
Ġami es
in tr
Ġob je
l it
Ġcandid atures
ĠEn f
Ġmeu ble
Ġtu be
Ġimp rimer
Ġpouss Ã©
Ġchois it
Ġmen us
Ġas tr
ĠmÃ©tÃ© or
ĠLa urent
fi ent
Ġabandonn Ã©
en vis
Ġtourn ant
Ġpou b
inc er
Ġsa che
An gl
tÃ© ph
ĠM aire
Ġnum Ã©r
Ġint ui
h os
cul aire
ĠdÃ©c ol
o tÃ©
Ġaccord Ã©
Ġgran dir
ĠCont actez
aci fique
U RE
ĠamÃ©ric aines
Ġfonction nent
te x
p eut
ĠÃ©lect orale
Ġs oph
qu ie
ĠJ Ã©r
Ġsh opping
Ġcour ante
Ġsuffis ante
Ġob s
ĠgÃ©n Ã©tique
Ġappar ition
ot a
Ġpour ras
Ġsub vention
Ġinclu ant
Ġce inture
Ġla mpe
Ġexempl aire
anim aux
Ã©lÃ¨ ves
ĠÃ©quip Ã©s
Ġconcep ts
Ġcr ainte
ĠMic rosoft
ĠE ur
h Ã¨re
Ġmin uit
Ġexp ress
Ġressour ce
Ã©p aisseur
ĠrÃ©comp ense
Ġrecommand ons
Ġtranquill itÃ©
Ġoff erte
Ġdis ques
ĠprÃ© texte
Ġdemand a
Ġmir acle
Ġcellu le
Ġpromo tions
Ġle Ã§ons
Ġcontinu itÃ©
Ġ6 2
Ġpar lait
Ġmag istr
Ġcanadi enne
Des cription
ĠIs raÃ«l
Ġla Ã¯
Ġcr ay
op s
optimis ation
b us
Ġfond Ã©
Ġhabit ation
Ã©c ris
Ġbr anches
Ġpoi vre
Ãī cole
f re
in demn
ĠChar les
5 6
ĠsÃ© d
Ġprov oque
Ġcanadi en
ĠChe f
Ġrou e
tit uer
ĠstratÃ©g iques
Ġobligatoire ment
ĠdÃ©fic it
Ġplan ning
Ġpaie ments
intÃ© resser
D A
inc ent
Ġd rame
ar isation
Ġappr Ã©h
Ġchi mique
Ġvis uelle
Ġsex uelles
Ã© tiques
as tre
i k
Ġre ine
Ġorigin aux
Ġchan tiers
Ġrep Ã©rer
S P
ĠgÃ©nÃ©r aux
ĠL ong
ĠM ath
Ġref uge
Ġchar mant
os ex
am ende
Ġsus c
ins tru
Ġdiff usÃ©
ĠdÃ©s igne
Ġchin oise
u k
op os
Ġinv itation
Ġpr ie
Ġju gÃ©
Ġintelli gent
Ġrenouvel er
Ġrel Ã¢
ph ab
am or
Ġrecommand er
ĠrÃ©di ger
ĠN E
Ġacc ent
Ġcas ino
Ġterritori ales
Ġparten ariats
ĠCan adi
Ġess aie
I EN
ĠÃ©tr anger
mb lÃ©
enc Ã©
Ġp Ã©t
hÃ´ ne
Ġtap er
Ġr ends
Ġex tension
Ġimpressionn ant
ĠÃ©v oquÃ©
arr ÃªtÃ©
Ġplu me
Ġfer mÃ©s
Ġpour rons
Ġpal ette
iterran Ã©e
ĠM od
ĠP an
Ġp air
Ã©di e
Ġ.. ...
Ġenseig nement
Ġdonn Ã©s
y rÃ©
ic a
is olation
ĠR oi
Ġh ar
Ġviv ants
Ġchamp ion
ain issement
Ġx D
ĠRob ert
Ġb ul
Ġconstr uite
Ad ministration
Ġsembler ait
Ġpart ant
Ġbal ance
ĠG ir
Ġg il
ĠCh er
Ġl oyer
ĠCh ap
d Ã©s
Ġloin t
ĠcrÃ© ateur
Ġv aisselle
Ġvalid itÃ©
Ac adÃ©mie
b el
res que
ĠsÃ©p arer
op ole
ult at
Ġdesc ente
Ġdoc teur
Ġcont our
Ġmess agerie
Ġcuis iner
9 7
ĠÂ» )
interpr Ã©tation
ĠdÃ©fin it
Ġcr y
Ġv int
Ġmut uelle
Au cun
Ġassur Ã©e
ĠT oujours
Ġb ur
Ġor ange
en contre
ĠM ex
Ġrandonn Ã©es
ĠHoll ande
ĠLi vre
Ġbar s
our ces
Ġtradi tionnelles
ĠS P
Ġ3 60
Ġpous siÃ¨re
vis er
ĠspÃ©ci alitÃ©s
Ġmilit ants
n ess
ĠrÃ©gion aux
Ġb aie
Ġt o
imag ination
di ens
Ġcor ruption
ĠthÃ© orique
Ġiss ue
Ġl ots
Ġimm un
Ġar mÃ©e
ĠC os
Ġfer mÃ©e
Ã© ens
ĠdÃ©b utÃ©
aur Ã©
ch ange
aiss Ã©
anci ers
Ġpil otage
ĠS MS
ĠAn ne
ĠCr oix
ĠfÃ©min ine
DÃ©s olÃ©
Ġnation alitÃ©
Ġval oriser
Ġval oir
Ġsim ult
Ġaltern atives
Ġdiscip lines
mÃ© li
Ġconn ues
Ġcl aires
Ġt ribun
ĠPro vence
pel lier
Ġdirige ant
Eff ectivement
ad ox
ul tes
se mbler
ĠAl pes
ĠL aissez
Ġapport ent
Ġbo Ã®tes
Ġh op
Ġtrouver a
ĠrÃ© formes
Ġrembours er
oubli er
ĠPr ogramme
ĠF il
Ġcop ier
Ġchan teur
ois se
ĠComm erce
Ġvoy ons
Ġf olle
Ġvis itÃ©
ins truction
orte z
) ;
li es
Ġpou ce
Ġaur ons
cons ultÃ©
Ġf umer
ĠH ar
pit aux
Ġroy aume
ĠR o
ab onnement
Ġsu pr
Ġavanc Ã©e
In st
ĠconsidÃ©r able
Ġ7 6
ĠC ab
Ġimmobili Ã¨re
Ġhonn Ãªte
oc ations
Ġhu mide
rÃ© d
Ã©c rit
accep te
Ġnouveau tÃ©
ĠagrÃ© ables
Ġvieill issement
Ġcoup able
ing Ã©n
Ġscand ale
Ġpos ent
Ġvag ues
ĠLors qu
f l
ar ti
heure ux
g ir
Ġtard er
ar itÃ©s
Ġentrepren eur
ĠdÃ©but ants
ĠC ertes
Ġsoul ager
r Ã¨tement
Ġretr ouvez
Ã©n Ã©
inter diction
le urs
Ġcul p
ĠÃ©tudi ante
ol s
Ġreligie use
ĠSy rie
Ġsort ent
Ġat mosphÃ¨re
ĠAm azon
atric k
Ġinconn u
E ss
Ġcomb us
ĠrÃ¨gle ments
) ...
Ġcr ises
Ġsur p
Ġprom esses
visi onnement
Ġmar ine
ĠrÃ©ser voir
9 3
act u
c onc
Ġfond ation
Ġlour de
ĠV en
om o
Ġpi le
Ġcar rÃ©s
est Ã©
in troduction
Ġten ait
ĠO U
Par is
ĠD an
Ġblog ue
ting uer
ĠT ant
Ġfame use
au le
w ay
Ġ197 0
Ġr assurer
ly mp
Ġchamp ignons
Ġpersonn alisÃ©s
Ġbar becue
Ġ199 4
Ġvi br
ag Ã¨res
ĠT ribunal
h am
Ġvis a
onal d
Ġg orge
ĠCh a
oigne z
Ġrou tine
Ġc au
Ġcompt abilitÃ©
os ses
o ogle
Ġcin qui
ĠcarrÃ© ment
Ġv Ã©c
Ġexp ort
ĠL Ã©g
ĠT R
Ġob tient
imp oser
Ġli aison
Ġi Phone
ĠrÃ© cep
Ġfrig o
Ġs ab
Ġaff ronter
Ġon gles
ĠT op
ĠM ER
ĠFond s
Ġnav ire
t our
Ġpharm acie
ĠrÃ©par tis
ĠC C
er ies
ouche ment
ĠrÃ©p Ã©ter
hum ain
ĠpÃ¢ tisser
de m
5 7
V ers
ĠPar fois
Ġartifici elle
Ġch aises
Ġbord s
ĠS av
ĠâĢ¦ .
T A
Ġabs olue
b a
tif ie
ĠhÃ©s iter
effect ue
ĠAn n
Ġconvivi ale
Ġchaleure use
Ġprimordi al
Ġpais ible
Ġcapit aine
Ġarm Ã©es
Ġrasse mbler
ĠTour isme
ĠBon jour
Ġargu ment
Ġsoir s
ĠR ennes
C elui
ol et
ĠrÃ©p ublic
ĠÃ Ĭ
Ġses sions
ui ne
ĠU ni
ĠCor se
ĠE d
ĠprÃ©sid ence
ĠM aster
ill ette
Ġn oy
Ġpo te
ĠD Ã©m
Ġle v
Ġdemande urs
Ġdestin ations
Ġpren ons
Ġex ception
Ġfacil ite
Ġdirect rice
ĠdÃ©p ass
ic ale
Ì Ĥ
Ġser as
aud it
Ġsymb olique
ĠMai rie
ĠrÃ©alis ateur
Ġindic ations
Ġappr entissage
Ġsex uel
Ġchauff eur
Ġinstitu tion
Ġm Ã¨tre
v an
Ġju ges
audi ence
P eu
N ote
Ġcess Ã©
Ġf umÃ©e
Ġreten ue
H um
Ġci me
ĠV euillez
Ġg ig
ĠÃ¢ gÃ©e
Ġciv ils
ĠFl or
our ager
ĠContin uer
o ques
Ġbon jour
ap it
Ġcamar ades
Ġch angent
Ġi mb
is tÃ©ri
aut henti
Ġmaj oritaire
Ġmention nÃ©
Ġr and
Ġre ct
Ġmar quÃ©e
al s
r r
expl oit
Ġpharm aci
Ġtar te
EN D
Ġence intes
Ġman che
Ã©v aluer
C i
Ġenregistre r
Ġgen res
g en
Ġpasse port
emb allage
ĠCon ditions
Ġfranc o
Ġalbum s
ĠconsidÃ©r Ã©s
Ġt un
Al gÃ©rie
exp Ã©dition
O B
Ġcivil isation
os ser
ĠÃ©lÃ©g ant
Ã©v Ã¨nement
Ġse p
sur tout
Ġv este
ĠL undi
Ġtrans action
Ġconfi Ã©
ĠP ay
ĠdÃ©cla rer
Ġproje ction
Ġs ale
ĠSar ko
Ġbl an
habit ants
Ġp oup
Ġcul te
Ġsou mise
Ġpublic itaire
Ġterroris tes
Ġdis tinguer
atis Ã©
Ġremp lie
Ġ( Â«
Ġac tivement
ĠM AR
Ġ199 2
Ġexist ants
Ġbr od
Ġstock s
Ġw c
Ġfrag ile
Ġremp ortÃ©
Ġamus ant
Ġatti re
Ġp alestin
ĠS uite
c ence
ĠT or
Ġplac Ã©e
av Ã©rer
Ġfort une
Ġpu ce
ĠdÃ©s esp
hi p
d Ã©c
ĠEx c
Ġemploy eurs
ĠPro jet
Ġg er
b ack
ĠrÃ©ussi e
Ġais Ã©ment
Ġacc usÃ©
Ġre quÃªte
Ġtrad uire
Ġtut o
Ġmate las
om Ã¨tre
Ġmanif este
Ġf ic
Ġindic ateurs
que ur
Ġposition nement
Ġc ure
Ġcinqui Ã¨me
Ġsu ites
ind res
ĠI II
ann ulation
pect s
Ġsort ant
E glise
Ġfou et
Ġiniti al
Ġp Ã´le
Ġemp re
Ġanim ation
Ġes cal
5 8
Ġmoyen nes
ĠBern ard
6 4
Ġtr ah
C ertaines
A jouter
Ġperform ant
Ġdis ons
Ġpantal on
Ġemp orter
Ġf ol
ge ois
Ġamb ition
m as
Ġab onnÃ©s
Ġno tÃ©
Ġall Ã©s
ĠD Ã©p
ĠrÃ© veiller
Ġ( âĢ¦)
Ġfran chir
Ġpens ait
Ġ11 0
Ġs eni
Ġorgan es
Ã©p anou
Ġdans er
Ġregard s
Ġsub ventions
Ġmari Ã©e
Ġajout ant
Ġa iles
ĠminÃ©r aux
aire r
Ġsec s
Ġvitam ine
imag iner
ou h
Ġin Ã©g
Ġcrois er
Ġform ats
Ġs ure
Ġautoris Ã©s
pr Ã©h
Ġpar quet
ĠnÃ©cess itent
ĠdÃ© Ã§ue
9 8
ĠidÃ© alement
com ment
tin es
Ġb oit
Ġre mÃ©di
Ġsav on
ĠN ouveau
le m
ur ie
ĠbactÃ©ri es
ong let
ĠB o
ĠdÃ©p assÃ©
ĠtÃ©lÃ©ph ones
V A
Ã¨ ces
Ġf oul
Ġ6 3
Ġdir a
Ġfier tÃ©
ĠU NE
Ġplac Ã©s
Ġexter nes
Ġtat ou
ĠdÃ© tention
ag Ã¨re
Ġcomb ler
ĠsupÃ©ri eures
Ġraf raÃ®
Ġconnect Ã©s
n y
ĠreÃ§ ues
Ġcrit Ã¨re
ĠcÃ©rÃ© ales
Ġdisc ret
Ġd angers
ĠTunis ie
5 4
ĠD ANS
Ġpron onc
Ġsuper mar
Ġcon gÃ©s
ĠJ E
ĠÃ©di teurs
av ions
ong er
Ġdonne z
Ġam ateur
D ate
ĠRou ge
Ġend omm
Ġfer ons
ab ulaire
Ġexist ant
ĠS I
arc el
at rie
Ġg uise
ro Ã¯
ow er
ĠvÃ©tÃ©r inaire
Fin alement
ri Ã¨res
Ġgrande ment
Ġsuc cession
ĠrÃ©col te
ĠmÃ© ch
ĠJ ava
affi cher
Ġri ch
at tendez
P L
Ġpeint ures
T R
k ets
Ġm agn
âĨ Ĳ
ĠM aÃ®tre
el d
H ello
ĠR ich
ens Ã©s
Ġextrait s
ĠCon vention
Ġconver sion
ĠfraÃ®che ur
P D
ĠbÃ©nÃ©fici aires
Ġsp a
Ġmuscul aire
ess aye
Ġdig ital
Ġroman tique
Ġfl uide
ĠH T
ĠÃ©g ale
ĠrÃ© els
om ac
ĠPos te
Ġc age
Ġcircul aire
ĠrÃ©c la
Ġassoci Ã©e
Ġinnov antes
ĠAn gel
Ã©r able
Ġinter face
ĠAut ant
Ġim mer
Ġm ante
Ġf uir
ell ation
Ġc ouss
Ġr ati
Ġital ienne
Ġlu cr
Ġdir ai
Ġcal ories
Ġporte urs
ni g
ac on
Ġmar in
end um
ĠÃ© te
at ur
D ire
ĠrÃ©v ol
ois ir
ĠS oleil
ĠLux emb
Ġmail lot
re ction
Ġman ches
Ġfor ment
oli ne
A A
C onn
Ġas semblÃ©e
ours es
qui pe
ĠG az
Ġutilis ons
Ġsouver ain
6 2
Ġrecommand Ã©e
Ġr all
ig er
Ġfour nies
Ġglob alement
ces seur
ĠdÃ©p enser
Ġpr ouve
IT Ãī
Ġposs Ã©der
ĠS ol
Ġconsci ent
Ġimp ose
Ã©r on
Ġcontinu ation
ĠdÃ©veloppe urs
av aux
Ġlour ds
am ing
ans ion
et re
Ġp in
Ap partement
ul Ã©es
Ġgrav itÃ©
Ġtrav erse
Ġmass ac
astru cture
A ide
ON S
Ġd or
Ġcour tes
occup ation
ĠrÃ©chau ffement
Ġsupp orte
Ġtr aum
Ġcomm od
ĠrÃ©s ume
Ġdirec tive
Ġpi Ã©t
Ġang le
Ġal cool
ĠdÃ©b rou
Ġinves ti
af Ã©
Ġf aille
Ġcin Ã©
ĠmÃ©dic ales
us tement
Ġcuis in
Ġver res
ail ler
Ġet h
Ġexp rimÃ©
Ġu sine
iss on
Ġimpres sions
Åĵ ux
Ġchar gÃ©s
Ġgaran ti
ĠN eu
Ġreconn us
Ġdynam isme
cid ence
pe lez
Ġgl uten
ĠapprÃ©ci e
Ġmont rant
Ġsmart phones
ace u
Ġd ort
acu ation
Ġrasse mblement
tr ui
Ġlicen cie
Ġaccess oire
Ġcli p
Ġpay ant
Ġr Ã¢
Ġprom ener
ill y
R etour
5 2
ĠS Ã©
w are
mb les
ĠE ST
O c
an ner
ob ation
lÃ¨ tes
Ġdes ser
Ġ!!! !!
e p
ĠgÃª ne
Ġp urement
Ġdi gn
Ġrece vez
Ġloc alisation
** *
Ġretrouve rez
Ġaid ent
Ġal inÃ©a
dic ations
Ġf usion
Ġfrancoph one
Ãī c
Ġfond ateur
Ġpuiss ante
ĠThÃ© Ã¢tre
Esp ace
ĠB us
Ġgen oux
Ġil lim
ai m
ĠdÃ© ter
Ġrec ense
ĠcrÃ© Ã©s
ĠR ue
ĠrÃ©di gÃ©
Ġex ister
ĠO ne
Ã¨ vement
ĠdÃ©but ant
Ġassis tÃ©
Ġvo tes
ĠPe tite
âĢ¦ ),
Ġpar lez
Ġpot able
Ġimpos er
ĠA vez
Ġpe aux
ĠdÃ©t ach
ĠP ol
enf er
Ġin ond
am us
alis es
Ġillustr ations
A v
Ġrep l
intÃ©r Ãªts
Ġ7 50
ĠE r
ĠfÃ©ri Ã©s
Ġhor ri
M ag
Ġne uve
ĠA jouter
ĠF Ã©vrier
Ġcar n
V oila
u tile
ĠT Ã©l
onn ent
Ġm os
Ġobser vations
j on
ĠC itÃ©
Ġpou ces
habit at
Ġtabl ettes
Ġbis cu
Tu be
alog ues
Ġf at
Ġcroy ais
Ġfl or
Ġtar di
Ġre dÃ©
Ġent r
ge ant
Ġ8 8
ĠA D
5 1
o ce
U M
Ġrent abilitÃ©
Ġhydr at
ĠTr op
Ġsages se
Ġrespir ation
ĠAngl ais
Ġmail s
ath on
Ġprodu ctions
qu age
9 4
V endredi
te lle
Ġcess er
Ġbi jou
Ġanti cip
ÂŃ ÂŃ
ro vi
Ġtran ches
Ġpost ale
h on
Ġobst acles
Ġvan ille
Ġh Ã©las
Ġfabri quÃ©
Ġd en
x y
p df
Ġp Ã¨se
Ġav iez
ĠrÃ©c ents
enti ne
ĠdÃ©tr uit
Ġpol Ã©
et t
y o
Ġi c
her be
ĠS w
Ġapp liquÃ©
ĠÃ©ch apper
ann oncer
Ġinnov ations
ar o
Ġpl astiques
ci a
Ġbou les
ĠWi ki
ĠMont pellier
Ġparti el
Ġg e
ne au
ĠF ort
ĠIn f
Ġl ent
ĠprÃ©v enti
anim itÃ©
atis me
C o
in dex
Ġvoc abulaire
Ġreven di
Ġth Ã¨se
ĠTur quie
Ġpar i
Ġsoci aliste
ande z
Ã©d rale
j ac
es c
qu ons
Ġtrait Ã©es
ĠcÃ´ tes
Ġr aci
Ġrur al
Ġc amb
ĠdÃ©c Ã©dÃ©
Ġh al
S auf
Ġtristes se
Ġb id
tis es
201 1
Ġf Ã»t
ob iles
Ġten us
Ġpart agent
Or dre
hyp oth
ĠS il
Ġmariti me
Ã¨ ner
ĠT OUT
Ġvit rine
OT RE
Ġfr aude
Ġ9 8
ig nement
ff icile
Ġneu tre
ow e
ĠspÃ©ci alitÃ©
Ġca user
us tes
Ġstru ct
ĠOr ganis
Ġn id
A voir
Ġpron oncer
p ent
Ġparticul aritÃ©
accessi bilitÃ©
Ġrat er
Ġconcr Ã¨tes
Ġg Ã¢teaux
ou ler
Ġfisc ales
İ le
esp Ã¨ce
oun d
9 1
m ie
oph ie
Ġcommerci alisation
agn ole
Ġparlement aire
Ġmunicip ale
ĠprÃ©judi ce
yrÃ© nÃ©es
ĠLi b
Ġvo eux
qu a
ĠConf Ã©rence
ti se
b is
ari f
Ġp ist
Cont actez
Ġsuc cessi
A ff
Ġcalcul er
Ġbuff et
Ġpl ur
ĠphÃ©nom Ã¨nes
i um
and s
ag u
ĠP ont
C al
Ġl isse
Ġcr och
Ġvert us
oi ds
ĠrÃ©alis te
Ġsent ent
tim itÃ©
DÃ© jÃł
ĠintÃ©gr Ã©e
acc um
aj oute
Ġrecyc lage
Ġmobil iser
Ġstand ards
ace ments
ĠL im
ĠcosmÃ© tiques
Ġv Åĵux
Ġbat teries
Ġmer veilles
ĠThom as
Ġenv oyez
ici lement
Ġcomp teur
imm euble
Ġf lÃ¨
ĠH y
ui ra
An n
ĠM ul
ar chi
Ġadapt ation
Ġle vÃ©e
Ġappropri Ã©
B C
S C
Ġcel l
Ġeffe ctifs
B i
Ġvinai gre
ill ant
7 2
Ġn arr
N ombre
Ġassi mil
Ġb arr
ill ages
Ġsol itude
Personne llement
E P
Ġharc Ã¨lement
Ġfle uve
Ġjusti fic
Ġg asp
ĠÃ¢ ges
ĠaÃ©ri enne
Ġexclusi ve
Ġcentr ales
Ġlois ir
Ġinc ar
Ġcher chant
U X
ĠsupÃ©ri eurs
ĠrÃ©par ations
ĠW h
Ġrest Ã©e
Ġrepas ser
Ġcol oris
Ġ el
Ġcontribu tions
ĠF ont
Ġjoy eux
ol t
ĠP age
Ġalg Ã©ri
Ġh ur
Ġfre in
ĠÃ©qui valent
Ġfab ule
Ġc ic
Ġoubli e
Ġprop ice
Ġn ations
r endu
Ġaccomp lir
Ġconcer nÃ©e
Ġappar ence
Ġimpos Ã©
ve illÃ©
Ġred onner
ĠW all
ĠreÃ§ us
Ġcli cs
Ġar bit
ĠGr Ã¨ce
Ġsignific ative
Ġadministr atifs
Ġatti rÃ©
ĠÃ©nergÃ© tiques
ĠextÃ©ri eures
Ch ar
ch estre
ĠprivilÃ©g ier
Ġ out
Ġaccueill ant
5 3
Ġcon ner
ĠCor Ã©e
Ġcab ine
ĠdÃ©p it
ĠS tu
! "
Ġg y
Ġcoll oque
ctor at
Ġcr oient
armer ie
pl an
Ã©s ir
ĠrÃ©g ulation
en aire
ĠM unicip
Ġon des
A telier
ĠL og
ĠdÃ©c om
Au cune
ĠÃ©quip Ã©es
Ġmodi fiÃ©e
Ġjus tes
Ġl in
B ah
atta quer
ĠprÃ©cau tions
Ġbudg ets
Ġa ussitÃ´t
Ġenvironnement ale
Ġremp orter
Ġdimin ue
ap s
ĠtÃ©l Ã©s
U B
ĠM et
Ã©par gne
vers Ã©
Ġsol aires
Ġbless ure
a uses
g h
Ġd ensitÃ©
Ġp om
Ġcan n
Ġrecher chons
Ġplaisir s
Ġfavor ables
ali Ã¨re
Ġatte ints
Ã© trer
ĠA oÃ»t
ĠrÃ© tro
ĠdÃ© teste
Ġfab rique
Ġb Ãª
Ġtrait s
Ã©ro Ã¯
exp ort
Ġp Ã©tition
ĠmÃ©can iques
onn iÃ¨re
ĠLuxemb ourg
Ġsap in
Ġvacc in
Ġa Ã®
Ġcoach ing
Ġdiff icilement
Ġbl ague
Ġsurpren ant
ug al
m y
Ġgl oire
ĠÃ© chec
Ġprest ataires
ĠprÃ©f Ã©rez
H ier
6 3
Ġpl i
Ġchal et
Ġinse ctes
as tes
Ġris quent
import ant
ĠsÃ© le
Ġmens uel
ĠD Ãī
Ġf esses
Ġrou tiÃ¨re
Ġpubli Ã©es
Ġappli quÃ©e
Ġattent ats
Ġrat Ã©
ou rer
vi ne
ĠreprÃ©sent ations
ĠT om
Ġdispos ant
Ġdat ant
Mich el
i ze
Ġchar bon
Ã©quipe ments
ĠrÃ©g lage
ĠÃ©duc atif
Ã©c ologie
Ġconnaiss ait
ÃĬ tre
Ġf al
Ġ3 000
l os
Ġense igne
env oie
Ġre charge
Ġl anÃ§
ĠbÃ©nÃ©fi que
ĠingÃ©n ieurs
ĠS em
Ġplais ant
ĠJ o
b at
ĠG PS
Ġs ors
ĠMÃ©d iterranÃ©e
ĠrÃ©ser vations
op t
? "
Ġent raine
Ġconsult ations
Ġg ains
Ġdisc rÃ©tion
ĠF A
ra k
Ġimag ination
ĠÃ©tudi Ã©
Ġassur ant
Ġpo ches
artis tes
j usqu
Ġconstru cteurs
inc endie
ĠÃ©c out
Ġmotiv Ã©
Ġenne mi
d y
ir ai
Ġf lÃ©
Ġgestion naire
in ions
Ġros es
Ġcontribu ent
qui ert
ĠPr enez
Ġatte intes
Ġridi cule
ĠmÃ©di Ã©v
D Ã©velop
Ġcomm Ã©m
ĠG uy
Ġd ise
ti ser
Ġenj eu
Ġentour Ã©
Ã©g r
ver gure
Ġmod Ã©ration
v ard
Ã´t res
Ġmeur tre
ĠD I
Ġdemand ons
aci de
Ġs n
Ġpein tre
Ġrich esses
ĠP ensez
Ġlibrai rie
ĠI P
ĠA L
is si
Ġressor tir
Ġappar tenant
off ici
ĠA ni
ob s
ĠdÃ©termin Ã©
Ġdigit ale
Ġguer res
ĠÃ©t oile
an as
ĠR etour
ĠPÃ¢ ques
ĠB ro
ĠPl ay
ĠSarko zy
Ġb oss
ĠpÃ©tr oli
Ġk i
par tie
ĠCom pte
Ġmang a
Ġ ),
ex ercer
Ġfer rovi
ac o
Ġl Ã©s
Ġstagi aires
Ã©r as
ĠtÃ©m oigne
Ġla ser
ri rez
En v
ĠV ir
Ġs and
ar gu
b Ã©
lam m
urb anisme
Ġal uminium
Ġsoup lesse
ĠL ang
H E
Ġf oyers
Ġsol o
Ġouv riers
ĠcoÃ» ter
Ġind Ã©sir
Ġreg ardez
Ġpsych ologie
Ã© mis
enc re
Ġadvers aire
es time
ra ve
Ã©qui valent
7 4
Ġprolong er
Ġchau des
ad o
ĠdÃ©te cter
telli te
Ġ9 2
Com pte
Ġr achat
Ġ199 3
ĠquÃ©bÃ©c ois
Ġarchite ctur
Ġappel Ã©s
Ġsa tellite
ĠthÃ©rapeu tique
Ġcoiff ure
ĠUS B
Ġam Ã¨ne
Ġtuy au
Ġ6 1
Ġd outer
b eau
Ġbudg Ã©taire
ĠP oint
ĠB at
Pr enez
Ġm Ã»
ĠM r
Ġvoy ait
Ġvis uels
8 3
ĠprÃ© venu
Ġprin cesse
urr ence
Ġver sement
Ġviol ent
S oyez
ĠBis ous
ure z
ĠM ON
Ġh onneur
ĠrÃ©glement aires
Ġbag ages
ĠprÃ©al ablement
Ġmet tra
ven ant
Ġs aga
origin alitÃ©
ĠP or
Ġca mps
Ġgar dien
w i
Ġsang u
Ġconc entrÃ©
Ġterritori ale
A z
ĠprÃ© avis
Ġl ai
Ġsinc Ã¨rement
le ct
Ġanaly s
D imanche
N ouv
201 0
ar iser
Ġlivre t
Ġcouv erts
ref our
Ġpron oncÃ©
onner ie
Ġmar ins
CrÃ© ation
ate au
oign ons
ĠÃ©tr oite
c rÃ©
li re
Ġpor teur
Åĵu f
Ġmar rant
Is raÃ«l
C eux
Ġsais i
l ue
Ġb lÃ©
ar tÃ©
Ġamp les
Ġenseig nements
ĠS yl
Ġunivers itaires
Ġar chÃ©
ori al
e cc
Ġ15 00
Ġgard es
tr ans
Ġinc endie
Ġl en
Ġsil hou
l or
a ke
ĠT on
Ġsui cide
Ġvol on
Ġfl ot
Ġparti ellement
ĠÃ©tab lie
ill ent
int ensitÃ©
Ġenvoy Ã©s
M onsieur
Ġloc ataires
ab o
ĠÃ© man
Ġsur prendre
Ġbi bli
ĠC L
Ġachet eurs
ins cri
ille ment
Es prit
Ġcondam n
Ġlumine use
ĠprÃ©cis ant
Ġas sembl
ose ph
ĠpÃ©dagog ie
ĠÃī c
Ġparis ien
ĠamÃ©li ore
âĤ¬ ,
ĠdÃ©f av
Tr ans
Ġconstru ctions
Ġb aiser
Ġla urÃ©
b ons
Ġcockt ail
Ġaffi chÃ©
Ġble us
un animitÃ©
Ġnutri tion
aler te
E cole
ĠremÃ©di er
O IR
Ġfabri quÃ©s
ĠÃ©clair age
ĠSec rÃ©t
Ġclin iques
Pe tite
Ġracc our
Ġinter p
endre z
omm Ã©
Ġtr ains
Ġplac ard
D ame
Ġbl oquer
ĠÃ©ti ez
ar y
Ġr usses
Ġb ad
Ġfon de
L aissez
ĠrÃ© elles
Ġclass Ã©s
T on
ĠYou Tube
c our
ĠPro fitez
Ġ8 4
u itÃ©
ĠU nies
ĠDÃ© jÃł
Ġexpos Ã©s
L ouis
ĠprÃ© lÃ¨vement
w ork
av ancer
ou ch
Ġchaudi Ã¨re
ĠpÃ©n ale
Ġsigni fication
ĠL une
ensi ve
Ġref ait
Ġcomp tent
gy pte
Ġinten tions
Ġr ad
Ġqu al
Ġpart agÃ©e
ct ori
Ġaut oritÃ©
Ġtrouv ant
Ġb ic
ĠB ig
ette ur
Ã© tez
ash ington
M L
en u
Ġchap itres
onn et
Ġcompr ise
Ġinterlocu teur
Ġobten us
Ġsubst ance
ten ance
Ġenqu Ãªtes
Ġfl otte
ĠH all
Ġf oss
en e
Ġinst ance
ĠÃ©qui val
ĠrÃ©p Ã¨te
Ġprin ce
Qu estion
ĠprÃ©f e
ĠdÃ©b ar
an ique
Ġdign itÃ©
Ġad orable
Ġphysique ment
Ġunivers elle
in vite
ĠthÃ©rap ie
ĠB ay
optimis er
P ress
Ġi di
Ġ19 60
Ġrev iennent
Ġtemp Ãªte
ĠmÃ©c onn
ni ti
Ġ4 50
Ġrecomm encer
Ã©tudi ant
ab is
ĠK e
l ante
Ġb ombe
Ġn oires
es sionne
app uyer
A li
Ġcontent er
ĠM E
Ġautom ne
ĠdÃ©f aite
ĠH istoire
ĠdÃ©sir s
Ã©n Ã©fi
ori Ã©tÃ©
ĠJ ardin
gn on
Ġs tÃ©
Ġform Ã©s
ĠdÃ©di Ã©s
ĠS tÃ©ph
Ã©n ager
Ġop position
In tÃ©rieur
Ġcontac tÃ©
ĠT ri
Ġmon Ã©taire
Ã©re mment
ĠS au
Ġcommis sions
ĠH D
Ġris quer
Ġfac ultÃ©
ĠhÃ´ pitaux
P ubliÃ©
Ġher bes
ĠF N
Ġar chitecture
Ġc auche
Ġpay e
Ġpar adox
ĠrÃ©no vÃ©
Ġrattr aper
ĠC at
ĠR ose
Ġpos Ã©es
â Ĺ
Ġv oil
Ġfi ables
I voire
Ġn age
ĠÃ©p oux
> >
ex Ã©cu
ĠCol le
ĠnÃ©goci er
Ġcin quant
Ġexpl oitation
. ),
Ġprest ataire
ĠdÃ©c ors
Ġsol de
Ġper les
Ġsimpli fier
ond s
Ġviv ons
n al
ĠrÃ©s istant
Ġl isez
H eureusement
Ġin noc
C R
Ġr age
iti eux
Ġban li
Ġtrouv Ã©e
Ġsubli me
S h
ĠL ou
ĠdÃ©rou lÃ©
ag o
Ġno Ã«l
ĠFr ont
Ġul time
ĠP ic
ĠM ay
Ġer g
Ġch aine
form atique
201 9
Ġdu o
Ã¨ tent
ord s
a ussi
Ġse ctions
Ã¢ ne
Ġdur ables
Ġexc Ã¨s
oc al
Ġgastr onomie
Ã©c r
Ġcin quante
ĠÃ©tr oit
Ġdes crip
ĠP ok
Ġreligie uses
Ġsing uli
ĠPL US
... ),
ĠOu est
Ġplan cher
Ġconsult ant
Ġcorrespond ance
Ġli tige
ĠðŁĺ Ģ
ĠinconvÃ©ni ents
Ã©ri es
ri ve
T EN
Ġdistin ction
g mail
Ġconnaiss ons
ĠcÃ©rÃ© br
ĠrÃ©du ctions
Ġh eur
ĠmÃ©tal lique
Ġpr Ãªter
N i
ut s
Ġfor es
ĠdÃ©rou ler
Ġcons tant
en tit
Ġcer titude
Ġimp ecc
Ġindi quÃ©e
ĠamÃ©li orations
Ġsour it
Ġgr aisses
ĠR em
lar ation
en ons
ĠdiplÃ´ mÃ©s
Ġ199 1
? !
ĠÃ©p ais
Ġconf usion
Ġcompos er
ĠdÃ©voil er
ĠdÃ© tection
Ã©th ique
Ġapp ui
Ġnom in
exc lusion
Ġanim ale
ĠÃ©vent uelle
Ġlabor atoires
Ġpropre tÃ©
Ġ7 4
Ġcra quer
Ġcostu me
Ġnot oriÃ©tÃ©
ĠP E
Ġtemp le
ĠdÃ©mont rÃ©
" )
e uses
ĠdÃ©b ord
ĠRÃ©s eau
appli quent
Ġneu tr
Ġdissi m
ĠJeu di
v aisselle
7 1
ĠP Ã´le
Ġviv ante
em ment
C onseil
pr end
Ġassur ent
ap acitÃ©
Ġmanifest er
ĠimmÃ©di at
Ġsoup Ã§
o lement
pr enez
ĠcomplÃ¨ tes
8 6
Ġfix ation
Ġcons ignes
Ġcam Ã©ras
Ġaccord Ã©e
ĠrÃ©fÃ©r endum
ch ron
Ġdi ges
Ġcont radi
ĠS oit
Ġsc r
Ġfl ore
Ġgout te
Ġhabit ant
tic s
utilis ateurs
Ġtribun aux
Ġfaibles se
om ie
? )
Ġpublic itÃ©s
Ġnos tal
indi quer
ON NE
Ġrecher chÃ©
ul li
L iste
Ġbl onde
Ġa nec
aÃ® tr
Ġj ette
ĠamÃ©n agÃ©e
Ġbal ades
Ġprod uisent
Ġri v
ĠN or
ĠâĢ º
Ġpomp iers
en tion
or itaires
ĠdÃ©roul Ã©e
ĠD aniel
Ġsol des
arcel one
Ġjapon aise
Ġfil tres
anci er
Ġfor cer
abord er
Ġatten tif
or ith
ĠrÃ© habil
ĠL is
Ġplai ra
ou ches
IS E
isc ines
Ġvirtu el
ĠmÃ©di a
ĠR Ãī
Ã©lÃ© ment
Ġfix Ã©s
Ġdou bl
Ġten eur
d in
ult ats
d ro
Ġcrois iÃ¨re
Ġpuiss ants
ĠprÃ©sid ente
Ã ¶
Ġvolon tiers
ti bles
Ġbap t
C an
9 6
Ġmons tre
Ġbre fs
indi ce
as ile
Ġfin es
ĠdÃ©partement al
Ġconven tions
or tie
Ġdemand ais
ĠdÃ©mont re
ic al
Ġrecueil lir
Ġmo dÃ©l
ĠN oir
Ġcoul oir
Ġobser ve
Ġtrait ant
ug by
Ġvrai es
Ġch o
ner gie
Ġsouff rent
ĠC ali
ĠprÃ©t endre
Ġeng endre
Ġfonctionne l
âĤ¬ /
ĠspÃ©cifique ment
Ġdiscrimin ation
) )
ĠdÃ©g age
C D
Ġen ri
Ġbal les
ĠmÃ© chant
C P
ĠXIX e
Ġcry pt
m us
' ,
ĠP H
ĠÃ©le vÃ©es
Ġcan aux
ĠS tre
appro visionnement
Ã© te
Ġcol lier
ĠdÃ©n oncer
tu de
ph p
Ġtrouv ais
ĠEt at
ĠprÃ©fe cture
ĠÃ©qu itable
u ant
aper Ã§
aband on
g ers
In de
C L
Pr endre
Ġ198 9
Ġv ienne
ĠprÃ©f Ã¨rent
ĠprÃ©sent ations
Ġexist antes
Ġpen cher
Ã©t abl
Ġstatis tique
ĠÃ©c ologiques
Ġtou ches
ĠcompÃ©t ent
Ġfrancoph ones
Ġob sc
Ġrest es
Ġimp er
Ġquar antaine
ob ie
ĠÃ©p ous
ĠgÃ©n Ã©re
Ġcr Ãª
ĠVi etnam
Ġar c
Ġvari Ã©tÃ©s
ĠcompÃ©ti tions
Ġtoit ure
Ġsitu Ã©es
Ġsenti er
ĠmÃ©d aille
aur ont
Ġunivers el
aci er
Ġactu alitÃ©s
Ġessay ez
ci el
che ur
ĠmÃ©di atique
Ġmi xte
Ġcharge ment
Ġv Ãªtement
ĠmÃ© pris
Ġpertin ence
u che
Ġadvers aires
Ġpoli cier
Ġ7 3
ĠdÃ©velopp Ã©e
opÃ©r ateur
ĠÃ©lect ricitÃ©
Ġfi ers
Ġpoi v
t Ãªte
Ġinv iter
ĠAr r
Ġfr appÃ©
aÃ¯ que
al arme
Ġgr ammes
es oin
Ġmo elle
o dique
Ġmat ernitÃ©
olog ne
Ġpas sions
Ġsoumis es
Ġvie il
Ġcau tion
Ã©t al
Ġvisi teur
ili ers
Ġc itÃ©s
A ir
aw a
c lÃ©
c ale
Ġtri p
ĠC ent
Ġa cides
Ġrelig ions
Ġgard ant
Ġb ret
Ġs omm
Ġrec r
Ġfig urant
Ġb ot
Ġlum in
Ġconvi ction
Ġressembl ent
ĠP atrick
estaur ant
ĠE mmanuel
M an
I QUE
ĠdÃ©p ense
ĠsÃ©cur isÃ©e
Ġinst ances
Ġbloc s
Ġneu fs
Ġprov oquÃ©
ĠrÃ©s ulte
Ġti enne
ĠdÃ©couv rirez
int rigue
am ar
Ġb ous
Ġvalid Ã©
ĠOu tre
Ġgr ain
ĠM Ã©di
Ġimp acts
ad mission
ar chite
ĠprotÃ© gÃ©s
ci ation
Ġsugg Ã¨re
RÃ©s er
encad rement
all ait
C ertes
de c
impos ition
up port
Ġre di
am Ã©
ĠÃ©c o
ĠD Ã©b
Ġattend ons
Ġsoigne usement
Ġm adame
ĠR adio
Ġrespe ctueux
Ġdisp o
ĠBr un
m ons
ĠC entr
ĠE v
ĠAl ain
Ġent rÃ©
Ġarri vant
Ġadop tÃ©e
Ġconform es
ĠpÃ©r enn
l l
Ġpar vient
Ġdemand Ã©e
Ġquar ante
Ġsir op
enseig ne
Ġride au
Ġtol Ã©rance
ĠmÃ©di ation
Ġcons ens
Ġinform Ã©s
Ġscol aritÃ©
Ġcircul er
Ġcalcul s
Ġrencont rÃ©s
en dez
Am our
Ġpoursui vi
Ġconc entre
Ġpens ons
Ġsa veur
os ter
Ġcan on
Ġc ub
Ġpot s
âĢ¦ ..
Ġenseign ant
i ment
expl os
Ġabord able
Ġgl isse
ti ment
Ġmai g
ĠB u
apprÃ©ci er
ic ations
Ġinc onsci
Ġsur m
rim Ã©e
p ers
r lande
Ġcont am
Ġsour c
Ġterr oir
ĠcrÃ© atif
ĠcÃ©lÃ© b
ĠBer lin
ĠM ali
ĠIn c
Ġimm eubles
att ribution
tis tes
ĠC M
Ġbou cles
er ine
accomp agne
Ġaccord er
Ġpharm aceu
oli tique
Ġcomment er
che cs
Ġre tir
Ġg ir
Ġspaci eux
ĠP opul
ĠdÃ©s igner
ig ht
ĠMex ique
Ġs outer
ĠD im
ĠÃ¨ me
Ġquotidi ennes
Ġafric aine
Ġp esti
ite urs
Ġiniti alement
ĠR espons
li ons
r asse
ĠrÃ©vÃ© l
Ġinter mÃ©diaire
ĠcrÃ© atures
ĠCol omb
in k
Ġla pin
Ġidenti ques
Ġsymp as
ĠÃ©g lise
ret te
ĠSeu l
Ġfig urent
Ġc reux
ni fique
n om
autor oute
Cons ultez
ĠdÃ©lic at
ach Ã¨te
Contr airement
ĠW ashington
Ch rist
Ġc ut
ad ministr
ĠÃ©th ique
Ġrel ancer
hist orique
ĠreÃ§ oivent
ad re
Ġimag inÃ©
Ġconstitu Ã©e
P aul
7 3
Ġvari ables
cul er
Ġstock er
ag as
l ist
Ġb arriÃ¨re
Ġvari ations
ĠfÃ©dÃ©r ale
Ġte am
Ġfl ui
Ġfa usses
Ġ8 2
Ġap ais
Ġamb itieux
accep tation
Ou ais
ĠR etrouvez
ĠnuclÃ© aires
Ġjou ant
Ã©g a
Ġco te
Ġmodes te
orth ographe
ĠG uide
ĠspÃ©cialis Ã©es
Ġfisc alitÃ©
eff e
ĠG Ã©r
Ġbr uits
idÃ© o
Ġmar ier
Ġdonn ait
Ġoff ertes
Ġpotenti ellement
Ġab att
Ġstim uler
ĠtrÃ©s ors
Ġman ager
ĠnÃ©g atifs
U IT
Ġfeu illet
Ġnoti fication
Ġn az
eur o
En f
ĠpiÃ¨ ge
expÃ©ri ences
aci le
Ġcorrec te
Ġdevi endra
ĠcomÃ©di e
T P
Ġmat uritÃ©
Ġcommiss aire
Ġch utes
ĠC AP
Ġvoul ant
[ ...]
Ã© enne
v ente
off rent
Ã©t Ã©e
Ġcl an
B elle
âĢĻ âĢĻ
ab ou
ĠÃ©vent uels
Ã§ age
ĠB arcelone
Ġta ches
ĠinÃ©g alitÃ©s
S ite
8 4
Ġn or
ĠgÃ©nÃ©r ositÃ©
M ari
Ġlucr atif
Ġprov iennent
lÃ¨ ge
ue uses
ĠspÃ©cific itÃ©s
Ġan nex
g as
ĠdÃ©velopp Ã©s
ĠAlle mand
dis ant
Ġdent aire
ĠSN CF
Ġpoly val
ĠdÃ©r og
Ġrenv oyer
ĠprÃ© dÃ©
ob el
du le
ĠdÃ©fin is
Ġaction naires
Ġmam ans
Ġm our
Ġexc uses
par ce
Ġexc ur
ĠComm une
Ġm uni
Ġb ourg
ĠD urant
Ġcinquant aine
Ġman quait
ĠÃ©p ic
appar ence
Ġven deurs
Ã©m a
ï ¿
Ġspectac ulaire
Ġf Ã©c
ch ait
Ġta mp
ĠtÃ©lÃ© vis
AF P
Ġc aisses
enti ment
Ġma Ã¯
âĢ¦âĢ¦ âĢ¦âĢ¦
ĠÂ» âĢ¦
len di
Ġhebdomad aire
ĠCan nes
pital ier
Ġla vage
i o
Ġ" .
e v
ĠP V
Ġautoris Ã©e
ĠÃ©mo tion
ĠprÃ©ser vation
Ġbi ologiques
Ġn Ã©s
Ġhandicap Ã©s
ĠE X
Ġbracel et
ĠS port
Ġparti cules
Ġint Ã¨gre
ass ainissement
Ġchron iques
Ġoptim al
ĠreÃ§ ois
erce voir
Ġmut ation
Ġph are
mi nement
Con formÃ©ment
ĠMar di
Ġsou le
Ġ: /
yst Ã¨mes
Ġpropre ment
c ulture
Ġg ame
Ġinu tiles
ĠdÃ©fin ie
Ġtent atives
Ġrele vant
Ġnom ination
ĠM Ã©tr
pos itions
ĠÃ©conom iser
tr ation
tr Ã©
ĠSÃ©n Ã©gal
Ġop ter
Ġcal mer
J our
C ES
A sie
l um
hor reur
Ġsp lendi
Ġner veux
ĠmaÃ® t
il ien
ĠrÃª vÃ©
Ġparlement aires
C OM
ĠsecrÃ©t ariat
Ġinc orp
us cule
se c
Ġ8 6
Ġidenti fiÃ©
Ġemb lÃ©
% ).
Ġboul anger
P ensez
[ âĢ¦]
ras ser
U T
M O
Ġfondament al
Ġ... )
Ġn aÃ®tre
Ġalli Ã©s
Ġafric ains
in ois
Ġ7 1
Ġg ants
Ġresp irer
Ġprofes sions
ĠvÃ©gÃ©t aux
A LE
ĠMer credi
au be
Ġin Ã©v
Ġpl aindre
e re
Ġ% ,
Ġdomes tiques
Ġbiblioth Ã¨ques
Ġres sembler
Ġcigare tte
Ġtou chant
Ġ12 5
Ġpay Ã©s
Ġlar ges
aler ies
Ġl us
ĠmÃ©trop ole
ici en
resp ons
Ġbl oquÃ©
Ġt urb
Ã© lu
ĠdÃ©v oile
ĠTe mps
ĠR Ã©volution
g et
Ġfin is
ab elle
Ġpermet s
Ġadress Ã©
Ġsupp rimÃ©
Ġestiv ale
Ġdou ces
ĠP ublic
Ġ( -
Ġ8 3
Ġsatisf aite
Ġla mp
ĠmÃ©t ab
8 2
ĠrÃ©s umer
j us
n otamment
ser vice
ĠÃ© met
Ġtransform Ã©
Ġ9 3
c ro
Ã¨ ler
ai mais
Ġs oc
ĠrÃ©p Ã©ti
Ġreli re
Ġm agnÃ©
N B
Ġcime tiÃ¨re
Ġla me
Ġfavoris ant
Ġdr og
Ġcor de
Ġexhaus tive
S cript
Ġexac te
gar dez
Ġdiff Ã©remment
c ette
Ġgr ise
tel l
ĠPr om
di os
et o
Ġsex uels
adi er
AU X
ĠdÃ©c ri
ĠscÃ©n ari
es pe
Ġserr urier
i onne
exp ert
ĠPatri moine
Ġex act
Ġtit ulaires
D Ã©b
Ġvi er
Ġwi fi
av ancement
Ġobser vÃ©
es tim
Ob ser
Ġfisc aux
Ġst aff
ĠÃ©crit ure
Ġpar lons
Ġtr on
Ġhum our
ĠVers ailles
Ġv Ã´tre
ore z
ra de
p al
Ġpro vient
Ġsoix ante
Ġprovin ci
och t
Ġcauche mar
Ġeff ec
ab at
ĠR ock
Ġr ange
Ġhau tement
8 7
ach ant
acc al
Ġhuman itaire
Ġservir a
mi des
Ġsous crire
vi ers
ĠprÃ©fÃ©r ences
Ġrest aurer
Ġabs orb
OU V
b en
ĠlimitÃ© es
P DF
Ġsp ons
Ġse ins
Ġprod uite
ĠdÃ© ception
D G
is ti
Ġpart ent
Ġcroy ances
ou ge
ĠT re
Ġcann abis
Ġsent ez
Ġpar don
ĠdÃ©fin ies
ĠB ible
Ġmal heur
ĠrÃ©guli ers
Ġmar ches
Ġqu ad
Ġassi ette
ĠF ac
Ġ5 000
ĠrÃ©gl ages
Ġrempl ace
Ġlour des
fr ance
Ġde uil
Ġsur veill
Ġr umeurs
pr och
Ġv us
Ġorient ation
Ġindustri es
ex trait
ĠRe d
Ġvolont airement
ĠrÃ©g lÃ©
Ġp iscines
Ġb and
Ġm y
AR D
ĠS imp
uri ers
Ġcomp orter
ĠÃī tat
Ġinterrog ations
Ġrefroi dir
n ose
ustr al
Ġmis Ã¨re
ath ie
Ġdispos ons
Ġrem or
Ġv el
Ġco hÃ©sion
ĠintÃ©gr ation
Ġcommun aut
Ġorient ations
ĠLi bre
Ġrelax ation
Tr op
Ġsuc rÃ©
Ġcog ni
ĠDroit s
Ġcons omme
ĠÃ©le ction
ĠcaractÃ©r istique
Ġquali fier
Ġmante au
Ġass ise
Angl eterre
Ġchev el
Ġp oule
Ġmerveille use
par ents
Ġdev ienne
Ġnu age
Ġtr am
Ġjudici aires
Ġven ons
oun t
Ġchem ise
ĠdÃ©sign Ã©
CH E
ĠdÃ©fin itif
ro vis
Ġp ente
Ġessay e
ĠcaractÃ©r ise
Ġsh amp
di ne
ann on
Ġami tiÃ©
ĠNorm andie
enne mi
par ation
Ġdiff usÃ©e
ci enne
ï¿ ½
ĠdÃ©termin Ã©e
ĠtÃ©lÃ© char
ĠL os
ĠdÃ©c enn
Ġpl ay
Ġaccomp li
â Ļ
t ous
Ġposi tives
Ġroul ants
Ġsp Ã©c
ĠM ir
ill ustr
ĠD ur
Ġrang s
Ġp end
ĠÃ©di teur
ĠP ri
ĠmÃ©d iterran
ĠlittÃ©r alement
oign on
Ġdot Ã©e
onn aire
Ġrob es
Ġindustri elles
Ġsyn drome
Ġgrande ur
ĠS O
app lications
ac ances
ĠimpÃ©r ativement
Ġlev ure
ĠTech n
Ġindi ces
ĠPro tection
Ġpos ts
Ġmanifest ants
Ġgagn ants
Ġcompagn ons
ĠMaur ice
y t
ĠBl og
app orte
ĠvÃ©gÃ©t al
ĠK o
Ġpl aqu
Ġdynam iques
Ġjuri diction
ti ez
ĠguÃ©r ison
Ġou est
ĠbÃ¢ tir
Ġdoul oureux
Ġmon des
Ġassure z
Ġindi rec
Ġst abil
ĠV incent
ĠprÃ© cieuse
Ġconf ie
Ġex ten
Ġrob inet
ende ur
Ġin tes
200 9
Ġj azz
Ġfr ai
c ela
us ez
Ġsoi gn
Ġdistribu teurs
Ġcap teur
ĠnÃ©glige able
si bles
Ġ: -
Ġfournit ure
Ġpanor amique
ĠrÃ©pond s
App le
Ġren oncer
Ġaccep tez
g s
Ġ19 45
ĠsÃ©qu ence
ĠchrÃ© tien
ĠsÃ©par Ã©s
Ġcop ines
ĠIn d
ĠmÃ©trop ol
ĠA ur
ĠmÃ©t aux
Ġfl ou
oph one
ĠrÃ©uss it
Ġrent rÃ©
Ġ8 9
Ġincontourn ables
inf ection
Ġdrap eau
Ġspaci euse
Ġc ouverte
Ġchante use
Ġens ole
ĠD oc
Ġar ra
Ġrub riques
orm ir
Ġgy mn
Ġs at
Ġrecti fication
Ġcoff ret
aiss ant
ĠcompÃ©ti tivitÃ©
Ġop tÃ©
Ġjam be
ls ace
ic s
ĠdÃ©c ont
Ġbord el
ĠCommun ication
Ġbloc age
Ġindi ce
ĠvÃ©gÃ©t ar
Ġbric olage
Ġnav ires
ĠW al
Ġesti ment
Ġcong Ã©l
Ġsor tis
b ul
urs us
Ã©mer gence
it te
v oi
Ġop inions
M C
ri a
Ġpap e
ins titution
Ġimp rimÃ©
Ġmunicip aux
ĠSec onde
Ġst rict
ĠdÃ©c orer
Ġcopropri Ã©tÃ©
In f
Ġmas ter
ul f
ĠÃ©lectr om
ar iste
owe en
aiss ait
ing Ã©ni
Jeu di
Ġenvironnement ales
in ets
Ġexc use
t an
Ġr ats
implant ation
ĠSeu lement
Ġcol onnes
Ġu p
Ã©v acuation
Ġannonc Ã©e
ol ais
Ġpont s
Ġinnov ants
Ġconfront Ã©
Ġsollic iter
Ġai mes
Ġcommun ique
Ġcommod itÃ©s
Ġo v
Ġadministr ation
Ġimp l
end o
Ġseni ors
ver sement
Ġexploit er
Ġex er
or ables
Ġmari Ã©s
al ition
en jeu
ĠLE D
at o
ĠD ommage
ine ment
Ġappro ches
ĠPar k
Ġislam ique
Utilis ateur
Ġindi quÃ©s
Ġ7 9
ĠdÃ©g ager
Ġv il
ĠP en
OR M
Ġle vÃ©
ĠP au
Ã©c riv
Ġbien venus
Ġch Ã©ri
ĠX D
Par fois
Ġtent ent
Ġdi able
Ġpren ait
Ġpens ant
oure uses
Ġdist ances
ch ers
xi Ã©tÃ©
Ġc uivre
ĠarrÃªt Ã©s
Ġb Ãªtes
ĠcÃ©lÃ¨ bres
Ġin telligence
ĠdÃ©grad ation
Ġla tÃ©r
ci ence
I ER
ath Ã¨que
ĠG Ã©
ui es
Ġor ale
id ence
ar ra
li te
Ġlit t
ach ats
C onf
emb auche
Ġcompl ets
er main
Ġb ourses
ĠN ath
ĠopÃ©ration nel
ĠB ac
ĠC ity
ĠCom bien
Ġpertin ent
Ġmanip uler
Ġaccueill is
G R
ĠÃ©lect or
In formation
Ġrec onstr
cul aires
Ġliqu id
Ġsilhou ette
ĠFin ances
Ġsouff rant
Te ch
toi ne
ais ie
omÃ©t rie
Ġbr osse
ĠDom in
F C
Ġlicencie ment
M Ã©l
Ġregard a
tin ation
Ġan onyme
at ation
Ġmulti mÃ©di
ĠC amer
Ġcompos ant
Ġam or
ĠJ os
Ġcr aindre
Ġconfront Ã©s
Ġrespec tÃ©
Ãī E
Ġdem ois
ĠamÃ©n agements
Ġcollec tives
Ġsur s
r aise
lin ge
Ġouv rant
C or
c as
7 9
al tern
Ġpro di
Ġcr aign
Le ur
pr op
Ġn ob
Ġlumin ositÃ©
di ctions
amb assade
Ġred out
Ã¨ bres
Ġcompos Ã©s
ĠS ou
Ġdiv ul
up p
Ġcy ber
Ġmascul in
Ġc ensÃ©
ĠC oup
ĠG i
Ġm un
ĠdÃ©l in
ĠBour se
Ġci bles
t ario
ĠcomplÃ© tÃ©
Ġsembl ant
Ġs tÃ©r
Ġf as
En se
Ġretr ans
ass ins
ant h
ĠAngl eterre
Ġcum ul
ĠhÃ©s itÃ©
om es
ĠgÃ©nÃ© reux
ĠB ri
ĠaÃ©ri ennes
Ġtomb ent
ĠB ah
ĠvÃ©gÃ©t ale
Ã© les
Ġs Åĵurs
Ġfondament ale
Ġ8 1
Ġrent able
Ġinter romp
ĠO livier
Ġassoci Ã©es
aur aient
Ġhom ogÃ¨ne
accal aurÃ©
ĠS olid
Ġcol lÃ©g
Ġj um
Ġrev ues
ĠbrÃ» ler
l ises
ĠmÃ©thod ologie
Ġoff ice
Ġa ig
ig nent
Ġsub it
ĠRoy al
Ġaimer ait
v oit
P ossibilitÃ©
est hÃ©s
Ġpesti cides
ĠCl aude
app are
Ġd ingue
w an
ĠpÃ©ri mÃ¨tre
Ġdu es
Ġind ustrie
Ġprob abilitÃ©
Ġemb all
Ġrenv oie
T he
ĠC ro
h ad
Ġnom bres
Ġguid Ã©e
ad el
Ġqual it
ĠdÃ©voil Ã©
oy Ã©s
at uit
ĠIn de
A lex
ĠrÃ©s olu
Ġrev Ãªtement
Ġbag u
Ġbou quin
si te
Ġtu Ã©s
Ġcompos ent
Ġapp uyer
Ġpris onniers
ĠdÃ©c line
ĠdÃ©t riment
ĠY outube
isc o
Ġplan ches
Ġver rou
eng agent
ĠPoli tique
Ġhabitu el
Ġform ulaires
Ġsex ualitÃ©
Ġnavig uer
Ġoccasi onne
Ġre dire
?? ??
or ama
ad opter
ĠbÃ©nÃ©fici Ã©
A ctuellement
ĠÃ©vent ail
Ġregret ter
Ġpar lais
Ġfr apper
Ġintellig ente
Ġessay ant
ĠT el
Ã§ us
obser ver
ill Ã©es
ĠfÃ©d Ã©ration
ag glomÃ©ration
Ġsouv ient
ĠtÃ©lÃ©ph on
ĠaÃ©ri en
ĠProfes sionne
Ġatten dez
Ġn an
h o
Ġ9 4
ous ser
Ġassur Ã©s
l ets
Ġcont es
ĠrÃ©t ablir
exc use
qu ets
ĠscÃ©nari os
Ġench aÃ®
il ation
ĠM ade
Ġcharm ante
Ġextr Ãªmes
ret our
Ġasc enseur
ĠÃ©lab orÃ©
Ġins titut
Ġvari ent
Ġcollec tÃ©es
Ġsig nÃ©e
Ġappr ouvÃ©
ĠJava Script
ĠO lymp
ĠD onald
Ġmons tres
Ġex erce
ĠD ub
Ġenvironnement aux
ĠH ab
Ġad h
Mer credi
Ġaffi ches
Ġflex ibilitÃ©
ĠAmÃ©ric ains
Ġperd us
Ġf oire
re lle
ĠW orld
Ġpe indre
Ġcondu cteurs
Ġpi x
U C
Ġreti rÃ©
ĠprocÃ©d Ã©s
ĠdÃ©roul ent
entraÃ® ner
Ġc ursus
Ġdiv in
inst ar
Ġnom me
ĠsÃ© duit
Ġur gent
ĠWord Press
n d
an ime
ĠM el
app uyant
Ġadministr ateurs
Ġle vier
Ġren de
Ġspiritu el
od y
Ġsouhait s
ĠsÃ©par Ã©
Ġpe ines
Ġvigil ance
Ġhy bri
anc y
Ġprot ot
Ġhom osex
ĠM aj
ĠV ill
Ġcontr aste
ĠC onn
Ãī ducation
dom in
Ġst ars
accord er
ĠthÃ© Ã¢
Ġl ob
Ġdangere use
Ġsau te
Ġposition ner
ad or
Ġvoy ais
oc s
et c
Ġdomes tique
ori enter
Ġcath Ã©drale
ĠDis ney
Ġbar be
Ġn aÃ¯
Ġno tice
Ġmunicip ales
ĠR Ã¨glement
Ġcyc les
m itÃ©
UR S
ĠrÃ©c onc
Ġar chi
ĠMich ael
Ġo deurs
Ġgros s
Ġsatisfait s
vid ence
Ġvi rement
mis s
o ches
ĠrÃ©p Ã©tition
6 1
Ġsouri ant
8 1
Ġsinc Ã¨re
Ġrequ ises
ĠH ong
ciplin aire
Ġ8 7
Ġgri ppe
Ġall aient
Ã©tudi ants
ale ine
ĠChris tian
PrÃ©s entation
appel ons
Ġport ables
Ġd out
accalaurÃ© at
ĠrÃ©volution naire
Ġco que
f Ã©rence
Ġenvoy Ã©e
Ġb ack
Ġrest Ã©s
Ġsurm onter
ĠA tt
Ġdisc ut
Ġquotidi ens
Ġtend resse
ĠsÃ©v Ã¨re
l ots
ĠÂ ©
B retagne
Ġintro duit
Ġchap elle
P N
ĠP ou
ĠdÃ©c onne
En vie
Ġab rite
ud ence
Ġallemand s
raise mbl
Ġb av
autom obile
ĠA sie
Ġsp amme
Ġar om
Ġul tÃ©rieure
la ve
Ġabs olu
Ġapport ant
ĠsÃ©min aires
D R
Ġconsac re
Gr and
Ġsent ait
form er
Ãī R
Ġla tin
Ġparcour u
Ġju pe
Ġterr asses
Ġviol ation
Ġref lÃ¨te
inf ir
p tes
Ġc Ã©der
ĠF ig
Ġvois ine
ĠU r
ĠS ER
Ġtrans it
Ġrede v
Ġdipl Ã´mes
tÃ©r itÃ©
Ġport ait
Ġmari ages
Ġm oule
ĠreprÃ©sent Ã©
Ã©m o
Ġservi ettes
Ġde ttes
Ġdes qu
ĠOr ange
v elop
Åĵu vres
Ġparfum s
ph e
Ġretrait Ã©s
Ġbrill ant
Ġdisponi bilitÃ©s
blioth Ã¨que
Ġcuill Ã¨res
ĠE UR
p ersonne
Ġc assÃ©
ist ent
at ernitÃ©
p oint
Ġterr estre
Ġgend armerie
Ġin fini
Ġrencont rent
Ġdur Ã©
ĠÃ© oli
Ġsoud ain
ent rai
Ġval oris
ouve ment
At lantique
Ġ ^
opath ie
Ġbas ket
Ġeffe ctif
ĠO K
Ġvisite z
ali mentaire
ĠN um
entr ainement
ĠdÃ© tient
ĠdÃ©sagrÃ© able
3 00
Ġvois ines
ĠÃ©quilib rÃ©e
ang Ã©s
ĠpÃ©n al
acc Ã©l
Ġcontinu Ã©
ign on
prÃ©s ent
am use
Ġos Ã©
Ġphotograph es
g arde
Ġfr ance
Ġbou gies
ĠdÃ© tÃ©ri
ĠChamp ionn
Ġsoi f
Ġcur ieuse
Ġsim ulation
expl oration
Ġconc ret
Ġcou reurs
qu ins
ĠR ess
Ġr hum
Ġentre tiens
ĠnÃ©g ative
aille ur
au ph
Ġbou chon
ach el
h is
Ġtravaille ur
Ġcol oni
Ġcrois sant
Ġsc ri
ĠComp agn
di ct
ĠM oh
Ġcl ause
ĠÃ©c outÃ©
Ġman ne
C S
Ġenv eloppe
Ġ9 1
ĠdÃ©ci dent
ĠrÃ© alitÃ©s
Ġcou dre
ĠÃ©cri vain
Ġrou tier
ĠT es
ici el
N Ã©anmoins
ĠS o
Ġbou quet
Ġcap s
ĠrÃ©clam ation
ĠIntern ationale
Ġpati n
iss antes
Ġinterpr Ã©tation
Ġconsul tÃ©
Ġpers Ã©v
Ġhab ite
vir on
v ette
Ġcrois Ã©
Ġcal i
ĠC in
ĠR hÃ´ne
Ġv ents
ĠrÃ©glement aire
di alement
Ġeffect ue
OUR S
Ġpassionn ant
T ant
ĠPort ugal
Ġcit ation
ĠSp Ã©ci
Ã©tudi er
Ġsold at
Ġmin es
ĠmystÃ©ri eux
at titude
ĠM ettre
h Ã©e
Ġbiscu its
l iste
ĠCali for
ist ante
en vers
t op
Ġath lÃ¨tes
Ġje an
Ġch ol
Ġsau vet
Ġ9 6
ur rent
ĠÃ©c os
Ġmont ants
ĠÃ©p aisse
je ction
C ol
Ġpost ure
Ġexp ressions
Ġretr aites
IN S
enregistre r
Ġvis ages
ot on
Ġrep orter
ĠH arry
ĠO s
Ġfourn ie
ĠexpÃ©riment Ã©s
ĠÃ©quilib rÃ©
F S
I ran
ĠT E
Ġtou chent
Ġinc lut
av age
Ġillus tre
Ġb Ã©m
Ġjus tifie
Ġdessin Ã©e
Ġattend us
Ġenvironnement al
Ġca usÃ©
Ġs tip
Ã ¡
Ã¨ ves
at tirer
Ġpul l
ati ser
Ġgu Ã©rir
ĠdÃ©p ist
Ġprofond es
ĠcollÃ¨ ges
exp lication
Ã©v olu
Ġrot ation
Ġmagaz ines
Ġfou tre
oc alisation
Ar c
Ġg age
Ġspamme urs
interrog er
Ġmod ernitÃ©
+ +
d en
ĠC S
Ã´ nes
ĠagrÃ© ment
ĠmÃ©r itent
u Ã©e
Ġnot aire
ĠBl anche
Ãª ne
M o
Ġchauss Ã©e
ĠÃ©vent uelles
oule ur
Ġdiri gÃ©
Ġnoctur ne
y on
Ġpu its
U NE
ic o
Ġoffici elles
cont r
ch ets
ĠCrÃ© ation
ĠbÃ©nÃ©fici aire
ĠrÃ© activitÃ©
ĠrÃ©s olutions
ĠM aman
Ġterr oriste
Ġtransf erts
Ġenregistr Ã©es
Ġamb itions
ĠintÃ©ress Ã©e
re au
ĠfÃ©lic itations
ĠS and
Ã©lic itations
Fr anÃ§ois
ĠmaÃ¯ s
ur age
Ġpo tes
Ġprocure ur
ĠadÃ©qu ate
as on
Ġmo indres
inter roge
ĠintÃ©ri eurs
Ġval ise
ĠT a
ĠdÃ©tail lÃ©es
Ġprud ence
ĠpÃªche urs
Ġcontr o
Ġventil ation
enseign ant
Ġs oyons
ĠLe urs
L undi
ĠexpÃ©riment Ã©
G ar
Ġcle f
Ġvi der
Ġcamp us
Ġ198 6
Ġatta quer
ins titut
ĠcrÃ© ent
ĠJ ames
av el
v p
Ġconj ug
Ġmont res
ĠlÃ©g ers
Ġsuff ira
Ġcomp licitÃ©
Ġagr o
att ent
Ġconcr Ã¨tement
A tt
Ġenthousias me
ph el
ock ey
Ġces sion
Ġaur iez
Ġdemand ait
L uc
ĠâĢ¦ )
ĠK i
Ġmes sieurs
ĠamÃ©n agÃ©
Ġj etÃ©
ĠdÃ©li cieuse
ĠSam s
ĠmÃ¢ le
Ġspiritu elle
Ġpatri m
ing ues
ĠS mart
Ġatten tivement
Ch oisissez
Ġref let
ois eau
ĠlÃ¢ che
z er
Ch acun
Ġconser vÃ©
Ġbatt u
analy ser
Mar di
ag issant
Ġimpli quÃ©s
Ġmal heureux
ĠâĤ¬ ,
Ġtr ott
ĠrÃ© veille
al g
Ġhoriz ont
Ġpl ut
Ġtravers Ã©e
Ġlen tilles
Ġenregistr Ã©s
Ch ap
Ġpo dium
oi ne
par ti
Ġmer c
Ġt we
ph Ã©m
ĠcÃ©lib ataires
Ġcom ble
fi ces
ĠRe vue
t ures
C entre
ill aume
Ġser vant
i fs
ĠC oc
di es
u ation
Ġhab il
Ġcamb ri
ĠchrÃ© tienne
Ã©d ent
ĠimpÃ©r atif
Ġexcep tionnelles
Ġ oignons
resse ur
IN T
Ġmine ur
Ġimpecc able
200 8
Ã©l arg
Ġsymb oles
ĠirrÃ© proch
ĠÃ©p ices
Ġapp Ã©
Ġexclusi f
asse oir
adi e
Ġver ras
Ġmodi fiant
ĠdÃ©j eu
ĠsÃ©cur iser
Ġfix Ã©es
Ġex Ã©c
ĠprÃ©cau tion
Ġaffir mer
ĠrÃ©sid ences
Ġfili Ã¨res
O O
h uit
Ġpuis sions
Ġv Ã©t
j ug
oo ter
w ood
imp rimer
Ã©t an
Ġfi Ã¨vre
ĠdÃ©c Ã©d
Ġcitoy enne
Ġjudi cieux
all on
Ġesp agnole
Ġpri oritaire
orm al
ĠC y
Ġbar b
Ġd urs
Ġvi des
Ã©ri tif
Ġbapt Ãªme
ĠindÃ©sir ables
Ġsupr Ãªme
ct rices
vi a
tig ieux
Ġconc lut
est r
Ġalli ance
Ã¯ n
Ġfr act
Ġdou bles
Ġconsid Ã¨rent
ĠF am
Ġtransmis es
Ġenn uy
Ġtransf Ã©rer
Ġlit re
Ġ! ...
Ġsus pend
amb ition
ĠdÃ©mar re
Ġt Ã©n
ĠW E
ori ent
Sp Ã©ci
CrÃ© er
est ri
Ġconf ond
Ġgr a
Ġmanque z
Ġvol can
enti elle
ĠcÃ©lib ataire
ĠopÃ©ration nelle
Ġdistribu teur
Ġcass ation
Ġpersonn alisation
Ġvis ent
ĠMondi al
Ġva che
Ġass umer
Ġf estiv
aÃ® tra
S Ã©
Ġch Ã¨res
Ã© puis
ĠS AR
asse ment
Ġrecru ter
Ġis olÃ©
Ġsous cription
Ġpoub elle
B A
Ġcou ler
lÃ¨ vent
Ġreb ond
Ġann uels
acc orde
Ġtic ket
m ond
Ġinf ections
ĠdÃ©fil Ã©
Ġconc rets
v o
M is
' .
Ġmotiv ations
ĠmaÃ®t resse
Ġattribu Ã©
Ã©c o
ar te
et ter
ous tique
Ġde l
ĠGren oble
Ġverd ure
h al
ĠÃ©t endue
ill us
Ġs pec
Ġaudi ence
Ġdram atique
Ġscri pt
Ġpres cription
ĠSams ung
ĠJ ac
Ġt ape
G estion
Ġpr ouvÃ©
omm ande
IS T
Ġab Ã®
Ġorigin aire
Ġpos ez
ci Ã¨res
Ġin novation
tis ation
Ġlinguis tique
Ġatta chÃ©
Ġg Ã©rÃ©
ony mes
Ġplant er
Ġin visible
Ġtrouv es
ĠdÃ©velopp ent
Ġsui vis
Ġfestival s
IL L
al uminium
Quel qu
Ġref er
Ġcir que
ti ciens
Ġ! ),
Ġrab ais
ĠOu vert
Ġsal adier
Ġb aby
ĠpolÃ© mique
Ġhorri ble
ĠS oyez
Ġretrouv Ã©s
Ġform alitÃ©s
ĠO c
tr avail
hos pit
Ġattend ait
Ġdirec teurs
ĠdÃ©ten us
Ġma de
ĠÃ© d
Ġat yp
affir mer
Ġcombatt ants
ob i
Ġess ence
lÃ¨ve ments
est Ã©r
Ġcan alisations
b aye
Ġgr ati
out s
ĠP IB
Ġcherche ur
Ġpr ier
ens Ã©e
s elon
Ġappro xim
Ġab e
Ġsau mon
ĠprÃ©c oce
Ġprogressi ve
Ġinc iter
Ġsond ages
access oires
Ġfem elle
Ġfati guÃ©
ction naire
Ġc rier
Ġoblig Ã©s
Ġrefr oid
Ġress ens
Ġavant ageux
Ġtr ac
Ã©lÃ© g
Ġnour rit
Ġfin issent
Ġp c
Ġrenouvel able
ĠP o
og o
Ġsign ale
ĠT ok
Ġap pelez
el ler
Ġs te
Ġcray on
Ġattend ue
ĠrÃ©c onfort
ĠcompÃ©t ents
ĠdÃ©lÃ© guÃ©
ĠI V
os es
Ã©limin ation
ĠÃ©g lises
Ch ambre
ai ment
au tique
Ġchamp ions
Ġou ais
ĠÃ¢ mes
is pr
ĠÃ© nig
En vironnement
it ait
Ġpo Ã¨me
Ġsavoir s
Ins crivez
Ġinconn ue
Ġsorti ra
Ġcord es
Ġmention nÃ©s
Ġobst acle
Ch er
ĠFre e
Ġjoin ts
ĠirrÃ© g
j o
Ġaband onner
Ġprud ent
Ġamp li
ĠA M
ĠT able
Ġpo chette
ĠrÃ©c its
it r
ex ig
Ġtutori el
T iens
ĠS S
Ġsau na
ĠdÃ©cal age
un t
Ġappropri Ã©e
ĠP orte
Ã©ch apper
Ġu tilitÃ©
Ġ198 8
Ġmes se
Ġv om
Ġfir me
In d
Ser vice
Ġdirec tives
er g
ĠC F
ĠrÃ©sult ant
Ġliv rÃ©s
ĠpÃ©n Ã©tr
oli te
ĠXX e
ĠdÃ©p Ã´ts
Ġfact uration
ĠrÃ©cup Ã©rÃ©
imp Ã´ts
Ġimmun itaire
tiss ant
Ġpermet tait
ĠAngel es
Ġrac isme
RÃ©s umÃ©
Ġsouff r
ag one
Ġafric ain
Ġsyn onyme
alis ant
ĠÃ©v itant
Ġpri ver
Ġesc aliers
ĠMondi ale
ĠvÃ©gÃ©t ation
Ġanim Ã©e
i Phone
ĠV u
Ġpatient er
ĠV ar
Ġcommunaut aires
E ducation
c tÃ©
Ġadministr ations
Ġan ges
Ġgentil le
Ġeffec tive
Ġch Ã´me
Ġmoul in
cont res
Ġb ob
Ġcompli quÃ©e
Ġdemande ur
Ġacc Ã©lÃ©rer
Ġroy ale
Ġplani fier
Ġcon venir
ĠChrist ophe
Ġmatin s
ov olt
Ġtermin al
ysi que
ĠS ac
ĠindÃ©pend ance
ĠI mm
Ġren ommÃ©e
harm onie
Ġlim itation
ĠmÃ©tÃ©or ologiques
Ġcour onne
r ome
Ġpom pes
Ġbanli eue
ĠdÃ© d
Ġexp lic
La urent
!! !!!
ĠL or
Ġgr ains
Ġprim aires
ĠtÃ©m oigner
Ġ19 50
Ġcam ions
Ġrec ourir
Ġorgan ique
Ġcan ard
Ġpopul aritÃ©
ac tes
Ġso ja
Ġr ugby
Ã©m on
Ġordonn ance
R L
Ġ" ,
ĠprÃ©f et
Ġpat rons
iter ie
ĠcomplÃ© ments
Ġore ille
Ġmari Ã©
ĠMar chÃ©
Ġappar u
ĠC op
ĠCol lÃ¨ge
Ġti mide
Ã©p aule
ĠCrÃ© dit
Ġcap teurs
ĠMar ti
as y
h es
ĠÃ©tabl is
Ġp uri
Ġfrag iles
Ġeng end
Ġav al
ĠconsÃ©cu tive
Ġpro ble
oli tion
Ġcomp enser
Ġgl yc
Ġpour rions
Ġautre fois
Ġrel ance
Ġferrovi aire
or n
ĠvÃ©gÃ©t ales
Ġver b
Ġreconn ais
ch o
ĠdÃ©p endant
Ġcop ies
ĠbÃ©m ol
ĠbÃ©nÃ©fici ant
Ġperform ants
ĠGr os
u de
J acques
Ġman us
Ġfav ori
ĠJuli en
Ġval ent
ĠAnd rÃ©
ong es
Ġvi ves
Ġretrouv Ã©e
Ġson ores
Ġmajoritaire ment
Ġcaf Ã©s
ĠreÃ§ ue
Ġcap ture
Ġins pirer
Ġent er
Ġcar tons
Ġgal Ã¨re
ĠSem aine
ĠT i
Ġabs ent
Ġportrait s
ĠÃ ´
ĠD ame
ĠN ombre
Arr ÃªtÃ©
qu ier
Ġcenti mÃ¨tres
ul ateur
Ġcomport ant
excell ents
Ġchamp agne
C N
Ġlicen ci
ĠN Ã©
ĠEur os
Ġsusc iter
ab us
Ġab orde
Ġcompar Ã©
Ġmens onge
Ġd entis
Ġp Ã¨ler
s ent
Ġpertin entes
ĠN ov
Ġastu ce
Ġpo ker
escal ier
Ġb rig
C oup
Ġabord Ã©s
ang oisse
Ġdiver tissement
ĠA fric
rais ons
ĠnÃ© f
Ġexcell ence
Ġinter actions
ĠÃ© lig
Ġtox iques
Ġempl acements
Ã©t endre
Ġag gr
ER T
Ġpri mes
ĠS ky
ĠfrÃ©quent ation
Ġchaud s
Ġn Ã´tre
ĠentraÃ® nement
it o
Ġinqui Ã©tez
Ġsembl able
Ġcl ari
ĠP yrÃ©nÃ©es
ossi er
Ġvaisse au
ĠprÃ©fÃ©r Ã©es
Ġfourn issent
Ġus Ã©es
ou illes
E mpire
Ã¨ des
archite cte
ĠB lu
ĠsÃ©cur itaire
ĠH Ã´tel
Ġmo che
ĠÃ© ditÃ©
Ġabord Ã©
I O
iss Ã©
Ġgr oup
exp rime
A vis
u ils
ĠSoci ale
â ĺ
g ents
ĠSyn dic
hypoth Ã¨se
Ġcommen Ã§ait
Ġt ag
Ġench Ã¨res
jour nÃ©e
Pers o
dÃ© p
ĠP A
Ġch imie
Ġcont rai
Ġforc Ã©
ĠT OUS
Ġsent ais
ĠrÃ©col ter
ĠâĤ¬ /
Ġcr is
ĠL as
Ġs obre
ĠcinÃ©m at
H ab
ĠCh au
âĸ º
Cl aude
Ġrep Ã¨res
Ġaut ocht
Ġfix es
appr och
A mÃ©li
Ġcommen Ã§ant
c op
ĠM at
Ġtu bes
ĠAr ticle
ĠSitu Ã©
Ġc ouver
ĠrÃ©clam er
ag iste
initi ation
th e
for um
y pes
ung le
ĠdÃ©ter mine
D D
Ġestim ation
Ġpl uies
Ġs log
Ġsaur ont
Ġvari Ã©
Ġp ig
Ġf assent
Ġre vers
ĠW est
fi ants
ĠD on
ĠE ric
Ġvoul aient
ĠDes ign
Ġsin istre
imag in
ĠcrÃ© atifs
Ġacc rue
ĠM iss
c p
ĠpÃ©n Ã©trer
Ġcompt ait
inv itation
Ġam Ã©nagement
ĠrÃ©tr act
Se ine
ĠA ctu
ĠC uisine
Ġan ge
P AR
I le
Ġdirect s
Ġpros p
ii ii
Ġanim Ã©s
ĠT ex
Ġ198 5
Ġt unis
Ġapp ortÃ©es
Ġrais onnement
ĠD o
ĠhiÃ©rarch ie
ĠJ oseph
ĠQ UI
Ġus ines
itoy ens
UN ES
Ġrespect ent
ĠI dÃ©al
Ġpanor ama
Ġr oche
Ġreven dications
ĠCong o
gr aph
ĠprÃ©v oy
Ġremis es
Ġfun Ã©r
Ġ198 4
Ġfrom ages
ĠsÃ©jour ner
Ġin fin
d am
ĠdÃ©pist age
ĠBus iness
Ġc uit
ĠfrÃ©qu ente
ĠC elles
Ġqui conque
Ġritu el
F or
Ġass iste
Ġbor nes
Ġbulle tins
ĠWe ek
ĠdÃ©f aill
li min
Ġspect ateur
Ġpass es
Ġrestri ctions
arri Ã¨res
ĠÃ©vent uel
IN G
Ã©s itÃ©
ĠB oul
Ġn oci
ĠF emme
Ġmur m
Ġgig antes
ĠintÃ©gr Ã©s
ĠÃ©c ris
ĠdÃ© charge
Ġpouss ent
est omac
Ġport ug
S ource
Ġser v
Ã©n avant
occ urrence
ĠrÃ©p ression
Ġrespec tivement
Ġprivil Ã¨ge
Ġ9 7
ĠÃ©lÃ©g ante
Ġpar tez
Ġsouten ue
Ġtun nel
out ch
c oin
\\ '
Ġinvent Ã©
Ġray onnement
ĠC ir
Ġsculpt ure
ĠÃ©ti quettes
Ġvi d
Ġf Ã¢
ĠFin alement
acc ouchement
ex am
Ġ% )
est hÃ©tique
ti mi
Ġn ois
Ġatt rib
Ġpouss Ã©e
Ġf oncÃ©
Ġinnov ante
Ġfig ures
met s
ĠR apport
Ã© z
ĠnÃ©g atives
ĠS ports
Ġconsens us
Ġfinance ments
Ġa ire
rou ille
Ġca chÃ©s
vi tez
An ne
S av
Ġbal ader
Ġanne xe
Ġacc orde
Ġport s
R apport
Ġen gl
Ġpres sions
Ã©lic opt
Ġsix iÃ¨me
ĠR am
ĠpÃ©ni ble
ou g
li eu
ĠÃ©v oquer
ulli tion
ĠC aisse
Ġrem Ã¨de
Ġbr ouill
Ġar abes
de puis
fi g
ĠrÃ©s iste
Ġdeme urent
Ġmassi ve
mi re
Ġal erte
ĠcÃ¢ bles
ĠPro duits
Ġtou chÃ©s
P H
Ġexpos er
O Y
Ġinspir Ã©e
O IS
enti eux
Ġfin esse
ĠpÃ¢tisser ie
me aux
Ġrapp orter
ĠdÃ©s astre
Ġm iss
ĠdÃ©c oupe
Ġsilen cieux
Ġpl as
Ġim migr
ussi ons
Ġad os
Ġl ente
Ġarriver a
Ġop us
Ġmodern isation
Pre miÃ¨re
ĠdÃ©j a
Ġdire z
d v
ti ges
Ġchasse urs
Ġcour antes
ĠrÃ©f Ã©rer
c tives
Ġstat ue
A ni
Ġpou les
Ġmor ph
Ġg ang
ĠrÃ© cip
ange z
w in
ard es
Ġfili ale
Ġchauff Ã©e
Ġall ong
ĠM as
Ġambi ante
Ġfinanci Ã¨rement
Ġbien veill
Ġn uire
ĠPh il
Ġsau vÃ©
ain er
p ins
Ġpar ap
Ġaut oc
ĠB os
Ġfondament ales
Ġtom ate
Ġtuy aux
â ĨĴ
ĠgÃ©n Ã¨re
n ac
Ġ ours
Ġfonctionne lle
Ġsoi e
aug uration
Ġair s
Ġrappr och
Ġraci ne
Ġb ond
Ġphot ovolt
ĠprÃ©occup ation
Ġautom obiles
Ġsyn chron
ak i
Ġcrois sante
Ġatt estation
Ġpizz a
Ġjur ispr
Ġc yl
ven ues
Ġpassionn Ã©e
ven ez
Ġorient er
ES S
Ġcar ottes
inter venir
Ã¨ lent
Ġc ents
F I
ĠAss oci
ĠO k
% ),
chÃ© ance
id is
Ġbr iser
ĠAl l
oo oo
Ġpertin ente
ĠGe orges
ore l
ĠapprÃ©ci Ã©e
ĠrÃ©habil itation
Ġc ite
Ġnom mer
ĠacadÃ© mique
Ġent rent
p o
end rai
Ġoccup Ã©e
Ġ198 7
Ġrest ru
Ġanim ateurs
ĠLi v
Ġemb au
ad ulte
oxy gÃ¨ne
ĠR ay
Ġcol orÃ©
Ġm p
aff ection
Ġapporter a
Ã©n ie
ĠRich ard
Ġcout ume
explos ion
ĠsÃ©lection nez
R es
Ġinno vant
Ġamende ment
H Ã©
ĠM ieux
ĠMad rid
Ġp urÃ©e
Ġconcr Ã¨te
Ġper c
Ġrecons truction
Ġb osse
ingÃ©n ieur
at Ã©
oy eux
ache ment
Ġpr Ãªtre
ĠtÃ©lÃ©c ommun
ĠindÃ© ni
ĠTh aÃ¯
Ġmen tions
AC E
Ġinscri vez
Ġrepr oche
A yant
Ġcanc ers
Ġp df
Situ Ã©e
og er
Ġbar res
Ġrelie f
Ġad joint
ac adÃ©mie
ĠbÃ©nÃ©v ole
Ġun ies
Ġaltern ance
ent housias
Ġhabitu Ã©
ic Ã´ne
Ġtranspar ent
des c
Ġfin itions
pre miÃ¨re
appr opri
an y
Ġminim ale
Ġjou es
Ġval ait
ĠrÃ©sid entiel
Ġtrait Ã©e
Ġs ien
le in
Ġcommun al
Ġtour nent
Ġmul tic
ĠÃ©c art
Ġob Ã©
ĠPas cal
fi ction
Ar ri
ĠCan al
g ouv
acie uses
ence inte
Ġmag iques
Ã Ĥ
mÃ©di aires
E uro
Ġsimult anÃ©ment
ore illes
Ġr p
v oy
Ġbo Ã®
ĠS k
Ġmention ner
ĠcÃ©lÃ©br ation
ĠBle u
Ġau d
Ġchois issant
Ġan ten
V er
Ġach Ã¨te
Ġcan ne
Ġdi eux
Pos tÃ©
Ġfer mes
hab iller
Ġfr au
eff ond
Ġesp Ã©r
Ġcra quÃ©
ce au
Form ation
Ġfailli te
ore rie
ĠtÃ©lÃ©ph oniques
am ande
Ġinc lure
v ol
or at
Ġimp ren
Ġver tes
Tr avail
c elle
ĠA VE
Ġpost al
artis anat
ĠCalifor nie
ol fe
ĠD onnÃ©es
ĠcrÃ© ative
ĠR H
Ġois eau
ĠsÃ©rie uses
ĠV all
Ġtou chÃ©e
Ġin dex
Ġtrouver as
Ġco ord
bo ard
ĠMus ique
Ġper cevoir
in n
Ġtravers Ã©
G PD
S ec
Ġtre mp
Ġparu tion
L S
ĠF B
Ġs ombres
ĠcrÃ© ature
ĠlÃ©gÃ¨re tÃ©
TÃ©lÃ© charger
ĠS ant
Ġmultip lier
u ment
Ġaccompagn ent
ĠC afÃ©
EN CE
Ġcontr aint
ĠÅĵu v
Ġsoc le
A ction
Ġtrajet s
Ġapprofon die
Ġl oyers
Ġtr acÃ©
ĠdÃ©liv rÃ©
Ġpropos era
ĠH u
Ġpl ain
ĠÃ©lect oral
ĠC amb
Ġbr Ã©s
App el
Ġau dit
Ġar g
ĠM att
ĠfrÃ©qu entes
Ġsub til
Ġvi ctoires
Ġmin istÃ©ri
Ġmaj eures
ĠRD V
C r
ĠprÃ©par Ã©s
v iens
ĠDom aine
or cer
Ġin cident
ĠW illi
Ġloup s
Ġcomp tant
ass o
ale m
ĠStre et
Ġdat a
ĠMER CI
QU ES
ille ur
Ġl oy
Ġdangere uses
Ġadress Ã©e
L ocation
ĠS M
ordonn ance
Ġcul inaire
Ġhos pitalier
um Ã©s
Ġconstitu tionnel
Ġaff ili
onn ette
eff ici
Pro jet
** **
Ġc aill
ĠCanadi ens
ĠG ame
Ġconv iennent
tr uire
ĠNe ws
intÃ©ress ent
m ann
ge z
appr Ã©h
le ctr
ĠPersonne llement
ĠJ ui
Ġdev iner
Ġcon quÃªte
Ġprof itent
ĠrÃ© duits
P C
gÃ© ni
Ġsupport ers
x ion
Ġmut u
ol isme
ĠdÃ©clen cher
R S
Ġs qu
z heim
ĠG il
Ġcar dio
Ġar mÃ©s
Ġmen uis
ge ance
Ġmil lÃ©
ĠV in
Ġfix ant
Ġpl aign
an z
Ġcompati bles
di eu
Ġan ime
man ches
ĠM AIS
P ad
ĠB TS
Ġprati quÃ©
Ġ ]
ĠR T
ins pire
Ġban niÃ¨re
Ãī S
Ġvit esses
ette ment
n ait
Ġclair s
Ġjui fs
Ġrecueil lies
Ġch ier
ĠSE O
ĠcompÃ©t ente
Ġbord ure
Ġ2 20
Ġsoph isti
ĠintÃ©gr ante
ĠdÃ©par ts
us que
om s
Ġcac ao
oin ts
Ã©di ction
Ġ17 0
ĠR och
Ġsuis ses
orde ment
Ġpan el
og Ã¨nes
Ã©p id
Ġs onne
Ġenv oi
Ġbon bons
Ġrep ouss
Ġfig urer
Ġinter dits
ĠC oll
ĠdÃ©lic ates
ĠV ieux
E X
Ġpsych ologue
Ġquoi que
ĠÃ©cri v
ĠFor ce
Ġno v
Ġâ ĸ
Ġcostu mes
ĠopÃ©r ateur
att ach
al liance
Ġhoriz ons
ĠnÃ©cess itant
ĠA voir
h in
Ġbout s
Ġcha os
Ġapp orts
ĠHaut s
inf lation
Ġcontre partie
Ġrappel ons
en lever
ĠhÃ´ pital
ĠAn g
J E
ob Ã©
Ã©di a
Ġexist ait
D enis
ĠÃ©ch o
Ġb ottes
Ġvisi onner
S Ã©lection
atric ulation
Ġqu ai
qu itÃ©
Ġfon ciÃ¨re
l issement
Ġs ulf
Ġanc Ãªtres
ph a
a cher
res sez
Ġf uites
ĠdÃ©bat tre
Ġbl oque
Ġr Ã´
Ġtr ousse
Ġindi ffÃ©r
Ġvi gnes
p ied
Ġvain queur
imp lication
ĠS or
Ġpne um
R Ã©g
Ġrembours Ã©
Ġp ensions
! ).
Ġ( "
ĠK ing
Ġar tÃ©ri
Ġt ons
Ġdis tr
ĠdÃ©liv rer
Ġgros si
h umeur
Ġimp lication
ĠrÃ©p ublique
Ġlas se
onn aise
Ġsol itaire
Ġvacc ination
c inq
ĠI le
Ġh Ã©ri
Ġpo Ã©tique
ĠBi bliothÃ¨que
Ġang ois
Ġobten ez
Ġachet ez
tiss ants
Ġconvi ctions
ĠÃ©volu ent
Ġb amb
y an
Ġchoc s
ĠirrÃ©proch able
Ġcapit alisme
.... ...
chÃ© itÃ©
ĠdÃ© dic
Ġdu p
Ġliv raisons
M ER
Ġex prÃ¨s
cie usement
ĠJeunes se
Ġretour nÃ©
ĠgÃ©ni ale
uf act
ĠP resse
ĠnÃ© er
Ġabe illes
ai gner
Ġb oy
os tÃ©
Ġpropag ande
Ġexpos ants
An ti
ĠF our
Ġposs Ã©dez
ĠrÃ©c rÃ©
ĠT ar
Ass urance
ĠC ler
pr Ã©
Ġgr amm
Ġconvers ations
Ġcour be
ĠPr oc
ĠG au
Ġat tÃ©n
Ġgour mande
Ġs w
Ġcollec ter
Ġgri mper
s ter
Ġcre user
Ġp aill
Ġhypoth Ã¨se
Ġracont Ã©
Ġpart agÃ©s
Ġten ons
ass ister
ĠÃ©vid ente
on a
ĠdÃ©l it
ĠcoÃ»te ux
ĠM oul
ĠAss ociation
ĠG old
Ġmotiv er
Ġpl aintes
ĠS om
Ġgraph isme
ĠdÃ©sir ent
Ġch asser
Ġvier ge
ĠP at
Ġcircons cription
ĠÃ©pr ouv
Ġd its
Ġeng agÃ©es
ĠM ess
Ġbatt us
intÃ©gr itÃ©
appr Ãªte
che veux
TI C
Ġret omb
Ġdr ag
Ġrapp ortÃ©
eu f
b ois
Ġj oies
Ġb ague
Ġdi manches
Ġcr Ã¨che
ĠexÃ©cu tif
v il
ĠdÃ©b lo
ĠH i
Ġbanc s
Ġdiff use
Ġf Ã©li
ĠCar te
Ġrevi endra
Ġcapit aux
Ġinf ec
ĠI SO
Ġmigr ation
ĠN ap
Ġplu vi
Ġvis Ã©
Ġexpli quant
Ġreste z
Ġbou illon
Ġlyc Ã©ens
ĠT err
Ġsouffr ances
Ġcompt ables
M me
ĠBi o
Ġdire ctions
Ġfac ettes
' m
Ġcab ane
Ġer ron
Ġstre aming
An d
Ġcomp lications
ĠnÃ© o
Ġpi tiÃ©
Ġflex ible
ĠdÃ© mission
estÃ©r ol
A mb
ou lement
Ġag enda
ĠtÃ©lÃ©ph onie
it z
Ġcol line
Ġre quiert
activ es
Ġcons oli
Ġmarchand s
is cine
Ġt onne
Ġsplendi de
4 00
Ġcommand ant
ne urs
D C
Ġp iles
Ġper Ã§u
Ġprot agon
Ġcal ci
Sur tout
Ġpath ologies
Ġfl amb
lo ge
ĠS ophie
Ġ' '
Ġvit r
B esoin
Ġnutri ments
p ress
ĠrÃ©guli Ã¨res
Ġpro th
ĠV illa
Ġpert ur
Ġ19 40
ĠA joutez
Ġinter min
onn u
Ġpres tigieux
end us
Ġjou et
Ġcoup es
EL LE
Ġtir s
A joutez
C Ã´tÃ©
Ġautonom es
ĠA G
Ġmarchand ise
ĠsÃ»re tÃ©
Ġexpos Ã©es
ĠB Ã¢
ĠB ill
oxy de
ĠĠĠĠ ĠĠĠĠ
Ġtransp orteur
ign or
it an
Ġcitoy ennetÃ©
r ables
Ġen titÃ©s
Ġalli Ã©
Ġren f
Ġpince au
Ġtransp orte
Ġlyc Ã©es
Ġtourn ois
arque ment
ĠdÃ©liv rance
Ġcriti quer
Ġcont est
Ġfon du
Ġsupermar chÃ©
Ġcommun iste
Ã©volu er
ĠdÃ©t resse
Ġimpren able
ĠrÃ©vÃ© lation
ĠB eaux
ĠV TT
ob sc
enseig nements
ang Ã©e
Ġbr oc
Ġconf r
Ġall ure
ĠOp en
Ġre part
Ġver rons
Ġr amp
Ġad min
Ġv aud
Ġg aleries
l able
Ġstand s
oeu f
ĠmÃ©dic o
Ġcom itÃ©s
ĠintÃ©gr alement
Ġade ptes
Ġpor tÃ©es
Ġgr ad
ĠChar te
Ġperp Ã©tu
Ġfe rez
Ġappr och
Ġgourmand s
Ġsitu er
Ġgr ade
Ġdonn ons
ĠdÃ©s t
uis ez
ĠB E
Ġpersonn alisÃ©es
ĠTer rit
Ġcl artÃ©
ci ent
Ġinscrit es
Ġs cep
ĠN ation
ĠmultimÃ©di a
Pr Ã¨s
orp tion
Ġcherch ais
ĠgÃ© ographiques
Ġa ille
Ġaudio vis
Ġentre prendre
Ġkm s
ĠT F
Ġrob uste
ĠdÃ©cenn ie
ON N
Ġurg ences
Ġom ni
Ġsoi gnÃ©
Ġfour chette
Ġexam iner
Ġpes er
Ġmal in
ur y
ĠS n
Ġd resser
C elle
ĠH otel
Ġcroch et
ĠprÃ© mat
ĠthÃ© oriques
ou les
Ġsign aux
Ġfon dement
av ouer
Ġbul les
Ġp od
Ġcompos antes
Ġ^^ )
ĠF ils
ĠG ui
Ġpass ons
Ġsouff ert
ĠamÃ©li orÃ©
Ġurb ains
Ã©r Ã©ment
Ġse gment
Ġgr asse
Ġsy ri
Ġemm ener
ĠK h
Ġcr ains
onn aies
Ġesc ap
ra ft
ra ke
zheim er
ay ak
Ġhabitu Ã©s
Ġd ense
Ġcr Ã¢ne
L LE
Ġca outch
ou iller
Ġentour Ã©e
d ites
Ġdos es
Ġa ustral
envis ager
Ã©l o
w ich
ĠLi bert
Ġt aire
Ġaveu gle
Az ur
ĠSci ence
Ġli gue
Ġrepos ant
visi bles
ĠP ass
ĠM ur
ĠN uit
Ġp Ã¨res
Ġacqu ise
Ġnat ation
uli ne
ĠT oi
Ġmain tient
Ġ194 4
ĠtrÃ©s orerie
Ġhu mides
Ġte inte
Ġbel ges
ĠÃ©crit es
Ġsu Ã©d
. (
Ġlic ences
Ġactiv es
oris Ã©
Ġla cs
charge z
ĠconcrÃ© tiser
Ġ19 14
Ġrempl is
Ġpres crit
Ġhabit at
Ġen gr
d ote
Ġexcep tions
Ġsp hÃ¨re
Ġcour ageux
Ġexcep tionnels
Ġleaders hip
Pre mier
Ġrejet Ã©
eu te
inqui Ã©tude
Ġmondi alisation
ĠV oyage
Ġtab ou
Ġpros pects
oubli ons
Ġsupp lÃ©
d os
Ġan om
Ġ198 2
Ġg Ã©rant
Ġconf iture
c ours
Ġcle fs
Ġex ag
Ġagric ulture
us ure
I TE
Ġmyth e
prof essionne
Ġcorrespond re
ĠrafraÃ® ch
Ġe h
Ġpat ch
Ġfl amme
ĠT ours
Ġper dent
ind ustri
ate liers
Ġrempl it
ĠcrÃ© Ã©es
r s
ĠÃ©t onnÃ©
Ġbien veillance
ĠrÃ©no vÃ©e
In tÃ©
Ġnav ette
Ġdev ise
ĠSup Ã©ri
Ġindi quent
aie ment
ĠdÃ© mis
ĠF F
Ġroy al
ur Ã©es
ar tifi
ingÃ©ni erie
-- --
oy Ã©e
Ġindemn itÃ©s
authenti citÃ©
Ġrig oureux
Ġchauss ure
gr and
Ġentreten u
Ġrend ra
Ġlongue ment
olÃ© ances
Ġb asses
Ġcontribu ables
ĠrÃ©p utÃ©
Ġextr Ã©m
Ag riculture
Ġautor ise
S oit
ĠV Ã©r
ĠCons er
ĠÃĬ tre
ĠdÃ© chir
ĠrÃ©cla me
Ġconte x
Ġcaus Ã©s
PrÃ© p
uil d
Ġva ches
Ġdrog ues
Ġtac tile
aff ect
Ġabou tir
alle mand
ĠIn formatique
Ġlitt oral
... âĢĿ
espe re
ĠTh ier
Ġdist ribuer
Ġrub an
Ġindi re
Ġo h
Ġrequ ise
ĠJourn Ã©es
Con tin
ĠrÃ©chau ffer
Ġrecher chent
Ġfournit ures
pec tive
appro cher
Ġachet Ã©s
Ġfin alitÃ©
ĠV OTRE
ĠM ouvement
Ġaigu illes
ys te
Ġsignal Ã©
Ġp ensi
b in
B el
Ã©nÃ©fi ci
li cite
Ġbon homme
ĠitinÃ©r aire
ĠCompagn ie
ĠGal ax
Ġgentil s
fin ition
Ġchauss ettes
s ource
Ġs pr
Ġprof itant
Ġstagi aire
Ġg ab
ĠÃ©duc ative
Ã©lÃ©g ance
Ġpatrim oni
pec teur
imm ense
Ġrecommand ation
Ġve d
Ġs vp
Ã©t onne
enti f
Ġatta quÃ©
au ne
es cl
Ġment he
M in
ĠMar che
ĠAs semblÃ©e
ĠR este
Ġpi res
ag enda
er o
act rice
Ġaugment ent
Ġpo Ã¨te
ĠapprÃ©h ender
V Ã©ri
Ġreti re
ar tic
Ġtr ail
Ġs et
Ġfabule ux
ĠStÃ©ph ane
ĠGre en
Ġch Ã¨ques
entre tenir
f emme
op tique
ĠV raiment
Ġhy giÃ¨ne
Ġass assin
ĠintÃ©ress Ã©es
D ommage
ĠV ente
ĠcohÃ©r ent
s eu
ĠA f
Ġpl uri
ĠintÃ©gr ant
Ġb accalaurÃ©at
Ġaccro chÃ©
ĠS ource
Ġpartis ans
ĠRess ources
ĠvÃ©ri fiÃ©
E r
Ġcondamn ation
Ġlaiss Ã©e
om in
Ã©ron autique
Ġte e
Ġinc endi
ĠconÃ§ ues
Ġob ti
Ġorient Ã©
activ ation
ĠB ang
Ġoppos Ã©
Ġfrais es
Ġser rÃ©
Ġpoursuit es
Ġgen ou
ou cher
Ġrevi vre
Ġg amin
Ġparticip atif
im a
Ġaugment ant
Ġrencont rÃ©es
Ġpar aly
ar ter
ĠP ubli
D Ã©p
Ġoc tr
c Ã©s
Ġir rit
ĠpÃ© chÃ©
Ġtex tile
ĠV R
Ġb osser
Ġex Ã©cution
A TE
ĠprÃ©f Ã©rer
ĠPr ince
Ġdess erts
Ġmar athon
Ġcon cession
Ġmondi aux
Ġvers Ã©
ĠsÃ©p are
ĠM ah
ori ale
Ġanim er
il y
ĠA mb
Ġvi andes
ten ez
Ġdrap s
Ġcommence z
, ,
Ãª ve
ĠstÃ© rÃ©
Ġins tin
Ġrev u
Ġuni forme
on ciation
Ġp yr
ĠdÃ©veloppe ments
Ġarchite ctes
Ġgaran tis
Ġenregistr Ã©e
Ġvol Ã©
ar in
ĠB ir
ci ences
EN S
Ġs ch
Â º
Ġent oure
Ġdiscu tÃ©
enthousias me
ĠD ig
iss ance
Ġintes tin
Ġdonn es
M arc
expÃ©ri mentation
Acc Ã¨s
Ġillus trer
Aut ant
g Ã¨nes
Ġgestion naires
ĠSecrÃ©t aire
Ġple ure
Ġbiz ar
ote ch
Ġpir ates
ar bres
Ġsou tiens
tt awa
Ġarr Ãªts
Ġmar bre
Ġstu dios
ĠLa ur
atis Ã©e
Ġstar tu
Ġcompens ation
Ġnat ur
attend ait
ĠCh oisissez
Ġsuffis ent
Ġten ais
ĠQu alitÃ©
Ġplut ot
Ġven ues
Ġno ble
zz i
ĠM ain
mag inez
ĠrÃ©c urr
Ġattr actions
ain si
Ġple ines
ĠÃ©t al
Ġaimer iez
and ais
ti tes
Ġbou ff
Ġcorrespond ants
Ġin verse
Ġent rant
Ġri ve
Ġimpos Ã©e
Ãī v
Ġstup ide
Ġdescrip tif
Ġsame dis
Ġtort ure
ĠthÃ© ories
Ġport Ã©s
appr op
Ġimpressionn ante
ĠBar b
Nouv elle
enc ourager
Ġchanger a
Ġple ut
ĠrÃ©c apit
ON G
onom iques
Ġrestre int
on ais
ĠmÃ©m oires
de cine
che min
ĠAutre ment
ĠrÃ©s ident
Ġir an
ĠdÃ©m o
agrÃ© ment
Ġbre v
Ġprot est
Ġnu ances
Ġil lum
out h
ĠcongÃ©l ateur
Ġc ire
Ġparent ale
Ġlu diques
p ot
Ġp anc
ĠA C
Ġhydr au
vi endra
E uh
ĠSu Ã¨de
Ġhabitu elle
Ġper ce
Ġbudg Ã©taires
Ġpe urs
ĠCamer oun
com mand
ĠRÃ© f
ou tre
ĠflÃ¨ che
at tre
ĠA ide
ĠrÃ©s iliation
Ġlamp es
ĠI m
Ġconc oc
U tilisez
Ġrest o
ĠdÃ©cro cher
Ġsus pect
ĠAl gÃ©rie
u z
ni Ã¨res
Ġcultiv er
ĠpÃ©r il
Ġdisc rÃ¨te
eu ve
ĠCr ois
Ġreten us
Ġdemois elle
Ã©ci le
Ġescal ier
ins pection
Ġsembl ables
Ġoblig Ã©e
ĠmÃ©c ont
ĠMos cou
ĠcÃ©r amique
Ġappr ouv
Ġpersu adÃ©
Ġ12 00
Ġrepar ti
Ġlav abo
Ġidenti fiÃ©s
Ġcomp agne
Ġaliment er
ĠrÃ©flÃ© chi
Ġvint age
ai des
ois irs
Ġhist or
Ġmal aise
Ġco alition
Ġman uels
Ġu til
r ag
gn y
Ġpot ager
Ġbr ise
Ġexc lu
Ġca chÃ©e
E tre
petit s
Ense ignement
rÃ©d Ã©ric
ĠGl ob
Ġb aies
ĠingÃ©n ieur
p ap
Ġdi ap
Ġrivi Ã¨res
fin ir
r act
Ġsol licitÃ©
Ġintemp Ã©ries
ĠdÃ©pos Ã©e
Ġaider ont
Aut oritÃ©
ĠartÃ©ri elle
Ġbo oster
hyp nose
ar ning
ĠN ON
Ġentre pris
Ã» te
res pect
ĠOb ama
ĠR oche
ĠcrÃ©di bilitÃ©
am ie
Ġalg orith
Ġbi Ã¨res
Ġatt ends
Ġr ois
ĠP AC
Ġcos t
ĠC it
ic ots
Ġtent ant
ĠBourg ogne
ĠJ amais
Pr ogramme
Â ©
ĠM en
Ġcli que
Ġaccep tÃ©s
Ġbal nÃ©
Ġcompte z
Ġmusic ales
ĠMunicip al
Ġsusp endu
Ġv raisembl
Ġest hÃ©
Ġfl acon
Ġanti ciper
Ġpr oie
Ġrecense ment
Ġaccep table
ĠM ach
Ġsus citÃ©
ch eter
h aut
am ine
Ġco Ã¯n
Ġpaqu ets
Ġvit re
Ġ198 3
Ġs Ã©c
Ġexp rime
Ġincont est
ĠA ustralie
ĠA z
Ġconn aisse
s inon
Ġraisonn ables
ĠN om
Ġanti bi
Ġsal uer
Ġpro li
Ġfin anc
ĠV illage
Ġvari Ã©e
tex tes
ĠfÃ©lic iter
ĠB ob
E v
Ã©di te
ĠP ost
Ġabs ur
Ġcont estation
D ieu
isse ur
Ġte intes
ĠdÃ©lÃ© guÃ©s
um a
anci ens
ĠprotÃ© gÃ©es
Ġcouver cle
Ġdestin ataire
Ġmort alitÃ©
Ġmotiv Ã©e
Ġmic rob
O K
Ġmar ie
Ã©c onomique
au dio
ĠS C
i at
Ġliqu ides
ĠGÃ©r ard
Ġsus cite
Ġvis Ã©e
an xiÃ©tÃ©
le ine
Ġcanadi ens
Ġinterven ant
Ġemb allage
Entre prise
Ġd ors
Ġaff ron
ĠÃ©chantil lon
ĠGÃ©nÃ©r ales
Ġang les
ĠrÃ©par ties
Ġinter mÃ©diaires
Ġsav ourer
ĠS ouvent
ĠBrun o
Ġo xy
Ġproje ctions
Ġchirurg ien
Ġassoci atif
ĠF e
Ġsal Ã©e
ĠO S
Ġaccep tÃ©e
te mp
Ġpertin ents
Ġeff r
Ġasi atique
oris Ã©s
Ġagr an
Ġsauvet age
ĠG ard
ĠÃ©lab orer
Ġenle vÃ©
ace p
Ġmar ti
Ġrep li
ĠV ert
Ġvi endront
Ġbaign ade
ill ers
ak er
enti els
Ġa xe
ici ens
ĠdÃ©r anger
Ġav enue
Ġ19 01
ĠgÃ© ants
amen er
ĠON G
R i
ĠrÃ©p erc
hy per
ĠTok yo
Ġv ec
Ġoccident ale
Ġconf ondre
ad y
Ã©qui page
Ġcr aint
n iste
Ã İle
Ġtomb Ã©s
Ġextra ordin
Ġartisan ale
T h
Ġtra je
pe ur
ĠÂ» ).
Ġparfait s
Ġannex es
entrai de
Ġpil ule
tr ois
Ġfond ateurs
Ġdr agon
Ġl iterie
Ġin si
Ġmou les
T V
ĠS achez
si ers
ct Ã©s
associ er
Ġign or
Ġ198 1
appr obation
Ġenseig ner
Ġaff ai
ous ie
Ġbou il
Ġinten si
Ġjurispr udence
ĠÃ© phÃ©m
Ġreconn ues
intern aute
Ã©li te
ĠMis sion
Ġmor tes
ĠV ienne
Ġr och
Ġsou mission
il an
Ġpsych ologiques
Ġal ertes
Ġh ome
ĠS m
Åĵ ud
ĠGrand s
I ON
g iques
ĠCath erine
w eb
ĠnÃ©gli ger
Ġdi es
it ures
ĠSt ore
ĠP aix
cre dis
Ġle va
Ġsouhait es
Ġsynth Ã©tique
Ġcaoutch ouc
Ã©mo tions
Ġde ja
Ġtromp Ã©
Ġins iste
Ġrisque z
ĠDomin ique
ĠâĢ ĭ
ĠPh otos
ĠvulnÃ©r ables
organ ise
Ġspati ale
Ġex on
H A
Tr ouvez
Ġvi tic
g han
ĠtÃ©lÃ©s pect
ĠU l
Ġaccueill ent
ĠdÃ©cor ations
Ġ197 5
Ġb oi
Ġin attend
Ġvoy ance
ote ls
âĹ ı
Ġregroupe ment
Ġm entir
op er
associ ations
Ġdou blÃ©
ab ond
ĠentraÃ® nÃ©
Ġdocument aires
Ġrencont rez
ĠJ on
Ġinconn us
Ġprovin ces
Ġinterlocu teurs
Ġciv iles
Ġsac rÃ©e
Ġsi este
i al
ĠalÃ© atoire
Ġtrouv Ã©s
Ġpropor tions
trait ance
ĠContr airement
ĠprÃ© lÃ¨vements
arr as
ĠThier ry
Ã©ti quette
ĠprÃ© d
inter view
ĠdÃ©pl oyer
ĠF emmes
Ġcre v
Ġrepr od
Ġdomin ant
ĠL aval
g alement
Ġglu cides
Ġtri om
Ġcalci um
extr action
ĠNouv el
ous ses
Ġval ables
A ustralie
C ours
aa aa
* )
ou ais
ĠL oc
ĠH am
ĠfraÃ® ches
ch en
Ã©d ant
Ġd us
Ġinter pel
uni quÃ©
TION S
ĠquÃ©bÃ©c oise
re m
Ġnoy au
Ġindividu ellement
ĠN ote
Ġcompt oir
Ġdom ination
h ouse
Ġsympath iques
R C
Ġsouverain etÃ©
agas car
Ġsauveg arder
ĠdÃ©licate ment
Ġsaur ais
ĠCons ultez
ĠrÃ©pond ra
Ġdress ing
Ġchoc ol
Ġreviend rai
Ġ? ...
ĠdÃ©c oul
Ġin troduction
ass aut
Ġcommen Ã§a
Ġint ensitÃ©
â Ļ¥
Ġbl ack
ĠtÃ©lÃ©c ommande
o ver
iss ants
Ġmor ales
Ġcomp as
Ġmaig rir
ĠÃ©p anou
ĠexÃ©cu ter
ĠpossÃ©d ant
G ermain
Ġsyndic ales
Ġsouhaiter ais
Ġemprun ter
Ġaffec tÃ©
Ġlog er
Ġn aus
Ġpren eur
R este
Ġcontempor ains
Ġmat ches
Ġcons olid
Ġphotograph ier
Ġru de
Ġgil ets
Ġbritan niques
Ġad hÃ©sion
ch ettes
ĠN O
ĠlÃ©giti mitÃ©
ĠprÃ© vision
Ġestim ations
ĠÃ©cl airer
ĠG are
c am
ĠXV III
Ġrapproche ment
ĠC ours
Ġregroup ant
ĠQuel que
Ġcath oliques
Ġscul p
Ġvide o
Ġon ze
Ġintit ulÃ©e
In formations
Ġdysfonction nement
ĠCl aire
ĠC AR
ĠsÃ»r s
P oint
Ġindemn itÃ©
Ġboit es
Ġral entis
Ġd orÃ©
ĠtÃ©moign ent
Ġprop h
Ġenv elop
Ġre charger
Ġann uler
h onn
ĠprÃ©sent ons
invent er
Ã© reux
ic one
ĠrÃ©tract ation
f ais
ĠÃ©c oul
in timitÃ©
Ġquali fiÃ©e
Ġcell ulaire
Ġmusici en
ic ule
Ġcuis ses
Ġforfait s
Ġconfort ablement
ĠintÃ©gr al
ĠV end
ĠMar keting
Ġmyth ique
Ġinter viennent
ĠP N
hÃ´te ls
Ġeu h
jug Ã©s
Ġenregistre ment
on dez
Ġfamili aux
ĠT al
ul a
= >
Ġso vi
Ġappar tiennent
Ġfit ness
200 7
Ġemm en
Ġenri chir
ĠconsidÃ©r Ã©es
x x
Ġrej oign
ĠAn aly
Ġq q
Ġp oire
Ġapp ellent
ign ore
Ġcl andes
Ġimmobili Ã¨res
Ġg entiment
rim ant
Ġinspir ation
ĠredÃ© mar
ĠlÃ©g Ã¨res
Ġ4 000
ĠGu illaume
ĠgÃ©n Ã©rique
ĠBien venue
Ġamen Ã©s
Ġmultip lication
Ġmondi ales
Ġrapp orteur
Ġprolong Ã©e
ĠdÃ© ce
ĠG h
p a
Ġrig ol
ĠÃ©b ullition
ces sions
E E
Ġm iens
Ġpr Ãªtes
ĠlittÃ©r aires
Ġr ides
Ġd in
ac uer
Ġred resse
Ġso eurs
Ġsinc Ã¨res
dÃ© m
j an
ĠCh i
Ġanec do
Ġj ungle
Ġav erti
ĠdÃ©pend ent
ul s
re l
Ġdur abilitÃ©
v able
ĠC DI
v Ã©r
ulle tin
Ã¨ner a
Ġbi ologie
id ente
Ġdem ie
Ġ196 8
Ġrev Ãªt
Ġbas Ã©s
Ġpriv ative
ĠÃ©v Ãª
p orter
Ġb aissÃ©
Ġimp liquÃ©
Ġl inÃ©
ĠM ot
Ġcuis ines
Ġd resse
ĠMar k
Ġal phab
Ġaqu atique
ĠR et
uni or
Ġmention nÃ©es
Super be
bon ate
Ġporte z
onn aires
Ġtatou age
ĠS ystÃ¨me
Ġp ains
Ġs Ã¨ches
Ġolymp ique
all aitement
Ġm ord
Ġvari ation
ĠdÃ©n once
ĠÃ¨ re
Quel que
Ġcommuni quÃ©s
Ġindi cation
Ġform ateurs
ĠcrÃ©di ble
Ġpsych ique
S yn
s uper
Ġexpli cite
Ġculp abilitÃ©
ĠÃ©chantil lons
Ġviol ente
ant er
Ġcockt ails
Ġmol Ã©c
Ġprogress Ã©
Ġtom es
lex e
Ġf um
Ġpron os
Ġtu me
Is lam
Ġplate aux
ĠPh oto
Ġcas es
Ġautom obil
orm alement
T a
Ġav atar
Ġfr action
P lan
Ġan tÃ©ri
Ġexpos e
ar chives
f aut
ĠprÃ© cieuses
Ġbron ze
ĠF ire
Ġexcessi ve
Ġrefroid issement
Ġsup ers
ĠC onne
Ġchat te
Ġper le
Ġintellig ents
Â ł
Ġimag in
Ġmar gin
Ġgr otte
Ġcomp act
c ast
Ġb cp
t ers
l ants
Ġj ure
ĠrÃ©un ies
ĠcoopÃ©r ative
Ġautom atiques
Obser vatoire
ĠchÃ´me urs
Ġta che
oc ons
ĠB ru
AU T
ĠdÃ©ch et
aÃ¯ s
ĠH al
ab el
Ġtri ple
ri cien
Ġrempl issant
entiss ages
Ġv alises
Ġassoci er
Ġsoutien nent
g nement
Ġcontr acep
Ã©cu les
g entine
ab ie
UNES CO
Ġmeu bl
omm ation
Ġsourc ils
il Ã©
Ar ts
ĠpÃ©ri ple
Ġinter diction
Ġglob e
Ġmass ages
Ġpour voir
Ġtal ons
Ġenseig nes
enri chir
Ã©roÃ¯ ne
Ġvers Ã©es
Ġbr in
ress Ã©
D im
un a
Ġp p
Ġpir at
P ouvez
d ate
Ġparc elle
b ro
onc ent
ĠC ub
Ġsommet s
one y
ĠC lar
C ap
id o
Ġrespe ctifs
l ol
Ġoffici ers
Ġr ate
Ġmath s
Chap itre
ĠC B
Ġconner ies
Ã©t endue
Ġz oom
ĠadÃ©qu ation
se m
c li
ob Ã©sitÃ©
Ġfor ti
Ġchol estÃ©rol
Ġvacc ins
Ġcoul isses
yc le
Ġcroy ait
Ġreb elles
ĠrÃ©pert ori
Ġje Ã»
ph oto
or ne
Ġpers iste
escal ade
Ġcli chÃ©
Ġmotiv Ã©s
Ġabord s
Ġal titude
appare ils
Utilis ation
mi le
Ġoccident aux
Ġcouvert ures
ĠQu atre
Ġplu mes
Ġmot os
enn uie
aci eux
Ġaim ait
Ġp inc
administr ateur
Ġmanif es
Ġvoyage ur
oc tr
Ã©limin er
ĠV Ã©ri
Ġclass Ã©e
ĠcrÃª pes
Ġplais ent
int endo
Ġis olation
Ġpays ans
at ti
Ġc end
l oc
Der niÃ¨re
Ġp aille
mi c
Ġb arriÃ¨res
Ġservi ette
Ġbou gie
Ġpati ente
Ġproc Ã¨de
ĠLin ux
as is
Ġparent h
op poser
Ġdiagnos ti
ĠprÃ©c aritÃ©
ĠÃ©valu ations
com m
Ġal ter
Ġfonctionn aire
Ġappar ait
inqui Ã©ter
D T
M i
Ġc Åĵurs
ĠstÃ©r il
.. )
Ġsculpt ures
ĠagrÃ© Ã©
Ġcompr ises
ĠP ologne
Ġunivers itÃ©
ĠrÃ©d uisant
y mp
ĠadÃ©qu at
Ġmodi fie
C ON
ĠprÃ© le
j uste
Ġpl ates
en vergure
ali ments
ur ants
ĠMi di
Ġh ockey
Ġpress Ã©
Ġpl a
ang ile
Ã©b Ã©
et a
av ane
p Ã©dia
Ġimp Ã©ri
Ġhau teurs
d ames
Ġregroup er
vie ws
Ġcon venu
Ġre venue
Ġcollab orer
Ġenvir onnements
u di
ĠlibÃ©r al
ĠC am
Ġlog os
ĠSoci al
Ob jectif
tern itÃ©
Ġend orm
ĠprÃ© limin
ĠE S
ĠM Ã©m
ĠPr endre
Ġn Åĵud
Ġcomp rimÃ©
Ġla mes
E au
rid ge
Ġcont ra
Ã©b as
Ġmeu blÃ©
ĠdÃ©cid Ã©e
ombr ables
Ġfr amb
Ġor di
Ac comp
Ġdisp ers
expl orer
ĠA mis
Ġsc rup
Ġbien venu
Ġfre ins
lÃ¨ ne
in auguration
Ġar mÃ©
ĠÃ©ch appÃ©
Ġpromen ades
ar tier
ir ation
S ou
di eux
organis mes
ing rÃ©
pour quoi
Ġemm Ã¨ne
I dÃ©al
Ġcroy ance
S achez
Rem arque
pos Ã©s
Ġin cidents
ar ienne
ĠF Ãªtes
ocu ment
eff orce
Ġgroupe ment
Ġa f
af ric
ĠrÃ©flex e
Ġs pe
Ġh ui
b u
Ġdor Ã©navant
ass assin
oph ones
ar bit
ab eth
ĠS AS
Ġ^^ .
ĠW ars
adolesc ence
ĠcrÃ© atrice
fa Ã§on
ap ide
Ġfin ancÃ©
Ġraj oute
Ġpr ag
Ġa Ã©roport
oc arb
ĠprÃ©v al
pro jet
ĠagrÃ© ablement
Ġbas il
AN G
Ġdiminu Ã©
Ġenti tÃ©
g on
shir ts
ĠdÃ©s accord
l itÃ©
Ġfou dre
Ġrassur ant
Ġmet tait
Ġdemand Ã©s
Ġimp rimÃ©s
ill is
ĠmÃ©r itÃ©
Ġp ans
te in
Ġpix els
accro che
ĠdÃ©coup er
Ġfestiv itÃ©s
Ġv ital
Ġassi ettes
ti gie
i tinÃ©r
ĠN av
Ġpel ouse
Ġsa ou
Ġimag ine
Ġconnaiss ant
Ġaff ection
ĠdÃ©pos e
Ġmusic aux
Ġobten ue
f li
Ġconver tir
ĠH enri
Ġcatastroph es
Ġop tez
Ġchampionn ats
Ġamb assade
Ã©n Ã©ration
ĠthÃ©rapeu tiques
o die
eff ets
ĠmÃ©lange z
mm a
pec ter
M od
Ġcompr om
min g
Ġvend ues
ari fs
ĠMan agement
ort ant
Ġcontinue z
land aise
ĠEn v
N Ã©
Ġva mpire
ĠB rig
Ġos er
Ph oto
ĠS l
Ġbou cher
ĠVal entin
esp Ã©rance
tic k
ĠP alestin
ĠD S
ĠP ossibilitÃ©
Ġpuiss ances
ĠTr Ã©s
Ġvend ent
Ġcou cou
Ġaffich Ã©s
Ġf u
ĠprÃ© jugÃ©s
Ġcou chÃ©
op pos
Ġpath ologie
Ġch ari
Ġgar n
rim Ã©es
âĤ¬ )
ĠmÃ©tal liques
ĠhÃ© berge
in fini
Ġsau rez
Ġcycl istes
Ġindi quÃ©es
ex t
Ġnuis ibles
Ġpar aissent
Ġenvis agÃ©
Vis ite
c ap
Ġpav illon
Ex position
Ġaim ons
Ġviol ents
Ġvi ole
ĠintÃ©gr ale
Ġbac s
Ġjardin age
ĠLu miÃ¨re
Ġfrag il
Ġrond es
a Ã«l
Ġon gl
Ġautocht ones
Ġenvoy ant
Ġroule au
ĠfÃ©li cite
ĠA B
Car te
Ġrep ousser
ĠrÃ©alis ent
AC T
ogr ammes
ins pir
ĠdÃ©cide urs
ĠEn semble
Ġsouhait Ã©e
ĠlaurÃ© ats
ex ister
Ã©r ants
Ġbr une
eut ers
Ġp acte
Ġrej oins
il a
) âĢ¦
Ġdi vid
w a
ass Ã©s
ĠRÃ©gion al
Ġtrouver ont
Ġengage ons
ĠreprÃ©sent Ã©s
s en
Ġexige ant
Ġgarantiss ant
an que
Ġbroch ure
ĠprÃ©par ations
Ġz omb
impos ent
Ġdur ablement
ale ur
ĠL ot
ff es
man ie
ĠdÃ©c orÃ©
Ġmens uelle
ĠR is
od ge
accomp agn
Ġmer credis
Ġpri oritaires
Ġti Ã¨de
ĠA S
ay Ã©
Ġpartage z
ou ette
I denti
Ġcouv rant
Ġen chant
ne aux
Ġrenfor cÃ©
Ġtent ation
Ġcap ter
Ġg oogle
ch ain
ĠrÃ©s ine
Ġb ec
li en
Ġparis iens
Ġar Ã´mes
Ġprof s
ĠrÃ©p Ã©tÃ©
F ond
ĠE mploi
H y
ali ment
esp aces
ill usion
âĢĻ Â«
ĠSp a
Ġconf Ã¨re
export ation
Ġsoul agement
ĠdÃ©partement ale
us alem
P ER
Ġabou ti
ĠPrin temps
Ġtrans vers
Ġral enti
ĠU tilisez
f aite
Ġfaibles ses
Ġtrag ique
Ġtravail lez
Ġgri mp
ĠlÃ©g endes
ĠÃ©p aisseur
Ġemball ages
Ġdom ic
Ã©bas tien
Ġcop ieux
indemn isation
Ġcourt ois
ol aire
ai gu
Ġmand ats
onne urs
ĠintÃ©ress ent
hydr atation
Ġch ants
imm atriculation
Ġpare ille
Ġcar ic
ĠnÃ©g lig
G e
Al pes
Ġmin oritÃ©
Ġag ressions
Ex emple
Ġappr en
val le
accro cher
oi tement
Ġimag inaire
Ġplais e
Ġconsci ents
ĠdÃ©termin ant
ĠgÃ© ographie
ĠhÃ©r itage
im s
Ġrestri ction
Ġla ss
Ġcar amel
ĠP eter
cep tions
ĠmÃ©tropol itaine
ĠrÃ©comp enses
Ġconf ondu
Ġl oul
Ġdes sine
Ġdivis Ã©
ess er
Ġvi gne
tis se
Ġhor reur
aff e
Ġhypoth Ã¨ses
atte inte
Ġense mbles
ĠdÃ©p our
ĠV allÃ©e
ov as
Ġinj us
z o
Ã© vidence
ATION S
Ġpi Ã¨ges
ourn iture
Ġparticul aritÃ©s
Ġmar ron
Ġrentr ant
Ġmout ons
Ġmic ros
Ġche minement
ĠRe ine
Ġsp acieuses
ai rÃ©
ĠEuropÃ© en
Ġserrure rie
Ġab ri
ak a
Ġsal Ã©
Ġt ang
ĠMon aco
Ġcour amment
Ġinstall Ã©es
D L
Ġconsac rÃ©s
ĠdÃ© chi
im mer
Ã©qui p
Ġderni Ã¨rement
Ġann ulÃ©
D urÃ©e
Ġcul inaires
culi ne
Ġm aires
ĠboÃ® tier
Ġcompar able
ĠDoc teur
app y
Ġser vis
Ġenvir onn
Ġvend ue
Ġs ienne
Ġm Ã¨nent
Ġen ver
ĠÃ©tabli es
Ġins upport
Ġdiscip lin
Ġch Ã¨vre
Ġgre ffe
Ġbr Ã¨ve
Ã©m an
ĠrÃ© utilis
ĠfrÃ©qu ents
ĠD ar
ĠL it
ĠPar t
ĠrÃ©ci pr
Ġdistin gu
Ġsang uine
ĠSim on
M ES
lÃ© ans
Ġaid ant
Ġfond ations
ĠÃ©ch app
uc k
Ġrappel ant
Ġsouhait ait
Â° )
Ġj oign
Ġch or
Ġdi oc
Ġg ammes
Ġred Ã©couvrir
ann uaire
ĠD enis
Ġform ateur
ĠRe ad
Ġre lÃ¨vent
Ġbou e
ĠThaÃ¯ lande
Ġven aient
ograph ies
Ġplur idis
Ġcour tier
TI QUE
Ġp iliers
A E
ĠD j
Ġins ol
aute ure
Ġcorpore lle
Ġmol Ã©cules
Ġdies el
ĠGaz a
s our
l ette
Ġsa chet
invent aire
Ġform uler
ff ic
si bilitÃ©
Ġexpress Ã©ment
Ġfoul Ã©e
as a
Ġdem eu
Ġes cl
ĠG er
Ġpi ge
av ie
oc aly
Ġboule vard
ĠdÃ©s activer
t ot
ĠEn trÃ©e
ont Ã©
ĠAVE C
Ġappropri Ã©es
ĠF eu
Ã©rop orts
Ġtric ot
Ã©lÃ¨ ne
ĠdÃ©sire ux
vise ur
Ġpost uler
Ġad mettre
Ġmen ant
Ġremarqu ables
Ġnul s
Ġin Ã©dite
Ġinstant anÃ©ment
Ġexpl o
assur ances
ĠEx pl
eff orts
ĠH ug
ĠF amille
Ġfrustr ation
Ġnostal gie
ĠÃ©v acu
ĠPoli ce
ĠsÃ©cher esse
Ġoccup ants
Ġatyp ique
Ġdiri gÃ©e
ĠF onction
ĠCh ic
ur rection
ĠL ion
ĠM and
atta chÃ©
Ġlim itÃ©s
b s
ĠLi Ã¨ge
l ux
Ġvir age
alise z
ĠM ut
Ã©r ante
v us
Ġrep Ã©rÃ©
Ġr dv
Ġmainten u
li ez
ĠM ans
on ies
Ġhon oraires
Ġmic r
Ġbagu ette
ad s
tie use
d oc
ĠdÃ©velopp Ã©es
v otre
ci tement
TI N
Ġpard onner
ĠC el
aur as
ĠEff ectivement
Ġsi ff
an ch
Ġrecomm ence
Exc ellent
Ġcontin ents
Ġtrad uc
Ġincroy ables
om ique
ĠpÃ©renn itÃ©
ĠmÃ©t aph
vi gnon
Ġappli quÃ©es
Ġch Ã©rie
ĠN at
Ġfran chi
m aj
Ġinter f
ĠL aisser
1 50
Ġsatisfais ant
Ġic Ã´nes
Ġexpl oser
Ġram Ã¨ne
ĠC ass
Ġen r
Ġpass ager
ĠdÃ©c entr
ĠCler mont
Ġs ains
instru ment
Ġpersonn alis
Ġapprofon dir
ĠÃ©loign Ã©
Ġcommande ment
F ort
Ġlaisser a
ou Ã©e
j amin
Ã¨ vres
Ġpor c
Ġspec tre
ĠrÃ©ser vÃ©es
Ġgra vement
ĠConc ours
Ġconvi ves
Ã©r al
ĠÃ Ĥ
ĠÃ©le veurs
hor aire
Ġp aires
Ġper ds
Ġinter dire
ĠÃ© checs
enti er
attr action
Ġvain cre
assi ette
ĠAl bert
Ġbas ique
exc user
Ġrefus ent
Ġaccro Ã®tre
Ġcal c
ob us
Ġa isÃ©
origin al
Ġju meaux
gn Ã©s
ĠT ch
assembl age
Ġjou ir
ĠrÃ© vis
Ġillim itÃ©
v as
Ġcompr enez
Ġb y
Ġdomin ante
avi ation
Ġpoup Ã©e
ĠRespons able
infr astructure
vers Ã©e
ĠS AV
ĠÃ©lector ales
sh op
Ġ??? ?
Ġgend armes
Ġhabitu els
Ġimprim ante
Ġru ines
og es
um s
Ġh Ã©m
P T
Ġproble me
Ġbas Ã©es
li on
ĠT TC
Ġcol orÃ©s
ĠI L
et ait
Ġarr os
Ġpap illes
p ri
Ġdemand Ã©es
anÃ§ on
Ġconvainc ue
Ġempre inte
Ġb ra
Ġdispar aissent
ĠL G
Ġconfi d
k ina
ĠdÃ©pos Ã©s
Ġ197 9
Ġp y
Ġterrible ment
ss is
Ġdi Ã©tÃ©
Ġmanifes tement
ĠEnf ants
Ġrest ons
ĠÃ©l an
ĠrÃ©g aler
ĠAn ti
Ġvaisse aux
Ġprog resse
aill on
Ġral entir
Ġprof its
ĠChar lie
Ġparois se
ĠF ant
end ettement
Ġpl antÃ©
ĠMad agascar
AS S
ĠdÃ©m on
Ġr onge
Ġdist rict
Ġrep Ã¨re
Ġdiss u
Ġa cide
Ġva mp
ĠrÃ©v Ã¨lent
Ġsc anner
Ġfonction nÃ©
P O
ĠF C
Ġamb ul
Ġpour vu
Ġestim Ã©e
ĠsÃ©qu ences
ĠtÃ©lÃ©spect ateurs
Ġcomm ettre
Ã© ans
ĠdÃ©ci da
Ġdi vine
ĠG arde
lu me
Ġch Ãªne
ĠIn di
Ã© veil
ap titude
ĠdÃ©s espoir
Ġempl oie
Ġopport un
Ġref onte
w ard
ĠlaÃ¯ citÃ©
Ġsign atures
Ġint enses
ĠdÃ© ont
Ġchar p
Ġinter active
a Ã§
Mag nifique
Ġr aces
Ġfin ie
ct uration
ocaly p
Ġ24 0
Ġappropri Ã©s
ĠS ab
ĠmÃ¢ les
Ġ omis
Ġpren antes
Ġmi j
ĠL et
Ġactu alitÃ©
ĠQuel qu
ĠH a
ann a
Ġfont aine
c liquez
avant ages
ĠColomb ie
aband onner
Ġgraph ismes
Ġcertific ats
approp rier
Ġre vis
ĠPr Ã¨s
lam mation
o cher
o ke
ĠF oot
Ġsugg estion
it coin
Deux iÃ¨me
Ġacqu ises
ĠlÃ©g end
Ġgr illes
Ġnom mÃ©e
ĠmÃ©r iter
Ġesp oirs
Ġab domin
m ations
ĠP ouvez
ver gne
ĠAllemand s
ĠP acifique
ct Ã©e
Ġsou cier
Ġm asses
Ġvit alitÃ©
l ore
Ġcr aintes
N A
Ġan th
Ġcas h
Ġs ente
ĠM ore
ĠCh inois
ĠN OUS
Ġmas culine
ĠÃ©g yp
ĠK en
Ġ ~
Ġconstru its
Ġtranspar ente
Ġli ber
ens Ã©es
aff ronter
r ure
Ġph ares
Ġ ombre
gn ent
Ġconform er
Ġin tra
Ġcombin aisons
ĠDi jon
Ġmaxim al
ĠStu dio
ĠprivilÃ©gi Ã©e
c ler
ï ¸
Ġri ver
ĠrÃ©ser vez
ex ercices
ah u
Ġconsult ants
Ġcon cessi
Ãªt a
ĠCl oud
Ġdispar aÃ®t
Ġti en
Ġan tÃ©rieure
ĠH ome
mi f
Ġk its
Ġillustr Ã©
em ail
Ġarri vÃ©es
Ġappr ennent
Ġtes te
ĠD am
imp ossibilitÃ©
ĠirrÃ©g uli
ur ations
du ctions
Ġcarre lage
Al liance
Ġconvainc us
ĠdÃ©tach Ã©es
ĠvÃ©ri fie
Ġti rÃ©s
l otte
Ġconten ues
Ġf ure
ar Ã©
Ã©criv ain
f ord
Ġpo Ã¨mes
Ġfinir a
T op
arch ie
Ġrequ Ãªtes
Ġbarr age
en rich
Ġfigur ines
Ġrenfor cÃ©e
Ġcab inets
Ġg ay
Ã©s ium
Ġin fi
Ġsusp endre
ĠdÃ©g uis
m aster
Ġg as
L oi
Ġpublique ment
ĠT ot
Ġclass Ã©es
emp les
li b
Ġgigantes que
omm er
il ie
Ġmuscul ation
ĠdÃ©c r
are mment
import ation
ĠGr oup
Jour nÃ©e
Ġcoup ure
Ġcont ents
Ġcer ner
ĠprÃ©sent era
ĠÃ©norm es
Ġmodi fiÃ©s
qu ise
Ġoptim iste
ign ant
ĠrÃ© tention
Ġh aÃ¯
Ġpoursui v
r aire
ab onner
Ġinfr actions
Ġag issent
Ġrester ont
Ġcous in
ĠV a
Ġdou bler
AR T
ĠMin i
Ġass orti
ĠrÃ©alis ons
Ġ- ,
ĠH ors
visi onne
Ġlib Ã©rÃ©
ĠisraÃ©li enne
Ġgasp illage
Ġpri Ã¨res
Ġman ufact
Ġinv al
int he
Ġpres tige
Ġg yn
ĠÃ©tr anges
t ables
ĠAr chives
ĠmÃ©tab olisme
Comment aires
Ġop en
Ã ¤
ar di
Ġconv o
Ġbr asser
ard ins
Ġinc l
ĠrÃ© tic
ĠP Ã©
ĠdÃ© Ã§us
Ġamp leur
Ġpoign et
Ġval idÃ©e
N I
Ġn ager
ĠDÃ©c laration
Ġti ge
ĠEsp ace
vi dÃ©
Ġconfig urer
ti a
Ġmait rise
Ġt ch
G oogle
Ã Ń
ic ales
Ġconfir mÃ©e
Ġbl ind
an Ã©es
Ã©l oigner
ĠB L
D M
ĠRi o
m aison
m ens
ĠschÃ© mas
Ġan tic
Ġther miques
Ouvert ure
Ã¢ t
Ġpen che
Ġsou cieux
inge mbre
Ġcl auses
ĠdÃ©veloppe ur
ĠSyndic at
ĠSui vez
Ġor ch
ĠFont aine
uri eux
Ġreviend rons
Ġrespir atoires
Ġr us
Ġdot Ã©s
Ġextraordin aires
U r
k raine
Ġdeven ant
ct rine
Ġr acheter
ĠS uis
ĠindÃ©pendant es
acu zzi
ĠsÃ©par Ã©e
Tr ouver
as o
ĠV it
Ġsav iez
Ġlaiss Ã©s
Ġfavoris ent
Ġarchite cte
Ġproc lam
Ġrele vÃ©s
Ġconnect Ã©e
Ġmas ques
Ġchois issent
ĠP otter
rake ch
Ġvis Ã©s
Ġrepro cher
tin ction
ĠA ctuellement
Ġcontinuer a
ir o
Ġbou dd
ĠsÃ©cur isation
Ġindi en
ĠD G
ĠesthÃ© tiques
Ġurb aines
Ġmultipli ent
Ġautoris Ã©es
our d
Ġpl Ã©ni
Ġcl aque
Ã©t ale
ĠChamp agne
c ope
Ġsand wich
Ġgastr onomique
in iÃ¨re
ĠPap a
mois elle
Ġdent aires
Ã©lectr onique
B L
Ġcardi ovas
Ġ197 6
Ġtox ic
Ġf Ã©
Ġl ouÃ©
ĠRou en
Ġli g
ir ais
ĠV ier
Ġcol onie
ass ant
Ġplafond s
T our
Ġap titudes
ois eaux
ĠdÃ©ri vÃ©s
Ġcouss in
Ġpost ales
Pr om
im er
ĠP Ã©r
Ġpap illon
ĠT est
Ġprodu ites
fi a
Ġexten sions
Ġfati guÃ©e
Ġcens ure
Ġtr onc
ĠPrÃ© f
ail lÃ©
ĠÃ©mo tionnel
Ġpan nes
li gne
Ġkilom Ã¨tre
Ġshamp oing
ĠI tal
ĠrÃ© agi
Ġp ing
ex agone
ist ribution
Ġryth mes
om pte
ĠprivilÃ©gi Ã©s
Ġcruci al
ob st
hi ers
t aient
ĠÃ©tabl it
ul atif
ess ais
Ġf Ã©e
az ine
Ġcoul oirs
ĠP il
Ġass istant
ĠC ond
ĠVI H
Ġdeven ues
Ġboulanger ie
Ġn aiss
Ãªt etÃ©
L M
Ġvi vez
ut ent
Ġcomport ent
Ġchasse ur
Ġaugment Ã©e
au trui
ag ues
A ur
Ġul tr
ĠC onseils
ĠGalax y
Ġd ames
ĠFac ultÃ©
Ġpi ment
ash ion
Ġexig er
8 00
Ġeng ins
illustr ation
Ġsec rÃ¨te
Ġmod estes
ĠÃ©cri vez
il d
Ġser ions
Ġcl asser
ĠsÃ©par Ã©ment
el Ã©
Ġpor tion
ass Ã©e
ĠDÃ©s ormais
Ġfamili ariser
ĠapprÃ©ci able
ĠL av
ser ie
Ġcour g
Ġin g
th ur
ĠK y
Ġconvi endra
ĠGe orge
Ġ197 3
ĠentraÃ® nements
Ġcl oud
al d
B ou
ĠQu Ã©bÃ©c
Ac tivitÃ©
Ã©di fice
200 6
Ġabord ables
atta cher
Ġcrist al
Ġav oue
Ġconser vÃ©es
Ġexpos Ã©e
Ġg o
x it
OM S
Â §
Ġt endu
Ġautoris ations
Ã©li ne
ĠSt ade
Ġmodi fiÃ©es
Ġch agr
Ġsensible ment
qu ance
ĠÃ©t endu
Ġstop per
Ġconnex ions
ist Ã¨res
Ġcirconst ance
Ġillustr ation
ĠprÃ© di
ĠdÃ©li ce
ne m
ĠrÃ©vol te
op Ã©rer
Ch e
ser tion
Ġexport ations
ĠrÃ© nov
Ġanti oxyd
ĠÃ©t end
Ã¯ e
ĠtÃ©lÃ©commun ications
ĠB ox
Ġlai tiers
ĠR oute
li Ã¨re
Ġpersu ad
Ġor phel
ĠD ata
Ġvol ati
fic ateur
Ġac oustique
ff age
ĠD J
!!!! !!!!
Ġcolon ies
Ġsal ades
Ġsignific atif
m ai
Ġpat te
ĠrÃ©g ie
Ã©c ras
ĠSh er
emp orter
Ġcomb iner
rÃ© f
Ġexplos ion
Seu l
S oci
Ġquali fications
Ġoccup Ã©s
Ġdemeu rer
ĠÃ©n um
Ġsub issent
Ġaver tis
Ġap res
Ġign ore
Ġaccueil lera
Ġcit ations
Ġa out
Ġcorri gÃ©
ĠdÃ©p assent
Ġne w
Ġouv rent
G l
Ġoc Ã©ans
Ġb Ã»
Ġgar dez
Ġprotagon istes
Ġbrod erie
artifi ce
J uli
Ġb ook
arr anger
ĠJ an
Ġgil et
Ġson ge
ĠrÃ©p utÃ©e
ĠgÃ©nÃ©r aliste
imag inaire
ĠM ode
Ġcou de
ar bonate
S imp
ĠchÃ¢ ssis
Ġfr u
ĠS ah
ĠRÃ©s ultat
ĠLi ban
Ġb in
ĠCh ambres
Ġnorm ales
ĠdÃ©mar rÃ©
Ġban ane
ĠindÃ©pend amment
Ġpal ier
Ġimpos Ã©es
ĠH Ã©
Ġattach Ã©s
b ac
f ox
Ġr accord
Ġprimordi ale
A vent
Ġrom pre
Ġgrand it
V ente
ant enne
Ġexp resse
Ġmen tionne
ĠDÃ©s olÃ©
Ġp Ãª
Ġrob ustes
Ã©l ande
ĠprÃ©par atifs
Ġcompt abil
Ġin hÃ©r
Ġtrouv aient
ĠprÃ©par ent
Acc ord
Ġcontra diction
ĠRen ault
Ã Ĺ
ĠB R
Ġphot oc
ĠG abri
Ġpoin g
ĠM S
dÃ© alement
fi ance
Ġprom ette
Ġb ann
Ġdev rions
Ġangl o
Ġhabit ations
atÃ©ri el
Ġvul g
Ġintr od
ĠS un
N ouveau
m Ã©t
Ġf lic
Ġremp orte
Ġinf ection
Ġmaqu ette
Ġden rÃ©es
ag ing
ĠEuropÃ© ens
Ġsor tit
s ont
au teurs
Ġtransform ations
I niti
Ġg ad
ĠrÃ©s olument
ĠdÃ©couv rent
n ois
ĠLi bertÃ©
Ġin habitu
Ġconc itoyens
ĠS ing
Ġperm ette
Ġcombus tion
Ġaur ions
ac tique
Ġpl aid
Ġarri vait
is olement
Ġtic kets
ĠD R
ĠmÃ©di athÃ¨que
ĠCos ta
Ġpar viennent
Ġcan nelle
Ġcrois Ã©s
ĠT ER
ai teur
ĠAg ric
ĠdÃ©di Ã©es
t oujours
ĠappÃ© tit
Ġinter ruption
Ġjam bon
eto oth
ti lement
ĠPr opri
ony mat
r ose
m me
ĠL ut
or ber
sy ch
Ġp Ã©di
Ġbu zz
ĠN u
Ġescap ade
ĠdÃ©m ons
Ġcond olÃ©ances
ĠRen contre
ĠB all
all ocation
Ã©v itÃ©
ou Ã©s
Ġinond ations
ĠprÃªt res
at r
Ġparti tion
are t
ĠM ass
Ġcondam nÃ©s
Ġr enseign
ĠN iger
Ġsav oureux
Ġrav it
Ġr aqu
Ġdou ane
D ES
Ġaffir ment
ĠempÃª chÃ©
Ġrempl issez
ensi f
end ormir
Ã©v asion
ĠAn toine
dou ard
Ġexig ence
Ġcont entieux
cu b
adress ent
amp li
ĠdÃ©m atÃ©ri
Ġcr Ã¨mes
Ġbour geois
Ġlut tes
Ġin i
st u
Ġrecord s
ĠcomprÃ©h ensible
ĠJÃ©r usalem
h eurs
Ġad met
ĠrÃ©no ver
exc Ã¨s
ĠD Ã©t
ĠH ist
ĠN intendo
ĠdÃ©tail lÃ©s
j eux
Mar tin
Off re
onn iÃ¨res
Ġincom prÃ©h
Ġassur ons
Ġprononc Ã©e
Ġcigare ttes
Ġdig estion
Ġp Ã´les
Ġdi ctionnaire
ĠD re
Ġdou Ã©
P i
Ġya ourt
Ġcess ent
Ġartic ulations
Ġop Ã©rer
ĠJui fs
Ġrecouv rement
di ent
ĠhÃ©ber gements
u ki
Ġcrimine ls
Ġn ue
Ġtr Ã´ne
az ar
Ġal er
Ġcar ros
IS S
ĠÃ©vi tez
cri te
Ġplac ards
in dic
Ġk o
ĠdÃ©fense ur
se pt
ab i
Ġintr oduire
ach ar
Ġin oxyd
ali Ã¨res
Ġcompati bilitÃ©
Ġdr one
Ġmusulman e
Ġvoisin age
om an
Ġplan Ã¨tes
ĠcrÃ©e z
Ġpair s
Ġse mblÃ©
ĠVen ise
ĠH ommes
Ġenregistre ments
Ã©t onner
Ġdir ont
Ġp ond
te au
Ġin Ã©gal
oo ting
Ġper dez
On tario
Ġdorm i
ĠrÃ©t ablissement
ĠdiplÃ´ mÃ©
ĠMÃ©tr opole
T er
Ġfant aisie
an ni
on gement
Ġenvoy Ã©es
Ġreport ages
ad u
âĢ İ
fr ont
Ġdistribu Ã©
Ġcerti fiÃ©
Ġimpli quant
D roit
Ġent amÃ©
F er
ĠN ancy
ĠCG T
ĠMan uel
Ġoccup ent
Ġpyr am
Ġapport Ã©e
Ã© dic
harm on
ĠdÃ©mÃ©n ager
attache ment
Ġsty lo
â ľ
Ġdiscu te
Ġcollabor ateur
Ġvag in
ĠmagnÃ© tique
Ã©gr aph
Ġsou met
Ġvertic ale
l ins
Ġa min
Ġat mosph
Ġcontam ination
Ġper vers
Ġcaf e
Ġmo quer
ĠprÃ©nom s
ĠinÃ©d it
Ġf osse
Ġins Ã©rer
Ġvari antes
Ġexpli quent
Ġpass a
exig ence
Ġri res
T arif
Ġadministr ateur
ĠP Ã©ri
Ġla tine
pro duction
Cons id
Ġcr aque
Ġbouill ante
or chestre
Ġforfait aire
Ġaffec ter
ĠaÃ® nÃ©s
Ġcr oir
l ab
Ġpartage ant
Ph ili
ĠarrÃªt Ã©e
DÃ©b ut
el ing
Ã©le ver
Ġinc lin
ĠdÃ©jeu ners
Ġpu ces
ĠJ ou
Ġcas inos
Ġ^^ '
Ġf iss
mi es
Ġno eu
Ã©ch antil
arr ange
Ġfl ammes
Ġappr entissages
Ġch oux
Ġferme ment
Ã©r y
Ġcl oche
g ing
ĠL yc
ĠEn vironnement
ĠintÃ©ri eures
ĠP ower
Ġvis er
de use
Ar mÃ©e
Ġtou chÃ©es
Ġg Ã¨ne
ah oo
ĠA qu
ad d
Ġaqu atiques
Ġride aux
Ġ= >
Ġaccompagn Ã©es
oph obie
AN DE
alog ie
G M
Ġ2 30
Ġman uelle
L ong
Pl ace
ont o
Ġgl aces
ĠF rÃ©dÃ©ric
Ġhorm is
RÃ©s ultats
Ġbi om
Ġens oleil
si Ã¨res
Ġaccus ations
ex poser
Ġquar ts
ĠX box
Ġgal ax
Ġoc Ã©an
esp Ã¨ces
No tez
Ġb riques
Ġcol lÃ©
di m
ĠChampionn at
Ã©qu ation
Ġres titution
ac s
ĠvÃ©ri fiez
ĠV oy
ad mis
Ġre change
H i
Ġbes ti
Ġloc alement
Ch oisir
E UR
ĠChe val
Ġp acifique
Ġs elle
Ã© o
op tions
e ctueux
ag an
M odi
orm es
Fr anchement
ad r
osph Ã¨re
Ġge ek
Ġphotograph ique
Ind ustrie
ĠCh an
trait s
ann uler
Ġmas car
Ġreconstr uire
ĠM erc
ĠG illes
Ã©tr age
Ġtempor aires
Ġplu gin
annon ces
ol ore
Ġci bler
emm ener
ces seurs
Ġinterven ons
Ġh ack
id a
Ġprati ciens
us cules
ĠSeu ls
Ġcontinu ant
Ġcher chons
Ã©ch appe
Ġincomp ati
E mploi
al li
Ġcons istance
Ġslog an
Ġner fs
ĠÃ©par gne
P ort
ĠmÃ©n agÃ¨res
Ġpr ai
Ġsympath ie
Ġc aval
amm am
Ġidenti fiant
Ġorgan iques
Ġ.... ..
Ġpi quer
Ġolymp iques
Ġach ar
ĠM obile
Ġconser vant
ĠdÃ©lib Ã©ration
Ġcompas sion
Ġexist ante
Ġmuscul aires
ĠVi ctor
Ġpres tigie
Ġcompli ments
ĠM ons
Ġ197 7
Ġg ingembre
x ic
Ġcas ting
v ues
Ġh Ã©tÃ©
Ġfac ult
Ġinfini ment
ĠÃ© du
Ġn ier
Ġ19 30
Ġh ame
Ġapp lique
ĠR ol
ĠS avoir
z i
Ġsoci alistes
Ġnul lement
ĠcompÃ©t entes
Ġplac Ã©es
ĠJuli e
ï¸ ı
Dem ande
Ġinter actif
MB RE
ĠT im
Ġt oiles
enn ui
ĠNor v
Ã©tan chÃ©itÃ©
Ġdentis te
Ġsais onniÃ¨re
Ġdict ature
Ġent ente
Puis que
Ġindirec tement
Ġregard ait
Ġmus cle
Pro fes
l ong
Ġsa tell
ac qu
Ġsur pl
Ġcombat tant
ĠsÃ© chage
Ã ³
ne uf
Ġexp rimÃ©s
Ġman uellement
ĠÃ©criv ains
M M
ĠE DF
Ġv rac
ĠLi ve
l aient
ĠC Ã´tÃ©
Ġparrain age
u ch
Ġat ter
og ie
Ã©r ateurs
Ġmar ges
Ġn ick
Ġajout Ã©s
ĠS D
Ġchois ies
Ġperform ante
Ġtrib une
mail s
ĠF ais
Ġarr ange
Ġcar riÃ¨res
in itÃ©
ĠgÃ©nÃ©r Ã©
Ġre lier
T able
ops is
emp re
ĠemblÃ© matique
Ġinvent er
ĠdÃ© duction
Ã Ķ
qu aient
E ur
alis ent
ĠÃ©qui v
ĠvÃ©c ue
Ġcommer Ã§ant
ĠdÃ© duire
Ġsuppos er
Ġpl ier
Ġvers Ã©e
Ġall Ã©es
Ġcoll ines
Ġb ig
ĠrÃ© agit
allÃ¨ lement
Ġiniti Ã©
mar ine
Ġconv ocation
Ġsalari ale
Ġpos ant
Ãª tant
el age
Ġ197 4
ĠE li
ĠSon y
Ġling erie
Ġd auph
Ġlis ible
ĠsÃ©jour nÃ©
n uit
resse urs
Ġlaiss ait
Ġcourri ers
Ġvit res
t or
Ġutilis ations
Ġvign oble
Ġcommuni quÃ©es
ĠthÃ©Ã¢ tr
uffis ance
T es
Ġparam Ã¨tre
Ġchou ch
ĠUn is
al th
Ġci ment
AN C
ĠTe am
ĠÃ©tudi e
Ġadh Ã©rer
Qu Ã©bec
. *
Ġbou ffe
Ġcompos itions
Ġmut ations
6 00
Ġsuc res
Ġcommence ment
Ġregard ent
Ġsh ort
Ġo li
ĠAlex andre
ĠillÃ©g al
ad os
ĠOb jectif
Ġavanc Ã©s
Ġbl ond
Ġexerc Ã©
Ġcap tiv
ĠY ves
Ġd og
in cident
Ġade pte
ĠtÃ©lÃ©char gÃ©
ris ti
Ġadolesc ent
Ġbles ser
Ġlong Ã©vitÃ©
Ġinfr action
ĠamÃ©li orÃ©e
c onne
ĠPS G
Ġc Ã©
Ġser pent
Ġven ais
A qu
Ġac quisition
ath lon
M ettez
Ġorganis ent
Ġpos Ã©s
Qu atre
P OS
Ġfroi des
te liers
Ġsolid itÃ©
ul aritÃ©
ch amp
i ves
Ġatten tive
Ġreconn aitre
ff usion
ale z
Ġstric te
En semble
Ġaper Ã§
Ġc uite
Ġinoxyd able
Ġtempor airement
ĠA yant
ver bal
Ġminim iser
Ġreconnaiss ant
Ġcor rig
ĠdÃ©m onter
Ġmunicip alitÃ©s
Ġintellectu el
Ġmassac re
ĠprÃ©sid ents
Ġb Ã©
ch is
Ġmoelle ux
ĠHT ML
ĠgÃ©n oci
Ġaj uste
ain ts
ĠCha mps
les s
Ġre tient
Ġaim able
tout es
Ġvibr ations
Ġreg orge
cu it
Ġm Ã©g
ĠcrÃ© neau
Ġcommen Ã§
all ation
ad vers
Ġdr Ã´les
Ġ196 2
Ġf outu
Ġz en
Ġdonner ont
ĠdÃ©lin quance
ocr atie
ĠR GPD
Ġprojet er
Ġport age
Ġes car
exp ansion
J u
Ġfr ites
hÃ©s iter
ĠcoÃ» tÃ©
Ġprogram mer
onc Ã©s
Ġbrev ets
tr ages
Ġprogram mÃ©e
ai le
Ġsil icone
Ġpl aine
AB LE
ĠPok Ã©mon
c ris
ĠG ra
Ġdiplom atique
m or
j out
Ġrempl issage
Ġtrouv ons
ĠdÃ©mÃ©n age
Ġbr iller
Ġensoleil lÃ©
ĠE uro
ĠPrÃ©s entation
ĠSt and
Ġam usÃ©
Ġ196 7
Ġouv rables
Ġch ienne
Ħ ¢
Ġgrec que
Ġcap ill
Ġph yt
Ġexp er
ĠS ont
Ġobser vation
Ġboudd h
o Ã®t
ĠrÃ© viser
Ġmens onges
Ġgramm aire
Ġr ame
Ġpropos ez
P al
S ouvent
oll y
Ġas se
Ġdent elle
ĠAli ce
ĠdÃ©cr its
Ġassure urs
ogr am
us tÃ©
Ġbrouill ard
Ġann uelles
Ġser rer
Ġdo ctorat
V O
Ġrenouvel Ã©
Ġins istÃ©
Ġtax is
Ġatt ribuer
arr os
ĠÃ©cl airÃ©
ĠmÃ© trage
Ġprotoc oles
ĠRen contres
ĠX VI
Ġr umeur
Ġchaleure usement
Ġperfection ner
Ġbr usque
Ġdou zaine
Ġchocol ats
oy eur
ĠP ER
Ġsouff ler
ĠB Ã©n
ert ension
Ġcompos iteur
Ġpharmaceu tique
anc el
Ġinter ess
ĠMar rakech
ĠdÃ©f unt
ore x
ĠfaÃ§ ades
Ġsau c
Ġplong Ã©
Ġb assins
itinÃ©r aire
Ġ> >
Ġexp Ã©dition
Ã© chÃ©ance
ĠenquÃªte urs
app es
Ġpu zz
ve use
Ġsacri fice
Ġprati quant
til lerie
Ġman agers
re lles
Ġnau tiques
Ġsomm aire
Ġaccompagn ons
ĠS el
s aint
Ġfes tive
Ġcondition nement
k rain
olÃ© on
Ġun is
Ġs l
Ġtac tique
Ġform Ã©e
Ġfem elles
ĠD ate
acc us
Ġcl ois
Ġconfront ation
H er
olog istes
Ġrapp ellent
Ġ19 18
Ġlob by
ĠF ar
Ã©c os
Ġpar ier
Ġboi tier
Ġrempli es
Ġrepr enant
inscri vent
Ġcour bes
Ġportug ais
Ġ19 20
p ublic
Y S
Ġconfi ant
Ġli tiges
Ġfais abilitÃ©
Ġper cer
Ġtr uff
ĠprÃ©c Ã¨de
f oli
qu atre
ĠFranc isco
ĠW ar
Ã©li que
ĠT ra
ĠgÃ©nÃ©re use
Ġd an
ĠrÃ©p onde
Ġput ain
ĠContin ue
ĠPrin cip
Ġinv itÃ©e
Ġven geance
ent ente
inc on
Ġaspir ations
ĠWiki pÃ©dia
ĠBur kina
Ġgarantiss ent
ĠS Ã©lection
Ġentre z
Ġse igneur
Ġsous crit
e ting
ĠAcc Ã¨s
al phab
Ġaffect Ã©s
ĠAp partement
Ġmettr ai
Ġimm atric
d or
ĠÃ©cri vant
Ġ: (
ĠrÃ©p lique
Ġcol or
ens iles
atis Ã©es
ab a
Ġviv ait
Ġrec ouvert
ĠrÃ©glement ations
Ã©cl at
ĠinfÃ©ri eurs
Ġsuc com
Ġ19 0
Ġstand ing
Ġch rom
Ġrig ide
anne xe
Ġinqui Ã©tudes
Ġtox ique
nivers aires
ĠZ one
Ġtu telle
Ġliv rÃ©e
Ġ197 2
Ġdi alogues
Ġrecev ra
Ġpar ach
inf lamm
Ġtr ame
R P
ĠÃ©p ing
Ġappuy ez
Ġsau tÃ©
opos ition
tÃ© lÃ©
ĠJ O
ĠOff ice
ĠsÃ© duction
Ġarb orÃ©
S alle
Ġgren ier
Ġtoit s
Ġprolong Ã©
in ten
Ġdoul oureuse
Ġpoli ticiens
Ġcan alisation
D isponible
ĠrÃ©cip ient
C amp
ĠconsÃ©cu tifs
onc Ã©e
af e
Ġparfait es
Ġconsci ente
in se
Ġclassi fication
ou lÃ©
Ġsp ot
ressi f
Ġfus il
Ã©p ices
ĠPalestin iens
Ġfr ot
Ġr attach
Ġm ouche
aÃ¯ ques
Ġcont rer
Ġpav Ã©
Ġpour ri
ĠgÃª nant
av oriser
ĠSAR L
ri gÃ©
Ġorient Ã©e
Ġball ons
ĠSi x
Ġprote cteur
u tion
Ġinj uste
Ġfil mer
Ġun ion
Ġa Ã©roports
ĠBe ach
Ġorganis ons
Ġrig ole
ĠB ell
Ġco eurs
Ã§ onnerie
ff Ã©rence
Ġlinguis tiques
Ġbl uff
Ġmac ro
Ġr ic
ĠP ape
ĠdÃ©mar quer
Seu lement
k h
Ġdi d
ĠrÃ©ci di
Ġm Ã©s
Ġrav ir
Ġpeu pl
mar Ã¨s
An alyse
Ġad hÃ©s
ĠdÃ©ni cher
Ġign orer
ĠÃ©g alitÃ©
Ġentre p
I m
Ġau trui
Ġdiplom atie
Ġeff ray
Ġconfr Ã¨res
Ġsigni fier
ĠspÃ©cific itÃ©
ĠdÃ©fense urs
Ġfaute uils
L iv
ĠCap it
ĠTech nique
Ġinqui Ã¨te
ĠfrÃ©qu ences
Al zheimer
ĠpÃ©riph Ã©riques
Ġguid Ã©es
Ġcub es
L u
Ġmon iteur
Ġb erce
ĠCrÃ© er
Ġmar quÃ©s
Ġjusti fiÃ©
b ay
iss a
ĠLibert Ã©s
Ġloint ain
Ġinstitu tionnels
Ġdo ctrine
ĠdÃ©p ens
env eloppe
Ġanim ales
ĠMar cel
ak ar
n os
Ġarri vez
ĠdÃ©crit es
pos ez
ĠnÃ©cess iter
ĠbÃ©nÃ©fi ques
Ġtr il
Ġhar icots
C M
ĠbÃ¢ ton
Ġchor Ã©graph
ĠM Ã¨re
ĠB ises
od o
quÃ© reur
ĠlÃ©g alement
Ġtrans mise
Mar ne
Ġg arer
ig es
Ġsur plus
Ġfin aliser
Ġsitu ent
ter nel
gr en
esthÃ©s ie
Ġconc urrent
c it
Ġman Åĵuvre
ĠL ar
De vant
ĠB M
oure usement
accro Ã®tre
Ġrur ales
Ġint ol
Ġt arde
olog iste
Ġoff rira
ag ression
ĠcinÃ©mat ographique
Ġrend ait
Ġbouil lir
Ġmen Ã©s
Ġcorre ctions
intr oduire
Ġdisc er
end ance
Ġidi ot
emp orte
escl avage
Ġdur ent
Ġrestru cturation
re ments
Ġsuper vision
Ġcommun ale
ĠdÃ©clen che
qu ais
lu ie
Ġsouhait able
ĠXX I
Ġrais ins
ĠdÃ©velopp ant
Ġsc ooter
f emmes
ĠpÃ©ri odique
Ã©li e
Ġtechnique ment
Aut res
Ġarri vons
Ġbou chons
fi ante
ĠÃ©lÃ©g ance
assi que
n aud
atis Ã©s
Ġordin aires
ĠE p
ĠW in
Ġmagn Ã©sium
ini tier
Ġr it
m onde
ĠspÃ©ci fications
Ġgagn ent
Ġpart ons
Ġar d
C onseils
ĠEntre prises
Ġfon te
Ġon cle
ĠG ab
Ġten ez
Â° ,
utri tion
ĠImp ossible
Ġi ne
ĠcontrÃ´ lÃ©e
Ġs iens
argu ment
F P
eu tes
gn ation
Ġpel li
Ġa isÃ©e
Ġmil itant
onn a
Ġgourmand ise
n ons
en lÃ¨vement
Ġconstitu tionnelle
as tu
Ġrattr ap
Ġre desc
dÃ© velop
L oire
ĠrÃ©cup Ã¨re
Ġcroy ons
g al
Ġfl am
ĠprÃ©t ention
Ġson de
ĠdÃ©passe ment
Ġenvisage able
ĠMar y
Ġattr actif
inter action
ut ant
ench aÃ®
ÃĪ RE
g ard
il Ã©e
... ,
ĠT G
Ġsur vient
aÃ¯ ti
Ġrepr it
Ġsyndic ale
Ġsoi gnÃ©e
Ġressour cer
ir ait
ĠdÃ©li re
2 000
G uide
Ġcollabor atif
tis Ã©e
ĠcohÃ©r ente
ĠP DG
Ġloc atif
ĠP oi
ĠrÃ©alis ant
Ġch and
Ġmo re
Ġpne u
ĠMo di
agir a
ign y
Ã©qu ilib
Ġdiffus Ã©es
Ġver be
emp ire
ĠrÃ©sid us
Ġbrill ante
Ġbr ille
ĠrÃ©perc ussions
Ġen tiers
ĠcompÃ©ti tifs
mÃ© trage
ĠK er
Ġtourn a
ĠH os
Ġexp ansion
Ġagran dir
OI RE
Ġme urent
ĠA ction
A chet
rig ht
Ġcontre faÃ§on
ĠC LI
ĠpÃ©riph Ã©rique
ĠFlor ence
ĠcompÃ©ti tif
emb rasse
I RE
ob lÃ¨me
h ome
un k
attent at
ĠÃ©ch ouÃ©
ch an
Ġad orent
ĠCar oline
iner ie
N ic
s alle
ĠF ut
ti cien
p u
DÃ©velop per
V OUS
g me
ul teur
ĠÃ©mer ger
Ġcan tine
oph y
ĠAr ri
Ġtraje ctoire
ĠT H
Ãī T
Ġh aleine
W h
Ġactiv Ã©
Ġoffici er
Â° .
Ġlongue urs
Ġannonc Ã©s
ĠcosmÃ© tique
Ġtri o
Ġsur venir
ĠH P
Ġesti mer
apprÃ©ci ation
ise aux
ĠMais ons
or ise
by e
ĠdÃ©ci dez
Ġcondu ites
Ġbron z
Ġnick el
Utilis er
ol ont
Ġcent enaire
ĠConf Ã©dÃ©ration
ĠconsidÃ©r ables
Ġfoss iles
rob e
pos Ã©e
Ã©licopt Ã¨re
ĠV O
app els
Ġb aigner
Ġb onnet
Ġsinc Ã©ritÃ©
RÃ©p onse
ĠWilli am
indivi dus
Ġrempl acÃ©s
ĠisraÃ©li en
envis age
Ġmen acÃ©
Ġdo ctor
V raiment
Ġoppos ants
Å Ĵ
e mbl
Ġram asser
Ã©t oiles
Ã©ti ers
Ġp itt
Ġhiver nale
Ġfol k
opath e
Ġdiscrimin ations
Ġmobil isÃ©s
vi Ã¨re
Ġper mission
Ġconj on
Ġconser vateur
Ġmilli mÃ¨tres
y er
Ġvesti ges
Ġtrim estri
um age
Ġsupp rime
Ġpsych o
Ġprati quent
ce aux
Ġreg istres
Ġmang ent
Ġassembl Ã©es
ĠbÃª tise
M ieux
el i
Pr ise
ĠCh at
Ġautomobil istes
Ġaffich Ã©e
ĠmÃ©ch ants
Ġmoyen nant
Ġvamp ires
Ġviol on
ac une
Ã¢ tel
ĠÃ©c arts
Ġexcur sions
attend ent
ĠdÃ©n oncÃ©
Ġhu mble
Ġperp Ã©t
ys Ã©e
ĠvÃ©t o
ais sement
Ap prendre
Ġvoud raient
ĠprivilÃ©g ie
ĠdÃ©t est
Ġvendre dis
ator ze
Ġisol Ã©s
atis mes
affect ation
Ġved ette
Ġhabit able
Ġpil oter
Ġlanc Ã©s
ĠL and
ĠC ou
Gr ande
ĠFig aro
Ġher be
ĠpÃ©n urie
Ap pr
Ġrepr ends
ĠdÃ©c ry
ĠintÃ©gr alitÃ©
Ġro ad
Ġjoin te
Ġsere inement
ĠParis ien
Ġinv itent
ris onnement
Ġcontinu ellement
Ġbomb arde
appr ends
Ġ10 5
tr action
Ġinter roge
Ġap ercevoir
Ġcomp are
Ġret ards
Sui vez
Ġsep tiÃ¨me
ĠcomÃ©di ens
Ġhall uc
Ġman ie
ĠSeu le
ĠC ook
Ġmin istÃ¨res
ĠL ap
ĠultÃ©rieure ment
Ġsoud ainement
ĠLib Ã©ration
N O
ard on
ĠtraÃ® ne
Ġprote ctions
Ġcompar atif
vi c
g ni
Ġinterpr Ã©ter
us anne
Ġpoli ciÃ¨re
Ġdou ches
ĠÃ©lÃ©ment aire
l uer
Ã©r ale
Ġtou ch
pe dia
Ġadop te
ak es
us ions
ĠpiÃ©t ons
Ġver ront
ĠC ah
Ġami c
ĠD isc
ins pirer
ant erie
Ġcer ise
ĠPre mi
An cien
oule urs
Ġch Ã¢teaux
C our
Ġci eux
Ġalphab Ã©tique
atÃ©g ie
arg ile
t ais
ĠR SS
oÃ¯ des
Ġâ Ļ
Ġutilis able
Ġsens ori
fr anÃ§ais
Ġliquid ation
com bre
dÃ© b
ĠidÃ© ales
Ġ20 30
Ġ11 5
Ġsing le
Ġjeu dis
ĠH omme
Ġappli quÃ©s
ĠprÃ©p arez
Ġpoursui vent
ouv rages
Ġca chent
Ġrespect ueuse
ĠWi fi
ĠPar ole
ĠIs abelle
uy ez
Ġpi v
Ġdes criptions
Ġad o
Ġi OS
inc apacitÃ©
Pro vence
mer ic
ycl op
Ġrec uler
ĠdÃ©sign ation
Ġpollu ants
Ġh ard
Ġrur ale
Ġgrat uitÃ©
Ġvas tes
Ġbor ne
Ġcas cade
Ġve ine
advers aire
R ouge
ke y
Ġfil ets
R appelons
ĠM ou
Ġv Ãªt
ame d
ĠConc ernant
Ġpitt ores
ili aire
Ġmaterne l
Ġgla ci
esp agnol
Ġbr ute
Ġfer mÃ©es
rÃ©e z
ĠPar fait
an ine
adress es
ĠP oly
ĠF leur
embl Ã©e
Ġ ombres
2 50
Et ant
inv iter
oir Ã©e
ĠmÃ©d ailles
ĠPV C
ĠdÃ©ri ve
TE MENT
Ġinflu enc
Ġfl anc
ĠnÃ©er landais
Ġtypique ment
jus tice
ĠconsidÃ©r ant
ir us
ran e
Ġprotot ype
G o
Ġparticipe z
ĠT rait
H oraires
Ġc uve
Ġo ct
ence z
Ġviol et
Ġinflu encer
Ġpoin ter
Ġcons oles
Ġs ms
ĠA vis
affir me
Ġfant Ã´me
Ġimp rovis
Ġmyst Ã¨res
Ġs onner
ĠTrÃ©s or
Ġpres criptions
c lub
Ġenc omb
ĠÃ©lar gir
ĠRe al
ĠpÃ©n it
ĠintÃ©gr Ã©es
D H
ens ation
V EN
ĠÃ©duc atifs
Ġvit ale
se e
ol les
voit urage
Ġplace ments
en ay
hÃ©r itage
erre urs
udg et
et Ã©s
Ġessay ons
ĠA y
D Ã©m
Ġaccep tent
Ġplu g
ĠlÃ©gisl atif
ĠS IM
fi able
ĠÃ©pau le
amende ment
ĠI r
ĠCont re
Ġexclusi vitÃ©
ĠlÃ©s ions
Ġinqui et
OU VE
ĠBr est
Ġressor tissants
ĠC lÃ©
RÃ©s ultat
Ġbug s
ag en
ph al
Ġai res
Ġat titudes
ĠAn t
Ġappr entis
Ġindic ateur
Ġtrag Ã©die
indi cation
ber on
Y ork
Ġc ors
Ġquan tit
Ġconcer ner
ĠVier ge
Ġos c
ĠdÃ©p la
Ġmod Ã©rÃ©
ĠsÃ©lection nÃ©es
imp rim
ingrÃ© dients
Ġprol onge
in Ã©es
osc ope
ĠCas ino
Ġla mb
val uation
Ġimp rob
ĠD un
Ġpar aissait
Ġtri angle
Ġimm obil
tiss ent
SI ON
ĠdÃ©partement ales
ĠT OU
Ġin accessi
ĠH ouse
Ġconjoin tement
Ã©conom ies
pos t
ent ez
j ette
ĠH avre
ĠmystÃ©ri euse
Ġjustific atif
ver sible
IR ES
ghan istan
Ass urer
Ġfonde ments
Di fficile
Ġjui f
p eu
acc Ã©lÃ©rer
Ġscrup ule
ist a
ot Ã©e
obsc uritÃ©
s w
Ġn us
ĠAut o
Ġharm on
el ine
ĠC ES
rois sement
Ġvis Ã©es
Ġpermet tr
vi ol
Ġess or
Ġincon di
Ġh igh
Ġassur Ã©ment
ĠR Ã©c
gr oupe
Ġde al
ĠlibÃ©r aux
Ã©panou issement
D onnez
Ġcapt urer
Ġchi ot
ĠprÃ©par Ã©e
Ġasi atiques
Ġcrimine l
Ġhybri de
Ġbid on
ins Ã©curitÃ©
T ex
Ġcondu its
Ġpros pection
as er
Ġinf lamm
ĠVe gas
imp liquer
ĠD en
Ġin times
Ġcro Ã®tre
Ġren ouveau
erre ment
Ġme mb
ĠrÃ©vÃ©l ations
Ġlanc ent
ĠAr d
ĠdÃ©s ordre
ĠD isponible
it ables
ĠOu ais
Ġa ge
entrepreneur iat
Ġmo que
ĠMon te
G u
T itre
ĠvÃ©r anda
Ġpou mons
Ġfam ilier
Ġdi gnes
m onnaie
ot ation
ĠdÃ©fil er
âĢĻ ,
Ã©c oles
ynam ique
ĠdÃ©tour ner
1 20
ĠCh al
intÃ©ress Ã©
Ġrou tiers
Ġnavig ateurs
Ġcanadi ennes
opÃ©r ations
ĠSar ah
el lÃ©
Ġ19 00
I CE
ĠAr c
ĠdÃ©pl acÃ©
ai mes
200 5
ĠO UI
ĠV IE
ĠB es
Dem ain
y ne
ak istan
Ġgouvernement ales
Ġjal ousie
Ġki os
V P
tr and
fli x
Ġrecru te
Ġjourn alisme
ĠT rai
Ġla ct
Ġsymb ol
err and
ĠCentr ale
h otel
ĠlibÃ©r ale
ĠIN TER
ĠrÃ©veill on
ĠCOM M
H P
Ġ25 00
ann y
B run
ĠjeÃ» ne
Ġan od
Ġinsupport able
ĠV idÃ©o
ĠdÃ©clar ent
ĠJ U
Ġcerti fiÃ©s
Ġr aid
effe ctif
Ġcor rÃ©
Ġinterrog Ã©
Ġj acuzzi
â Ħ¢
in cip
ĠT imes
Ġpharmaci en
Ġju gÃ©e
Ġconsoli der
Ġeff acer
Ġver dict
Ġbas culer
ĠÃ©lÃ©ment aires
[ /
D r
ate l
ĠdÃ©pass ant
ĠE tre
excell entes
Ã©vent uels
Ġmaxim iser
Ġpropag ation
end rais
A f
c elui
ĠPl utÃ´t
as th
Ã©p ic
ĠOlymp iques
Ã© duc
ĠÃ©ter nelle
ĠAut om
Ġt ord
ĠJ ules
Ġpor no
Ġbomb es
ĠCom miss
Ġpoin tes
ĠB ul
Ġstru ctur
s o
l ables
ĠDi fficile
Ġsou lever
Ġm ers
Ġinfir miers
ĠU V
Ġinter commun
Ġt an
Com prendre
Ġobser vÃ©e
Ġnoti fications
accum ulation
ins on
ĠtÃ©lÃ©phon er
ĠA th
Ġca chet
ĠT w
F il
tit res
oth Ã¨que
. :
ĠInd ustri
ĠVir gin
Ã©tabl issements
Ġbri Ã¨vement
Ġretrouv ons
ĠÃ©l oi
hospit alisation
Ġcheval ier
Ġprati cien
ĠdÃ©couv rant
Åĵu fs
Ã¨g ent
le ments
ĠB B
ĠprÃ© visionne
g estion
Ġb Ãªta
ĠTer min
Ġgr asses
TÃ©lÃ© chargez
ĠDi dier
F M
Ġredresse ment
Ġouvert ures
Ġcon gel
av as
te ls
ust om
ĠrÃ©s identi
ppe lez
import antes
Ġsugg Ã©rer
Ġpos a
ĠExp ress
au berge
S ud
ĠLÃ© on
F Ã©licitations
Ġcharge ur
iff el
Ġa Ã©r
Ġcri min
Ġco effici
Ġporter a
Ġk ayak
ĠV acances
Ġ6 50
Ġsur venu
excell ent
tin er
c orÃ©
Ġdispar us
Ġjou ait
Ġreconn ait
P age
Ġmanifest Ã©
Ġcon quis
ĠT emple
Ġle vant
Ã©nÃ©r alement
Ġgagn ante
di ez
r iter
Ġcons istant
at rique
b our
Ġfourn issant
Ġimmer sion
exp iration
ĠdÃ©c omp
Ġensole illÃ©e
utilise z
Ġcol orÃ©es
Ġrig oureuse
Ġrev endre
' "
Ã©conom iser
Ġtransform Ã©e
Ġagressi f
ĠCar refour
assure ur
htt ps
c y
H all
Ġy outube
ĠRe p
Ġattr aper
ĠP asse
anim ateur
t ag
Ġinoubli ables
par able
Ġorth od
Ġramen Ã©
av eu
Ġpas sif
Ġreli Ã©
Ġfil er
ĠpersÃ©v Ã©rance
Ġprend ront
Ġpertur ber
ĠrÃ©capit ulatif
Ġcommun ion
Ġtradu ctions
ĠdÃ©blo quer
ĠDr agon
Ġ195 8
en qu
and erie
ĠL ic
Ġpi Ã©g
ĠrÃ© ag
ĠD ie
Ġprosp Ã©ritÃ©
Ġs oft
Ġall ocations
ĠC enter
ĠdÃ©roul ant
ju in
Ġincap ables
ĠCub a
Ġsuffis ait
amor ph
Ġparas ites
n b
Ġproli f
Ġt ueur
ĠMes sieurs
Ġami cal
Ġdr ones
DÃ©c ret
Ġap te
ĠMar ne
beau coup
Phili ppe
ĠM oins
ge oise
ĠÃ©g oÃ¯
s ud
ĠC AN
ec k
excell ente
Val entin
Ġd alle
ang Ã©es
F l
ĠQuÃ©bÃ©c ois
Ġad join
ĠFil m
Ġjoy euse
ĠV ice
fe cture
ĠNath alie
Ġh otel
ĠM AC
Ġfr aternitÃ©
Ġdans es
Ġm dr
Ġb ite
w atch
v rage
! ),
Ġst ades
Ġdesign ers
Ġser vait
Ġass ises
Ġmagistr ats
Ġ âĢĻ
it at
Ġconsomm Ã©
Ã©nÃ©fici ez
Ġa ctrice
Ġme xic
Ġsurpren ante
AL L
it ablement
ĠRoch elle
ag gr
ĠdÃ©p endra
tig m
ĠSer ge
adap tent
Ġp uni
Ġdes igner
Ġlaiss ons
Ġhorm ones
ĠbÃª tises
Ġvol Ã©e
ĠrÃ©g iment
f ils
Ġb ailleur
se ill
d res
ĠrÃ©sist ants
Ġann ulation
Ġsur venue
adel oupe
d l
Ġblogue urs
Ġfer ment
Ġchi ant
Ġrem Ã¨des
Ġin n
Ġphilosoph ique
B E
Ġmir acles
Ġgame play
L ui
Ġfl ag
q Ã»
s ax
Ġmention nÃ©e
ĠdÃ©m ographique
ĠF OR
Ġsurvi vants
Ġtermin ale
empl issez
ĠPay pal
Ġache vÃ©
Ġerg onomique
ĠA lsace
Ġpas sionne
Ġcend res
AP P
ĠrÃ©pand ue
ĠdiffÃ©ren cier
ĠmodÃ©l isation
appar aÃ®t
b oy
Ġraj outÃ©
Ġcar c
Ġradi cal
Ġtyp iques
Ġmax i
Ġsupp rimÃ©s
b ie
Ġcon quÃ©rir
ĠOc cident
* .
Ġappel ant
ti fic
Ġex otiques
ĠcontrÃ´ lÃ©
W eb
Ġremont Ã©e
Ġarm oire
Ġin accep
Z Ã©lande
Au gment
ĠÃ© ro
ĠmatÃ©ri elle
v oilÃł
Ġapp l
Ġorgan e
. âĢ¦
Ġsy rien
Ġt amb
emprun t
Ġconjon cture
Ġajuste ments
Ġt ribu
ign an
ĠlÃ©giti mes
ĠSte ph
Ġb est
Ġann uaire
ag ro
ĠCab inet
Ġgri gn
an isation
ĠXVIII e
Ġstric tes
Ġmar Ã©e
ĠD ay
emb our
Ġpr ÃªtÃ©
e h
Ġ196 9
Ġag issant
], [
Ġvigil ant
Ġrecue ille
Ã©r en
ĠP in
ar on
p resque
ĠpÃ¢ le
Ġdev ises
Ġbr uy
ĠD ites
l oi
Par t
ĠTor onto
Ġperman ents
ĠCin Ã©ma
Ġentour ent
Ġf Ã©es
Ġsurv Ã©cu
Ġdr ain
ĠDem ain
Ġcomb inÃ©
Ġdos age
u des
ĠFl ash
Ġrenv oi
Ġconfir mÃ©s
ĠdÃ©ri ves
ĠgÃ¢ cher
TI F
ANT S
Ã©t oile
Ġterritori al
Ġgab ar
v aient
ĠprÃ©venti ve
Ġrecher chÃ©s
Ġl Ã©
Ġconfront er
ĠstÃ©rÃ© ot
om i
ĠdÃ©cidÃ© ment
Ġs ainte
Ġcomp lot
se ction
Ġjustes se
Ġsatisfais ante
Ġfasc in
P s
ĠitinÃ©r aires
Ġmus t
ĠÃ©duc atives
Ġforce ment
Ġle viers
ĠCi el
t ur
ĠC OP
O s
Ġrec rÃ©
Ġgouvernement ale
ert ain
Ġis olÃ©e
ĠIns titut
TI L
ÃĪ S
Ġprogram mÃ©
Ġjal oux
Ġauthenti ques
C as
al ies
Ġsouv enez
Ŀ ¤
ĠFr ank
i cher
di x
Ġlis ent
om ination
Ġinfr astructure
entrepren eurs
M adame
Ãª que
S M
S ont
____ ____
ĠdÃ©brou iller
ĠChe min
ĠprÃ© vient
Ġsusp ens
Ġsubst anti
Ġsal ue
ĠP op
ĠH ier
ĠrÃ©flex es
titu tions
ĠF ait
Ġsor ciÃ¨re
Ġpar venu
ĠF aso
ati te
iss aient
ern Ã©
Ġcer cles
ĠA mi
Pr oc
ĠA P
ais ir
Ġdurer a
Ġd op
ĠamÃ©n ager
end rons
ĠQu estion
Ġrev al
exploit er
ot ons
Ġcord on
investis sements
v ingt
ĠCar aÃ¯
ĠapprÃ©ci ent
Ġinter views
ĠhÃ©s itation
isponi bilitÃ©
ĠÃ©valu Ã©
Ġin gÃ©ni
Ġdistribu Ã©s
Ã©d ents
Ġcel Ãł
Ġpal lier
Ġcont este
ĠRom ain
ĠCor dialement
Ã©panou ir
ĠÃ©tr oitement
Ġital iens
ĠR estaurant
Ġli er
Ġvieilles se
Ġc ale
Ġcomp ression
Ġla pins
Ġimag inez
Ġconfi Ã©e
ĠindÃ©ni able
Ġappar ences
Ġconsomm ations
Ġdiss olution
Ġreli Ã©s
ĠbrÃ» le
Ġcar refour
Ġmo tion
II e
op le
ĠmÃ©di oc
ĠconsidÃ©r ations
Ġexcep tionnellement
ĠS ujet
Ġmain tes
END RE
ĠopÃ©ration nels
Ġveu ille
g it
ĠP res
Ġmam m
Ġp auses
Ġinc lusi
ĠRD C
ph ant
Ġemail s
Ġpolitique ment
tr y
Ġvit rage
ĠRen Ã©
ĠC AS
ĠPh ot
Ġla cun
ĠG our
ĠPar ten
ĠR ES
ĠMil an
Ġ: :
Ġca ke
Ġimp arti
Ġsovi Ã©tique
ar pe
agr and
Ġinterpr Ã©tÃ©
Ġlaiss a
ĠrÃ©pond rons
ĠprÃ©cip itations
ĠE uh
ĠdÃ©cÃ©d Ã©e
ĠdÃ©mocr atiques
ĠA T
g ences
ov a
m aux
Ġrelation nel
exist ent
Ġobten ues
Ġloc alitÃ©
Ġmar quage
mb er
H Ã´
Ġsav aient
ĠsÃ©n ateurs
ĠSal ut
Ġdysfonction nements
ĠfrÃ©quent Ã©
ĠprÃ©di lection
ent Ã©
ĠapprÃ©ci Ã©s
anc a
Ġphilosoph e
ĠP ublique
ĠdÃ©clar Ã©e
Ġchirurg icale
Ġracc ordement
Ġex istÃ©
hÃ©r ap
Ġcherch ait
o Ã«
ĠA ri
Ġparticip ations
mÃ© tique
Ġtalent ueux
Ġb aise
ĠV au
Ġs ob
Ġb ais
appar tenance
ĠO rient
An g
imp rÃ©
obli ge
Ã©s ame
ond ation
Ġorigin alitÃ©
ĠF IN
Ġcoc otte
Ġcart ographie
Ġdom ine
" ).
Ġab onner
AD N
Ġvi gner
Ġmat os
m os
Ġcafe tiÃ¨re
ĠrÃ©d acteur
Ġmanip ulations
Ġca hiers
Ġbracel ets
mar in
Ġhab its
ĠBl ue
vis uel
Ġbag age
Ġli on
Ġchagr in
ĠreprÃ©sent Ã©e
ĠprÃ©f ect
Ġmanne quin
Ġcol orÃ©e
adi ne
an et
Ġralentis sement
Ġanecdo tes
ali a
Ġr Ã©e
Ġpart agÃ©es
ĠM ort
Ġsangu in
Ġtra Ã§
Ġgar diens
G O
ĠMarti nique
p ain
Ġaller gique
Ġchange ant
Ġtrac as
Ġanalys tes
ĠRe gardez
Ġ197 1
vi de
Ġon Ã©reux
Ġcoiff eur
ĠIn tÃ©
ĠdÃ©c onse
Ġjou ez
ai gnÃ©e
ĠBen jamin
DÃ©s ormais
Ġdonner ai
ĠPetit s
ĠJeu ne
Ġli gnÃ©e
AM E
Ġmaroc ain
ĠJapon ais
Ġspont anÃ©ment
ĠMe mbre
j oignez
ĠB ad
V ille
Ġsour ires
Ġcomment Ã©
Ġsou lÃ¨ve
Ġterr estres
Ġterre ur
Ġfre e
Ġimp Ã´t
ĠnÃ©f astes
Ġchinois es
ĠMari a
ĠGu inÃ©e
nec y
Ġh avre
ĠF abri
Ġdiam ant
di enne
Ġcoord onner
ĠillÃ©g ale
at ts
ĠCommun es
Ġmariti mes
C G
asc enseur
ĠÃ©ti quette
Ġh ach
Ġdans eurs
Ġmal veill
ĠrÃ©jou ir
ĠOrganis ation
ĠentraÃ® nant
Ġexcell ents
Ġh uis
ĠM Ã©tiers
ĠÃ©vÃª ques
ĠconÃ§ oit
Ġh aha
Ġdou Ã©e
Ġcrimine lle
D Ãī
du ites
ĠdÃ©s Ã©quilibre
Ġpaill ettes
dÃ© ment
Ġsal ope
ĠÃ©mo tionnelle
Ġattach Ã©e
arme ment
E mmanuel
c ose
Re cherche
Ġconstitu ant
Ġl onge
ĠrÃ©public ain
Ġmet al
Ġchar cu
Ġab onnements
s ants
Ġmo tive
indemn itÃ©
ster dam
emp e
Ġbl ock
Ġbas kets
TEN TION
Ġradi os
Ġblan chi
Ġball ade
Ġdo ter
IE U
Ġobli ger
Ġbic arbonate
Ġoff rez
Ġobti endrez
amÃ©ric aine
Ġappar ten
ar is
Ġcon ju
ĠO ut
Ġplace z
ĠPÃ© kin
Ġpal marÃ¨s
Ġmout arde
ĠdÃ©ni vel
Ġpar oi
ĠS Ã©bastien
Ġconc ilier
an tie
) ?
Ġtrad ing
Ġtr ack
appÃ© tit
R Ã©d
ĠU p
ĠdÃ©fin itions
Ġrig olo
ĠL oisirs
ĠrÃ© veillÃ©
Ġaffec te
âĢ¦ âĢĿ
Ġaj ust
ĠProfes seur
ĠCa en
ussi on
Ġsex es
ĠMÃ© dic
Ġmassi vement
Ġdiffus Ã©s
st ensiles
ĠS pe
Ġni che
ch oir
Ġchevel u
Ec onomie
Ġdess inÃ©
Ġris quÃ©
Ġreten ues
F ais
Ġti rÃ©e
Ġbric ole
ĠmÃ¢ ch
obli g
200 4
ĠÃ©ch appe
Ġaggr av
ĠGR AT
Ġpoly ester
ĠIn formations
Ġresp ire
ĠT ourn
Ġamende ments
n ouv
Ġparc elles
Ġc ue
entraÃ® neur
ap a
ĠÃ©tudi antes
ĠÂ §
Ġplant ation
ĠChris tine
ĠdÃ©pos Ã©es
Ġiniti ation
ous til
mp h
Ġraff inÃ©
Ġvoud ra
ĠP O
k el
RÃ© f
Ġstup Ã©fi
Ġsuivi es
cr Ã©es
Ni veau
ĠCh amb
k es
ĠC MS
ĠLis bonne
Ã® mes
Ġlib Ã¨re
J ourn
eu l
E videmment
Ġinfir miÃ¨re
ĠH an
ĠrÃª vez
Ġli p
it anie
Ġtardi ve
Ġs ati
Ġnoctur nes
Ġprop ul
Ġb illes
Ġperfection nement
ĠT iens
oin te
ĠE iffel
aÃ®tr ise
Â ½
ĠÃ©chÃ© ance
ĠmÃ©diÃ©v ale
N S
ar isme
Ġtourn Ã©es
ĠB ritan
Ġsign ataires
Ġcomp atri
isse urs
Ġconser vÃ©s
ĠrÃ©cipr oque
ĠO rig
Ġsouhait ais
Ġs ers
Ġneu ves
ĠrÃ©uss is
ar che
Ġn oun
ĠÃ©tonn ante
o on
Ġrejet er
A Y
m it
Ġtex tures
op ol
v ienne
Ġ$ .
Ġsatell ites
amÃ©li ore
ĠL ocation
our ent
r Ã¨tes
Ġriver ains
inc onnu
V e
che f
Ġs quel
itu des
Ġpein tres
ĠdÃ©c rite
Can ada
ĠAgric ole
Ġaffich age
ĠCont act
ĠinÃ©v itable
app oint
d ay
Ġ13 5
Ġarri va
timi d
accomp lissement
Ġfle mme
ĠdÃ©si rer
Ġexer Ã§ant
h orm
ĠVi vre
Ġver tÃ©
ĠGal erie
Ġbil atÃ©r
at err
col ler
p or
ve y
âĢ ĳ
Cons ulter
Ġcamar ade
Ġcompt ons
ĠChar ente
or king
ĠdÃ©ten u
act uel
Ġatten tifs
face book
ĠMar tine
Ġreconn aissent
ĠB ord
Ġdesqu els
Ġinqui Ã©tude
H e
Ġsign alisation
Ġblan ch
ĠSav oie
Ġpay ez
Ġcontribu able
Ġremercie ments
ĠRÃ©p ublic
Ġgouver neur
Ã» r
ali menter
Ġcout umes
ĠPro che
ĠI rak
ĠdÃ©v ast
Ġcoin cÃ©
L aisser
Ġ196 5
ĠLa usanne
H a
Ġsp h
Ġprom etteur
ĠÃ©t anche
Ġmul tination
ofon dir
mar s
V idÃ©o
ĠtÃ©n Ã¨bres
te lles
V ER
ĠAU X
ĠT RA
Ġrenseig ne
Ġnob les
Ġvill as
Ġcro quis
av ancÃ©e
Ġcivil isations
Ġcrev ettes
l at
Ġdivis er
ĠPr op
ĠLi bye
ĠprÃ©sidenti elles
end rier
Ġpuiss antes
Ġhonn Ãªtement
âĻ ¦
ĠG olf
Ġinterp ell
Ġaccueill ons
ĠEss ayez
Ġparking s
ĠM am
ro w
P M
ath an
Ġsuff rages
Ġv all
ĠL ag
Ġinv olont
Ġrect ang
Ġspectac ulaires
ĠÃ©p oques
ĠrÃ©pÃ©ti tions
Ġfl ocons
en ry
Ġconf es
Ġsimpli fiÃ©e
ĠF ou
ĠPro duit
Ġl ie
ĠrelÃ¢ che
Ġa z
Ġparticip ative
D Ã©t
esti mer
Ġchauff eurs
Ġav ois
Ġav Ã©rÃ©
Ġexig Ã©
import ants
Ġhebdomad aires
ad an
Ġparti t
Al lah
ĠindiffÃ©r ent
in vention
ĠB ret
Ġcont amin
ĠRe ims
p ol
or age
Ġprol ongement
Ġrasse mblÃ©
Ġfac ultÃ©s
Ġcivi que
Ġexploit ations
Ġcar ence
ĠrÃ©sid ant
Ã©qu itÃ©
mp tion
ĠdÃ©f endu
Ġhabitu elles
ĠM ani
Ġph osph
ĠM ettez
ĠF ord
T oi
Ġspiritu alitÃ©
ĠplÃ©ni Ã¨re
incer titude
in jection
Sui vant
Ġcommiss ariat
ti Ã©s
Ex trait
Ġpers il
ĠrÃ©clam ations
Ġad orer
ĠL ieu
rib ue
ĠdÃ©g uise
Ġrou lement
amÃ©ric ain
Ġmar dis
Ġtr aiteur
ĠmÃ©di ateur
ĠcrÃ© atives
ac tÃ©
Ġd iner
abs orption
entre prendre
Ġb aume
Ġvraisembl ablement
Ġcorpore l
Ġre ins
ĠmathÃ©m atique
Ġchale urs
Ġco chon
ĠgÃ©noci de
Ġs aines
ac cidents
ji had
Ġim min
ĠCor an
ĠNi k
Ġinqui Ã©tant
Y ves
ĠCom pt
Ġpap illons
Ġr uelles
estaur ation
N ord
Ġmi ti
Ġaccro cher
ex ac
Ġradic alement
Ġref lets
Ġri ves
u aires
Ġabsur de
Ġtre mper
oph onie
ĠrÃ©pand u
ĠA telier
ĠH el
Ġf umÃ©
Ġva chement
omÃ©t rique
r ation
h ol
Ġvisu alisation
Ġmign onne
n ature
ĠD uc
ĠNorv Ã¨ge
Ġincendi es
Ġg au
Ġchante urs
or atoire
Ġinter dis
heure use
Ġcroy ant
eur op
v os
Ġsinguli er
Ġassist ante
ĠT U
ĠT s
En trÃ©e
ĠO li
av enue
Ġperdu es
ond er
Ġrond s
ĠrÃ©alis me
Ġesc ale
Ġpir ate
ĠC FA
Ġre ch
Ġoccident al
Ġattent at
Ġdon ateurs
Ġb ises
Ġdeven ait
Ġch en
respons able
Ġcontour ner
ou tÃ©es
Ġcor romp
Ġpan iers
Ġcardi aques
ĠtraÃ® ner
Ġtrott oir
DÃ©s olÃ©e
ĠrÃ© Ã©ducation
Ġins olite
Ġtradi tionnellement
C onne
Ġdisc rÃ¨tement
Ġroule aux
Per met
Ġpub s
int Ã¨gre
Ġpartage ons
hÃ©r os
aus tÃ©ritÃ©
Ġapport Ã©s
ĠdÃ©monstr ations
I rlande
ag ran
Ġaver tissement
Ġp endu
Ġven ger
Ġsusp ense
Ġengendre r
Ġcons om
ĠBeau tÃ©
ensi bles
ĠgÃª ner
att le
ĠPou tine
Ġin aper
Ġchar gÃ©es
exam iner
ĠmÃ©n agers
Ġin cidence
O ise
Ġabs ten
ocu ments
E Z
app ellation
Ġr ails
Ġh ousse
Ġrec ouvre
Ġjoli ment
Ġpolyval ente
Ġcompli ment
arbit rage
ĠsÃ© isme
Ġro cher
Ġcouss ins
ĠI niti
Ġappro cher
Ġray ures
Ġmar quant
D ou
Ġdiges tif
ĠP u
c ourt
ĠDi pl
Ġan niversaires
Ġdiv or
ĠdÃ©te cteur
Ġneur ones
anÃ§ oise
Ġf ÃªtÃ©
ver a
Ġu krain
ĠL un
ĠpÃ©n is
Ġdemand era
B ois
E p
Ann once
Ã©larg ir
ĠprÃ©sent ait
Exc ell
Ġam user
Ġbl agues
Ġrespir atoire
ĠrÃ©cla ment
ĠJean ne
Ġcarros serie
Ġ! ?
Ġcol oration
Ġam andes
Ġcarre aux
ĠrÃ©conc iliation
Ġg Ã®tes
oc us
ĠmÃ©dic in
Ġimpos ant
val ue
Ġpart ages
ins Ã©rer
an teur
Ġrempl aÃ§ant
Ġsp oil
utri che
Ã© pr
Ġvi etnam
ĠChap elle
Ġpron once
or o
op es
ig nÃ©e
Ġinf li
Ġl ist
Ġmens uels
O livier
Ġg ou
Ġins pire
Ãīt ape
Ġ75 00
Ġpoly valent
Ġexam inÃ©
Ġf illette
Ġpoub elles
i ki
ĠintÃ© rim
Ġjui ve
Ġrespec tives
ĠR od
f ac
Al l
Gr oupe
intÃ©ress ant
EU X
Ġ36 5
imp asse
ĠrÃ©gl able
ĠR EN
m ait
Ġracont ent
Ġjusti fication
Ġren once
ĠlinÃ© aire
an onymat
Ġmai tre
Ġc ils
Ġantibi otiques
ĠGu adeloupe
Ġg osse
Ġ% ).
ĠX avier
OR D
ĠI T
al t
op pose
Ġordonn Ã©
ry lique
Ġjou it
Ġche ck
Ġtant Ã´t
Ġcomp rimÃ©s
Ã©cl airer
ĠS hi
hu iles
us tin
Ġconser vateurs
Ġfer aient
oni a
im mÃ©di
ul sions
Ġal lÃ©g
Ġpi qÃ»
Ġpos ses
Ġcas ques
Ġver n
Ġatt est
ĠY oga
ĠCh allen
ĠUni on
Ġstim ulant
Ġinflu ences
ĠFlor ide
Ġindire cts
ĠF oire
Ġhydrau lique
g ets
ano Ã¯
Ġmaj est
Ġstim ule
ol ages
ĠdÃ» ment
Ġam ovi
Ġsurp oids
ĠContr Ã´le
Ins cription
Ġdiap orama
Ġcour ent
Ġsuperfi ci
Ġenn uis
Ġr aide
Ġexig ent
Ġtraum atisme
Ġt witter
Ġcart ouches
P RO
ĠK im
ĠLang ue
Pl utÃ´t
Ġarchitectur al
ct us
ĠlÃ©gend aire
hÃ´tel lerie
Ġhuman itaires
Ġgrav ure
G A
ĠP ERS
t ax
ouv rent
Ġcou ette
Ġ194 8
ĠA k
Ġescl aves
ĠbÃ©nÃ©ficie rez
ĠrÃ©s i
Ġv eau
ĠvÃ©tÃ©r inaires
V Ã©r
ĠÃ©t endre
ĠÃ©lig ibles
g uerre
Ġâ ĺ
Ã©qui per
ĠexpÃ©riment er
Ġs od
Ġfond er
Ġpassionn ante
Ã©vent uelles
Ġvec teur
ĠAt lantique
op Ã©e
fi eld
[...]
