{"<|endoftext|>":0,"!":1,"\"":2,"#":3,"$":4,"%":5,"&":6,"'":7,"(":8,")":9,"*":10,"+":11,",":12,"-":13,".":14,"/":15,"0":16,"1":17,"2":18,"3":19,"4":20,"5":21,"6":22,"7":23,"8":24,"9":25,":":26,";":27,"<":28,"=":29,">":30,"?":31,"@":32,"A":33,"B":34,"C":35,"D":36,"E":37,"F":38,"G":39,"H":40,"I":41,"J":42,"K":43,"L":44,"M":45,"N":46,"O":47,"P":48,"Q":49,"R":50,"S":51,"T":52,"U":53,"V":54,"W":55,"X":56,"Y":57,"Z":58,"[":59,"\\":60,"]":61,"^":62,"_":63,"`":64,"a":65,"b":66,"c":67,"d":68,"e":69,"f":70,"g":71,"h":72,"i":73,"j":74,"k":75,"l":76,"m":77,"n":78,"o":79,"p":80,"q":81,"r":82,"s":83,"t":84,"u":85,"v":86,"w":87,"x":88,"y":89,"z":90,"{":91,"|":92,"}":93,"~":94,"¡":95,"¢":96,"£":97,"¤":98,"¥":99,"¦":100,"§":101,"¨":102,"©":103,"ª":104,"«":105,"¬":106,"®":107,"¯":108,"°":109,"±":110,"²":111,"³":112,"´":113,"µ":114,"¶":115,"·":116,"¸":117,"¹":118,"º":119,"»":120,"¼":121,"½":122,"¾":123,"¿":124,"À":125,"Á":126,"Â":127,"Ã":128,"Ä":129,"Å":130,"Æ":131,"Ç":132,"È":133,"É":134,"Ê":135,"Ë":136,"Ì":137,"Í":138,"Î":139,"Ï":140,"Ð":141,"Ñ":142,"Ò":143,"Ó":144,"Ô":145,"Õ":146,"Ö":147,"×":148,"Ø":149,"Ù":150,"Ú":151,"Û":152,"Ü":153,"Ý":154,"Þ":155,"ß":156,"à":157,"á":158,"â":159,"ã":160,"ä":161,"å":162,"æ":163,"ç":164,"è":165,"é":166,"ê":167,"ë":168,"ì":169,"í":170,"î":171,"ï":172,"ð":173,"ñ":174,"ò":175,"ó":176,"ô":177,"õ":178,"ö":179,"÷":180,"ø":181,"ù":182,"ú":183,"û":184,"ü":185,"ý":186,"þ":187,"ÿ":188,"Ā":189,"ā":190,"Ă":191,"ă":192,"Ą":193,"ą":194,"Ć":195,"ć":196,"Ĉ":197,"ĉ":198,"Ċ":199,"ċ":200,"Č":201,"č":202,"Ď":203,"ď":204,"Đ":205,"đ":206,"Ē":207,"ē":208,"Ĕ":209,"ĕ":210,"Ė":211,"ė":212,"Ę":213,"ę":214,"Ě":215,"ě":216,"Ĝ":217,"ĝ":218,"Ğ":219,"ğ":220,"Ġ":221,"ġ":222,"Ģ":223,"ģ":224,"Ĥ":225,"ĥ":226,"Ħ":227,"ħ":228,"Ĩ":229,"ĩ":230,"Ī":231,"ī":232,"Ĭ":233,"ĭ":234,"Į":235,"į":236,"İ":237,"ı":238,"Ĳ":239,"ĳ":240,"Ĵ":241,"ĵ":242,"Ķ":243,"ķ":244,"ĸ":245,"Ĺ":246,"ĺ":247,"Ļ":248,"ļ":249,"Ľ":250,"ľ":251,"Ŀ":252,"ŀ":253,"Ł":254,"ł":255,"Ń":256,"Ġd":257,"es":258,"Ã©":259,"Ġl":260,"Ġp":261,"en":262,"on":263,"ou":264,"Ġc":265,"Ġs":266,"re":267,"Ġde":268,"Ġa":269,"er":270,"an":271,"ai":272,"ti":273,"qu":274,"Ġm":275,"ent":276,"et":277,"âĢ":278,"is":279,"te":280,"ne":281,"le":282,"âĢĻ":283,"Ġv":284,"Ġqu":285,"ar":286,"Ġt":287,"ur":288,"in":289,"ĠÃ":290,"Ġla":291,"Ġf":292,"our":293,"Ġet":294,"Ġle":295,"Ġu":296,"tion":297,"or":298,"ĠÃł":299,"il":300,"it":301,"Ġn":302,"Ġr":303,"Ġen":304,"om":305,"as":306,"ment":307,"Ġles":308,"Ġpr":309,"ous":310,"est":311,"Ã¨":312,"Ġdes":313,"Ġj":314,"us":315,"Ġb":316,"el":317,"ant":318,"al":319,"ais":320,"ce":321,"eu":322,"Ġpour":323,"au":324,"oi":325,"ont":326,"Ġau":327,"ve":328,"ation":329,"Ġun":330,"ans":331,"os":332,"Ġpar":333,"me":334,"ch":335,"tre":336,"ĠÃ©":337,"Ġque":338,"ri":339,"Ã©s":340,"Ġdu":341,"ci":342,"ag":343,"Ġpas":344,"Ġpl":345,"..":346,"Ġg":347,"li":348,"que":349,"ait":350,"ĠdÃ©":351,"ons":352,"Ġune":353,"Ġtr":354,"Ġre":355,"Ġcom":356,"Ġch":357,"res":358,"at":359,"Ġsur":360,"Ġdans":361,"de":362,"Ġest":363,"si":364,"Ġpro":365,"Ġqui":366,"mp":367,"Ã©e":368,"se":369,"ĠC":370,"Ġin":371,"Ġvous":372,"di":373,"Ġse":374,"tÃ©":375,"ac":376,"Ġplus":377,"les":378,"ĠL":379,"Ãª":380,"ab":381,"ĠrÃ©":382,"ie":383,"ff":384,"Ġe":385,"un":386,"out":387,"aire":388,"ol":389,"Ġ2":390,"ers":391,"ui":392,"ouv":393,"Ġce":394,"Ġne":395,"pr":396,"Ġcon":397,"Ġje":398,"Ġ1":399,"end":400,"ap":401,"ien":402,"Ġ(":403,"av":404,"Ġave":405,"ir":406,"am":407,"Ġ:":408,"elle":409,"Ġh":410,"ois":411,"itÃ©":412,"Ġou":413,"Ã¨s":414,"Ã©r":415,"urs":416,"Ġil":417,"age":418,"ĠP":419,"ain":420,"Ġavec":421,"Ġsi":422,"oir":423,"ter":424,"op":425,"otre":426,"ĠM":427,"Ã¨re":428,"ĠS":429,"uis":430,"ĠÂ":431,"ale":432,"ure":433,"Ġav":434,"Ġpeu":435,"tr":436,"Ġdi":437,"and":438,"...":439,"Ġan":440,"ul":441,"Ġ!":442,"onn":443,"ette":444,"ces":445,"Ġtout":446,"ati":447,"Ġte":448,"ques":449,"ĠA":450,"Ġmais":451,"tes":452,"Ġsont":453,"Ġgr":454,"Ġo":455,"Ġmo":456,"ue":457,"ĠE":458,"ort":459,"Ã©es":460,"ance":461,"Ġex":462,"ĠD":463,"Ġi":464,"Ġnous":465,"Ġ20":466,"eux":467,"che":468,"Ġli":469,"onne":470,"pe":471,"ge":472,"Ġme":473,"mb":474,"ction":475,"oit":476,"ĠJ":477,"ot":478,"orm":479,"vi":480,"une":481,"Ġser":482,"Il":483,"Ġcons":484,"Ġbien":485,"Ġ?":486,"ours":487,"ct":488,"Ġvotre":489,"Ãł":490,"mi":491,"fi":492,"rÃ©":493,"Ġson":494,"ille":495,"aux":496,"Ġcomp":497,"entre":498,"ins":499,"Ã©t":500,"ail":501,"ni":502,"ations":503,"Ġmon":504,"Ġfait":505,"Ġaux":506,"Ġcont":507,"Ġsu":508,"oc":509,"Ã©ri":510,"aut":511,"ence":512,"ise":513,"Ġfaire":514,"og":515,"Ã©c":516,"ĠÃ©t":517,"Ã´":518,"ĠB":519,"ĠT":520,"ors":521,"ux":522,"able":523,"ens":524,"pos":525,"Ġac":526,"Ġcette":527,"mes":528,"Ãªme":529,"ouve":530,"ĠF":531,"Ġper":532,"ad":533,"Ġy":534,"ĠÃª":535,"Ġvi":536,"Ġparti":537,"Ġdis":538,"ut":539,"ĠN":540,"lÃ©":541,"Ġsa":542,"ĠÂ»":543,"Ġap":544,"ert":545,"du":546,"Ã©n":547,"ants":548,"Ġcomm":549,"Ġpe":550,"ate":551,"Ġar":552,"ace":553,"ussi":554,"00":555,"um":556,"Ġpers":557,"âĢ¦":558,"oin":559,"Ġ201":560,"Ġal":561,"ig":562,"Le":563,"Ã§":564,"ĠR":565,"Ġon":566,"Ġcomme":567,"ĠtrÃ¨s":568,"Ġtou":569,"ĠÂ«":570,"tit":571,"Ġpos":572,"bre":573,"ĠV":574,"eau":575,"ique":576,"oup":577,"ore":578,"til":579,"par":580,"endre":581,"Ġmar":582,"ĠÃªtre":583,"id":584,"Ġ3":585,"Ġpeut":586,"ten":587,"oy":588,"ess":589,"ments":590,"ion":591,"bli":592,"ĠmÃªme":593,"ĠdÃ©c":594,"mps":595,"ĠIl":596,"ay":597,"aires":598,"ler":599,"Ġas":600,"Ġfr":601,"ard":602,"ond":603,"Ġcar":604,"Ġma":605,"lle":606,"tions":607,"im":608,"eur":609,"Ġaut":610,"Ġont":611,"Ġses":612,"ord":613,"alis":614,"ĠÃ§":615,"Ġquel":616,"ĠÃ©tÃ©":617,"ĠÃ§a":618,"ang":619,"Ġentre":620,"Ġaussi":621,"oci":622,"onc":623,"ĠprÃ©":624,"ez":625,"ble":626,"Ġtu":627,"ic":628,"Ġ\"":629,"Ġtrav":630,"Ġleur":631,"ents":632,"aine":633,"Ġtous":634,"ande":635,"jet":636,"sion":637,"Ã¢":638,"elles":639,"ine":640,"ĠG":641,"La":642,"ĠrÃ©s":643,"Ã¨me":644,"prÃ¨s":645,"met":646,"ex":647,"Ġfin":648,"ĠprÃ©s":649,"enti":650,"Ġces":651,"ill":652,"ser":653,"Ġsuis":654,"oire":655,"tement":656,"Ã©g":657,"Ġcr":658,"ist":659,"ven":660,"Ġtemps":661,"form":662,"Ġsou":663,"Je":664,"nÃ©e":665,"app":666,"ĠLe":667,"Les":668,"Ġdeux":669,"Ã®":670,"alement":671,"Ġnom":672,"Ġjour":673,"ĠJe":674,"Ġpre":675,"fin":676,"rer":677,"Ġsui":678,"Ġnotre":679,"Ġat":680,"Ġpu":681,"Ġsans":682,"ente":683,"Ġvos":684,"cher":685,").":686,"rai":687,"ĠÃ©c":688,"Ġimp":689,"Ġcel":690,"ouver":691,"Ġdiff":692,"Ġph":693,"esp":694,"ĠO":695,"Ġjus":696,"Ġter":697,"Ġenc":698,"Ġco":699,"ages":700,"ense":701,"vre":702,"ob":703,"Ġfor":704,"Ġdire":705,"tin":706,"st":707,"Ġelle":708,"Ġad":709,"use":710,"ĠmÃ©":711,"oli":712,"tilis":713,"tiv":714,"com":715,"Ġpremi":716,"ĠLa":717,"Ã»":718,"ts":719,"teur":720,"En":721,"Ġlui":722,"Un":723,"Ġans":724,"ra":725,"Ġinter":726,"itÃ©s":727,"Ġ4":728,"Ġst":729,"erci":730,"cu":731,"Ġprof":732,"ier":733,"ass":734,"Ġeff":735,"alitÃ©":736,"vent":737,"nes":738,"ner":739,"Ġ5":740,"min":741,"ante":742,"Ġmes":743,"Ġpermet":744,"Ġdem":745,"Ġca":746,"ils":747,"Pour":748,"tique":749,"qui":750,"Ġcl":751,"tif":752,"dÃ©":753,"puis":754,"Ġcas":755,"lement":756,"Ġbeau":757,"ver":758,"Ġencore":759,"Ġdonn":760,"Ġ-":761,"Ġtravail":762,"Ġsp":763,"cip":764,"Ġapp":765,"Qu":766,"Ġjeu":767,"Ġconc":768,"ĠLes":769,"its":770,"Ġam":771,"Ġren":772,"Ġman":773,"ong":774,"Ġpropos":775,"Ġcol":776,"Ġprodu":777,"ult":778,"Ġdonc":779,"Ġpersonn":780,"Ġpri":781,"Ġexp":782,"jour":783,"Ġdev":784,"ĠI":785,"Ġder":786,"Ġvis":787,"lÃ¨":788,"Ġfois":789,"Ġvie":790,"Ġgrand":791,"ĠrÃ©p":792,"Ã¹":793,"Ġnos":794,"Ġmal":795,"Ãªtre":796,"Ġpart":797,"ats":798,"Ã¨res":799,"aient":800,"anc":801,"avoir":802,"Ġmoi":803,"Ġmin":804,"Ġbon":805,"tis":806,"Ġcha":807,"Ġsite":808,"Ġrec":809,"ains":810,"gr":811,"ves":812,"ĠEn":813,"itu":814,"Ġavant":815,"ales":816,"mbre":817,"Ġenv":818,"Ġseu":819,"ĠrÃ©g":820,"ĠcrÃ©":821,"jours":822,"rez":823,"Ġvrai":824,"Ġsup":825,"olu":826,"Ġpuis":827,"Ġpetit":828,"tic":829,"Ġpubli":830,"Ġform":831,"Ġ19":832,"Ġconn":833,"Ġsoci":834,"Ġmet":835,"Ġderni":836,"Ġsy":837,"ĠH":838,"iste":839,"Ġres":840,"Une":841,"!!":842,"orte":843,"Ġmoins":844,"Ġdr":845,"endant":846,"insi":847,"Ġmonde":848,"ĠâĢ":849,"ĠoÃ¹":850,"ition":851,"Ġfaut":852,"Ġor":853,"Ġtoujours":854,"all":855,"ĠsÃ©":856,"Ġcli":857,"je":858,"emp":859,"ole":860,"Ġnombre":861,"Ġavoir":862,"Ġservi":863,"ures":864,"nement":865,"Ġnon":866,"Ġfa":867,"ici":868,"Ġquelques":869,"omme":870,"oute":871,"Ġann":872,"Ãªte":873,"ĠFr":874,"Ġtoute":875,"Ġpersonne":876,"coup":877,"Ġsoit":878,"eure":879,"des":880,"Ġdepuis":881,"Ġti":882,"ite":883,"Ġnouv":884,"Ġcert":885,"Ġsal":886,"Ã©d":887,"em":888,"ĠÃ©g":889,"oul":890,"ing":891,"Ġchos":892,"Ġ,":893,"Ġass":894,"Ġpay":895,"aiss":896,"cation":897,"ari":898,"),":899,"Ġoff":900,"Ġacc":901,"Ġlors":902,"ĠEt":903,"Ġcela":904,"vers":905,"Ġob":906,"Ġsous":907,"Ġtoutes":908,"Ã©ci":909,"Ġni":910,"aines":911,"Ġ6":912,"Ġva":913,"estion":914,"mis":915,"Ġquand":916,"asse":917,"Ġenf":918,"iter":919,"ĠaprÃ¨s":920,"gan":921,"ances":922,"Ġpouv":923,"cep":924,"ĠdÃ©j":925,"Ġutilis":926,"Ġbeaucoup":927,"oule":928,"uer":929,"ĠdÃ©p":930,"ĠPar":931,"Ġsera":932,"ĠCh":933,"Ġcour":934,"Ġtrans":935,"Ġfon":936,"mble":937,"rit":938,"Ġainsi":939,"aison":940,"Ġbl":941,"Ġmil":942,"Ġcompr":943,"Ġvoir":944,"ĠÃ©tait":945,"vous":946,"Ġlong":947,"Ġmi":948,"ange":949,"Ġconf":950,"Ġsec":951,"Ġleurs":952,"Ġmain":953,"olog":954,"ĠdÃ©b":955,"ature":956,"uit":957,"Ġmom":958,"ĠgÃ©n":959,"acc":960,"Ġpossi":961,"Ġju":962,"Ġcommun":963,"ĠdiffÃ©r":964,"Ã´t":965,"Ġnouve":966,"Ġcor":967,"Ġmois":968,"Ã©v":969,"Ġpoin":970,"Ġbr":971,"Ġprojet":972,"gne":973,"ĠprÃ©sent":974,"ilitÃ©":975,"ches":976,"ouvez":977,"Ġpass":978,"Ġcontr":979,"Ġcontre":980,"Ġdont":981,"Ġalors":982,"Ġphot":983,"atique":984,"Ġpersonnes":985,"Ġplace":986,"ĠÃ©v":987,"quer":988,"Ã©tÃ©":989,"Ġmont":990,"ĠÃ©galement":991,"Ġfonction":992,"Ġtrop":993,"Ġfil":994,"ables":995,"iss":996,"hui":997,"anÃ§":998,"omm":999,"ĠintÃ©":1000,"act":1001,"aite":1002,"Ġim":1003,"ateur":1004,"ĠdÃ©jÃł":1005,"Ġsimp":1006,"Ġ;":1007,"Ġcoup":1008,"ises":1009,"Ġdit":1010,"ĠdÃ©v":1011,"ences":1012,"imp":1013,"ls":1014,"Ġjours":1015,"gn":1016,"chÃ©":1017,"rir":1018,"lus":1019,"Et":1020,"Ġ7":1021,"ĠMais":1022,"Ġbes":1023,"ues":1024,"Ġprop":1025,"Ġautres":1026,"Ġrepr":1027,"Ġ10":1028,"Ġils":1029,"Ã©lÃ©":1030,"elop":1031,"Ġprob":1032,"ro":1033,"ide":1034,"ganis":1035,"ĠdÃ©s":1036,"are":1037,"Ġent":1038,"Vous":1039,"ĠlÃł":1040,"ĠPour":1041,"Ġins":1042,"cess":1043,"ommes":1044,"aÃ®":1045,"Ġatt":1046,"ire":1047,"Ġrapp":1048,"Ġrest":1049,"Ġmoment":1050,"Ġtour":1051,"Ġrien":1052,"Ġop":1053,"Ġno":1054,"ies":1055,"ieurs":1056,"Ġavait":1057,"Ġ...":1058,"isse":1059,"Ġbas":1060,"Ġprofes":1061,"ph":1062,"Ġappr":1063,"teurs":1064,"Ġab":1065,"Ġfi":1066,"Åĵ":1067,"Ġ8":1068,"Ã©m":1069,"Ġag":1070,"rait":1071,"Ġjou":1072,"Ġver":1073,"oix":1074,"Ġpays":1075,"enne":1076,"els":1077,"Ġ200":1078,"Â«":1079,"Ġci":1080,"enir":1081,"ĠgÃ©nÃ©r":1082,"Ġfam":1083,"anger":1084,"cont":1085,"adi":1086,"Ġautre":1087,"onom":1088,"bles":1089,"Ġth":1090,"Ġaur":1091,"Ġjam":1092,"Ġcomment":1093,"ĠprÃ©c":1094,"Ġfer":1095,"Ġsem":1096,"anÃ§ais":1097,"tant":1098,"ĠnÃ©":1099,"iques":1100,"ĠrÃ©alis":1101,"Ġpouvez":1102,"Ġchaque":1103,"jourd":1104,"mer":1105,"Ġsouh":1106,"ress":1107,"Ġdroit":1108,"dre":1109,"Ġvraiment":1110,"Ġtech":1111,"Ġsouv":1112,"Ġavez":1113,"tru":1114,"ites":1115,"mar":1116,"ateurs":1117,"ĠdÃ©velop":1118,"Ãªt":1119,"vez":1120,"Ġchar":1121,"antes":1122,"Ġretr":1123,"Ġsavoir":1124,"Ġsitu":1125,"Ġw":1126,"ĠCe":1127,"Ġdoit":1128,"Ġbonne":1129,"ĠFrance":1130,"Ġrel":1131,"Ġbi":1132,"Ġche":1133,"Ã©tait":1134,"Ġplusieurs":1135,"Ġprin":1136,"Ġcompte":1137,"Ġcap":1138,"Ġsc":1139,"Ġchez":1140,"Si":1141,"Ġafin":1142,"Ce":1143,"tive":1144,"Nous":1145,"ĠspÃ©ci":1146,"Ġpeti":1147,"ctu":1148,"Ġgar":1149,"oupe":1150,"Ġvers":1151,"autres":1152,"Ġdispos":1153,"Ġrecher":1154,"ĠQu":1155,"aur":1156,"exp":1157,"Ġconse":1158,"Ġjusqu":1159,"Ġavons":1160,"Ġcours":1161,"tiques":1162,"Ġfem":1163,"Ġcet":1164,"one":1165,"Ġdur":1166,"Ġ.":1167,"Ġeu":1168,"Ġjamais":1169,"Ġmeille":1170,"Ġsais":1171,"prise":1172,"Ġfais":1173,"Ġparf":1174,"Ġinform":1175,"cri":1176,"Ġmis":1177,"sionne":1178,"sez":1179,"aille":1180,"uite":1181,"entes":1182,"Ġmettre":1183,"Ġprendre":1184,"Ġpoli":1185,"iens":1186,"Ġtrouve":1187,"ĠÃ©qui":1188,"dic":1189,"Ġenfants":1190,"ĠW":1191,"Ġarri":1192,"Ġici":1193,"ticle":1194,"Ġpartie":1195,"Ġreg":1196,"Ġmieux":1197,"ĠÃ©le":1198,"Ġ9":1199,"be":1200,"ions":1201,"ĠrÃ©f":1202,"Ġpi":1203,"agn":1204,"ĠVous":1205,"Ġpeuvent":1206,"mÃ©":1207,"Ġsuite":1208,"Ġprix":1209,"uses":1210,"port":1211,"Ġmod":1212,"Ġmani":1213,"Ġaff":1214,"Ġmat":1215,"ric":1216,"Ġloc":1217,"ets":1218,"Ġcher":1219,"Ġ15":1220,"Ġmati":1221,"oil":1222,"Ġproduits":1223,"elon":1224,"Ġmoy":1225,"Ġchose":1226,"Ġprofessionne":1227,"ĠâĢĵ":1228,"ĠNous":1229,"Ġpublic":1230,"rib":1231,"vÃ©":1232,"tout":1233,"Ġple":1234,"quÃ©":1235,"ĠpremiÃ¨re":1236,"Ġimport":1237,"ach":1238,"Ġbou":1239,"pect":1240,"Ġgrande":1241,"Ġpremier":1242,"ode":1243,"air":1244,"000":1245,"mpl":1246,"Ġnouveau":1247,"Ġnive":1248,"ĠdÃ©couv":1249,"culi":1250,"comp":1251,"Ġdou":1252,"ager":1253,"Ġtrois":1254,"Ġdemande":1255,"Ġlieu":1256,"att":1257,"lu":1258,"ĠqualitÃ©":1259,"Ġrap":1260,"vis":1261,"oins":1262,"Ġceux":1263,"Ġmus":1264,"atif":1265,"ĠIn":1266,"Ġdom":1267,"Ġdemand":1268,"Ġid":1269,"Ġess":1270,"Ġnouvelle":1271,"Ġret":1272,"ĠfranÃ§ais":1273,"titu":1274,"istoire":1275,"ctif":1276,"Ġpense":1277,"Ġquestion":1278,"Ġpossible":1279,"ĠtÃ©lÃ©":1280,"anche":1281,"aph":1282,"Ã©li":1283,"ĠUn":1284,"lles":1285,"ĠannÃ©es":1286,"Ġk":1287,"Ġton":1288,"Ġparticuli":1289,"Ã¨rement":1290,"Ġauc":1291,"Ġpendant":1292,"ĠOn":1293,"Ġrencont":1294,"Ġsor":1295,"quoi":1296,"Ġintern":1297,"ĠlÃ©g":1298,"illes":1299,"ctions":1300,"tÃ©ri":1301,"ern":1302,"Ġreste":1303,"ellement":1304,"olution":1305,"Ġindi":1306,"Au":1307,"Ġservice":1308,"Ġpouvoir":1309,"Ġtrouver":1310,"Ġes":1311,"Ġfond":1312,"oni":1313,"Ġnature":1314,"....":1315,"Ã©p":1316,"Ġ18":1317,"ili":1318,"urop":1319,"vant":1320,"Ġligne":1321,"ber":1322,"ger":1323,"Ãī":1324,"âĤ":1325,"Ġpres":1326,"âĤ¬":1327,"Ġbesoin":1328,"amme":1329,"agne":1330,"ĠSi":1331,"Ġai":1332,"Ġpoint":1333,"20":1334,"Ġmilli":1335,"Dans":1336,"Ġesp":1337,"Ġsoir":1338,"ĠElle":1339,"Ġcan":1340,"amment":1341,"per":1342,"ĠdÃ©t":1343,"Ġmainten":1344,"Ġvoy":1345,"Ġpartir":1346,"enc":1347,"ĠK":1348,"Ã©cur":1349,"Ã©l":1350,"Ġmag":1351,"Ġparticip":1352,"uire":1353,"ĠDe":1354,"Ġmaison":1355,"Ġprogr":1356,"la":1357,"Ġmise":1358,"entr":1359,"oris":1360,"Ġpens":1361,"Ġouv":1362,"resse":1363,"Ã§on":1364,"onse":1365,"ative":1366,"Ġvol":1367,"Ġdisp":1368,"Ġniveau":1369,"Ġquoi":1370,"Ġexemp":1371,"Ġville":1372,"Ġ2018":1373,"nent":1374,"tel":1375,"Ġcrois":1376,"De":1377,"cc":1378,"Ã»t":1379,"ĠdÃ©f":1380,"Ġtoi":1381,"ĠnÃ©cess":1382,"Ġeffet":1383,"Ġinc":1384,"Ġorganis":1385,"eures":1386,"Ġlais":1387,"ĠÃ©tu":1388,"ade":1389,"Ġpetite":1390,"tier":1391,"Ġvais":1392,"ĠÃ©p":1393,"Ġjuste":1394,"Ġmen":1395,"Ġsouvent":1396,"Ã©ration":1397,"Ġrecherche":1398,"Ġactiv":1399,"Ġ0":1400,"Ġplais":1401,"ps":1402,"pement":1403,"ĠannÃ©e":1404,"Ġcad":1405,"avais":1406,"ES":1407,"Ġfour":1408,"ĠUne":1409,"Ã¨ne":1410,"dr":1411,"Ġta":1412,"tir":1413,"Ġcal":1414,"antÃ©":1415,"Ġcelui":1416,"Ġmer":1417,"Ġplan":1418,"utilis":1419,"Ġsyst":1420,"Ġsurtout":1421,"bilitÃ©":1422,"Ġpasser":1423,"tres":1424,"ines":1425,"Ã´le":1426,"Ã©rer":1427,"Ġty":1428,"Ġsoi":1429,"venir":1430,"ĠMar":1431,"ign":1432,"fr":1433,"Ġcolle":1434,"ĠÂ»,":1435,"Ġchois":1436,"Ġchoix":1437,"Ġrapport":1438,"Ġhab":1439,"sions":1440,"ueil":1441,"Ġvu":1442,"Ã¢ce":1443,"Ġsens":1444,"ĠrÃ©pond":1445,"Ġaujourd":1446,"Ġcontin":1447,"Ġtechni":1448,"ĠsÃ©cur":1449,"dez":1450,"orter":1451,"Ġsommes":1452,"Ġsujet":1453,"Ġveu":1454,"vec":1455,"Ġris":1456,"Ã¨g":1457,"aff":1458,"Ġdernier":1459,"oo":1460,"voir":1461,"Ġsau":1462,"Ġ30":1463,"amb":1464,"fier":1465,"Ġ12":1466,"ettes":1467,"aud":1468,"Ġnot":1469,"ulture":1470,"ĠAu":1471,"ĠdÃ©but":1472,"Mais":1473,"Ġtant":1474,"annÃ©e":1475,"Ġcondi":1476,"tien":1477,"Ġdonner":1478,"Ġvoit":1479,"Ġproch":1480,"ell":1481,"tÃ©r":1482,"tu":1483,"Ġsemaine":1484,"Ġresp":1485,"Ġpris":1486,"Ġprincip":1487,"ĠrÃ©sult":1488,"Ġven":1489,"tionne":1490,"Ġservices":1491,"ON":1492,"Ġlu":1493,"Ġport":1494,"rier":1495,"cul":1496,"ĠcÃ´":1497,"Ġselon":1498,"part":1499,"ĠCom":1500,"Ġfamille":1501,"Ġrem":1502,"Ġrapide":1503,"action":1504,"tern":1505,"Ġtrouv":1506,"Ġten":1507,"pte":1508,"autre":1509,"int":1510,"ĠbÃ©n":1511,"onnement":1512,"Ġinst":1513,"ĠdonnÃ©es":1514,"env":1515,"lic":1516,"ogr":1517,"Par":1518,"Ġ[":1519,"Ġwe":1520,"ĠÂ».":1521,"Ġdess":1522,"Ġprom":1523,"Ġassez":1524,"ression":1525,"Ġplaisir":1526,"istr":1527,"Ġdisponi":1528,"ĠsÃ»":1529,"Ġsouhaite":1530,"Ġpasse":1531,"tention":1532,"On":1533,"tez":1534,"endu":1535,"Ġsour":1536,"Ġnation":1537,"Ġcertains":1538,"Ġsol":1539,"Ġgen":1540,"Ġparce":1541,"ud":1542,"Â»":1543,"Ġterr":1544,"ĠjournÃ©e":1545,"Ġfaci":1546,"inform":1547,"ĠÃªtes":1548,"Ġappar":1549,"Ġvoul":1550,"ori":1551,"gÃ©":1552,"cture":1553,"Ġpeux":1554,"Ã©ment":1555,"Ġsimple":1556,"ret":1557,"anci":1558,"atis":1559,"Ġenvir":1560,"Ġgros":1561,"eurs":1562,"Ġsuper":1563,"lÃ¨me":1564,"ww":1565,"Ġgroupe":1566,"Ġexemple":1567,"Ġcadre":1568,"oici":1569,"Ġexc":1570,"Ġchoses":1571,"Ġphotos":1572,"ĠrÃ©ser":1573,"tie":1574,"ĠdÃ©m":1575,"ĠsÃ©ri":1576,"Ġminu":1577,"Ġregard":1578,"ĠreprÃ©s":1579,"illet":1580,"Ġquelque":1581,"ub":1582,"ĠGr":1583,"Ġserait":1584,"Ġretour":1585,"In":1586,"ĠfaÃ§on":1587,"Ġformation":1588,"Ġproc":1589,"Ġcoule":1590,"Ġri":1591,"Ġseront":1592,"ĠproblÃ¨me":1593,"ss":1594,"oie":1595,"Ġheures":1596,"vier":1597,"Ġense":1598,"lar":1599,"prises":1600,"th":1601,"Ġall":1602,"Ġpropose":1603,"Ġmaintenant":1604,"Ġcelle":1605,"abl":1606,"ds":1607,"az":1608,"ossi":1609,"Ġvue":1610,"onde":1611,"Ġinf":1612,"ali":1613,"lors":1614,"vÃ©e":1615,"hÃ©s":1616,"ĠsantÃ©":1617,"Ġjeunes":1618,"Ġrep":1619,"Ġaid":1620,"lex":1621,"30":1622,"ĠsystÃ¨me":1623,"Ġ14":1624,"Ġdirec":1625,"arr":1626,"Ġseul":1627,"Ġbelle":1628,"ath":1629,"od":1630,"omb":1631,"aime":1632,"ĠprÃ©f":1633,"jectif":1634,"estions":1635,"arge":1636,"appr":1637,"Ġconnaiss":1638,"asion":1639,"Ã©fi":1640,"Â°":1641,"ĠvidÃ©":1642,"vient":1643,"mbl":1644,"ec":1645,"orme":1646,"Ġress":1647,"Ġz":1648,"atiques":1649,"Ġcuis":1650,"ieu":1651,"fs":1652,"atÃ©g":1653,"ose":1654,"ĠdÃ©couvrir":1655,"rent":1656,"Ġnotamment":1657,"rie":1658,"ĠÃ©conom":1659,"Ġcomb":1660,"Ġporte":1661,"gie":1662,"Ġnum":1663,"urer":1664,"ocu":1665,"Ġrespons":1666,"lique":1667,"ĠdÃ©veloppement":1668,"crip":1669,"Ġach":1670,"grÃ©":1671,"dess":1672,"Cette":1673,"ĠrÃ©gion":1674,"Ġgens":1675,"Ġdoi":1676,"ĠprÃ©v":1677,"uc":1678,"ĠParis":1679,"ĠsÃ©curitÃ©":1680,"âĢĿ":1681,"Ġpage":1682,"Ġseulement":1683,"oles":1684,"Ġmai":1685,"Ġfut":1686,"iti":1687,"Ġ2017":1688,"Ġetc":1689,"agit":1690,"Ġrou":1691,"ĠpÃ©ri":1692,"Ġtot":1693,"Ġinformations":1694,"temps":1695,"Ã©rience":1696,"lÃ©ment":1697,"isme":1698,"ĠPr":1699,"ĠâĢ¦":1700,"ĠsociÃ©tÃ©":1701,"aitement":1702,"Ġnombreux":1703,"Ġconfi":1704,"istre":1705,"aÃ®tre":1706,"Ġgl":1707,"Ġhum":1708,"ĠcÃ´tÃ©":1709,"icile":1710,"Ġfilm":1711,"\",":1712,"Ġblog":1713,"Ġsuff":1714,"Ġ17":1715,"oires":1716,"Ġdonne":1717,"ĠgrÃ¢ce":1718,"Ġpourquoi":1719,"aces":1720,"ograph":1721,"Ġanim":1722,"Ġfont":1723,"oÃ»t":1724,"inter":1725,"ĠU":1726,"Ġparc":1727,"ĠpiÃ¨":1728,"Ġ%":1729,"Ġsupp":1730,"ĠdÃ©ci":1731,"Ġaller":1732,"Ġlog":1733,"Ġliv":1734,"Ġ16":1735,"cembre":1736,"Ã¨le":1737,"ĠprÃ¨s":1738,"ges":1739,"rique":1740,"Ġgrat":1741,"Ġ11":1742,"ĠrÃ©c":1743,"Ġactu":1744,"Ġforme":1745,"xim":1746,"utÃ´t":1747,"Ġquestions":1748,"ov":1749,"Ġproduit":1750,"uni":1751,"ust":1752,"Ġfl":1753,"Ã©h":1754,"ĠbÃ©nÃ©fi":1755,"pes":1756,"heure":1757,"issement":1758,"ĠmarchÃ©":1759,"Ġlivre":1760,"Ġchange":1761,"ĠmÃ©t":1762,"Ġsuiv":1763,"iÃ¨me":1764,"fique":1765,"ptembre":1766,"gl":1767,"fic":1768,"ĠtÃªte":1769,"ribu":1770,"ĠrÃ¨g":1771,"atri":1772,"outer":1773,"Ġplu":1774,"ER":1775,"Ġnouvelles":1776,"obre":1777,"llement":1778,"aque":1779,"Ġsalle":1780,"ela":1781,"eaux":1782,"Ġref":1783,"arri":1784,"ĠTr":1785,"Ġheure":1786,"tent":1787,"Ġeux":1788,"Ã¯":1789,"ah":1790,"aise":1791,"Åĵu":1792,"ĠmaniÃ¨re":1793,"Ġprend":1794,"istes":1795,"lection":1796,"oph":1797,"Ch":1798,"ĠdÃ¨s":1799,"ront":1800,"Ġminutes":1801,"Ġ25":1802,"art":1803,"Ġconcern":1804,"uropÃ©":1805,"Ã©qu":1806,"Ã©rence":1807,"ĠCette":1808,"ĠpassÃ©":1809,"cre":1810,"Ġvale":1811,"Ġraison":1812,"mÃªme":1813,"Ġtex":1814,"ĠdiffÃ©rents":1815,"aint":1816,"aly":1817,"ologie":1818,"ĠDans":1819,"Bon":1820,"ĠplutÃ´t":1821,"usement":1822,"Ġmess":1823,"fication":1824,"Ġtravers":1825,"Ġbase":1826,"Ġpetits":1827,"Ġfac":1828,"Ġhaut":1829,"Ġbout":1830,"mment":1831,"lir":1832,"mbres":1833,"anvier":1834,"orer":1835,"eff":1836,"Ġconditions":1837,"Ġelles":1838,"Ġfemme":1839,"Ġval":1840,"Ġarticle":1841,"erne":1842,"Ġaccomp":1843,"ctobre":1844,"abilitÃ©":1845,"Ġcin":1846,"Ã©qui":1847,"vembre":1848,"Ġloin":1849,"tenir":1850,"aie":1851,"ule":1852,"Ġjeune":1853,"yc":1854,"alitÃ©s":1855,"ann":1856,"Ġface":1857,"ociation":1858,"Ġaj":1859,"ĠÃ©ch":1860,"oration":1861,"iser":1862,"Ġsituation":1863,"Ġparler":1864,"Ġfemmes":1865,"EN":1866,"opul":1867,"Ġ!!!":1868,"Ġaucun":1869,"Ġcer":1870,"Ġcentre":1871,"Ġloi":1872,"Ġind":1873,"ron":1874,"ĠdÃ©cembre":1875,"ses":1876,"Ġclients":1877,"Ġcommenc":1878,"Ġconseil":1879,"gent":1880,"mand":1881,"ĠQ":1882,"bil":1883,"ĠAn":1884,"Ġunique":1885,"Ġpolitique":1886,"suite":1887,"ĠintÃ©ress":1888,"Ġ000":1889,"Ġautour":1890,"ĠIls":1891,"ĠderniÃ¨re":1892,"Merci":1893,"Ġmembres":1894,"Ġgestion":1895,"up":1896,"Ġdocu":1897,"ministr":1898,"Ġ13":1899,"tÃ©rieur":1900,"Ġgouver":1901,"lication":1902,"era":1903,"Ġempl":1904,"Ġcorps":1905,"Ġcontac":1906,"man":1907,"Ġsub":1908,"Ġpo":1909,"ĠÃ©quipe":1910,"Ġ2016":1911,"Ġseptembre":1912,"cup":1913,"ĠÃī":1914,"ril":1915,"\".":1916,"Ġpourrait":1917,"Ġplein":1918,"Ġchac":1919,"avant":1920,"occ":1921,"aute":1922,"dent":1923,"Ġvois":1924,"Ġpratique":1925,"Ġcamp":1926,"Ġculture":1927,"Ġdevant":1928,"Ġmerci":1929,"Ġphoto":1930,"Ġoui":1931,"ĠmatÃ©ri":1932,"Ġenvie":1933,"ĠsÃ»r":1934,"tra":1935,"Ġappel":1936,"Ġjuin":1937,"uli":1938,"Ġveux":1939,"eter":1940,"gment":1941,"yant":1942,"Ġtype":1943,"Ġlit":1944,"Ġconten":1945,"ĠreprÃ©sent":1946,"Ġsemble":1947,"oilÃł":1948,"Ã©rÃ©":1949,"Ġmot":1950,"enseig":1951,"Ġprogramme":1952,"oyer":1953,"Ġmesure":1954,"ensemble":1955,"Ġmort":1956,"Ġentreprises":1957,"ancer":1958,"activ":1959,"Ġjanvier":1960,"Ġlien":1961,"Ġrev":1962,"Ġtest":1963,"tt":1964,"Ġmodi":1965,"Ġpie":1966,"pec":1967,"ĠdÃ©fin":1968,"Ġparten":1969,"OU":1970,"ception":1971,"Ġadap":1972,"Ġpopul":1973,"Ġseule":1974,"Ġlire":1975,"Ġtitre":1976,"vention":1977,"Ġcompos":1978,"Ġvac":1979,"ident":1980,"Ġobli":1981,"Ġreconn":1982,"Ġcou":1983,"der":1984,"Ġdim":1985,"Ã©di":1986,"ock":1987,"ÂŃ":1988,"pendant":1989,"ambre":1990,"âĢĵ":1991,"Ġnovembre":1992,"Ġsouhait":1993,"Ġpor":1994,"Ġchi":1995,"hab":1996,"Ġvisite":1997,"Ġfourn":1998,"AN":1999,"Ġveut":2000,"oque":2001,"Ġconsid":2002,"Ã¢te":2003,"ĠeuropÃ©":2004,"Ġimportant":2005,"empl":2006,"Ġpropri":2007,"ox":2008,"sement":2009,"Ġconsomm":2010,"ĠvÃ©r":2011,"Ã§u":2012,"Ġbois":2013,"Ġvendre":2014,"ĠrÃ©ussi":2015,"nements":2016,"ĠâĢľ":2017,"Ġaura":2018,"Ġarr":2019,"ailleurs":2020,"Ġmars":2021,"Åĵur":2022,"Ġcir":2023,"oti":2024,"Ġ24":2025,"enf":2026,"erts":2027,"Ġcharge":2028,"agement":2029,"Ġrendre":2030,"histoire":2031,"hÃ©site":2032,"Com":2033,"Ġpropre":2034,"ĠsÃ©rie":2035,"quel":2036,"Ġinternation":2037,"Ġvite":2038,"Ġali":2039,"pl":2040,"Ġchev":2041,"tifs":2042,"Ġfort":2043,"cessi":2044,"Ġforum":2045,"Ġoffre":2046,"Ġimm":2047,"Ġmatin":2048,"Ġchau":2049,"Ġ100":2050,"ĠdÃ©r":2051,"aide":2052,"assi":2053,"Ġmoyen":2054,"Ã¨te":2055,"ĠY":2056,"itions":2057,"ĠdÃ©tail":2058,"ame":2059,"Ġliste":2060,"ĠÃ¢":2061,"dit":2062,"Ġeng":2063,"Ġfrais":2064,"ote":2065,"Ġ2015":2066,"off":2067,"ran":2068,"uri":2069,"auv":2070,"Ġnuit":2071,"Ġtable":2072,"chi":2073,"ĠdiffÃ©rentes":2074,"occasion":2075,"Ġvoyage":2076,"atives":2077,"ĠRe":2078,"Ġfeu":2079,"Ġprojets":2080,"itaire":2081,"Ar":2082,"Ġdoivent":2083,"Ġoctobre":2084,"onnes":2085,"Ġcarte":2086,"ĠcrÃ©er":2087,"Ġyeux":2088,"Ġvient":2089,"nÃ©":2090,"Ġcoll":2091,"Ġdist":2092,"Ġprise":2093,"Ġentreprise":2094,"Ġeffe":2095,"Ġbesoins":2096,"201":2097,"Ġlaisser":2098,"Ġavis":2099,"Ġvacances":2100,"Ġtard":2101,"Ġnorm":2102,"Ã©ric":2103,"tat":2104,"ĠdÃ©pl":2105,"ĠrÃ©pondre":2106,"Des":2107,"ĠtÃ©lÃ©ph":2108,"Ġeffic":2109,"ĠactivitÃ©s":2110,"Ġgenre":2111,"entreprise":2112,"Ġdisc":2113,"ow":2114,"Ġ/":2115,"Ġnouveaux":2116,"Ġparfois":2117,"ĠÃ©taient":2118,"Tout":2119,"ĠDes":2120,"Ġclient":2121,"Ġautant":2122,"Ġmillions":2123,"Ġsci":2124,"acitÃ©":2125,"Ã©ro":2126,"ek":2127,"ĠnÃ©cessaire":2128,"Ã¨tres":2129,"Ġ50":2130,"ĠÃ©tudi":2131,"ends":2132,"Ġinv":2133,"Ġbut":2134,"Ġartis":2135,"Ġmari":2136,"RE":2137,"ile":2138,"ðŁ":2139,"Ġsenti":2140,"Ã©b":2141,"Ġbar":2142,"TI":2143,"agner":2144,"Ġlorsque":2145,"ĠvidÃ©o":2146,"Ġlarge":2147,"lez":2148,"Ġmul":2149,"ĠbÃ©nÃ©fici":2150,"article":2151,"Ġdoute":2152,"Ġpap":2153,"aÃ®t":2154,"ital":2155,"Ġcause":2156,"Ġgaran":2157,"Ġrisque":2158,"Ġsimplement":2159,"Ġvenir":2160,"ordin":2161,"erre":2162,"lier":2163,"Ġsymp":2164,"otidi":2165,"Ġtes":2166,"ook":2167,"ĠspÃ©cialis":2168,"inc":2169,"ĠcrÃ©ation":2170,"Ġrecom":2171,"Ġmaj":2172,"ouverte":2173,"isation":2174,"Ġhomme":2175,"Ġjuillet":2176,"Ġconstru":2177,"ensi":2178,"cription":2179,"Ã«":2180,"Ġsaison":2181,"Ġpoi":2182,"Ġnombreuses":2183,"iles":2184,"ĠdÃ©mar":2185,"ĠmÃ©dic":2186,"Ġessay":2187,"Ġpoints":2188,"^^":2189,"uel":2190,"ablement":2191,"organis":2192,"//":2193,"ouvert":2194,"Ġtravaux":2195,"Ġlang":2196,"Ġaider":2197,"aller":2198,"Ġoutil":2199,"ĠprÃ©cis":2200,"Ġobjectif":2201,"Ġcompris":2202,"Ġfacile":2203,"duire":2204,"cle":2205,"mission":2206,"ienne":2207,"ĠrÃ©sultats":2208,"Ġquotidi":2209,"Ġvivre":2210,"Ġgrands":2211,"Ġjourn":2212,"Ġabs":2213,"Ġdomaine":2214,"Ãªtes":2215,"Ġeur":2216,"Ġlim":2217,"Ġ!!":2218,"xe":2219,"ĠAr":2220,"ĠsÃ©lection":2221,"Ġayant":2222,"oritÃ©":2223,"hi":2224,"Ġmeilleur":2225,"gement":2226,"Ġsolution":2227,"moi":2228,"Ġ21":2229,"Ġcertaines":2230,"ĠÃ©vi":2231,"ulaire":2232,"ĠsiÃ¨":2233,"Ġtemp":2234,"Ġcomprendre":2235,"Ġdestin":2236,"lig":2237,"Ġsign":2238,"Ġtom":2239,"Ġemp":2240,"atoire":2241,"espÃ¨re":2242,"alisation":2243,"atre":2244,"ĠagrÃ©":2245,"Ġcri":2246,"Ġrapidement":2247,"Ġlib":2248,"Ġcuisine":2249,"ĠpÃ©riode":2250,"oth":2251,"riÃ¨re":2252,"ĠSaint":2253,"Ġchacun":2254,"accord":2255,"IS":2256,"://":2257,"Ã©ch":2258,"did":2259,"ĠâĤ¬":2260,"Ġdate":2261,"yn":2262,"Ġrendez":2263,"Ġpan":2264,"gu":2265,"Ġfinanci":2266,"prit":2267,"Ã´tel":2268,"illage":2269,"gue":2270,"aisse":2271,"ĠÃ©lÃ©":2272,"arm":2273,"Ġfab":2274,"Ġsig":2275,"AprÃ¨s":2276,"hÃ©sitez":2277,"Ġbal":2278,"Ã©tu":2279,"ĠprÃ©sente":2280,"Ġatte":2281,"Ġtechn":2282,"Ġaucune":2283,"ĠÃ©crit":2284,"Ġrestaur":2285,"ĠdÃ©cis":2286,"ĠgÃ©nÃ©ral":2287,"Ġgouvernement":2288,"10":2289,"iner":2290,"utilisation":2291,"ĠsÃ©jour":2292,"Ã©cu":2293,"ĠðŁ":2294,"Ġhistoire":2295,"Ġvente":2296,"âĢ¢":2297,"auteur":2298,"ĠthÃ©":2299,"ĠmatiÃ¨re":2300,"Ã©quipe":2301,"Ġaurait":2302,"Ġlongtemps":2303,"Ġparents":2304,"Ġtent":2305,"ĠÃ©tant":2306,"Ġassoci":2307,"ĠcompÃ©t":2308,"ĠrÃª":2309,"Ġfille":2310,"avait":2311,"uss":2312,"ĠdÃ©l":2313,"ysi":2314,"Ġlun":2315,"ke":2316,"Ġsites":2317,"Ġvont":2318,"Ġmode":2319,"Ġchambre":2320,"Ġhommes":2321,"let":2322,"Elle":2323,"Ġpati":2324,"Ġpren":2325,"ĠrÃ©ponse":2326,"ĠrÃ©un":2327,"ĠcomplÃ¨":2328,"Ġutiliser":2329,"aci":2330,"Ġamis":2331,"ich":2332,"ĠÅĵu":2333,"Ġ2014":2334,"oleil":2335,"Ġdivers":2336,"olutions":2337,"Ġterrit":2338,"indre":2339,"sance":2340,"tection":2341,"Ġcit":2342,"Ġmarque":2343,"Ġavril":2344,"Ġrend":2345,"ĠauprÃ¨s":2346,"arer":2347,"Ã©vrier":2348,"Ġaim":2349,"ĠcÅĵur":2350,"Ġsemaines":2351,"oche":2352,"Ġconne":2353,"Ġcommerci":2354,"ĠTout":2355,"50":2356,"Ġprofessionnels":2357,"rÃ©e":2358,"Ã©ti":2359,"uits":2360,"ĠTu":2361,"partement":2362,"Ġcandid":2363,"aprÃ¨s":2364,"inst":2365,"intÃ©":2366,"entrÃ©e":2367,"ru":2368,"rÃ©s":2369,"oite":2370,"Ġrais":2371,"Ġmor":2372,"tim":2373,"ticles":2374,"Ġvari":2375,"abord":2376,"Ġcommunic":2377,"Ġjoli":2378,"ĠdonnÃ©":2379,"Ġchance":2380,"Ġtrait":2381,"ĠÃ©tr":2382,"Ġdifficile":2383,"ubli":2384,"Ġautom":2385,"information":2386,"Ġjard":2387,"ĠtrouvÃ©":2388,"Ġterme":2389,"Ġconfort":2390,"Ġdroits":2391,"Ġinternet":2392,"Ġrencontre":2393,"ĠDE":2394,"Ġmots":2395,"resp":2396,"iez":2397,"envir":2398,"ĠmÃ©th":2399,"cteur":2400,"ĠgÃ©":2401,"ĠdÃ©g":2402,"Ġvit":2403,"venu":2404,"once":2405,"miÃ¨re":2406,"ind":2407,"ĠmÃ©di":2408,"Ġpersonnel":2409,"ĠÃ©lÃ¨":2410,"Ġsecond":2411,"uerre":2412,"ras":2413,"Ġorig":2414,"Ġjeux":2415,"Ġlongue":2416,"ĠidÃ©e":2417,"Ġvaleur":2418,"ĠrÃ©seau":2419,"ĠprotÃ©":2420,"uve":2421,"Ġrece":2422,"fois":2423,"ĠdÃ©clar":2424,"Ġcommande":2425,"duction":2426,"Ġtraitement":2427,"Ġsus":2428,"mÃ©di":2429,"Ġban":2430,"Ġclasse":2431,"Ã©tais":2432,"Ġsuivre":2433,"Ġgui":2434,"Ġ199":2435,"Ġrempl":2436,"Ġoffici":2437,"aj":2438,"Ġdisposition":2439,"Ġensemble":2440,"dessous":2441,"Ġcherche":2442,"ĠX":2443,"Ã©hic":2444,"Ġchanger":2445,"Ġgard":2446,"Ġsame":2447,"Ġoblig":2448,"Ġ22":2449,"Ġcollec":2450,"ones":2451,"lent":2452,"Ġdiffic":2453,"Ġexiste":2454,"quelle":2455,"lÃ¨mes":2456,"Ã«l":2457,"ĠbÃ¢":2458,"Ġsait":2459,"position":2460,"onomie":2461,"Ġhabit":2462,"Ġconcernant":2463,"ards":2464,"Ġdirectement":2465,"Ġconseils":2466,"Ġterre":2467,"onner":2468,"Ġjouer":2469,"Ãªmes":2470,"Ġretrouver":2471,"liquer":2472,"Ġanci":2473,"Ġversion":2474,"Ġeuros":2475,"ĠÃ©lect":2476,"Ġphysi":2477,"Ġtend":2478,"Ġsecteur":2479,"amp":2480,"Tr":2481,"AR":2482,"Ġ^^":2483,"ĠnÃ©g":2484,"ĠrÃ©aliser":2485,"Ġmessage":2486,"Ġcontact":2487,"Ġweb":2488,"Ġmauv":2489,"Ġhtt":2490,"onseil":2491,"quant":2492,"ĠvÃ©hic":2493,"rais":2494,"Ġenfin":2495,"Ġstr":2496,"Ġsac":2497,"cine":2498,"Ġrespect":2499,"ĠNo":2500,"Ġmusique":2501,"Ġdossi":2502,"Ġtechnique":2503,"entiel":2504,"Tu":2505,"ordre":2506,"ĠproblÃ¨mes":2507,"Ġcent":2508,"Ġmondi":2509,"nov":2510,"Ġmanque":2511,"orig":2512,"ĠexpÃ©rience":2513,"Ġdevrait":2514,"tiers":2515,"ĠprÃ©par":2516,"tivement":2517,"rim":2518,"Ġaugment":2519,"ĠNe":2520,"vement":2521,"Comme":2522,"inon":2523,"ack":2524,"Ġsouff":2525,"ĠAl":2526,"Ġvoiture":2527,"Ġchoisir":2528,"Ġpriv":2529,"reg":2530,"Ġlaquelle":2531,"ĠrÃ©guli":2532,"Ã©rique":2533,"ĠfÃ©vrier":2534,"Ġconte":2535,"Ġparle":2536,"Ġfav":2537,"Ġhy":2538,"nivers":2539,"rage":2540,"Ġsouhaitez":2541,"inf":2542,"Ġsein":2543,"Ġsamedi":2544,"Ġenviron":2545,"Ġpartager":2546,"ĠÃ©di":2547,"Ġviol":2548,"Ġenfant":2549,"Ġpermettre":2550,"Ġoubli":2551,"ennes":2552,"Ġweek":2553,"ĠIntern":2554,"ambres":2555,"Ġbord":2556,"vestis":2557,"ak":2558,"Ġsyn":2559,"ĠmÃ©de":2560,"ĠidÃ©":2561,"Ã©tr":2562,"IN":2563,"join":2564,"...)":2565,"Ġps":2566,"Ġoc":2567,"reux":2568,"Ġpot":2569,"Ġquatre":2570,"isc":2571,"Ġdemander":2572,"tile":2573,"Ġtechniques":2574,"ĠmaÃ®":2575,"nous":2576,"Ġfaud":2577,"acer":2578,"Ã©der":2579,"tÃ©es":2580,"rant":2581,"Ġbat":2582,"Ġsoleil":2583,"droit":2584,"sionn":2585,"Ġ2013":2586,"Ġcorresp":2587,"ologique":2588,"Ġquar":2589,"Ġprofiter":2590,"Ġmaladi":2591,"Ġquelqu":2592,"Ġensuite":2593,"Alors":2594,"Ġparticulier":2595,"ĠMerci":2596,"Ġdimanche":2597,"Ġuni":2598,"tient":2599,"Ġfai":2600,"Ġrom":2601,"Ġsty":2602,"Ġroute":2603,"mettre":2604,"Ġproduction":2605,"ĠCela":2606,"ĠdurÃ©e":2607,"Ġsoient":2608,"quent":2609,"Ã¨mes":2610,"ĠPro":2611,"Ġfaites":2612,"Ġdisponible":2613,"atisf":2614,"Ġpermis":2615,"Ġlibre":2616,"Ġlo":2617,"Ġpol":2618,"19":2619,"Ġdurant":2620,"Comment":2621,"Ġaliment":2622,"ĠdÃ©part":2623,"iennent":2624,"raÃ®":2625,"Ġcontacter":2626,"iller":2627,"Ġcorrespond":2628,"trait":2629,"Ġconfir":2630,"Ġvendredi":2631,"Ġprotection":2632,"Ġtransport":2633,"Ġassur":2634,"Ġconser":2635,"Ġcelles":2636,"erce":2637,"Ġpeau":2638,"Ġbure":2639,"Ġchamp":2640,"Ġremar":2641,"Ġcouleurs":2642,"Ġ2012":2643,"Ġpresque":2644,"itable":2645,"??":2646,"ime":2647,"ĠamÃ©ric":2648,"homme":2649,"Ġaccep":2650,"apos":2651,"Oui":2652,"cipe":2653,"Ġsucc":2654,"ĠCar":2655,"Ġpost":2656,"ĠTh":2657,"Ġcommunication":2658,"Ġrac":2659,"tilise":2660,"ĠstratÃ©g":2661,"ĠmodÃ¨le":2662,"Ġremp":2663,"eng":2664,"ouverture":2665,"Ġtaille":2666,"Ġchambres":2667,"Ġpeur":2668,"Ġscol":2669,"ug":2670,"urope":2671,"Ġcoeur":2672,"ĠamÃ©li":2673,"Ġconfiance":2674,"Ġmaxim":2675,"ume":2676,"Ġgrandes":2677,"Ġtermin":2678,"Ġconsul":2679,"ĠÃ©lÃ¨ves":2680,"Ã©ner":2681,"ape":2682,"uelle":2683,"af":2684,"Ġ40":2685,"Ġcouleur":2686,"Ġouvert":2687,"arde":2688,"auche":2689,"Ġpourrez":2690,"Ġlaiss":2691,"ane":2692,"illeurs":2693,"Ġmilieu":2694,"Ġpetites":2695,"Ġmagni":2696,"Ġcop":2697,"ĠpropriÃ©t":2698,"oulez":2699,"raient":2700,"Ġprochaine":2701,"acement":2702,"Ġ23":2703,"Ġcond":2704,"Ġsatisf":2705,"ension":2706,"Ã©cole":2707,"Ġblanc":2708,"An":2709,"Ġjardin":2710,"ĠSe":2711,"pour":2712,"son":2713,"for":2714,"Ġendroit":2715,"ĠpossibilitÃ©":2716,"chÃ©s":2717,"fiques":2718,"ref":2719,"ĠrÃ´le":2720,"LE":2721,"Ġnet":2722,"Ġmail":2723,"ĠÃ©conomique":2724,"ĠCes":2725,"Ġtravailler":2726,"Ġforce":2727,"Ġchemin":2728,"activitÃ©":2729,"Ġcertaine":2730,"mail":2731,"lam":2732,"ĠparticuliÃ¨rement":2733,"Ġrester":2734,"Bonjour":2735,"ris":2736,"Ġspect":2737,"time":2738,"Ġtradi":2739,"ĠconsÃ©qu":2740,"ĠCan":2741,"Ġarticles":2742,"Ġmouve":2743,"Ġcollab":2744,"Ġstru":2745,"ates":2746,"Ġmulti":2747,"ĠConseil":2748,"Ġtaux":2749,"ting":2750,"ĠÃĢ":2751,"Ġtexte":2752,"Ġaccord":2753,"cteurs":2754,"cer":2755,"ĠprÃ©sident":2756,"ĠÃ©ner":2757,"ĠtÃ©lÃ©phone":2758,"Ġjusti":2759,"areil":2760,"Ġpourra":2761,"Ġmoyens":2762,"Ġindivi":2763,"Ġhist":2764,"Ġkm":2765,"Ġtrain":2766,"pp":2767,"Ġpous":2768,"Ġperform":2769,"ĠÃ©tat":2770,"Ġ)":2771,"Ġcode":2772,"ĠSt":2773,"ĠdeuxiÃ¨me":2774,"Ġtellement":2775,"Ġsav":2776,"ĠcontrÃ´le":2777,"ĠfranÃ§aise":2778,"Ġcommence":2779,"identi":2780,"Ġplupart":2781,"Ġplate":2782,"Ġbonnes":2783,"Ġchiff":2784,"vir":2785,"ĠÃ©lÃ©ments":2786,"ĠAlors":2787,"Ġanti":2788,"Ġami":2789,"Ã¨de":2790,"ende":2791,"Ġtel":2792,"atifs":2793,"Ġlut":2794,"accÃ¨s":2795,"oyez":2796,"Ġmeilleure":2797,"Avec":2798,"Ġvolont":2799,"Ġsolutions":2800,"pir":2801,"Ġcommune":2802,"ÃĢ":2803,"Ġprofessionnel":2804,"Ġfall":2805,"ĠdÃ©li":2806,"tives":2807,"Ġsport":2808,"ible":2809,"ĠprÃ©p":2810,"Ġprov":2811,"Ġsuivi":2812,"Ġposs":2813,"Ġparmi":2814,"Ġailleurs":2815,"Ġexpl":2816,"urg":2817,"Ġ+":2818,"Ġvoulez":2819,"ĠpiÃ¨ces":2820,"Ġlecture":2821,"Ãªts":2822,"Ġprest":2823,"Ġlundi":2824,"Ġpleine":2825,"co":2826,"ĠÃ©vÃ©":2827,"Ġdocument":2828,"ĠderniÃ¨res":2829,"Ġsortie":2830,"ĠsupÃ©ri":2831,"ĠCon":2832,"Ġviens":2833,"airement":2834,"ĠÃ©tabl":2835,"Ġamb":2836,"Ìģ":2837,"Ġguerre":2838,"och":2839,"aissance":2840,"udg":2841,"Ġpied":2842,"origine":2843,"ancement":2844,"erie":2845,"Ġmanif":2846,"ĠapprÃ©ci":2847,"Ġrepas":2848,"ormais":2849,"accueil":2850,"ĠMont":2851,"Ġfix":2852,"Ġnav":2853,"Ġus":2854,"venue":2855,"quis":2856,"ĠsoirÃ©e":2857,"12":2858,"Ġressour":2859,"Ġlet":2860,"TE":2861,"Ġterrain":2862,"mine":2863,"Ġminim":2864,"pt":2865,"Ġsociaux":2866,"vation":2867,"idÃ©e":2868,"Sur":2869,"ĠprÃ©sence":2870,"Ġenti":2871,"Ġquotidien":2872,"Ġlaisse":2873,"autÃ©":2874,"ĠrÃ©sultat":2875,"ĠdÃ©cidÃ©":2876,"Ġchauff":2877,"Ġdevez":2878,"amour":2879,"orie":2880,"Ġvas":2881,"Ġsuffit":2882,"of":2883,"Ġposition":2884,"ĠvÃ©ri":2885,"ĠZ":2886,"Ġfle":2887,"rons":2888,"Ġlorsqu":2889,"Ġquelle":2890,"Ġconstruction":2891,"ĠnumÃ©ro":2892,"ĠconnaÃ®tre":2893,"termin":2894,"Ġconstr":2895,"Ġrob":2896,"lÃł":2897,"Ġconnais":2898,"Ġsalari":2899,"odes":2900,"argent":2901,"Ġobjet":2902,"ĠLi":2903,"Ġorigin":2904,"val":2905,"Ġrelation":2906,"ĠÃ©cri":2907,"Ġpeine":2908,"ctr":2909,"ĠmÃ¨re":2910,"oign":2911,"Ġnationale":2912,"etÃ©":2913,"oubli":2914,"eb":2915,"ĠPl":2916,"ĠrÃ©v":2917,"Ġaccueil":2918,"Ġdiri":2919,"duit":2920,"Ġdisponibles":2921,"Ġprog":2922,"avez":2923,"Ġidenti":2924,"ĠMon":2925,"ĠagrÃ©able":2926,"oupes":2927,"Ġsortir":2928,"Ġsociale":2929,"Ġcontrat":2930,"Ġproposer":2931,"Ġpourtant":2932,"ect":2933,"Ġprogram":2934,"Ġunivers":2935,"Depuis":2936,"Ġchale":2937,"Ġrenseig":2938,"itation":2939,"ĠaoÃ»t":2940,"assur":2941,"Ġpermettant":2942,"Ġaide":2943,"Ġmach":2944,"ĠÃ©viter":2945,"Ġconstitu":2946,"Ġlogici":2947,"Ġnoir":2948,"Ġcade":2949,"Ġclub":2950,"itaires":2951,"Ġcertain":2952,"veur":2953,"Ġbudg":2954,"credi":2955,"ĠidÃ©es":2956,"Ġtruc":2957,"Ġadministr":2958,"ĠmÃ©l":2959,"Ġmarche":2960,"Plus":2961,"lin":2962,"heur":2963,"Ã©nergie":2964,"Ġprochain":2965,"Ġir":2966,"ys":2967,"ades":2968,"Ġcontenu":2969,"Ġlequel":2970,"entÃ´t":2971,"Ġdois":2972,"mais":2973,"face":2974,"Ġpoids":2975,"ĠactivitÃ©":2976,"Ġministre":2977,"Ġattend":2978,"ok":2979,"ĠpÃ¨re":2980,"Ġprocess":2981,"Ġgu":2982,"tiss":2983,"Ġrecommand":2984,"alyse":2985,"ĠcatÃ©g":2986,"lant":2987,"ierre":2988,"Unis":2989,"Ġcommand":2990,"vres":2991,"isp":2992,"ots":2993,"dique":2994,"Ġcul":2995,"Ġtrouverez":2996,"Ġsort":2997,"Ġpsy":2998,"iers":2999,"eut":3000,"ĠpiÃ¨ce":3001,"Ġrappel":3002,"Ġemb":3003,"Ġinstall":3004,"AS":3005,"ĠPas":3006,"user":3007,"Ġderniers":3008,"titude":3009,"Ġrespec":3010,"emploi":3011,"ĠsuccÃ¨s":3012,"Ġpremiers":3013,"urb":3014,"ĠrÃ¨gles":3015,"orÃ©":3016,"Ou":3017,"ĠprÃ©cÃ©d":3018,"Ġsoli":3019,"Ġfabri":3020,"Ġdevenir":3021,"ducation":3022,"Ġobtenir":3023,"Ġfacilement":3024,"Ġ28":3025,"Ġiniti":3026,"ĠrÃ©par":3027,"Ġsuivant":3028,"Ġclim":3029,"yth":3030,"Ġexcell":3031,"ĠBr":3032,"Ġpours":3033,"achat":3034,"onie":3035,"Ġbons":3036,"Ġsensi":3037,".\"":3038,"adresse":3039,"Ces":3040,"Ġve":3041,"Ãªter":3042,"Ġtravaille":3043,"importe":3044,"quÃ©e":3045,"rimer":3046,"Ġhabitu":3047,"ĠbÃ¢ti":3048,"book":3049,"Ã©lÃ¨":3050,"Ġparticiper":3051,"Ġ26":3052,"Ġrue":3053,"âĢ¦]":3054,"Ġcommuni":3055,"ĠAprÃ¨s":3056,"Ġremerci":3057,"Lors":3058,"Pr":3059,"Ġpublique":3060,"hum":3061,"ĠAvec":3062,"Ġvoici":3063,"ĠrÃ©alitÃ©":3064,"cident":3065,"ki":3066,"ulation":3067,"vision":3068,"ĠmÃ©dec":3069,"Ġdouce":3070,"con":3071,"Ġvoix":3072,"ĩa":3073,"Ġdessus":3074,"ĠindÃ©":3075,"ice":3076,"Ġpaie":3077,"Ġ2011":3078,"Ġvia":3079,"ĠfrÃ©":3080,"fiÃ©":3081,"ieur":3082,"forme":3083,"Ġfig":3084,"Ġpermettent":3085,"ĠdÃ©cision":3086,"Ġconcours":3087,"Ġconv":3088,"Ġprocessus":3089,"aus":3090,"ommage":3091,"Ġsocial":3092,"Ġmeilleurs":3093,"Ġarrive":3094,"ĠprÃªt":3095,"Ġfroi":3096,"istance":3097,"Ġpis":3098,"ĠInternet":3099,"Ġpat":3100,"quÃªte":3101,"ĠtÃ©m":3102,"Ġpenser":3103,"Ġcommencer":3104,"exc":3105,"Ġimages":3106,"Ġdossier":3107,"ĠdÃ©sormais":3108,"Ġtari":3109,"objet":3110,"ĠaccÃ¨s":3111,"Ġhttp":3112,"Ġmanger":3113,"ĠprocÃ©d":3114,"anti":3115,"ĠprÃ©senter":3116,"aÃ¯":3117,"Ġ27":3118,"Ġrepos":3119,"ĠutilisÃ©":3120,"Ġpartage":3121,"association":3122,"Ãªche":3123,"alog":3124,"ules":3125,"Ġallez":3126,"aliser":3127,"mo":3128,"Ġmobil":3129,"adore":3130,"ĠbientÃ´t":3131,"ĠOu":3132,"Ġconnaissance":3133,"enez":3134,"Ġattention":3135,"!!!":3136,"Ġsex":3137,"Ġquit":3138,"Ġvillage":3139,"ĠsituÃ©":3140,"Ġpages":3141,"Ġx":3142,"Ġstyle":3143,"Ġchangement":3144,"hy":3145,"Ġannonc":3146,"Ġsalon":3147,"Ġdispar":3148,"Ġbureau":3149,"Ġradi":3150,"ĠvoilÃł":3151,"Ġconsci":3152,"15":3153,"demment":3154,"Ġpuisque":3155,"resser":3156,"inÃ©":3157,"Bien":3158,"Ġpassage":3159,"bec":3160,"Ġefficace":3161,"Ġphysique":3162,"rec":3163,"Ġenvironnement":3164,"Al":3165,"Notre":3166,"Ġsigni":3167,"lications":3168,"Ġavaient":3169,"ĠComment":3170,"ĠvÃ©ritable":3171,"ĠmalgrÃ©":3172,"ĠSur":3173,"Ġgamme":3174,"Ġangl":3175,"vie":3176,"Ġcm":3177,"ĠgÃ©nÃ©rale":3178,"ĠcoÃ»":3179,"ustri":3180,"uy":3181,"onique":3182,"Ã©le":3183,"Ġpou":3184,"ĠÅĵuvre":3185,"aritÃ©":3186,"issent":3187,"Ġoutils":3188,"chant":3189,"ĠmatÃ©riel":3190,"Ġvou":3191,"Ġspectac":3192,"Ġlieux":3193,"ĠÃ©quip":3194,"Ġcompagn":3195,"rement":3196,"ĠthÃ¨me":3197,"Ġhors":3198,"intÃ©rieur":3199,"impression":3200,"Ġâ":3201,"Ġactions":3202,"Ġsoutien":3203,"emb":3204,"ĠsupplÃ©ment":3205,"Ġzone":3206,"ĠComme":3207,"mm":3208,"Ġpopulation":3209,"ĠlumiÃ¨re":3210,"Ġposer":3211,"image":3212,"anim":3213,"xte":3214,"ĠrÃ©seaux":3215,"Ġmoyenne":3216,"intÃ©r":3217,"ige":3218,"Ġchef":3219,"Ġ60":3220,"Ġ31":3221,"itif":3222,"Ġspor":3223,"Ġindividu":3224,"char":3225,"Ġproche":3226,"AC":3227,"ĠcompÃ©tences":3228,"aimer":3229,"Ġbo":3230,"Ġreven":3231,"www":3232,"Ã¨les":3233,"Ġmains":3234,"Ġpratiques":3235,"avantage":3236,"Ġfou":3237,"Ġconcerne":3238,"expÃ©rience":3239,"ĠrÃ©sid":3240,"ĠsiÃ¨cle":3241,"Ġsoins":3242,"Ġterritoire":3243,"esprit":3244,"Ġressources":3245,"Ã©tat":3246,"Ġpresse":3247,"ĠdÃ©termin":3248,"sembl":3249,"Ġposte":3250,"Ġsang":3251,"ourn":3252,"dessus":3253,"bes":3254,"Ġgagner":3255,"ĠdÃ©velopper":3256,"Ġ2010":3257,"ax":3258,"Ġgarde":3259,"Ġsorte":3260,"Ġessenti":3261,"Ġgratuit":3262,"obil":3263,"crire":3264,"Ġmagnifique":3265,"Ġbelles":3266,"Ġcampagne":3267,"Ġretrouve":3268,"hÃ©":3269,"cie":3270,"issant":3271,"Ġadapt":3272,"Ġprofessionnelle":3273,"Ġlivres":3274,"rig":3275,"ĠDieu":3276,"endra":3277,"Ġsupport":3278,"Ġresponsable":3279,"actions":3280,"Ġpromo":3281,"Ġmanifest":3282,"asser":3283,"Ġdroite":3284,"ĠLire":3285,"UE":3286,"Ġcalme":3287,"Quand":3288,"Voici":3289,"orique":3290,"Ġrisques":3291,"crit":3292,"Ġsuffis":3293,"Ġentendu":3294,"Ġeffectu":3295,"Ġdirection":3296,"Que":3297,"ister":3298,"Ġextr":3299,"Ġtransform":3300,"Ġbonheur":3301,"Ġvic":3302,"Ġchoc":3303,"Ġdos":3304,"Ġ[âĢ¦]":3305,"Ġaime":3306,"Ġpuisse":3307,"Ġuniquement":3308,"Ġcinq":3309,"ĠmÃ©c":3310,"Ġocc":3311,"ĠComm":3312,"organisation":3313,"Ġmesures":3314,"cr":3315,"urr":3316,"Ġpolitiques":3317,"Ex":3318,"Ġnour":3319,"Ġraisons":3320,"11":3321,"Ġis":3322,"Ġmission":3323,"ĠintÃ©r":3324,"quÃ©s":3325,"ĠscÃ¨ne":3326,"ĠtempÃ©r":3327,"Ġscienti":3328,"Ġate":3329,"Ġclassi":3330,"ĠQue":3331,"Ġfamili":3332,"ĠPlus":3333,"ribution":3334,"Ġconstat":3335,"Ġcam":3336,"tionnel":3337,"Ġtrad":3338,"ĠmÃ©m":3339,"bl":3340,"Ġfonctionne":3341,"environnement":3342,"espace":3343,"inte":3344,"veill":3345,"ĠÃ©l":3346,"ĠNoÃ«l":3347,"UR":3348,"Ġmaximum":3349,"Ġaccessi":3350,"ĠFranÃ§ais":3351,"Ġcaract":3352,"Ġactuellement":3353,"Ġpuiss":3354,"Ġcontinu":3355,"Ġvir":3356,"Ġneu":3357,"ĠEx":3358,"sp":3359,"Or":3360,"Ã¨que":3361,"ase":3362,"estiv":3363,"ĠrÃ©flex":3364,"ave":3365,"Ġjoueurs":3366,"usion":3367,"Ġsent":3368,"bres":3369,"bertÃ©":3370,"Ġgauche":3371,"ĠÃ©n":3372,"Ġcaf":3373,"Ã§ons":3374,"Ġcontinuer":3375,"Ġnational":3376,"Ġemploy":3377,"ocr":3378,"ĠbÃ©b":3379,"Ġpartout":3380,"ament":3381,"Ġrouge":3382,"Quel":3383,"Ġparcours":3384,"Ġfera":3385,"agÃ©":3386,"Ġespace":3387,"Ġdir":3388,"ĠcollÃ¨":3389,"Ġcentr":3390,"ombre":3391,"Ġmagas":3392,"ĠnÃ©cessaires":3393,"expl":3394,"ĠopÃ©r":3395,"Ã¢ge":3396,"vÃ©s":3397,"Ġjeudi":3398,"ze":3399,"18":3400,"ĠreÃ§u":3401,"Ġparfait":3402,"alu":3403,"Ġrecevoir":3404,"Ġlangue":3405,"ĠÃ©lectr":3406,"Ġperdre":3407,"Ã¨rent":3408,"Ġ29":3409,"Ġstock":3410,"dire":3411,"Ġfaisant":3412,"ĠrÃ©fÃ©rence":3413,"Ġhor":3414,"itude":3415,"br":3416,"Ġforc":3417,"Ġsembl":3418,"Ġobser":3419,"ada":3420,"informations":3421,"Ġcontinue":3422,"Est":3423,"onte":3424,"fie":3425,"Ġcitoy":3426,"Ġporter":3427,"Ġmercredi":3428,"tro":3429,"Ġdocuments":3430,"igne":3431,"asi":3432,"Ã¨se":3433,"ximitÃ©":3434,"Ã´te":3435,"Ġpose":3436,"Ġfonctionnement":3437,"Ġcapit":3438,"ieux":3439,"liquÃ©":3440,"adap":3441,"aurais":3442,"ĠintÃ©ri":3443,"Ġ198":3444,"Ġrecette":3445,"este":3446,"Ġsouvenir":3447,"lie":3448,"oux":3449,"sur":3450,"Ġmaladie":3451,"Ġvaut":3452,"Ġdirect":3453,"ĠdÃ»":3454,"Ġcalcul":3455,"Ġconnu":3456,"ĠfÃªte":3457,"cons":3458,"Ġphotograph":3459,"Ġmultip":3460,"anges":3461,"ĠJean":3462,"Ġsomme":3463,"Ġregarder":3464,"Ġgarder":3465,"Ġconvi":3466,"ynam":3467,"ĠÃ©tudes":3468,"uler":3469,"Ġmouvement":3470,"Ġexist":3471,"pend":3472,"Ġfils":3473,"pren":3474,"ĠmÃªmes":3475,"Ġgroupes":3476,"Ġlesqu":3477,"ĠproximitÃ©":3478,"Ġmauvais":3479,"angÃ©":3480,"chir":3481,"ĠdÃ©partement":3482,"Ġexpos":3483,"Ġconsult":3484,"istÃ¨re":3485,"tionnelle":3486,"Ġmontant":3487,"Ġcheveux":3488,"Ġpsych":3489,"Ġoeu":3490,"Ġlanc":3491,"Ġmardi":3492,"ĠSer":3493,"Ġpapier":3494,"ĠcapacitÃ©":3495,"ĠDi":3496,"Ġindustri":3497,"appel":3498,"ĠBien":3499,"ĠrÃ©guliÃ¨rement":3500,"mation":3501,"enn":3502,"oue":3503,"ĠconsidÃ©r":3504,"ĠÃ©dition":3505,"Ġbain":3506,"Ġtran":3507,"omp":3508,"Ġconsulter":3509,"ĠexpÃ©ri":3510,"Ġrenfor":3511,"ĠprÃ©sentation":3512,"Ġparties":3513,"ĠÃ©cl":3514,"intÃ©rÃªt":3515,"ome":3516,"ouer":3517,"novation":3518,"Ġcourt":3519,"Ġretrouv":3520,"ĠSon":3521,"Ġchercher":3522,"unicip":3523,"Ġstat":3524,"Ġpublics":3525,"Ġpartenaires":3526,"Ã©nom":3527,"Ġdevient":3528,"ĠDÃ©":3529,"OR":3530,"ĠcommunautÃ©":3531,"Ġconstit":3532,"Ġliens":3533,"Ġimportante":3534,"amen":3535,"oll":3536,"IT":3537,"Ġarriver":3538,"Ġvert":3539,"iance":3540,"Ġservir":3541,"Ġfilles":3542,"AL":3543,"Ġchoisi":3544,"Ġhaute":3545,"Ã©couv":3546,"ĠrÃ©cup":3547,"Ġclair":3548,"ĠDu":3549,"Ġcoin":3550,"Ġble":3551,"Ġ&":3552,"Ġlocaux":3553,"ariat":3554,"Ġpiscine":3555,"Ġcommentaires":3556,"Ġsource":3557,"enfant":3558,"Ġtop":3559,"ĠBl":3560,"bum":3561,"Ġplac":3562,"Ġtourn":3563,"cieux":3564,"Ġ80":3565,"Ġglob":3566,"ĠrÃ©alisation":3567,"Ġconsac":3568,"Ġautoris":3569,"Ġcompter":3570,"ĠÃ©tudiants":3571,"OM":3572,"Ġanimaux":3573,"tenant":3574,"dio":3575,"Ġlois":3576,"Ġtomb":3577,"Ġmatch":3578,"gnes":3579,"seur":3580,"Ġ:)":3581,"liers":3582,"Ġdispose":3583,"heureusement":3584,"actÃ©r":3585,"ĠprÃ©fÃ©r":3586,"application":3587,"ĠmÃ¨tres":3588,"ĠpÃ©n":3589,"Ġsout":3590,"Ġhi":3591,"issements":3592,"Ġtri":3593,"Ġconsommation":3594,"ĠintÃ©gr":3595,"orts":3596,"dans":3597,"Ġinvestis":3598,"Ġcourant":3599,"dis":3600,"Ġait":3601,"Ġtelle":3602,"Ã¨tre":3603,"Ġordin":3604,"Ġobjectifs":3605,"Ġexcep":3606,"isÃ©":3607,"asses":3608,"mite":3609,"Ġfaite":3610,"riture":3611,"Ġperdu":3612,"Ġhabitants":3613,"ĠgoÃ»t":3614,"Ġmontre":3615,"import":3616,"estival":3617,"Ġpouvait":3618,"Ġadop":3619,"ache":3620,"Ġparfaitement":3621,"Ġrav":3622,"Ġtra":3623,"raison":3624,"Ġpal":3625,"aliste":3626,"Ġtrou":3627,"Ġcomplex":3628,"Ġpil":3629,"utiliser":3630,"Etat":3631,"ĠrÃ©d":3632,"Ġcontraire":3633,"Ġmas":3634,"ple":3635,"Ã©tÃ©s":3636,"ĠdÃ©pos":3637,"Ġprincipe":3638,"ologiques":3639,"IL":3640,"ĠlibertÃ©":3641,"Ġchap":3642,"Ġmotiv":3643,"itesse":3644,"Ġforte":3645,"estre":3646,"Ġformulaire":3647,"ĠdÃ©di":3648,"Ġminimum":3649,"Ġpouvons":3650,"Ġ2009":3651,"Ġenreg":3652,"alle":3653,"Re":3654,"Ã¢teau":3655,"Ġvin":3656,"ĠBon":3657,"ĠeuropÃ©enne":3658,"Â²":3659,"amÃ©li":3660,"ĠPh":3661,"ĠdÃ©couverte":3662,"Ġbudget":3663,"illez":3664,"Ġcroissance":3665,"Uni":3666,"avec":3667,"fait":3668,"Ġconcep":3669,"tiÃ©":3670,"onses":3671,"Ġquartier":3672,"ĠRÃ©p":3673,"ĠderriÃ¨re":3674,"Ġlocation":3675,"ministration":3676,"huile":3677,"Ã©bec":3678,"Ġfaudra":3679,"CE":3680,"ultÃ©":3681,"Ġcat":3682,"TION":3683,"Ġcomplet":3684,"Ġtotalement":3685,"olÃ©":3686,"ordonn":3687,"Ġtypes":3688,"Ġfacil":3689,"Ġquali":3690,"Ġvoie":3691,"âĢľ":3692,"ĠpremiÃ¨res":3693,"ĠdÃ©tails":3694,"Ġtotal":3695,"orde":3696,"Ġmontrer":3697,"agnÃ©":3698,"Ġadresse":3699,"urent":3700,"14":3701,"ĠFace":3702,"ĠrÃ©gime":3703,"ĠLA":3704,"ĠAm":3705,"Ġsoin":3706,"ingt":3707,"ection":3708,"Ġpermettra":3709,"ties":3710,"Ġsauf":3711,"oss":3712,"ient":3713,"hÃ©r":3714,"Ġ(...)":3715,"Ġpayer":3716,"Ġacteurs":3717,"abs":3718,"Ġpropres":3719,"Ġchaud":3720,"ispens":3721,"Ġcircul":3722,"ĠimmÃ©di":3723,"ĠreÃ§":3724,"del":3725,"Ġsud":3726,"ĠðŁĺ":3727,"ĠprÃ©vu":3728,"Ġdemain":3729,"ĠcaractÃ©r":3730,"euner":3731,"Ġmariage":3732,"ĠintÃ©ressant":3733,"ĠpÃ©d":3734,"Ã¨ve":3735,"Ġapprendre":3736,"ĠÃīt":3737,"ĠresponsabilitÃ©":3738,"Ġdemi":3739,"ĠcomplÃ©ment":3740,"die":3741,"iÃ¨re":3742,"ĠrÃ©alisÃ©":3743,"Ġnett":3744,"ĠOr":3745,"Ġfaisait":3746,"ĠcommencÃ©":3747,"apon":3748,"Ġadul":3749,"Ġaccue":3750,"ĠmodÃ¨les":3751,"Ġpaiement":3752,"chite":3753,"Ġbel":3754,"Ġsan":3755,"Ġfamilles":3756,"ĠprÃ©parer":3757,"accomp":3758,"ologies":3759,"ĠvÃ©hicule":3760,"entrer":3761,"Ã©tude":3762,"Ġmembre":3763,"Ġvo":3764,"Ġessayer":3765,"Ġenvoy":3766,"ĠGo":3767,"Ġcomprend":3768,"Ġautomatique":3769,"Ġpieds":3770,"ĠÃ©quipes":3771,"Ġdouble":3772,"Ils":3773,"Ġcombat":3774,"car":3775,"Ġdipl":3776,"Ġmic":3777,"Ġconst":3778,"hors":3779,"Ġseconde":3780,"Ġaction":3781,"aler":3782,"Ġplage":3783,"ĠdemandÃ©":3784,"Ġfranc":3785,"CI":3786,"Ġremb":3787,"Ġprati":3788,"Ġdynam":3789,"Ġrelations":3790,"oise":3791,"bon":3792,"Ġroman":3793,"univers":3794,"roit":3795,"Ġdix":3796,"Ġfonctionn":3797,"Ġrejoin":3798,"Ġcompar":3799,"Ġrare":3800,"Ġcyc":3801,"Ġimag":3802,"Ġprot":3803,"Ġdomicile":3804,"Ġcab":3805,"arc":3806,"Ġkil":3807,"gÃ©e":3808,"Ġtit":3809,"Ġpatri":3810,"niversaire":3811,"Ġmoments":3812,"Ġsim":3813,"onsieur":3814,"oritÃ©s":3815,"Ġcommis":3816,"hÃ´tel":3817,"Enfin":3818,"Ġerre":3819,"ctures":3820,"Ġrencontrer":3821,"Ġbles":3822,"Ġfinalement":3823,"euros":3824,"ĠnumÃ©rique":3825,"60":3826,"Ġmam":3827,"Ġvisage":3828,"ĠmÃ©tier":3829,"Ġimage":3830,"Ġdesign":3831,"ublique":3832,"Ġbras":3833,"ĠdÃ©pend":3834,"abil":3835,"ĠdÃ©velopp":3836,"Ġint":3837,"issez":3838,"Gr":3839,"Ġgaz":3840,"Ġrevenir":3841,"ĠmajoritÃ©":3842,"Ġvent":3843,"Ġwww":3844,"veille":3845,"aqu":3846,"Ġsh":3847,"otte":3848,"ossible":3849,"Ã©volution":3850,"install":3851,"Ġapporter":3852,"ĠrÃ©ponses":3853,"ĠvidÃ©os":3854,"ressi":3855,"Ġindispens":3856,"assurance":3857,"Ġacheter":3858,"ĠmÃ©thode":3859,"Ġcrise":3860,"ĠÃ©vent":3861,"ĠÃ©trang":3862,"Ġsympa":3863,"midi":3864,"ĠentraÃ®":3865,"Ġpois":3866,"ogle":3867,"Ġhauteur":3868,"Ġfruits":3869,"ĠÃ©qu":3870,"Ġattendre":3871,"Ġtendance":3872,"Ġvaleurs":3873,"ĠQuÃ©bec":3874,"Ġfisc":3875,"ENT":3876,"ĠcompÃ©ti":3877,"Ġfinir":3878,"Ġ197":3879,"Ġjuri":3880,"ĠcaractÃ¨re":3881,"Ġbanc":3882,"ÃªtÃ©":3883,"ute":3884,"Ġnavig":3885,"ĠcinÃ©m":3886,"Ġeffets":3887,".)":3888,"ainte":3889,"Ġperte":3890,"ĠNotre":3891,"Ġvitesse":3892,"Ass":3893,"Ġcroire":3894,"Ġtenir":3895,"line":3896,"olument":3897,"Ġcommerce":3898,"Aujourd":3899,"Ġheureux":3900,"Ġment":3901,"Ġperman":3902,"ĠtÃ¢":3903,"Ġanglais":3904,"ĠEtats":3905,"Ġdevoir":3906,"Ġrestaurant":3907,"Ġoffrir":3908,"he":3909,"istiques":3910,"Ġ500":3911,"Ġcourse":3912,"Ġpoursui":3913,"Ġcartes":3914,"ĠCons":3915,"Ġmunicip":3916,"Ġsil":3917,"urÃ©":3918,"ĠbÃ©bÃ©":3919,"Ġ2008":3920,"Ġutilisateurs":3921,"moine":3922,"aul":3923,"gÃ©s":3924,"Du":3925,"ĠcoÃ»t":3926,"ares":3927,"Ġlancer":3928,"Ġlivraison":3929,"Ġtal":3930,"ailles":3931,"ouse":3932,"Ġcompagnie":3933,"ĠMin":3934,"rice":3935,"ĠcomplÃ¨te":3936,"Ġred":3937,"Ġfavoris":3938,"ĠcafÃ©":3939,"Ġabord":3940,"ĠEst":3941,"uels":3942,"Ã´me":3943,"ĠdiffÃ©rence":3944,"mande":3945,"enture":3946,"Ġlimite":3947,"alisÃ©":3948,"ustrie":3949,"nique":3950,"opri":3951,"Ġrenouv":3952,"Pro":3953,"Ġcependant":3954,"Ġpreuve":3955,"Ġstructure":3956,"Ġrendu":3957,"Ġnaturel":3958,"ĠðŁĻ":3959,"king":3960,"AM":3961,"17":3962,"ĠvÃ©l":3963,"II":3964,"ĠdÃ©faut":3965,"Ġdirige":3966,"charge":3967,"ĠMal":3968,"Ġcouple":3969,"Ġboul":3970,"Ne":3971,"Ġexac":3972,"Ġcondition":3973,"oot":3974,"Ġpolice":3975,"ultÃ©s":3976,"Ġcouv":3977,"Ġchat":3978,"ĠvolontÃ©":3979,"Ġfact":3980,"Ġexig":3981,"Ġvisi":3982,"Ġpeint":3983,"Ġfini":3984,"ercice":3985,"aix":3986,"Ġmoteur":3987,"Ġlab":3988,"ectivement":3989,"ĠCor":3990,"ĠmaÃ®tr":3991,"opÃ©ration":3992,"Ġ70":3993,"ourg":3994,"Ã®te":3995,"Ġcollection":3996,"Ġinternationale":3997,"24":3998,"Ġsix":3999,"ma":4000,"Ġlogement":4001,"ĠbÃ©nÃ©ficier":4002,"agr":4003,"ĠQuand":4004,"ĠforcÃ©ment":4005,"Ã©rap":4006,"Ġexplique":4007,"Ġmondiale":4008,"andic":4009,"ĠPe":4010,"assurer":4011,"Ġrig":4012,"mique":4013,"usÃ©":4014,"Ġfonds":4015,"Ġrencontres":4016,"no":4017,"Ġcompt":4018,"imm":4019,"charger":4020,"uff":4021,"obilier":4022,"ĠentiÃ¨rement":4023,"Ġvoi":4024,"Ġportes":4025,"Ġboutique":4026,"mÃ©e":4027,"vite":4028,"ĠÃītats":4029,"ĠmÃ©can":4030,"Ġparticipants":4031,"Ġrelative":4032,"oÃ»":4033,"onter":4034,"uration":4035,"appar":4036,"Ġrele":4037,"Ġmilliards":4038,"Ġveulent":4039,"ash":4040,"Ġryth":4041,"lusi":4042,"13":4043,"Ġgraph":4044,"ĠgÃ©rer":4045,"timis":4046,"andicap":4047,"ĠsÃ©ance":4048,"Ġsinon":4049,"ĠstratÃ©gie":4050,"Ġtels":4051,"ination":4052,"ĠdÃ©marche":4053,"AP":4054,"objectif":4055,"ĠmÃ©moire":4056,"Moi":4057,"Ġagric":4058,"ĠidÃ©al":4059,"entiss":4060,"Ġjoue":4061,"Pas":4062,"ĠFacebook":4063,"Ã¢tre":4064,"ĠLE":4065,"tine":4066,"astique":4067,"Ġfroid":4068,"Ġsurface":4069,"Ġstand":4070,"ĠgÃ©nÃ©ralement":4071,"200":4072,"Ġsaur":4073,"ĠcomplÃ¨tement":4074,"Ġparticipation":4075,"Ġobten":4076,"Ġassurer":4077,"ollar":4078,"oh":4079,"ĠPrÃ©s":4080,"instant":4081,"ĠrÃ©duire":4082,"Ġlettre":4083,"Ġbeaux":4084,"ĠbeautÃ©":4085,"Ġconscience":4086,"Ã¨nes":4087,"Ġvoulais":4088,"enses":4089,"Ġvalid":4090,"Ġcommentaire":4091,"ĠGrand":4092,"Ġconform":4093,"Ġtouche":4094,"Ġpersonnages":4095,"Ġutilise":4096,"imag":4097,"itant":4098,"OS":4099,"ĠaimÃ©":4100,"ĠprotÃ©ger":4101,"lÃ©g":4102,"nies":4103,"ĠQuel":4104,"Ġvilles":4105,"ĠNon":4106,"Europe":4107,"andonn":4108,"Ġutile":4109,"tiles":4110,"ablissement":4111,"Ã©ducation":4112,"aider":4113,"Ġchien":4114,"ĠcatÃ©gorie":4115,"Ġaffir":4116,"ĠVi":4117,"NE":4118,"ĠCanada":4119,"atures":4120,"rog":4121,"Ġconnaissances":4122,"ĠTV":4123,"main":4124,"indi":4125,"ĠðŁĻĤ":4126,"olat":4127,"ĠOui":4128,"Ġfinal":4129,"Ġcrit":4130,"Ġverre":4131,"Ġfaible":4132,"Ã©nagement":4133,"Mon":4134,"Ġrub":4135,"ĠamÃ©liorer":4136,"ĠprÃ©paration":4137,"Ġnouvel":4138,"Ġlutte":4139,"avance":4140,"Ġscolaire":4141,"ville":4142,"ĠrÃªve":4143,"Ġcerti":4144,"ocation":4145,"Ġiss":4146,"ĠtÃ´t":4147,"Ġcadeau":4148,"Ġlogiciel":4149,"Ġvoire":4150,"ry":4151,"Ġproposons":4152,"cal":4153,"tiÃ¨re":4154,"Ġconcurr":4155,"matique":4156,"Non":4157,"Ġbless":4158,"Ġperd":4159,"avenir":4160,"Ġgal":4161,"Ġfen":4162,"Ġprivil":4163,"ualitÃ©":4164,"ĠElles":4165,"ĠÃ©tude":4166,"Ġfilms":4167,"cs":4168,"DE":4169,"uste":4170,"ĠtroisiÃ¨me":4171,"Ġapplication":4172,"ĠmÃ©decin":4173,"Ġ35":4174,"ĠMe":4175,"oureux":4176,"Ġtermes":4177,"ĠsalariÃ©s":4178,"Ġchauss":4179,"Ġlait":4180,"Ġfaute":4181,"lo":4182,"urant":4183,"Ġguide":4184,"ĠrÃ©serve":4185,"ĠrÃ©duction":4186,"ĠcontrÃ´":4187,"agog":4188,"ĠcrÃ©Ã©":4189,"ational":4190,"Ġlour":4191,"ĠdÃ©n":4192,"Tous":4193,"Ã©poque":4194,"Ġaurez":4195,"Ġterrasse":4196,"Ġdollar":4197,"Ġconnec":4198,"alogue":4199,"oure":4200,"Cela":4201,"Ġmention":4202,"Ġajouter":4203,"ĠdÃ©mocr":4204,"ĠmÃ©dias":4205,"ast":4206,"Ġsourire":4207,"ĠdÃ©lai":4208,"ĠNord":4209,"ĠÃ©tape":4210,"Ġtenu":4211,"AT":4212,"cl":4213,"nÃ©s":4214,"Ã©couvrez":4215,"arrive":4216,"ĠrÃ©flÃ©":4217,"ĠSud":4218,"autes":4219,"ĠopÃ©ration":4220,"Ġ2019":4221,"administration":4222,"chent":4223,"ĠSa":4224,"Ġmachine":4225,"ĠdÃ©sir":4226,"Ġray":4227,"Ġinstitu":4228,"Ġbil":4229,"Ġvisiter":4230,"fications":4231,"Ġhier":4232,"Ġtransf":4233,"Ġdurable":4234,"ĠpossÃ¨de":4235,"itent":4236,"Ġchans":4237,"Ġ=":4238,"Ġorgan":4239,"Ġfaits":4240,"Ġpersonnage":4241,"ĠrÃ©el":4242,"Ã©conomie":4243,"moins":4244,"Ġdavantage":4245,"Ġobjets":4246,"delÃł":4247,"Ġsujets":4248,"Ġcontexte":4249,"Ġtient":4250,"Ġmur":4251,"ĠAinsi":4252,"atrice":4253,"quez":4254,"cis":4255,"ĠdifficultÃ©s":4256,"ĠCol":4257,"Ġdistance":4258,"ĠÃ©lectrique":4259,"Ġfich":4260,"Ġjustice":4261,"Ġvieux":4262,"Ġpassionn":4263,"Ġtenue":4264,"Mar":4265,"Ġvolu":4266,"Ġstatut":4267,"mentation":4268,"Ġillus":4269,"OUR":4270,"cier":4271,"ĠÃ©volu":4272,"times":4273,"Ġsuivante":4274,"Ġsuc":4275,"ĠÃĩa":4276,"...]":4277,"Ã©min":4278,"Ġchan":4279,"ĠprÃ©cise":4280,"Ġcapable":4281,"Ġassure":4282,"ĠÃ©tab":4283,"Ġsavez":4284,"25":4285,"ĠdÃ©bat":4286,"Ġouverte":4287,"apes":4288,"aites":4289,"Ġnote":4290,"Ġtechnologie":4291,"40":4292,"Ġdimin":4293,"Ġdehors":4294,"Ġpanne":4295,"Ġimpos":4296,"ĠreprÃ©sente":4297,"Ġvision":4298,"ĠCl":4299,"oun":4300,"Ġ90":4301,"rix":4302,"Ġmises":4303,"ĠVoici":4304,"ĠimmÃ©diate":4305,"Ġappare":4306,"Ã©nÃ©r":4307,"tirer":4308,"zz":4309,"ĠRÃ©":4310,"Ġlis":4311,"Ġeffect":4312,"Ġpourront":4313,"Ġrecherches":4314,"Ġhandicap":4315,"Ġsoup":4316,"Ġaffaires":4317,"ortÃ©":4318,"Ġ_":4319,"ĠÃ©videmment":4320,"oÃ¹":4321,"astr":4322,"Ġallons":4323,"Ġlignes":4324,"Ġgrav":4325,"Ġdemandes":4326,"offre":4327,"Â»,":4328,"Ġciv":4329,"Ġsuivantes":4330,"Ġsuivants":4331,"ĠSh":4332,"onge":4333,"itre":4334,"ĠpubliÃ©":4335,"Ġnaissance":4336,"16":4337,"Ġabsolument":4338,"VoilÃł":4339,"As":4340,"Ġprofi":4341,"Ġtiss":4342,"ĠchaÃ®":4343,"aill":4344,"Ġdiscussi":4345,"Ġappartement":4346,"ĠdÃ©ch":4347,"Ġdoig":4348,"Fr":4349,"ĠTous":4350,"Ġfournir":4351,"ĠLors":4352,"ĠmÃ©n":4353,"frique":4354,"umes":4355,"Ġpuissance":4356,"onneur":4357,"ĠrÃ¨glement":4358,"ĠCentre":4359,"Ġmeu":4360,"Ãªtements":4361,"hÃ´":4362,"ĠtempÃ©rature":4363,"Ġpassion":4364,"ersonne":4365,"**":4366,"Ġstation":4367,"tivitÃ©":4368,"mn":4369,"Ġlic":4370,"Cet":4371,"installation":4372,"Ġ..":4373,"TrÃ¨s":4374,"ulle":4375,"seurs":4376,"ĠsystÃ¨mes":4377,"ertains":4378,"Ġdessin":4379,"alisme":4380,"Ã©rant":4381,"ĠÃ¢ge":4382,"Ġmob":4383,"keting":4384,"ia":4385,"Ġprim":4386,"Ġquant":4387,"ĠrÃ©union":4388,"pro":4389,"Ġinterven":4390,"Ġremise":4391,"ince":4392,"Ġinstru":4393,"Ġdesc":4394,"Ġspectacle":4395,"ĠprivÃ©":4396,"Ġobligatoire":4397,"duc":4398,"uelles":4399,"Ġdomaines":4400,"Ġprises":4401,"Ġdiz":4402,"ĠCour":4403,"entretien":4404,"ĠprÃ©sentÃ©":4405,"Ġdoule":4406,"attend":4407,"riques":4408,"Ġsurprise":4409,"Ã§a":4410,"aimerais":4411,"ĠvÃ©rifier":4412,"Ġinternational":4413,"enseignement":4414,"Ġriche":4415,"Ġcertainement":4416,"Ġsolid":4417,"Ġformes":4418,"ĠrÃ©glement":4419,"Ġvoulu":4420,"rou":4421,"Ġproches":4422,"Ġsucre":4423,"ĠpropriÃ©tÃ©":4424,"gner":4425,"Ġcollabor":4426,"entissage":4427,"sons":4428,"Ġformat":4429,"ĠsÃ©par":4430,"Ġchaleur":4431,"Ġ2007":4432,"Ġpensez":4433,"erti":4434,"Ġprincipal":4435,"ĠcinÃ©ma":4436,"âĢ¦)":4437,"bilitÃ©s":4438,"Ġbac":4439,"Ġviv":4440,"ortement":4441,"ories":4442,"ourir":4443,"Ġnu":4444,"Ġretard":4445,"ague":4446,"ĠÃ©vÃ©nements":4447,"ĠSoci":4448,"oitation":4449,"hiver":4450,"faire":4451,"Ġ....":4452,"Ġpression":4453,"ĠvÃ©g":4454,"ĠRÃ©publique":4455,"ĠChar":4456,"vage":4457,"Ġtextes":4458,"arrivÃ©e":4459,"Ġplat":4460,"alie":4461,"Ġconvient":4462,"alistes":4463,"ĠannoncÃ©":4464,"Ġcourage":4465,"Ġimpossible":4466,"Ã©rences":4467,"habitude":4468,"Ġend":4469,"Ġciel":4470,"Am":4471,"ĠWeb":4472,"ĠBel":4473,"Ġprestations":4474,"isl":4475,"ĠÃ©mo":4476,"Ġ45":4477,"avo":4478,"Ãītat":4479,"Ġviennent":4480,"ork":4481,"sh":4482,"Ġjolie":4483,"ĠTe":4484,"ĠĠ":4485,"Ġnord":4486,"ader":4487,"yst":4488,"naire":4489,"ton":4490,"ĠlittÃ©r":4491,"uellement":4492,"Ġanaly":4493,"unitÃ©":4494,"ĠmoitiÃ©":4495,"agir":4496,"avons":4497,"Ġtableau":4498,"Ġplaces":4499,"ĠprocÃ©dure":4500,"cles":4501,"Ġjau":4502,"Ġpatrimoine":4503,"semblÃ©e":4504,"Ġferme":4505,"ĠdÃ©clarÃ©":4506,"ĠCont":4507,"Ġmessages":4508,"ĠbÃ¢timent":4509,"ousse":4510,"Ġtomber":4511,"PS":4512,"Ġbus":4513,"Votre":4514,"affaires":4515,"Ġnormal":4516,"dir":4517,"yl":4518,"Ġgrave":4519,"Ġfallait":4520,"rÃ©es":4521,"Ã©ros":4522,"Ġannonce":4523,"Pourquoi":4524,"Ġconvain":4525,"Ġentier":4526,"Ġzones":4527,"Ġtap":4528,"ME":4529,"Ġclassique":4530,"ĠGoogle":4531,"Ġassociations":4532,"Ġpire":4533,"Ġcontribu":4534,"avis":4535,"Ġtenter":4536,"autant":4537,"Ġ'":4538,"ĠvÃ©hicules":4539,"ĠmÃ©lange":4540,"Ġgarantie":4541,"ĠPourquoi":4542,"Ġoccup":4543,"andes":4544,"Ġfutur":4545,"aume":4546,"Ġoffres":4547,"Ġfichier":4548,"ĠrÃ©ception":4549,"liquez":4550,"Ġdollars":4551,"urgence":4552,"Ġaffi":4553,"Ġrespecter":4554,"Ġmarques":4555,"ĠpÃ©dagog":4556,"terie":4557,"Ġpaix":4558,"Ã¨ge":4559,"itÃ©e":4560,"Ġsyndic":4561,"inscription":4562,"Ġavantages":4563,"ĠdÃ©fense":4564,"Ġenseign":4565,"Ġrecru":4566,"Ġsert":4567,"assÃ©":4568,"ĠrÃ©flexion":4569,"].":4570,"istique":4571,"Ġexclusi":4572,"intÃ©gr":4573,"Ã©dÃ©":4574,"Ġstress":4575,"Ġcos":4576,"Ġvend":4577,"ilibre":4578,"Ġoublier":4579,"Ġcommunes":4580,"Ã§ant":4581,"Ġtranqu":4582,"gi":4583,"outÃ©":4584,"agnement":4585,"Ġpros":4586,"Ġfinancement":4587,"onf":4588,"Ã©tablissement":4589,"Ġdevait":4590,"ĠDepuis":4591,"ĠdÃ©cor":4592,"Ġlocal":4593,"Ġreli":4594,"Ġrat":4595,"Ġremettre":4596,"nel":4597,"ĠPre":4598,"Ġvouloir":4599,"Ġpuisqu":4600,"ĠpropriÃ©taire":4601,"IC":4602,"Ġdevenu":4603,"Ġrelig":4604,"Ġrasse":4605,"Ġprogrammes":4606,"Ġchocolat":4607,"cid":4608,"SE":4609,"aluation":4610,"vice":4611,"ĠproposÃ©":4612,"Ã©an":4613,"esse":4614,"ĠdÃ©fini":4615,"Ġalbum":4616,"Ġfavor":4617,"Union":4618,"pas":4619,"agÃ©e":4620,"Ġfid":4621,"ĠEurope":4622,"Ġsigne":4623,"ĠsociÃ©tÃ©s":4624,"ositÃ©":4625,"ataire":4626,"ĠvÃ©gÃ©t":4627,"Ġrecettes":4628,"Ġul":4629,"Ġconception":4630,"Ġpersonnelles":4631,"Ġforces":4632,"atoires":4633,"ani":4634,"ĠcrÃ©dit":4635,"esses":4636,"Ins":4637,"Ġbate":4638,"Ġpourraient":4639,"ĠarrivÃ©":4640,"IE":4641,"umÃ©":4642,"Ġenj":4643,"Ġgentil":4644,"Ġoutre":4645,"Ġaspect":4646,"ĠcomplÃ©":4647,"vitÃ©":4648,"agers":4649,"Ġdiverses":4650,"ĠÃ©tapes":4651,"quÃ©es":4652,"ĠgoÃ»":4653,"Ġpeuple":4654,"Ġjoin":4655,"gg":4656,"ĠhÃ´tel":4657,"oquer":4658,"Ġorient":4659,"ourage":4660,"ĠMÃªme":4661,"occu":4662,"Ġair":4663,"Ã©dition":4664,"Ġaccessible":4665,"blioth":4666,"ays":4667,"ribun":4668,"Ġquanti":4669,"ĠdÃ©jeuner":4670,"Ġcompren":4671,"ws":4672,"ĠcarriÃ¨re":4673,"pi":4674,"Ġ300":4675,"Ġmeilleures":4676,"Ġmorce":4677,"ĠdÃ©rou":4678,"ture":4679,"Ġvisiteurs":4680,"Ġconstruire":4681,"inet":4682,"Ġrenseignements":4683,"Ġrythme":4684,"ĠespÃ¨":4685,"Ġconseiller":4686,"core":4687,"Ġconnex":4688,"Selon":4689,"orisation":4690,"ĠdÃ©fi":4691,"Ġtester":4692,"ĠÃ©coles":4693,"Ġbio":4694,"tements":4695,"Ġattendant":4696,"ĠprivÃ©e":4697,"ĠrÃ¨gle":4698,"Ġmagasin":4699,"Ġprincipalement":4700,"Ã¨che":4701,"ĠCependant":4702,"Ġdirecteur":4703,"ides":4704,"occup":4705,"Ġriches":4706,"Ġtiers":4707,"ĠrÃ©ussite":4708,"tellig":4709,"Ah":4710,"Ġdiscu":4711,"Ġmodifier":4712,"ores":4713,"Ġhu":4714,"Ġquasi":4715,"AU":4716,"Ġparticuliers":4717,"riez":4718,"ĠcritÃ¨res":4719,"Ġvide":4720,"Ġniveaux":4721,"oncer":4722,"ayer":4723,"Ġnoter":4724,"Ġtechnologies":4725,"Ġbour":4726,"âĢĶ":4727,"__":4728,"do":4729,"Ġserez":4730,"analyse":4731,"industrie":4732,"ĠvÃ©lo":4733,"Ġvingt":4734,"Ġconcert":4735,"ĠfÃªtes":4736,"artis":4737,"ĠRen":4738,"Ġutilisation":4739,"Ġmauvaise":4740,"Ġgrosses":4741,"len":4742,"autÃ©s":4743,"ĠlÃ©gisl":4744,"Ġindic":4745,"ĠprÃ©ser":4746,"Ġatteindre":4747,"Ġrappelle":4748,"mart":4749,"Ġhistorique":4750,"ouvertes":4751,"aintenant":4752,"ht":4753,"Ġphras":4754,"ĠministÃ¨re":4755,"ĠÃ©pis":4756,"outes":4757,"ĠsituÃ©e":4758,"At":4759,"45":4760,"Ġpouvant":4761,"mun":4762,"Ġapproche":4763,"lusion":4764,"ĠprivilÃ©g":4765,"ĠprÃ©sents":4766,"org":4767,"Ġretraite":4768,"Ġtoutefois":4769,"Ġanniversaire":4770,"Ġmoderne":4771,"Ġconcept":4772,"ĠconfÃ©rence":4773,"Ġfaudrait":4774,"cule":4775,"Ġpatients":4776,"cemment":4777,"Ġattentes":4778,"mÃ©s":4779,"fiÃ©e":4780,"titut":4781,"oiles":4782,"extÃ©rieur":4783,"Ġjoie":4784,"IR":4785,"ony":4786,"ini":4787,"ionn":4788,"Ġmobile":4789,"Ġexactement":4790,"Donc":4791,"Ġprofonde":4792,"Ġmut":4793,"environ":4794,"Ġatta":4795,"Ġcandidats":4796,"Ġpau":4797,"ĠCa":4798,"alise":4799,"Ġcomprends":4800,"Ġmarch":4801,"Ã©tique":4802,"ricitÃ©":4803,"ulÃ©":4804,"Ġindispensable":4805,"ĠcrÃ¨me":4806,"âĢ¦.":4807,"Ġsimples":4808,"ustr":4809,"oe":4810,"Ġmaisons":4811,"autom":4812,"uil":4813,"mier":4814,"Ġprobablement":4815,"Ġmerveille":4816,"Ġbaisse":4817,"Ġformations":4818,"Ġfonctions":4819,"uper":4820,"Ġdommage":4821,"Ġso":4822,"run":4823,"ographie":4824,"aitre":4825,"ĠToute":4826,"ĠET":4827,"ĠprÃ©al":4828,"Ġbande":4829,"Ġcombien":4830,"Ġcomportement":4831,"Ġrejoindre":4832,"ĠAujourd":4833,"Ġposi":4834,"aign":4835,"tiens":4836,"Ã©rie":4837,"Ġsection":4838,"ĠRÃ©s":4839,"ĠÃ©tablissements":4840,"Ġalle":4841,"ĠdÃ©mont":4842,"ĠtÃ©moign":4843,"ĠðŁĺī":4844,"Ġprofond":4845,"Ġhumain":4846,"ĠÃ©vÃ©nement":4847,"ĠquantitÃ©":4848,"Ġfant":4849,"ĠliÃ©s":4850,"Ġcliquez":4851,"Ġenvis":4852,"Ġlyc":4853,"Ġvictimes":4854,"oyage":4855,"ĠSal":4856,"Ġdistin":4857,"Ġoccasion":4858,"Ġkilom":4859,"ĠDonc":4860,"ĠindÃ©pend":4861,"Ġmens":4862,"veau":4863,"bi":4864,"ĠautoritÃ©s":4865,"Ġcomptes":4866,"Ġceci":4867,"deur":4868,"Ġfabrication":4869,"ajouter":4870,"ĠrentrÃ©e":4871,"ĠmarchÃ©s":4872,"Ġchiffres":4873,"ĠAd":4874,"Ġhumaine":4875,"gues":4876,"rÃ©t":4877,"ĠconsÃ©quences":4878,"Ġ>":4879,"Ġphase":4880,"Ġvraie":4881,"Ġvote":4882,"Ã©rir":4883,"Ġcommer":4884,"ĠclÃ©":4885,"ĠvÃªtements":4886,"Ġcroy":4887,"Ãªcher":4888,"Ġbiens":4889,"pital":4890,"Ġsociales":4891,"Ġassociation":4892,"ĠlÃ©gumes":4893,"Ġ2000":4894,"ĠfÃ©d":4895,"Ġtraite":4896,"Ġurb":4897,"Ġorganisation":4898,"ĠÃ©crire":4899,"ĠdÃ©couvert":4900,"Ġprintemps":4901,"Ġmilliers":4902,"Ġexcellent":4903,"ĠsupÃ©rieur":4904,"ĠspÃ©cifique":4905,"Ġcontent":4906,"cun":4907,"Ġmand":4908,"Ġaltern":4909,"Ã©ni":4910,"Ġenvoyer":4911,"Ġtarifs":4912,"Ġcontrib":4913,"Ġbleu":4914,"oud":4915,"Ġmoindre":4916,"Ġartistes":4917,"ĠJu":4918,"ĠadaptÃ©":4919,"Ã©cran":4920,"ĠintÃ©rÃªt":4921,"Ã´mes":4922,"ĠeuropÃ©en":4923,"Ġfleurs":4924,"usÃ©e":4925,"mbler":4926,"Ġsuperbe":4927,"Ġpassant":4928,"Ġinte":4929,"-)":4930,"ĠchangÃ©":4931,"Ġhaus":4932,"Ġos":4933,"Ġadultes":4934,"Ġdispositions":4935,"Ġbis":4936,"ĠDire":4937,"net":4938,"Ġdestination":4939,"Ġchiffre":4940,"rire":4941,"ĠÃ©nergÃ©":4942,"ly":4943,"Ġcru":4944,"Ġaccess":4945,"Ġfiche":4946,"US":4947,"ffe":4948,"Ġsymb":4949,"Ġmicro":4950,"Ġfati":4951,"Ġconseill":4952,"Ġregr":4953,"ĠMa":4954,"Ġinformation":4955,"tons":4956,"Ġregret":4957,"ĠBi":4958,"Ġreprendre":4959,"Ġneuf":4960,"ouche":4961,"ĠmÃ©thodes":4962,"Chaque":4963,"Ġchangements":4964,"AG":4965,"Ġfestival":4966,"Ġplans":4967,"Ġpouss":4968,"!!!!":4969,"ama":4970,"ĠpÃªche":4971,"Ġperformance":4972,"ĠextrÃªme":4973,"39":4974,"Ġlargement":4975,"Ġmini":4976,"Ġpron":4977,"Ġdange":4978,"Nos":4979,"ĠdÃ©lais":4980,"cien":4981,"Ġmidi":4982,"Ġeffectuer":4983,"Ġplantes":4984,"ĠsÃ©rieux":4985,"uisse":4986,"ĠâĢĶ":4987,"Ġtotale":4988,"gueur":4989,"ĠÃ©conomiques":4990,"Ġallait":4991,"atie":4992,"ener":4993,"Ġprincipaux":4994,"Ġfan":4995,"Ġfoot":4996,"uir":4997,"ĠcÃ´t":4998,"ĠfÃ©min":4999,"Ġdispositif":5000,"auf":5001,"ĠphÃ©nom":5002,"exist":5003,"ars":5004,"ĠcÃ©lÃ¨":5005,"umer":5006,"ĠamÃ©ricain":5007,"Ġadress":5008,"ĠpensÃ©":5009,"80":5010,"Ġcontemp":5011,"22":5012,"ros":5013,"Ġfaciliter":5014,"ctoire":5015,"gique":5016,"semble":5017,"Ġvigueur":5018,"RO":5019,"Ġneige":5020,"Ã©coute":5021,"Ġcollectif":5022,"Ġlance":5023,"Ġstage":5024,"Ġavanc":5025,"importance":5026,"ĠopÃ©rations":5027,"Ġinvite":5028,"Ġsugg":5029,"ĨĴ":5030,"Ġdon":5031,"Ġateliers":5032,"Ġjuge":5033,"Ġbillet":5034,"ĠÃ©lectronique":5035,"Ġcorrec":5036,"pris":5037,"agnes":5038,"ĠQui":5039,"gÃ©es":5040,"agent":5041,"ĠdÃ©veloppe":5042,"Ġ[...]":5043,"onnÃ©":5044,"Ġmine":5045,"lÃ©e":5046,"Ġconfl":5047,"Ġpartenariat":5048,"quet":5049,"ĠrÃ©sidence":5050,"uitement":5051,"Ġcomporte":5052,"Ġplateforme":5053,"agnos":5054,"appelle":5055,"accep":5056,"Ġrecours":5057,"Ġbouche":5058,"Ġdevis":5059,"Ġgratuite":5060,"chiers":5061,"itter":5062,"ĠFor":5063,"Ġmarketing":5064,"Ġinten":5065,"Ġcitoyens":5066,"rain":5067,"investis":5068,"Ġremercie":5069,"Lire":5070,"lage":5071,"Ġsoucis":5072,"Ġsituations":5073,"Ġjoueur":5074,"ĠrÃ©ellement":5075,"Ġrire":5076,"cool":5077,"Ġatten":5078,"ĠFin":5079,"Ġsentiment":5080,"ball":5081,"Ġchin":5082,"Ġconsiste":5083,"ĠCommission":5084,"Ġprofil":5085,"Ġespaces":5086,"Cont":5087,"sements":5088,"Ġrenouvel":5089,"Ġmaman":5090,"Ġmusic":5091,"usse":5092,"Ġsalles":5093,"Ġrevenus":5094,"Ġcollaboration":5095,"ĠindiquÃ©":5096,"ĠpÃ¢":5097,"ataires":5098,"ĠMan":5099,"land":5100,"obtenir":5101,"rup":5102,"Ac":5103,"Ã©rop":5104,"Ġaccompagner":5105,"Ġcoupe":5106,"Ġhumains":5107,"acheter":5108,"Ġpatient":5109,"Ġaimer":5110,"ĠÃ©levÃ©":5111,"Ġjudi":5112,"Ġpeinture":5113,"veillance":5114,"Ġconstitue":5115,"roy":5116,"Ġinqui":5117,"Ġdiv":5118,"olesc":5119,"Ġfran":5120,"erm":5121,"Ġgratuitement":5122,"ĠVal":5123,"Ġdynamique":5124,"Ġajout":5125,"Ph":5126,"Ġchasse":5127,"Ġeffectivement":5128,"Ġappris":5129,"Ġveille":5130,"Ġregarde":5131,"ĠvÃ©ritÃ©":5132,"ĠmatÃ©riaux":5133,"Ġemploi":5134,"lÃ¨ve":5135,"utÃ©":5136,"Ġbilan":5137,"jou":5138,"Ġordinateur":5139,"Ġcommission":5140,"ĠGÃ©nÃ©r":5141,"Ġcondam":5142,"Ġclairement":5143,"Ġparis":5144,"ju":5145,"ĠutilisÃ©s":5146,"Ġscientifique":5147,"lais":5148,"Ġdiver":5149,"Ġtente":5150,"Ġrevient":5151,"leur":5152,"Ġdig":5153,"Ġinstant":5154,"Ġsoumis":5155,"Ġhas":5156,"Ġpartenaire":5157,"ĠaccÃ©der":5158,"Toute":5159,"andis":5160,"Ġmalheureusement":5161,"ĠVille":5162,"Ġaccueillir":5163,"prendre":5164,"Ã©vÃ©":5165,"Ã©tranger":5166,"ause":5167,"Ġchron":5168,"ĠportÃ©e":5169,"Ġlux":5170,"ĠfinanciÃ¨re":5171,"Ġtar":5172,"Ġfichiers":5173,"Ġdo":5174,"Ġ2006":5175,"ĠlancÃ©":5176,"ĠintÃ©rieur":5177,"ensions":5178,"exploitation":5179,"Ġoeuvre":5180,"ĠorganisÃ©":5181,"Ġmonter":5182,"Ġtiens":5183,"Ġpluie":5184,"annonce":5185,"Ġsentir":5186,"Avant":5187,"gies":5188,"ĠfrÃ©qu":5189,"Ġventes":5190,"ĠprÃ©fÃ¨re":5191,"ĠSans":5192,"ĠAss":5193,"ĠfrÃ¨re":5194,"Ã®le":5195,"Ġdevra":5196,"ĠrÃ©cemment":5197,"Ġbouton":5198,"Ġprincipale":5199,"Ġappareil":5200,"ĠpossibilitÃ©s":5201,"Ġvenu":5202,"ĠAlle":5203,"Ġjournal":5204,"Ġsignifie":5205,"ouss":5206,"Ġrevanche":5207,"Ġ$":5208,"Ġesprit":5209,"ĠCet":5210,"Ġtelles":5211,"Ġsympath":5212,"ondu":5213,"ĠEnfin":5214,"isÃ©e":5215,"Ġatteint":5216,"Ad":5217,"intes":5218,"Ġresponsables":5219,"Ġmir":5220,"Ġbre":5221,"pit":5222,"Ġreten":5223,"Mal":5224,"Ġremplir":5225,"Ġfournisse":5226,"fiÃ©s":5227,"Ġtax":5228,"Ġcoups":5229,"Ġcontient":5230,"illon":5231,"ĠparlÃ©":5232,"ĠlaissÃ©":5233,"Lorsque":5234,"ĠÃ©cole":5235,"chÃ©e":5236,"Ã©lect":5237,"Ġapport":5238,"osph":5239,"Ġautomatiquement":5240,"uves":5241,"DF":5242,"ĠtÃ©lÃ©charger":5243,"urÃ©e":5244,"Ġeau":5245,"ĠLy":5246,"ĠCr":5247,"Ġhausse":5248,"grer":5249,"Ġamp":5250,"Ġvoudr":5251,"exposition":5252,"ĠÃ©lections":5253,"Ġpublication":5254,"ĠEN":5255,"utri":5256,"Ġparfaite":5257,"Ġimpres":5258,"prÃ©s":5259,"Ġsouli":5260,"elui":5261,"Ġsexe":5262,"oirs":5263,"Ġsources":5264,"anne":5265,"apprentissage":5266,"Ġancien":5267,"Ġsouci":5268,"ĠÃ©lÃ©ment":5269,"ario":5270,"inaire":5271,"Ġrepro":5272,"ouvrir":5273,"Ġconvivi":5274,"ĠÃ©quipements":5275,"Ġcivi":5276,"ĠRÃ©g":5277,"vÃ©es":5278,"ĠPuis":5279,"Ġconnexion":5280,"Ġattr":5281,"Ġenregistr":5282,"rets":5283,"ĠboÃ®te":5284,"Ġcommuniquer":5285,"gence":5286,"Ġdiscip":5287,"Ġtombe":5288,"SA":5289,"Ġfar":5290,"Ġprol":5291,"Ġproposition":5292,"Ġinspir":5293,"ĠimmÃ©diatement":5294,"ĠplanÃ¨te":5295,"alisÃ©e":5296,"21":5297,"erc":5298,"honneur":5299,"Ġdorm":5300,"Puis":5301,"umeur":5302,"Ġfondament":5303,"cou":5304,"ĠpÃ¢te":5305,"Ġvill":5306,"ĠextÃ©ri":5307,"Ġboulot":5308,"Ġrubrique":5309,"Ã©mie":5310,"Ġdure":5311,"ĠdifficultÃ©":5312,"etr":5313,"Ġlesquels":5314,"Con":5315,"Ġfre":5316,"Ġparole":5317,"Ġpromotion":5318,"ĠachetÃ©":5319,"rÃ©al":5320,"acte":5321,"Ġlogique":5322,"Ġdoux":5323,"absence":5324,"Ġdouche":5325,"Ã©cl":5326,"oriz":5327,"Ġpossibles":5328,"ĠchaÃ®ne":5329,"ettre":5330,"ĠentrÃ©e":5331,"Ġutilisant":5332,"Ġnormes":5333,"ompe":5334,"ĠspÃ©cifiques":5335,"ĠTour":5336,"Ġauront":5337,"usage":5338,"Ġ150":5339,"ĠscÃ©n":5340,"ĠMaison":5341,"ĠarrivÃ©e":5342,"Ġparking":5343,"ĠdÃ©claration":5344,"Ġalli":5345,"AD":5346,"ĠPrÃ©sident":5347,"Ġ196":5348,"entation":5349,"Ġmorts":5350,"Ġapporte":5351,"Ġaffaire":5352,"rine":5353,"Ġcuri":5354,"Ġcorre":5355,"Ġseuls":5356,"Ġintr":5357,"tivitÃ©s":5358,"Ġbanque":5359,"Ġapplications":5360,"Ġlende":5361,"ĠrÃ©servation":5362,"gements":5363,"Ġentend":5364,"Ġmontagne":5365,"Ġportant":5366,"allÃ©":5367,"Ġsecondes":5368,"Ġbiblioth":5369,"Ġgri":5370,"Cons":5371,"Car":5372,"oeu":5373,"Ġsuit":5374,"Ġphil":5375,"Ġinscrit":5376,"ĠnÃ©goci":5377,"obile":5378,"initi":5379,"Ġdiagnos":5380,"usqu":5381,"Ġmultiples":5382,"ĠtrÃ©s":5383,"ĠdÃ©chets":5384,"oui":5385,"ĠWi":5386,"lons":5387,"Ġpourrais":5388,"ĠessayÃ©":5389,"Toutes":5390,"Åĵil":5391,"ĠdÃ©cide":5392,"Ġimportants":5393,"fric":5394,"ĠclÃ©s":5395,"Ġtre":5396,"Ġhasard":5397,"Ġpubliques":5398,"ppe":5399,"Ã©lection":5400,"ditÃ©":5401,"ĠmÃ©tÃ©":5402,"Ġrestent":5403,"Â´":5404,"Ġpartis":5405,"attention":5406,"ĠrÃ©vÃ©":5407,"phone":5408,"ĠtÃ©lÃ©vision":5409,"Ġsom":5410,"Ġavions":5411,"Ġchaleure":5412,"exercice":5413,"ĠChine":5414,"tionnels":5415,"titution":5416,"Ã¨tes":5417,"Ġactuelle":5418,"esti":5419,"tation":5420,"OL":5421,"Ġparam":5422,"Ġjustement":5423,"acÃ©":5424,"lan":5425,"ĠrÃ©gions":5426,"ĠsiÃ¨ge":5427,"outil":5428,"Ġsel":5429,"ĠMad":5430,"aintes":5431,"ĠPeut":5432,"ĠÃ©cran":5433,"--":5434,"Ġprends":5435,"Ġmenu":5436,"Ġ#":5437,"Ġcircons":5438,"Ġsorti":5439,"utilisateur":5440,"utilise":5441,"App":5442,"Ġtrouvent":5443,"CH":5444,"ujet":5445,"osse":5446,"ĠTrÃ¨s":5447,"Ġlendemain":5448,"opÃ©r":5449,"Ġincont":5450,"Ġcontempor":5451,"Ġhom":5452,"irs":5453,"ĠparticuliÃ¨re":5454,"Ġdanger":5455,"inqui":5456,"oudre":5457,"Ġanciens":5458,"Ġexpliquer":5459,"ĠdÃ©tr":5460,"ĠBeau":5461,"Ġcre":5462,"augment":5463,"Ġalimentaire":5464,"Ġgrosse":5465,"Ġmaladies":5466,"dement":5467,"RÃ©":5468,"mÃªmes":5469,"denti":5470,"Ġmm":5471,"Ġclin":5472,"Ġlocale":5473,"ano":5474,"ĠChaque":5475,"Ã´ts":5476,"bergement":5477,"Ġmondial":5478,"EL":5479,"emple":5480,"Ġprofit":5481,"veurs":5482,"OUS":5483,"Ġmets":5484,"Ġbains":5485,"Se":5486,"Â».":5487,"Ġcapitale":5488,"Ġbloc":5489,"Ġfaveur":5490,"Ġscientifiques":5491,"ĠhÃ©":5492,"ĠrÃ©volution":5493,"ertise":5494,"Ġchou":5495,"Ġretourner":5496,"oquÃ©":5497,"Ġdiscours":5498,"tissement":5499,"ĠforÃªt":5500,"Ġvolume":5501,"Ġsuppos":5502,"cepti":5503,"Ma":5504,"Ġambiance":5505,"idÃ©":5506,"Ġvoitures":5507,"cite":5508,"Ġtourner":5509,"Ġfinale":5510,"Ġmig":5511,"abri":5512,"ana":5513,"Ġperspec":5514,"Ġdistribution":5515,"ĠdÃ©coration":5516,"ĠMich":5517,"dients":5518,"ĠmÃ©tiers":5519,"Ġnul":5520,"Ġamour":5521,"Ġinnov":5522,"Ġsoyez":5523,"Ġrevenu":5524,"lise":5525,"Ġpauvre":5526,"Ġcu":5527,"ĠoubliÃ©":5528,"ĠRoy":5529,"Ġsecret":5530,"ĠÃ©tablissement":5531,"actualitÃ©":5532,"Ġcircu":5533,"Ġlettres":5534,"ĠsupplÃ©mentaires":5535,"Ġimmobilier":5536,"Ġmass":5537,"Ġpierre":5538,"Ġtoit":5539,"fe":5540,"criptions":5541,"ĠbÃ©nÃ©v":5542,"ĠcaractÃ©ristiques":5543,"Ġaccompagn":5544,"osoph":5545,"reur":5546,"Acc":5547,"yr":5548,"ĠNew":5549,"diction":5550,"Ġinformatique":5551,"ĠproposÃ©s":5552,"Ġcomplexe":5553,"ĠMoi":5554,"effet":5555,"miques":5556,"Ã©lic":5557,"ĠarriÃ¨re":5558,"Ġnaturelle":5559,"Ġachet":5560,"ĠhÃ´te":5561,"Ġoptim":5562,"Ġsouvenirs":5563,"Ġefforts":5564,"ertes":5565,"ĠprÃ©vention":5566,"ĠdiffÃ©rent":5567,"Ġappareils":5568,"ouvoir":5569,"Ġserais":5570,"Ġ;)":5571,"Ġcadeaux":5572,"Ġcritique":5573,"ĠprÃ©t":5574,"ĠPrÃ©":5575,"Ġvoulait":5576,"Ġcouverture":5577,"ĠarrÃªt":5578,"aissent":5579,"ĠcoÃ»te":5580,"ciens":5581,"Ġmissions":5582,"aments":5583,"registre":5584,"AI":5585,"Ġinflu":5586,"Ġrevoir":5587,"Ġtarif":5588,"ĠBar":5589,"ĠthÃ©Ã¢tre":5590,"Ġcommercial":5591,"Ġfron":5592,"ĠdÃ©cisions":5593,"ĠcÃ©lÃ©":5594,"aujourd":5595,"Ġofficiel":5596,"Ġressenti":5597,"Ġcellu":5598,"entraÃ®":5599,"ribunal":5600,"aper":5601,"ĠkilomÃ¨tres":5602,"ĠIs":5603,"mon":5604,"ĠÃ©poque":5605,"Ġpertin":5606,".....":5607,"ĠcÃ©r":5608,"Ġatelier":5609,"Ġradio":5610,"Ġconfortable":5611,"Ġtraiter":5612,"ĠVotre":5613,"Ġvoudrais":5614,"rimÃ©":5615,"ĠcomitÃ©":5616,"licitÃ©":5617,"Ġsusp":5618,"Ġconven":5619,"Ġlocales":5620,"ĠconÃ§":5621,"rages":5622,"ĠprÃ©sentes":5623,"DI":5624,"Ġsmart":5625,"Ġcivil":5626,"Ġcirculation":5627,"ĠTerre":5628,"Ġlac":5629,"Ġdevraient":5630,"ettez":5631,"Ġboule":5632,"ĠmÃ©ri":5633,"Ġerreur":5634,"Ġaccueill":5635,"23":5636,"Ġextra":5637,"Ġroul":5638,"Ġfortement":5639,"Ġsoutenir":5640,"ographique":5641,"Ġmaintenir":5642,"Ġexperts":5643,"ĠâĨĴ":5644,"Ġcontente":5645,"assin":5646,"ta":5647,"affaire":5648,"ĠcomprÃ©h":5649,"intervention":5650,"ĠcÃ´tÃ©s":5651,"ĠinfÃ©ri":5652,"arrÃªt":5653,"Ã©tudes":5654,"Ġboute":5655,"intern":5656,"appe":5657,"90":5658,"Ġbruit":5659,"Ġ2005":5660,"Ġcliquant":5661,"ĠvÃ©cu":5662,"ĠamÃ©n":5663,"ĠsÃ©ances":5664,"Ġchauffage":5665,"Ġvisible":5666,"ĠenquÃªte":5667,"Ġhiver":5668,"ĠÃ©changes":5669,"Ġjeunesse":5670,"Ġcentres":5671,"vrez":5672,"Ġauteurs":5673,"Ġemail":5674,"Univers":5675,"Ġrembour":5676,"Afin":5677,"MÃªme":5678,"nez":5679,"Ġvivant":5680,"Ġlar":5681,"Ġconseille":5682,"Ġmodes":5683,"anchement":5684,"âĨ":5685,"Ġcoordonn":5686,"Ġgagn":5687,"Ġenjeux":5688,"olique":5689,"ĠCommun":5690,"comme":5691,"Ġmarchand":5692,"Ã©viter":5693,"fiant":5694,"ĠCH":5695,"ĠMonde":5696,"Ġcalend":5697,"Ġcourrier":5698,"ino":5699,"ĠinvitÃ©s":5700,"Ġfoi":5701,"ĠAut":5702,"ayant":5703,"Ġchant":5704,"ka":5705,"Ġouvrir":5706,"Ġbeur":5707,"Ġplong":5708,"Ġofficielle":5709,"ĠAt":5710,"ĠCo":5711,"ĠmatiÃ¨res":5712,"ĠsÃ»re":5713,"Ġinves":5714,"ĠcrÃ©e":5715,"Ap":5716,"Ġconserver":5717,"ĠexpÃ©riment":5718,"identitÃ©":5719,"ĠfÃ©dÃ©r":5720,"quÃ©rir":5721,"magne":5722,"Alle":5723,"acitÃ©s":5724,"Ġseraient":5725,"itations":5726,"Ġrent":5727,"Ġgour":5728,"avoue":5729,"AF":5730,"Ġviolence":5731,"Ġentendre":5732,"Ġcharme":5733,"Entre":5734,"Ġcommandes":5735,"Ġvisites":5736,"Ġconsommateurs":5737,"Ġremis":5738,"ĠcomposÃ©":5739,"Ġ75":5740,"Ġpain":5741,"ATION":5742,"ĠEntre":5743,"ina":5744,"euse":5745,"ĠmaÃ®trise":5746,"va":5747,"expression":5748,"unis":5749,"estation":5750,"Ġfasse":5751,"ĠexpÃ©riences":5752,"Ġtitres":5753,"ĠSuisse":5754,"OT":5755,"ĠenvoyÃ©":5756,"ĠprÃ©cÃ©dent":5757,"70":5758,"endroit":5759,"Ġmanip":5760,"Ġcheval":5761,"ĠgÃ©nÃ©ration":5762,"Ġexam":5763,"Ã©criture":5764,"Ġconduite":5765,"Ġprennent":5766,"ĠGu":5767,"Ġlesquelles":5768,"Ca":5769,"ueur":5770,"oubliez":5771,"Ġchacune":5772,"Ġ*":5773,"hier":5774,"rist":5775,"Ġplats":5776,"Ġjuridique":5777,"Ġamie":5778,"Ġ!)":5779,"Ġassi":5780,"Ġbarre":5781,"ĠÃ©tage":5782,"Ġrapports":5783,"ĠgÃ©ni":5784,"Ġannon":5785,"ĠliÃ©es":5786,"gation":5787,"Ġtranspar":5788,"Ġcandidat":5789,"ĠsupplÃ©mentaire":5790,"cune":5791,"Ã©valuation":5792,"asc":5793,"Ġtourisme":5794,"nÃ©es":5795,"Ġmasse":5796,"enser":5797,"Ġconfig":5798,"ĠconnaÃ®t":5799,"mage":5800,"AssemblÃ©e":5801,"Ġdessous":5802,"Ġbateau":5803,"Ġcamping":5804,"ancien":5805,"Ainsi":5806,"ĠrÃ©cupÃ©rer":5807,"ĠÃ©li":5808,"verse":5809,"Ġcout":5810,"ĠfenÃªtre":5811,"Ġentrer":5812,"UN":5813,"Ãĩa":5814,"tisme":5815,"ĠintÃ©rÃªts":5816,"ĠrÃ©ussir":5817,"Ġrentrer":5818,"Ã©riques":5819,"illÃ©":5820,"MENT":5821,"ĠTVA":5822,"Ġcarb":5823,"ĠSp":5824,"Ġgran":5825,"ĠutilisÃ©e":5826,"Ġpropositions":5827,"ĠmusÃ©e":5828,"Ġtoil":5829,"Ġdoigts":5830,"ĠemployÃ©s":5831,"atte":5832,"ĠNos":5833,"ĠcÃ©lÃ¨bre":5834,"arriÃ¨re":5835,"ĠmÃ©tal":5836,"da":5837,"Ġutiles":5838,"ĠprÃ©vue":5839,"ĠJeu":5840,"Ġexigences":5841,"Ġavais":5842,"Ġsecteurs":5843,"Ġart":5844,"Ġeaux":5845,"Ã©roport":5846,"anÃ§ois":5847,"ĠhÃ©s":5848,"Ġanalyse":5849,"Ġ36":5850,"option":5851,"Parce":5852,"Ġrappeler":5853,"ĠÃ©nergÃ©tique":5854,"Ġdonnent":5855,"Ġcharges":5856,"Ġrevi":5857,"Ġcapital":5858,"na":5859,"Ġhe":5860,"Ġdiffusion":5861,"35":5862,"ÌĢ":5863,"Ġbref":5864,"Ġlongueur":5865,"Ġcondu":5866,"Ġpersonnelle":5867,"agence":5868,"reuve":5869,"Ġdiscussion":5870,"quisition":5871,"ĠtÃ©l":5872,"Ġinfr":5873,"uclÃ©":5874,"ames":5875,"Qui":5876,"ĠÃ©norm":5877,"Ġenseig":5878,"ĠcapacitÃ©s":5879,"Ġopport":5880,"tte":5881,"Ġincroy":5882,"ĠMonsieur":5883,"Ġtransports":5884,"ationale":5885,"Ġprincipes":5886,"agÃ©s":5887,"Åĵuvre":5888,"Ġrang":5889,"Ġ48":5890,"ĠdÃ©penses":5891,"ĠÃ©mis":5892,"Ġproduire":5893,"Ġastu":5894,"Ġreb":5895,"Ġconver":5896,"ĠpensÃ©e":5897,"Ġsuffisamment":5898,"chez":5899,"Ġhttps":5900,"Ġquitter":5901,"Ã©re":5902,"ĠFond":5903,"Ġphilosoph":5904,"Ġcancer":5905,"Ġnoms":5906,"Ġcivile":5907,"Ġenvers":5908,"Ġsuscepti":5909,"ĠamÃ©ricaine":5910,"Ġfins":5911,"Ġdiscuter":5912,"ĠapprÃ©ciÃ©":5913,"Ġgarantir":5914,"Ġnourriture":5915,"ĠextrÃªmement":5916,"arre":5917,"Ġstatis":5918,"Ġcentrale":5919,"nis":5920,"if":5921,"ĠcoÃ»ts":5922,"enfants":5923,"Ġchanson":5924,"Ã©cution":5925,"ĠproblÃ©":5926,"effect":5927,"nelle":5928,"Ġfit":5929,"Ġpointe":5930,"ĠpropriÃ©taires":5931,"Ã©ter":5932,"outez":5933,"henti":5934,"ĠSelon":5935,"ĠFl":5936,"aw":5937,"Ġvise":5938,"Ġpotentiel":5939,"amÃ©liorer":5940,"Ġdat":5941,"ĠDr":5942,"llectu":5943,"Ġ400":5944,"Ġtrim":5945,"ĠmaÃ®tre":5946,"Ġbeurre":5947,"Ġtranquille":5948,"tionnelles":5949,"Ġfaux":5950,"Ġtirer":5951,"Ġpont":5952,"by":5953,"Ġparent":5954,"RÃ©s":5955,"ĠApp":5956,"Ġtandis":5957,"Ġdouleur":5958,"Ã©taient":5959,"Ġagents":5960,"ĠprÃ©alable":5961,"riculture":5962,"inscrire":5963,"Ġcentaines":5964,"ĠPierre":5965,"Ġgout":5966,"ĠjouÃ©":5967,"Ġscolaires":5968,"Ġperformances":5969,"icacitÃ©":5970,"Ġcoc":5971,"ĠsupÃ©rieure":5972,"Bref":5973,"Ġmigr":5974,"Ġvictime":5975,"Ġlogiciels":5976,"ĠclientÃ¨le":5977,"Ġpersonnels":5978,"Ġrobe":5979,"ĠpÃ©r":5980,"Ġcoul":5981,"Ġimportantes":5982,"anitÃ©":5983,"ĠMes":5984,"ĠchargÃ©":5985,"ĠChe":5986,"obser":5987,"Ġfigure":5988,"Ġcess":5989,"bas":5990,"Ġconsultation":5991,"Ã¨nement":5992,"Ġphrase":5993,"Ġfinanciers":5994,"Ġsouhaitent":5995,"ĠmÃ©dicaments":5996,"Ġmilitaire":5997,"Ġdossiers":5998,"Ġtab":5999,"Ġauxqu":6000,"Ġvar":6001,"Ġterri":6002,"ĠMontrÃ©al":6003,"Ġusage":6004,"2018":6005,"Ġconcurrence":6006,"Ġbu":6007,"Ġamoureux":6008,"Ġinterne":6009,"Ġproven":6010,"Ġmange":6011,"ulaires":6012,"Ġaccessoires":6013,"Ġcanadi":6014,"Ġchiens":6015,"Ġsouten":6016,"contre":6017,"Ġprogressi":6018,"Ġauto":6019,"ĠplaÃ®t":6020,"Ġillustr":6021,"Ġtrucs":6022,"Ġdanse":6023,"Ġhoraires":6024,"Ġprincipales":6025,"ami":6026,"Ġfrag":6027,"Ġpharm":6028,"onction":6029,"Ġmener":6030,"Pe":6031,"ĠParce":6032,"ĠlÃ¢":6033,"Ġcycle":6034,"ĠspÃ©cialiste":6035,"ĠCrÃ©":6036,"ĠlÃ¨":6037,"ĠdÃ©diÃ©":6038,"lub":6039,"Ġjet":6040,"grÃ©dients":6041,"Ġfinancier":6042,"istant":6043,"DÃ©couvrez":6044,"Ã©lectricitÃ©":6045,"Ġpollu":6046,"ĠgarÃ§on":6047,"Ġhyp":6048,"Ġlangues":6049,"ĠMer":6050,"aisser":6051,"Ġconfront":6052,"plus":6053,"isÃ©s":6054,"ĠrÃ©forme":6055,"ĠÃ©vid":6056,"Ġjur":6057,"chau":6058,"ĠdÃ©finition":6059,"Sinon":6060,"ĠSec":6061,"ĠMac":6062,"Ġquels":6063,"ambiance":6064,"chitecture":6065,"ĠÃ©cr":6066,"RI":6067,"Ġchercheurs":6068,"Ġaugmenter":6069,"Ġmou":6070,"Ġretrait":6071,"Ġrestauration":6072,"ĠRi":6073,"affi":6074,"Ġlimites":6075,"Ġpoly":6076,"DÃ©":6077,"gnÃ©e":6078,"ĠarrÃªtÃ©":6079,"Ġrefus":6080,"armÃ©e":6081,"Ġrenv":6082,"ĠrÃ©flÃ©chir":6083,"ĠÃ©quipÃ©e":6084,"Ġengagement":6085,"Ġtort":6086,"Ġprofesseur":6087,"Ġsavent":6088,"Ã©rÃ©e":6089,"Ġrenforcer":6090,"Ġdistribu":6091,"Ġexcellente":6092,"ows":6093,"Ġoppos":6094,"ĠCap":6095,"âĢĿ,":6096,"Ġcesse":6097,"Ġmurs":6098,"ĠJapon":6099,"ĠMai":6100,"Ġrecommande":6101,"Ġball":6102,"witter":6103,"Ġcontenus":6104,"ĠthÃ©rap":6105,"Ġparticipe":6106,"formes":6107,"Ġspir":6108,"Ġrose":6109,"obili":6110,"ĠhÃ¢te":6111,"ĠmÃ©d":6112,"Ġsimil":6113,"Ġorganisations":6114,"Ġsit":6115,"apprÃ©ci":6116,"Ġtests":6117,"33":6118,"Ġtoucher":6119,"Ġcuisson":6120,"ĠcompÃ©tition":6121,"Ġnez":6122,"Ġrepar":6123,"ĠfraÃ®":6124,"ĠNouv":6125,"Ġital":6126,"Ġpopulaire":6127,"extr":6128,"Ġdeven":6129,"ĠcompliquÃ©":6130,"rime":6131,"ĠDU":6132,"truction":6133,"Ġhos":6134,"dom":6135,"Ġdisent":6136,"Ġbancaire":6137,"Ġclassement":6138,"Ġchir":6139,"ĠbrÃ»":6140,"Ġprofite":6141,"ĠmÃ©rite":6142,"oxy":6143,"Ġfeuilles":6144,"Ġjudici":6145,"PE":6146,"ĠlÃ©gÃ¨rement":6147,"tice":6148,"ĠcommuniquÃ©":6149,"Ġformule":6150,"excell":6151,"Ġmodification":6152,"Ġallemand":6153,"ĠrÃ©server":6154,"Ġmairie":6155,"ĠÃ©lus":6156,"mise":6157,"aises":6158,"ĠprÃ©fÃ©rÃ©":6159,"ĠCli":6160,"Ġvirtu":6161,"Ġcontrats":6162,"Ãªtres":6163,"Ġsommeil":6164,"Ġappelle":6165,"ĠdÃ©finir":6166,"aude":6167,"oncÃ©":6168,"Ġoptimis":6169,"Ġobtenu":6170,"oser":6171,"demn":6172,"Ġbag":6173,"ĠallÃ©":6174,"Ġmanquer":6175,"etrouvez":6176,"Ġvaste":6177,"Ġfleur":6178,"ĠprÃªts":6179,"ĠAc":6180,"ĠrÃ©di":6181,"Ġrandonn":6182,"Ġpostes":6183,"Ġimporte":6184,"lure":6185,"ĠadaptÃ©e":6186,"appareil":6187,"existence":6188,"ĠrÃ©pondu":6189,"innovation":6190,"ĠÃ©toiles":6191,"Aut":6192,"ĠnÃ©cessitÃ©":6193,"ket":6194,"Ġjapon":6195,"Ġclimat":6196,"Ġvictoire":6197,"Ġserveur":6198,"ĠÃ©vident":6199,"Ġactuel":6200,"ara":6201,"Ġang":6202,"aurait":6203,"Ġinterpr":6204,"Ġbases":6205,"veiller":6206,"Ġsciences":6207,"alimentation":6208,"Ġtransp":6209,"investissement":6210,"Ġuns":6211,"cha":6212,"err":6213,"tifi":6214,"Ġsavais":6215,"oto":6216,"ĠBen":6217,"Ġstu":6218,"ĠeffectuÃ©":6219,"ood":6220,"VE":6221,"ĠprÃ©venir":6222,"ĠdÃ©tente":6223,"ĠtÃ©lÃ©charge":6224,"Ġenseignants":6225,"Ġsouhaiter":6226,"ĠjournÃ©es":6227,"urement":6228,"nant":6229,"SI":6230,"Ġfavoriser":6231,"Ġaventure":6232,"ĠlÃ©gÃ¨re":6233,"Ġcerveau":6234,"ĠphÃ©nomÃ¨ne":6235,"avail":6236,"ĠterminÃ©":6237,"Ġlancement":6238,"Ġfrom":6239,"Ġbill":6240,"Ġsept":6241,"ĠlÃ©ger":6242,"Ġressemble":6243,"Ġviande":6244,"entement":6245,"ĠrÃ©alisÃ©e":6246,"Ġcook":6247,"utÃ©s":6248,"Ġaccident":6249,"ĠÃ©duc":6250,"ĠcÃ¢":6251,"cessite":6252,"arch":6253,"Ġaliments":6254,"Ġ2004":6255,"Ġquelles":6256,"ĠmÃ©r":6257,"acle":6258,"ĠDES":6259,"Ġfournit":6260,"ĠajoutÃ©":6261,"Ġmagaz":6262,"ĠappelÃ©":6263,"Ġski":6264,"annÃ©es":6265,"ĠnuclÃ©":6266,"Ġlutter":6267,"Ġfaibles":6268,"adapter":6269,"Ġentretien":6270,"26":6271,"ith":6272,"ca":6273,"Ġlogements":6274,"ĠpassÃ©e":6275,"Ġlecteurs":6276,"activitÃ©s":6277,"vait":6278,"engage":6279,"oujours":6280,"ĠtÃ¢ches":6281,"ĠdÃ©lic":6282,"Ġallant":6283,"Ġserai":6284,"ĠthÃ©m":6285,"Ġcalendrier":6286,"Ġaccro":6287,"gÃ©n":6288,"Ġtir":6289,"Ġrejet":6290,"Deux":6291,"Ġtravailleurs":6292,"Ã©rance":6293,"Ġquin":6294,"ĠBonne":6295,"ĠmÃ©decins":6296,"ercices":6297,"erte":6298,".,":6299,"Ġblanche":6300,"Di":6301,"Ġoptions":6302,"Ġrestaurants":6303,"Ġlongues":6304,"ed":6305,"ĠÃ®":6306,"ira":6307,"Ġexpli":6308,"Ġconduire":6309,"Ġdates":6310,"lera":6311,"ĠLyon":6312,"ĠdÃ©terminer":6313,"obli":6314,"anches":6315,"Ġactes":6316,"Ġpoursuivre":6317,"enregistre":6318,"ĠsÃ»rement":6319,"ĠsecrÃ©t":6320,"ocat":6321,"Ġ194":6322,"Ġdites":6323,"Ġtabl":6324,"Ġcoucher":6325,"Ġdemeure":6326,"75":6327,"Ã©rÃ©s":6328,"Ġconstituer":6329,"Ġlaissez":6330,"Ġparfum":6331,"Ġchances":6332,"lever":6333,"efficacitÃ©":6334,"ĠconÃ§u":6335,"merci":6336,"ĠÃ©clair":6337,"Ġoriginal":6338,"Association":6339,"ĠgÃª":6340,"ĠPays":6341,"Ġru":6342,"Ġnotes":6343,"ĠrÃ©sistance":6344,"Ġpensais":6345,"ĠCode":6346,"ĠbÃ¢timents":6347,"Ġchaussures":6348,"ublic":6349,"ott":6350,"Ġpistes":6351,"Ġmodu":6352,"Ġordre":6353,"Ġmachines":6354,".Â»":6355,"Ġmaqu":6356,"diques":6357,"Ġexploit":6358,"ET":6359,"Ġcandidature":6360,"GrÃ¢ce":6361,"oriques":6362,"ĠMi":6363,"ĠcollectivitÃ©s":6364,"ouis":6365,"ĠcollÃ¨gues":6366,"ĠqualitÃ©s":6367,"Ġimmobili":6368,"UniversitÃ©":6369,"Ġtalent":6370,"estes":6371,"Ġvisant":6372,"Ġhistoires":6373,"ĠcitÃ©":6374,"Ġmouvements":6375,"Ã©change":6376,"Ġindique":6377,"ĠrÃ©gler":6378,"Ġremplacer":6379,"Ġcorrectement":6380,"ĠespÃ¨ces":6381,"Ġsensibil":6382,"oile":6383,"ĠrÃ©soudre":6384,"Ġprod":6385,"ĠMo":6386,"Ġposter":6387,"Ġrequ":6388,"ĠnÃ©cessite":6389,"Ġanimal":6390,"Ġintellectu":6391,"Son":6392,"euble":6393,"apprendre":6394,"Ġmeur":6395,"Ġ32":6396,"Ġsommet":6397,"dits":6398,"Esp":6399,"Ġengage":6400,"existe":6401,"ĠcatÃ©gories":6402,"assure":6403,"otes":6404,"Ġcombin":6405,"Ġrelatives":6406,"joint":6407,"Ġheureuse":6408,"ĠpublicitÃ©":6409,"Ġconstruit":6410,"ĠparticipÃ©":6411,"isez":6412,"ĠAb":6413,"Peut":6414,"Ġboire":6415,"Ġcath":6416,"ĠextÃ©rieur":6417,"aurai":6418,"Ġconstater":6419,"ĠprÃªte":6420,"Ã©tant":6421,"Ġ???":6422,"Ġendroits":6423,"iennes":6424,"Ġvoyages":6425,"99":6426,"01":6427,"ĠmodalitÃ©s":6428,"Ġsynth":6429,"ĠrÃ©mun":6430,"Ġpotenti":6431,"Ġdirigeants":6432,"amedi":6433,"Ġcabinet":6434,"aye":6435,"Ġsilence":6436,"Ġessentiel":6437,"Ġhumaines":6438,"Ġfourni":6439,"agrÃ©":6440,"alcool":6441,"Ġprison":6442,"Ġmassi":6443,"Ġagence":6444,"Ġtut":6445,"Ġinstallations":6446,"Ġlecteur":6447,"ĠSes":6448,"pel":6449,"amÃ©nagement":6450,"trop":6451,"Ġrond":6452,"Ġscience":6453,"Ġcollaborateurs":6454,"Ġinu":6455,"Ġvoud":6456,"ĠpÃ©tr":6457,"Ġaudi":6458,"ritan":6459,"Ġrevue":6460,"Ġcompli":6461,"Ġfamiliale":6462,"ĠdÃ©roul":6463,"lÃ©s":6464,"ĠthÃ¨mes":6465,"ĠdiversitÃ©":6466,"ĠBelgique":6467,"ĠprÃ©sid":6468,"apper":6469,"ĠcotÃ©":6470,"ĠrÃ©comp":6471,"enquÃªte":6472,"Ġore":6473,"Ġvenez":6474,"Ġartistique":6475,"adis":6476,"Quelle":6477,"ctur":6478,"Ġchem":6479,"issait":6480,"ologue":6481,"hu":6482,"Ġpiste":6483,"Ġrecueil":6484,"ĠÃ©nergie":6485,"uster":6486,"mosph":6487,"Ġ!!!!":6488,"Ġconfirmation":6489,"Ġchinois":6490,"Ġplastique":6491,"ĠSE":6492,"aventure":6493,"Off":6494,"Ġlumine":6495,"Ġdonnant":6496,"ĠlimitÃ©":6497,"ĠGrande":6498,"Ġroy":6499,"allÃ¨":6500,"atta":6501,"ost":6502,"ĠproposÃ©es":6503,"ĠSeu":6504,"impact":6505,"Ġinterrog":6506,"cte":6507,"Ġmettent":6508,"yp":6509,"Ġinclus":6510,"ĠdÃ©place":6511,"Ġreconnu":6512,"ĠdonnÃ©e":6513,",...":6514,"Ġstructures":6515,"ĠfrÃ©quent":6516,"orth":6517,"Ġdouceur":6518,"Ġsold":6519,"ĠrÃ©col":6520,"ĠchÃ¢teau":6521,"Ġ195":6522,"Ġesc":6523,"Ġcommerciale":6524,"Ġchaude":6525,"orge":6526,"astru":6527,"Ġdiagnostic":6528,"agon":6529,"alisÃ©s":6530,"ĠGrÃ¢ce":6531,"Ġraisonn":6532,"Ġenregistre":6533,"ctor":6534,"ĠCertains":6535,"Ġclasses":6536,"km":6537,"Ġreconnaissance":6538,"espoir":6539,"Ġcourri":6540,"Ġaper":6541,"Ġoffert":6542,"ĠrÃ©elle":6543,"Ġreport":6544,"âĢī":6545,"ĠrÃªves":6546,"ĠadaptÃ©s":6547,"Ġoption":6548,"ĠPort":6549,"gar":6550,"Ġbiais":6551,"ĠrÃ©novation":6552,"Ġorganiser":6553,"ĠdÃ©liv":6554,"ĠdÃ©placer":6555,"arrÃªter":6556,"ii":6557,"ĠÃ©norme":6558,"mat":6559,"ĠspÃ©cialement":6560,"Ġpatron":6561,"Ġoccu":6562,"attente":6563,"Ġnettoyage":6564,"Sal":6565,"Ġserr":6566,"ib":6567,"Ġnaturels":6568,"Is":6569,"envoyer":6570,"Conc":6571,"Ġproposent":6572,"ĠentiÃ¨re":6573,"sie":6574,"offrir":6575,"Ġgrossesse":6576,"Ġaccueille":6577,"Ġvenue":6578,"Ġtroubles":6579,"olÃ©e":6580,"animation":6581,"Ġveuillez":6582,"Ġimpressionn":6583,"Ġapplic":6584,"Ġben":6585,"ĠmobilitÃ©":6586,"Ġsurf":6587,"Ġdialogue":6588,"ĠrencontrÃ©":6589,"PrÃ©":6590,"Ġprestation":6591,"dus":6592,"Ġsauve":6593,"ĠrÃ©duit":6594,"Ġfermet":6595,"Ġinfos":6596,"ung":6597,"Ġalimentaires":6598,"sc":6599,"Ġsympt":6600,"28":6601,"ĠspÃ©cial":6602,"Ġarmes":6603,"Ġpouvoirs":6604,"non":6605,"ĠPC":6606,"Ġexposition":6607,"ope":6608,"ĠÃ©trangers":6609,"Ġrembours":6610,"ĠmÃ©dical":6611,"Ġincontourn":6612,"igneur":6613,"Ġacquis":6614,"ĠEsp":6615,"ĠDis":6616,"telligence":6617,"Ġcommen":6618,"Ġlabor":6619,"toi":6620,"hÃ©sion":6621,"Ġfixe":6622,"Ġhydr":6623,"vies":6624,"RA":6625,"Ġorganismes":6626,"Ġfacteurs":6627,"atisation":6628,"naires":6629,"onstr":6630,"ĠÃ©lab":6631,"Ã©quilibre":6632,"Ġrues":6633,"Ġactive":6634,"Ġentrepren":6635,"ĠdÃ©cÃ¨s":6636,"ĠAcc":6637,"Ġconcentr":6638,"arme":6639,"ativitÃ©":6640,"installer":6641,"Ġram":6642,"Ġ06":6643,"ĠdÃ©couvre":6644,"Ġrares":6645,"Ġmotivation":6646,"ĠThe":6647,"ĠprogrÃ¨s":6648,"inion":6649,"Ġappropri":6650,"Ġsurveillance":6651,"chons":6652,"ĠdÃ©cret":6653,"ĠDÃ©c":6654,"ĠdÃ©te":6655,"ĠcoordonnÃ©es":6656,"ky":6657,"cm":6658,"Ġnutri":6659,"Ġdevons":6660,"Ãªtement":6661,"27":6662,"ĠprÃ©ciser":6663,"Ġsignal":6664,"OP":6665,"Ġdormir":6666,"ouvre":6667,"oeil":6668,"Ġamateurs":6669,"Ġcertes":6670,"ĠaÃ©ri":6671,"oint":6672,"mont":6673,"Ġcirconst":6674,"stÃ©":6675,"Ġaspects":6676,"vet":6677,"ĠLu":6678,"Pendant":6679,"aissez":6680,"Ġsable":6681,"gnÃ©":6682,"Ġargu":6683,"Ġstade":6684,"ĠingrÃ©dients":6685,"Ã©velop":6686,"Afrique":6687,"Ġsitue":6688,"ĠinstallÃ©":6689,"Ġappli":6690,"ĠportÃ©":6691,"Ġtissu":6692,"crits":6693,"Ġauquel":6694,"Ġprofessionnelles":6695,"Ġinscrire":6696,"Ġreprise":6697,"ity":6698,"ĠÃ©normÃ©ment":6699,"envie":6700,"Ã©curitÃ©":6701,"Ġbiz":6702,"Ġdents":6703,"we":6704,"oriser":6705,"Ġpleinement":6706,"ĠprivilÃ©gi":6707,"oral":6708,"Ġsatisfaction":6709,"Ġbanques":6710,"Ġjaune":6711,"%.":6712,"âĢĿ.":6713,"ĠNic":6714,"ĠPourtant":6715,"ĠchrÃ©":6716,"ĠÃ©change":6717,"ercer":6718,"Ġmandat":6719,"Ġavance":6720,"piration":6721,"ĠdÃ©marches":6722,"cides":6723,"Ġcasser":6724,"itons":6725,"Ġmontage":6726,"tiennent":6727,"Ġmorceaux":6728,"tiÃ¨res":6729,"anmoins":6730,"ĠidÃ©ale":6731,"Ġterritori":6732,"ĠsolidaritÃ©":6733,"Ġfront":6734,"Ġgare":6735,"olue":6736,"Ġsorties":6737,"QUE":6738,"Ġ33":6739,"rich":6740,"amÃ©lioration":6741,"inv":6742,"ĠrÃ©paration":6743,"ĠcÃ©rÃ©m":6744,"tÃ©s":6745,"ĠService":6746,"Ġence":6747,"hor":6748,"CrÃ©":6749,"Ġauraient":6750,"Ġchamps":6751,"ĠSite":6752,"ĠlycÃ©e":6753,"Ġremboursement":6754,"Ġdangereux":6755,"Ġprochaines":6756,"Ġautrement":6757,"Ġprenant":6758,"Ġraconte":6759,"tront":6760,"Ġmagasins":6761,"Ġtourne":6762,"Ã©sus":6763,"Ġestim":6764,"ĠcomprÃ©hension":6765,"Ġstim":6766,"Ġcot":6767,"Ġchapitre":6768,"ĠconsÃ©quence":6769,"Ġminute":6770,"ĠComp":6771,"Ġdifficiles":6772,"Ġlimiter":6773,"Ġdisque":6774,"ĠNi":6775,"Ġplait":6776,"ĠBou":6777,"ĠBan":6778,"Ġafric":6779,"ĠirrÃ©":6780,"Ġestime":6781,"Ġmusul":6782,"ĠComitÃ©":6783,"ciers":6784,"ĠÃ©coute":6785,"ĠBer":6786,"Ġprenez":6787,"Ġmille":6788,"ĠnÃ©anmoins":6789,"alais":6790,"Ġpositif":6791,"Ã¨ce":6792,"Ġconvention":6793,"Ġargent":6794,"visi":6795,"vices":6796,"ĠfranÃ§aises":6797,"Ġtransfert":6798,"Ġamen":6799,"'s":6800,"tilitÃ©":6801,"ĠeuropÃ©ens":6802,"ĠcrÃ©ations":6803,"Ġbulle":6804,"Ġcourte":6805,"Ã©ra":6806,"Ġdiam":6807,"ĠrÃ©action":6808,"Ġouvrage":6809,"Ġsinc":6810,"ĠprioritÃ©":6811,"ĠprÃ©cision":6812,"Ġhein":6813,"ordinaire":6814,"bit":6815,"Ã´mage":6816,"ĠbibliothÃ¨que":6817,"orce":6818,"Ġtransformation":6819,"Ġgars":6820,"ĠprÃ©occup":6821,"Ġcool":6822,"IM":6823,"ĠÃ©motions":6824,"Ġquotidienne":6825,"Ġchute":6826,"attends":6827,"ĠhÃ´":6828,"ĠFranc":6829,"Ġfier":6830,"Ġsatisfait":6831,"Ġintervention":6832,"her":6833,"Ġcliquer":6834,"Ġfans":6835,"accompagnement":6836,"citÃ©":6837,"Ġerreurs":6838,"Ġbillets":6839,"Ġportable":6840,"ĠrÃ©fÃ©r":6841,"ĠSociÃ©tÃ©":6842,"Ġcorri":6843,"ĠRou":6844,"Ġoriginale":6845,"ĠconsÃ©quent":6846,"ĠPer":6847,"Ġcouper":6848,"Ġdizaine":6849,"Ġois":6850,"ĠspÃ©cialisÃ©e":6851,"aliers":6852,"inge":6853,"Ġrelativement":6854,"ĠdÃ©fendre":6855,"Ġplaf":6856,"Ġpause":6857,"oila":6858,"oid":6859,"ouest":6860,"ĠspÃ©cialistes":6861,"tite":6862,"Ġcoff":6863,"ĠMarie":6864,"Ã©crire":6865,"ĠparaÃ®t":6866,"Ġtradu":6867,"Ġprolong":6868,"ĠdestinÃ©":6869,"ĠrÃ©daction":6870,"view":6871,"automne":6872,"occuper":6873,"Ġaccessibles":6874,"Ġpuissent":6875,"Ġcuire":6876,"Ġcertific":6877,"Ġdent":6878,"Ġkg":6879,"29":6880,"Ġentour":6881,"Ġinstaller":6882,"Ġloup":6883,"Ġloisirs":6884,"migr":6885,"Ġparvenir":6886,"Ġcourses":6887,"Ġpen":6888,"ker":6889,"ensitÃ©":6890,"ĠÃ©tonn":6891,"Ġcookies":6892,"Ġbatterie":6893,"Ġenne":6894,"Ġign":6895,"Faire":6896,"Ġluxe":6897,"ko":6898,"ĠcomplÃ©ter":6899,"uide":6900,"Ġof":6901,"Ġarbres":6902,"autaire":6903,"Ġaffich":6904,"ĠmÃ©decine":6905,"oly":6906,"ĠÃ©couter":6907,"ĠEuropÃ©":6908,"Ġinterdit":6909,"ĠDeux":6910,"Ġbatt":6911,"ĠAp":6912,"conque":6913,"Situ":6914,"Ġsupprimer":6915,"Ġsalaire":6916,"habit":6917,"ĠprÃ©nom":6918,"Ã©vÃ©nement":6919,"Attention":6920,"agnol":6921,"Ġfur":6922,"Ġpaysage":6923,"oniques":6924,"cole":6925,"Ġsession":6926,"Ġgraphique":6927,"ĠÃ©lectriques":6928,"Ġculturel":6929,"Ã©taire":6930,"visions":6931,"ammes":6932,"ottes":6933,"ĠBe":6934,"Ġmettant":6935,"Ġexemples":6936,"ĠconsidÃ©rÃ©":6937,"Ġhyper":6938,"Ġpoursuit":6939,"entreprises":6940,"ĠcollÃ¨ge":6941,"agi":6942,"Ġadolesc":6943,"OI":6944,"ĠPetit":6945,"Ġsubst":6946,"glise":6947,"Ġfus":6948,"ĠreprÃ©sentant":6949,"ĠÃ©tabli":6950,"orÃ©e":6951,"ĠSantÃ©":6952,"ANT":6953,"Sans":6954,"Ġavantage":6955,"oigne":6956,"Ã©th":6957,"ĠplacÃ©":6958,"tÃ©e":6959,"Ġhuit":6960,"ĠdÃ©veloppÃ©":6961,"Ġassurance":6962,"UI":6963,"Ġcontribuer":6964,"Ġlouer":6965,"âĢ¦âĢ¦":6966,"Ġimpact":6967,"oter":6968,"Ġesti":6969,"Ġforfait":6970,"ĠGen":6971,"aluer":6972,"oft":6973,"Ġrelatif":6974,"ĠutilisÃ©es":6975,"ernitÃ©":6976,"ĠdiffÃ©rente":6977,"Ġnews":6978,"Ġretirer":6979,"Ġacte":6980,"union":6981,"ĠrÃ©clam":6982,"Ġvins":6983,"uter":6984,"ĠâĢĺ":6985,"ĠÃ©lÃ©g":6986,"apport":6987,"allÃ©e":6988,"abe":6989,"ĠreprÃ©sentants":6990,"uisent":6991,"ĠprocÃ©der":6992,"Ġchantier":6993,"oureuse":6994,"olie":6995,"Ġsemblent":6996,"Ġcache":6997,"ĠLES":6998,"Ġinconn":6999,"hyp":7000,"Ġpel":7001,"lesse":7002,"ĠÃ©volution":7003,"ĠprÃ©sidenti":7004,"ĠRien":7005,"ĠFranÃ§ois":7006,"Ġemm":7007,"hÃ©tique":7008,"Ġsensible":7009,"Ġannuel":7010,"cevoir":7011,"Ġinstallation":7012,"chives":7013,"Ġsignature":7014,"Ġcontactez":7015,"duits":7016,"can":7017,"Ġsauver":7018,"Ġplomb":7019,"Ġrivi":7020,"Ġconnaitre":7021,"ĠcoopÃ©ration":7022,"chet":7023,"ĠorganisÃ©e":7024,"Ġ34":7025,"Ġcuir":7026,"ĠmÃ©tÃ©o":7027,"intÃ©gration":7028,"Ġremercier":7029,"aÃ©roport":7030,"Ġtrafic":7031,"ĠtÃ¢che":7032,"ester":7033,"Ġbrut":7034,"Ġglobale":7035,"Ġcollective":7036,"ĠdÃ©voil":7037,"Ġmaterne":7038,"Ġmodifications":7039,"ĠtravaillÃ©":7040,"Ġmarcher":7041,"Ġachat":7042,"Ġconduit":7043,"ĠaccompagnÃ©":7044,"ĠchÃ´mage":7045,"Ġterminer":7046,"France":7047,"Ġ55":7048,"ĠlÃ¨vres":7049,"Ġinstitutions":7050,"Ġmaintenance":7051,"Ġjeter":7052,"Ġconvers":7053,"Ġdevenue":7054,"Ġmanifestation":7055,"Ã©tudi":7056,"Ġpareil":7057,"ĠfonctionnalitÃ©s":7058,"ĠlibÃ©r":7059,"ĠAs":7060,"ertaines":7061,"ĠprÃ©cisÃ©ment":7062,"Ġformer":7063,"ouÃ©":7064,"dite":7065,"ias":7066,"Ob":7067,"ĠsalariÃ©":7068,"enter":7069,"Ġarm":7070,"Ġaccepter":7071,"ĠToutes":7072,"iness":7073,"bien":7074,"Ġperf":7075,"ĠfraÃ®che":7076,"Ġtransmettre":7077,"Ġexter":7078,"Maintenant":7079,"Ġlangage":7080,"Ġrecrutement":7081,"Ġpommes":7082,"Oh":7083,"Ġpur":7084,"Ġgras":7085,"Ġprofondeur":7086,"nex":7087,"Ġvivent":7088,"Ġlol":7089,"Ġspiritu":7090,"Ġcotis":7091,"lot":7092,"Comm":7093,"Ġdiminu":7094,"ĠdrÃ´le":7095,"ĠarrÃªter":7096,"ĠÅĵuvres":7097,"ĠdÃ®":7098,"Ġtriste":7099,"Ġplacer":7100,"Ġ01":7101,"olf":7102,"cession":7103,"Ġboite":7104,"ST":7105,"rance":7106,"ĠsignÃ©":7107,"ĠexpliquÃ©":7108,"Ġchefs":7109,"ĠÃ©m":7110,"Ġ1000":7111,"Ġplani":7112,"agriculture":7113,"quide":7114,"Ġmagie":7115,"Ã©dÃ©ration":7116,"Ġextrait":7117,"intÃ©resse":7118,"ĠdÃ©placement":7119,"arrÃªte":7120,"Ren":7121,"Fi":7122,"Ġoffrant":7123,"Ġraconter":7124,"adÃ©":7125,"Ġfabric":7126,"ĠÃ©pisode":7127,"Ġtraitements":7128,"Ġ38":7129,"ĠrÃ©alise":7130,"ctes":7131,"tension":7132,"Ġpoisson":7133,"Ġappro":7134,"Ġglace":7135,"Ã©rons":7136,"Ġmagique":7137,"Ġpaysages":7138,"Ġconnaissent":7139,"ĠpersonnalitÃ©":7140,"Ã©glise":7141,"aa":7142,"ĠrÃ©alisÃ©s":7143,"Ġax":7144,"Â·":7145,"Ġsympathique":7146,"Ġfacture":7147,"ctifs":7148,"ĠposÃ©":7149,"Ġtrimestre":7150,"igu":7151,"Ġmec":7152,"Ġsatisfaire":7153,"ommages":7154,"Ġtrajet":7155,"Ġemprun":7156,"Ãªle":7157,"olle":7158,"Ġmanifestations":7159,"Ġphysiques":7160,"Ã¨ques":7161,"ĠdÃ©mocratie":7162,"Ġachats":7163,"Ã©lab":7164,"Cependant":7165,"go":7166,"Ġouvre":7167,"cieuse":7168,"Ġdisait":7169,"Ġcardi":7170,"ĠCE":7171,"ĠgagnÃ©":7172,"ĠrÃ©solution":7173,"Ġ65":7174,"ĠToutefois":7175,"Ġconfidenti":7176,"Ġpromen":7177,"ĠMag":7178,"ĠAh":7179,"Ġmath":7180,"ussie":7181,"ĠsystÃ©":7182,"cide":7183,"ĠhÃ´tels":7184,"Ġdisant":7185,"quette":7186,"mil":7187,"Ġtyp":7188,"ĠAU":7189,"Ġsond":7190,"Ġconnaissez":7191,"ĠdÃ©cider":7192,"engagement":7193,"Ġsimpli":7194,"utation":7195,"astroph":7196,"Ġtoile":7197,"Ġencour":7198,"iditÃ©":7199,"ĠParti":7200,"ĠdÃ©si":7201,"orp":7202,"Pl":7203,"Ġancienne":7204,"ĠbÃ©nÃ©voles":7205,"Ġcur":7206,"Ġtaxe":7207,"Ġvacc":7208,"Ġenvies":7209,"impÃ´t":7210,"Ġsoupe":7211,"Ġdizaines":7212,"Ġfalloir":7213,"Ġpromouvoir":7214,"ĠliÃ©":7215,"Ġtuer":7216,"ĠÃ©ti":7217,"euillez":7218,"angement":7219,"uie":7220,"auto":7221,"ĠmarquÃ©":7222,"ĠdÃ©tour":7223,"Ġorganise":7224,"Ġlicence":7225,"employ":7226,"Ġgris":7227,"Ġlever":7228,"Ġcommerces":7229,"Ġtribunal":7230,"ĠadÃ©qu":7231,"ĠindÃ©pendant":7232,"ĠgÃ©nÃ©rales":7233,"rob":7234,"Ensuite":7235,"Ġaugmentation":7236,"DÃ¨s":7237,"Ġactif":7238,"Ġ250":7239,"Ġtradition":7240,"retagne":7241,"Ġcomposition":7242,"Ġcircuit":7243,"feu":7244,"ĠEl":7245,"don":7246,"AIS":7247,"indows":7248,"ĠCelui":7249,"ĠreconnaÃ®tre":7250,"ĠAv":7251,"ĠretrouvÃ©":7252,"Ġobligations":7253,"Ġpassent":7254,"raine":7255,"trer":7256,"Ġnaturellement":7257,"Ġassis":7258,"Ġnotion":7259,"ĠJÃ©sus":7260,"Ġefficaces":7261,"Ġplant":7262,"ĠadhÃ©r":7263,"atelier":7264,"fes":7265,"Ġmang":7266,"Encore":7267,"ĠLig":7268,"ĠLorsque":7269,"essayer":7270,"ĠdÃ©clen":7271,"Ġremet":7272,"approche":7273,"ĠÃ©conomies":7274,"Ġmajeur":7275,"uxelles":7276,"ĠYork":7277,"ĠGar":7278,"Ġrarement":7279,"ĠGroupe":7280,"Ġvain":7281,"Ġcoach":7282,"Ġvieille":7283,"Ġfootball":7284,"Ġmeme":7285,"uyer":7286,"istres":7287,"ĠprocÃ¨s":7288,"Ġventre":7289,"Ġench":7290,"DÃ©s":7291,"Ġauteur":7292,"Ġsignes":7293,"exemple":7294,"apÃ©":7295,"hÃ´pital":7296,"MS":7297,"Ġcopie":7298,"las":7299,"ĠspÃ©cialisÃ©":7300,"Art":7301,"ĠrÃ©servÃ©":7302,"orable":7303,"Ġastuces":7304,"guÃ©":7305,"Ġpouvais":7306,"ĠdÃ©gr":7307,"ĠQuelle":7308,"dition":7309,"Ġnuits":7310,"ĠlÃ©giti":7311,"ĠdÃ©fis":7312,"Ġconflit":7313,"Ġannonces":7314,"Ã¨ges":7315,"Ġtempor":7316,"ulÃ©e":7317,"assembl":7318,"ĠPL":7319,"Ġexige":7320,"Ġnoire":7321,"Ġremarque":7322,"Ġpoudre":7323,"ablir":7324,"ĠPremier":7325,"ater":7326,"ml":7327,"Ġbureaux":7328,"Ġsouviens":7329,"Ġsensation":7330,"Ġvoyez":7331,"Ġsemblait":7332,"aies":7333,"Ã©mission":7334,"Ġmonu":7335,"Ġgagne":7336,"uile":7337,"mir":7338,"Ġinscription":7339,"Cliquez":7340,"Ġcouche":7341,"ĠpropriÃ©tÃ©s":7342,"ĠTrans":7343,"onnÃ©s":7344,"ĠcÃ´te":7345,"âĨĳ":7346,"Ġparoles":7347,"exception":7348,"Ġdimension":7349,"mant":7350,"ĠSam":7351,"Ġexercices":7352,"Ġfruit":7353,"cent":7354,"ĠÃ©voluer":7355,"Ġsubs":7356,"ĠprÃ©voir":7357,"Ġoffrent":7358,"Ġconnue":7359,"Ġvoter":7360,"onnaie":7361,"tienne":7362,"Ġincroyable":7363,"Ġstockage":7364,"inÃ©e":7365,"Ġrecyc":7366,"ĠtestÃ©":7367,"ĠspÃ©ciale":7368,"ĠCON":7369,"Ġsauveg":7370,"ĠPersonne":7371,"IF":7372,"Ġmaire":7373,"Ġproje":7374,"Ġtransition":7375,"ĠÃ©limin":7376,"Ġagir":7377,"Ġverra":7378,"matiques":7379,"exÃ©cution":7380,"oler":7381,"envoi":7382,"ĠcolÃ¨re":7383,"talie":7384,"Ġdevront":7385,"Institut":7386,"Ġstatistiques":7387,"ĠSÃ©n":7388,"Ġroi":7389,"Ġartisan":7390,"Ġalimentation":7391,"Ġlook":7392,"ordi":7393,"ĠprocÃ©dures":7394,"Quelques":7395,"ĠcarrÃ©":7396,"Ġparlement":7397,"gre":7398,"Ġmaintien":7399,"Ġral":7400,"ĠreprÃ©sentent":7401,"ĠConf":7402,"Ġpul":7403,"Ġcompati":7404,"ĠpensÃ©es":7405,"ourt":7406,"Ġ2003":7407,"Ġsolide":7408,"telli":7409,"ĠdÃ©pÃ´t":7410,"ĠÃ©quipÃ©":7411,"Ġther":7412,"Ġterroris":7413,"bert":7414,"humanitÃ©":7415,"Ġmilitaires":7416,"essentiel":7417,"cidents":7418,"lon":7419,"Ã¨nements":7420,"entis":7421,"ennent":7422,"ensÃ©":7423,"Ġ600":7424,"ulte":7425,"ĠcontrÃ´ler":7426,"Ġrefaire":7427,"ĠcompÃ©tence":7428,"issue":7429,"endredi":7430,"ĠdisponibilitÃ©":7431,"ĠsÃ¨che":7432,"Ġrespir":7433,"ĠrecommandÃ©":7434,"Ã©sie":7435,"ernes":7436,"vert":7437,"Ġactifs":7438,"Ġdessins":7439,"Ġdescription":7440,"Ġclaire":7441,"Ġblancs":7442,"olis":7443,"ĠfinanciÃ¨res":7444,"Ġcommander":7445,"paravant":7446,"Mes":7447,"Ġconcr":7448,"Ġsmartphone":7449,"ĠRÃ©gion":7450,"ÂĴ":7451,"Ġbasse":7452,"valent":7453,"ĠAvant":7454,"ĠMaroc":7455,"Ã´les":7456,"Ġdiss":7457,"nie":7458,"Ġ2002":7459,"ĠChamp":7460,"anes":7461,"ĠSci":7462,"ĠreprÃ©sentation":7463,"Ġnette":7464,"Ġessentiellement":7465,"Ġsavait":7466,"Ġtransformer":7467,"Ġsouffle":7468,"ĠdÃ©poser":7469,"Ġmorte":7470,"Ġcontraintes":7471,"Ġpropor":7472,"Ã©rateur":7473,"Ġimpli":7474,"oiff":7475,"Ġfeuille":7476,"ĠIN":7477,"Ġpublier":7478,"ĠGe":7479,"Ġbox":7480,"ĠintÃ©ressante":7481,"ĠfaÃ§":7482,"Ġferont":7483,"rid":7484,"ĠClub":7485,"ĠForm":7486,"ĠIns":7487,"opp":7488,"Ġcatastroph":7489,"Ġfaisons":7490,"ĠconformÃ©ment":7491,"Ġpopulations":7492,"Ġstric":7493,"Ġremarqu":7494,"ĠbÃ©nÃ©ficie":7495,"ura":7496,"ĠconfÃ©rences":7497,"Ã©lÃ¨ve":7498,"ĠRussie":7499,"Ġcollecte":7500,"Ġpoissons":7501,"Ġmourir":7502,"chec":7503,"Ġjambes":7504,"vations":7505,"Ġmagnifiques":7506,"ĠÃ©tions":7507,"Ġnavigation":7508,"Ġpub":7509,"ĠAff":7510,"ĠParc":7511,"Ġbattre":7512,"olas":7513,"Ġsachant":7514,"Ġatout":7515,"AB":7516,"Ġsolaire":7517,"ĠcomplÃ©mentaires":7518,"chÃ©es":7519,"actif":7520,"ditions":7521,"artiste":7522,"ĠVoilÃł":7523,"ĠAfrique":7524,"ruption":7525,"ĠconseillÃ©":7526,"ĠRob":7527,"34":7528,"Ġdimensions":7529,"Ġfranch":7530,"ĠÃ©cologique":7531,"aura":7532,"ĠrÃ©sumÃ©":7533,"Ġprogrammation":7534,"Ġdedans":7535,"Ġanimations":7536,"Ġchampionn":7537,"Ġsecours":7538,"Ã©galitÃ©":7539,"Ġplages":7540,"Ġconfirme":7541,"Ġexempl":7542,"vons":7543,"Ġprochains":7544,"aques":7545,"ĠvÃ©rit":7546,"Ġprofession":7547,"ix":7548,"Ġvisu":7549,"Ġrecord":7550,"aug":7551,"Ã©chelle":7552,"CO":7553,".âĢĿ":7554,"mosphÃ¨re":7555,"06":7556,"ĠadaptÃ©es":7557,"Ġliquide":7558,"poser":7559,"ĠcÃ©rÃ©monie":7560,"Ġrentre":7561,"organisme":7562,"entend":7563,"ĠFestival":7564,"ĠprÃ©vues":7565,"ĠSy":7566,"ĠgÃ©nial":7567,"ĠmontrÃ©":7568,"Ġfranchement":7569,"05":7570,"Ġatti":7571,"Ġagr":7572,"ning":7573,"ressions":7574,"Ġhumeur":7575,"Ġautonom":7576,"Ġbisous":7577,"Ġrup":7578,"Ġconnait":7579,"Ġinternationales":7580,"jÃł":7581,"Ġcuill":7582,"ĠdÃ©roule":7583,"ĠfaÃ§ons":7584,"Ġmagazine":7585,"Article":7586,"fiÃ©es":7587,"universitÃ©":7588,"Ġgarage":7589,"Ġbaign":7590,"ick":7591,"miÃ¨res":7592,"lation":7593,"ĠÃ©chÃ©":7594,"Ġnaturelles":7595,"Ġinvestissement":7596,"Ġcontenant":7597,"attendre":7598,"Ã´ne":7599,"ĠTwitter":7600,"Ġfermeture":7601,"Ġcherchez":7602,"ĠChrist":7603,"Ġavenir":7604,"ĠprÃ©voit":7605,"acquisition":7606,"Ġbienvenue":7607,"Ġdommages":7608,"imagine":7609,"ĠcrÃ©ativitÃ©":7610,"ĠnouveautÃ©s":7611,"optimis":7612,"ĠhÃ©ros":7613,"oÃ¯":7614,"Ġcorrespondant":7615,"allen":7616,"Ġhabitudes":7617,"ĠJourn":7618,"Ġrepris":7619,"Ġvenait":7620,"Ġjudiciaire":7621,"Ġsurvi":7622,"ogue":7623,"ĠconcernÃ©s":7624,"oeuvre":7625,"Ġmoteurs":7626,"anie":7627,"ĠparamÃ¨tres":7628,"ĠÃ©mer":7629,"ĠOb":7630,"Ġrempli":7631,"ĠprivÃ©s":7632,"Ġflux":7633,"ĠinvitÃ©":7634,"Ġetre":7635,"joux":7636,"titÃ©s":7637,"ĠgoÃ»ts":7638,"ĠrÃ©pert":7639,"ĠCong":7640,"LI":7641,"Ġvenus":7642,"Ġpress":7643,"Ġnormalement":7644,"Ġpne":7645,"ĠPrix":7646,"ĠacceptÃ©":7647,"ĠsymptÃ´mes":7648,"Ġreligion":7649,"Ġfortes":7650,"Ġaccompagne":7651,"Fin":7652,"36":7653,"!)":7654,"Ġroutes":7655,"Retrouvez":7656,"ĠLond":7657,"Ã¢me":7658,"Ġmalade":7659,"Ġterrible":7660,"Ġharm":7661,"aisses":7662,"ĠclÃ´t":7663,"anglais":7664,"Ġfonctionner":7665,"Ġcorp":7666,"Ġcouvert":7667,"Ġsoud":7668,"ĠPhili":7669,"SS":7670,"ellent":7671,"Br":7672,"Ġbol":7673,"ĠÃ¢gÃ©es":7674,"anisme":7675,"erme":7676,"ĠCas":7677,"Ġtransmis":7678,"ĠdiplÃ´me":7679,"ĠdÃ©co":7680,"ĠprÃ©cieux":7681,"Ġrecul":7682,"Ġpon":7683,"oient":7684,"Ġplafond":7685,"Ġrur":7686,"quait":7687,"ĠremarquÃ©":7688,"Ġrichesse":7689,"Ġplateau":7690,"ĠpersonnalisÃ©":7691,"hous":7692,"chon":7693,"atric":7694,"Ġbrill":7695,"info":7696,"gel":7697,"ouveau":7698,"Ġcontribution":7699,"ja":7700,"ernant":7701,"ĠthÃ©orie":7702,"Ġattribu":7703,"Ġ120":7704,"Ġsignific":7705,"ĠadorÃ©":7706,"eureusement":7707,"Ġbritan":7708,"rite":7709,"ordeaux":7710,"Ġcible":7711,"Ġgourmand":7712,"ĠgÃ¢teau":7713,"Ġchats":7714,"aval":7715,"ĠparallÃ¨":7716,"Ġcolis":7717,"Ġnat":7718,"acteur":7719,"Ġfournisseurs":7720,"ĠGal":7721,"Ġcass":7722,"Ġvitam":7723,"ĠInst":7724,"Ġbataille":7725,"Ġjournalistes":7726,"Ġapprend":7727,"veil":7728,"ogramme":7729,"Ġsportif":7730,"Ġlourd":7731,"Ġvalable":7732,"Ġstudio":7733,"bourg":7734,"ires":7735,"Ġpoul":7736,"ck":7737,"iv":7738,"effectuer":7739,"Ġfun":7740,"oritaire":7741,"ault":7742,"humour":7743,"Ġlot":7744,"Ġvul":7745,"giÃ¨ne":7746,"Ġcellules":7747,"undi":7748,"Ġdevrais":7749,"Ġregroup":7750,"Ġcirconstances":7751,"asp":7752,"Ġ37":7753,"avion":7754,"ĠpÃ©dagogique":7755,"Ġfuturs":7756,"acu":7757,"ilib":7758,"ĠBruxelles":7759,"Ġclass":7760,"Sa":7761,"abilitÃ©s":7762,"ĠrÃ©unions":7763,"Ab":7764,"ĠNational":7765,"Ġpes":7766,"riers":7767,"ĠDom":7768,"Ġissus":7769,"Ġconstante":7770,"Ġlibres":7771,"Ġcoute":7772,"ĠobligÃ©":7773,"Ġtor":7774,"Ġsports":7775,"ĠMichel":7776,"ĠmÃ©dicale":7777,"ata":7778,"Ġcroit":7779,"Ġreprises":7780,"Ġabandonn":7781,"outu":7782,"Ġer":7783,"Ġcritiques":7784,"ĠquÃªte":7785,"ĠParlement":7786,"acie":7787,"ĠdÃ©passe":7788,"Ġsouris":7789,"Ġterritoires":7790,"hÃ©bergement":7791,"Ġgel":7792,"Ġconstituent":7793,"'t":7794,"acques":7795,"ĠCD":7796,"ha":7797,"Ġexceptionnel":7798,"imanche":7799,"Ġsuivent":7800,"ĠDÃ©couvrez":7801,"31":7802,"ultures":7803,"Ġcontacts":7804,"Ġpoche":7805,"jouter":7806,"appÃ©":7807,"Ġrenseigner":7808,"encer":7809,"Ġmuscul":7810,"Ġpert":7811,"amer":7812,"ĠSar":7813,"Ġsentiments":7814,"AV":7815,"Ġplaque":7816,"log":7817,"Ġinformer":7818,"Ġquasiment":7819,"ĠsÃ©ries":7820,"Ġproducteurs":7821,"oyen":7822,"ey":7823,"ĠprÃ©server":7824,"Ġmoto":7825,"apporter":7826,"ĠmÃ¢":7827,"Ġimpati":7828,"Ġvoc":7829,"usses":7830,"Ġfarine":7831,"Ġmeubles":7832,"Ġquartiers":7833,"ismes":7834,"Ġinvent":7835,"09":7836,"ĠCoupe":7837,"initiative":7838,"oduire":7839,"Ġavancer":7840,"Ġinscri":7841,"Ġtraduction":7842,"Ġforts":7843,"Ġcomprenant":7844,"ĠconsacrÃ©":7845,"Ġmenace":7846,"ĠAg":7847,"vue":7848,"exprimer":7849,"Ġinternautes":7850,"Ġpuissant":7851,"seille":7852,"ĠJour":7853,"Ġtendances":7854,"ĠTech":7855,"Ġ2001":7856,"Ã©bÃ©c":7857,"ĠBref":7858,"Ġprogression":7859,"Ġculturelle":7860,"intention":7861,"OC":7862,"iliation":7863,"Ġner":7864,"ĠTer":7865,"ĠcrÃ©Ã©e":7866,"Ġtox":7867,"ĠMinistÃ¨re":7868,"Ġplante":7869,"Ġsaisir":7870,"ĠapparaÃ®t":7871,"deurs":7872,"ĠdÃ©passer":7873,"ĠscÃ©nario":7874,"eue":7875,"Ġur":7876,"tal":7877,"ĠdÃ©crit":7878,"Ġlave":7879,"ĠPOUR":7880,"Ġrouges":7881,"actez":7882,"agÃ©es":7883,"Ġher":7884,"Ġexplications":7885,"ĠpÃ©riodes":7886,"Ġarts":7887,"ĠrÃ©gional":7888,"Ġ04":7889,"âĢĺ":7890,"Ġlogo":7891,"Ġ??":7892,"Ġcatalogue":7893,"32":7894,"housias":7895,"Ġtrouvez":7896,"ĠlittÃ©rature":7897,"100":7898,"Ġpratiquer":7899,"ativement":7900,"Ġjugement":7901,"issons":7902,"Ġconstate":7903,"omis":7904,"ĠfermÃ©":7905,"ĠVoir":7906,"Ġconfirmer":7907,"Ġdomin":7908,"Ġarchite":7909,"ĠMus":7910,"ĠrÃ©chau":7911,"Ġbouteille":7912,"Ġferait":7913,"Ġtraditionnelle":7914,"Ġaudio":7915,"Ġstandard":7916,"appartement":7917,"MA":7918,"Ġvoyager":7919,"ĠexÃ©cu":7920,"fitez":7921,"ĠUS":7922,"Ġsurpris":7923,"Ġparu":7924,"ĠespÃ©rant":7925,"Ġenfance":7926,"Ġ800":7927,"ĠprÃ©sidentielle":7928,"ĠintÃ©rieure":7929,"ĠNouvelle":7930,"Ġchaleureux":7931,"quin":7932,"ĠrÃ©cit":7933,"Ġdevi":7934,"ĠrÃ©fÃ©rences":7935,"Ġdirais":7936,"ĠconnectÃ©":7937,"onomique":7938,"Ġsportifs":7939,"ĠStr":7940,"Ġdest":7941,"Ġessentielles":7942,"ĠnuclÃ©aire":7943,"Ġfaim":7944,"Ġfinit":7945,"Ġrusse":7946,"illi":7947,"opposition":7948,"Ġsuppose":7949,"endue":7950,"Ġconnecter":7951,"crimin":7952,"df":7953,"Ġauthenti":7954,"onyme":7955,"Ã©rez":7956,"Ġ39":7957,"organiser":7958,"lande":7959,"sans":7960,"Ġpaqu":7961,"eule":7962,"lait":7963,"Ġavent":7964,"Ġajoute":7965,"Ġ44":7966,"ĠRE":7967,"vel":7968,"ĠMars":7969,"Ġlaissant":7970,"ĠeuropÃ©ennes":7971,"orale":7972,"Ġrepose":7973,"ĠcÃ©rÃ©":7974,"col":7975,"Ġdirait":7976,"&#":7977,"shir":7978,"Ġadulte":7979,"Ġtome":7980,"Ġfromage":7981,"Ġtransmission":7982,"ĠdÃ©par":7983,"ĠNationale":7984,"Ġrej":7985,"arque":7986,"ĠassurÃ©":7987,"Ġprime":7988,"uise":7989,"ĠÃ©trange":7990,"Ġemplois":7991,"Ġchansons":7992,"ĠrÃªver":7993,"autorisation":7994,"Ġclassiques":7995,"Ġinterventions":7996,"attaque":7997,"atriÃ¨me":7998,"ĠfixÃ©":7999,"Ġsoul":8000,"ĠrÃ©t":8001,"Ġjoindre":8002,"Ġcycl":8003,"Ġleader":8004,"ĠnumÃ©riques":8005,"ĠprÃ©pare":8006,"38":8007,"ĠtentÃ©":8008,"Faites":8009,"tig":8010,"ĠrÃ©alisÃ©es":8011,"Ġ;-)":8012,"Ļ¥":8013,"ĠConc":8014,"ĠPAR":8015,"ĠSte":8016,"Ġfrancoph":8017,"ĠCeci":8018,"Ġsupports":8019,"Ġaimez":8020,"Ġagricole":8021,"ĠÃ©ventuellement":8022,"mÃ©diaire":8023,"Ġjoy":8024,"ĠBas":8025,"Bonne":8026,"Ġfine":8027,"assistance":8028,"Ġouvertes":8029,"PrÃ©s":8030,"Ġling":8031,"Ġcentral":8032,"Ã¨dent":8033,"Ġamus":8034,"isser":8035,"arriver":8036,"ĠtotalitÃ©":8037,"olation":8038,"Ġvoisins":8039,"Ġtension":8040,"Quant":8041,"Ġutilisez":8042,"Ġfallu":8043,"othÃ©rap":8044,"ĠrÃ©glementation":8045,"Ġportrait":8046,"ĠrÃ©uss":8047,"Ġcertificat":8048,"âĢ¦).":8049,"Ġgeste":8050,"Ġcauses":8051,"ĠnÃ©gli":8052,"04":8053,"lÃ©es":8054,"avaient":8055,"ĠrelÃ¨ve":8056,"Ġportail":8057,"Ouest":8058,"Me":8059,"Ġperspective":8060,"Ġimmense":8061,"cules":8062,"ĠprocÃ©dÃ©":8063,"Histoire":8064,"ĠIci":8065,"Ġdoucement":8066,"cherche":8067,"Ġmyth":8068,"Ġ@":8069,"Ġrenforce":8070,"ĠamÃ©ricains":8071,"Ġpermanence":8072,"Ġremont":8073,"uffis":8074,"Ġtravaillent":8075,"ĠfrÃ¨res":8076,"ĠadoptÃ©":8077,"Ġcommerciaux":8078,"Ġinvitons":8079,"Ġpier":8080,"itifs":8081,"Ġinternationaux":8082,"ĠmontÃ©e":8083,"Ġannuelle":8084,"ĠPS":8085,"ĠdÃ©sign":8086,"Ġprimaire":8087,"Voir":8088,"pre":8089,"arg":8090,"ueuse":8091,"Ġexpertise":8092,"Ġproposant":8093,"enfin":8094,"ĠGuerre":8095,"ĠintÃ©ressÃ©":8096,"Ġvivement":8097,"Cl":8098,"intÃ©ress":8099,"Ġclimatique":8100,"Ġmign":8101,"Ġbalade":8102,"ĠefficacitÃ©":8103,"Ġpousser":8104,"applique":8105,"Ġsavons":8106,"Ġorganisme":8107,"igner":8108,"ource":8109,"examen":8110,"ĠaperÃ§u":8111,"ctive":8112,"MP":8113,"Ġvoisin":8114,"Ġrappr":8115,"aid":8116,"ĠmÃ©nage":8117,"aisselle":8118,"ĠconsidÃ¨re":8119,"Ġ?!":8120,"Ġvues":8121,"Ġencad":8122,"Ġdisposer":8123,"Ġexclusivement":8124,"old":8125,"MalgrÃ©":8126,"Ġpermettront":8127,"Ġfili":8128,"uisant":8129,"ĠToul":8130,"Ġcra":8131,"Ġsortes":8132,"unitÃ©s":8133,"ĠFaites":8134,"ĠVie":8135,"Ġprud":8136,"Ġmonsieur":8137,"ĠrÃ©no":8138,"Ġregroupe":8139,"ĠvisibilitÃ©":8140,"ĠrÃ©fug":8141,"ĠRoyaume":8142,"ĠLondres":8143,"Ġsing":8144,"ĠSeigneur":8145,"Ġmillion":8146,"rimÃ©s":8147,"Ġcourriel":8148,"Ġimportance":8149,"Ġtermine":8150,"ĠLoi":8151,"Ġanc":8152,"ĠtempÃ©ratures":8153,"ĠcomÃ©di":8154,"ĠdegrÃ©":8155,"Ġexceptionnelle":8156,"ĠVis":8157,"ĠLeur":8158,"Ġvoyageurs":8159,"tifici":8160,"Ser":8161,"ainement":8162,"otion":8163,"iterran":8164,"essai":8165,"ĠdÃ©barr":8166,"ĠcomposÃ©e":8167,"Ã©laboration":8168,"Ġappliquer":8169,"Ġperfection":8170,"Ġlunettes":8171,"aisons":8172,"ĠWindows":8173,"ĠmÃ©dicament":8174,"Ġrecommandations":8175,"Ġquan":8176,"Super":8177,"niÃ¨re":8178,"ĠbÃ©t":8179,"Certains":8180,"ingue":8181,"ĠtraitÃ©":8182,"RES":8183,"Ġrefr":8184,"tait":8185,"Ġaugmente":8186,"Ġfatigue":8187,"pin":8188,"cel":8189,"affich":8190,"aster":8191,"occupe":8192,"Ġhonn":8193,"Ã©anmoins":8194,"Ġramen":8195,"ĠMaintenant":8196,"architecture":8197,"tins":8198,"Ġincontournable":8199,"raÃ«l":8200,"ĠÃ©crite":8201,"Ġdiab":8202,"ĠÃ©trangÃ¨res":8203,"Ġfinances":8204,"ĠsÃ©r":8205,"Ġreti":8206,"Ġvendeur":8207,"ĠMor":8208,"ulations":8209,"ĠÃ©vidence":8210,"Ġcourir":8211,"Ġexercice":8212,"ĠassociÃ©s":8213,"lut":8214,"Utilis":8215,"Ġlits":8216,"Ġconclusion":8217,"accro":8218,"Ġouverture":8219,"ms":8220,"Ġultra":8221,"Ġfau":8222,"ohn":8223,"Ġrupture":8224,"arb":8225,"Ġvoies":8226,"Ġbijoux":8227,"Ġchers":8228,"mpe":8229,"chage":8230,"Ġreposer":8231,"aver":8232,"02":8233,"Salut":8234,"autonomie":8235,"orizon":8236,"Ġindividus":8237,"Ġcommerciales":8238,"07":8239,"Ġrestera":8240,"Ġjolies":8241,"Ġinfo":8242,"tige":8243,"ĠgÃ©nÃ©rations":8244,"Ġpromis":8245,"03":8246,"ĠtombÃ©":8247,"Ġfameux":8248,"ĠÃ©vÃ¨nements":8249,"95":8250,"ĠreÃ§oit":8251,"ĠprÃ©cÃ©dente":8252,"aurez":8253,"ANS":8254,"avier":8255,"Ġcitron":8256,"Ġaffec":8257,"Ġpatience":8258,"dia":8259,"riv":8260,"ĠPlan":8261,"ofon":8262,"Ã®tes":8263,"Ġmix":8264,"Ġpanier":8265,"Ġassister":8266,"acun":8267,"ĠsecrÃ©taire":8268,"Ġbravo":8269,"ogne":8270,"ĠOp":8271,"tinÃ©e":8272,"ĠdÃ©diÃ©e":8273,"Ġvieill":8274,"auvres":8275,"ĠdÃ©gÃ¢":8276,"Ġmauvaises":8277,"agraph":8278,"Ġintit":8279,"adÃ©mie":8280,"Ġmunicipal":8281,"Ġcurieux":8282,"ĠimpÃ©r":8283,"dou":8284,"Ġmusici":8285,"alors":8286,"ĠriviÃ¨re":8287,"Ġ42":8288,"ĠliÃ©e":8289,"sant":8290,"2017":8291,"Ġcontrairement":8292,"ondissement":8293,"ĠrandonnÃ©e":8294,"VI":8295,"ĠSinon":8296,"anou":8297,"Ġdirecte":8298,"37":8299,"Ġremplacement":8300,"enregistrement":8301,"dex":8302,"Ġrelever":8303,"ola":8304,"Ġessentielle":8305,"Ġsauce":8306,"Ġattendu":8307,"Ag":8308,"ries":8309,"olive":8310,"associ":8311,"Ġcart":8312,"chette":8313,"Ġracont":8314,"ĠmÃ©canique":8315,"Ġraf":8316,"amin":8317,"Ġbizarre":8318,"Ġdot":8319,"ĠContin":8320,"Ġsois":8321,"onnez":8322,"Op":8323,"ĠJus":8324,"Ġcant":8325,"Ġalent":8326,"Ġkit":8327,"DÃ©c":8328,"Ġsoeur":8329,"ĠExp":8330,"Ġreligie":8331,"Ġabou":8332,"Ġcoiff":8333,"ĠVI":8334,"orientation":8335,"Ġscul":8336,"TS":8337,"Ġay":8338,"Ġpeup":8339,"Ġcomparer":8340,"Ġressor":8341,"Ġchante":8342,"Ġfinance":8343,"Ġhonte":8344,"ouvernement":8345,"titudes":8346,"ĠÃ©missions":8347,"Ġpare":8348,"ffer":8349,"issante":8350,"zy":8351,"ĠsystÃ©matique":8352,"ommun":8353,"Ġord":8354,"Ġconnus":8355,"Ġfoyer":8356,"Ġros":8357,"otel":8358,"Ġtouristique":8359,"Ġaides":8360,"aspect":8361,"ossibilitÃ©":8362,"Ġexpert":8363,"troduction":8364,"Ġtouristes":8365,"Ġsurprises":8366,"Ġpositive":8367,"Ġencourage":8368,"ĠÃ©lu":8369,"entin":8370,"imes":8371,"Ġmorceau":8372,"ouvent":8373,"Es":8374,"inves":8375,"Ġtol":8376,"ĠthÃ©rapeu":8377,"formation":8378,"Ġ00":8379,"rices":8380,"gil":8381,"Mise":8382,"Ġtonnes":8383,"Ġvague":8384,"Ġsombre":8385,"ĠprÃ©sentent":8386,"Ġcous":8387,"avid":8388,"Ġdoc":8389,"Ġphotographie":8390,"ÃĬ":8391,"ĠOff":8392,"Ġpensent":8393,"Ġprogressivement":8394,"luence":8395,"endie":8396,"Ġnoti":8397,"Ġappeler":8398,"Ġindustriels":8399,"Ġsaura":8400,"men":8401,"ĠintÃ©resse":8402,"Ġchevaux":8403,"atrices":8404,"ĠÃ¢me":8405,"jeu":8406,"ĠChambre":8407,"Ġaqu":8408,"Ġfamilial":8409,"Ã©clair":8410,"ĠFre":8411,"ĠPaul":8412,"ĠtournÃ©e":8413,"Ġvirus":8414,"Ġoiseaux":8415,"ĠMic":8416,"Ġperp":8417,"Ġnormale":8418,"cÃ©":8419,"Ġinvestissements":8420,"Ġraff":8421,"Ġimpression":8422,"ondes":8423,"ĠtÃ©lÃ©c":8424,"Ġcultures":8425,"dÃ©pend":8426,"Organis":8427,"isponi":8428,"ĠgarÃ§ons":8429,"Ġconnaissais":8430,"Ġgratuits":8431,"ĠVer":8432,"niques":8433,"Ġdrap":8434,"ĠdÃ©bats":8435,"ĠsoirÃ©es":8436,"Ġmoral":8437,"Ġmobiles":8438,"ĠstratÃ©gique":8439,"ĠAngl":8440,"Ġchronique":8441,"acÃ©s":8442,"ĠLÃł":8443,"Ġdiscussions":8444,"ensez":8445,"ĠÃ©quilibre":8446,"ices":8447,"44":8448,"ĠprÃ©fÃ©rence":8449,"Ġjournaliste":8450,"autoritÃ©":8451,"angle":8452,"ĠDÃ¨s":8453,"...\"":8454,"etour":8455,"sol":8456,"ĠsÃ©p":8457,"Ġcontinent":8458,"Ġauparavant":8459,"ĠvariÃ©tÃ©":8460,"Ġboissons":8461,"Ġressembl":8462,"Ġtraces":8463,"ĠmodifiÃ©":8464,"Ġriz":8465,"Quels":8466,"Ġpanneaux":8467,"Ġdispositifs":8468,"hom":8469,"Ġnavigateur":8470,"ĠMarseille":8471,"Ġtables":8472,"lerie":8473,"Ġdurer":8474,"Ġarrivent":8475,"ĠdÃ©ri":8476,"neur":8477,"08":8478,"Ġpir":8479,"ym":8480,"Ġouverts":8481,"Ġconforme":8482,"Homme":8483,"ĠBordeaux":8484,"ĠDem":8485,"Ġhommage":8486,"ĠrÃ©vÃ¨le":8487,"ĠsÃ©min":8488,"Ġlaboratoire":8489,"ĠClient":8490,"erreur":8491,"ouvrage":8492,"lim":8493,"Ġoccident":8494,"Ġmac":8495,"ibles":8496,"Ġefficacement":8497,"ĠfÃ©lic":8498,"entrepren":8499,"Ġpaire":8500,"utes":8501,"ĠsimplicitÃ©":8502,"commer":8503,"ĠlimitÃ©e":8504,"haus":8505,"Ġsaisons":8506,"orÃ©s":8507,"Ġversions":8508,"ĠdÃ©couvertes":8509,"fort":8510,"empÃªcher":8511,"Ġreprend":8512,"Ġaiment":8513,"ĠrÃ©jou":8514,"ĠapprÃ©cier":8515,"Ġmonte":8516,"inaires":8517,"Ġvolet":8518,"ĠĠĠĠ":8519,"Ġindemn":8520,"Ġexistent":8521,"ĠquatriÃ¨me":8522,"Ġrelax":8523,"ĠSalon":8524,"Ġpilote":8525,"ĠintÃ©grer":8526,"ĠchÃ¨re":8527,"Ġpauvres":8528,"Ġphilosophie":8529,"faits":8530,"ĠÃ©valu":8531,"Ġferai":8532,"Elles":8533,"Ã§ue":8534,"Ġtours":8535,"Ġvice":8536,"ĠII":8537,"antil":8538,"Ġindicatif":8539,"ĠfenÃªtres":8540,"Ġdouleurs":8541,"Ġsollic":8542,"ĠEnsuite":8543,"ĠÃ©tudiant":8544,"Ġterres":8545,"ĠbÃªte":8546,"sine":8547,"Ġutilisateur":8548,"Ġparagraph":8549,"Suite":8550,"Ġadvers":8551,"Ġintervenir":8552,"miditÃ©":8553,"cter":8554,"Ã©quipement":8555,"entendre":8556,"ĠdÃ©cl":8557,"ĠproposÃ©e":8558,"Ġincap":8559,"ĠdÃ®ner":8560,"Ġvap":8561,"ĠdÃ©sirez":8562,"ĠCN":8563,"album":8564,"expliquer":8565,"Ġtapis":8566,"St":8567,"Ġstages":8568,"audi":8569,"Ġsuppression":8570,"ĠÃ©conomie":8571,"ĠrÃ©putation":8572,"ĠPAS":8573,"siÃ¨re":8574,"Ġfinancer":8575,"Jean":8576,"Ġclubs":8577,"ĠPos":8578,"berge":8579,"ordinateur":8580,"Ġculturelles":8581,"Ġnettoyer":8582,"Ġouvrages":8583,"ardin":8584,"ĠEncore":8585,"Ġvocation":8586,"mans":8587,"ĠDÃ©s":8588,"tition":8589,"Ġdisparu":8590,"ĠUN":8591,"Ġhistoriques":8592,"Ġartifici":8593,"Ġsouhaitons":8594,"Ġinscrits":8595,"affir":8596,"Ġsusceptibles":8597,"Ġconfiguration":8598,"Ġpapa":8599,"Ġsoldats":8600,"Ã©tition":8601,"Ġtire":8602,"ĠCÃ´te":8603,"Ã©tation":8604,"affiche":8605,"Ġtissus":8606,"ĠÃ©changer":8607,"Ġtoilettes":8608,"Ġfroide":8609,"Ã©gal":8610,"Åĵurs":8611,"Ġprovince":8612,"ouvÃ©":8613,"Ġconcerts":8614,"Agence":8615,"interpr":8616,"ĠDroit":8617,"Ġpure":8618,"âĸ":8619,"ĠRom":8620,"Ġimaginer":8621,"ĠgÃ¢":8622,"Ġconnect":8623,"ancienne":8624,"ĠdestinÃ©e":8625,"Ġmajeure":8626,"impos":8627,"Ġ08":8628,"ĠCelle":8629,"Ġhon":8630,"Ġmol":8631,"ĠCal":8632,"gin":8633,"Ġsecrets":8634,"Ġspectacles":8635,"Ġtrente":8636,"ĠPÃ¨re":8637,"Ġ02":8638,"ĠChris":8639,"Ġmerveilleux":8640,"ĠdiffÃ©rences":8641,"agram":8642,"Ġeffort":8643,"Ġvendu":8644,"Ġparait":8645,"Beau":8646,"Ġinscriptions":8647,"Ġflex":8648,"Ġpersonnellement":8649,"ĠbasÃ©e":8650,"Ġcy":8651,"Ġbouger":8652,"Ġprofesseurs":8653,"Ġmotifs":8654,"Ġguid":8655,"Ġdeviennent":8656,"ĠrÃ©cente":8657,"Intern":8658,"issage":8659,"ĠtÃ©moignages":8660,"reuves":8661,"Ġroule":8662,"Ġdonnera":8663,"Ġaient":8664,"Ġlongs":8665,"ĠbasÃ©":8666,"Ġutilisent":8667,"Pierre":8668,"LES":8669,"Ġsecondaire":8670,"Ġmons":8671,"Ġmys":8672,"ĠLigue":8673,"Ġcum":8674,"isÃ©es":8675,"astructures":8676,"Personne":8677,"ĠrÃ©tr":8678,"Ġhypoth":8679,"ĠidentitÃ©":8680,"Ġro":8681,"Ġmodernes":8682,"lÃ¨vement":8683,"Ġsurement":8684,"ĠFÃ©dÃ©ration":8685,"Ġrez":8686,"ĠmÃ©langer":8687,"Ġjardins":8688,"Ġpath":8689,"Ġpein":8690,"ĠDÃ©velop":8691,"......":8692,"Ġgraves":8693,"ystÃ¨me":8694,"ailli":8695,"Ġretenir":8696,"Ġcapables":8697,"ĠconsidÃ©rer":8698,"Ġpierres":8699,"ĠInter":8700,"ĠschÃ©":8701,"aisseur":8702,"iÃ©s":8703,"Ġmotif":8704,"empÃªche":8705,"Ġidentifier":8706,"ÃĪ":8707,"urgie":8708,"mide":8709,"Ġsuperfi":8710,"Ġfiable":8711,"ĠNations":8712,"ĠCO":8713,"Ġcro":8714,"ĠsiÃ¨cles":8715,"ks":8716,"ĠpartagÃ©":8717,"ĠdÃ©placements":8718,"Ġ09":8719,"ĠpassÃ©s":8720,"ĠsÃ©qu":8721,"ĠPRO":8722,"appro":8723,"tinÃ©r":8724,"ĠstratÃ©gies":8725,"Ġmontagnes":8726,"ĠPendant":8727,"ĠÃªtres":8728,"Ġ<":8729,"Ġdeb":8730,"hydr":8731,"Ġagences":8732,"appui":8733,"Ġcomplexes":8734,"amm":8735,"ĠdÃ©licieux":8736,"Ġartiste":8737,"dien":8738,"Ġalentours":8739,"Ġcodes":8740,"IB":8741,"QU":8742,"TT":8743,"ĠÃ©pau":8744,"Ġconvaincre":8745,"ĠJuli":8746,"Ġsembler":8747,"expÃ©ri":8748,"Ġordonn":8749,"idÃ©es":8750,"ĠdÃ©solÃ©":8751,"Ġdiminuer":8752,"Ġcomportements":8753,"Autre":8754,"Ġquitte":8755,"Ġjusque":8756,"Ġautomobile":8757,"Ġtalents":8758,"aste":8759,"Ġremarquer":8760,"ĠdÃ©sire":8761,"Ã©lib":8762,"allage":8763,"Ġbassin":8764,"Ġpousse":8765,"jeuner":8766,"ĠdÃ©gÃ¢ts":8767,"ĠimpÃ´ts":8768,"ĠprÃ©cisÃ©":8769,"antal":8770,"Ġexamen":8771,"Ġvingtaine":8772,"ĠdÃ©finitivement":8773,"ĠdestinÃ©s":8774,"ĠempÃªcher":8775,"fini":8776,"mÃ¨re":8777,"Ġtraditionnel":8778,"Ġbonus":8779,"ĠminÃ©r":8780,"raÃ©li":8781,"omber":8782,"Ġsportive":8783,"Ġquelconque":8784,"inspiration":8785,"Ġboutiques":8786,"active":8787,"Ã¨vre":8788,"Ġrab":8789,"ĠcomplÃ©mentaire":8790,"ĠÃ©tablir":8791,"anÃ©ment":8792,"ĠXX":8793,"acles":8794,"fiez":8795,"ban":8796,"venus":8797,"ĠMme":8798,"Ġbric":8799,"Ġ!\"":8800,"IG":8801,"Ġcoton":8802,"ĠsÃ©lectionner":8803,"ĠBanque":8804,"ĠcommunautÃ©s":8805,"table":8806,"Ġ85":8807,"hist":8808,"Ġdoigt":8809,"ĠresponsabilitÃ©s":8810,"ĠSuper":8811,"Ġfiscale":8812,"ĠfidÃ©l":8813,"quettes":8814,"bo":8815,"ĠÃ©pisodes":8816,"Ġcacher":8817,"appliquer":8818,"aves":8819,"ĠbiÃ¨re":8820,"Ġtas":8821,"Phone":8822,"ĠCulture":8823,"Ġaccompagnement":8824,"Ġoffrons":8825,"PA":8826,"ĠgrÃ¨ve":8827,"Ġsacs":8828,"Ġjaponais":8829,"Ġautorisation":8830,"rient":8831,"ĠdÃ©ten":8832,"Ġartisans":8833,"siez":8834,"agerie":8835,"Ġfermer":8836,"Ġprofitez":8837,"Ġpollution":8838,"ement":8839,"augmentation":8840,"illa":8841,"articles":8842,"ĠmÃ©trop":8843,"ĠGR":8844,"Ġincon":8845,"htt":8846,"Ġressent":8847,"Ġmonnaie":8848,"Ben":8849,"Ġprocure":8850,"odi":8851,"Ġconversation":8852,"ports":8853,"Ġcaisse":8854,"ciÃ¨re":8855,"48":8856,"ĠrÃ©agir":8857,"Ã¨tement":8858,"Ġpav":8859,"Ġmit":8860,"Ġfixer":8861,"ĠlancÃ©e":8862,"Ġprogresser":8863,"Ġtablette":8864,"Ġya":8865,"achet":8866,"Ġrestant":8867,"arts":8868,"Ġcontract":8869,"session":8870,"Bienvenue":8871,"Ġattach":8872,"ĠdÃ©ni":8873,"Ġ).":8874,"ĠspÃ©cialisÃ©s":8875,"obligation":8876,"Ġformid":8877,"ĠInternational":8878,"Ã¨ses":8879,"Ġinutile":8880,"ĠCOM":8881,"ĠconfidentialitÃ©":8882,"ĠconformitÃ©":8883,"Ġraisonnable":8884,"Ġlicen":8885,"agissait":8886,"Ġfuite":8887,"ĠinformÃ©":8888,"Ġviolences":8889,"Ġremonter":8890,"armes":8891,"ĠfacilitÃ©":8892,"adaptation":8893,"ĠMusÃ©e":8894,"Ici":8895,"ails":8896,"Ġvag":8897,"ĠÃ©nergies":8898,"Ġindividuelle":8899,"Ġpack":8900,"Ġinitiative":8901,"Ġaffiche":8902,"Rien":8903,"Ġrecons":8904,"ĠPeu":8905,"ench":8906,"Ã©tÃ©r":8907,"ĠbÃ©nÃ©fice":8908,"ĠchÃ¨que":8909,"ive":8910,"ĠadhÃ©rents":8911,"zaine":8912,"aindre":8913,"Ġvoulons":8914,"ley":8915,"Ġreproduction":8916,"Ġoreilles":8917,"Ġgraines":8918,"Ġadmis":8919,"Plusieurs":8920,"veux":8921,"Ġrajouter":8922,"EST":8923,"ĠmathÃ©m":8924,"Ġcasse":8925,"Ġ46":8926,"Ġsurpren":8927,"arder":8928,"acÃ©e":8929,"ĠPi":8930,"ĠintÃ©grÃ©":8931,"Ġenvirons":8932,"Ġfiches":8933,"Ġparlent":8934,"Â®":8935,"Ġobligation":8936,"ĠgoÃ»ter":8937,"onal":8938,"entraÃ®nement":8939,"Ġstar":8940,"Ġguider":8941,"Ġconsommer":8942,"ĠmatÃ©riels":8943,"],":8944,"ĠprÃ©sentÃ©s":8945,"Ġpourriez":8946,"accÃ©der":8947,"itt":8948,"mag":8949,"Ġparadis":8950,"Ġchampionnat":8951,"uro":8952,"ĠcanapÃ©":8953,"ĠdÃ©lÃ©g":8954,"ĠBour":8955,"iture":8956,"Ġsportives":8957,"Ġ?\"":8958,"ĠSch":8959,"ĠrÃ©actions":8960,"Ġverte":8961,"Ġsouligne":8962,"vu":8963,"ĠnommÃ©":8964,"orent":8965,"Ġfavorable":8966,"ĠFaire":8967,"Ġmatchs":8968,"ora":8969,"assemblÃ©e":8970,"Ġhuile":8971,"Ġdose":8972,"Ġ95":8973,"Ġadresses":8974,"Ġperso":8975,"Pre":8976,"mal":8977,"Ġtournoi":8978,"Ġbalcon":8979,"ĠNet":8980,"Ġdiscipline":8981,"Ġdisais":8982,"Ġponctu":8983,"Ã©ritÃ©":8984,"Ġpseu":8985,"ĠpÃ©":8986,"Ġextraordinaire":8987,"Ġchimiques":8988,"CF":8989,"Ġscand":8990,"Ġprochainement":8991,"Ġsensibles":8992,"Ġquart":8993,"Ġglobal":8994,"Ġcommencent":8995,"Ġrattr":8996,"VD":8997,"ĠAussi":8998,"Ġraj":8999,"Ġtac":9000,"ĠsÃ©v":9001,"Ġdette":9002,"attr":9003,"Ġguer":9004,"Ġ05":9005,"locu":9006,"ĠesthÃ©tique":9007,"Ġcompl":9008,"Ġconservation":9009,"ĠImp":9010,"Ġauxquels":9011,"ĠprÃ©parÃ©":9012,"Ġbap":9013,"ogÃ¨ne":9014,"ĠprivÃ©es":9015,"ĠMalgrÃ©":9016,"Ġjuger":9017,"ĠmÃ©tro":9018,"blÃ©":9019,"ĠMari":9020,"ĠDel":9021,"assade":9022,"ĠquittÃ©":9023,"uaire":9024,"ĠprÃ©sentant":9025,"prix":9026,"ĠFondation":9027,"inium":9028,"Ġcadres":9029,"astiques":9030,"Ġanciennes":9031,"Ġgrille":9032,"Ġprofessionn":9033,"ĠcamÃ©ra":9034,"Ġintellectuelle":9035,"Ġrayon":9036,"ĠpubliÃ©e":9037,"Ġpermanente":9038,"opath":9039,"uites":9040,"Ġconflits":9041,"vÃ©ni":9042,"Ġconclu":9043,"ĠsouhaitÃ©":9044,"Mer":9045,"Ġmorale":9046,"Ġgalerie":9047,"olid":9048,".).":9049,"Ġdivis":9050,"Eff":9051,"Ġvies":9052,"ĠdÃ©couvrez":9053,"Ġchouette":9054,"enant":9055,"Ġfe":9056,"ventions":9057,"Ġconcentration":9058,"ĠprÃ©cip":9059,"ĠdiamÃ¨tre":9060,"Ġchallen":9061,"Ġappels":9062,"Ġindispensables":9063,"intelligence":9064,"Ġislam":9065,"ĠprÃ©vus":9066,"Ġdiversi":9067,"Ġvan":9068,"ĠNature":9069,"Ġagricoles":9070,"Ġnationales":9071,"LA":9072,"Ġmesurer":9073,"Ġindiquer":9074,"oga":9075,"Ġcultiv":9076,"Ġjaunes":9077,"Ġ:-)":9078,"inscrit":9079,"nier":9080,"ondre":9081,"ordination":9082,"Ġcig":9083,"Ã©las":9084,"propri":9085,"ĠHaut":9086,"Ġintellig":9087,"ĠrÃ©frig":9088,"ĠpayÃ©":9089,"illÃ©e":9090,"ĠdÃ©putÃ©s":9091,"Ġgestes":9092,"mentaire":9093,"ĠreprÃ©senter":9094,"ĠrÃ©flÃ©ch":9095,"onnements":9096,"Ġnorme":9097,"Ġamende":9098,"Ġvilla":9099,"aders":9100,"Ġcompose":9101,"Ġindustrielle":9102,"ctrice":9103,"Ġblogs":9104,"ĠlÃ©gislation":9105,"Ġseules":9106,"Ġdescend":9107,"hommes":9108,"Ġthe":9109,"Ġaffirme":9110,"Ġregrette":9111,"habitation":9112,"ĠNicolas":9113,"ĠGl":9114,"ĠMadame":9115,"engager":9116,"Ġprotoc":9117,"ĠextÃ©rieure":9118,"Ġrassur":9119,"Ġdestru":9120,"ĠnÃ©e":9121,"ĠTur":9122,"ĠdÃ©cid":9123,"Ã®tre":9124,"ĠHaute":9125,"ĠdÃ©guster":9126,"Ġdevrez":9127,"brer":9128,"inture":9129,"Ġlaver":9130,"alestin":9131,"Ġvillages":9132,"ctueux":9133,"inÃ©s":9134,"ĠparaÃ®tre":9135,"ĠallÃ©e":9136,"azon":9137,"ciper":9138,"ĠContr":9139,"Ġdisparition":9140,"ĠQuelques":9141,"Ġmassage":9142,"Ġpromet":9143,"Ġpanor":9144,"effort":9145,"Ġprocurer":9146,"informatique":9147,"Ġmettons":9148,"ĠWe":9149,"Ġvoyant":9150,"unes":9151,"Ġappartient":9152,"ombe":9153,"Ġpreuves":9154,"enda":9155,"ĠmenÃ©e":9156,"Ġarb":9157,"Ġmyst":9158,"ĠÃ©quilib":9159,"alisÃ©es":9160,"Ġtouristiques":9161,"Ġsignaler":9162,"%,":9163,"Ġmanagement":9164,"Ġtirage":9165,"amuser":9166,"PR":9167,"Ġenvisage":9168,"ilier":9169,"Allemagne":9170,"actifs":9171,"Ġcitoyen":9172,"Ġreviend":9173,"vages":9174,"Ġrefuser":9175,"radi":9176,"Ġterrains":9177,"Ġnoix":9178,"):":9179,"urier":9180,"ouf":9181,"Ġclinique":9182,"ĠAir":9183,"Ġmodule":9184,"Ġattaque":9185,"sÃ©":9186,"ĠtombÃ©e":9187,"HÃ´tel":9188,"Ġtransparence":9189,"Ġenceinte":9190,"ĠproblÃ©matique":9191,"...).":9192,"indivi":9193,"Ġmarge":9194,"Ġcontribue":9195,"Venez":9196,"eni":9197,"Ġmoul":9198,"ĠfÃªter":9199,"ĠdiplÃ´":9200,"Ġvenant":9201,"Ġvoile":9202,"infos":9203,"Ġprimordi":9204,"Quelles":9205,"78":9206,"Ġpompe":9207,"55":9208,"Ġfasc":9209,"Ġpleins":9210,"itiÃ©":9211,"ĠfrontiÃ¨re":9212,"Ġparticipant":9213,"Ġrecomm":9214,"Ġsexuelle":9215,"Vis":9216,"ĠespÃ¨ce":9217,"ĠAli":9218,"Ġmontrent":9219,"enseign":9220,"Ġchemins":9221,"Ġravie":9222,"augmenter":9223,"ographiques":9224,"Ġadopter":9225,"Ġ49":9226,"ĠsÅĵur":9227,"Ġsap":9228,"ĠÃ©preuves":9229,"Ġfoule":9230,"EU":9231,"ĠprÃ©cau":9232,"Ġdiffus":9233,"Ġbran":9234,"ĠtÃ©moignage":9235,"Petit":9236,"Ġexplos":9237,"Ġcomparaison":9238,"ĠrÃ©duite":9239,"Ġdisposent":9240,"Ã´tre":9241,"Ġtrace":9242,"ump":9243,"Ġessais":9244,"uminium":9245,"ĠfrÃ©quence":9246,"Te":9247,"ĠprÃ©fÃ©rable":9248,"ĠpÃ©trole":9249,"Ġfournisseur":9250,"Ġconsultez":9251,"oyers":9252,"ancÃ©":9253,"Ġmalades":9254,"SituÃ©":9255,"Ġvertu":9256,"ĠdÃ©bit":9257,"Ġdigit":9258,"Ġmaternelle":9259,"ocats":9260,"Ġfaciles":9261,"amique":9262,"Ġheureusement":9263,"otique":9264,"ĠJuin":9265,"ĠconfirmÃ©":9266,"ayez":9267,"Ġacteur":9268,"Ġprouver":9269,"Ġtableaux":9270,"Ġ03":9271,"ĠassociÃ©":9272,"ribuer":9273,"Ġdemandent":9274,"MI":9275,"ĠrÃ©fÃ©rencement":9276,"Ġchoisissez":9277,"Ġinj":9278,"PI":9279,"Ġsubi":9280,"Ġguit":9281,"Ġfacteur":9282,"asions":9283,"han":9284,"Ġvrais":9285,"ologues":9286,"Ġvoient":9287,"ĠBelle":9288,"enfance":9289,"oyons":9290,"Ġcampagnes":9291,"Ġsuffisant":9292,"commerce":9293,"ĠSu":9294,"Ġreligieux":9295,"ĠcalculÃ©":9296,"Ġindustriel":9297,"ĠÃ©pr":9298,"rions":9299,"Ġobserver":9300,"umÃ©e":9301,"Ġobst":9302,"ĠThÃ©":9303,"ication":9304,"Ġdiplom":9305,"Ġrendent":9306,"ĠfrontiÃ¨res":9307,"Ġabsence":9308,"Ġsubli":9309,"Ġfuture":9310,"Ġmobilisation":9311,"uyant":9312,"Ġpoliciers":9313,"ageux":9314,"ĠSan":9315,"ĠbÃ©nÃ©fices":9316,"ĠÃ©par":9317,"ĠVers":9318,"Ġdons":9319,"ĠgÃ©ographique":9320,"Ġchirurg":9321,"Ġreviens":9322,"to":9323,"Ġimplique":9324,"ĠillÃ©g":9325,"Ġofficiellement":9326,"Ġgastr":9327,"mblement":9328,"Ġcouples":9329,"ilde":9330,"Ġsupporter":9331,"Ġappartements":9332,"ĠsÃ©rieusement":9333,"ĠnÃ©gociations":9334,"Ã§ait":9335,"onnÃ©es":9336,"Ġprovoquer":9337,"ĠcuriositÃ©":9338,"Ġconsommateur":9339,"ureau":9340,"Ġbritannique":9341,"ĠÃ©vÃ¨nement":9342,"oyÃ©":9343,"Ġtrompe":9344,"Ġinfir":9345,"Ġpopulaires":9346,"ĠBretagne":9347,"ĠindÃ©pendante":9348,"ype":9349,"ĠapparaÃ®tre":9350,"Ġconseillers":9351,"ĠDirection":9352,"aband":9353,"intÃ©grer":9354,"vais":9355,"ĠtraÃ®":9356,"ĠÃ©levÃ©e":9357,"opport":9358,"Ġhoraire":9359,"ĠquÃ©bÃ©c":9360,"Ġacqu":9361,"Ġarme":9362,"Ġrapides":9363,"ĠpassionnÃ©s":9364,"Imp":9365,"ouff":9366,"Ġdiscrimin":9367,"ĠtÃ©lÃ©chargement":9368,"Ġgaranties":9369,"ĠprofitÃ©":9370,"ographe":9371,"ĠNorm":9372,"Ġcouvrir":9373,"arn":9374,"Ġinitiatives":9375,"Ġaigu":9376,"Accueil":9377,"ello":9378,"Ġtiendra":9379,"Ġmeurt":9380,"ĠPhilippe":9381,"Ġalternative":9382,"aimerai":9383,"ĠcrÃ©dits":9384,"Ġinformatiques":9385,"Concernant":9386,"ctivitÃ©":9387,"Ġassist":9388,"ĠJohn":9389,"oyant":9390,"77":9391,"Ġbe":9392,"ender":9393,"ĠPoli":9394,"ĠgÃ©nÃ©":9395,"ĠÃ¨":9396,"ĠÃ©vo":9397,"Ġnourrir":9398,"letter":9399,"Ġsacri":9400,"eterre":9401,"Ġliqu":9402,"Ġressort":9403,"Ġmiel":9404,"ĠconsÃ©cu":9405,"andre":9406,"Ġmax":9407,"ĠGouvernement":9408,"grÃ©s":9409,"Ġusagers":9410,"Ġavion":9411,"ĠparallÃ¨le":9412,"ĠrÃ©munÃ©ration":9413,"Dem":9414,"Ġinoubli":9415,"Ġsigner":9416,"Ġexercer":9417,"gÃ©rie":9418,"Ġintense":9419,"omÃ©t":9420,"assent":9421,"ĠrÃ©guliÃ¨re":9422,"ĠdÃ©monstr":9423,"Ġspaci":9424,"2016":9425,"ĠapportÃ©":9426,"ren":9427,"Ġdress":9428,"azz":9429,"tÃ©rieure":9430,"atin":9431,"Ġsanitaire":9432,"ĠingÃ©n":9433,"Ġambi":9434,"ison":9435,"Ġciter":9436,"AmÃ©rique":9437,"Parmi":9438,"ĠzÃ©ro":9439,"ĠBeaucoup":9440,"aman":9441,"otage":9442,"Ġcock":9443,"Ġadministrative":9444,"acteurs":9445,"65":9446,"ĠÃ©quipement":9447,"Ġparcour":9448,"employeur":9449,"uge":9450,"Ġinvestisseurs":9451,"Ġmilit":9452,"immobilier":9453,"Ġserons":9454,"ĠJeux":9455,"Ġgonf":9456,"Ġphotographe":9457,"gy":9458,"ĠengagÃ©":9459,"Chez":9460,"Ġadministratif":9461,"ĠLouis":9462,"atch":9463,"Ġvols":9464,"Ġconj":9465,"inverse":9466,"Ġbiologique":9467,"Ġlarmes":9468,"Ġautonome":9469,"migration":9470,"Ġcoco":9471,"ĠAttention":9472,"Ġportent":9473,"amitiÃ©":9474,"ĠVos":9475,"ĠCeux":9476,"Ġlinge":9477,"Ġpic":9478,"anda":9479,"Ġplainte":9480,"pection":9481,"âĢĭ":9482,"Ġessai":9483,"Ġaver":9484,"agnies":9485,"Ġboutons":9486,"essaie":9487,"ĠPDF":9488,"Ã©par":9489,"Ġindividuel":9490,"Ġbri":9491,"Ġhuman":9492,"Ġjustifier":9493,"fer":9494,"Ġdomes":9495,"texte":9496,"rien":9497,".-":9498,"Ġalg":9499,"ĠAllemagne":9500,"Ġparois":9501,"Ġparlant":9502,"Ġlumineux":9503,"Ġasc":9504,"Ġchoisis":9505,"ĠrÃ©alisations":9506,"Ġrendement":9507,"Ġgueule":9508,"ĠdÃ©fil":9509,"Ġconvainc":9510,"orant":9511,"Ġgain":9512,"Ġcorrect":9513,"ĠsynthÃ¨se":9514,"Ġtaxes":9515,"Ġverts":9516,"emplacement":9517,"Ġcaus":9518,"Ġpriori":9519,"orb":9520,"Ġdigne":9521,"expertise":9522,"aga":9523,"ĠSÃ©curitÃ©":9524,"ĠÃ©lÃ¨ve":9525,"Ġtuy":9526,"Ġrefuse":9527,"Sous":9528,"Ġprote":9529,"ĠintÃ©ressÃ©s":9530,"dont":9531,"Ġjui":9532,"Ġinclu":9533,"Ġcle":9534,"ĠSainte":9535,"uÃ©":9536,"Ġdocumentaire":9537,"itez":9538,"Ġconducteur":9539,"Ġadministratives":9540,"ory":9541,"Ġtherm":9542,"AGE":9543,"Ġcommiss":9544,"ĠunitÃ©s":9545,"allais":9546,"acts":9547,"Ġexpositions":9548,"amis":9549,"ĠrestÃ©":9550,"ĠOh":9551,"ĠVol":9552,"ĠenregistrÃ©":9553,"Ġtres":9554,"ĠÃ©tais":9555,"Ġapprofon":9556,"Ġsouffrance":9557,"ĠbactÃ©ri":9558,"ĠdÃ©tendre":9559,"Ġincom":9560,"ĠpoÃªle":9561,"explique":9562,"uez":9563,"Ġferais":9564,"Ã©rÃ©es":9565,"ĠParmi":9566,"images":9567,"Ġmaquillage":9568,"Ġthermique":9569,"ĠAlex":9570,"ĠEs":9571,"ĠÃ©preuve":9572,"ĠDou":9573,"Ġsanction":9574,"ĠmÃ¨ne":9575,"Ġjuridiques":9576,"Ġpeuples":9577,"vin":9578,"ĠscÃ¨nes":9579,"romp":9580,"Ġforums":9581,"ĠÃ©volutions":9582,"Ġadore":9583,"Ġcorriger":9584,"vence":9585,"outube":9586,"eth":9587,"ĠdÃ©clin":9588,"anniversaire":9589,"Ġ700":9590,"affichage":9591,"Ġ47":9592,"ĠServices":9593,"Ceci":9594,"Ġcahier":9595,"orations":9596,"visible":9597,"ĠentraÃ®ner":9598,"tible":9599,"Ġcercle":9600,"ĠDÃ©partement":9601,"Ġsecondaires":9602,"Ġsubir":9603,"Ġespagnol":9604,"ĠdÃ©lib":9605,"Ġcontemporain":9606,"Ġaventures":9607,"ĠregardÃ©":9608,"Ġprendra":9609,"ĠForum":9610,"Ġlibert":9611,"Ġcentaine":9612,"ulteurs":9613,"opie":9614,"origin":9615,"Ġtraduit":9616,"Ġparticul":9617,"videmment":9618,"judi":9619,"ronter":9620,"ĠvariÃ©s":9621,"Ġeut":9622,"trÃ¨s":9623,"Ġregardant":9624,"Ġtur":9625,"Ġfurent":9626,"itaine":9627,"Ġ1999":9628,"ouill":9629,"estres":9630,"Ġcourts":9631,"ĠdÃ©grad":9632,"Ġsir":9633,"Ġemplacement":9634,"Ġ180":9635,"ĠrÃ©gionale":9636,"ĠdÃ©mocratique":9637,"rom":9638,"ĠWC":9639,"othÃ©rapie":9640,"ĠPlusieurs":9641,"Ġfrancs":9642,"ĠprotÃ©ines":9643,"shirt":9644,"Ġmaximale":9645,"Ġsurv":9646,"ĠtouchÃ©":9647,"own":9648,"Ġhall":9649,"Ġ%.":9650,"ĠcÃ©lib":9651,"GE":9652,"Ġperspectives":9653,"berg":9654,"IV":9655,"Ġmobilier":9656,"ĠÃ©levÃ©s":9657,"Sujet":9658,"Ġinvestir":9659,"ĠDavid":9660,"versitÃ©":9661,"Ġservent":9662,"Ġcompagnies":9663,"ney":9664,"Ġdoul":9665,"Dis":9666,"ĠconstituÃ©":9667,"ĠÃ©lectroniques":9668,"endront":9669,"ĠÃ©valuer":9670,"ĠBal":9671,"vatoire":9672,"uns":9673,"ĠrÃ©flexions":9674,"Ã©couter":9675,"mois":9676,"Ã¢teaux":9677,"hÃ´tes":9678,"Ġnationaux":9679,"Ġsondage":9680,"ĠdegrÃ©s":9681,"Ġinex":9682,"Avez":9683,"angent":9684,"Ġcens":9685,"Ġ1990":9686,"Ġcomposants":9687,"Ġpratiquement":9688,"Ġplonge":9689,"Ġ43":9690,"ĠPrin":9691,"fense":9692,"sible":9693,"Ġjal":9694,"Ġsalaires":9695,"Ġhospit":9696,"ĠaugmentÃ©":9697,"Ġjury":9698,"ĠvÃ©tÃ©r":9699,"ĠICI":9700,"Ġeuro":9701,"bri":9702,"Cou":9703,"Ġdemandez":9704,"Ġ64":9705,"FR":9706,"Ġrechercher":9707,"Ġconcer":9708,"Ġtitulaire":9709,"Ġperturb":9710,"Ġpomp":9711,"Ġache":9712,"Ġha":9713,"ĠfÃ©dÃ©ral":9714,"Ġvigil":9715,"CT":9716,"ĠSurtout":9717,"Ġrespe":9718,"outils":9719,"teries":9720,"Ġrobots":9721,"olo":9722,"ĠToulouse":9723,"Ġhuiles":9724,"Ġvarier":9725,"atteindre":9726,"Ġoptimale":9727,"Ġrede":9728,"vid":9729,"OUT":9730,"Ġdys":9731,"Ġ2020":9732,"ĠÃ©tudier":9733,"Ġrespecte":9734,"Ġessentiels":9735,"Ġattirer":9736,"Form":9737,"ĠMoyen":9738,"ya":9739,"ĠdÃ©buter":9740,"Ġpaquet":9741,"horizon":9742,"Ġlistes":9743,"Ã§ants":9744,"Ġanalyses":9745,"urance":9746,"ĠFranÃ§aise":9747,"Ġvisualiser":9748,"ĠfidÃ¨le":9749,"ĠdÃ©cal":9750,"Ġdangere":9751,"ĠÃ©tats":9752,"erai":9753,"Ġbranche":9754,"Ġrelatifs":9755,"ĠEh":9756,"Ġcostu":9757,"accident":9758,"ĠNovembre":9759,"Ġais":9760,"Ã©preuve":9761,"ĠdÃ©lÃ©":9762,"ĠMondi":9763,"Ġofferts":9764,"ases":9765,"ĠHe":9766,"ĠâĻ¥":9767,"Ġcomprennent":9768,"Ġattaques":9769,"adoption":9770,"tisser":9771,"rict":9772,"Ġbusiness":9773,"accessi":9774,"sauf":9775,"umeurs":9776,"lantique":9777,"Ġsain":9778,"ĠprofondÃ©ment":9779,"Ġlune":9780,"Ġcamar":9781,"ĠmÃ©dicaux":9782,"Ġleaders":9783,"Ġradic":9784,"Ġbron":9785,"Ġsuisse":9786,"aucun":9787,"Ġdame":9788,"Ġvesti":9789,"Ġaffect":9790,"Ġengagements":9791,"oigner":9792,"____":9793,"Ġrejoint":9794,"ĠnumÃ©ros":9795,"Ġattendent":9796,"iteur":9797,"za":9798,"Allez":9799,"ĠTunis":9800,"59":9801,"???":9802,"Ġparagraphe":9803,"Ġstagi":9804,"ĠSN":9805,"dÃ©pendance":9806,"IX":9807,"Ġdessert":9808,"ĠthÃ©matiques":9809,"Ġhauts":9810,"ĠautorisÃ©":9811,"ĠvallÃ©e":9812,"Ġmultitude":9813,"ĠprÃ©sentÃ©e":9814,"Ġpsychologique":9815,"Ġintervient":9816,"Ġgarantit":9817,"ĠterminÃ©e":9818,"Ġsin":9819,"Ġlou":9820,"Ġpublications":9821,"Ġenn":9822,"\"...":9823,"Ġchal":9824,"Ġprovenant":9825,"ĠfiliÃ¨re":9826,"Ġsimilaire":9827,"ĠJournal":9828,"analy":9829,"Ġdevais":9830,"Ġverrez":9831,"ĠHoll":9832,"LÃł":9833,"Internet":9834,"Ġministres":9835,"ĠmatinÃ©e":9836,"Ġtendre":9837,"Ġcolon":9838,"Ġabus":9839,"ĠbÃ©ton":9840,"ĠMacron":9841,"orteur":9842,"ld":9843,"altitude":9844,"ĠrÃ©parer":9845,"ĠdelÃł":9846,"Eh":9847,"Ġcrimine":9848,"omper":9849,"Ġsauvage":9850,"Ġpenses":9851,"Ġgre":9852,"Ġtrouvait":9853,"apparition":9854,"Ġavocat":9855,"Ġmien":9856,"aiser":9857,"ji":9858,"emme":9859,"ĠisraÃ©li":9860,"ĠpÃ©dagogiques":9861,"Ġras":9862,"ĠprÃ©cÃ©dentes":9863,"ĠQuant":9864,"ertion":9865,"ava":9866,"Ġtric":9867,"ĠpriÃ¨re":9868,"Ġattir":9869,"Ġrentr":9870,"ĠSeptembre":9871,"Ġcouvre":9872,"ĠTrois":9873,"Ġconcentrer":9874,"Ġmout":9875,"Ġarbre":9876,"arez":9877,"nam":9878,"Ġ(+":9879,"uf":9880,"ĠrÃ©sist":9881,"Ġtailles":9882,"Ġand":9883,"Ġsurvie":9884,"ĠVenez":9885,"Ġpertes":9886,"entir":9887,"Ġml":9888,"ĠpassÃ©es":9889,"Ġsemi":9890,"Ġmusicale":9891,"Ġapparemment":9892,"Ġpassez":9893,"oom":9894,"Ġinterview":9895,"ennies":9896,"Ġgla":9897,"ĠchargÃ©e":9898,"Ġreconnue":9899,"ĠÃ©mission":9900,"ĠdÃ©coup":9901,"Ġjouent":9902,"Ġuniversitaire":9903,"ĠaidÃ©":9904,"dÃ©jeuner":9905,"ĠrÃ©sister":9906,"avÃ¨re":9907,"Ġenthousias":9908,"ĠdÃ©sagrÃ©":9909,"Ġlivrer":9910,"ĠdÃ©range":9911,"Ġatteinte":9912,"rois":9913,"FF":9914,"Ġride":9915,"Ġmettez":9916,"influence":9917,"agisse":9918,"Ġcase":9919,"ĠpauvretÃ©":9920,"Ġmous":9921,"Ġcoqu":9922,"Ġcollections":9923,"ĠopÃ©rateurs":9924,"onnÃ©e":9925,"Ġimmeuble":9926,"Ġsages":9927,"ĠRec":9928,"Ġronde":9929,"Ġneur":9930,"ĠMinistre":9931,"accent":9932,"Ġpouvaient":9933,"ĠstabilitÃ©":9934,"lusions":9935,"ĠMis":9936,"ĠdÃ©cennies":9937,"Ġgouvern":9938,"Ġrenseignement":9939,"Ġformidable":9940,"Ġsymbole":9941,"Ġvalidation":9942,"49":9943,"ĠsÃ©n":9944,"estaur":9945,"Ã©nitÃ©":9946,"Ġpoign":9947,"Ã¨lement":9948,"hygiÃ¨ne":9949,"ĠcuillÃ¨re":9950,"Ġpun":9951,"Vos":9952,"ete":9953,"ĠcaractÃ¨res":9954,"Ġbaisser":9955,"ĠopportunitÃ©s":9956,"ĠdÃ©ploie":9957,"uten":9958,"Ġconcevoir":9959,"Ġserrure":9960,"Ġrelais":9961,"Ġpince":9962,"ĠdÃ©mÃ©nagement":9963,"tage":9964,"\\\\":9965,"Ġdue":9966,"ĠdÃ©roulement":9967,"Ġpassagers":9968,"Ġexterne":9969,"gles":9970,"ĠsÃ©curisÃ©":9971,"ĠdÃ©gust":9972,"ĠcÃ©lÃ©br":9973,"Ġhect":9974,"mirer":9975,"Ġcarton":9976,"UL":9977,"Ġadolescents":9978,"ams":9979,"ĠprÃ©sentÃ©es":9980,"Ġrecti":9981,"Ġroues":9982,"Ġpapiers":9983,"humiditÃ©":9984,"Ġstup":9985,"Ġgend":9986,"ĠÂ°":9987,"ussÃ©e":9988,"Ġgraisse":9989,"Ġsanitaires":9990,"Ġdisposez":9991,"ĠPalais":9992,"Ġhorm":9993,"Ġconstitution":9994,"glom":9995,"Ġurbain":9996,"Rendez":9997,"avi":9998,"fice":9999,"grÃ¨s":10000,"Ġpoil":10001,"menter":10002,"ĠSUR":10003,"Ġautor":10004,"Ġclic":10005,"Ã©conom":10006,"ĠmaÃ®triser":10007,"Ġens":10008,"Ġpourcent":10009,"Ġplai":10010,"Jeu":10011,"Exp":10012,"ĠdÃ©Ã§u":10013,"Ġ99":10014,"ĠguÃ¨re":10015,"vain":10016,"Ġsoigner":10017,"Ġlav":10018,"ĠÃ©chÃ©ant":10019,"Ġsachez":10020,"Ġhaine":10021,"Ġstable":10022,"Ġrigueur":10023,"ID":10024,"ĠdÃ©fic":10025,"apprÃ©cie":10026,"adress":10027,"cir":10028,"%)":10029,"Ġtenant":10030,"donc":10031,"box":10032,"Ġbor":10033,"Ġ56":10034,"ĠtuÃ©":10035,"Ġgrec":10036,"ĠsacrÃ©":10037,"Ġentourage":10038,"insertion":10039,"ouille":10040,"Ġtrent":10041,"2015":10042,"ao":10043,"Ġattente":10044,"Ġfout":10045,"Jusqu":10046,"Ġinterlocu":10047,"Ġmasque":10048,"ttes":10049,"Ġtechnologique":10050,"Ġ07":10051,"Ġvalider":10052,"ĠbÃ©bÃ©s":10053,"Ġcasque":10054,"Ġcong":10055,"ĠthÃ©matique":10056,"ĠVe":10057,"ĠMÃ©d":10058,"Ġtromp":10059,"Ġ72":10060,"Ġrayons":10061,"oivent":10062,"Ġcockt":10063,"Ã©diteur":10064,"Ġpomme":10065,"Ġfailli":10066,"INE":10067,"Ġauxquelles":10068,"Comb":10069,"obtention":10070,"Ġsaut":10071,"Ġbienfaits":10072,"ĠLin":10073,"TC":10074,"Ġenlever":10075,"mman":10076,"Ġfolie":10077,"ĠTravail":10078,"Ġtentative":10079,"TER":10080,"ultez":10081,"ĠtÃ©lÃ©phonique":10082,"Ġautonomie":10083,"Ġadresser":10084,"Ġinternes":10085,"Ġgren":10086,"ĠGÃ©nÃ©ral":10087,"Ġ66":10088,"onniers":10089,"ĠMÃ©":10090,"Ġmusulmans":10091,"bler":10092,"Ġintervenants":10093,"Ġmilieux":10094,"octobre":10095,"Ġveiller":10096,"ĠlibÃ©rer":10097,"ĠpostÃ©":10098,"ĠdÃ©marrer":10099,"Ã©clairage":10100,"42":10101,"isode":10102,"ĠCR":10103,"Ġentreten":10104,"Ġdiffuser":10105,"opping":10106,"Ġretours":10107,"85":10108,"Toujours":10109,"Ġsaurait":10110,"Quoi":10111,"ĠproblÃ©matiques":10112,"ĠconstatÃ©":10113,"Exc":10114,"Ġinfluence":10115,"Ã©vent":10116,"guer":10117,"Ġcarbone":10118,"identifier":10119,"ush":10120,"aum":10121,"ĠrÃ©partition":10122,"46":10123,"Ġcherchent":10124,"Ġsk":10125,"attendais":10126,"prits":10127,"Ġwi":10128,"Ġpique":10129,"ĠeffectuÃ©e":10130,"ĠTÃ©lÃ©":10131,"ĠespÃ©rons":10132,"ĠrÃ©fugiÃ©s":10133,"angers":10134,"pÃ¨re":10135,"istÃ©":10136,"ĠbÃ©nÃ©ficient":10137,"ĠAffaires":10138,"ĠparticuliÃ¨res":10139,"ĠintÃ©ressants":10140,"Ġdeme":10141,"Ġimprim":10142,"Ġmuscles":10143,"Ġrenouvellement":10144,"Ġstrictement":10145,"Ġretourne":10146,"ĠQUE":10147,"ĠDÃ©veloppement":10148,"onsoir":10149,"Ġbelge":10150,"ĠSous":10151,"Ġber":10152,"inquiÃ¨te":10153,"Ġfoc":10154,"Ġentrepreneurs":10155,"ĠTrump":10156,"fonction":10157,"Contr":10158,"ĠintÃ©ressantes":10159,"Ġcombats":10160,"ĠconsidÃ©rÃ©e":10161,"ombres":10162,"Ġventil":10163,"tionnellement":10164,"Ġ41":10165,"ĠentraÃ®ne":10166,"ĠCamp":10167,"ĠcheminÃ©e":10168,"Ã©gard":10169,"ĠrÃ©gl":10170,"aure":10171,"Ġuniques":10172,"isant":10173,"ĠarrivÃ©s":10174,"Ġmentale":10175,"ga":10176,"Ġfabriquer":10177,"ĠÃ©b":10178,"Ġaccus":10179,"appli":10180,"89":10181,"Ġinsuffis":10182,"Seu":10183,"uritÃ©":10184,"ye":10185,"Ġstations":10186,"animal":10187,"Ġcenti":10188,"Ġoptimiser":10189,"ĠBern":10190,"Ġsensibilisation":10191,"aurer":10192,"ĠGenÃ¨ve":10193,"ocÃ©an":10194,"ĠdotÃ©":10195,"ĠblessÃ©s":10196,"sive":10197,"Ġlibrement":10198,"Ġmarquer":10199,"Ġinfrastructures":10200,"ĠrÃ©vision":10201,"ĠEuropÃ©enne":10202,"ĠdÃ©cro":10203,"Ġcord":10204,"Ġmousse":10205,"ĠJacques":10206,"Ġenvah":10207,"oraires":10208,"Ġplaques":10209,"domad":10210,"Ġrappro":10211,"Ġfes":10212,"Ġbancaires":10213,"Ġlitres":10214,"avril":10215,"Ġprobable":10216,"ĠsÃ©rÃ©nitÃ©":10217,"Ġnulle":10218,"Ġok":10219,"uh":10220,"Ġcigare":10221,"Ġ1998":10222,"Ġretrouvent":10223,"html":10224,"ebdomad":10225,"Ġrecev":10226,"Ġbourse":10227,"oble":10228,"Ġcharte":10229,"Beaucoup":10230,"hÃ©rence":10231,"mpire":10232,"Ġtechnologiques":10233,"Ġsyndicats":10234,"fa":10235,"annage":10236,"Ġexerc":10237,"sy":10238,"Pourtant":10239,"accompagner":10240,"ĠinfÃ©rieur":10241,"Ġnettement":10242,"Ġtrous":10243,"Face":10244,"ĠguÃ©r":10245,"droid":10246,"ĠAfin":10247,"quante":10248,"extrÃªme":10249,"Ġcoins":10250,"âĤ¬.":10251,"oxyd":10252,"ĠCV":10253,"Ã©tablir":10254,"mÃ©es":10255,"eme":10256,"Ġfiltre":10257,"impose":10258,"invent":10259,"Ġdebout":10260,"feuille":10261,"Ġrock":10262,"trage":10263,"Coucou":10264,"ĠGÃ©nÃ©rale":10265,"ĠdÃ©roulera":10266,"Ġconvaincu":10267,"Ġanne":10268,"ĠmenÃ©":10269,"Ġdissi":10270,"lÃ¨te":10271,"Ġvolets":10272,"Ġculturels":10273,"Ã©dez":10274,"Ġsaveurs":10275,"Ġscru":10276,"Ġoccupe":10277,"Ġludique":10278,"ĠconsacrÃ©e":10279,"Ġdite":10280,"ĠÃ®le":10281,"CC":10282,"ĠSup":10283,"landais":10284,"hou":10285,"ĠPlace":10286,"Ġlas":10287,"aby":10288,"ĠCi":10289,"Ġorigines":10290,"Ġcomport":10291,"ĠplongÃ©e":10292,"Ġannoncer":10293,"Ġfir":10294,"ĠrÃ©cupÃ©ration":10295,"Ġracc":10296,"Ġpersu":10297,"ĠsituÃ©s":10298,"Ġinstrument":10299,"Ġrecon":10300,"ft":10301,"Ġtiennent":10302,"Ġcouches":10303,"Ġ52":10304,"Ġmerde":10305,"ĠrÃ©frigÃ©rateur":10306,"assage":10307,"Ġunes":10308,"atÃ©ri":10309,"Ġtabac":10310,"ĠdÃ©posÃ©":10311,"III":10312,"ĠcosmÃ©":10313,"Ġfiscal":10314,"Ġjournaux":10315,"Ġprit":10316,"Ġmilliard":10317,"Ġmarchandises":10318,"obe":10319,"Ġoccuper":10320,"Ġpromenade":10321,"Ã¨gne":10322,"roge":10323,"Ġmait":10324,"IA":10325,"Ġcolonne":10326,"ĠorganisÃ©es":10327,"ĠQuels":10328,"tip":10329,"acel":10330,"Ġhau":10331,"ĠempÃª":10332,"Ġsurfaces":10333,"rame":10334,"Ġpanneau":10335,"crivez":10336,"Ġscore":10337,"Ġom":10338,"Ġcommuns":10339,"ĠÃ©crits":10340,"Ġapplicables":10341,"Ġfrustr":10342,"ĠindÃ©pendants":10343,"Ġinse":10344,"ĠpubliÃ©s":10345,"organ":10346,"ĠamenÃ©":10347,"Ġcarnet":10348,"ĠAllez":10349,"ala":10350,"Ġsuperbes":10351,"utÃ©e":10352,"Ã©taires":10353,"otter":10354,"Der":10355,"Ġgarantiss":10356,"Ġcorpore":10357,"ĠcongrÃ¨s":10358,"ĠÃ©chelle":10359,"ĠÃ©clat":10360,"amille":10361,"ĠtirÃ©":10362,"76":10363,"ĠprÃ©cises":10364,"ĠDVD":10365,"Ġpoulet":10366,"agnÃ©e":10367,"parole":10368,"Ġconstamment":10369,"Ġrapproche":10370,"Ġpositions":10371,"Ġvoler":10372,"ĠdÃ©barrasser":10373,"Ġparcourir":10374,"Ġlum":10375,"ĠrÃ©du":10376,"ĠcrÃ©di":10377,"ĠLo":10378,"Aussi":10379,"ĠNantes":10380,"ĠJanvier":10381,"ĠrÃ©pondant":10382,"ĠpoÃ©sie":10383,"Ġexprimer":10384,"Ġfous":10385,"Ġverser":10386,"Ã©rations":10387,"ĠcondamnÃ©":10388,"Ġplaire":10389,"pirer":10390,"Ġweekend":10391,"Ġcompagnon":10392,"ĠProfes":10393,"nec":10394,"''":10395,"Ġvarie":10396,"ĠlÃ©gales":10397,"TÃ©lÃ©":10398,"Ġbouge":10399,"ĠdÃ©mÃ©n":10400,"Ġ54":10401,"arbre":10402,"Per":10403,"miers":10404,"Ġcommunautaire":10405,"Ġconcernent":10406,"ffÃ©r":10407,"Ġsols":10408,"atar":10409,"Ġactuels":10410,"ĠperÃ§":10411,"tech":10412,"ĠconcernÃ©es":10413,"liance":10414,"rira":10415,"Ġrespectant":10416,"aha":10417,"Ġrouler":10418,"Ġtasse":10419,"noc":10420,"ĠMaur":10421,"Ġafficher":10422,"Ġtopic":10423,"Inter":10424,"Ġcherch":10425,"Ġconclure":10426,"nÃ©r":10427,"Ġdil":10428,"Ġprovin":10429,"opinion":10430,"ĠprÃ©visions":10431,"Ġactuelles":10432,"Ġcommunications":10433,"Ġsauter":10434,"ĠrÃ©gul":10435,"Ġstationnement":10436,"ĠArt":10437,"Ġtypique":10438,"ĠdisparaÃ®tre":10439,"ĠBle":10440,"Ġadapter":10441,"page":10442,"Ġremarquable":10443,"ita":10444,"ĠrÃ©pand":10445,"infr":10446,"ĠacquÃ©rir":10447,"ubliÃ©":10448,"oublie":10449,"Ġenqu":10450,"ĠdÃ©fauts":10451,"autor":10452,"Ġattent":10453,"orÃ©es":10454,"uivre":10455,"Ġdevriez":10456,"ĠlibertÃ©s":10457,"Ġchauffer":10458,"Ġchic":10459,"ĠÃ¢gÃ©":10460,"Ġremarques":10461,"http":10462,"Ġnoirs":10463,"Ġreportage":10464,"ĠestimÃ©":10465,"ĠCG":10466,"ĠvotÃ©":10467,"Ġpermanent":10468,"Ġvendus":10469,"ĠInstagram":10470,"ĠdÃ©partements":10471,"Ġmariti":10472,"Ġcoordination":10473,"reurs":10474,"isent":10475,"Orient":10476,"ĠJusqu":10477,"ĠÃ¢gÃ©s":10478,"ĠmystÃ©ri":10479,"ĠFer":10480,"hib":10481,"ool":10482,"Ã®t":10483,"ĠDirecteur":10484,"No":10485,"ĠprÃ©judi":10486,"ĠSamedi":10487,"ĠQuoi":10488,"Ġtemporaire":10489,"Ġsculpt":10490,"Ġsaine":10491,"Ġmiroir":10492,"Ġserre":10493,"ĠAccueil":10494,"Ġ78":10495,"drome":10496,"ditation":10497,"Ġq":10498,"ĠJournÃ©e":10499,"Ġpseudo":10500,"ĠCertaines":10501,"Ġsouri":10502,"ĠconcernÃ©":10503,"Ġsusceptible":10504,"odeur":10505,"Ġenrich":10506,"Ġagent":10507,"ĠLui":10508,"Ġconjoint":10509,"El":10510,"Ġactiver":10511,"ieuse":10512,"Ġcombattre":10513,"Ġconseillons":10514,"ĠrÃ©cent":10515,"Veuillez":10516,"Ã©tend":10517,"Vi":10518,"Ġ68":10519,"ĠBravo":10520,"lines":10521,"ĠcongÃ©":10522,"Ġaccueilli":10523,"OÃ¹":10524,"Ġmu":10525,"ĠJuillet":10526,"Ġrobot":10527,"rÃ©sil":10528,"Saint":10529,"Ġdocumentation":10530,"Ġinstruments":10531,"Ġcasserole":10532,"ĠBre":10533,"Ġjouets":10534,"Ġblessures":10535,"Ġkilos":10536,"interrog":10537,"Ġaccords":10538,"ĠdÃ©finitive":10539,"Ġprofils":10540,"Ġcombinaison":10541,"ĠdÃ©clare":10542,"Ġfrig":10543,"ĠOctobre":10544,"Ġconsacrer":10545,"Ġgolf":10546,"Ġhoriz":10547,"guÃ©s":10548,"Ġsuivie":10549,"ĠcoopÃ©r":10550,"essence":10551,"dium":10552,"inage":10553,"ĠMP":10554,"Ġcriti":10555,"ffement":10556,"ĠCliquez":10557,"enri":10558,"Office":10559,"trÃ©e":10560,"ĠunitÃ©":10561,"Ġdestruction":10562,"ĠÃ©valuation":10563,"Ġsensations":10564,"ĠHeureusement":10565,"Ġbouteilles":10566,"Ġarchives":10567,"Ġfavorise":10568,"Ġlargeur":10569,"Bravo":10570,"voire":10571,"ĠMalheureusement":10572,"ĠrÃ©serves":10573,"Ġmineurs":10574,"Ġqueue":10575,"Ġtic":10576,"rigue":10577,"ĠespÃ¨re":10578,"Ã©cart":10579,"Ġtoilette":10580,"Ġestiv":10581,"Ġquinze":10582,"Ġphotographies":10583,"Ġharmonie":10584,"adapte":10585,"Ġsouffre":10586,"ĠSA":10587,"ision":10588,"ĠespÃ©rer":10589,"ĠRes":10590,"ĠimprÃ©":10591,"ĠprotÃ©gÃ©e":10592,"Ġoccasions":10593,"Ġchallenge":10594,"Ġbateaux":10595,"Ġcontinuent":10596,"endes":10597,"ray":10598,"ĠconvivialitÃ©":10599,"ulÃ©s":10600,"ĠprÃ©con":10601,"Ġorigine":10602,"Ġconcurrents":10603,"inq":10604,"bal":10605,"telier":10606,"illÃ©s":10607,"illons":10608,"Ġfame":10609,"Ġinstants":10610,"Ġimmobiliers":10611,"ĠDÃ©cembre":10612,"Ġcanal":10613,"Ġcrime":10614,"Ġprovo":10615,"erse":10616,"ĠaffirmÃ©":10617,"oisissez":10618,"Ġsuperficie":10619,"Ġreconnaiss":10620,"riment":10621,"Ġpension":10622,"Ġavouer":10623,"Ġmusiciens":10624,"observation":10625,"Ġbomb":10626,"Ġregistre":10627,"ĠUSA":10628,"ĠÃ©lar":10629,"Bas":10630,"imie":10631,"Ã¨gre":10632,"opter":10633,"ĠprÃ©cÃ©dents":10634,"DS":10635,"petit":10636,"Ġprovis":10637,"ĠOÃ¹":10638,"ĠgÃ©ant":10639,"ĠBur":10640,"Ġ59":10641,"CA":10642,"mper":10643,"ĠrÃ©pondent":10644,"ĠRÃ©union":10645,"ĠEc":10646,"ĠdÃ©licate":10647,"ĠcontrÃ´les":10648,"entrepreneur":10649,"ĠintitulÃ©":10650,"ĠnÃ©cessairement":10651,"ĠsensibilitÃ©":10652,"ĠdestinÃ©es":10653,"Ġoeuvres":10654,"ĠhÃ©ber":10655,"Ġromans":10656,"Ġgam":10657,"Ġexamens":10658,"ĠRP":10659,"Ġclavier":10660,"urÃ©s":10661,"ĠHum":10662,"chat":10663,"ignons":10664,"Ġinstructions":10665,"ĠsÃ©cher":10666,"47":10667,"ĠmÃª":10668,"tendez":10669,"Lorsqu":10670,"Ġsauvegarde":10671,"rip":10672,"ĠsoulignÃ©":10673,"Ġpassages":10674,"Durant":10675,"Ġmigrants":10676,"ĠÃ®les":10677,"ĠsÃ©lectionnÃ©":10678,"Ġurbaine":10679,"Ġattitude":10680,"ĠajoutÃ©e":10681,"onfort":10682,"Ġindividuelles":10683,"ONU":10684,"Ġaspir":10685,"opportunitÃ©":10686,"Ġmn":10687,"Ġlogistique":10688,"vateur":10689,"Ġspati":10690,"cipation":10691,"Ġpalais":10692,"Ġartic":10693,"Ġsoigne":10694,"ĠLux":10695,"Ġtechniciens":10696,"Ġrapporte":10697,"ĠcrÃ©ateurs":10698,"ĠAnd":10699,"aucune":10700,"Ġtennis":10701,"ĠfÃ©minin":10702,"Ġimplant":10703,"ints":10704,"Ġfonctionnaires":10705,"ĠMA":10706,"enseur":10707,"Ã¼":10708,"ĠchaÃ®nes":10709,"ĠrÃ©unir":10710,"liques":10711,"ĠrÃ©ci":10712,"otiques":10713,"Ġaxes":10714,"Ġabonnement":10715,"tiste":10716,"ONT":10717,"eloppe":10718,"Ġballe":10719,"ĠYou":10720,"Ġmultipli":10721,"Ġsalade":10722,"rÃ¨s":10723,"ĠhiÃ©r":10724,"Ġconstructeur":10725,"ĠclassÃ©":10726,"Ġnewsletter":10727,"Ġpantal":10728,"ignes":10729,"Ġtat":10730,"aÃ§ant":10731,"Ġglisser":10732,"inÃ©a":10733,"Ġcave":10734,"ĠÃ©ducation":10735,"Ġharc":10736,"Ġsolidaire":10737,"Pos":10738,"ĠMarc":10739,"ĠSciences":10740,"Ġcoffre":10741,"Ġsuivez":10742,"Ġdict":10743,"Ġfoie":10744,"Ġusages":10745,"Ġoccasi":10746,"Ġsuggestions":10747,"Ġpossession":10748,"ĠSc":10749,"Ġsons":10750,"ĠpÃ©riph":10751,"ĠclÃ´ture":10752,"Ġmanuel":10753,"ĠvulnÃ©r":10754,"Ġbleue":10755,"Ġphrases":10756,"Ġseuil":10757,"ĠEss":10758,"ste":10759,"sif":10760,"ĠdÃ©crire":10761,"Ġtomates":10762,"Ġtrentaine":10763,"ĠcherchÃ©":10764,"identification":10765,"kg":10766,"Ġfournis":10767,"Toutefois":10768,"ĠCA":10769,"ĠchÃ¢":10770,"ĠRD":10771,"ĠnÃ©gatif":10772,"arry":10773,"Ġcorrespondent":10774,"ĠLab":10775,"Ġparisienne":10776,"Ġanalyser":10777,"Ġcouteau":10778,"Ġoblige":10779,"Ġviendra":10780,"ĠeffectuÃ©s":10781,"escal":10782,"2014":10783,"teste":10784,"ILLE":10785,"ĠengagÃ©e":10786,"ĠforÃªts":10787,"achez":10788,"dÃ©l":10789,"Trois":10790,"Ġvapeur":10791,"Ġfutures":10792,"oises":10793,"Ġressentir":10794,"ĠhÃ©r":10795,"ĠinfÃ©rieure":10796,"Ġpilotes":10797,"Ġsouhaitant":10798,"Ġperm":10799,"Ġsouver":10800,"iz":10801,"ĠPME":10802,"Ġsoulig":10803,"ĠSalle":10804,"ĠdÃ©sert":10805,"ĠAN":10806,"EM":10807,"Ġrestre":10808,"Ġrassure":10809,"sieurs":10810,"Ġesprits":10811,"hh":10812,"Ġrot":10813,"Ġcardiaque":10814,"harm":10815,"ĠprÃ©fÃ©rÃ©e":10816,"Ġvisibles":10817,"Samedi":10818,"Ġincomp":10819,"Ġballon":10820,"Ġserveurs":10821,"bar":10822,"Ġvisuel":10823,"ĠanimÃ©":10824,"ĠCommunautÃ©":10825,"ĠcÃ¢ble":10826,"avre":10827,"Ġmate":10828,"orges":10829,"jeurs":10830,"ĠBureau":10831,"ĠpassionnÃ©":10832,"Ġbuts":10833,"Ġpourcentage":10834,"Ġconsole":10835,"lip":10836,"etnam":10837,"Ġtraditionnels":10838,"ĠnÃ©gociation":10839,"Ġroulant":10840,"Ġ!).":10841,"ĠAucun":10842,"........":10843,"Ġparcs":10844,"Ġath":10845,"chaussÃ©e":10846,"adame":10847,"ĠCath":10848,"Ġacier":10849,"uu":10850,"Ġchaise":10851,"gure":10852,"Ġartistiques":10853,"Ġbulletin":10854,"rÃ©g":10855,"quants":10856,"enis":10857,"Ġaccum":10858,"ĠdiabÃ¨te":10859,"ĠempÃªche":10860,"Ġlentement":10861,"ĠÃ©th":10862,"ĠQuelles":10863,"Ġamoureuse":10864,"Ġnuis":10865,"ĠÅĵufs":10866,"Ġaddi":10867,"ĠâĤ¬.":10868,"itch":10869,"Ġsoumettre":10870,"Ġoeufs":10871,"Ġvariable":10872,"uisine":10873,"ĠmaÃ®tres":10874,"Ã©tape":10875,"ĠNÃ©anmoins":10876,"Ġfeux":10877,"onnier":10878,"Ġvolant":10879,"nelles":10880,"ĠLuc":10881,"Ġ58":10882,"otos":10883,"ĠrÃ©pertoire":10884,"ark":10885,"Ġrenforcement":10886,"itoy":10887,"ĠrÃ©gulier":10888,"Ġbug":10889,"Ġmodern":10890,"ĠâĢĿ":10891,"mÃ¨tre":10892,"attache":10893,"Ġvieilles":10894,"Ġrecherchez":10895,"indÃ©pendance":10896,"rac":10897,"Ġaccepte":10898,"Ġgrandi":10899,"Ġconsentement":10900,"Ġ?)":10901,"Ġdoutes":10902,"Ã¨glement":10903,"ĠlivrÃ©":10904,"Ã©limin":10905,"Ġhectares":10906,"isses":10907,"ĠsÃ©paration":10908,"eubles":10909,"Ġsurveiller":10910,"ĠprivilÃ©giÃ©":10911,"entends":10912,"Ġsubstances":10913,"heim":10914,"intÃ©gralitÃ©":10915,"Ġitalien":10916,"66":10917,"ĠmÃ©thod":10918,"ish":10919,"Ġsouffrir":10920,"Ġtexture":10921,"ĠprioritÃ©s":10922,"Ġcog":10923,"bou":10924,"ĠÃ©ditions":10925,"Ġauthentique":10926,"ĠcohÃ©r":10927,"ĠspÃ©cific":10928,"Ġfrapp":10929,"ĠgÃ©nie":10930,"FA":10931,"Ã©tage":10932,"Ġvolontaire":10933,"Val":10934,"igh":10935,"ĠoccupÃ©":10936,"Ġspectateurs":10937,"Ġpuissiez":10938,"anÃ©e":10939,"Ġintro":10940,"Ġisol":10941,"quemment":10942,"Ġhabituellement":10943,"ĠST":10944,"ĠfÃ©ri":10945,"Ġverd":10946,"ANCE":10947,"Ġintelli":10948,"mÃ¨tres":10949,"ĠDimanche":10950,"ĠBrÃ©sil":10951,"ĠPR":10952,"ctuellement":10953,"chement":10954,"posÃ©":10955,"ennetÃ©":10956,"Ġexpression":10957,"Ġmodules":10958,"Ġretenu":10959,"ĠÃ§Ãł":10960,"investir":10961,"41":10962,"ĠrÃ©gal":10963,"Ġsimilaires":10964,"Ġexcessi":10965,"Ġ1980":10966,"Ġguilde":10967,"ĠrÃ©unis":10968,"heures":10969,"Vu":10970,"ĠdÃ©putÃ©":10971,"blog":10972,"Ġremercions":10973,"pire":10974,"Ġarrondissement":10975,"ĠsÃ©rieuse":10976,"Ġfabricant":10977,"ycl":10978,"ulsion":10979,"ĠhiÃ©rarch":10980,"ĠGestion":10981,"ĠgÃ©nÃ©rer":10982,"Ġchoisie":10983,"ulter":10984,"ERS":10985,"ael":10986,"Ġrestait":10987,"ĠrÃ©vÃ©ler":10988,"Ġsanctions":10989,"ĠgÃ®te":10990,"Ãīglise":10991,"Ġennemis":10992,"ĠsÃ©jours":10993,"ĠmaniÃ¨res":10994,"nels":10995,"itÃ©es":10996,"ĠLoire":10997,"ĠdÃ©clarations":10998,"Ġclimatiques":10999,"Ã´tÃ©":11000,"Ġconvivial":11001,"ĠpossÃ©d":11002,"Ġsocio":11003,"ĠposÃ©e":11004,"Arr":11005,"Ġfaisais":11006,"rosoft":11007,"cade":11008,"Ġarguments":11009,"Ġstyles":11010,"Ġlaissent":11011,"ĠlÃ¢cher":11012,"Ġtranche":11013,"ĠNice":11014,"ĠChÃ¢teau":11015,"ĠJack":11016,"Ġsurn":11017,"Ġcroix":11018,"ibilitÃ©":11019,"accepter":11020,"iÃ¨res":11021,"sier":11022,"Ġchirurgie":11023,"Ġopinion":11024,"oreille":11025,"ĠÃ©pouse":11026,"ĠfondÃ©e":11027,"ĠÃ©tonnant":11028,"rÃ¨te":11029,"Ġinitiale":11030,"ĠCP":11031,"ĠAvril":11032,"ĠspÃ©ciales":11033,"ĠquantitÃ©s":11034,"mmanuel":11035,"Ġindiquant":11036,"Ġpoit":11037,"ĠGren":11038,"ĠmystÃ¨re":11039,"ĠpersonnalitÃ©s":11040,"ĠqualifiÃ©":11041,"assez":11042,"Ġdescendre":11043,"isponible":11044,"Ġplateformes":11045,"Ġcarre":11046,"ator":11047,"Ġfantastique":11048,"istan":11049,"guÃ©e":11050,"ĠlÃ©gal":11051,"AND":11052,"ĠMy":11053,"Ġfondamentaux":11054,"Ġmusulman":11055,"Ġfile":11056,"iÃ©":11057,"Ġpotentiels":11058,"ĠSim":11059,"ĠprotÃ¨ge":11060,"ĠrÃ©sidents":11061,"ĠJeunes":11062,"Ġcopine":11063,"92":11064,"Ġcatastrophe":11065,"EC":11066,"ĠPers":11067,"ĠcollÃ¨gue":11068,"adhÃ©sion":11069,"enue":11070,"Ġcouture":11071,"axe":11072,"Ġlocataire":11073,"ĠÃ©crans":11074,"ĠrefusÃ©":11075,"Ġpattes":11076,"Ġaveu":11077,"Ġlibrai":11078,"Ã©mer":11079,"formations":11080,"ĠRel":11081,"ĠengagÃ©s":11082,"Combien":11083,"appeler":11084,"raiment":11085,"Ġ=)":11086,"Ġcroyez":11087,"ĠtÃªtes":11088,"Ġallemande":11089,"ĠtraitÃ©s":11090,"Ġapplicable":11091,"individu":11092,"ĠdÃ©fend":11093,"ĠdÃ©buts":11094,"Ġteint":11095,"Ġcorrection":11096,"ĠpersonnalisÃ©e":11097,"Ġmassif":11098,"Ġjob":11099,"Ġcopropri":11100,"ĠPap":11101,"Ġenle":11102,"ĠinconvÃ©ni":11103,"Ãīt":11104,"Ġstatuts":11105,"inos":11106,"Ġfri":11107,"Ġspont":11108,"ombr":11109,"Ġmg":11110,"tilles":11111,"ĠmatÃ©riau":11112,"Ġrendue":11113,"Ġinterdite":11114,"ajout":11115,"Ġorganisateurs":11116,"Ġespoir":11117,"ï»":11118,"ĠspÃ©ciaux":11119,"ĠdÃ©marrage":11120,"ĠavancÃ©es":11121,"ĠVOUS":11122,"cript":11123,"ĠdÃ©truire":11124,"Ġtromper":11125,"Ġcotisations":11126,"eil":11127,"Ġparticipent":11128,"atine":11129,"joutez":11130,"Ġplanche":11131,"Ã©couvrir":11132,"Ġtenues":11133,"Mettre":11134,"omberie":11135,"gle":11136,"Ġ57":11137,"ï»¿":11138,"ĠlittÃ©raire":11139,"Ġassistance":11140,"Ġmajeurs":11141,"Organisation":11142,"Ġvalide":11143,"Ġbaignoire":11144,"pose":11145,"Ġofficiels":11146,"ĠXV":11147,"Ġconfection":11148,"Ġdram":11149,"emmes":11150,"office":11151,"itage":11152,"ĠÃ©trangÃ¨re":11153,"espons":11154,"ĠsystÃ©matiquement":11155,"Ġaband":11156,"Ġranger":11157,"ĠclichÃ©s":11158,"Ġtristes":11159,"Ġenvoie":11160,"Ġly":11161,"ĠaccÃ©l":11162,"Ġmaux":11163,"Ġplombier":11164,"Ġcroise":11165,"Ġpartielle":11166,"avent":11167,"Ġappuy":11168,"ortÃ©es":11169,"rop":11170,"ĠQU":11171,"Ġsatisfais":11172,"Ġcharger":11173,"Ġaccidents":11174,"Ġvernis":11175,"Ġissu":11176,"endi":11177,"ĠrappelÃ©":11178,"ĠBlanc":11179,"ĠrÃ©gionales":11180,"Ġbrevet":11181,"Ġexplorer":11182,"rale":11183,"Ġgraphiques":11184,"Ġdevenus":11185,"ĠnÃ©glige":11186,"Ġvolontaires":11187,"Ġvive":11188,"Ġboisson":11189,"asbourg":11190,"Sp":11191,"Ġlinguis":11192,"Ġapparaissent":11193,"Ġexhaus":11194,"Ġfactures":11195,"ĠApple":11196,"ider":11197,"ĠArts":11198,"Ġfauteuil":11199,"Ġgouvernements":11200,"Ġagit":11201,"Ġformules":11202,"ĠopportunitÃ©":11203,"Ġentrain":11204,"ĠconsidÃ©ration":11205,"ĠappelÃ©e":11206,"Ġsoutenu":11207,"sa":11208,"Ġurg":11209,"onnant":11210,"ĠschÃ©ma":11211,"inez":11212,"ĠconsidÃ©rablement":11213,"Ġflu":11214,"Ġterrorisme":11215,"Ġtue":11216,"rise":11217,"Ġbracel":11218,"Ġayez":11219,"Ġcruci":11220,"ĠGre":11221,"Ġvirtuelle":11222,"ĠÃ©paules":11223,"Ġhebdomad":11224,"Ġprofessionnalisme":11225,"ĠlÃ©gitime":11226,"ĠHer":11227,"Ġsalut":11228,"vants":11229,"objets":11230,"Ã©changes":11231,"Ġexistence":11232,"ĠrÃ©uni":11233,"Ġhabitude":11234,"Ġmaroc":11235,"Ġsonore":11236,"Ġstre":11237,"Ġrequis":11238,"Ġflash":11239,"Ġrendus":11240,"unique":11241,"ĠvÃ©rification":11242,"ĠrÃ©side":11243,"orld":11244,"Ã©chec":11245,"43":11246,"Ġsoutient":11247,"Ġsaint":11248,"ank":11249,"irer":11250,"ĠdÃ©lÃ©gation":11251,"Ġgagnant":11252,"ĠAR":11253,"aoÃ»t":11254,"Ġtransporter":11255,"avocat":11256,"ardez":11257,"ĠvÃ©los":11258,"extension":11259,"ĠCongrÃ¨s":11260,"ĠtournÃ©":11261,"Ġremonte":11262,"ouc":11263,"ĠUnivers":11264,"Ġfacebook":11265,"oriste":11266,"ĠhandicapÃ©es":11267,"cf":11268,"soit":11269,"Ġpop":11270,"ĠSU":11271,"Ġfautes":11272,"ĠtÃ©moins":11273,"ull":11274,"Ġdivision":11275,"Ġrendant":11276,"dÃ©al":11277,"Ġlaine":11278,"ĠSauf":11279,"Ġtraverser":11280,"ĠrelevÃ©":11281,"lui":11282,"Ġtensions":11283,"Ġcanc":11284,"Ġoptique":11285,"Mich":11286,"ĠconcrÃ©":11287,"Ġconclusions":11288,"Ġ140":11289,"livier":11290,"Ġtravaillant":11291,"intermÃ©diaire":11292,"Ġ53":11293,"dd":11294,"indique":11295,"Ġ1997":11296,"Ġvertic":11297,"Ġfondre":11298,"ee":11299,"ĠpossÃ¨dent":11300,"inant":11301,"armer":11302,"sal":11303,"Ġtrag":11304,"Ġdieu":11305,"Ġnourr":11306,"Ġrangement":11307,"Ġdiriger":11308,"Ġimpatience":11309,"ĠlibÃ©ration":11310,"Ġmental":11311,"ĠlÃ¨ve":11312,"ĠfiabilitÃ©":11313,"interface":11314,"ĠMax":11315,"Italie":11316,"oz":11317,"aigne":11318,"Ġpard":11319,"ty":11320,"Ġrace":11321,"Ã©lÃ©ments":11322,"antaine":11323,"ĠÃ©gal":11324,"Ġphases":11325,"Ġsentiers":11326,"Ġ51":11327,"ED":11328,"Ġmienne":11329,"ĠmathÃ©matiques":11330,"Ġaborder":11331,"ĠdÃ©taillÃ©":11332,"67":11333,"Ġbiodi":11334,"ĠcommandÃ©":11335,"88":11336,"Ġinoubliable":11337,"Ġgentillesse":11338,"Profitez":11339,"Ġenfer":11340,"formÃ©ment":11341,"2013":11342,"Ġmignon":11343,"atmosphÃ¨re":11344,"Ġsere":11345,"ĠmÃ©canismes":11346,"Ġclos":11347,"ĠDer":11348,"Ses":11349,"experts":11350,"ĠPal":11351,"ĠSÃ©nat":11352,"fond":11353,"ĠprÃ©cÃ©":11354,"ĠVan":11355,"ĠprÃ©tend":11356,"otamment":11357,"Ġclimatisation":11358,"ĠRendez":11359,"Ġconserve":11360,"Ġput":11361,"Ġblo":11362,"acÃ©es":11363,"Ġrassemble":11364,"Ġtrouble":11365,"ĠÃ©loign":11366,"immigration":11367,"Ġcontemporaine":11368,"Ġmonuments":11369,"ĠSeine":11370,"Ġguitare":11371,"emplois":11372,"Ġtransmet":11373,"ĠLÃ©":11374,"Juste":11375,"Ġadmir":11376,"Ġpositifs":11377,"Ġordinaire":11378,"adolesc":11379,"Ġintrac":11380,"Ġoriginales":11381,"Ġexemplaires":11382,"ĠfiÃ¨re":11383,"ancÃ©e":11384,"Ġprotocole":11385,"ĠmangÃ©":11386,"Ġurgence":11387,"ctoires":11388,"ĠmanquÃ©":11389,"ensible":11390,"Ġracines":11391,"Ġstart":11392,"Ġrestri":11393,"Ġsouligner":11394,"ĠitinÃ©r":11395,"Ġah":11396,"ĠpÃ©p":11397,"ariats":11398,"ĠdÃ©montrer":11399,"ĠfaÃ§ade":11400,"Ġbah":11401,"ĠÃ©volue":11402,"ĠfidÃ¨les":11403,"ĠdÃ©solÃ©e":11404,"Ġfausse":11405,"Ġfibres":11406,"ington":11407,"Aux":11408,"mesure":11409,"ĠLac":11410,"Ġcontiennent":11411,"onnais":11412,"Ġembar":11413,"ĠmusÃ©es":11414,"Ġpanique":11415,"ĠprÃ©occupations":11416,"Ġpizz":11417,"xi":11418,"ĠBis":11419,"ĠalÃ©":11420,"ĠrÃ©centes":11421,"Ġbuff":11422,"Espagne":11423,"ena":11424,"Ġvaisse":11425,"Parti":11426,"kin":11427,"IP":11428,"Ġrecevrez":11429,"ueux":11430,"ĠÃ©puis":11431,"Ġcopain":11432,"Ġarabe":11433,"oies":11434,"ĠrÃ¨gne":11435,"viennent":11436,"offres":11437,"ĠEff":11438,"Ġcompromis":11439,"ĠDÃ©fense":11440,"ĠÃ©chantil":11441,"terr":11442,"Ġorth":11443,"Ġchauffe":11444,"ĠprÃ©fÃ©rÃ©s":11445,"ĠpÃ¢tes":11446,"Ġdemandant":11447,"Ġnotions":11448,"ĠdÃ©pression":11449,"ĠdÃ©bute":11450,"Ġcrist":11451,"Malheureusement":11452,"osc":11453,"acquÃ©rir":11454,"sous":11455,"eler":11456,"ander":11457,"ovi":11458,"ĠfrÃ©quemment":11459,"Ġcompatible":11460,"Ġmonument":11461,"ĠchrÃ©tiens":11462,"islam":11463,"ĠorganisÃ©s":11464,"Ġvinai":11465,"ĠBD":11466,"ĠhÃ©bergement":11467,"ections":11468,"Ġtranquillement":11469,"aya":11470,"ĠRome":11471,"ĠReg":11472,"ĠcommerÃ§ants":11473,"ĠrÃ©veil":11474,"Ġpleurer":11475,"Ġbouill":11476,"ĠprÃ©cÃ©demment":11477,"ĠFR":11478,"ĠgardÃ©":11479,"assujet":11480,"Ġatouts":11481,"ĠBois":11482,"Ġvot":11483,"ĠBourg":11484,"cesse":11485,"ĠtrÃ©sor":11486,"informer":11487,"Ġboucle":11488,"ĠÃ©gard":11489,"ĠPatri":11490,"ĠinspirÃ©":11491,"ĠdÃ©pannage":11492,"ĠvÃ©ritables":11493,"cieuses":11494,"Ġcac":11495,"Ġvoila":11496,"ip":11497,"Ġpourrai":11498,"ĠAutre":11499,"ĠMil":11500,"usine":11501,"Ġparrain":11502,"Ġproducteur":11503,"ĠMÃ©l":11504,"Ġramener":11505,"ĠdÃ©bou":11506,"ĠaccompagnÃ©e":11507,"allez":11508,"ĠAmÃ©ric":11509,"ĠLille":11510,"phones":11511,"Ġmanipulation":11512,"Ġqualification":11513,"ouvant":11514,"RÃ©p":11515,"Rem":11516,"ings":11517,"Bl":11518,"ĠrÃ©gimes":11519,"Ġcapt":11520,"Ġtranquill":11521,"Ġbail":11522,"ĠdiffÃ©ren":11523,"Ġintime":11524,"cÃ©e":11525,"ĠÃ©tages":11526,"ulent":11527,"mod":11528,"ĠextÃ©rieurs":11529,"Ġproportion":11530,"vironnement":11531,"Ġmince":11532,"ouement":11533,"Ġpermettrait":11534,"Ġdevoirs":11535,"fil":11536,"onsci":11537,"Ġaurais":11538,"Ã©levage":11539,"Ġpiano":11540,"Ġrenouvelables":11541,"orti":11542,"Ġ130":11543,"Ġsexy":11544,"Ġbrun":11545,"Ġprovenance":11546,"Ġpoils":11547,"Ġtransactions":11548,"Ġ1995":11549,"implant":11550,"ĠbiodiversitÃ©":11551,"hop":11552,"ĠgrÃ©":11553,"Ġcopains":11554,"ĠConstitution":11555,"Ġdistingue":11556,"Ġsage":11557,"ĠmontÃ©":11558,"Ġyoga":11559,"Ġplomberie":11560,"installe":11561,"ĠeffectuÃ©es":11562,"bonne":11563,"emm":11564,"ĠrÃ©servÃ©s":11565,"Ġsoix":11566,"ĠÃ©liminer":11567,"ĠinstallÃ©s":11568,"Ġpassait":11569,"Li":11570,"Ġintention":11571,"Ġplanification":11572,"utilitÃ©":11573,"Ġcompens":11574,"alisations":11575,"Ġnau":11576,"Ġfranchise":11577,"clÃ©s":11578,"accueillir":11579,"Ġinno":11580,"Mont":11581,"Ã©lectr":11582,"Ġ77":11583,"ĠexposÃ©":11584,"Ġtroupes":11585,"Ġcoller":11586,"acter":11587,"Ġmette":11588,"ĠSitu":11589,"Ġpneus":11590,"ĠlÃ©gale":11591,"Ġexplication":11592,"Ġ--":11593,"Ġcibl":11594,"OG":11595,"olymp":11596,"Ġcontenir":11597,"Ġtroupe":11598,"Ġrecue":11599,"Ġfigur":11600,"Ġfibre":11601,"ĠmÃ©canisme":11602,"Ġintracommun":11603,"Ġtransforme":11604,"Ġravi":11605,"Outre":11606,"Ġlive":11607,"Ġportefeuille":11608,"Ġlectures":11609,"Ġgouttes":11610,"abiliser":11611,"Ġmanquent":11612,"arium":11613,"ĠfixÃ©e":11614,"ĠÃ©ter":11615,",âĢ¦":11616,"ĠPremiÃ¨re":11617,"Ġconfortables":11618,"ĠVendredi":11619,"Ġ69":11620,"ĠemployÃ©":11621,"Ã©lÃ©rer":11622,"commun":11623,"ĠRecherche":11624,"ĠRÃ©ser":11625,"chose":11626,"ĠSyn":11627,"ĠON":11628,"Ġplacement":11629,"Ġvif":11630,"Ġcamion":11631,"Ã©pisode":11632,"Ġpoitrine":11633,"Ġencourager":11634,"ĠFaut":11635,"ĠbÃ©nÃ©ficiez":11636,"Ġbandes":11637,"ĠÃ©lecteurs":11638,"Ġsouple":11639,"Ġvolumes":11640,"ĠuniversitÃ©s":11641,"ĠlumiÃ¨res":11642,"ustralie":11643,"MB":11644,"assujettissement":11645,"Ġchair":11646,"ĠamÃ©lioration":11647,"Ġpars":11648,"Ġpais":11649,"endrait":11650,"ĠKar":11651,"Ġgouvernance":11652,"Ġ1996":11653,"ĠcomplexitÃ©":11654,"Ġassurances":11655,"Ġprenne":11656,"Ġrh":11657,"Ġshow":11658,"ĠpoignÃ©e":11659,"ĠItalie":11660,"amÃ©ric":11661,"Ġdiminution":11662,"ĠfidÃ©litÃ©":11663,"Ġsilen":11664,"ĠexpÃ©di":11665,"2012":11666,"ĠcÃ©lÃ©brer":11667,"Ġgratuites":11668,"Ġchaudi":11669,"aniel":11670,"Ġpromesse":11671,"isations":11672,"cor":11673,"ĠhÃ´tes":11674,"ophe":11675,"agements":11676,"ĠFÃªte":11677,"itres":11678,"Ġperception":11679,"Ġdouze":11680,"ĠcohÃ©rence":11681,"69":11682,"Ġfantas":11683,"Ġpassera":11684,"Ã©motion":11685,"Ġagressi":11686,"Ã©vÃ©nements":11687,"Ġcertification":11688,"habite":11689,"gnant":11690,"Ġintracommunautaire":11691,"itÃ´t":11692,"Ġquinzaine":11693,"Ã©changer":11694,"Ġlocations":11695,"Ok":11696,"ĠmenÃ©es":11697,"ĠmÃ©nages":11698,"Ġconfier":11699,"ĠÃ©vite":11700,"ĠtÃ©moin":11701,"yle":11702,"500":11703,"Ġ350":11704,"ĠsÃ©lectionnÃ©s":11705,"und":11706,"Ġcombatt":11707,"Ġodeur":11708,"rÃ©tion":11709,"Ġrefroi":11710,"ĠrÃ©veill":11711,"Ġrepartir":11712,"Ġlabel":11713,"ĠrÃ©pondit":11714,"anÃ©":11715,"Ġcrimes":11716,"Ġvole":11717,"nale":11718,"international":11719,"âĢ¯":11720,"Ġ67":11721,"Ġcarburant":11722,"becue":11723,"Ġbroch":11724,"Ġquotidiennement":11725,"Ġcomptable":11726,"Ġira":11727,"ĠAV":11728,"Faut":11729,"ĠconÃ§us":11730,"Ã¨ches":11731,"Ġfamiliales":11732,"prof":11733,"lis":11734,"adresser":11735,"Ġmusiques":11736,"ĠcollectivitÃ©":11737,"Ġobligatoires":11738,"ĠRos":11739,"ĠpÃ©ni":11740,"activer":11741,"Ġprogress":11742,"iff":11743,"ĠgÃ¨re":11744,"ĠreconnaÃ®t":11745,"ĠAndroid":11746,"Ġmettr":11747,"ĠmunicipalitÃ©":11748,"ĠformÃ©":11749,"appuie":11750,"ĠcoupÃ©":11751,"ĠMO":11752,"ĠMartin":11753,"oliques":11754,"ĠrÃ©servÃ©e":11755,"emprun":11756,"Comp":11757,"Ġchanter":11758,"Ġconjoin":11759,"Ġmecs":11760,"Ġanglaise":11761,"Ġajoutez":11762,"AIRE":11763,"ĠÃ©cras":11764,"ĠWord":11765,"acheteur":11766,"Ġfrappe":11767,"Ġmarre":11768,"Ġcanton":11769,"ĠcrÃ©ant":11770,"Ġjoint":11771,"ĠconÃ§ue":11772,"Ġ900":11773,"amas":11774,"ORT":11775,"Ġcourants":11776,"Ec":11777,"Ġquestionnaire":11778,"ĠBlack":11779,"ĠentrÃ©es":11780,"oing":11781,"ĠStar":11782,"pÃ©":11783,"ĠFormation":11784,"Ġintemp":11785,"Ġrecouv":11786,"ĠrÃ©vÃ©lÃ©":11787,"idÃ©al":11788,"Ġfabricants":11789,"Ġduquel":11790,"ĠblessÃ©":11791,"sante":11792,"Ġjolis":11793,"ĠrapiditÃ©":11794,"onnage":11795,"ĠleÃ§on":11796,"Ġ160":11797,"Ġreproduire":11798,"Ġnuages":11799,"internet":11800,"Ġbouc":11801,"Ġpublie":11802,"abes":11803,"iler":11804,"Ġasi":11805,"onseils":11806,"68":11807,"Ġscrutin":11808,"Ġsaisie":11809,"Ġavocats":11810,"Ġinje":11811,"Ġconcertation":11812,"Ġrapprocher":11813,"Ġfiction":11814,"Ġvalorisation":11815,"rÃ©p":11816,"ĠChacun":11817,"verser":11818,"ied":11819,"ĠJuste":11820,"vise":11821,"estations":11822,"ĠMarine":11823,"ĠCre":11824,"mploi":11825,"ĠXIX":11826,"adio":11827,"ampleur":11828,"Ġtrib":11829,"excellence":11830,"ĠmÃ©ditation":11831,"ĠFi":11832,"ulant":11833,"olage":11834,"ciplin":11835,"Ġdrogue":11836,"tisÃ©":11837,"ĠcachÃ©":11838,"ĠChez":11839,"ĠMos":11840,"andie":11841,"Ġvisiblement":11842,"Bonsoir":11843,"Ġagriculteurs":11844,"PP":11845,"ĠvariÃ©es":11846,"ĠMc":11847,"soci":11848,"Ġaidera":11849,"Ġfaune":11850,"glomÃ©ration":11851,"ĠCer":11852,"ĠfonctionnalitÃ©":11853,"Ġordres":11854,"gÃ¨ne":11855,"Ġenvisager":11856,"Ġmusical":11857,"Ġcollectifs":11858,"Ġstop":11859,"cts":11860,"Ġrassembl":11861,"Ġplonger":11862,"Ġchapeau":11863,"arth":11864,"Ġvign":11865,"Ġnoctur":11866,"ĠAmÃ©rique":11867,"Ġmenaces":11868,"Ġtournage":11869,"quand":11870,"Ġoeil":11871,"Ġ1978":11872,"tian":11873,"dier":11874,"Ġcircuits":11875,"ĠThom":11876,"Ġprovisoire":11877,"Ġtechnicien":11878,"rue":11879,"deux":11880,"Ġcav":11881,"ĠEspagne":11882,"ĠproductivitÃ©":11883,"Ġabond":11884,"tilisez":11885,"Ġlisant":11886,"ĠprotÃ©gÃ©":11887,"Ġindividuels":11888,"Ġperdue":11889,"Marie":11890,"lah":11891,"ĠStrasbourg":11892,"Sui":11893,"ĠcontribuÃ©":11894,"Ġdivorce":11895,"Ġinforme":11896,"tÃ©n":11897,"tiÃ¨me":11898,"Ġcatholique":11899,"ĠdÃ©ploiement":11900,"Ġfaisaient":11901,"Ġmascul":11902,"play":11903,"entrÃ©":11904,"Ouvert":11905,"orange":11906,"anat":11907,"habil":11908,"ĠrÃ©unit":11909,"ĠavancÃ©":11910,"ĠinÃ©d":11911,"ĠinstallÃ©e":11912,"ĠFab":11913,"Ġsemestre":11914,"Ġdysfonction":11915,"Ġridi":11916,"Ġguides":11917,"Ġdevaient":11918,"Ġhautes":11919,"atÃ©r":11920,"lec":11921,"Ġtraditions":11922,"ĠmÃ¨res":11923,"Ã¨nent":11924,"Ġtravaillons":11925,"Ġsyndicat":11926,"habitu":11927,"ĠÃ©dit":11928,"Ġtaxi":11929,"version":11930,"ling":11931,"access":11932,"ommÃ©e":11933,"ners":11934,"Ġparles":11935,"ĠUtilis":11936,"ussitÃ´t":11937,"Ã©en":11938,"ĠâĢ¢":11939,"Maison":11940,"Ġrelie":11941,"prÃ©sident":11942,"acent":11943,"veilles":11944,"amais":11945,"Ġpoursuite":11946,"Ġration":11947,"Ġsensibiliser":11948,"ĠdÃ©cla":11949,"ĠdÃ©termination":11950,"Ġpropag":11951,"tille":11952,"Rec":11953,"bonjour":11954,"Ġissues":11955,"Ġsauvages":11956,"ĠdÃ©monstration":11957,"Ġentretenir":11958,"Ġblanches":11959,"ĠvÃ©ritablement":11960,"ĠprÃ©cisions":11961,"Ġcharm":11962,"Ġritu":11963,"ĠlÃ©gende":11964,"Pers":11965,"ĠdÃ©taillÃ©e":11966,"Ġamener":11967,"Ġpublicitaires":11968,"ĠintÃ©resser":11969,"Ġade":11970,"Ġengager":11971,"Ġemployeur":11972,"hÃ´te":11973,"Ġsalons":11974,"ĠÃ©voluÃ©":11975,"Ġolymp":11976,"Prix":11977,"ĠSui":11978,"Ġpsychi":11979,"Ġinaug":11980,"ĠAux":11981,"ĠdÃ©pendance":11982,"Ġsuspension":11983,"amel":11984,"ĠMise":11985,"Ġfilet":11986,"Ġglu":11987,"Ġcotisation":11988,"Ġidentique":11989,"Ġfinition":11990,"ĠrÃ´les":11991,"ĠdÃ©gustation":11992,"Ġincapable":11993,"ĠremplacÃ©":11994,"ĠqualifiÃ©s":11995,"ĠJustice":11996,"Ġsurvivre":11997,"Ġparts":11998,"ĠÃ©voque":11999,"Ġsolides":12000,"ĠPÃ¢":12001,"ĠsÃ©minaire":12002,"ĠacadÃ©":12003,"Ġamont":12004,"Ġtutori":12005,"Ġauras":12006,"ĠlÃ©gislatives":12007,"Ġvitamines":12008,"Ġcontrainte":12009,"vateurs":12010,"ĠÅĵil":12011,"Ġvoudrait":12012,"Ġparas":12013,"TRE":12014,"SO":12015,"ĠaccompagnÃ©s":12016,"ĠAucune":12017,"ĠsiÃ¨ges":12018,"Ġordinateurs":12019,"Ġadmirer":12020,"Ġpersonnaliser":12021,"ĠarrÃªte":12022,"encore":12023,"Ġravis":12024,"encad":12025,"Ġinscrite":12026,"ae":12027,"Ġdessiner":12028,"ĠsÃ©duire":12029,"Ġamies":12030,"intr":12031,"Ġobje":12032,"lit":12033,"Ġcandidatures":12034,"ĠEnf":12035,"Ġmeuble":12036,"Ġtube":12037,"Ġimprimer":12038,"ĠpoussÃ©":12039,"Ġchoisit":12040,"Ġmenus":12041,"Ġastr":12042,"ĠmÃ©tÃ©or":12043,"ĠLaurent":12044,"fient":12045,"ĠabandonnÃ©":12046,"envis":12047,"Ġtournant":12048,"Ġpoub":12049,"incer":12050,"Ġsache":12051,"Angl":12052,"tÃ©ph":12053,"ĠMaire":12054,"ĠnumÃ©r":12055,"Ġintui":12056,"hos":12057,"culaire":12058,"ĠdÃ©col":12059,"otÃ©":12060,"ĠaccordÃ©":12061,"Ġgrandir":12062,"ĠContactez":12063,"acifique":12064,"URE":12065,"ĠamÃ©ricaines":12066,"Ġfonctionnent":12067,"tex":12068,"peut":12069,"ĠÃ©lectorale":12070,"Ġsoph":12071,"quie":12072,"ĠJÃ©r":12073,"Ġshopping":12074,"Ġcourante":12075,"Ġsuffisante":12076,"Ġobs":12077,"ĠgÃ©nÃ©tique":12078,"Ġapparition":12079,"ota":12080,"Ġpourras":12081,"Ġsubvention":12082,"Ġincluant":12083,"Ġceinture":12084,"Ġlampe":12085,"Ġexemplaire":12086,"animaux":12087,"Ã©lÃ¨ves":12088,"ĠÃ©quipÃ©s":12089,"Ġconcepts":12090,"Ġcrainte":12091,"ĠMicrosoft":12092,"ĠEur":12093,"hÃ¨re":12094,"Ġminuit":12095,"Ġexpress":12096,"Ġressource":12097,"Ã©paisseur":12098,"ĠrÃ©compense":12099,"Ġrecommandons":12100,"ĠtranquillitÃ©":12101,"Ġofferte":12102,"Ġdisques":12103,"ĠprÃ©texte":12104,"Ġdemanda":12105,"Ġmiracle":12106,"Ġcellule":12107,"Ġpromotions":12108,"ĠleÃ§ons":12109,"ĠcontinuitÃ©":12110,"Ġ62":12111,"Ġparlait":12112,"Ġmagistr":12113,"Ġcanadienne":12114,"Description":12115,"ĠIsraÃ«l":12116,"ĠlaÃ¯":12117,"Ġcray":12118,"ops":12119,"optimisation":12120,"bus":12121,"ĠfondÃ©":12122,"Ġhabitation":12123,"Ã©cris":12124,"Ġbranches":12125,"Ġpoivre":12126,"Ãīcole":12127,"fre":12128,"indemn":12129,"ĠCharles":12130,"56":12131,"ĠsÃ©d":12132,"Ġprovoque":12133,"Ġcanadien":12134,"ĠChef":12135,"Ġroue":12136,"tituer":12137,"ĠstratÃ©giques":12138,"Ġobligatoirement":12139,"ĠdÃ©ficit":12140,"Ġplanning":12141,"Ġpaiements":12142,"intÃ©resser":12143,"DA":12144,"incent":12145,"Ġdrame":12146,"arisation":12147,"ĠapprÃ©h":12148,"Ġchimique":12149,"Ġvisuelle":12150,"Ġsexuelles":12151,"Ã©tiques":12152,"astre":12153,"ik":12154,"Ġreine":12155,"Ġoriginaux":12156,"Ġchantiers":12157,"ĠrepÃ©rer":12158,"SP":12159,"ĠgÃ©nÃ©raux":12160,"ĠLong":12161,"ĠMath":12162,"Ġrefuge":12163,"Ġcharmant":12164,"osex":12165,"amende":12166,"Ġsusc":12167,"instru":12168,"ĠdiffusÃ©":12169,"ĠdÃ©signe":12170,"Ġchinoise":12171,"uk":12172,"opos":12173,"Ġinvitation":12174,"Ġprie":12175,"ĠjugÃ©":12176,"Ġintelligent":12177,"Ġrenouveler":12178,"ĠrelÃ¢":12179,"phab":12180,"amor":12181,"Ġrecommander":12182,"ĠrÃ©diger":12183,"ĠNE":12184,"Ġaccent":12185,"Ġcasino":12186,"Ġterritoriales":12187,"Ġpartenariats":12188,"ĠCanadi":12189,"Ġessaie":12190,"IEN":12191,"ĠÃ©tranger":12192,"mblÃ©":12193,"encÃ©":12194,"ĠpÃ©t":12195,"hÃ´ne":12196,"Ġtaper":12197,"Ġrends":12198,"Ġextension":12199,"Ġimpressionnant":12200,"ĠÃ©voquÃ©":12201,"arrÃªtÃ©":12202,"Ġplume":12203,"ĠfermÃ©s":12204,"Ġpourrons":12205,"Ġpalette":12206,"iterranÃ©e":12207,"ĠMod":12208,"ĠPan":12209,"Ġpair":12210,"Ã©die":12211,"Ġ.....":12212,"Ġenseignement":12213,"ĠdonnÃ©s":12214,"yrÃ©":12215,"ica":12216,"isolation":12217,"ĠRoi":12218,"Ġhar":12219,"Ġvivants":12220,"Ġchampion":12221,"ainissement":12222,"ĠxD":12223,"ĠRobert":12224,"Ġbul":12225,"Ġconstruite":12226,"Administration":12227,"Ġsemblerait":12228,"Ġpartant":12229,"Ġbalance":12230,"ĠGir":12231,"Ġgil":12232,"ĠCher":12233,"Ġloyer":12234,"ĠChap":12235,"dÃ©s":12236,"Ġloint":12237,"ĠcrÃ©ateur":12238,"Ġvaisselle":12239,"ĠvaliditÃ©":12240,"AcadÃ©mie":12241,"bel":12242,"resque":12243,"ĠsÃ©parer":12244,"opole":12245,"ultat":12246,"Ġdescente":12247,"Ġdocteur":12248,"Ġcontour":12249,"Ġmessagerie":12250,"Ġcuisiner":12251,"97":12252,"ĠÂ»)":12253,"interprÃ©tation":12254,"ĠdÃ©finit":12255,"Ġcry":12256,"Ġvint":12257,"Ġmutuelle":12258,"Aucun":12259,"ĠassurÃ©e":12260,"ĠToujours":12261,"Ġbur":12262,"Ġorange":12263,"encontre":12264,"ĠMex":12265,"ĠrandonnÃ©es":12266,"ĠHollande":12267,"ĠLivre":12268,"Ġbars":12269,"ources":12270,"Ġtraditionnelles":12271,"ĠSP":12272,"Ġ360":12273,"ĠpoussiÃ¨re":12274,"viser":12275,"ĠspÃ©cialitÃ©s":12276,"Ġmilitants":12277,"ness":12278,"ĠrÃ©gionaux":12279,"Ġbaie":12280,"Ġto":12281,"imagination":12282,"diens":12283,"Ġcorruption":12284,"ĠthÃ©orique":12285,"Ġissue":12286,"Ġlots":12287,"Ġimmun":12288,"ĠarmÃ©e":12289,"ĠCos":12290,"ĠfermÃ©e":12291,"Ã©ens":12292,"ĠdÃ©butÃ©":12293,"aurÃ©":12294,"change":12295,"aissÃ©":12296,"anciers":12297,"Ġpilotage":12298,"ĠSMS":12299,"ĠAnne":12300,"ĠCroix":12301,"ĠfÃ©minine":12302,"DÃ©solÃ©":12303,"ĠnationalitÃ©":12304,"Ġvaloriser":12305,"Ġvaloir":12306,"Ġsimult":12307,"Ġalternatives":12308,"Ġdisciplines":12309,"mÃ©li":12310,"Ġconnues":12311,"Ġclaires":12312,"Ġtribun":12313,"ĠProvence":12314,"pellier":12315,"Ġdirigeant":12316,"Effectivement":12317,"adox":12318,"ultes":12319,"sembler":12320,"ĠAlpes":12321,"ĠLaissez":12322,"Ġapportent":12323,"ĠboÃ®tes":12324,"Ġhop":12325,"Ġtrouvera":12326,"ĠrÃ©formes":12327,"Ġrembourser":12328,"oublier":12329,"ĠProgramme":12330,"ĠFil":12331,"Ġcopier":12332,"Ġchanteur":12333,"oisse":12334,"ĠCommerce":12335,"Ġvoyons":12336,"Ġfolle":12337,"ĠvisitÃ©":12338,"instruction":12339,"ortez":12340,");":12341,"lies":12342,"Ġpouce":12343,"Ġaurons":12344,"consultÃ©":12345,"Ġfumer":12346,"ĠHar":12347,"pitaux":12348,"Ġroyaume":12349,"ĠRo":12350,"abonnement":12351,"Ġsupr":12352,"ĠavancÃ©e":12353,"Inst":12354,"ĠconsidÃ©rable":12355,"Ġ76":12356,"ĠCab":12357,"ĠimmobiliÃ¨re":12358,"ĠhonnÃªte":12359,"ocations":12360,"Ġhumide":12361,"rÃ©d":12362,"Ã©crit":12363,"accepte":12364,"ĠnouveautÃ©":12365,"ĠagrÃ©ables":12366,"Ġvieillissement":12367,"Ġcoupable":12368,"ingÃ©n":12369,"Ġscandale":12370,"Ġposent":12371,"Ġvagues":12372,"ĠLorsqu":12373,"fl":12374,"arti":12375,"heureux":12376,"gir":12377,"Ġtarder":12378,"aritÃ©s":12379,"Ġentrepreneur":12380,"ĠdÃ©butants":12381,"ĠCertes":12382,"Ġsoulager":12383,"rÃ¨tement":12384,"Ġretrouvez":12385,"Ã©nÃ©":12386,"interdiction":12387,"leurs":12388,"Ġculp":12389,"ĠÃ©tudiante":12390,"ols":12391,"Ġreligieuse":12392,"ĠSyrie":12393,"Ġsortent":12394,"ĠatmosphÃ¨re":12395,"ĠAmazon":12396,"atrick":12397,"Ġinconnu":12398,"Ess":12399,"Ġcombus":12400,"ĠrÃ¨glements":12401,")...":12402,"Ġcrises":12403,"Ġsurp":12404,"Ġpromesses":12405,"visionnement":12406,"Ġmarine":12407,"ĠrÃ©servoir":12408,"93":12409,"actu":12410,"conc":12411,"Ġfondation":12412,"Ġlourde":12413,"ĠVen":12414,"omo":12415,"Ġpile":12416,"ĠcarrÃ©s":12417,"estÃ©":12418,"introduction":12419,"Ġtenait":12420,"ĠOU":12421,"Paris":12422,"ĠDan":12423,"Ġblogue":12424,"tinguer":12425,"ĠTant":12426,"Ġfameuse":12427,"aule":12428,"way":12429,"Ġ1970":12430,"Ġrassurer":12431,"lymp":12432,"Ġchampignons":12433,"ĠpersonnalisÃ©s":12434,"Ġbarbecue":12435,"Ġ1994":12436,"Ġvibr":12437,"agÃ¨res":12438,"ĠTribunal":12439,"ham":12440,"Ġvisa":12441,"onald":12442,"Ġgorge":12443,"ĠCha":12444,"oignez":12445,"Ġroutine":12446,"Ġcau":12447,"ĠcomptabilitÃ©":12448,"osses":12449,"oogle":12450,"Ġcinqui":12451,"ĠcarrÃ©ment":12452,"ĠvÃ©c":12453,"Ġexport":12454,"ĠLÃ©g":12455,"ĠTR":12456,"Ġobtient":12457,"imposer":12458,"Ġliaison":12459,"ĠiPhone":12460,"ĠrÃ©cep":12461,"Ġfrigo":12462,"Ġsab":12463,"Ġaffronter":12464,"Ġongles":12465,"ĠTop":12466,"ĠMER":12467,"ĠFonds":12468,"Ġnavire":12469,"tour":12470,"Ġpharmacie":12471,"ĠrÃ©partis":12472,"ĠCC":12473,"eries":12474,"ouchement":12475,"ĠrÃ©pÃ©ter":12476,"humain":12477,"ĠpÃ¢tisser":12478,"dem":12479,"57":12480,"Vers":12481,"ĠParfois":12482,"Ġartificielle":12483,"Ġchaises":12484,"Ġbords":12485,"ĠSav":12486,"ĠâĢ¦.":12487,"TA":12488,"Ġabsolue":12489,"ba":12490,"tifie":12491,"ĠhÃ©siter":12492,"effectue":12493,"ĠAnn":12494,"Ġconviviale":12495,"Ġchaleureuse":12496,"Ġprimordial":12497,"Ġpaisible":12498,"Ġcapitaine":12499,"ĠarmÃ©es":12500,"Ġrassembler":12501,"ĠTourisme":12502,"ĠBonjour":12503,"Ġargument":12504,"Ġsoirs":12505,"ĠRennes":12506,"Celui":12507,"olet":12508,"ĠrÃ©public":12509,"ĠÃĬ":12510,"Ġsessions":12511,"uine":12512,"ĠUni":12513,"ĠCorse":12514,"ĠEd":12515,"ĠprÃ©sidence":12516,"ĠMaster":12517,"illette":12518,"Ġnoy":12519,"Ġpote":12520,"ĠDÃ©m":12521,"Ġlev":12522,"Ġdemandeurs":12523,"Ġdestinations":12524,"Ġprenons":12525,"Ġexception":12526,"Ġfacilite":12527,"Ġdirectrice":12528,"ĠdÃ©pass":12529,"icale":12530,"ÌĤ":12531,"Ġseras":12532,"audit":12533,"Ġsymbolique":12534,"ĠMairie":12535,"ĠrÃ©alisateur":12536,"Ġindications":12537,"Ġapprentissage":12538,"Ġsexuel":12539,"Ġchauffeur":12540,"Ġinstitution":12541,"ĠmÃ¨tre":12542,"van":12543,"Ġjuges":12544,"audience":12545,"Peu":12546,"Note":12547,"ĠcessÃ©":12548,"ĠfumÃ©e":12549,"Ġretenue":12550,"Hum":12551,"Ġcime":12552,"ĠVeuillez":12553,"Ġgig":12554,"ĠÃ¢gÃ©e":12555,"Ġcivils":12556,"ĠFlor":12557,"ourager":12558,"ĠContinuer":12559,"oques":12560,"Ġbonjour":12561,"apit":12562,"Ġcamarades":12563,"Ġchangent":12564,"Ġimb":12565,"istÃ©ri":12566,"authenti":12567,"Ġmajoritaire":12568,"ĠmentionnÃ©":12569,"Ġrand":12570,"Ġrect":12571,"ĠmarquÃ©e":12572,"als":12573,"rr":12574,"exploit":12575,"Ġpharmaci":12576,"Ġtarte":12577,"END":12578,"Ġenceintes":12579,"Ġmanche":12580,"Ã©valuer":12581,"Ci":12582,"Ġenregistrer":12583,"Ġgenres":12584,"gen":12585,"Ġpasseport":12586,"emballage":12587,"ĠConditions":12588,"Ġfranco":12589,"Ġalbums":12590,"ĠconsidÃ©rÃ©s":12591,"Ġtun":12592,"AlgÃ©rie":12593,"expÃ©dition":12594,"OB":12595,"Ġcivilisation":12596,"osser":12597,"ĠÃ©lÃ©gant":12598,"Ã©vÃ¨nement":12599,"Ġsep":12600,"surtout":12601,"Ġveste":12602,"ĠLundi":12603,"Ġtransaction":12604,"ĠconfiÃ©":12605,"ĠPay":12606,"ĠdÃ©clarer":12607,"Ġprojection":12608,"Ġsale":12609,"ĠSarko":12610,"Ġblan":12611,"habitants":12612,"Ġpoup":12613,"Ġculte":12614,"Ġsoumise":12615,"Ġpublicitaire":12616,"Ġterroristes":12617,"Ġdistinguer":12618,"atisÃ©":12619,"Ġremplie":12620,"Ġ(Â«":12621,"Ġactivement":12622,"ĠMAR":12623,"Ġ1992":12624,"Ġexistants":12625,"Ġbrod":12626,"Ġstocks":12627,"Ġwc":12628,"Ġfragile":12629,"ĠremportÃ©":12630,"Ġamusant":12631,"Ġattire":12632,"Ġpalestin":12633,"ĠSuite":12634,"cence":12635,"ĠTor":12636,"ĠplacÃ©e":12637,"avÃ©rer":12638,"Ġfortune":12639,"Ġpuce":12640,"ĠdÃ©sesp":12641,"hip":12642,"dÃ©c":12643,"ĠExc":12644,"Ġemployeurs":12645,"ĠProjet":12646,"Ġger":12647,"back":12648,"ĠrÃ©ussie":12649,"ĠaisÃ©ment":12650,"ĠaccusÃ©":12651,"ĠrequÃªte":12652,"Ġtraduire":12653,"Ġtuto":12654,"Ġmatelas":12655,"omÃ¨tre":12656,"Ġmanifeste":12657,"Ġfic":12658,"Ġindicateurs":12659,"queur":12660,"Ġpositionnement":12661,"Ġcure":12662,"ĠcinquiÃ¨me":12663,"Ġsuites":12664,"indres":12665,"ĠIII":12666,"annulation":12667,"pects":12668,"Ġsortant":12669,"Eglise":12670,"Ġfouet":12671,"Ġinitial":12672,"ĠpÃ´le":12673,"Ġempre":12674,"Ġanimation":12675,"Ġescal":12676,"58":12677,"Ġmoyennes":12678,"ĠBernard":12679,"64":12680,"Ġtrah":12681,"Certaines":12682,"Ajouter":12683,"Ġperformant":12684,"Ġdisons":12685,"Ġpantalon":12686,"Ġemporter":12687,"Ġfol":12688,"geois":12689,"Ġambition":12690,"mas":12691,"ĠabonnÃ©s":12692,"ĠnotÃ©":12693,"ĠallÃ©s":12694,"ĠDÃ©p":12695,"ĠrÃ©veiller":12696,"Ġ(âĢ¦)":12697,"Ġfranchir":12698,"Ġpensait":12699,"Ġ110":12700,"Ġseni":12701,"Ġorganes":12702,"Ã©panou":12703,"Ġdanser":12704,"Ġregards":12705,"Ġsubventions":12706,"ĠmariÃ©e":12707,"Ġajoutant":12708,"Ġailes":12709,"ĠminÃ©raux":12710,"airer":12711,"Ġsecs":12712,"Ġvitamine":12713,"imaginer":12714,"ouh":12715,"ĠinÃ©g":12716,"Ġcroiser":12717,"Ġformats":12718,"Ġsure":12719,"ĠautorisÃ©s":12720,"prÃ©h":12721,"Ġparquet":12722,"ĠnÃ©cessitent":12723,"ĠdÃ©Ã§ue":12724,"98":12725,"ĠidÃ©alement":12726,"comment":12727,"tines":12728,"Ġboit":12729,"ĠremÃ©di":12730,"Ġsavon":12731,"ĠNouveau":12732,"lem":12733,"urie":12734,"ĠbactÃ©ries":12735,"onglet":12736,"ĠBo":12737,"ĠdÃ©passÃ©":12738,"ĠtÃ©lÃ©phones":12739,"VA":12740,"Ã¨ces":12741,"Ġfoul":12742,"Ġ63":12743,"Ġdira":12744,"ĠfiertÃ©":12745,"ĠUNE":12746,"ĠplacÃ©s":12747,"Ġexternes":12748,"Ġtatou":12749,"ĠdÃ©tention":12750,"agÃ¨re":12751,"Ġcombler":12752,"ĠsupÃ©rieures":12753,"ĠrafraÃ®":12754,"ĠconnectÃ©s":12755,"ny":12756,"ĠreÃ§ues":12757,"ĠcritÃ¨re":12758,"ĠcÃ©rÃ©ales":12759,"Ġdiscret":12760,"Ġdangers":12761,"ĠTunisie":12762,"54":12763,"ĠDANS":12764,"Ġprononc":12765,"Ġsupermar":12766,"ĠcongÃ©s":12767,"ĠJE":12768,"ĠÃ©diteurs":12769,"avions":12770,"onger":12771,"Ġdonnez":12772,"Ġamateur":12773,"Date":12774,"ĠRouge":12775,"Ġendomm":12776,"Ġferons":12777,"abulaire":12778,"Ġexistant":12779,"ĠSI":12780,"arcel":12781,"atrie":12782,"Ġguise":12783,"roÃ¯":12784,"ower":12785,"ĠvÃ©tÃ©rinaire":12786,"Finalement":12787,"riÃ¨res":12788,"Ġgrandement":12789,"Ġsuccession":12790,"ĠrÃ©colte":12791,"ĠmÃ©ch":12792,"ĠJava":12793,"afficher":12794,"Ġrich":12795,"attendez":12796,"PL":12797,"Ġpeintures":12798,"TR":12799,"kets":12800,"Ġmagn":12801,"âĨĲ":12802,"ĠMaÃ®tre":12803,"eld":12804,"Hello":12805,"ĠRich":12806,"ensÃ©s":12807,"Ġextraits":12808,"ĠConvention":12809,"Ġconversion":12810,"ĠfraÃ®cheur":12811,"PD":12812,"ĠbÃ©nÃ©ficiaires":12813,"Ġspa":12814,"Ġmusculaire":12815,"essaye":12816,"Ġdigital":12817,"Ġromantique":12818,"Ġfluide":12819,"ĠHT":12820,"ĠÃ©gale":12821,"ĠrÃ©els":12822,"omac":12823,"ĠPoste":12824,"Ġcage":12825,"Ġcirculaire":12826,"ĠrÃ©cla":12827,"ĠassociÃ©e":12828,"Ġinnovantes":12829,"ĠAngel":12830,"Ã©rable":12831,"Ġinterface":12832,"ĠAutant":12833,"Ġimmer":12834,"Ġmante":12835,"Ġfuir":12836,"ellation":12837,"Ġcouss":12838,"Ġrati":12839,"Ġitalienne":12840,"Ġlucr":12841,"Ġdirai":12842,"Ġcalories":12843,"Ġporteurs":12844,"nig":12845,"acon":12846,"Ġmarin":12847,"endum":12848,"ĠÃ©te":12849,"atur":12850,"Dire":12851,"ĠrÃ©vol":12852,"oisir":12853,"ĠSoleil":12854,"ĠLuxemb":12855,"Ġmaillot":12856,"rection":12857,"Ġmanches":12858,"Ġforment":12859,"oline":12860,"AA":12861,"Conn":12862,"ĠassemblÃ©e":12863,"ourses":12864,"quipe":12865,"ĠGaz":12866,"Ġutilisons":12867,"Ġsouverain":12868,"62":12869,"ĠrecommandÃ©e":12870,"Ġrall":12871,"iger":12872,"Ġfournies":12873,"Ġglobalement":12874,"cesseur":12875,"ĠdÃ©penser":12876,"Ġprouve":12877,"ITÃī":12878,"ĠpossÃ©der":12879,"ĠSol":12880,"Ġconscient":12881,"Ġimpose":12882,"Ã©ron":12883,"Ġcontinuation":12884,"ĠdÃ©veloppeurs":12885,"avaux":12886,"Ġlourds":12887,"aming":12888,"ansion":12889,"etre":12890,"Ġpin":12891,"Appartement":12892,"ulÃ©es":12893,"ĠgravitÃ©":12894,"Ġtraverse":12895,"Ġmassac":12896,"astructure":12897,"Aide":12898,"ONS":12899,"Ġdor":12900,"Ġcourtes":12901,"occupation":12902,"ĠrÃ©chauffement":12903,"Ġsupporte":12904,"Ġtraum":12905,"Ġcommod":12906,"ĠrÃ©sume":12907,"Ġdirective":12908,"ĠpiÃ©t":12909,"Ġangle":12910,"Ġalcool":12911,"ĠdÃ©brou":12912,"Ġinvesti":12913,"afÃ©":12914,"Ġfaille":12915,"ĠcinÃ©":12916,"ĠmÃ©dicales":12917,"ustement":12918,"Ġcuisin":12919,"Ġverres":12920,"ailler":12921,"Ġeth":12922,"ĠexprimÃ©":12923,"Ġusine":12924,"isson":12925,"Ġimpressions":12926,"Åĵux":12927,"ĠchargÃ©s":12928,"Ġgaranti":12929,"ĠNeu":12930,"Ġreconnus":12931,"Ġdynamisme":12932,"cidence":12933,"pelez":12934,"Ġgluten":12935,"ĠapprÃ©cie":12936,"Ġmontrant":12937,"Ġsmartphones":12938,"aceu":12939,"Ġdort":12940,"acuation":12941,"Ġrassemblement":12942,"trui":12943,"Ġlicencie":12944,"Ġaccessoire":12945,"Ġclip":12946,"Ġpayant":12947,"ĠrÃ¢":12948,"Ġpromener":12949,"illy":12950,"Retour":12951,"52":12952,"ĠSÃ©":12953,"ware":12954,"mbles":12955,"ĠEST":12956,"Oc":12957,"anner":12958,"obation":12959,"lÃ¨tes":12960,"Ġdesser":12961,"Ġ!!!!!":12962,"ep":12963,"ĠgÃªne":12964,"Ġpurement":12965,"Ġdign":12966,"Ġrecevez":12967,"Ġlocalisation":12968,"***":12969,"Ġretrouverez":12970,"Ġaident":12971,"ĠalinÃ©a":12972,"dications":12973,"Ġfusion":12974,"Ġfrancophone":12975,"Ãīc":12976,"Ġfondateur":12977,"Ġpuissante":12978,"ĠThÃ©Ã¢tre":12979,"Espace":12980,"ĠBus":12981,"Ġgenoux":12982,"Ġillim":12983,"aim":12984,"ĠdÃ©ter":12985,"Ġrecense":12986,"ĠcrÃ©Ã©s":12987,"ĠRue":12988,"ĠrÃ©digÃ©":12989,"Ġexister":12990,"ĠOne":12991,"Ã¨vement":12992,"ĠdÃ©butant":12993,"ĠassistÃ©":12994,"Ġvotes":12995,"ĠPetite":12996,"âĢ¦),":12997,"Ġparlez":12998,"Ġpotable":12999,"Ġimposer":13000,"ĠAvez":13001,"Ġpeaux":13002,"ĠdÃ©tach":13003,"ĠPol":13004,"enfer":13005,"Ġinond":13006,"amus":13007,"alises":13008,"Ġillustrations":13009,"Av":13010,"Ġrepl":13011,"intÃ©rÃªts":13012,"Ġ750":13013,"ĠEr":13014,"ĠfÃ©riÃ©s":13015,"Ġhorri":13016,"Mag":13017,"Ġneuve":13018,"ĠAjouter":13019,"ĠFÃ©vrier":13020,"Ġcarn":13021,"Voila":13022,"utile":13023,"ĠTÃ©l":13024,"onnent":13025,"Ġmos":13026,"Ġobservations":13027,"jon":13028,"ĠCitÃ©":13029,"Ġpouces":13030,"habitat":13031,"Ġtablettes":13032,"Ġbiscu":13033,"Tube":13034,"alogues":13035,"Ġfat":13036,"Ġcroyais":13037,"Ġflor":13038,"Ġtardi":13039,"ĠredÃ©":13040,"Ġentr":13041,"geant":13042,"Ġ88":13043,"ĠAD":13044,"51":13045,"oce":13046,"UM":13047,"ĠrentabilitÃ©":13048,"Ġhydrat":13049,"ĠTrop":13050,"Ġsagesse":13051,"Ġrespiration":13052,"ĠAnglais":13053,"Ġmails":13054,"athon":13055,"Ġproductions":13056,"quage":13057,"94":13058,"Vendredi":13059,"telle":13060,"Ġcesser":13061,"Ġbijou":13062,"Ġanticip":13063,"ÂŃÂŃ":13064,"rovi":13065,"Ġtranches":13066,"Ġpostale":13067,"hon":13068,"Ġobstacles":13069,"Ġvanille":13070,"ĠhÃ©las":13071,"ĠfabriquÃ©":13072,"Ġden":13073,"xy":13074,"pdf":13075,"ĠpÃ¨se":13076,"Ġaviez":13077,"ĠrÃ©cents":13078,"entine":13079,"ĠdÃ©truit":13080,"ĠpolÃ©":13081,"ett":13082,"yo":13083,"Ġic":13084,"herbe":13085,"ĠSw":13086,"ĠappliquÃ©":13087,"ĠÃ©chapper":13088,"annoncer":13089,"Ġinnovations":13090,"aro":13091,"Ġplastiques":13092,"cia":13093,"Ġboules":13094,"ĠWiki":13095,"ĠMontpellier":13096,"Ġpartiel":13097,"Ġge":13098,"neau":13099,"ĠFort":13100,"ĠInf":13101,"Ġlent":13102,"ĠprÃ©venti":13103,"animitÃ©":13104,"atisme":13105,"Co":13106,"index":13107,"Ġvocabulaire":13108,"Ġrevendi":13109,"ĠthÃ¨se":13110,"ĠTurquie":13111,"Ġpari":13112,"Ġsocialiste":13113,"andez":13114,"Ã©drale":13115,"jac":13116,"esc":13117,"quons":13118,"ĠtraitÃ©es":13119,"ĠcÃ´tes":13120,"Ġraci":13121,"Ġrural":13122,"Ġcamb":13123,"ĠdÃ©cÃ©dÃ©":13124,"Ġhal":13125,"Sauf":13126,"Ġtristesse":13127,"Ġbid":13128,"tises":13129,"2011":13130,"ĠfÃ»t":13131,"obiles":13132,"Ġtenus":13133,"Ġpartagent":13134,"Ordre":13135,"hypoth":13136,"ĠSil":13137,"Ġmaritime":13138,"Ã¨ner":13139,"ĠTOUT":13140,"Ġvitrine":13141,"OTRE":13142,"Ġfraude":13143,"Ġ98":13144,"ignement":13145,"fficile":13146,"Ġneutre":13147,"owe":13148,"ĠspÃ©cialitÃ©":13149,"Ġcauser":13150,"ustes":13151,"Ġstruct":13152,"ĠOrganis":13153,"Ġnid":13154,"Avoir":13155,"Ġprononcer":13156,"pent":13157,"ĠparticularitÃ©":13158,"accessibilitÃ©":13159,"Ġrater":13160,"ĠconcrÃ¨tes":13161,"ĠgÃ¢teaux":13162,"ouler":13163,"Ġfiscales":13164,"İle":13165,"espÃ¨ce":13166,"ound":13167,"91":13168,"mie":13169,"ophie":13170,"Ġcommercialisation":13171,"agnole":13172,"Ġparlementaire":13173,"Ġmunicipale":13174,"ĠprÃ©judice":13175,"yrÃ©nÃ©es":13176,"ĠLib":13177,"Ġvoeux":13178,"qua":13179,"ĠConfÃ©rence":13180,"tise":13181,"bis":13182,"arif":13183,"Ġpist":13184,"Contactez":13185,"Ġsuccessi":13186,"Aff":13187,"Ġcalculer":13188,"Ġbuffet":13189,"Ġplur":13190,"ĠphÃ©nomÃ¨nes":13191,"ium":13192,"ands":13193,"agu":13194,"ĠPont":13195,"Cal":13196,"Ġlisse":13197,"Ġcroch":13198,"Ġvertus":13199,"oids":13200,"ĠrÃ©aliste":13201,"Ġsentent":13202,"timitÃ©":13203,"DÃ©jÃł":13204,"ĠintÃ©grÃ©e":13205,"accum":13206,"ajoute":13207,"Ġrecyclage":13208,"Ġmobiliser":13209,"Ġstandards":13210,"acements":13211,"ĠLim":13212,"ĠcosmÃ©tiques":13213,"ĠvÅĵux":13214,"Ġbatteries":13215,"Ġmerveilles":13216,"ĠThomas":13217,"Ġenvoyez":13218,"icilement":13219,"Ġcompteur":13220,"immeuble":13221,"ĠflÃ¨":13222,"ĠHy":13223,"uira":13224,"Ann":13225,"ĠMul":13226,"archi":13227,"Ġadaptation":13228,"ĠlevÃ©e":13229,"ĠappropriÃ©":13230,"BC":13231,"SC":13232,"Ġcell":13233,"Ġeffectifs":13234,"Bi":13235,"Ġvinaigre":13236,"illant":13237,"72":13238,"Ġnarr":13239,"Nombre":13240,"Ġassimil":13241,"Ġbarr":13242,"illages":13243,"Ġsolitude":13244,"Personnellement":13245,"EP":13246,"ĠharcÃ¨lement":13247,"Ġfleuve":13248,"Ġjustific":13249,"Ġgasp":13250,"ĠÃ¢ges":13251,"ĠaÃ©rienne":13252,"Ġexclusive":13253,"Ġcentrales":13254,"Ġloisir":13255,"Ġincar":13256,"Ġcherchant":13257,"UX":13258,"ĠsupÃ©rieurs":13259,"ĠrÃ©parations":13260,"ĠWh":13261,"ĠrestÃ©e":13262,"Ġrepasser":13263,"Ġcoloris":13264,"Ġel":13265,"Ġcontributions":13266,"ĠFont":13267,"Ġjoyeux":13268,"olt":13269,"ĠPage":13270,"ĠalgÃ©ri":13271,"Ġhur":13272,"Ġfrein":13273,"ĠÃ©quivalent":13274,"Ġfabule":13275,"Ġcic":13276,"Ġoublie":13277,"Ġpropice":13278,"Ġnations":13279,"rendu":13280,"Ġaccomplir":13281,"ĠconcernÃ©e":13282,"Ġapparence":13283,"ĠimposÃ©":13284,"veillÃ©":13285,"Ġredonner":13286,"ĠWall":13287,"ĠreÃ§us":13288,"Ġclics":13289,"Ġarbit":13290,"ĠGrÃ¨ce":13291,"Ġsignificative":13292,"Ġadministratifs":13293,"ĠattirÃ©":13294,"ĠÃ©nergÃ©tiques":13295,"ĠextÃ©rieures":13296,"Char":13297,"chestre":13298,"ĠprivilÃ©gier":13299,"Ġout":13300,"Ġaccueillant":13301,"53":13302,"Ġconner":13303,"ĠCorÃ©e":13304,"Ġcabine":13305,"ĠdÃ©pit":13306,"ĠStu":13307,"!\"":13308,"Ġgy":13309,"Ġcolloque":13310,"ctorat":13311,"Ġcroient":13312,"armerie":13313,"plan":13314,"Ã©sir":13315,"ĠrÃ©gulation":13316,"enaire":13317,"ĠMunicip":13318,"Ġondes":13319,"Atelier":13320,"ĠLog":13321,"ĠdÃ©com":13322,"Aucune":13323,"ĠÃ©quipÃ©es":13324,"ĠmodifiÃ©e":13325,"Ġjustes":13326,"Ġlin":13327,"Bah":13328,"attaquer":13329,"ĠprÃ©cautions":13330,"Ġbudgets":13331,"ĠaussitÃ´t":13332,"Ġenvironnementale":13333,"Ġremporter":13334,"Ġdiminue":13335,"aps":13336,"ĠtÃ©lÃ©s":13337,"UB":13338,"ĠMet":13339,"Ã©pargne":13340,"versÃ©":13341,"Ġsolaires":13342,"Ġblessure":13343,"auses":13344,"gh":13345,"ĠdensitÃ©":13346,"Ġpom":13347,"Ġcann":13348,"Ġrecherchons":13349,"Ġplaisirs":13350,"Ġfavorables":13351,"aliÃ¨re":13352,"Ġatteints":13353,"Ã©trer":13354,"ĠAoÃ»t":13355,"ĠrÃ©tro":13356,"ĠdÃ©teste":13357,"Ġfabrique":13358,"ĠbÃª":13359,"Ġtraits":13360,"Ã©roÃ¯":13361,"export":13362,"ĠpÃ©tition":13363,"ĠmÃ©caniques":13364,"onniÃ¨re":13365,"ĠLuxembourg":13366,"Ġsapin":13367,"Ġvaccin":13368,"ĠaÃ®":13369,"Ġcoaching":13370,"Ġdifficilement":13371,"Ġblague":13372,"Ġsurprenant":13373,"ugal":13374,"my":13375,"Ġgloire":13376,"ĠÃ©chec":13377,"Ġprestataires":13378,"ĠprÃ©fÃ©rez":13379,"Hier":13380,"63":13381,"Ġpli":13382,"Ġchalet":13383,"Ġinsectes":13384,"astes":13385,"Ġrisquent":13386,"important":13387,"ĠsÃ©le":13388,"Ġmensuel":13389,"ĠDÃī":13390,"Ġfesses":13391,"ĠroutiÃ¨re":13392,"ĠpubliÃ©es":13393,"ĠappliquÃ©e":13394,"Ġattentats":13395,"ĠratÃ©":13396,"ourer":13397,"vine":13398,"ĠreprÃ©sentations":13399,"ĠTom":13400,"Ġdisposant":13401,"Ġdatant":13402,"Michel":13403,"ize":13404,"Ġcharbon":13405,"Ã©quipements":13406,"ĠrÃ©glage":13407,"ĠÃ©ducatif":13408,"Ã©cologie":13409,"Ġconnaissait":13410,"ÃĬtre":13411,"Ġfal":13412,"Ġ3000":13413,"los":13414,"Ġenseigne":13415,"envoie":13416,"Ġrecharge":13417,"ĠlanÃ§":13418,"ĠbÃ©nÃ©fique":13419,"ĠingÃ©nieurs":13420,"ĠSem":13421,"Ġplaisant":13422,"ĠJo":13423,"bat":13424,"ĠGPS":13425,"Ġsors":13426,"ĠMÃ©diterranÃ©e":13427,"ĠrÃ©servations":13428,"opt":13429,"?\"":13430,"Ġentraine":13431,"Ġconsultations":13432,"Ġgains":13433,"ĠdiscrÃ©tion":13434,"ĠFA":13435,"rak":13436,"Ġimagination":13437,"ĠÃ©tudiÃ©":13438,"Ġassurant":13439,"Ġpoches":13440,"artistes":13441,"jusqu":13442,"Ġconstructeurs":13443,"incendie":13444,"ĠÃ©cout":13445,"ĠmotivÃ©":13446,"Ġennemi":13447,"dy":13448,"irai":13449,"ĠflÃ©":13450,"Ġgestionnaire":13451,"inions":13452,"Ġroses":13453,"Ġcontribuent":13454,"quiert":13455,"ĠPrenez":13456,"Ġatteintes":13457,"Ġridicule":13458,"ĠmÃ©diÃ©v":13459,"DÃ©velop":13460,"ĠcommÃ©m":13461,"ĠGuy":13462,"Ġdise":13463,"tiser":13464,"Ġenjeu":13465,"ĠentourÃ©":13466,"Ã©gr":13467,"vergure":13468,"ĠmodÃ©ration":13469,"vard":13470,"Ã´tres":13471,"Ġmeurtre":13472,"ĠDI":13473,"Ġdemandons":13474,"acide":13475,"Ġsn":13476,"Ġpeintre":13477,"Ġrichesses":13478,"ĠPensez":13479,"Ġlibrairie":13480,"ĠIP":13481,"ĠAL":13482,"issi":13483,"Ġressortir":13484,"Ġappartenant":13485,"offici":13486,"ĠAni":13487,"obs":13488,"ĠdÃ©terminÃ©":13489,"Ġdigitale":13490,"Ġguerres":13491,"ĠÃ©toile":13492,"anas":13493,"ĠRetour":13494,"ĠPÃ¢ques":13495,"ĠBro":13496,"ĠPlay":13497,"ĠSarkozy":13498,"Ġboss":13499,"ĠpÃ©troli":13500,"Ġki":13501,"partie":13502,"ĠCompte":13503,"Ġmanga":13504,"Ġ),":13505,"exercer":13506,"Ġferrovi":13507,"aco":13508,"ĠlÃ©s":13509,"Ġstagiaires":13510,"Ã©ras":13511,"ĠtÃ©moigne":13512,"Ġlaser":13513,"rirez":13514,"Env":13515,"ĠVir":13516,"Ġsand":13517,"argu":13518,"bÃ©":13519,"lamm":13520,"urbanisme":13521,"Ġaluminium":13522,"Ġsouplesse":13523,"ĠLang":13524,"HE":13525,"Ġfoyers":13526,"Ġsolo":13527,"Ġouvriers":13528,"ĠcoÃ»ter":13529,"ĠindÃ©sir":13530,"Ġregardez":13531,"Ġpsychologie":13532,"Ã©mis":13533,"encre":13534,"Ġadversaire":13535,"estime":13536,"rave":13537,"Ã©quivalent":13538,"74":13539,"Ġprolonger":13540,"Ġchaudes":13541,"ado":13542,"ĠdÃ©tecter":13543,"tellite":13544,"Ġ92":13545,"Compte":13546,"Ġrachat":13547,"Ġ1993":13548,"ĠquÃ©bÃ©cois":13549,"Ġarchitectur":13550,"ĠappelÃ©s":13551,"Ġsatellite":13552,"ĠthÃ©rapeutique":13553,"Ġcoiffure":13554,"ĠUSB":13555,"ĠamÃ¨ne":13556,"Ġtuyau":13557,"Ġ61":13558,"Ġdouter":13559,"beau":13560,"ĠbudgÃ©taire":13561,"ĠPoint":13562,"ĠBat":13563,"Prenez":13564,"ĠmÃ»":13565,"ĠMr":13566,"Ġvoyait":13567,"Ġvisuels":13568,"83":13569,"ĠprÃ©venu":13570,"Ġprincesse":13571,"urrence":13572,"Ġversement":13573,"Ġviolent":13574,"Soyez":13575,"ĠBisous":13576,"urez":13577,"ĠMON":13578,"Ġhonneur":13579,"ĠrÃ©glementaires":13580,"Ġbagages":13581,"ĠprÃ©alablement":13582,"Ġmettra":13583,"venant":13584,"Ġsaga":13585,"originalitÃ©":13586,"ĠPor":13587,"Ġcamps":13588,"Ġgardien":13589,"wi":13590,"Ġsangu":13591,"ĠconcentrÃ©":13592,"Ġterritoriale":13593,"Az":13594,"ĠprÃ©avis":13595,"Ġlai":13596,"ĠsincÃ¨rement":13597,"lect":13598,"Ġanalys":13599,"Dimanche":13600,"Nouv":13601,"2010":13602,"ariser":13603,"Ġlivret":13604,"Ġcouverts":13605,"refour":13606,"ĠprononcÃ©":13607,"onnerie":13608,"Ġmarins":13609,"CrÃ©ation":13610,"ateau":13611,"oignons":13612,"ĠÃ©troite":13613,"crÃ©":13614,"lire":13615,"Ġporteur":13616,"Åĵuf":13617,"Ġmarrant":13618,"IsraÃ«l":13619,"Ceux":13620,"Ġsaisi":13621,"lue":13622,"ĠblÃ©":13623,"artÃ©":13624,"Ġamples":13625,"Ġenseignements":13626,"ĠSyl":13627,"Ġuniversitaires":13628,"ĠarchÃ©":13629,"orial":13630,"ecc":13631,"Ġ1500":13632,"Ġgardes":13633,"trans":13634,"Ġincendie":13635,"Ġlen":13636,"Ġsilhou":13637,"lor":13638,"ake":13639,"ĠTon":13640,"Ġsuicide":13641,"Ġvolon":13642,"Ġflot":13643,"Ġpartiellement":13644,"ĠÃ©tablie":13645,"illent":13646,"intensitÃ©":13647,"ĠenvoyÃ©s":13648,"Monsieur":13649,"Ġlocataires":13650,"abo":13651,"ĠÃ©man":13652,"Ġsurprendre":13653,"Ġbibli":13654,"ĠCL":13655,"Ġacheteurs":13656,"inscri":13657,"illement":13658,"Esprit":13659,"Ġcondamn":13660,"Ġlumineuse":13661,"ĠprÃ©cisant":13662,"Ġassembl":13663,"oseph":13664,"ĠpÃ©dagogie":13665,"ĠÃīc":13666,"Ġparisien":13667,"ĠamÃ©liore":13668,"âĤ¬,":13669,"ĠdÃ©fav":13670,"Trans":13671,"Ġconstructions":13672,"Ġbaiser":13673,"ĠlaurÃ©":13674,"bons":13675,"Ġcocktail":13676,"ĠaffichÃ©":13677,"Ġbleus":13678,"unanimitÃ©":13679,"Ġnutrition":13680,"alerte":13681,"Ecole":13682,"ĠremÃ©dier":13683,"OIR":13684,"ĠfabriquÃ©s":13685,"ĠÃ©clairage":13686,"ĠSecrÃ©t":13687,"Ġcliniques":13688,"Petite":13689,"Ġraccour":13690,"Ġinterp":13691,"endrez":13692,"ommÃ©":13693,"Ġtrains":13694,"Ġplacard":13695,"Dame":13696,"Ġbloquer":13697,"ĠÃ©tiez":13698,"ary":13699,"Ġrusses":13700,"Ġbad":13701,"Ġfonde":13702,"Laissez":13703,"ĠrÃ©elles":13704,"ĠclassÃ©s":13705,"Ton":13706,"ĠYouTube":13707,"cour":13708,"ĠProfitez":13709,"Ġ84":13710,"uitÃ©":13711,"ĠUnies":13712,"ĠDÃ©jÃł":13713,"ĠexposÃ©s":13714,"Louis":13715,"ĠprÃ©lÃ¨vement":13716,"work":13717,"avancer":13718,"ouch":13719,
[...]
