#version: 0.2
e n
e r
c h
Ġ d
e i
i e
u n
s t
i n
Ġ a
i ch
Ġ s
ei n
e s
Ġ w
a n
Ġ un
Ã ¼
Ġ S
o n
g e
Ġ m
Ġd ie
a s
t e
Ġ ein
Ġun d
Ã ¤
l l
Ġ v
Ġ b
un g
Ġ n
i t
Ġd er
Ġ i
Ġ z
a r
h r
s ch
Ġa u
t en
o r
Ġ A
Ġ D
g en
e m
a t
d er
Ġ B
Ġ h
Ġz u
a l
Ġ in
Ġ f
d en
Ġ M
Ġ k
a u
t er
Ã ¶
i r
u r
Ġ E
d e
l ich
Ġ F
Ġ W
Ġ g
Ġ K
Ã¼ r
Ġ G
b er
a ch
e t
Ġd as
e l
Ġ P
ich t
ei t
Ġ I
i er
Ġ ge
i g
Ġ T
m m
Ġd en
b en
Ġi st
Ġ H
â Ģ
Ġ er
Ġ V
Ġa n
r o
Ġm it
i s
c k
Ġau f
Ġ L
e h
Ġv on
e u
Ġ R
Ġf Ã¼r
u s
r a
Ġ l
an n
s en
Ġn icht
u m
i on
Ġv er
Ġw ir
Ã Ł
Ġs o
k t
r e
Ġs ich
Ġ o
s e
a m
i l
i sch
n en
en t
Ġ es
e ll
o ch
f t
Ġ N
Ġ U
r ei
ĠS ie
Ġ Z
s er
Ġb e
o l
an d
u t
Ġs ch
Ġ 1
ie l
Ġi m
Ġau ch
Ġein e
a hr
Ġ ich
Ġ J
e hr
Ġ 2
in d
ĠS t
Ġau s
a b
ĠV er
l s
Ġd em
Ġ âĢ
Ġ (
Ġ j
Ġd es
a g
Ã¼ ber
Ġb ei
ĠS ch
Ġw er
st en
f f
h l
ĠA n
ung en
Ġw ie
Ġ p
ĠI n
Ã¶ n
ch en
Ã¤ n
s p
l e
Ġ st
o m
. .
et z
er n
en n
Ġ Ã¼ber
Ġwer den
ch t
Ġs ind
Ġo der
i k
Ġdas s
Ġh at
o mm
Ġa ls
Ġa ll
Ġ t
Ġ C
i v
Ġ um
i en
h n
un d
w ei
ĠD ie
Ġs ie
es ch
Ġv or
Ġ O
in g
ein e
at ion
a ben
ĠE r
Ġn ach
or t
u f
i gen
ĠU n
ei l
Ġd a
o ll
Ã¤ t
o t
0 0
r Ã¼
b e
Ġwir d
Ġk ann
l ei
Ġein en
u ch
m en
Ġw ar
a ll
ung s
Ġn och
ĠP ro
Ġm an
Ġi hr
ĠB e
Ġk Ã¶n
ĠE in
v er
isch en
st ell
Ġs ein
ĠJ ahr
o s
h al
D ie
ter n
ur ch
Ġh aben
ĠR e
an z
âĢ ľ
g t
au s
ĠS p
b t
Ġein er
i ge
z u
Ġn ur
Ġun ser
Ġzu m
te t
mm er
Ġein em
Ġa m
h e
ĠI hr
st e
r au
Ġa ber
an g
ier en
0 1
ei ter
i ck
er s
Ġ r
t sch
u l
Ġj e
ĠA r
ier t
w er
Ġun s
au f
a d
Ġ ent
ĠâĢ ŀ
ĠG e
o p
Ġm ehr
ĠkÃ¶n nen
eh en
Ġv iel
Ã¶ r
g lich
g er
Ġun ter
an k
Ġ -
Ġa b
f Ã¼
e ben
Ã¼ n
a ft
f or
ch e
l a
ar t
us s
Ġb is
z en
ei ten
en d
r i
ĠE n
Ġd urch
r Ã¤
r ie
ach t
omm en
Ã¤ r
p p
ĠâĢ ĵ
ab e
Ġan der
l ie
lich en
r u
ĠA us
ge b
Ġ "
Ġw enn
Ġdie s
Ġw ur
Ġzu r
st er
h er
ĠM it
der n
Ġso ll
h t
a ten
a hl
m al
Ġs p
l t
i ll
Ġ 3
Ġ2 01
e g
Ġn eu
ĠB er
ĠD as
es s
as sen
.. .
Ġ Ã
p f
b l
isch e
k eit
Ġs ehr
etz t
lich e
o g
e st
Ġw as
e kt
eh men
h en
un den
te l
n er
Ġf in
Ġsch on
Ġd ann
i bt
Ã¶ glich
Ġh ier
h eit
el t
ge l
b eit
Ġb er
an t
l in
b ar
sch en
d u
Ġwie der
Ġd ar
Ġi mmer
i mm
a h
Ã¤ hr
b st
Ġm ir
at z
ĠV or
Ġ gen
f en
ei gen
ei ch
de t
Ġw eiter
Ġg ibt
Ġg es
ut z
ff en
i st
Ġh abe
Ġm ich
g es
as s
ĠZ eit
a mm
Ġd u
p t
Ġk l
eu tsch
er t
Ġb es
Ġ re
f ahr
ÃŁ en
a st
for m
Ġ et
Ġm ein
Ġwur de
Ġ e
r it
sch aft
Ġg anz
h nen
ĠW ir
n is
Ġdie se
a ge
Ã¼ ck
ach en
Ġl ie
ĠA uf
d em
ĠE s
k en
e d
l and
z eit
l er
ĠM en
ra g
al t
on t
o b
i z
f ach
ĠD er
ĠA b
e b
w ie
ĠI ch
ĠA u
Ġall e
Ġge w
Ã¼ s
ĠZ u
D as
il d
r und
Ġet w
I ch
m it
o k
Ġg ro
Ġ1 9
Ã¼ t
Ġm al
Ġ 4
ra gen
o hn
k l
Ġh in
w ar
p l
icht ig
r eu
Ã¤ ch
Ġ 5
Ġs el
Ġg ut
z i
ĠU m
m e
kt ion
p er
I n
f ol
z e
ĠG es
n e
i c
Ġh er
Ġdie ser
sch ie
e ch
it Ã¤t
Ġge m
Ã¶ ch
gen d
D er
at t
ĠH er
Ġein fach
a gen
Ġv om
Â Ń
l au
Ġ eigen
ĠS o
ein en
k te
ÃŁ e
ei te
lei ch
Ã¤n d
ll e
Ġk eine
ar k
hal ten
ation en
on der
o hl
in der
el d
eu te
i m
Ġz wei
ar b
am it
a f
eh t
ĠD eutsch
a p
k ommen
rÃ¼ ck
Ġbe st
sp iel
is sen
ĠE ur
Ġm uss
l Ã¤
ĠL eben
ĠAr beit
ig er
r in
t w
f all
ĠM a
amm en
fÃ¼ hr
ell en
ĠG esch
m er
Ġd ir
an de
ers on
ĠMen schen
E in
ľ ber
ad t
ĠI hnen
Ġw en
ĠD aten
Ġdies em
l u
ĠO r
on n
W ir
Ġj a
ab ei
ÃŁ er
Ã¼ hr
ĠB ei
f er
Ġetw as
h em
ier ung
ĠUn ter
h o
rei s
hn e
Ġfin den
es en
ĠN ach
Ġg er
an gen
s am
l os
l ung
u d
iv e
Ġge ht
Ġs on
in n
Ġsel bst
rei ch
ĠJahr en
s s
o sten
ĠIhr e
r ank
v or
) .
Ġb in
Ġein es
ĠB l
d ing
Ġge gen
eit s
U n
m a
or d
Ġ 6
g esch
Ġm achen
Ġander en
ĠD u
ei st
tern ehmen
f e
ĠB et
hal t
ck en
ĠK l
ich er
Ġd och
Ġo b
ĠUn d
ge ben
r Ã¶
un de
ie ll
ĠF or
Ġb et
w ischen
a de
ĠÃ ľber
r en
w e
n ah
Ã¶ ff
Ġw el
t eil
Ġbe g
Ġm Ã¶ch
b ur
Ġw oll
ig keit
ĠP l
Ġj etzt
Ã¤ hl
al e
al en
Ġihr e
Ġg esch
ĠT ag
Ġm Ã¼s
omm t
Ġd amit
ĠK on
z t
Ġall es
Ã¤ lt
r an
au t
n et
Ġ Â
Ġhat te
ĠSp iel
ĠW er
q u
Ġ2 00
Ġp ro
k e
ĠW as
ĠH o
Ġviel e
l o
ĠPro du
Ġan ge
ĠL and
Ġ c
Ġunser e
Ġso wie
ĠA l
Ġw Ã¼r
t lich
Ġb ie
el n
ĠT eil
a kt
Ġden n
wei se
Ġneu e
ell e
Ġm Ã¶glich
ĠS e
ion en
Ġge l
Ġin s
ĠAr t
ei cht
p ro
ĠIn form
âĢ ¦
b r
a te
Ġer st
Ġzu s
rÃ¼ n
Ġg u
ra ge
et t
ĠS te
ĠK inder
Ġbei m
hal b
Q u
re chen
stell t
ĠC h
Ġsoll te
Ġo hne
stell en
ig t
u chen
ĠW och
ĠU hr
f in
k eiten
ĠUn ternehmen
Ġge f
ern e
an ge
ĠW elt
ĠT e
m in
Ġsch n
st and
Ġs eine
at Ã¼r
in nen
ĠJahr e
ĠP erson
Ġk ein
es se
st Ã¤nd
Ġ 7
ĠD a
at ur
Ġson dern
ĠT hem
h Ã¶r
S t
Ġunser er
ei ÃŁ
z eu
Ġs eit
Ã¤ re
z ent
E s
ĠDeutsch land
Ġ1 0
i d
r icht
Ġd abei
Ġ 8
o d
Ġn un
n ung
g ung
ĠI m
der t
Ġber eits
bl em
at er
schie den
ĠmÃ¼s sen
Ġbe k
a k
ĠG rund
en den
ei m
s atz
oll e
f Ã¼r
Ġl assen
ĠM ar
ĠB es
Ġ Qu
Ġa kt
Ã¤ ft
Ġaus ge
ĠL ie
ei d
Ġk ommen
st em
ich te
t ag
Ġl etz
fahr en
k lich
ĠM on
ar ten
s etz
stell ung
z ahl
it te
Ġander e
Ġje d
Ġver b
Ġer sten
ig ung
ch er
o w
Ġw ill
a ar
ĠkÃ¶n n
st ag
g ang
Ġsch Ã¶n
om p
z ie
ĠSt adt
atÃ¼r lich
i a
Ġm eine
a ck
Ġw o
ĠR ei
Ġz wischen
s st
el e
sch l
au m
Ġh eute
Ã¤ u
Ġdies es
or en
ĠA ut
a il
am il
Ġwar en
y stem
ĠF rau
ĠF all
at s
ach e
ul t
wer t
Ġda zu
ier te
g ra
o v
ĠK unden
und es
h m
A n
al ten
Ġein mal
ar beit
Ġn ie
ĠA ll
ann t
Ġsich er
ĠG er
) ,
ĠM in
w ir
o ff
Ġ 9
rei chen
Ã¶ s
ĠW eb
Ġwur den
ĠH and
u st
Ġall er
ĠIn tern
Ġk ommt
o ur
ru pp
Ġbes onder
an den
auf en
Ġ2 0
s i
au pt
fol g
eu ch
s el
b au
o st
ll en
Ġals o
tsch aft
h in
Ġf ol
ĠwÃ¼r de
lin e
or den
ĠW ie
a hn
Ġw eil
Ġst eht
ĠA ber
it z
b ild
te m
Ġschn ell
w end
Ġein z
z lich
an der
bur g
d r
f l
Ġneu en
Ġb esch
S ie
es sen
Ġwir klich
ĠInform ationen
Ġp er
ĠEur o
00 0
am en
ĠD e
Ġzu rÃ¼ck
ĠVer s
Ġg erne
st Ã¼t
o gen
S ch
ent lich
ar d
Ã¤ d
ĠM Ã¶glich
Ã¶ t
kl Ã¤r
a y
Ġk onn
ĠW enn
Ġge st
Ġdie sen
ĠRe g
o ten
rit t
Ġw ichtig
ag t
ĠK ont
Ġje der
s icht
as se
2 01
lie ÃŁ
ol it
at iv
ei den
ur z
Ġzus ammen
o de
la ge
un kt
c e
ru ck
Ġver schieden
ĠPro blem
Ġs ehen
Ġgen au
i um
h ol
al d
en de
ĠM us
rie b
s o
Ġf reu
al itÃ¤t
t rag
Ġall em
Ġ eben
s k
ĠF ahr
er v
am t
ĠH aus
Ġ 0
un ktion
Ġ1 8
Ġ ...
Ġver l
w eg
f ern
ĠIn ter
Ġa r
ich ten
g lie
ĠmÃ¶ch te
ĠU r
ro t
Ġg leich
ĠM an
W enn
Ġ1 5
ĠP art
i f
k un
j ekt
ĠW ei
Ġver s
ĠB ild
Ġver w
u ten
sp r
Ġnicht s
i al
gra mm
ge m
a den
ĠZ us
ĠS eite
z w
imm t
i o
Ġn Ã¤ch
Ġb lei
ĠF re
ĠF amil
v on
Ġsein er
rin gen
Ġd rei
Ġg ar
Ġl ang
ĠN eu
mit tel
Ġs ei
Ġi hn
la gen
ĠVer b
ĠÃ ĸ
Ġst ehen
k s
r at
k ten
Ġwoll en
sch e
Ã¤hr end
Ġin ter
ch n
r em
or gen
ei g
ĠIntern et
ol og
Ġ euch
M it
ĠGe w
Ġ te
kun ft
Ġn atÃ¼rlich
x t
ĠRe cht
b ie
l en
w ick
isch er
Ġbes ser
ĠB undes
Ġd ort
ra d
Ġent sp
st alt
Ġlie gt
g ie
âĢľ ,
i de
Ġf Ã¼hr
Ġall en
iell eicht
ĠB uch
nis se
Ġge b
Ġihr er
sch ein
ei gt
âĢ ŀ
Ġda fÃ¼r
ers Ã¶n
Ġv oll
Ã¤ ÃŁ
b ei
ĠEn de
ier ten
ach ten
h Ã¤lt
Ġje den
Ġletz ten
ien st
g ar
Ġso l
Ġd eutsch
ĠM ed
ĠThem a
u cht
Ġjed och
Ġm acht
un ter
it ion
tw ick
ĠW ohn
! !
nah me
f te
sch utz
f Ã¤
Ġein ge
Ġihr en
for der
Ġer halten
Ġunser en
Ġ1 2
ĠA m
lau b
ĠF l
ĠA uch
Ġakt u
ĠE l
g an
ĠZ iel
Ã¤n ger
f ang
Ġge ben
ĠAn geb
ĠF Ã¼r
ĠH ier
Ġw Ã¤re
Ġd ich
ot t
I m
Ã¤ m
z eich
p r
ant w
sten s
Ġwel che
ei der
Ã¤n g
ĠU S
Ġst att
Ġ em
ĠJ u
Ã¼ hl
r um
ĠK omm
m Ã¶glich
ĠSt ra
ĠWoch en
st ehen
ĠDie se
is s
ding s
lich er
le gen
enn t
Ġb en
Ġge hen
u le
Ġw ohl
W ie
Ġge hÃ¶r
ĠH in
Ġre cht
rau m
re cht
p h
Ġg rÃ¶
ĠB au
as ch
g l
em ber
g angen
ĠG em
p rÃ¤
ĠLeben s
ĠF ragen
Ã¼n st
ĠE x
Ġgem ein
m ent
Ġviel en
ll t
al is
ĠSt ud
w w
Ã¤ uf
Ã¶ l
o te
ĠF rage
âĢ Ŀ
Ġfol gen
rei ben
rie ben
ic e
w eit
ĠG l
o ok
g aben
g rund
lu g
in de
Ġl e
Ġf rei
ut zen
Ġf est
b es
g abe
ĠW eg
i pp
un der
Ġw issen
i sten
v oll
eu er
Ġgem acht
ĠG en
ĠM al
ein er
Ġb rau
Ġsein en
Ġger ade
Ġr und
Ġh o
in e
ĠEin e
ĠSch ul
iel en
n eh
Ġi hm
fall s
h aus
ĠW ar
Ġb zw
Ġein ige
ĠOr t
ĠF il
. âĢľ
Ġb eh
ĠIhr en
b ung
Ġden en
as st
Ġl ange
Ġdir ekt
au er
ĠEur op
k ehr
Ġ201 8
a c
en nen
ĠBer lin
o ck
u ÃŁ
ĠZus ammen
ĠL in
Ġh Ã¤t
ĠG eld
V er
ĠF ot
ik el
Ġa l
Ġi r
Ġdar auf
Ġbie tet
ber g
ob il
af ten
uch e
E r
Ġk on
ĠIhr er
ĠP f
ĠF rei
ĠMit arb
ĠO n
ĠWas ser
ch te
Ġp ersÃ¶n
ĠBei spiel
a ÃŁ
n ehmen
ĠD ank
Ġweiter e
Ġunser em
ĠM ann
w ohl
il fe
schie d
Ġ eh
Ġp aar
Ġ en
ier e
ĠDie s
Ġ :
Ġc a
z ogen
ĠM ill
Ã¤ l
Ġinter ess
ĠEn twick
al s
â Ĥ
âĤ ¬
icher heit
ĠM e
Ġwen ig
Ġ3 0
Ã¤n der
ande l
g leich
Ġt un
ĠkÃ¶nn te
ver s
ig es
f ort
Ġda von
Ġmein er
ĠÃ Ħ
ĠN utz
ĠP reis
re ten
M ail
F Ã¼r
zu g
Ġbie ten
Ġ &
ĠVer fÃ¼
Ġkonn te
Ġgu te
ĠEr fahr
Ġo ft
ei ster
ĠMit glie
ĠD es
n it
Ġeigen en
B ei
W as
Ġfin det
Ġk osten
il der
v ent
Ġt eil
k er
au se
ĠSch w
gan is
los sen
om e
Ġh ab
ĠB o
ĠBe g
Ġs agen
Ġh och
ĠS on
ra in
ach sen
r eit
ĠA ls
ĠR Ã¼ck
ei le
Ġem pf
Ġm us
ank en
ĠPro zent
E R
Ġw eiÃŁ
Ġr ichtig
iel t
h op
Ġ /
Ġ1 4
ge w
ult ur
Un d
Ã¤ ter
ech n
i an
ri ff
il t
Ġer ste
e w
ĠSch l
Ġgro ÃŁ
ei chen
ĠFor m
Ġh ast
ĠW eiter
ie s
ĠSt a
ing t
i ent
eu t
Ġbe sten
Ġgro ÃŁe
ĠD r
Ġd e
m us
ĠT er
p unkt
ĠB Ã¼r
eh n
Ġ1 6
ĠSt and
Ġk urz
ande lt
ĠB esch
ell schaft
r on
ei sten
Ġw Ã¤hrend
z ung
Ġetw a
ĠEn t
a ffen
ĠI de
er e
h a
an stalt
ĠGe b
Ġgro ÃŁen
Ġge t
ĠHo tel
y m
Ġgemein sam
Ġso gar
ah men
ĠG ro
zi al
ĠVerfÃ¼ gung
rot z
wer k
ĠD urch
Ġsoll ten
u er
ĠMÃ¶glich keit
Ġk om
Ã¤n dern
1 9
ben d
am p
Ġo ffen
f rei
ĠArbeit s
ĠâĢ ľ
ra kt
en s
Ã¼n d
Ġfin de
Ġg ilt
k on
Ġ Ã¶ff
b eiten
in gen
et ter
ĠVer t
r iv
rei se
Ġn ehmen
N ach
ck t
ri ft
" ,
ĠVer ein
ĠL u
s eite
ra ft
bl ick
ĠS u
i p
m an
ation s
rupp e
ĠRe gel
Ġkann st
ĠGesch Ã¤ft
lei st
Ġir gend
en z
ĠGem ein
ĠB eh
ĠZ ahl
uf en
Ġb itte
ĠTe am
ge stellt
Ã¶r per
ĠK ar
Ġ1 7
r Ã¤n
ĠL eist
ck e
o ber
Ġbesonder s
A uf
j Ã¤hr
i b
ĠArt ikel
fÃ¼ hl
t t
u g
w ahl
is k
ĠBer eich
ein ander
ĠmÃ¶ch ten
ĠB eit
i der
au en
ĠMitarb eiter
a z
Ġz ahl
er ien
P ro
Ġbe kommen
eit ung
Ġbe fin
ĠD ar
Ġ1 1
ig n
ĠOn line
y p
it u
ze pt
Ġver t
s ol
re ffen
Ġb el
ĠBes uch
Ġ2 5
ĠP h
Ġunter stÃ¼t
lich t
e gen
iv ers
antw ort
Ġz war
Ġf ast
ĠF in
k auf
ĠT age
Ġz ie
st au
Ġl Ã¤
etz en
ĠJu gend
schl uss
ĠPerson en
er k
Ġ1 3
ge hen
ĠF ach
ĠProdu kt
nah men
Ġeigen tlich
Ġbei den
Ġver m
s l
a ff
f on
Ġv ielleicht
ĠR ahmen
A m
lieÃŁ lich
Ġfreu en
ĠV iel
bild ung
Ġf rÃ¼
Ã¤ ten
ra f
ch ten
um en
icht ige
Ġsein em
fÃ¼hr t
le gt
ĠP ol
ĠG rÃ¼n
ĠPro jekt
Ġentsp rechen
Ġent wick
j e
Ġst ell
ich tet
Ġent sch
i mmer
A ls
ĠnÃ¤ch sten
er gie
Ġd Ã¼r
ĠFrau en
re d
Ġwer de
sch aften
Ġ1 00
ri st
au ft
Ã¤hl en
Ġsch w
ĠPl atz
Ġver fÃ¼
ĠH och
ur s
Ġst ellen
Ġje wei
omm er
ĠE U
st adt
ĠMus ik
es ser
Ġkl ar
ĠD enn
e cht
ro ffen
on e
H ier
Ġer folg
m ann
le ben
Ein e
Ġau ÃŁer
op f
Ã¤n de
Ġ Y
Ġe x
den t
or ten
ĠBl ick
el fen
Ġe ur
Ġmein en
ĠÂ »
ĠM ein
t s
Ġin ner
ĠD ir
ĠS el
ĠL e
i ster
olit ik
ĠS icherheit
wei s
an s
ĠâĢ ¦
E N
ĠF rank
at ive
de ut
Ġg ab
Ġk einen
Ġj em
b et
Ġsch wer
a pp
ĠGesch ichte
ĠWoch e
Ġaller dings
ĠlÃ¤ sst
ĠT echn
gen ommen
Ġkl einen
ach te
Ġ [
m Ã¤ÃŁ
ĠK osten
ĠhÃ¤t te
Ġ .
Ġauf ge
Ġhat ten
ĠF ol
ver b
it zen
g r
iv i
ig keiten
f ten
ĠKont akt
ĠK ind
ei tet
ĠA pp
Ġi hnen
ick en
Ġw ahr
be ding
st imm
zie h
ĠEn tsch
i te
ĠGe gen
en det
kt ur
S o
ĠW issen
3 0
r and
y s
Ġsie ht
h eim
le x
Ġin d
. "
ĠH Ã¶
j ahr
Ġkl eine
und heit
Â »
ĠSp r
ag te
ĠPro gramm
Ã¼ d
ĠF ir
Ġ201 7
ck er
zeu g
ĠAngeb ot
Ġw eit
ann ten
Ġver st
ĠV ide
ĠN atur
ĠBe d
ĠH aupt
ĠSp ort
ut ter
a x
z er
ivi du
Â «
Ġ5 0
Ġhin ter
ĠR u
in ter
un st
Ġver sch
or f
Ã¤t ze
1 0
Ġmein em
Ġ Ã¼
ĠN Ã¤
ge gen
zi mmer
m ar
war e
Ã¤hl t
st Ã¼ck
ĠQu alitÃ¤t
rie den
ĠIn st
ser e
S p
ĠFamil ie
Ġer klÃ¤r
ĠEr geb
setz ung
Ġl eben
Ġges p
ĠSt unden
ĠRei se
Ã¤t zlich
Ġl eider
ĠC o
neh mer
Ġ19 9
ĠS eiten
Ġbe w
ĠBer uf
ĠMar kt
Ġbe de
ĠMin uten
Ġsp Ã¤ter
Ġw Ã¼n
ĠA kt
ation al
ĠZu kunft
ĠR o
ĠD ann
Ġihr em
sen t
Ġsoll en
h Ã¶
a v
ĠO b
Ġher aus
Ġdar Ã¼ber
a is
ĠB ilder
Ġw orden
ĠMit tel
Ġwen iger
ĠAu ft
ĠSch Ã¼
Ġd ein
ĠL Ã¶s
ĠK rank
ĠF rÃ¼
eh len
fall en
Ġer n
Ġunter schied
ĠD och
spr uch
ĠIhr em
ĠVer anstalt
et te
Ġ ,
sch t
rÃ¤ ge
f eld
Ġv ier
iv en
ĠE m
ĠJahr es
w elt
ĠEntwick lung
ĠS erv
ĠJ un
h eiten
Ġh elfen
ĠP ar
i ste
Ã¶r der
age ment
ĠV ort
e der
Ġb r
o ol
âĢľ .
g Ã¤n
ĠF Ã¤
ĠM ehr
Ġverschieden en
ĠFil m
ĠgehÃ¶r t
ĠM Ã¤r
u te
la den
ĠN acht
Ġin tern
ro m
ĠProdu kte
Ġt oll
mal s
w as
w alt
ĠEl tern
rei che
Ġder en
ing s
ĠK in
rei cht
ĠA bend
ĠSch wei
lie gen
Ġm eisten
Ġ âĤ¬
Ġs agt
ĠW ahl
arbeit ung
w ohn
ĠSel bst
am e
.. ..
ho f
Ġdar f
st ra
D a
ech s
C H
ĠEn ergie
Ġp l
d ruck
ĠPro f
Ġd eine
Ġk am
W er
ĠAut o
ĠIn f
1 2
ĠM ark
b eh
Ġganz e
Ġso fort
ð Ł
tem ber
Ġda ÃŁ
Ã¶ff entlich
am er
an ten
d ie
Ġda her
ĠWir tschaft
o der
ig it
Ġbest imm
et s
ĠS ystem
u bl
Ġab ge
ĠAu gen
in ge
ster reich
er nen
ges etzt
Ġn utzen
Ã¤ hn
Ġd eu
d es
s weise
ĠP rÃ¤
ĠT ele
icht s
Ġbis her
Ġblei ben
Ġg lau
ĠSp aÃŁ
Ġ2 4
ein t
si te
ĠM Ã¼n
ĠL ehr
fÃ¼hr ung
ind ung
u ter
ie t
Ġsp e
i mal
Ġk ennen
ĠT he
ag er
ĠE igen
ĠK Ã¼
s ehen
Ġge k
ĠC hr
Ġin form
Ġs agte
i ff
lich es
Ġwoll te
ĠW or
Ġblei bt
E n
ge ber
ĠF lug
ĠK ir
e ten
Ġw under
Ġer war
re ch
I N
os it
ĠD abei
op p
in ner
or mal
Ã¤ch st
ĠMill ionen
pl atz
et ten
Ġer z
re g
u h
rupp en
ĠH ilfe
off e
wer b
f rage
or g
nit t
Ġer sch
m b
A uch
Ġind ividu
âĢ Ļ
Ġbest eht
ĠGe d
sp ro
h Ã¤ng
Ġz eigt
Ġ201 6
Ġeh er
Ġst ark
ĠD ienst
ĠN ov
lich keit
Ġar beiten
h aupt
ater ial
Ġben Ã¶t
as e
ĠVer l
u p
ĠF est
ĠEin satz
ĠM ode
ar f
Ġje dem
ĠEr folg
5 0
ĠK unst
b el
Ġdar an
Ġbe d
Ġb ringen
ĠG ott
ĠPart ner
Ã¤ um
s y
ĠN amen
Ġp assen
kt ober
icht igen
ĠBet rieb
Ġgu ten
ĠUn ivers
Ġh eiÃŁ
c o
ch es
ĠN etz
i tel
Ġf unktion
Ġsch le
ff iz
lÃ¤ ss
re und
ar te
Ġbek annt
c om
Ġdeu tlich
l ungen
ann te
ĠN ew
ĠK Ã¶rper
ĠB Ã¼
ĠSchÃ¼ ler
le ge
Ã¤r en
ĠNÃ¤ he
U m
" .
ĠJ an
ur t
ĠEntsch eid
Ġt rotz
us st
Ġson st
Ġg l
Ġinner halb
te ls
stell er
olog ie
ĠSe p
a in
ĠPl an
Ġs uchen
ĠF ar
onder e
isch es
ĠWeb site
i x
ĠgrÃ¶ ÃŁ
Ġn eben
it Ã¤ten
en k
er st
ig ten
b o
Ġ or
ĠAn fang
ĠK auf
Ġer fol
Ġjem and
ĠM et
ĠFin anz
ar e
Ã¤ch lich
Ġh alten
ĠO ktober
Ã¤ glich
Ġeigen e
ter s
ĠMa i
ĠP at
Ġg ing
ĠS ommer
ĠL age
Ġz eigen
ĠÂ §
ĠS k
utz t
Ġges am
2 0
Ġver k
zeit ig
ĠG o
Ġf Ã¼hl
Ġh andelt
in en
ĠBeit rag
ĠGl Ã¼ck
ĠGes undheit
ĠFre und
Ġkom pl
ĠR aum
ĠLand es
Ġz un
ĠF uÃŁ
ĠA d
t ler
ĠGro ÃŁ
Ġhin aus
z Ã¼
Ã¼n f
Ġs u
ĠUr laub
Ġer reichen
ĠT est
Ġlie gen
ĠG eh
ĠGeschÃ¤ft s
Ġh il
ĠSep tember
ent lichen
bar en
ĠJun i
ĠFamil ien
ĠK n
ien en
Ġer fahren
er en
Ġeinz el
o se
d ung
ĠT agen
ĠM ot
ĠAb s
Ġw ei
ĠO ber
v est
Ġp rÃ¤
lei chen
ber eich
Ġl eicht
ĠAn tw
z ess
ut t
rÃ¼ f
ĠDe z
z el
ar en
wend ung
un dert
ĠRecht s
ĠD i
A N
ru ktur
A us
erson en
Ġer w
Ã¤ te
stell ungen
ges amt
ĠZ immer
ĠT r
icher ung
Ã¤ llt
ra x
Ġdeutsch en
hal te
arb eiten
1 1
Ġje de
Ġ ðŁ
an ce
Ġf or
Ġ end
Ã¤ us
ĠW e
ĠJ ul
it y
wei sen
un sch
Ġb ist
Ġo pt
c t
V or
ĠS am
ahr en
Ġn ot
Ġgef unden
or e
ĠB el
Ġp ass
A ber
Ġander s
ank e
ĠDaten schutz
ĠR icht
ie f
ĠK ultur
D u
Ġw egen
Ġeben falls
ĠM Ã¤n
i ft
ĠAu g
ĠAus wahl
w and
Ġo ben
in a
ĠMa ÃŁ
ĠG Ã¤
Ġstell t
ĠSt art
Ġre gel
ĠT Ã¼r
rie g
bes ondere
ĠV ol
ĠF r
ik an
ing er
ĠB ar
ĠK om
Ġf r
ĠDez ember
ll ig
red it
Ġ201 5
ol d
b all
ĠT h
ĠNov ember
Ġte chn
ĠBl og
ĠBÃ¼r ger
at ung
ĠW ert
sp ort
ĠW ind
rit ten
be zogen
if iz
we gen
Ġan geb
it ut
u mmer
ĠN ie
al ien
d urch
ĠA t
ĠT rain
r ant
ĠdÃ¼r fen
Ġl esen
Die se
Ġ2 1
un k
ĠF unktion
ĠAn g
ik a
h and
ik ation
forder ungen
st r
setz en
ĠUS A
Ġpro f
ĠT our
stell e
ft ware
mb H
ĠFor sch
ĠL eute
ĠHer z
om at
ĠThem en
ĠTer min
ik er
ei en
ĠB r
u tet
st att
ĠfÃ¼hr en
ĠHÃ¶ he
iv er
rei fen
z us
iz in
al ter
k ung
Ġk aum
z uf
Ġentsch eiden
Ġbe f
. )
ass ung
ĠAn t
Ġverschieden e
ĠUnter stÃ¼t
Ġl Ã¤nger
ĠKomm un
ĠMÃ¤r z
ĠheiÃŁ t
k sam
ĠK opf
en te
Ġber eit
y n
ĠGes ellschaft
ĠWei hn
Ġh Ã¶r
ess ion
Ġk omm
Ġo f
pr il
ĠHer r
Ġre g
on s
Ġbe vor
lie ÃŁen
ĠT ran
de l
or n
ĠG ut
o dern
u b
u ar
ĠErfahr ung
ĠD em
sp l
ĠMÃ¶glich keiten
ĠServ ice
Ġ on
ik en
un kte
h aft
Ã ©
ĠS uche
ol z
Ġau t
ĠReg ion
a un
Ġ4 0
Ġab sol
Ġweiter en
eh m
gem ein
Ġbefin det
ĠG mbH
eh e
ĠS er
fÃ¤ h
2 00
ĠVer trag
rau en
B e
le b
ge f
ĠH am
rax is
s ie
ord nung
p art
Ġk m
Ã¶ nen
B er
rit te
ĠN icht
Ġh Ã¤uf
ĠÃ¼ber haupt
Ġh al
Ġh Ã¶
ĠB as
ĠS itu
om ent
sch ule
omp eten
ĠH ause
onn tag
ĠSte lle
b in
an ach
m eld
t ragen
ĠF erien
zie hen
el den
Ġw eg
at te
Ġver d
Ġ x
ĠF ern
ĠProblem e
au sen
Ġf Ã¼nf
ĠT ipp
Ġsp ielen
g rÃ¼n
an te
dr esse
Ġge geben
ol f
Ġ2 2
Ġ el
ĠB en
p en
ĠInter esse
Ġent fern
ĠA pril
ie ÃŁen
ĠP ark
Ã¤n dert
ver t
a ktion
her ap
ĠLie fer
ĠMen sch
Ġsol che
ĠEurop a
ĠSch ule
ativ en
h ein
st ein
ien ten
M an
at ten
Ġ qu
at or
ra gt
is e
Ġganz en
Ġer k
Ġ ch
ges etz
Ġwar um
ĠLie be
l esen
am pf
Ġver gangen
ent r
Ġer mÃ¶glich
klÃ¤r ung
Ġkl ein
c en
ver stÃ¤nd
ĠL auf
Ġdes halb
ĠMed ien
Ġso wohl
arb eitet
ĠÂ «
on d
Ġw elt
Ġk aufen
au ber
ĠG ast
ĠV on
Ġjed es
ĠK ap
ĠB us
ĠF eh
Ġ %
Ġ201 4
ĠPol iz
ĠWei se
ĠP olitik
ĠD inge
ĠWer k
Ġk n
on nen
ĠR ad
la f
og le
ĠJan uar
/ /
Ġgegen Ã¼ber
ĠR es
w ill
ĠW inter
Ġn a
ĠFrÃ¼ h
rau ch
ĠG rÃ¶
ÃŁer dem
du z
ĠSt imm
ĠN ord
iel e
ĠEr w
Ġmehr ere
f r
Ġk ont
ĠJul i
1 8
Ġ Ã¶
b uch
ĠwÃ¼r den
eig net
ĠunterstÃ¼t zen
Ã¤n den
ĠA lle
ohn t
Ã¼n ft
ĠGe fÃ¼hl
ur en
ĠG arten
ĠJ e
ĠK at
Ġan sch
e x
is mus
rÃ¤ gt
um ent
Ġt ats
ĠKin dern
j a
Ã¤t z
Ġges ehen
al er
f ert
Ġfolgen den
ĠB ad
pf en
mar kt
Ġgew orden
s on
ĠGes prÃ¤
Ã¼s s
gesch lossen
ĠAug ust
ĠgrÃ¶ ÃŁer
ĠEin zel
ĠP er
ĠK o
ĠGe bur
ĠSch utz
Ġg Ã¼nst
Ġnot wend
Ġkonn ten
Ġvor h
p ort
ĠLu ft
f el
Ġbei spiel
: //
l assen
ĠR olle
Ġt Ã¤glich
Ġ X
je kte
s w
ie g
ĠTag es
A b
eb ook
mÃ¤ÃŁ ig
Ġm ag
Ġp olit
ais on
rei bt
all e
Ġempf ehlen
A r
ĠZ um
Z u
Ġges agt
Ġaktu ellen
ĠIde e
ĠF ac
ĠEr n
ĠE uch
wir tschaft
sch ul
ĠFot os
ĠA uss
zeich net
geb ung
Ġ u
Ġl ernen
z eiten
ĠOr ganis
ĠM ont
la y
andel n
ĠVide o
bar e
reit ag
Ġum f
ĠL es
Ġp riv
Ġc m
ĠD en
ĠZ wei
ĠSp e
ĠUnterstÃ¼t zung
ĠMitglie der
ĠD amit
ĠM utter
f rist
Ġverw endet
ĠGes etz
Ġsu per
Ġp osit
rei sen
Ġbrau cht
ĠD at
anz en
Ġentfern t
Ġbede utet
r y
l auf
d ienst
ubl ik
ĠD ich
ĠMitglie d
- )
all en
ar m
ungs k
Ġerfolg reich
zi p
Ġl os
Ġs etzen
ĠTe xt
Ã¶ hn
ab el
ĠÃĸ sterreich
Ġvor her
p ar
Die s
schl ag
ig ht
Ġneu es
in ne
ĠschÃ¶n e
sch nitt
ell er
ĠP ost
z iell
e e
inde stens
ion s
r uf
ĠK raft
ĠF reu
Ġer f
ĠS onntag
ĠDeutsch en
Ġgew esen
Ã¤ ischen
ĠS al
ersonen bezogen
Ġgen ug
ch mal
g or
ĠMÃ¼n chen
Ġ6 0
ĠMein ung
Ġw es
sy ch
Ġn ormal
ow n
teil t
Ġbeispiel sweise
Ġer hÃ¤lt
ĠN eben
ĠZ we
ten s
z eigt
in den
r et
Ġon line
Ġ2 3
bie ter
ĠG ren
Ġw ww
ĠSt Ã¼ck
ĠEr k
Ġins besondere
ĠF Ã¼hr
Ġd am
stau rant
fahr t
ĠKomm ent
al y
ĠBeh and
inde st
ĠD on
te gr
m lich
Ġ201 3
ation alen
Ġm indestens
Ġgel ten
Ġjewei l
al tet
1 5
ur e
Ġp ersonenbezogen
ĠErgeb nis
min ister
all o
s b
Ġge h
sch lieÃŁlich
sp rechen
h ang
ĠNutz ung
' s
f ekt
m art
Ġa lt
r ess
ĠChr ist
ĠNie der
sp h
Ġlie be
Ġmus ste
Ġvor bei
ĠP ort
ĠK Ã¶n
eu m
ĠG el
ĠW ahr
Ġso mit
Ġander em
d rÃ¼ck
r ichten
Ã¤t zen
ĠSch ritt
un ge
ĠN ot
ĠErfahr ungen
Ġbel ie
mittel n
ĠfÃ¼hr t
ĠEs sen
ĠAuft rag
- ,
Ã¶ sen
en ten
Ġein igen
Ġ19 8
f lÃ¤
br igen
ĠF Ã¶rder
l ungs
ul ar
ĠUnivers itÃ¤t
Ġend lich
an geb
sicht lich
st Ã¤t
inn t
l ang
ĠH eim
du st
ech sel
ĠTeil nehmer
Ġwel ches
Ġvorh anden
ĠÃĸ ff
k o
ĠB and
un t
A ll
ĠT ier
ĠM aterial
ĠG ruppe
eb ru
r as
Ġakt iv
ab l
ken nen
ĠhÃ¶ her
Ġbet roffen
ebru ar
Ġerfol gt
Ġer forder
ĠI st
ĠW ort
Ġbest ehen
ist or
Ã¼hr en
Ġher vor
ĠVer antwort
ĠEm pf
te st
ĠRe staurant
Ġm eist
Ġb l
weg s
Ġvergangen en
Ġjeder zeit
Ġun ver
ges sen
st off
Ġall ein
ab hÃ¤ng
wie sen
ĠB ro
ĠGÃ¤ ste
ĠGo ogle
n ach
og raf
Ġfin anz
I hr
ĠR at
ĠK redit
ĠHin ter
Ġan zu
ĠAl ter
wei le
Ġge stellt
ĠH a
ig te
tt p
Ġg ern
ĠSo ftware
it er
ĠDes ign
le kt
Ġb ald
ĠAus bildung
ĠVer gleich
ĠPoliz ei
ĠJahr h
n ov
r acht
ra m
Ġ Ã¤hn
Ġ ?
ĠVer kehr
ĠEntscheid ung
Ġder zeit
ĠS Ã¼d
ĠWohn ung
ge t
Ġtats Ã¤chlich
ĠSchwei z
ĠVer m
ĠMon ate
ĠD ien
Ġh ttp
ĠLÃ¶s ung
f urt
J a
Ġh eut
ĠM o
Ġkosten los
Ġsch l
m et
Ġr ein
f ft
ĠGen er
ĠFac ebook
ier ungs
Ġver Ã¶ffentlich
ĠB ay
it ter
Ġirgend w
Ġk ur
br acht
ĠF ebruar
Ġsch reiben
ĠHer aus
Ġal ten
Ġent de
ĠMon at
wei ter
ei er
meld ung
ĠSam stag
ĠC omp
ĠO pt
et ing
Ġentwick elt
ĠA k
kl us
ĠfrÃ¼ her
ĠGebur t
ĠW etter
ĠL icht
ĠSch n
ĠF reitag
hÃ¤lt nis
or m
E S
Ġdes sen
Ġf and
Ġer fÃ¼
ate gor
Ġ201 2
ĠP riv
Ġzwei ten
or gt
Ġr ichtige
ĠA ktion
Ġbe ste
s f
ĠR is
ĠAn ge
ĠP raxis
ĠSitu ation
ĠB ank
ges ehen
ge h
l ass
ĠSch laf
Ġjewei ls
Ġh ei
Ã¼ cht
Ġso zi
ĠhÃ¤uf ig
Ġf ahren
Ġz eit
ĠT em
Ġbesch Ã¤ft
ĠW ien
beding t
ĠS itz
ĠW ill
Ġ2 8
Ã¤n ge
Ġins gesamt
ĠD ort
sch rift
Ġges etz
ĠN ur
ĠW ider
el che
ĠSte uer
Ġein zu
zeu gen
Ġkl einer
ĠTele fon
ot s
richt ung
ĠI mm
hr en
b ahn
ĠMon aten
eg al
k ungen
Ġbest immt
g n
Ã¤m lich
ĠVor aus
dust rie
S eit
Ġden ke
ĠGed anken
Ã¶l ker
f Ã¤lt
Ġver stehen
s ystem
r ich
Ġg rund
ĠW unsch
Ġsch eint
f rieden
ĠÃĦ n
d acht
Ġf eh
ĠprÃ¤ sent
c a
gel n
Ġmit tler
er dings
Ġauf grund
Ġh Ã¶ch
Ġf al
Ġver ein
ĠZusammen arbeit
le g
G B
Ġbr ingt
et ail
teil ung
och en
ĠPf lege
ĠS eit
stÃ¤nd ig
it i
ĠAuf gaben
ĠD isk
ĠCh ar
d aten
af ft
ĠP e
il den
zahl en
ĠK rit
ĠD ruck
Ġ ro
Ġp rakt
amm lung
zieh ung
Ġ2 6
u ell
Ã ľber
ie w
A lle
Ã¤n gt
Ġm odern
ĠS ol
Ġfunktion iert
Ġ2 7
Ġt reffen
ĠB itte
Ġeur op
Ġver z
ĠMe er
Ã¤u ft
ĠHam burg
201 8
Ġn Ã¤
zent r
ĠVer arbeitung
k osten
pro chen
ĠK il
ĠBer atung
ĠEn g
Ġverb esser
ĠW ett
W eiter
ĠUnternehmen s
Ġeinzel nen
Ġun be
ĠpersÃ¶n lichen
ĠKl im
Ġtrotz dem
ĠUm welt
Ġaus zu
f il
ĠgehÃ¶r en
ĠB ahn
ĠSpiel er
Ġet c
st anden
ĠIde en
Ġzu frieden
k el
am ent
rad ition
Ġsch Ã¶nen
Un sere
ĠAu ÃŁerdem
b ringen
z wischen
Ġst and
wert ung
sp ekt
Ġb em
t h
Ã¼ lt
rei ten
in s
ĠWeb seite
os ition
ĠSt re
in o
ĠGemein de
ne te
Ġ ;
Ġ8 0
ĠP ap
Ġn Ã¤mlich
ĠF ort
ĠS mart
ĠkÃ¶nn t
g ruppe
ĠK ur
Ġaut omat
Ġbrau chen
Ġt olle
Ġverw enden
Ġf reund
ĠH e
Ġander es
ik o
ar i
Ġsp ann
g ien
ach tet
ĠFreu de
l ern
ĠT od
Ã¶ st
Ġz ehn
ĠB ran
Ġe cht
ick t
ĠH ei
m o
ĠEx per
ĠMÃ¤n ner
âĢ ĵ
ĠDa zu
s or
Ġwer t
a at
Ġgesch rieben
Ġver g
p reis
at h
Ġweiter hin
ĠnÃ¤ch ste
ĠAntw ort
ert ig
asch inen
Ã¤d chen
ĠMen ge
ĠPat ienten
Ġsch affen
ot he
is se
Ã¶ gen
Ġer reicht
Ġv Ã¶
o o
ĠE is
I T
ĠUm gebung
eil en
Ġer hÃ¶
pf er
rÃ¼f ung
schein lich
Ġun bedingt
Ġz w
s ver
Ġletz te
Ã¼r d
Ġbek ommt
Ġinform ieren
Ġn e
lu b
sch lÃ¤
ĠÃ ľ
Ġd igit
ĠO der
Ã¼ gen
m ehr
Ġzie mlich
fol ge
ĠBo den
w issen
ĠKÃ¼ che
Ġr uh
u ll
ĠAngeb ote
ach st
em in
Ġfolgen de
P D
ĠIn halte
pl an
ĠS ache
all s
it ze
halt ung
ĠAr ch
k reis
ww w
Ġsp rechen
ĠB is
te chn
ĠAn d
Ġi de
ĠTipp s
ĠLin k
h ilfe
Ġst Ã¤r
g bar
Ġjeweil igen
leist ungen
b esch
ĠL a
Ġn immt
? ?
Ġ201 1
R e
ĠJahrh undert
ĠHo tels
ĠVeranstalt ung
ĠH ome
Ġdar um
fin den
ĠwÃ¼n schen
ĠM ag
ungs ver
Ġgen ommen
Ã¤u de
ĠRicht ung
m el
Ġr ichtigen
den ken
ĠS en
ri fft
lo sen
. ,
ĠAkt iv
s eit
p rÃ¼
ĠBesuch er
ĠWeihn acht
ro h
ĠKl ein
Ġzun Ã¤chst
ĠP reise
Ġunser es
ĠT itel
ĠProdu ktion
ist r
ĠV oll
H er
ĠBe deut
ĠDie ser
si dent
ĠAng st
s ichtig
ĠFeh ler
beding ungen
bie ten
Ġ Ã¤l
ĠerklÃ¤r t
a cken
ĠZu g
ĠL ei
ĠS an
Ġsel ber
ĠIn s
Ġ _
K l
ĠAls o
z te
ff ekt
ho w
d lich
ĠpersÃ¶n lich
ĠAll tag
b ank
ĠAn gaben
ge fÃ¼hrt
ĠS icht
Ġdeutsch e
ĠJ o
Ġdam als
Ġd au
f ragen
ĠNutz er
Ġgen ieÃŁen
Ġe xt
ĠSon nen
Ã¼r f
!! !
Ġer le
ĠA bst
ul d
ĠSo zial
au ch
ĠH aut
ĠB i
ĠM oment
b ach
ĠW Ã¼n
Ġt he
te te
alis ierung
Ġgew Ã¤hr
d as
Ġbis schen
Ġkein er
Ġl Ã¤uft
ĠF euer
ĠStud ien
ĠG ra
ele gen
ĠPerson al
per atur
op er
6 0
Ġun ten
ĠRu he
um s
ĠWissen schaft
I E
1 7
Ġge kommen
ĠD ok
Ġr el
ri ften
Ġzum indest
ĠVerb indung
a ir
Ã¼nst ler
ĠAn spruch
Ġd r
Ġ201 0
ĠvÃ¶ llig
den ten
ĠkÃ¶nn ten
Ġ ehr
Ġho hen
Ġt ragen
ĠP ass
sch w
at tet
Ġna he
Ġangeb oten
Ġl in
s Ã¤tzlich
ĠIn d
Ġge pl
ĠUn sere
ĠJ ob
stra ÃŁe
jÃ¤hr ige
ĠBeg inn
ĠD etail
ĠBedeut ung
m and
ra ten
ĠKir che
Ġd rau
B itte
or k
ĠStra ÃŁe
ĠIn vest
Ġpass iert
m eister
Ġ19 7
rei b
ow s
ĠunterstÃ¼t zt
lo se
ĠG ar
Ġh offe
ob ei
Ġer kennen
ĠKrank en
ĠAn sp
e k
ro p
Ġbefin den
teil en
Ġd einen
ĠG anz
ĠG rÃ¼
lieÃŁ end
ĠS aison
ĠSt Ã¤d
ĠLeist ungen
Ġbeg innt
Ġhil ft
ĠO l
H allo
Ġsp ielt
v olle
ĠmÃ¶glich st
Ġen g
ĠS inne
ĠI T
Ġor ganis
s uch
ĠBe weg
Ġglau be
ande ls
Ġw ichtige
ĠFol ge
Ġschw ier
Ġst Ã¤nd
ĠFot o
ĠFre unde
ĠH al
ĠSt rom
ĠR om
op h
ro ll
herap ie
ĠGesprÃ¤ ch
iss ion
ok rat
Ġda durch
ĠFir ma
st ieg
Ġd anach
Ã¤uf er
ent halt
Ġm orgen
Ġsel ten
ĠBer g
ed ig
ĠGes amt
pf licht
ĠBehand lung
ab il
ig in
1 4
ĠEr st
ĠE ing
ak ter
Ġeben so
rei bung
sp e
fÃ¼hr er
ĠDies es
ĠInst itut
Un ser
ĠH eil
ĠP unkt
Ġ2 9
Ġbei de
ei ger
it ten
ei ge
Ã¶ff net
mit t
o u
k a
Ġf ort
Ġwelt weit
ĠSte llen
Ġkn app
ge lt
ĠG leich
w Ã¤r
ĠM il
u mm
ĠTer r
ĠW ein
ĠP rin
ĠT ra
n ess
Ġverb unden
ĠÃĦn der
Ġkompl ett
ĠBes onder
ĠN r
ĠIhr es
d ass
ĠAuf gabe
ĠWochen ende
Ġ9 0
ĠIn nen
Ġbe ein
t liche
Ġs inn
pro du
ĠHer zen
ĠLeist ung
ĠSta ats
Ġver h
âĢ¦ ]
Ġh Ã¤lt
ĠE ben
ĠZ ur
Ġent halten
opp el
Ġopt imal
mer ksam
z ig
Ġt ot
ĠS h
Ġ ur
ĠM Ã¤dchen
own lo
Ġbe achten
ĠInter essen
ĠPriv at
ĠV ater
ĠVer kauf
r esse
verstÃ¤nd lich
Ġho he
mÃ¶glich keiten
ĠG ruppen
be g
ĠJ etzt
Ġaktu elle
n ern
ĠÃ¶ff entlichen
ed izin
ĠL iste
Ġa k
w ehr
ĠE ind
Ġ !
ĠMa il
la pp
ĠE lekt
Ã¼t zen
ĠIn halt
ĠMaÃŁ nahmen
ĠMont ag
ĠSt unde
ĠZeit punkt
Ġ7 0
Ġzahl reiche
eich er
ur n
Ã¼s sel
ĠGrÃ¶ ÃŁe
ĠSt u
Ġentwick eln
ner stag
ĠS hop
stimm ung
Ġst ets
ĠL Ã¤ndern
Ġs echs
ĠBl ut
ation ale
Ġzu dem
Ġgesam ten
Ġge fallen
ĠÃ¼ber n
Ġlie ber
Ġber aten
ĠC on
Ġ Ã¤ndern
Ġin dem
ra te
Ġaktu ell
s ein
Ġher zlich
ĠZusammen hang
ĠSpr ache
ĠWie der
Ġst ar
ro lle
Ġschle cht
Ġr aus
st all
Ġein ger
ĠK Ã¶l
Ì Ī
rÃ¤ fte
Ġwichtig sten
be werb
Ġ â
ĠA lt
Ġbeg lei
or ben
Ġge eignet
ha fen
Ġ Ġ
Ġunter wegs
v iew
ĠMit te
ĠC ar
ma ck
ĠZ ent
ĠAr zt
em ent
jÃ¤hr igen
Ġfreu e
Ġ3 1
asch ine
t reten
ĠW ald
ĠErgeb nisse
ĠK aff
sp art
zent rum
ĠM Ã¼
ĠSt rand
u e
ĠK rieg
ĠN e
A S
v Ã¶lker
ĠO st
Ġspe ziell
Ġbelie b
Ġ egal
ĠS inn
Ġgen utzt
rei ber
ĠgrÃ¶ÃŁ ten
ĠBeg riff
ĠK ategor
st re
ern t
ĠStra ÃŁen
ĠK re
ĠM ich
ĠK urs
Ġ +
ĠFol gen
ĠC he
ĠS c
Ġman chmal
ĠFir men
ĠH olz
zu stellen
ĠL i
Ġf Ã¤llt
Ġhab t
Ġvers uchen
Ã¤ cht
ĠK omp
ho ben
ĠTechn ik
I S
ĠDes halb
f angen
Ġg leichen
Ã¤hr ung
ĠW o
ĠC D
k ur
ĠF e
o c
Ġerwar tet
ĠFrank furt
ĠSch Ã¶n
zÃ¼ glich
ĠComp uter
be d
ĠBas is
P l
ĠSta at
Ġge bracht
ĠAn forderungen
Ġprof ession
2 4
pro gramm
1 6
ĠL og
Ġregel mÃ¤ÃŁig
z ut
ch ter
f est
Ġerforder lich
ne ten
ĠS oll
Ġver gessen
er weise
ĠK an
d i
rÃ¤ um
ĠT Ã¤t
ĠReg ierung
Ġn Ã¶t
ĠVer fahren
Ġs orgen
Ġden ken
w ig
v en
Ġaus schlieÃŁlich
ll ung
ĠverÃ¶ffentlich t
Ġausge st
ĠRei he
Ġso weit
Ġw ider
Ġm ax
imm el
og ra
2 5
ĠD is
ĠBed Ã¼rf
V on
Ġ '
ĠAut or
sch au
ĠFÃ¤ llen
1 3
ift ung
Als o
ĠI s
A R
richt ungen
flÃ¤ che
tw och
ĠB al
Ġab zu
ĠD eine
Ġl aufen
sch ung
Ġwel cher
Ġgro ÃŁer
z un
ĠStand ard
ĠCh ance
Ġgl Ã¼ck
Ġbest Ã¤t
Ġ200 9
ĠH el
ĠS atz
walt ung
ĠR hein
le fon
ser v
ĠRe ch
ĠFrÃ¼h stÃ¼ck
it zt
ĠÃ¼ brigen
ĠnÃ¤ her
t ritt
Ġl eich
los s
u pp
ĠAn bieter
t ur
Ġer leben
ome ter
Ġ: )
Ġal te
ĠIn dustrie
ĠImm obil
Ġer g
Ġsol chen
Ġs etzt
Ġj unge
s eh
Ġwen ige
ĠVers ion
it al
neh m
ĠC as
Ã¤n gen
Ġfinde st
ĠD ein
ma ÃŁ
Ġso gen
i me
Ġwunder sch
ĠFor um
ĠI t
or te
A dresse
ĠT op
ĠAus land
p d
ent wick
Ġgleich zeitig
v ol
ĠSu per
be w
Ġz entr
ĠBe k
g ern
Ġvor stellen
p age
sch riften
sph Ã¤re
Un ter
edig lich
ĠB ru
A T
Ã¶r t
ĠSmart ph
Ġgut es
se e
ĠViel e
Ġper fekt
zeu ge
anz Ã¶s
l Ã¶s
p ack
as che
ĠH und
ĠÃĦ r
u ft
as en
Ġumf assen
Ġmittler weile
Ġver antwort
ĠM obil
Ġber uf
ĠBer eichen
Ġlang sam
fl uss
ĠK lei
ĠGes chen
Ġl aut
ĠM orgen
ĠMet ho
p ark
ĠW ohl
Ġsch lieÃŁlich
ĠBÃ¼ cher
te ll
Ġwir tschaft
Ġ201 9
Ã¼r t
ĠC ook
at ik
Ġel ekt
ĠVers and
ĠF en
ĠhÃ¶r en
D urch
h aben
Ġunter sch
ĠSpiel e
ĠAll erdings
ĠPro jekte
Ġk omp
ĠGew inn
os s
d s
aus o
Ġwar ten
leb nis
Z um
ĠBeruf s
war z
lin gen
ĠS ym
l es
mit tag
i ar
Ġdar in
Ġgesam te
ownlo ad
Ġzie hen
Ã¼t zt
wohn er
Ġvers ucht
Ġt Ã¤t
p e
Ġgew Ã¼n
ĠSch wer
Ġnotwend ig
la st
Ġbe antw
fol gen
ĠAn zahl
ĠU N
ĠhÃ¤t ten
4 0
l eitung
ĠVeranstalt ungen
ĠRe gen
ĠT V
was ser
Ġer ster
o x
. -
ĠGer Ã¤t
ie gel
Ġd ank
Ġdurch aus
ĠKommun ikation
) :
Ġgew innen
n ungs
setz ungen
ĠMot or
W ar
ĠK reis
ĠSch m
gel d
ĠN ational
gl isch
Ġ[ âĢ¦]
Ġaus reichen
Ġw Ã¤hlen
ĠðŁ ĺ
fer enz
Ġzwei te
ĠS achen
ĠMode ll
Ġ Ã¤u
z on
ei ert
Ġan ges
ir t
Ġhoch wert
l ig
Ġgel esen
ĠBen utz
ennt nis
Ġeinz ig
Ã ľ
ĠP unkte
Ġd rin
an lage
l ing
Ġzu vor
ĠZu gang
beh Ã¶r
ĠverfÃ¼ gt
ĠZ eiten
Ġo ffiz
ĠN un
ĠOr d
ĠK amer
ĠV ielleicht
Ġher r
ost et
ist ischen
ĠUm gang
Ġf l
Ġob wohl
Ġer he
mit te
zeu gt
geb aut
Ġirgend wie
ber t
Ġp asst
ĠInf os
s sen
ĠAuf enthalt
ĠL ust
ge geben
P h
ĠA bl
rau cher
olle gen
ĠMe ter
ĠbenÃ¶t igen
d a
stalt ung
ĠFar ben
ĠfrÃ¼ h
Ġander er
b Ã¼r
Ġl au
bau en
f lug
k unden
ĠDisk uss
Ġ us
ur f
U S
ennt nisse
Ġverl oren
Ġt ut
ĠWind ows
Die ser
ĠDeutsch e
p el
ĠAn der
an en
Ġper fe
pf lich
Ġzus Ã¤tzlich
eich ert
ĠDon nerstag
ĠKon z
qu em
Ġverl assen
Ã¤hr t
ĠT isch
Ġerwar ten
ĠSch au
ĠB ab
ĠE vent
er in
Ġkon k
ĠN ame
Dies es
ĠFahr zeug
ĠSon ne
ig ungs
Ġsch rift
ĠH ig
Ã¤us er
Ġbes uchen
Ġgef Ã¤llt
O N
ĠAn trag
L ie
w ort
omm un
ĠAr beiten
ĠH aar
Ġh istor
och ter
Ã¼ ge
Ġbestimm ten
c ial
4 5
an st
ĠG elegen
im ent
zun ehmen
y r
Ġkommen den
Ġinteress ant
ĠIn sel
ĠVer Ã¤nder
reu ung
st euer
l etzt
Ġdenn och
Ġ200 8
ĠAb schluss
vers icherung
Ġf ertig
ĠFuÃŁ ball
ÃŁ t
ĠMark eting
Ã¼s se
or gung
Ġent stehen
Ġde fin
Ġlie ben
Ġd einer
ĠUn ser
af Ã¼r
Ġauf zu
O b
Ġw obei
s eiten
ĠS ohn
ieren den
ĠHer steller
ĠPh il
Ġm en
il f
Ġsch auen
ĠErw achsen
ĠB on
o ut
ĠAl tern
ĠA ma
ĠP fl
v e
sp ar
k om
ĠStud ium
s itzen
ĠKÃ¶n ig
ĠA G
bar keit
st ruktur
stell ten
fÃ¼hr en
geh end
ĠI I
ĠVor stand
ent liche
rÃ¤ ger
alis iert
Ġle gen
Ġn ah
st o
iell en
ar r
lie ben
ĠL Ã¤nder
att form
ĠÃ¤l ter
Ġj Ã¤hr
z ehn
w agen
w ind
ĠSch aden
as chen
Ġf ragen
O S
ĠBe ding
ĠGeb Ã¤ude
Ã ĸ
ĠK unde
os sen
ich ter
Ġan gen
Ġunterschied lichen
Ġausge w
Ġzus Ã¤tz
ier ungen
Ġwen igen
Ġpersonenbezogen en
M ein
f alt
geb iet
Ġbe wer
Ġh ol
z eichen
am a
n a
ĠLÃ¶s ungen
Ġbesonder en
Ġun abhÃ¤ng
ick s
Ġwen den
ĠPro zess
Ġent schieden
un ternehmen
Ġneu er
ie lle
ĠP C
enn e
Ġer lau
ĠermÃ¶glich t
Ġl ediglich
Ġsein es
s wert
ĠGrÃ¼n den
ĠHo ff
s h
ĠP al
Ġeh em
ier ter
for dert
ĠDank e
ĠVers icher
rie d
Ġnach dem
ma il
ĠKÃ¶l n
ĠFl Ã¼cht
Ġd isk
Ġbesonder e
ĠR und
au l
ĠS uch
Ġkl ass
D ann
ĠT o
tern e
ĠG et
M ehr
Ġsei en
st Ã¤nde
ĠK urz
ech net
ĠBe vÃ¶lker
ĠAn frage
En t
In nen
ĠAn aly
ĠUm setzung
ĠWe ge
Ġgu ter
er r
Ġdurch gefÃ¼hrt
ann en
Ġeinz ige
V O
ĠEr d
lei che
ĠDa her
Ġgen annten
Ġ3 5
an cen
j en
ĠverfÃ¼ gbar
w ser
ĠMit twoch
statt ung
9 9
ĠT raum
Ġst e
ĠðŁ Ļ
ar ian
E L
Ġh alt
s se
Ġindividu ell
ĠHand y
k arte
zi f
ĠMa in
Ġintern ationalen
rie f
ĠSt at
h af
ĠAll es
U N
rÃ¼ck en
Ġnie mand
v iel
ĠT re
Ġzu letzt
ĠKon zept
Ã¼ b
b ieren
D en
ĠM ie
ei che
Ġbeg eister
ei det
uch s
ĠFrank reich
ĠBe stellung
ĠB ur
hol en
ĠZu dem
Ġf Ã¶r
Ġwahr scheinlich
K on
uf e
ĠIt alien
Ġnach halt
ĠBild ung
ks hop
ver ein
de te
ge g
ĠD igit
I st
glich en
enn ung
Ġin tens
d orf
ĠAn meldung
lich keiten
h ause
mitte lt
ab t
ĠauÃŁer dem
ieren de
reu z
Ġgem Ã¼t
reu t
ĠA c
ĠOrganis ation
Ġabsol ut
rau t
ang er
ĠB il
Ġbet eil
Ġbet r
z eigen
ĠbenÃ¶t igt
Ġj en
ĠHer bst
ĠD ach
stau sch
i kt
ĠGeburt stag
Ġver pflich
ist ik
ĠSe x
eu cht
sch n
ler nen
ĠR el
v is
rei te
lie b
Ġw ann
Ġihr es
re cher
eh mer
au st
ĠS il
ri ffen
ĠW est
part ner
ĠAu ÃŁen
ĠVer wendung
Ġk ennt
Ġhin zu
b y
g ren
Ġj ungen
Ġgem Ã¤ÃŁ
Ġteil weise
oll ar
ĠForsch ung
w esen
ĠK ampf
a el
ĠB aum
Z ur
D F
leist ung
ĠS emin
Ġentsprechen d
ill e
it ionen
rÃ¼ che
Ġus w
G en
pr ess
Ġgar ant
u elle
ĠBe zug
ĠL iter
ĠRe chte
Ġ5 00
ĠKar te
ĠV is
w en
ĠÃĸff entlich
iz iert
ĠJ a
z in
m ut
Ġgen auso
ver kehr
Ġte lefon
Ã¤ den
Ġdein em
Ġge legen
Ġautomat isch
J Ã¤hr
ĠN a
Ġer reich
ei tern
ĠBed arf
ĠwÃ¼n sche
ĠBe wer
ĠK arten
ĠTrain ing
Ġs ah
Ġ reicht
ĠZwe ck
ik e
ohl en
ĠMill iar
Ġk Ã¼
N un
etz ung
Ġbeg innen
our n
ger icht
ĠZent rum
Ġda hin
bur ger
ĠKlim a
ur m
ĠHome page
h ann
Ġbew usst
it en
ĠAn wendung
ĠR uss
Ġm uÃŁ
8 0
e y
Ġqu al
wir kungen
ĠT at
ĠMus eum
Ġvor aus
lei ter
ĠInform ation
ĠFar be
ĠK r
Ġgeb oren
ĠÃľber blick
hol t
ĠExper ten
Ġall eine
ĠFen ster
Ġher unter
Ġehem al
A l
ĠGelegen heit
ver lÃ¤ss
gem einen
Ġbestimm te
st eht
ĠVer halten
ĠT ochter
s etzt
ĠGott es
eu ten
ĠTe x
ĠGes icht
ib el
zahl ung
ĠI r
zahl t
al k
g ruppen
Ġgest alten
a i
gesch ichte
ĠðŁĻ Ĥ
fern ung
Ġentsprechen den
ĠpersÃ¶n liche
ad em
Ġwissen schaft
Ġr es
ĠFÃ¤ h
Ġso dass
ĠH aft
is iert
ĠH eute
Ġbe quem
p ublik
Ġin zwischen
Ġbet rÃ¤gt
ĠgroÃŁ es
f o
ĠR eich
ĠKl asse
ĠfÃ¼hl en
ir m
ĠDien stag
ĠM acht
ĠÃ¼ber all
ĠSe e
de st
ĠÃ¼ber ras
o ver
r es
ĠBe f
mer zen
ĠBet t
T e
ĠÃ¼ber nehmen
r t
ĠTeil nahme
lei sch
Ġ19 6
G er
ĠWÃ¼n sche
sch uss
J etzt
ĠS ach
Ġsp r
Ġg rÃ¼n
Ġfal sch
p ft
lin ge
ĠBay ern
u hr
S G
u ster
Weiter e
Ġent gegen
ĠÃĸffentlich keit
sp ir
Ġwichtig er
2 2
ĠSt ein
spr ache
ĠZiel e
it ieren
ĠHeim at
Ã¼t z
Ġm in
ĠstÃ¤nd ig
ĠTem peratur
ĠStud ie
ra ktion
sl etter
ĠEr inner
ĠGe bie
u ck
ĠProdu kten
Ġun g
ĠVide os
b il
ĠPlan ung
ĠVerantwort ung
ĠHinter grund
er klÃ¤rung
g arten
Ġber Ã¼ck
ĠG r
ĠM at
Ġer stellen
ele v
ĠerklÃ¤r en
oll en
st ru
ĠKil ometer
ĠEr de
ĠN atÃ¼rlich
Ġ #
Ġl ohnt
H eute
Ġern st
ed es
ĠW ander
p assen
ĠBeding ungen
ĠK ollegen
ĠgrÃ¶ÃŁ te
Ġum fang
ott o
ĠL Ã¶
b s
Ã¤l fte
ĠB ade
ĠVer k
ĠAl b
ĠVort eil
a kte
Ġs ehe
Ġge be
ed ia
Ġeinzig art
Ġ200 7
. :
ĠP o
Ġaus drÃ¼ck
Ġnoch mal
V ers
ĠT ats
Ġin tegr
Ġein gesetzt
0 9
ĠH immel
G es
lu st
ĠKaff ee
ĠVol ks
ĠFrei zeit
Ġinteress iert
ĠGrÃ¼n de
ĠI S
ĠD auer
ĠFlug hafen
Ġmehr eren
ĠEn d
ĠCook ies
gew Ã¶hn
ĠLes er
ei sen
ĠT iere
Ġsp richt
ĠRei sen
ze p
ist ische
ĠGrund lage
Ġmus st
verb and
ĠW Ã¼r
ĠR ein
Ġrel ativ
Ġeur e
ĠSp an
, -
ĠT ro
ĠK or
ha ber
alen der
mo sphÃ¤re
ak et
ĠS onder
Ġgest ern
ĠEU R
Ġhil f
b lich
Ġmit einander
ĠUnter such
Ġge grÃ¼n
Ġheut igen
bei tet
Ġviel fÃ¤lt
ĠZ ahn
Ġm m
ĠRe st
in ess
d o
ĠK Ã¼nstler
Ġgef Ã¤hr
ĠBe stand
! âĢľ
ĠMed izin
ĠVer gangen
ĠBer icht
Ġa chten
rÃ¼ck e
ĠT ab
el s
O R
D anke
ĠLin ks
fÃ¤h igkeit
Ġ *
z ur
Ã¶t zlich
Ġein gesch
ĠD ownload
Ġge dacht
Ġverbesser n
ĠermÃ¶glich en
rau cht
ĠSch we
Ġext rem
Ġschnell er
re ter
ber eitung
ĠM eine
Ġwir st
Ġl eisten
h ei
ĠVerein s
forder ung
Ġklein es
schlÃ¤ ge
ap an
Ġar beitet
ĠD om
ĠD oppel
p asst
ĠMilliar den
S ystem
Ġsicher lich
p a
Ġ4 5
f reund
ĠGren zen
ĠAma zon
st itut
ĠEind ruck
ĠH unde
aben d
Ġk rit
Ã¶ pf
ĠSch rift
Ġgesch lossen
n ungen
Â ´
ĠRis iko
Ã¼nft ig
Ġda gegen
g art
Ġglau ben
N eu
ĠLeist ungs
ĠD afÃ¼r
ĠZ eichen
zeich nung
tt rakt
ĠW Ã¤hrend
it Ã¤r
w o
E D
ei ern
A L
ĠÃ¤u ÃŁer
h el
ig ungen
ĠHoch zeit
Ġsozi alen
ĠAntw orten
ĠFre unden
wend ungen
la fen
ĠGer Ã¤te
am in
ĠZeit raum
ĠG old
Ġ reich
M eine
ĠGe fahr
ĠWar um
Ġher um
Ġgrund sÃ¤tzlich
âĢ ¢
ann e
ĠBevÃ¶lker ung
Ġk amen
itz er
wer te
ig ur
Ġge z
ĠEurop Ã¤ischen
is ierung
Ġwel chen
ĠNach bar
âĢ ĺ
u be
ĠV ier
0 5
D och
il det
ĠZu stand
ĠGl as
Ã¶ se
Ġaus fÃ¼hr
ĠG eist
Ġbegeister t
ge legt
M ar
A pp
Ġin stall
Ġgen annt
ĠbeschÃ¤ft igt
ĠA dresse
ĠArbeit geber
ĠVergangen heit
stimm ungen
Ġw Ã¤ren
Ġzun ehmen
T he
ĠB aden
Ġsollte st
Ġan d
Ġf allen
k ont
ĠBÃ¼r o
Ġange geben
ĠSt utt
Ġun er
k raft
ĠSon g
Ġ 01
Ġab geschlossen
sp rÃ¼n
Ġzahl reichen
s m
ĠÃ¼brigen s
Ġbe ob
ir n
ber eit
ann ung
ĠLie bl
ll er
ĠAktiv itÃ¤ten
r ig
Ġer inner
ĠFahr t
ĠA mer
Ġges etzt
Ġm obil
wer ke
Ġern eut
Ġa cht
Ġo ber
b ol
Ġl ag
Ġsinn voll
Â °
k ommt
ges ellschaft
ĠWett bewerb
ĠM art
Ġfol gt
au sch
ch em
un kten
Ġk ompeten
ĠG lau
ar zt
z Ã¤hl
Ġtoll en
on at
ter t
N icht
ym p
for men
J e
ĠKo oper
201 7
ic ro
Ġm er
ĠtÃ¤t ig
ĠTran s
schein t
ĠS and
ĠC amp
man agement
Ġre duz
Ġdisk ut
ffiz ien
Ġw ichtigen
ĠNach richten
it t
Ġausgest attet
te uer
amm t
I CH
ĠSt ar
es e
Ġes sen
Ġ )
v an
Ġw eder
g ut
ĠEin sch
ĠAn lage
Ġkl icken
Ġgesp annt
st ud
ĠGesch mack
Ġmax imal
2 3
gef Ã¤hr
ei ls
9 0
Ġm achte
ĠEigen t
ur op
Ġm oder
Ġtot al
ĠVerb raucher
Ġsp iel
Ġent standen
Ġer h
Ġm ache
g rÃ¶
Ġnie dr
angeb ot
k ir
ĠBet eil
ĠP ublik
ĠG rad
ĠWeiter e
ĠBeit rÃ¤ge
Ġ3 00
Ġpro duz
Ġs auber
2 1
ĠAus stellung
Ġge zeigt
al te
lin ie
ĠVerkehr s
ĠTr end
Ġre ag
ĠA ir
Ġ200 0
ĠEin kauf
ĠNetz werk
ĠGew alt
Ġk or
uch te
rÃ¤um e
ĠgewÃ¼n sch
Ġb ein
ĠKategor ie
ie gen
Ġgel ungen
ĠG raf
ĠL ager
e ster
S oll
Ġgesp eichert
L AN
ĠInform ations
ĠDienst leistungen
br uch
ĠWir kung
ĠS Ã¼
ĠTÃ¤t igkeit
we der
? âĢľ
Ġposit iv
ĠT yp
D es
Ġdau ert
ĠSchl uss
Ġentsprechen de
ĠL eider
on es
Ġeurop Ã¤ischen
ĠSt Ã¤r
ge ht
ĠFunktion en
ĠVort eile
Ã¼ss eld
ĠB rem
imm en
ĠF Ã¼
ĠSta aten
ĠKomment ar
Ġst arten
Â §
el ten
ĠF akt
0 6
mm ern
ĠB ack
ĠW olf
ĠSch iff
Ġunterschied lich
Ġdrau f
ĠBeh Ã¶r
g al
ĠC l
Ġauf genommen
ĠM erk
Ġk Ã¼r
ĠVerb esser
ĠNew sletter
Ġhervor ragen
om it
ut ion
ĠBeweg ung
ĠImmobil ien
ĠverfÃ¼ gen
ĠSchwei zer
S ehr
spiel er
bild ungs
ĠMan agement
Ġab sch
B es
wer den
de ck
tern ehmer
ĠZ uf
stÃ¤nd igen
Ġ200 6
etz te
Ġsie ben
Ġein iges
an gt
Ġj Ã¼n
us ste
ĠB u
Ġeng ag
ie ten
klus ive
ĠT rotz
ag n
ĠP fer
Ġer scheint
f assung
ĠUnter richt
m essen
Ġwill st
ĠSmartph one
Ġerz Ã¤hlt
ĠThe ater
ĠerhÃ¤lt lich
ĠGeschen k
Ġer stellt
ĠE t
Ġbek omm
0 3
ĠWor kshop
A u
ĠSicherheit s
z ir
Ġgek auft
Ġvert reten
ĠZahl en
mit glie
ĠUr s
Ã¤ng st
Ġun mittel
ĠIn iti
ĠSal z
l ad
form ular
War um
Ġverantwort lich
Ġbeg ann
Ġs e
ĠJugend liche
rÃ¤ gen
ĠP sych
Ġan bieten
u he
ren z
Ã¤nd ler
s Ã¤tze
Ġl angen
ĠBro wser
ĠT eile
bet rieb
ĠP resse
ĠAn schluss
ge st
au p
ĠZ wischen
rÃ¤ ft
Ã¤ ische
ĠLehr er
ĠWar en
il e
Ġvoll er
st es
W o
Ġt ief
ourn al
ĠH Ã¤lfte
Ġver n
minister ium
ĠD o
ĠJ es
Ġr ies
te sten
eh me
Ã Ħ
je kten
ĠH ar
v el
hr e
r ufen
ĠDetail s
G e
k Ã¼nd
ĠS zen
Ġle bt
ĠWor te
ĠH andels
ĠStra te
ĠJ eder
ar ch
0 7
Ġbede uten
Ġm elden
reg ierung
Ġst eigen
stÃ¤nd nis
Ġpassen de
techn ik
re chte
l ament
eid ung
ĠT or
ĠK ompeten
ĠAt mosphÃ¤re
ĠSchul en
son sten
ikan ischen
akt iv
ĠMa x
ĠMar ken
schaft s
ĠArch ite
ĠH ann
Ġzahl en
ĠBesch Ã¤ft
Ġw achsen
Ġentde cken
T E
Ġn eg
ĠFÃ¶rder ung
Ġs ex
ĠM eister
ĠSer ver
z um
Ġ rei
ĠDar Ã¼ber
Ġbe stellen
Ġs ucht
ĠCh ina
Ġver Ã¤ndert
spr ach
Ġk ostet
k or
Ġmen sch
Ġverpflich tet
ĠSch ne
rei g
in k
ĠNach richt
w Ã¼rd
ĠArbeit spl
ĠPart ei
echs eln
A kt
ot iv
Ġselbst verstÃ¤ndlich
Ġent weder
ĠEng agement
y er
ĠBetrieb s
ĠauÃŁer halb
Ã¤ ss
spiel e
em pf
Ġent hÃ¤lt
Ġd achte
ĠInter view
ĠO ut
ĠKrank heit
Ġge fÃ¼hrt
ĠSt r
om as
ri min
Ġwill kommen
al z
Ġk re
m achen
Ġan s
Ġgef ragt
ĠFrei heit
Ġwundersch Ã¶n
ĠHaus halt
ĠRuss land
Ġkont akt
ĠSpe zial
ĠWirtschaft s
Ġl etzt
Ġt ran
on g
Ġdir e
Ġlie b
ĠBe ziehung
wind igkeit
u x
Ġget an
ĠLin ie
ĠEin fluss
Ġs enden
ĠK oll
ĠP lay
ĠF rieden
Ã¤um e
Ã¤m pfen
ri d
ĠIn nov
ĠBe w
Ġt rÃ¤gt
ĠC lub
Ġunterschied liche
0 8
Ġkur ze
ĠE he
a ber
Ġt radition
voll en
acht ung
Ġzu k
0 4
le gung
Ġbeg rÃ¼
Ġp h
ĠSer ie
Ã¤r m
ĠS a
l uss
Ġsp aren
l i
C h
Ġerlau bt
Ġgepl ant
st Ã¤nden
Ġrecht s
ĠD orf
ĠR ot
ĠErn Ã¤hrung
ĠSt ruktur
h ung
Ġa ttrakt
ĠPfl anzen
st offe
jen igen
ĠWeihnacht s
ers eits
Ġgen er
tem berg
Ġinteress ante
Ġle cker
ĠMich ael
an e
Ġversch w
ĠÃ¼ber zeugt
Ġl ok
ĠnÃ¶t ig
frist ig
ĠM er
Ġbesch rieben
Ġfreu t
g reifen
M S
ĠM esse
lin ik
ĠFerien wohn
D eutsch
Ġteil en
ĠStutt gart
ĠK ann
ĠRech nung
k rieg
Ġerfol gen
ĠRe zept
ĠUnter schied
ĠZ eu
ei se
Ġpl Ã¶tzlich
ĠW achst
Ġs orgt
ĠStand ort
ĠE reig
i as
ĠerfÃ¼ llen
Ġausreichen d
Ġin nov
vers ammlung
ger ufen
Ġinform iert
ĠDok ument
lÃ¤ uf
Ã¼r en
Ġre ch
ĠAl ters
bl i
ĠÃ¶ff entlich
ĠVol k
ĠMin ister
o ben
ĠdÃ¼r fte
Ġfeh lt
ĠChar akter
ĠPe ter
ĠM otto
Ġber ichtet
l d
at es
Ġst ud
V D
ĠE d
ĠP ri
ĠKir chen
ĠQu al
ĠBild ungs
fÃ¤ lle
Ġtechn ischen
stell te
ĠJo hann
l Ã¤nd
ach ung
ĠBedÃ¼rf nisse
ra b
Ġd ur
Ġge halten
Ġpriv aten
sch er
ste chn
ĠB ot
Ġvor ber
ĠT on
ĠKamer a
se qu
ĠCh ancen
nis sen
Ġpolit ischen
ach er
ive au
Ã¼rt temberg
zie lle
he ber
G rund
Ġg leiche
Ġm ei
Ġintern ational
au chen
lin ien
ĠDas s
ge ord
D R
stÃ¤nd ige
Ġdar aus
ĠB ern
amp ag
z esse
ĠKom bin
ĠA bt
ad urch
gr ess
ĠB all
ĠWer bung
ĠÃ¼ber prÃ¼
Ġwes entlich
Ġsch Ã¼tzen
l ag
Ġerw Ã¤hn
ĠF eld
ĠEn glisch
ĠWeihn achten
Ġn atÃ¼r
ĠVert rauen
ĠJugend lichen
D at
Ã¼ hm
ĠP osition
ĠglÃ¼ck lich
Ġer gÃ¤n
s inn
hÃ¶r en
ĠFreund in
ss ystem
ĠH Ã¶r
ĠF el
Ġtechn ische
h ard
Ġd iver
ĠKl assen
ĠOr igin
Ġ200 5
Ġk Ã¶rper
de ten
ĠerfÃ¼ llt
p ekt
ĠFahr rad
w echsel
D amit
ĠR ab
P S
ĠBab y
mitt lung
Ġs amm
ik al
fahr er
ra el
ten t
ĠEr lebnis
b eite
Ġz Ã¤hlt
Ġge Ã¤ndert
Ġange zeigt
an lagen
el te
ĠF rie
E x
Ġge he
4 9
ri pt
Ã¤ h
ond on
Ġviel es
f achen
ĠGebie t
Ġf ach
B is
ĠPar is
form ationen
Ġeigen es
b ack
Ġf alls
ĠK ern
Ġbe zahlen
Ġgen Ã¼
ĠB rief
Ġgesetz lichen
ĠEmpf eh
ie fer
ĠM Ã¶
Ġwoll ten
! "
ĠDatenschutz erklÃ¤rung
om en
as h
ĠgegrÃ¼n det
Ġin vest
ĠFall e
ĠÃ¤hn lich
serv ice
Ġer geben
Ġ19 5
Ġhier zu
ĠHin weis
T V
Ġwir kt
ĠG ri
Ġw or
ĠRestaurant s
ehr t
p s
ĠTeam s
ĠHeraus forderungen
ĠViel zahl
Ġindividu elle
ĠLebens mittel
Ġsch reibt
ĠKrit ik
haf te
ĠErk rank
ĠY ork
Ġaus ger
hn ung
rÃ¤n kt
ĠUn fall
s burg
Ġd auer
Ġmein es
lÃ¶s ung
ĠstÃ¤r ker
Ġger ing
ĠF ans
ĠO pfer
in t
ĠGeh eim
ĠForsch ungs
ĠM aschinen
Ġdar unter
an a
a ke
pf el
pl Ã¤tze
rag te
Ġauf s
V iele
All es
S hop
ĠLei p
n icht
bar er
ĠP an
ir e
ĠLiefer ung
ĠR unde
Ġber echt
ĠA ss
Ĩ Ĵ
Ġindividu ellen
Ġverk aufen
be k
ĠDiskuss ion
ĠFern seh
ĠBe wertung
ĠC hem
Ġar beite
ro chen
ĠV arian
a ce
if ik
ĠN ummer
ru cken
Ġget roffen
ĠL ang
ĠRegel n
Ã¤d t
Ġbeh andelt
vent ion
ut lich
p unkte
ĠI mmer
ver fahren
Ġkon zentr
Ġm edizin
ĠÃ¼ber w
Ġpro blem
ĠM ir
Ġz eig
ĠP aar
ĠB rÃ¼
wert ungen
ĠT el
ĠMann schaft
ĠGer icht
ab et
ĠÃĦnder ungen
ĠGew icht
ĠSpr ach
Ġ15 0
ĠA ben
Ġfr anzÃ¶s
ĠA p
3 3
Â ²
ten d
Ġzu verlÃ¤ss
a der
Ġwel chem
ĠApp le
ĠmÃ¼s ste
Ġunter s
ĠWeiter lesen
ĠS PD
Ġp sych
ĠBet reuung
A G
ĠmÃ¶chte st
ĠUnter kunft
ĠVer stÃ¤ndnis
ver trag
Ġp rÃ¼
zus etzen
Ġ: -)
E T
ĠBerlin er
b ad
ĠG ute
ĠN or
ĠUm satz
en zen
Ġgew Ã¤hlt
Ġerst mal
ĠM icro
ĠschÃ¶n es
m ode
E G
Ġ3 6
hl ight
Ġmus sten
Ã¤d ag
ĠT abl
d ien
dr ich
ĠIn tegr
ick e
gÃ¤n ge
ĠSt iftung
2 7
Ġak zept
ĠBus iness
2 6
ĠP rÃ¼fung
bli othe
V ielen
f ter
ĠL eiden
ko hol
ĠM io
Ġvoll stÃ¤ndig
ĠVoraus setzungen
ĠW h
Ġam er
Ġverm eiden
ĠBet roffen
or ge
geb racht
ĠM ess
Ġirgendw ann
N ur
ĠHal b
Ġreg ion
am es
Ġgesch Ã¼tzt
Ġkomm e
Ġgemeinsam en
ĠT reffen
ĠL ive
ff er
Ġge Ã¶ffnet
ĠSch on
qu alitÃ¤t
Ġverb ringen
Ġgew onnen
Ġmit tel
ĠLauf e
ĠOrd nung
ra struktur
iv al
al es
ĠStimm e
sch nit
ĠD rei
am s
Ã¼ cher
ĠgÃ¼nst ig
Ġgesch afft
Ġt rifft
Ph one
ĠFall s
ĠF lÃ¤
ĠMon ats
ĠMark e
Ġs org
ot ion
h y
Ġb itten
Ġteil nehmen
ĠSt il
A M
Ġver f
Ġentsp richt
Ġho ffen
ĠG u
ĠK reuz
arb eiter
ĠS ehen
or y
Ġb as
s ser
ĠSo cial
Ġk ultur
ill a
Ġs Ã¤m
lieÃŁ t
Ġschwier ig
verb ind
ĠF it
hin dern
ĠD Ã¼sseld
Ġmoder nen
Ġkur zen
ĠAu stausch
ĠðŁĺ ī
ĠB rand
w enn
Ġp f
ĠS ter
Ġd ritten
S te
Ġt yp
gesch rieben
Ġn ennen
ĠM ig
ĠSe ele
bo x
inn ern
ĠH Ã¼
fol gt
N a
ĠPap ier
ĠZahl ungs
Ġbe wegen
Ġst immt
and id
ĠMot iv
K ann
ĠBesonder s
is st
rin ken
Ġung laub
ĠGet rÃ¤n
2 8
Ġe vent
Ġd ient
Ar t
ĠW elche
ĠMitarb eitern
ĠH ol
G esch
Ġb ilden
* *
Ġges ellschaft
ĠT w
a ill
Ġh Ã¤ngt
l og
umen te
Ġfrei en
ĠUn ion
ĠB anken
l iste
ĠAu ff
I D
zep te
k Ã¼n
ik ro
in es
at ter
Ġs itzen
z eige
Ġso zial
ĠM ass
Ġein iger
lapp t
Ġd anke
ĠMit tag
a sten
ĠSchl ag
ren nen
ĠL ondon
ĠEr satz
ĠF C
ĠAn sch
ĠUm fang
ĠKont rolle
ĠD rit
p ert
ĠHerr n
ist isch
tell igen
N atÃ¼rlich
so ft
ĠBei m
ĠSchlaf zimmer
ĠSpiel en
h ausen
ĠU pd
ekt or
os oph
r asch
ĠElekt ro
sp f
D ar
ĠT urn
b and
Ã¤m pf
Ã¤n e
ber n
Ġur sprÃ¼n
S h
or tet
ĠDeutschland s
3 5
ĠB ud
ĠO per
och e
Ġeinzel ne
ĠGe f
N eben
eich ern
ic s
W est
0 2
Ã¼ck en
Ġansch lieÃŁend
201 6
Ġruh ig
ĠRe d
Ġnah m
ige m
ĠV it
Ġlin ks
Ġge gangen
Ġelekt ron
spiel en
ĠSch nitt
Ġl aden
ĠP DF
recht s
ĠT rau
Ġzie ht
N ein
re ck
Ġbeantw orten
entwick lung
Ã¼lt ig
ĠP ersÃ¶n
Pro du
v ier
ĠAuf bau
d auer
ĠL esen
ĠK u
Ġprof itieren
ĠÃľber sicht
ass ungs
Ġpassen den
Ġre den
ĠW echsel
Ġe ffekt
Ġkomm un
ĠL eit
ĠAu ge
alt ung
Ġbesser e
ĠWar e
Ġerle bt
ĠEin blick
ĠT herapie
Ġâ ĨĴ
Ġperfe kte
hl t
ĠBal kon
wei te
ĠW and
zieh ungen
b i
ĠS ing
Ġvor gestellt
ĠP rem
ĠEin tritt
w enden
Ġzu erst
ĠJahr zehn
Ã¤te stens
r iere
ĠH andel
g te
Ġbetroffen en
ĠS ehr
Ġk enne
ĠInter ess
Ġver hindern
ĠHin weise
ĠVerl ag
en ken
Ã¤ st
ivers itÃ¤t
Ġbe zeichnet
gel assen
b lichen
Ġex ist
ĠS eine
p o
ĠBer at
ĠFÃ¼hr ung
ĠStu denten
ĠzusÃ¤tz liche
Ġl eg
Ġs icht
Ġschl imm
ĠV ielen
ĠHeraus forderung
Ġf Ã¼
ĠMaterial ien
ĠBe st
ĠLu x
ar tet
ĠW under
zen z
c m
ĠÃ¼ber zeugen
ĠBil dern
ru g
ĠKont o
k ul
ĠK Ã¼hl
ĠKooper ation
op t
Ġgesp ielt
ĠKomment are
Ġd est
ĠWer te
ĠAus gabe
ĠD adurch
U R
Ġb uchen
ich ert
ĠT ick
o f
leist et
ĠGesundheit s
us e
ĠGesch ichten
Ġz Ã¤hlen
Ġerst mals
ĠV o
m ark
Ġverl ieren
ĠW ichtig
Ġpolit ische
ĠRÃ¼ck en
alis ieren
ĠP il
ĠSchl Ã¼ssel
Ġtelefon isch
ĠK al
Ġt ro
ĠGe staltung
Ġintern ationale
ĠEin richtung
Ġlie fern
ĠTran sport
unde stag
Ã¤ umen
w art
ĠMed ik
ĠW eil
ĠPrÃ¤ sident
glich e
Ġf roh
on en
Ġm el
Ġge d
le ger
ĠSp eicher
Ġweiter es
ĠÃĸ l
Ġweiter er
sie ht
ĠZug riff
Ġf lex
Ġlie ÃŁ
ĠfÃ¶r dern
ĠprÃ¤sent ieren
mer z
eil ung
ĠE mail
ichte te
ĠN utzen
ĠB lu
vol ution
Ġp ar
Ġj ung
Ġb reit
ak ten
Ġauf merksam
ĠP rakt
ĠMart in
lie gt
Ġ >
T ag
ĠA gen
rie be
d at
Ġgemeinsam e
sch rank
ĠEin fÃ¼hrung
ĠT ri
ma ÃŁen
ĠGlau ben
W Ã¼rttemberg
ĠF leisch
ĠfÃ¼hl t
spart ner
ĠVer Ã¶ffentlich
Ġbeh aup
Ġaus pro
t lichen
Ã¤ ck
ĠÃ¼ber tragen
Ġerle d
Ġer innern
ĠPrin zip
Ġbek annte
erv ice
i os
Ġh and
sl am
ĠP oten
ess our
ĠZeit ung
ĠTechn ologie
Ġsch au
Ġt reten
ĠKon s
Ġehr lich
ĠSu pp
Ġersch einen
ĠWahr heit
B et
st a
Ġn ett
ro id
ĠVor der
Ġein deut
Ġz eich
zuf Ã¼hren
e ck
ok us
Ġeinfach e
den burg
am b
k arten
mm e
ĠMed ia
ĠAr ten
k unde
ĠD ro
ĠVert rieb
ĠAut om
ĠRel ig
ĠTele f
ĠschÃ¶n er
Ġbem er
Ġs eid
ĠschÃ¶n sten
olog ien
S c
lie fert
ĠTh omas
ĠH or
ĠunabhÃ¤ng ig
Ġsozi ale
ĠL o
Ġver Ã¤ndern
Ġ3 2
sch irm
lei tet
ĠH Ã¤nde
ĠGut schein
Ġg rÃ¼
ĠH ilf
lie fer
olog ischen
ĠWer be
gang s
s itz
Ihr e
ĠAuf nahme
ĠTerr asse
r hein
Ġspann end
ĠStÃ¤d te
P f
Ġreg istr
ĠO ffen
Ġi Phone
ant ie
Ġstell te
en a
Ġer weiter
le cht
Ġw usste
zeich nen
ĠKonz ert
Ġmit tels
Ġl Ã¶sen
Ġte uer
Ġverk auft
g o
en ter
ĠB ier
ĠInst all
il ien
Nach dem
ogra ph
! )
Ġl auf
ĠNeu e
Ġsch icken
ĠFÃ¤h igkeiten
ĠHer ren
usst sein
Ġbeg onnen
ĠKon fl
ĠF rem
ĠEin kommen
end ung
Ġj ahr
ĠAn lagen
ĠGer ade
Ġbeh alten
ĠR ock
sichtig t
p olitik
ĠT radition
ĠTÃ¼r k
ĠK er
Ã¤hl te
Ġentde ckt
Ġaus einander
Ġoffen en
ĠSt ress
ot ograf
ĠKombin ation
Ġsch rei
iv il
O r
ĠAn teil
ĠChe f
or ie
Ġnie der
Ġleich ter
ĠTats ache
Ġ200 4
ĠVerÃ¤nder ungen
ĠAus wirkungen
st Ã¤r
rÃ¤ umen
Ġn utz
as zin
Ġber Ã¼hm
Ġfreund lich
ob by
walt ungs
Ġum gesetzt
ĠAn liegen
okrat ie
ĠStre cke
Ġstatt finden
ĠL aden
ĠVor sitzen
ĠL ern
alis mus
Ġspr ach
Ġjeden falls
ĠâĢ Ķ
bar ung
ĠD an
ĠN och
ĠF lu
ĠRe de
spruch s
ĠAuf merksam
ĠSt reit
ĠSch ritte
b is
ĠVer waltung
ĠLiter atur
2 9
h aften
ĠCas ino
Ġkosten frei
ĠBenutz er
ĠSemin ar
Ġbis lang
Ġer hoben
Ġumf asst
Ġein s
ĠDÃ¼sseld orf
st eigen
Ġaus geb
ĠH y
wissen schaft
ĠL aut
yn am
ĠFahr er
ĠEin richtungen
wir ken
Ġeinge laden
ĠD ollar
Ġverm utlich
ĠHoff nung
al og
Ġd ienen
Ġeinger ichtet
la ck
L e
Ġr elev
Ġdest o
ĠTermin e
ĠFeuer wehr
ges prÃ¤
it iv
ĠSchÃ¼ler innen
ĠÃ¶ff nen
h Ã¤user
ic es
Ġd ran
Ġregel mÃ¤ÃŁ
Ġver urs
ĠTrain er
at isch
Ġverst anden
Ġ it
ie ÃŁ
ĠAnsp rech
u k
ĠM iss
Ġkomp lex
or fen
ĠFor der
ĠEnt sp
g f
ĠUr teil
ĠP aul
ĠAb satz
ĠRe aktion
ĠTex te
etz ten
gem eine
p or
ĠkÃ¼ mmern
ĠausdrÃ¼ck lich
f alen
ĠW el
u ellen
ĠHo f
Ġschn elle
us sen
ĠS ein
ĠAnaly se
om ie
ĠS achsen
ĠHoch schule
ĠP rÃ¼f
ĠAlb um
Ġprakt isch
ĠN ahr
ĠZ Ã¼r
V ielleicht
Ġso fern
ber echt
Ġkontakt ieren
201 5
Ġbeein fl
Ġange messen
ĠSch loss
Ġl Ã¤ngst
JÃ¤hr ige
ĠPl attform
twick lung
b ett
ĠA lex
ic a
m aschine
ekt ion
Ġverw ende
ĠUm feld
ar if
Ġfor m
Ġf e
ĠC om
C D
m elden
rag ten
Ġpass ieren
Ġaus ges
Ġgel ernt
ĠGemein schaft
Ġaus sehen
ah nen
unk el
ĠSpan ien
Ġverg leichen
ĠSt off
ĠT al
ĠArbeit nehmer
ĠViel falt
ĠP ool
n etz
Ã¤dag og
Ġb lo
ĠJ ournal
Ġh e
ĠgrÃ¶ÃŁer e
ĠS how
ĠInternet seite
fÃ¼ llung
ĠA spe
ĠAbl auf
S eite
Ġl ust
schul en
Ġpl anen
ĠprÃ¤sent iert
fÃ¤ llt
ĠInst rum
f unktion
g ier
Ġbeglei ten
Ġm Ã¼
Ġger echt
ĠG as
Ġent steht
ĠZu hause
Ġ19 4
Ġsp ort
de cken
p lay
ĠLeip zig
ĠAufmerksam keit
ĠMetho den
W Ã¤hrend
Ġhol en
Ġhttp s
S T
Ġgl ob
Ġz weit
angeb ote
ĠB ra
Ġeinfach er
ĠbestÃ¤t igt
Ġb auen
ind ust
Ġf eiern
ĠjÃ¤hr lich
R eg
Ġf rem
wer be
b ungen
Ġver ab
Ġer leich
ĠPer spekt
Ġ4 00
nit ten
h och
ĠBe ste
kl asse
ĠAltern ative
sch auen
ĠHann over
ĠD eb
Ġan tw
Ġt rau
Ã¼s sen
B eim
ĠJahrhundert s
ĠAnd re
ĠAn zeige
ĠEntscheid ungen
ĠW LAN
re ff
Ã¼r e
maÃŁ nahmen
h an
ĠhÃ¶r t
sprechen d
Ġ200 2
Ġmodern e
for schung
ĠW es
7 0
ĠPublik um
aff ung
ge fÃ¼hl
St ud
O M
ĠNach mittag
Ġgeh abt
ĠAut os
R E
olog ische
ĠZ entr
r ik
SG VO
ĠM el
ĠW ell
Ġopt im
G em
Ġh eim
ra ges
ĠerhÃ¶ ht
ĠBahn hof
c el
ĠgroÃŁ art
ess or
ĠL Ã¤nge
ĠPro t
ĠU ser
h alle
Ġb eit
ĠDenn och
ĠKranken haus
ĠM od
Ġ orden
T echn
Ġs Ã¼d
Ġm otiv
ĠBon us
ĠGener ation
s a
ĠGrund stÃ¼ck
ĠRad io
y l
Ġun gefÃ¤hr
Ġge eig
ĠE p
ĠFrie drich
ĠO ff
is ieren
on a
ĠFr anz
ĠDurch fÃ¼hrung
L eider
isch em
ĠmÃ¶glich en
Pro f
indust rie
Ġw echseln
ĠSch reiben
ord in
ĠDat ei
ĠB undestag
ĠFit ness
ĠFil me
ĠC ont
Ġerz Ã¤hlen
Ġst aat
van gel
t es
Ġber ichten
Ġwir ken
Ġ =
ĠBehÃ¶r den
Ġl eiden
ĠK Ã¤ufer
ĠÃ¼bern ommen
. Â«
m und
ĠZ ul
auf nahme
fil m
vers orgung
Ġhin ein
Ġan erk
l Ã¤nder
zieh ungs
Ġ0 8
ĠVer z
Ġver lie
Ġgarant iert
Ġ; )
ang s
gew icht
f ar
re en
ĠMode lle
ĠJes us
ĠG rie
rei tet
ol e
Ġk rank
Ġsp Ã¤t
I L
essour cen
ĠVer hÃ¤ltnis
ĠPart eien
ĠPar lament
m acht
Ġsich ern
ĠD amen
P rÃ¤
Ġin kl
ĠF ein
ĠAuf wand
or ient
A P
Ġman che
ĠGeb rauch
ĠGegen satz
ĠF okus
eh l
ĠMa c
Ġf ehlen
ok ument
ĠEin en
ĠD el
hol ung
iert es
S er
ad a
Ã¼ se
Ġun ge
St and
l aufen
Ġb lau
ĠJ apan
ĠAnd roid
Ã¤n n
ĠKomp on
Ġr ichtet
Ġ200 3
ĠA f
si denten
ĠH um
Pro gramm
ĠSe kunden
Ġinteress ieren
D enn
ĠDr es
m aschinen
Ġmei stens
amil ien
em ente
ĠOrigin al
Ġbe stellt
Ġr en
k urs
Ġgest altet
Ġfunktion ieren
ar a
Ġdes wegen
ipp en
b ald
ĠG al
ber icht
sor ge
ĠM und
ri m
. âĢĿ
ĠH ans
? "
W elche
ĠM or
inder ung
ĠLand schaft
ĠBe zir
Ġgesch affen
Ġpriv ate
k u
ĠSchw ier
ĠWeb seiten
rÃ¤ cht
ot o
ber atung
ĠEin ige
lig a
ge wiesen
ĠK Ã¼nd
Ġge legt
Ġ rÃ¼ck
ĠBo x
ĠkÃ¶n ne
Ġ3 3
ĠM y
Ġgeb aut
Ã¤r me
Ġbes ucht
Ġa bend
Ġan sehen
ĠM ikro
Ġvor liegen
ĠVertrag s
Ġqual ifiz
Ġl Ã¶
Ġkl ingt
Ġ7 5
atz e
In ter
Ġg eist
19 9
ĠK ais
stell ungs
n ei
Ġz erst
d essen
zie ht
A D
B ahn
Ġsogen annten
il m
ant as
F alls
ĠDu sche
Ġver stÃ¤nd
ĠS im
ĠL ernen
ĠÃ¶ff entliche
Ġ1 000
om in
gesch Ã¤ft
Ġvert rau
v in
ĠEn tw
ĠMicro soft
ĠK ein
Ent fernung
ĠKar riere
ĠM ult
ĠAnsprech partner
stÃ¤t igung
N och
ĠS E
ĠD anach
in det
ur laub
ĠWachst um
ĠOb jekt
Ġl eist
ĠH alle
ĠZwe cke
ĠP u
ĠIntegr ation
D aten
Ġge zogen
Ġ5 5
Ġ Ã¤r
ĠLiebl ings
ĠEr klÃ¤rung
ĠBÃ¼ hne
lei sten
ĠI dent
z a
ĠG olf
seit ig
Ġf air
h andel
b liche
Ġhistor ischen
Ġdigit alen
sw Ã¼rd
ran che
ĠRechts an
Ġerreich bar
le bt
ĠI P
Ġa g
ĠK op
Ġan t
wÃ¤r t
Ġkurz er
g ner
gend es
ĠVers uch
Ġnie mals
ĠAuss icht
ĠPf licht
ĠEin fach
ĠerwÃ¤hn t
ot h
ĠprÃ¼ fen
ĠHig hlight
ĠM ut
rei f
ct ion
ĠMittel punkt
at oren
ig a
ĠBer eiche
ber ger
Ġin klusive
ium s
Ġer Ã¶ffnet
o sen
d t
Ġbesch lossen
Ġb i
A ut
ĠfÃ¼hr te
Ġm ass
az in
z we
Ġab w
ĠAn lass
b as
ĠSen i
w ald
aler ie
Ġ; -)
Ġverz ichten
Ġsch rieb
st ern
Ã¶r ung
I P
F l
Ġver sp
ĠMin dest
ĠO pen
_ _
ĠD enk
B ild
Ġkont roll
ort iment
Ġdau ern
st eiger
Ġerst es
ĠN ein
or ganis
reu en
ĠJ ack
isten z
Ġletz ter
Ġen gl
Ġgenau er
r ing
ann ter
ĠSie g
ĠEigen schaften
ĠJ ung
ĠVerbesser ung
inder t
ĠErwachsen e
Un iversitÃ¤t
I I
sie he
ĠVerl auf
men s
ĠH ard
Ġirgendw o
ĠBe stimmungen
Ġer lÃ¤
ert ifiz
ĠF isch
Ġaus geschlossen
uch ten
ĠW ild
Ġposit ive
w ander
Ġbek annten
te xt
Ġben utzen
nah m
ĠCD U
ĠZu sch
Ġein geb
Ġver gleich
ĠSt ock
arm on
ĠâĢ ļ
r is
Ã¤t zung
or s
i us
ĠFot ograf
Ġh andeln
Ġsch afft
stehen den
bliothe k
Ġangen ehm
f unk
amm elt
ĠProf il
Ġp reis
E U
ĠSch Ã¤den
Ã¼r n
Ġm aÃŁ
ĠK och
ĠO hne
3 6
ĠB io
Ġm onat
ĠVerm Ã¶gen
st u
ĠRom an
ĠSchul d
st ren
ĠErw art
p ol
t r
hÃ¤ng ig
Ġbe zahlt
form ation
Ġi dent
ĠerklÃ¤r te
ĠBran che
Ġbe we
ĠUr heber
Ġget r
hl en
Ġverst eht
ĠAd vent
3 8
Ġfeh l
an dern
u gend
ĠGrÃ¼ ÃŁe
ĠD VD
k ultur
Ã¶r dert
Ã¤ fte
Ġges ucht
201 4
M ark
n ummer
Ġverd ient
ĠB ach
Ġst olz
ober t
spl an
Ġb lieb
K W
Ġneue sten
k rÃ¤fte
ĠSchwer punkt
Ġben utzt
ger Ã¤t
ĠF ran
Ġsamm eln
ym n
Ġwar m
Ġfrei will
Ġverl etzt
lo ud
ar n
ikan ische
ĠE xt
Ġverst Ã¤r
Ġgel angen
Ġte sten
ĠAuss age
b art
ĠBru der
ĠTw itter
Ġbetroffen e
Ġ3 4
b indung
k m
ĠNeu es
ĠW il
Ġbet reffen
K omm
Ġbem Ã¼
H o
Ġsch warz
ĠTelef onn
Ã¼hl en
ĠP op
adem ie
ein igung
I G
Ġwei ss
ĠL eiter
Ġsch war
i den
Ġm oment
ĠH at
ĠVert reter
Ġc ool
ĠKind es
in u
Lie be
Ġintens iv
D ass
Ġst abil
F or
ĠR oll
W elt
Ġerinner t
ĠFÃ¤ lle
ĠD ial
ieren d
bed arf
Ġmit ten
ĠRe chn
Ġver arbeitet
ĠVor bereitung
Ġstark e
ĠJ av
ĠbeschÃ¤ft igen
Ġein sch
Ġne un
as i
ĠC af
ĠRab att
ck s
5 00
ĠTeil en
l eit
ĠT om
ar s
ĠKon kur
Ġge arbeitet
ĠA s
Ġso bald
Ġbes itzt
par atur
ĠEn er
ie fen
ĠP S
Ã¤l te
ĠIn ner
ĠMehr heit
gÃ¤n glich
Ġr uss
ur g
Sp iel
ĠK enn
Ġh aupt
fÃ¤h ig
ĠÃ¼berras chen
ĠAl kohol
Ġhin gegen
Ġsp Ã¤testens
ĠRe fer
ĠEben e
Ġhier bei
ĠSo zi
ĠD ritte
S el
ĠK G
ern er
... ]
M us
weis ung
ĠErinner ung
ĠMil ch
Ġges und
Ġge pf
hÃ¶r igen
ver ordnung
Â ®
ĠEis en
K ont
ag ten
lo w
ĠK ant
flÃ¤ chen
ĠNew s
ĠHaupt stadt
rÃ¼ st
st aat
it s
ĠAn f
ĠPart y
ĠUn ternehmer
Ġm ed
ĠS w
ĠZu stimmung
Ġk o
ĠGegen teil
ĠVersicher ungs
ĠJ ohn
f igur
ĠBewer bung
ĠAus druck
for dern
ĠStimm ung
k ampf
E M
ĠerhÃ¶ hen
Ġein fachen
ol den
O L
ĠJ ur
Ġhilf reich
L eist
ie fe
An geb
ĠAr g
ĠForm ular
ĠNach dem
Ġbrau ch
ĠAkt ien
Ġdrau ÃŁen
Ġerg ibt
ĠAng riff
rat is
un n
te ten
P art
ĠF inger
ĠS n
Ġbeglei tet
ĠAben teuer
s es
ĠR ie
im ierung
n Ã¼
ver l
7 5
Ã¤hl ten
Ġwunder bar
Ġstar ken
kÃ¼n fte
ĠSp enden
imm ern
ĠKrit erien
ĠTÃ¼rk ei
3 4
âĢĿ ,
Ġ0 9
ĠVort rag
Ġvor gesehen
ĠHa fen
ĠF o
em it
ĠLand kreis
Ġt o
Ġun verbind
ĠAus nahme
Ġso was
Ġkom bin
Ġsogen annte
3 9
ĠBel ast
k rank
Ġau ÃŁen
ĠR essourcen
Ġb rit
Ġaus s
ĠSoll te
t Ã¤u
ĠÃ¼ber sch
isch ung
ĠStÃ¤d ten
Ġjem anden
iff er
Ġver ste
ĠM os
ĠVer g
Ġt rain
Ġhei ÃŁen
Ġ0 6
Ġeigen er
ok al
ĠZÃ¼r ich
s zeit
Ġh art
ĠSt ad
Ġl and
b iert
ĠMin i
Ġr ufen
Ġide al
ĠN orden
ĠÃĦr zte
Ġden kt
b us
ĠS ign
D e
ĠFe ed
ĠAm t
Ã¶rder ung
ĠVer hand
he bung
Ġent lang
ĠBerat ungs
T S
spro gramm
Ġer l
ĠS orgen
I M
Ġs Ã¼
L and
ĠPrÃ¤ sent
Ġ4 8
wer ben
k omm
b ilden
ĠWohn zimmer
ĠÃ¼ber wie
sicht igen
Ã¼ ste
fahr ung
prÃ¤ gt
eu ern
isch t
ĠVor stellung
ien te
Ġan al
Ġehemal igen
ot os
Ġrech nen
will igung
is h
ĠgewÃ¤hr leisten
ĠP ay
ĠF a
Ġange kommen
Ġf ahr
ĠMetho de
Ġberecht igt
jahr es
ĠAr me
Ġkosten lose
ĠÃĦnder ung
ger e
Ġ reichen
Ġin spir
ĠAus stattung
H aben
Ġauf nehmen
nehm ern
et aill
Ġschrift lich
S ervice
ĠSchne e
J eder
en der
ĠIs rael
ĠgrÃ¶ÃŁer en
Ã¶r ter
ĠmÃ¶glich erweise
Ġ3 8
au ern
Ġr um
Ġher gestellt
Te am
zip lin
iz ieren
ĠÃľber rasch
J ahr
Ġall gemeinen
k ret
ĠStrate gie
b le
Ġmein t
ĠÃ¶ sterreich
Ġstar tet
pp e
ĠGren ze
Ġwieder um
Ġst eigt
Ġbed anken
Ġ200 1
M en
âĢ¦ .
it or
reg ungen
az ier
ĠZwei fel
ol er
Ġle gt
pp en
fÃ¤ llen
ru cht
s g
Ġunbe k
ĠStra f
ĠT rum
g Ã¤nger
UN G
Ġbet rifft
ĠEntwick lungs
ger Ã¤te
Ġsch m
it es
Ã¼ ch
ĠMa ster
Ġver mitteln
k an
Ġs an
Ġersch ienen
ik ations
Ġausge zeichnet
schie de
ĠLeiden schaft
ĠSchw anger
Ġdie jenigen
â Ĩ
pf lege
ĠFor men
r ang
ĠMedik amen
Ġi s
Ã¼ st
s eits
I C
Ġabsol v
Ġ6 5
ĠGem Ã¼se
Ġz er
ĠM iet
wei st
Ġm ach
ff e
ĠF an
Ġdeutsch er
ĠGer ichts
ĠW affen
ĠT anz
.. ...
Ġ0 7
r ichtet
fÃ¼hr ten
^ ^
ĠSehen swÃ¼rd
we ge
ĠAus bildungs
ĠInf rastruktur
Ġt ritt
ĠFinanz ierung
Ġdrin gend
ĠQu ellen
Ã¶r ungen
Ġan hand
- /
Ġges prochen
ĠZahl ung
ĠVerb and
n ur
ĠKre ativ
Ġn ehme
st eh
ĠmÃ¶glich e
Ġall gemein
ĠVer waltungs
Ġerfolg reiche
Ġf rage
Ġkor re
hal tet
ĠZ in
ent sch
Ġder art
Ġab gel
m esser
ĠK Ã¤
H ol
b rechen
Ġnahe zu
ĠH ein
3 1
o ge
ĠL ab
Ġdigit ale
Ġg gf
bl att
Ġoffen bar
d am
iel ten
Ġfr isch
I V
ĠRe alitÃ¤t
ĠGÃ¤ sten
Ġkom fort
Ġzu gleich
bÃ¼r ger
? !
Ġspe zielle
Ġtoll es
ĠIniti ative
ĠAn leitung
ĠAus sch
ĠKat zen
Ġf aszin
ĠÃľber n
ĠBundes regierung
Ġl ock
ĠM uster
ĠSch warz
ob ald
ĠC or
G ut
Ġverd ienen
sicht s
ĠSch merzen
ĠberÃ¼ck sichtigt
ĠOpt ion
ĠP la
m aterial
Ġbeg ren
stimm en
rain ing
f an
Ġvor ne
c y
1 00
gemein schaft
Ġh off
ĠR ob
ĠS icher
ĠBau ch
Ġaus sch
ĠBet reiber
ĠEin trag
ĠHer stellung
ĠK Ã¼r
ĠAut oren
ĠAm ts
ĠW ik
lei ten
st immt
t l
K inder
ĠUm stÃ¤nden
fer nen
ĠFakt oren
ĠBran chen
met ho
Ġbrau che
lad ung
D abei
ĠA hnung
ĠN iveau
ĠsÃ¤m tliche
ĠJ ungen
Ġver geben
stÃ¤nd igkeit
ĠC ity
s an
Ġ 000
Ġvorber eitet
l ehen
ĠL au
ĠStimm en
arb eite
ĠUnter lagen
ĠKar l
ĠBl ock
re gen
ĠDres den
Ġhier fÃ¼r
eu ert
Ġste ckt
Ġein st
ehn t
Sch on
Ġ25 0
ĠHaft ung
Ġbe geg
ĠTemperatur en
ffizien z
z lichen
Ġ eignet
Ġsol ange
Ã¤ sche
g ro
Ġor ient
Ġzuk Ã¼nft
Ġbes itzen
Ġbe ant
ĠB rot
fÃ¼ llt
ver waltung
ĠAktion en
201 3
ĠKl ass
ĠAus gang
Ġ12 0
ĠgenÃ¼ gend
end es
Ġhal te
ĠBe ziehungen
ger echt
ĠFahr zeuge
A B
Ġst ammt
Ġst imm
ĠFrÃ¼h jahr
West falen
ĠDr eh
ĠKap ital
ĠW ol
or et
b eu
ĠK ol
ĠZ ut
Ġvor zu
ĠK abel
z y
sen den
ĠBur g
ĠG erne
ĠK alender
spro zess
ĠHig h
re te
ĠÃ¤uÃŁer st
ausen d
ĠWell ness
Ġk g
ĠMet all
wer ten
Â« ,
Ġfrei e
ĠFrÃ¼ hl
mm en
ĠAn regungen
Ġbisher igen
b rit
wer ken
z ten
Ġbeob achten
ĠOrganis ationen
Ġbesonder es
te ste
ĠT ool
Ã¤us ern
zÃ¼ g
d rucken
ĠFlÃ¼cht linge
ĠPro jekten
p rÃ¼fung
ĠSitu ationen
ud wig
Ã¼hr t
Ġzeig te
ĠW agen
ĠQu art
ĠSte llung
ĠKom fort
ĠKompeten z
ĠGemein den
ĠD einen
ĠZ w
Ġvoll kommen
ĠfÃ¼r s
ĠReg ionen
ĠVor stellungen
ĠBe werb
ff el
s Ã¤chlich
lin es
l Ã¶sen
Ġtro cken
F orm
. [
ĠL euten
frei en
ĠW Ã¤rme
ĠH Ã¤nden
ĠKl ar
ĠP reisen
ampag ne
Ġb ill
S u
H in
ĠChrist ian
Ġeinge stellt
Ġd i
ie ht
ĠFern sehen
t au
ru he
Ġp oten
ĠLand wirtschaft
G anz
klÃ¤r t
ehr en
Ġst ra
ĠG Ã¼
licher weise
un ken
9 5
Ġal tern
Ġ Q
t eile
ĠFort sch
Ġget ragen
ĠTelefonn ummer
s n
ĠUS B
Sch Ã¶n
ĠGener al
Z us
ro ck
ĠD S
ĠĠ ĠĠ
ver anstalt
ĠUpd ate
Ã¤t zt
ĠK enntnis
ĠC O
Ġsch lieÃŁen
hel m
Ġgel Ã¶
ĠWas ch
k ap
ĠUntersuch ung
ĠVerÃ¶ffentlich ung
A C
ĠN Ã¤ch
ĠCo ach
ĠDem okratie
ĠSte u
r ise
ĠgewÃ¼nsch ten
ast rop
ĠWor ld
ĠVers orgung
3 7
Ġsch me
Ġauf gebaut
Ġevent uell
Ã¤ch er
ĠProblem en
Ġklass ischen
ger t
Ġab hÃ¤ngig
b eln
Ġan melden
v id
Ġre chten
ĠWer ke
ul en
it iert
ĠKn ow
ĠEurop as
ag s
ĠAl ten
Ġext ra
In s
ann ien
ĠTrain ings
Ġbekomm e
Ġfest gestellt
ĠNach frage
Ġkompl ette
as er
Ġit alien
ĠV om
Ġauf treten
ĠE gal
B l
C he
ant ast
ĠGrÃ¼ nen
ĠKap itel
Ġr ichten
ĠZus atz
kt or
Ġw est
Ġlau tet
Ġein schlieÃŁlich
Ġdies mal
ĠRo h
w Ã¤hlen
zÃ¼ ge
ĠF arb
il itÃ¤t
ĠTrotz dem
D em
w ay
ĠGemein sam
ĠBrem en
ĠG i
it ar
k at
ie den
rin k
ger ichts
kehr t
ĠGrie chen
ĠAus flug
f re
ul ation
D r
Ã¼ mer
ĠWohn ungen
ĠKin o
ĠBer eit
Ġkeiner lei
Ġo k
ĠGen au
ĠW in
ĠBed ien
Ġt au
I R
ĠAut ob
ĠS omit
Ġan genommen
ĠA fr
z ern
Ġerh ielt
ĠSÃ¼ den
ĠBeispiel e
lÃ¤ss lich
ĠDien ste
aff e
wei ten
druck t
Ġgeb lieben
ĠBade zimmer
Au ÃŁerdem
f rau
Ġet abl
Ġgew Ã¶hn
Ġr unter
Ã¤ g
ide o
g as
Ġge fahren
Ġf Ã¤hrt
ĠH aust
ĠPl Ã¤tze
euch ten
ĠRis iken
Ġein setzen
ĠW art
w el
leg ten
utz ung
ĠWeiter bildung
Ġerfolg reichen
Ġdefin itiv
ĠVer f
ĠY ou
ĠGrÃ¼n dung
ĠVer lust
Ġen det
frei heit
Ġe v
ĠK eine
Ã¶ hnen
Ã¶l f
ĠS ortiment
ĠAnsp rÃ¼che
ĠArbeitspl atz
F A
Ġspe zi
ĠÃ¼bern immt
co unt
Sel bst
Ġange passt
ĠJ ungs
ĠEin wohner
Ġbeteil igt
ĠVer pflicht
Ber lin
O n
ĠK linik
ĠSehenswÃ¼rd igkeiten
ĠJu bil
Ġg laub
ĠR ennen
c on
Ġgew isse
G eb
brit annien
ĠBau ern
ĠR uf
Ġver wir
ĠZu ge
Ġoptimal e
Ġsicht bar
ĠM r
ĠP aket
ĠEntwick lungen
ĠI N
Ġden k
Ġunglaub lich
ges p
ĠO bst
Ã¶ff nung
k und
wer ks
ĠBe wertungen
ĠPolitik er
Ġnoch mals
fÃ¤ llig
er ischen
ĠTe e
Ġk Ã¤mpfen
ĠB ord
Ġviel er
st ation
it a
ĠZusch auer
Ġbek am
Ġkosten losen
ĠIntern ational
ĠAn gabe
ĠDat eien
ĠK uchen
ĠZu cker
z iel
e ter
ĠN erv
Ġspann ende
ĠT a
Ġwes halb
Ġmein te
Ġjen e
ge staltung
ĠN Ã¼rn
ĠAuftrag geber
ĠAll gemeinen
ĠT im
ĠPark platz
Ġ3 7
ĠB M
ĠfrÃ¼ hen
ĠP et
Ġvor genommen
L E
ĠG Ã¶t
Ġoffiz iell
ter min
Ġempf ohlen
ĠGe gner
ĠNieder l
ĠZ oll
ĠW orten
Ġs itzt
Ġmit ge
ĠK andid
ĠZ it
Ġzunehmen d
i at
ĠWider ruf
Ġk auf
ĠBe gl
ĠKÃ¼ chen
ĠB in
ĠInstall ation
ĠBru st
ĠQu ad
ĠR ett
Ġz og
Ġbeg rÃ¼n
3 2
ul ieren
ĠE v
rech nung
ber ichte
ĠGanz e
ĠAspe kte
an ischen
c ess
ĠReg istr
Mit glie
beh alten
Ġl Ã¤dt
S S
ĠÃ¼ber t
ĠRe paratur
Ġrecht zeitig
Ġorganis iert
ĠWelt krieg
ĠB Ã¤
b u
Â» ,
ĠD SGVO
ĠBl umen
Ġf iel
ĠDigit alisierung
ĠK a
ĠtÃ¤glich en
Ġk Ã¼nftig
ag d
Ġt rinken
ill er
Ġsowie so
ĠGrÃ¶ ÃŁen
ĠGe gend
Ġaus sieht
ĠSp itzen
ĠEing ang
ĠS terne
ĠHaus es
los igkeit
m on
E m
4 8
M ir
rieden heit
Ġd ritte
ĠEr fÃ¼llung
Ġbe stens
ĠJav a
ĠNord rhein
re publik
ĠKontakt formular
Ġnotwend igen
ĠÃ¼berprÃ¼ fen
Ã¼r k
G ro
Ġst ren
ĠA sy
ĠgÃ¼nst iger
osoph ie
Ġdur fte
hol fen
ĠAn sicht
ĠEin stellung
ĠC an
ĠVer pack
ĠGer man
ohn e
lich ten
Ġbe zÃ¼glich
Ġsel ben
A ch
er ei
ktion en
ĠF ett
anz ler
ĠL eitung
ĠH Ã¤ndler
ĠK art
ĠVier tel
ĠO sten
ĠP unkten
ĠS yn
ĠOr te
ĠSym pt
h es
ĠF eier
ĠVer sch
w al
i qu
ĠP ause
Ġvor ge
ĠSystem e
ĠAr m
Ġspeziell en
ĠDar stellung
kl ar
ĠhÃ¶ch ste
A d
ab le
f reu
ĠTechn ologien
Ġgew issen
O der
ĠRe publik
ĠS tern
Ġge prÃ¼
ĠBet rag
Ġnormal en
Ġverb inden
ĠB und
Ġhal b
ĠVorder grund
wei l
in st
Ġum ge
lei ben
ĠR en
ĠErwachsen en
Ġa d
Ġoffen sichtlich
it h
aun a
ĠS amm
Ġreag ieren
ar kt
prÃ¤ sent
st unden
k aufen
S e
Ġan fangen
ip s
Ġansch auen
Ġvor ab
ĠA cht
Ġw eite
ard s
Ġver an
ĠTerr or
eig ern
ĠSch lieÃŁlich
ĠSch war
ĠFerienwohn ung
ĠKont akte
ĠSchwe ster
Ġbeh andeln
rÃ¤ glich
p al
ĠGeschÃ¤fts fÃ¼hrer
umen ten
ĠK Ã¶r
Ġdar gestellt
lei ster
lÃ¤ sst
opp elt
Ġw id
ĠgÃ¼nst igen
if ikation
Ġk at
P reis
h st
gem Ã¤ÃŁ
Ġd etaill
zen s
Ġschle chte
U r
O h
ĠSchÃ¶n heit
ĠAn wendungen
Ġfest stellen
Ġdurch schnitt
ĠRe al
ehm igung
ĠIns gesamt
Ġ0 4
ommun ity
ri ent
Ġange kÃ¼nd
Ġk ap
ĠApp s
ĠVor schriften
ĠN et
Ġhochwert ige
âĢľ -
ĠArchite ktur
Ġsol cher
t o
lÃ¤ ger
Ġd ro
war d
ĠBestand teil
ĠgelÃ¶ scht
ĠAm b
ol a
inu ier
!! !!
- -
Ġunmittel bar
ĠKomm ission
ul iert
im a
ahn sinn
Ġbe ziehen
ĠjÃ¼n g
ĠD einer
ĠKlei dung
ĠEin stellungen
ĠMitglie dern
ie ter
rÃ¼ chen
at ischen
Ġe chte
spr ung
D S
ĠA ch
ĠBe sten
ĠVert eid
ĠHaar e
Ġst ammen
Ġnach zu
ĠVerÃ¤nder ung
ĠKl aus
ĠauÃŁer gewÃ¶hn
ĠVoraus setzung
etz ungen
ĠWe sten
Ġges undheit
ĠZeu g
E l
ĠPl us
ĠE hren
sp unkt
d ig
ĠFeed back
r ation
ĠSp iegel
ĠGrund lagen
Ġbestimm en
ĠBe stell
ĠRei hen
w unsch
Ġn ein
ĠH an
ĠPersÃ¶n lichkeit
hÃ¶ he
A U
ĠSt au
Ġbr achte
Ġinstall iert
201 2
Ġsch lafen
ĠW eiÃŁ
ĠL Ã¼
Ġentsch eidet
ĠMÃ¶ bel
Ġerst aun
ĠVers icherung
d y
Ġoft mals
Ġeindeut ig
ĠBetroffen en
o ÃŁen
Ġum s
ĠM eld
ĠH andeln
itu ation
ĠVor feld
hÃ¶r t
ĠDi agn
ĠIm p
O P
e en
Ã¶r en
ĠH oll
R W
ĠSpr achen
ech sl
Ġbelie bt
H aus
Ġbet rieb
Ġin fo
s icherheit
behÃ¶r de
ĠSchwanger schaft
ĠJ ust
ĠÃ¶ fter
ĠD ingen
lu ÃŁ
ĠM om
ĠSch atten
ĠBe arbeitung
ĠÃ¼berras cht
ber ater
Ġlieb sten
Ġzu gÃ¤nglich
Ġehr en
I mmer
gesch lagen
ĠWeb s
ĠPol en
r Ã¤t
ĠB ill
Ġf ragte
an ter
Ġsch lÃ¤
ĠOb wohl
Z eit
ĠK os
ens ion
V om
ĠErwart ungen
Ġver mittelt
Ġf anden
Ġbewe gt
m ed
" -
ĠS ei
iv itÃ¤t
Ġdar stellen
ĠWir klich
Ġho her
ĠQu elle
Ġmoment an
ĠGr unde
wÃ¤r ts
Ġbetr achtet
Ġl o
ĠR Ã¶
ĠB or
ind ungen
ĠBe wohner
ĠInf o
ĠKom pl
ĠL ohn
ĠWorkshop s
Ġn utzt
gesetz es
Ġ0 5
ĠProf essor
ĠBes itz
St ra
Ġschwer en
Ġst elle
zus ehen
Ġgel ingt
ĠS P
ĠW M
f a
7 8
Ġl ive
ĠEr weiter
Ġproduz iert
Ġverl angen
sch reiben
ĠSitz ung
Ġwer fen
wer de
Ġwo hnen
der s
Ġuntersch eiden
ĠWill kommen
rau chen
Ein en
ĠÃ¼ber legen
V ert
Ġwenig stens
S U
ĠGel Ã¤nde
ĠF eiert
ĠberÃ¼ck sichtigen
ĠMin ute
ĠGefÃ¼hl e
on str
Ã¤ch eln
Ġ6 00
ĠT Ã¤ter
Ġsch aut
ot or
Ã¼t ter
ĠVor gehen
aly se
ĠB onn
ĠTrum p
og a
mmer t
ĠM and
ĠM odern
ĠTod es
ĠBer eits
z ellen
m l
ĠEng land
ĠEin willigung
stag ram
s Ã¤
ra h
rÃ¤ ften
beg inn
ĠKl ick
ĠhÃ¶her e
Ġda vor
pl atte
gen ie
Ġimmer hin
ver k
Ġverbesser t
ĠDar m
ck te
Ġend g
ĠC ent
ell schaften
ĠGesprÃ¤ che
ĠBesch reibung
b ilder
ie te
W ill
ĠÂ °
Ġk Ã¼nd
ipp s
Ġgesch ieht
Ġide ale
Ġkont inuier
Ġerz ielen
ĠGar antie
r ats
ĠRhein land
ar l
ĠPro zesse
ĠJubil Ã¤um
ĠSeni oren
ote ls
gesprÃ¤ ch
ĠgewÃ¤hr leistet
Ġkein es
ĠMar ia
p ass
Ġposit iven
ĠbegrÃ¼ ÃŁen
ĠGraf ik
Ġf otograf
w Ã¼r
ĠS at
Ġ3 9
ic al
ĠAu str
ĠSzen e
eh nen
ul in
ĠU l
ĠAbst and
rÃ¼st ung
ĠB Ã¶r
Ġdank bar
ig i
al so
G erne
ĠVerk Ã¤ufer
o ster
Ġp ol
ĠK ohl
stechn ik
Ġwir ksam
echsl ungs
kom pl
Ġh eil
br ing
Ġprofession elle
ĠSch uhe
sch te
Ġv ia
ĠInvest ition
Ã¶ff entlichen
Ġwichtig ste
ĠOl ymp
Ġsorg fÃ¤lt
Ġnach voll
Ġzu t
E igen
est ern
ĠB ri
ĠGl ob
ĠDial og
wick lung
s recht
Ġhaupt sÃ¤chlich
ĠNach halt
Ġg ingen
ĠE cke
ĠGesch windigkeit
ĠRes erv
Ġi P
Ġbeit ragen
ĠStud io
ĠH Ã¤user
del n
Ġre al
Ġbed arf
In stitut
Ġst er
ichtig ung
ĠH om
Ġs uche
fÃ¼hl t
sol v
rin zip
Ġgef Ã¶rdert
lÃ¤ss ig
ĠTour ismus
Ã¼ gel
ĠC ode
ĠAn gel
b ook
ĠWÃ¼n schen
Ġent fernen
ĠH u
anst alter
sp olitik
ĠF rist
ĠB em
ĠSt amm
M ode
Ã¼hl e
ĠMÃ¤n nern
ĠN ote
ĠS old
Ġent stand
ĠÃľber w
s c
Ġn ix
tel n
Ã¼ ten
Ġberuf lichen
E IN
ĠEin stieg
ĠÃ¶ k
Ã¼ bung
ĠMen Ã¼
Ġab gesch
Ġbesser en
agen tur
schein lichkeit
p rechen
ĠBe weis
osit ionen
ig ner
ĠM ad
ĠGetrÃ¤n ke
ra k
ĠHei z
ĠSchwier igkeiten
pro jekt
5 5
Ġbetr achten
sam en
Ġw Ã¤chst
Ġ rot
ĠZentr al
Ġ199 0
ach ter
ĠGeh irn
pro blem
Ġver teilt
Ġst anden
Ã ¡
Ġh ielt
Ġf u
d ungs
ĠEr stellung
ĠVarian te
ill en
Ġf ragt
part ment
ĠC re
Ġt Ã¶
Ġeinz igen
Ġs age
n ers
ĠO rient
Ġerw orben
ĠS em
sp rech
in ken
ic t
ĠV ir
ĠDen ken
Ã¼ ler
Ġsp eichern
ĠSym bol
ĠNach w
Ġger e
Ġfinanz ielle
ĠSp azier
Ġvers uche
sto ffen
Ġgesch ehen
Ġb ildet
Ġproblem los
ĠDaten bank
ĠKon d
utz er
w Ã¼n
m Ã¤r
ĠSupp ort
ĠGroÃŁ britannien
ĠM B
ĠL udwig
Ġlie f
Ġanal ys
z wei
iv es
Ġ[ ...]
Ġerk annt
Ġwirtschaft lichen
ik um
Ġ4 4
Ġhin sichtlich
Ġf liegen
zut age
Vers ion
Ã¤uf e
ĠbestÃ¤t igen
ĠWissenschaft ler
ĠAngeb oten
at ische
ĠL os
ĠEin t
frei e
ĠSchl es
unter richt
ĠC ro
urop a
i ale
Dat ei
ĠA g
den k
Ġm ark
ĠA L
ĠB GB
ĠstÃ¤r ken
Ġbeantw ortet
ra un
wend ungs
ĠZ ivil
T eil
Ġan gesehen
ĠhÃ¶ch sten
br ig
ĠS ammlung
ĠGeb Ã¼hren
ĠlÃ¶ schen
Ġger aten
ĠA tt
ver standen
rÃ¼ck t
ĠTour isten
ĠR enten
ĠB lack
ĠI slam
ĠAlt stadt
ĠAn ruf
ĠBo ot
Ġmehr fach
Ġver folgt
ĠGew Ã¤hr
ĠS ind
S V
ĠGri ll
Ġzentr ale
v o
fer ien
Ġk alt
ib ilitÃ¤t
Ġzu ge
Ġman chen
ĠR and
ĠAn h
u hen
Ġdiskut iert
Ġbein haltet
ĠAn satz
Pro jekt
ĠProgramm e
Ġmorgen s
ĠJ ose
ĠH abe
meld ungen
gl Ã¼ck
ĠCamp ing
ech te
ĠGesetz es
Ġer Ã¶ff
ĠSte ll
Ġver br
Ġaus lÃ¤nd
ĠErk enntnis
N ew
Ġk rie
ĠS l
ĠAb sch
Ġge prÃ¤gt
kl ang
Ġl eb
ĠmÃ¼s se
ymn as
Ã¤hr ungs
Ġl og
W eb
Ġver folgen
Ġmus ikal
p ool
g ibt
ĠSo und
. Â»
erk ennung
Ġweiter lesen
ie hlt
Ġst et
test et
Ġerweiter t
Ġverein bart
ĠEvent s
sch af
Ber eich
sk i
Ġglau bt
ĠUrlaub s
Ã¼t te
hem a
n t
Er st
Ġwissenschaft lichen
ap ier
Ġdire kten
ĠAus kunft
eist ern
trag ung
ĠKar ls
Ġst euer
leist ungs
ĠM assen
ĠUnter schiede
ĠSoll ten
ĠC loud
Ġs etzte
ĠP ress
Ġdurch fÃ¼hren
Ġbestehen den
spf licht
ĠWir d
ĠT asche
ĠWider spruch
Ġn erv
Ġkurz em
y le
ĠK la
Ġfinanz iellen
ĠAgen tur
Ġklar e
F ahr
19 8
ausen de
rei ter
ĠSch ei
Ġgenau e
H otels
Ġauspro bieren
utt on
Ġl a
ĠFest ival
ĠMerk el
gesch oss
Ġzw Ã¶lf
kir che
Ġh Ã¼b
ĠKÃ¼hl schrank
âĢĿ .
Ġabend s
af e
ĠInnov ation
ĠL ast
ip edia
âĨ ĳ
ĠStart seite
ĠEin heit
nungs zeiten
D E
Ġabw echslungs
ĠForm at
ge kommen
ort s
ĠAus bau
ĠC H
il er
ĠServ ices
Ġpersonenbezogen er
ĠW al
ĠVer br
K reis
all el
ĠA st
ĠEur e
ĠMil itÃ¤r
z nei
ĠzusÃ¤tz lichen
ĠF ischer
ĠBeteil igten
ab schluss
zeu gung
ĠNÃ¼rn berg
w in
ĠnÃ¤ch stes
ĠK rie
B ook
ĠFlÃ¤ che
ĠMan ager
Ġoffen e
u sch
Ġan zeigen
B o
ĠN av
Ġdam al
pf l
ĠKon ferenz
fÃ¼ gt
schnit tlich
ĠAn fragen
jÃ¤hr iger
verb rauch
ĠAu d
m edizin
Ġo hn
Ġbe endet
ĠR obert
gel Ã¶st
ĠUm zug
ĠAr b
ĠhÃ¶her en
gren zen
k ra
ĠS yr
de ckt
ĠGriechen land
be weg
H at
Ġent f
ĠSta ffel
produ kte
Ġelekt r
ĠG ang
Ġum gehen
Ġverb oten
Ġgeb ucht
ĠN ik
ĠKais er
ĠV en
Ġeinge hen
ĠCaf Ã©
Ġ4 2
ĠLi zenz
ĠAus gaben
B undes
Ġkonzentr ieren
ĠV i
ĠErn st
L Ã¶s
Ġe d
m Ã¶gen
ĠDar lehen
ĠH Ã¶ch
Ġwundersch Ã¶nen
ĠD DR
Ġgel assen
Ġange fangen
ĠT her
Ġa t
Ġer werben
ĠHer stell
T M
T rotz
Ġgeb raucht
ĠPh ase
ĠR a
er i
ĠDir ekt
Ġm Ã¶gen
ĠF lex
at ch
ĠSchn ell
ĠZ Ã¤
ĠF und
In tern
c l
k ord
sel ben
fin det
ne y
mitglie der
hÃ¤lt nisse
Ġv irt
af tet
ĠKonkur renz
ĠA R
K E
Ġhin ten
k n
ĠBot schaft
ĠHer kunft
re cken
Ġherunter laden
ĠInnen stadt
fin anz
Ġqual it
Ġgew alt
ĠT aschen
Ġfest ge
ĠKon sequ
ĠW egen
on y
C hr
ĠR ichter
ĠAp othe
ĠAsy l
ĠKategor ien
l ehr
Ġ199 9
ĠEr gÃ¤n
em pl
u ls
p reise
ĠL assen
ĠOr gan
ĠO ft
ĠP ubl
z iger
ĠP R
f ur
201 1
ĠIn stagram
ĠK eller
bo den
Ġn ennt
wei chen
W or
ĠBundes republik
ĠSchwe den
ĠR enn
ĠS au
ĠBild schirm
Ġschle chter
rei ft
ĠEntsp annung
O T
aus schuss
imm ung
Ġdire kte
pr et
h ent
g riffen
ĠGe werbe
sam e
ĠGew inner
w ahr
stu hl
ver kauf
eint rÃ¤cht
ĠMotiv ation
ĠFeh l
ff et
m achung
Ġnach folgen
Ġt raum
Ġl ei
h et
tler weile
aktion en
Pf alz
lei hen
ichte ten
g ten
ig uren
ge laden
Ġanges prochen
Ġges ammelt
Ar beit
ĠZ un
en kt
he ben
Ġver anst
ĠSt ich
ĠN ormal
ĠDa vid
Ġre st
Ġb undes
bild ungen
ĠO ne
az it
ĠF akten
fr ont
ICH T
ĠLux us
eh in
ĠKur se
Ġreduz iert
eg a
ĠThe orie
p ing
Ġge holfen
leg te
Ġse par
ĠT ief
Ġ( âĢŀ
ĠPass wort
ik ationen
ĠE tw
Ġein stellen
Ġgener ell
Ã¤r ten
Ġumfang reich
ĠUrs ache
Ġun mÃ¶glich
Ġ y
ĠH D
sch merzen
âĢľ )
ĠS et
on ym
Ġgemein t
gemein de
Ġch ines
Ġum so
ĠEinsch rÃ¤n
Ġkein em
ĠergÃ¤n zen
ĠOr ten
ĠR os
Ġdiver se
Ġgest artet
n eu
h eil
Ġfor dern
hol z
Ġun ternehmen
Ġkl asse
G H
Ġwir k
Ġsch ade
Ġw Ã¤r
ĠAll ein
ĠT arif
n immt
Ġ8 00
ĠEurop Ã¤ische
il de
ĠSteu ern
fol ger
ĠTurn ier
ĠDrit tel
ĠG ibt
Ã¼ m
ĠEmpfeh lungen
Ġf ein
ĠDok umente
Gem ein
ĠBer ater
am ing
Ġempf iehlt
u al
p ers
Ġem otion
Ġverst ehe
in os
Ġoffiz iellen
ĠJe de
Ġbe ur
4 4
ot ten
p erson
g ess
sk on
ĠS orge
Ġver Ã¶ffentlichen
Ġk lappt
Ġinvest ieren
M in
ĠK enntnisse
Ġge testet
ĠSp itze
Ġ reisen
ĠPf arr
ĠverstÃ¤nd lich
ĠM aus
ett bewerb
Ġhin weg
Ġident ifiz
ĠT sch
geb nisse
ĠEin ladung
t on
PD F
ĠFl uss
tag s
ĠnatÃ¼r liche
Ġlang fristig
r unde
pack t
ĠBet racht
w urf
Ġun kompl
ĠWien er
D ollar
ĠSchles wig
amil ie
Ġsch Ã¤tzen
ĠBe am
ber eiche
ĠDi pl
ĠSil ber
Z wei
ĠR au
ĠFl or
stÃ¤t te
Ġvor an
ro llen
Ã¼ ben
Ġschn ellen
zeich nis
ĠH on
u tern
ĠPat ient
Ġent tÃ¤u
Ã¶n nen
ĠM aschine
ĠO hr
ĠC al
Mail s
ĠBÃ¼ ch
H R
Ġbet rieben
ĠBesch werden
Ġl i
ĠFerien haus
6 5
zeich nete
be auft
p on
Ġf ert
ĠR Ã¤ume
ĠMÃ¼n ster
ĠSong s
Ġschrei be
ĠmÃ¼s sten
Ġorden tlich
ĠK ab
Ã¤t ter
T ube
Ġfor dert
ĠVor haben
ĠB it
schl Ã¼ssel
ĠWahr scheinlichkeit
Ã¤ be
ĠnatÃ¼r lichen
ĠDort mund
Ã¤ llig
ĠM att
ĠBe ob
sta aten
Ġbesch reiben
D P
Ġpl atz
ĠAu st
sto ÃŁ
Deutsch land
ĠgeprÃ¼ ft
an bieter
Un ternehmen
at ers
ĠB eine
ĠF le
al ition
Ġst ehe
Ġg reifen
rate g
Ġamer ikanischen
ert ifik
ĠFrem d
ĠBesch luss
sp aren
dien ste
s vor
b rauch
Ġh Ã¤ngen
ĠH art
ĠG riff
ant rag
ĠEnt fernung
ĠHin blick
Ġzu stÃ¤ndig
ĠAus einander
ĠRes pekt
V iel
ir ekt
beit rag
mer k
ĠMÃ¼ he
ĠSchw Ã¤
Ġn ette
Ġlang er
ĠInd ividu
ĠAuf lÃ¶sung
Ã¼r zt
ver hÃ¤ltnis
4 3
ĠAuf grund
ĠV illa
ĠAuss agen
app en
Ġ4 9
ĠSch icks
ĠL eg
ĠS ant
ĠWill en
ĠH essen
ĠSk i
Ġzu hause
Ġh undert
ĠEreig nisse
ĠgemÃ¼t lich
anz e
ĠS Ã¤nger
ĠBew usstsein
ĠRelig ion
art ikel
be wer
ĠKon zer
hl ung
k eln
prÃ¤ sident
ack t
ĠNachhalt igkeit
Ġprofession ell
Ġletzt lich
Ġdiskut ieren
Ġex klus
ĠÃ¼ brig
ĠKonfl ikt
z one
ĠMusik er
ĠK lÃ¤ger
ĠJahrzehn ten
ĠP aten
hÃ¶ hung
Ã¼ h
ĠKrank heiten
Soll ten
s ung
ien s
ĠWolf gang
ĠLie d
Ġan f
ĠC enter
ĠChe ck
ĠSch merz
ĠDe ck
ĠR ollen
ĠKreativ itÃ¤t
Ġ ei
ĠUn i
ei ra
ohn ung
wir kung
ĠTeil nehmern
kl ass
Ġwar tet
Ġle er
ber uf
ien ce
Ġan spruchs
Ã¼ l
id s
Ġohn ehin
ĠFrÃ¼hl ing
ĠHel fer
Ġ Ã¤ndert
Ġ199 8
ĠAn walt
b ranche
ĠNieder s
Ġh ell
Ġall zu
s em
Ġgleich er
sen z
ĠAbend essen
ĠGe org
ĠSchÃ¼ lern
ĠÃ¶ff net
Ġverein baren
ĠRech ner
Ġgez ielt
l Ã¤ndern
Ġsicher en
dr essen
Ġin halt
Ġgesch ickt
wei tern
ĠO ster
ĠVerein barung
ag ue
ĠRegel ungen
Ġpriv at
reg ion
Ġlie fert
Ġprakt ische
ĠGen uss
Ġunver gess
ĠHin sicht
ĠKinder garten
ĠEs s
Ġs ystem
Ġerhe blich
Ġein verstanden
ĠZ war
ĠVerantwort lichen
N r
Ġqu asi
b it
ĠLie b
Ġsch wei
ĠCon tent
af r
ĠVer d
Ġ( Â§
Ġkonk rete
st rÃ¤ger
Hol stein
ĠGesch lecht
Ġeinge tragen
ok oll
spe zif
Ġnachhalt ig
7 7
ĠDat um
ĠH yp
ĠfÃ¼hl e
stÃ¤t ten
ĠangekÃ¼nd igt
e f
Ġt Ã¼rk
ĠSt ahl
ĠgewÃ¼nsch te
onder s
and t
ĠForsch er
k Ã¶
Ġorganis ieren
ĠDro gen
6 6
B esch
H abe
fÃ¼hr ungen
Ã¤n ner
ein bar
ĠSp recher
ĠG lÃ¤
ĠJun ge
st Ã¶
ĠBÃ¼rger meister
an sp
ĠS T
ĠE ffekt
Ġch rist
Ġgeb oten
ĠUm frage
de ls
Ġi ll
ĠKÃ¼nd igung
b ul
il fen
ĠWohn ungs
o ter
ĠMÃ¼ ller
me ter
Ġverl angt
Ġwoll t
ĠNutz ungs
Ġreduz ieren
Ġhervorragen d
ĠArch iv
ĠD ing
ĠKommun ikations
as ste
ĠGeh alt
hem en
Sc ript
Ġr etten
geb nis
Ġer setzt
Ġentsp annt
ich ern
che ster
Ã¤ sser
ir ol
ĠW esen
Ã¼hr ung
ĠBud get
ĠQualitÃ¤t s
Ġgel ang
ĠM ischung
sch m
Ġange mel
ock t
un s
ĠSp uren
ran s
Ġg ra
ĠAndre as
Ġlauf enden
ĠKoll eg
ĠBet reu
P ort
ĠBei de
F rei
ĠEner gien
ĠEx istenz
ĠEr werb
ĠB atter
G o
ĠBuch ung
Ġin t
Ġverein bar
ĠOpt ionen
Ġ6 4
Ġeurop Ã¤ische
sch lagen
herap eut
ra y
ĠWider stand
ĠFlu cht
ĠZus Ã¤tzlich
ĠW C
ĠM agen
ĠursprÃ¼n glich
Ġ euer
Ġleist ungs
ĠA tem
G ibt
Ġsch lagen
ĠS endung
ĠEl emente
ĠRegel ung
ĠBes itzer
Ġzu folge
ed och
wei lig
ĠMer c
lei dung
rem e
ĠErkrank ungen
Ġspe zif
Ġst immen
Ġm achten
ĠH obby
ĠGesch Ã¤fte
ĠL ED
ĠC ol
ĠArb eiter
Ġgarant ieren
ĠAt om
Ġsp Ã¼ren
Ġum gehend
fel der
ĠH als
Ġverschieden er
a ste
ĠwÃ¼n scht
sch Ã¶n
heit s
ĠM uss
Ã¤ch s
R echt
ĠN o
or ien
Ġe chten
ĠHam burger
ĠAr znei
ĠP ack
ĠAnder e
em m
ĠInstitut ionen
ĠFÃ¼hr ungsk
bet rag
ĠF ertig
w achsen
ĠH aben
Ġm ut
Ã¼r ft
Ber eits
Ġunver zÃ¼glich
ĠQuad rat
haus es
ĠFrank en
ĠKrank enk
Ġbeg eistern
ĠH istor
ĠHilf s
ss el
ĠE hr
k rit
wen der
and a
Su per
ĠE ier
lÃ¤ uft
ĠJu den
el be
Ġg Ã¼lt
ĠAnge legen
ĠEntwick ler
Sp e
ĠhÃ¤uf iger
ĠK atze
ĠUrs achen
ĠAfr ika
Ã ĥ
C O
Ġan sonsten
gef unden
ain er
Ġgew ohnt
Ġlin ken
Ġbe arbeiten
Ġver lin
her r
gbar keit
ag es
q m
Ġgegeben en
ĠGer Ã¤ten
ĠDein em
od us
Ġt at
pl ant
201 0
ĠFÃ¼hr er
mode ll
Ġfinanz iell
Ġzu stÃ¤ndigen
ĠGren z
ingt on
ĠW andel
Ã¼n den
ĠEr ste
g Ã¼nst
eh ler
ĠMehr wert
st at
w est
au men
ĠAl pen
ĠGleich zeitig
grÃ¶ ÃŁe
ĠausfÃ¼hr lich
is en
er al
Ġster ben
ĠwunderschÃ¶n e
Ġ0 2
akt or
d is
mal e
Ġerk unden
ĠSmartph ones
ĠPart nern
p Ã¤ck
Ġver ur
mus ik
Ġfest gelegt
Ġst eigern
ĠfÃ¼hr enden
Ã¼n de
ĠN RW
ad s
ĠMa ÃŁe
ĠGe fahren
rÃ¤ft ig
ĠSch ok
Ġge liefert
stehen de
Ġun zÃ¤hl
l Ã¶
c ode
ech an
eig nen
Ġverwende ten
ĠWei le
ĠEr halt
ĠStud ierenden
ri b
ĠM ahl
Ġsicher e
ĠAn erkennung
Ġt iefer
ĠVor schlÃ¤ge
Ġb ele
ĠE del
Ġlang frist
z Ã¼nd
Ġbrauch st
Ġst rateg
ĠE vangel
Ġwirtschaft liche
be f
ĠM as
Ġzusammen gestellt
Ġansch lieÃŁen
ĠVor gaben
ĠZ eich
Ġbest mÃ¶glich
Ġlie st
ĠEmpf ang
Z immer
Ġehemal ige
ĠBran denburg
ĠSp ass
ĠBuch st
Ġlok alen
ver arbeitung
ĠHand werk
ĠH altung
Ġh ieÃŁ
gra d
ĠImmobil ie
ĠÃľ bungen
Ġperfe kten
ĠZut aten
S ind
ĠN ase
u ht
ĠKre bs
et tet
ÃŁ ern
Ġkonk ret
per ten
ĠSchau spiel
ĠSt ory
us sten
ĠVerb rauch
fÃ¼ ll
ĠF la
ĠB reite
Ġsol ch
geb Ã¼hr
ĠJohann es
ĠLog istik
rain er
w a
ĠerhÃ¶ h
ativ er
sp recher
Ġer weitern
bl og
Ġst at
p ersonen
ĠW ord
ul Ã¤r
an er
ĠFrei en
Ġletzt es
Ġun n
le un
F unktion
Ġges unde
ĠYou Tube
ĠAuft ritt
Ġflex ibel
deut sch
wissen schaften
lÃ¤uf ig
ĠgroÃŁ zÃ¼g
Ġver arbeiten
ĠMan chmal
ĠD ist
Ġange ht
Ġj ur
ber eiten
ĠR ichtig
Ġerleich tern
ier er
h Ã¤ngen
Ġbas iert
Ġhoff entlich
ĠVor jahr
in formationen
au ff
Ġverurs acht
G l
Ġf und
w or
ĠKon zentr
ĠWerk statt
ĠW all
abil itÃ¤t
laub nis
ĠMotor rad
ĠSt att
iffer enz
ĠF ast
ĠTÃ¼r en
ĠHier bei
s um
Ġkleiner e
n am
ĠZu behÃ¶r
Ã¼n kt
ĠJahres zeit
ĠfranzÃ¶s ischen
aus bildung
ĠB ibel
Ġumfassen de
plan ung
h ab
Ã¤m pft
ĠMe tern
our en
Ġbegren zt
ĠRicht linien
ĠSte fan
ĠZ auber
l ager
lei ÃŁ
ĠBeg rÃ¼n
bie tern
ĠPhil osophie
ĠNachbar n
gesch windigkeit
u el
Ġ4 6
Ġar beit
ĠlÃ¤nger e
ur er
Ġbeeinfl ussen
ist an
ĠPro m
ĠFr anzÃ¶s
ĠAustr alien
eh le
Ġd okument
ĠT ur
k w
ĠH ab
N etz
Ġall gemeine
ungs mittel
5 8
le y
ĠAus blick
Ġsie he
re gel
ĠEmpfeh lung
Ġthe oret
produ ktion
ĠStÃ¤r ke
Ġm achst
zw ungen
Ġmensch lichen
ĠVer ordnung
ĠPrÃ¤sent ation
ĠKr ise
ĠNeu er
ond s
Ġunters ucht
ĠVor schlag
ĠF antas
Ġbesch reibt
Ġl asse
be kommen
t in
Ã¼r ger
k enntnisse
ĠErkrank ung
Ã¤um t
Ġzu gesch
k inder
Ġinstall ieren
ĠG ru
ĠD am
Ġst ruktur
Ġn ationalen
sp iegel
sp reis
zuf Ã¼gen
h i
ĠGen ehmigung
Ġverb reitet
Ġm iss
p ern
ĠTick ets
Ġgef eiert
ĠInstrum ent
ĠTest s
echs elt
Ġkonk reten
kir chen
ĠMedikamen te
Ġk enn
ĠSchm uck
ĠV al
ĠJob s
ĠAutom obil
ĠSchau spieler
Ġgro ss
ĠStat us
ĠL aun
ĠTabl et
Ġ9 9
Ġdauer haft
ĠBes ser
ĠIn halten
l ings
ap s
att formen
ĠAmer ika
form ance
Ã¤hl er
ĠNacht eile
wei ÃŁ
ĠÃ¤lter e
ĠPort al
id ar
ein richtungen
Ġaus ser
ĠMie ter
and lung
Ġzwei mal
ĠPh ys
ĠVer n
ĠP od
ĠB re
kon om
mit tler
fl Ã¼ge
4 6
Ġ ....
ĠerlÃ¤ uter
Ġhinter lassen
Ġbekomm st
ĠSp ar
7 6
Ġbe ding
ĠT ieren
od es
hÃ¶r ige
ĠIns besondere
ĠVersand kosten
stÃ¼ck e
fol gend
ĠAbt eilung
ĠRo sen
ĠFÃ¤h igkeit
ĠMon d
Ġ8 5
ĠS erien
Ġbewer ben
ĠIn genie
ĠKonz ern
ĠPl Ã¤ne
rank en
ĠB Ã¶
Ġab geb
vis ion
Ġm il
ĠBr as
ĠFerienwohn ungen
ĠA B
ĠBer ichte
ĠRegistr ierung
ĠDan iel
ĠSold aten
ĠFrei burg
bes uch
Ġkl Ã¤ren
ĠGrÃ¼n der
?? ?
ĠVerkauf s
zeich nungen
ka mmer
ĠEinkauf s
ĠBr enn
Dar Ã¼ber
Ġgesetz liche
Ġs ag
ĠHÃ¶ hen
Ġentsp annen
ĠPo wer
z gl
kon zept
Ġs en
ĠWil helm
ĠJ edes
ĠVerm ieter
ĠGegen wart
ĠzuverlÃ¤ss ig
T h
ĠBewer ber
ĠK e
l ers
ster min
Ġaus wÃ¤hlen
ĠBr un
vers ion
P al
ĠR um
Ġeur en
ĠAuf lage
g st
on ie
ut sch
ĠÃ¤lter en
un dern
h Ã¼
Ġinteress anten
o ffen
ick er
F r
ĠErk enntnisse
Ver Ã¶ffentlich
ĠI ll
D i
is ion
Ã¤nd ig
ur st
d ar
Ġl eid
ra st
p olit
ĠIn n
Ġgest iegen
w ork
reib ungen
ĠE i
kra ine
kon ferenz
eucht ung
tem peratur
ic o
Ġp art
Ġum zu
All erdings
schaf ter
u alitÃ¤t
Ġf antast
ĠUnter halt
an det
Ġbesonder er
Ġ ..
ĠForder ungen
a a
ĠTrend s
ĠBesch werde
ĠPfer d
sch iff
ĠInvest itionen
Ġbet reiben
Ã¼ che
Ġerk ennt
ĠG B
zug s
t eils
ĠPfer de
Ġsp ont
ad ies
Ġjeweil ige
ĠAn n
Ġber uh
ĠMobil itÃ¤t
ĠR ing
ĠLehr e
ĠIdent itÃ¤t
ĠfÃ¼ llen
ĠBer ge
rei he
ĠFlug zeug
Ġum setzen
Ġab ges
ĠweiÃŁ t
up s
Ġwei sen
ĠAb schnitt
ĠPro be
Ġv olle
is ierte
J o
ĠAus Ã¼bung
ech nen
Ġeinge fÃ¼hrt
Ġeffekt iv
ĠAus fÃ¼hrung
Ġhochwert igen
Ġun gewÃ¶hn
ĠDurch schnitt
Ġo per
F ol
ĠK ul
ĠT enn
ĠfrÃ¼her en
ĠM c
ad resse
Ġf eier
te am
ĠStruktur en
ĠWebs ites
ĠHÃ¶ch st
Ġbewer tet
Ġsch einen
drÃ¼ck t
l y
ĠAk ademie
ir r
ĠB lau
In formationen
Ġersch ien
ĠAnf Ã¤nger
ĠG alerie
ĠH ung
Ġl ernt
Ġausgew Ã¤hlt
ĠÃ¤hn liche
geb Ã¤ude
ĠBetrieb ssystem
ĠGroÃŁ teil
ĠSympt ome
ĠDokument ation
Ġkon sequ
be ck
Ġhal be
ĠVeranstalt ungs
ym bol
Ġd anken
ĠS Ã¤
st mÃ¶glich
Ġin nen
Ġbe fÃ¼r
ĠWir k
Ġschwer e
ĠPrÃ¤ sidenten
st ar
ĠAll gemein
ik eln
Ġge g
ĠSt ation
Z iel
ikan er
Ġkennen lernen
ĠJ er
ĠArbeit sk
ĠVit amin
ahr t
ĠN ationen
R est
Ã¼ chte
ĠergÃ¤n zt
ĠY oga
Ġbe auft
ungsver fahren
Ġfe sten
ĠR ang
ĠBeteil igung
Ġ @
uch st
ĠP last
ĠVo gel
h ier
ĠD IE
in i
Ġ20 20
ĠC ommunity
m esse
Ġbelieb testen
el or
vers icher
ĠP or
mus eum
ret ung
ier st
Ġviel mehr
Ġph ys
ĠHand lungs
Ġpersonenbezogen e
b Ã¼cher
ĠAn s
etz ter
sph ase
lich em
Ġerled igt
Ġkon st
ĠA kte
s werte
ehr te
Ġentscheiden d
rom ant
Ġan sprechen
ĠEr Ã¶ffnung
ĠKunst stoff
ÃŁ te
der ung
Ho tel
rit z
ĠÃľ brigen
f it
off er
el det
Ġbed ienen
ĠNahr ung
Ġst arte
ĠN ichts
n Ã¤chst
mel de
ĠW urz
stru ktion
ĠWeiter entwicklung
rÃ¤n ken
Ġheut zutage
amer ika
out ube
Ġd eut
ĠMat hem
Ġd Ã¼n
Ġer mittelt
ord nungs
ĠT ax
Ġausge hen
ĠCh amp
ĠS S
ĠUN D
Ġgepl anten
Ġhe ft
ge tragen
deck ung
M ich
Ġgro sse
ĠD ra
ĠSp eisen
ow eit
az z
st eil
Ġlie bt
Ġ9 5
Ġverh indert
fur ter
I ER
M ed
Ġj Ã¼d
ĠJava Script
ĠB ir
Ġdem okrat
ig sten
ĠF raktion
ĠD ritten
Ġprofession ellen
ĠEben so
pt op
ĠZin sen
Ġgelten den
ĠGesetz e
Ġinnov ative
Ġbe zieht
it ation
Ġber echnet
Soll te
ĠSu mme
riff e
ĠM asse
ar ma
Ġv ari
ĠKind heit
ĠTh Ã¼r
Ġerforder lichen
ĠWar te
recht lichen
ĠErinner ungen
her e
Ġvoll en
ĠP lug
ĠL iga
verstÃ¤nd nis
Art ikel
ĠNamen s
ĠTr icks
ĠGro ÃŁen
ĠAn kunft
M o
ĠG ir
Ġhal ben
ĠVerein igten
Ġintegr iert
t a
Ġleg te
ut h
Ġgrund legen
Ġf ern
W eil
Ġw eist
L in
Ġempf angen
ĠVer eine
Ġin telligen
ĠDigit al
Ã¤lt igen
Ġzeich net
ĠPerspekt ive
ĠWirklich keit
ĠAd min
Ġsol ches
ant eil
ĠKap it
4 1
Ġzu g
r end
c ast
ĠBek annt
ĠChrist us
T ER
Ġm Ã¤nn
Ã¼r gen
ĠÃĸff nungszeiten
ĠK rÃ¤
Ġer fordert
ron ik
geb lich
" )
re ckt
Ġspiel te
eb el
ĠM ama
ĠVarian ten
Ġan stren
Ġ4 7
Ġbet reut
ech nung
ĠR ich
ĠMittel n
b ay
ĠNeu bau
Zu dem
ĠF ert
ĠR Ã¤um
Ġnachhalt ige
Ġzu gelassen
Ġfal sche
ĠSter nen
Ġk Ã¼nstler
Ġdahin ter
I A
spro chen
Ġr ie
ĠS auna
ĠÃĸ k
Ġum zusetzen
ĠWerk zeug
tem ent
ĠTÃ¤t igkeiten
ĠgefÃ¤hr lich
ĠKo alition
b ro
F in
Ġdiver sen
Ġb un
Ġeinzigart ige
ĠF ax
Ġger inger
ĠF ass
as ser
ĠSyr ien
R o
Ġnormal erweise
gen de
abet es
wohn ern
reib ungs
ĠIr gend
ĠSchw imm
Ġf it
Ġgebe ten
ĠAlex ander
ran ten
ommun ikation
Ġtechn isch
W ei
ĠInd ien
ĠGeb Ã¼hr
Ġge p
y d
a ster
ĠZiel gruppe
Ġ18 0
Ġen orm
ĠA v
Ġspezi alisiert
ĠBegl eitung
ĠE R
ĠIn telligen
spar enz
Ġ( *
anz lei
ĠO tt
ĠSp ekt
ge ls
4 7
S ol
reu e
Ġb ar
K eine
Ġb au
ĠGed uld
ĠU kraine
z iele
ver halten
T est
Ã¤n omen
w endet
organis ation
ĠF uss
ĠMont age
ĠverstÃ¤r kt
Ġverb ind
ĠEigen tlich
et ho
ĠEr sch
ĠK Ã¶
ĠF utter
ĠLie ben
nehm ung
ir men
an c
G ew
Ġvert raut
ĠUn abhÃ¤ng
om aten
So ftware
Ġorganis ator
Neu e
ra fen
ĠÃľberrasch ung
ĠBer Ã¼ck
ol ogen
ĠÃ¼ blichen
ime ter
Ġangegeben en
Ger ade
ĠZuf all
ĠO hren
Ġverb indet
Ġev tl
ĠSp annung
ĠAnt i
Ã¤r t
ĠK Ã¼nst
ĠKrieg s
ĠMÃ¼ ll
Ġ4 3
ag o
Ã¤ng nis
ack e
i men
v gl
ĠFrei will
war ten
ach s
iz e
fÃ¼ llen
under te
Ġs a
gn or
ĠPol y
k ind
entsch eidung
P ar
Ġdr ehen
ĠGeschÃ¤fts bedingungen
ĠKaff e
ĠSchul den
ĠGe werk
ron omie
Ġe ffizien
ĠHard ware
Ġvers ehen
ĠRe volution
Ġkorre kt
ĠE le
ĠP ok
ĠNieders achsen
wer fen
g ers
em ark
ĠH it
ĠKompon enten
ĠTab elle
Ġvorhanden en
Her r
ĠGener ationen
ĠgewÃ¼n scht
Ġbele gt
se x
Ġbeh err
ist in
auf gaben
Ġneu gier
Ġ0 3
Ġste cken
zen e
ĠRicht linie
ĠZeit schrift
ĠAk ku
umm ern
ĠA partment
ĠSe c
h abe
Ġsch ien
ĠgÃ¼nst ige
ĠEr folge
ist et
i am
ge gangen
K urz
ĠMensch heit
ĠE cht
ĠVer anstalter
B en
Ġst ill
Ġunter liegen
ĠMan gel
t ial
sen dung
Ġrel igi
Ġgen ie
al a
Ġeinz us
ar ischen
ungsk osten
Ġqualit ativ
Ġl ese
Ġw e
Da zu
Ġerf asst
ĠT hr
ĠK ro
Ġleich te
ĠBe stÃ¤tigung
lo gen
ĠDom ain
Ġer setzen
Ġabge stimmt
lo ck
Ġschle chten
ĠBe kl
Ġzu recht
ĠMom ente
ĠSuch maschinen
amp e
Ġdr eht
ĠzurÃ¼ck zu
Ġres pekt
ĠL ob
ell a
Ġor igin
ĠOff ice
hal ter
ĠAutob ahn
ann er
ab rik
p aar
B est
ĠkÃ¼r zlich
ĠSol ar
ĠBewerb ungs
ĠH alt
fÃ¤ ll
ĠSing le
Ġabge geben
C o
ĠGra mm
rie ch
Ġwor auf
Ġgew innt
m or
rin ge
ĠPartner schaft
ĠFernseh er
200 9
8 8
ĠWÃ¼r de
Ġbehaup ten
Ġgetr ennt
Ġtran sport
Ġwert volle
ĠAnge hÃ¶rigen
ĠBesuch ern
ograph ie
ĠF al
ĠBeg eister
system e
des ign
ĠUntersuch ungen
b a
gar n
Ã¤l ter
Ġbevor zu
y e
Ġbewer ten
ĠArbeits markt
Ġerk enn
Ġe ffiz
ĠFlex ibilitÃ¤t
Ġklass ische
ri c
. /
ĠF lie
Ġpf legen
l assung
esch Ã¶n
A CH
mitglie d
ig ar
ac t
E IT
Ġerled igen
ht t
Ġg ratis
ĠLie bes
teil te
N ie
i alen
ĠVer wand
ord nen
yp en
Ġsicher zustellen
len burg
Ã¤ ste
Ġverl Ã¤nger
y a
Ġel eg
Sch n
ĠOn lines
lei cht
Ã¶pf e
ĠRe cher
wo od
se hr
Ġreag iert
Ġange wiesen
pro zess
Ã¤us e
amp en
isch of
un i
Sp ort
ĠFa vor
r ichtig
ĠNachw uchs
Ġs eiten
ĠAugen blick
ĠKl einen
Ġstet ig
bÃ¼r o
Ġhistor ische
b aut
ĠRei fen
ver antwort
Ġoffiz ielle
ĠFe atur
ï ¿
Ġd rÃ¼cken
ĠIn spir
ĠBeh inderung
ĠGeheim nis
in stitut
L assen
org ungs
ĠMa k
Ġan gesch
w ende
ĠW en
st ufe
ĠNot wend
Ġwes entlichen
Ã¼t ung
Ġbestehen de
. ).
bring ung
Ġvers orgt
ĠP re
Ġunter halten
ĠWik ipedia
ĠF ried
Ġangemel det
sch lieÃŁen
zen ten
Ã¤t te
ĠDes wegen
ĠEin haltung
Ġch ron
ho tel
Ġen or
ĠAmb iente
ĠRechn ungs
ĠFolgen den
Ġsonst ige
b anken
m ess
au ert
U M
amer a
Ġger ufen
E ben
el en
sch eine
an o
ĠS ur
ot te
Ġp erson
Ġausges prochen
Ġm Ã¤cht
Ġange legt
Ġmer kt
Ġh aus
ĠD ER
ĠMo unt
fÃ¼hr te
st ande
Ġwichtig es
z ert
ĠStaats an
Bes onders
st Ã¤d
id a
ĠS V
Ġal ter
bet reuung
Ġbesch rÃ¤nkt
gem acht
Ġn atur
Ġsch lie
Ġumfang reiche
Ġb reite
Ġan passen
ĠMeer es
ifiz ierung
ĠAuf nahmen
ĠKontakt daten
ĠDis play
ĠDurch messer
Ġsonst igen
ĠForm ul
Ġg eil
Ġvor behalten
au rant
ĠT ank
ĠM ach
ï¿ ½
ĠEx p
r or
Ġnormal e
ĠM all
Ġkat hol
ĠSt ore
ĠJournal isten
ĠB rÃ¼cke
j et
ĠF ra
id t
ĠAn wesen
G E
on te
Ġrecht lichen
Ġl ass
ĠBM W
is ser
Ġdar stellt
at o
ĠKo ordin
ĠEr mitt
ĠSt ift
iz ei
ĠErfahr ungs
h Ã¤usern
Ġ199 7
Ġakzept ieren
B in
schie ben
ie b
omm ern
dr eht
ĠVerfÃ¼ gbarkeit
ĠSp ann
lo ser
ĠP a
ĠR em
w elle
ĠGast geber
Ġt rat
bahn hof
gn Ã¼gen
ĠLiefer anten
6 8
ĠL Ã¤cheln
Ġzentr alen
ĠAbst immung
ĠAn nahme
ĠEigent um
fahr ten
Ġmer ken
ĠKompeten zen
ziehungs weise
Ġliebe voll
ĠAn sonsten
geb Ã¼hren
Ġm y
P C
ĠOrt s
ĠV Ã¶
4 2
Ġkomm ent
Ġverl iert
be stimmungen
olle ge
ĠKlei der
Ġentwick elte
ĠF igur
Ġro ten
sichtig ung
W h
f amilien
c lub
M Ã¶ch
Ġein heit
P lay
ĠStandard s
ĠHier zu
S icherheit
be stand
kehr en
ĠDiskuss ionen
Ġver raten
Ġzu zu
ĠEn gel
ĠSystem s
Ġs onn
ĠTo il
geord neten
W ichtig
G ruppe
ĠIns eln
Ġverschieden sten
ĠT rÃ¤ger
it ur
Ġprakt ischen
Ġm ont
ĠmÃ¼s st
ĠfÃ¶r dert
leb nisse
arbeite ten
ver gleich
ade l
Ã¼ck e
L eben
ĠG ab
P er
H and
ĠBÃ¼ch ern
ĠMen gen
k rie
au ben
od urch
Ġtats Ã¤ch
H ast
Ġanerk annt
ri ll
Ġl ern
rÃ¤ der
Ġgef reut
ĠEigent Ã¼mer
Ġzerst Ã¶rt
Ġmobil e
ri sten
m ein
Ġaufge fallen
ĠSie ger
ÃŁ ert
ĠUnter haltung
Eigen tlich
Ġlang weilig
ĠRu br
Ġs ach
ess el
ĠM S
Ġtrau rig
schl Ã¼sse
Ġmobil en
ger echnet
or b
Ġangeb lich
St adt
ĠEin klang
Ġaufge hoben
Ġsie hst
kl en
k ar
Ġunverbind lich
ĠEreig nis
ĠAb w
ĠT hre
ĠMitglieder versammlung
Ġverab schie
Ġunn Ã¶t
d lichen
ĠRein igung
all er
Ġ romant
ĠZuf riedenheit
ĠGer ichte
ph ase
ĠSp ur
ĠChem ie
wir kt
ĠHeil igen
Ġanges ichts
R ei
E gal
leit ungen
Ġn Ã¶r
Akt iv
ont o
Ã¤ ger
ĠschlÃ¤ gt
Ser ie
Ġ198 0
ar ische
ĠBundes liga
t he
wei len
Ġblo ÃŁ
olog isch
Ġfal schen
Ġf uhr
ĠM ord
ĠTick et
S k
/ -
hei mer
ĠL ad
ĠAutor in
Ġwunder bare
On line
ĠSch reibt
Ġi OS
ĠQuart al
r ick
Ġvor sichtig
Ġseit dem
ĠK iel
Ġ rad
Ġwert voll
M ag
ĠjÃ¼n ger
ĠspÃ¤ter en
bar es
ĠMerc edes
ĠKÃ¼ ste
Ã¤d igung
s ache
der e
L i
t Ã¤glich
zuf inden
le chter
ĠÃĦ g
ĠI ran
ĠS obald
ĠB R
Ġgesellschaft lichen
k op
ĠErweiter ung
ov e
ĠIS O
ĠV Ã¶lker
ber eichen
ĠG itar
ĠLebens jahr
Ġsch lieÃŁt
Ġd unkel
ĠD Ã¤n
H L
ĠBuch es
ĠMill ion
Ġbeteil igen
ĠM inder
Ġein t
ĠSpiel s
ĠL eicht
ĠBesch eid
ĠInteressen ten
ĠBedÃ¼rf nissen
Rest aurant
ĠEntw urf
Ġproduz ieren
ĠRat haus
Ġ4 1
ĠWeiter en
schein end
ĠHei del
b aum
ĠSalz burg
ĠMitglied schaft
F rÃ¼
ĠEr f
dat um
sch wer
ĠK ass
ĠOber flÃ¤che
ĠH itze
zu stand
F rank
Ġregion alen
sprach igen
Ġk Ã¼nft
ĠbemÃ¼ ht
ĠBe ach
Ġberuf liche
Ġkon stru
Ġdurch zufÃ¼hren
Ġn ord
arr iere
Pl an
ĠM Ã¤
ĠChr isten
Ġgesch Ã¤ft
z z
ĠBi bliothek
ĠKon text
Ġneg ativ
ĠR et
Ġge fÃ¼hlt
Ġgel Ã¶st
Ġerz ielt
e get
ĠPri or
liegen den
ĠBas el
ĠRu hr
acht ungen
ĠKandid aten
ĠK ampagne
ĠAnsch lieÃŁend
ĠKÃ¶n nen
Ġgro ssen
ĠÃ¼berwie gend
S A
Ġsp Ã¼r
ĠII I
ĠKredit karte
Ġst arb
ĠSp ons
fon ds
Ã¼r zen
Ġlock er
ĠK rimin
ĠVerl etzung
Ġk lin
geb iete
g ing
ĠÃ¼berprÃ¼ ft
ĠGut es
Ġfr ischen
ĠC a
ĠiP ad
k us
pp chen
Ob wohl
ĠvielfÃ¤lt igen
Ġge werb
Ġbeein drucken
VerÃ¶ffentlich t
g a
lu ft
Ġsch einbar
gen er
ĠTenn is
ĠPro vin
Ġausge fÃ¼hrt
ĠT rink
ĠZÃ¤ hne
ĠverfÃ¼ g
ĠMe x
Ġbe ziehungsweise
ĠE N
ĠR ichtige
ĠDiagn ose
Ġer richtet
ot herapie
ĠBlog s
ĠT rÃ¤
ĠS ens
Ġschl immer
iel te
ĠStÃ¤r ken
Ġk Ã¼nst
ĠR eh
Ġd ynam
ĠPrem ium
ĠDrit ter
ĠLauf zeit
ompeten z
Ġaktu alisiert
be finden
P ress
ĠHand t
ĠG ame
fol io
ĠgroÃŁ em
Ġb reiten
Ġjem als
ot ter
amen s
ast ian
gew inn
ĠMe ck
... )
pt ion
ĠWettbewerb s
Ġren ov
Ġversch affen
ĠK rÃ¤fte
ĠEnt steh
ĠH allo
Ġgesetz lich
Ġwer det
ĠBegeister ung
Ġgelten d
Ġs im
unter lagen
ĠFlÃ¤ chen
etz e
Ġbet ont
i i
ĠVor lage
ĠGew issen
ter nen
Ġgen annte
is ierten
st art
D ER
7 9
ĠEr schein
ĠNeu en
Ġgu tem
ĠJust iz
weis ungen
Ġstatt findet
Ġf eiert
ĠEr holung
ĠÃľber setzung
eucht igkeit
ĠStre cken
Ġgegen seitig
Ġbe arbeitet
Ġn ational
ĠRÃ¼ck kehr
Stra ÃŁe
ĠI V
h u
ĠNatur schutz
ĠSchicks al
ĠW Ã¶rter
ĠAuf stieg
ĠKan ada
Ġgew achsen
H och
au stausch
ĠDe fin
Ġw odurch
zahl ungen
ĠPlan eten
Ġwahr e
ei de
wohn ung
Ġtradition ellen
Ġtoll er
mÃ¶glich keit
um in
ĠLa ptop
az itÃ¤t
Ġwissenschaft liche
ĠM oder
Ġge fordert
Ġsch licht
Ġangeboten en
Ġ( "
Ġjahr el
D ienst
wel tsch
Des halb
geg nung
Ġerfolg te
Ġun angen
ĠEr b
inder ten
Ġherr scht
me er
Ins gesamt
S terne
ĠAc cess
o fen
Ġex pl
Ġk op
Ġ199 4
Ġ5 2
Ġ199 6
PrÃ¤ sident
ĠT onnen
ĠGro up
ĠJ agd
ĠB ig
ĠSu b
Ġ5 6
A F
ĠBelast ung
ri p
rÃ¶ h
Ġres erv
Ġr asch
grÃ¼n den
ĠF assung
IN G
ĠBeschÃ¤ft igung
Ġunter b
ĠsorgfÃ¤lt ig
ĠInternet seiten
ĠBundes ministerium
200 8
Ġheut ige
ĠLiebl ing
ĠL ange
ĠIn haber
iti ative
ser ie
Ġlust ig
Ġexist iert
Ġbe zogen
Ġ <
at ein
s uche
ĠG R
eira tet
Ġinvest iert
Ġwahr en
Ġakt ive
A c
ĠReg ierungs
Ġsch ul
ĠJe den
icht ung
ĠIs land
s icher
ur teilung
ĠKÃ¶r pers
ul a
opp en
Ġum geben
ĠP ir
L aut
et tel
gem Ã¤
Ġwei ÃŁen
An halt
o ÃŁ
freu de
ĠTour en
ĠWol ken
T EN
ĠEin z
ĠgemÃ¼t lichen
ĠOpt imierung
ĠIntern ationalen
ĠKat astrop
ĠBerÃ¼ck sichtigung
ĠC y
ĠVer dacht
Ġpro bieren
de x
ĠÃ¼ blich
ĠK lage
metho den
ab teilung
Ġdurch schnittlich
Ġinner en
ĠLe der
5 9
ĠAuf sichts
ĠL ippen
F est
ĠKommun en
ĠUnivers ity
Ġdefin iert
Ġkompeten t
Ġander erseits
Ã¼t zlich
ĠGeschen ke
S E
ĠKl oster
ĠfÃ¼hl te
Ã¼ te
Ġges orgt
zus agen
Ġmedizin ischen
m ag
ĠNav ig
ĠNÃ¤ch te
h am
Ġvert rauen
Ġeingesch altet
h ar
ĠProduktion s
schul d
ĠMus kel
ĠAr mut
ĠM esser
Ġaus gesch
Ġl Ã¤nd
ĠL ade
per rt
ĠWes entlichen
ĠUr lau
Ã ¨
bet reiber
Ġd el
Ġan statt
Ġeinge gangen
Mark eting
ak ult
ommer ce
T ra
ĠSu bst
ĠEx empl
Ġschme ckt
Ġwider rufen
Ġj apan
ie ber
ĠRe form
Ġj etz
Ġuns icher
ĠK und
pl ement
ĠJ edoch
Grund verordnung
Ġganz es
ĠA N
zu bilden
war en
Ġzu kommen
qu al
ĠSam sung
ĠregelmÃ¤ÃŁ igen
ĠVer mittlung
f red
ĠBras ilien
er ung
Ġbegeg nen
sch uhe
a he
Ã¶ ger
Ġbe ge
Ġvers uchte
ĠAu di
ĠAltern ativen
Ġdem nÃ¤chst
ix el
ĠD os
sp eicher
Ġ199 5
ĠSchok ol
ĠOnlines hop
Ġsch uld
ĠSk y
m ie
ĠL ok
ĠH en
an spruch
itu te
Ein ige
Ġent nehmen
Ġ7 00
Ġab gesehen
ĠH ot
Ã¼nkt lich
ĠVerhand lungen
g Ã¤ng
ĠD ame
Sch w
Ġakt iven
Ġw em
Ġg Ã¤ng
Ġober en
Ġzuk Ã¼nftig
beweg ung
ĠK ost
ir gend
k asse
pl atten
Ġv ierten
ende te
Ġab geben
Ġgek enn
hn acht
ĠEp is
r asse
Ġkurz fristig
Ġpolit isch
ĠTran sparenz
de lt
Ġmedizin ische
Ġirgendw elche
ht ml
an alyse
h andels
ĠWohl befinden
Ġschwer er
in kt
re den
Ġlang jÃ¤hrige
Ġg Ã¼ltig
Ã¼ss ig
Ġl it
ick te
ri a
Ġ ^^
ĠKonfl ik
Ġfreiwill ig
w es
Her zlich
P O
ar y
I ON
Ġre alisieren
ĠÃľber nahme
spl atz
er ische
Ġunkompl iziert
Ġst ieg
ch ner
Ã¼nd nis
Ġg riech
Ġsch enken
ĠRett ungs
i for
Auf grund
ĠUm bau
ziell en
ĠK ey
ĠBach elor
Ġein laden
ĠBehand lungs
ĠMein ungen
Hin weis
Ġdurch ge
ĠD IN
teil ungen
p la
Ġfolgen der
ĠT iefe
tern ehm
ĠC ap
Ġ eignen
ĠHaushalt s
ĠP iz
ĠFr ont
ĠT un
ĠAf D
ĠGal ax
ein igt
Ġarbeite te
ĠM ission
ĠHand lung
d ann
Ġz iel
Ġges unden
ĠA spekt
Ġho hes
W el
sp rÃ¤
Ã¤ le
Ġniedr iger
ĠAuftrag s
Ġauf gestellt
afr ika
Ġren omm
ĠE M
du kt
Ġgegebenen falls
Ġ9 00
Ġnotwend ige
ĠFl Ã¼ge
e c
ĠDeb atte
G egen
ĠBe zeichnung
ĠBe zahlung
Ġeiner seits
gen den
Ġfol gendes
Ġauf gew
ĠKÃ¤ se
ĠRo ute
ĠZwei ten
t chen
Ġschrift liche
ĠL im
6 4
f iz
ĠNutz ern
B A
ĠErfolg s
ĠpersÃ¶n liches
ar akter
Ġs elt
ĠArg ument
ĠPer formance
ĠRed aktion
ĠWissen s
ĠRechtsan walt
Ġ5 8
Ġer mitteln
h ers
W E
r igen
auber n
Ġs eri
ĠgrÃ¼ nen
Ġver kauf
ĠKarls ruhe
ĠGe stalt
w olle
ĠKlei d
D on
Ġs erv
Sh irt
ĠLÃ¶ schung
k opf
Ġ19 45
fert igt
k re
ĠBeweg ungs
Ġauf bauen
W ann
ĠÃ¼ber legt
Ġumfassen den
Ġ qm
ĠAud io
ĠFin ale
ĠPan or
K unden
in gend
ifor n
ĠerlÃ¤uter t
Ġdurchschnitt liche
ĠT eu
Ġsch ie
ĠF iguren
ĠS aar
ĠKonsequ enzen
ĠSpazier gang
ĠenttÃ¤u scht
ĠG rand
K arte
in sel
o ir
ĠVis ion
ĠAkt uell
Ġr as
ĠOper ation
ĠÃľber ein
Ã¤hl e
Ġber uht
qu ote
Ġletzten dlich
Ġauf weisen
B us
s ucht
ĠTrau er
Ġm ar
Ġbe enden
pp ich
ĠK f
Ġbe weisen
a aten
Ein fach
ĠAn wender
ĠHein rich
T our
sam keit
ĠK ron
gesetz ten
recht lich
F ach
ĠV an
ĠSch reib
produ kt
bes ser
ĠLaun e
ĠSchrift steller
B eg
ĠMain z
Ġauf zunehmen
ĠE IN
ĠLes e
Ġabsol ute
Ġruh iger
bo ard
zie her
Ã¤d igt
liefer ung
g u
ĠVert rau
ĠAt l
ĠPerspekt iven
ĠBeschÃ¤ft igten
Ġbeob achtet
k Ã¼r
ĠForm el
n Ã¼tz
Ġgek lappt
Ġt reiben
ĠKla vier
Ġs ign
ĠLog o
Ġw Ã¶ch
Pl atz
mens ion
Ġkre ativ
JÃ¤hr igen
Ġgel aufen
v ort
tsch aften
in ent
stra te
ĠD unkel
k omp
Ġunterschiedlich sten
ain t
ste te
ĠvielfÃ¤lt ige
land schaft
Ġ rau
ĠZwe cken
ĠWer tsch
ĠAn zeigen
Ġanzu bieten
Ġumfang reichen
T L
ĠSchul ter
ĠBegrÃ¼n dung
ĠAnh Ã¤nger
z ungen
ĠPro p
isse ur
y si
ĠLe ague
chen kt
i bl
Ġrelev anten
auf wand
Ġsen si
ĠS MS
ent sprechend
Ġi gnor
ĠMathem atik
Ġgest orben
hÃ¶r er
ĠIm pf
ĠSt rÃ¤n
zeich neten
ĠhÃ¤ufig sten
ĠAll er
ĠIn t
Ġweit gehend
sk osten
Ġgepf legt
Ġkultur ellen
ĠKÃ¼r ze
T er
h Ã¤ndler
or ry
Ġver bracht
St iftung
ĠPoten zial
ĠGe pÃ¤ck
af el
wei f
Ġempfehlen swert
do or
Ġzahl t
Ġn ahmen
V ideo
ĠEmpf Ã¤nger
Ġeinzigart igen
od y
Ġnachfolgen den
euch tet
Ġb o
ĠBet ten
h elfen
Ġfr ische
Ġ ra
Gen au
Ġben ach
v a
ers atz
Ġbemer ken
Ġbeh Ã¤lt
ĠÃľ bung
Ġbe zeichnen
ĠRegion al
ho ot
n och
ĠBrÃ¼ ssel
Ġdur ften
ĠSch atz
Ġmehr mals
ĠM auer
w oche
c i
be stÃ¤tigung
ĠEr zÃ¤hl
ĠNational park
ĠMeld ung
Ġho hem
Ġmil itÃ¤r
sch ei
Ã¶ tet
t Ã¤t
kun st
Ġk ommer
ĠS ar
Ġd oppelt
ĠGlÃ¼ck wunsch
ĠIm press
ĠInvest oren
p assung
ĠF u
ĠGesch w
stud ium
m iss
Ġan geschlossen
ier s
ac ebook
ĠM w
B M
ĠKon gress
fÃ¼hl en
ĠVert rÃ¤ge
Ġspann enden
ĠL oc
kret Ã¤r
Ġgem eldet
ĠMan che
Ġvor n
F il
un det
ĠÃ¼ber lassen
Ġbe zahl
ord net
Ġvor Ã¼ber
Ġneugier ig
m Ã¤cht
ĠWeihnacht sf
Ġz ertifiz
Ġentsch lossen
Ġganz heit
bed Ã¼rft
Ġun ber
ĠLab or
ĠMr d
ĠLie der
Ġ8 9
p os
ungsver hÃ¤ltnis
st ab
ĠAs ien
Ġantw orten
ĠU lt
ĠStre et
Ġgeeig neten
ĠDaten Ã¼ber
ogra fen
v ider
art s
ĠRahmen bedingungen
Ã ³
z essen
ĠEin er
ĠMag azin
Ġtrain ieren
bet eil
ĠB ein
kÃ¶ mm
ĠKlima anlage
ĠFreund schaft
d pa
D ank
kl assen
Ġvert eid
ĠMeck lenburg
7 1
in er
ĠG reen
ĠGlÃ¼ck s
ĠEin nahmen
is a
ĠStadt teil
t hm
âĢ ĭ
l ist
ĠLin ux
st ritten
wer tet
ĠFÃ¼ ÃŁe
ge stellten
Mar kt
Ġvoll stÃ¤ndige
ank ing
b ogen
ffe kte
ge legen
bew usstsein
k ing
ĠtÃ¤glich e
Ġwo hin
verb indung
ĠB a
ĠlÃ¤nger en
ĠD aumen
ĠRe zens
stre cke
ĠBar s
or ca
l isten
ĠN u
Ġschwar zen
Ġengag ieren
an ische
ĠÃ¶sterreich ischen
Ġf Ã¼n
wÃ¼rd ig
P o
j ob
Ġunter en
ges ellschaften
ĠForder ung
I r
ĠEurop e
ĠVerl etzungen
Ġk ochen
ĠAc count
zu lernen
Ġbeeinfl usst
ipp e
av e
ĠHo st
cen ter
ĠBer gen
ĠB Ã¤ume
Ġh um
ĠEl ement
il ian
ĠKons um
ĠNot fall
ĠAn schrift
Ġ3 60
ĠCh or
ĠAn reise
Ġger ingen
B N
ĠB utton
ĠEx pert
S P
fang s
ĠVerpack ung
ĠFortsch ritt
qu enz
ĠEind rÃ¼cke
ymnas ium
ĠBe gegnung
ĠR Ã¤umen
Ġbes eit
Ġ6 8
ĠBeruf ung
D A
Ġn am
men ge
Ã¤ hnen
Ġaus gesetzt
eh er
Ġstud ierte
Ġex ternen
k redit
n te
ur o
p apier
G VO
Ġ reibungs
Ġmit nehmen
k ter
Man agement
Ġg r
ĠFotograf ie
b aus
ĠBro sch
ges chen
stand s
, ...
st il
ĠVerpflicht ung
us ion
ĠS auer
gÃ¤n gen
Ġn Ã¼tz
Ġbeur teilen
ot ionen
ĠOb jekte
mann schaft
? )
ĠBet riebe
ĠMos k
Ġaufzu bauen
ĠA qu
iet ung
ĠAuseinander setzung
Ġausgest atte
Ġ6 6
ĠRÃ¤um lichkeiten
Ġch em
ir che
anz ig
ĠSo ft
Ġinspir ieren
K ein
Ġkleiner en
m Ã¶
ĠTsch ech
Ġger Ã¤um
Ġ 00
zent ren
ĠZ er
ĠBezir k
ĠBl att
ch tet
Ã¤cht nis
n itz
Ġdamal igen
Ġhei sst
ĠBab ys
r ein
land es
m at
ĠF Ã¼nf
ĠGewinn spiel
ge d
for um
ĠHei zung
Ġs k
ĠS ab
ĠAb wicklung
ĠA ff
n amen
ĠTr ennung
Ġt op
m obil
ĠR ente
Ġver halten
9 8
Ġ5 4
an ien
ĠWo hnen
Ġd ick
Ġkontinuier lich
st unde
ĠD ampf
Ar ch
glich er
ĠUn garn
ĠRubr ik
ab len
ĠMÃ¤n gel
Ġf amil
ĠAn na
Ġl eiten
Ġerw achsen
Ġwahr genommen
Ġruh igen
Ġber eiten
Ġwie so
Ġdies jÃ¤hrigen
Ġbemer kt
ĠVerbr eitung
Ġoptim ieren
un e
ut her
ĠW ann
k r
ĠTab ellen
l im
ĠFranzÃ¶s isch
sp er
ĠHung er
p ot
ĠVor bereit
Ġf assen
grÃ¼n de
Ġmel det
ĠFrank furter
v al
Ġver ring
alis ierte
Ġaktiv iert
ĠEin nahme
ĠDie sel
ĠTrans fer
ĠBehÃ¶r de
Ġan kommt
ĠDienst leistung
asch utz
ĠF er
ĠRe zepte
Ġseiten s
ĠK B
ĠP ots
l eute
w andel
Ġaufge fÃ¼hrt
ate ll
eb astian
Ġeh e
Ġ $
Ġmit teilen
rah men
Ġelektron ischen
J ugend
p unkten
met ik
ĠArme e
Ġm ieten
Ġgest attet
Ġauf einander
ĠÃĦ hn
ĠKultur en
omp uter
ĠU p
ĠHoch schul
Ġpassen d
wei ch
Ġvoraus sichtlich
Ġeur er
ath ie
Ġbrit ischen
ĠSp ark
k Ã¶rper
Ġ199 2
Ã¤nger ung
Ġkennen zulernen
Be vor
arbeit ungs
B uch
ĠGed anke
Ġgeb unden
T R
ĠInform atik
ĠEr hebung
Ġnach t
ĠMittag essen
Ġgef ert
ĠÃ¼ber geben
vert reter
ĠTeu fel
ĠDar auf
H ey
ĠEinsch Ã¤tzung
+ +
Ġakzept iert
Komm ission
ĠgewÃ¤hr t
ĠRe kord
Ġmensch liche
Ġkompl etten
ĠAn wendungs
on st
m ung
E C
ĠHoch schulen
Ġsch aff
h ington
ĠGeb Ã¤u
ĠberÃ¼hm ten
k ann
ĠIde al
ĠEx pl
ĠB raut
ĠAufenthalt s
ĠerÃ¶ff nen
ĠSpezial isten
Ġob jekt
ĠSt urm
ĠStrate gien
Ġruss ischen
r einigung
ĠE ich
W issen
Ġerfahren en
Ġerhe ben
ĠDÃ¤n emark
behÃ¶r den
Ġge klÃ¤rt
ĠMitarbeiter innen
ent in
Ġverur teilt
ĠT oten
ĠC omm
Ġ198 9
ĠLebens qualitÃ¤t
re ktur
ĠGebur ts
Ġsch reck
ĠOrient ierung
ĠApp l
Ġr eine
Ġber eitet
str ich
umm e
ĠSen der
p ommern
ud es
ĠH ast
ir itu
ĠK lin
Ġzentr al
ie gelt
be cken
lie be
Ġ !!!
ĠH Ã¤uf
ĠBel gien
ĠDienst leister
Ġdein es
Mus ik
Ġp ri
ĠN Ã¤hr
Ġge zwungen
ĠregelmÃ¤ÃŁ ige
kl icken
Ġbes prechen
deut schen
Ġ5 1
ĠP en
ĠÃĦg yp
Ġexist ieren
ĠDie sen
Ġnach ts
Ġglob alen
Ġt rag
Sch ule
gesch ritten
ĠTechn iken
ĠMit teilung
et tern
gef asst
Ġer zeugt
Ã¤t sel
Ġk ulin
ĠMus een
Ġun end
B ay
besch reibung
ĠAr men
Ġn Ã¼tzlich
ĠSp a
ath on
w Ã¤lte
Ã Ń
ĠKontakt aufnahme
ĠAn leger
g i
G leich
ĠkÃ¶rper liche
Ġkap utt
ĠStud ierende
R und
g leichen
ĠA U
ĠH ekt
Ġg Ã¤be
Ġgeeig nete
ĠDes igner
Ã¼ck t
ber eitet
Ġab gerufen
Ġges ichert
ĠNeu igkeiten
spr achen
Ġverschw unden
Ġab s
Ġkommen de
ĠMet rop
7 2
Ġregistr ieren
ĠIn g
Ġweiter entwick
Ġum welt
ĠL G
Ġauspro biert
ĠUm stÃ¤nde
ĠKl icken
Ġbehaup tet
Ġge laden
ĠVorsitzen de
ĠEr z
ĠF onds
ech ten
Ġfeh ler
K an
kt op
Ġeigen tlichen
form at
ĠSp ende
ĠKir ch
ik on
ĠArbeitspl Ã¤tze
ymp ath
ĠPh Ã¤nomen
Ã¶ gern
Ġries igen
Ġl es
ĠK offer
Ġger echnet
Ġhinter her
ĠSt ufe
qu elle
iss ionen
ĠBedien ung
Ġ5 3
ĠM essen
ak er
ĠTool s
aus stellung
ĠE ck
ĠBÃ¼rger innen
ĠSch uh
Ġfol gte
Ġzugesch nitten
bau er
solv enz
ĠSon st
H ab
ant es
verkehr s
ĠMount ain
F ilm
ĠzurÃ¼ck ge
wir ksam
seit ige
M al
Ġendg Ã¼ltig
M ann
ĠSch ild
ĠWahr nehmung
Ġst Ã¶
ĠN ICHT
Ġm ult
ĠB rit
h or
Ġerlau ben
ĠE ffizienz
Ġf rag
ĠFl asche
m Ã¤ss
Ġs ech
Ġgere gelt
Ġverg rÃ¶
dr ess
ĠArchite kten
rag ung
ĠL ein
son st
ĠApp ar
Ġan nehmen
in ten
st eine
ĠEntsteh ung
Ġzw ingend
f lex
gehen de
Ġengag iert
Ġteil te
ĠA GB
ĠReihen folge
ĠVerteid igung
B ox
geb ieten
it is
ĠD or
ĠSign al
Ġl achen
ell es
Ġumfassen d
Ġm essen
ĠL och
Ġwar men
H e
o be
ide os
d f
Ġ197 0
ĠImm un
b ungs
ĠCH F
Ġzu fÃ¤llig
druck s
Ġdem nach
Ġvor kommen
ĠBeg leiter
ĠVoll zeit
ĠStat istik
Ġso g
du ktion
ar ben
Ġ5 9
ĠP r
ĠH all
ĠKn ochen
p at
ĠÃ¼ ben
Ã¼ bt
ĠF air
och t
Ġspont an
veranstalt ung
m ischen
ĠH ut
ĠKlass iker
Ġm od
Ġber ichtete
ĠAuf klÃ¤rung
ĠGro ÃŁe
ĠN ation
ĠP ositionen
ĠpersÃ¶n licher
Ġan zusehen
min uten
ĠGef Ã¤ngnis
re gung
gren ze
Ġjung er
Ġkon zip
ĠA ction
ĠStu dent
Ġausger ichtet
amt es
Ġzu lÃ¤ssig
ib le
ĠMit tlerweile
ĠF eder
ĠD ol
Z ahl
ĠhÃ¶ch st
ĠvielfÃ¤lt ig
ĠAut omat
Ġ13 0
ĠS omm
Ġneg ativen
Ã¤ ften
ĠBe stellungen
St art
ĠNotwend igkeit
h ls
ĠCo ver
F re
lei den
ĠR auch
M A
wander ung
Ġzeich nen
F erien
ĠNerv en
ĠB om
ĠLei b
ro st
ĠGerman y
T A
ĠBel ie
Ġintegr ieren
app e
Ġso viel
s Ã¤tzen
ĠMÃ¤r chen
ĠZ ertifik
s et
. ),
beh andlung
ir ma
ĠKon zepte
d ungen
ĠW ellen
Ġ14 0
or fer
ĠB enz
ĠZeu gen
5 6
Kl icken
Ġerleich tert
w ein
) )
ir d
Ġdort hin
Ġfinanz iert
Ġgegen wÃ¤rt
ĠFran c
lÃ¶s ungen
g han
schlÃ¤ gen
ĠAb schied
mit ten
ĠRes ult
zeit ung
ĠsÃ¼ ÃŁ
ĠSch ie
Ġkor rig
Ã¶pf ung
lie hen
Ġvers orgen
T C
Ġ199 3
Ġs eht
ĠR ost
Ġm Ã¶
Ġbege hr
ĠGew inne
ĠMie tw
ĠF akult
Ġhin gewiesen
ĠAuss ehen
f leisch
Ġzu kunft
au r
ĠSch ritten
upp en
if est
Ġabsch lieÃŁen
Ġgen ossen
ord s
Ġre prÃ¤sent
Ġinner e
ĠDi abetes
Ġamer ikanische
Will kommen
u ver
Ġbeant ragen
bie tet
al b
ĠSpeicher ung
Ġengl ischen
Ġan geben
C on
Mitglie d
ĠG re
ĠNach folger
ĠDu ft
h Ã¤nge
ĠIntelligen z
al em
ĠKl eine
ger Ã¤ten
Ġst ation
ĠwÃ¼r d
ĠAn stieg
sen der
an kt
C ommerce
gen au
Chr ist
Ġher zlichen
I F
Ġbl Ã¶
Ġa tember
Ġleben d
ip end
\ \
Kl asse
Ġf Ã¤ngt
% .
ĠSpekt rum
Ġern euer
ĠF DP
Ġber echnen
el and
n es
gew alt
Ġper man
201 9
Ġaut hent
ĠDis ziplin
gl as
ĠFil ter
em burg
Ã¤ udes
ĠProf i
Ġlie ÃŁen
ĠSem ester
ĠArznei mittel
ĠGe st
ĠB ast
K om
ĠH ir
Ġauf t
Ġer hol
Ġge leistet
amb ots
ĠBezir ks
ĠKond itionen
Ġerreich te
Kont akt
ĠProjekt s
ĠZur Ã¼ck
ĠEben en
hy thm
ĠDank eschÃ¶n
ĠÃľber leben
ĠA achen
ĠEing abe
ĠBil anz
ĠGesch irr
ĠG ames
Ġkontroll ieren
ĠSemin are
Ġregistr iert
Ġst il
ul Ã¤ren
ĠnÃ¶t igen
de cke
anzler in
Ġkombin iert
ĠUnivers itÃ¤ten
ĠV W
ĠRie sen
Ġmittel stÃ¤nd
O K
ĠVor bild
ĠJ azz
ake te
p ause
ĠReich weite
ier bar
ĠSp ambots
ĠD ritt
Ġentscheiden de
g y
qu ellen
ĠÃ¼ber mittelt
n ame
ĠN oten
ĠEr ziehung
Ġhervorragen de
Ġb ay
ĠâĢ ¢
hand lungen
ĠV eg
Ġget Ã¶tet
Ġweiter gegeben
rau ben
sch aden
be zÃ¼glich
pd f
8 5
geord nete
ant ik
J edes
Ġeffiz ient
Ġkomm st
Ġschwier iger
Ã¶ sterreich
Ġwieder holt
ĠGast ronomie
ĠS us
ĠBe stehen
et o
eiger ung
s uchen
ag ra
ĠEn gl
Ġvor geschrieben
ĠStÃ¼ck e
m Ã¤nn
K at
ĠFel der
st rom
ĠKonzer te
ĠB och
um fang
Ġmonat lich
Ġeigen tliche
andel te
ĠWart ung
ĠTele kom
ĠÃ¤r zt
ome tern
Ġausgew Ã¤hlten
Ã¤mpf ung
Ġau stau
ĠAus wertung
ĠKlim aschutz
K osten
ĠPass ag
Ġvoll stÃ¤ndigen
wal tschaft
K T
wer ker
Ġregion ale
ĠZ elt
auft ritt
ĠNach weis
Ġte urer
ies sen
al tete
kont o
P R
g ig
ĠTre ff
ĠGer echt
Ġverbunden en
ĠhÃ¶r te
ore a
re al
Ġhei ÃŁe
ĠSan ierung
t i
ĠkÃ¼ mmert
ĠBis her
ĠSchul jahr
S C
ĠgenÃ¼ gt
ĠR Ã¤
ĠNeben wirkungen
u ÃŁer
Ġh a
ĠverlÃ¤nger t
un sten
ho ff
F e
Ġries ig
ĠR ent
ĠIn tens
k ern
Ġkre ative
Ġbe eintrÃ¤cht
Ãľ R
klÃ¤r ungen
200 7
Ġzw ingen
ĠSÃ¼ ÃŁ
ĠD Ã¶r
ĠT rÃ¤ume
veranstalt ungen
ss lich
ĠRe chten
ĠÃ¼ber mitteln
ĠCh at
ĠDir ektor
ĠF A
Ã¤mpf e
Ġversp richt
fen ster
hoch schule
Ġverschw inden
ĠAus gleich
beh alt
Ġr at
In f
Ġaus k
ĠO P
Ġkann te
ast et
Ġgew ann
Ġz eige
O hne
Ġeinz eln
ĠMobil e
ĠHa mmer
red ite
Ã¤ ppchen
re che
Ġher kÃ¶mm
Ġuntersch eidet
ĠErd be
stra hlung
tag es
ĠSch lei
Ġver Ã¤nder
stÃ¤r ke
ĠI M
ĠHighlight s
Ã¤r zt
ĠN ah
ĠMatt h
Ġsp rich
Ġe wig
Ġm or
cht ung
s aison
ĠVerb indungen
ĠArbeits zeit
Ã¶r se
ĠBek annten
Ġge gessen
Ġvor liegt
d liche
Ġteil zunehmen
p ost
ir ur
ack er
ĠSelbst verstÃ¤ndlich
ge gn
oll t
ĠLin ien
h agen
and te
ĠMark us
Ġt ausend
b Ã¼
ĠC ons
6 9
re geln
b reite
ĠMein ungs
ĠSt offe
ser fahrung
B ER
Ġkultur elle
ĠVort rÃ¤ge
Ġb elegen
ĠhÃ¶ re
Ġen ger
ĠAnder en
ĠLe vel
Form at
ĠHeidel berg
Ġw eh
Ġfamil i
ĠKat alog
uf a
ĠAus zubilden
St ar
ĠPf lichten
ĠMie te
ĠMaÃŁ nahme
Ġall tÃ¤glich
ĠBundes k
Ġwes entliche
Ġ199 1
7 4
ĠGegen stÃ¤nde
ĠIntern ationale
ĠJ ames
ĠMann schaften
Ġheraus ragen
Ġd unk
hand lung
ro ht
ekt ak
A k
R es
Ġh armon
Ã¤ng ern
Ġ11 0
f euer
ĠMobil funk
Ġb Ã¶se
ir ts
ĠDar um
Ġer zeugen
ĠdÃ¼r ften
ĠK Ã¤lte
M on
inde l
Ġgenau en
reff end
ĠGerecht igkeit
ĠVers ionen
ger echte
ĠBe stimmung
Ġhier mit
Ġf ix
M ain
ĠCh a
ĠRe c
Ġg alt
Ġin dustrie
fol gung
Ġschwier igen
ĠSchm idt
âĢ¦ âĢ¦
Ġsch merz
Ġ16 0
ĠfrÃ¼ he
l ohn
ĠGegen stand
ĠSpiel ern
m as
ĠzukÃ¼nft igen
ĠW a
ĠL eid
ĠPart ie
ĠmÃ¼ de
fÃ¤ l
Ġan scheinend
schn eiden
U p
ĠEinzel fall
ĠOtt o
Ġr ief
ĠFakt or
auf bau
ĠAusgang spunkt
ĠPhil ipp
ĠM P
ĠMw St
ug al
cel ona
ry pt
Ġein ander
Ġgibt s
Ġd un
ĠEr hÃ¶hung
Ġwas ser
Ġzu stande
iqu e
ĠSuper markt
ĠZ y
ĠM ix
D eine
ĠW Ã¤l
h orn
ĠEm otionen
ĠHal te
ĠL ook
or a
Ġzu ges
7 3
g ungen
ĠR ande
ĠFach k
sb aden
ĠSc ience
So fern
umin ium
hl e
ĠwÃ¼rde st
rate gie
Ġf il
Ġw ohn
Ġverlie bt
ĠBuchst aben
ĠH au
p acken
um b
r el
eiger t
Ġsch Ã¤d
ĠHÃ¶he punkt
ĠBe vor
ĠG ran
ien e
ĠMass age
W C
ĠL aufen
Ġt hem
ne ter
Ġbes etzt
ĠTest berichte
an dert
F i
Ġber Ã¼hrt
l angen
ĠHe ft
meister schaft
ĠF unk
fÃ¤h igen
ro s
Ġfreund liche
ausch al
gel Ã¤nde
ĠPlast ik
ĠK le
ĠMar c
Che f
her z
du le
Ġer teilt
il en
Ġm g
re am
ĠJ Ã¼rgen
Qu elle
ĠBeam ten
K n
system s
L og
Ġde aktiv
verb ot
ĠH ell
ĠT ore
grund lage
ĠPay Pal
ĠRe port
Ġkonzentr iert
ĠK assen
ĠPhys ik
p ut
Ġmel de
echs lung
den kt
ĠPh ot
Man chmal
ĠJur y
d om
Ġbew Ã¤ltigen
Ġab nehmen
Ġmit zu
ĠAnt on
ĠKÃ¶nig s
Ġvor nehmen
Ġsoll e
Ġmit bringen
lie ssen
D is
Ġar ch
Ġein ig
spro zesse
erk rank
Qu alitÃ¤t
Ġver sprochen
far be
Ġver schl
ĠAb sicht
) ;
ge fÃ¼gt
Ġstehen den
ĠKont roll
Ġabgel ehnt
ĠÃ¤hn lichen
ĠkÃ¼r ze
Ã¤m pfer
deutsch land
aun en
Ġn etten
ĠEr lebnisse
l ehnen
ĠRe chen
D I
us h
v ern
ĠSchreibt isch
ĠAlltag s
ungs f
Ġkompeten te
pl Ã¤tzen
Ġerf Ã¤hrt
ĠprÃ¤ z
ĠGe bieten
ĠUrheber recht
ber gen
ĠWander ung
ĠStand orten
Ġkon front
b em
Na ja
Ã¤u schen
Ġwoll e
w ann
Ġbein ahe
ĠAus zeichnung
Ġzusammen gefasst
ĠL as
O ber
ir l
ĠMÃ¼n chner
all tag
ĠÃľber prÃ¼fung
T ipp
her steller
w jet
im er
k i
Ġangeb racht
ĠA M
Ġabge legt
ĠC op
ĠS CH
bin den
Ġun tern
Produ kte
Gesch Ã¤ft
Ġ6 9
ĠErn euer
ĠKl ang
roh ung
ĠF inn
fÃ¤h ige
ĠMall orca
ĠN ehmen
ĠMig ration
b ein
ĠD J
ĠChamp ions
W Ã¤hlen
en e
ĠfranzÃ¶s ische
ein heiten
Ġpl us
ĠUm weltsch
iz ont
ĠPl atten
ĠPro gn
ĠMenschen rechte
Ġaustau schen
ĠEinzel nen
B eit
Ġf Ã¤llig
Ġel f
U pd
Ġunterschied licher
ĠNetz werke
Men schen
ĠÃ¶ konom
Ġvorber eiten
W eiÃŁ
pro bieren
Ġbesser es
Ġstud ieren
bl ut
ĠTem pel
ĠArt ikeln
Ġschwar ze
att ung
Ã¼st et
I K
Ġbet ragen
ĠPrakt ikum
fin ale
Ġzur zeit
S CH
Des ign
ĠSch ufa
Ġw eich
Ġfert igen
Ã¼nd ig
Wie der
ĠO pp
ĠWeiter gabe
Ġt raf
er kt
ĠT urm
ungs vor
Ġkommun izieren
ĠProvin z
Ġhin weisen
Ġer arbeiten
ĠÃľber tragung
5 1
Ġkrit isch
ĠAn kÃ¼nd
ĠÃľbern achtung
ĠUn ternehm
ĠThre ad
ĠProf is
ĠCoach ing
ĠV ari
Ġf rÃ¶h
Ġeinzigart ig
Ġgem essen
ul se
zentr ale
ĠAbend s
ĠQual ifikation
ĠP ension
ĠAb itur
ĠÃľberw achung
Ġbeteil igten
ĠS eg
ie tet
ĠHo se
ĠE hre
Ġver passt
ĠThÃ¼r ingen
gere gt
vert reten
ĠK as
ĠArtikel s
n ot
Ġgemein nÃ¼tz
g au
far ben
Ġrecht liche
ĠM eilen
ĠÃ¤hn liches
ĠEr sten
ĠErn Ã¤hrungs
Ġges chenkt
Ġex akt
ĠAus fÃ¼hrungen
h at
ĠBet r
ĠTem po
N E
be ziehung
5 2
Zus ammen
ĠFil men
Ġgepl ante
h aut
reich er
ĠMann heim
ĠWar enk
Ġf leiÃŁ
ang aben
seit igen
Ġs ingen
K ur
Ġauf gerufen
E vent
G ott
Ġaktiv ieren
et he
ĠSt ate
D ruck
pr ession
S a
voll er
O C
st age
ĠL ay
ĠAus stellungen
ve ster
Ġt eils
Ġr Ã¶
ĠÃ¼berraschen d
ĠKauf entscheidung
rich ter
Ġbet onte
ĠCor por
Ġ7 2
Ġr uft
ĠPaar e
ĠSchÃ¶n e
ĠIn solvenz
ĠDon au
Ġmit machen
Ġnach weisen
ĠX box
e p
t ra
Je de
Ġvert ra
Da her
ĠAb sprache
Ġattrakt iv
ĠPap st
stell bar
aus wahl
ĠKan al
akt oren
A V
Ġzu greifen
ĠVer fassung
Ġn amens
geb oren
Ã¤ len
Ġt rennen
verlÃ¤ss igkeit
Ser ver
ap e
ĠâĢ ĺ
N utzen
ĠWahl en
Ġbew ahren
sch affen
ĠKn ie
fahr zeug
ĠM Ã¼tter
oler anz
Ġwest lichen
ĠBegriff e
Ġk Ã¼hl
Ġweiter zu
ĠTax i
O k
ĠausfÃ¼hr liche
L ink
Ġpoten t
ro man
ĠAn bietern
ge halt
ĠSchl acht
Ġbest and
ĠInnov ationen
ampag nen
ut in
ĠS Ã¤u
Ġvon einander
Ġkontroll iert
Ġklar en
ĠUnter kÃ¼nfte
Ġvertrau ens
alis ierten
c c
gie b
w orfen
ĠKart off
B S
ĠBenutz ung
M ax
ĠWer kt
sp rÃ¼fung
ĠÃĦ uÃŁer
Ġp ost
Ġs ort
K Ã¶n
zwe cken
ĠPrin t
Ġbe achtet
Ġg rau
ĠSe en
ĠProf ession
ĠK aufen
gel ernt
aut omaten
ĠImmer hin
Ġv is
anz eigen
Ã¼r fen
ĠErgÃ¤n zung
Ġfrem den
Ġaus gebaut
Vor pommern
Ġabsol uter
ing u
ĠOut door
Ġge lebt
f ast
ĠDer zeit
im um
Ã¤ÃŁ t
B ilder
m anden
ĠVor gÃ¤nger
ĠC am
Ġmotiv iert
ĠKonzentr ation
port al
Ġen glisch
Ġunmittel barer
ĠStra ft
Ã¼t ze
ĠO fen
ĠbegrÃ¼n det
Ġunter einander
Ġmen schen
ste ckt
ĠMann es
ĠschÃ¶n ste
Ġauf w
ente st
ĠReaktion en
Ġschn eiden
haf ter
Ġan lÃ¤sslich
Ġt rafen
Ġf ind
Ġl eise
ĠSa al
Ġn en
ĠFor en
Ġverh eiratet
lei d
s wahl
Ġre alisiert
ĠBundes land
o us
Ġbe ster
ĠAnder s
iel d
Ġnach ge
ĠfrÃ¼h zeitig
Ġb ild
ka sten
M obil
H S
ur cht
ĠAuf ruf
Ġstren g
ĠzukÃ¼nft ige
Ter min
ĠDa y
ĠZ immern
igkeit s
ĠKant on
Ġgekenn zeichnet
an eben
ail and
ĠFl Ã¼ss
anz t
__ __
st ahl
ĠAu ÃŁer
R ad
ĠÃĦn g
ick et
Ġg reift
Ġkonsequ ent
k Ã¼ste
Wir d
Ġwirtschaft lich
Ã¼ hen
F rage
ĠN ic
Ã¼n det
ĠDe cke
ĠTrÃ¤ nen
ĠV in
m acher
Ġitalien ischen
ĠGi pfel
m orgen
ĠProjekt es
ei s
Ġw ach
Ġneg ative
ist ischer
D ien
ĠBlog ger
Inter ess
ĠSport ler
Angeb ot
Ġd ram
ct or
am stag
m il
ĠS ebastian
B eh
Ġs ympath
ĠDon ald
Ġex terne
Ġeingesch rÃ¤nkt
ĠO S
i ode
ist rat
Ã¤ mm
ĠIr land
ĠPro test
F oto
am tlich
leg ungen
zi ale
ĠZ eilen
ĠBesonder es
ĠF rucht
n ormal
au schen
ĠReg isseur
ĠK ub
ategor ie
ĠTeil zeit
LÃ¶s ungen
ĠNetz werken
Ġw echsel
ĠD F
jen ige
Ġgefert igt
se ller
ser t
Ġauf gel
b orn
Ġk alten
ĠV aters
Ġinter nen
Ġvorliegen den
ahr ung
w etter
Ġjen er
I de
ĠSe kunde
i ot
S icher
schnit ts
Ġlok ale
ĠAus rÃ¼stung
ĠVerb rechen
ĠVer stÃ¤r
ver lust
ĠH unden
ĠBar celona
Ġverk nÃ¼
ĠDenk mal
Ġgleicher maÃŁen
Ġver teilen
Ġreich lich
k as
ĠAnge la
Ġ rÃ¼
Ġsp ektak
ĠR unden
ĠMus ic
me ch
Ste llen
z ell
ĠPark plÃ¤tze
ĠW ehr
ĠPress emit
ĠD ynam
ĠSt ill
ĠWor k
Ġ3 50
ĠB ist
Ġinnov ativen
Ġerkenn bar
ĠTe ppich
G ute
ĠFinanz en
ĠStu hl
ĠRich ard
Ġan halten
ĠZ weit
Ġverst orben
G eh
Ġger inge
un ion
Ġst euern
Ġunters uchen
ĠD AS
ĠM achen
ah me
utz ten
Ġpl ant
ĠverÃ¶ffentlich te
Ġlo hnen
ĠG E
ĠSie d
Ġp op
Ġhilf s
n utzung
ĠSteuer ung
ĠVer h
F rau
ĠDa von
ch ron
abet h
Ġvereinbar ten
ĠAn melde
Ġein geben
ĠMÃ¤r kte
ĠB rie
fÃ¼hr ende
ĠWar entest
Ġstatt dessen
ĠH ass
Ã¤hr en
ĠMuseum s
ĠEd ition
Ġar t
ĠC ast
Ġun besch
ĠBereit stellung
r ieren
reich ung
ĠDruck er
ĠFÃ¼hrer schein
ĠS org
B au
ĠDoppel zimmer
Ġverste ckt
ĠWas hington
ĠRichtig keit
el tern
ĠMiss brauch
eh nung
ĠM i
ĠDam als
verband es
Ġstaat lichen
Ġrest lichen
k ette
ĠDefin ition
ite d
ĠJahr gang
Ġange t
ĠW Ã¤hler
ĠAn passung
ĠY outube
Ġm on
Ġb il
ĠStad ion
Pl attform
Ġbelieb ten
Ġw ohnt
Ġverw Ã¶hnen
ĠverfÃ¼g baren
C l
Ġt ier
Aktiv itÃ¤ten
ĠSo weit
kur se
Ġnachvoll ziehen
Ã¶n t
Ġoptimal en
Ġlang jÃ¤hrigen
Ġanalys ieren
fÃ¼ gen
ĠBer echnung
H ilfe
ĠS icherung
ĠZ igar
art ig
Ġg olden
ĠursprÃ¼n glichen
iv als
Ġan onym
Ġkonst ant
ĠVerhalten s
ĠM ale
Ġleich ten
Pro blem
Ġbreit es
Ġ6 3
ekt ionen
Ġd omin
men schen
E d
8 9
Ġries ige
ĠWh ats
ck ten
rei bst
ĠS C
Ġnie manden
Ġge fÃ¼llt
Ġmitge teilt
P olitik
ĠK ochen
lei bt
Ġp Ã¤dagog
Ġl Ã¤ÃŁt
Ġteil t
rat es
ĠEinblick e
Ġdies bezÃ¼glich
in fo
6 7
ĠA D
ĠOrd ner
br ingt
lu ste
ĠWider spruchs
der te
ĠCas inos
g ast
Ġbedeuten d
ĠFlÃ¼cht ling
ĠGottes dienst
ĠQu er
Ġidentifiz ieren
Part ner
Ġfe ste
ĠT herap
ĠA ward
ĠJahrzehn te
ĠDeutsch er
ĠHerstell ern
ĠVorstand s
m ord
Ġkosten gÃ¼nst
Ġst re
sche f
Ġe chter
Ġschw ach
ĠT H
Ġro te
V G
dis ziplin
Ġerst klass
ĠgemÃ¼t liche
En tsch
z immern
ĠSE O
Ġzum al
K o
Ġab onn
ol oge
ĠSt abilitÃ¤t
Ġirgend was
voll es
aus weis
st ock
ein satz
ĠTom aten
Ġtradition elle
ĠSal at
g Ã¤ste
Ġerw Ã¤hnen
TM L
L iste
Ġschrift lichen
Ġorient ieren
Ġnach denken
Ġs aÃŁ
ĠN ett
ĠUm kreis
Ġ5 7
ĠSol idar
F ans
E ner
vier tel
ĠI H
Ġso oo
ĠGel tend
Ġan bietet
ĠW Ã¤hlen
il i
ĠKr isen
ĠUpd ates
S eiten
Ġbesch leun
ĠgehÃ¶r te
wÃ¼n sche
ro l
ein s
Ġange wendet
Ġernst haft
ĠWachst ums
l ande
am i
ĠVerf assungs
T op
Ġlie fer
ĠL ib
freund lich
ĠKon sol
ur ity
Ġges onder
ativ es
ĠR ud
bes itzer
Ġverlie hen
Ġre chte
Ġver passen
Ġs enken
ĠKomp lex
ĠKa mmer
ungs mÃ¶glichkeiten
ĠT ut
ĠEtw as
ĠHin zu
ik i
ob b
ĠKunden service
y wood
ĠVer gnÃ¼gen
ĠAnaly t
ĠMex iko
ĠÃľber gang
ĠG uten
empf eh
u eller
Ġverz ichtet
ĠGeltend machung
ĠerlÃ¤ utern
ĠNor wegen
ĠjÃ¼ng sten
ĠH allen
at a
Ġges perrt
ĠunzÃ¤hl ige
ĠFakult Ã¤t
ĠPl attformen
Ã¶ ss
Ġgen ehm
v ielen
ĠK ohlen
ĠK ult
ĠGraf iken
at in
ĠFahr zeugen
6 1
win kel
ĠbegrÃ¼ ÃŁt
O G
ĠL ande
ĠWurz eln
Ġwunder baren
Ġverantwort ungs
P ark
Ġle be
200 6
D o
k g
ĠBetroffen e
ĠAll i
h au
ĠDem onstr
ĠChar me
ĠSo fern
brigen s
ĠIn zwischen
ĠStadt zentrum
Ġverabschie det
ĠAn im
Ġdarauf hin
ĠBe denken
ĠZ wie
5 4
ark e
A gen
ĠE u
lo cken
ĠAb kommen
ĠSch ool
ĠInvest ment
ĠSpr ung
Ġwider sp
ĠZum indest
tag on
Ġ6 2
p rakt
ĠBit co
lei der
Ġwelt weiten
ĠWohn raum
ĠS y
ĠPort ugal
Ġniedr ig
ĠWei s
ĠTra iler
ĠWer den
ĠDes ktop
unsch wei
Ġ: -
Ġf ried
Ġ19 60
ĠD M
ĠKon struktion
Ġer arbeitet
Ġdro ht
Ġre cher
ĠMin eral
ĠZu verlÃ¤ssigkeit
ĠN orm
qu e
ĠVorsitzen der
ĠAl uminium
gesp ielt
S pr
p aket
ĠB an
ol en
Ġeigen em
le pp
a det
ĠEin bau
ĠBÃ¼r gern
ĠCo unt
ĠGalax y
ĠPrivat sphÃ¤re
ĠNe ur
ĠVerpflicht ungen
Ġje gliche
w n
Ġbei des
ĠgÃ¼lt igen
igen d
m utter
ein heit
Ġbrit ische
Ġd icht
Ã¼ ster
ĠJose f
Ġg aben
ĠL ou
D ein
unn el
Ġhin zufÃ¼gen
ar io
Ġn ationale
Em pf
ichter stattung
Ġab weichen
ĠInstitut s
ĠAktiv itÃ¤t
ĠC ann
Grund sÃ¤tzlich
ĠPe ters
Ġveranst altet
ĠÃľber zeugung
ĠIm age
ĠRo y
ss icherheit
haupt stadt
V P
ĠBoch um
Ġelektron ische
ĠMa ke
Ġen ge
Ġre par
ĠSp eise
ĠTex ten
ĠZahn arzt
ĠP KW
ĠAbt eil
Ġwei ÃŁe
ĠL egen
V B
ĠHum or
Ġnachhalt igen
Ġun klar
oir es
ic an
ĠJ Ã¼n
ĠAn lauf
ĠT U
ĠAr n
Mode ll
it as
gel esen
Ġkomfort abel
Ġschau e
Ġk inder
ru st
gr unde
5 7
ĠKin os
ĠAus flÃ¼ge
Ġempf ehle
Ã¶rt lichen
ĠBel eg
ĠVer w
v i
ĠArbeits losen
ĠK ing
ĠE th
ĠIS BN
ĠSch alt
ĠEigent ums
m es
Ġge heim
ĠSchokol ade
t uren
Ã¼t ten
M Ã¼n
Ġ9 6
unter such
Sch reiben
ĠDe kor
ĠVoll stÃ¤ndigkeit
ĠhÃ¶ch stens
sam t
wer bung
k rÃ¤ft
Ġb aut
ĠWarenk orb
Ġver wei
Ġneben bei
em ann
schn itte
3 00
Ġattrakt ive
ĠEisen bahn
H i
ĠK ommen
ĠKÃ¶nig reich
ĠEinschrÃ¤n kungen
ver mÃ¶gen
bereit schaft
ĠBÃ¶r sen
ĠVor sicht
ph an
f ehler
Ġmein st
L esen
ĠCh in
Ġeinzus etzen
aktiv itÃ¤ten
ĠWir ksam
ĠC E
ĠCar l
Ġsp Ã¤ten
Ġent schied
Ã¤nder ungen
Ġfreund lichen
r ige
Ã¼r de
Ġdr eh
u alisierung
Ġpro gramm
Ġveran lassen
Ã¤n glich
ĠD E
itu ationen
R L
Ġein wand
f assen
ĠOl iven
ĠOst see
ĠFÃ¼hrungsk rÃ¤fte
Ġrelev ant
O pt
ĠT eller
ĠVersicher ungen
ĠHin dern
ĠFre e
pro jekte
ĠM Ã¶ch
pro be
Ġsch ief
C E
Ġgen ial
end orf
or ia
ĠBrÃ¼ der
ab y
Ġz Ã¼
ĠL ind
Ġst Ã¶rt
em and
Ġfrei er
ĠEx port
Ġgesellschaft liche
Ġmaximal e
ĠW ende
ein richtung
ĠAl bert
St ation
in dern
B B
ĠP rie
ast atur
Ġar g
um p
w anne
ĠTag ung
ĠSt ationen
ĠauÃŁer orden
Ġb unt
ĠgrÃ¶ s
M edia
ĠI rak
ĠEin mal
ĠJ ak
ver d
Ġbeein druckt
lu cht
D rei
ĠAbw echslung
ur i
steuer ung
ur a
ĠFert igung
last ung
ikan ischer
inder te
f rÃ¼
ĠNacht eil
ĠMÃ¤ dels
ĠAus schuss
ĠBaum wolle
ĠExt ra
spro blem
Ġkonfront iert
sch Ã¤den
ĠÃĦgyp ten
ĠGÃ¼ ter
ĠW andern
ogra mm
ĠGlÃ¤ ub
lie bt
u a
lapp en
5 3
Ġbef asst
ĠTra ck
ir gt
P A
Ġliegen den
kl ein
wÃ¼rd ige
Ġeingeb unden
M ont
Ġangen ehme
Ġp Ã¼nktlich
p Ã¤dagog
Ġt our
Ġver arbeiteten
ĠErmitt lungen
Ġgesch lagen
Ġres ult
ĠSt eigerung
Ġrecher ch
at hl
Ġan fangs
ĠBatter ie
Ġso zusagen
Ġentsch uld
ĠAn bau
Ġniedr igen
ie d
un fall
Ġausge geben
ĠÃ¼berw inden
ĠFest platte
ĠWie sbaden
ĠverÃ¶ffentlich ten
ĠGe orge
Ġheraus zufinden
Ġvorhanden e
Ġl anden
Ġgel angt
Ġerf assen
Ġpar allel
Ġsa hen
ĠInteress ierte
Ã¼h ungen
ĠRÃ¼ck tritt
Ġleben s
ĠAuff assung
s al
vol umen
jÃ¤hr iges
ansp rÃ¼che
Ġfahr e
Ġzweit es
ĠAug sburg
ĠM echan
ĠSo fa
f amilie
B as
ĠGrund schule
ĠKÃ¶l ner
ser satz
ĠFot ografen
Ġmodern er
Ġm erk
ĠErgebnis sen
ĠPoten tial
Ġd oppel
se kretÃ¤r
Ġgeht s
B ar
âĢ¦ )
fre unde
Ġ- -
k al
htt p
f lekt
ele ase
ĠSp err
Ġwid men
d ach
Ġ9 8
alte ten
raktion en
Ġw ahnsinn
ein halb
ĠZ erst
pro f
ĠK ids
W erk
Dat eien
l ein
ĠR Ã¤tsel
Ġnun mehr
ĠVers orgungs
r sg
be wertung
... "
ĠGesch ehen
Ġvern Ã¼nft
ĠB ischof
ĠVer st
ĠBereit schaft
hoot ing
ĠDar in
ik es
drÃ¼ck en
Ġher an
h Ã¤
D ort
ĠElekt ronik
Ġw itz
ĠKÃ¼ sten
Ver hÃ¤ltnis
Ġmit hilfe
Gen er
f le
Ġbe denken
ĠnÃ¶t ige
ĠGen ieÃŁen
Ã¤r kt
z burg
Ġbet reuen
Ġunter halt
st rand
alt h
Ġsp art
minister in
ĠCharakter e
Ġg rad
ir bt
metho de
it ch
ĠTh ailand
ĠFre undes
ĠB ogen
ĠPoliz isten
ĠAn stren
ĠGef Ã¤hr
Ġwieder holen
Ġf erner
G rÃ¼n
Ġwo fÃ¼r
f ried
ost a
ĠÂ§ Â§
Ã¼ ter
ĠFort setzung
ĠH elden
cy c
ĠgroÃŁart ig
ĠO ste
ĠProt okoll
ĠMit einander
ĠKn ei
ĠBundes wehr
wahr scheinlich
at sch
ĠPh arma
aut y
k le
ĠFrieden s
B log
B and
aus s
ĠBeweg ungen
ĠT eig
S obald
Ġbeding t
ĠS onn
ĠT au
u ff
ĠRecher che
ĠTal ent
ĠGut achten
Ġb acken
ĠnÃ¼tz liche
Ġk rei
ĠB ull
ĠInspir ation
lei hung
ĠB art
ĠK rim
Ġabsolv iert
ĠL ag
ĠC lau
sen twicklung
Leist ungs
Ġ up
Ġausge legt
ĠRezept ion
ganis ation
ĠMosk au
Ġbetreffen den
re chn
ĠVor sorge
ĠRÃ¼ck seite
ĠUnabhÃ¤ng igkeit
ĠSp rechen
ĠBÃ¼ hnen
Ġi slam
ĠStÃ¤r kung
d ies
bewer ber
H ig
ail s
we be
ĠGemein der
m t
Mit arbeiter
Ġm Ã¼nd
m s
Ġge lingen
zwe ck
T H
app y
Ġkre ativen
fer enzen
ĠBesonder heiten
k Ã¼hl
ĠMal er
em enten
ĠAus nahmen
il s
ĠW alter
for d
ĠPfl anze
Ġsu b
and o
ĠZ o
ol i
gien e
ĠZun Ã¤chst
Ġmass iv
Ġe w
Ġauss age
be stimmung
B r
ĠL Ã¤rm
ĠOst ern
Ġindividuell es
ĠAus lÃ¤nder
ĠW Ã¤re
Ġinternational er
spro jekt
Ġst raf
ĠWasch maschine
stud io
bet ten
W ert
ĠbemÃ¼ hen
ĠWerk zeuge
Ã¤tz chen
Ġarbeit s
ens eits
Ġaus zut
ĠSt Ã¶rungen
uch er
Ġda ten
ĠFavor iten
Techn ologie
Ġtyp ischen
ĠUmweltsch utz
ĠEin zug
fert igen
ĠBay erischen
men gen
ĠKauf preis
g eist
ĠB utter
ĠLe on
Ġn imm
ĠK Ã¼n
ach im
ĠÃ¼ber leben
deut sche
mech an
ĠW ahnsinn
ĠkÃ¶rper lichen
Ġbeein druck
ĠBet on
ĠR eiter
c amp
w ochen
b ten
Ġchines ischen
ĠK anzlei
is co
Ġ8 8
Ġinteress ierte
Ġk auft
ograf ie
Â» .
T ool
inst rum
f Ã¶rderung
ein gang
ĠH em
ir ch
Ġselbst stÃ¤ndig
Ġver sen
ĠTre ppen
iz ierte
Ġgu cken
ĠM ent
ĠVert rages
ĠTro cken
Ġange hen
ĠSt or
ĠR end
Ġ6 7
Ġer leb
Ġf arb
6 3
ĠWel pen
ĠB Ã¼ndnis
Bet rieb
B aden
ĠRat geber
Ġan n
ĠK ram
Ġmin imal
ĠGegen Ã¼ber
ĠKf z
Ġleb te
Ġ ordnungs
Ġerst reckt
t age
Ġweiter empf
ĠVerbesser ungen
Ġz we
ĠSch ade
ĠmaÃŁ geblich
ĠT en
Ġausgew ogen
Ġge holt
lÃ¤ ufe
Ġneu tr
produ kten
O ff
Ã¶ch er
ĠKon figur
Ġwir ft
ĠFÃ¼hr ungs
art ige
Ġinteress anter
ob el
anz eige
ĠFeatur es
ĠDarm stadt
urn ier
F ragen
ste st
Ġerhoben en
t Ã¤g
ĠDu is
ĠPots dam
ĠÃ¼ber setzt
it sch
Ġs onder
ĠLebens mitteln
ĠM Ã¶n
akter ien
ul ver
sp unkte
ĠK asse
Ġnachvoll zieh
ĠFrÃ¼ chte
Ġzu grunde
ĠðŁĺ Ģ
ĠFÃ¼ ÃŁen
ĠN ull
ĠF lo
ĠSo fort
L a
ĠAppar tement
ĠSch ach
Ġsoll tet
Ġstaat liche
m Ã¤h
Ġsicher er
ĠW erner
ĠSch auen
ĠR oten
Ġ198 8
ĠWirksam keit
.... ..
ĠO k
ĠSo wohl
ĠDienst leistungs
pf legung
Ġ7 9
j o
Ġweiter ge
Ã¼ch tern
bau ten
Ver b
b te
kre bs
ĠKos metik
ei z
zep ten
ĠgroÃŁart ige
sw esen
Ġruh ige
ĠR ass
ĠOut fit
Ir gend
ĠAb hÃ¤ng
ĠU fer
uÃŁ ball
Ġnutz e
gen tin
ĠZahl ungen
om Ã¶glich
ĠKass el
Ġver rÃ¼ckt
ĠM ei
b an
ĠSte ck
m onat
ĠSchn eider
ĠSatz ung
re tern
utz e
ĠGÃ¶t t
ĠShop ping
ĠHar ry
Ġlange m
Unter stÃ¼t
ĠDaten verarbeitung
ĠKrÃ¤ uter
Go ogle
ter e
ir ge
Ġkl im
Ġpol n
ĠSt ick
ĠGebÃ¤u den
ĠâĢ º
ĠGesprÃ¤ chen
og ie
MÃ¶ch ten
Ġdeutsch sprachigen
ĠInstrum ente
ĠA dressen
ĠBra unschwei
Ġreich halt
Ġbeant ragt
Ġbl icken
ĠSol che
re de
mode lle
Ġvorher igen
Ġgeb ildet
Ġausgew Ã¤hlte
Ġz zgl
ay s
ĠP y
Ġehren amt
Ġb ot
ĠRu cks
ack s
Ġstell ten
ĠAnt rieb
imen te
P eter
Restaurant s
Ġberuf lich
sch reiten
ĠDipl om
Ġein her
ĠÃ¶ st
En dlich
Ġdun klen
Ġstarte te
is ation
ver lauf
ĠG olden
Ġkennen gelernt
Ġgew e
Ġschw anger
" :
war ds
gen ossen
b ri
Ġbundes weit
stud ien
Ġqu er
auf nahmen
Ġbekannte sten
Ġzu stÃ¤ndige
bar ungen
Ġwo her
Ġgeh andelt
Ġeinge halten
ĠD I
ĠGed Ã¤chtnis
Ġfinanz ieren
Ġan wenden
Ġg rat
ĠL abel
E tw
ĠEint rÃ¤ge
ĠPsych ologie
ĠTages ordnung
gen Ã¶ss
ĠSorg falt
ĠChrist oph
ĠBe gegn
Ġle gend
ĠE w
Ġge teilt
Z wischen
ĠVer hÃ¤ltnisse
Angeb ote
ĠMod ul
ĠAus richtung
ĠH ex
ĠCy ber
ĠLeistungs fÃ¤higkeit
St unden
ĠS atell
sprech ung
g reif
Ġbed ient
f ass
Ġfair en
Ġpassen des
Ġer for
Ġher stellen
ĠT u
Ġ raten
ĠK amin
eist ungen
6 2
N e
fekt ion
ĠWord Press
ĠVern etzung
ĠLi fe
ĠZ ertifiz
S Ã¼d
fahr zeuge
Ġsch Ã¼tzt
Ġe vangel
bl ock
ehr er
ĠG Ã¼n
Ġum sonst
f u
il a
ĠDat a
k och
Ġgemeinsam es
ĠW ag
so fern
ĠStaatsan waltschaft
ĠStat ist
Ġattrakt iven
ĠShop s
h Ã¤ngt
H ome
a mmer
ĠstÃ¤r k
ĠLux emburg
ĠF azit
ĠUn s
hin ein
Ġbei der
Ġ18 9
ĠGrund satz
ĠLauf enden
Ã¶ pfen
Ġstud iert
ĠGer Ã¤u
ur de
ĠGra b
ĠTyp en
Je den
ĠâĤ¬ .
ĠGra z
Ġvor geschlagen
Ġland es
irur gie
ĠÃľber setz
Ã¤nder ung
ĠIniti ativen
Ġun gew
ĠEin heiten
Zus Ã¤tzlich
ĠG n
ungs an
Ġdr Ã¼ber
Ġer t
ĠSch Ã¤
ĠS IE
Ġv eg
Ġst Ã¤dt
il ber
ĠZul assung
Ġsp iele
or tete
ĠH ub
rei fe
wie gend
Ãľ brigens
200 5
D anach
ĠR E
ĠRe ferenz
H inter
in itiative
ĠBÃ¤ cker
Ġein nehmen
end ungen
ser n
ĠW elten
ĠPrÃ¤ senz
ĠSch rank
Ġan rufen
ĠIngenie ur
Ġok ay
rech ung
ĠVerfahren s
ĠB ucht
p ubl
ĠL iv
ĠAb fall
on line
ĠCha os
ĠCook ie
ent rum
Ġt reu
ĠSÃ¼d t
ĠAf ghan
Ġb raun
ĠKom pro
ĠSt d
aus gabe
ĠE st
Ġl eidet
Ġgesch m
ĠNiederl anden
Ġdazu ge
m od
ĠE hem
arbeit s
bas ierte
Ġverurs achen
ĠFinanz ierungs
Ġmittler en
ma x
Ġgew iss
Ġk oll
au ten
B enz
lei ste
l Ã¤nge
k Ã¼che
ĠMon itor
ĠLe ber
as sten
Ġein drucks
ĠPrem iere
ĠT ot
ander s
Ġf Ã¼ndig
d anke
an y
C ar
p um
Ġ !!
man ager
ĠMus keln
R icht
Ġb y
ĠKil ometern
Ġab ger
ĠAnsp rÃ¼chen
N A
ĠMode l
ĠNote book
ĠSch al
m ass
ĠM em
ĠAuft rÃ¤ge
ĠhÃ¼b sch
ĠL okal
ĠMittel meer
ĠFor st
ĠBundes amt
k am
st he
ĠPart ners
Ġv an
ĠSolidar itÃ¤t
Gemein sam
or ial
yr ight
Ġher z
ol and
l et
M U
sk raft
ĠBl Ã¤tter
ĠB ook
ĠSzen en
beit rÃ¤ge
E urop
ĠKonzept ion
Was ser
O ut
ĠFried hof
c es
ĠRund funk
recht liche
T ele
Ġo ff
Ġatember auben
Ġheraus finden
ĠB rau
b rief
sch alten
and al
ĠJes u
ĠS ich
ĠMietw agen
Ãĸ ff
er z
ĠZ e
ĠBeit rÃ¤gen
p raxis
ĠAb geordneten
Ġgenie ÃŁt
ĠFo od
Daten schutz
om er
Ġeinz ur
ad o
ĠT opf
Ġlau ter
ĠV R
s berg
ĠC all
Ġeinge st
Ġh aftet
viel fÃ¤lt
amer ikanischen
ok uss
âĢľ :
un a
Produ kt
ĠAngel es
Â ĵ
ĠFreiwill igen
beauft ragten
B el
ĠG PS
beg riff
ĠIn se
eigen t
Ġauf hÃ¶ren
ĠSystem en
f Ã¶r
ĠAn k
ĠL en
ab or
B ro
ĠHo use
ĠExper iment
] .
ĠKranken versicherung
ĠPrÃ¼f ungen
Ġgl Ã¤n
at ien
ĠT rag
Ġkonstru kt
r iert
ein kommen
ĠZ ellen
ĠHaupt bahnhof
stra fe
ĠkÃ¶nnte st
ĠSach ver
f uhr
a al
ĠEpis ode
Ġp fl
ĠkÃ¼r zer
iter atur
ĠL etzt
Ġecht es
Ġw omit
ĠG eht
ĠR aten
euch te
Ġkombin ieren
Ġver schen
Kl ar
ĠSon y
zÃ¼nd ung
ĠS GB
P at
lin k
ĠJahr est
Ġein bringen
ĠBÃ¶r se
ĠCamping platz
Ġ7 8
Ġzwei ter
ĠRes ort
ak a
s icherung
Ġeur em
Ġbet reibt
Ġdetaill ierte
Ġerinner e
S how
zu halten
ĠHand lungen
Ġbin den
ĠD R
fahr ungen
s Ã¤tz
Ġjemand em
Ġa pp
che f
D igit
Z un
C ode
ĠS AP
Ġr Ã¤um
» ¿
ur fen
arn ing
ï »¿
ĠGeh minuten
ĠVers uche
F rauen
ĠAcht ung
agn ost
wend ig
ir ektor
ĠNik ol
ĠJ ac
ĠSch ull
ĠIn c
ash ion
Ġge dreht
Ġer lernen
ĠVerb ind
Ġwar te
Ġkomplex e
ĠFunktion alitÃ¤t
ĠF Ã¤hr
ne e
bet riebe
ĠGes ell
âĢ Ķ
Ġein kaufen
achst um
ĠHeil ung
utt o
ĠH TML
ĠÃĦr ger
mal en
Ġsch arf
ĠLu c
Ġzeit lich
sch wei
Ġst Ã¼r
ĠEin wohnern
ĠT oll
sch lieÃŁend
z eile
ĠPrÃ¼f ungs
ĠSt Ã¶
ĠSicherheit sl
g asse
ĠE mm
ist ent
ĠFin den
ĠVer stand
ĠVor gang
Ġvoll em
Ġherunter geladen
ĠStaat es
dr ehen
upp ert
Ġrein igen
Ġeinz iges
ĠVertrau ens
Ġl eitet
n acht
Ġirgend ein
Ġdro hen
Gro ÃŁ
Ġb lieben
Ġbin nen
mÃ¤ÃŁ ige
Ġger Ã¤t
Ġge folgt
itz ung
az ieren
om an
ĠWar s
St G
ĠJe an
Ġkeines wegs
stre ben
ig ter
Ġehren amtlich
Intern et
Ġbef assen
Ġruss ische
ĠMinister ium
ĠLand tag
ĠNie mand
4 00
ĠKonflik te
ĠNieder lage
im ieren
ĠauslÃ¤nd ischen
ĠbenÃ¶t igten
Ġbelieb te
Ġgesp eicher
g Ã¤rten
ehr e
k lichen
zeit raum
ĠDi Ã¤t
W ohnung
ges ichts
ĠS aint
Akt uell
ĠSpiel zeug
ĠBl Ã¼ten
ĠP ast
ĠGrund sÃ¤tzlich
v ater
Ã¤r zte
ĠH eb
Ġen gen
eil t
Ġflex ibl
ĠT auch
ss atz
ber ge
ĠgrÃ¼ ne
ĠAngelegen heiten
ĠkÃ¼nd igen
ĠG rau
og ar
ĠZeit ungen
Ġintens ive
ĠC lass
ĠGemein schafts
Ġan ger
ĠZ DF
Ġzwischen durch
T P
Ġdefin ieren
Ġempf ind
ĠUhr zeit
gesch n
ĠVerl Ã¤ngerung
ĠVor mittag
ion al
ĠP rei
emin ar
ĠProgramm s
ĠT enden
ĠW Ã¤nde
ĠAnkÃ¼nd igung
antwort ung
L IN
ĠAbst Ã¤nden
ĠAnge hÃ¶rige
Ġgesch Ã¤tzt
ĠD A
ron en
Ġ Ã¶rtlichen
Ġ6 1
ĠFlÃ¼cht lings
Ġp ur
Ġin mitten
M odus
Ġges undes
Ġbe geben
ĠMitglied s
ĠBelie bt
ĠW eine
ke pt
Ã¼cht ig
b ahnen
ĠlÃ¤nd lichen
Ġst ress
ĠGeb Ã¤udes
Ġeurop Ã¤
ĠSpan isch
ĠEing riff
Ġein gebaut
ĠJ og
Ġstell vertreten
ĠAll gemeine
ĠÃ¤l testen
ĠKon st
ĠÃĦr zt
Ġbed roht
Ġis rael
ĠEm p
ran sport
ĠSch ub
ĠAuft akt
K ultur
ĠEin es
ĠNavig ation
H aupt
Ġg o
ĠGlauben s
ĠHo hen
Ġbes prochen
lieÃŁ ung
Ġanzu passen
ĠOpp osition
Ġkompl iziert
Ġversch oben
ĠFl ach
re form
Ġgewe ckt
den s
t itel
enn er
vor schriften
ag ert
ĠVÃ¶ gel
Ġan kommen
Ġl Ã¶st
ĠEr laubnis
Ġerhe bliche
Ġlangfrist ige
Ġerf reut
Ġi mm
Ġ19 50
sch reibung
Ġ7 7
ĠHoll ywood
Ã¼ pfen
Ġunter gebracht
ĠServ ic
ĠVorsitzen den
Ġumge kehrt
Ġaus geben
armon ie
Ver anstalt
te lefon
ar ien
Ġa rab
ĠPro tagon
T itel
Ġher zustellen
ĠK ra
men sch
ĠRum Ã¤n
ĠStra fe
Ġein tragen
Ġjetz igen
Ġw andern
H z
inten do
ĠEr ziehungs
ĠA rab
ari fe
ĠFl aschen
Ġleist et
Ġm l
ĠB aut
rei be
ĠMult i
p osition
ĠM ater
re chten
ĠKor rektur
Ġbe z
pro fil
ĠVerb ot
Ġkonzip iert
ĠunabhÃ¤ng ige
ĠA pfel
ĠMittel alter
ĠInner en
ser klÃ¤rung
Ġvor erst
Ġpro biert
N ord
ĠImp ulse
ĠMa y
Ġblo ck
ĠNiederl ande
ĠInterview s
Ġbie te
x id
ĠErd geschoss
ĠFortsch ritte
ĠL achen
C C
Ġver senden
Ġkrie gen
U T
ĠKrankenk assen
C lub
R ed
ĠPar adies
ir ca
m ont
isk uss
Ġed itiert
Ġge stellten
Ġgest oÃŁen
Ġet liche
stand ards
ĠF ell
Ġweiterempf ehlen
Ġf lieÃŁen
Ġverw alten
ĠGleich gewicht
ĠPrakt ik
ĠPod cast
Ġbei getragen
f ein
berecht igten
ĠN ieren
ĠMatth ias
pf ung
sen s
r elev
ĠH irn
ĠLein wand
N acht
Ġeinz uf
finanz ierung
ĠM eg
ĠMode llen
Play er
Ġbes uchte
f eier
z elt
ĠPap a
ĠV ent
Ġerstaun lich
ĠFl yer
ES T
us en
D EN
k et
Ġver schieben
ĠStellung nahme
au lt
ĠP olit
Ġendg Ã¼lt
tw Ã¤sche
ĠSil vester
ĠZiel en
hÃ¶r igkeit
zu cker
abhÃ¤ng ig
ĠDom in
ĠBrosch Ã¼re
c er
n i
pfl anzen
ĠArg umente
Ur laub
ĠÃľberein stimmung
ab kommen
Ġvor gegeben
Ã¤hr st
vert rÃ¤ge
ĠEng ine
Ġteil genommen
ĠBef ragten
Ġneu em
ĠDe al
H P
Ġwachsen den
A uft
Ġbest anden
aus stattung
ĠGeist es
Ġs inken
ĠRecht sst
ĠGro ss
Ġerfolgreich er
ĠStudium s
Ã¼t tern
ĠPort folio
Ã¼lt igkeit
wir t
Ġf ing
ĠRost ock
ĠEinschrÃ¤n kung
ĠB ron
Ġbesch Ã¤digt
ĠF euchtigkeit
kap ital
Ġaus gieb
ose x
ĠSchaden sersatz
sch Ã¼ler
ĠGo ethe
ĠVit am
Ġvers ichert
ĠÃ¼ber sehen
gen det
ĠSt ufen
Ġbef and
ĠMand anten
ĠH ill
Ġherr lichen
Ġaufge fordert
f aktor
ĠE S
Ġk Ã¤
s u
N ehmen
Ġ3 000
Ġabsolv ieren
H rsg
K unst
ĠDesign s
P ost
ian a
Ġd rÃ¤n
ĠBe urteilung
bie ters
ĠO ma
In form
bi bliothek
beteil igung
Ġ12 5
ĠH Ã¤
ĠM ur
Ġpri ma
Ġtyp ische
Ġnach gewiesen
gendet was
ĠAltern ativ
ĠL eucht
ĠDatenschutz bestimmungen
Ġumfangreich es
ĠBel euchtung
Ġwahr nehmen
ĠGru ÃŁ
gend a
ĠF ritz
r ischen
Ġab gew
olog y
ĠFÃ¼ lle
w s
Ġbef reit
ĠN az
person al
ĠBri lle
W G
P ol
ĠEtw a
ĠFach bereich
ĠAn lÃ¤
bel ast
Ġwenig sten
ĠK am
ĠNachbar schaft
Ġzeig ten
sk ont
Ġver ank
ĠKlÃ¤ger in
n iveau
Ġbef est
ĠB einen
Ã¤ch te
Sch au
ĠVertrieb s
ĠApothe ke
e ffizienz
ĠEurop Ã¤
d rom
ĠBegriff lichkeiten
Mitglie der
angeb oten
Ġn irgend
Ġeinger eicht
ĠF R
Ex perten
sa al
p hen
t her
Ġrund um
Ġinter pret
den klich
Ġwar me
Ġaltern ativen
K ar
ah a
ĠHerzen s
ĠB E
er er
Ã¶ pft
ĠgÃ¤ng igen
ard in
mÃ¤r kte
Ġun ent
ĠRis ik
ris iko
rÃ¤n ke
G el
For um
sen de
ĠÂ ©
Ġver sprechen
ĠM eist
ĠP ick
schaft liche
Ġgelegen tlich
Ã¶r g
ĠKons umenten
zeit ige
sch ungs
neh mlich
G estern
hythm us
Ġdeut liche
Ġaus gelÃ¶st
% )
ann tlich
ĠBem Ã¼hungen
Ver ein
k reuz
ĠAl te
ul gar
Ã¤t tern
Ġangesch aut
ĠR asen
ĠR h
reich es
Ġm ater
ĠK ommt
ĠL atein
Ġp acken
ĠTrans formation
ĠSt rich
Ġentscheiden den
ĠW i
Her zlichen
ĠA kten
ĠT aten
k Ã¤
Ġheim ischen
ĠQuadrat meter
Ã¤ ll
te x
ĠFrÃ¼ her
ĠGar age
an schluss
K arten
W ien
ach ing
sch ritt
ĠKat hol
Ġbisher ige
ĠKohl e
alen te
eiter t
m Ã¼
Ġ4 50
ern d
Ġlecker en
setz bar
Ġw eb
ĠLandes regierung
ing st
Ġkompeten ten
Ġk r
ĠGesetz geber
mar sch
ĠTabl ets
bo ot
ĠSÃ¼d afrika
ĠHer mann
ĠKrankenk asse
ĠCorpor ate
ĠZ ie
ĠS ir
ed ition
ĠV f
ste dt
B i
Ġt rug
ĠVorbereit ungen
System e
ĠFilm s
ĠLÃ¶ wen
Ġschme cken
Ġbe freien
ĠP rÃ¼
ĠHotel zimmer
on ne
Ġinteress ierten
Ã¤ch ern
st ufen
T o
ĠL E
Ġverd ammt
Ġalt es
Ġgeh ei
Ġstat istischen
Ġst ol
ĠStatt dessen
ho fen
reg ister
Ġaufge fÃ¼hrten
ĠO m
Ġetabl iert
ĠKlima wandel
ĠO ze
En de
ĠAk zept
Z B
ĠRo hr
Ġauf geb
ĠkÃ¼rze ster
rot t
W ow
ĠAfghan istan
ter rasse
Ġdokument iert
ĠFlÃ¼cht lingen
Ġform uliert
ĠPrior itÃ¤t
Ġauszu Ã¼ben
P N
ĠS Ã¶
ar ia
Ġr isk
F ern
sitzen de
ĠPlan ungs
ĠModern e
D V
Ġk Ã¶st
ĠAnge stellten
Ġse el
G uten
ĠL ack
Ġbegeg net
Ġfotograf ieren
zus ammen
Ġange wand
Ġdu mm
Sp iele
ĠEdel stahl
ĠKal orien
ĠSt eine
ĠEx press
ĠAngelegen heit
ĠG anzen
ĠS uchen
ĠH ER
Ġsicher gestellt
K omp
ĠP ixel
ĠR eit
ĠF ull
dat eien
ĠKÃ¼nd igungs
Ġbrau chte
ru h
A dressen
ick ets
orn o
200 4
mÃ¤h lich
b und
ĠP fe
hin ter
ohn heiten
ĠPan ik
so ftware
Ges etz
ĠAngebot s
ame ter
ĠAus stellungs
al u
Sch ritt
ĠSpons oren
Ġangen ehmen
ste ck
ĠNeu gier
ĠT ode
wirtschaft lichen
iele feld
Zun Ã¤chst
ĠGut scheine
Ġerf reu
Ġdauer te
ĠZ ell
ĠV ER
Ã¼ch ern
spekt rum
Ġge zahlt
Ġkom isch
ĠUm stellung
R eise
ĠgefÃ¤hr det
ĠKredit karten
ĠPh asen
ehr ung
ĠAnalyt ics
O B
ĠBundes ver
Ġdurchschnitt lichen
Ġstra hl
ĠL it
Ġvor ange
F ast
eu en
ĠVer teilung
ord nungen
si de
med ien
spar ent
Ã¼n der
ĠStau b
ĠAn sÃ¤tze
ĠW ut
ĠBe cken
Ġkrit isiert
ĠMig ranten
ist anz
ĠDoppel bett
ĠGew Ã¤sser
Ġeinmal ige
ĠSt reifen
ĠBack ofen
ĠPaten t
klÃ¤r en
ĠFuss ball
Ġbein halten
ĠFach krÃ¤fte
ĠBon itÃ¤t
ĠC osta
Ġb it
Upd ate
ĠÃ¼ber aus
wie der
fert igung
A ktion
us alem
ĠKu gel
ĠMot ive
Ġger ichtet
S mart
Ġko oper
ri x
Ġverm uten
Ġuner war
auf enthalt
ĠBes ichtigung
ĠErn te
W ind
ĠIn stand
obil ien
ĠBraunschwei g
Ġent gehen
zw ald
Ġschon mal
ĠMerk male
o zi
ha i
ĠHier fÃ¼r
enk ung
Ġgew artet
ĠK ennen
ĠKap azitÃ¤t
rid ge
ĠCont roll
Ġaus fallen
Ġbe weg
arian te
ĠBest seller
ĠAkte ure
Ġnach lesen
Ã¤chs ischen
ĠDuis burg
ĠT rinken
ĠAb wehr
ide en
ĠZit at
Ġwar st
ĠP au
s umme
K ap
Ġjen en
la de
g ab
ĠAb gabe
ĠWett kampf
Ġgef asst
Ġ7 4
ĠÂ Ħ
ĠOber flÃ¤chen
ĠH Ã¼tte
ĠT asse
Ġmit unter
ĠFern er
ĠFinanz amt
ĠS af
Ġanstren gend
f ters
be arbeitung
Ġverwir klichen
d ner
Ġill eg
Ġen er
ĠMar s
ĠBenutz ern
verein s
we sten
Ġt iefen
Ver lag
o e
Pro zess
Ġanalys iert
ĠL aser
An sonsten
En twicklung
le ch
mm el
Ġ enden
ĠFach wissen
ĠP kw
ĠFein d
Ġfaszin iert
ĠGe geben
dy ll
Ġl agen
ĠZusammen fassung
K urs
An d
ĠR as
? Â«
Ġsch ick
ĠClub s
Ġvirt uellen
ĠAnt rÃ¤ge
Ã¤ he
eigen en
Ġver eint
LÃ¶s ung
Ġaus gel
beu tel
Ġeinzel ner
em a
ĠZeit alter
T hema
ĠGe ben
ĠMedikamen ten
ĠKrie ges
Ġchrist lichen
fÃ¼ hls
Ġerz Ã¤hlte
ĠC SU
ES CO
Ġdem entsprechend
ĠHum an
ĠAmer ikaner
geord net
ĠNeu stadt
Ġvor gelegt
Ġw ild
ĠOpt ik
ĠM ol
Ġst irbt
Ġp raxis
Ġverm ute
Ges ellschaft
Ġv ierte
AN N
Ġauf regen
ĠPrÃ¤ vention
Ġb rechen
spezif ischen
ari at
Ġkostenlos es
Ġunbek annt
yp e
on us
ĠTe en
ĠÃ¼ber s
ĠBand s
ĠGesch Ã¤ften
F raktion
ĠS Ã¤tze
ĠgrÃ¼n den
Ġw agen
? âĢľ,
ĠS ucht
ĠBe end
Ġtrain iert
Ġgeist igen
ĠBedÃ¼rf nis
ĠFl ag
F C
Ġerg ab
Ġan legen
ĠVer gabe
ĠMag de
Ġorganisator ische
ĠBeliebt heit
ĠBundes lÃ¤ndern
Ġintern e
Selbst verstÃ¤ndlich
ĠAuf bew
ĠVerein ten
ĠInter pret
ĠDatenÃ¼ber trag
b chen
Ġp ubl
ĠB ang
Ġkomplex en
Ã¼t tel
ĠC up
ĠRÃ¼ck sicht
" ?
w Ã¤l
Ġfrem de
ĠE cken
ĠPiz za
ĠS eh
Ġje glicher
W ohn
ĠC at
programm e
ĠGebie te
sie ger
ĠÃľber legungen
ĠÃ¤u ÃŁern
ĠJak ob
D ownload
Z ul
ĠDien sten
ĠKomment aren
Ġhinzu gefÃ¼gt
Ġver leihen
Ġsport lichen
Ġblau en
ren zen
Ġgew orfen
ĠÃľbern achtungen
t al
Ġ7 6
ĠBade wanne
ab rÃ¼ck
ĠSchul ung
ĠN AT
ĠSp am
Ġh aut
on ach
ĠSpe zif
Ġneue ste
ĠTats Ã¤chlich
Ã¤r chen
ĠTrink wasser
ĠÃľberrasch ungen
ĠOr chester
ĠReg ie
8 6
as on
Ġge leitet
Ġrecht lich
m ir
ĠH orm
ĠWer ten
ĠWer de
Ġbede ckt
Ġneu sten
ĠSonnen schein
O rt
ĠMad rid
ĠBar bar
ĠHon ig
ĠAus maÃŁ
rin t
h ilf
ĠUhr en
br and
ĠBehand lungen
ĠSpr uch
Ġp osten
ĠG elt
rans fer
rei de
ĠGe fangen
Ġsch lau
ĠLu pe
ĠBet a
rist all
ĠK urt
P U
Ġge achtet
Ġein ges
ĠPf ad
ĠU V
Ã¤ her
G eben
S yn
Ġd aneben
ĠSant a
vor haben
frei ung
sch ten
Ġglob ale
Ġgef angen
Ã¶r tlich
Ġh el
acht eil
man gel
Ġdem onstr
ĠRe alisierung
ĠV ill
ster dam
ĠSeit dem
ĠAn mer
i or
ĠWie sen
Ġfu hren
ĠLie gen
ĠPl atte
in kl
ĠViel mehr
t rÃ¤ger
Ġex per
eim ar
H O
Ġein genommen
Ġst unden
sn abrÃ¼ck
ĠSp Ã¤ter
Ġl ux
Ġbun ten
s ituation
Ġbereit gestellt
z icht
ĠCamp us
s hop
ĠT astatur
B ad
ĠL KW
D afÃ¼r
re ens
ĠKro atien
Ġun heim
Ã¤m tliche
str asse
Ġverb leiben
sp olit
J ul
lehr er
j unkt
Ġde cken
Ġauf geben
S eine
ĠB akterien
sb ruck
ĠA gr
ĠLe cker
ĠBe auty
w affen
ĠStrÃ¤n de
ĠVor les
Ġbek anntlich
ĠDel eg
la sten
oll te
ik as
ĠZeit schriften
s eln
ĠPro ben
ĠĠĠĠ ĠĠĠĠ
Stud ien
ĠKop ie
Ġderart ige
Ġver hÃ¤lt
eh lt
ĠH P
ĠB ienen
sen tsch
ĠVol umen
ist a
V ol
aÃŁ t
ho fer
Techn ik
hof ft
Ġ ter
Â« .
vor sorge
ĠBes ondere
ĠDir e
ĠU RL
ĠPressemit teilung
Ġengl ische
Ġeinmal ig
ĠfrÃ¼her e
ck ere
eto oth
ĠExt rem
b leiben
ste cken
ĠT akt
wie s
ĠSch Ã¼tzen
Ein er
Ġbeg angen
ĠRechn ungen
in haber
F azit
ĠA dress
Ġs amt
sw issen
In halt
ĠDo ktor
ĠKÃ¼nst lern
ĠTri p
ĠtÃ¤t igen
ĠPlay er
Ġwas chen
ĠDist anz
ĠVerg Ã¼tung
Ġw ussten
Ġge lieb
ĠSchw ein
Ġs yn
Che ck
ĠD Ã¼
ĠVermÃ¶gen s
Ġent s
jÃ¤hr ig
P ass
ĠUr sprung
ĠBitco in
ĠStar s
schaft lich
Ġanzu wenden
ĠUm stand
Ġgesch w
eig ten
ĠVerhand lung
Ġange f
zum achen
atur en
Ġausge stellt
ak s
ĠFahr en
Ġum stritten
Ġw in
k Ã¶n
fr ischen
Ġf f
er d
Ġverm ieden
i zen
W e
auft rag
r ations
ĠPal ette
ĠAn hang
ĠV ul
ĠSchn Ã¤ppchen
Ġintens iver
lei h
Ġerl angen
Ġver lÃ¤uft
Ġwahnsinn ig
w eb
ĠÃĦng ste
r ung
ĠKul issen
sst ra
ĠGeschw ister
ĠSchwer punkte
Ġerfolgreich es
ĠV eget
Ġt r
Ġf angen
ĠjÃ¤hr lichen
Ġsch lug
ĠB os
ar isch
ĠW att
Ġw omÃ¶glich
ĠT um
ĠW obei
ĠSt ille
ge zogen
lÃ¤nd ischen
Ġbel astet
ĠTreff punkt
ĠGes ichts
ĠT irol
ĠGlau be
Ġgew Ã¤hlten
ĠGÃ¶tt ingen
ĠAus steller
Ġk unden
gesch ichten
ĠStand orte
sw id
lei b
Ġeinge geben
ĠDS L
ĠtatsÃ¤ch lichen
teil ten
ĠR elease
Ġzum eist
f lu
ĠBer ichterstattung
ĠÃ¼bersch ritten
ĠR am
tau cht
Ġk rÃ¤ftig
W M
ĠLay out
ĠSp rech
Ġsch loss
G O
ul Ã¤re
ĠjÃ¼d ischen
Ġlauf end
low ak
ĠBrem er
ĠUnterricht s
ĠInst itute
Ã¤nd ige
Ġgel andet
ĠFuÃŁ gÃ¤nger
ĠI hm
ĠG rem
ĠG umm
gerichts hof
ĠPal Ã¤st
Ġpro m
inde x
CD U
ĠN at
) ?
Ã¼s ste
Ġbestimm ter
ĠgewÃ¶hn t
Ġur heber
ĠF ische
ĠBeitrag s
T un
Ġbel asten
m uster
as c
ĠImpress um
R aum
Ġzu stimmen
ĠBe achtung
ĠH as
ĠC oll
ĠGeschÃ¤ft spartner
S ein
Ġide aler
Ġh arte
ĠGew ichts
Ġzw anzig
ĠVer wir
ĠN intendo
inter ess
T ipps
ĠG Ã¤rten
et ik
ĠIn dex
ĠgrÃ¼n dlich
Ġgen iessen
ei gung
under ten
ĠPl Ã¤tzen
Ġdass elbe
ĠH Ã¤usern
Ġer wir
ĠWer ken
Ġsp anischen
ĠBl itz
Ġver p
ĠberÃ¼hm te
Ġk lingen
ĠAn zeichen
vert eid
ĠSch ein
ĠPrem ier
Ġselt sam
ĠB rÃ¼cken
Ġgesch mack
ĠA P
Ġr unden
Ġein schlÃ¤
ĠSchwÃ¤ chen
Ġc irca
p ension
m ach
ĠgewÃ¤hr en
ĠNeuer ungen
Ġverl or
rÃ¤um t
ĠRecht sprechung
Ġhal bes
Ġerh ielten
b rÃ¼cke
ĠS urf
Ġschw ed
ĠwÃ¶ch entlich
Ġsozial er
Sch ul
ĠausfÃ¼hr lichen
ĠfÃ¼hr ten
ol ta
ĠO p
A chtung
ĠCons ult
ĠK ell
2 000
el a
Ġw eiten
st Ã¶rungen
Ġauf recht
Ġgem erkt
Ġall mÃ¤hlich
ĠB A
Ġk ost
J uni
Ġaufge geben
Ġqualifiz ierte
se eland
Ġab seits
Ġp rim
ĠR eicht
heim ischen
bed ien
ðŁ ĺ
ĠMarkt platz
Ġausger echnet
stre cken
Ġber ufen
Ġweiter helfen
ĠMehrwert steuer
ĠK ok
ĠZ oo
Ġansch au
ĠgrÃ¶ÃŁ ter
Ġsch lich
Ġbeherr schen
geschn eider
ĠDe v
verb Ã¤nde
v iele
ĠAkt ualitÃ¤t
ĠSchaden s
Ġschnell stmÃ¶glich
nach lÃ¤ss
ĠSe gel
ĠKolleg innen
Ġ198 7
K G
Ġ198 6
ĠÃ¼ber ein
Ġbill ig
ĠM ang
be zir
ĠW Ã¤nden
y on
Ġauszut auschen
u ffet
mÃ¤ÃŁ igen
er ing
Ġl asst
ĠTest ament
ĠStellen wert
ĠF ab
werk statt
ak u
ĠDem o
stitut ion
Ġgrundlegen de
Ġged auert
Ġein f
ĠGe fl
ĠWiderruf s
Ġschlimm sten
her stellung
P aket
s arbeit
Ġfestge halten
Ġsch aden
w Ã¶rter
ĠPil ot
Ġentwick elten
Ġbew Ã¤hr
Rei he
ĠS afe
Ġbes ichtigen
ĠMahl zeiten
Ġverb reiten
ĠVerein igung
Ġd ritt
ĠS m
ĠSt ipend
Ġauf bew
Ġherr lich
Ã¤t ten
ĠMed ium
ĠRob oter
Ġb Ã¼rger
ĠT ragen
s eu
gehen den
ĠAuft reten
olog ischer
ĠJ on
ĠPrie ster
ges undheit
Ġget reten
Ġerw ischt
ĠVir en
per te
ser ver
Ġer baut
verl etzung
ĠÃ¶ fters
Ġgest Ã¤rkt
funktion en
ain ment
Ber atung
ĠMitglied staaten
Ġher ange
ĠKamer as
ĠHÃ¶ lle
Ġorient iert
ĠBal ance
Ġun ein
Ġbe wiesen
Ġfor derte
sor ient
M aterial
ĠMinister prÃ¤sident
ĠgrÃ¶ÃŁten teils
ĠAntrag s
ĠAR D
k rise
ĠWort es
Ġge kl
ĠThem atik
Ġf amilien
zut reten
M achen
ĠF erne
tau scht
Ġf re
ĠPir aten
ĠSn ow
lÃ¶ ser
ĠL isten
Ġfolgen dem
ab lauf
i ffen
ho st
ĠP ausen
ĠDok umenten
ĠVer sp
Ġb rennen
Ġausgestatte te
ĠAusland s
Ġg rand
Ġausge fallen
upp e
ĠRen ov
o den
Ġoptim iert
g in
Ġl Ã¤ch
An lage
ĠP osit
Ġbestimmt es
att le
ĠSch uss
be wertungen
ĠAbhÃ¤ng igkeit
Ġsp ringen
bes itz
ĠK ita
Ġt rage
ĠKatastrop he
enn ungs
iden z
ĠB ol
land s
ĠB B
Ġw isst
ĠVer einen
Ġexklus iven
Ġ17 0
An bieter
in f
ĠAr ena
C enter
Ġabonn ieren
Ġgl att
ĠTele k
ĠZusammen hÃ¤nge
ĠS ehn
Ġl Ã¼cken
Ġver glichen
h ilfen
ĠHekt ar
Ġl ande
ĠKompl ett
Ã¼tz ten
Ġst Ã¶ren
Ġverteid igen
on ien
wes end
F lug
ĠC ockt
Ġunend lich
ĠFort bildung
leben s
ĠPublik ationen
Ġverf asst
so zial
ĠJul ia
ĠR auchen
Ġkeines falls
Ġir gendetwas
Ġz ivil
ĠAus schluss
kl ima
ĠF aust
ĠHaust Ã¼r
ĠRei z
geb uch
ĠE uer
ĠJack e
d ia
ĠPfe ffer
Ġangemessen e
ie ur
Ġwie viel
ĠÃ¼ber sichtlich
ober flÃ¤che
Ġein richten
ĠW Ã¤hrung
iforn ien
k uchen
Ġrenov iert
Ġbeh oben
Ġt reibt
h h
ĠWeiter hin
En d
ĠBek annte
bl Ã¤tter
Ġtyp isch
ĠVor jahres
eid ungen
Ġdurch s
Ġvers etzt
ĠBeend igung
ĠL obby
ĠG ratis
Ġp osition
Stand ard
rÃ¶ tchen
Ġs etzten
ĠRei s
ĠGes am
Ġt anzen
ĠF ro
Ġgesch nitten
Ġinter akt
Ġle ckere
ĠDunkel heit
lei det
sto ÃŁen
zÃ¼ gen
ĠWhats App
Â ©
v ille
ĠsÃ¼d lich
Ġan treten
ĠReisen de
wohn ungen
Ġre flekt
gra ben
ĠLang zeit
Ġt iefe
Ġsinn volle
ĠtÃ¶ ten
G rÃ¶
ĠHand werker
ĠSe elen
ĠMo z
geschen k
II I
M et
ĠFeiert agen
Ġbevorzu gt
ho use
ĠNahr ungsmittel
ĠF ord
S D
ĠK issen
g rÃ¼
ĠSen at
zuf riedenheit
ĠSch all
Ġer bringen
ĠT ruppen
ĠL ass
in stall
Ġmor al
C ook
R Ã¼ck
oren z
sch icht
Shop s
Trotz dem
Akt uelle
Ġp o
Ġgleich nam
Deutsch e
stÃ¤nd iger
Ã¶ die
ĠK Ã¤uf
ĠK rypt
kont akt
ĠD U
F R
ĠTre ppe
ĠHon or
Ġgro b
ĠHan se
f aden
Ener gie
ĠKl etter
ĠW itz
ehn te
ĠLoc ation
Ġantw ortete
as ino
ĠD ifferenz
ĠJose ph
Ġkenn st
Ġan zuf
ĠP rag
Ġserv iert
U hr
Ġviel fach
ĠM alt
Ġk ind
is on
I B
ĠGlob al
ĠBeruf serfahrung
ĠSch icht
Ġvorher ige
w ider
Ġwider sprechen
id o
Ġausge gangen
ĠGesundheit swesen
be ziehungen
ig st
Ġger icht
ĠSch ad
6 00
ĠUN ESCO
ĠÃĦ l
Ġhol t
ĠE ffekte
Ġfest legen
ĠN ick
P G
ĠAccess oires
ĠnÃ¤ch ster
ok raten
ĠB ielefeld
Â ·
opt imierung
krank ungen
l em
Ġi dyll
Ļ ¥
Ġexpl iz
ĠOb ama
strate gie
ĠBÃ¼r os
id es
Ġkathol ischen
is abeth
Ġbet reten
bew usst
ot a
k orea
Ġschw immen
w achs
H am
Er fahren
Ġ% .
ĠF ÃľR
as y
Ġk an
im p
auf e
ĠN eg
Ġhilfs bereit
Kont o
ĠfleiÃŁ ig
Ein es
Ġbeeindruck end
ĠÃĦr zten
ĠBu ffet
schaft lichen
Ġk irch
ĠMikro welle
ĠA ro
s ive
lau ch
ĠGab r
G ar
ek ter
ĠMeld ungen
8 00
ÃŁ ig
ĠDisk rimin
p oten
Ġbek amen
ĠK ette
ĠL etzter
Ġvorzu bereiten
zu legen
ĠR al
AN D
ĠT ar
Ġl Ã¤ng
ĠAm sterdam
ĠVerstÃ¤r kung
ĠMedik ament
i ation
ĠF eiern
ĠRegen sburg
Ġdarf st
Ġbetreffen de
ĠPh ysi
er es
Ġ198 5
ĠS orten
Ġstand ard
g s
f assungs
Ġbek annter
ĠF un
Ġb reiter
ĠSt olz
ĠstÃ¤nd ige
ĠD sch
ĠSchauspiel erin
Jahr e
Ġdurch setzen
ĠVer schw
sch rau
Ġdigit al
bl au
O ffen
Ġopt isch
los ung
ĠH R
re gend
Ġt ue
Ġger ettet
ĠToil ette
Ġzu bereitet
ausch ale
ĠNor men
eben e
schlÃ¼ssel ung
ĠInse kten
Ġver lÃ¤ss
Ġausgeb il
ĠGen ossen
N ummer
unter gang
ĠSte phan
ĠSozial es
b Ã¶rse
solv enten
V oll
lau bt
ĠZ Ã¼ge
Ġaufgew achsen
Ġag ieren
Ġgesundheit lichen
rÃ¼ ger
freund liche
Ġmonat lichen
Ġzu geben
Ġw onach
Ġsch lu
ĠW affe
Ġwieder hol
Ġaus fÃ¼llen
Ġs c
ĠMar io
ov olta
br em
Ġausge wiesen
Ġh om
es er
Ġschlecht es
Ġb itter
frei che
Wir tschaft
ĠLÃ¶s ungs
lÃ¤ ub
ell o
ĠK redite
ver m
Ġversch ickt
ĠBet rieben
blick en
ministerium s
ĠEcht zeit
sk alender
Ġman geln
ĠW E
c ard
Ġs uchst
F F
us se
vert rages
Ġph il
eite te
Ġersch affen
O W
ĠBekl agten
Ġb ast
Ġder selben
a w
Ġaufgel istet
ĠSim on
Ġf all
Ġ7 3
stell ern
ĠEn kel
ĠzuverlÃ¤ss ige
ĠVer sprechen
ĠAnsch affung
u i
ĠGes ang
ĠSchul ungen
Gesch ichte
ĠJ Ã¤ger
200 3
ĠJ ud
Ġsan ft
ĠInn sbruck
Ġko ordin
m pel
ĠReg ul
w ettbewerb
Ġerf reuen
Ġgen utzten
ĠMeister schaft
ĠK alk
ĠFl ash
ĠT iefen
zentrum s
ĠRein igungs
ĠP in
ad bach
ĠFrem den
ĠzurÃ¼ck greifen
al ters
Ġt h
ĠÃĸsterreich s
ĠÃ¤l teste
Ġmodern es
Ġ> >
Ġex klusive
ĠLa sten
Ġvergleich sweise
mÃ¤ss ig
M Ã¶glich
ĠProm otion
ĠAuto fahrer
ĠVer gessen
Ġbes orgt
ĠWichtig ste
ĠW Ã¤sche
ĠEx cel
ĠRumÃ¤n ien
ac y
hy d
or ter
Ġan gel
ĠJer usalem
ph one
ĠP ra
Ġde kor
ĠWander ungen
ĠVer zeichnis
le d
om et
ĠSpezial itÃ¤ten
ĠWÃ¼r zburg
ĠGerichts hof
ĠLebens lauf
ĠEr fahren
be am
s id
Ġqualifiz ierten
Ġben annt
Ġgeb rochen
Ġer mut
ĠBes uchen
Ġander n
.) :
inder ungen
ĠPrin z
press ionen
Ġz it
ĠH orn
ĠC R
ie geln
ĠI D
spart nern
Ġstatt gefunden
Ġverm ehrt
Ã¶n e
n ten
ĠJournal ist
au gen
Ġ ult
Ġabsol uten
orient ierte
Ġblei be
stÃ¼ck en
ĠAspe kten
ar ium
ĠP L
ĠGer uch
Ġweiter geben
uver Ã¤n
ĠerhÃ¶h te
ĠInner halb
ĠE ll
ĠEn tert
ĠFrei heiten
pl o
Ġem p
ĠFerien hÃ¤user
Ġverste cken
Ġex tern
och te
Ġintens iven
Ġdeutsch land
res erv
etz u
Ġmittler e
Ġm ann
r essen
r iss
Ã¼ chter
Ġ5 000
az itÃ¤ten
lau t
h istor
ĠB am
ĠAb bau
ĠTre ffer
Ġhierzu lande
ĠKn opf
vÃ¶lker ung
ĠgÃ¼nstig sten
ĠS amen
grÃ¼n dung
ĠRent ner
ĠT oleranz
Ġsport liche
ĠBe steller
Ġmeist ern
ĠKÃ¼n ste
Ġumzu gehen
ĠUmsatz steuer
o ire
geben d
n ie
t our
D okument
or er
Ġenor me
ĠÃ¼bern achten
Ġn omin
ĠK lapp
ĠGes ellschaften
Ġvari ieren
S oweit
ĠE C
ĠT it
Ġf eine
Ġfol gten
ĠFle cken
Ġh andelte
et it
Ġk W
I s
Ġsteigen den
allen ge
ĠBau stelle
sch ild
! ?
New s
ĠWohn mobil
Ã¤hr ungen
Ġausge glichen
ĠSommer ferien
ĠBl Ã¶
ĠAkzept anz
Ġver legt
ĠfÃ¼hr ende
ge fahr
ĠZ ins
g riff
Ġverbind lich
Ġunvergess lichen
Ġexklus iv
ĠÂ ·
haus halt
ĠBelast ungen
wÃ¼r fe
Ġzwei f
b al
Ġerfahren e
Ġwen det
Ġan zunehmen
ĠWeihnachts zeit
ĠHerstell ers
ĠO snabrÃ¼ck
er ium
ĠÃ¼ber nahm
ĠAlli anz
ĠPok er
ĠAuf stellung
ĠC ru
ĠunabhÃ¤ng igen
Ġengag ierte
A mer
ĠEnt decken
Te xt
ĠAt hl
Ġer kl
lie sslich
Ġf ester
ĠEt age
ĠVerz Ã¶ger
ake ten
Ġgesch ul
ĠG ras
Ġk rÃ¤ft
Ġkon serv
ĠMon ster
Ġbe ab
Ġber Ã¤t
aut omat
ĠBenz in
es p
Ġher bei
mann s
ĠjÃ¼nger en
ĠJe ans
ĠWahl kampf
s ich
ĠC el
Ã¤rt ner
is men
Ġam bul
ĠG ur
Ġunter halb
ĠWohn sitz
ĠN ebel
ĠSach verstÃ¤nd
ĠOlymp ischen
Ġent lassen
ĠBes atz
Ġbew undern
ĠSchwimm bad
Ġun vor
ĠReg ierungen
a ille
ĠBe ck
Ġgew ohn
ĠZerst Ã¶rung
Ġgew isser
Ġbl og
En twick
ĠG ift
Ġzentr aler
ĠG ol
ak es
Ġp ein
park s
ĠLiefer ungen
Ġent worfen
ĠSch riften
Ġange griffen
Ġ15 00
Ġr an
ĠS ack
ĠHand werks
Ġunangen ehm
gra de
ĠBlu etooth
cke y
Ġp ort
ren ten
S ommer
amm ern
ĠLes ern
ĠAb weich
Ġan wesend
Ġderzeit igen
ĠVorgehen sweise
Ġauf halten
um e
ĠFest ivals
ut schen
St r
ĠLand schafts
Bes uchen
ĠEr zieher
ĠGrÃ¼n dungs
ĠAmer ican
S ehen
Ġaltern ative
ĠEinzel heiten
E lekt
zus prechen
Ġ198 4
An t
ĠAn ne
ĠBra un
ort h
sch on
Ġgel ohnt
m ien
ĠTo uch
ĠDe cken
G u
B Ã¼rger
Ġm inder
br ett
ing ern
ĠFahr ten
ĠA ct
ĠNeu seeland
Ġunber Ã¼hrt
Ġentsprechen der
Ġ8 6
ĠMagde burg
Ġabge holt
ap ter
Ġaus fÃ¼hren
ĠL ight
ĠAns ichten
ĠS eil
Ġ7 1
Denn och
ĠRucks ack
el ig
qu ip
rech nen
ĠS U
ĠZugang s
N utzer
Ġst oppen
Ġstark er
ed y
8 1
Ġkompeten ter
O ft
ĠSchw immen
Ãľ N
ĠG rÃ¤
ĠKont inent
il dert
ĠHel mut
Ġverl aufen
ĠSec urity
fahr ts
SchÃ¶n e
N ational
ĠBetracht ung
w id
ĠH av
swert es
ĠRe ad
ĠP um
Ġitalien ische
schutz es
rich en
Ġbill iger
O l
ĠGes ichter
ungs ort
Ġein sehen
8 3
h eute
ĠLebens dauer
ĠB Ã¤umen
Gl Ã¼ck
ph p
ĠO h
Ġtradition ell
Mus eum
ian ce
ĠA genda
Ġh arten
ĠWar n
ĠEr klÃ¤rungen
S et
ĠGer hard
ide e
lÃ¤ chen
ĠauÃŁergewÃ¶hn liche
Ġdrei mal
eh st
ĠAl ph
anz er
ĠEr be
iver se
ĠV iet
ĠSe eh
ĠRo se
Ġnachvollzieh bar
o cken
ĠPersÃ¶n lichkeiten
Ġsicher stellen
ĠzurÃ¼ck zufÃ¼hren
ol ine
ĠFantas ie
aut or
ĠEr haltung
ĠEnt deckung
Ġun ternehmer
sp itze
Ġausges ucht
ĠBay er
Ġr einen
ĠPor sche
Ġver deut
ĠB ug
Ġ( +
ĠWissen schaften
Ġentf alten
Ġkurz frist
r ier
Sch l
ĠVerantwort licher
ĠZwischen zeit
Ġangemessen en
Ġschwier ige
problem e
ĠBet twÃ¤sche
ĠÃľber weisung
Ġmiss b
Ġpro dukt
y k
ĠnÃ¶r dlich
spiel t
Ġregel n
p rÃ¼f
ser dem
ĠGitar re
A ug
Ġzw angs
Ġjur istische
ĠerhÃ¤lt st
Ġer we
ĠB uchen
Ġaufge klÃ¤rt
it im
Ġander weit
g g
ĠSpe zi
ĠWin kel
Ġausge tauscht
Ã¤tz ungen
Ġw Ã¤hlt
L G
em aschine
ĠBeh aupt
ĠLÃ¶ sch
Ġbeauft ragt
ĠW eimar
Ġmit bekommen
Ġgeb rauchen
ĠZ ir
Ġfest zustellen
dr Ã¤ngt
ĠSauer stoff
lin der
ĠArbeits losigkeit
ĠÃľ bungs
P erson
nehm ers
h aar
Ġk alte
Ġb uch
ĠPfarr er
ro w
auf gabe
ĠHel m
Ġgeschlossen en
ĠV irt
Ġtransport ieren
ĠSchiff e
Ġs etze
ĠExper te
Ġer mor
ĠS ig
ell os
Ġbef ried
ĠF abrik
ĠÃ¶sterreich ische
Ġge liebt
f utter
Ġleben dig
ĠUnivers um
ab elle
Ġsex uelle
ĠHaus halte
ĠAn weisungen
E uro
Ġdenk bar
Ġre alen
ĠMon te
M orgen
ĠH eu
it at
arb urg
Ġ( !)
w Ã¤sche
Ġt auchen
Ġmusikal ische
ĠprÃ¤z ise
ĠLand gericht
vert retung
ĠO f
op fen
ĠG T
Ġab holen
ĠAus zeit
Ġviel seitig
ĠFantas y
Ġvor zustellen
ĠP ier
Ġlaufen de
prÃ¤ sidenten
ĠBegegn ungen
K auf
wahl en
ĠSchw estern
Ġnacht rÃ¤glich
pl Ã¤ne
ĠkÃ¶rper lich
ĠDi kt
Ġstimm e
Her z
Ġwissenschaft lich
er kennen
ĠÃ¼ber fl
ĠV ict
ĠWe ber
r al
Ġdreh te
ap el
ru str
ĠfÃ¼n ften
ĠStoff wechsel
ĠO ffiz
Ġbek Ã¤mpfen
ĠBevÃ¶lker ungs
Ġgest Ã¶rt
r ische
Ã¤t t
ĠDr achen
mer kt
iv a
Ġfrem d
ĠO s
Ġf ett
Ġrenomm ierten
antas ie
y en
ischer weise
F H
M art
vert rauen
ĠEben falls
j i
ĠEntw eder
ĠF ashion
Med ien
ĠM ist
Ġwie s
Ġz auber
Ġag gress
ĠG ehen
tlich er
ĠT rad
ĠSe gen
lin ks
Ġges endet
ĠG ymnasium
fÃ¼hr ungs
pol izei
Ġmei ste
ĠHo sen
Ġerf unden
Netz werk
Ġsag st
ket ball
ĠUl rich
Ġenthalten en
ĠFranc isco
Ã¤ nen
we en
8 7
ĠherkÃ¶mm lichen
ĠMar ien
empf ang
ĠAb reise
ĠLand tags
Ġw Ã¼
Ġmotiv ieren
Ħ ¢
ĠAn meldungen
ĠS D
Ġk Wh
ĠBand breite
ĠSch affung
ĠPreis vergleich
M e
Ġans Ã¤ss
ha ven
at isiert
un en
Ġg ast
g ott
ĠWahr scheinlich
B E
st iftung
Ã¤nd igen
Ġeinwand frei
Ġbe wir
ĠFund ament
Ġpolit ischer
ĠBar geld
ĠInteress ierten
ĠSie ben
st isch
ik ern
Ã¤u ÃŁer
f otos
Ġs att
wer en
Ġweg zu
N ichts
S PD
los es
ĠS ession
kl am
ĠSchul tern
ĠSchw ach
ie delt
ĠOn lin
Ġanges agt
Ġsorg te
ĠO R
ss ituation
zess in
C amp
rat zen
r ent
k alender
Ġhervorragen den
Ġausgeb ildet
Ġo p
ĠAl arm
Ġeurop a
ĠCo uch
H abt
splan ung
ĠGetrÃ¤n k
ĠLand schaften
ĠSitz ungen
ĠS W
ag ung
ĠI G
Ġerhe blichen
D SGVO
Ġ9 2
ĠP ull
ĠtÃ¼rk ischen
ĠEhren amt
Ġweite m
ĠRass ismus
ĠSchei ben
rie s
ĠA C
ĠGes p
ĠStatist iken
b ot
Ġstark es
M a
Ġdunk le
ĠAkt ie
Ġw uchs
Ã¼nd igt
bas is
ĠBekl agte
ĠUn bek
gew orfen
ĠSp Ã¤t
er o
Ġauss uchen
ĠSo wjet
T age
on anz
ĠM au
ĠD utzen
Ġvor zunehmen
ĠO K
ĠFl ur
g anz
ausen den
c le
Ġvor wiegend
ĠKlar heit
Ġbestehen d
ĠCom ic
ĠStich wort
Ġvergleich bar
8 4
Ġbeh eben
Ġ8 4
ĠInf ektion
Ġbew Ã¤hrt
Ġ8 2
Ġer fordern
Ġabgel aufen
Ġbeseit igen
ĠUm so
ĠB d
zut eilen
wirtschaft liche
kont rolle
S uchen
Ġ1 01
ĠVer luste
ĠFrÃ¼hstÃ¼ck sb
och ten
ĠW arten
N atur
Ã¼t t
H ow
wei ler
Ġwo von
ĠGeb raucht
Ġt rin
Ġverpflich ten
Ġsch ickt
Fin anz
il dern
Ġtran sparent
ot ische
Ġunge achtet
rei ÃŁen
Ġverm utet
ĠIll ust
ĠY o
ĠKl ienten
ĠT ru
junkt ur
sitzen der
ĠOl iver
Ġspezif ischen
ĠFinn land
ĠEnergie wende
ĠHilfs mittel
ĠNa gel
Ġzeit nah
ĠA z
Ġver nachlÃ¤ss
duz ierung
Ġun Ã¼ber
ah m
ĠSk la
ger lich
Ġhei raten
Ġrech net
Ã¼ss elt
hei zung
ĠunnÃ¶t ig
Ã¤l de
Ġ9 4
schieden e
pro ben
Ġverz weif
ĠPar allel
Ġhil freiche
ĠAr gentin
ĠEin steiger
ĠÃľ bel
Ġb arriere
sk ultur
ĠEr fassung
ĠEr leben
ĠM ust
ĠungewÃ¶hn lich
D IE
ĠW elle
ĠSch lÃ¤
ĠNet work
dr ing
Ġinhalt lich
Ġak adem
W ochen
Ġ ÂŃ
ĠC ur
ĠRe b
Ġvers and
ĠTechn ischen
Ġheft ig
Q L
ĠNa ja
Ġfund ierte
ĠHalb jahr
l as
Ġfreund licher
Ġaufge teilt
rÃ¤n k
ĠD B
ĠZeich nungen
ĠAd obe
or derung
mÃ¶ bel
Ġir re
Ġerg reifen
ĠMill imeter
ĠHart z
Ġg Ã¤n
ifik ationen
al ent
Ġver lÃ¤sst
Ġbl ut
ĠBegl eit
ĠG Ã¼ltigkeit
G i
ĠEhem ann
Z entrum
ĠVer mittler
Ġperman ent
Ġweiterge leitet
Ġs kept
ĠBed rohung
ĠTro pfen
ib iot
Ġkosten pflicht
co ver
H ein
Ġbeh er
Sh irts
onn ement
ĠExpert ise
Ġwid met
ĠWh ite
Ġr Ã¼ber
as ing
stand es
Ver fahren
el emente
Ġirgend einer
ĠP Ã¤dagog
Ġgew echselt
am ik
8 2
ĠTier arzt
wer ter
ĠR itter
Ġ2 20
Ã¶hn t
ĠAb sol
ĠBlut druck
ad or
ĠBern d
ĠAnfang s
ĠPanor ama
Ġunbek annten
ĠKer zen
Ãľ V
Ġmit genommen
Ġst Ã¶r
Ġkrit ische
W en
ĠM u
ĠstÃ¤nd igen
ĠS in
Ġgespeicher ten
iz ierten
ĠAus dauer
ĠG rupp
organis ationen
ent wurf
ĠFlÃ¼ss igkeit
ĠIm plement
ĠI l
Ġ endete
mar ken
un fÃ¤higkeit
Ġin f
um feld
ĠGeb et
g Ã¤u
Ġman uell
ĠKÃ¶n igin
Ġgeb rau
Ġweit aus
ĠPro vider
Ã¤ ht
sk y
w etten
m ond
Ġd ringen
upp ort
ĠWarte zeit
ĠAusflug s
Ġm ore
gÃ¤ng ig
ĠVertrag sver
ĠgrÃ¼n dete
sc ar
P riv
ĠTechn ische
ĠDF B
rÃ¤ gern
Ġweiterentwick elt
Ã¤ qu
Ã¤u le
ĠLeben sst
gel der
ĠMit arbeit
ĠMo dule
Ã¤ ler
ĠL IN
ĠZ ehn
Ġ9 7
ian o
ĠZahl reiche
p sych
ĠGe denk
Ġbr ach
rei z
Stud ie
Ġb richt
Ġfehl ende
M B
mÃ¤r kten
ĠNach hinein
Ġzwei er
sk rise
Ġbeschrieben en
Ġf rauen
etzu gang
ĠJo achim
ĠTr ick
Ġeffizien te
ilf lich
glich keit
Ġsex uellen
ĠBet rug
gel te
l ime
is ierter
amer ikanische
ĠLaut sprecher
ĠAndre a
ĠFreund innen
hab ung
ĠVeg as
Ġa fr
hn t
[ âĢ¦]
Mich ael
ĠLi qu
ĠL ungen
ĠWir bel
p il
Ġt rÃ¤umen
er be
ĠF liegen
Ġzu geordnet
Tele fon
Ġgriech ischen
ĠGegeben heiten
T O
Ġer holen
ĠauslÃ¤nd ische
I t
fil me
ĠHein z
M itte
ĠA S
Ġl as
r us
ĠHÃ¤uf ig
ĠH Ã¤nd
la mm
Ġangen ehmer
ĠSicherheitsl Ã¼cken
part ei
ĠDie ter
ent ag
Ġzusammen arbeiten
Ã¶ te
Bis her
op e
Ġman cher
t yp
ĠR utsch
ĠK reu
Ġbevor zug
Ġeinzu stellen
Ġf okuss
so zi
ĠUn glÃ¼ck
Ġtechn ischer
Ġgew id
Ġaus Ã¼ben
Ġbeh ilflich
Ġt ag
ĠKil o
V ier
st ers
ĠToil etten
ĠMus ical
ĠKommun al
ĠP ens
ho se
s ind
ĠKat al
ĠK im
F Z
ĠK ie
ar be
Er n
ĠSt irn
se y
ĠC le
ict ion
Kon zept
Ġtran s
eit igung
â ĸ
ĠR io
h stÃ¼ck
un z
Ġgesch ah
mark e
ĠPrinzip ien
ĠBetreu ungs
ĠAl p
Ġg Ã¶nnen
ĠAnder erseits
ĠS O
ĠBauern hof
Ã¶r sen
ak ademie
ĠT asten
ĠRezens ion
Ver antwort
Ġb rÃ¤
ĠVert retern
Ġeinfach es
ul pt
lie d
fach e
J ob
Ġen ergie
ĠUrlau ber
ĠFir m
F an
ĠKoll ektion
ĠVer pflegung
ĠTier schutz
ĠAbl ehnung
EL L
ĠT afel
ĠB ass
200 2
In dustrie
Ġver rÃ¤t
ĠV amp
ĠJ Ã¤nner
s ab
S erv
ĠFel sen
L ICH
ĠP rax
Ġbun te
L ang
ĠNutz ers
Ġerw Ã¼n
H D
V ort
ĠM IT
ĠSu ite
ĠS auber
T ja
ĠEr lass
R A
ar at
sch eid
l Ã¼sse
ste ten
zug reifen
ĠR ufen
ĠRett ung
ĠZent imeter
Ġin iti
stimm te
St at
ĠFeiert age
St aaten
ĠSÃ¼dt irol
dienst es
fÃ¶r m
othe k
Ġsoll st
iskuss ion
ĠW alk
ĠdÃ¼n n
ĠKal ifornien
sb ach
ĠHalb zeit
ĠBe antwortung
b undes
C ont
Ġ36 5
Ġpsych ischen
ĠInhalt sst
ĠOpt im
Ġ8 7
te d
ot ischen
ĠBo ard
ĠM E
F S
at ibel
ĠC ard
Ġhin auf
ĠAnge kl
Ġ( ...)
Lie fer
ĠMÃ¤r kten
Ġunter st
et h
ĠArbeits welt
ĠBrun nen
ĠVerwand ten
A ir
ĠErschein ungs
ĠBo ots
m otor
ĠblÃ¶ d
ĠW Ã¼ste
our ce
J ahren
vor aus
por ter
ber ichten
ĠGrÃ¼ ne
ber at
ĠAb fahrt
h Ã¤nger
Ġelektr ische
ĠHÃ¼ hn
ĠSing les
ĠK um
A ss
ĠBuch ungs
ĠkÃ¼nft igen
ĠWochen end
ĠWeiter bildungs
Ġ196 8
Ġgeh st
An schluss
ĠGeh Ã¤use
lo ok
ĠP utin
Ġlin ke
Ġreal istisch
b licherweise
beu gen
ĠSt ro
Ġgelungen e
ĠAtt raktionen
y an
ben teuer
Ġa si
ĠAnaly sen
Ġf rucht
ĠT ob
ĠTim es
ĠSpiel platz
ĠV ie
ite ktur
Ġ8 1
ĠÃ¼ber arbeitet
ĠFertig stellung
k eine
Ġsport lich
Ġerforder liche
arch iv
ĠAus zug
Ġgerade zu
ĠVer vielfÃ¤lt
ĠÃľber gabe
ĠPark s
c ia
ĠAb gaben
Ġlux uri
te ch
ĠT uch
Ġfeier te
rÃ¼ck te
Ġunein gesch
ĠLÃ¼ beck
ĠDies mal
Ġinspir iert
GeschÃ¤ft s
ĠNikol aus
r unden
ĠModer ator
Besch reibung
op pt
ĠS ekt
Ġm ail
ĠHa ken
Ġver weisen
ĠAb ma
ĠAir port
markt ung
Ġbe wirken
Ġre d
fel s
ĠMig rations
f rauen
Ġausge liefert
ĠStr asse
Ġzug unsten
Ġchines ische
ĠhÃ¤tte st
Ġf liegt
ĠWeihnachts markt
Ġintegr ierte
leich ter
ĠSuch er
Ġsp enden
! âĢĿ
zus p
ver hÃ¤ltnisse
h undert
ge ts
ĠD AN
Ġbel ohnt
an walt
in formation
Aus gabe
A bt
Ġgeb acken
ay a
S amstag
ĠB W
Ġange p
m eine
B I
ĠProdukt ivitÃ¤t
w ellen
aut o
Ġangegeben e
Ġdr aus
d own
ĠH abt
ĠBundes rat
Ġunver zicht
it Ã¤ren
steiger ung
ĠG au
ĠR Ã¼st
Ġsp iritu
In d
ĠK en
Ġmark iert
pf e
erkrank ungen
Der zeit
Ġgelegen en
ĠEin fl
Ã¶ pfer
ĠMit tels
ĠHor st
belast ung
N ot
An tw
ĠKl Ã¤r
ĠReserv ierung
Ġherr schen
Pro fil
Ġwer d
â Ħ¢
Ã¶ff el
Â ¼
ĠF aden
Ġm arkt
bezogen e
L auf
ĠSch ock
ĠTats achen
ĠVer stoÃŁ
B ed
ĠCro ss
Ġwert vollen
ĠW IR
Al b
Ġbas ieren
ĠGl anz
ĠVir us
istr ation
ĠI hn
beg riffen
M uss
ĠK ampagnen
Ġleben den
Ġ( =
ĠEt agen
hÃ¤ fen
viel falt
de stens
se ktor
Ġpl an
bl enz
ĠFest stellung
lÃ¤ uter
kÃ¼n ften
ĠZu erst
ĠP osten
ĠEin s
ĠMed itation
Komm ent
ĠBe fÃ¼r
Ġmittel alter
Ġda zwischen
ĠBer echt
techn ologie
rÃ¼ ÃŁ
Ġd rucken
ĠHerz og
Ġgrundlegen den
ĠRo uten
ungsk raft
xt rem
ĠLieb sten
R hein
aus gaben
UN D
ĠSpiel tag
ut ung
Ġbr ut
ĠB reit
ĠR on
ĠHÃ¼ gel
MÃ¼n chen
ĠHand ys
arbeite te
Ġbetrieb lichen
M etho
ĠCafÃ© s
pl us
Ġwesentlich er
ĠAus zahlung
y ball
Ã¤u ÃŁert
f acht
ĠHand habung
ĠEr furt
f ind
pf ern
Ġbef ind
b Ã¤
Ġauszu probieren
ut ions
Ġsch utz
ĠHerz lichen
U L
n o
Re gel
ver g
ĠGetrÃ¤n ken
ĠGewÃ¤hr leistung
Ġreserv ieren
ĠH IV
Ġj enseits
r ungen
Ġgewerb lichen
St rategie
ĠBau er
In g
ĠHor izont
ĠDos is
ĠBe at
Aut o
d h
sie d
Ġm e
Sch wei
sor gung
mess ungen
od ie
ĠVen edig
ein stellungen
ĠL ine
ab is
Ġaus wirken
Ġwor an
gar antie
ĠRoy al
ĠJ ena
Ġunter richtet
Ġberuh igen
ĠVerein barungen
F reitag
ĠM isch
ĠB ann
sprach ige
sp w
Man ager
ĠT Ã¤n
Ġ198 2
ĠProdukt es
Ġhier her
ĠBewerb ungen
ĠWie se
ĠEr richtung
ĠBek Ã¤mpfung
Ã¤t igen
ĠWertsch Ã¤tzung
Ġsch ar
ĠWelt meister
Ġfest halten
Ġbes uchten
Ġauf ger
ran denburg
z ungs
M ER
ĠmaÃŁ geschneider
! Â«
Ã¤ch ter
ĠSchwar zwald
Ġd at
ĠT reiber
ĠRo ad
grÃ¼n der
Ġanzu schauen
Ã¶ ser
ĠDan eben
ov a
Ġkop ieren
F inden
ar man
Leist ungsverhÃ¤ltnis
Ġbed Ã¼rfen
ĠDi mension
ĠZ eile
ĠWeihnachtsf est
ĠSp er
ĠAgr ar
Ġf urcht
Ġaktu alisieren
ĠSchw anz
Ġan fall
Ġdenk st
an forderungen
stra hl
ĠDar unter
ĠSamm el
qu art
ĠEle ct
ĠAussch reibung
Ġgra v
ĠTschech ien
il y
Ġex zellen
9 6
ĠG eister
A t
ĠTeil nehmen
ĠBarbar a
Ġausreichen de
Ġweiter gehen
ĠEntsp annen
ĠAn schlag
ab schnitt
Ġbes orgen
rang ig
Ġzerst Ã¶ren
ĠBi bliothe
ĠVers ammlung
ĠRelig ions
ik at
er isch
eil er
ĠAbl Ã¤ufe
ĠerhÃ¶h ten
Ġa bt
ĠR TL
aly t
her ren
ĠFr ise
ĠZertifik at
ĠKer l
Ġinteressant es
kl ick
amm elten
S onntag
gesetz te
enn y
ĠKan Ã¤le
ĠCl ient
ant in
Ġzu lassen
ĠImmun system
stmÃ¶glich en
ĠHy giene
Ġge hoben
Ġversen det
grÃ¶ ÃŁte
men Ã¼
Ġtheoret isch
Ġbetrieb s
ĠRÃ¼ck meldung
ĠG ig
ĠPhot ovolta
i dent
ad ion
9 7
p ap
Ġ197 2
ĠSw iss
Ġl andet
o bl
ĠW uppert
ĠHit ler
Sie g
Ġeffizien ter
ĠN ight
ĠIn fl
Ġsp iegelt
lie der
ab wicklung
n d
ĠProgramm en
ĠH IER
Ġ198 3
ir oler
ĠGeh Ã¶r
A lex
ĠP utz
jahr e
Ges undheit
eu g
F otos
ĠSeni or
ĠSt all
Ġurheber rechtlich
Ġgewid met
ĠLin ke
ĠTechn iker
ĠG allen
ĠResult at
A W
sp rÃ¼chen
ĠGu ide
200 1
Jo hann
ĠHinter grÃ¼nde
ĠDie t
ĠFrage stellungen
Ġder er
ĠNAT O
Ġwe cken
ĠgÃ¤n zlich
ĠInnov ations
io xid
Ġelektr ischen
list ung
Ġtau schen
C om
Ent decken
ĠSt ief
ĠverknÃ¼ pft
C ard
achte te
ĠL ekt
ĠD est
Spe zial
ĠSte mpel
Gen ieÃŁen
or ger
bst ahl
ĠBr ett
ĠAll en
Ã¼r den
en ke
iz z
ĠSchie ds
un gel
Ġbit tet
ĠK etten
Ġs ymbol
ĠBe eintrÃ¤cht
Ġschrei bst
Ġverb raucht
Ġw ohne
hard t
trag s
sp ark
b zw
O st
Ġver packt
ĠG ard
Ġdaten schutz
ĠZu cht
Ġoffen es
on i
Ġmit teilte
ĠTr ier
Ġin wie
zu bringen
Ġ9 3
Ġschau te
Ġ197 9
ĠVer folgung
Ġho fft
ĠRicht ungen
Ġer wiesen
ĠEntscheid ungs
ĠB GH
ĠZeug nis
ĠChr on
ĠT rage
gef angen
u gie
Ã¤st het
ĠSaar land
jahr en
ĠSpe cial
Ġs yr
T oll
Ġfort geschritten
aff el
au te
ĠTeil habe
ĠRo ut
Ġab warten
ĠAn dr
Ġselbst Ã¤ndig
b elt
ob jekt
Ġbel eid
ĠBeruf e
Ġbel euchtet
ĠP assen
Ġd rÃ¼ckt
Ġt ags
ĠB ock
mittag s
geb urt
ĠMich el
amm lungen
ĠLandes hauptstadt
ĠBef ehl
ĠFranz isk
ĠL uther
ĠDurch schnitts
ĠEn sem
ĠEnergie effizienz
Ġn annte
berecht igt
ĠH il
âĢľ ?
H Ã¶
B ranche
AR T
um satz
ĠRÃ¼ck gang
Ġarg ument
ĠParlament s
ĠT ausende
ĠsÃ¼d lichen
Ġan grenzen
antw ortet
ĠjÃ¤hr liche
is er
Ġver wiesen
ĠBel ange
Ġdir ekter
Ġbesch eiden
Ġverl Ã¤ngern
port iert
Ġunter liegt
Ġzwangs lÃ¤ufig
Mit tlerweile
D VD
Ã¼ber w
la ster
quip ment
ĠÃľber schrift
Ġ rÃ¼cken
d in
lo wen
x x
ĠStraÃŁen verkehr
Er folg
ĠLin z
B ank
Ġwachsen de
ĠFla ir
ĠBeispiel sweise
ĠChr is
Ġsystem atisch
Ġnach weis
S uche
Ġhum an
Arch iv
ownlo aden
Ġgesch aut
Be weg
berecht igung
Ġgew usst
o od
ĠW ach
Ġaus machen
r er
zu cht
Ġunbe gren
ren te
Ġd rast
A A
Ã¼ber greifen
g alerie
ĠEin verstÃ¤ndnis
rÃ¤ te
ĠEt ik
ĠAr mb
ĠB ulgar
Ġge drÃ¼ckt
irl pool
ĠG lei
ĠB innen
ĠEnt tÃ¤u
Ġvertrau lich
Ac count
Ġro b
Ġunheim lich
verein barung
rÃ¤n kte
ĠSie he
ĠG Ã¤n
Ġwirk ungs
ch ain
ĠAn blick
l ar
ĠInstitut ion
ĠFir ef
ĠUntersuch ungs
ĠZusammen spiel
ĠAuf preis
ĠKon f
gemÃ¤ ÃŁe
Kl ein
S en
Ġerhe bt
Ġsch icke
Ġunbek annte
ĠJ os
ĠDar aus
ĠAb o
ĠmÃ¤cht ig
ĠK ick
Ġun ab
la w
vis or
ĠBeh inderungen
Ġkon figur
ĠDreh buch
Ġdies jÃ¤hrige
ĠD ate
ĠP red
âĢ¦ ..
Ġaus lÃ¶sen
Ġ19 20
Ġs uchte
Ġsel be
ĠÃ¶k ologischen
ack te
ur y
ĠVolk es
Ġjapan ischen
ĠB eu
ĠT alente
itÃ¤t s
ĠZw ang
kon zern
Ġvert iefen
ĠT Ã¶ch
ĠspÃ¼r bar
ow ohl
ĠD et
ĠÃľber mittlung
Ġpsych ische
ss icherung
ĠKant ons
ge stellte
ĠMag az
ĠK aum
ĠReisen den
otograf ie
Wie so
Ġwohl fÃ¼hlen
ĠC C
Ġan zum
ĠD rag
ĠrÃ¼ck t
ĠPubl ic
and in
ĠbenÃ¶t igte
Ġverring ern
ĠE if
ĠEl isabeth
H ar
Ġbl ickt
Ġfreund liches
ĠSchw eine
Ġerk und
ĠTest sieger
ĠSo uth
Ġher ein
Ġtran sparen
Ġf einen
ste am
ĠEhe frau
ĠB ike
in tens
ĠMail s
ĠDi am
m eier
Ġseit her
stand ort
ĠInternet s
sf Ã¶rderung
ĠRoh stoffe
prÃ¤ senz
is emit
entr al
uss ia
iss ions
or gan
Ġverab schieden
ĠhÃ¶ch ster
ĠMak ler
amm eln
Port al
sp oten
ĠAbteil ungen
Ġ19 33
Ġerf Ã¤hrst
ĠAn halt
ĠDis ney
system en
Ġvers ichern
ĠSatell iten
all es
ĠMar ie
aus fall
et ings
be wohner
ĠSt rei
ĠGeschÃ¤fts fÃ¼hrung
Ġrat sam
UnterstÃ¼t zung
Ġy ou
ĠK ri
ĠAngriff e
ĠÂ ĸ
ĠPriv ate
Ġprof itiert
ĠFiref ox
ĠMe yer
Ġverl ang
Ġdeut lichen
ĠUn sicherheit
ĠTro ck
Ġ197 8
Ġun zu
g ru
ĠSpe kul
ĠEigen schaft
Ġausge zeichnete
gesprÃ¤ che
ro ss
ĠBen ach
be vÃ¶lkerung
ĠVert retung
Wer den
ĠGÃ¼ te
zuf rieden
mag azin
Ã¤d ie
ĠBer Ã¼hrung
ĠE G
Al tern
ĠT Ã¼b
gleich heit
b old
ĠNe ck
Ġst reiten
ĠSehn sucht
Ġl euchten
9 2
Ġch arakter
Ġda heim
ĠProdukt s
ĠZ U
reens h
Ġbereit stellen
Ġber Ã¼hren
ir us
Ġet h
ï ¸
ho d
Ġmehr erer
k ompetenz
ov o
ĠVerl angen
im edia
ĠverstÃ¤r ken
Ġint u
ĠzurÃ¼ck kehren
ĠAuf sicht
Es sen
ĠEnt gelt
i enn
Sch utz
Ġauft auchen
ĠMit menschen
B it
F rie
pl attform
Ġwei blichen
Ġw ochen
Ġauseinander setzen
ĠPrivat personen
j ugend
vor gang
ĠSch irm
ĠspÃ¤ter e
st reifen
ĠGemeinder at
Ġgrund le
ĠTabl etten
Ġin folge
Ġsch affe
ĠBr uch
Ġan k
ĠVor freude
Ġles bar
Wor kshop
Lin ks
Ġsauber e
bach er
Ġheil igen
schau ern
Ġsp azieren
ĠProgn ose
v ia
af Ã©
Ġwo zu
Ġd rum
ĠWochen enden
** *
Ġstehen de
ĠWiderruf srecht
ot ive
ĠPar ameter
ĠT unnel
Ġskept isch
ĠGewerk schaft
ĠH undes
ĠKreis lauf
verein igung
hÃ¶ h
ĠAn bindung
Ġk al
e arch
Ġklar er
Ġklein ste
ĠB reiten
ĠWill iam
ĠB ald
ĠCont ainer
ĠJ Ã¶rg
Ġger au
Ġoffen er
ĠmÃ¼ h
o h
ĠÃ¼bersch reiten
ĠVor satz
ĠGar ant
ĠEw igkeit
Ġwieder her
qu is
Ġabwechslungs reiche
W under
Ġempf unden
Ġbesch rÃ¤nken
ĠD Ã¼n
Ġ tem
ĠEn dlich
Ã¶r dern
kon omie
ĠN S
stÃ¤t igkeit
ĠL angen
ĠS ogar
versicher ungs
ĠDem enz
ĠbeeintrÃ¤cht igt
ĠEing angs
ĠK Ã¶st
R ock
F reund
he dr
Ġeinz ut
Ġst oÃŁen
ĠEin zahlung
lÃ¤uf er
Ġj ugend
ĠKur sen
ĠLa w
Ġ7 50
Ber uf
Ġ197 5
ĠBatter ien
Ġempf inden
ĠSport s
ĠbestÃ¤t igte
Ġflex ible
ystem e
op fer
In fo
ĠBoden see
ĠS itze
Ġgetr unken
Ġerreich ten
rÃ¤n kungen
Ġherr liche
lass ungen
cyc ling
Ġwei bliche
ĠChem nitz
ĠR ap
Ġanget an
ch o
ĠZiel gruppen
ul ator
h ans
Ġlau ten
ĠW urst
Ġte ure
v as
ĠR ate
v ideo
ĠTenden z
ĠSp rit
Reg ion
ausschuss es
Ġgest anden
au ÃŁer
Ġk Ã¤mpft
s hafen
ĠIS T
Ġmit zuteilen
ĠKil ogramm
ĠMus lime
ĠEv a
besch Ã¤ft
Ġwar f
ĠDiskrimin ierung
Ã¶ ten
M od
J an
Ġauf kommen
ĠE ber
ĠMag ie
Ġd ifferenz
ĠProdu zenten
Hig hlight
ĠAn ordnung
k etten
Ã¤r te
ĠBes p
ĠPort ion
W oche
tur m
un ts
ĠJ ens
ĠFr is
Ġ8 3
ĠAb zug
io se
h und
ĠBlu e
Ġgez ielte
ĠMountain b
krit erien
c ing
ah ll
ĠHerr schaft
ĠTerr assen
ĠProt ot
ĠBrie fe
ĠLo unge
ĠOrd nungs
Ġbenach bar
Ġsol ide
ĠBau en
ĠFin al
Ġmusikal ischen
Ġreligi Ã¶sen
last et
ĠKomplex itÃ¤t
Ġge druck
geb unden
Ġdemokrat ischen
rinzip iell
Ġjahrel ang
L S
ĠKopf schmerzen
ĠV Ã¤ter
el ing
Ġein treten
Ġunters agt
ĠFel ix
hol ungs
an meldung
M er
ĠKinder tages
sch laf
Ġf uer
ph y
Ġt herapeut
ĠLin ken
ĠWie so
Ġbeg reifen
ĠHand buch
ir chen
Ġan ziehen
bet rieben
ĠHaust iere
Ġeinger ichtete
Ġverschw indet
orient iert
ag a
ĠglÃ¤n zen
ron om
Ġerstaun t
Stud ium
Ġfrei gegeben
ĠKartoff eln
ĠNicht raucher
ĠSpezif ikationen
Ġinter disziplin
arian ten
Ġzut rifft
Ġzeit genÃ¶ss
ĠunzÃ¤hl igen
per iode
ĠEntsch eiden
ĠZusammen setzung
Ġkon vention
A bend
ll te
ĠB Ã¶se
ĠDem nach
Ġer lassen
ode ll
Ger Ã¤te
Ġuntern ommen
ĠAntrag steller
ĠW it
ĠCro w
Ġexpliz it
ĠL Ã¤ufer
ĠStra ÃŁ
zeug nisse
Ġzu viel
ĠkÃ¼nd igte
s werten
Ġ198 1
pr ise
ĠSan ktionen
Ġand auern
si den
spart ei
S teuer
ĠVerÃ¶ffentlich ungen
Ġvor gehen
ĠZw angs
Ġbet rug
b rid
mittel ten
An fang
geb ogen
ĠSch e
ifest yle
ĠEr langen
spf lichten
âĢ¦ âĢľ
ĠEn ter
ĠvorÃ¼ber gehend
stra ÃŁen
ĠWill i
ĠPri me
w an
Ger Ã¤t
Ġeffekt ive
ĠK reise
Ġschaff te
ĠEr stellen
K K
Ġkrit ischen
ĠPassag iere
Ġtransport iert
beauft ragte
ĠB uÃŁ
ĠnÃ¤her en
k enntnis
ĠR elev
Ġpositiv es
end em
Ġh y
Agen tur
9 4
st euern
ungsver mÃ¶gen
ĠMahl zeit
ĠvergrÃ¶ ÃŁern
ĠH agen
ĠF I
ĠbefÃ¼r chten
Ġman ip
ĠOrgan e
ĠRÃ¼ck blick
du str
ĠH undert
x it
ĠHa w
ĠkÃ¼nft ige
Weiter lesen
D irekt
L etzter
t u
lÃ¤ss igkeit
Z war
A lt
Ġeinz iger
ĠN acken
ĠKaffe emaschine
ĠFl Ã¼gel
ĠAust ria
Sch auen
ĠS oph
ĠT ÃľV
ĠSchwar zen
den n
ĠElekt rom
rock ner
sch lei
stand ard
h Ã¼tte
l or
ĠVerb Ã¤nde
Ġaussage krÃ¤ft
wir d
Ġver bl
daten schutz
Ġverd anken
kon zert
Ã¼r tel
lieb haber
st ationen
em men
bin sel
ĠV ize
ĠReh abil
Bus iness
Ġuntersch rieben
Ġautomat ische
ĠÃ¼bert rieben
Ġkon sum
ank ungen
at hem
k ab
Ã¶s ung
k ost
Ġnachzu denken
de utet
Ġbeg annen
F amilie
ĠStud ios
Ġor gan
ifiz iert
Ġlangfrist igen
c or
ĠP for
Ġsp reche
ĠFlie sen
Ã¶ op
ï¸ ı
ĠPoly ester
ĠBas ketball
ĠViet nam
ĠeinschlÃ¤ g
ĠAd d
f lich
ĠF ingern
ĠP reu
ĠS G
Ġwelt weite
ĠSÃ¶ hne
zahl ungs
Ġun glÃ¼ck
Ġh euer
C SU
Ġfotograf iert
ĠHo sp
ĠF asch
iat rie
Ġd istanz
s fall
ĠW im
Ġdigit aler
ro he
ĠK Ã¤r
fÃ¼hr enden
K ommt
Ġausge tragen
Ġgenehm igt
Ġversch lossen
Ġsp ar
Tun es
V ideos
ĠHaupt sache
ĠBerufs ausbildung
ĠM A
ĠÃĸff nung
Ġs urfen
Ġe Mail
Ġverw andelt
ĠÃ¼berwie gen
or ing
ent halten
ĠmuÃŁ te
Ã¼ llen
ĠBes etzung
Ber icht
mit tels
Ġs inkt
ten nis
Ġanerk annten
log gen
Ġvor lÃ¤uf
An wendungen
Ġw undern
Ġvoraus gesetzt
bay ern
Ġg riff
ĠalltÃ¤glich en
ĠAuf listung
Ġein fÃ¼gen
Ġle ge
Ġbr achten
b Ã¶
b itte
ĠPort o
Ġab seh
W Ã¤re
ĠHei de
dr eh
Ġvert ritt
ohl e
ĠBewerbungs unterlagen
' ,
! âĢľ,
Ġann Ã¤h
ĠStudien gang
ĠT ok
schei be
M otor
ĠKlei dungs
Ġevent uelle
ub il
f as
ĠP lÃ¤
ÃŁ ten
ĠMar athon
ĠB ody
Ġgek ostet
ĠLiqu id
ĠRelig ionen
ĠReg al
stat us
Ġbef ragt
k Ã¤ufe
Ġbelieb ter
Ġdies elbe
sp richt
Ġbe deut
ĠK ollege
An meldung
krie ges
Ġal kohol
ĠSar ah
Ġaus macht
in tern
nach mittag
d ose
Ġemotion al
st ark
hel fer
K ind
F amilien
Bei de
ĠAbst ieg
st agen
j etzt
wie gen
Ã¼ sten
ĠHoll and
US A
Web site
ĠD own
Ġp df
ĠCas h
ĠIrgend wie
c our
ĠGesell schafter
ruf bar
ĠText il
ĠLou is
ĠHandt Ã¼cher
% ,
et isch
ĠEur en
ĠDynam ik
ĠAmts gericht
fel dern
W ahl
chn ik
Ġget Ã¤t
ĠMeer blick
ĠRend ite
ĠRe view
W ahr
ĠTermin en
ĠB rÃ¶tchen
Ġ197 7
G ast
Ã¤lt igung
wert ungs
ĠSt rÃ¶
pr esse
Ġeinzu legen
Ã¶r tern
ĠWÃ¤l der
ategor ien
ĠUn recht
a ats
Ġan zur
con om
Ġaus b
Ġzertifiz iert
ĠNahr ungs
ĠChrist i
ĠÃ¼ber fordert
f ig
Ġs agten
Ġun wirksam
ĠMar x
Ġengl ischer
Fol gende
Ġein gel
ĠGewerk schaften
E ffekt
ĠKu pfer
Ġdar zustellen
K A
ĠMet al
ĠSpiel zeit
Ġdi agnost
ĠEin st
tern acht
ĠDownload s
ĠWag ner
ĠEr den
Ġetabl ieren
Ver ordnung
ĠHochzeit s
o wer
ĠAb rechnung
T ran
ĠauÃŁergewÃ¶hn lichen
Ġg raf
Ġd icke
z ettel
Ġreg ulÃ¤ren
bro wser
K abel
St re
ĠWill e
ĠEin sicht
w orte
Ã¤ gen
an i
ov ern
ĠArbeits verhÃ¤ltnis
Aus bildung
Ġengag ierten
P M
ĠL Ã¤den
B ist
Ġsch Ã¤tze
Mont ag
m ische
L u
Ġh Ã¤r
AS S
ĠH ang
ir a
ĠErdbe ben
ar ter
ma k
Ġrie sen
ĠCo up
os k
ma te
ĠAnwesen heit
material ien
K enn
ĠLi ber
Man che
Ġgra de
ĠBus se
rech ter
Ġab genommen
un ternehmer
ĠDu sch
tel ier
ĠL Ã¼cke
ĠBur gen
ĠB indung
ĠMot oren
Ġauf geregt
ĠRÃ¶ mer
Ġein fallen
ĠP est
kor b
stra hlt
ĠWeis heit
ĠExempl are
Ġz Ã¶gern
ĠlÃ¤nger er
ĠA x
W inter
ĠLeip ziger
iss ar
in chen
de uten
ĠgewÃ¶hn lich
Ã¶ der
ĠSt Ã¶rung
m otiv
he ft
st het
ĠLe er
W egen
ĠAnt ibiot
CH EN
h end
Ġkomfort able
M ach
N ormal
OR T
ĠAuf lagen
Ġgener ieren
ĠRe vision
Ã¶s es
ri kt
empfeh lung
Ġfehl enden
Ġvirt uelle
ES S
.... ....
w Ã¶ch
ĠWar m
Ġw ahl
t ier
ĠEntert ainment
Ġ9 1
em p
Ġide alen
oo f
ĠRefer enten
ĠMitarb eiten
ĠNutzungs bedingungen
ĠRoll stuhl
Ġk raft
k rÃ¤ften
ĠSt reich
Ġwer ben
Ġauf passen
ĠRe da
ĠBesonder heit
Ġfair e
ĠH eld
A rab
ĠB rÃ¤
ĠP ic
ĠZu bereitung
sl eitung
Ġsub jekt
ĠKrit iker
ĠSan itÃ¤r
ĠW eit
ĠRud olf
s burger
gesch Ã¤fte
ĠFamilien unternehmen
urt eile
ĠursprÃ¼n gliche
ĠMat ch
in form
Ġ197 4
au x
vers uch
ĠNaz is
Ġschie ben
bÃ¼rger meister
Reg ierung
stra hlen
stell ers
grÃ¶ ÃŁen
ĠR ote
ĠS ektor
ĠWohn ort
ĠSan kt
Ġverring ert
ĠNach denken
ĠL Ã¶cher
w ord
ĠLiefer umfang
w Ã¤nde
ĠHaft ungs
ĠY or
ĠEin spar
Ã §
Zur Ã¼ck
ĠSonnen untergang
sk arten
Ġgrund sÃ¤tz
Ġre volution
ĠKon serv
ĠEin kaufen
ur es
Ġzunehmen de
ĠMar i
c ol
ĠSch ott
ĠGed icht
Ġge ehrte
f irma
ĠAuf wendungen
ÃŁ chen
ĠFrÃ¼hl ings
Ġt eile
f abrik
Ġange stre
ĠÃ¼ bel
ĠDeck el
Ġer eig
ĠBo hr
ĠTag ungs
ĠÃ¼berw achen
ĠAr sch
ĠEin reise
ĠzÃ¼ gig
Ġh eben
Ġum liegenden
Ġer sichtlich
ĠIntens iv
ann a
ĠZukunft s
Ġre gen
opt ionen
N et
koch er
Ġzukunft s
rech ner
ĠSÃ¤nger in
m eist
ĠK lagen
Ġplatz iert
) -
Ġeinzu gehen
Ġgeist ige
ĠOl denburg
ĠAb wasser
Ġ2 30
ĠNieder schlag
gest alten
ĠsÃ¼ ÃŁe
Ġgleichnam igen
ĠDeb Ã¼t
ĠBeob achtung
ĠVor fall
ĠWohl stand
ĠEinzel handel
geb irge
M aÃŁ
ĠAbs icherung
Men Ã¼
ĠFahr rÃ¤der
ĠSchw ung
Ġgek Ã¼ndigt
ĠM ega
ĠH atte
ut scht
et ische
ĠGeschÃ¤fts jahr
ĠMater ie
R at
Ġversch Ã¤r
ĠP i
ĠBetreu er
Ġgr aus
A usst
wei ht
ĠT R
ĠP akete
aff ee
ĠPu ls
ĠChar l
ĠJeden falls
Ã¤cht igen
k auft
w itz
Tag es
ver teilung
k y
id akt
M E
ĠSch aut
ĠDe pression
ĠGesch ichts
t op
ĠReg ister
Kan al
untersuch ung
sp ause
ĠWh irlpool
Ġges unken
H A
Ġz itiert
ĠTre k
ĠMal erei
Ġdamal ige
Ġober ste
I O
ĠB auf
Die sen
Ġabsolut es
ĠBerufs leben
ĠVerteid igungs
ĠVor wurf
ĠKar ib
ĠZ iffer
Ġstrateg ische
F L
ĠL ove
ĠSch lafen
Ġzu einander
ĠP ak
9 3
st eig
on om
is ierungs
ĠStr assen
Ġveranst alten
ĠSp eich
ĠRes onanz
Ġweiter geht
ĠPlay Station
ĠWohl fÃ¼hl
Ġenor men
ĠChar les
min Ã¼t
ĠUnter bringung
ĠDem okrat
ber ufen
ĠReda kte
Arbeit s
Ġhin unter
gesch mack
ĠS qu
el ekt
Ġeiniger maÃŁen
Ġder jenige
ĠKo blenz
ĠSpe ed
Inter view
ĠInter aktion
og an
Ġvorgesehen en
ĠSoft war
ĠKoordin ation
Ġkauf mÃ¤nn
Ġsch ieÃŁen
Aut or
aus bau
ĠSau di
ĠPresse konferenz
ĠCh ic
d irekt
lowak ei
ĠFrÃ¼hstÃ¼cksb uffet
Ġm isst
ĠLehr ern
ĠDu b
Ġverm isst
wÃ¼rd igen
f ragt
rÃ¤n kung
K ommen
ĠRat schlÃ¤ge
Ġ197 6
ist ern
ĠCop yright
ĠFrei e
ro gen
Ġ197 3
st atten
ĠSomm ers
Ġv ol
Ġben utze
ĠHoff entlich
ĠR asse
Ġfort gesetzt
verk auft
âĤ¬ .
Ġidentifiz iert
zon en
em an
r atze
ess eln
ik alen
Ġs itze
rech net
ĠP ad
H el
Ġwir kte
ĠBe freiung
ĠInternet auftritt
ĠCann abis
ĠSk ulpt
ĠstÃ¤dt ischen
versicher ungen
T yp
ĠZ will
hers age
ĠStraÃŁen bahn
kul atur
ĠTran sp
App s
s ack
Ġge fÃ¼hl
ĠGrund stein
ges ucht
re a
ĠM id
ĠJahr t
ĠN adel
ĠEin igung
ĠImplement ierung
Ġstrateg ischen
Ġaus nahm
Ġhochwert ig
Ġleben sl
ĠCre w
ĠGe stern
ĠS un
Ġtau cht
schul den
ĠK iefer
Ġver lei
Ġbelieb ig
Ġhol te
ĠDe vel
lo ÃŁ
st Ã¼r
Ġausge ht
art igen
Ġeinsch Ã¤tzen
utz te
ĠMaschinen bau
ĠBesser ung
M Ã¤r
Ġspiel ten
ÃŁ end
Ġ12 00
k os
bei spiel
ĠRoh stoff
f aktoren
Lie ber
Ġf lieÃŁt
ĠHalte stelle
Vert rag
ĠEurope an
ar ing
ĠKatastrop hen
na he
al in
Ġvers icher
ĠKais ers
ig ant
Ġeingest uft
ĠKl icks
ĠHe ad
ag anda
ĠBern hard
Ġfestge legten
: )
ĠJubilÃ¤um s
Pro jekte
Ġver kehr
z ins
Ġf Ã¤h
Ġk rimin
ĠmÃ¤nn lichen
stÃ¤d ten
men ade
ourn alismus
ĠFol gendes
Ġzusammen ge
hol m
Ġer frischen
O D
Ġ196 9
ĠIm port
ĠAn forderung
ar me
Ġkorre kte
S orry
wÃ¼rd igkeit
Ġumfassen des
as k
Ġan klicken
Ġgew Ã¶hnen
M il
ĠC reme
ĠGes etzen
Ġlern te
il ometer
Ġmach bar
ĠR ainer
Ã¤uf en
ĠJ h
Ġpro b
ĠSchei be
je ct
umm eln
ĠCheck liste
ĠSchnitt stelle
ĠProgramm ierung
ĠGroÃŁ eltern
ige bie
ĠG leiche
Ġbeh ei
Ġverb orgen
Ġfach liche
ĠP HP
sp ann
T F
Ġauf gelÃ¶st
ĠRenten versicherung
Ġsex y
Ġt rop
Ġ196 7
Ġein bezogen
Ġbem erk
ĠBer echn
ĠEin zig
ĠLiefer zeit
ĠFeh lern
Ġrepar ieren
it Ã¤re
c u
ĠRuhe stand
ĠSteuer berater
ĠBox en
ĠR itu
wissenschaft ler
Ġgel d
Ġprofession eller
v es
S tell
Ġh elle
ĠH amm
Ġaktu eller
ĠBeg rÃ¼ÃŁ
Ġfehl te
ĠSe el
Ġk ehrt
Ġd o
L ass
ĠSp ot
ĠV iew
Ġrelev ante
Ġein setzt
Ġeinzu sch
Ġdokument ieren
ĠO scar
Ġsch ritt
sch atz
ĠZertifiz ierung
Ãĸ sterreich
Ġf rist
Leist ung
Sch ade
ĠZ wer
ĠZentr ale
Ġlie ge
ĠEr lÃ¤uter
Ġausge wertet
Ġf ra
ĠKonfigur ation
ĠVerm ietung
umm el
Ġgep ostet
wander er
Ġvor der
Ġher ab
G eld
ĠAn bieters
isten ten
amer as
kom bin
Ġdurch zu
Ġange z
sb esch
fil ter
in ett
eg net
ĠPro zessen
ĠSpr ich
zur eichen
Ġ24 0
Ġm ent
Mag azin
neh me
Ġan regen
ĠKontakt ieren
richt linie
ĠZ unge
ĠBef ragung
verbind ungen
ĠImp uls
ĠDe ko
L C
am eister
hÃ¶ re
ĠIH K
ĠI CH
Spiel er
ĠNett o
b rÃ¼che
ĠfÃ¼r chten
ĠGroÃŁ stadt
Ġbevorzu gen
Ġget rieben
Ġtags Ã¼ber
dem okrat
ĠVers uchen
ĠVervielfÃ¤lt igung
f and
Ġvorliegen de
ĠVertrag spartner
ĠOffen heit
ĠM Ã¼hl
ĠAb solventen
Ġab lehnen
ĠSch rÃ¶
ĠHy per
ĠLekt Ã¼re
ĠSchwei ÃŁ
k enn
Ġentsp ann
ĠW id
ĠC ollege
A h
Ġern Ã¤hren
N S
steil nehmer
Ġs au
ĠC ott
ru hen
ĠÃĸff nen
Ġfl Ã¼ss
W F
k ategorie
o fern
mitglie dern
ĠGrund sÃ¤tze
if te
n y
in halte
An dere
ĠSie mens
ik ale
Ġnach folgend
h ip
ĠEreig nissen
richt igen
ĠLog ik
ĠVer ab
b at
ĠH alter
ĠSa arb
Ġnutz bar
ĠK i
ĠTrad itionen
Ġbet reffend
mÃ¤ÃŁ igkeit
ĠEin sÃ¤tze
Ġ/ /
oll eg
w atch
Ġbel eg
ĠL ar
ĠSÃ¼d amerika
ĠAus fall
ĠKandid at
Ġpart ner
Ġabsch lieÃŁend
Ġt rauen
art h
schrau ber
Ġanspruchs volle
ĠI C
T rainer
ĠBundestag swahl
Ġdeutlich er
ĠRe v
Ġblau e
ben e
ĠPat rick
wer bst
I mm
unk eln
ĠTrans aktion
ĠRe den
me tern
ĠGabr iel
ĠPrin zessin
aus flug
Part y
ĠNeu kunden
kon stru
Ġsort iert
r un
ĠT reue
mit h
ĠM bit
ĠSch lu
Ġvergangen e
ĠHer d
ĠK Ã¶pfe
Wer bung
c odes
ĠA chten
Ġgest ohlen
ran chen
ĠGer ichten
ĠÃ¶ffentlich er
Ġlog isch
sp rit
s ommer
Ġaus bauen
wie se
ĠGeschÃ¤fts stelle
programm s
ĠAus kÃ¼nfte
ĠEvangel ischen
ĠF Ã¤cher
ĠW Ã¤hrungs
Ġfl ach
ĠArgentin ien
ĠO pern
ĠT ime
ĠRei chen
m isch
Ġs eh
il eg
ĠL ichter
ĠK lub
ĠlÃ¤ st
ĠVort rÃ¤gen
L ange
ĠCre ative
ĠRei sel
Ġgest richen
Ġverlin kten
it enk
Ġw undert
kle ber
Ġemotion ale
ĠH ilfen
an fall
Ġwirk liche
ĠE rot
ow ski
ĠBestand teile
ĠWei ÃŁen
alb um
ĠSol ange
Ã¼b ungen
ĠB ag
ro hr
Ġar men
Ġer bracht
ĠRes earch
ĠMel de
i h
ĠAuff orderung
p rinzip
v ielleicht
st reit
Ġgesch ossen
r aus
Ġs er
Ġs hop
ĠE DV
sel bst
on enten
ĠApartment s
Ġ Ã¤nder
sta ats
Ġdetaill iert
ĠIn dustr
ĠEntsch luss
ĠL ong
Ġsonder lich
ĠH ack
Ġveran l
sprÃ¼n glich
ĠPh otos
ĠkÃ¼nstler ischen
c am
Ġzwe ck
Ġhatte st
uer st
Ġf rau
si bil
ĠErkenntnis sen
dien sten
ĠHER R
ist isches
Ġvorh ers
ĠGesprÃ¤ch s
Ġermor det
ĠwÃ¼n sch
Ġz ogen
In zwischen
M I
Ġzeit weise
st Ã¼nd
siden tschaft
Ġverbunden e
bedien ung
Ġn ackt
ĠG ust
ĠgemeinnÃ¼tz ige
ĠT arife
ĠDe fiz
ĠR hythmus
Beit rag
unter halt
Ġignor iert
ĠErschein ung
i hr
ĠHeiz ungs
andin av
Ġd icken
Ã³ n
ĠKor ru
Ġkorrig ieren
v om
Un s
ĠSch eidung
ĠState ment
ĠTÃ¼b ingen
k rain
Ġbedeuten de
ĠCE O
Ġk Ã¼hlen
ĠPlan ungen
u ckt
T raining
l an
preis es
ĠRezens ionen
EN T
ĠGelt ung
W Ã¼rde
ĠÃ¶ff nete
ĠX P
Ġl iter
ĠnÃ¤her e
ĠAutor s
ĠR anking
ĠEin bruch
Ġli mit
Ġe Bay
Ġm ind
ĠEle f
ĠRad fahren
ĠSab ine
ar ren
Ġabzu geben
ĠM un
ĠLei h
wert ige
ĠB ell
ĠÃ¼ber schau
ĠstÃ¶ ÃŁt
ite ls
ĠSachver halt
ĠF aszin
S zene
ĠModern isierung
Ġfest genommen
ĠUS D
ĠL ampen
ĠVor rat
spekt ive
Ġer ober
ograf ischen
M eister
B R
sÃ¤ uren
ĠWuppert al
ĠAdmin istrat
st iegen
Ġins ofern
ĠSchul z
ende l
Ġverank ert
S ei
ic ation
ĠOrganis mus
orient ierung
ch tem
Ġk usch
Ġd iente
Ġintegr ierten
ĠH aup
Ġerfolgreich sten
Ġfil tern
Ã¤ gung
ĠMit ternacht
ĠArbeits bedingungen
ĠH ong
Ã¤ ure
ĠFil iale
ĠI sol
br onn
ro cken
sk arte
ĠC ab
Ġverwende te
Ġle eren
ĠAugen merk
Ġrei z
ĠLad y
Ġpriv ater
ĠBe weise
ĠAnstren gungen
L o
l euten
ĠMod us
ĠÃ ł
Zul etzt
Z uerst
Ġverw andeln
Ġsich ert
ĠFil ialen
ĠDiagn ost
ig ator
b rochen
be ziehen
schein ungen
gesetz e
M ai
ĠJuni or
Ġgel b
z eilen
Ġerz ielte
ĠEinz ige
ĠBer ichten
Ġbed roh
ĠOn kel
un ft
Ġun wahrscheinlich
Ġpf lege
al on
Ġan gerufen
Ġnormal er
vent ionen
auf gang
Ġmag st
ĠQu ell
ĠDe ad
ĠP ion
Ġkauf e
ĠT OP
all t
ĠT eich
ĠbestmÃ¶glich e
ĠstÃ¤rk sten
ĠP V
O ne
ĠFr isch
ĠMini bar
w ing
Jahr es
t isch
Ġuner wÃ¼n
ent um
pass ungen
Ġge Ã¤uÃŁert
ĠHar z
t agen
ĠZu schauern
bÃ¼r os
ĠProf ess
fl ix
Ġw eichen
ĠH ert
ĠAl ben
ĠDekor ation
ĠSch affen
ĠG aming
ĠAuf regung
im ilian
ĠSp Ã¼l
Ġsteigen de
ĠO pel
polit ischen
ĠHer zlich
uld ig
N ov
ĠProblem atik
ah ls
ĠM Ã¶rder
ĠKonsequ enz
ĠzuverlÃ¤ss igen
Ġgelegen e
Ġ Ã¤sthet
p reisen
?? ??
sicht liche
sp rÃ¼che
antw orten
ĠSie gen
Ġspezif ische
ĠHand ball
Ġ19 30
Ġteilnehmen den
ĠX X
Leben s
ĠAd am
ĠB eil
ipp t
che ck
Ġt ausende
ĠInner e
ĠVolks wagen
ar ier
ĠB Ã¤r
ĠSp ir
st eigt
En g
ĠDra ht
in vest
Ġerst attet
ĠProtagon isten
Ġf lÃ¤chen
ge heim
mon aten
ĠschlÃ¤ ft
is l
an bul
Ġg renz
ĠMaÃŁ stab
Ġlecker es
ĠVerband s
Ġer lern
ĠC ater
ma ster
vor stand
spezif ische
Ã¤ sch
ĠStreit igkeiten
Ġi sol
ĠF ron
ĠFahrzeug s
ĠAuÃŁen bereich
Ġad min
K V
B lu
ĠBundes lÃ¤nder
b rot
Ġ ende
Ġirgend eine
ĠTher m
Po int
ĠR SS
T hemen
Ġi sst
se g
r ett
ĠAus sen
Pl us
ech ter
ĠGer Ã¼chte
Ġver zeichnen
Bei spiel
ĠNewsletter s
a e
k rÃ¤ftig
ĠSch u
ĠHaar en
ĠKar ne
f ans
sk ammer
iter ran
ĠOrt es
ĠGet reide
an isch
Ġanzu zeigen
ĠBÃ¤ der
Ġf ilm
K lass
Ġlust ige
ĠR eu
ĠAdvent skalender
Ġre det
ĠGeschirr sp
Ġbew orben
D om
ĠPanor am
her um
amer ikanischer
ĠFranz osen
lÃ¤nd ische
auf lage
sp ur
ein g
ĠLehr erin
ĠLieb haber
ĠerwÃ¼n scht
Ġber uhen
ri um
S omit
verantwort ung
ĠKauf mann
Ġau gen
âĢľ ).
ĠVerk nÃ¼
ubil Ã¤um
Ġbast eln
an ia
ĠWart ungs
K opf
Ġattrakt iver
ĠFÃ¼hr ungen
uÃŁ t
gren zung
ĠKum pel
ĠW Ã¤rm
Ã¼t zte
ĠtatsÃ¤ch liche
al tern
ĠAma te
ĠSp ender
ĠNeu jahr
p i
app t
ĠM is
ĠÃ¤uÃŁer en
ĠC our
Ġim plement
ĠRe flex
ĠSel ten
ĠMag net
ĠSubst anz
Ġberuh igt
Ġer fahr
ĠSport arten
ĠFlie ger
ĠZ Ã¼gen
ĠSc reensh
ĠZigar etten
Ġberecht igten
ĠIn dust
W Ã¼n
ĠM ast
ĠSpezial ist
f ield
G eht
ĠSing ap
Ġgest altete
Ġer tragen
arn t
ĠBor ussia
Ġreich te
ĠJugend arbeit
ĠV el
ĠÃĦ sthet
ĠeuropÃ¤ ischer
ĠSo cken
ĠRund gang
ver zeichnis
ar o
an gel
ber lin
Ġtelefon ieren
reg ionen
ĠOr gel
ĠMenschen recht
Ã¼hr ungen
ĠA V
Ġpop ulÃ¤r
Te ams
Ġkommer ziellen
Ein mal
b om
stell igen
s dorf
m odus
ĠSozi ale
Ġeffekt iver
ĠGefÃ¼hl en
Ġplatz ieren
gemein schaften
Ġman ches
gar ter
Ġh ellen
stre ck
ĠÃľbrigen s
ĠZahl ungsver
ĠIr rt
ĠB ob
ĠL etzte
Ġbegehr t
ĠZ iff
tell ekt
Ġaus drucken
ĠSubst anzen
ard o
Ġa chte
In ner
m Ã¼n
zeug nis
ĠV alle
Ġrecht swid
Ġpein lich
ĠClau dia
Ġgetr enn
Kreis lauf
Ġn ass
9 1
spro jekte
Ġgerecht fertigt
ĠgroÃŁart igen
ent s
Ġun ges
ĠP res
Ġbede ute
Ġheraus gegeben
ĠUl m
Ġi Tunes
Ġfach lichen
Ġeigen s
od or
P e
ĠAb bildungen
sp annung
S aison
ĠTab ak
ĠC ra
ĠÃ¼berw acht
ser gebnisse
ĠE L
Ġqualifiz iert
ĠMittel stand
Ġunver Ã¤ndert
st et
esen de
Nie der
ĠCh ines
ĠJ A
ĠRelev anz
Ġleb ten
st rum
mil ch
Ġber eichern
ĠB lei
schie bung
ar is
ed a
kon sum
Ġviel ver
N ame
ĠjÃ¼ng ste
liefer ten
stÃ¶ ÃŁe
b isch
herr schaft
ron e
ĠGesch lechter
Ġmit gebracht
Ġselten er
Ġerst atten
Ã¤t igkeit
itz el
ĠFac etten
Ġspr achen
ĠVer marktung
Ġheraus zu
ĠR i
ĠGut haben
EL T
polit ische
ĠHal binsel
ĠAuszubilden de
ĠR inge
Ġv eget
ĠP N
ĠRÃ¤ der
ĠAt hen
Ġorigin al
Ġ197 1
mit arbeiter
Ġw echselt
ĠF as
an fang
G rÃ¼
ĠRat es
ĠAb holung
Ġober halb
uld igung
M y
T el
Ġgesch eitert
verfahren s
Ġm ochte
f Ã¤nger
zut ragen
Ġorden tlichen
ĠFach leute
wend bar
ĠKennen lernen
Ham burg
ĠKarib ik
ess ischen
gewinn ung
ĠÃĸffentlichkeit sarbeit
Ġn etter
ĠDemonstr ation
ĠF inde
ĠLebensst il
7 00
ĠMobil telefon
f isch
k amp
ĠF ieber
Ġverl etzen
ĠA ar
ĠHe alth
Ġbeeindrucken de
ĠRad fahrer
Ġgrat ulieren
ger echten
Ġind irekt
ĠVerkehrs mittel
er lebnis
ĠT ram
ĠUnter schrift
ĠH i
al itÃ¤ten
ĠBe arbeitungs
Ġverschen ken
he ater
ĠBr utto
H ei
Ġdort igen
Ġdeaktiv iert
Ġrecht fertigen
Ġherzlich es
? âĢĿ
ĠEs c
Ġerinner te
Ġins oweit
Ġwo anders
an frage
Ġer richten
ĠSal es
ĠS AT
ĠB urn
ĠGerichts stand
Richt linie
ĠP auschal
Ġpro min
g ischen
fr ier
Ġam b
ster ben
fe ste
g on
P L
B ike
ĠErd gas
ĠIrgend wann
ĠH armonie
ren zung
c ont
Ġaus zur
ĠE volution
ĠEnt deck
ĠEngine ering
ĠS aft
Ã¼r ze
Ġabgeb rochen
lu ten
Ġbay erischen
Ġcool e
ĠVor lieben
An schlieÃŁend
Ġbesch loss
sprÃ¤ sident
Ġheraus gefunden
A p
ĠYo ung
ĠFlor ian
ĠG G
ĠLin den
ĠJ ones
ĠPsych otherapie
ĠberÃ¼hm t
betrieb nahme
ĠSch alter
K irche
Ġw ind
u dent
Ġver geht
Fahr er
Ġuns icht
Ġdrin nen
ĠEr mittlung
ĠBi ologie
V ER
ĠVis a
ĠFir st
Ġbedeutend sten
Cook ies
ĠOze an
Ġh ob
si der
ĠFo und
an schlag
Ġg igant
g Ã¼ter
ĠD orn
for scher
Ġde ckt
Ã¶s ungen
ganis ationen
Ġer teilen
F T
Ġgen Ã¼gen
ĠFre quenz
ĠJ ord
Etw as
Ġniemand em
Ġge steckt
Ġgrundle gend
ĠPal ma
ĠerwÃ¤hn ten
Ġkl ang
ehr ten
ĠGeheim nisse
ĠR oland
N Ã¤ch
Ġger einigt
bed Ã¼rf
ĠEr t
S ymbol
ĠEinkommen s
ĠGlob alisierung
Ġirgendw el
ĠBesch lÃ¼sse
bl in
ĠLe x
iss heit
ĠLa ien
Ġeinge leitet
sk rank
Ġb spw
ĠEth ik
Aug ust
a dern
ĠT reib
Ġwitz ig
Ġverst oÃŁen
ĠPil oten
if y
Ġnachge dacht
ĠHallo ween
ĠK y
g eiz
rei tete
Ġbl ind
ĠJahrh underte
ĠNord see
ĠUnterstÃ¼t zer
ĠBeschÃ¤ft igte
Ġbe wirkt
ri an
freund licher
ĠMa j
ĠSch Ã¼ssel
Ġfort setzen
Ġberuf s
ĠAb bildung
u en
ul ierten
mark eting
Ġentsp annten
T err
ĠWirk ungs
ha in
Ġverlei ht
Ġtro ck
k amera
D oppel
ĠTeilnehmer innen
vers uche
ĠUnter sch
ĠReparatur en
Ġpro test
ĠP ech
Ġgar nicht
ĠD iv
ĠZwie beln
ĠTot al
Ġh ielten
J es
ĠÃĦrzt in
arch ie
Ġ20 30
pal ette
ĠGlÃ¼cks spiel
port ieren
regel ung
ĠVersp Ã¤t
ĠSand strand
Ġzug ute
ĠEr reichen
fÃ¼ t
ĠSn acks
M ill
ĠAus lieferung
Ġ19 38
Ġignor ieren
ĠVor lagen
ĠVerkehrs mitteln
f ung
ĠUn ited
ir en
ĠStraft aten
pr iv
Ġsch reib
ĠProblem s
dienst leister
Ġauf weist
r ichtigung
ĠannÃ¤h ernd
ĠIm plant
ĠSowjet union
ĠInform ieren
B IT
ĠK rem
cl us
st ift
T ats
ĠRo uter
ĠSh utt
Ein zel
fl ikt
Ġb ringe
gesch ehen
H eim
ĠSch recken
ĠLog in
Ġzu genommen
Ġspannend es
et ag
ET Z
sver trag
Ġâ Ļ¥
Ġn ich
ĠPlan et
Ġanzu geben
N C
ag ern
An alyse
ĠLebens raum
ĠWolf sburg
ĠMan fred
o ft
Ġlangsam er
Ġentde ckte
Ġd Ã¤n
ĠM aps
B D
ĠSS L
Ġbe zwei
skont rolle
bau ung
ĠPrÃ¤ z
G EL
ĠÃľber gangs
p le
ĠProgramm ier
s achen
ĠZusammen stellung
Ġmer ke
at iker
B EN
Ġorden tliche
or ch
sch ritte
Ã¼n dete
ian er
Ġkop iert
ĠH aufen
ĠAtl antik
br icht
Ġh eilen
ĠL iss
ĠKopf hÃ¶rer
Ġbe weist
stag s
ĠMail and
ĠVor wÃ¼rfe
ĠBlock chain
ĠLu zern
Ġbemerk bar
et wa
Ġauf zeigen
ich en
Ã¶r n
sp ringen
ĠAl fred
ĠÃ¶k ologische
ĠReicht um
Ġbeseit igt
ĠkÃ¤ me
Ġentsp annte
et ischen
ĠArch Ã¤
ĠErf indung
Ġ- ,
ĠGe webe
Sch Ã¼ler
n ommen
fest ival
ĠIm per
Ġwunder volle
ĠlÃ¤ch elte
Ã¤ mmer
Ġd is
ugie s
Ġbe ansp
Ġsp Ã¼rt
Ġbeg renz
ĠSo ur
ĠMin us
ul den
ĠRaum fahrt
ĠSp ace
p eln
ĠC ust
W olf
ĠTut orial
orient ierten
ul are
S im
Ġverlin kt
ĠN orth
ĠExpl orer
ĠjÃ¼n gere
zahl er
g ische
ĠP ers
test s
Ġm et
ĠN est
Ġident isch
B O
ĠInterpret ation
Ġausge drÃ¼ckt
Ġaus schlag
ĠFe ste
ĠhÃ¼b sche
ĠtÃ¼rk ische
ommun ikations
ĠDatenschutz beauftragten
Ġd ownloaden
Ġbas ierend
Ġbew aff
ĠP ille
Ġge packt
Ein stellungen
Ġern euert
B Ã¼r
liegen de
ĠMess ung
Ġgef l
Ġnett es
hr t
al ia
r ar
ĠL ifestyle
ĠGem Ã¤lde
H E
ĠMit hilfe
Ġna ht
Ġge stellte
ĠAL L
ĠSymbol e
ĠKrimin al
Beweg ung
ĠFass ade
ot oren
Ġs aison
ĠVerz icht
ĠFÃ¤hr e
ĠProp he
be zug
vert rÃ¤glich
ĠSch wert
onn a
affen heit
ĠAb nahme
Ġr ass
Ġgest eigert
komm ission
Ġselten en
ĠApothe ker
ĠV olle
neu e
ivi den
P reise
ĠP ader
Ġkrie gt
Ġb aden
ĠKlin iken
ĠCh i
E uropa
M P
ĠNa hen
ĠBack up
Wind ows
Ġman gel
ĠDe pressionen
d ringen
M L
ĠRuf nummer
ator ium
Ġun gen
ĠPlug in
gest immt
wei hnacht
ĠzurÃ¼ck halten
ungs zeit
wart ung
ro om
Ġeinzu halten
we ster
ĠMie ten
Ġsch alten
ĠSelbst bewusstsein
ĠL ediglich
Â ¶
Ã ´
I EN
Ġk ar
ĠerÃ¶ff nete
ĠGem Ã¼t
ĠD EN
Ġ4 000
ĠAn al
In formation
ĠSt urz
ĠM es
Ġp ra
ifik ations
c reme
ĠP ed
k Ã¶pf
ĠÃ¼ber lebt
Inf rastruktur
ĠCh allenge
Ġintelligen te
ĠKn oten
Ġschnell sten
m i
Ġener get
en ce
ĠGe fallen
ĠArchite kt
ĠMitarbeiter in
Ġwahr sten
ach el
Ġschwei gen
op s
ĠBe stÃ¤t
h art
schie ÃŁen
Ġvert rieben
ĠWohn flÃ¤che
freund lichkeit
ĠgegrÃ¼n dete
T ech
ĠText es
Ġzu ver
ĠstÃ¤r kt
ĠSur fen
Ġschreck lich
k art
co unts
Ġwie gt
m os
ĠStra hlen
ĠBundesk anzlerin
ĠProjekt management
Ġverbr achte
k abel
iz ip
ĠSter ben
Ã¼t teln
ĠAn leitungen
ĠgÃ¼lt ige
ĠAutom aten
ot herapeut
ĠA K
ĠVis um
Er ste
ĠU s
ĠGen f
ĠRe duzierung
Ġre stau
all i
ĠG ern
ĠFor ums
ĠWir kungen
Ġprim Ã¤r
el ine
Ġausge fÃ¼llt
Ġge forder
ĠSch immel
geb ungen
Ġer fahrt
Th omas
ĠItalien isch
zwe cke
Ġeinmal igen
ĠMar co
sf ers
Ġab rufbar
Ġunglaub liche
ang abe
kom fort
ĠIn sofern
Ġabsolv ierte
af eln
Ġan fallen
Ġmus lim
ĠStaats bÃ¼rger
Ġentsp annter
ĠApp etit
L icht
S I
ĠbegrÃ¼n den
ĠSch ichten
P resse
Ġwissenschaft licher
re st
ul ette
f oto
Ġge druckt
besch eid
sf eier
verk usen
all em
Ġlang es
ĠThe ologie
Vers and
ĠMar ok
Ġin begriffen
Ã¼t zer
Ġges ell
au ger
Ġh arm
m assen
Ġausge de
ver mittlung
eb urg
K rit
Ġh Ã¤us
Mart in
ĠV at
Ġsp eichert
ĠgroÃŁzÃ¼g ig
die se
Ġg Ã¶t
ĠBeispiel en
ĠEv alu
ĠS endungen
spe zial
System s
sch ancen
M acht
ĠP otter
S an
Ġeinger ichteten
ĠL ow
te g
Ġverzweif elt
ĠGen re
op ol
ĠK anzlerin
seh er
ĠDe te
st rÃ¶
res pon
Ġst Ã¼nd
ĠÃ¼ blicherweise
Vor aus
ens ation
v ard
Ġsonn igen
Ġwirk lichen
nehmlich keiten
Ph il
ĠEl ite
m asse
ĠFort geschritten
M odern
ĠBundesver fassungs
ĠKÃ¶st lichkeiten
ul ationen
ĠU we
eier mark
Ġauf rufen
zen zen
heit lich
ĠBre xit
ho ckey
Ġh ung
ĠBur ger
ĠP ho
W il
ĠTier heim
ĠH Ã¤tte
ĠKapit alismus
Ġun zureichen
ĠPen is
ĠEnt sprechend
Ger man
Ġunter zeichnet
ĠK rÃ¤ften
ĠVerd au
Ġdurch gesetzt
ĠEntsch Ã¤digung
L ernen
dat ei
Ġent fÃ¤llt
Sch lieÃŁlich
ĠL ampe
Ġalles amt
b licher
Ġb rand
sor ganisation
! ).
Z E
obl auch
plan en
ĠWarte zeiten
Mit tel
z ed
l ach
hin weise
Ġverm ieten
, âĢ¦
ĠMor al
Ġunbe w
ur teil
weiter lesen
Produ kten
ab on
te u
ur ger
ĠsÃ¼ ÃŁen
ĠZ aun
ĠmittelstÃ¤nd ische
Z eitung
ĠAlters vorsorge
ĠO N
p Ã¤
he er
Ġtraum haft
ĠWeihnacht sb
y o
Ġte uren
ite kt
Z oll
ĠArt s
w ichtig
ĠGen auso
ĠIn klus
ĠHor ror
ĠE ZB
Ġmont iert
lay er
halte stelle
ĠBeam te
Ġbelieb igen
ĠEr ster
ĠSch rauben
Ġin ne
Ġgelungen en
Ġbet onen
C omputer
Ġunter m
ĠBesch affung
dienst leistungen
um er
ĠT olle
ĠKonkur renten
Produ ktion
US S
ĠH eiÃŁ
ĠKat har
Ġentstanden en
Ġf reitag
Ġvern Ã¼nftig
Ġdeaktiv ieren
ĠRot h
ĠSt y
Ġver lieÃŁ
ĠN omin
Ġreibungs los
ingen ieur
ĠB L
ekt iv
c ent
ĠPhil osoph
ĠBlu es
ĠSemin aren
familien haus
pro zent
Ġspeziell es
ĠS lowen
ĠzuverlÃ¤ss iger
Eben so
ĠPreis ver
Ġform ulieren
a j
ĠAkt uelle
Ġg rauen
at zen
Off ice
fahr zeugen
ĠB anner
ĠD HL
ĠwÃ¼r det
Ġbe kl
Ġent z
ĠSp l
hinter grund
iz itÃ¤t
ĠDÃ¶r fer
pf leger
ĠAus wÃ¤rt
ĠPl Ã¤tzchen
al ischen
ĠsÃ¤m tlichen
ĠMan ip
ei hen
b Ã¼chern
Ġerk annte
zeit lich
ĠKapit Ã¤n
ĠSe kund
ĠA cker
sam er
Ġehemal iger
ĠJahr esende
ĠEl ementen
ok umente
ĠK ater
ĠM etz
h allen
ĠAnge stellte
ĠW eite
P rakt
sen dungen
k linik
ĠTeen ager
ĠLie ge
Ġlang jÃ¤hriger
Ġf rustr
R oll
S ex
ĠVorstand es
maÃŁ nahme
at men
mal t
Ġf ielen
Ġun voll
ĠK orn
Ġvor teil
Ġbest raft
z ielen
Ġun zufrieden
ĠC ommun
Ġfach lich
reichen d
ĠGlÃ¤ ser
ĠSch eitern
grÃ¼n det
Ġperfekt es
ĠSel f
ĠSk igebie
ĠGel b
Ġhoch laden
os kop
ĠCD s
ĠMÃ¼n zen
ĠDich ter
ĠK it
M ass
EIN E
Ġzahl reicher
ĠBe stes
Ã¼ chten
ĠErk Ã¤lt
ĠAn nehmlichkeiten
Ġrei st
ĠLeit faden
ĠEinkaufs mÃ¶glichkeiten
ĠDra ma
ĠgefÃ¤hr lichen
ĠKenn zeichen
ĠWissenschaft s
ĠAus gangs
Ġsepar ate
Ġvers uchten
ei fen
hedr ale
ob i
ĠC lin
ĠL kw
Ġw ehren
Frie drich
ĠVal entin
ch or
ver sch
Ġbed acht
ĠAll gÃ¤u
Ġben achteil
Ġeinge treten
Ġd Ã¼ster
ĠE go
ĠKron e
ĠKooper ationen
Ġaufge treten
re e
ĠprÃ¤ gen
Le arning
ĠAutomat isierung
on ial
roh ungen
Ġzwingen de
br un
sicht lichen
d ay
Ġc o
ĠEi weiÃŁ
an ie
om a
Ġauf tritt
ĠLager ung
ĠV od
ĠQualitÃ¤ts management
Ġmonat liche
ĠRefer enzen
lieben en
Ġkomment iert
ĠVer dienst
ĠN on
Ġnomin iert
Ġprof it
ĠW atch
Ġbemer kte
Ġstaat lich
Ġunmittel baren
ĠMult ip
ĠKlein igkeiten
Ġhochwert iger
fe kte
ĠT att
ĠVor schau
Ġdeutsch es
Ġverw altet
op ro
ĠKub a
ĠRe stau
B utton
um pf
ĠS i
Ġschuld ig
ĠArbeits weise
Ġphys ikal
ĠMÃ¶glich erweise
Ġteil haben
ĠRÃ¼ck fragen
part y
F acebook
ĠD og
ĠKer amik
ĠFeatur e
eu gen
htt ps
ruf e
ĠZu hÃ¶rer
ĠKap elle
Ġsepar aten
Ġh aften
ĠKram pf
Ġges enkt
ĠAb onnement
if ten
Ġl Ã¤cheln
ĠI ron
ĠDar an
Ġam Ã¼s
c up
ĠDis c
Ġpfl anz
Ġst Ã¼rzen
ĠEuropÃ¤ er
ĠVitam ine
Ġ12 8
T B
ĠIst anbul
ĠHaus aufgaben
Ġausk lingen
Ġhinter legt
us k
sp erson
sch ub
Frank furt
K rieg
ĠgefÃ¤hr liche
Ġb lin
Ġe G
Ġverb irgt
gro ÃŁ
Ġgesundheit liche
m edia
ĠÃľberw ach
Â ¤
ĠVort eilen
ĠL Ã¼gen
Sch laf
unter laden
iell er
ĠT il
ĠF oll
ĠPlug ins
ĠGn ade
f rem
Ġwei se
schei ben
Ġeinfach sten
ĠSchl imm
ĠgrÃ¶ sser
Ġherausragen de
beg eister
Ġf ung
ĠS orte
Ġer spart
ĠDaten banken
is her
ĠWieder sehen
ĠgrÃ¶ÃŁer er
ĠMar y
K S
G ruppen
gesch altet
ĠS R
ĠiP od
ĠNÃ¤ here
' .
ĠT ante
it us
ĠGrund gesetz
as ien
u hl
D G
Plan ck
stre am
) "
ĠAkt ualisierung
Ġab gebaut
ĠHum bold
ĠL Ã¼n
hÃ¶ fe
ĠR od
U l
Ġaus genommen
ĠN E
ĠN ummern
ĠDir k
B ack
st rÃ¤n
Ġerhol samen
ĠPay pal
Ġer r
Ġre gelt
ĠRos a
Ġauthent isch
ĠM ehl
ĠUm fragen
Ġanges p
richt ungs
ĠFle ck
ĠL av
ĠLe v
ĠBus h
ĠSonnen aufgang
ĠDiskuss ions
ĠStadt rat
ĠD rop
Her steller
si us
ĠWest ern
Ġspe kul
di mension
ild es
ĠH appy
Ġanfall enden
CH E
ĠLand wir
Ġbi ÃŁchen
ĠGesellschaft s
ĠT E
schÃ¶n e
Ġjung es
ĠAuszubilden den
ĠKont rast
Ġk rieg
bew esen
ĠSol o
n est
ĠG ei
ĠPartner in
ĠFlug hÃ¤fen
ĠUnter grund
ĠRout ine
ĠVersicher er
pflicht versicherung
ĠausdrÃ¼ck liche
ist ers
Ġreserv iert
ĠHeraus geber
w oll
Ġuntersch reiben
ĠBeding ung
te ams
Ġt agt
Dis play
Ŀ ¤
ĠNa zi
durch schnitt
ĠHanse stadt
Ġerwar te
h Ã¤lfte
ĠMindest lohn
ĠL eine
ĠkÃ¼nstler ische
adem y
Ġb Ã¶sen
kat alog
Ġl Ã¤cher
Ġindividu eller
ĠQu een
aus gleich
Ġkomp atibel
ĠDiagnost ik
ĠIntern etzugang
ĠAus b
Ġzie he
vers and
ĠEnergie verbrauch
ĠDub ai
Ġorganisator ischen
Ġelektron isch
FrÃ¼ her
Ġverbr ingt
ĠCh ip
k ok
Ġange zogen
Ġmass iven
ĠKrie ge
ĠE ig
ĠEr leichter
ĠEin bindung
Ġklar es
ĠSp iritu
ĠAuf zug
Ġausgieb ig
ĠAp ost
ĠFeier abend
Ġan stehenden
n ick
ĠGesch ick
ĠGel der
Ġentsprechen des
ĠUn fÃ¤lle
ĠBulgar ien
ras h
Ġehrenamt lichen
ein fach
w ell
Ġden jenigen
ĠStadt verwaltung
st our
Ġbes agt
Ġ194 4
ĠFlach bild
Ġkommun alen
Ã© e
ĠSohn es
lie ger
Ġrichtig er
Ġkon kur
Gro ÃŁe
ĠK au
ĠA ttrakt
ĠGerÃ¤u sch
ĠSt Ã¶r
Ġbeherr scht
ĠZ one
geb r
ĠFrise ur
ĠSpark asse
ĠKul isse
ĠPar ad
L ehr
achten s
ĠExempl ar
ĠT SV
Ġfrei em
n ose
ĠPf und
sst ruktur
Ġindustrie llen
sver l
Ġgelieb ten
oc us
ĠjÃ¼d ische
ers dorf
ĠSch ienen
ĠwÃ¼ tend
ra ht
ĠL isa
ĠN am
ĠElektro technik
berecht igte
it ies
Ġsch Ã¤r
Ver kauf
Ġh ind
spl attform
d irektor
Ġauszu bauen
ĠhÃ¶ch stem
ĠM ike
ĠExpl os
ĠBet rÃ¤ge
ĠTisch tennis
im es
Ġbr ennt
Ġver zeichnet
Ġeleg ant
ĠL eb
ĠhÃ¶her er
Ġ ).
ĠBl Ã¼te
stehen d
ĠRal f
spf lege
Ġabge deckt
ĠSt orn
Ġp auschal
Ġschnell es
ĠS M
ĠKont rollen
ĠL TE
Ġgeheim nis
P aul
ĠS itzen
ĠB Ã¤ren
ĠVerm utlich
Ġber ichteten
ĠSu iten
Ġauszu schlieÃŁen
H ans
Ġvor kommt
ĠnÃ¤ch stmÃ¶glichen
ĠLegen de
Ġverbesser te
Mode lle
j amin
ĠBeit ritt
Ġbes inn
Ġgel istet
Ġdies el
ĠF els
Ġ- >
ĠAus strahlung
f inder
rit ter
ĠEnter prise
ĠGl Ã¼h
ĠMas ke
Ġzu stehenden
Ġj eher
ĠVerb und
ĠEl be
b our
Ġl egal
Ġb aum
ĠOl dt
ĠMa hn
utt ons
Ġk B
ĠAn sehen
Ġerneuer baren
ĠR ussen
ĠBen ed
ĠKon rad
Ġfaszin ierende
ĠFlor ida
sst aaten
Recht s
Ġunterb rochen
Sch wer
ĠAus serdem
Ġgere det
stÃ¤nd iges
âĨ Ĳ
ĠKinder gÃ¤rten
R eisen
ĠSt ol
Ġna ja
bil dern
ĠFÃ¶rder verein
ĠTa gebuch
aut os
abl es
Ġf rie
age gen
ĠLi mit
eigen e
Book s
ph il
ĠK rei
P P
ĠMass nahmen
Ġein gesetzten
ĠdÃ¼r ft
ĠAb schl
ÃĦ n
Ġf ormal
Ġl enken
Ġlegend Ã¤ren
herap euten
St ick
j agd
Ġkomplex er
Ġaktuell es
Ġer halte
ĠDis co
ĠProt ein
An lagen
s Ã¤ule
ĠAuseinander setzungen
ĠnÃ¶r dlichen
, ,
ges inn
Ġverm eint
ĠGe wer
ĠKÃ¼nstler in
ĠSchuld ner
Ġver weist
ĠVor sprung
Ġan hÃ¶ren
ĠSh irt
Ġnimm st
ĠStutt garter
Ġ9 78
ĠTÃ¶ch ter
ĠSch am
ĠÃ¼ber setzen
krank en
Weiter hin
ĠAk kus
st Ã¤be
f ace
h ut
er ren
D N
ĠHeil ige
ĠVerm eidung
Ġgew Ã¤hlte
ĠEin lad
Ġbereit gestellten
Ġt a
ĠD re
M el
Ġf Ã¶rder
ĠHilfe stellung
ĠE quipment
ĠFeiert ag
ĠMÃ¶n chen
ĠWurz el
P rot
ĠAU F
u u
In vest
Antw ort
ĠEhe paar
ĠWe ster
r inger
fert ig
iker in
an fragen
ĠDurch bruch
me ckt
ĠAk adem
ĠVor verkauf
T reffen
Ġarab ischen
Don nerstag
Ġdauer hafte
ĠFavor it
P ersonen
ra els
ĠLehr krÃ¤fte
ĠSchwei gen
Ġnach her
Ã¤r er
k andid
ĠHe ck
ĠSchÃ¤ fer
T UNG
ĠfÃ¼n fte
Kon zern
ĠIn tel
Ġun auf
JÃ¤hr iger
ĠKolleg in
Ġf asst
ĠIn betriebnahme
Tool s
ĠHoch zeiten
Ġexper iment
ĠEnt sorgung
G et
Ġern annt
sch ungen
ĠLe verkusen
Ġdes ign
ĠfÃ¼hl st
Ġerweiter te
Ġall jÃ¤hr
ammt isch
ĠBom ben
Ġbeg Ã¼nst
K aum
ĠVerlag s
ĠWahr ung
sch ech
Ġb at
Ġins zen
ĠAgen turen
Ġvert ie
ĠA wards
] ,
Ġfreu te
R ot
ĠFach arzt
ĠPet ition
Ġfantast isch
obb ing
ĠF uchs
schul dung
m isse
Ġsamm elt
Ġgest alteten
ĠParis er
Ã¤ck chen
ussen dlich
em en
ick elt
Ġjur istischen
ĠÃľber setzungen
ĠauÃŁerorden tlich
Ġsch eitern
Ġ( âĢ¦)
ĠFreundes kreis
Ġunter richten
Ġ19 0
Ġaussch lieÃŁen
Ġgez Ã¤hlt
Ġgek ocht
K ommunikation
on ischen
Li fe
ĠKon stru
pro jekten
Ġreligi Ã¶se
ĠA T
Ġsp anische
ĠS or
se xtrem
ne cht
Ã Ĺ
ĠLa ke
ĠmÃ¤nn liche
Ġverf assungs
Ã ł
ĠAus lÃ¶ser
ĠkÃ¼nst liche
Ġvor anz
ĠFolgen de
A ud
ĠR iver
ĠTherap euten
Ġ: (
ei ÃŁen
ĠProf it
Ġeinzigart iges
f irmen
ĠD reck
ĠD ark
ĠAn wÃ¤lte
ĠSch af
setz te
ĠKohlen hyd
Ġgegen einander
ank a
ĠBau stellen
Ġ ort
Ġmut maÃŁ
ĠD Ã¤m
sch icken
af one
Ã¶nt gen
ĠHindern isse
ĠT aufe
ĠLe asing
Ġent nommen
Ġfach kund
ĠKre b
m g
ĠVer ordnungs
gesetz buch
ungs bereich
Ġsepar at
ĠKompro miss
ungsk rÃ¤fte
er l
ĠD ick
N eck
it uten
n ische
ĠSchm utz
h auer
ĠT ech
ĠWeb in
ĠI b
B L
ĠAust ritt
ĠSchl Ã¶s
I X
Ġverm issen
ĠZu vor
Ġk os
ungs los
ĠSchlaf zimmern
ĠAmts zeit
c ons
ĠSaarb rÃ¼cken
Ġmass ive
Ġ Ã¤us
h anden
d achte
ĠSch um
ĠBes eitigung
Ġg ib
Ġgesch Ã¼tzten
M G
ĠArbeits gruppe
hans a
Ġl uft
sst ud
Ġjahr e
lei te
ĠFl ut
Ġdem selben
Ġbefest igt
spar nis
Ġverb aut
sÃ¤ ure
heil kunde
Ã¼ len
ĠHaupt sitz
A ust
z o
Ġintern et
Ġabzu schlieÃŁen
and ra
: :
ĠHumbold t
ĠLand rat
Ġzus ehen
Ġ10 5
ĠInhaltsst offe
ĠAn gesichts
d os
h te
ĠLes ung
termin e
ge fahren
Ġstabil e
d rÃ¼
Ġentschuld igen
ĠMei stens
will ig
ĠSch Ã¶pfung
ĠWiderspruchs recht
Ġsympath isch
Schn ell
ver fÃ¼
ĠGo od
ĠÃ¼berfl Ã¼ssig
ĠVul kan
Ġverm ein
bau te
Ġverk Ã¼ndet
iger weise
ĠR ats
B al
Ġg rin
ĠSupp e
ĠBem erk
ĠChr ome
ĠServic el
Ġspann ender
ĠStaats ange
ĠHa art
ĠVor gÃ¤nge
vert rÃ¤gen
gemÃ¤ ÃŁen
freund lichen
ĠGrundstÃ¼ck s
Ġjeder mann
Ġnachfolgen de
am as
Ġan wesen
ĠPubl ikation
ĠGÃ¶t ter
Form ular
ĠZeit ungs
ĠAl gor
ĠSzen ario
Ã¼berw achung
ĠH ug
ĠFound ation
ĠR adt
ĠPla k
ym ph
IS S
Ġ19 39
Ã¶r tliche
Ġgesonder t
ĠMin er
c ar
ĠSens or
ĠDarlehen s
Ġm ega
ĠBill ig
V A
ĠEin heimischen
sport ler
ĠÃ¼ber zeu
ĠIngenie ure
geb nissen
ĠDisziplin en
Ã¼d igkeit
z Ã¤
den z
ir urg
ĠNational mannschaft
k leidung
ĠWelt raum
ĠFunktion s
ĠHÃ¶ hle
An ders
av ig
Ġein gebracht
ik alien
Ġau st
verl etzungen
ĠVer wertung
ĠWÃ¼r mer
bezir k
h us
Z itat
Ġ eil
ĠBre ak
ver schluss
ĠKn oblauch
ĠErsatz teile
ĠVerpack ungs
ĠConsult ing
Ġbe acht
h Ã¤nd
f low
ĠB aus
Ġb rÃ¼
Ġrob ust
ĠC orn
Ġwechsel te
ĠKnei pen
L aden
ĠFein de
ĠauÃŁergewÃ¶hn lich
19 99
ĠHer bert
k um
ĠNeck ar
sp aÃŁ
n chen
ĠPh antasie
schn ell
Ġhal tet
Ġal ters
Ġw andte
ĠG ymnas
Ġunter teilt
ry l
Ġw ettbewerb
F it
s heim
ĠTerror isten
aus sch
Ġb ra
ĠBestand s
y t
Ġn ehm
Ġfest zuhalten
Ġo bl
Ġsp aÃŁ
Ġw Ã¤rm
Ġkurz es
Ġer zeug
f ug
Ġanges iedelt
Ġum gew
Ok ay
ĠSt an
W ollen
pr es
Ġsex uell
ĠS agen
ĠG ieÃŁen
Ġbeschleun igen
rei fer
Ġetwa ige
ri o
ak el
ĠT ische
ĠAtl ant
Ġbenachbar ten
eb ung
Ġausge zeichneten
N ET
Ġw Ã¼sste
P rem
Ġauszu wÃ¤hlen
Ġzunehmen den
greif end
ĠKrypt ow
ĠBild es
Ġlo cken
e ber
ĠFra gebogen
ff ic
Ġw einen
ĠT ay
ĠwÃ¼n schte
Ġabge zogen
IE L
ĠCount ry
Ġent fallen
Ġl eute
Ġgef logen
ĠU nen
Ġmaximal en
N o
Er leben
ight s
" ...
j acke
ĠFÃ¼r sten
wind igkeiten
Ġange ordnet
ĠfÃ¼r chte
Ġges ungen
Ã¤lt igt
ĠfÃ¼ gt
Ġkan ad
schnit ten
ĠgefÃ¤hr den
ĠL etzten
ĠVerm utung
Ġd ato
ĠAn ten
Ġauszu gehen
ĠDsch ungel
ĠN EU
ab lÃ¤ufe
ĠA zu
ten twicklung
Ġwor um
ĠRechtsan wÃ¤lte
techn isch
ĠSchm etter
ĠausdrÃ¼ck en
ĠMan uel
ĠZentral bank
Ġwar nt
Ġeinge t
ĠH Ã¼rden
t Ã¼r
Ġ196 5
Ġhistor isch
ĠTeilnehmen den
ĠAbweich ungen
Ġst illen
geschÃ¤ft s
ĠK asten
Ġnerv t
Ġpar at
Ġm otor
sp itzen
ĠJahrh underten
ĠAufbew ahrung
ĠO ver
Ġgesch ult
ĠKÃ¶ pfen
am otten
ĠLiss abon
Land es
ĠH ip
ĠH acker
Ġg i
Ġum gebaut
k issen
Mit twoch
Fre unde
ĠÃľbersetz er
ĠKinder zimmer
setz ungs
gl adbach
ĠAus weis
ĠServ ern
st amm
ge werbe
ĠDie bstahl
tegr ation
C K
Ġanderweit ig
ĠWelt krieges
ĠMetrop ole
ĠTÃ¤tigkeit s
ĠSch wie
ĠK ader
ĠmilitÃ¤r ischen
ĠZusammen leben
ĠLeicht igkeit
ĠSport art
Ġschl ank
Ġchem ischen
ĠL asst
ĠAnlÃ¤ sse
ĠErscheinungs bild
Ġkorrig iert
ĠT ote
ĠT ruppe
Ġp rinzipiell
ĠSch los
ĠInvestition s
ssystem e
om bie
ĠKart on
be stimmt
spro dukt
Ġk Ã¤mpf
Ġman ch
Ġpoten ziellen
ĠVor her
schw ung
T ex
ens ystem
ĠHalt barkeit
u v
ĠBe cker
ĠBundes gerichtshof
ĠG az
B ett
eu f
AL L
Ġn eigt
ĠPost s
ĠAir lines
in son
ard i
ĠInd iz
ĠLie ber
ĠUnter b
ĠF ut
ĠF S
Ġniedr ige
ĠOber bÃ¼rgermeister
M icro
Ġverlie f
Ġau str
Ġbei ge
sp ot
f air
O ktober
lo h
Kl eine
K Ã¶nnen
h Ã¤n
ĠgroÃŁzÃ¼g ige
Ġd pa
ĠLauf bahn
Ġf arben
ĠMarkt es
ĠKrit erium
besuch er
ĠAugen hÃ¶he
ĠS echs
Ġsicher es
Arab ien
ĠAn fahrt
ĠPo int
El tern
ĠRefer end
Ġstren gen
ĠVer an
L Ã¤nder
ol stadt
Syn drom
ok ia
ast ik
ĠPader born
Ġentfern ten
ĠLebens weise
Ġvor weg
ĠSchwÃ¤ che
ĠNormal erweise
IN D
Ġkathol ische
ĠWei chen
er fahrung
ang ere
v ie
wirtschaft s
ĠF ix
ĠWeltkrieg s
D ir
c al
Ġzu gestimmt
ĠN ass
ĠMor itz
ĠBot schafter
ĠWes entliche
Ġanerk annte
ĠT ip
b ien
ĠCh ile
is iko
W S
Ġ19 00
Eben falls
Ġbez aubern
** **
y pt
ĠFar m
ĠH ahn
ĠS ven
ĠSign ale
f unden
ĠPf anne
Ġd oof
ie ger
Ã¶ gert
ĠRe prÃ¤sent
ĠEr Ã¶ff
ĠgegenwÃ¤rt igen
ĠPat ch
Ġkn Ã¼pfen
Li zenz
Ġjapan ische
ĠFormul are
G est
fÃ¤ll ige
ende ten
J ose
ĠFahr lÃ¤ssigkeit
Ġ, ,
en hagen
Ġverd oppelt
Ġaktuell sten
spart eien
Ġzerst Ã¶r
ĠUn g
Ġ? ??
ĠNet flix
ĠA y
Ġhoch geladen
Ġkomfort ablen
Ġuner lÃ¤sslich
ĠAb wesen
Ġgesp art
ĠAuss ichten
pum pe
Ġill egal
for schungs
ĠChic ago
ein nahmen
Ġwerden den
c reen
ĠS etzen
h ern
Ġanzum elden
ĠD C
ĠErsch einen
Ġfrie dlich
it o
ĠWieder holung
ĠMy t
ĠW oll
ĠPreis es
Ġ196 4
ĠPet ra
ĠGeb ot
ĠS IM
Ġb irgt
Ġhe bt
ĠAuftrag nehmer
zin sen
ĠUm sÃ¤tze
ĠVerein igte
ĠWel ches
Ġgest rigen
Ġmut ig
ĠÃ¼ber qu
ial og
ĠMit tler
ĠVerz weif
raun hofer
ĠUn sinn
ĠIs raels
ĠGen ie
ĠSpiel automaten
ĠBes uche
ĠKonsol e
ĠNieder Ã¶sterreich
Ġsozial es
Ġd on
ĠTe sten
op ment
Ġbe denkt
ĠSch aum
ĠKon junktur
ĠSie ht
k indern
Ġnach gekommen
sozi alismus
ger ichte
e vent
Ġk lappen
Ġver klein
ĠE du
Ġein steigen
ĠÃ¼ber weisen
New sletter
Christ ian
Ver bindung
ĠAuft ritte
ĠHoff nungen
Sa ale
ĠOste uropa
im ler
ĠBehaupt ung
sf raktion
ĠT es
Ġnormal es
th os
ĠPrÃ¤sent ationen
ĠR av
Ġ196 1
fl Ã¤ch
iss ance
vers orger
Ġzuver sichtlich
Ġuneingesch rÃ¤nkt
Ġwar tete
ĠHaust ier
un ser
Ġj ahren
u hren
ĠWeb design
Ġaut or
mens ionen
Ġentstehen den
or p
Ġso mmer
Ġp unkt
Ġwunder vollen
ĠP ie
tw eg
ĠHen ry
ĠÃ¼ber lege
sch einen
Ġgesch icht
Ġdiesel ben
ĠB ahnen
Ġbe stellten
Fe ed
ik atoren
freund schaft
eu s
ĠUnterhalt ungs
ĠB y
ĠBot schaften
ĠBo sch
ĠStand punkt
mer ken
Ġbew Ã¶l
T olle
Ġpoln ischen
Ġli ber
ho tels
way s
ĠStra hl
ĠVerbraucher schutz
ĠFaszin ation
Ġ196 6
ierte m
ĠT rÃ¤umen
Pat ienten
d on
ĠKunden dienst
ĠY og
ĠApothe ken
ĠAnmer kungen
qu enzen
ingu cker
Ġ194 8
ĠSal on
b ier
ĠSchl ange
Ġge lo
ĠD ividen
V I
ĠT anzen
Ġ196 3
ĠSamm ler
ĠfÃ¼ gte
es ien
ĠÃ¼ bliche
ĠBrit en
gegen stÃ¤nde
ĠAus zeichnungen
ĠFal sch
Ġfreiwill ige
ĠAut hent
ĠF err
ĠV I
ĠVern unft
e o
ĠSelbst stÃ¤ndigkeit
ĠFormul ierung
ĠRom ane
end s
ĠAthl eten
L ive
spro zessen
ac o
Ġaufge zeigt
off iz
ĠR ena
System en
che cken
Ġzu lÃ¤ss
Ġgest euert
ĠV ar
ĠkÃ¼ mmer
Ver f
ĠKorru ption
P il
ĠUN S
or es
Ġfreiwill igen
rasch all
ĠEur er
ĠK MU
ĠSch ilder
ĠN ad
ĠB ow
ĠRund um
Ġver bergen
Ġm echan
ĠT oren
Ġeinheit liche
Ã¤chs ische
ĠW itter
opt ion
Ã¼ber sicht
ĠHandy empfang
A K
ĠS ingen
ĠIntens itÃ¤t
de cker
Ġverw Ã¶hnt
en g
Ġklein sten
ĠBundes verband
wissenschaft lichen
os h
f indung
ĠR Ã¼
ĠN an
ĠUN O
d orfer
ĠW Ã¶l
Ġan stelle
ĠRechtsan sprÃ¼chen
ud get
en ergie
ĠKon ten
Ġw eht
Ġo ut
Ġabwechslungs reich
Ġzu legen
Ġgem achten
ĠL AN
h Ã¶ch
Ġgesch lafen
ck el
ĠmÃ¶ch tet
ĠM einer
Ġ11 5
ĠMikro fon
Gut schein
Neck ar
und ung
Ġkrei eren
Ġweiterentwick eln
w andern
Ġgef ehlt
ĠanschlieÃŁen den
ĠInformations gesellschaft
T ut
ifiz ieren
ĠAb nehmen
In stall
Wel ches
S onder
ĠmÃ¶ ge
ĠÃĸsterreich er
ĠEnttÃ¤u schung
ĠwÃ¤r mer
Ã¼ss eln
ĠH Ã¼nd
Ġnational er
Ġm athem
c ts
Ġn ull
ĠAdmin istration
ĠSt rau
t v
ĠJ Ã¤hr
1 50
ĠInd ones
t iere
st urm
zeu ger
ĠSingap ur
gef ragt
en ster
ungsver trag
Ġaus sprechen
W ider
Ġchem ische
pp el
ĠPf le
. (
ĠAuf hebung
an ch
Ġverwir rt
Se c
ik ipedia
ĠZusammen halt
ĠReich s
ĠAn passungen
stÃ¤d te
ĠT auchen
z ahn
G raf
ĠSp ren
R om
Ġre gener
Ġmed iterran
schul ung
ĠS hooting
ĠW ollen
ĠP ant
ĠGed ichte
Ġrenomm ierte
Ġversch rieben
n ummern
Sie ht
tell er
ĠHoch wasser
Ġab rufen
ĠÃľber trag
Ã¤ tern
stÃ¼t zt
ĠAn wohner
s ammlung
Ġsch Ã¤tzt
ĠEin leitung
ĠComm ons
ĠSommer zeit
Ġd ien
Ġzusammen hÃ¤ngen
lau be
ie de
bÃ¼ hne
Ġbest icht
ĠM ore
ĠW urf
hÃ¤ltnis mÃ¤ÃŁig
ĠBÃ¼rger krieg
Ġphil osoph
Ġzw ang
ĠDu mm
k ennung
ĠTages licht
ĠGleich es
spl Ã¤tze
Ġkomment ieren
ĠverÃ¤nder te
ĠEnt lastung
ĠVerf asser
Ġgesch Ã¤tz
ch ange
ĠSch uls
ĠDo sen
Ġ19 49
Ġgem isch
stell st
ig ste
erst attung
ĠLe op
H N
ĠwunderschÃ¶n es
ĠSym p
d ate
ol in
ĠK ast
ĠER P
ĠSl ot
ung al
vort eil
ĠÃĦuÃŁer ungen
ol o
ĠKap azitÃ¤ten
ĠWer b
Ġstation Ã¤ren
L ei
ĠSt yle
Ġchron ischen
Ġst ieÃŁ
Ġerstmal ig
Ġan gesetzt
Ġaus verkauft
ĠBesch reibungen
leb te
Ġf ac
ĠLuft f
ĠDu schen
Sch nitt
ĠF risten
ĠL ock
ĠKonz erne
ĠKleider schrank
re staurant
ĠFahr bahn
ĠLe bewesen
seu d
ĠVor stellungs
fo od
Nach richten
bl er
ĠÃĸsterreich ischen
Ġc le
sproblem e
statt ungs
h ielt
ĠStre aming
Ġverb ieten
ĠWahr zeichen
ĠBo ut
ĠnÃ¤ch st
ĠTh ese
Ġein halten
w i
ĠBam berg
r te
ĠB ik
Ġbegren zte
st el
ĠA telier
ĠVer weilen
ĠmaÃŁgeschneider te
ĠAbsch affung
ans Ã¤tze
ĠGutschein code
Ġwirksam e
C up
t um
ĠAss oc
Ġerwar tete
ĠfÃ¼hr e
G ang
Ġtem por
Ġ19 40
ĠfrÃ¶h lich
AT ION
b rÃ¼ck
ath an
sp anne
ĠHeim spiel
Qu al
ĠâĢ ł
ok er
geg ner
ĠReal ity
sch a
ĠE conom
Abt eilung
Ġvert reiben
klich ung
Ġna hen
ompeten zen
Ġerfor schen
ĠOber geschoss
ik ator
ĠKonzer ten
bil anz
ke y
rei hen
Ġstatt fand
struktur en
ĠNord amerika
Ġ19 18
w rit
ell i
ĠEr fÃ¼ll
ĠHel fern
ĠHÃ¶r en
Ġverein facht
ĠIntegr ations
ĠE StG
ĠSalz burger
ĠReg ime
Ġinhalt liche
C a
ber gt
Ġbetrieb liche
ĠOrganis ations
ĠSt Ã¤
ĠMa is
mess ung
Ġfreitag s
ĠEr reich
ĠC MS
asch a
ĠDi ak
ĠTra vel
Ġu krain
frei es
Ġbe ten
f ett
ĠB la
Ġhinter fragen
ĠLandkreis es
Ġunvergess liche
Ġlag ern
sst unden
g riffe
ĠFach hochschule
Ġtraum haften
Ġung Ã¼nst
ĠTro st
ĠCh irurgie
eut ung
Bl ick
d ro
ĠPeters burg
t raining
ĠBr ig
ĠS ende
ĠFÃ¼r st
ĠSen ats
ĠCan on
IL D
ĠS lowakei
ĠBlick e
ru p
Sie he
Ġregel mÃ¤ssig
ĠVerst orben
ĠWett be
K or
ap est
Ġes sent
pert oire
ĠBerat ungen
Ġben ennen
w elten
ĠWasser kocher
Ġpotent iellen
ĠAuÃŁen minister
Sie ben
z ei
eu gt
H alle
Ġern euten
Ġkulin arischen
ĠBeh inderten
Ġst orn
zy klus
Ġeindeut igen
op ft
ĠgrÃ¶ÃŁer es
ĠFrei staat
D arf
ĠSt offen
chten stein
s zene
Ġverschl Ã¼sselt
ĠP okal
ĠPol ster
ĠN O
re as
Ã¤d igungen
ele ge
ĠQu ote
Ġdram atisch
ĠL or
ill on
ĠDutzen d
ĠMÃ¶ch ten
H y
ĠT ausch
k ass
ser gÃ¤n
F ort
ĠS her
ĠBel ohnung
oc aust
Ġganz er
prÃ¤ gten
ph ys
Ġa ch
ĠB un
ĠâĢ¦ .
ĠWichtig keit
w all
be eren
Ġab stimmen
ĠS ale
ĠK iste
M EN
ar men
ĠAn hand
H ot
Ġein setzbar
Ġbet reu
sp raxis
F O
ri z
ĠWa age
L ux
ĠB lech
ĠL od
ĠMin imum
ĠÂ ´
ĠOut look
Ġtheoret ischen
ĠPf ar
ĠVis itenk
w affe
Ġvor rangig
ĠH Ã¼tten
GrÃ¶ ÃŁe
ĠÃ¤rzt liche
P an
Ġorganis ierte
Ġfertig gestellt
Au ÃŁen
ĠAt tent
Ġver kehrt
V ariante
ĠZu gleich
ĠBer t
ĠKunden bewertungen
ĠWÃ¼r fel
ĠB D
auf sicht
Ġdemokrat ische
lau ben
ĠCel sius
Ġbl Ã¼hen
Ġan sprechend
ĠFinanz krise
sprozess es
ĠSachverstÃ¤nd igen
Ġfantast ische
Ġregion al
Ġk alk
ĠN AS
ĠSour ce
ĠT rÃ¼
uk le
ĠL ift
ĠCh arts
enn a
Ġult im
Ġinnov ativ
d l
Gen eral
ĠG h
ĠBau arbeiten
ĠZun ahme
ĠGelegen heiten
ĠT ai
f eln
ĠRegel fall
ĠAus stieg
ĠM ov
Ġamb ition
ĠValle y
stell ter
iz ierter
ĠRe cycling
G old
Ġlok al
ĠNational sozialismus
Ġge hÃ¶re
Ġgeg laubt
ĠSch afe
p tember
kor de
ĠG rat
ĠH its
ĠGegen zug
Ġger eicht
ein stellung
Ġhal f
en glisch
ĠgehÃ¶r ten
Ġ= )
ĠT ap
Ġgolden en
Ġbelieb teste
Ġanspruchs voll
ĠL eu
ĠR all
Ġre de
Ġpro p
Ġchrist liche
er te
v Ã¶
ĠKinder betreuung
ĠTerror ismus
Ġver setzen
ĠRes idenz
grÃ¶ ÃŁer
Ġh or
ĠZul etzt
Ġlie fen
ĠF len
ĠInst anz
im iert
ĠEt appe
ĠAntibiot ika
Ġger issen
hr op
Ġfr isches
ĠMar ine
aun us
es h
Ġver folg
Ġgro sser
ĠGefl Ã¼chte
Ġer b
ĠAnt eile
ĠR ast
ĠGe frier
gel ung
ĠFlug zeuge
Ġhel fe
Ġschwei zer
ĠRad i
ĠHot line
ste cher
Ġirgendein em
de fin
ĠF asten
Ġabgeb ildet
ĠUnivers al
au scht
ĠOper ationen
Ġgewohn ten
mitt lungs
ed ien
AR D
ĠWirk stoff
ĠHy brid
Ġnerv Ã¶s
wir k
ĠRab atte
ĠSk ype
ert o
ĠVen e
W O
ĠSex ualitÃ¤t
ĠHimmel s
Ġrecherch iert
Ġantw ortet
Ġerleb te
beweg ungen
ĠH ingucker
Ġgef iel
St il
ern te
ĠBe auft
ĠSat tel
onnen ten
ĠÃĦ m
ĠGener ell
ĠAu ktion
acht ungs
ĠFI FA
ĠB od
ĠB ER
haft es
ĠOlymp ia
reisen de
Ġmont ags
L egen
ĠH asen
ĠGeld beutel
Ġinternational es
Ġmer kte
Ġwei s
Ġbed anke
S al
ĠD un
ĠprÃ¤ cht
k reisen
ĠG assen
ĠKinder spiel
ges prochen
ond a
ĠTri b
as p
ĠgegenwÃ¤rt ig
K B
ĠAus legung
ĠEr mittler
ĠPort ra
ĠHom osex
plan er
Ġhochwert iges
og nit
bet racht
ĠSpark assen
ĠW etten
ĠunterstÃ¼t ze
ĠAktuell es
Ġfol glich
ĠVerz ehr
den burger
ĠF ur
G ed
Ġsch enkt
reu th
Ġgesetz licher
ĠEinzel ne
P lug
et scher
ĠSchnitt stellen
ĠIn land
l och
gelegen en
ĠEig nung
Ġr uhen
Ġgew ollt
ĠRuhr gebiet
Ġganzheit liche
ĠGÃ¤ste buch
ĠgÃ¼nstig ste
ĠH Ã¤n
ĠL eh
l iteratur
[...]
