{
  "version": "1.0",
  "truncation": null,
  "padding": null,
  "added_tokens": [
    {
      "id": 0,
      "content": "<|endoftext|>",
      "single_word": false,
      "lstrip": false,
      "rstrip": false,
      "normalized": true,
      "special": true
    }
  ],
  "normalizer": null,
  "pre_tokenizer": {
    "type": "ByteLevel",
    "add_prefix_space": false,
    "trim_offsets": true,
    "use_regex": true
  },
  "post_processor": {
    "type": "ByteLevel",
    "add_prefix_space": true,
    "trim_offsets": false,
    "use_regex": true
  },
  "decoder": {
    "type": "ByteLevel",
    "add_prefix_space": true,
    "trim_offsets": true,
    "use_regex": true
  },
  "model": {
    "type": "BPE",
    "dropout": null,
    "unk_token": null,
    "continuing_subword_prefix": "",
    "end_of_word_suffix": "",
    "fuse_unk": false,
    "byte_fallback": false,
    "vocab": {
      "<|endoftext|>": 0,
      "!": 1,
      "\"": 2,
      "#": 3,
      "$": 4,
      "%": 5,
      "&": 6,
      "'": 7,
      "(": 8,
      ")": 9,
      "*": 10,
      "+": 11,
      ",": 12,
      "-": 13,
      ".": 14,
      "/": 15,
      "0": 16,
      "1": 17,
      "2": 18,
      "3": 19,
      "4": 20,
      "5": 21,
      "6": 22,
      "7": 23,
      "8": 24,
      "9": 25,
      ":": 26,
      ";": 27,
      "<": 28,
      "=": 29,
      ">": 30,
      "?": 31,
      "@": 32,
      "A": 33,
      "B": 34,
      "C": 35,
      "D": 36,
      "E": 37,
      "F": 38,
      "G": 39,
      "H": 40,
      "I": 41,
      "J": 42,
      "K": 43,
      "L": 44,
      "M": 45,
      "N": 46,
      "O": 47,
      "P": 48,
      "Q": 49,
      "R": 50,
      "S": 51,
      "T": 52,
      "U": 53,
      "V": 54,
      "W": 55,
      "X": 56,
      "Y": 57,
      "Z": 58,
      "[": 59,
      "\\": 60,
      "]": 61,
      "^": 62,
      "_": 63,
      "`": 64,
      "a": 65,
      "b": 66,
      "c": 67,
      "d": 68,
      "e": 69,
      "f": 70,
      "g": 71,
      "h": 72,
      "i": 73,
      "j": 74,
      "k": 75,
      "l": 76,
      "m": 77,
      "n": 78,
      "o": 79,
      "p": 80,
      "q": 81,
      "r": 82,
      "s": 83,
      "t": 84,
      "u": 85,
      "v": 86,
      "w": 87,
      "x": 88,
      "y": 89,
      "z": 90,
      "{": 91,
      "|": 92,
      "}": 93,
      "~": 94,
      "¡": 95,
      "¢": 96,
      "£": 97,
      "¤": 98,
      "¥": 99,
      "¦": 100,
      "§": 101,
      "¨": 102,
      "©": 103,
      "ª": 104,
      "«": 105,
      "¬": 106,
      "®": 107,
      "¯": 108,
      "°": 109,
      "±": 110,
      "²": 111,
      "³": 112,
      "´": 113,
      "µ": 114,
      "¶": 115,
      "·": 116,
      "¸": 117,
      "¹": 118,
      "º": 119,
      "»": 120,
      "¼": 121,
      "½": 122,
      "¾": 123,
      "¿": 124,
      "À": 125,
      "Á": 126,
      "Â": 127,
      "Ã": 128,
      "Ä": 129,
      "Å": 130,
      "Æ": 131,
      "Ç": 132,
      "È": 133,
      "É": 134,
      "Ê": 135,
      "Ë": 136,
      "Ì": 137,
      "Í": 138,
      "Î": 139,
      "Ï": 140,
      "Ð": 141,
      "Ñ": 142,
      "Ò": 143,
      "Ó": 144,
      "Ô": 145,
      "Õ": 146,
      "Ö": 147,
      "×": 148,
      "Ø": 149,
      "Ù": 150,
      "Ú": 151,
      "Û": 152,
      "Ü": 153,
      "Ý": 154,
      "Þ": 155,
      "ß": 156,
      "à": 157,
      "á": 158,
      "â": 159,
      "ã": 160,
      "ä": 161,
      "å": 162,
      "æ": 163,
      "ç": 164,
      "è": 165,
      "é": 166,
      "ê": 167,
      "ë": 168,
      "ì": 169,
      "í": 170,
      "î": 171,
      "ï": 172,
      "ð": 173,
      "ñ": 174,
      "ò": 175,
      "ó": 176,
      "ô": 177,
      "õ": 178,
      "ö": 179,
      "÷": 180,
      "ø": 181,
      "ù": 182,
      "ú": 183,
      "û": 184,
      "ü": 185,
      "ý": 186,
      "þ": 187,
      "ÿ": 188,
      "Ā": 189,
      "ā": 190,
      "Ă": 191,
      "ă": 192,
      "Ą": 193,
      "ą": 194,
      "Ć": 195,
      "ć": 196,
      "Ĉ": 197,
      "ĉ": 198,
      "Ċ": 199,
      "ċ": 200,
      "Č": 201,
      "č": 202,
      "Ď": 203,
      "ď": 204,
      "Đ": 205,
      "đ": 206,
      "Ē": 207,
      "ē": 208,
      "Ĕ": 209,
      "ĕ": 210,
      "Ė": 211,
      "ė": 212,
      "Ę": 213,
      "ę": 214,
      "Ě": 215,
      "ě": 216,
      "Ĝ": 217,
      "ĝ": 218,
      "Ğ": 219,
      "ğ": 220,
      "Ġ": 221,
      "ġ": 222,
      "Ģ": 223,
      "ģ": 224,
      "Ĥ": 225,
      "ĥ": 226,
      "Ħ": 227,
      "ħ": 228,
      "Ĩ": 229,
      "ĩ": 230,
      "Ī": 231,
      "ī": 232,
      "Ĭ": 233,
      "ĭ": 234,
      "Į": 235,
      "į": 236,
      "İ": 237,
      "ı": 238,
      "Ĳ": 239,
      "ĳ": 240,
      "Ĵ": 241,
      "ĵ": 242,
      "Ķ": 243,
      "ķ": 244,
      "ĸ": 245,
      "Ĺ": 246,
      "ĺ": 247,
      "Ļ": 248,
      "ļ": 249,
      "Ľ": 250,
      "ľ": 251,
      "Ŀ": 252,
      "ŀ": 253,
      "Ł": 254,
      "ł": 255,
      "Ń": 256,
      "en": 257,
      "er": 258,
      "ch": 259,
      "Ġd": 260,
      "ei": 261,
      "ie": 262,
      "un": 263,
      "st": 264,
      "in": 265,
      "Ġa": 266,
      "ich": 267,
      "Ġs": 268,
      "ein": 269,
      "es": 270,
      "Ġw": 271,
      "an": 272,
      "Ġun": 273,
      "Ã¼": 274,
      "ĠS": 275,
      "on": 276,
      "ge": 277,
      "Ġm": 278,
      "Ġdie": 279,
      "as": 280,
      "te": 281,
      "Ġein": 282,
      "Ġund": 283,
      "Ã¤": 284,
      "ll": 285,
      "Ġv": 286,
      "Ġb": 287,
      "ung": 288,
      "Ġn": 289,
      "it": 290,
      "Ġder": 291,
      "Ġi": 292,
      "Ġz": 293,
      "ar": 294,
      "hr": 295,
      "sch": 296,
      "Ġau": 297,
      "ten": 298,
      "or": 299,
      "ĠA": 300,
      "ĠD": 301,
      "gen": 302,
      "em": 303,
      "at": 304,
      "der": 305,
      "ĠB": 306,
      "Ġh": 307,
      "Ġzu": 308,
      "al": 309,
      "Ġin": 310,
      "Ġf": 311,
      "den": 312,
      "ĠM": 313,
      "Ġk": 314,
      "au": 315,
      "ter": 316,
      "Ã¶": 317,
      "ir": 318,
      "ur": 319,
      "ĠE": 320,
      "de": 321,
      "lich": 322,
      "ĠF": 323,
      "ĠW": 324,
      "Ġg": 325,
      "ĠK": 326,
      "Ã¼r": 327,
      "ĠG": 328,
      "ber": 329,
      "ach": 330,
      "et": 331,
      "Ġdas": 332,
      "el": 333,
      "ĠP": 334,
      "icht": 335,
      "eit": 336,
      "ĠI": 337,
      "ier": 338,
      "Ġge": 339,
      "ig": 340,
      "ĠT": 341,
      "mm": 342,
      "Ġden": 343,
      "ben": 344,
      "Ġist": 345,
      "ĠH": 346,
      "âĢ": 347,
      "Ġer": 348,
      "ĠV": 349,
      "Ġan": 350,
      "ro": 351,
      "Ġmit": 352,
      "is": 353,
      "ck": 354,
      "Ġauf": 355,
      "ĠL": 356,
      "eh": 357,
      "Ġvon": 358,
      "eu": 359,
      "ĠR": 360,
      "ĠfÃ¼r": 361,
      "us": 362,
      "ra": 363,
      "Ġl": 364,
      "ann": 365,
      "sen": 366,
      "Ġnicht": 367,
      "um": 368,
      "ion": 369,
      "Ġver": 370,
      "Ġwir": 371,
      "ÃŁ": 372,
      "Ġso": 373,
      "kt": 374,
      "re": 375,
      "Ġsich": 376,
      "Ġo": 377,
      "se": 378,
      "am": 379,
      "il": 380,
      "isch": 381,
      "nen": 382,
      "ent": 383,
      "Ġes": 384,
      "ell": 385,
      "och": 386,
      "ft": 387,
      "ĠN": 388,
      "ĠU": 389,
      "rei": 390,
      "ĠSie": 391,
      "ĠZ": 392,
      "ser": 393,
      "Ġbe": 394,
      "ol": 395,
      "and": 396,
      "ut": 397,
      "Ġsch": 398,
      "Ġ1": 399,
      "iel": 400,
      "Ġim": 401,
      "Ġauch": 402,
      "Ġeine": 403,
      "ahr": 404,
      "Ġich": 405,
      "ĠJ": 406,
      "ehr": 407,
      "Ġ2": 408,
      "ind": 409,
      "ĠSt": 410,
      "Ġaus": 411,
      "ab": 412,
      "ĠVer": 413,
      "ls": 414,
      "Ġdem": 415,
      "ĠâĢ": 416,
      "Ġ(": 417,
      "Ġj": 418,
      "Ġdes": 419,
      "ag": 420,
      "Ã¼ber": 421,
      "Ġbei": 422,
      "ĠSch": 423,
      "Ġwer": 424,
      "sten": 425,
      "ff": 426,
      "hl": 427,
      "ĠAn": 428,
      "ungen": 429,
      "Ġwie": 430,
      "Ġp": 431,
      "ĠIn": 432,
      "Ã¶n": 433,
      "chen": 434,
      "Ã¤n": 435,
      "sp": 436,
      "le": 437,
      "Ġst": 438,
      "om": 439,
      "..": 440,
      "etz": 441,
      "ern": 442,
      "enn": 443,
      "ĠÃ¼ber": 444,
      "Ġwerden": 445,
      "cht": 446,
      "Ġsind": 447,
      "Ġoder": 448,
      "ik": 449,
      "Ġdass": 450,
      "Ġhat": 451,
      "omm": 452,
      "Ġals": 453,
      "Ġall": 454,
      "Ġt": 455,
      "ĠC": 456,
      "iv": 457,
      "Ġum": 458,
      "ien": 459,
      "hn": 460,
      "und": 461,
      "wei": 462,
      "ĠDie": 463,
      "Ġsie": 464,
      "esch": 465,
      "Ġvor": 466,
      "ĠO": 467,
      "ing": 468,
      "eine": 469,
      "ation": 470,
      "aben": 471,
      "ĠEr": 472,
      "Ġnach": 473,
      "ort": 474,
      "uf": 475,
      "igen": 476,
      "ĠUn": 477,
      "eil": 478,
      "Ġda": 479,
      "oll": 480,
      "Ã¤t": 481,
      "ot": 482,
      "00": 483,
      "rÃ¼": 484,
      "be": 485,
      "Ġwird": 486,
      "Ġkann": 487,
      "lei": 488,
      "Ġeinen": 489,
      "uch": 490,
      "men": 491,
      "Ġwar": 492,
      "all": 493,
      "ungs": 494,
      "Ġnoch": 495,
      "ĠPro": 496,
      "Ġman": 497,
      "Ġihr": 498,
      "ĠBe": 499,
      "ĠkÃ¶n": 500,
      "ĠEin": 501,
      "ver": 502,
      "ischen": 503,
      "stell": 504,
      "Ġsein": 505,
      "ĠJahr": 506,
      "os": 507,
      "hal": 508,
      "Die": 509,
      "tern": 510,
      "urch": 511,
      "Ġhaben": 512,
      "ĠRe": 513,
      "anz": 514,
      "âĢľ": 515,
      "gt": 516,
      "aus": 517,
      "ĠSp": 518,
      "bt": 519,
      "Ġeiner": 520,
      "ige": 521,
      "zu": 522,
      "Ġnur": 523,
      "Ġunser": 524,
      "Ġzum": 525,
      "tet": 526,
      "mmer": 527,
      "Ġeinem": 528,
      "Ġam": 529,
      "he": 530,
      "ĠIhr": 531,
      "ste": 532,
      "rau": 533,
      "Ġaber": 534,
      "ang": 535,
      "ieren": 536,
      "01": 537,
      "eiter": 538,
      "ick": 539,
      "ers": 540,
      "Ġr": 541,
      "tsch": 542,
      "ul": 543,
      "Ġje": 544,
      "ĠAr": 545,
      "iert": 546,
      "wer": 547,
      "Ġuns": 548,
      "auf": 549,
      "ad": 550,
      "Ġent": 551,
      "ĠâĢŀ": 552,
      "ĠGe": 553,
      "op": 554,
      "Ġmehr": 555,
      "ĠkÃ¶nnen": 556,
      "ehen": 557,
      "Ġviel": 558,
      "Ã¶r": 559,
      "glich": 560,
      "ger": 561,
      "Ġunter": 562,
      "ank": 563,
      "Ġ-": 564,
      "Ġab": 565,
      "fÃ¼": 566,
      "eben": 567,
      "Ã¼n": 568,
      "aft": 569,
      "for": 570,
      "che": 571,
      "la": 572,
      "art": 573,
      "uss": 574,
      "Ġbis": 575,
      "zen": 576,
      "eiten": 577,
      "end": 578,
      "ri": 579,
      "ĠEn": 580,
      "Ġdurch": 581,
      "rÃ¤": 582,
      "rie": 583,
      "acht": 584,
      "ommen": 585,
      "Ã¤r": 586,
      "pp": 587,
      "ĠâĢĵ": 588,
      "abe": 589,
      "Ġander": 590,
      "lie": 591,
      "lichen": 592,
      "ru": 593,
      "ĠAus": 594,
      "geb": 595,
      "Ġ\"": 596,
      "Ġwenn": 597,
      "Ġdies": 598,
      "Ġwur": 599,
      "Ġzur": 600,
      "ster": 601,
      "her": 602,
      "ĠMit": 603,
      "dern": 604,
      "Ġsoll": 605,
      "ht": 606,
      "aten": 607,
      "ahl": 608,
      "mal": 609,
      "Ġsp": 610,
      "lt": 611,
      "ill": 612,
      "Ġ3": 613,
      "Ġ201": 614,
      "eg": 615,
      "Ġneu": 616,
      "ĠBer": 617,
      "ĠDas": 618,
      "ess": 619,
      "assen": 620,
      "...": 621,
      "ĠÃ": 622,
      "pf": 623,
      "bl": 624,
      "ische": 625,
      "keit": 626,
      "Ġsehr": 627,
      "etzt": 628,
      "liche": 629,
      "og": 630,
      "est": 631,
      "Ġwas": 632,
      "ekt": 633,
      "ehmen": 634,
      "hen": 635,
      "unden": 636,
      "tel": 637,
      "ner": 638,
      "Ġfin": 639,
      "Ġschon": 640,
      "Ġdann": 641,
      "ibt": 642,
      "Ã¶glich": 643,
      "Ġhier": 644,
      "heit": 645,
      "elt": 646,
      "gel": 647,
      "beit": 648,
      "Ġber": 649,
      "ant": 650,
      "lin": 651,
      "bar": 652,
      "schen": 653,
      "du": 654,
      "Ġwieder": 655,
      "Ġdar": 656,
      "Ġimmer": 657,
      "imm": 658,
      "ah": 659,
      "Ã¤hr": 660,
      "bst": 661,
      "Ġmir": 662,
      "atz": 663,
      "ĠVor": 664,
      "Ġgen": 665,
      "fen": 666,
      "eigen": 667,
      "eich": 668,
      "det": 669,
      "Ġweiter": 670,
      "Ġgibt": 671,
      "Ġges": 672,
      "utz": 673,
      "ffen": 674,
      "ist": 675,
      "Ġhabe": 676,
      "Ġmich": 677,
      "ges": 678,
      "ass": 679,
      "ĠZeit": 680,
      "amm": 681,
      "Ġdu": 682,
      "pt": 683,
      "Ġkl": 684,
      "eutsch": 685,
      "ert": 686,
      "Ġbes": 687,
      "Ġre": 688,
      "fahr": 689,
      "ÃŁen": 690,
      "ast": 691,
      "form": 692,
      "Ġet": 693,
      "Ġmein": 694,
      "Ġwurde": 695,
      "Ġe": 696,
      "rit": 697,
      "schaft": 698,
      "Ġganz": 699,
      "hnen": 700,
      "ĠWir": 701,
      "nis": 702,
      "Ġdiese": 703,
      "age": 704,
      "Ã¼ck": 705,
      "achen": 706,
      "Ġlie": 707,
      "ĠAuf": 708,
      "dem": 709,
      "ĠEs": 710,
      "ken": 711,
      "ed": 712,
      "land": 713,
      "zeit": 714,
      "ler": 715,
      "ĠMen": 716,
      "rag": 717,
      "alt": 718,
      "ont": 719,
      "ob": 720,
      "iz": 721,
      "fach": 722,
      "ĠDer": 723,
      "ĠAb": 724,
      "eb": 725,
      "wie": 726,
      "ĠIch": 727,
      "ĠAu": 728,
      "Ġalle": 729,
      "Ġgew": 730,
      "Ã¼s": 731,
      "ĠZu": 732,
      "Das": 733,
      "ild": 734,
      "rund": 735,
      "Ġetw": 736,
      "Ich": 737,
      "mit": 738,
      "ok": 739,
      "Ġgro": 740,
      "Ġ19": 741,
      "Ã¼t": 742,
      "Ġmal": 743,
      "Ġ4": 744,
      "ragen": 745,
      "ohn": 746,
      "kl": 747,
      "Ġhin": 748,
      "war": 749,
      "pl": 750,
      "ichtig": 751,
      "reu": 752,
      "Ã¤ch": 753,
      "Ġ5": 754,
      "Ġsel": 755,
      "Ġgut": 756,
      "zi": 757,
      "ĠUm": 758,
      "me": 759,
      "ktion": 760,
      "per": 761,
      "In": 762,
      "fol": 763,
      "ze": 764,
      "ĠGes": 765,
      "ne": 766,
      "ic": 767,
      "Ġher": 768,
      "Ġdieser": 769,
      "schie": 770,
      "ech": 771,
      "itÃ¤t": 772,
      "Ġgem": 773,
      "Ã¶ch": 774,
      "gend": 775,
      "Der": 776,
      "att": 777,
      "ĠHer": 778,
      "Ġeinfach": 779,
      "agen": 780,
      "Ġvom": 781,
      "ÂŃ": 782,
      "lau": 783,
      "Ġeigen": 784,
      "ĠSo": 785,
      "einen": 786,
      "kte": 787,
      "ÃŁe": 788,
      "eite": 789,
      "leich": 790,
      "Ã¤nd": 791,
      "lle": 792,
      "Ġkeine": 793,
      "ark": 794,
      "halten": 795,
      "ationen": 796,
      "onder": 797,
      "ohl": 798,
      "inder": 799,
      "eld": 800,
      "eute": 801,
      "im": 802,
      "Ġzwei": 803,
      "arb": 804,
      "amit": 805,
      "af": 806,
      "eht": 807,
      "ĠDeutsch": 808,
      "ap": 809,
      "kommen": 810,
      "rÃ¼ck": 811,
      "Ġbest": 812,
      "spiel": 813,
      "issen": 814,
      "ĠEur": 815,
      "Ġmuss": 816,
      "lÃ¤": 817,
      "ĠLeben": 818,
      "ĠArbeit": 819,
      "iger": 820,
      "rin": 821,
      "tw": 822,
      "fall": 823,
      "ĠMa": 824,
      "ammen": 825,
      "fÃ¼hr": 826,
      "ellen": 827,
      "ĠGesch": 828,
      "mer": 829,
      "Ġdir": 830,
      "ande": 831,
      "erson": 832,
      "ĠMenschen": 833,
      "Ein": 834,
      "ľber": 835,
      "adt": 836,
      "ĠIhnen": 837,
      "Ġwen": 838,
      "ĠDaten": 839,
      "Ġdiesem": 840,
      "lu": 841,
      "ĠOr": 842,
      "onn": 843,
      "Wir": 844,
      "Ġja": 845,
      "abei": 846,
      "ÃŁer": 847,
      "Ã¼hr": 848,
      "ĠBei": 849,
      "fer": 850,
      "Ġetwas": 851,
      "hem": 852,
      "ierung": 853,
      "ĠUnter": 854,
      "ho": 855,
      "reis": 856,
      "hne": 857,
      "Ġfinden": 858,
      "esen": 859,
      "ĠNach": 860,
      "Ġger": 861,
      "angen": 862,
      "sam": 863,
      "los": 864,
      "lung": 865,
      "ud": 866,
      "ive": 867,
      "Ġgeht": 868,
      "Ġson": 869,
      "inn": 870,
      "Ġselbst": 871,
      "reich": 872,
      "ĠJahren": 873,
      "ss": 874,
      "osten": 875,
      "ĠIhre": 876,
      "rank": 877,
      "vor": 878,
      ").": 879,
      "Ġbin": 880,
      "Ġeines": 881,
      "ĠBl": 882,
      "ding": 883,
      "Ġgegen": 884,
      "eits": 885,
      "Un": 886,
      "ma": 887,
      "ord": 888,
      "Ġ6": 889,
      "gesch": 890,
      "Ġmachen": 891,
      "Ġanderen": 892,
      "ĠDu": 893,
      "eist": 894,
      "ternehmen": 895,
      "fe": 896,
      "ĠBet": 897,
      "halt": 898,
      "cken": 899,
      "ĠKl": 900,
      "icher": 901,
      "Ġdoch": 902,
      "Ġob": 903,
      "ĠUnd": 904,
      "geben": 905,
      "rÃ¶": 906,
      "unde": 907,
      "iell": 908,
      "ĠFor": 909,
      "Ġbet": 910,
      "wischen": 911,
      "ade": 912,
      "ĠÃľber": 913,
      "ren": 914,
      "we": 915,
      "nah": 916,
      "Ã¶ff": 917,
      "Ġwel": 918,
      "teil": 919,
      "Ġbeg": 920,
      "ĠmÃ¶ch": 921,
      "bur": 922,
      "Ġwoll": 923,
      "igkeit": 924,
      "ĠPl": 925,
      "Ġjetzt": 926,
      "Ã¤hl": 927,
      "ale": 928,
      "alen": 929,
      "Ġihre": 930,
      "Ġgesch": 931,
      "ĠTag": 932,
      "ĠmÃ¼s": 933,
      "ommt": 934,
      "Ġdamit": 935,
      "ĠKon": 936,
      "zt": 937,
      "Ġalles": 938,
      "Ã¤lt": 939,
      "ran": 940,
      "aut": 941,
      "net": 942,
      "ĠÂ": 943,
      "Ġhatte": 944,
      "ĠSpiel": 945,
      "ĠWer": 946,
      "qu": 947,
      "Ġ200": 948,
      "Ġpro": 949,
      "ke": 950,
      "ĠWas": 951,
      "ĠHo": 952,
      "Ġviele": 953,
      "lo": 954,
      "ĠProdu": 955,
      "Ġange": 956,
      "ĠLand": 957,
      "Ġc": 958,
      "Ġunsere": 959,
      "Ġsowie": 960,
      "ĠAl": 961,
      "ĠwÃ¼r": 962,
      "tlich": 963,
      "Ġbie": 964,
      "eln": 965,
      "ĠTeil": 966,
      "akt": 967,
      "Ġdenn": 968,
      "weise": 969,
      "Ġneue": 970,
      "elle": 971,
      "ĠmÃ¶glich": 972,
      "ĠSe": 973,
      "ionen": 974,
      "Ġgel": 975,
      "Ġins": 976,
      "ĠArt": 977,
      "eicht": 978,
      "pro": 979,
      "ĠInform": 980,
      "âĢ¦": 981,
      "br": 982,
      "ate": 983,
      "Ġerst": 984,
      "Ġzus": 985,
      "rÃ¼n": 986,
      "Ġgu": 987,
      "rage": 988,
      "ett": 989,
      "ĠSte": 990,
      "ĠKinder": 991,
      "Ġbeim": 992,
      "halb": 993,
      "Qu": 994,
      "rechen": 995,
      "stellt": 996,
      "ĠCh": 997,
      "Ġsollte": 998,
      "Ġohne": 999,
      "stellen": 1000,
      "igt": 1001,
      "uchen": 1002,
      "ĠWoch": 1003,
      "ĠUhr": 1004,
      "fin": 1005,
      "keiten": 1006,
      "ĠUnternehmen": 1007,
      "Ġgef": 1008,
      "erne": 1009,
      "ange": 1010,
      "ĠWelt": 1011,
      "ĠTe": 1012,
      "min": 1013,
      "Ġschn": 1014,
      "stand": 1015,
      "Ġseine": 1016,
      "atÃ¼r": 1017,
      "innen": 1018,
      "ĠJahre": 1019,
      "ĠPerson": 1020,
      "Ġkein": 1021,
      "esse": 1022,
      "stÃ¤nd": 1023,
      "Ġ7": 1024,
      "ĠDa": 1025,
      "atur": 1026,
      "Ġsondern": 1027,
      "ĠThem": 1028,
      "hÃ¶r": 1029,
      "St": 1030,
      "Ġunserer": 1031,
      "eiÃŁ": 1032,
      "zeu": 1033,
      "Ġseit": 1034,
      "Ã¤re": 1035,
      "zent": 1036,
      "Es": 1037,
      "ĠDeutschland": 1038,
      "Ġ10": 1039,
      "id": 1040,
      "richt": 1041,
      "Ġdabei": 1042,
      "Ġ8": 1043,
      "od": 1044,
      "Ġnun": 1045,
      "nung": 1046,
      "gung": 1047,
      "ĠIm": 1048,
      "dert": 1049,
      "Ġbereits": 1050,
      "blem": 1051,
      "ater": 1052,
      "schieden": 1053,
      "ĠmÃ¼ssen": 1054,
      "Ġbek": 1055,
      "ak": 1056,
      "ĠGrund": 1057,
      "enden": 1058,
      "eim": 1059,
      "satz": 1060,
      "olle": 1061,
      "fÃ¼r": 1062,
      "Ġlassen": 1063,
      "ĠMar": 1064,
      "ĠBes": 1065,
      "ĠQu": 1066,
      "Ġakt": 1067,
      "Ã¤ft": 1068,
      "Ġausge": 1069,
      "ĠLie": 1070,
      "eid": 1071,
      "Ġkommen": 1072,
      "stem": 1073,
      "ichte": 1074,
      "tag": 1075,
      "Ġletz": 1076,
      "fahren": 1077,
      "klich": 1078,
      "ĠMon": 1079,
      "arten": 1080,
      "setz": 1081,
      "stellung": 1082,
      "zahl": 1083,
      "itte": 1084,
      "Ġandere": 1085,
      "Ġjed": 1086,
      "Ġverb": 1087,
      "Ġersten": 1088,
      "igung": 1089,
      "cher": 1090,
      "ow": 1091,
      "Ġwill": 1092,
      "aar": 1093,
      "ĠkÃ¶nn": 1094,
      "stag": 1095,
      "gang": 1096,
      "ĠschÃ¶n": 1097,
      "omp": 1098,
      "zie": 1099,
      "ĠStadt": 1100,
      "atÃ¼rlich": 1101,
      "ia": 1102,
      "Ġmeine": 1103,
      "ack": 1104,
      "Ġwo": 1105,
      "ĠRei": 1106,
      "Ġzwischen": 1107,
      "sst": 1108,
      "ele": 1109,
      "schl": 1110,
      "aum": 1111,
      "Ġheute": 1112,
      "Ã¤u": 1113,
      "Ġdieses": 1114,
      "oren": 1115,
      "ĠAut": 1116,
      "ail": 1117,
      "amil": 1118,
      "Ġwaren": 1119,
      "ystem": 1120,
      "ĠFrau": 1121,
      "ĠFall": 1122,
      "ats": 1123,
      "ache": 1124,
      "ult": 1125,
      "wert": 1126,
      "Ġdazu": 1127,
      "ierte": 1128,
      "gra": 1129,
      "ov": 1130,
      "ĠKunden": 1131,
      "undes": 1132,
      "hm": 1133,
      "An": 1134,
      "alten": 1135,
      "Ġeinmal": 1136,
      "arbeit": 1137,
      "Ġnie": 1138,
      "ĠAll": 1139,
      "annt": 1140,
      "Ġsicher": 1141,
      "ĠGer": 1142,
      "),": 1143,
      "ĠMin": 1144,
      "wir": 1145,
      "off": 1146,
      "Ġ9": 1147,
      "reichen": 1148,
      "Ã¶s": 1149,
      "ĠWeb": 1150,
      "Ġwurden": 1151,
      "ĠHand": 1152,
      "ust": 1153,
      "Ġaller": 1154,
      "ĠIntern": 1155,
      "Ġkommt": 1156,
      "our": 1157,
      "rupp": 1158,
      "Ġbesonder": 1159,
      "anden": 1160,
      "aufen": 1161,
      "Ġ20": 1162,
      "si": 1163,
      "aupt": 1164,
      "folg": 1165,
      "euch": 1166,
      "sel": 1167,
      "bau": 1168,
      "ost": 1169,
      "llen": 1170,
      "Ġalso": 1171,
      "tschaft": 1172,
      "hin": 1173,
      "Ġfol": 1174,
      "ĠwÃ¼rde": 1175,
      "line": 1176,
      "orden": 1177,
      "ĠWie": 1178,
      "ahn": 1179,
      "Ġweil": 1180,
      "Ġsteht": 1181,
      "ĠAber": 1182,
      "itz": 1183,
      "bild": 1184,
      "tem": 1185,
      "Ġschnell": 1186,
      "wend": 1187,
      "Ġeinz": 1188,
      "zlich": 1189,
      "ander": 1190,
      "burg": 1191,
      "dr": 1192,
      "fl": 1193,
      "Ġneuen": 1194,
      "Ġbesch": 1195,
      "Sie": 1196,
      "essen": 1197,
      "Ġwirklich": 1198,
      "ĠInformationen": 1199,
      "Ġper": 1200,
      "ĠEuro": 1201,
      "000": 1202,
      "amen": 1203,
      "ĠDe": 1204,
      "ĠzurÃ¼ck": 1205,
      "ĠVers": 1206,
      "Ġgerne": 1207,
      "stÃ¼t": 1208,
      "ogen": 1209,
      "Sch": 1210,
      "entlich": 1211,
      "ard": 1212,
      "Ã¤d": 1213,
      "ĠMÃ¶glich": 1214,
      "Ã¶t": 1215,
      "klÃ¤r": 1216,
      "ay": 1217,
      "Ġkonn": 1218,
      "ĠWenn": 1219,
      "Ġgest": 1220,
      "Ġdiesen": 1221,
      "ĠReg": 1222,
      "oten": 1223,
      "ritt": 1224,
      "Ġwichtig": 1225,
      "agt": 1226,
      "ĠKont": 1227,
      "Ġjeder": 1228,
      "sicht": 1229,
      "asse": 1230,
      "201": 1231,
      "lieÃŁ": 1232,
      "olit": 1233,
      "ativ": 1234,
      "eiden": 1235,
      "urz": 1236,
      "Ġzusammen": 1237,
      "ode": 1238,
      "lage": 1239,
      "unkt": 1240,
      "ce": 1241,
      "ruck": 1242,
      "Ġverschieden": 1243,
      "ĠProblem": 1244,
      "Ġsehen": 1245,
      "Ġgenau": 1246,
      "ium": 1247,
      "hol": 1248,
      "ald": 1249,
      "ende": 1250,
      "ĠMus": 1251,
      "rieb": 1252,
      "so": 1253,
      "Ġfreu": 1254,
      "alitÃ¤t": 1255,
      "trag": 1256,
      "Ġallem": 1257,
      "Ġeben": 1258,
      "sk": 1259,
      "ĠFahr": 1260,
      "erv": 1261,
      "amt": 1262,
      "ĠHaus": 1263,
      "Ġ0": 1264,
      "unktion": 1265,
      "Ġ18": 1266,
      "Ġ...": 1267,
      "Ġverl": 1268,
      "weg": 1269,
      "fern": 1270,
      "ĠInter": 1271,
      "Ġar": 1272,
      "ichten": 1273,
      "glie": 1274,
      "ĠmÃ¶chte": 1275,
      "ĠUr": 1276,
      "rot": 1277,
      "Ġgleich": 1278,
      "ĠMan": 1279,
      "Wenn": 1280,
      "Ġ15": 1281,
      "ĠPart": 1282,
      "if": 1283,
      "kun": 1284,
      "jekt": 1285,
      "ĠWei": 1286,
      "Ġvers": 1287,
      "ĠBild": 1288,
      "Ġverw": 1289,
      "uten": 1290,
      "spr": 1291,
      "Ġnichts": 1292,
      "ial": 1293,
      "gramm": 1294,
      "gem": 1295,
      "aden": 1296,
      "ĠZus": 1297,
      "ĠSeite": 1298,
      "zw": 1299,
      "immt": 1300,
      "io": 1301,
      "ĠnÃ¤ch": 1302,
      "Ġblei": 1303,
      "ĠFre": 1304,
      "ĠFamil": 1305,
      "von": 1306,
      "Ġseiner": 1307,
      "ringen": 1308,
      "Ġdrei": 1309,
      "Ġgar": 1310,
      "Ġlang": 1311,
      "ĠNeu": 1312,
      "mittel": 1313,
      "Ġsei": 1314,
      "Ġihn": 1315,
      "lagen": 1316,
      "ĠVerb": 1317,
      "ĠÃĸ": 1318,
      "Ġstehen": 1319,
      "ks": 1320,
      "rat": 1321,
      "kten": 1322,
      "Ġwollen": 1323,
      "sche": 1324,
      "Ã¤hrend": 1325,
      "Ġinter": 1326,
      "chn": 1327,
      "rem": 1328,
      "orgen": 1329,
      "eig": 1330,
      "ĠInternet": 1331,
      "olog": 1332,
      "Ġeuch": 1333,
      "Mit": 1334,
      "ĠGew": 1335,
      "Ġte": 1336,
      "kunft": 1337,
      "ĠnatÃ¼rlich": 1338,
      "xt": 1339,
      "ĠRecht": 1340,
      "bie": 1341,
      "len": 1342,
      "wick": 1343,
      "ischer": 1344,
      "Ġbesser": 1345,
      "ĠBundes": 1346,
      "Ġdort": 1347,
      "rad": 1348,
      "Ġentsp": 1349,
      "stalt": 1350,
      "Ġliegt": 1351,
      "gie": 1352,
      "âĢľ,": 1353,
      "ide": 1354,
      "ĠfÃ¼hr": 1355,
      "Ġallen": 1356,
      "ielleicht": 1357,
      "ĠBuch": 1358,
      "nisse": 1359,
      "Ġgeb": 1360,
      "Ġihrer": 1361,
      "schein": 1362,
      "eigt": 1363,
      "âĢŀ": 1364,
      "ĠdafÃ¼r": 1365,
      "ersÃ¶n": 1366,
      "Ġvoll": 1367,
      "Ã¤ÃŁ": 1368,
      "bei": 1369,
      "ĠEnde": 1370,
      "ierten": 1371,
      "achten": 1372,
      "hÃ¤lt": 1373,
      "Ġjeden": 1374,
      "Ġletzten": 1375,
      "ienst": 1376,
      "gar": 1377,
      "Ġsol": 1378,
      "Ġdeutsch": 1379,
      "ĠMed": 1380,
      "ĠThema": 1381,
      "ucht": 1382,
      "Ġjedoch": 1383,
      "Ġmacht": 1384,
      "unter": 1385,
      "ition": 1386,
      "twick": 1387,
      "ĠWohn": 1388,
      "!!": 1389,
      "nahme": 1390,
      "fte": 1391,
      "schutz": 1392,
      "fÃ¤": 1393,
      "Ġeinge": 1394,
      "Ġihren": 1395,
      "forder": 1396,
      "Ġerhalten": 1397,
      "Ġunseren": 1398,
      "Ġ12": 1399,
      "ĠAm": 1400,
      "laub": 1401,
      "ĠFl": 1402,
      "ĠAuch": 1403,
      "Ġaktu": 1404,
      "ĠEl": 1405,
      "gan": 1406,
      "ĠZiel": 1407,
      "Ã¤nger": 1408,
      "fang": 1409,
      "Ġgeben": 1410,
      "ĠAngeb": 1411,
      "ĠFÃ¼r": 1412,
      "ĠHier": 1413,
      "ĠwÃ¤re": 1414,
      "Ġdich": 1415,
      "ott": 1416,
      "Im": 1417,
      "Ã¤m": 1418,
      "zeich": 1419,
      "pr": 1420,
      "antw": 1421,
      "stens": 1422,
      "Ġwelche": 1423,
      "eider": 1424,
      "Ã¤ng": 1425,
      "ĠUS": 1426,
      "Ġstatt": 1427,
      "Ġem": 1428,
      "ĠJu": 1429,
      "Ã¼hl": 1430,
      "rum": 1431,
      "ĠKomm": 1432,
      "mÃ¶glich": 1433,
      "ĠStra": 1434,
      "ĠWochen": 1435,
      "stehen": 1436,
      "ĠDiese": 1437,
      "iss": 1438,
      "dings": 1439,
      "licher": 1440,
      "legen": 1441,
      "ennt": 1442,
      "Ġben": 1443,
      "Ġgehen": 1444,
      "ule": 1445,
      "Ġwohl": 1446,
      "Wie": 1447,
      "ĠgehÃ¶r": 1448,
      "ĠHin": 1449,
      "Ġrecht": 1450,
      "raum": 1451,
      "recht": 1452,
      "ph": 1453,
      "ĠgrÃ¶": 1454,
      "ĠBau": 1455,
      "asch": 1456,
      "gl": 1457,
      "ember": 1458,
      "gangen": 1459,
      "ĠGem": 1460,
      "prÃ¤": 1461,
      "ĠLebens": 1462,
      "ĠFragen": 1463,
      "Ã¼nst": 1464,
      "ĠEx": 1465,
      "Ġgemein": 1466,
      "ment": 1467,
      "Ġvielen": 1468,
      "llt": 1469,
      "alis": 1470,
      "ĠStud": 1471,
      "ww": 1472,
      "Ã¤uf": 1473,
      "Ã¶l": 1474,
      "ote": 1475,
      "ĠFrage": 1476,
      "âĢĿ": 1477,
      "Ġfolgen": 1478,
      "reiben": 1479,
      "rieben": 1480,
      "ice": 1481,
      "weit": 1482,
      "ĠGl": 1483,
      "ook": 1484,
      "gaben": 1485,
      "grund": 1486,
      "lug": 1487,
      "inde": 1488,
      "Ġle": 1489,
      "Ġfrei": 1490,
      "utzen": 1491,
      "Ġfest": 1492,
      "bes": 1493,
      "gabe": 1494,
      "ĠWeg": 1495,
      "ipp": 1496,
      "under": 1497,
      "Ġwissen": 1498,
      "isten": 1499,
      "voll": 1500,
      "euer": 1501,
      "Ġgemacht": 1502,
      "ĠGen": 1503,
      "ĠMal": 1504,
      "einer": 1505,
      "Ġbrau": 1506,
      "Ġseinen": 1507,
      "Ġgerade": 1508,
      "Ġrund": 1509,
      "Ġho": 1510,
      "ine": 1511,
      "ĠEine": 1512,
      "ĠSchul": 1513,
      "ielen": 1514,
      "neh": 1515,
      "Ġihm": 1516,
      "falls": 1517,
      "haus": 1518,
      "ĠWar": 1519,
      "Ġbzw": 1520,
      "Ġeinige": 1521,
      "ĠOrt": 1522,
      "ĠFil": 1523,
      ".âĢľ": 1524,
      "Ġbeh": 1525,
      "ĠIhren": 1526,
      "bung": 1527,
      "Ġdenen": 1528,
      "asst": 1529,
      "Ġlange": 1530,
      "Ġdirekt": 1531,
      "auer": 1532,
      "ĠEurop": 1533,
      "kehr": 1534,
      "Ġ2018": 1535,
      "ac": 1536,
      "ennen": 1537,
      "ĠBerlin": 1538,
      "ock": 1539,
      "uÃŁ": 1540,
      "ĠZusammen": 1541,
      "ĠLin": 1542,
      "ĠhÃ¤t": 1543,
      "ĠGeld": 1544,
      "Ver": 1545,
      "ĠFot": 1546,
      "ikel": 1547,
      "Ġal": 1548,
      "Ġir": 1549,
      "Ġdarauf": 1550,
      "Ġbietet": 1551,
      "berg": 1552,
      "obil": 1553,
      "aften": 1554,
      "uche": 1555,
      "Er": 1556,
      "Ġkon": 1557,
      "ĠIhrer": 1558,
      "ĠPf": 1559,
      "ĠFrei": 1560,
      "ĠMitarb": 1561,
      "ĠOn": 1562,
      "ĠWasser": 1563,
      "chte": 1564,
      "ĠpersÃ¶n": 1565,
      "ĠBeispiel": 1566,
      "aÃŁ": 1567,
      "nehmen": 1568,
      "ĠDank": 1569,
      "Ġweitere": 1570,
      "Ġunserem": 1571,
      "ĠMann": 1572,
      "wohl": 1573,
      "ilfe": 1574,
      "schied": 1575,
      "Ġeh": 1576,
      "Ġpaar": 1577,
      "Ġen": 1578,
      "iere": 1579,
      "ĠDies": 1580,
      "Ġ:": 1581,
      "Ġca": 1582,
      "zogen": 1583,
      "ĠMill": 1584,
      "Ã¤l": 1585,
      "Ġinteress": 1586,
      "ĠEntwick": 1587,
      "als": 1588,
      "âĤ": 1589,
      "âĤ¬": 1590,
      "icherheit": 1591,
      "ĠMe": 1592,
      "Ġwenig": 1593,
      "Ġ30": 1594,
      "Ã¤nder": 1595,
      "andel": 1596,
      "gleich": 1597,
      "Ġtun": 1598,
      "ĠkÃ¶nnte": 1599,
      "vers": 1600,
      "iges": 1601,
      "fort": 1602,
      "Ġdavon": 1603,
      "Ġmeiner": 1604,
      "ĠÃĦ": 1605,
      "ĠNutz": 1606,
      "ĠPreis": 1607,
      "reten": 1608,
      "Mail": 1609,
      "FÃ¼r": 1610,
      "zug": 1611,
      "Ġbieten": 1612,
      "Ġ&": 1613,
      "ĠVerfÃ¼": 1614,
      "Ġkonnte": 1615,
      "Ġgute": 1616,
      "ĠErfahr": 1617,
      "Ġoft": 1618,
      "eister": 1619,
      "ĠMitglie": 1620,
      "ĠDes": 1621,
      "nit": 1622,
      "Ġeigenen": 1623,
      "Bei": 1624,
      "Was": 1625,
      "Ġfindet": 1626,
      "Ġkosten": 1627,
      "ilder": 1628,
      "vent": 1629,
      "Ġteil": 1630,
      "ker": 1631,
      "ause": 1632,
      "ĠSchw": 1633,
      "ganis": 1634,
      "lossen": 1635,
      "ome": 1636,
      "Ġhab": 1637,
      "ĠBo": 1638,
      "ĠBeg": 1639,
      "Ġsagen": 1640,
      "Ġhoch": 1641,
      "ĠSon": 1642,
      "rain": 1643,
      "achsen": 1644,
      "reit": 1645,
      "ĠAls": 1646,
      "ĠRÃ¼ck": 1647,
      "eile": 1648,
      "Ġempf": 1649,
      "Ġmus": 1650,
      "anken": 1651,
      "ĠProzent": 1652,
      "ER": 1653,
      "ĠweiÃŁ": 1654,
      "Ġrichtig": 1655,
      "ielt": 1656,
      "hop": 1657,
      "Ġ/": 1658,
      "Ġ14": 1659,
      "gew": 1660,
      "ultur": 1661,
      "Und": 1662,
      "Ã¤ter": 1663,
      "echn": 1664,
      "ian": 1665,
      "riff": 1666,
      "ilt": 1667,
      "Ġerste": 1668,
      "ew": 1669,
      "ĠSchl": 1670,
      "ĠgroÃŁ": 1671,
      "eichen": 1672,
      "ĠForm": 1673,
      "Ġhast": 1674,
      "ĠWeiter": 1675,
      "ies": 1676,
      "ĠSta": 1677,
      "ingt": 1678,
      "ient": 1679,
      "eut": 1680,
      "Ġbesten": 1681,
      "ĠgroÃŁe": 1682,
      "ĠDr": 1683,
      "Ġde": 1684,
      "mus": 1685,
      "ĠTer": 1686,
      "punkt": 1687,
      "ĠBÃ¼r": 1688,
      "ehn": 1689,
      "Ġ16": 1690,
      "ĠStand": 1691,
      "Ġkurz": 1692,
      "andelt": 1693,
      "ĠBesch": 1694,
      "ellschaft": 1695,
      "ron": 1696,
      "eisten": 1697,
      "ĠwÃ¤hrend": 1698,
      "zung": 1699,
      "Ġetwa": 1700,
      "ĠEnt": 1701,
      "affen": 1702,
      "ĠIde": 1703,
      "ere": 1704,
      "ha": 1705,
      "anstalt": 1706,
      "ĠGeb": 1707,
      "ĠgroÃŁen": 1708,
      "Ġget": 1709,
      "ĠHotel": 1710,
      "ym": 1711,
      "Ġgemeinsam": 1712,
      "Ġsogar": 1713,
      "ahmen": 1714,
      "ĠGro": 1715,
      "zial": 1716,
      "ĠVerfÃ¼gung": 1717,
      "rotz": 1718,
      "werk": 1719,
      "ĠDurch": 1720,
      "Ġsollten": 1721,
      "uer": 1722,
      "ĠMÃ¶glichkeit": 1723,
      "Ġkom": 1724,
      "Ã¤ndern": 1725,
      "19": 1726,
      "bend": 1727,
      "amp": 1728,
      "Ġoffen": 1729,
      "frei": 1730,
      "ĠArbeits": 1731,
      "ĠâĢľ": 1732,
      "rakt": 1733,
      "ens": 1734,
      "Ã¼nd": 1735,
      "Ġfinde": 1736,
      "Ġgilt": 1737,
      "kon": 1738,
      "ĠÃ¶ff": 1739,
      "beiten": 1740,
      "ingen": 1741,
      "etter": 1742,
      "ĠVert": 1743,
      "riv": 1744,
      "reise": 1745,
      "Ġnehmen": 1746,
      "Nach": 1747,
      "ckt": 1748,
      "rift": 1749,
      "\",": 1750,
      "ĠVerein": 1751,
      "ĠLu": 1752,
      "seite": 1753,
      "raft": 1754,
      "blick": 1755,
      "ĠSu": 1756,
      "ip": 1757,
      "man": 1758,
      "ations": 1759,
      "ruppe": 1760,
      "ĠRegel": 1761,
      "Ġkannst": 1762,
      "ĠGeschÃ¤ft": 1763,
      "leist": 1764,
      "Ġirgend": 1765,
      "enz": 1766,
      "ĠGemein": 1767,
      "ĠBeh": 1768,
      "ĠZahl": 1769,
      "ufen": 1770,
      "Ġbitte": 1771,
      "ĠTeam": 1772,
      "gestellt": 1773,
      "Ã¶rper": 1774,
      "ĠKar": 1775,
      "Ġ17": 1776,
      "rÃ¤n": 1777,
      "ĠLeist": 1778,
      "cke": 1779,
      "ober": 1780,
      "Ġbesonders": 1781,
      "Auf": 1782,
      "jÃ¤hr": 1783,
      "ib": 1784,
      "ĠArtikel": 1785,
      "fÃ¼hl": 1786,
      "tt": 1787,
      "ug": 1788,
      "wahl": 1789,
      "isk": 1790,
      "ĠBereich": 1791,
      "einander": 1792,
      "ĠmÃ¶chten": 1793,
      "ĠBeit": 1794,
      "ider": 1795,
      "auen": 1796,
      "ĠMitarbeiter": 1797,
      "az": 1798,
      "Ġzahl": 1799,
      "erien": 1800,
      "Pro": 1801,
      "Ġbekommen": 1802,
      "eitung": 1803,
      "Ġbefin": 1804,
      "ĠDar": 1805,
      "Ġ11": 1806,
      "ign": 1807,
      "ĠOnline": 1808,
      "yp": 1809,
      "itu": 1810,
      "zept": 1811,
      "Ġvert": 1812,
      "sol": 1813,
      "reffen": 1814,
      "Ġbel": 1815,
      "ĠBesuch": 1816,
      "Ġ25": 1817,
      "ĠPh": 1818,
      "ĠunterstÃ¼t": 1819,
      "licht": 1820,
      "egen": 1821,
      "ivers": 1822,
      "antwort": 1823,
      "Ġzwar": 1824,
      "Ġfast": 1825,
      "ĠFin": 1826,
      "kauf": 1827,
      "ĠTage": 1828,
      "Ġzie": 1829,
      "stau": 1830,
      "ĠlÃ¤": 1831,
      "etzen": 1832,
      "ĠJugend": 1833,
      "schluss": 1834,
      "ĠPersonen": 1835,
      "erk": 1836,
      "Ġ13": 1837,
      "gehen": 1838,
      "ĠFach": 1839,
      "ĠProdukt": 1840,
      "nahmen": 1841,
      "Ġeigentlich": 1842,
      "Ġbeiden": 1843,
      "Ġverm": 1844,
      "sl": 1845,
      "aff": 1846,
      "fon": 1847,
      "Ġvielleicht": 1848,
      "ĠRahmen": 1849,
      "Am": 1850,
      "lieÃŁlich": 1851,
      "Ġfreuen": 1852,
      "ĠViel": 1853,
      "bildung": 1854,
      "ĠfrÃ¼": 1855,
      "Ã¤ten": 1856,
      "raf": 1857,
      "chten": 1858,
      "umen": 1859,
      "ichtige": 1860,
      "Ġseinem": 1861,
      "fÃ¼hrt": 1862,
      "legt": 1863,
      "ĠPol": 1864,
      "ĠGrÃ¼n": 1865,
      "ĠProjekt": 1866,
      "Ġentsprechen": 1867,
      "Ġentwick": 1868,
      "je": 1869,
      "Ġstell": 1870,
      "ichtet": 1871,
      "Ġentsch": 1872,
      "immer": 1873,
      "Als": 1874,
      "ĠnÃ¤chsten": 1875,
      "ergie": 1876,
      "ĠdÃ¼r": 1877,
      "ĠFrauen": 1878,
      "red": 1879,
      "Ġwerde": 1880,
      "schaften": 1881,
      "Ġ100": 1882,
      "rist": 1883,
      "auft": 1884,
      "Ã¤hlen": 1885,
      "Ġschw": 1886,
      "ĠPlatz": 1887,
      "ĠverfÃ¼": 1888,
      "ĠHoch": 1889,
      "urs": 1890,
      "Ġstellen": 1891,
      "Ġjewei": 1892,
      "ommer": 1893,
      "ĠEU": 1894,
      "stadt": 1895,
      "ĠMusik": 1896,
      "esser": 1897,
      "Ġklar": 1898,
      "ĠDenn": 1899,
      "echt": 1900,
      "roffen": 1901,
      "one": 1902,
      "Hier": 1903,
      "Ġerfolg": 1904,
      "mann": 1905,
      "leben": 1906,
      "Eine": 1907,
      "ĠauÃŁer": 1908,
      "opf": 1909,
      "Ã¤nde": 1910,
      "ĠY": 1911,
      "Ġex": 1912,
      "dent": 1913,
      "orten": 1914,
      "ĠBlick": 1915,
      "elfen": 1916,
      "Ġeur": 1917,
      "Ġmeinen": 1918,
      "ĠÂ»": 1919,
      "ĠMein": 1920,
      "ts": 1921,
      "Ġinner": 1922,
      "ĠDir": 1923,
      "ĠSel": 1924,
      "ĠLe": 1925,
      "ister": 1926,
      "olitik": 1927,
      "ĠSicherheit": 1928,
      "weis": 1929,
      "ans": 1930,
      "ĠâĢ¦": 1931,
      "EN": 1932,
      "ĠFrank": 1933,
      "ative": 1934,
      "deut": 1935,
      "Ġgab": 1936,
      "Ġkeinen": 1937,
      "Ġjem": 1938,
      "bet": 1939,
      "Ġschwer": 1940,
      "app": 1941,
      "ĠGeschichte": 1942,
      "ĠWoche": 1943,
      "Ġallerdings": 1944,
      "ĠlÃ¤sst": 1945,
      "ĠTechn": 1946,
      "genommen": 1947,
      "Ġkleinen": 1948,
      "achte": 1949,
      "Ġ[": 1950,
      "mÃ¤ÃŁ": 1951,
      "ĠKosten": 1952,
      "ĠhÃ¤tte": 1953,
      "Ġ.": 1954,
      "Ġaufge": 1955,
      "Ġhatten": 1956,
      "ĠFol": 1957,
      "verb": 1958,
      "itzen": 1959,
      "gr": 1960,
      "ivi": 1961,
      "igkeiten": 1962,
      "ften": 1963,
      "ĠKontakt": 1964,
      "ĠKind": 1965,
      "eitet": 1966,
      "ĠApp": 1967,
      "Ġihnen": 1968,
      "icken": 1969,
      "Ġwahr": 1970,
      "beding": 1971,
      "stimm": 1972,
      "zieh": 1973,
      "ĠEntsch": 1974,
      "ite": 1975,
      "ĠGegen": 1976,
      "endet": 1977,
      "ktur": 1978,
      "So": 1979,
      "ĠWissen": 1980,
      "30": 1981,
      "rand": 1982,
      "ys": 1983,
      "Ġsieht": 1984,
      "heim": 1985,
      "lex": 1986,
      "Ġind": 1987,
      ".\"": 1988,
      "ĠHÃ¶": 1989,
      "jahr": 1990,
      "Ġkleine": 1991,
      "undheit": 1992,
      "Â»": 1993,
      "ĠSpr": 1994,
      "agte": 1995,
      "ĠProgramm": 1996,
      "Ã¼d": 1997,
      "ĠFir": 1998,
      "Ġ2017": 1999,
      "cker": 2000,
      "zeug": 2001,
      "ĠAngebot": 2002,
      "Ġweit": 2003,
      "annten": 2004,
      "Ġverst": 2005,
      "ĠVide": 2006,
      "ĠNatur": 2007,
      "ĠBed": 2008,
      "ĠHaupt": 2009,
      "ĠSport": 2010,
      "utter": 2011,
      "ax": 2012,
      "zer": 2013,
      "ividu": 2014,
      "Â«": 2015,
      "Ġ50": 2016,
      "Ġhinter": 2017,
      "ĠRu": 2018,
      "inter": 2019,
      "unst": 2020,
      "Ġversch": 2021,
      "orf": 2022,
      "Ã¤tze": 2023,
      "10": 2024,
      "Ġmeinem": 2025,
      "ĠÃ¼": 2026,
      "ĠNÃ¤": 2027,
      "gegen": 2028,
      "zimmer": 2029,
      "mar": 2030,
      "ware": 2031,
      "Ã¤hlt": 2032,
      "stÃ¼ck": 2033,
      "ĠQualitÃ¤t": 2034,
      "rieden": 2035,
      "ĠInst": 2036,
      "sere": 2037,
      "Sp": 2038,
      "ĠFamilie": 2039,
      "ĠerklÃ¤r": 2040,
      "ĠErgeb": 2041,
      "setzung": 2042,
      "Ġleben": 2043,
      "Ġgesp": 2044,
      "ĠStunden": 2045,
      "ĠReise": 2046,
      "Ã¤tzlich": 2047,
      "Ġleider": 2048,
      "ĠCo": 2049,
      "nehmer": 2050,
      "Ġ199": 2051,
      "ĠSeiten": 2052,
      "Ġbew": 2053,
      "ĠBeruf": 2054,
      "ĠMarkt": 2055,
      "Ġbede": 2056,
      "ĠMinuten": 2057,
      "ĠspÃ¤ter": 2058,
      "ĠwÃ¼n": 2059,
      "ĠAkt": 2060,
      "ational": 2061,
      "ĠZukunft": 2062,
      "ĠRo": 2063,
      "ĠDann": 2064,
      "Ġihrem": 2065,
      "sent": 2066,
      "Ġsollen": 2067,
      "hÃ¶": 2068,
      "av": 2069,
      "ĠOb": 2070,
      "Ġheraus": 2071,
      "ĠdarÃ¼ber": 2072,
      "ais": 2073,
      "ĠBilder": 2074,
      "Ġworden": 2075,
      "ĠMittel": 2076,
      "Ġweniger": 2077,
      "ĠAuft": 2078,
      "ĠSchÃ¼": 2079,
      "Ġdein": 2080,
      "ĠLÃ¶s": 2081,
      "ĠKrank": 2082,
      "ĠFrÃ¼": 2083,
      "ehlen": 2084,
      "fallen": 2085,
      "Ġern": 2086,
      "Ġunterschied": 2087,
      "ĠDoch": 2088,
      "spruch": 2089,
      "ĠIhrem": 2090,
      "ĠVeranstalt": 2091,
      "ette": 2092,
      "Ġ,": 2093,
      "scht": 2094,
      "rÃ¤ge": 2095,
      "feld": 2096,
      "Ġvier": 2097,
      "iven": 2098,
      "ĠEm": 2099,
      "ĠJahres": 2100,
      "welt": 2101,
      "ĠEntwicklung": 2102,
      "ĠServ": 2103,
      "ĠJun": 2104,
      "heiten": 2105,
      "Ġhelfen": 2106,
      "ĠPar": 2107,
      "iste": 2108,
      "Ã¶rder": 2109,
      "agement": 2110,
      "ĠVort": 2111,
      "eder": 2112,
      "Ġbr": 2113,
      "ool": 2114,
      "âĢľ.": 2115,
      "gÃ¤n": 2116,
      "ĠFÃ¤": 2117,
      "ĠMehr": 2118,
      "Ġverschiedenen": 2119,
      "ĠFilm": 2120,
      "ĠgehÃ¶rt": 2121,
      "ĠMÃ¤r": 2122,
      "ute": 2123,
      "laden": 2124,
      "ĠNacht": 2125,
      "Ġintern": 2126,
      "rom": 2127,
      "ĠProdukte": 2128,
      "Ġtoll": 2129,
      "mals": 2130,
      "was": 2131,
      "walt": 2132,
      "ĠEltern": 2133,
      "reiche": 2134,
      "Ġderen": 2135,
      "ings": 2136,
      "ĠKin": 2137,
      "reicht": 2138,
      "ĠAbend": 2139,
      "ĠSchwei": 2140,
      "liegen": 2141,
      "Ġmeisten": 2142,
      "ĠâĤ¬": 2143,
      "Ġsagt": 2144,
      "ĠWahl": 2145,
      "arbeitung": 2146,
      "wohn": 2147,
      "ĠSelbst": 2148,
      "ame": 2149,
      "....": 2150,
      "hof": 2151,
      "Ġdarf": 2152,
      "stra": 2153,
      "Da": 2154,
      "echs": 2155,
      "CH": 2156,
      "ĠEnergie": 2157,
      "Ġpl": 2158,
      "druck": 2159,
      "ĠProf": 2160,
      "Ġdeine": 2161,
      "Ġkam": 2162,
      "Wer": 2163,
      "ĠAuto": 2164,
      "ĠInf": 2165,
      "12": 2166,
      "ĠMark": 2167,
      "beh": 2168,
      "Ġganze": 2169,
      "Ġsofort": 2170,
      "ðŁ": 2171,
      "tember": 2172,
      "ĠdaÃŁ": 2173,
      "Ã¶ffentlich": 2174,
      "amer": 2175,
      "anten": 2176,
      "die": 2177,
      "Ġdaher": 2178,
      "ĠWirtschaft": 2179,
      "oder": 2180,
      "igit": 2181,
      "Ġbestimm": 2182,
      "ets": 2183,
      "ĠSystem": 2184,
      "ubl": 2185,
      "Ġabge": 2186,
      "ĠAugen": 2187,
      "inge": 2188,
      "sterreich": 2189,
      "ernen": 2190,
      "gesetzt": 2191,
      "Ġnutzen": 2192,
      "Ã¤hn": 2193,
      "Ġdeu": 2194,
      "des": 2195,
      "sweise": 2196,
      "ĠPrÃ¤": 2197,
      "ĠTele": 2198,
      "ichts": 2199,
      "Ġbisher": 2200,
      "Ġbleiben": 2201,
      "Ġglau": 2202,
      "ĠSpaÃŁ": 2203,
      "Ġ24": 2204,
      "eint": 2205,
      "site": 2206,
      "ĠMÃ¼n": 2207,
      "ĠLehr": 2208,
      "fÃ¼hrung": 2209,
      "indung": 2210,
      "uter": 2211,
      "iet": 2212,
      "Ġspe": 2213,
      "imal": 2214,
      "Ġkennen": 2215,
      "ĠThe": 2216,
      "ager": 2217,
      "ĠEigen": 2218,
      "ĠKÃ¼": 2219,
      "sehen": 2220,
      "Ġgek": 2221,
      "ĠChr": 2222,
      "Ġinform": 2223,
      "Ġsagte": 2224,
      "iff": 2225,
      "liches": 2226,
      "Ġwollte": 2227,
      "ĠWor": 2228,
      "Ġbleibt": 2229,
      "En": 2230,
      "geber": 2231,
      "ĠFlug": 2232,
      "ĠKir": 2233,
      "eten": 2234,
      "Ġwunder": 2235,
      "Ġerwar": 2236,
      "rech": 2237,
      "IN": 2238,
      "osit": 2239,
      "ĠDabei": 2240,
      "opp": 2241,
      "inner": 2242,
      "ormal": 2243,
      "Ã¤chst": 2244,
      "ĠMillionen": 2245,
      "platz": 2246,
      "etten": 2247,
      "Ġerz": 2248,
      "reg": 2249,
      "uh": 2250,
      "ruppen": 2251,
      "ĠHilfe": 2252,
      "offe": 2253,
      "werb": 2254,
      "frage": 2255,
      "org": 2256,
      "nitt": 2257,
      "Ġersch": 2258,
      "mb": 2259,
      "Auch": 2260,
      "Ġindividu": 2261,
      "âĢĻ": 2262,
      "Ġbesteht": 2263,
      "ĠGed": 2264,
      "spro": 2265,
      "hÃ¤ng": 2266,
      "Ġzeigt": 2267,
      "Ġ2016": 2268,
      "Ġeher": 2269,
      "Ġstark": 2270,
      "ĠDienst": 2271,
      "ĠNov": 2272,
      "lichkeit": 2273,
      "Ġarbeiten": 2274,
      "haupt": 2275,
      "aterial": 2276,
      "ĠbenÃ¶t": 2277,
      "ase": 2278,
      "ĠVerl": 2279,
      "up": 2280,
      "ĠFest": 2281,
      "ĠEinsatz": 2282,
      "ĠMode": 2283,
      "arf": 2284,
      "Ġjedem": 2285,
      "ĠErfolg": 2286,
      "50": 2287,
      "ĠKunst": 2288,
      "bel": 2289,
      "Ġdaran": 2290,
      "Ġbed": 2291,
      "Ġbringen": 2292,
      "ĠGott": 2293,
      "ĠPartner": 2294,
      "Ã¤um": 2295,
      "sy": 2296,
      "ĠNamen": 2297,
      "Ġpassen": 2298,
      "ktober": 2299,
      "ichtigen": 2300,
      "ĠBetrieb": 2301,
      "Ġguten": 2302,
      "ĠUnivers": 2303,
      "ĠheiÃŁ": 2304,
      "co": 2305,
      "ches": 2306,
      "ĠNetz": 2307,
      "itel": 2308,
      "Ġfunktion": 2309,
      "Ġschle": 2310,
      "ffiz": 2311,
      "lÃ¤ss": 2312,
      "reund": 2313,
      "arte": 2314,
      "Ġbekannt": 2315,
      "com": 2316,
      "Ġdeutlich": 2317,
      "lungen": 2318,
      "annte": 2319,
      "ĠNew": 2320,
      "ĠKÃ¶rper": 2321,
      "ĠBÃ¼": 2322,
      "ĠSchÃ¼ler": 2323,
      "lege": 2324,
      "Ã¤ren": 2325,
      "ĠNÃ¤he": 2326,
      "Um": 2327,
      "\".": 2328,
      "ĠJan": 2329,
      "urt": 2330,
      "ĠEntscheid": 2331,
      "Ġtrotz": 2332,
      "usst": 2333,
      "Ġsonst": 2334,
      "Ġgl": 2335,
      "Ġinnerhalb": 2336,
      "tels": 2337,
      "steller": 2338,
      "ologie": 2339,
      "ĠSep": 2340,
      "ain": 2341,
      "ĠPlan": 2342,
      "Ġsuchen": 2343,
      "ĠFar": 2344,
      "ondere": 2345,
      "isches": 2346,
      "ĠWebsite": 2347,
      "ix": 2348,
      "ĠgrÃ¶ÃŁ": 2349,
      "Ġneben": 2350,
      "itÃ¤ten": 2351,
      "enk": 2352,
      "erst": 2353,
      "igten": 2354,
      "bo": 2355,
      "Ġor": 2356,
      "ĠAnfang": 2357,
      "ĠKauf": 2358,
      "Ġerfol": 2359,
      "Ġjemand": 2360,
      "ĠMet": 2361,
      "ĠFinanz": 2362,
      "are": 2363,
      "Ã¤chlich": 2364,
      "Ġhalten": 2365,
      "ĠOktober": 2366,
      "Ã¤glich": 2367,
      "Ġeigene": 2368,
      "ters": 2369,
      "ĠMai": 2370,
      "ĠPat": 2371,
      "Ġging": 2372,
      "ĠSommer": 2373,
      "ĠLage": 2374,
      "Ġzeigen": 2375,
      "ĠÂ§": 2376,
      "ĠSk": 2377,
      "utzt": 2378,
      "Ġgesam": 2379,
      "20": 2380,
      "Ġverk": 2381,
      "zeitig": 2382,
      "ĠGo": 2383,
      "ĠfÃ¼hl": 2384,
      "Ġhandelt": 2385,
      "inen": 2386,
      "ĠBeitrag": 2387,
      "ĠGlÃ¼ck": 2388,
      "ĠGesundheit": 2389,
      "ĠFreund": 2390,
      "Ġkompl": 2391,
      "ĠRaum": 2392,
      "ĠLandes": 2393,
      "Ġzun": 2394,
      "ĠFuÃŁ": 2395,
      "ĠAd": 2396,
      "tler": 2397,
      "ĠGroÃŁ": 2398,
      "Ġhinaus": 2399,
      "zÃ¼": 2400,
      "Ã¼nf": 2401,
      "Ġsu": 2402,
      "ĠUrlaub": 2403,
      "Ġerreichen": 2404,
      "ĠTest": 2405,
      "Ġliegen": 2406,
      "ĠGeh": 2407,
      "ĠGeschÃ¤fts": 2408,
      "Ġhil": 2409,
      "ĠSeptember": 2410,
      "entlichen": 2411,
      "baren": 2412,
      "ĠJuni": 2413,
      "ĠFamilien": 2414,
      "ĠKn": 2415,
      "ienen": 2416,
      "Ġerfahren": 2417,
      "eren": 2418,
      "Ġeinzel": 2419,
      "ose": 2420,
      "dung": 2421,
      "ĠTagen": 2422,
      "ĠMot": 2423,
      "ĠAbs": 2424,
      "Ġwei": 2425,
      "ĠOber": 2426,
      "vest": 2427,
      "ĠprÃ¤": 2428,
      "leichen": 2429,
      "bereich": 2430,
      "Ġleicht": 2431,
      "ĠAntw": 2432,
      "zess": 2433,
      "utt": 2434,
      "rÃ¼f": 2435,
      "ĠDez": 2436,
      "zel": 2437,
      "aren": 2438,
      "wendung": 2439,
      "undert": 2440,
      "ĠRechts": 2441,
      "ĠDi": 2442,
      "AN": 2443,
      "ruktur": 2444,
      "Aus": 2445,
      "ersonen": 2446,
      "Ġerw": 2447,
      "Ã¤te": 2448,
      "stellungen": 2449,
      "gesamt": 2450,
      "ĠZimmer": 2451,
      "ĠTr": 2452,
      "icherung": 2453,
      "Ã¤llt": 2454,
      "rax": 2455,
      "Ġdeutschen": 2456,
      "halte": 2457,
      "arbeiten": 2458,
      "11": 2459,
      "Ġjede": 2460,
      "ĠðŁ": 2461,
      "ance": 2462,
      "Ġfor": 2463,
      "Ġend": 2464,
      "Ã¤us": 2465,
      "ĠWe": 2466,
      "ĠJul": 2467,
      "ity": 2468,
      "weisen": 2469,
      "unsch": 2470,
      "Ġbist": 2471,
      "Ġopt": 2472,
      "ct": 2473,
      "Vor": 2474,
      "ĠSam": 2475,
      "ahren": 2476,
      "Ġnot": 2477,
      "Ġgefunden": 2478,
      "ore": 2479,
      "ĠBel": 2480,
      "Ġpass": 2481,
      "Aber": 2482,
      "Ġanders": 2483,
      "anke": 2484,
      "ĠDatenschutz": 2485,
      "ĠRicht": 2486,
      "ief": 2487,
      "ĠKultur": 2488,
      "Du": 2489,
      "Ġwegen": 2490,
      "Ġebenfalls": 2491,
      "ĠMÃ¤n": 2492,
      "ift": 2493,
      "ĠAug": 2494,
      "ĠAuswahl": 2495,
      "wand": 2496,
      "Ġoben": 2497,
      "ina": 2498,
      "ĠMaÃŁ": 2499,
      "ĠGÃ¤": 2500,
      "Ġstellt": 2501,
      "ĠStart": 2502,
      "Ġregel": 2503,
      "ĠTÃ¼r": 2504,
      "rieg": 2505,
      "besondere": 2506,
      "ĠVol": 2507,
      "ĠFr": 2508,
      "ikan": 2509,
      "inger": 2510,
      "ĠBar": 2511,
      "ĠKom": 2512,
      "Ġfr": 2513,
      "ĠDezember": 2514,
      "llig": 2515,
      "redit": 2516,
      "Ġ2015": 2517,
      "old": 2518,
      "ball": 2519,
      "ĠTh": 2520,
      "ĠNovember": 2521,
      "Ġtechn": 2522,
      "ĠBlog": 2523,
      "ĠBÃ¼rger": 2524,
      "atung": 2525,
      "ĠWert": 2526,
      "sport": 2527,
      "ĠWind": 2528,
      "ritten": 2529,
      "bezogen": 2530,
      "ifiz": 2531,
      "wegen": 2532,
      "Ġangeb": 2533,
      "itut": 2534,
      "ummer": 2535,
      "ĠNie": 2536,
      "alien": 2537,
      "durch": 2538,
      "ĠAt": 2539,
      "ĠTrain": 2540,
      "rant": 2541,
      "ĠdÃ¼rfen": 2542,
      "Ġlesen": 2543,
      "Diese": 2544,
      "Ġ21": 2545,
      "unk": 2546,
      "ĠFunktion": 2547,
      "ĠAng": 2548,
      "ika": 2549,
      "hand": 2550,
      "ikation": 2551,
      "forderungen": 2552,
      "str": 2553,
      "setzen": 2554,
      "ĠUSA": 2555,
      "Ġprof": 2556,
      "ĠTour": 2557,
      "stelle": 2558,
      "ftware": 2559,
      "mbH": 2560,
      "ĠForsch": 2561,
      "ĠLeute": 2562,
      "ĠHerz": 2563,
      "omat": 2564,
      "ĠThemen": 2565,
      "ĠTermin": 2566,
      "iker": 2567,
      "eien": 2568,
      "ĠBr": 2569,
      "utet": 2570,
      "statt": 2571,
      "ĠfÃ¼hren": 2572,
      "ĠHÃ¶he": 2573,
      "iver": 2574,
      "reifen": 2575,
      "zus": 2576,
      "izin": 2577,
      "alter": 2578,
      "kung": 2579,
      "Ġkaum": 2580,
      "zuf": 2581,
      "Ġentscheiden": 2582,
      "Ġbef": 2583,
      ".)": 2584,
      "assung": 2585,
      "ĠAnt": 2586,
      "Ġverschiedene": 2587,
      "ĠUnterstÃ¼t": 2588,
      "ĠlÃ¤nger": 2589,
      "ĠKommun": 2590,
      "ĠMÃ¤rz": 2591,
      "ĠheiÃŁt": 2592,
      "ksam": 2593,
      "ĠKopf": 2594,
      "ente": 2595,
      "Ġbereit": 2596,
      "yn": 2597,
      "ĠGesellschaft": 2598,
      "ĠWeihn": 2599,
      "ĠhÃ¶r": 2600,
      "ession": 2601,
      "Ġkomm": 2602,
      "Ġof": 2603,
      "pril": 2604,
      "ĠHerr": 2605,
      "Ġreg": 2606,
      "ons": 2607,
      "Ġbevor": 2608,
      "lieÃŁen": 2609,
      "ĠTran": 2610,
      "del": 2611,
      "orn": 2612,
      "ĠGut": 2613,
      "odern": 2614,
      "ub": 2615,
      "uar": 2616,
      "ĠErfahrung": 2617,
      "ĠDem": 2618,
      "spl": 2619,
      "ĠMÃ¶glichkeiten": 2620,
      "ĠService": 2621,
      "Ġon": 2622,
      "iken": 2623,
      "unkte": 2624,
      "haft": 2625,
      "Ã©": 2626,
      "ĠSuche": 2627,
      "olz": 2628,
      "Ġaut": 2629,
      "ĠRegion": 2630,
      "aun": 2631,
      "Ġ40": 2632,
      "Ġabsol": 2633,
      "Ġweiteren": 2634,
      "ehm": 2635,
      "gemein": 2636,
      "Ġbefindet": 2637,
      "ĠGmbH": 2638,
      "ehe": 2639,
      "ĠSer": 2640,
      "fÃ¤h": 2641,
      "200": 2642,
      "ĠVertrag": 2643,
      "rauen": 2644,
      "Be": 2645,
      "leb": 2646,
      "gef": 2647,
      "ĠHam": 2648,
      "raxis": 2649,
      "sie": 2650,
      "ordnung": 2651,
      "part": 2652,
      "Ġkm": 2653,
      "Ã¶nen": 2654,
      "Ber": 2655,
      "ritte": 2656,
      "ĠNicht": 2657,
      "ĠhÃ¤uf": 2658,
      "ĠÃ¼berhaupt": 2659,
      "Ġhal": 2660,
      "ĠhÃ¶": 2661,
      "ĠBas": 2662,
      "ĠSitu": 2663,
      "oment": 2664,
      "schule": 2665,
      "ompeten": 2666,
      "ĠHause": 2667,
      "onntag": 2668,
      "ĠStelle": 2669,
      "bin": 2670,
      "anach": 2671,
      "meld": 2672,
      "tragen": 2673,
      "ĠFerien": 2674,
      "ziehen": 2675,
      "elden": 2676,
      "Ġweg": 2677,
      "atte": 2678,
      "Ġverd": 2679,
      "Ġx": 2680,
      "ĠFern": 2681,
      "ĠProbleme": 2682,
      "ausen": 2683,
      "ĠfÃ¼nf": 2684,
      "ĠTipp": 2685,
      "Ġspielen": 2686,
      "grÃ¼n": 2687,
      "ante": 2688,
      "dresse": 2689,
      "Ġgegeben": 2690,
      "olf": 2691,
      "Ġ22": 2692,
      "Ġel": 2693,
      "ĠBen": 2694,
      "pen": 2695,
      "ĠInteresse": 2696,
      "Ġentfern": 2697,
      "ĠApril": 2698,
      "ieÃŁen": 2699,
      "ĠPark": 2700,
      "Ã¤ndert": 2701,
      "vert": 2702,
      "aktion": 2703,
      "herap": 2704,
      "ĠLiefer": 2705,
      "ĠMensch": 2706,
      "Ġsolche": 2707,
      "ĠEuropa": 2708,
      "ĠSchule": 2709,
      "ativen": 2710,
      "hein": 2711,
      "stein": 2712,
      "ienten": 2713,
      "Man": 2714,
      "atten": 2715,
      "Ġqu": 2716,
      "ator": 2717,
      "ragt": 2718,
      "ise": 2719,
      "Ġganzen": 2720,
      "Ġerk": 2721,
      "Ġch": 2722,
      "gesetz": 2723,
      "Ġwarum": 2724,
      "ĠLiebe": 2725,
      "lesen": 2726,
      "ampf": 2727,
      "Ġvergangen": 2728,
      "entr": 2729,
      "ĠermÃ¶glich": 2730,
      "klÃ¤rung": 2731,
      "Ġklein": 2732,
      "cen": 2733,
      "verstÃ¤nd": 2734,
      "ĠLauf": 2735,
      "Ġdeshalb": 2736,
      "ĠMedien": 2737,
      "Ġsowohl": 2738,
      "arbeitet": 2739,
      "ĠÂ«": 2740,
      "ond": 2741,
      "Ġwelt": 2742,
      "Ġkaufen": 2743,
      "auber": 2744,
      "ĠGast": 2745,
      "ĠVon": 2746,
      "Ġjedes": 2747,
      "ĠKap": 2748,
      "ĠBus": 2749,
      "ĠFeh": 2750,
      "Ġ%": 2751,
      "Ġ2014": 2752,
      "ĠPoliz": 2753,
      "ĠWeise": 2754,
      "ĠPolitik": 2755,
      "ĠDinge": 2756,
      "ĠWerk": 2757,
      "Ġkn": 2758,
      "onnen": 2759,
      "ĠRad": 2760,
      "laf": 2761,
      "ogle": 2762,
      "ĠJanuar": 2763,
      "//": 2764,
      "ĠgegenÃ¼ber": 2765,
      "ĠRes": 2766,
      "will": 2767,
      "ĠWinter": 2768,
      "Ġna": 2769,
      "ĠFrÃ¼h": 2770,
      "rauch": 2771,
      "ĠGrÃ¶": 2772,
      "ÃŁerdem": 2773,
      "duz": 2774,
      "ĠStimm": 2775,
      "ĠNord": 2776,
      "iele": 2777,
      "ĠErw": 2778,
      "Ġmehrere": 2779,
      "fr": 2780,
      "Ġkont": 2781,
      "ĠJuli": 2782,
      "18": 2783,
      "ĠÃ¶": 2784,
      "buch": 2785,
      "ĠwÃ¼rden": 2786,
      "eignet": 2787,
      "ĠunterstÃ¼tzen": 2788,
      "Ã¤nden": 2789,
      "ĠAlle": 2790,
      "ohnt": 2791,
      "Ã¼nft": 2792,
      "ĠGefÃ¼hl": 2793,
      "uren": 2794,
      "ĠGarten": 2795,
      "ĠJe": 2796,
      "ĠKat": 2797,
      "Ġansch": 2798,
      "ex": 2799,
      "ismus": 2800,
      "rÃ¤gt": 2801,
      "ument": 2802,
      "Ġtats": 2803,
      "ĠKindern": 2804,
      "ja": 2805,
      "Ã¤tz": 2806,
      "Ġgesehen": 2807,
      "aler": 2808,
      "fert": 2809,
      "Ġfolgenden": 2810,
      "ĠBad": 2811,
      "pfen": 2812,
      "markt": 2813,
      "Ġgeworden": 2814,
      "son": 2815,
      "ĠGesprÃ¤": 2816,
      "Ã¼ss": 2817,
      "geschlossen": 2818,
      "ĠAugust": 2819,
      "ĠgrÃ¶ÃŁer": 2820,
      "ĠEinzel": 2821,
      "ĠPer": 2822,
      "ĠKo": 2823,
      "ĠGebur": 2824,
      "ĠSchutz": 2825,
      "ĠgÃ¼nst": 2826,
      "Ġnotwend": 2827,
      "Ġkonnten": 2828,
      "Ġvorh": 2829,
      "port": 2830,
      "ĠLuft": 2831,
      "fel": 2832,
      "Ġbeispiel": 2833,
      "://": 2834,
      "lassen": 2835,
      "ĠRolle": 2836,
      "ĠtÃ¤glich": 2837,
      "ĠX": 2838,
      "jekte": 2839,
      "sw": 2840,
      "ieg": 2841,
      "ĠTages": 2842,
      "Ab": 2843,
      "ebook": 2844,
      "mÃ¤ÃŁig": 2845,
      "Ġmag": 2846,
      "Ġpolit": 2847,
      "aison": 2848,
      "reibt": 2849,
      "alle": 2850,
      "Ġempfehlen": 2851,
      "Ar": 2852,
      "ĠZum": 2853,
      "Zu": 2854,
      "Ġgesagt": 2855,
      "Ġaktuellen": 2856,
      "ĠIdee": 2857,
      "ĠFac": 2858,
      "ĠErn": 2859,
      "ĠEuch": 2860,
      "wirtschaft": 2861,
      "schul": 2862,
      "ĠFotos": 2863,
      "ĠAuss": 2864,
      "zeichnet": 2865,
      "gebung": 2866,
      "Ġu": 2867,
      "Ġlernen": 2868,
      "zeiten": 2869,
      "ĠOrganis": 2870,
      "ĠMont": 2871,
      "lay": 2872,
      "andeln": 2873,
      "ĠVideo": 2874,
      "bare": 2875,
      "reitag": 2876,
      "Ġumf": 2877,
      "ĠLes": 2878,
      "Ġpriv": 2879,
      "Ġcm": 2880,
      "ĠDen": 2881,
      "ĠZwei": 2882,
      "ĠSpe": 2883,
      "ĠUnterstÃ¼tzung": 2884,
      "ĠMitglieder": 2885,
      "ĠDamit": 2886,
      "ĠMutter": 2887,
      "frist": 2888,
      "Ġverwendet": 2889,
      "ĠGesetz": 2890,
      "Ġsuper": 2891,
      "Ġposit": 2892,
      "reisen": 2893,
      "Ġbraucht": 2894,
      "ĠDat": 2895,
      "anzen": 2896,
      "Ġentfernt": 2897,
      "Ġbedeutet": 2898,
      "ry": 2899,
      "lauf": 2900,
      "dienst": 2901,
      "ublik": 2902,
      "ĠDich": 2903,
      "ĠMitglied": 2904,
      "-)": 2905,
      "allen": 2906,
      "arm": 2907,
      "ungsk": 2908,
      "Ġerfolgreich": 2909,
      "zip": 2910,
      "Ġlos": 2911,
      "Ġsetzen": 2912,
      "ĠText": 2913,
      "Ã¶hn": 2914,
      "abel": 2915,
      "ĠÃĸsterreich": 2916,
      "Ġvorher": 2917,
      "par": 2918,
      "Dies": 2919,
      "schlag": 2920,
      "ight": 2921,
      "Ġneues": 2922,
      "inne": 2923,
      "ĠschÃ¶ne": 2924,
      "schnitt": 2925,
      "eller": 2926,
      "ĠPost": 2927,
      "ziell": 2928,
      "ee": 2929,
      "indestens": 2930,
      "ions": 2931,
      "ruf": 2932,
      "ĠKraft": 2933,
      "ĠFreu": 2934,
      "Ġerf": 2935,
      "ĠSonntag": 2936,
      "ĠDeutschen": 2937,
      "Ġgewesen": 2938,
      "Ã¤ischen": 2939,
      "ĠSal": 2940,
      "ersonenbezogen": 2941,
      "Ġgenug": 2942,
      "chmal": 2943,
      "gor": 2944,
      "ĠMÃ¼nchen": 2945,
      "Ġ60": 2946,
      "ĠMeinung": 2947,
      "Ġwes": 2948,
      "sych": 2949,
      "Ġnormal": 2950,
      "own": 2951,
      "teilt": 2952,
      "Ġbeispielsweise": 2953,
      "ĠerhÃ¤lt": 2954,
      "ĠNeben": 2955,
      "ĠZwe": 2956,
      "tens": 2957,
      "zeigt": 2958,
      "inden": 2959,
      "ret": 2960,
      "Ġonline": 2961,
      "Ġ23": 2962,
      "bieter": 2963,
      "ĠGren": 2964,
      "Ġwww": 2965,
      "ĠStÃ¼ck": 2966,
      "ĠErk": 2967,
      "Ġinsbesondere": 2968,
      "ĠFÃ¼hr": 2969,
      "Ġdam": 2970,
      "staurant": 2971,
      "fahrt": 2972,
      "ĠKomment": 2973,
      "aly": 2974,
      "ĠBehand": 2975,
      "indest": 2976,
      "ĠDon": 2977,
      "tegr": 2978,
      "mlich": 2979,
      "Ġ2013": 2980,
      "ationalen": 2981,
      "Ġmindestens": 2982,
      "Ġgelten": 2983,
      "Ġjeweil": 2984,
      "altet": 2985,
      "15": 2986,
      "ure": 2987,
      "Ġpersonenbezogen": 2988,
      "ĠErgebnis": 2989,
      "minister": 2990,
      "allo": 2991,
      "sb": 2992,
      "Ġgeh": 2993,
      "schlieÃŁlich": 2994,
      "sprechen": 2995,
      "hang": 2996,
      "ĠNutzung": 2997,
      "'s": 2998,
      "fekt": 2999,
      "mart": 3000,
      "Ġalt": 3001,
      "ress": 3002,
      "ĠChrist": 3003,
      "ĠNieder": 3004,
      "sph": 3005,
      "Ġliebe": 3006,
      "Ġmusste": 3007,
      "Ġvorbei": 3008,
      "ĠPort": 3009,
      "ĠKÃ¶n": 3010,
      "eum": 3011,
      "ĠGel": 3012,
      "ĠWahr": 3013,
      "Ġsomit": 3014,
      "Ġanderem": 3015,
      "drÃ¼ck": 3016,
      "richten": 3017,
      "Ã¤tzen": 3018,
      "ĠSchritt": 3019,
      "unge": 3020,
      "ĠNot": 3021,
      "ĠErfahrungen": 3022,
      "Ġbelie": 3023,
      "mitteln": 3024,
      "ĠfÃ¼hrt": 3025,
      "ĠEssen": 3026,
      "ĠAuftrag": 3027,
      "-,": 3028,
      "Ã¶sen": 3029,
      "enten": 3030,
      "Ġeinigen": 3031,
      "Ġ198": 3032,
      "flÃ¤": 3033,
      "brigen": 3034,
      "ĠFÃ¶rder": 3035,
      "lungs": 3036,
      "ular": 3037,
      "ĠUniversitÃ¤t": 3038,
      "Ġendlich": 3039,
      "angeb": 3040,
      "sichtlich": 3041,
      "stÃ¤t": 3042,
      "innt": 3043,
      "lang": 3044,
      "ĠHeim": 3045,
      "dust": 3046,
      "echsel": 3047,
      "ĠTeilnehmer": 3048,
      "Ġwelches": 3049,
      "Ġvorhanden": 3050,
      "ĠÃĸff": 3051,
      "ko": 3052,
      "ĠBand": 3053,
      "unt": 3054,
      "All": 3055,
      "ĠTier": 3056,
      "ĠMaterial": 3057,
      "ĠGruppe": 3058,
      "ebru": 3059,
      "ras": 3060,
      "Ġaktiv": 3061,
      "abl": 3062,
      "kennen": 3063,
      "ĠhÃ¶her": 3064,
      "Ġbetroffen": 3065,
      "ebruar": 3066,
      "Ġerfolgt": 3067,
      "Ġerforder": 3068,
      "ĠIst": 3069,
      "ĠWort": 3070,
      "Ġbestehen": 3071,
      "istor": 3072,
      "Ã¼hren": 3073,
      "Ġhervor": 3074,
      "ĠVerantwort": 3075,
      "ĠEmpf": 3076,
      "test": 3077,
      "ĠRestaurant": 3078,
      "Ġmeist": 3079,
      "Ġbl": 3080,
      "wegs": 3081,
      "Ġvergangenen": 3082,
      "Ġjederzeit": 3083,
      "Ġunver": 3084,
      "gessen": 3085,
      "stoff": 3086,
      "Ġallein": 3087,
      "abhÃ¤ng": 3088,
      "wiesen": 3089,
      "ĠBro": 3090,
      "ĠGÃ¤ste": 3091,
      "ĠGoogle": 3092,
      "nach": 3093,
      "ograf": 3094,
      "Ġfinanz": 3095,
      "Ihr": 3096,
      "ĠRat": 3097,
      "ĠKredit": 3098,
      "ĠHinter": 3099,
      "Ġanzu": 3100,
      "ĠAlter": 3101,
      "weile": 3102,
      "Ġgestellt": 3103,
      "ĠHa": 3104,
      "igte": 3105,
      "ttp": 3106,
      "Ġgern": 3107,
      "ĠSoftware": 3108,
      "iter": 3109,
      "ĠDesign": 3110,
      "lekt": 3111,
      "Ġbald": 3112,
      "ĠAusbildung": 3113,
      "ĠVergleich": 3114,
      "ĠPolizei": 3115,
      "ĠJahrh": 3116,
      "nov": 3117,
      "racht": 3118,
      "ram": 3119,
      "ĠÃ¤hn": 3120,
      "Ġ?": 3121,
      "ĠVerkehr": 3122,
      "ĠEntscheidung": 3123,
      "Ġderzeit": 3124,
      "ĠSÃ¼d": 3125,
      "ĠWohnung": 3126,
      "get": 3127,
      "ĠtatsÃ¤chlich": 3128,
      "ĠSchweiz": 3129,
      "ĠVerm": 3130,
      "ĠMonate": 3131,
      "ĠDien": 3132,
      "Ġhttp": 3133,
      "ĠLÃ¶sung": 3134,
      "furt": 3135,
      "Ja": 3136,
      "Ġheut": 3137,
      "ĠMo": 3138,
      "Ġkostenlos": 3139,
      "Ġschl": 3140,
      "met": 3141,
      "Ġrein": 3142,
      "fft": 3143,
      "ĠGener": 3144,
      "ĠFacebook": 3145,
      "ierungs": 3146,
      "ĠverÃ¶ffentlich": 3147,
      "ĠBay": 3148,
      "itter": 3149,
      "Ġirgendw": 3150,
      "Ġkur": 3151,
      "bracht": 3152,
      "ĠFebruar": 3153,
      "Ġschreiben": 3154,
      "ĠHeraus": 3155,
      "Ġalten": 3156,
      "Ġentde": 3157,
      "ĠMonat": 3158,
      "weiter": 3159,
      "eier": 3160,
      "meldung": 3161,
      "ĠSamstag": 3162,
      "ĠComp": 3163,
      "ĠOpt": 3164,
      "eting": 3165,
      "Ġentwickelt": 3166,
      "ĠAk": 3167,
      "klus": 3168,
      "ĠfrÃ¼her": 3169,
      "ĠGeburt": 3170,
      "ĠWetter": 3171,
      "ĠLicht": 3172,
      "ĠSchn": 3173,
      "ĠFreitag": 3174,
      "hÃ¤ltnis": 3175,
      "orm": 3176,
      "ES": 3177,
      "Ġdessen": 3178,
      "Ġfand": 3179,
      "ĠerfÃ¼": 3180,
      "ategor": 3181,
      "Ġ2012": 3182,
      "ĠPriv": 3183,
      "Ġzweiten": 3184,
      "orgt": 3185,
      "Ġrichtige": 3186,
      "ĠAktion": 3187,
      "Ġbeste": 3188,
      "sf": 3189,
      "ĠRis": 3190,
      "ĠAnge": 3191,
      "ĠPraxis": 3192,
      "ĠSituation": 3193,
      "ĠBank": 3194,
      "gesehen": 3195,
      "geh": 3196,
      "lass": 3197,
      "ĠSchlaf": 3198,
      "Ġjeweils": 3199,
      "Ġhei": 3200,
      "Ã¼cht": 3201,
      "Ġsozi": 3202,
      "ĠhÃ¤ufig": 3203,
      "Ġfahren": 3204,
      "Ġzeit": 3205,
      "ĠTem": 3206,
      "ĠbeschÃ¤ft": 3207,
      "ĠWien": 3208,
      "bedingt": 3209,
      "ĠSitz": 3210,
      "ĠWill": 3211,
      "Ġ28": 3212,
      "Ã¤nge": 3213,
      "Ġinsgesamt": 3214,
      "ĠDort": 3215,
      "schrift": 3216,
      "Ġgesetz": 3217,
      "ĠNur": 3218,
      "ĠWider": 3219,
      "elche": 3220,
      "ĠSteuer": 3221,
      "Ġeinzu": 3222,
      "zeugen": 3223,
      "Ġkleiner": 3224,
      "ĠTelefon": 3225,
      "ots": 3226,
      "richtung": 3227,
      "ĠImm": 3228,
      "hren": 3229,
      "bahn": 3230,
      "ĠMonaten": 3231,
      "egal": 3232,
      "kungen": 3233,
      "Ġbestimmt": 3234,
      "gn": 3235,
      "Ã¤mlich": 3236,
      "ĠVoraus": 3237,
      "dustrie": 3238,
      "Seit": 3239,
      "Ġdenke": 3240,
      "ĠGedanken": 3241,
      "Ã¶lker": 3242,
      "fÃ¤lt": 3243,
      "Ġverstehen": 3244,
      "system": 3245,
      "rich": 3246,
      "Ġgrund": 3247,
      "ĠWunsch": 3248,
      "Ġscheint": 3249,
      "frieden": 3250,
      "ĠÃĦn": 3251,
      "dacht": 3252,
      "Ġfeh": 3253,
      "ĠprÃ¤sent": 3254,
      "ca": 3255,
      "geln": 3256,
      "Ġmittler": 3257,
      "erdings": 3258,
      "Ġaufgrund": 3259,
      "ĠhÃ¶ch": 3260,
      "Ġfal": 3261,
      "Ġverein": 3262,
      "ĠZusammenarbeit": 3263,
      "leg": 3264,
      "GB": 3265,
      "Ġbringt": 3266,
      "etail": 3267,
      "teilung": 3268,
      "ochen": 3269,
      "ĠPflege": 3270,
      "ĠSeit": 3271,
      "stÃ¤ndig": 3272,
      "iti": 3273,
      "ĠAufgaben": 3274,
      "ĠDisk": 3275,
      "ĠChar": 3276,
      "daten": 3277,
      "afft": 3278,
      "ĠPe": 3279,
      "ilden": 3280,
      "zahlen": 3281,
      "ĠKrit": 3282,
      "ĠDruck": 3283,
      "Ġro": 3284,
      "Ġprakt": 3285,
      "ammlung": 3286,
      "ziehung": 3287,
      "Ġ26": 3288,
      "uell": 3289,
      "Ãľber": 3290,
      "iew": 3291,
      "Alle": 3292,
      "Ã¤ngt": 3293,
      "Ġmodern": 3294,
      "ĠSol": 3295,
      "Ġfunktioniert": 3296,
      "Ġ27": 3297,
      "Ġtreffen": 3298,
      "ĠBitte": 3299,
      "Ġeurop": 3300,
      "Ġverz": 3301,
      "ĠMeer": 3302,
      "Ã¤uft": 3303,
      "ĠHamburg": 3304,
      "2018": 3305,
      "ĠnÃ¤": 3306,
      "zentr": 3307,
      "ĠVerarbeitung": 3308,
      "kosten": 3309,
      "prochen": 3310,
      "ĠKil": 3311,
      "ĠBeratung": 3312,
      "ĠEng": 3313,
      "Ġverbesser": 3314,
      "ĠWett": 3315,
      "Weiter": 3316,
      "ĠUnternehmens": 3317,
      "Ġeinzelnen": 3318,
      "Ġunbe": 3319,
      "ĠpersÃ¶nlichen": 3320,
      "ĠKlim": 3321,
      "Ġtrotzdem": 3322,
      "ĠUmwelt": 3323,
      "Ġauszu": 3324,
      "fil": 3325,
      "ĠgehÃ¶ren": 3326,
      "ĠBahn": 3327,
      "ĠSpieler": 3328,
      "Ġetc": 3329,
      "standen": 3330,
      "ĠIdeen": 3331,
      "Ġzufrieden": 3332,
      "kel": 3333,
      "ament": 3334,
      "radition": 3335,
      "ĠschÃ¶nen": 3336,
      "Unsere": 3337,
      "ĠAuÃŁerdem": 3338,
      "bringen": 3339,
      "zwischen": 3340,
      "Ġstand": 3341,
      "wertung": 3342,
      "spekt": 3343,
      "Ġbem": 3344,
      "th": 3345,
      "Ã¼lt": 3346,
      "reiten": 3347,
      "ins": 3348,
      "ĠWebseite": 3349,
      "osition": 3350,
      "ĠStre": 3351,
      "ino": 3352,
      "ĠGemeinde": 3353,
      "nete": 3354,
      "Ġ;": 3355,
      "Ġ80": 3356,
      "ĠPap": 3357,
      "ĠnÃ¤mlich": 3358,
      "ĠFort": 3359,
      "ĠSmart": 3360,
      "ĠkÃ¶nnt": 3361,
      "gruppe": 3362,
      "ĠKur": 3363,
      "Ġautomat": 3364,
      "Ġbrauchen": 3365,
      "Ġtolle": 3366,
      "Ġverwenden": 3367,
      "Ġfreund": 3368,
      "ĠHe": 3369,
      "Ġanderes": 3370,
      "iko": 3371,
      "ari": 3372,
      "Ġspann": 3373,
      "gien": 3374,
      "achtet": 3375,
      "ĠFreude": 3376,
      "lern": 3377,
      "ĠTod": 3378,
      "Ã¶st": 3379,
      "Ġzehn": 3380,
      "ĠBran": 3381,
      "Ġecht": 3382,
      "ickt": 3383,
      "ĠHei": 3384,
      "mo": 3385,
      "ĠExper": 3386,
      "ĠMÃ¤nner": 3387,
      "âĢĵ": 3388,
      "ĠDazu": 3389,
      "sor": 3390,
      "Ġwert": 3391,
      "aat": 3392,
      "Ġgeschrieben": 3393,
      "Ġverg": 3394,
      "preis": 3395,
      "ath": 3396,
      "Ġweiterhin": 3397,
      "ĠnÃ¤chste": 3398,
      "ĠAntwort": 3399,
      "ertig": 3400,
      "aschinen": 3401,
      "Ã¤dchen": 3402,
      "ĠMenge": 3403,
      "ĠPatienten": 3404,
      "Ġschaffen": 3405,
      "othe": 3406,
      "isse": 3407,
      "Ã¶gen": 3408,
      "Ġerreicht": 3409,
      "ĠvÃ¶": 3410,
      "oo": 3411,
      "ĠEis": 3412,
      "IT": 3413,
      "ĠUmgebung": 3414,
      "eilen": 3415,
      "ĠerhÃ¶": 3416,
      "pfer": 3417,
      "rÃ¼fung": 3418,
      "scheinlich": 3419,
      "Ġunbedingt": 3420,
      "Ġzw": 3421,
      "sver": 3422,
      "Ġletzte": 3423,
      "Ã¼rd": 3424,
      "Ġbekommt": 3425,
      "Ġinformieren": 3426,
      "Ġne": 3427,
      "lub": 3428,
      "schlÃ¤": 3429,
      "ĠÃľ": 3430,
      "Ġdigit": 3431,
      "ĠOder": 3432,
      "Ã¼gen": 3433,
      "mehr": 3434,
      "Ġziemlich": 3435,
      "folge": 3436,
      "ĠBoden": 3437,
      "wissen": 3438,
      "ĠKÃ¼che": 3439,
      "Ġruh": 3440,
      "ull": 3441,
      "ĠAngebote": 3442,
      "achst": 3443,
      "emin": 3444,
      "Ġfolgende": 3445,
      "PD": 3446,
      "ĠInhalte": 3447,
      "plan": 3448,
      "ĠSache": 3449,
      "alls": 3450,
      "itze": 3451,
      "haltung": 3452,
      "ĠArch": 3453,
      "kreis": 3454,
      "www": 3455,
      "Ġsprechen": 3456,
      "ĠBis": 3457,
      "techn": 3458,
      "ĠAnd": 3459,
      "Ġide": 3460,
      "ĠTipps": 3461,
      "ĠLink": 3462,
      "hilfe": 3463,
      "ĠstÃ¤r": 3464,
      "gbar": 3465,
      "Ġjeweiligen": 3466,
      "leistungen": 3467,
      "besch": 3468,
      "ĠLa": 3469,
      "Ġnimmt": 3470,
      "??": 3471,
      "Ġ2011": 3472,
      "Re": 3473,
      "ĠJahrhundert": 3474,
      "ĠHotels": 3475,
      "ĠVeranstaltung": 3476,
      "ĠHome": 3477,
      "Ġdarum": 3478,
      "finden": 3479,
      "ĠwÃ¼nschen": 3480,
      "ĠMag": 3481,
      "ungsver": 3482,
      "Ġgenommen": 3483,
      "Ã¤ude": 3484,
      "ĠRichtung": 3485,
      "mel": 3486,
      "Ġrichtigen": 3487,
      "denken": 3488,
      "ĠSen": 3489,
      "rifft": 3490,
      "losen": 3491,
      ".,": 3492,
      "ĠAktiv": 3493,
      "seit": 3494,
      "prÃ¼": 3495,
      "ĠBesucher": 3496,
      "ĠWeihnacht": 3497,
      "roh": 3498,
      "ĠKlein": 3499,
      "ĠzunÃ¤chst": 3500,
      "ĠPreise": 3501,
      "Ġunseres": 3502,
      "ĠTitel": 3503,
      "ĠProduktion": 3504,
      "istr": 3505,
      "ĠVoll": 3506,
      "Her": 3507,
      "ĠBedeut": 3508,
      "ĠDieser": 3509,
      "sident": 3510,
      "ĠAngst": 3511,
      "sichtig": 3512,
      "ĠFehler": 3513,
      "bedingungen": 3514,
      "bieten": 3515,
      "ĠÃ¤l": 3516,
      "ĠerklÃ¤rt": 3517,
      "acken": 3518,
      "ĠZug": 3519,
      "ĠLei": 3520,
      "ĠSan": 3521,
      "Ġselber": 3522,
      "ĠIns": 3523,
      "Ġ_": 3524,
      "Kl": 3525,
      "ĠAlso": 3526,
      "zte": 3527,
      "ffekt": 3528,
      "how": 3529,
      "dlich": 3530,
      "ĠpersÃ¶nlich": 3531,
      "ĠAlltag": 3532,
      "bank": 3533,
      "ĠAngaben": 3534,
      "gefÃ¼hrt": 3535,
      "ĠSicht": 3536,
      "Ġdeutsche": 3537,
      "ĠJo": 3538,
      "Ġdamals": 3539,
      "Ġdau": 3540,
      "fragen": 3541,
      "ĠNutzer": 3542,
      "ĠgenieÃŁen": 3543,
      "Ġext": 3544,
      "ĠSonnen": 3545,
      "Ã¼rf": 3546,
      "!!!": 3547,
      "Ġerle": 3548,
      "ĠAbst": 3549,
      "uld": 3550,
      "ĠSozial": 3551,
      "auch": 3552,
      "ĠHaut": 3553,
      "ĠBi": 3554,
      "ĠMoment": 3555,
      "bach": 3556,
      "ĠWÃ¼n": 3557,
      "Ġthe": 3558,
      "tete": 3559,
      "alisierung": 3560,
      "ĠgewÃ¤hr": 3561,
      "das": 3562,
      "Ġbisschen": 3563,
      "Ġkeiner": 3564,
      "ĠlÃ¤uft": 3565,
      "ĠFeuer": 3566,
      "ĠStudien": 3567,
      "ĠGra": 3568,
      "elegen": 3569,
      "ĠPersonal": 3570,
      "peratur": 3571,
      "oper": 3572,
      "60": 3573,
      "Ġunten": 3574,
      "ĠRuhe": 3575,
      "ums": 3576,
      "ĠWissenschaft": 3577,
      "IE": 3578,
      "17": 3579,
      "Ġgekommen": 3580,
      "ĠDok": 3581,
      "Ġrel": 3582,
      "riften": 3583,
      "Ġzumindest": 3584,
      "ĠVerbindung": 3585,
      "air": 3586,
      "Ã¼nstler": 3587,
      "ĠAnspruch": 3588,
      "Ġdr": 3589,
      "Ġ2010": 3590,
      "ĠvÃ¶llig": 3591,
      "denten": 3592,
      "ĠkÃ¶nnten": 3593,
      "Ġehr": 3594,
      "Ġhohen": 3595,
      "Ġtragen": 3596,
      "ĠPass": 3597,
      "schw": 3598,
      "attet": 3599,
      "Ġnahe": 3600,
      "Ġangeboten": 3601,
      "Ġlin": 3602,
      "sÃ¤tzlich": 3603,
      "ĠInd": 3604,
      "Ġgepl": 3605,
      "ĠUnsere": 3606,
      "ĠJob": 3607,
      "straÃŁe": 3608,
      "jÃ¤hrige": 3609,
      "ĠBeginn": 3610,
      "ĠDetail": 3611,
      "ĠBedeutung": 3612,
      "mand": 3613,
      "raten": 3614,
      "ĠKirche": 3615,
      "Ġdrau": 3616,
      "Bitte": 3617,
      "ork": 3618,
      "ĠStraÃŁe": 3619,
      "ĠInvest": 3620,
      "Ġpassiert": 3621,
      "meister": 3622,
      "Ġ197": 3623,
      "reib": 3624,
      "ows": 3625,
      "ĠunterstÃ¼tzt": 3626,
      "lose": 3627,
      "ĠGar": 3628,
      "Ġhoffe": 3629,
      "obei": 3630,
      "Ġerkennen": 3631,
      "ĠKranken": 3632,
      "ĠAnsp": 3633,
      "ek": 3634,
      "rop": 3635,
      "Ġbefinden": 3636,
      "teilen": 3637,
      "Ġdeinen": 3638,
      "ĠGanz": 3639,
      "ĠGrÃ¼": 3640,
      "lieÃŁend": 3641,
      "ĠSaison": 3642,
      "ĠStÃ¤d": 3643,
      "ĠLeistungen": 3644,
      "Ġbeginnt": 3645,
      "Ġhilft": 3646,
      "ĠOl": 3647,
      "Hallo": 3648,
      "Ġspielt": 3649,
      "volle": 3650,
      "ĠmÃ¶glichst": 3651,
      "Ġeng": 3652,
      "ĠSinne": 3653,
      "ĠIT": 3654,
      "Ġorganis": 3655,
      "such": 3656,
      "ĠBeweg": 3657,
      "Ġglaube": 3658,
      "andels": 3659,
      "Ġwichtige": 3660,
      "ĠFolge": 3661,
      "Ġschwier": 3662,
      "ĠstÃ¤nd": 3663,
      "ĠFoto": 3664,
      "ĠFreunde": 3665,
      "ĠHal": 3666,
      "ĠStrom": 3667,
      "ĠRom": 3668,
      "oph": 3669,
      "roll": 3670,
      "herapie": 3671,
      "ĠGesprÃ¤ch": 3672,
      "ission": 3673,
      "okrat": 3674,
      "Ġdadurch": 3675,
      "ĠFirma": 3676,
      "stieg": 3677,
      "Ġdanach": 3678,
      "Ã¤ufer": 3679,
      "enthalt": 3680,
      "Ġmorgen": 3681,
      "Ġselten": 3682,
      "ĠBerg": 3683,
      "edig": 3684,
      "ĠGesamt": 3685,
      "pflicht": 3686,
      "ĠBehandlung": 3687,
      "abil": 3688,
      "igin": 3689,
      "14": 3690,
      "ĠErst": 3691,
      "ĠEing": 3692,
      "akter": 3693,
      "Ġebenso": 3694,
      "reibung": 3695,
      "spe": 3696,
      "fÃ¼hrer": 3697,
      "ĠDieses": 3698,
      "ĠInstitut": 3699,
      "Unser": 3700,
      "ĠHeil": 3701,
      "ĠPunkt": 3702,
      "Ġ29": 3703,
      "Ġbeide": 3704,
      "eiger": 3705,
      "itten": 3706,
      "eige": 3707,
      "Ã¶ffnet": 3708,
      "mitt": 3709,
      "ou": 3710,
      "ka": 3711,
      "Ġfort": 3712,
      "Ġweltweit": 3713,
      "ĠStellen": 3714,
      "Ġknapp": 3715,
      "gelt": 3716,
      "ĠGleich": 3717,
      "wÃ¤r": 3718,
      "ĠMil": 3719,
      "umm": 3720,
      "ĠTerr": 3721,
      "ĠWein": 3722,
      "ĠPrin": 3723,
      "ĠTra": 3724,
      "ness": 3725,
      "Ġverbunden": 3726,
      "ĠÃĦnder": 3727,
      "Ġkomplett": 3728,
      "ĠBesonder": 3729,
      "ĠNr": 3730,
      "ĠIhres": 3731,
      "dass": 3732,
      "ĠAufgabe": 3733,
      "ĠWochenende": 3734,
      "Ġ90": 3735,
      "ĠInnen": 3736,
      "Ġbeein": 3737,
      "tliche": 3738,
      "Ġsinn": 3739,
      "produ": 3740,
      "ĠHerzen": 3741,
      "ĠLeistung": 3742,
      "ĠStaats": 3743,
      "Ġverh": 3744,
      "âĢ¦]": 3745,
      "ĠhÃ¤lt": 3746,
      "ĠEben": 3747,
      "ĠZur": 3748,
      "Ġenthalten": 3749,
      "oppel": 3750,
      "Ġoptimal": 3751,
      "merksam": 3752,
      "zig": 3753,
      "Ġtot": 3754,
      "ĠSh": 3755,
      "Ġur": 3756,
      "ĠMÃ¤dchen": 3757,
      "ownlo": 3758,
      "Ġbeachten": 3759,
      "ĠInteressen": 3760,
      "ĠPrivat": 3761,
      "ĠVater": 3762,
      "ĠVerkauf": 3763,
      "resse": 3764,
      "verstÃ¤ndlich": 3765,
      "Ġhohe": 3766,
      "mÃ¶glichkeiten": 3767,
      "ĠGruppen": 3768,
      "beg": 3769,
      "ĠJetzt": 3770,
      "Ġaktuelle": 3771,
      "nern": 3772,
      "ĠÃ¶ffentlichen": 3773,
      "edizin": 3774,
      "ĠListe": 3775,
      "Ġak": 3776,
      "wehr": 3777,
      "ĠEind": 3778,
      "Ġ!": 3779,
      "ĠMail": 3780,
      "lapp": 3781,
      "ĠElekt": 3782,
      "Ã¼tzen": 3783,
      "ĠInhalt": 3784,
      "ĠMaÃŁnahmen": 3785,
      "ĠMontag": 3786,
      "ĠStunde": 3787,
      "ĠZeitpunkt": 3788,
      "Ġ70": 3789,
      "Ġzahlreiche": 3790,
      "eicher": 3791,
      "urn": 3792,
      "Ã¼ssel": 3793,
      "ĠGrÃ¶ÃŁe": 3794,
      "ĠStu": 3795,
      "Ġentwickeln": 3796,
      "nerstag": 3797,
      "ĠShop": 3798,
      "stimmung": 3799,
      "Ġstets": 3800,
      "ĠLÃ¤ndern": 3801,
      "Ġsechs": 3802,
      "ĠBlut": 3803,
      "ationale": 3804,
      "Ġzudem": 3805,
      "Ġgesamten": 3806,
      "Ġgefallen": 3807,
      "ĠÃ¼bern": 3808,
      "Ġlieber": 3809,
      "Ġberaten": 3810,
      "ĠCon": 3811,
      "ĠÃ¤ndern": 3812,
      "Ġindem": 3813,
      "rate": 3814,
      "Ġaktuell": 3815,
      "sein": 3816,
      "Ġherzlich": 3817,
      "ĠZusammenhang": 3818,
      "ĠSprache": 3819,
      "ĠWieder": 3820,
      "Ġstar": 3821,
      "rolle": 3822,
      "Ġschlecht": 3823,
      "Ġraus": 3824,
      "stall": 3825,
      "Ġeinger": 3826,
      "ĠKÃ¶l": 3827,
      "ÌĪ": 3828,
      "rÃ¤fte": 3829,
      "Ġwichtigsten": 3830,
      "bewerb": 3831,
      "Ġâ": 3832,
      "ĠAlt": 3833,
      "Ġbeglei": 3834,
      "orben": 3835,
      "Ġgeeignet": 3836,
      "hafen": 3837,
      "ĠĠ": 3838,
      "Ġunterwegs": 3839,
      "view": 3840,
      "ĠMitte": 3841,
      "ĠCar": 3842,
      "mack": 3843,
      "ĠZent": 3844,
      "ĠArzt": 3845,
      "ement": 3846,
      "jÃ¤hrigen": 3847,
      "Ġfreue": 3848,
      "Ġ31": 3849,
      "aschine": 3850,
      "treten": 3851,
      "ĠWald": 3852,
      "ĠErgebnisse": 3853,
      "ĠKaff": 3854,
      "spart": 3855,
      "zentrum": 3856,
      "ĠMÃ¼": 3857,
      "ĠStrand": 3858,
      "ue": 3859,
      "ĠKrieg": 3860,
      "ĠNe": 3861,
      "AS": 3862,
      "vÃ¶lker": 3863,
      "ĠOst": 3864,
      "Ġspeziell": 3865,
      "Ġbelieb": 3866,
      "Ġegal": 3867,
      "ĠSinn": 3868,
      "Ġgenutzt": 3869,
      "reiber": 3870,
      "ĠgrÃ¶ÃŁten": 3871,
      "ĠBegriff": 3872,
      "ĠKategor": 3873,
      "stre": 3874,
      "ernt": 3875,
      "ĠStraÃŁen": 3876,
      "ĠKre": 3877,
      "ĠMich": 3878,
      "ĠKurs": 3879,
      "Ġ+": 3880,
      "ĠFolgen": 3881,
      "ĠChe": 3882,
      "ĠSc": 3883,
      "Ġmanchmal": 3884,
      "ĠFirmen": 3885,
      "ĠHolz": 3886,
      "zustellen": 3887,
      "ĠLi": 3888,
      "ĠfÃ¤llt": 3889,
      "Ġhabt": 3890,
      "Ġversuchen": 3891,
      "Ã¤cht": 3892,
      "ĠKomp": 3893,
      "hoben": 3894,
      "ĠTechnik": 3895,
      "IS": 3896,
      "ĠDeshalb": 3897,
      "fangen": 3898,
      "Ġgleichen": 3899,
      "Ã¤hrung": 3900,
      "ĠWo": 3901,
      "ĠCD": 3902,
      "kur": 3903,
      "ĠFe": 3904,
      "oc": 3905,
      "Ġerwartet": 3906,
      "ĠFrankfurt": 3907,
      "ĠSchÃ¶n": 3908,
      "zÃ¼glich": 3909,
      "ĠComputer": 3910,
      "bed": 3911,
      "ĠBasis": 3912,
      "Pl": 3913,
      "ĠStaat": 3914,
      "Ġgebracht": 3915,
      "ĠAnforderungen": 3916,
      "Ġprofession": 3917,
      "24": 3918,
      "programm": 3919,
      "16": 3920,
      "ĠLog": 3921,
      "ĠregelmÃ¤ÃŁig": 3922,
      "zut": 3923,
      "chter": 3924,
      "fest": 3925,
      "Ġerforderlich": 3926,
      "neten": 3927,
      "ĠSoll": 3928,
      "Ġvergessen": 3929,
      "erweise": 3930,
      "ĠKan": 3931,
      "di": 3932,
      "rÃ¤um": 3933,
      "ĠTÃ¤t": 3934,
      "ĠRegierung": 3935,
      "ĠnÃ¶t": 3936,
      "ĠVerfahren": 3937,
      "Ġsorgen": 3938,
      "Ġdenken": 3939,
      "wig": 3940,
      "ven": 3941,
      "ĠausschlieÃŁlich": 3942,
      "llung": 3943,
      "ĠverÃ¶ffentlicht": 3944,
      "Ġausgest": 3945,
      "ĠReihe": 3946,
      "Ġsoweit": 3947,
      "Ġwider": 3948,
      "Ġmax": 3949,
      "immel": 3950,
      "ogra": 3951,
      "25": 3952,
      "ĠDis": 3953,
      "ĠBedÃ¼rf": 3954,
      "Von": 3955,
      "Ġ'": 3956,
      "ĠAutor": 3957,
      "schau": 3958,
      "ĠFÃ¤llen": 3959,
      "13": 3960,
      "iftung": 3961,
      "Also": 3962,
      "ĠIs": 3963,
      "AR": 3964,
      "richtungen": 3965,
      "flÃ¤che": 3966,
      "twoch": 3967,
      "ĠBal": 3968,
      "Ġabzu": 3969,
      "ĠDeine": 3970,
      "Ġlaufen": 3971,
      "schung": 3972,
      "Ġwelcher": 3973,
      "ĠgroÃŁer": 3974,
      "zun": 3975,
      "ĠStandard": 3976,
      "ĠChance": 3977,
      "ĠglÃ¼ck": 3978,
      "ĠbestÃ¤t": 3979,
      "Ġ2009": 3980,
      "ĠHel": 3981,
      "ĠSatz": 3982,
      "waltung": 3983,
      "ĠRhein": 3984,
      "lefon": 3985,
      "serv": 3986,
      "ĠRech": 3987,
      "ĠFrÃ¼hstÃ¼ck": 3988,
      "itzt": 3989,
      "ĠÃ¼brigen": 3990,
      "ĠnÃ¤her": 3991,
      "tritt": 3992,
      "Ġleich": 3993,
      "loss": 3994,
      "upp": 3995,
      "ĠAnbieter": 3996,
      "tur": 3997,
      "Ġerleben": 3998,
      "ometer": 3999,
      "Ġ:)": 4000,
      "Ġalte": 4001,
      "ĠIndustrie": 4002,
      "ĠImmobil": 4003,
      "Ġerg": 4004,
      "Ġsolchen": 4005,
      "Ġsetzt": 4006,
      "Ġjunge": 4007,
      "seh": 4008,
      "Ġwenige": 4009,
      "ĠVersion": 4010,
      "ital": 4011,
      "nehm": 4012,
      "ĠCas": 4013,
      "Ã¤ngen": 4014,
      "Ġfindest": 4015,
      "ĠDein": 4016,
      "maÃŁ": 4017,
      "Ġsogen": 4018,
      "ime": 4019,
      "Ġwundersch": 4020,
      "ĠForum": 4021,
      "ĠIt": 4022,
      "orte": 4023,
      "Adresse": 4024,
      "ĠTop": 4025,
      "ĠAusland": 4026,
      "pd": 4027,
      "entwick": 4028,
      "Ġgleichzeitig": 4029,
      "vol": 4030,
      "ĠSuper": 4031,
      "bew": 4032,
      "Ġzentr": 4033,
      "ĠBek": 4034,
      "gern": 4035,
      "Ġvorstellen": 4036,
      "page": 4037,
      "schriften": 4038,
      "sphÃ¤re": 4039,
      "Unter": 4040,
      "ediglich": 4041,
      "ĠBru": 4042,
      "AT": 4043,
      "Ã¶rt": 4044,
      "ĠSmartph": 4045,
      "Ġgutes": 4046,
      "see": 4047,
      "ĠViele": 4048,
      "Ġperfekt": 4049,
      "zeuge": 4050,
      "anzÃ¶s": 4051,
      "lÃ¶s": 4052,
      "pack": 4053,
      "asche": 4054,
      "ĠHund": 4055,
      "ĠÃĦr": 4056,
      "uft": 4057,
      "asen": 4058,
      "Ġumfassen": 4059,
      "Ġmittlerweile": 4060,
      "Ġverantwort": 4061,
      "ĠMobil": 4062,
      "Ġberuf": 4063,
      "ĠBereichen": 4064,
      "Ġlangsam": 4065,
      "fluss": 4066,
      "ĠKlei": 4067,
      "ĠGeschen": 4068,
      "Ġlaut": 4069,
      "ĠMorgen": 4070,
      "ĠMetho": 4071,
      "park": 4072,
      "ĠWohl": 4073,
      "ĠschlieÃŁlich": 4074,
      "ĠBÃ¼cher": 4075,
      "tell": 4076,
      "Ġwirtschaft": 4077,
      "Ġ2019": 4078,
      "Ã¼rt": 4079,
      "ĠCook": 4080,
      "atik": 4081,
      "Ġelekt": 4082,
      "ĠVersand": 4083,
      "ĠFen": 4084,
      "ĠhÃ¶ren": 4085,
      "Durch": 4086,
      "haben": 4087,
      "Ġuntersch": 4088,
      "ĠSpiele": 4089,
      "ĠAllerdings": 4090,
      "ĠProjekte": 4091,
      "Ġkomp": 4092,
      "ĠGewinn": 4093,
      "oss": 4094,
      "ds": 4095,
      "auso": 4096,
      "Ġwarten": 4097,
      "lebnis": 4098,
      "Zum": 4099,
      "ĠBerufs": 4100,
      "warz": 4101,
      "lingen": 4102,
      "ĠSym": 4103,
      "les": 4104,
      "mittag": 4105,
      "iar": 4106,
      "Ġdarin": 4107,
      "Ġgesamte": 4108,
      "ownload": 4109,
      "Ġziehen": 4110,
      "Ã¼tzt": 4111,
      "wohner": 4112,
      "Ġversucht": 4113,
      "ĠtÃ¤t": 4114,
      "pe": 4115,
      "ĠgewÃ¼n": 4116,
      "ĠSchwer": 4117,
      "Ġnotwendig": 4118,
      "last": 4119,
      "Ġbeantw": 4120,
      "folgen": 4121,
      "ĠAnzahl": 4122,
      "ĠUN": 4123,
      "ĠhÃ¤tten": 4124,
      "40": 4125,
      "leitung": 4126,
      "ĠVeranstaltungen": 4127,
      "ĠRegen": 4128,
      "ĠTV": 4129,
      "wasser": 4130,
      "Ġerster": 4131,
      "ox": 4132,
      ".-": 4133,
      "ĠGerÃ¤t": 4134,
      "iegel": 4135,
      "Ġdank": 4136,
      "Ġdurchaus": 4137,
      "ĠKommunikation": 4138,
      "):": 4139,
      "Ġgewinnen": 4140,
      "nungs": 4141,
      "setzungen": 4142,
      "ĠMotor": 4143,
      "War": 4144,
      "ĠKreis": 4145,
      "ĠSchm": 4146,
      "geld": 4147,
      "ĠNational": 4148,
      "glisch": 4149,
      "Ġ[âĢ¦]": 4150,
      "Ġausreichen": 4151,
      "ĠwÃ¤hlen": 4152,
      "ĠðŁĺ": 4153,
      "ferenz": 4154,
      "Ġzweite": 4155,
      "ĠSachen": 4156,
      "ĠModell": 4157,
      "ĠÃ¤u": 4158,
      "zon": 4159,
      "eiert": 4160,
      "Ġanges": 4161,
      "irt": 4162,
      "Ġhochwert": 4163,
      "lig": 4164,
      "Ġgelesen": 4165,
      "ĠBenutz": 4166,
      "enntnis": 4167,
      "Ġeinzig": 4168,
      "Ãľ": 4169,
      "ĠPunkte": 4170,
      "Ġdrin": 4171,
      "anlage": 4172,
      "ling": 4173,
      "Ġzuvor": 4174,
      "ĠZugang": 4175,
      "behÃ¶r": 4176,
      "ĠverfÃ¼gt": 4177,
      "ĠZeiten": 4178,
      "Ġoffiz": 4179,
      "ĠNun": 4180,
      "ĠOrd": 4181,
      "ĠKamer": 4182,
      "ĠVielleicht": 4183,
      "Ġherr": 4184,
      "ostet": 4185,
      "istischen": 4186,
      "ĠUmgang": 4187,
      "Ġfl": 4188,
      "Ġobwohl": 4189,
      "Ġerhe": 4190,
      "mitte": 4191,
      "zeugt": 4192,
      "gebaut": 4193,
      "Ġirgendwie": 4194,
      "bert": 4195,
      "Ġpasst": 4196,
      "ĠInfos": 4197,
      "ssen": 4198,
      "ĠAufenthalt": 4199,
      "ĠLust": 4200,
      "gegeben": 4201,
      "Ph": 4202,
      "ĠAbl": 4203,
      "raucher": 4204,
      "ollegen": 4205,
      "ĠMeter": 4206,
      "ĠbenÃ¶tigen": 4207,
      "da": 4208,
      "staltung": 4209,
      "ĠFarben": 4210,
      "ĠfrÃ¼h": 4211,
      "Ġanderer": 4212,
      "bÃ¼r": 4213,
      "Ġlau": 4214,
      "bauen": 4215,
      "flug": 4216,
      "kunden": 4217,
      "ĠDiskuss": 4218,
      "Ġus": 4219,
      "urf": 4220,
      "US": 4221,
      "enntnisse": 4222,
      "Ġverloren": 4223,
      "Ġtut": 4224,
      "ĠWindows": 4225,
      "Dieser": 4226,
      "ĠDeutsche": 4227,
      "pel": 4228,
      "ĠAnder": 4229,
      "anen": 4230,
      "Ġperfe": 4231,
      "pflich": 4232,
      "ĠzusÃ¤tzlich": 4233,
      "eichert": 4234,
      "ĠDonnerstag": 4235,
      "ĠKonz": 4236,
      "quem": 4237,
      "Ġverlassen": 4238,
      "Ã¤hrt": 4239,
      "ĠTisch": 4240,
      "Ġerwarten": 4241,
      "ĠSchau": 4242,
      "ĠBab": 4243,
      "ĠEvent": 4244,
      "erin": 4245,
      "Ġkonk": 4246,
      "ĠName": 4247,
      "Dieses": 4248,
      "ĠFahrzeug": 4249,
      "ĠSonne": 4250,
      "igungs": 4251,
      "Ġschrift": 4252,
      "ĠHig": 4253,
      "Ã¤user": 4254,
      "Ġbesuchen": 4255,
      "ĠgefÃ¤llt": 4256,
      "ON": 4257,
      "ĠAntrag": 4258,
      "Lie": 4259,
      "wort": 4260,
      "ommun": 4261,
      "ĠArbeiten": 4262,
      "ĠHaar": 4263,
      "Ġhistor": 4264,
      "ochter": 4265,
      "Ã¼ge": 4266,
      "Ġbestimmten": 4267,
      "cial": 4268,
      "45": 4269,
      "anst": 4270,
      "ĠGelegen": 4271,
      "iment": 4272,
      "zunehmen": 4273,
      "yr": 4274,
      "Ġkommenden": 4275,
      "Ġinteressant": 4276,
      "ĠInsel": 4277,
      "ĠVerÃ¤nder": 4278,
      "reuung": 4279,
      "steuer": 4280,
      "letzt": 4281,
      "Ġdennoch": 4282,
      "Ġ2008": 4283,
      "ĠAbschluss": 4284,
      "versicherung": 4285,
      "Ġfertig": 4286,
      "ĠFuÃŁball": 4287,
      "ÃŁt": 4288,
      "ĠMarketing": 4289,
      "Ã¼sse": 4290,
      "orgung": 4291,
      "Ġentstehen": 4292,
      "Ġdefin": 4293,
      "Ġlieben": 4294,
      "Ġdeiner": 4295,
      "ĠUnser": 4296,
      "afÃ¼r": 4297,
      "Ġaufzu": 4298,
      "Ob": 4299,
      "Ġwobei": 4300,
      "seiten": 4301,
      "ĠSohn": 4302,
      "ierenden": 4303,
      "ĠHersteller": 4304,
      "ĠPhil": 4305,
      "Ġmen": 4306,
      "ilf": 4307,
      "Ġschauen": 4308,
      "ĠErwachsen": 4309,
      "ĠBon": 4310,
      "out": 4311,
      "ĠAltern": 4312,
      "ĠAma": 4313,
      "ĠPfl": 4314,
      "ve": 4315,
      "spar": 4316,
      "kom": 4317,
      "ĠStudium": 4318,
      "sitzen": 4319,
      "ĠKÃ¶nig": 4320,
      "ĠAG": 4321,
      "barkeit": 4322,
      "struktur": 4323,
      "stellten": 4324,
      "fÃ¼hren": 4325,
      "gehend": 4326,
      "ĠII": 4327,
      "ĠVorstand": 4328,
      "entliche": 4329,
      "rÃ¤ger": 4330,
      "alisiert": 4331,
      "Ġlegen": 4332,
      "Ġnah": 4333,
      "sto": 4334,
      "iellen": 4335,
      "arr": 4336,
      "lieben": 4337,
      "ĠLÃ¤nder": 4338,
      "attform": 4339,
      "ĠÃ¤lter": 4340,
      "ĠjÃ¤hr": 4341,
      "zehn": 4342,
      "wagen": 4343,
      "wind": 4344,
      "ĠSchaden": 4345,
      "aschen": 4346,
      "Ġfragen": 4347,
      "OS": 4348,
      "ĠBeding": 4349,
      "ĠGebÃ¤ude": 4350,
      "Ãĸ": 4351,
      "ĠKunde": 4352,
      "ossen": 4353,
      "ichter": 4354,
      "Ġangen": 4355,
      "Ġunterschiedlichen": 4356,
      "Ġausgew": 4357,
      "ĠzusÃ¤tz": 4358,
      "ierungen": 4359,
      "Ġwenigen": 4360,
      "Ġpersonenbezogenen": 4361,
      "Mein": 4362,
      "falt": 4363,
      "gebiet": 4364,
      "Ġbewer": 4365,
      "Ġhol": 4366,
      "zeichen": 4367,
      "ama": 4368,
      "na": 4369,
      "ĠLÃ¶sungen": 4370,
      "Ġbesonderen": 4371,
      "ĠunabhÃ¤ng": 4372,
      "icks": 4373,
      "Ġwenden": 4374,
      "ĠProzess": 4375,
      "Ġentschieden": 4376,
      "unternehmen": 4377,
      "Ġneuer": 4378,
      "ielle": 4379,
      "ĠPC": 4380,
      "enne": 4381,
      "Ġerlau": 4382,
      "ĠermÃ¶glicht": 4383,
      "Ġlediglich": 4384,
      "Ġseines": 4385,
      "swert": 4386,
      "ĠGrÃ¼nden": 4387,
      "ĠHoff": 4388,
      "sh": 4389,
      "ĠPal": 4390,
      "Ġehem": 4391,
      "ierter": 4392,
      "fordert": 4393,
      "ĠDanke": 4394,
      "ĠVersicher": 4395,
      "ried": 4396,
      "Ġnachdem": 4397,
      "mail": 4398,
      "ĠKÃ¶ln": 4399,
      "ĠFlÃ¼cht": 4400,
      "Ġdisk": 4401,
      "Ġbesondere": 4402,
      "ĠRund": 4403,
      "aul": 4404,
      "ĠSuch": 4405,
      "Ġklass": 4406,
      "Dann": 4407,
      "ĠTo": 4408,
      "terne": 4409,
      "ĠGet": 4410,
      "Mehr": 4411,
      "Ġseien": 4412,
      "stÃ¤nde": 4413,
      "ĠKurz": 4414,
      "echnet": 4415,
      "ĠBevÃ¶lker": 4416,
      "ĠAnfrage": 4417,
      "Ent": 4418,
      "Innen": 4419,
      "ĠAnaly": 4420,
      "ĠUmsetzung": 4421,
      "ĠWege": 4422,
      "Ġguter": 4423,
      "err": 4424,
      "ĠdurchgefÃ¼hrt": 4425,
      "annen": 4426,
      "Ġeinzige": 4427,
      "VO": 4428,
      "ĠErd": 4429,
      "leiche": 4430,
      "ĠDaher": 4431,
      "Ġgenannten": 4432,
      "Ġ35": 4433,
      "ancen": 4434,
      "jen": 4435,
      "ĠverfÃ¼gbar": 4436,
      "wser": 4437,
      "ĠMittwoch": 4438,
      "stattung": 4439,
      "99": 4440,
      "ĠTraum": 4441,
      "Ġste": 4442,
      "ĠðŁĻ": 4443,
      "arian": 4444,
      "EL": 4445,
      "Ġhalt": 4446,
      "sse": 4447,
      "Ġindividuell": 4448,
      "ĠHandy": 4449,
      "karte": 4450,
      "zif": 4451,
      "ĠMain": 4452,
      "Ġinternationalen": 4453,
      "rief": 4454,
      "ĠStat": 4455,
      "haf": 4456,
      "ĠAlles": 4457,
      "UN": 4458,
      "rÃ¼cken": 4459,
      "Ġniemand": 4460,
      "viel": 4461,
      "ĠTre": 4462,
      "Ġzuletzt": 4463,
      "ĠKonzept": 4464,
      "Ã¼b": 4465,
      "bieren": 4466,
      "Den": 4467,
      "ĠMie": 4468,
      "eiche": 4469,
      "Ġbegeister": 4470,
      "eidet": 4471,
      "uchs": 4472,
      "ĠFrankreich": 4473,
      "ĠBestellung": 4474,
      "ĠBur": 4475,
      "holen": 4476,
      "ĠZudem": 4477,
      "ĠfÃ¶r": 4478,
      "Ġwahrscheinlich": 4479,
      "Kon": 4480,
      "ufe": 4481,
      "ĠItalien": 4482,
      "Ġnachhalt": 4483,
      "ĠBildung": 4484,
      "kshop": 4485,
      "verein": 4486,
      "dete": 4487,
      "geg": 4488,
      "ĠDigit": 4489,
      "Ist": 4490,
      "glichen": 4491,
      "ennung": 4492,
      "Ġintens": 4493,
      "dorf": 4494,
      "ĠAnmeldung": 4495,
      "lichkeiten": 4496,
      "hause": 4497,
      "mittelt": 4498,
      "abt": 4499,
      "ĠauÃŁerdem": 4500,
      "ierende": 4501,
      "reuz": 4502,
      "ĠgemÃ¼t": 4503,
      "reut": 4504,
      "ĠAc": 4505,
      "ĠOrganisation": 4506,
      "Ġabsolut": 4507,
      "raut": 4508,
      "anger": 4509,
      "ĠBil": 4510,
      "Ġbeteil": 4511,
      "Ġbetr": 4512,
      "zeigen": 4513,
      "ĠbenÃ¶tigt": 4514,
      "Ġjen": 4515,
      "ĠHerbst": 4516,
      "ĠDach": 4517,
      "stausch": 4518,
      "ikt": 4519,
      "ĠGeburtstag": 4520,
      "Ġverpflich": 4521,
      "istik": 4522,
      "ĠSex": 4523,
      "eucht": 4524,
      "schn": 4525,
      "lernen": 4526,
      "ĠRel": 4527,
      "vis": 4528,
      "reite": 4529,
      "lieb": 4530,
      "Ġwann": 4531,
      "Ġihres": 4532,
      "recher": 4533,
      "ehmer": 4534,
      "aust": 4535,
      "ĠSil": 4536,
      "riffen": 4537,
      "ĠWest": 4538,
      "partner": 4539,
      "ĠAuÃŁen": 4540,
      "ĠVerwendung": 4541,
      "Ġkennt": 4542,
      "Ġhinzu": 4543,
      "by": 4544,
      "gren": 4545,
      "Ġjungen": 4546,
      "ĠgemÃ¤ÃŁ": 4547,
      "Ġteilweise": 4548,
      "ollar": 4549,
      "ĠForschung": 4550,
      "wesen": 4551,
      "ĠKampf": 4552,
      "ael": 4553,
      "ĠBaum": 4554,
      "Zur": 4555,
      "DF": 4556,
      "leistung": 4557,
      "ĠSemin": 4558,
      "Ġentsprechend": 4559,
      "ille": 4560,
      "itionen": 4561,
      "rÃ¼che": 4562,
      "Ġusw": 4563,
      "Gen": 4564,
      "press": 4565,
      "Ġgarant": 4566,
      "uelle": 4567,
      "ĠBezug": 4568,
      "ĠLiter": 4569,
      "ĠRechte": 4570,
      "Ġ500": 4571,
      "ĠKarte": 4572,
      "ĠVis": 4573,
      "wen": 4574,
      "ĠÃĸffentlich": 4575,
      "iziert": 4576,
      "ĠJa": 4577,
      "zin": 4578,
      "mut": 4579,
      "Ġgenauso": 4580,
      "verkehr": 4581,
      "Ġtelefon": 4582,
      "Ã¤den": 4583,
      "Ġdeinem": 4584,
      "Ġgelegen": 4585,
      "Ġautomatisch": 4586,
      "JÃ¤hr": 4587,
      "ĠNa": 4588,
      "Ġerreich": 4589,
      "eitern": 4590,
      "ĠBedarf": 4591,
      "ĠwÃ¼nsche": 4592,
      "ĠBewer": 4593,
      "ĠKarten": 4594,
      "ĠTraining": 4595,
      "Ġsah": 4596,
      "Ġreicht": 4597,
      "ĠZweck": 4598,
      "ike": 4599,
      "ohlen": 4600,
      "ĠMilliar": 4601,
      "ĠkÃ¼": 4602,
      "Nun": 4603,
      "etzung": 4604,
      "Ġbeginnen": 4605,
      "ourn": 4606,
      "gericht": 4607,
      "ĠZentrum": 4608,
      "Ġdahin": 4609,
      "burger": 4610,
      "ĠKlima": 4611,
      "urm": 4612,
      "ĠHomepage": 4613,
      "hann": 4614,
      "Ġbewusst": 4615,
      "iten": 4616,
      "ĠAnwendung": 4617,
      "ĠRuss": 4618,
      "ĠmuÃŁ": 4619,
      "80": 4620,
      "ey": 4621,
      "Ġqual": 4622,
      "wirkungen": 4623,
      "ĠTat": 4624,
      "ĠMuseum": 4625,
      "Ġvoraus": 4626,
      "leiter": 4627,
      "ĠInformation": 4628,
      "ĠFarbe": 4629,
      "ĠKr": 4630,
      "Ġgeboren": 4631,
      "ĠÃľberblick": 4632,
      "holt": 4633,
      "ĠExperten": 4634,
      "Ġalleine": 4635,
      "ĠFenster": 4636,
      "Ġherunter": 4637,
      "Ġehemal": 4638,
      "Al": 4639,
      "ĠGelegenheit": 4640,
      "verlÃ¤ss": 4641,
      "gemeinen": 4642,
      "Ġbestimmte": 4643,
      "steht": 4644,
      "ĠVerhalten": 4645,
      "ĠTochter": 4646,
      "setzt": 4647,
      "ĠGottes": 4648,
      "euten": 4649,
      "ĠTex": 4650,
      "ĠGesicht": 4651,
      "ibel": 4652,
      "zahlung": 4653,
      "ĠIr": 4654,
      "zahlt": 4655,
      "alk": 4656,
      "gruppen": 4657,
      "Ġgestalten": 4658,
      "ai": 4659,
      "geschichte": 4660,
      "ĠðŁĻĤ": 4661,
      "fernung": 4662,
      "Ġentsprechenden": 4663,
      "ĠpersÃ¶nliche": 4664,
      "adem": 4665,
      "Ġwissenschaft": 4666,
      "Ġres": 4667,
      "ĠFÃ¤h": 4668,
      "Ġsodass": 4669,
      "ĠHaft": 4670,
      "isiert": 4671,
      "ĠHeute": 4672,
      "Ġbequem": 4673,
      "publik": 4674,
      "Ġinzwischen": 4675,
      "ĠbetrÃ¤gt": 4676,
      "ĠgroÃŁes": 4677,
      "fo": 4678,
      "ĠReich": 4679,
      "ĠKlasse": 4680,
      "ĠfÃ¼hlen": 4681,
      "irm": 4682,
      "ĠDienstag": 4683,
      "ĠMacht": 4684,
      "ĠÃ¼berall": 4685,
      "ĠSee": 4686,
      "dest": 4687,
      "ĠÃ¼berras": 4688,
      "over": 4689,
      "res": 4690,
      "ĠBef": 4691,
      "merzen": 4692,
      "ĠBett": 4693,
      "Te": 4694,
      "ĠÃ¼bernehmen": 4695,
      "rt": 4696,
      "ĠTeilnahme": 4697,
      "leisch": 4698,
      "Ġ196": 4699,
      "Ger": 4700,
      "ĠWÃ¼nsche": 4701,
      "schuss": 4702,
      "Jetzt": 4703,
      "ĠSach": 4704,
      "Ġspr": 4705,
      "ĠgrÃ¼n": 4706,
      "Ġfalsch": 4707,
      "pft": 4708,
      "linge": 4709,
      "ĠBayern": 4710,
      "uhr": 4711,
      "SG": 4712,
      "uster": 4713,
      "Weitere": 4714,
      "Ġentgegen": 4715,
      "ĠÃĸffentlichkeit": 4716,
      "spir": 4717,
      "Ġwichtiger": 4718,
      "22": 4719,
      "ĠStein": 4720,
      "sprache": 4721,
      "ĠZiele": 4722,
      "itieren": 4723,
      "ĠHeimat": 4724,
      "Ã¼tz": 4725,
      "Ġmin": 4726,
      "ĠstÃ¤ndig": 4727,
      "ĠTemperatur": 4728,
      "ĠStudie": 4729,
      "raktion": 4730,
      "sletter": 4731,
      "ĠErinner": 4732,
      "ĠGebie": 4733,
      "uck": 4734,
      "ĠProdukten": 4735,
      "Ġung": 4736,
      "ĠVideos": 4737,
      "bil": 4738,
      "ĠPlanung": 4739,
      "ĠVerantwortung": 4740,
      "ĠHintergrund": 4741,
      "erklÃ¤rung": 4742,
      "garten": 4743,
      "ĠberÃ¼ck": 4744,
      "ĠGr": 4745,
      "ĠMat": 4746,
      "Ġerstellen": 4747,
      "elev": 4748,
      "ĠerklÃ¤ren": 4749,
      "ollen": 4750,
      "stru": 4751,
      "ĠKilometer": 4752,
      "ĠErde": 4753,
      "ĠNatÃ¼rlich": 4754,
      "Ġ#": 4755,
      "Ġlohnt": 4756,
      "Heute": 4757,
      "Ġernst": 4758,
      "edes": 4759,
      "ĠWander": 4760,
      "passen": 4761,
      "ĠBedingungen": 4762,
      "ĠKollegen": 4763,
      "ĠgrÃ¶ÃŁte": 4764,
      "Ġumfang": 4765,
      "otto": 4766,
      "ĠLÃ¶": 4767,
      "bs": 4768,
      "Ã¤lfte": 4769,
      "ĠBade": 4770,
      "ĠVerk": 4771,
      "ĠAlb": 4772,
      "ĠVorteil": 4773,
      "akte": 4774,
      "Ġsehe": 4775,
      "Ġgebe": 4776,
      "edia": 4777,
      "Ġeinzigart": 4778,
      "Ġ2007": 4779,
      ".:": 4780,
      "ĠPo": 4781,
      "ĠausdrÃ¼ck": 4782,
      "Ġnochmal": 4783,
      "Vers": 4784,
      "ĠTats": 4785,
      "Ġintegr": 4786,
      "Ġeingesetzt": 4787,
      "09": 4788,
      "ĠHimmel": 4789,
      "Ges": 4790,
      "lust": 4791,
      "ĠKaffee": 4792,
      "ĠVolks": 4793,
      "ĠFreizeit": 4794,
      "Ġinteressiert": 4795,
      "ĠGrÃ¼nde": 4796,
      "ĠIS": 4797,
      "ĠDauer": 4798,
      "ĠFlughafen": 4799,
      "Ġmehreren": 4800,
      "ĠEnd": 4801,
      "ĠCookies": 4802,
      "gewÃ¶hn": 4803,
      "ĠLeser": 4804,
      "eisen": 4805,
      "ĠTiere": 4806,
      "Ġspricht": 4807,
      "ĠReisen": 4808,
      "zep": 4809,
      "istische": 4810,
      "ĠGrundlage": 4811,
      "Ġmusst": 4812,
      "verband": 4813,
      "ĠWÃ¼r": 4814,
      "ĠRein": 4815,
      "Ġrelativ": 4816,
      "Ġeure": 4817,
      "ĠSpan": 4818,
      ",-": 4819,
      "ĠTro": 4820,
      "ĠKor": 4821,
      "haber": 4822,
      "alender": 4823,
      "mosphÃ¤re": 4824,
      "aket": 4825,
      "ĠSonder": 4826,
      "Ġgestern": 4827,
      "ĠEUR": 4828,
      "Ġhilf": 4829,
      "blich": 4830,
      "Ġmiteinander": 4831,
      "ĠUntersuch": 4832,
      "ĠgegrÃ¼n": 4833,
      "Ġheutigen": 4834,
      "beitet": 4835,
      "ĠvielfÃ¤lt": 4836,
      "ĠZahn": 4837,
      "Ġmm": 4838,
      "ĠRest": 4839,
      "iness": 4840,
      "do": 4841,
      "ĠKÃ¼nstler": 4842,
      "ĠgefÃ¤hr": 4843,
      "ĠBestand": 4844,
      "!âĢľ": 4845,
      "ĠMedizin": 4846,
      "ĠVergangen": 4847,
      "ĠBericht": 4848,
      "Ġachten": 4849,
      "rÃ¼cke": 4850,
      "ĠTab": 4851,
      "els": 4852,
      "OR": 4853,
      "Danke": 4854,
      "ĠLinks": 4855,
      "fÃ¤higkeit": 4856,
      "Ġ*": 4857,
      "zur": 4858,
      "Ã¶tzlich": 4859,
      "Ġeingesch": 4860,
      "ĠDownload": 4861,
      "Ġgedacht": 4862,
      "Ġverbessern": 4863,
      "ĠermÃ¶glichen": 4864,
      "raucht": 4865,
      "ĠSchwe": 4866,
      "Ġextrem": 4867,
      "Ġschneller": 4868,
      "reter": 4869,
      "bereitung": 4870,
      "ĠMeine": 4871,
      "Ġwirst": 4872,
      "Ġleisten": 4873,
      "hei": 4874,
      "ĠVereins": 4875,
      "forderung": 4876,
      "Ġkleines": 4877,
      "schlÃ¤ge": 4878,
      "apan": 4879,
      "Ġarbeitet": 4880,
      "ĠDom": 4881,
      "ĠDoppel": 4882,
      "passt": 4883,
      "ĠMilliarden": 4884,
      "System": 4885,
      "Ġsicherlich": 4886,
      "pa": 4887,
      "Ġ45": 4888,
      "freund": 4889,
      "ĠGrenzen": 4890,
      "ĠAmazon": 4891,
      "stitut": 4892,
      "ĠEindruck": 4893,
      "ĠHunde": 4894,
      "abend": 4895,
      "Ġkrit": 4896,
      "Ã¶pf": 4897,
      "ĠSchrift": 4898,
      "Ġgeschlossen": 4899,
      "nungen": 4900,
      "Â´": 4901,
      "ĠRisiko": 4902,
      "Ã¼nftig": 4903,
      "Ġdagegen": 4904,
      "gart": 4905,
      "Ġglauben": 4906,
      "Neu": 4907,
      "ĠLeistungs": 4908,
      "ĠDafÃ¼r": 4909,
      "ĠZeichen": 4910,
      "zeichnung": 4911,
      "ttrakt": 4912,
      "ĠWÃ¤hrend": 4913,
      "itÃ¤r": 4914,
      "wo": 4915,
      "ED": 4916,
      "eiern": 4917,
      "AL": 4918,
      "ĠÃ¤uÃŁer": 4919,
      "hel": 4920,
      "igungen": 4921,
      "ĠHochzeit": 4922,
      "Ġsozialen": 4923,
      "ĠAntworten": 4924,
      "ĠFreunden": 4925,
      "wendungen": 4926,
      "lafen": 4927,
      "ĠGerÃ¤te": 4928,
      "amin": 4929,
      "ĠZeitraum": 4930,
      "ĠGold": 4931,
      "Ġreich": 4932,
      "Meine": 4933,
      "ĠGefahr": 4934,
      "ĠWarum": 4935,
      "Ġherum": 4936,
      "ĠgrundsÃ¤tzlich": 4937,
      "âĢ¢": 4938,
      "anne": 4939,
      "ĠBevÃ¶lkerung": 4940,
      "Ġkamen": 4941,
      "itzer": 4942,
      "werte": 4943,
      "igur": 4944,
      "Ġgez": 4945,
      "ĠEuropÃ¤ischen": 4946,
      "isierung": 4947,
      "Ġwelchen": 4948,
      "ĠNachbar": 4949,
      "âĢĺ": 4950,
      "ube": 4951,
      "ĠVier": 4952,
      "05": 4953,
      "Doch": 4954,
      "ildet": 4955,
      "ĠZustand": 4956,
      "ĠGlas": 4957,
      "Ã¶se": 4958,
      "ĠausfÃ¼hr": 4959,
      "ĠGeist": 4960,
      "Ġbegeistert": 4961,
      "gelegt": 4962,
      "Mar": 4963,
      "App": 4964,
      "Ġinstall": 4965,
      "Ġgenannt": 4966,
      "ĠbeschÃ¤ftigt": 4967,
      "ĠAdresse": 4968,
      "ĠArbeitgeber": 4969,
      "ĠVergangenheit": 4970,
      "stimmungen": 4971,
      "ĠwÃ¤ren": 4972,
      "Ġzunehmen": 4973,
      "The": 4974,
      "ĠBaden": 4975,
      "Ġsolltest": 4976,
      "Ġand": 4977,
      "Ġfallen": 4978,
      "kont": 4979,
      "ĠBÃ¼ro": 4980,
      "Ġangegeben": 4981,
      "ĠStutt": 4982,
      "Ġuner": 4983,
      "kraft": 4984,
      "ĠSong": 4985,
      "Ġ01": 4986,
      "Ġabgeschlossen": 4987,
      "sprÃ¼n": 4988,
      "Ġzahlreichen": 4989,
      "sm": 4990,
      "ĠÃ¼brigens": 4991,
      "Ġbeob": 4992,
      "irn": 4993,
      "bereit": 4994,
      "annung": 4995,
      "ĠLiebl": 4996,
      "ller": 4997,
      "ĠAktivitÃ¤ten": 4998,
      "rig": 4999,
      "Ġerinner": 5000,
      "ĠFahrt": 5001,
      "ĠAmer": 5002,
      "Ġgesetzt": 5003,
      "Ġmobil": 5004,
      "werke": 5005,
      "Ġerneut": 5006,
      "Ġacht": 5007,
      "Ġober": 5008,
      "bol": 5009,
      "Ġlag": 5010,
      "Ġsinnvoll": 5011,
      "Â°": 5012,
      "kommt": 5013,
      "gesellschaft": 5014,
      "ĠWettbewerb": 5015,
      "ĠMart": 5016,
      "Ġfolgt": 5017,
      "ausch": 5018,
      "chem": 5019,
      "unkten": 5020,
      "Ġkompeten": 5021,
      "ĠGlau": 5022,
      "arzt": 5023,
      "zÃ¤hl": 5024,
      "Ġtollen": 5025,
      "onat": 5026,
      "tert": 5027,
      "Nicht": 5028,
      "ymp": 5029,
      "formen": 5030,
      "Je": 5031,
      "ĠKooper": 5032,
      "2017": 5033,
      "icro": 5034,
      "Ġmer": 5035,
      "ĠtÃ¤tig": 5036,
      "ĠTrans": 5037,
      "scheint": 5038,
      "ĠSand": 5039,
      "ĠCamp": 5040,
      "management": 5041,
      "Ġreduz": 5042,
      "Ġdiskut": 5043,
      "ffizien": 5044,
      "Ġwichtigen": 5045,
      "ĠNachrichten": 5046,
      "itt": 5047,
      "Ġausgestattet": 5048,
      "teuer": 5049,
      "ammt": 5050,
      "ICH": 5051,
      "ĠStar": 5052,
      "ese": 5053,
      "Ġessen": 5054,
      "Ġ)": 5055,
      "van": 5056,
      "Ġweder": 5057,
      "gut": 5058,
      "ĠEinsch": 5059,
      "ĠAnlage": 5060,
      "Ġklicken": 5061,
      "Ġgespannt": 5062,
      "stud": 5063,
      "ĠGeschmack": 5064,
      "Ġmaximal": 5065,
      "23": 5066,
      "gefÃ¤hr": 5067,
      "eils": 5068,
      "90": 5069,
      "Ġmachte": 5070,
      "ĠEigent": 5071,
      "urop": 5072,
      "Ġmoder": 5073,
      "Ġtotal": 5074,
      "ĠVerbraucher": 5075,
      "Ġspiel": 5076,
      "Ġentstanden": 5077,
      "Ġerh": 5078,
      "Ġmache": 5079,
      "grÃ¶": 5080,
      "Ġniedr": 5081,
      "angebot": 5082,
      "kir": 5083,
      "ĠBeteil": 5084,
      "ĠPublik": 5085,
      "ĠGrad": 5086,
      "ĠWeitere": 5087,
      "ĠBeitrÃ¤ge": 5088,
      "Ġ300": 5089,
      "Ġproduz": 5090,
      "Ġsauber": 5091,
      "21": 5092,
      "ĠAusstellung": 5093,
      "Ġgezeigt": 5094,
      "alte": 5095,
      "linie": 5096,
      "ĠVerkehrs": 5097,
      "ĠTrend": 5098,
      "Ġreag": 5099,
      "ĠAir": 5100,
      "Ġ2000": 5101,
      "ĠEinkauf": 5102,
      "ĠNetzwerk": 5103,
      "ĠGewalt": 5104,
      "Ġkor": 5105,
      "uchte": 5106,
      "rÃ¤ume": 5107,
      "ĠgewÃ¼nsch": 5108,
      "Ġbein": 5109,
      "ĠKategorie": 5110,
      "iegen": 5111,
      "Ġgelungen": 5112,
      "ĠGraf": 5113,
      "ĠLager": 5114,
      "ester": 5115,
      "Soll": 5116,
      "Ġgespeichert": 5117,
      "LAN": 5118,
      "ĠInformations": 5119,
      "ĠDienstleistungen": 5120,
      "bruch": 5121,
      "ĠWirkung": 5122,
      "ĠSÃ¼": 5123,
      "ĠTÃ¤tigkeit": 5124,
      "weder": 5125,
      "?âĢľ": 5126,
      "Ġpositiv": 5127,
      "ĠTyp": 5128,
      "Des": 5129,
      "Ġdauert": 5130,
      "ĠSchluss": 5131,
      "Ġentsprechende": 5132,
      "ĠLeider": 5133,
      "ones": 5134,
      "ĠeuropÃ¤ischen": 5135,
      "ĠStÃ¤r": 5136,
      "geht": 5137,
      "ĠFunktionen": 5138,
      "ĠVorteile": 5139,
      "Ã¼sseld": 5140,
      "ĠBrem": 5141,
      "immen": 5142,
      "ĠFÃ¼": 5143,
      "ĠStaaten": 5144,
      "ĠKommentar": 5145,
      "Ġstarten": 5146,
      "Â§": 5147,
      "elten": 5148,
      "ĠFakt": 5149,
      "06": 5150,
      "mmern": 5151,
      "ĠBack": 5152,
      "ĠWolf": 5153,
      "ĠSchiff": 5154,
      "Ġunterschiedlich": 5155,
      "Ġdrauf": 5156,
      "ĠBehÃ¶r": 5157,
      "gal": 5158,
      "ĠCl": 5159,
      "Ġaufgenommen": 5160,
      "ĠMerk": 5161,
      "ĠkÃ¼r": 5162,
      "ĠVerbesser": 5163,
      "ĠNewsletter": 5164,
      "Ġhervorragen": 5165,
      "omit": 5166,
      "ution": 5167,
      "ĠBewegung": 5168,
      "ĠImmobilien": 5169,
      "ĠverfÃ¼gen": 5170,
      "ĠSchweizer": 5171,
      "Sehr": 5172,
      "spieler": 5173,
      "bildungs": 5174,
      "ĠManagement": 5175,
      "Ġabsch": 5176,
      "Bes": 5177,
      "werden": 5178,
      "deck": 5179,
      "ternehmer": 5180,
      "ĠZuf": 5181,
      "stÃ¤ndigen": 5182,
      "Ġ2006": 5183,
      "etzte": 5184,
      "Ġsieben": 5185,
      "Ġeiniges": 5186,
      "angt": 5187,
      "ĠjÃ¼n": 5188,
      "usste": 5189,
      "ĠBu": 5190,
      "Ġengag": 5191,
      "ieten": 5192,
      "klusive": 5193,
      "ĠTrotz": 5194,
      "agn": 5195,
      "ĠPfer": 5196,
      "Ġerscheint": 5197,
      "fassung": 5198,
      "ĠUnterricht": 5199,
      "messen": 5200,
      "Ġwillst": 5201,
      "ĠSmartphone": 5202,
      "ĠerzÃ¤hlt": 5203,
      "ĠTheater": 5204,
      "ĠerhÃ¤ltlich": 5205,
      "ĠGeschenk": 5206,
      "Ġerstellt": 5207,
      "ĠEt": 5208,
      "Ġbekomm": 5209,
      "03": 5210,
      "ĠWorkshop": 5211,
      "Au": 5212,
      "ĠSicherheits": 5213,
      "zir": 5214,
      "Ġgekauft": 5215,
      "Ġvertreten": 5216,
      "ĠZahlen": 5217,
      "mitglie": 5218,
      "ĠUrs": 5219,
      "Ã¤ngst": 5220,
      "Ġunmittel": 5221,
      "ĠIniti": 5222,
      "ĠSalz": 5223,
      "lad": 5224,
      "formular": 5225,
      "Warum": 5226,
      "Ġverantwortlich": 5227,
      "Ġbegann": 5228,
      "Ġse": 5229,
      "ĠJugendliche": 5230,
      "rÃ¤gen": 5231,
      "ĠPsych": 5232,
      "Ġanbieten": 5233,
      "uhe": 5234,
      "renz": 5235,
      "Ã¤ndler": 5236,
      "sÃ¤tze": 5237,
      "Ġlangen": 5238,
      "ĠBrowser": 5239,
      "ĠTeile": 5240,
      "betrieb": 5241,
      "ĠPresse": 5242,
      "ĠAnschluss": 5243,
      "gest": 5244,
      "aup": 5245,
      "ĠZwischen": 5246,
      "rÃ¤ft": 5247,
      "Ã¤ische": 5248,
      "ĠLehrer": 5249,
      "ĠWaren": 5250,
      "ile": 5251,
      "Ġvoller": 5252,
      "stes": 5253,
      "Wo": 5254,
      "Ġtief": 5255,
      "ournal": 5256,
      "ĠHÃ¤lfte": 5257,
      "Ġvern": 5258,
      "ministerium": 5259,
      "ĠDo": 5260,
      "ĠJes": 5261,
      "Ġries": 5262,
      "testen": 5263,
      "ehme": 5264,
      "ÃĦ": 5265,
      "jekten": 5266,
      "ĠHar": 5267,
      "vel": 5268,
      "hre": 5269,
      "rufen": 5270,
      "ĠDetails": 5271,
      "Ge": 5272,
      "kÃ¼nd": 5273,
      "ĠSzen": 5274,
      "Ġlebt": 5275,
      "ĠWorte": 5276,
      "ĠHandels": 5277,
      "ĠStrate": 5278,
      "ĠJeder": 5279,
      "arch": 5280,
      "07": 5281,
      "Ġbedeuten": 5282,
      "Ġmelden": 5283,
      "regierung": 5284,
      "Ġsteigen": 5285,
      "stÃ¤ndnis": 5286,
      "Ġpassende": 5287,
      "technik": 5288,
      "rechte": 5289,
      "lament": 5290,
      "eidung": 5291,
      "ĠTor": 5292,
      "ĠKompeten": 5293,
      "ĠAtmosphÃ¤re": 5294,
      "ĠSchulen": 5295,
      "sonsten": 5296,
      "ikanischen": 5297,
      "aktiv": 5298,
      "ĠMax": 5299,
      "ĠMarken": 5300,
      "schafts": 5301,
      "ĠArchite": 5302,
      "ĠHann": 5303,
      "Ġzahlen": 5304,
      "ĠBeschÃ¤ft": 5305,
      "Ġwachsen": 5306,
      "Ġentdecken": 5307,
      "TE": 5308,
      "Ġneg": 5309,
      "ĠFÃ¶rderung": 5310,
      "Ġsex": 5311,
      "ĠMeister": 5312,
      "ĠServer": 5313,
      "zum": 5314,
      "Ġrei": 5315,
      "ĠDarÃ¼ber": 5316,
      "Ġbestellen": 5317,
      "Ġsucht": 5318,
      "ĠChina": 5319,
      "ĠverÃ¤ndert": 5320,
      "sprach": 5321,
      "Ġkostet": 5322,
      "kor": 5323,
      "Ġmensch": 5324,
      "Ġverpflichtet": 5325,
      "ĠSchne": 5326,
      "reig": 5327,
      "ink": 5328,
      "ĠNachricht": 5329,
      "wÃ¼rd": 5330,
      "ĠArbeitspl": 5331,
      "ĠPartei": 5332,
      "echseln": 5333,
      "Akt": 5334,
      "otiv": 5335,
      "ĠselbstverstÃ¤ndlich": 5336,
      "Ġentweder": 5337,
      "ĠEngagement": 5338,
      "yer": 5339,
      "ĠBetriebs": 5340,
      "ĠauÃŁerhalb": 5341,
      "Ã¤ss": 5342,
      "spiele": 5343,
      "empf": 5344,
      "ĠenthÃ¤lt": 5345,
      "Ġdachte": 5346,
      "ĠInterview": 5347,
      "ĠOut": 5348,
      "ĠKrankheit": 5349,
      "ĠgefÃ¼hrt": 5350,
      "ĠStr": 5351,
      "omas": 5352,
      "rimin": 5353,
      "Ġwillkommen": 5354,
      "alz": 5355,
      "Ġkre": 5356,
      "machen": 5357,
      "Ġans": 5358,
      "Ġgefragt": 5359,
      "ĠFreiheit": 5360,
      "ĠwunderschÃ¶n": 5361,
      "ĠHaushalt": 5362,
      "ĠRussland": 5363,
      "Ġkontakt": 5364,
      "ĠSpezial": 5365,
      "ĠWirtschafts": 5366,
      "Ġletzt": 5367,
      "Ġtran": 5368,
      "ong": 5369,
      "Ġdire": 5370,
      "Ġlieb": 5371,
      "ĠBeziehung": 5372,
      "windigkeit": 5373,
      "ux": 5374,
      "Ġgetan": 5375,
      "ĠLinie": 5376,
      "ĠEinfluss": 5377,
      "Ġsenden": 5378,
      "ĠKoll": 5379,
      "ĠPlay": 5380,
      "ĠFrieden": 5381,
      "Ã¤ume": 5382,
      "Ã¤mpfen": 5383,
      "rid": 5384,
      "ĠInnov": 5385,
      "ĠBew": 5386,
      "ĠtrÃ¤gt": 5387,
      "ĠClub": 5388,
      "Ġunterschiedliche": 5389,
      "08": 5390,
      "Ġkurze": 5391,
      "ĠEhe": 5392,
      "aber": 5393,
      "Ġtradition": 5394,
      "vollen": 5395,
      "achtung": 5396,
      "Ġzuk": 5397,
      "04": 5398,
      "legung": 5399,
      "ĠbegrÃ¼": 5400,
      "Ġph": 5401,
      "ĠSerie": 5402,
      "Ã¤rm": 5403,
      "ĠSa": 5404,
      "luss": 5405,
      "Ġsparen": 5406,
      "li": 5407,
      "Ch": 5408,
      "Ġerlaubt": 5409,
      "Ġgeplant": 5410,
      "stÃ¤nden": 5411,
      "Ġrechts": 5412,
      "ĠDorf": 5413,
      "ĠRot": 5414,
      "ĠErnÃ¤hrung": 5415,
      "ĠStruktur": 5416,
      "hung": 5417,
      "Ġattrakt": 5418,
      "ĠPflanzen": 5419,
      "stoffe": 5420,
      "jenigen": 5421,
      "ĠWeihnachts": 5422,
      "erseits": 5423,
      "Ġgener": 5424,
      "temberg": 5425,
      "Ġinteressante": 5426,
      "Ġlecker": 5427,
      "ĠMichael": 5428,
      "ane": 5429,
      "Ġverschw": 5430,
      "ĠÃ¼berzeugt": 5431,
      "Ġlok": 5432,
      "ĠnÃ¶tig": 5433,
      "fristig": 5434,
      "ĠMer": 5435,
      "Ġbeschrieben": 5436,
      "Ġfreut": 5437,
      "greifen": 5438,
      "MS": 5439,
      "ĠMesse": 5440,
      "linik": 5441,
      "ĠFerienwohn": 5442,
      "Deutsch": 5443,
      "Ġteilen": 5444,
      "ĠStuttgart": 5445,
      "ĠKann": 5446,
      "ĠRechnung": 5447,
      "krieg": 5448,
      "Ġerfolgen": 5449,
      "ĠRezept": 5450,
      "ĠUnterschied": 5451,
      "ĠZeu": 5452,
      "eise": 5453,
      "ĠplÃ¶tzlich": 5454,
      "ĠWachst": 5455,
      "Ġsorgt": 5456,
      "ĠStandort": 5457,
      "ĠEreig": 5458,
      "ias": 5459,
      "ĠerfÃ¼llen": 5460,
      "Ġausreichend": 5461,
      "Ġinnov": 5462,
      "versammlung": 5463,
      "gerufen": 5464,
      "Ġinformiert": 5465,
      "ĠDokument": 5466,
      "lÃ¤uf": 5467,
      "Ã¼ren": 5468,
      "Ġrech": 5469,
      "ĠAlters": 5470,
      "bli": 5471,
      "ĠÃ¶ffentlich": 5472,
      "ĠVolk": 5473,
      "ĠMinister": 5474,
      "oben": 5475,
      "ĠdÃ¼rfte": 5476,
      "Ġfehlt": 5477,
      "ĠCharakter": 5478,
      "ĠPeter": 5479,
      "ĠMotto": 5480,
      "Ġberichtet": 5481,
      "ld": 5482,
      "ates": 5483,
      "Ġstud": 5484,
      "VD": 5485,
      "ĠEd": 5486,
      "ĠPri": 5487,
      "ĠKirchen": 5488,
      "ĠQual": 5489,
      "ĠBildungs": 5490,
      "fÃ¤lle": 5491,
      "Ġtechnischen": 5492,
      "stellte": 5493,
      "ĠJohann": 5494,
      "lÃ¤nd": 5495,
      "achung": 5496,
      "ĠBedÃ¼rfnisse": 5497,
      "rab": 5498,
      "Ġdur": 5499,
      "Ġgehalten": 5500,
      "Ġprivaten": 5501,
      "scher": 5502,
      "stechn": 5503,
      "ĠBot": 5504,
      "Ġvorber": 5505,
      "ĠTon": 5506,
      "ĠKamera": 5507,
      "sequ": 5508,
      "ĠChancen": 5509,
      "nissen": 5510,
      "Ġpolitischen": 5511,
      "acher": 5512,
      "iveau": 5513,
      "Ã¼rttemberg": 5514,
      "zielle": 5515,
      "heber": 5516,
      "Grund": 5517,
      "Ġgleiche": 5518,
      "Ġmei": 5519,
      "Ġinternational": 5520,
      "auchen": 5521,
      "linien": 5522,
      "ĠDass": 5523,
      "geord": 5524,
      "DR": 5525,
      "stÃ¤ndige": 5526,
      "Ġdaraus": 5527,
      "ĠBern": 5528,
      "ampag": 5529,
      "zesse": 5530,
      "ĠKombin": 5531,
      "ĠAbt": 5532,
      "adurch": 5533,
      "gress": 5534,
      "ĠBall": 5535,
      "ĠWerbung": 5536,
      "ĠÃ¼berprÃ¼": 5537,
      "Ġwesentlich": 5538,
      "ĠschÃ¼tzen": 5539,
      "lag": 5540,
      "ĠerwÃ¤hn": 5541,
      "ĠFeld": 5542,
      "ĠEnglisch": 5543,
      "ĠWeihnachten": 5544,
      "ĠnatÃ¼r": 5545,
      "ĠVertrauen": 5546,
      "ĠJugendlichen": 5547,
      "Dat": 5548,
      "Ã¼hm": 5549,
      "ĠPosition": 5550,
      "ĠglÃ¼cklich": 5551,
      "ĠergÃ¤n": 5552,
      "sinn": 5553,
      "hÃ¶ren": 5554,
      "ĠFreundin": 5555,
      "ssystem": 5556,
      "ĠHÃ¶r": 5557,
      "ĠFel": 5558,
      "Ġtechnische": 5559,
      "hard": 5560,
      "Ġdiver": 5561,
      "ĠKlassen": 5562,
      "ĠOrigin": 5563,
      "Ġ2005": 5564,
      "ĠkÃ¶rper": 5565,
      "deten": 5566,
      "ĠerfÃ¼llt": 5567,
      "pekt": 5568,
      "ĠFahrrad": 5569,
      "wechsel": 5570,
      "Damit": 5571,
      "ĠRab": 5572,
      "PS": 5573,
      "ĠBaby": 5574,
      "mittlung": 5575,
      "Ġsamm": 5576,
      "ikal": 5577,
      "fahrer": 5578,
      "rael": 5579,
      "tent": 5580,
      "ĠErlebnis": 5581,
      "beite": 5582,
      "ĠzÃ¤hlt": 5583,
      "ĠgeÃ¤ndert": 5584,
      "Ġangezeigt": 5585,
      "anlagen": 5586,
      "elte": 5587,
      "ĠFrie": 5588,
      "Ex": 5589,
      "Ġgehe": 5590,
      "49": 5591,
      "ript": 5592,
      "Ã¤h": 5593,
      "ondon": 5594,
      "Ġvieles": 5595,
      "fachen": 5596,
      "ĠGebiet": 5597,
      "Ġfach": 5598,
      "Bis": 5599,
      "ĠParis": 5600,
      "formationen": 5601,
      "Ġeigenes": 5602,
      "back": 5603,
      "Ġfalls": 5604,
      "ĠKern": 5605,
      "Ġbezahlen": 5606,
      "ĠgenÃ¼": 5607,
      "ĠBrief": 5608,
      "Ġgesetzlichen": 5609,
      "ĠEmpfeh": 5610,
      "iefer": 5611,
      "ĠMÃ¶": 5612,
      "Ġwollten": 5613,
      "!\"": 5614,
      "ĠDatenschutzerklÃ¤rung": 5615,
      "omen": 5616,
      "ash": 5617,
      "ĠgegrÃ¼ndet": 5618,
      "Ġinvest": 5619,
      "ĠFalle": 5620,
      "ĠÃ¤hnlich": 5621,
      "service": 5622,
      "Ġergeben": 5623,
      "Ġ195": 5624,
      "Ġhierzu": 5625,
      "ĠHinweis": 5626,
      "TV": 5627,
      "Ġwirkt": 5628,
      "ĠGri": 5629,
      "Ġwor": 5630,
      "ĠRestaurants": 5631,
      "ehrt": 5632,
      "ps": 5633,
      "ĠTeams": 5634,
      "ĠHerausforderungen": 5635,
      "ĠVielzahl": 5636,
      "Ġindividuelle": 5637,
      "ĠLebensmittel": 5638,
      "Ġschreibt": 5639,
      "ĠKritik": 5640,
      "hafte": 5641,
      "ĠErkrank": 5642,
      "ĠYork": 5643,
      "Ġausger": 5644,
      "hnung": 5645,
      "rÃ¤nkt": 5646,
      "ĠUnfall": 5647,
      "sburg": 5648,
      "Ġdauer": 5649,
      "Ġmeines": 5650,
      "lÃ¶sung": 5651,
      "ĠstÃ¤rker": 5652,
      "Ġgering": 5653,
      "ĠFans": 5654,
      "ĠOpfer": 5655,
      "int": 5656,
      "ĠGeheim": 5657,
      "ĠForschungs": 5658,
      "ĠMaschinen": 5659,
      "Ġdarunter": 5660,
      "ana": 5661,
      "ake": 5662,
      "pfel": 5663,
      "plÃ¤tze": 5664,
      "ragte": 5665,
      "Ġaufs": 5666,
      "Viele": 5667,
      "Alles": 5668,
      "Shop": 5669,
      "ĠLeip": 5670,
      "nicht": 5671,
      "barer": 5672,
      "ĠPan": 5673,
      "ire": 5674,
      "ĠLieferung": 5675,
      "ĠRunde": 5676,
      "Ġberecht": 5677,
      "ĠAss": 5678,
      "ĨĴ": 5679,
      "Ġindividuellen": 5680,
      "Ġverkaufen": 5681,
      "bek": 5682,
      "ĠDiskussion": 5683,
      "ĠFernseh": 5684,
      "ĠBewertung": 5685,
      "ĠChem": 5686,
      "Ġarbeite": 5687,
      "rochen": 5688,
      "ĠVarian": 5689,
      "ace": 5690,
      "ifik": 5691,
      "ĠNummer": 5692,
      "rucken": 5693,
      "Ġgetroffen": 5694,
      "ĠLang": 5695,
      "ĠRegeln": 5696,
      "Ã¤dt": 5697,
      "Ġbehandelt": 5698,
      "vention": 5699,
      "utlich": 5700,
      "punkte": 5701,
      "ĠImmer": 5702,
      "verfahren": 5703,
      "Ġkonzentr": 5704,
      "Ġmedizin": 5705,
      "ĠÃ¼berw": 5706,
      "Ġproblem": 5707,
      "ĠMir": 5708,
      "Ġzeig": 5709,
      "ĠPaar": 5710,
      "ĠBrÃ¼": 5711,
      "wertungen": 5712,
      "ĠTel": 5713,
      "ĠMannschaft": 5714,
      "ĠGericht": 5715,
      "abet": 5716,
      "ĠÃĦnderungen": 5717,
      "ĠGewicht": 5718,
      "ĠSprach": 5719,
      "Ġ150": 5720,
      "ĠAben": 5721,
      "ĠfranzÃ¶s": 5722,
      "ĠAp": 5723,
      "33": 5724,
      "Â²": 5725,
      "tend": 5726,
      "ĠzuverlÃ¤ss": 5727,
      "ader": 5728,
      "Ġwelchem": 5729,
      "ĠApple": 5730,
      "ĠmÃ¼sste": 5731,
      "Ġunters": 5732,
      "ĠWeiterlesen": 5733,
      "ĠSPD": 5734,
      "Ġpsych": 5735,
      "ĠBetreuung": 5736,
      "AG": 5737,
      "ĠmÃ¶chtest": 5738,
      "ĠUnterkunft": 5739,
      "ĠVerstÃ¤ndnis": 5740,
      "vertrag": 5741,
      "ĠprÃ¼": 5742,
      "zusetzen": 5743,
      "Ġ:-)": 5744,
      "ET": 5745,
      "ĠBerliner": 5746,
      "bad": 5747,
      "ĠGute": 5748,
      "ĠNor": 5749,
      "ĠUmsatz": 5750,
      "enzen": 5751,
      "ĠgewÃ¤hlt": 5752,
      "Ġerstmal": 5753,
      "ĠMicro": 5754,
      "ĠschÃ¶nes": 5755,
      "mode": 5756,
      "EG": 5757,
      "Ġ36": 5758,
      "hlight": 5759,
      "Ġmussten": 5760,
      "Ã¤dag": 5761,
      "ĠTabl": 5762,
      "dien": 5763,
      "drich": 5764,
      "ĠIntegr": 5765,
      "icke": 5766,
      "gÃ¤nge": 5767,
      "ĠStiftung": 5768,
      "27": 5769,
      "Ġakzept": 5770,
      "ĠBusiness": 5771,
      "26": 5772,
      "ĠPrÃ¼fung": 5773,
      "bliothe": 5774,
      "Vielen": 5775,
      "fter": 5776,
      "ĠLeiden": 5777,
      "kohol": 5778,
      "ĠMio": 5779,
      "ĠvollstÃ¤ndig": 5780,
      "ĠVoraussetzungen": 5781,
      "ĠWh": 5782,
      "Ġamer": 5783,
      "Ġvermeiden": 5784,
      "ĠBetroffen": 5785,
      "orge": 5786,
      "gebracht": 5787,
      "ĠMess": 5788,
      "Ġirgendwann": 5789,
      "Nur": 5790,
      "ĠHalb": 5791,
      "Ġregion": 5792,
      "ames": 5793,
      "ĠgeschÃ¼tzt": 5794,
      "Ġkomme": 5795,
      "Ġgemeinsamen": 5796,
      "ĠTreffen": 5797,
      "ĠLive": 5798,
      "ffer": 5799,
      "ĠgeÃ¶ffnet": 5800,
      "ĠSchon": 5801,
      "qualitÃ¤t": 5802,
      "Ġverbringen": 5803,
      "Ġgewonnen": 5804,
      "Ġmittel": 5805,
      "ĠLaufe": 5806,
      "ĠOrdnung": 5807,
      "rastruktur": 5808,
      "ival": 5809,
      "ales": 5810,
      "ĠStimme": 5811,
      "schnit": 5812,
      "ĠDrei": 5813,
      "ams": 5814,
      "Ã¼cher": 5815,
      "ĠgÃ¼nstig": 5816,
      "Ġgeschafft": 5817,
      "Ġtrifft": 5818,
      "Phone": 5819,
      "ĠFalls": 5820,
      "ĠFlÃ¤": 5821,
      "ĠMonats": 5822,
      "ĠMarke": 5823,
      "Ġsorg": 5824,
      "otion": 5825,
      "hy": 5826,
      "Ġbitten": 5827,
      "Ġteilnehmen": 5828,
      "ĠStil": 5829,
      "AM": 5830,
      "Ġverf": 5831,
      "Ġentspricht": 5832,
      "Ġhoffen": 5833,
      "ĠGu": 5834,
      "ĠKreuz": 5835,
      "arbeiter": 5836,
      "ĠSehen": 5837,
      "ory": 5838,
      "Ġbas": 5839,
      "sser": 5840,
      "ĠSocial": 5841,
      "Ġkultur": 5842,
      "illa": 5843,
      "ĠsÃ¤m": 5844,
      "lieÃŁt": 5845,
      "Ġschwierig": 5846,
      "verbind": 5847,
      "ĠFit": 5848,
      "hindern": 5849,
      "ĠDÃ¼sseld": 5850,
      "Ġmodernen": 5851,
      "Ġkurzen": 5852,
      "ĠAustausch": 5853,
      "ĠðŁĺī": 5854,
      "ĠBrand": 5855,
      "wenn": 5856,
      "Ġpf": 5857,
      "ĠSter": 5858,
      "Ġdritten": 5859,
      "Ste": 5860,
      "Ġtyp": 5861,
      "geschrieben": 5862,
      "Ġnennen": 5863,
      "ĠMig": 5864,
      "ĠSeele": 5865,
      "box": 5866,
      "innern": 5867,
      "ĠHÃ¼": 5868,
      "folgt": 5869,
      "Na": 5870,
      "ĠPapier": 5871,
      "ĠZahlungs": 5872,
      "Ġbewegen": 5873,
      "Ġstimmt": 5874,
      "andid": 5875,
      "ĠMotiv": 5876,
      "Kann": 5877,
      "ĠBesonders": 5878,
      "isst": 5879,
      "rinken": 5880,
      "Ġunglaub": 5881,
      "ĠGetrÃ¤n": 5882,
      "28": 5883,
      "Ġevent": 5884,
      "Ġdient": 5885,
      "Art": 5886,
      "ĠWelche": 5887,
      "ĠMitarbeitern": 5888,
      "ĠHol": 5889,
      "Gesch": 5890,
      "Ġbilden": 5891,
      "**": 5892,
      "Ġgesellschaft": 5893,
      "ĠTw": 5894,
      "aill": 5895,
      "ĠhÃ¤ngt": 5896,
      "log": 5897,
      "umente": 5898,
      "Ġfreien": 5899,
      "ĠUnion": 5900,
      "ĠBanken": 5901,
      "liste": 5902,
      "ĠAuff": 5903,
      "ID": 5904,
      "zepte": 5905,
      "kÃ¼n": 5906,
      "ikro": 5907,
      "ines": 5908,
      "atter": 5909,
      "Ġsitzen": 5910,
      "zeige": 5911,
      "Ġsozial": 5912,
      "ĠMass": 5913,
      "Ġeiniger": 5914,
      "lappt": 5915,
      "Ġdanke": 5916,
      "ĠMittag": 5917,
      "asten": 5918,
      "ĠSchlag": 5919,
      "rennen": 5920,
      "ĠLondon": 5921,
      "ĠErsatz": 5922,
      "ĠFC": 5923,
      "ĠAnsch": 5924,
      "ĠUmfang": 5925,
      "ĠKontrolle": 5926,
      "ĠDrit": 5927,
      "pert": 5928,
      "ĠHerrn": 5929,
      "istisch": 5930,
      "telligen": 5931,
      "NatÃ¼rlich": 5932,
      "soft": 5933,
      "ĠBeim": 5934,
      "ĠSchlafzimmer": 5935,
      "ĠSpielen": 5936,
      "hausen": 5937,
      "ĠUpd": 5938,
      "ektor": 5939,
      "osoph": 5940,
      "rasch": 5941,
      "ĠElektro": 5942,
      "spf": 5943,
      "Dar": 5944,
      "ĠTurn": 5945,
      "band": 5946,
      "Ã¤mpf": 5947,
      "Ã¤ne": 5948,
      "bern": 5949,
      "ĠursprÃ¼n": 5950,
      "Sh": 5951,
      "ortet": 5952,
      "ĠDeutschlands": 5953,
      "35": 5954,
      "ĠBud": 5955,
      "ĠOper": 5956,
      "oche": 5957,
      "Ġeinzelne": 5958,
      "ĠGef": 5959,
      "Neben": 5960,
      "eichern": 5961,
      "ics": 5962,
      "West": 5963,
      "02": 5964,
      "Ã¼cken": 5965,
      "ĠanschlieÃŁend": 5966,
      "2016": 5967,
      "Ġruhig": 5968,
      "ĠRed": 5969,
      "Ġnahm": 5970,
      "igem": 5971,
      "ĠVit": 5972,
      "Ġlinks": 5973,
      "Ġgegangen": 5974,
      "Ġelektron": 5975,
      "spielen": 5976,
      "ĠSchnitt": 5977,
      "Ġladen": 5978,
      "ĠPDF": 5979,
      "rechts": 5980,
      "ĠTrau": 5981,
      "Ġzieht": 5982,
      "Nein": 5983,
      "reck": 5984,
      "Ġbeantworten": 5985,
      "entwicklung": 5986,
      "Ã¼ltig": 5987,
      "ĠPersÃ¶n": 5988,
      "Produ": 5989,
      "vier": 5990,
      "ĠAufbau": 5991,
      "dauer": 5992,
      "ĠLesen": 5993,
      "ĠKu": 5994,
      "Ġprofitieren": 5995,
      "ĠÃľbersicht": 5996,
      "assungs": 5997,
      "Ġpassenden": 5998,
      "Ġreden": 5999,
      "ĠWechsel": 6000,
      "Ġeffekt": 6001,
      "Ġkommun": 6002,
      "ĠLeit": 6003,
      "ĠAuge": 6004,
      "altung": 6005,
      "Ġbessere": 6006,
      "ĠWare": 6007,
      "Ġerlebt": 6008,
      "ĠEinblick": 6009,
      "ĠTherapie": 6010,
      "ĠâĨĴ": 6011,
      "Ġperfekte": 6012,
      "hlt": 6013,
      "ĠBalkon": 6014,
      "weite": 6015,
      "ĠWand": 6016,
      "ziehungen": 6017,
      "bi": 6018,
      "ĠSing": 6019,
      "Ġvorgestellt": 6020,
      "ĠPrem": 6021,
      "ĠEintritt": 6022,
      "wenden": 6023,
      "Ġzuerst": 6024,
      "ĠJahrzehn": 6025,
      "Ã¤testens": 6026,
      "riere": 6027,
      "ĠHandel": 6028,
      "gte": 6029,
      "Ġbetroffenen": 6030,
      "ĠSehr": 6031,
      "Ġkenne": 6032,
      "ĠInteress": 6033,
      "Ġverhindern": 6034,
      "ĠHinweise": 6035,
      "ĠVerlag": 6036,
      "enken": 6037,
      "Ã¤st": 6038,
      "iversitÃ¤t": 6039,
      "Ġbezeichnet": 6040,
      "gelassen": 6041,
      "blichen": 6042,
      "Ġexist": 6043,
      "ĠSeine": 6044,
      "po": 6045,
      "ĠBerat": 6046,
      "ĠFÃ¼hrung": 6047,
      "ĠStudenten": 6048,
      "ĠzusÃ¤tzliche": 6049,
      "Ġleg": 6050,
      "Ġsicht": 6051,
      "Ġschlimm": 6052,
      "ĠVielen": 6053,
      "ĠHerausforderung": 6054,
      "ĠfÃ¼": 6055,
      "ĠMaterialien": 6056,
      "ĠBest": 6057,
      "ĠLux": 6058,
      "artet": 6059,
      "ĠWunder": 6060,
      "zenz": 6061,
      "cm": 6062,
      "ĠÃ¼berzeugen": 6063,
      "ĠBildern": 6064,
      "rug": 6065,
      "ĠKonto": 6066,
      "kul": 6067,
      "ĠKÃ¼hl": 6068,
      "ĠKooperation": 6069,
      "opt": 6070,
      "Ġgespielt": 6071,
      "ĠKommentare": 6072,
      "Ġdest": 6073,
      "ĠWerte": 6074,
      "ĠAusgabe": 6075,
      "ĠDadurch": 6076,
      "UR": 6077,
      "Ġbuchen": 6078,
      "ichert": 6079,
      "ĠTick": 6080,
      "of": 6081,
      "leistet": 6082,
      "ĠGesundheits": 6083,
      "use": 6084,
      "ĠGeschichten": 6085,
      "ĠzÃ¤hlen": 6086,
      "Ġerstmals": 6087,
      "ĠVo": 6088,
      "mark": 6089,
      "Ġverlieren": 6090,
      "ĠWichtig": 6091,
      "Ġpolitische": 6092,
      "ĠRÃ¼cken": 6093,
      "alisieren": 6094,
      "ĠPil": 6095,
      "ĠSchlÃ¼ssel": 6096,
      "Ġtelefonisch": 6097,
      "ĠKal": 6098,
      "Ġtro": 6099,
      "ĠGestaltung": 6100,
      "Ġinternationale": 6101,
      "ĠEinrichtung": 6102,
      "Ġliefern": 6103,
      "ĠTransport": 6104,
      "undestag": 6105,
      "Ã¤umen": 6106,
      "wart": 6107,
      "ĠMedik": 6108,
      "ĠWeil": 6109,
      "ĠPrÃ¤sident": 6110,
      "gliche": 6111,
      "Ġfroh": 6112,
      "onen": 6113,
      "Ġmel": 6114,
      "Ġged": 6115,
      "leger": 6116,
      "ĠSpeicher": 6117,
      "Ġweiteres": 6118,
      "ĠÃĸl": 6119,
      "Ġweiterer": 6120,
      "sieht": 6121,
      "ĠZugriff": 6122,
      "Ġflex": 6123,
      "ĠlieÃŁ": 6124,
      "ĠfÃ¶rdern": 6125,
      "ĠprÃ¤sentieren": 6126,
      "merz": 6127,
      "eilung": 6128,
      "ĠEmail": 6129,
      "ichtete": 6130,
      "ĠNutzen": 6131,
      "ĠBlu": 6132,
      "volution": 6133,
      "Ġpar": 6134,
      "Ġjung": 6135,
      "Ġbreit": 6136,
      "akten": 6137,
      "Ġaufmerksam": 6138,
      "ĠPrakt": 6139,
      "ĠMartin": 6140,
      "liegt": 6141,
      "Ġ>": 6142,
      "Tag": 6143,
      "ĠAgen": 6144,
      "riebe": 6145,
      "dat": 6146,
      "Ġgemeinsame": 6147,
      "schrank": 6148,
      "ĠEinfÃ¼hrung": 6149,
      "ĠTri": 6150,
      "maÃŁen": 6151,
      "ĠGlauben": 6152,
      "WÃ¼rttemberg": 6153,
      "ĠFleisch": 6154,
      "ĠfÃ¼hlt": 6155,
      "spartner": 6156,
      "ĠVerÃ¶ffentlich": 6157,
      "Ġbehaup": 6158,
      "Ġauspro": 6159,
      "tlichen": 6160,
      "Ã¤ck": 6161,
      "ĠÃ¼bertragen": 6162,
      "Ġerled": 6163,
      "Ġerinnern": 6164,
      "ĠPrinzip": 6165,
      "Ġbekannte": 6166,
      "ervice": 6167,
      "ios": 6168,
      "Ġhand": 6169,
      "slam": 6170,
      "ĠPoten": 6171,
      "essour": 6172,
      "ĠZeitung": 6173,
      "ĠTechnologie": 6174,
      "Ġschau": 6175,
      "Ġtreten": 6176,
      "ĠKons": 6177,
      "Ġehrlich": 6178,
      "ĠSupp": 6179,
      "Ġerscheinen": 6180,
      "ĠWahrheit": 6181,
      "Bet": 6182,
      "sta": 6183,
      "Ġnett": 6184,
      "roid": 6185,
      "ĠVorder": 6186,
      "Ġeindeut": 6187,
      "Ġzeich": 6188,
      "zufÃ¼hren": 6189,
      "eck": 6190,
      "okus": 6191,
      "Ġeinfache": 6192,
      "denburg": 6193,
      "amb": 6194,
      "karten": 6195,
      "mme": 6196,
      "ĠMedia": 6197,
      "ĠArten": 6198,
      "kunde": 6199,
      "ĠDro": 6200,
      "ĠVertrieb": 6201,
      "ĠAutom": 6202,
      "ĠRelig": 6203,
      "ĠTelef": 6204,
      "ĠschÃ¶ner": 6205,
      "Ġbemer": 6206,
      "Ġseid": 6207,
      "ĠschÃ¶nsten": 6208,
      "ologien": 6209,
      "Sc": 6210,
      "liefert": 6211,
      "ĠThomas": 6212,
      "ĠHor": 6213,
      "ĠunabhÃ¤ngig": 6214,
      "Ġsoziale": 6215,
      "ĠLo": 6216,
      "ĠverÃ¤ndern": 6217,
      "Ġ32": 6218,
      "schirm": 6219,
      "leitet": 6220,
      "ĠHÃ¤nde": 6221,
      "ĠGutschein": 6222,
      "ĠgrÃ¼": 6223,
      "ĠHilf": 6224,
      "liefer": 6225,
      "ologischen": 6226,
      "ĠWerbe": 6227,
      "gangs": 6228,
      "sitz": 6229,
      "Ihre": 6230,
      "ĠAufnahme": 6231,
      "ĠTerrasse": 6232,
      "rhein": 6233,
      "Ġspannend": 6234,
      "ĠStÃ¤dte": 6235,
      "Pf": 6236,
      "Ġregistr": 6237,
      "ĠOffen": 6238,
      "ĠiPhone": 6239,
      "antie": 6240,
      "Ġstellte": 6241,
      "ena": 6242,
      "Ġerweiter": 6243,
      "lecht": 6244,
      "Ġwusste": 6245,
      "zeichnen": 6246,
      "ĠKonzert": 6247,
      "Ġmittels": 6248,
      "ĠlÃ¶sen": 6249,
      "Ġteuer": 6250,
      "Ġverkauft": 6251,
      "go": 6252,
      "enter": 6253,
      "ĠBier": 6254,
      "ĠInstall": 6255,
      "ilien": 6256,
      "Nachdem": 6257,
      "ograph": 6258,
      "!)": 6259,
      "Ġlauf": 6260,
      "ĠNeue": 6261,
      "Ġschicken": 6262,
      "ĠFÃ¤higkeiten": 6263,
      "ĠHerren": 6264,
      "usstsein": 6265,
      "Ġbegonnen": 6266,
      "ĠKonfl": 6267,
      "ĠFrem": 6268,
      "ĠEinkommen": 6269,
      "endung": 6270,
      "Ġjahr": 6271,
      "ĠAnlagen": 6272,
      "ĠGerade": 6273,
      "Ġbehalten": 6274,
      "ĠRock": 6275,
      "sichtigt": 6276,
      "politik": 6277,
      "ĠTradition": 6278,
      "ĠTÃ¼rk": 6279,
      "ĠKer": 6280,
      "Ã¤hlte": 6281,
      "Ġentdeckt": 6282,
      "Ġauseinander": 6283,
      "Ġoffenen": 6284,
      "ĠStress": 6285,
      "otograf": 6286,
      "ĠKombination": 6287,
      "Ġschrei": 6288,
      "ivil": 6289,
      "Or": 6290,
      "ĠAnteil": 6291,
      "ĠChef": 6292,
      "orie": 6293,
      "Ġnieder": 6294,
      "Ġleichter": 6295,
      "ĠTatsache": 6296,
      "Ġ2004": 6297,
      "ĠVerÃ¤nderungen": 6298,
      "ĠAuswirkungen": 6299,
      "stÃ¤r": 6300,
      "rÃ¤umen": 6301,
      "Ġnutz": 6302,
      "aszin": 6303,
      "ĠberÃ¼hm": 6304,
      "Ġfreundlich": 6305,
      "obby": 6306,
      "waltungs": 6307,
      "Ġumgesetzt": 6308,
      "ĠAnliegen": 6309,
      "okratie": 6310,
      "ĠStrecke": 6311,
      "Ġstattfinden": 6312,
      "ĠLaden": 6313,
      "ĠVorsitzen": 6314,
      "ĠLern": 6315,
      "alismus": 6316,
      "Ġsprach": 6317,
      "Ġjedenfalls": 6318,
      "ĠâĢĶ": 6319,
      "barung": 6320,
      "ĠDan": 6321,
      "ĠNoch": 6322,
      "ĠFlu": 6323,
      "ĠRede": 6324,
      "spruchs": 6325,
      "ĠAufmerksam": 6326,
      "ĠStreit": 6327,
      "ĠSchritte": 6328,
      "bis": 6329,
      "ĠVerwaltung": 6330,
      "ĠLiteratur": 6331,
      "29": 6332,
      "haften": 6333,
      "ĠCasino": 6334,
      "Ġkostenfrei": 6335,
      "ĠBenutzer": 6336,
      "ĠSeminar": 6337,
      "Ġbislang": 6338,
      "Ġerhoben": 6339,
      "Ġumfasst": 6340,
      "Ġeins": 6341,
      "ĠDÃ¼sseldorf": 6342,
      "steigen": 6343,
      "Ġausgeb": 6344,
      "ĠHy": 6345,
      "wissenschaft": 6346,
      "ĠLaut": 6347,
      "ynam": 6348,
      "ĠFahrer": 6349,
      "ĠEinrichtungen": 6350,
      "wirken": 6351,
      "Ġeingeladen": 6352,
      "ĠDollar": 6353,
      "Ġvermutlich": 6354,
      "ĠHoffnung": 6355,
      "alog": 6356,
      "Ġdienen": 6357,
      "Ġeingerichtet": 6358,
      "lack": 6359,
      "Le": 6360,
      "Ġrelev": 6361,
      "Ġdesto": 6362,
      "ĠTermine": 6363,
      "ĠFeuerwehr": 6364,
      "gesprÃ¤": 6365,
      "itiv": 6366,
      "ĠSchÃ¼lerinnen": 6367,
      "ĠÃ¶ffnen": 6368,
      "hÃ¤user": 6369,
      "ices": 6370,
      "Ġdran": 6371,
      "ĠregelmÃ¤ÃŁ": 6372,
      "Ġverurs": 6373,
      "ĠTrainer": 6374,
      "atisch": 6375,
      "Ġverstanden": 6376,
      "Ġit": 6377,
      "ieÃŁ": 6378,
      "ĠAnsprech": 6379,
      "uk": 6380,
      "ĠMiss": 6381,
      "Ġkomplex": 6382,
      "orfen": 6383,
      "ĠForder": 6384,
      "ĠEntsp": 6385,
      "gf": 6386,
      "ĠUrteil": 6387,
      "ĠPaul": 6388,
      "ĠAbsatz": 6389,
      "ĠReaktion": 6390,
      "ĠTexte": 6391,
      "etzten": 6392,
      "gemeine": 6393,
      "por": 6394,
      "ĠkÃ¼mmern": 6395,
      "ĠausdrÃ¼cklich": 6396,
      "falen": 6397,
      "ĠWel": 6398,
      "uellen": 6399,
      "ĠHof": 6400,
      "Ġschnelle": 6401,
      "ussen": 6402,
      "ĠSein": 6403,
      "ĠAnalyse": 6404,
      "omie": 6405,
      "ĠSachsen": 6406,
      "ĠHochschule": 6407,
      "ĠPrÃ¼f": 6408,
      "ĠAlbum": 6409,
      "Ġpraktisch": 6410,
      "ĠNahr": 6411,
      "ĠZÃ¼r": 6412,
      "Vielleicht": 6413,
      "Ġsofern": 6414,
      "berecht": 6415,
      "Ġkontaktieren": 6416,
      "2015": 6417,
      "Ġbeeinfl": 6418,
      "Ġangemessen": 6419,
      "ĠSchloss": 6420,
      "ĠlÃ¤ngst": 6421,
      "JÃ¤hrige": 6422,
      "ĠPlattform": 6423,
      "twicklung": 6424,
      "bett": 6425,
      "ĠAlex": 6426,
      "ica": 6427,
      "maschine": 6428,
      "ektion": 6429,
      "Ġverwende": 6430,
      "ĠUmfeld": 6431,
      "arif": 6432,
      "Ġform": 6433,
      "Ġfe": 6434,
      "ĠCom": 6435,
      "CD": 6436,
      "melden": 6437,
      "ragten": 6438,
      "Ġpassieren": 6439,
      "Ġausges": 6440,
      "Ġgelernt": 6441,
      "ĠGemeinschaft": 6442,
      "Ġaussehen": 6443,
      "ahnen": 6444,
      "unkel": 6445,
      "ĠSpanien": 6446,
      "Ġvergleichen": 6447,
      "ĠStoff": 6448,
      "ĠTal": 6449,
      "ĠArbeitnehmer": 6450,
      "ĠVielfalt": 6451,
      "ĠPool": 6452,
      "netz": 6453,
      "Ã¤dagog": 6454,
      "Ġblo": 6455,
      "ĠJournal": 6456,
      "Ġhe": 6457,
      "ĠgrÃ¶ÃŁere": 6458,
      "ĠShow": 6459,
      "ĠInternetseite": 6460,
      "fÃ¼llung": 6461,
      "ĠAspe": 6462,
      "ĠAblauf": 6463,
      "Seite": 6464,
      "Ġlust": 6465,
      "schulen": 6466,
      "Ġplanen": 6467,
      "ĠprÃ¤sentiert": 6468,
      "fÃ¤llt": 6469,
      "ĠInstrum": 6470,
      "funktion": 6471,
      "gier": 6472,
      "Ġbegleiten": 6473,
      "ĠmÃ¼": 6474,
      "Ġgerecht": 6475,
      "ĠGas": 6476,
      "Ġentsteht": 6477,
      "ĠZuhause": 6478,
      "Ġ194": 6479,
      "Ġsport": 6480,
      "decken": 6481,
      "play": 6482,
      "ĠLeipzig": 6483,
      "ĠAufmerksamkeit": 6484,
      "ĠMethoden": 6485,
      "WÃ¤hrend": 6486,
      "Ġholen": 6487,
      "Ġhttps": 6488,
      "ST": 6489,
      "Ġglob": 6490,
      "Ġzweit": 6491,
      "angebote": 6492,
      "ĠBra": 6493,
      "Ġeinfacher": 6494,
      "ĠbestÃ¤tigt": 6495,
      "Ġbauen": 6496,
      "indust": 6497,
      "Ġfeiern": 6498,
      "ĠjÃ¤hrlich": 6499,
      "Reg": 6500,
      "Ġfrem": 6501,
      "werbe": 6502,
      "bungen": 6503,
      "Ġverab": 6504,
      "Ġerleich": 6505,
      "ĠPerspekt": 6506,
      "Ġ400": 6507,
      "nitten": 6508,
      "hoch": 6509,
      "ĠBeste": 6510,
      "klasse": 6511,
      "ĠAlternative": 6512,
      "schauen": 6513,
      "ĠHannover": 6514,
      "ĠDeb": 6515,
      "Ġantw": 6516,
      "Ġtrau": 6517,
      "Ã¼ssen": 6518,
      "Beim": 6519,
      "ĠJahrhunderts": 6520,
      "ĠAndre": 6521,
      "ĠAnzeige": 6522,
      "ĠEntscheidungen": 6523,
      "ĠWLAN": 6524,
      "reff": 6525,
      "Ã¼re": 6526,
      "maÃŁnahmen": 6527,
      "han": 6528,
      "ĠhÃ¶rt": 6529,
      "sprechend": 6530,
      "Ġ2002": 6531,
      "Ġmoderne": 6532,
      "forschung": 6533,
      "ĠWes": 6534,
      "70": 6535,
      "ĠPublikum": 6536,
      "affung": 6537,
      "gefÃ¼hl": 6538,
      "Stud": 6539,
      "OM": 6540,
      "ĠNachmittag": 6541,
      "Ġgehabt": 6542,
      "ĠAutos": 6543,
      "RE": 6544,
      "ologische": 6545,
      "ĠZentr": 6546,
      "rik": 6547,
      "SGVO": 6548,
      "ĠMel": 6549,
      "ĠWell": 6550,
      "Ġoptim": 6551,
      "Gem": 6552,
      "Ġheim": 6553,
      "rages": 6554,
      "ĠerhÃ¶ht": 6555,
      "ĠBahnhof": 6556,
      "cel": 6557,
      "ĠgroÃŁart": 6558,
      "essor": 6559,
      "ĠLÃ¤nge": 6560,
      "ĠProt": 6561,
      "ĠUser": 6562,
      "halle": 6563,
      "Ġbeit": 6564,
      "ĠDennoch": 6565,
      "ĠKrankenhaus": 6566,
      "ĠMod": 6567,
      "Ġorden": 6568,
      "Techn": 6569,
      "ĠsÃ¼d": 6570,
      "Ġmotiv": 6571,
      "ĠBonus": 6572,
      "ĠGeneration": 6573,
      "sa": 6574,
      "ĠGrundstÃ¼ck": 6575,
      "ĠRadio": 6576,
      "yl": 6577,
      "ĠungefÃ¤hr": 6578,
      "Ġgeeig": 6579,
      "ĠEp": 6580,
      "ĠFriedrich": 6581,
      "ĠOff": 6582,
      "isieren": 6583,
      "ona": 6584,
      "ĠFranz": 6585,
      "ĠDurchfÃ¼hrung": 6586,
      "Leider": 6587,
      "ischem": 6588,
      "ĠmÃ¶glichen": 6589,
      "Prof": 6590,
      "industrie": 6591,
      "Ġwechseln": 6592,
      "ĠSchreiben": 6593,
      "ordin": 6594,
      "ĠDatei": 6595,
      "ĠBundestag": 6596,
      "ĠFitness": 6597,
      "ĠFilme": 6598,
      "ĠCont": 6599,
      "ĠerzÃ¤hlen": 6600,
      "Ġstaat": 6601,
      "vangel": 6602,
      "tes": 6603,
      "Ġberichten": 6604,
      "Ġwirken": 6605,
      "Ġ=": 6606,
      "ĠBehÃ¶rden": 6607,
      "Ġleiden": 6608,
      "ĠKÃ¤ufer": 6609,
      "ĠÃ¼bernommen": 6610,
      ".Â«": 6611,
      "mund": 6612,
      "ĠZul": 6613,
      "aufnahme": 6614,
      "film": 6615,
      "versorgung": 6616,
      "Ġhinein": 6617,
      "Ġanerk": 6618,
      "lÃ¤nder": 6619,
      "ziehungs": 6620,
      "Ġ08": 6621,
      "ĠVerz": 6622,
      "Ġverlie": 6623,
      "Ġgarantiert": 6624,
      "Ġ;)": 6625,
      "angs": 6626,
      "gewicht": 6627,
      "far": 6628,
      "reen": 6629,
      "ĠModelle": 6630,
      "ĠJesus": 6631,
      "ĠGrie": 6632,
      "reitet": 6633,
      "ole": 6634,
      "Ġkrank": 6635,
      "ĠspÃ¤t": 6636,
      "IL": 6637,
      "essourcen": 6638,
      "ĠVerhÃ¤ltnis": 6639,
      "ĠParteien": 6640,
      "ĠParlament": 6641,
      "macht": 6642,
      "Ġsichern": 6643,
      "ĠDamen": 6644,
      "PrÃ¤": 6645,
      "Ġinkl": 6646,
      "ĠFein": 6647,
      "ĠAufwand": 6648,
      "orient": 6649,
      "AP": 6650,
      "Ġmanche": 6651,
      "ĠGebrauch": 6652,
      "ĠGegensatz": 6653,
      "ĠFokus": 6654,
      "ehl": 6655,
      "ĠMac": 6656,
      "Ġfehlen": 6657,
      "okument": 6658,
      "ĠEinen": 6659,
      "ĠDel": 6660,
      "holung": 6661,
      "iertes": 6662,
      "Ser": 6663,
      "ada": 6664,
      "Ã¼se": 6665,
      "Ġunge": 6666,
      "Stand": 6667,
      "laufen": 6668,
      "Ġblau": 6669,
      "ĠJapan": 6670,
      "ĠAndroid": 6671,
      "Ã¤nn": 6672,
      "ĠKompon": 6673,
      "Ġrichtet": 6674,
      "Ġ2003": 6675,
      "ĠAf": 6676,
      "sidenten": 6677,
      "ĠHum": 6678,
      "Programm": 6679,
      "ĠSekunden": 6680,
      "Ġinteressieren": 6681,
      "Denn": 6682,
      "ĠDres": 6683,
      "maschinen": 6684,
      "Ġmeistens": 6685,
      "amilien": 6686,
      "emente": 6687,
      "ĠOriginal": 6688,
      "Ġbestellt": 6689,
      "Ġren": 6690,
      "kurs": 6691,
      "Ġgestaltet": 6692,
      "Ġfunktionieren": 6693,
      "ara": 6694,
      "Ġdeswegen": 6695,
      "ippen": 6696,
      "bald": 6697,
      "ĠGal": 6698,
      "bericht": 6699,
      "sorge": 6700,
      "ĠMund": 6701,
      "rim": 6702,
      ".âĢĿ": 6703,
      "ĠHans": 6704,
      "?\"": 6705,
      "Welche": 6706,
      "ĠMor": 6707,
      "inderung": 6708,
      "ĠLandschaft": 6709,
      "ĠBezir": 6710,
      "Ġgeschaffen": 6711,
      "Ġprivate": 6712,
      "ku": 6713,
      "ĠSchwier": 6714,
      "ĠWebseiten": 6715,
      "rÃ¤cht": 6716,
      "oto": 6717,
      "beratung": 6718,
      "ĠEinige": 6719,
      "liga": 6720,
      "gewiesen": 6721,
      "ĠKÃ¼nd": 6722,
      "Ġgelegt": 6723,
      "ĠrÃ¼ck": 6724,
      "ĠBox": 6725,
      "ĠkÃ¶nne": 6726,
      "Ġ33": 6727,
      "ĠMy": 6728,
      "Ġgebaut": 6729,
      "Ã¤rme": 6730,
      "Ġbesucht": 6731,
      "Ġabend": 6732,
      "Ġansehen": 6733,
      "ĠMikro": 6734,
      "Ġvorliegen": 6735,
      "ĠVertrags": 6736,
      "Ġqualifiz": 6737,
      "ĠlÃ¶": 6738,
      "Ġklingt": 6739,
      "Ġ75": 6740,
      "atze": 6741,
      "Inter": 6742,
      "Ġgeist": 6743,
      "199": 6744,
      "ĠKais": 6745,
      "stellungs": 6746,
      "nei": 6747,
      "Ġzerst": 6748,
      "dessen": 6749,
      "zieht": 6750,
      "AD": 6751,
      "Bahn": 6752,
      "Ġsogenannten": 6753,
      "ilm": 6754,
      "antas": 6755,
      "Falls": 6756,
      "ĠDusche": 6757,
      "ĠverstÃ¤nd": 6758,
      "ĠSim": 6759,
      "ĠLernen": 6760,
      "ĠÃ¶ffentliche": 6761,
      "Ġ1000": 6762,
      "omin": 6763,
      "geschÃ¤ft": 6764,
      "Ġvertrau": 6765,
      "vin": 6766,
      "ĠEntw": 6767,
      "ĠMicrosoft": 6768,
      "ĠKein": 6769,
      "Entfernung": 6770,
      "ĠKarriere": 6771,
      "ĠMult": 6772,
      "ĠAnsprechpartner": 6773,
      "stÃ¤tigung": 6774,
      "Noch": 6775,
      "ĠSE": 6776,
      "ĠDanach": 6777,
      "indet": 6778,
      "urlaub": 6779,
      "ĠWachstum": 6780,
      "ĠObjekt": 6781,
      "Ġleist": 6782,
      "ĠHalle": 6783,
      "ĠZwecke": 6784,
      "ĠPu": 6785,
      "ĠIntegration": 6786,
      "Daten": 6787,
      "Ġgezogen": 6788,
      "Ġ55": 6789,
      "ĠÃ¤r": 6790,
      "ĠLieblings": 6791,
      "ĠErklÃ¤rung": 6792,
      "ĠBÃ¼hne": 6793,
      "leisten": 6794,
      "ĠIdent": 6795,
      "za": 6796,
      "ĠGolf": 6797,
      "seitig": 6798,
      "Ġfair": 6799,
      "handel": 6800,
      "bliche": 6801,
      "Ġhistorischen": 6802,
      "Ġdigitalen": 6803,
      "swÃ¼rd": 6804,
      "ranche": 6805,
      "ĠRechtsan": 6806,
      "Ġerreichbar": 6807,
      "lebt": 6808,
      "ĠIP": 6809,
      "Ġag": 6810,
      "ĠKop": 6811,
      "Ġant": 6812,
      "wÃ¤rt": 6813,
      "Ġkurzer": 6814,
      "gner": 6815,
      "gendes": 6816,
      "ĠVersuch": 6817,
      "Ġniemals": 6818,
      "ĠAussicht": 6819,
      "ĠPflicht": 6820,
      "ĠEinfach": 6821,
      "ĠerwÃ¤hnt": 6822,
      "oth": 6823,
      "ĠprÃ¼fen": 6824,
      "ĠHighlight": 6825,
      "ĠMut": 6826,
      "reif": 6827,
      "ction": 6828,
      "ĠMittelpunkt": 6829,
      "atoren": 6830,
      "iga": 6831,
      "ĠBereiche": 6832,
      "berger": 6833,
      "Ġinklusive": 6834,
      "iums": 6835,
      "ĠerÃ¶ffnet": 6836,
      "osen": 6837,
      "dt": 6838,
      "Ġbeschlossen": 6839,
      "Ġbi": 6840,
      "Aut": 6841,
      "ĠfÃ¼hrte": 6842,
      "Ġmass": 6843,
      "azin": 6844,
      "zwe": 6845,
      "Ġabw": 6846,
      "ĠAnlass": 6847,
      "bas": 6848,
      "ĠSeni": 6849,
      "wald": 6850,
      "alerie": 6851,
      "Ġ;-)": 6852,
      "Ġverzichten": 6853,
      "Ġschrieb": 6854,
      "stern": 6855,
      "Ã¶rung": 6856,
      "IP": 6857,
      "Fl": 6858,
      "Ġversp": 6859,
      "ĠMindest": 6860,
      "ĠOpen": 6861,
      "__": 6862,
      "ĠDenk": 6863,
      "Bild": 6864,
      "Ġkontroll": 6865,
      "ortiment": 6866,
      "Ġdauern": 6867,
      "steiger": 6868,
      "Ġerstes": 6869,
      "ĠNein": 6870,
      "organis": 6871,
      "reuen": 6872,
      "ĠJack": 6873,
      "istenz": 6874,
      "Ġletzter": 6875,
      "Ġengl": 6876,
      "Ġgenauer": 6877,
      "ring": 6878,
      "annter": 6879,
      "ĠSieg": 6880,
      "ĠEigenschaften": 6881,
      "ĠJung": 6882,
      "ĠVerbesserung": 6883,
      "indert": 6884,
      "ĠErwachsene": 6885,
      "UniversitÃ¤t": 6886,
      "II": 6887,
      "siehe": 6888,
      "ĠVerlauf": 6889,
      "mens": 6890,
      "ĠHard": 6891,
      "Ġirgendwo": 6892,
      "ĠBestimmungen": 6893,
      "ĠerlÃ¤": 6894,
      "ertifiz": 6895,
      "ĠFisch": 6896,
      "Ġausgeschlossen": 6897,
      "uchten": 6898,
      "ĠWild": 6899,
      "Ġpositive": 6900,
      "wander": 6901,
      "Ġbekannten": 6902,
      "text": 6903,
      "Ġbenutzen": 6904,
      "nahm": 6905,
      "ĠCDU": 6906,
      "ĠZusch": 6907,
      "Ġeingeb": 6908,
      "Ġvergleich": 6909,
      "ĠStock": 6910,
      "armon": 6911,
      "ĠâĢļ": 6912,
      "ris": 6913,
      "Ã¤tzung": 6914,
      "ors": 6915,
      "ius": 6916,
      "ĠFotograf": 6917,
      "Ġhandeln": 6918,
      "Ġschafft": 6919,
      "stehenden": 6920,
      "bliothek": 6921,
      "Ġangenehm": 6922,
      "funk": 6923,
      "ammelt": 6924,
      "ĠProfil": 6925,
      "Ġpreis": 6926,
      "EU": 6927,
      "ĠSchÃ¤den": 6928,
      "Ã¼rn": 6929,
      "ĠmaÃŁ": 6930,
      "ĠKoch": 6931,
      "ĠOhne": 6932,
      "36": 6933,
      "ĠBio": 6934,
      "Ġmonat": 6935,
      "ĠVermÃ¶gen": 6936,
      "stu": 6937,
      "ĠRoman": 6938,
      "ĠSchuld": 6939,
      "stren": 6940,
      "ĠErwart": 6941,
      "pol": 6942,
      "tr": 6943,
      "hÃ¤ngig": 6944,
      "Ġbezahlt": 6945,
      "formation": 6946,
      "Ġident": 6947,
      "ĠerklÃ¤rte": 6948,
      "ĠBranche": 6949,
      "Ġbewe": 6950,
      "ĠUrheber": 6951,
      "Ġgetr": 6952,
      "hlen": 6953,
      "Ġversteht": 6954,
      "ĠAdvent": 6955,
      "38": 6956,
      "Ġfehl": 6957,
      "andern": 6958,
      "ugend": 6959,
      "ĠGrÃ¼ÃŁe": 6960,
      "ĠDVD": 6961,
      "kultur": 6962,
      "Ã¶rdert": 6963,
      "Ã¤fte": 6964,
      "Ġgesucht": 6965,
      "2014": 6966,
      "Mark": 6967,
      "nummer": 6968,
      "Ġverdient": 6969,
      "ĠBach": 6970,
      "Ġstolz": 6971,
      "obert": 6972,
      "splan": 6973,
      "Ġblieb": 6974,
      "KW": 6975,
      "Ġneuesten": 6976,
      "krÃ¤fte": 6977,
      "ĠSchwerpunkt": 6978,
      "Ġbenutzt": 6979,
      "gerÃ¤t": 6980,
      "ĠFran": 6981,
      "Ġsammeln": 6982,
      "ymn": 6983,
      "Ġwarm": 6984,
      "Ġfreiwill": 6985,
      "Ġverletzt": 6986,
      "loud": 6987,
      "arn": 6988,
      "ikanische": 6989,
      "ĠExt": 6990,
      "ĠverstÃ¤r": 6991,
      "Ġgelangen": 6992,
      "Ġtesten": 6993,
      "ĠAussage": 6994,
      "bart": 6995,
      "ĠBruder": 6996,
      "ĠTwitter": 6997,
      "Ġbetroffene": 6998,
      "Ġ34": 6999,
      "bindung": 7000,
      "km": 7001,
      "ĠNeues": 7002,
      "ĠWil": 7003,
      "Ġbetreffen": 7004,
      "Komm": 7005,
      "ĠbemÃ¼": 7006,
      "Ho": 7007,
      "Ġschwarz": 7008,
      "ĠTelefonn": 7009,
      "Ã¼hlen": 7010,
      "ĠPop": 7011,
      "ademie": 7012,
      "einigung": 7013,
      "IG": 7014,
      "Ġweiss": 7015,
      "ĠLeiter": 7016,
      "Ġschwar": 7017,
      "iden": 7018,
      "Ġmoment": 7019,
      "ĠHat": 7020,
      "ĠVertreter": 7021,
      "Ġcool": 7022,
      "ĠKindes": 7023,
      "inu": 7024,
      "Liebe": 7025,
      "Ġintensiv": 7026,
      "Dass": 7027,
      "Ġstabil": 7028,
      "For": 7029,
      "ĠRoll": 7030,
      "Welt": 7031,
      "Ġerinnert": 7032,
      "ĠFÃ¤lle": 7033,
      "ĠDial": 7034,
      "ierend": 7035,
      "bedarf": 7036,
      "Ġmitten": 7037,
      "ĠRechn": 7038,
      "Ġverarbeitet": 7039,
      "ĠVorbereitung": 7040,
      "Ġstarke": 7041,
      "ĠJav": 7042,
      "ĠbeschÃ¤ftigen": 7043,
      "Ġeinsch": 7044,
      "Ġneun": 7045,
      "asi": 7046,
      "ĠCaf": 7047,
      "ĠRabatt": 7048,
      "cks": 7049,
      "500": 7050,
      "ĠTeilen": 7051,
      "leit": 7052,
      "ĠTom": 7053,
      "ars": 7054,
      "ĠKonkur": 7055,
      "Ġgearbeitet": 7056,
      "ĠAs": 7057,
      "Ġsobald": 7058,
      "Ġbesitzt": 7059,
      "paratur": 7060,
      "ĠEner": 7061,
      "iefen": 7062,
      "ĠPS": 7063,
      "Ã¤lte": 7064,
      "ĠInner": 7065,
      "ĠMehrheit": 7066,
      "gÃ¤nglich": 7067,
      "Ġruss": 7068,
      "urg": 7069,
      "Spiel": 7070,
      "ĠKenn": 7071,
      "Ġhaupt": 7072,
      "fÃ¤hig": 7073,
      "ĠÃ¼berraschen": 7074,
      "ĠAlkohol": 7075,
      "Ġhingegen": 7076,
      "ĠspÃ¤testens": 7077,
      "ĠRefer": 7078,
      "ĠEbene": 7079,
      "Ġhierbei": 7080,
      "ĠSozi": 7081,
      "ĠDritte": 7082,
      "Sel": 7083,
      "ĠKG": 7084,
      "erner": 7085,
      "...]": 7086,
      "Mus": 7087,
      "weisung": 7088,
      "ĠErinnerung": 7089,
      "ĠMilch": 7090,
      "Ġgesund": 7091,
      "Ġgepf": 7092,
      "hÃ¶rigen": 7093,
      "verordnung": 7094,
      "Â®": 7095,
      "ĠEisen": 7096,
      "Kont": 7097,
      "agten": 7098,
      "low": 7099,
      "ĠKant": 7100,
      "flÃ¤chen": 7101,
      "ĠNews": 7102,
      "ĠHauptstadt": 7103,
      "rÃ¼st": 7104,
      "staat": 7105,
      "its": 7106,
      "ĠAnf": 7107,
      "ĠParty": 7108,
      "ĠUnternehmer": 7109,
      "Ġmed": 7110,
      "ĠSw": 7111,
      "ĠZustimmung": 7112,
      "Ġko": 7113,
      "ĠGegenteil": 7114,
      "ĠVersicherungs": 7115,
      "ĠJohn": 7116,
      "figur": 7117,
      "ĠBewerbung": 7118,
      "ĠAusdruck": 7119,
      "fordern": 7120,
      "ĠStimmung": 7121,
      "kampf": 7122,
      "EM": 7123,
      "ĠerhÃ¶hen": 7124,
      "Ġeinfachen": 7125,
      "olden": 7126,
      "OL": 7127,
      "ĠJur": 7128,
      "Ġhilfreich": 7129,
      "Leist": 7130,
      "iefe": 7131,
      "Angeb": 7132,
      "ĠArg": 7133,
      "ĠFormular": 7134,
      "ĠNachdem": 7135,
      "Ġbrauch": 7136,
      "ĠAktien": 7137,
      "ĠdrauÃŁen": 7138,
      "Ġergibt": 7139,
      "ĠAngriff": 7140,
      "ratis": 7141,
      "unn": 7142,
      "teten": 7143,
      "Part": 7144,
      "ĠFinger": 7145,
      "ĠSn": 7146,
      "Ġbegleitet": 7147,
      "ĠAbenteuer": 7148,
      "ses": 7149,
      "ĠRie": 7150,
      "imierung": 7151,
      "nÃ¼": 7152,
      "verl": 7153,
      "75": 7154,
      "Ã¤hlten": 7155,
      "Ġwunderbar": 7156,
      "Ġstarken": 7157,
      "kÃ¼nfte": 7158,
      "ĠSpenden": 7159,
      "immern": 7160,
      "ĠKriterien": 7161,
      "ĠTÃ¼rkei": 7162,
      "34": 7163,
      "âĢĿ,": 7164,
      "Ġ09": 7165,
      "ĠVortrag": 7166,
      "Ġvorgesehen": 7167,
      "ĠHafen": 7168,
      "ĠFo": 7169,
      "emit": 7170,
      "ĠLandkreis": 7171,
      "Ġto": 7172,
      "Ġunverbind": 7173,
      "ĠAusnahme": 7174,
      "Ġsowas": 7175,
      "Ġkombin": 7176,
      "Ġsogenannte": 7177,
      "39": 7178,
      "ĠBelast": 7179,
      "krank": 7180,
      "ĠauÃŁen": 7181,
      "ĠRessourcen": 7182,
      "Ġbrit": 7183,
      "Ġauss": 7184,
      "ĠSollte": 7185,
      "tÃ¤u": 7186,
      "ĠÃ¼bersch": 7187,
      "ischung": 7188,
      "ĠStÃ¤dten": 7189,
      "Ġjemanden": 7190,
      "iffer": 7191,
      "Ġverste": 7192,
      "ĠMos": 7193,
      "ĠVerg": 7194,
      "Ġtrain": 7195,
      "ĠheiÃŁen": 7196,
      "Ġ06": 7197,
      "Ġeigener": 7198,
      "okal": 7199,
      "ĠZÃ¼rich": 7200,
      "szeit": 7201,
      "Ġhart": 7202,
      "ĠStad": 7203,
      "Ġland": 7204,
      "biert": 7205,
      "ĠMini": 7206,
      "Ġrufen": 7207,
      "Ġideal": 7208,
      "ĠNorden": 7209,
      "ĠÃĦrzte": 7210,
      "Ġdenkt": 7211,
      "bus": 7212,
      "ĠSign": 7213,
      "De": 7214,
      "ĠFeed": 7215,
      "ĠAmt": 7216,
      "Ã¶rderung": 7217,
      "ĠVerhand": 7218,
      "hebung": 7219,
      "Ġentlang": 7220,
      "ĠBeratungs": 7221,
      "TS": 7222,
      "sprogramm": 7223,
      "Ġerl": 7224,
      "ĠSorgen": 7225,
      "IM": 7226,
      "ĠsÃ¼": 7227,
      "Land": 7228,
      "ĠPrÃ¤sent": 7229,
      "Ġ48": 7230,
      "werben": 7231,
      "komm": 7232,
      "bilden": 7233,
      "ĠWohnzimmer": 7234,
      "ĠÃ¼berwie": 7235,
      "sichtigen": 7236,
      "Ã¼ste": 7237,
      "fahrung": 7238,
      "prÃ¤gt": 7239,
      "euern": 7240,
      "ischt": 7241,
      "ĠVorstellung": 7242,
      "iente": 7243,
      "Ġanal": 7244,
      "Ġehemaligen": 7245,
      "otos": 7246,
      "Ġrechnen": 7247,
      "willigung": 7248,
      "ish": 7249,
      "ĠgewÃ¤hrleisten": 7250,
      "ĠPay": 7251,
      "ĠFa": 7252,
      "Ġangekommen": 7253,
      "Ġfahr": 7254,
      "ĠMethode": 7255,
      "Ġberechtigt": 7256,
      "jahres": 7257,
      "ĠArme": 7258,
      "Ġkostenlose": 7259,
      "ĠÃĦnderung": 7260,
      "gere": 7261,
      "Ġreichen": 7262,
      "Ġinspir": 7263,
      "ĠAusstattung": 7264,
      "Haben": 7265,
      "Ġaufnehmen": 7266,
      "nehmern": 7267,
      "etaill": 7268,
      "Ġschriftlich": 7269,
      "Service": 7270,
      "ĠSchnee": 7271,
      "Jeder": 7272,
      "ender": 7273,
      "ĠIsrael": 7274,
      "ĠgrÃ¶ÃŁeren": 7275,
      "Ã¶rter": 7276,
      "ĠmÃ¶glicherweise": 7277,
      "Ġ38": 7278,
      "auern": 7279,
      "Ġrum": 7280,
      "Ġhergestellt": 7281,
      "Team": 7282,
      "ziplin": 7283,
      "izieren": 7284,
      "ĠÃľberrasch": 7285,
      "Jahr": 7286,
      "Ġallgemeinen": 7287,
      "kret": 7288,
      "ĠStrategie": 7289,
      "ble": 7290,
      "Ġmeint": 7291,
      "ĠÃ¶sterreich": 7292,
      "Ġstartet": 7293,
      "ppe": 7294,
      "ĠGrenze": 7295,
      "Ġwiederum": 7296,
      "Ġsteigt": 7297,
      "Ġbedanken": 7298,
      "Ġ2001": 7299,
      "Men": 7300,
      "âĢ¦.": 7301,
      "itor": 7302,
      "regungen": 7303,
      "azier": 7304,
      "ĠZweifel": 7305,
      "oler": 7306,
      "Ġlegt": 7307,
      "ppen": 7308,
      "fÃ¤llen": 7309,
      "rucht": 7310,
      "sg": 7311,
      "Ġunbek": 7312,
      "ĠStraf": 7313,
      "ĠTrum": 7314,
      "gÃ¤nger": 7315,
      "UNG": 7316,
      "Ġbetrifft": 7317,
      "ĠEntwicklungs": 7318,
      "gerÃ¤te": 7319,
      "Ġschm": 7320,
      "ites": 7321,
      "Ã¼ch": 7322,
      "ĠMaster": 7323,
      "Ġvermitteln": 7324,
      "kan": 7325,
      "Ġsan": 7326,
      "Ġerschienen": 7327,
      "ikations": 7328,
      "Ġausgezeichnet": 7329,
      "schiede": 7330,
      "ĠLeidenschaft": 7331,
      "ĠSchwanger": 7332,
      "Ġdiejenigen": 7333,
      "âĨ": 7334,
      "pflege": 7335,
      "ĠFormen": 7336,
      "rang": 7337,
      "ĠMedikamen": 7338,
      "Ġis": 7339,
      "Ã¼st": 7340,
      "seits": 7341,
      "IC": 7342,
      "Ġabsolv": 7343,
      "Ġ65": 7344,
      "ĠGemÃ¼se": 7345,
      "Ġzer": 7346,
      "ĠMiet": 7347,
      "weist": 7348,
      "Ġmach": 7349,
      "ffe": 7350,
      "ĠFan": 7351,
      "Ġdeutscher": 7352,
      "ĠGerichts": 7353,
      "ĠWaffen": 7354,
      "ĠTanz": 7355,
      ".....": 7356,
      "Ġ07": 7357,
      "richtet": 7358,
      "fÃ¼hrten": 7359,
      "^^": 7360,
      "ĠSehenswÃ¼rd": 7361,
      "wege": 7362,
      "ĠAusbildungs": 7363,
      "ĠInfrastruktur": 7364,
      "Ġtritt": 7365,
      "ĠFinanzierung": 7366,
      "Ġdringend": 7367,
      "ĠQuellen": 7368,
      "Ã¶rungen": 7369,
      "Ġanhand": 7370,
      "-/": 7371,
      "Ġgesprochen": 7372,
      "ĠZahlung": 7373,
      "ĠVerband": 7374,
      "nur": 7375,
      "ĠKreativ": 7376,
      "Ġnehme": 7377,
      "steh": 7378,
      "ĠmÃ¶gliche": 7379,
      "Ġallgemein": 7380,
      "ĠVerwaltungs": 7381,
      "Ġerfolgreiche": 7382,
      "Ġfrage": 7383,
      "Ġkorre": 7384,
      "haltet": 7385,
      "ĠZin": 7386,
      "entsch": 7387,
      "Ġderart": 7388,
      "Ġabgel": 7389,
      "messer": 7390,
      "ĠKÃ¤": 7391,
      "Hol": 7392,
      "brechen": 7393,
      "Ġnahezu": 7394,
      "ĠHein": 7395,
      "31": 7396,
      "oge": 7397,
      "ĠLab": 7398,
      "Ġdigitale": 7399,
      "Ġggf": 7400,
      "blatt": 7401,
      "Ġoffenbar": 7402,
      "dam": 7403,
      "ielten": 7404,
      "Ġfrisch": 7405,
      "IV": 7406,
      "ĠRealitÃ¤t": 7407,
      "ĠGÃ¤sten": 7408,
      "Ġkomfort": 7409,
      "Ġzugleich": 7410,
      "bÃ¼rger": 7411,
      "?!": 7412,
      "Ġspezielle": 7413,
      "Ġtolles": 7414,
      "ĠInitiative": 7415,
      "ĠAnleitung": 7416,
      "ĠAussch": 7417,
      "ĠKatzen": 7418,
      "Ġfaszin": 7419,
      "ĠÃľbern": 7420,
      "ĠBundesregierung": 7421,
      "Ġlock": 7422,
      "ĠMuster": 7423,
      "ĠSchwarz": 7424,
      "obald": 7425,
      "ĠCor": 7426,
      "Gut": 7427,
      "Ġverdienen": 7428,
      "sichts": 7429,
      "ĠSchmerzen": 7430,
      "ĠberÃ¼cksichtigt": 7431,
      "ĠOption": 7432,
      "ĠPla": 7433,
      "material": 7434,
      "Ġbegren": 7435,
      "stimmen": 7436,
      "raining": 7437,
      "fan": 7438,
      "Ġvorne": 7439,
      "cy": 7440,
      "100": 7441,
      "gemeinschaft": 7442,
      "Ġhoff": 7443,
      "ĠRob": 7444,
      "ĠSicher": 7445,
      "ĠBauch": 7446,
      "Ġaussch": 7447,
      "ĠBetreiber": 7448,
      "ĠEintrag": 7449,
      "ĠHerstellung": 7450,
      "ĠKÃ¼r": 7451,
      "ĠAutoren": 7452,
      "ĠAmts": 7453,
      "ĠWik": 7454,
      "leiten": 7455,
      "stimmt": 7456,
      "tl": 7457,
      "Kinder": 7458,
      "ĠUmstÃ¤nden": 7459,
      "fernen": 7460,
      "ĠFaktoren": 7461,
      "ĠBranchen": 7462,
      "metho": 7463,
      "Ġbrauche": 7464,
      "ladung": 7465,
      "Dabei": 7466,
      "ĠAhnung": 7467,
      "ĠNiveau": 7468,
      "ĠsÃ¤mtliche": 7469,
      "ĠJungen": 7470,
      "Ġvergeben": 7471,
      "stÃ¤ndigkeit": 7472,
      "ĠCity": 7473,
      "san": 7474,
      "Ġ000": 7475,
      "Ġvorbereitet": 7476,
      "lehen": 7477,
      "ĠLau": 7478,
      "ĠStimmen": 7479,
      "arbeite": 7480,
      "ĠUnterlagen": 7481,
      "ĠKarl": 7482,
      "ĠBlock": 7483,
      "regen": 7484,
      "ĠDresden": 7485,
      "ĠhierfÃ¼r": 7486,
      "euert": 7487,
      "Ġsteckt": 7488,
      "Ġeinst": 7489,
      "ehnt": 7490,
      "Schon": 7491,
      "Ġ250": 7492,
      "ĠHaftung": 7493,
      "Ġbegeg": 7494,
      "ĠTemperaturen": 7495,
      "ffizienz": 7496,
      "zlichen": 7497,
      "Ġeignet": 7498,
      "Ġsolange": 7499,
      "Ã¤sche": 7500,
      "gro": 7501,
      "Ġorient": 7502,
      "ĠzukÃ¼nft": 7503,
      "Ġbesitzen": 7504,
      "Ġbeant": 7505,
      "ĠBrot": 7506,
      "fÃ¼llt": 7507,
      "verwaltung": 7508,
      "ĠAktionen": 7509,
      "2013": 7510,
      "ĠKlass": 7511,
      "ĠAusgang": 7512,
      "Ġ120": 7513,
      "ĠgenÃ¼gend": 7514,
      "endes": 7515,
      "Ġhalte": 7516,
      "ĠBeziehungen": 7517,
      "gerecht": 7518,
      "ĠFahrzeuge": 7519,
      "AB": 7520,
      "Ġstammt": 7521,
      "Ġstimm": 7522,
      "ĠFrÃ¼hjahr": 7523,
      "Westfalen": 7524,
      "ĠDreh": 7525,
      "ĠKapital": 7526,
      "ĠWol": 7527,
      "oret": 7528,
      "beu": 7529,
      "ĠKol": 7530,
      "ĠZut": 7531,
      "Ġvorzu": 7532,
      "ĠKabel": 7533,
      "zy": 7534,
      "senden": 7535,
      "ĠBurg": 7536,
      "ĠGerne": 7537,
      "ĠKalender": 7538,
      "sprozess": 7539,
      "ĠHigh": 7540,
      "rete": 7541,
      "ĠÃ¤uÃŁerst": 7542,
      "ausend": 7543,
      "ĠWellness": 7544,
      "Ġkg": 7545,
      "ĠMetall": 7546,
      "werten": 7547,
      "Â«,": 7548,
      "Ġfreie": 7549,
      "ĠFrÃ¼hl": 7550,
      "mmen": 7551,
      "ĠAnregungen": 7552,
      "Ġbisherigen": 7553,
      "brit": 7554,
      "werken": 7555,
      "zten": 7556,
      "Ġbeobachten": 7557,
      "ĠOrganisationen": 7558,
      "Ġbesonderes": 7559,
      "teste": 7560,
      "ĠTool": 7561,
      "Ã¤usern": 7562,
      "zÃ¼g": 7563,
      "drucken": 7564,
      "ĠFlÃ¼chtlinge": 7565,
      "ĠProjekten": 7566,
      "prÃ¼fung": 7567,
      "ĠSituationen": 7568,
      "udwig": 7569,
      "Ã¼hrt": 7570,
      "Ġzeigte": 7571,
      "ĠWagen": 7572,
      "ĠQuart": 7573,
      "ĠStellung": 7574,
      "ĠKomfort": 7575,
      "ĠKompetenz": 7576,
      "ĠGemeinden": 7577,
      "ĠDeinen": 7578,
      "ĠZw": 7579,
      "Ġvollkommen": 7580,
      "ĠfÃ¼rs": 7581,
      "ĠRegionen": 7582,
      "ĠVorstellungen": 7583,
      "ĠBewerb": 7584,
      "ffel": 7585,
      "sÃ¤chlich": 7586,
      "lines": 7587,
      "lÃ¶sen": 7588,
      "Ġtrocken": 7589,
      "Form": 7590,
      ".[": 7591,
      "ĠLeuten": 7592,
      "freien": 7593,
      "ĠWÃ¤rme": 7594,
      "ĠHÃ¤nden": 7595,
      "ĠKlar": 7596,
      "ĠPreisen": 7597,
      "ampagne": 7598,
      "Ġbill": 7599,
      "Su": 7600,
      "Hin": 7601,
      "ĠChristian": 7602,
      "Ġeingestellt": 7603,
      "Ġdi": 7604,
      "ieht": 7605,
      "ĠFernsehen": 7606,
      "tau": 7607,
      "ruhe": 7608,
      "Ġpoten": 7609,
      "ĠLandwirtschaft": 7610,
      "Ganz": 7611,
      "klÃ¤rt": 7612,
      "ehren": 7613,
      "Ġstra": 7614,
      "ĠGÃ¼": 7615,
      "licherweise": 7616,
      "unken": 7617,
      "95": 7618,
      "Ġaltern": 7619,
      "ĠQ": 7620,
      "teile": 7621,
      "ĠFortsch": 7622,
      "Ġgetragen": 7623,
      "ĠTelefonnummer": 7624,
      "sn": 7625,
      "ĠUSB": 7626,
      "SchÃ¶n": 7627,
      "ĠGeneral": 7628,
      "Zus": 7629,
      "rock": 7630,
      "ĠDS": 7631,
      "ĠĠĠĠ": 7632,
      "veranstalt": 7633,
      "ĠUpdate": 7634,
      "Ã¤tzt": 7635,
      "ĠKenntnis": 7636,
      "ĠCO": 7637,
      "ĠschlieÃŁen": 7638,
      "helm": 7639,
      "ĠgelÃ¶": 7640,
      "ĠWasch": 7641,
      "kap": 7642,
      "ĠUntersuchung": 7643,
      "ĠVerÃ¶ffentlichung": 7644,
      "AC": 7645,
      "ĠNÃ¤ch": 7646,
      "ĠCoach": 7647,
      "ĠDemokratie": 7648,
      "ĠSteu": 7649,
      "rise": 7650,
      "ĠgewÃ¼nschten": 7651,
      "astrop": 7652,
      "ĠWorld": 7653,
      "ĠVersorgung": 7654,
      "37": 7655,
      "Ġschme": 7656,
      "Ġaufgebaut": 7657,
      "Ġeventuell": 7658,
      "Ã¤cher": 7659,
      "ĠProblemen": 7660,
      "Ġklassischen": 7661,
      "gert": 7662,
      "ĠabhÃ¤ngig": 7663,
      "beln": 7664,
      "Ġanmelden": 7665,
      "vid": 7666,
      "Ġrechten": 7667,
      "ĠWerke": 7668,
      "ulen": 7669,
      "itiert": 7670,
      "ĠKnow": 7671,
      "ĠEuropas": 7672,
      "ags": 7673,
      "ĠAlten": 7674,
      "Ġextra": 7675,
      "Ins": 7676,
      "annien": 7677,
      "ĠTrainings": 7678,
      "Ġbekomme": 7679,
      "Ġfestgestellt": 7680,
      "ĠNachfrage": 7681,
      "Ġkomplette": 7682,
      "aser": 7683,
      "Ġitalien": 7684,
      "ĠVom": 7685,
      "Ġauftreten": 7686,
      "ĠEgal": 7687,
      "Bl": 7688,
      "Che": 7689,
      "antast": 7690,
      "ĠGrÃ¼nen": 7691,
      "ĠKapitel": 7692,
      "Ġrichten": 7693,
      "ĠZusatz": 7694,
      "ktor": 7695,
      "Ġwest": 7696,
      "Ġlautet": 7697,
      "ĠeinschlieÃŁlich": 7698,
      "Ġdiesmal": 7699,
      "ĠRoh": 7700,
      "wÃ¤hlen": 7701,
      "zÃ¼ge": 7702,
      "ĠFarb": 7703,
      "ilitÃ¤t": 7704,
      "ĠTrotzdem": 7705,
      "Dem": 7706,
      "way": 7707,
      "ĠGemeinsam": 7708,
      "ĠBremen": 7709,
      "ĠGi": 7710,
      "itar": 7711,
      "kat": 7712,
      "ieden": 7713,
      "rink": 7714,
      "gerichts": 7715,
      "kehrt": 7716,
      "ĠGriechen": 7717,
      "ĠAusflug": 7718,
      "fre": 7719,
      "ulation": 7720,
      "Dr": 7721,
      "Ã¼mer": 7722,
      "ĠWohnungen": 7723,
      "ĠKino": 7724,
      "ĠBereit": 7725,
      "Ġkeinerlei": 7726,
      "Ġok": 7727,
      "ĠGenau": 7728,
      "ĠWin": 7729,
      "ĠBedien": 7730,
      "Ġtau": 7731,
      "IR": 7732,
      "ĠAutob": 7733,
      "ĠSomit": 7734,
      "Ġangenommen": 7735,
      "ĠAfr": 7736,
      "zern": 7737,
      "Ġerhielt": 7738,
      "ĠSÃ¼den": 7739,
      "ĠBeispiele": 7740,
      "lÃ¤sslich": 7741,
      "ĠDienste": 7742,
      "affe": 7743,
      "weiten": 7744,
      "druckt": 7745,
      "Ġgeblieben": 7746,
      "ĠBadezimmer": 7747,
      "AuÃŁerdem": 7748,
      "frau": 7749,
      "Ġetabl": 7750,
      "ĠgewÃ¶hn": 7751,
      "Ġrunter": 7752,
      "Ã¤g": 7753,
      "ideo": 7754,
      "gas": 7755,
      "Ġgefahren": 7756,
      "ĠfÃ¤hrt": 7757,
      "ĠHaust": 7758,
      "ĠPlÃ¤tze": 7759,
      "euchten": 7760,
      "ĠRisiken": 7761,
      "Ġeinsetzen": 7762,
      "ĠWart": 7763,
      "wel": 7764,
      "legten": 7765,
      "utzung": 7766,
      "ĠWeiterbildung": 7767,
      "Ġerfolgreichen": 7768,
      "Ġdefinitiv": 7769,
      "ĠVerf": 7770,
      "ĠYou": 7771,
      "ĠGrÃ¼ndung": 7772,
      "ĠVerlust": 7773,
      "Ġendet": 7774,
      "freiheit": 7775,
      "Ġev": 7776,
      "ĠKeine": 7777,
      "Ã¶hnen": 7778,
      "Ã¶lf": 7779,
      "ĠSortiment": 7780,
      "ĠAnsprÃ¼che": 7781,
      "ĠArbeitsplatz": 7782,
      "FA": 7783,
      "Ġspezi": 7784,
      "ĠÃ¼bernimmt": 7785,
      "count": 7786,
      "Selbst": 7787,
      "Ġangepasst": 7788,
      "ĠJungs": 7789,
      "ĠEinwohner": 7790,
      "Ġbeteiligt": 7791,
      "ĠVerpflicht": 7792,
      "Berlin": 7793,
      "On": 7794,
      "ĠKlinik": 7795,
      "ĠSehenswÃ¼rdigkeiten": 7796,
      "ĠJubil": 7797,
      "Ġglaub": 7798,
      "ĠRennen": 7799,
      "con": 7800,
      "Ġgewisse": 7801,
      "Geb": 7802,
      "britannien": 7803,
      "ĠBauern": 7804,
      "ĠRuf": 7805,
      "Ġverwir": 7806,
      "ĠZuge": 7807,
      "Ġoptimale": 7808,
      "Ġsichtbar": 7809,
      "ĠMr": 7810,
      "ĠPaket": 7811,
      "ĠEntwicklungen": 7812,
      "ĠIN": 7813,
      "Ġdenk": 7814,
      "Ġunglaublich": 7815,
      "gesp": 7816,
      "ĠObst": 7817,
      "Ã¶ffnung": 7818,
      "kund": 7819,
      "werks": 7820,
      "ĠBewertungen": 7821,
      "ĠPolitiker": 7822,
      "Ġnochmals": 7823,
      "fÃ¤llig": 7824,
      "erischen": 7825,
      "ĠTee": 7826,
      "ĠkÃ¤mpfen": 7827,
      "ĠBord": 7828,
      "Ġvieler": 7829,
      "station": 7830,
      "ita": 7831,
      "ĠZuschauer": 7832,
      "Ġbekam": 7833,
      "Ġkostenlosen": 7834,
      "ĠInternational": 7835,
      "ĠAngabe": 7836,
      "ĠDateien": 7837,
      "ĠKuchen": 7838,
      "ĠZucker": 7839,
      "ziel": 7840,
      "eter": 7841,
      "ĠNerv": 7842,
      "Ġspannende": 7843,
      "ĠTa": 7844,
      "Ġweshalb": 7845,
      "Ġmeinte": 7846,
      "Ġjene": 7847,
      "gestaltung": 7848,
      "ĠNÃ¼rn": 7849,
      "ĠAuftraggeber": 7850,
      "ĠAllgemeinen": 7851,
      "ĠTim": 7852,
      "ĠParkplatz": 7853,
      "Ġ37": 7854,
      "ĠBM": 7855,
      "ĠfrÃ¼hen": 7856,
      "ĠPet": 7857,
      "Ġvorgenommen": 7858,
      "LE": 7859,
      "ĠGÃ¶t": 7860,
      "Ġoffiziell": 7861,
      "termin": 7862,
      "Ġempfohlen": 7863,
      "ĠGegner": 7864,
      "ĠNiederl": 7865,
      "ĠZoll": 7866,
      "ĠWorten": 7867,
      "Ġsitzt": 7868,
      "Ġmitge": 7869,
      "ĠKandid": 7870,
      "ĠZit": 7871,
      "Ġzunehmend": 7872,
      "iat": 7873,
      "ĠWiderruf": 7874,
      "Ġkauf": 7875,
      "ĠBegl": 7876,
      "ĠKÃ¼chen": 7877,
      "ĠBin": 7878,
      "ĠInstallation": 7879,
      "ĠBrust": 7880,
      "ĠQuad": 7881,
      "ĠRett": 7882,
      "Ġzog": 7883,
      "ĠbegrÃ¼n": 7884,
      "32": 7885,
      "ulieren": 7886,
      "ĠEv": 7887,
      "rechnung": 7888,
      "berichte": 7889,
      "ĠGanze": 7890,
      "ĠAspekte": 7891,
      "anischen": 7892,
      "cess": 7893,
      "ĠRegistr": 7894,
      "Mitglie": 7895,
      "behalten": 7896,
      "ĠlÃ¤dt": 7897,
      "SS": 7898,
      "ĠÃ¼bert": 7899,
      "ĠReparatur": 7900,
      "Ġrechtzeitig": 7901,
      "Ġorganisiert": 7902,
      "ĠWeltkrieg": 7903,
      "ĠBÃ¤": 7904,
      "bu": 7905,
      "Â»,": 7906,
      "ĠDSGVO": 7907,
      "ĠBlumen": 7908,
      "Ġfiel": 7909,
      "ĠDigitalisierung": 7910,
      "ĠKa": 7911,
      "ĠtÃ¤glichen": 7912,
      "ĠkÃ¼nftig": 7913,
      "agd": 7914,
      "Ġtrinken": 7915,
      "iller": 7916,
      "Ġsowieso": 7917,
      "ĠGrÃ¶ÃŁen": 7918,
      "ĠGegend": 7919,
      "Ġaussieht": 7920,
      "ĠSpitzen": 7921,
      "ĠEingang": 7922,
      "ĠSterne": 7923,
      "ĠHauses": 7924,
      "losigkeit": 7925,
      "mon": 7926,
      "Em": 7927,
      "48": 7928,
      "Mir": 7929,
      "riedenheit": 7930,
      "Ġdritte": 7931,
      "ĠErfÃ¼llung": 7932,
      "Ġbestens": 7933,
      "ĠJava": 7934,
      "ĠNordrhein": 7935,
      "republik": 7936,
      "ĠKontaktformular": 7937,
      "Ġnotwendigen": 7938,
      "ĠÃ¼berprÃ¼fen": 7939,
      "Ã¼rk": 7940,
      "Gro": 7941,
      "Ġstren": 7942,
      "ĠAsy": 7943,
      "ĠgÃ¼nstiger": 7944,
      "osophie": 7945,
      "Ġdurfte": 7946,
      "holfen": 7947,
      "ĠAnsicht": 7948,
      "ĠEinstellung": 7949,
      "ĠCan": 7950,
      "ĠVerpack": 7951,
      "ĠGerman": 7952,
      "ohne": 7953,
      "lichten": 7954,
      "ĠbezÃ¼glich": 7955,
      "Ġselben": 7956,
      "Ach": 7957,
      "erei": 7958,
      "ktionen": 7959,
      "ĠFett": 7960,
      "anzler": 7961,
      "ĠLeitung": 7962,
      "ĠHÃ¤ndler": 7963,
      "ĠKart": 7964,
      "ĠViertel": 7965,
      "ĠOsten": 7966,
      "ĠPunkten": 7967,
      "ĠSyn": 7968,
      "ĠOrte": 7969,
      "ĠSympt": 7970,
      "hes": 7971,
      "ĠFeier": 7972,
      "ĠVersch": 7973,
      "wal": 7974,
      "iqu": 7975,
      "ĠPause": 7976,
      "Ġvorge": 7977,
      "ĠSysteme": 7978,
      "ĠArm": 7979,
      "Ġspeziellen": 7980,
      "ĠDarstellung": 7981,
      "klar": 7982,
      "ĠhÃ¶chste": 7983,
      "Ad": 7984,
      "able": 7985,
      "freu": 7986,
      "ĠTechnologien": 7987,
      "Ġgewissen": 7988,
      "Oder": 7989,
      "ĠRepublik": 7990,
      "ĠStern": 7991,
      "ĠgeprÃ¼": 7992,
      "ĠBetrag": 7993,
      "Ġnormalen": 7994,
      "Ġverbinden": 7995,
      "ĠBund": 7996,
      "Ġhalb": 7997,
      "ĠVordergrund": 7998,
      "weil": 7999,
      "inst": 8000,
      "Ġumge": 8001,
      "leiben": 8002,
      "ĠRen": 8003,
      "ĠErwachsenen": 8004,
      "Ġad": 8005,
      "Ġoffensichtlich": 8006,
      "ith": 8007,
      "auna": 8008,
      "ĠSamm": 8009,
      "Ġreagieren": 8010,
      "arkt": 8011,
      "prÃ¤sent": 8012,
      "stunden": 8013,
      "kaufen": 8014,
      "Se": 8015,
      "Ġanfangen": 8016,
      "ips": 8017,
      "Ġanschauen": 8018,
      "Ġvorab": 8019,
      "ĠAcht": 8020,
      "Ġweite": 8021,
      "ards": 8022,
      "Ġveran": 8023,
      "ĠTerror": 8024,
      "eigern": 8025,
      "ĠSchlieÃŁlich": 8026,
      "ĠSchwar": 8027,
      "ĠFerienwohnung": 8028,
      "ĠKontakte": 8029,
      "ĠSchwester": 8030,
      "Ġbehandeln": 8031,
      "rÃ¤glich": 8032,
      "pal": 8033,
      "ĠGeschÃ¤ftsfÃ¼hrer": 8034,
      "umenten": 8035,
      "ĠKÃ¶r": 8036,
      "Ġdargestellt": 8037,
      "leister": 8038,
      "lÃ¤sst": 8039,
      "oppelt": 8040,
      "Ġwid": 8041,
      "ĠgÃ¼nstigen": 8042,
      "ifikation": 8043,
      "Ġkat": 8044,
      "Preis": 8045,
      "hst": 8046,
      "gemÃ¤ÃŁ": 8047,
      "Ġdetaill": 8048,
      "zens": 8049,
      "Ġschlechte": 8050,
      "Ur": 8051,
      "Oh": 8052,
      "ĠSchÃ¶nheit": 8053,
      "ĠAnwendungen": 8054,
      "Ġfeststellen": 8055,
      "Ġdurchschnitt": 8056,
      "ĠReal": 8057,
      "ehmigung": 8058,
      "ĠInsgesamt": 8059,
      "Ġ04": 8060,
      "ommunity": 8061,
      "rient": 8062,
      "ĠangekÃ¼nd": 8063,
      "Ġkap": 8064,
      "ĠApps": 8065,
      "ĠVorschriften": 8066,
      "ĠNet": 8067,
      "Ġhochwertige": 8068,
      "âĢľ-": 8069,
      "ĠArchitektur": 8070,
      "Ġsolcher": 8071,
      "to": 8072,
      "lÃ¤ger": 8073,
      "Ġdro": 8074,
      "ward": 8075,
      "ĠBestandteil": 8076,
      "ĠgelÃ¶scht": 8077,
      "ĠAmb": 8078,
      "ola": 8079,
      "inuier": 8080,
      "!!!!": 8081,
      "--": 8082,
      "Ġunmittelbar": 8083,
      "ĠKommission": 8084,
      "uliert": 8085,
      "ima": 8086,
      "ahnsinn": 8087,
      "Ġbeziehen": 8088,
      "ĠjÃ¼ng": 8089,
      "ĠDeiner": 8090,
      "ĠKleidung": 8091,
      "ĠEinstellungen": 8092,
      "ĠMitgliedern": 8093,
      "ieter": 8094,
      "rÃ¼chen": 8095,
      "atischen": 8096,
      "Ġechte": 8097,
      "sprung": 8098,
      "DS": 8099,
      "ĠAch": 8100,
      "ĠBesten": 8101,
      "ĠVerteid": 8102,
      "ĠHaare": 8103,
      "Ġstammen": 8104,
      "Ġnachzu": 8105,
      "ĠVerÃ¤nderung": 8106,
      "ĠKlaus": 8107,
      "ĠauÃŁergewÃ¶hn": 8108,
      "ĠVoraussetzung": 8109,
      "etzungen": 8110,
      "ĠWesten": 8111,
      "Ġgesundheit": 8112,
      "ĠZeug": 8113,
      "El": 8114,
      "ĠPlus": 8115,
      "ĠEhren": 8116,
      "spunkt": 8117,
      "dig": 8118,
      "ĠFeedback": 8119,
      "ration": 8120,
      "ĠSpiegel": 8121,
      "ĠGrundlagen": 8122,
      "Ġbestimmen": 8123,
      "ĠBestell": 8124,
      "ĠReihen": 8125,
      "wunsch": 8126,
      "Ġnein": 8127,
      "ĠHan": 8128,
      "ĠPersÃ¶nlichkeit": 8129,
      "hÃ¶he": 8130,
      "AU": 8131,
      "ĠStau": 8132,
      "Ġbrachte": 8133,
      "Ġinstalliert": 8134,
      "2012": 8135,
      "Ġschlafen": 8136,
      "ĠWeiÃŁ": 8137,
      "ĠLÃ¼": 8138,
      "Ġentscheidet": 8139,
      "ĠMÃ¶bel": 8140,
      "Ġerstaun": 8141,
      "ĠVersicherung": 8142,
      "dy": 8143,
      "Ġoftmals": 8144,
      "Ġeindeutig": 8145,
      "ĠBetroffenen": 8146,
      "oÃŁen": 8147,
      "Ġums": 8148,
      "ĠMeld": 8149,
      "ĠHandeln": 8150,
      "ituation": 8151,
      "ĠVorfeld": 8152,
      "hÃ¶rt": 8153,
      "ĠDiagn": 8154,
      "ĠImp": 8155,
      "OP": 8156,
      "een": 8157,
      "Ã¶ren": 8158,
      "ĠHoll": 8159,
      "RW": 8160,
      "ĠSprachen": 8161,
      "echsl": 8162,
      "Ġbeliebt": 8163,
      "Haus": 8164,
      "Ġbetrieb": 8165,
      "Ġinfo": 8166,
      "sicherheit": 8167,
      "behÃ¶rde": 8168,
      "ĠSchwangerschaft": 8169,
      "ĠJust": 8170,
      "ĠÃ¶fter": 8171,
      "ĠDingen": 8172,
      "luÃŁ": 8173,
      "ĠMom": 8174,
      "ĠSchatten": 8175,
      "ĠBearbeitung": 8176,
      "ĠÃ¼berrascht": 8177,
      "berater": 8178,
      "Ġliebsten": 8179,
      "ĠzugÃ¤nglich": 8180,
      "Ġehren": 8181,
      "Immer": 8182,
      "geschlagen": 8183,
      "ĠWebs": 8184,
      "ĠPolen": 8185,
      "rÃ¤t": 8186,
      "ĠBill": 8187,
      "Ġfragte": 8188,
      "anter": 8189,
      "ĠschlÃ¤": 8190,
      "ĠObwohl": 8191,
      "Zeit": 8192,
      "ĠKos": 8193,
      "ension": 8194,
      "Vom": 8195,
      "ĠErwartungen": 8196,
      "Ġvermittelt": 8197,
      "Ġfanden": 8198,
      "Ġbewegt": 8199,
      "med": 8200,
      "\"-": 8201,
      "ĠSei": 8202,
      "ivitÃ¤t": 8203,
      "Ġdarstellen": 8204,
      "ĠWirklich": 8205,
      "Ġhoher": 8206,
      "ĠQuelle": 8207,
      "Ġmomentan": 8208,
      "ĠGrunde": 8209,
      "wÃ¤rts": 8210,
      "Ġbetrachtet": 8211,
      "Ġlo": 8212,
      "ĠRÃ¶": 8213,
      "ĠBor": 8214,
      "indungen": 8215,
      "ĠBewohner": 8216,
      "ĠInfo": 8217,
      "ĠKompl": 8218,
      "ĠLohn": 8219,
      "ĠWorkshops": 8220,
      "Ġnutzt": 8221,
      "gesetzes": 8222,
      "Ġ05": 8223,
      "ĠProfessor": 8224,
      "ĠBesitz": 8225,
      "Stra": 8226,
      "Ġschweren": 8227,
      "Ġstelle": 8228,
      "zusehen": 8229,
      "Ġgelingt": 8230,
      "ĠSP": 8231,
      "ĠWM": 8232,
      "fa": 8233,
      "78": 8234,
      "Ġlive": 8235,
      "ĠErweiter": 8236,
      "Ġproduziert": 8237,
      "Ġverlangen": 8238,
      "schreiben": 8239,
      "ĠSitzung": 8240,
      "Ġwerfen": 8241,
      "werde": 8242,
      "Ġwohnen": 8243,
      "ders": 8244,
      "Ġunterscheiden": 8245,
      "ĠWillkommen": 8246,
      "rauchen": 8247,
      "Einen": 8248,
      "ĠÃ¼berlegen": 8249,
      "Vert": 8250,
      "Ġwenigstens": 8251,
      "SU": 8252,
      "ĠGelÃ¤nde": 8253,
      "ĠFeiert": 8254,
      "ĠberÃ¼cksichtigen": 8255,
      "ĠMinute": 8256,
      "ĠGefÃ¼hle": 8257,
      "onstr": 8258,
      "Ã¤cheln": 8259,
      "Ġ600": 8260,
      "ĠTÃ¤ter": 8261,
      "Ġschaut": 8262,
      "otor": 8263,
      "Ã¼tter": 8264,
      "ĠVorgehen": 8265,
      "alyse": 8266,
      "ĠBonn": 8267,
      "ĠTrump": 8268,
      "oga": 8269,
      "mmert": 8270,
      "ĠMand": 8271,
      "ĠModern": 8272,
      "ĠTodes": 8273,
      "ĠBereits": 8274,
      "zellen": 8275,
      "ml": 8276,
      "ĠEngland": 8277,
      "ĠEinwilligung": 8278,
      "stagram": 8279,
      "sÃ¤": 8280,
      "rah": 8281,
      "rÃ¤ften": 8282,
      "beginn": 8283,
      "ĠKlick": 8284,
      "ĠhÃ¶here": 8285,
      "Ġdavor": 8286,
      "platte": 8287,
      "genie": 8288,
      "Ġimmerhin": 8289,
      "verk": 8290,
      "Ġverbessert": 8291,
      "ĠDarm": 8292,
      "ckte": 8293,
      "Ġendg": 8294,
      "ĠCent": 8295,
      "ellschaften": 8296,
      "ĠGesprÃ¤che": 8297,
      "ĠBeschreibung": 8298,
      "bilder": 8299,
      "iete": 8300,
      "Will": 8301,
      "ĠÂ°": 8302,
      "ĠkÃ¼nd": 8303,
      "ipps": 8304,
      "Ġgeschieht": 8305,
      "Ġideale": 8306,
      "Ġkontinuier": 8307,
      "Ġerzielen": 8308,
      "ĠGarantie": 8309,
      "rats": 8310,
      "ĠRheinland": 8311,
      "arl": 8312,
      "ĠProzesse": 8313,
      "ĠJubilÃ¤um": 8314,
      "ĠSenioren": 8315,
      "otels": 8316,
      "gesprÃ¤ch": 8317,
      "ĠgewÃ¤hrleistet": 8318,
      "Ġkeines": 8319,
      "ĠMaria": 8320,
      "pass": 8321,
      "Ġpositiven": 8322,
      "ĠbegrÃ¼ÃŁen": 8323,
      "ĠGrafik": 8324,
      "Ġfotograf": 8325,
      "wÃ¼r": 8326,
      "ĠSat": 8327,
      "Ġ39": 8328,
      "ical": 8329,
      "ĠAustr": 8330,
      "ĠSzene": 8331,
      "ehnen": 8332,
      "ulin": 8333,
      "ĠUl": 8334,
      "ĠAbstand": 8335,
      "rÃ¼stung": 8336,
      "ĠBÃ¶r": 8337,
      "Ġdankbar": 8338,
      "igi": 8339,
      "also": 8340,
      "Gerne": 8341,
      "ĠVerkÃ¤ufer": 8342,
      "oster": 8343,
      "Ġpol": 8344,
      "ĠKohl": 8345,
      "stechnik": 8346,
      "Ġwirksam": 8347,
      "echslungs": 8348,
      "kompl": 8349,
      "Ġheil": 8350,
      "bring": 8351,
      "Ġprofessionelle": 8352,
      "ĠSchuhe": 8353,
      "schte": 8354,
      "Ġvia": 8355,
      "ĠInvestition": 8356,
      "Ã¶ffentlichen": 8357,
      "Ġwichtigste": 8358,
      "ĠOlymp": 8359,
      "ĠsorgfÃ¤lt": 8360,
      "Ġnachvoll": 8361,
      "Ġzut": 8362,
      "Eigen": 8363,
      "estern": 8364,
      "ĠBri": 8365,
      "ĠGlob": 8366,
      "ĠDialog": 8367,
      "wicklung": 8368,
      "srecht": 8369,
      "ĠhauptsÃ¤chlich": 8370,
      "ĠNachhalt": 8371,
      "Ġgingen": 8372,
      "ĠEcke": 8373,
      "ĠGeschwindigkeit": 8374,
      "ĠReserv": 8375,
      "ĠiP": 8376,
      "Ġbeitragen": 8377,
      "ĠStudio": 8378,
      "ĠHÃ¤user": 8379,
      "deln": 8380,
      "Ġreal": 8381,
      "Ġbedarf": 8382,
      "Institut": 8383,
      "Ġster": 8384,
      "ichtigung": 8385,
      "ĠHom": 8386,
      "Ġsuche": 8387,
      "fÃ¼hlt": 8388,
      "solv": 8389,
      "rinzip": 8390,
      "ĠgefÃ¶rdert": 8391,
      "lÃ¤ssig": 8392,
      "ĠTourismus": 8393,
      "Ã¼gel": 8394,
      "ĠCode": 8395,
      "ĠAngel": 8396,
      "book": 8397,
      "ĠWÃ¼nschen": 8398,
      "Ġentfernen": 8399,
      "ĠHu": 8400,
      "anstalter": 8401,
      "spolitik": 8402,
      "ĠFrist": 8403,
      "ĠBem": 8404,
      "ĠStamm": 8405,
      "Mode": 8406,
      "Ã¼hle": 8407,
      "ĠMÃ¤nnern": 8408,
      "ĠNote": 8409,
      "ĠSold": 8410,
      "Ġentstand": 8411,
      "ĠÃľberw": 8412,
      "sc": 8413,
      "Ġnix": 8414,
      "teln": 8415,
      "Ã¼ten": 8416,
      "Ġberuflichen": 8417,
      "EIN": 8418,
      "ĠEinstieg": 8419,
      "ĠÃ¶k": 8420,
      "Ã¼bung": 8421,
      "ĠMenÃ¼": 8422,
      "Ġabgesch": 8423,
      "Ġbesseren": 8424,
      "agentur": 8425,
      "scheinlichkeit": 8426,
      "prechen": 8427,
      "ĠBeweis": 8428,
      "ositionen": 8429,
      "igner": 8430,
      "ĠMad": 8431,
      "ĠGetrÃ¤nke": 8432,
      "rak": 8433,
      "ĠHeiz": 8434,
      "ĠSchwierigkeiten": 8435,
      "projekt": 8436,
      "55": 8437,
      "Ġbetrachten": 8438,
      "samen": 8439,
      "ĠwÃ¤chst": 8440,
      "Ġrot": 8441,
      "ĠZentral": 8442,
      "Ġ1990": 8443,
      "achter": 8444,
      "ĠGehirn": 8445,
      "problem": 8446,
      "Ġverteilt": 8447,
      "Ġstanden": 8448,
      "Ã¡": 8449,
      "Ġhielt": 8450,
      "Ġfu": 8451,
      "dungs": 8452,
      "ĠErstellung": 8453,
      "ĠVariante": 8454,
      "illen": 8455,
      "Ġfragt": 8456,
      "partment": 8457,
      "ĠCre": 8458,
      "ĠtÃ¶": 8459,
      "Ġeinzigen": 8460,
      "Ġsage": 8461,
      "ners": 8462,
      "ĠOrient": 8463,
      "Ġerworben": 8464,
      "ĠSem": 8465,
      "sprech": 8466,
      "inken": 8467,
      "ict": 8468,
      "ĠVir": 8469,
      "ĠDenken": 8470,
      "Ã¼ler": 8471,
      "Ġspeichern": 8472,
      "ĠSymbol": 8473,
      "ĠNachw": 8474,
      "Ġgere": 8475,
      "Ġfinanzielle": 8476,
      "ĠSpazier": 8477,
      "Ġversuche": 8478,
      "stoffen": 8479,
      "Ġgeschehen": 8480,
      "Ġbildet": 8481,
      "Ġproblemlos": 8482,
      "ĠDatenbank": 8483,
      "ĠKond": 8484,
      "utzer": 8485,
      "wÃ¼n": 8486,
      "mÃ¤r": 8487,
      "ĠSupport": 8488,
      "ĠGroÃŁbritannien": 8489,
      "ĠMB": 8490,
      "ĠLudwig": 8491,
      "Ġlief": 8492,
      "Ġanalys": 8493,
      "zwei": 8494,
      "ives": 8495,
      "Ġ[...]": 8496,
      "Ġerkannt": 8497,
      "Ġwirtschaftlichen": 8498,
      "ikum": 8499,
      "Ġ44": 8500,
      "Ġhinsichtlich": 8501,
      "Ġfliegen": 8502,
      "zutage": 8503,
      "Version": 8504,
      "Ã¤ufe": 8505,
      "ĠbestÃ¤tigen": 8506,
      "ĠWissenschaftler": 8507,
      "ĠAngeboten": 8508,
      "atische": 8509,
      "ĠLos": 8510,
      "ĠEint": 8511,
      "freie": 8512,
      "ĠSchles": 8513,
      "unterricht": 8514,
      "ĠCro": 8515,
      "uropa": 8516,
      "iale": 8517,
      "Datei": 8518,
      "ĠAg": 8519,
      "denk": 8520,
      "Ġmark": 8521,
      "ĠAL": 8522,
      "ĠBGB": 8523,
      "ĠstÃ¤rken": 8524,
      "Ġbeantwortet": 8525,
      "raun": 8526,
      "wendungs": 8527,
      "ĠZivil": 8528,
      "Teil": 8529,
      "Ġangesehen": 8530,
      "ĠhÃ¶chsten": 8531,
      "brig": 8532,
      "ĠSammlung": 8533,
      "ĠGebÃ¼hren": 8534,
      "ĠlÃ¶schen": 8535,
      "Ġgeraten": 8536,
      "ĠAtt": 8537,
      "verstanden": 8538,
      "rÃ¼ckt": 8539,
      "ĠTouristen": 8540,
      "ĠRenten": 8541,
      "ĠBlack": 8542,
      "ĠIslam": 8543,
      "ĠAltstadt": 8544,
      "ĠAnruf": 8545,
      "ĠBoot": 8546,
      "Ġmehrfach": 8547,
      "Ġverfolgt": 8548,
      "ĠGewÃ¤hr": 8549,
      "ĠSind": 8550,
      "SV": 8551,
      "ĠGrill": 8552,
      "Ġzentrale": 8553,
      "vo": 8554,
      "ferien": 8555,
      "Ġkalt": 8556,
      "ibilitÃ¤t": 8557,
      "Ġzuge": 8558,
      "Ġmanchen": 8559,
      "ĠRand": 8560,
      "ĠAnh": 8561,
      "uhen": 8562,
      "Ġdiskutiert": 8563,
      "Ġbeinhaltet": 8564,
      "ĠAnsatz": 8565,
      "Projekt": 8566,
      "ĠProgramme": 8567,
      "Ġmorgens": 8568,
      "ĠJose": 8569,
      "ĠHabe": 8570,
      "meldungen": 8571,
      "glÃ¼ck": 8572,
      "ĠCamping": 8573,
      "echte": 8574,
      "ĠGesetzes": 8575,
      "ĠerÃ¶ff": 8576,
      "ĠStell": 8577,
      "Ġverbr": 8578,
      "ĠauslÃ¤nd": 8579,
      "ĠErkenntnis": 8580,
      "New": 8581,
      "Ġkrie": 8582,
      "ĠSl": 8583,
      "ĠAbsch": 8584,
      "ĠgeprÃ¤gt": 8585,
      "klang": 8586,
      "Ġleb": 8587,
      "ĠmÃ¼sse": 8588,
      "ymnas": 8589,
      "Ã¤hrungs": 8590,
      "Ġlog": 8591,
      "Web": 8592,
      "Ġverfolgen": 8593,
      "Ġmusikal": 8594,
      "pool": 8595,
      "gibt": 8596,
      "ĠSound": 8597,
      ".Â»": 8598,
      "erkennung": 8599,
      "Ġweiterlesen": 8600,
      "iehlt": 8601,
      "Ġstet": 8602,
      "testet": 8603,
      "Ġerweitert": 8604,
      "Ġvereinbart": 8605,
      "ĠEvents": 8606,
      "schaf": 8607,
      "Bereich": 8608,
      "ski": 8609,
      "Ġglaubt": 8610,
      "ĠUrlaubs": 8611,
      "Ã¼tte": 8612,
      "hema": 8613,
      "nt": 8614,
      "Erst": 8615,
      "Ġwissenschaftlichen": 8616,
      "apier": 8617,
      "Ġdirekten": 8618,
      "ĠAuskunft": 8619,
      "eistern": 8620,
      "tragung": 8621,
      "ĠKarls": 8622,
      "Ġsteuer": 8623,
      "leistungs": 8624,
      "ĠMassen": 8625,
      "ĠUnterschiede": 8626,
      "ĠSollten": 8627,
      "ĠCloud": 8628,
      "Ġsetzte": 8629,
      "ĠPress": 8630,
      "ĠdurchfÃ¼hren": 8631,
      "Ġbestehenden": 8632,
      "spflicht": 8633,
      "ĠWird": 8634,
      "ĠTasche": 8635,
      "ĠWiderspruch": 8636,
      "Ġnerv": 8637,
      "Ġkurzem": 8638,
      "yle": 8639,
      "ĠKla": 8640,
      "Ġfinanziellen": 8641,
      "ĠAgentur": 8642,
      "Ġklare": 8643,
      "Fahr": 8644,
      "198": 8645,
      "ausende": 8646,
      "reiter": 8647,
      "ĠSchei": 8648,
      "Ġgenaue": 8649,
      "Hotels": 8650,
      "Ġausprobieren": 8651,
      "utton": 8652,
      "Ġla": 8653,
      "ĠFestival": 8654,
      "ĠMerkel": 8655,
      "geschoss": 8656,
      "ĠzwÃ¶lf": 8657,
      "kirche": 8658,
      "ĠhÃ¼b": 8659,
      "ĠKÃ¼hlschrank": 8660,
      "âĢĿ.": 8661,
      "Ġabends": 8662,
      "afe": 8663,
      "ĠInnovation": 8664,
      "ĠLast": 8665,
      "ipedia": 8666,
      "âĨĳ": 8667,
      "ĠStartseite": 8668,
      "ĠEinheit": 8669,
      "nungszeiten": 8670,
      "DE": 8671,
      "Ġabwechslungs": 8672,
      "ĠFormat": 8673,
      "gekommen": 8674,
      "orts": 8675,
      "ĠAusbau": 8676,
      "ĠCH": 8677,
      "iler": 8678,
      "ĠServices": 8679,
      "Ġpersonenbezogener": 8680,
      "ĠWal": 8681,
      "ĠVerbr": 8682,
      "Kreis": 8683,
      "allel": 8684,
      "ĠAst": 8685,
      "ĠEure": 8686,
      "ĠMilitÃ¤r": 8687,
      "znei": 8688,
      "ĠzusÃ¤tzlichen": 8689,
      "ĠFischer": 8690,
      "ĠBeteiligten": 8691,
      "abschluss": 8692,
      "zeugung": 8693,
      "ĠNÃ¼rnberg": 8694,
      "win": 8695,
      "ĠnÃ¤chstes": 8696,
      "ĠKrie": 8697,
      "Book": 8698,
      "ĠFlÃ¤che": 8699,
      "ĠManager": 8700,
      "Ġoffene": 8701,
      "usch": 8702,
      "Ġanzeigen": 8703,
      "Bo": 8704,
      "ĠNav": 8705,
      "Ġdamal": 8706,
      "pfl": 8707,
      "ĠKonferenz": 8708,
      "fÃ¼gt": 8709,
      "schnittlich": 8710,
      "ĠAnfragen": 8711,
      "jÃ¤hriger": 8712,
      "verbrauch": 8713,
      "ĠAud": 8714,
      "medizin": 8715,
      "Ġohn": 8716,
      "Ġbeendet": 8717,
      "ĠRobert": 8718,
      "gelÃ¶st": 8719,
      "ĠUmzug": 8720,
      "ĠArb": 8721,
      "ĠhÃ¶heren": 8722,
      "grenzen": 8723,
      "kra": 8724,
      "ĠSyr": 8725,
      "deckt": 8726,
      "ĠGriechenland": 8727,
      "beweg": 8728,
      "Hat": 8729,
      "Ġentf": 8730,
      "ĠStaffel": 8731,
      "produkte": 8732,
      "Ġelektr": 8733,
      "ĠGang": 8734,
      "Ġumgehen": 8735,
      "Ġverboten": 8736,
      "Ġgebucht": 8737,
      "ĠNik": 8738,
      "ĠKaiser": 8739,
      "ĠVen": 8740,
      "Ġeingehen": 8741,
      "ĠCafÃ©": 8742,
      "Ġ42": 8743,
      "ĠLizenz": 8744,
      "ĠAusgaben": 8745,
      "Bundes": 8746,
      "Ġkonzentrieren": 8747,
      "ĠVi": 8748,
      "ĠErnst": 8749,
      "LÃ¶s": 8750,
      "Ġed": 8751,
      "mÃ¶gen": 8752,
      "ĠDarlehen": 8753,
      "ĠHÃ¶ch": 8754,
      "ĠwunderschÃ¶nen": 8755,
      "ĠDDR": 8756,
      "Ġgelassen": 8757,
      "Ġangefangen": 8758,
      "ĠTher": 8759,
      "Ġat": 8760,
      "Ġerwerben": 8761,
      "ĠHerstell": 8762,
      "TM": 8763,
      "Trotz": 8764,
      "Ġgebraucht": 8765,
      "ĠPhase": 8766,
      "ĠRa": 8767,
      "eri": 8768,
      "ĠDirekt": 8769,
      "ĠmÃ¶gen": 8770,
      "ĠFlex": 8771,
      "atch": 8772,
      "ĠSchnell": 8773,
      "ĠZÃ¤": 8774,
      "ĠFund": 8775,
      "Intern": 8776,
      "cl": 8777,
      "kord": 8778,
      "selben": 8779,
      "findet": 8780,
      "ney": 8781,
      "mitglieder": 8782,
      "hÃ¤ltnisse": 8783,
      "Ġvirt": 8784,
      "aftet": 8785,
      "ĠKonkurrenz": 8786,
      "ĠAR": 8787,
      "KE": 8788,
      "Ġhinten": 8789,
      "kn": 8790,
      "ĠBotschaft": 8791,
      "ĠHerkunft": 8792,
      "recken": 8793,
      "Ġherunterladen": 8794,
      "ĠInnenstadt": 8795,
      "finanz": 8796,
      "Ġqualit": 8797,
      "Ġgewalt": 8798,
      "ĠTaschen": 8799,
      "Ġfestge": 8800,
      "ĠKonsequ": 8801,
      "ĠWegen": 8802,
      "ony": 8803,
      "Chr": 8804,
      "ĠRichter": 8805,
      "ĠApothe": 8806,
      "ĠAsyl": 8807,
      "ĠKategorien": 8808,
      "lehr": 8809,
      "Ġ1999": 8810,
      "ĠErgÃ¤n": 8811,
      "empl": 8812,
      "uls": 8813,
      "preise": 8814,
      "ĠLassen": 8815,
      "ĠOrgan": 8816,
      "ĠOft": 8817,
      "ĠPubl": 8818,
      "ziger": 8819,
      "ĠPR": 8820,
      "fur": 8821,
      "2011": 8822,
      "ĠInstagram": 8823,
      "ĠKeller": 8824,
      "boden": 8825,
      "Ġnennt": 8826,
      "weichen": 8827,
      "Wor": 8828,
      "ĠBundesrepublik": 8829,
      "ĠSchweden": 8830,
      "ĠRenn": 8831,
      "ĠSau": 8832,
      "ĠBildschirm": 8833,
      "Ġschlechter": 8834,
      "reift": 8835,
      "ĠEntspannung": 8836,
      "OT": 8837,
      "ausschuss": 8838,
      "immung": 8839,
      "Ġdirekte": 8840,
      "pret": 8841,
      "hent": 8842,
      "griffen": 8843,
      "ĠGewerbe": 8844,
      "same": 8845,
      "ĠGewinner": 8846,
      "wahr": 8847,
      "stuhl": 8848,
      "verkauf": 8849,
      "eintrÃ¤cht": 8850,
      "ĠMotivation": 8851,
      "ĠFehl": 8852,
      "ffet": 8853,
      "machung": 8854,
      "Ġnachfolgen": 8855,
      "Ġtraum": 8856,
      "Ġlei": 8857,
      "het": 8858,
      "tlerweile": 8859,
      "aktionen": 8860,
      "Pfalz": 8861,
      "leihen": 8862,
      "ichteten": 8863,
      "gten": 8864,
      "iguren": 8865,
      "geladen": 8866,
      "Ġangesprochen": 8867,
      "Ġgesammelt": 8868,
      "Arbeit": 8869,
      "ĠZun": 8870,
      "enkt": 8871,
      "heben": 8872,
      "Ġveranst": 8873,
      "ĠStich": 8874,
      "ĠNormal": 8875,
      "ĠDavid": 8876,
      "Ġrest": 8877,
      "Ġbundes": 8878,
      "bildungen": 8879,
      "ĠOne": 8880,
      "azit": 8881,
      "ĠFakten": 8882,
      "front": 8883,
      "ICHT": 8884,
      "ĠLuxus": 8885,
      "ehin": 8886,
      "ĠKurse": 8887,
      "Ġreduziert": 8888,
      "ega": 8889,
      "ĠTheorie": 8890,
      "ping": 8891,
      "Ġgeholfen": 8892,
      "legte": 8893,
      "Ġsepar": 8894,
      "ĠTief": 8895,
      "Ġ(âĢŀ": 8896,
      "ĠPasswort": 8897,
      "ikationen": 8898,
      "ĠEtw": 8899,
      "Ġeinstellen": 8900,
      "Ġgenerell": 8901,
      "Ã¤rten": 8902,
      "Ġumfangreich": 8903,
      "ĠUrsache": 8904,
      "ĠunmÃ¶glich": 8905,
      "Ġy": 8906,
      "ĠHD": 8907,
      "schmerzen": 8908,
      "âĢľ)": 8909,
      "ĠSet": 8910,
      "onym": 8911,
      "Ġgemeint": 8912,
      "gemeinde": 8913,
      "Ġchines": 8914,
      "Ġumso": 8915,
      "ĠEinschrÃ¤n": 8916,
      "Ġkeinem": 8917,
      "ĠergÃ¤nzen": 8918,
      "ĠOrten": 8919,
      "ĠRos": 8920,
      "Ġdiverse": 8921,
      "Ġgestartet": 8922,
      "neu": 8923,
      "heil": 8924,
      "Ġfordern": 8925,
      "holz": 8926,
      "Ġunternehmen": 8927,
      "Ġklasse": 8928,
      "GH": 8929,
      "Ġwirk": 8930,
      "Ġschade": 8931,
      "ĠwÃ¤r": 8932,
      "ĠAllein": 8933,
      "ĠTarif": 8934,
      "nimmt": 8935,
      "Ġ800": 8936,
      "ĠEuropÃ¤ische": 8937,
      "ilde": 8938,
      "ĠSteuern": 8939,
      "folger": 8940,
      "ĠTurnier": 8941,
      "ĠDrittel": 8942,
      "ĠGibt": 8943,
      "Ã¼m": 8944,
      "ĠEmpfehlungen": 8945,
      "Ġfein": 8946,
      "ĠDokumente": 8947,
      "Gemein": 8948,
      "ĠBerater": 8949,
      "aming": 8950,
      "Ġempfiehlt": 8951,
      "ual": 8952,
      "pers": 8953,
      "Ġemotion": 8954,
      "Ġverstehe": 8955,
      "inos": 8956,
      "Ġoffiziellen": 8957,
      "ĠJede": 8958,
      "Ġbeur": 8959,
      "44": 8960,
      "otten": 8961,
      "person": 8962,
      "gess": 8963,
      "skon": 8964,
      "ĠSorge": 8965,
      "ĠverÃ¶ffentlichen": 8966,
      "Ġklappt": 8967,
      "Ġinvestieren": 8968,
      "Min": 8969,
      "ĠKenntnisse": 8970,
      "Ġgetestet": 8971,
      "ĠSpitze": 8972,
      "Ġreisen": 8973,
      "ĠPfarr": 8974,
      "ĠverstÃ¤ndlich": 8975,
      "ĠMaus": 8976,
      "ettbewerb": 8977,
      "Ġhinweg": 8978,
      "Ġidentifiz": 8979,
      "ĠTsch": 8980,
      "gebnisse": 8981,
      "ĠEinladung": 8982,
      "ton": 8983,
      "PDF": 8984,
      "ĠFluss": 8985,
      "tags": 8986,
      "ĠnatÃ¼rliche": 8987,
      "Ġlangfristig": 8988,
      "runde": 8989,
      "packt": 8990,
      "ĠBetracht": 8991,
      "wurf": 8992,
      "Ġunkompl": 8993,
      "ĠWiener": 8994,
      "Dollar": 8995,
      "ĠSchleswig": 8996,
      "amilie": 8997,
      "ĠschÃ¤tzen": 8998,
      "ĠBeam": 8999,
      "bereiche": 9000,
      "ĠDipl": 9001,
      "ĠSilber": 9002,
      "Zwei": 9003,
      "ĠRau": 9004,
      "ĠFlor": 9005,
      "stÃ¤tte": 9006,
      "Ġvoran": 9007,
      "rollen": 9008,
      "Ã¼ben": 9009,
      "Ġschnellen": 9010,
      "zeichnis": 9011,
      "ĠHon": 9012,
      "utern": 9013,
      "ĠPatient": 9014,
      "ĠenttÃ¤u": 9015,
      "Ã¶nnen": 9016,
      "ĠMaschine": 9017,
      "ĠOhr": 9018,
      "ĠCal": 9019,
      "Mails": 9020,
      "ĠBÃ¼ch": 9021,
      "HR": 9022,
      "Ġbetrieben": 9023,
      "ĠBeschwerden": 9024,
      "Ġli": 9025,
      "ĠFerienhaus": 9026,
      "65": 9027,
      "zeichnete": 9028,
      "beauft": 9029,
      "pon": 9030,
      "Ġfert": 9031,
      "ĠRÃ¤ume": 9032,
      "ĠMÃ¼nster": 9033,
      "ĠSongs": 9034,
      "Ġschreibe": 9035,
      "ĠmÃ¼ssten": 9036,
      "Ġordentlich": 9037,
      "ĠKab": 9038,
      "Ã¤tter": 9039,
      "Tube": 9040,
      "Ġfordert": 9041,
      "ĠVorhaben": 9042,
      "ĠBit": 9043,
      "schlÃ¼ssel": 9044,
      "ĠWahrscheinlichkeit": 9045,
      "Ã¤be": 9046,
      "ĠnatÃ¼rlichen": 9047,
      "ĠDortmund": 9048,
      "Ã¤llig": 9049,
      "ĠMatt": 9050,
      "ĠBeob": 9051,
      "staaten": 9052,
      "Ġbeschreiben": 9053,
      "DP": 9054,
      "Ġplatz": 9055,
      "ĠAust": 9056,
      "stoÃŁ": 9057,
      "Deutschland": 9058,
      "ĠgeprÃ¼ft": 9059,
      "anbieter": 9060,
      "Unternehmen": 9061,
      "aters": 9062,
      "ĠBeine": 9063,
      "ĠFle": 9064,
      "alition": 9065,
      "Ġstehe": 9066,
      "Ġgreifen": 9067,
      "rateg": 9068,
      "Ġamerikanischen": 9069,
      "ertifik": 9070,
      "ĠFremd": 9071,
      "ĠBeschluss": 9072,
      "sparen": 9073,
      "dienste": 9074,
      "svor": 9075,
      "brauch": 9076,
      "ĠhÃ¤ngen": 9077,
      "ĠHart": 9078,
      "ĠGriff": 9079,
      "antrag": 9080,
      "ĠEntfernung": 9081,
      "ĠHinblick": 9082,
      "ĠzustÃ¤ndig": 9083,
      "ĠAuseinander": 9084,
      "ĠRespekt": 9085,
      "Viel": 9086,
      "irekt": 9087,
      "beitrag": 9088,
      "merk": 9089,
      "ĠMÃ¼he": 9090,
      "ĠSchwÃ¤": 9091,
      "Ġnette": 9092,
      "Ġlanger": 9093,
      "ĠIndividu": 9094,
      "ĠAuflÃ¶sung": 9095,
      "Ã¼rzt": 9096,
      "verhÃ¤ltnis": 9097,
      "43": 9098,
      "ĠAufgrund": 9099,
      "ĠVilla": 9100,
      "ĠAussagen": 9101,
      "appen": 9102,
      "Ġ49": 9103,
      "ĠSchicks": 9104,
      "ĠLeg": 9105,
      "ĠSant": 9106,
      "ĠWillen": 9107,
      "ĠHessen": 9108,
      "ĠSki": 9109,
      "Ġzuhause": 9110,
      "Ġhundert": 9111,
      "ĠEreignisse": 9112,
      "ĠgemÃ¼tlich": 9113,
      "anze": 9114,
      "ĠSÃ¤nger": 9115,
      "ĠBewusstsein": 9116,
      "ĠReligion": 9117,
      "artikel": 9118,
      "bewer": 9119,
      "ĠKonzer": 9120,
      "hlung": 9121,
      "keln": 9122,
      "prÃ¤sident": 9123,
      "ackt": 9124,
      "ĠNachhaltigkeit": 9125,
      "Ġprofessionell": 9126,
      "Ġletztlich": 9127,
      "Ġdiskutieren": 9128,
      "Ġexklus": 9129,
      "ĠÃ¼brig": 9130,
      "ĠKonflikt": 9131,
      "zone": 9132,
      "ĠMusiker": 9133,
      "ĠKlÃ¤ger": 9134,
      "ĠJahrzehnten": 9135,
      "ĠPaten": 9136,
      "hÃ¶hung": 9137,
      "Ã¼h": 9138,
      "ĠKrankheiten": 9139,
      "Sollten": 9140,
      "sung": 9141,
      "iens": 9142,
      "ĠWolfgang": 9143,
      "ĠLied": 9144,
      "Ġanf": 9145,
      "ĠCenter": 9146,
      "ĠCheck": 9147,
      "ĠSchmerz": 9148,
      "ĠDeck": 9149,
      "ĠRollen": 9150,
      "ĠKreativitÃ¤t": 9151,
      "Ġei": 9152,
      "ĠUni": 9153,
      "eira": 9154,
      "ohnung": 9155,
      "wirkung": 9156,
      "ĠTeilnehmern": 9157,
      "klass": 9158,
      "Ġwartet": 9159,
      "Ġleer": 9160,
      "beruf": 9161,
      "ience": 9162,
      "Ġanspruchs": 9163,
      "Ã¼l": 9164,
      "ids": 9165,
      "Ġohnehin": 9166,
      "ĠFrÃ¼hling": 9167,
      "ĠHelfer": 9168,
      "ĠÃ¤ndert": 9169,
      "Ġ1998": 9170,
      "ĠAnwalt": 9171,
      "branche": 9172,
      "ĠNieders": 9173,
      "Ġhell": 9174,
      "Ġallzu": 9175,
      "sem": 9176,
      "Ġgleicher": 9177,
      "senz": 9178,
      "ĠAbendessen": 9179,
      "ĠGeorg": 9180,
      "ĠSchÃ¼lern": 9181,
      "ĠÃ¶ffnet": 9182,
[...]
