#version: 0.2
Ã ¤
t a
e n
i n
i s
Ġ k
a n
l l
i t
Ġ j
Ġ s
Ġ o
Ġ t
Ġ m
v a
e t
Ġ p
k a
t Ã¤
e l
s i
t i
u t
s a
e s
Ġj a
e r
Ã ¶
u s
u o
i k
u n
Ġ l
Ġ h
m a
Ġ v
Ġ a
Ã¤ n
o n
a a
t e
i l
Ġ n
ll a
o s
Ġo n
j a
u k
o i
Ġ va
u u
Ġ ta
t o
a s
a l
u l
Ã¤ Ã¤
k o
y t
Ġ e
ll e
k i
in en
a r
is ta
Ġ r
Ġ S
Ġ K
m m
a t
k e
Ġo l
Ġ T
Ġ y
t u
Ġj o
Ġk o
i h
s Ã¤
v Ã¤
ll Ã¤
y Ã¶
i a
k s
u r
d en
Ġ M
k in
va t
e en
i r
is t
y s
i in
Ġs e
k si
o t
ta a
Ġk a
Ã¤ Ã¤n
o it
Ġ P
Ġ (
h d
Ġ et
m is
ut ta
it Ã¤
uk s
l a
p a
Ġk u
i v
Ġ H
Ġ 1
t y
k u
i m
Ã¤ h
t el
o r
Ġ L
Ġ 2
Ġ V
ll is
Ġ A
Ġm u
Ġ -
Ġe i
p p
l i
Ġv i
e h
Ġk Ã¤
Ġs i
Ġ E
m Ã¤
e i
Ġ J
m i
t en
k Ã¤
r i
d e
is i
v i
Ġt Ã¤
e e
Ġet tÃ¤
l o
un n
m p
Ġ en
ta an
u h
. .
Ġ O
is sa
o p
â Ģ
a k
s e
s sa
es sa
i ka
Ġt o
us ta
in a
t Ã¶
y y
Ġl a
m an
Ġ N
n e
Ġm a
ma an
Ã¤ r
Ġta r
is tÃ¤
s ta
Ġol i
0 1
Ġa l
o in
ma t
is en
yÃ¶ s
Ġol e
Ġs a
Ġ R
mm e
Ã¤ l
j o
r a
ka an
Ġt e
Ġv uo
Ġk an
tÃ¤ Ã¤
Ġn Ã¤
Ġt i
Ġh y
l e
Ġta i
Ġt ul
0 0
Ġs aa
y n
Ġp Ã¤Ã¤
es ta
si a
i en
u p
vÃ¤ t
oi m
Ġ ih
j en
Ġp al
j an
es ti
Ġm i
Ġv oi
in n
el Ã¤
Ġ I
Ġk un
Ġva l
uu ta
Ġ er
ik ka
o h
u a
Ġt uo
Ġp a
e d
Ġl i
os sa
Ġy h
Ġm yÃ¶s
i ta
an a
m inen
Ġp er
j Ã¤
o l
r it
r o
s in
Ġm utta
uks en
s ti
m en
Ġ il
ik e
ti in
Ġk es
er k
v an
n n
ĠkÃ¤ yt
et ta
s sÃ¤
o a
Ġo vat
Ġs uo
Ġr a
v el
u us
os ta
h a
en n
k Ã¶
ka a
Ġn iin
is e
Ġk er
i den
el i
is et
es sÃ¤
Ġh a
s tÃ¤
Ġku in
Ġp ar
Ġ B
Ġ âĢ
ik ki
te en
Ġk ir
is Ã¤
Ġ b
d a
it se
y h
it en
r e
v e
Ġva r
Ã¶ n
p Ã¤
v in
Ġjo ka
as sa
uo l
is sÃ¤
Ã Ħ
va a
t ti
h e
o k
an n
Ġl Ã¤h
Ġk i
it tÃ¤
ja t
oi ta
es tÃ¤
y ks
Ġ Y
Ġ C
i lle
Ġ2 01
ik Ã¤
Ġs it
j oit
u ut
e k
Ġm in
Ġ 3
Ġm aa
Ġt yÃ¶
ma a
t ta
Ġs en
s it
Ġo sa
Ġk uu
m Ã¤n
Ġp Ã¤
k y
ik si
Ġa r
et tu
il a
.. .
s t
Ġl uo
i lla
o m
as ta
Ã¤ t
Ġt oim
ist en
in ta
Ġk y
Ġp it
Ġ F
Ġa s
ll ut
Ġh uo
u lla
h ta
o ja
is ia
i d
Ġa ika
Ġ uu
is esti
h an
u un
Ġti et
ĠS uo
Ġn a
Ġsit ten
t er
Ġse kÃ¤
m ista
e et
Ġh Ã¤n
Ġ Ġ
Ġ :
Ġn i
is in
Ġ an
t uu
Ġp o
e llÃ¤
Ġ f
Ġ U
k on
lo g
te et
u d
t in
u v
Ġo lla
Ġko r
e lla
Ġa si
yt tÃ¤
ll inen
Ġmu ut
is to
u m
us t
2 01
s en
Ġkan ssa
Ġj os
Ġyh te
Ã¤r j
ma ssa
l ta
Ã¤Ã¤ r
en k
i e
Ġk os
n yt
t un
Ġ D
Ġn e
i p
Ġ us
ti a
it ta
et tÃ¤
k us
Ġl o
im e
m Ã¤Ã¤n
ke en
Ġt oi
ĠK a
Ġl Ã¶
Ġh al
Ġo ike
er i
ih in
r an
Ġv Ã¤h
Ġk e
Ġk ul
Ġs u
Ġ 4
Ġp el
Ġs in
o llis
o o
mis en
Ġt eh
j on
e a
ta n
l an
al a
Ġn yt
uk sia
Ġih an
us sa
Ġ 5
ka s
k un
Ġo p
mm in
Ġa ina
Ġse ur
ma lla
n i
Ġva in
Ġmi el
ĠT Ã¤
Ġh e
ik o
Ġe d
Ġvi elÃ¤
k ka
s o
Ġl e
ĠS e
y tÃ¤
Ġka ikki
Ġ G
ĠâĢ ĵ
Ġm en
Ġe si
Ġj Ã¤l
i Ã¤
â ĸ
a m
Ġko ko
Ġs an
k k
Ġhy vÃ¤
Ġh el
y d
r in
Ġs itÃ¤
Ġo h
Ġ "
Ġk eh
Ġm on
uks et
f i
Ġk at
i vÃ¤
Ġk as
Ġ itse
Ġt ut
âĸ º
k ki
Ġs uu
E N
Ġ is
l Ã¤
k en
a p
Ġ elÃ¤
Ã¤rj es
m e
h in
Ġo llut
aa l
Ġs o
it ty
in Ã¤
Ġs el
j el
mm Ã¤
k an
Ġo s
i an
Ġv Ã¤
âĢ Ŀ
j aa
Ġma hd
Ġta pa
Ġmu kaan
ut u
it y
Ġl Ã¤
y ys
Ġ d
o ks
v Ã¤n
v ia
Ġka ik
I N
Ġp uh
Ġ es
ik ko
ĠT a
Ġhy vin
is k
Ġ _
Ġt un
mm en
Ġv er
l u
Ġp ien
Ġh ar
Ġ in
enk il
Ġol isi
Ġt il
Ġ c
tu a
al vel
ei ta
Ġm at
lle en
l in
Ġ el
ki r
i o
Ġj Ã¤
Ġl uk
unn it
uk si
Ġva ih
Ġj on
Ġk ys
an ta
t te
Ġen n
Ġ /
Ġ W
I S
Ġr ak
Ġm itÃ¤
ĠpÃ¤ iv
et ty
Ġv an
Ġku iten
Ġy rit
v o
u si
uu d
t ka
ke a
Ġva s
as ti
t on
Ġv Ã¤l
va sti
Ġko h
Ġpal jon
ut us
a an
is iin
Ġs is
enkil Ã¶
it ys
Ġ ul
tel e
up un
Ġtul ee
t tÃ¤
in o
Ġ1 9
ĠjÃ¤l keen
Ġsi itÃ¤
Ġk iin
it e
Ġ 6
Â Ń
ot ta
et Ã¤Ã¤n
u utta
u ta
Ġh i
Ġp i
va l
Ġl aa
Ġti ed
oi den
ut taa
e si
il i
Ġt unn
mp i
to a
ki m
ĠL a
p er
p i
m ia
uo r
Ġva an
Ġli ik
e lle
u ka
m in
os ti
u den
v Ã¤Ã¤
Ġl isÃ¤
T A
Ã¤h kÃ¶
ei d
Ġjo tka
uu den
is ti
Ġtar jo
un a
k Ã¤Ã¤n
n o
ma la
Ġa ik
Ġ g
Ġp uol
ll ista
e mm
h o
e ksi
Ġt ur
Ġs iv
Ġpal vel
Ġper us
) .
Ġt er
k uuta
ĠJ a
Ġy hd
Ġl as
is Ã¤Ã¤
Ġh et
g in
Ġko ul
v it
s an
Ġen si
Ġj ossa
ut o
et tiin
ll i
Ġr e
Ġte hd
v er
k er
Ġva ikka
Ġky llÃ¤
Ġv oit
s u
et ti
m erk
Ġr i
Ġte ke
Ġvi ime
u e
n a
tel u
ĠE n
t it
Ġko l
Ġy li
Ġy l
Ġv ir
Ġm uuta
Ġtoi mi
Ġ: )
in g
nn a
Ġjo ta
ka is
yt y
mis een
Ġs op
n Ã¤
oi lla
yt tÃ¶
Ġn o
il ta
Ġj ul
Ġla p
u i
ei den
ĠH el
ĠK o
u lle
Ġ 0
Ġ 7
v oit
r os
it i
Ġm e
Ġol en
Ġil ma
Ġkuiten kin
de lla
Ã¤n Ã¤
Ã¤Ã¤r Ã¤
Ġva ik
Ġm it
Ġy ksi
oi hin
Ġk unn
Ġm uo
ti o
ĠS a
ll oin
ti on
it us
Ġ2 00
Ġm ar
ist Ã¶
Ġja t
Ġva sta
Ġs il
Ġo t
n ut
ih e
yks en
Ġer i
v uo
Ġ 8
aa t
on ta
Ġn im
h tu
is te
el ta
ĠkÃ¤yt tÃ¶
p alvel
Ġtul e
Ġk ut
is een
u ja
U S
A N
m mat
Ġjo ten
llis en
ul a
vi en
ĠĠ ĠĠ
in e
eid Ã¤n
m o
l en
da an
it ti
Ġkir ja
I T
u va
uk ka
ne et
Ġy ks
Ġ1 0
e ll
r as
ĠtÃ¤ mÃ¤
Ġih mis
un ta
Ġe de
Ġsi llÃ¤
Ġh enkilÃ¶
Ġko ke
y r
c h
Ġkan n
tÃ¤ Ã¤n
Ġseur aa
Ġr uo
Ġenn en
k ke
Ġmahd ollis
emm Ã¤n
uks essa
p o
os t
v en
yt yy
Ġa v
Ġp or
Ġkir joit
Ġm o
i va
Ġsi is
ei lle
Ġei vÃ¤t
uu ri
il e
Ġp ys
Ġ w
a lla
Ġku va
il u
ĠM a
Ġm erk
es een
i llÃ¤
Ġe h
Ġt u
pp i
m ma
Ġ 9
Ġo ma
l aa
ĠJ o
ĠvÃ¤h Ã¤n
yy n
ko r
Ġka upun
ku va
s si
Ġl isÃ¤Ã¤
ak ka
iv an
in to
Ġ it
T Ã¤
ĠkÃ¤yt tÃ¤
Ġa sia
Ġkos ka
Ġmu ka
o te
ĠHel sin
Ġm iten
ĠV i
Ġjon ka
Ġ Â
ĠJ os
mi en
it os
ik on
ĠpÃ¤ ivÃ¤
Ġvuo den
d in
k es
Ã¤rjes tel
al ta
ot to
Ġha ll
j e
Ġs Ã¤hkÃ¶
el e
Ġk on
Ġh an
ti et
a ll
Ġtar ko
p Ã¤Ã¤
Ġta va
ĠSuo men
Ġta as
ta r
ty y
o ista
ei llÃ¤
el tÃ¤
ik in
1 0
Ġs yn
pp u
E L
Ġm yÃ¶
Ġmaa il
mat ta
uk ku
A L
ti la
m oit
p aa
ll en
ka t
k kin
Ġ eli
d i
Ġto te
Ġb log
an i
c e
Ġpit Ã¤Ã¤
ĠV a
ĠO n
e in
t oi
Ġy mp
o on
vi Ã¤
Ġva a
Ġk ar
Ġsu unnit
j Ã¤n
er g
Ġensi mmÃ¤
ks en
Ġe ikÃ¤
Ġmit Ã¤Ã¤n
y ky
Ġjo ul
ĠnÃ¤ yt
k ul
y vÃ¤
ĠM ar
Ġ ,
k ko
tu i
ĠN Ã¤
l as
E T
y m
ik an
K a
ĠT o
Ġl u
op e
uo le
ĠR a
Ġj Ã¤Ã¤
Ġtehd Ã¤
llis esti
ĠkÃ¤ sit
it tÃ¤Ã¤
ĠâĢ Ŀ
Ġli itty
o lla
Ġul ko
uks een
i g
el in
Ġs isÃ¤
Ġtar v
y ksi
Ġm ikÃ¤
Ġaik ana
ih en
h oit
it taa
Ã ĸ
s et
un ut
ĠtÃ¤ mÃ¤n
Ġtul i
Ġvuo nna
Ġta lo
t is
) ,
Ġs Ã¤
ys tÃ¤
iin Ã¤
il pa
ki a
Ġuu si
Ġ2 0
er a
r ke
Ġsi ja
Ġt uk
ĠV al
Ġe ur
Ġko mmen
Ġl op
mm an
Ġ i
k it
Ġh aa
Ġa jan
Ġsuu r
Ġvuo tta
en g
es s
ĠE i
Ġh Ã¤
Ġ .
Ġen emmÃ¤n
el ma
inn an
k uu
oin ti
ĠA n
Ġa jat
Ġp itÃ¤
ĠSuo m
i et
isi Ã¤
Ġv o
Ġkiin n
k unn
Ã¤h Ã¤n
o ma
aa li
S uo
ĠS i
Ġn oin
Ġy le
v on
ĠtÃ¤ ssÃ¤
va r
p osti
Ġni itÃ¤
sa a
merk iksi
m us
Ġsis Ã¤l
tel i
ar i
Ġ Ã¤
Ġv erk
to ja
ise ksi
f f
ĠP a
mÃ¤ t
is uus
m ist
Ġsi ihen
h on
o jen
c k
uo t
Ġj uuri
Ġa ihe
mis tÃ¤
Ġil man
ista a
is a
Ġse lla
Ġp u
j ien
Ġo d
te i
Ġkes Ã¤
Ġ1 2
ĠtÃ¤ rke
p u
ma sti
Ġka ksi
Ġt Ã¤Ã¤
s to
p e
Ġt y
Ġkan sa
Ġk lo
ko hta
ti iv
Ġ1 5
ti en
Ġh er
ĠL i
Ġkut en
n et
Ġto della
jo hta
Ġk aa
h aa
Ġp oh
o ta
p it
kon a
Ġkuu ka
te e
ĠI n
m et
Ġpa ika
1 1
uk ana
Ġka un
Ġvuo si
l tÃ¤
p an
ĠK Ã¤
Ġkuu l
ik ke
li it
Ġhal u
Ġsa an
Ġh yÃ¶
h Ã¤n
k ku
ul u
ks u
Ġ ik
Ġm et
T O
ĠtyÃ¶ n
Ġla in
is tu
Ġr at
Ġko hd
Ġsi ir
ur a
Ġt ila
s ee
ĠhÃ¤n en
Ġm enn
ma r
c om
Ġal u
Ġe pÃ¤
tel y
ma sta
oi lle
âĢ ĵ
w w
Ġs Ã¤Ã¤
yy d
1 2
enn us
Ġeh kÃ¤
ĠO y
Ġsuo mala
v y
Ġse ksi
Ġ1 8
es t
Ġka h
al u
Ġsaa t
e taan
m iin
Ġkes kus
Ġta l
Ġko ti
ĠM i
uks esta
ittÃ¤ in
v u
ta va
is aa
r at
Ġe hd
ĠH Ã¤n
Ġaika a
Ġp id
ĠvÃ¤ li
Ġpar e
Ġva h
Ġer ila
Ġka utta
Ġ un
Ġp ro
r Ã¤
yÃ¶ n
ĠTÃ¤ mÃ¤
mis esta
t t
g e
Ġol et
k et
T I
it te
Ġma in
Ġy llÃ¤
Ġrak en
ĠtÃ¤ stÃ¤
Ġker to
m er
oi d
Ġr o
Ã¶ ssÃ¤
Ġtapa htu
Ġt Ã¤n
Ġoli vat
Ġjota in
ĠA r
s te
t tuu
Ġs iinÃ¤
Ġvoi daan
ĠN a
u sa
Ġtut kim
Ġlo pp
Ġil moit
E R
Ġer ity
ty Ã¤
ist el
o sa
r ia
Ġuu d
k el
in ti
ĠK un
to on
kun ta
Ġsaa da
v et
Ġet tei
j Ã¤rjestel
a ika
Ġn yky
ul ta
A S
ĠlisÃ¤ ksi
Ġos oit
Ġs uk
Ġter ve
Ġvas taa
Ġta ka
Ġvas taan
ut tu
00 0
Ġpal a
Ġvi de
Ã¶ t
Ġ Ã¤Ã¤n
Ġm il
ta lo
Ġmi eh
ĠM utta
tun ut
Ġs yÃ¶
p or
Ġp an
Ġv ih
o ksi
ĠK ir
h ti
ĠjÃ¤ sen
kir ja
Ġker taa
Ã¤r istÃ¶
Ġesi merkiksi
as t
eh ti
Ġpo is
U N
Ġmat ka
Ġal oit
Ġsa i
ka r
â Ĥ
mp aa
ikka a
o ku
âĤ ¬
etta va
Ġa uto
Ġm m
y den
b o
uo li
Ġn uor
Ġta voit
Ã¤n n
et us
Ġkann at
Ġm el
Ġtur va
v oi
ll an
ĠA l
Ġp ol
tÃ¤ vÃ¤
s on
Ġen Ã¤Ã¤
Ġj uo
pÃ¤ ivÃ¤
Ġa ivan
Ġosa a
h te
m Ã¤Ã¤
mÃ¤ ssÃ¤
Ġl in
Ġes it
ie man
Ġar v
ll o
1 9
2 0
ta ja
Ġo pp
Ġa ja
ĠK es
Ġky l
to m
a si
s y
uk ko
et Ã¤
Ġs uh
oh jel
Ġon n
j ek
up pa
Ġole van
mm Ã¤r
en to
Ġar vi
ĠkÃ¤yt tÃ¤Ã¤
Ġ &
Ġp ak
ik k
Ġkes k
ĠI l
ka sta
r aa
Ġm ukana
ĠtÃ¤ llÃ¤
K O
g el
ur aa
as to
en kin
Ġn ope
Ġt yy
Ã¶ l
Ġjo pa
ma at
U O
ĠlÃ¶ ytyy
ĠT ar
is u
Ġm ak
Ġm Ã¤Ã¤rÃ¤
y l
Ġpit kÃ¤
Ġtil an
! !
ks een
llis et
s uo
ĠN e
us to
Ġkeh ittÃ¤
A T
tti a
h uo
k oi
y llÃ¤
ur o
u in
te essa
ĠnÃ¤ in
een sÃ¤
Ġt Ã¶
yd Ã¤
jÃ¤ t
Ġj Ã¤rjes
oks en
Ã¤n i
er o
Ġni iden
Ġluo nn
i i
Ġva i
Ġaina kin
Ġh ieman
pÃ¤ iv
Ġm uu
ĠkÃ¤ ytÃ¤
ik ku
ir a
lla an
Ġvi ikon
Ġte ki
al e
ist er
us ten
ot taa
la inen
Ġtoim inta
Ġv Ã¤r
it uksen
vÃ¤ l
Ġed es
yn n
ĠP er
on a
Ġo man
Ġal ku
is uud
Ġt yÃ¶s
os taa
o llista
K S
Ġkat s
Ġp ros
e hd
Ġtuo t
an g
u ma
ise lla
Ġka u
ĠtÃ¤ tÃ¤
Ġpa in
tel ee
te ita
il tÃ¤
eh to
m pp
l et
im p
ee lla
Ġhal ua
Ġ ann
E S
5 0
ar a
Ġk al
an sa
al o
os to
ĠH a
ĠH e
t inen
Ġh uol
ĠV uo
Ġte k
Ġmin Ã¤
Ġm un
d er
en ki
Ġvaa ti
ist on
t r
ĠK i
hd e
Ġp yÃ¶
Ġoike in
ur in
Ġop isk
ys in
mÃ¤ llÃ¤
ĠT ur
Ġoh jel
m on
te g
yks et
Ġk oi
yt tÃ¤Ã¤
Ġa mmat
ik uuta
E n
Ġ1 6
ĠJ A
Ã¤Ã¤n n
ti ed
L a
ĠSuom essa
uks ista
k ut
u ista
johta ja
tun a
or i
an s
Ġy mmÃ¤r
Ġhuo mi
Ġn el
K A
ĠL e
r yh
Ġ de
Ġs yys
Ġvo isi
is essa
ĠN o
Ġmi es
Ġus ko
2 00
Ġus ein
Ġs y
it si
Ġ1 4
3 0
Ġ uut
ĠT uo
Ġy stÃ¤
is teet
pp o
Ġr yh
v oin
ut kim
en Ã¤
us e
Ġ1 1
ĠkÃ¤ y
o issa
Ġsa man
Ġkuu lu
isi lle
v ir
ke e
Ġmaa l
ke in
h at
Ġt Ã¤hÃ¤n
Ġal kaa
Ġyhte ist
V i
ĠL isÃ¤
Ġverk ko
Ġosa llis
Ġma an
O n
K I
Ġot taa
Ġj oita
r en
h i
te ki
ise lle
Ġmaail man
o si
Ġsi ellÃ¤
ar ja
ty nyt
Ġkuin ka
Ġn uo
k kÃ¤
Ġk ur
T E
sa r
ĠnÃ¤ kÃ¶
ko ul
is esta
ke llÃ¤
S e
Ġk ilpa
Ġmuo d
s tÃ¶
Ġav ulla
Ġkas v
j u
Ġr un
Ġr as
o w
on i
p uol
ker ta
Ġan taa
Ġj osta
Ġ1 7
Ġjo ku
âĢ ¦
ty i
mis eksi
ta l
Ġh ien
Ġhet i
Ġ %
Ġ3 0
Ġki er
oks et
o ike
Ġ201 8
Ġyh tÃ¤
T a
tan ut
j Ã¶
Ġma ks
K o
ut ti
ĠpÃ¤Ã¤ t
ĠlÃ¤h es
Ġker ran
Ġsuo sit
Ġte ks
Ġ1 3
mp er
y Ã¤
ih a
Ġva ike
Ġruo ka
in i
va ih
Ġis o
Ġk en
Ġl Ã¤Ã¤
Ġso si
Ġyhte is
v ista
el a
Ġa am
Ġjo hta
ma al
Ġja l
hd ist
Ġvi ikko
k os
Ġo r
Ġyh teen
llis uus
ĠvÃ¤li llÃ¤
A R
Ġa ut
Ġta sa
ĠN yt
h ar
Ġva paa
e p
ll in
it tu
Ġasi an
yn yt
it to
Ġa in
inn a
ĠP ar
uh a
Ġm issÃ¤
ĠÂ »
Ġj Ã¤t
Ġmahd ollista
ĠtÃ¤Ã¤ llÃ¤
U T
n in
u jen
v issa
Ġluo t
im i
Ġkys e
ĠtÃ¤ y
Ġmar kkin
va lta
ĠpitÃ¤ isi
ĠM at
ĠhyvÃ¤ ks
Ġ ur
Ġr y
k kaa
mat to
Ġtarjo aa
en ne
Ġkys ym
v iin
Ġ inn
is ista
is uuden
ust us
Ġa lle
J os
Ġj uh
Ã¶ s
ĠV ar
os in
to r
Ġa va
Ġn Ã¤h
l uv
ke Ã¤
Ġtar p
Ġvaih to
201 8
Ġh oit
Ġp y
Ġpel aa
1 8
I L
Ġo tta
ti Ã¶
ke m
ĠKa ikki
Ġpar ha
Ġlas ten
g an
uksi in
Ġp ur
M A
p al
im o
ĠSuo mi
Ġs at
jan a
Ġal ka
r een
uh ti
Ã¤ ri
Ġuu den
Ġ +
ĠR o
Ġko kona
Ġm yy
Ġsi lloin
iv i
vÃ¤ sti
Ġa la
is s
S A
Ġli ian
- -
Ġtoim in
va lla
ĠelÃ¤ mÃ¤n
te taan
ĠL o
j ia
te iden
Ġla it
mp ia
Ġa sti
ok uuta
g a
as e
J a
ku un
Ġva lo
ki in
ist eri
s ina
u de
Ġs al
ik s
Ġsuo rit
Ġyks in
as taan
Ġjul k
uk o
ĠpÃ¤Ã¤ tÃ¶
on en
Ġmiel estÃ¤
un to
Ġkos kaan
Ġmu ita
yh te
it o
Ġtu llut
Ġh u
en e
pa an
mi Ã¤
S a
l Ã¶
ur i
ĠT e
Ġm er
Ġyhd essÃ¤
Ġsa malla
tu r
ei lla
pÃ¤ in
Ġtuo tte
Ġmuut en
1 5
Ġl yh
uk i
K i
ĠnÃ¤ ky
Ġjo tta
j Ã¤r
t se
ĠK or
ĠO len
ut uu
ĠlÃ¤ mp
Ġval mist
ĠtÃ¤n Ã¤Ã¤n
Ã¤ is
ĠhyÃ¶ d
Ġva ra
isen a
ettu a
tel ua
ĠĠĠĠ ĠĠĠĠ
Ġ ÃĦ
Ġsuo ra
Ġsaan ut
Ġeur oa
on e
Ġkat so
ot tu
Ġ ir
n een
t oim
ĠpÃ¤Ã¤ stÃ¤
unn an
Ġen erg
il aa
Ġjos kus
Ġa k
Ġkerto o
U L
r y
O N
Ġm eidÃ¤n
Ġ x
Ġse x
l uo
J aa
ĠpÃ¤Ã¤ lle
ĠM o
Ġ [
Ġv el
Ġvi er
Ġtule va
mÃ¤ ttÃ¤
il en
ĠK e
ĠP or
uro op
Ġa p
oh ja
Ġvar ten
ha ll
Ġs yy
Ġtarv itse
ll on
ĠS en
Ġkaik en
K Ã¤
Ġyh den
Ġto si
t s
b i
h to
Ġ201 7
d an
N Ã¤
Ġ ;
Ġva st
Ġvuo d
Ġta mm
Ġto inen
uole lla
Ġesi in
Ġvar masti
vi lla
i vÃ¤t
us si
Ġ201 5
I K
t ra
ĠM in
Ġymp Ã¤ristÃ¶
/ /
tel in
ĠHelsin gin
ĠH ar
Ġh o
es si
a ta
Ġede lleen
p el
Ġ201 4
Ġjoul uk
t uo
ĠE s
Ġt uu
palvel u
Ġmu un
Ġp uut
T unn
Ġaika an
Ġhar joit
Ġ1 00
Ġpi ir
ĠpÃ¤iv Ã¤n
Ġon ne
Ġpar i
Ġlap si
Ġkuul uu
ï ¿
ï¿ ½
Ġyl eensÃ¤
ĠtÃ¤ ysin
uks ella
tt p
ÃĦ ÃĦ
Ġn or
s s
ĠF a
vin to
Ġp e
Ġer ittÃ¤in
ok ka
ĠlÃ¶ yty
im en
Ġtoimi i
Ġper in
Ġyrit ys
mis to
Ġkul ttuu
Ġpor no
ĠK at
ĠT er
Ġs uun
r ak
ka l
ĠR e
llis ia
tte ja
Ġki el
ti e
Ġsi joit
Ġvoi vat
Ġtied ot
c o
Ġhi er
ĠS an
O S
Ġp Ã¶
Ġn et
il un
Ġole va
Ġteke e
Ġvan he
k ana
Ġjo lla
Ġm usta
ann a
ĠV an
Ġteh ty
Ġv et
Ġmu si
ki Ã¤
Ġo f
Ġit sen
: //
k Ã¤Ã¤
ĠO p
I M
ko t
Ġtapa h
j oita
Ġrak enn
Ġkannat taa
Ġk uo
in vÃ¤l
Ġ5 0
Ġ up
ve ll
Ġs ul
k usta
ĠP Ã¤Ã¤
K ir
Ġ2 5
Ġon gel
tied ot
Ġm Ã¤Ã¤
Ġt ee
ĠnÃ¤yt tÃ¤Ã¤
Ġsuu ri
ist us
u b
Ġ2 4
Ġt uh
en a
Ġkol me
Ġval ko
Ġet si
Ġper h
U R
ĠT i
mis sa
ut uksen
tel un
kes kus
Ġtaka isin
m een
Ġh eidÃ¤n
Ġku via
aa r
Ġne uv
Ġo mista
Ġla h
ir i
Ġh ote
i aa
Ġa se
ek ister
ĠT ul
ĠkÃ¤ r
Ġyli op
1 4
Ġm Ã¤Ã¤r
Ġtiet o
jo is
Ġkoke m
ĠL Ã¤h
j ille
p l
er in
Ġv oin
Ġyks ity
Ġtava lla
Ġmar ras
kunn an
ĠT yÃ¶
kin n
Ġperus te
Suo men
ĠK u
Ġpien i
Ġval mis
Ġ )
Ġ201 6
ll u
ettÃ¤ vÃ¤
Ġp os
ĠnÃ¤ mÃ¤
tÃ¤ vÃ¤t
i vat
Ġ #
Ġ uutta
ta i
essa an
m u
V a
Ġhy vÃ¤Ã¤
Ġuu sia
us ti
Ġmin un
f or
teen a
s Ã¤Ã¤
ta vat
lan d
ĠnÃ¤ hd
ĠHelsin ki
Ġa ie
Ġto de
ĠsÃ¤ il
uu r
on n
Ġvar sin
s er
Ġrat kais
Ġk il
Ġkaupun gin
yksi Ã¤
Ġpros en
Ġm istÃ¤
op im
ĠM e
Ġto uk
Ġv esi
Tunn isteet
ĠM aa
ta in
es taan
Ġsa ir
T ÃĦ
s ky
san i
oim inta
Ġy Ã¶
es tin
ĠLisÃ¤ ksi
e b
1 3
tu vat
Ġnope asti
ma s
al i
Ġkos ke
vi lle
Ġ âĤ¬
Ġvar maan
os oit
Ġm Ã¤
l at
ĠlÃ¶ yd
Ġra hoit
ma inen
ko ko
Ġo sta
Ġmi eli
c a
Ġjo lloin
Ã¤rj estÃ¤
ĠT oi
Ġmu iden
Ġval ta
ĠP oh
1 6
isen Ã¤
Ġtiet oa
d o
Ġj uttu
Ġt or
ksi Ã¤
ter i
Ġjo issa
Ġ X
L Ã¤h
Ġl ei
Ġvuo ksi
Ġv e
ki en
Ġluo n
Ġj Ã¤r
p ol
ko h
Ġesi m
ĠH y
Ġhe inÃ¤
Ġt ulla
mi es
inn Ã¤
Ġh uhti
Ã¶l j
us te
1 7
ĠB log
ĠkÃ¤yttÃ¶ Ã¶n
Ġer iko
L E
oksi a
Ġhel m
ta minen
la is
Ġsaa ta
Ġmin uut
g en
Ġhel posti
si vu
Ġ201 3
Ġtoi v
ĠT iet
ks in
ed ia
Ġkaik ille
V al
Ġku vat
Ġm eillÃ¤
tÃ¶ n
h er
ĠlÃ¤h et
ann ut
ĠK ar
Ġpalvel u
to ri
Ġh inta
Ġkes ki
ri Ã¤
Ġh om
m ina
pa ikka
Ġj oiden
it see
Ġopisk eli
ko a
TÃ¤ mÃ¤
M a
ys sÃ¤
uks issa
Ġni istÃ¤
Ġh isto
Ġpoh ja
ud et
Ġp ikku
Ġs yks
Ġvan h
Ġto isen
een a
Ġasia kas
t tu
oi ka
ut ua
va an
ks e
yd essÃ¤
te eseen
uut een
r on
Ġmu ista
Ġal koi
la in
. )
yy den
j oiden
ko on
im et
201 7
v ana
ĠmÃ¤Ã¤ rit
Ġas et
ĠTa mper
Ġjo hon
Ġsuo si
ĠS o
Ġasi akka
E i
Ġr es
K un
Ġsuora an
L A
Ġk iv
Ġlaa d
lle et
Ġa lla
Ġuu de
llis tÃ¤
Ġtun tuu
Ġjul kais
Ġi de
ĠkÃ¤ si
ĠE uroop
Ġ uh
V A
Ġmet sÃ¤
Ġs oit
p uh
Ġt yttÃ¶
Ġri ittÃ¤
ks et
Ġol in
pa in
Ġm ik
ik oi
p ar
ĠO l
kk Ã¤Ã¤
Ġymp Ã¤ri
Ġh uu
Ã ĥ
Ġver ran
g er
jo on
k keen
Ġ19 9
s el
tun ti
ĠI s
ja us
o d
en i
al an
Ġ <
Ġsin un
h t
es ty
ĠV ir
Ġtar k
Ġsin ulle
Ġna inen
i ll
Ġvaik utta
istÃ¤ Ã¤
ka st
IN EN
Ġjat ku
Ġih m
J o
Ġt he
Ġjul ka
Ġon kin
ĠL uo
ĠpÃ¤iv Ã¤Ã¤
Ġhet kellÃ¤
ĠelÃ¤ mÃ¤
v os
Ġvaih e
ki el
- ,
Ġkuiten kaan
Ġri i
Ġva at
p Ã¶
Ġval mista
at tu
ti lan
Â ¤
mis estÃ¤
y rit
Ġammat ti
Ġp yy
4 0
Ġyhteist yÃ¶
ton a
Ġon ko
ĠM itÃ¤
ir e
m it
ik en
Ġmin ulle
ĠC o
Ġ2 2
J A
ta maan
d on
su unnit
Ġh eng
ul i
ĠlÃ¤ pi
Ġpa ikka
" .
to jen
ut un
yyn ti
v uus
ist Ã¶n
ika a
Ġm ut
Ġluk i
Ġku vaa
uksi en
Ġsosi aal
ĠtÃ¤ lla
va sta
Ġan d
ili ja
Ġvoi ma
Ġyle is
Ġko hta
is uutta
k ur
Ġoh j
Ġkor ke
ĠM yÃ¶s
Ġet een
lin e
Ġno us
il ja
Ġmen ee
k Ã¤n
ti kk
Ã¶ stÃ¤
Y S
Ġih ana
et el
Ġmel ko
Ġkeh itys
p in
b er
Ã¤l Ã¤
vi o
Ġp uu
Ġ >
mi eh
Ġmo le
Ġtuo tta
ĠlÃ¶ y
yt ys
v issÃ¤
Ġ 000
ĠO h
a d
T o
Ġsin ne
it ten
ĠN i
us taa
Ġ201 2
g n
si v
Ġaik u
Ġsa ma
k kÃ¶
ĠTÃ¤ ssÃ¤
ĠN iin
ĠlÃ¤h te
op ea
ee lle
pa ika
Ġar vo
o li
201 5
Ġkiin ni
j et
Ġyhd ist
i mme
Ġmaal isk
tel en
uk e
Ġta n
r u
Ġm itta
ik Ã¶
Ġlo ma
ĠP ro
ut usta
ks an
ĠP Ã¤
hd ys
ĠH uo
it in
unn unta
ĠK os
Ġtied Ã¤
ka uppa
Ġyhte ydessÃ¤
Ġerity isesti
Ġm ur
Ġsaat taa
usta nn
pa htu
. "
tiet oja
h y
Ġmat eri
Ġkor kea
per Ã¤
Ġhuo n
im mat
Ġki va
Ġluk e
Ġo maa
ĠM on
Ġkansa invÃ¤l
Ġla ina
Ġko vin
ar d
he mmin
ha i
Ġha us
2 4
K es
Ġpys ty
Ġ *
Ġteh tÃ¤
Ġsaa v
la ista
oi da
Ġvi era
k ra
Ġosallis tu
pp aa
ĠF in
Ġod ot
ĠTÃ¤ mÃ¤n
ist uu
ĠtÃ¤ ytyy
Ġtarko it
Ġas u
ka up
Ġr aa
ĠS in
Ġus ea
Ġh ui
el u
is it
Ġsop im
iv e
ĠE U
ĠL ap
il in
ka tu
Ġkuuka utta
in een
ku ussa
as in
Ġha va
201 4
Ġsiv u
Ġta kia
Ġtut us
Ġsil ti
u unnit
Ġihmis et
ja lle
ĠS aa
Ġm iksi
jo ja
L i
Ġlap sen
ek ka
Ġtar vi
Ġj Ã¤rjestel
si o
Ġtul isi
Ġmil joon
Ġtarjo a
is h
an ne
t ul
inn at
iv u
ll it
Ġop et
ĠI tse
Ġsan o
Ġtut ki
Ġtutkim us
Ġasi oita
Ġmerk ittÃ¤
ettÃ¤ nyt
in tÃ¤Ã¤n
uk an
kÃ¤ yttÃ¶
Ġhy vÃ¤n
ð Ł
ĠO sa
Ġsa in
Ġsuu re
ul un
o kuva
uk u
Ġj Ã¤rjestÃ¤
Ġky mmen
Ġk Ã¤Ã¤n
si en
ĠnÃ¤ itÃ¤
han sa
ys ti
u anta
Ġkes ken
m uo
a lle
Ġhuo ne
Ġperuste ella
Ġtun te
it yks
h den
Ġp uoli
tel ut
Ġper he
llÃ¤ Ã¤n
ĠensimmÃ¤ inen
Ġm ihin
us in
ĠFa ce
e uv
Ġjo ista
ĠV oit
or e
Ġviikon lo
Ġel oku
m uut
Ġto d
Ġsis Ã¤Ã¤n
O P
Ġnel jÃ¤
Ġ2 1
et in
T uo
Ġ4 0
kes k
ri en
ĠtÃ¤y de
ĠpÃ¤iv Ã¤nÃ¤
Ġ =
Ġ2 3
Ġhel ppo
Ġp eli
uo ka
Ġlo ka
uud esta
et un
ĠnÃ¤ yttÃ¤
d at
ĠlÃ¶ ytÃ¤
j Ã¤Ã¤
Ġpar as
O len
ĠjÃ¤rjes t
Ġ ikÃ¤
ĠtyÃ¶n teki
p pa
Ġit s
Ġhel p
Ġl is
Ġa uttaa
Ġtuo n
Ġm eille
Ġkes ke
ĠkÃ¤ytÃ¤ nn
m uka
I A
ik kÃ¶
p ro
Ġsyn ty
T Ãĸ
e mp
ĠN or
te esta
in taan
Ġk r
Ġtar vit
Ġko tiin
Ġpare mmin
y mp
urin ko
palvel ut
Ġp osta
Ġop etta
Ġvaik uttaa
Ġtiet Ã¤Ã¤
Ġmu ist
ĠsÃ¤hkÃ¶ p
Ġyrit tÃ¤
la isia
i mm
Ġmen i
Ġpa h
Ġv in
ti l
Ġede ll
h taa
va ra
ja an
ĠJ oh
Ġhalu aa
ĠY le
Ġmaalisk uuta
o pp
uud et
s p
illa an
Ġka i
ku a
Ġl at
g l
iin a
Ġ ...
un i
ĠM ikÃ¤
m Ã¤Ã¤rÃ¤
Ġval mi
Ġhier onta
Ġt yh
Ġo lleet
Ġpar an
Ġjon kin
ĠkÃ¤ vi
ĠnÃ¤hd Ã¤
201 6
Ġ Z
ve ys
min isteri
ot us
Ġsuk up
Ġvi e
te lla
Ġval it
Ġnim i
Ġta hansa
ee ksi
ĠY rit
Ġc m
joit us
ka upun
Ġmenn Ã¤
Ġkah den
Ġjouluk uuta
ĠR i
A l
2 5
Ġjo ukko
Ġhaa sta
Ġyhte yttÃ¤
Ġluot to
ud u
Ġp una
Ġsuunnit el
ĠP al
ter net
Ġsan oo
ĠE r
iko lla
Ġsan oa
m s
ala inen
Ġto sia
Ġh ttp
il Ã¤
Ġterve ys
mat ka
Ġka hd
d y
um er
ellÃ¤ Ã¤n
v erk
va ssa
ĠP el
Ġpit i
Ġmarras kuuta
ĠM uut
ĠA s
b a
ik kaan
Ġteh nyt
ĠjÃ¤ lleen
K U
Ġtouk okuuta
ĠsisÃ¤l tÃ¤Ã¤
Ġole massa
Ġka up
Ġs Ã¤Ã¤nn
Ġw ww
il y
Ġtamm ikuuta
Ġnor maal
ĠE si
" ,
ĠL in
l Ã¤n
Ġo st
ĠS isÃ¤
Ġtil aa
Ġva li
Ġmu assa
Ġur he
Ġil m
ri p
Ġhuhti kuuta
Ġen sin
ak sa
ist un
y yttÃ¤
Ġluonn on
Ġ201 1
is essÃ¤
va ksi
Ġkaik kea
Ki itos
Ġv il
j Ã¤rjes
nÃ¤ kÃ¶
Ġkoh ti
ta utu
is o
Ġper Ã¤
si mmÃ¤
Ġv en
il ma
ist y
Ġvan ha
R a
Ġl uu
ko ja
te issa
ĠvÃ¤l ttÃ¤
Ġt Ã¤h
Ġmiel enki
n en
N o
re ff
mis essa
Ġhelm ikuuta
Ġvah v
va ik
Ġkoul utus
ka uden
ĠvÃ¤h en
Ġtarv itta
Ġerila isia
ĠlÃ¤mp Ã¶
Ġ; )
Ġka ver
Ġpro jek
h Ã¤
Ġn aa
Ġperin te
ise llÃ¤
llen i
yd Ã¤n
g elma
Ġvuo ro
Ġk uk
man a
N yt
Ġmin kÃ¤
ĠP i
Ġra uh
Ġe vÃ¤
ĠtyÃ¶s ken
te h
up er
Ġpuh een
k is
Ġna ut
et ut
Ġtuo ta
oit u
ĠH er
ti m
ĠV enÃ¤
g as
Ġsija an
Ġsuu rin
te ista
Ġseur a
Ġp es
Ġil ta
il ua
Ġmon ta
Ġkas vat
Ġhuo li
Ġra vinto
ĠL as
ĠlÃ¤ mm
o g
Ġkaupun ki
ĠNÃ¤ in
Ġkes tÃ¤
no log
ĠK er
Ġt Ã¤nÃ¤
k sa
ĠlÃ¤h tÃ¶
b log
S i
Ġta usta
mat on
Ġkaun i
yvÃ¤ sky
ĠÃ¤ iti
M itÃ¤
ĠkÃ¤ ynn
v isi
Ġjo ukku
ollis uus
Ġsin ua
i mman
V I
Ġkiin te
ik u
Ġuude lleen
Ġkun to
Ġh erk
Ġr ekister
P a
ĠK O
e ja
ĠE l
ĠheinÃ¤ kuuta
Ġal as
Ġo mina
huo ne
Ġvide o
Ġta so
Ġus kon
u ti
Ġp il
jÃ¤rjestel mÃ¤
tu ja
ok er
Ġva pa
v es
ĠsÃ¤hkÃ¶ posti
6 0
Ġhalu at
es te
Ġaie mmin
Ġjo hd
Ġed usta
Ġul os
Ġl ento
ti Ã¤
Ġpuh el
Ġli it
ta t
ĠH Ã¤
ut unut
isaa lta
.. ..
isi lla
is yys
ĠnÃ¤ k
ĠK ys
Ġmin ua
Ġ uus
mis sÃ¤
I l
Ġ â
ĠY hte
ĠKo ko
Ġj Ã¤Ã¤n
Ġasi at
k ossa
l iin
Ġka pp
Ġvi et
ih an
M i
Ġs or
mar kkin
Ġk yn
Ġpy sÃ¤
ĠmyÃ¶ tÃ¤
il an
Ġta ll
llis een
ĠjÃ¤ i
ĠP alvel
Ġr u
uuta r
Ka ikki
Ġh ir
Ġtehd Ã¤Ã¤n
t tÃ¶
Ġyksin kerta
Ġ201 0
Ġto den
Ġto ista
Ġak tiiv
ehd ot
Ġsan oi
K E
Ġsu unn
ist in
is issa
en s
Ġtun tia
ja lla
Ġ ðŁ
mÃ¤t tÃ¶
te ja
ĠmyÃ¶ hemmin
ot ti
Ġmak sa
ll isten
. âĢĿ
uo ne
Ġo ppi
H a
tel Ã¤
os e
Ġmiel tÃ¤
Ġmuuta man
ĠL ue
Ġviikko a
Ġk is
Ġj oilla
in taa
al ue
Ġar tikk
Ġalka en
om et
Ġel in
Ġla ittaa
ĠH i
ĠP o
ll Ã¶n
ĠM Ã¤
Ġtuo lla
Ġt is
ĠK uva
vi de
or a
Ġprosen ttia
g aa
Ġtar in
ut ettu
Ġk ustann
uksen a
Ġf or
Ġtuo te
d io
ĠlÃ¶y tÃ¤Ã¤
Ġker r
ĠsisÃ¤l tÃ¶
st on
Ġmaa han
h kÃ¤
201 3
8 0
O T
aa ri
pi ir
Ġvi ih
ĠpÃ¤Ã¤ llÃ¤
Ġtalo us
2 2
ĠVa ikka
Ġp ian
Ġole mme
vuo ti
H el
Ġtiet ok
Ġvaihe essa
la it
Ġkir jan
ĠE d
ip uol
Ġos taa
ĠkÃ¤yt etÃ¤Ã¤n
Ġt reen
Ġs ur
Ġtoim itus
ĠK ul
Ġlyh y
ut tua
Ġihm isten
Ġv Ã¤Ã¤r
Ġta it
la iset
it ter
ĠT he
Ġta s
on in
ĠL u
Ġpak ko
e men
ĠK uu
ĠlÃ¤h ellÃ¤
p un
ĠPoh jois
ĠâĢ ľ
Ġa iko
Ġku van
Ġo mat
Ġ u
Ġsin Ã¤
ĠhyÃ¶d yn
Ġteh tÃ¤vÃ¤
Ã ©
Ġvi esti
Ġihmis iÃ¤
Ġsel vit
d Ã¤
ĠR uot
gan isaa
ĠI h
LÃ¤h ettÃ¤nyt
ksen i
ust on
Ġpuh u
tele maan
or t
ww w
ĠTa i
Ġver ta
yh tiÃ¶
si in
ut een
Ġmiel een
M in
l Ã¤Ã¤
Ġkeh itty
Ġha ke
et tel
V uo
ĠhenkilÃ¶ kohta
Ã¤n Ã¤Ã¤n
ĠkÃ¤yt Ã¶ssÃ¤
Ġy lÃ¤
T V
ĠM u
Ġ2 7
ist unut
ja sta
A r
mpp an
Ġki itos
Ġpit kÃ¤Ã¤n
vaih to
ik i
utkim us
ll y
un d
E D
o lle
ĠU usi
Ġmak saa
âĢĿ ,
va s
Ġa ino
ka ssa
Ġhuo no
Ġta kana
ak ko
ĠC h
an oma
tel uun
Ġyh Ã¤
Ġta kaa
Ġhuo ma
p as
p eli
A M
l Ã¤h
la isen
en sa
l on
ĠS al
ne ksi
uks e
t yÃ¶
ĠpÃ¤Ã¤ si
ĠV oi
itys tÃ¤
Ġtuk e
Ġs ar
ĠU l
Ġsop ii
Ġr uu
Ġmuuta ma
Ġmu utta
ka us
Ġso vel
Ġper usta
Ġ6 0
Ġva ku
um ero
Ġih misen
mis et
ul oa
ĠKo ti
r Ã¤n
Ġker ro
kin ta
Ġle v
Ġp eh
ĠEuroop an
iti iv
Ġ2 6
Ġoike us
T ilaa
Ġoh jaa
s ut
ĠnÃ¤kÃ¶ kul
Ġmen e
ĠH yvÃ¤
Ġ2 8
Ġal ue
Ġolla an
Ġkaikki en
Ġsa m
ul e
f o
Ġse ks
Ġr is
Ġen t
Ġsin ulla
Ġs iksi
isuud essa
Ġosa lta
ot en
Ġto ki
Ġarv os
ka u
os ton
il ee
ĠmyÃ¶ n
Ġik kun
ar vo
Ġkiinn osta
Ġmuo to
Ġta p
or d
ĠT oim
os tu
Ġmuka isesti
b e
Ġl an
Ġus eita
Ġs arja
Ġsella inen
ĠH al
Ġer o
ma ks
otta vasti
z z
Ġrun sa
Ġtapah tuu
te k
Ã¶ r
A n
ina an
il ut
S Ã¤hkÃ¶
Ġsi eltÃ¤
Ġasian tunti
ĠD e
ku vat
Ġasi ak
Ġmin ulla
ka sti
Ġk el
ĠK r
hin g
Ġpo li
o u
ma lle
t ista
Ġa jo
yty vÃ¤
Ġm an
Ġsiv usto
ud un
luv un
h un
Ġoike asti
p ros
Ġl ista
is estÃ¤
p y
Ġmielenki into
Ġluk ea
tan to
it etty
ĠT w
Ġtarko ittaa
ll Ã¶
enn a
st er
o inen
Ġra haa
Ġh oid
ĠV er
p uolella
ĠtÃ¤rke Ã¤
ke h
bo ok
Ġhuoli matta
Ã¤ s
P A
yÃ¶s sÃ¤
ĠtÃ¤ yt
ja ksi
Ġmusi ikki
ĠVi ime
ĠsisÃ¤ llÃ¤
ĠvÃ¤h intÃ¤Ã¤n
ĠkÃ¤ ydÃ¤
inn assa
ĠP it
Ġliik ke
Ġ Ã¤l
t si
ĠH an
Ġkaun is
Ġko tona
ikke et
Ġke itti
I I
p ur
it yksen
o mat
sin ki
Ġtosia an
Ġm ed
TÃ¤ ssÃ¤
ĠIl ma
ut e
ĠK iin
Ġvaike a
Ġilma inen
Ġyh tÃ¤Ã¤n
ĠH o
ja ssa
Ġkaupun g
g ra
il man
ĠK on
Ġt osin
ko ulu
Ġj Ã¤nn
Ġn etti
pÃ¤Ã¤ tÃ¶
Ġm as
jo a
ie mi
T ar
v yys
Ġkesk itty
mp ien
Ġaihe utta
Ġjo ko
M utta
Ġsuo mi
Ġpalvel ut
Ġp oika
a y
Ġed essÃ¤
Ġp ika
li ik
Ġsa maa
Ġteke mÃ¤Ã¤n
Ġtar kas
ĠV e
mÃ¤ ki
Ġp ih
ut ki
Ġpys y
Y T
Ġrak ennus
Ġnim en
es in
Ġasi aa
a in
Ġmel kein
Ġo on
men n
ĠlÃ¤h ettÃ¤
ĠkÃ¤ vel
Ġhar ras
ks o
Ġol is
ĠP uh
Ġyliop isto
Ġpien en
Ġsel v
e jÃ¤
iv o
Ġkommen tteja
ikko ja
ot el
Ġs iten
Ġtalo ude
Ġtiet ysti
Ġmahdollis imman
Ġkoh taa
h aat
ĠV aa
ti Ã¶n
ĠlÃ¤ hd
I n
tel ussa
Ġan ta
M ar
uol to
ĠlÃ¤h e
ky mmen
ĠM et
s sin
Ġpuol esta
ĠR ak
Ġva ka
eng Ã¤t
Ġtarko itus
Ġhan kki
2 1
as taa
ĠU ut
iin i
Ġko kon
ĠM er
Ġv ed
estÃ¤ Ã¤n
ĠtÃ¤rke Ã¤Ã¤
kki Ã¤
h ka
Ġih minen
Ġkann alta
e ista
kin to
Ġmi etti
Ġka uppa
AL L
Ġyksity is
Ġed u
ĠM iten
Ġmahdollis uus
Ġal usta
uus sa
reff it
uk ut
p s
r ee
g i
ĠpÃ¤Ã¤ see
Ġli ike
Ġmenn essÃ¤
T U
ĠtÃ¤n ne
Ġna iset
ĠI han
Ġas unto
ĠK an
L isÃ¤
2 3
im Ã¤
Ġyhte isk
os uo
vÃ¤ Ã¤n
tÃ¤ minen
Ġmieh en
o la
Ġkan san
ĠpÃ¤Ã¤ ssÃ¤
Ġliik et
Ġn opea
ust ettu
Ġmon ipuol
Ġa ine
Ġk m
Ġp yr
Ġra joit
Ġt yt
l y
ĠH aa
r asta
r is
vi ikko
aal it
tÃ¤ nyt
Ġtoim itta
ĠFin land
Ġte in
Ġan si
Ã¤l tÃ¤
Ġkas va
j un
ĠvÃ¤h emmÃ¤n
to in
Ġa j
Ġra ha
Ġkol m
ĠV Ã¤
ko inen
Ġtapa uksessa
Ġpor n
ĠpÃ¤ in
Ġhy viÃ¤
unn a
Ġvi ikolla
kk Ã¤Ã¤n
Ġkun ta
tra teg
kir joit
Ġk uor
vet uloa
Ġ2 9
Ġtoim innan
ĠY hdys
Ġ200 9
Ġon gelma
iv er
P er
Ġsaa daan
ĠensimmÃ¤ isen
Ġj ne
Ġh ak
Ġenerg ia
Ġt ot
ĠJ Ã¤
Ġil me
Ġtied on
va li
ĠlÃ¤Ã¤ kÃ¤
O let
Ġyhte ys
Ġvaik ut
at ta
v ointi
Ġo o
ise mmin
T er
pp Ã¤
re si
S I
Ġlopp uun
Ġh oi
oh j
Ġlop ulta
Ġis tu
ĠOn ko
ĠU n
mm i
ĠevÃ¤ ste
ĠvÃ¤ ri
Ġku kaan
ol ta
Ġal ussa
Ġ Ã¶lj
ll ikkÃ¶
en ter
Ġo llen
Ġpo liit
ĠK as
Ġma ll
Ġsaa vat
j uh
Ġkokon aan
yn nÃ¤
into ja
m pa
Ġulko ma
Ġta paa
Ġd ig
l ista
O R
llis uuden
Ġpare mpi
Ġla uanta
ĠE lÃ¤
ia an
ĠA nn
ĠtyÃ¶ tÃ¤
: )
mp an
i il
Ġk pl
e mpi
ĠpÃ¤Ã¤ se
ot on
ĠA si
inta r
ek ko
Ġkirjoit taa
ĠL Ã¤
ri an
7 0
Ġalu eella
Ġa urinko
r Ã¤t
Ġhuo matta
Ġti e
v istÃ¤
Ġliik ku
ĠHelsin g
ĠhÃ¤n tÃ¤
u g
ki er
yttÃ¤ vÃ¤
Ġoh ja
ĠnÃ¤k yy
ĠP et
Ġtarvi taan
M IS
K at
uud essa
ĠTÃ¤ llÃ¤
ĠE telÃ¤
Ġeteen pÃ¤in
mi lla
ĠP in
ĠlÃ¶yd Ã¤t
ĠKir ja
ka inen
uole lle
uo n
T e
201 2
Ġtul os
r ess
Ġvi estin
mi lle
Ġan al
ĠK ol
Ġrii ppu
Ġaut on
Ġymp Ã¤r
ku in
ĠnÃ¤ istÃ¤
ĠL aa
Ġh oita
a jan
resi den
i ma
H D
Ġyksi lÃ¶
s k
Ġel okuva
u uksia
ĠU r
ll essa
âĢ Ļ
ee llis
Ġva al
Ġperh een
Ġtoimin taa
Ġmi et
ĠlÃ¤h ti
N a
Ġla j
Ġma hta
Ġkul j
ite taan
Ġnuo ri
usta n
Ġtote utta
ka lla
Ġteks ti
ut on
t ys
t sa
Ġsuh teen
Ġmik Ã¤Ã¤n
ĠJ e
Ġpi ll
ĠkÃ¤ te
Ġterve yden
Ġm yynti
ĠmielestÃ¤ ni
Ġna isten
Ġpa per
M at
la isten
3 5
m itta
Ġer ino
Ġyhteen sÃ¤
A A
Ġminuut tia
Ġtule vat
Ġraken ta
ĠS Ã¤hkÃ¶
Ġuud et
Ġkoi ra
Ġkilpa il
Ġa ih
tÃ¤ mÃ¤Ã¤n
Ġpa ko
ĠO li
re Ã¤
mÃ¤ stÃ¤
y hdist
p yÃ¶
in d
Ġmu lla
ĠH all
o llinen
I V
ĠystÃ¤ vÃ¤
B log
Ġval tion
U KS
otto masti
ohjel ma
Ġker ra
Ġta h
inn asta
UN N
ĠS is
ist uksen
ut ul
ksi a
L L
c t
ĠK yllÃ¤
inn ut
ka ta
Ġkau an
Ġk uole
v onta
ĠE li
ys ten
Ġmuut os
Ġus e
Ġsija itsee
it u
Ġm y
Ġjat kaa
Ġkommen toi
Ġkirjoit ta
âĢĿ .
Ġs ana
Ġnuor ten
ar e
Ġker ta
ĠJ ul
H y
ista an
Ġri ittÃ¤Ã¤
Ġs unnunta
r ik
Ġsyys tÃ¤
ĠtÃ¤Ã¤ ltÃ¤
liit to
Ġper jan
T EL
P S
Ġlo ppu
Ġrekister Ã¶
pol iti
ost itse
Ġole maan
Ġlap set
essÃ¤ Ã¤n
ta so
ĠÂ ·
ĠK uo
Y Ãĸ
ĠTw itter
Ġjoten kin
p ut
Ġsa ira
K e
ĠS u
Ġkor va
p itÃ¤
ĠL isÃ¤Ã¤
Ġos to
ur ing
ĠM inÃ¤
Ġhaa ste
h op
ĠpÃ¤Ã¤ s
en ta
ko ti
Ġtoden nÃ¤kÃ¶
ĠT alo
kÃ¤ stÃ¤
men na
ks esi
Ã¤n si
ĠT ee
9 0
os te
l ehti
uk in
ur an
Ġt us
Ġoh je
ĠE hkÃ¤
Ġta a
ku ja
Ġa utta
Ġvali ta
de lle
Ġen kÃ¤
Ġjossa in
Ġkokona is
Ġole vat
Ġsaa tta
v yt
ĠKi itos
oo g
ĠÃ¤ id
jo jen
tur va
Ġloka kuuta
t isesti
ĠP ir
Ġvast uu
el man
Ġtutus tu
oin nin
Ġl ih
Ġlaa jen
kke et
tu un
inn on
Ġs un
Ġm Ã¶
uk kaa
uot teet
utu i
mat eri
Ġval itse
al is
etty Ã¤
Ġmo otto
ĠyllÃ¤ ttÃ¤
tu sivu
ĠkesÃ¤ kuuta
ko hd
Ġ '
uk on
j oille
I D
at ter
Ġaino astaan
en t
kk it
v il
Ġtilan ne
Ġver rat
ryh mÃ¤
Y hte
Ġvaihto ehto
Ġsi lle
Ġoike a
Ġsyys kuuta
pÃ¤iv Ã¤n
Ġmi lla
sit tain
vuo tia
Ġyrit yksen
i ja
ĠelÃ¤ mÃ¤Ã¤
k ys
kon en
Ġka uh
issa an
Ġp ir
Ġty ytyvÃ¤
f e
Ġla itte
ĠKat so
Ġlas ke
o log
Ġkoul ut
Ġ Q
isi vat
ĠjÃ¤l j
Ġku un
Ġjal ka
ĠJ yvÃ¤sky
Ġo maan
ko log
Ġkaikki a
Ġo mia
Ġso vell
Ġryh mÃ¤
nn on
k kaan
Ġt esta
ile maan
ist ys
mp Ã¶
Ã¶ itÃ¤
ur s
Ġmuka va
ĠY ksi
gl ann
Ġr Ã¤
yÃ¶ tÃ¤
ĠS am
V oi
Ġk et
Ġpi de
Ġhel po
Ġop etus
Ġti en
Ġblog i
Ġhel pp
iks een
k ilpa
va in
yt ty
Ġpo ik
ĠlÃ¤hte Ã¤
merk ki
p iste
Ġker Ã¤
r et
ĠK aa
an d
ost us
ĠlÃ¤h innÃ¤
is ka
it on
Ġ illa
t isen
Ġrahoit us
oim innan
im in
Ġvoin ut
Ġla us
Ġed istÃ¤
Ġker toi
v ina
uk Ã¤
Ġhisto ria
Ġkunn es
M ikÃ¤
Ġtiet Ã¤
4 5
ud essa
oike us
Ġlaa ti
ĠâĢ ¢
ke jÃ¤
ĠSe uraa
t h
uma lan
) :
v ik
Ġkuuka usi
Ġp uolella
Ġkohd alla
o f
Ġt on
Ġhuomi oon
ĠelÃ¤ in
Ġs ala
Ġe ilen
2 6
Ġ ?
ĠsÃ¤Ã¤nn Ã¶
Ġmiljoon aa
Ġluk u
ĠT il
Ġhyvin voin
ĠA nna
Ġseur ak
e mme
T i
Ġtunn in
Ġva u
Ġvaati i
j uus
ĠK A
Ġ200 8
Ġvi ik
te isiin
U usi
p ohja
Ġkol man
o c
yks een
o lo
Ġel okuuta
Ġli ikaa
Ġ8 0
y si
2 7
O IT
ĠkÃ¤yt Ã¶n
Ã¤Ã¤n ty
2 9
Ġni ihin
eh den
ann an
Ġval inta
p ul
ĠP ien
ettu ja
Ġb on
d et
h enkilÃ¶
ĠMi es
u mala
ĠF or
201 1
Ġr oh
us teet
M aa
Ġonn istu
Ġjon kun
Ġmon i
ed el
Ġyl Ã¶s
Ġtote ut
Ġih met
Ġpal ja
sa l
ĠvÃ¤h Ã¤
Ġsaa kka
Ġhoit o
Ġtiet oja
et i
ĠTi ed
Ġp as
utu minen
Ġra por
m Ã¤Ã¤r
Ġkoul u
Ġitsen sÃ¤
Ġar von
to inti
U U
Ġr us
Ġsa maan
A K
oo d
ĠA ika
ĠsÃ¤hkÃ¶p ostitse
ee llinen
s tu
r ot
aal ia
kÃ¤ sit
Ġp uutar
Ġvar sina
Ġt hai
Ġhall ituksen
t oihin
Ġkunn an
Ġjuh la
Ġkan s
Ġpar anta
Ġun oh
Ġb y
pa ikan
vÃ¤n Ã¤
d u
T iet
Ġpala ut
n tÃ¶
ĠI tÃ¤
ast us
Ġtis sit
Ġha h
Ġmon en
a sia
O H
Ġsuo men
ja r
2 8
Ġk Ã¶
Ġluo v
ud esta
g ht
c m
Ġil mi
ĠnÃ¤ iden
A tom
Ġtoim en
yhte is
ol in
mÃ¤ tÃ¶n
ĠTur un
ĠhenkilÃ¶ stÃ¶
mm ista
ĠT al
tÃ¤ n
Ã¤Ã¤n tÃ¶
Ġkuu le
jo ista
h Ã¶n
Ġjoka inen
r Ã¶
Ġkas vaa
ĠKo ul
Ġp us
Ġod otta
Ġpal kka
si on
Ġas enn
ma ksi
T ee
Ã¤n yt
ymp Ã¤ristÃ¶
at on
ĠNÃ¤ mÃ¤
c i
Ġsit o
q u
Ã ¥
Ġkiinn os
pa ino
Ġalu een
ĠlÃ¶yty i
ella an
os en
Ġkul utta
Ġt eidÃ¤n
Ġonne ksi
Vi ime
Ġis ot
te eksi
ĠP an
ĠKes ki
jÃ¤r vi
ĠSuo mala
uin ka
Ġke vÃ¤t
tio ta
ka at
Ġliitty vÃ¤t
m y
M iten
d it
ĠjÃ¤t tÃ¤Ã¤
ĠBlog ger
Ġn umer
ih to
Ġ7 0
Ġmon et
Ġsop iva
ap aa
Ġopp ila
Ġs ol
Ġap ua
si Ã¤
Ġpi il
mi el
Ġtek n
Ġvarsin kin
de llÃ¤
laa tu
ĠS il
Ġsil tÃ¤
ĠY l
Ġpos itiiv
Ġn s
kke jÃ¤
ĠkÃ¤yt ettÃ¤
ĠM usta
g o
ĠK y
p id
Ġn ukku
Ġod ottaa
Ġhien o
Ã¤Ã¤ llÃ¤
tti en
t tiin
b oo
Ġe mme
ĠEn simmÃ¤
Ġvuod esta
ĠT O
ih Ã¤n
ÃĦ N
mi o
Ġtuk ea
h oid
ni ikka
ĠpÃ¤Ã¤ ttÃ¤
P oh
Ġ Ã¤Ã¤
hd ollis
ist ossa
Ã¤n sÃ¤
ĠO le
Ġke in
Ġja ka
Ġlo ista
a uto
ne taan
Ġku vit
uo to
ar in
n an
Ġpo ikke
ti las
Ġnim ittÃ¤in
Ġkol men
I R
d oin
s un
Ġor ganisaa
Ġsel vÃ¤sti
Ġkan ta
Ġtuotte ita
ĠkÃ¤yttÃ¶ Ã¤
Ġvar mista
et tuna
ĠkÃ¤ yn
p uu
N iin
oin n
Ġk l
Ġja ksa
ku via
Ġinn o
Ġkos te
ĠLi ik
Ġko va
om e
V ar
ĠpyÃ¶ rÃ¤
Ġsija itse
Ġsa ta
os uh
esti in
Ġkuuka uden
P Ã¤Ã¤
osuo ja
Ġluo tta
Ġko vasti
ksu aal
Ġval ikoi
Ġke llo
ĠB o
os tuu
ĠK ansa
Ġeur on
Ġmuut taa
Ġne ul
Ġkys y
Ġs ydÃ¤
ĠS iinÃ¤
Ġra h
Ġlaa ja
yt ti
Ġseksi Ã¤
te itÃ¤
Ġme ta
Ġr et
hd et
Ġna isen
isk eli
d un
Ġp ut
utta va
n y
Ġtyy l
Ġsuo ja
ĠA uto
talo us
etta vasti
k inen
Ġkoh taan
Ġtoim it
t unn
K oh
jo ki
ĠM uuta
Ġk ri
ĠS itten
Ġres ep
ĠtÃ¤ ynnÃ¤
hoit o
Ġhall itus
Ġtarjo lla
Ġv ettÃ¤
ma l
is tui
Ġm assa
Ġher Ã¤t
kÃ¤ s
m paan
ĠH S
Ġno ud
SÃ¤hkÃ¶ posti
Ġtiet enkin
Ġkunn ossa
llÃ¶ in
Ġmi lloin
ĠT ek
uu l
Ġb i
ĠO r
Ġtul ossa
h oita
suo jel
Ġsa isi
Ġhy vÃ¤t
Ġto iseen
tan a
yks essÃ¤
Ġpid Ã¤
uk kaan
ĠkÃ¤yt etty
Ġl ak
ĠKa upun
P ar
Ġauto maat
tel yn
Ġnel jÃ¤n
Ġku ka
k etta
Ġtuot teet
vÃ¤ lin
nn en
jo ukku
pp ua
Ġsyy tÃ¤
Ã¶ Ã¶
va lle
ĠU s
Ġkan na
vuoti as
Ġs trateg
ur e
Ġsop i
si vat
Ġpa itsi
Ġaina kaan
ve si
p io
ka lu
va at
h u
Ġpid Ã¤t
ans ka
Ġsella ista
Ġme itÃ¤
Ġav oim
Ġ3 5
k ista
Ġra ja
Ġtavoit teena
llis iÃ¤
kin Ã¤
ĠHelsing issÃ¤
Ġj ut
ol an
h el
Ġmon ia
Ġra uha
Ġkil omet
Ġsaata villa
utu vat
I han
ĠO s
men t
se ja
Ġliik enne
ti lla
r es
ĠKes kus
Ġaloit taa
ĠK oi
Ġt eille
ĠvÃ¤l it
Ġain oa
ĠJ uh
Ġsuun taan
Ġpar asta
ei ja
Ġ3 1
Ġaihe uttaa
il as
M uut
O L
ĠhÃ¤n elle
isuud et
t to
Ġsiir ty
Ġh ur
mm o
Ġkeskus telu
ĠS itÃ¤
lu e
Ġehd ottomasti
Ġkoko on
h ot
istÃ¤ Ã¤n
pÃ¤Ã¤ llikkÃ¶
es sani
ĠE rit
Ġ9 0
Ġmu istaa
is elta
Ġsel keÃ¤
eid Ã¤t
I h
at taa
us ut
into jen
T yÃ¶
ise uraa
j Ã¤Ã¤n
ti c
h tuu
or ia
ĠY li
Ġtoim ia
Ġkoke illa
Ġasi asta
Ġve den
ut in
er s
ten Ã¤
Ġehd ot
On ko
y ri
ĠM eillÃ¤
s ul
Ġvuo kra
201 0
jÃ¤r ven
Ġtar ke
ĠtÃ¤ yden
osoit e
ka ise
Ġh ilja
Ġn osta
mma ti
Ġp en
voi ma
Ġs p
sÃ¤Ã¤ d
ytÃ¤ Ã¤n
ÃĦ R
Ġlu pa
Ġ ui
Ġnyky Ã¤Ã¤n
Ġhet ken
p eri
Ġoma sta
Ġjo uk
v ih
ĠkÃ¤ s
Ġkapp al
U P
Ġal kan
ol f
ko o
L e
Ġr an
s Ã¤n
enk Ã¤Ã¤n
ĠlÃ¤h tee
is uuteen
m g
Ġik inÃ¤
v is
ĠkehittÃ¤ mis
Ġp akka
ĠvÃ¤lttÃ¤ mÃ¤ttÃ¤
M I
Ġin ternet
Ġoike astaan
ĠâĢ Ķ
Ġse ko
ĠO ike
el y
Ġal an
ko jen
ĠkÃ¤r si
s is
ĠN et
i c
K or
E tusivu
to t
3 3
Ġy m
u mi
Ġliik unta
Ġo ta
huo llon
Ġl en
K yllÃ¤
Ġ da
s taa
hd in
isi ja
Ġpeh me
sa st
Ġyh tiÃ¶
in an
Ġmin ut
4 4
yt Ã¶
or k
Ġyhteis Ã¶
Ġso vit
ĠR aa
ĠPin ter
Ġa uki
Ġvaik utus
g on
Ġjosta in
j ista
d s
in aa
âĢ ¢
Ġvi isi
si l
m essa
ĠmikÃ¤ li
Ġih me
Ġr ik
iv in
Ġkut su
p ite
Ġen iten
d ot
ĠelÃ¤ mÃ¤Ã¤n
ma ksu
Ġlap s
ĠtÃ¤ yttÃ¤
Ġol isin
op isto
ime Ã¤
erk ko
Ġta j
t us
ĠhyvÃ¤ks y
ĠFace book
Ġjo kin
liit on
la y
ti ot
Ġky p
Ġhuo maa
v uutta
0 9
ll ia
te inen
Ġpuheen johtaja
Ġpi llu
sar ja
llis uutta
Ġos an
Ġtunn e
Ġkuulu vat
Ġjo hto
luv ulla
Ġt otta
es k
kor kea
ma il
ĠD a
pit o
k il
ĠA sia
Ġ5 00
Ġpa ik
Ġesiin ty
la an
pa llo
Ġammat tila
Ġes ittÃ¤
j uo
Ġvuo sina
ksin kerta
Ġc o
Ġhel sinki
jÃ¤rjes tÃ¶
Ġl ang
Ġkes tÃ¤Ã¤
aal in
Ġhe vos
Ġ uun
m era
Ġva ale
9 9
Ġp residen
p es
ut en
Ġma ise
tun eet
ĠkÃ¤ ynyt
Ġkysym ys
a b
Ã¤n tÃ¶
Ġko mp
jÃ¤rjestel mÃ¤n
ĠMi el
Ġilma iseksi
ĠT A
Ġol o
Ġr ann
ĠA S
Ġkulttuu ri
Ġ200 7
. -
kir jan
ma tÃ¶
Ġsuunnit telu
Ġtarko ituksen
Ġjoul u
ĠymmÃ¤r tÃ¤Ã¤
Ġ19 8
ĠO ma
Ġh Ã¶
Ġsaa tu
Ġkat se
m yy
Ġtoimi vat
ĠS el
Ġarvi oi
ik uu
m ok
kor tti
Ġ200 0
pro jek
Ġvir a
Ġter v
jÃ¶ iden
Ġohjel ma
et o
tele vat
ll aa
ĠKos ka
Ġkon e
Ġjatku vasti
b erg
Ġas en
ir in
oin tia
Ġma ksu
Ġpar haat
Ġkul u
Ġar k
um in
Ġtuk i
M e
ĠlÃ¤h tien
ĠNa isten
Ġyrit tÃ¤Ã¤
IS T
O p
ta ul
j iÃ¤
ĠTamper een
0 5
Ġverrat tuna
V an
uo tte
on sa
3 1
ĠSuom een
e er
Ġmin usta
yh ty
ĠnÃ¤ ke
ĠHy vin
Ġasi assa
Ġtun tui
P or
H uo
ĠK eh
Ġker toa
v eri
Ġt een
kas vat
Ġs yvÃ¤
ĠKÃ¤ yttÃ¶
m Ã¶
Ġja kaa
mp Ã¤Ã¤
is si
ĠP u
Ġmaan anta
ĠÂ ©
Ġjat kuu
ka lta
Ġkyse essÃ¤
is istÃ¤
Ġkoul un
alu een
sa us
ist ettu
ll ys
Ġs Ã¤n
Ġansi osta
T oi
ĠT u
m esta
Ġesi lle
Ġihan aa
K u
ĠEsi merkiksi
ka la
Ļ ¥
h et
ĠE x
Ġk yt
ĠlisÃ¤ tÃ¤
Ġkut s
P Ã¤
ĠFace boo
Suo mi
Ġet enkin
Ġmen et
Ġl ehti
Â »
per in
Ġp inta
ĠA ina
Ġka p
r iin
Ġ z
Ġkir kko
Ġongel mia
Ġk ukka
Ġkymmen en
h ol
ĠT E
tu minen
Ġkes kellÃ¤
uks elle
ĠUut iset
kan sa
isu uksia
lle i
ĠC ar
Ġ !
Ġpu hd
Ġalku perÃ¤
ĠK ur
ille en
Ġkon ser
mm Ã¤n
ĠP e
Ġtarp eeksi
man i
r op
* *
Ġli e
at ing
' s
. ,
Ġpa ina
Ġhuol to
- )
Ġj oihin
Ġturva llisuus
jÃ¶ itÃ¤
kinn on
Ġa uring
Ġvuo k
Ġle ikki
sa ar
pa ll
Ġartikk el
ka ista
Ġse k
yt Ã¶n
oit us
ĠTÃ¤ stÃ¤
Ġsosi aali
Ġl up
ĠtyÃ¶ pa
Ġl iha
Ġh edel
m uutta
re et
ĠpÃ¤Ã¤tÃ¶ s
Se uraa
ta pahtu
Ġf il
Ġpuh elin
ĠUl ko
Ġpien iÃ¤
Ġp un
ollis uuden
Ġasiak kaan
es tit
ĠT or
re lla
Ġent istÃ¤
Ġvaikka pa
Ġav oin
ie men
joit taja
ma lta
Ġva se
Ġtuo ssa
im Ã¤Ã¤rÃ¤
t os
0 2
Ġki eltÃ¤
ik ir
Ġhaasta t
kÃ¤ ytÃ¤
Ġo malla
oh je
ĠH enkilÃ¶
opim us
ĠL Ã¶
ĠsÃ¤Ã¤ d
ka usi
Ġa st
Ġes itys
an o
Ġhuomatta vasti
Ġpuol estaan
Ġla ul
p yh
om ista
Ġv iin
Ġkor ja
ĠSisÃ¤ llÃ¶n
Ġp iste
v yn
Ġvoi massa
as ton
ĠI so
Ġtal on
K uva
ĠtyÃ¶ elÃ¤
ĠS E
ĠM TV
ĠOn neksi
Ġkannat ta
Ġtun tu
ĠT ap
v ottavasti
Ġse in
ky ky
ĠAn tti
ĠHÃ¤n en
Ġki eli
Ġvuod essa
Ġh il
Ġ isÃ¤
ĠjÃ¤Ã¤n yt
oit ta
ar v
Ġtuo tanto
Ġsu ih
Ġno usi
Ġil o
Ġkommen ttia
ĠJe es
p una
Ġhelpp oa
ĠensimmÃ¤ istÃ¤
p at
lo ma
Ġma lli
Ġet ten
Ġva ro
ta ina
ka ri
Ġruo kaa
ĠTamper e
Ġasi oista
Ġkaik ista
es su
Ġmuut enkin
it eet
ĠM iksi
iste taan
os ten
Ġpar in
Ġn uk
Ġvalmi iksi
Ġs ydÃ¤n
Ġke vÃ¤Ã¤
il moit
ĠvÃ¤ ki
Ġtiet ty
erg ia
M inÃ¤
Ġhui pp
Ġparan taa
L uo
h ttp
mm un
Ġtul okset
Ġpit Ã¤nyt
Ġann a
ee si
si mme
l assa
m usta
ĠS t
Ġa h
c on
Ġvide ot
eh e
Ġmenn yt
Ġon line
tin yt
ĠÃ¤l y
i de
en tti
ĠC on
Ġlaa tu
jÃ¤ sen
Ġjo htu
ĠV ih
ut to
ĠN yky
i on
ĠY h
ĠpÃ¤Ã¤tÃ¶ ksen
M M
Ġmen etel
Ġra kasta
T ur
o maan
um ma
Ġkunn olla
al aa
jo en
ĠJ umalan
is ko
Ġyks ittÃ¤
Ġel Ã¤Ã¤
yyd estÃ¤
in eet
j ot
ĠhÃ¤n et
I tse
ĠN uor
men tti
O h
Ġle vy
Ġw eb
Ġvuosi en
va lo
Ġm edia
Ġhuo le
el an
ĠSe ksi
et yt
Ġper ust
1 00
Ġoh i
i taan
Ġlah ja
o kas
Ġkoke mus
m yys
j Ã¤nÃ¤
H yvÃ¤
p ua
Ġkan a
Ġsuomala inen
ĠâĢ º
k istÃ¤
Ġmiel essÃ¤
Ġ Ã¤r
Ġvaihto eh
iv Ã¤n
Ġo sin
Ġmat kusta
Ġtuot taa
or g
ne uv
ko kem
Ġvalko inen
Ġtek nolog
Ġkuu lla
ĠO let
E EN
Ġhi ukan
iv uo
Ġede llÃ¤
Ġs tr
p en
Ġn ur
Ġar ki
Ġtietok on
Y rit
N N
Ġsel vi
Ġos uus
Ġpo ista
Ġs uper
li llÃ¤
ĠA d
m b
Ġlapsi lle
lu b
iv oi
enkil Ã¶n
imp ia
Ġe x
ir aa
Ġ4 5
Ġjat kossa
ĠS iv
Ġd i
Ã¤n en
Ġmaa ssa
Ġtoi vo
l us
ryh mÃ¤n
3 6
Ġtarkoit ettu
d ia
Ġajan kohta
ĠtÃ¶ itÃ¤
Ġkes Ã¤n
ita al
? ?
Ġs Ã¶
Ġla itta
Ġa vaa
ĠK ok
Ġtarvitta essa
ĠJ at
Ġla ita
ita l
Ġyrit yks
ĠkÃ¤yttÃ¤ jÃ¤
T Ã¤nÃ¤Ã¤n
Ġkokem uksia
Ġerino ma
it Ã¤Ã¤n
ll yt
Ġerity isen
Ġuut is
ĠM an
Ġr ip
M o
Ġvir he
vi ik
vaik ut
h il
-- --
uv ia
TÃ¤ mÃ¤n
yÃ¶ t
Ġol ikin
uksi lla
Ġer Ã¤
Ġkats oa
Ġliitty y
ta s
Ġtar pe
een i
S S
IN N
Ġta voin
ila inen
0 3
et u
Ġtar ina
h al
Ġitse kin
van sa
pa ko
unn on
to rin
lÃ¤Ã¤ kÃ¤
Ġse itse
t tÃ¤Ã¤
Ġr ento
Ġteke vÃ¤t
M P
Ġmu lle
t ro
Ġajat us
l uk
Ġke vy
si an
f a
et te
ta la
ĠP ol
O l
yh Ã¤
Ġperus tuu
Ġk rit
s sit
isuud esta
f er
ik sen
ist it
ta pa
Ġo tti
s issa
mÃ¤ sti
ĠS c
kÃ¤stÃ¤ Ã¤n
Ġteh okka
Ġeriko is
Ġkoti ma
ul kais
ma ri
Ġilmoit us
Ġp sy
Ġtuu l
ĠT eh
Ġvir anoma
inn alla
Ġva hing
ir l
kesk uksen
Ġilm es
L O
Ġka mer
Ġna utti
Ġitse Ã¤Ã¤n
Ġaika isemmin
oks een
Ġku iva
Kir ja
V oit
ĠUr he
Ġto isin
tely Ã¤
ĠkÃ¤ytÃ¤nn Ã¶ssÃ¤
inn ot
e va
Ġverk ossa
E U
Ġet ukÃ¤
jon euv
m malla
h en
Ġollen kaan
ĠmyÃ¶s kÃ¤Ã¤n
asi assa
yh mÃ¤
Ġmies ten
etta vissa
Ġmole mmat
ĠNe w
Ġti iv
ri ta
L I
men ta
ĠhyvÃ¤ ksi
Ġmu isto
Ġle ikka
Ġkesk usta
v uuden
oog le
i b
as te
itta in
Ġteh tiin
ĠO ut
Ġjo htaa
ni ikan
Ġsiir r
Ġrunsa asti
Ġv etÃ¤
L ue
Ġluon to
Ġk issa
Ġm al
ĠVenÃ¤ jÃ¤n
Ġmu ille
Ġr os
Ġilma is
Ġmi ell
ĠnÃ¤yt ti
Ġp Ã¤Ã¤n
ul an
Ġkirjoit ti
Ġkaup an
Ġup e
Ġta hd
ĠLÃ¤h etÃ¤
m ur
il uun
Ġlain an
Ġkoi ran
ĠSe x
ĠnÃ¤ kem
Ġn oita
ti laa
Ġse inÃ¤
ĠP aa
te ko
5 5
Ġjulka ista
Ġitse lle
utkim uksen
Ġaihe esta
Ġtarjo ta
Ġty kkÃ¤Ã¤
Ġa uk
0 4
Ġjota kin
de ksi
Ġer ikseen
Ġed us
llis sa
Ġf iil
Ġrii pp
Ġm use
ĠH otel
p ala
ĠĠĠĠĠĠĠĠ ĠĠĠĠĠĠĠĠ
Ġpalvel un
Ġy din
Ġ- -
ĠE sit
Ġtor sta
Ġliik en
Ġsaa tiin
Ġy Ã¶n
as u
Ġpar issa
ĠMikÃ¤ li
man sa
ĠVi de
ĠJo ka
ĠT unn
ĠV A
Ġt ra
Ġhe itÃ¤
Ġvaati m
ĠC a
ĠPer us
Ġmu ihin
Ġsyks yn
Ġopisk el
Ġki it
Ġa d
f ess
Ġsu j
Ġhoi taa
es kus
R A
Ġha kea
Ġkiinte istÃ¶
Ġilme isesti
Ġh enk
t iset
ja l
!! !
IN TA
Ì Ī
el ty
Ġ im
ĠL A
tu jen
O sa
ist yÃ¶
mp pa
y p
men etel
Ġir ti
ĠpÃ¤Ã¤t tÃ¤Ã¤
Ġsam oin
Ġaja te
Ļ Ĥ
Ġyliop iston
kka us
Ġk Ã¤Ã¤nn
Ġkunn on
ĠlÃ¤hettÃ¤ minen
Ġken tÃ¤
emp Ã¤Ã¤
ei mm
0 8
p Ã¤Ã¤n
Ġblog in
Ġrak ka
s ka
Ġpid etÃ¤Ã¤n
ĠtyÃ¶ ttÃ¶
ĠlÃ¤ p
Ġre un
uka t
ele visi
r un
ĠOh jel
mer ikka
Ġjat ko
Ġl ien
Ġse ka
Ġja ks
ĠE lo
Ġse ikka
i at
Ġtarvit see
pe Ã¤
as ino
Ġto isaalta
ĠlÃ¤ mmin
mis elle
Ġmiel en
H ei
Ġna ur
ĠsisÃ¤l tÃ¤
Ġsi iv
ĠO lin
j Ã¤l
H e
on s
p oo
ĠS aksa
oo pp
Ġin f
Ġen glann
kke iden
Ġpien tÃ¤
Ġmen esty
la ck
ĠHÃ¤ meen
Ġolisi vat
Ġl oh
Ġr isti
Ġhuomi ota
Ġte ini
is an
las si
ve Ã¤
ĠTa voit
it tiin
Ġis Ã¤n
ma si
ind ow
ĠnÃ¤h nyt
tan d
3 7
ĠvÃ¤Ã¤r in
ann u
Ġr en
Ġl um
ĠO ta
er onta
Ġkeitti Ã¶
Ġko din
ĠpÃ¶ ytÃ¤
ĠpÃ¤Ã¤ ss
L as
Ġt el
Ġra kas
Ġr oo
ĠKÃ¤ ytÃ¤
ĠFaceboo kiin
ma hdollis
ĠA le
Ġhalu an
ĠetukÃ¤ teen
Ġyritys ten
ĠtyÃ¶s sÃ¤
vi ta
Ġluonn ollis
Ġteki jÃ¤
ĠnÃ¤ kee
ĠK al
Ġtur ha
Ġilma sto
an to
P al
tiet o
usi ikki
Ġpuol et
3 4
Ġitse lleen
Ġva ara
min aari
Ġoh jaus
d r
ko ke
Ġta istel
ĠK ot
H L
ĠjÃ¤rjes tÃ¤Ã¤
ĠS iksi
Ġuut een
Ġsil mÃ¤
Ġpuol u
ĠMat ka
Ġlop ussa
k etti
ĠSan omat
w a
Ġosa ll
Ġpit kin
on g
lo b
lÃ¤ ssÃ¤
ĠT V
Ġtoimin taan
m un
Ġmat kan
unn ut
Ġkuu si
Ġseuraa vat
Ġl uv
ĠMat ti
Ġoike uden
Koh teen
Ġtuo sta
Ġkerra lla
uu si
ist ele
Ġsyn tyy
L ap
ĠS osi
Ġf in
Ġf yys
Ġm yyd
Ġja tka
Ġa iv
ĠS M
ĠM y
it etÃ¤Ã¤n
Ġp at
i assa
yksi in
ĠJ uha
aa tti
ki llÃ¤
ta us
pp ia
ĠB ar
Ġulko puol
Ġh intaan
Ġpit kÃ¤n
Ġjoka isen
Ġpel kÃ¤stÃ¤Ã¤n
ĠkehittÃ¤ minen
yÃ¶n teki
Ġvoi ta
Ġd ia
ĠÃ¤ it
ma lli
Ġher Ã¤
ĠS ta
Ġj ust
Ġo massa
Ġsi emen
Ġo ik
Ġan toi
ĠJ umala
Ġkoh teessa
U US
ĠB a
Ġki ih
etta vaa
Ġter Ã¤
kunn a
Ġka ip
Ġku mppan
ĠJ aa
el it
Ġkunn ia
Ġpa ikan
Ġsa un
Ġ200 6
s uh
ran ta
kin g
Ġ3 6
ve lla
ka al
ĠVenÃ¤ jÃ¤
g g
Ġpal aa
Ġlain at
sa an
3 9
Ġas ukka
Ġtan ssi
ur he
Ġratkais u
val tu
Ġhar rasta
Ġlauanta ina
ohjel man
Ġperus tu
ĠkÃ¤ sin
Ġo tetaan
sta n
Ġas un
ul uk
mÃ¤ en
er e
x x
ĠhyvÃ¤ks yt
Ġin ves
ĠTwitter iin
UN TA
Ġr anta
ĠðŁ ĻĤ
Ġpaika lla
Ġneuv ot
Ġihan ia
i mmÃ¤
p us
Ġvi iden
llis yys
Ġsuur en
g lan
es tÃ¶
Ġkeh ittÃ¤Ã¤
is sani
est ys
ĠnÃ¤kÃ¶kul masta
ĠJ Ã¤r
Ġh Ã¤Ã¤
as si
ĠT un
Ġmieh et
Ġ ist
va inen
Ġni issÃ¤
ti i
r us
f t
teli ja
re k
ĠkesÃ¤ llÃ¤
it s
ĠLas ten
Ġaam ulla
ti oiden
Ġh innat
Ġvuo teen
Ġkaun e
3 8
Ġni ille
Ġul kona
Ġki vaa
IS ÃĦ
ĠtÃ¶ r
Ġl eh
li en
os tin
Ġvih doin
t toa
hd essÃ¤
Ġb io
o or
Ġper se
ut tiin
ttuu ri
Ġn ostaa
la uta
as s
kÃ¤ yn
H E
b y
Ġvar ma
Ġpien et
Ġmerk itys
vÃ¤n i
ĠO ulun
Ġtaso lla
kan en
Blog gaa
oi vat
AL V
las s
Ġper iaa
Ġtarp een
Ġnet istÃ¤
uk un
Ġmaail massa
tila an
Y le
UO M
Ġvar ha
Ġan sa
Ã¤is yys
r essi
ve yden
pa ita
r r
ĠmissÃ¤ Ã¤n
R e
0 6
ow n
ista n
usa r
ĠM ikko
y sa
r ed
h uolto
D EN
Ġker Ã¤Ã¤
von en
ty vÃ¤t
Ġsuk laa
h v
ĠTÃ¤ tÃ¤
Ġnaut tia
u ll
Ġtai de
Ġm us
Ġmo bi
va ihe
Ġre iss
aa le
Ġjoukko on
ĠErit y
er ia
k yn
Ġpol iti
ĠSi itÃ¤
Ġuud estaan
Ġka lli
H am
va ku
Ġpy rit
mma ksi
mm Ã¤t
Ġc hat
Ġlas k
ĠTa ll
ĠV o
Ġviestin tÃ¤
Ġva ar
Ġtote uttaa
tele mme
Ġka iv
matÃ¶ Ã¶
ĠO P
Ġhaa s
200 9
ti ikka
yt ynyt
es sin
Ġkur ssi
Ġlup aa
Ġ3 00
s oit
ĠS Ã¤Ã¤
H ar
Ġ Ã
Tee ma
Ġkaik illa
inn in
suunnit elma
Ġod ote
H TE
a v
Ġs yr
ĠP ekka
Ġki ell
Ġosallis tua
tan en
R o
b et
va al
Ġsukup uol
R I
Ġo he
Ġteh ok
ys tiedot
kaup an
at to
ĠK ann
ĠA L
ar it
Ġti ista
Ġtutkim uksen
KI R
ĠR es
ik ot
koul un
id an
ĠPinter estiin
sar jan
ik ana
dat us
Ġh eille
ĠY ks
Ġvapaa ehto
ĠymmÃ¤r r
Ġp osti
Ġko ken
Ġhyvin vointi
ĠlÃ¤het tÃ¤Ã¤
llis esta
Ġpel in
t ut
Ġka to
3 2
ĠvÃ¤l iin
K ys
M on
ĠP uol
Ġopp ia
ti k
ystÃ¤ vÃ¤
7 5
ĠtÃ¤y si
Ġkiel en
f in
ĠK oh
r uun
ti an
pi de
Ġin sp
pp una
tiet oa
9 5
Ġlin ja
t issa
M ÃĦ
mis ia
kki en
Ġmaa la
en ut
mis essÃ¤
ĠnÃ¤h tÃ¤
up Ã¤
ĠTwitteriin Jaa
ĠSa malla
Ġva llan
Ġka uden
N e
itta ja
Ġopiskeli ja
an en
ĠsÃ¤hkÃ¶postitse Bloggaa
vuo si
ri lla
Hel sin
Ġla uta
ĠMi c
Ġ 01
Ġmahdollis esti
Ġmuuta mia
ĠMet sÃ¤
ĠTo isaalta
ĠmÃ¤Ã¤r Ã¤Ã¤
ok eri
ro ks
in ut
ek ki
Ġen s
Ġtapahtu ma
Ġta ite
ih te
Ġku unn
ĠMi eh
Ġsel a
kast us
isto a
ĠFacebookiin Jaa
Ġg ra
Ġja uh
Ġhisto ri
Ġkaik issa
it oa
Ġvuo sia
ĠvÃ¤l issÃ¤
V ÃĦ
ĠT ra
Ġet u
Ġlap sia
kki a
Ġf a
Ġkommen tti
ki i
Ġup ea
Ġain ut
Ġma ku
pÃ¤iv Ã¤nÃ¤
ĠU se
Ġsyks yllÃ¤
Ġjuttu ja
ha ku
Ġhalua vat
ang a
as et
Ġtie de
vÃ¤ r
ĠV asta
Ġval tu
ĠTalo us
p uolelle
Ġm esta
Ġvir ka
Ġseur ata
ĠM en
Ġlyh yt
Ġarvi ointi
Ġes ittÃ¤Ã¤
Ġval tio
op et
Ġauring on
e ihin
uks esi
lle ja
Ġlopp utul
Ġpuhel im
Ġsopim us
Ġsop ivat
koul utus
paika t
Ġtoim een
Ġmyy nn
yks estÃ¤
Ġajat telin
ĠA la
ĠjÃ¤rjest etÃ¤Ã¤n
m l
e ta
K os
es it
Ġmi estÃ¤
sa sta
Ġm or
opim uksen
Ġpa ino
Ġmuka vaa
op as
pÃ¤iv Ã¤Ã¤
Ġitse lleni
u da
Â ©
ĠsÃ¤ vy
Ġsella isia
im inen
kon e
Ġa vio
Ġaiko ina
ĠÃ¤id in
Ġo mp
mma s
ran s
is su
Ġh eh
Ġkuva us
ĠtÃ¤rke in
Ġoike udet
Ġkanna ta
T ul
tÃ¤ jÃ¤
Ġr ei
et tÃ¶
Ġtaa kse
ĠlÃ¤ s
ĠU uden
it un
n es
oit taa
Ġsu ihin
Ġse kin
Ġminuut in
ika sta
Ġit set
e Ã¤
aal inen
EL MA
o ur
ĠðŁ ĺ
R O
M Ã¤
Ġun i
Ġvoi mme
va llan
Ġjo utuu
Ġsis ustus
Ġtunn ista
Ġp aa
Ġyh tenÃ¤
ks ti
ĠtyÃ¶n anta
es ter
Ġki ire
mieh en
isto ria
Ġtiet ojen
Ġkas vu
k issa
ku van
Ġho ukut
Ġihan an
ie de
ti lo
Ġso ta
c ort
el tiin
etta ja
Ġkes kim
ohj eet
si iv
ĠM M
utu mista
ĠSi lloin
on gel
ĠE S
Ġhuo menna
iri Ã¶
Ġvoi da
a jat
Ġtunn el
de llinen
inn oit
ĠK yl
ko hte
ja uh
ĠpÃ¤Ã¤ss yt
ĠT y
isto t
Kat so
Ġk elta
Ġjo usta
ĠtodennÃ¤kÃ¶ isesti
oi misto
Ġkiinn ostaa
M u
op i
Ġp yyd
Ġjo t
IS TA
usta ja
ĠT uk
o le
ho jen
llis essa
Ġseur an
Ġyl imÃ¤Ã¤rÃ¤
Ġli itto
ĠKes Ã¤
Ġmon im
Ġvar aa
S in
kur ssi
Ġkir jaa
kir jat
Ġkan taa
ĠL op
Ġpys tyy
ĠVuo den
Ġas kel
Ġal ta
Ġteke mistÃ¤
Ġtoim iv
pyÃ¶ rÃ¤
Ġih on
Ġmuod ossa
k elÃ¤
ĠkÃ¤yt Ã¶stÃ¤
Ġpo istaa
ĠT Ã¤nÃ¤Ã¤n
por t
ĠT an
ĠKa ik
ko l
Ġihmis tÃ¤
ĠmÃ¤Ã¤r Ã¤n
ĠA h
ittÃ¤ vÃ¤
talo uden
Ġseuraa van
ku vaa
Ã¤l tÃ¶
ĠH D
ĠevÃ¤ste itÃ¤
Ġkul ta
Ġp ul
T T
va pa
id at
Ġparha iten
tom uus
ki lle
ĠS uu
Ġmuut tu
Ġak ti
Ġseks iseuraa
Ã ¼
k l
Ġto isella
istel mÃ¤
pp een
K ol
ĠjÃ¤ tti
ks essÃ¤
Y KS
ĠI I
ku mppan
s een
tal on
ĠjÃ¤r ke
ise mpi
Ġl es
as tu
pel it
Ġvah vista
ĠKys e
ĠpÃ¤Ã¤ hÃ¤n
is iko
ĠtyytyvÃ¤ inen
yy teen
0 7
Ġtuot teen
Ġliitty viÃ¤
ĠelÃ¤ mÃ¤ssÃ¤
is iksi
Ġsyn tyi
puh el
Ġar m
ĠnÃ¤ y
si ir
har joit
Ġs Ã¤Ã¤ntÃ¶
ys te
Ġp uke
Ġot si
Ġan ti
ĠO N
tel usta
ĠPor n
verk ko
b an
Ġjohta ja
Ġluo da
ĠIn ternet
el ia
ĠP Ã¶
L ÃĦ
la p
ĠS ivu
Ġse ksuaal
ma ll
Ġsella isen
Ġurhe il
Ġtarkoituksen a
ie m
Ġmaail maa
Ġsuo jaa
S O
ĠnÃ¤ yttÃ¶
Ġkoh tuu
is mi
s ty
vi llÃ¤
ili jat
ek on
M INEN
Ġvan han
Ġkul jet
Ġvaat teet
Ġvuosi kymmen
Ġmo der
ĠvÃ¤ s
ĠvÃ¤lit tÃ¶
Ġjoukku e
Ġtai taa
Ġno use
Ġenn akko
Ġilla lla
ĠjÃ¤l ki
or din
Ġilma ista
it h
Ġalkan ut
ks y
Ġerity is
Ġlain kaan
ĠkevÃ¤Ã¤ llÃ¤
ĠA b
Ġkulttuu r
Ġede llis
Ġ 00
ĠY hdist
L isÃ¤Ã¤
ess Ã¤ni
Ġvo isin
Ġkoko us
te jÃ¤
Ġase ma
uksen i
Ġlop u
Ġp ud
Ġkoul utuksen
ul o
k m
Ġasiantunti ja
ĠpyÃ¶ r
ĠT imo
matÃ¶Ã¶ ri
Ġsaav utta
ĠSuo sit
Ġr inta
er Ã¤
ar k
Ġra uta
ĠtÃ¤yde llinen
Ġtapa an
tel yyn
Ġmat kaa
p ot
b on
Ġsaan eet
ĠTO IM
c tion
Ġmuut tuu
Ġkas van
4 8
tis iv
Ġsuur ia
ĠV apaa
Ġlain aa
pp iin
ettel o
la ina
ĠE ur
Ġajat uksia
va st
jat tu
Ġasia an
ika s
Ġh en
ĠhyÃ¶d y
Ġpak et
la itos
Ġesi merk
ĠT hai
ĠVuo datus
Ġviime inen
Ġmahdollista a
g ar
Ġperjan taina
ĠM ika
Ġvaih taa
Ġtuo re
Ġkul ke
4 6
Va ikka
Ġitsen Ã¤
ĠP ala
Ġhet ki
Ġpuol en
Ġra v
ala iset
at ti
Ġni missÃ¤
Ġjuo ks
ke i
ĠE t
Ġhote lli
Ġsuunnitel tu
Ġva uva
tui vat
ĠL I
ĠÃ¤Ã¤ ri
Ġenerg ian
Ġtuleva isuudessa
Ġsiv uston
ĠjÃ¤rjes tÃ¶
ur g
f fi
Ġtoi misto
tiiv inen
Ġta llen
on taa
ĠA ir
Ġohj eet
ĠS uunnit
Ġ200 5
Ġkunn i
Ġt up
il it
ĠelÃ¤mÃ¤ stÃ¤
Ġraken ne
Ġmuut oksia
X X
Ġhall into
t ty
Ġk engÃ¤t
Ġmiten kÃ¤Ã¤n
Ġkun han
Ġva ll
vy yttÃ¤
Ġker a
os an
Ġs oh
Ġhaus ka
Ġmuod osta
pa per
Ġuusi en
matto man
Ġva la
Ġtus kin
Ġhaus kaa
Ġlop uksi
ot tiin
uo h
ap e
ĠU SA
Ġsuun ta
Ġkilpa ilu
ĠpÃ¤iv ittÃ¤
Ġheng en
Ġsaa p
unn ot
EN N
id Ã¤
Ġpo hd
el tu
Ġyhteist yÃ¶ssÃ¤
Ġsai vat
ĠhyvÃ¤ ltÃ¤
f il
Ġa mmati
Ġseuraa va
ĠOle mme
ili jan
Ġkyl mÃ¤
Ġh or
iv el
M eillÃ¤
yty Ã¤
ĠT osin
oh jaa
H Ã¤
vuo den
Ġe llei
Ġalku un
k ik
y a
Ġal un
as en
el taan
uo ri
Ġviik ossa
ĠEs po
Ġb ud
Ġku mma
us u
ta li
ĠK ÃĦ
Ġ Ã¤Ã¤r
b l
sta t
Ġp in
hoid on
Ġpuh ua
een sa
Ġre mon
le vy
Ġs er
ll io
v uor
ĠLo g
yt et
oi mi
Kes kus
Ġku vi
Ġh id
ikÃ¤ s
ĠkÃ¤ytÃ¤nn Ã¶n
ar vi
ĠV esi
Ġpys t
OH J
ĠsyÃ¶ dÃ¤
Y ksi
E t
Ġlap se
il taan
ĠhÃ¤ ir
ta jan
mm issa
it t
Ġol tava
ettava ksi
ĠVa in
Ġy ms
Ġmi llÃ¤
U UNN
Ġvaike aa
ĠP ari
v ikkeet
Ġtavoit teet
Ġraa ka
A s
ĠJ ar
ĠA jat
Ġits estÃ¤Ã¤n
ak en
im an
oi maan
ĠTo inen
ĠM A
a ine
ĠToi vottavasti
Ġih a
Ġta mper
rat kais
Ġj uur
Ġmi llÃ¤Ã¤n
Ġas uin
Ġtoimin ut
ĠJ ukka
te istÃ¶
re a
pÃ¤ ivÃ¤t
Ġtar kka
mm ille
Ġonn istunut
Ġty kkÃ¤Ã¤n
ter in
ur l
ĠJ an
Ġetsi i
Ġil men
ĠSi ellÃ¤
Ġher ku
Ġna is
m or
Ġnous ee
uu della
c c
Ġtutus tua
Ġtuo hon
ti lin
ok uu
Ġpys yy
ma in
Ġhom ma
k ky
oks esta
Ġmu isti
Ġyrit ykset
l taan
ks it
Ġsuo jel
En simmÃ¤
m ys
ĠpÃ¤ivÃ¤ ssÃ¤
Ġsa massa
ĠT oiminta
Ġt v
Ġkuva ssa
aa tio
Ġy r
ĠNe uv
Ġ15 0
ikko jen
yksi kÃ¶
ĠV UO
Ġpaika llis
aat tori
Ġtoimi va
Ġer Ã¤Ã¤n
ĠVuo nna
Ġmateri aali
Ġd oku
ks tit
Ġp ip
Ġsan on
to ista
vÃ¤n sÃ¤
ĠE nnen
Ġki ir
E lÃ¤
ĠtÃ¶ issÃ¤
Ġva im
la itte
ksinkerta inen
Ġa lo
kat tu
koul ut
Ġla ki
Ġsel ke
ĠM al
l isÃ¤
Ġ19 7
Ġ0 8
ro m
Ġva imo
Ġosoit taa
Ġide a
teg ori
Ġku vien
ĠH en
v un
L u
Ġhall it
Ġe p
alu eella
llis e
ĠmerkittÃ¤ vÃ¤
Ġvih re
ĠPÃ¤ ivÃ¤
Ġver o
ĠS te
han ke
f r
Ġty l
tele mÃ¤Ã¤n
Ġtarke mmin
Ġsyn tynyt
ĠS Ã¤
Ġroh ke
L Ã¤
ĠK en
Ġmahdollis uuksia
al to
ĠU S
d c
Ġhah m
ĠM aan
ĠG oogle
Ġkor vaa
Ġo mien
k eli
hde ksan
Ġseitse mÃ¤n
Ġo ir
UUNN IT
ĠpÃ¤iv ittÃ¤in
Ġjo lle
elÃ¤ mÃ¤n
Ġpill ua
etta van
Ġmuu alla
Ġte ko
Ġaam u
Ġol osuh
Ġharras t
P ro
enn yt
at ur
ĠF inn
Ġp iha
Ġtapahtu i
tel yssÃ¤
Ġmaail ma
v ed
te d
is teen
yhdist ys
mÃ¤ lÃ¤
Ġas kar
4 7
ver ta
et taa
Ġy kkÃ¶
Ġna i
E H
utus tu
te Ã¤
ĠÃĦ lÃ¤
ĠT ila
ĠT Ã¤hÃ¤n
Ġkir kon
ĠI lta
Ġkirja sto
Ġâ Ļ¥
ti kko
Ġoike an
Ġtuleva isuuden
ik ul
Ġot ettu
Ġjo o
ĠjÃ¤Ã¤ dÃ¤
in in
Ġpaika lle
T Y
Ġt ulle
Ġmak uu
ka sin
ĠM uista
K er
en ee
Ġtil asto
Ġsin ut
Ġv oim
ol ia
essa si
I P
ĠB er
siv usto
Ġl asta
Ġyleis Ã¶
Ġsop ivan
Ġmietti Ã¤
ust oim
v iksi
Ham ster
pp al
unn assa
mÃ¤n Ã¤
Ko ko
Ġilmoit ta
Ġmassa ge
Ġmen ossa
Ġmarkkin a
ĠM as
ĠJ Ã¤Ã¤
c s
Ġna isia
ĠA R
ĠTÃ¤ lla
Ã¤Ã¤r in
Ġvi ed
ĠTo ki
Ġnimen omaan
ĠKa un
ĠW indow
Ġsuh teessa
alvel u
j oilla
ti vat
Ġa jaa
ĠNa iset
ĠTar jo
NÃ¤ in
Ġha ita
i llut
Ġmik ro
ee llisen
at u
V ir
ve lle
ĠlÃ¤s nÃ¤
ĠvÃ¤hen tÃ¤Ã¤
Ġraken taa
maa il
c an
Ġd ating
z e
Ġmaa li
Ġmerk ki
ĠY mp
ĠA pp
Ġs oker
Ġsuomala iset
ĠK iv
ika an
Ġjon ne
Ġmil jar
Ġos ana
Ġsunnunta ina
ĠI r
Ġlain sÃ¤Ã¤d
ĠvÃ¤r it
st it
d el
Ġet elÃ¤
iken teen
Ġvaikutta vat
ĠlÃ¶yty vÃ¤t
S aa
el ut
d f
r osta
Ġp ik
Ġkat to
ĠtÃ¶ ihin
ho w
Ġtal vi
ĠS ir
Ġtyy li
uva ssa
ap or
ub e
T oim
Ġt elevisi
Ġviime ksi
âĢ ĭ
Ġla si
ĠTur ku
uot to
Ġp ot
Ġtapah tunut
Ġalas ton
ittÃ¤ mÃ¤Ã¤n
TÃ¤ llÃ¤
Ġla i
Ġperiaa tte
Ġa mp
esi m
ip al
uksen sa
llis tu
Ġmerk itystÃ¤
Ġui ma
Ġa ll
ĠlÃ¤ hde
Ġpoh jois
Ġkatso maan
Ġto isia
Ġ itÃ¤
Ġha ki
Ġpa ikkaan
alo g
is el
U K
Ġkes tÃ¤vÃ¤
Ġlis Ã¤Ã¤nty
Ġkir pp
Ġl enn
Ġselvit tÃ¤Ã¤
Ġalka vat
is ina
Ġsaa r
ĠmyÃ¶ nn
Ġsen tÃ¤Ã¤n
Ġkuu ma
Ġkoske vat
Ġper so
Ġsat tu
Ġ @
is issÃ¤
muo to
y li
fess ori
ĠÃ¤Ã¤n i
Ġtut tu
Poh jan
Ġonn istuu
Ġvalo kuva
itta va
Ġtul oksia
ik uussa
Ġh ih
mus e
it oja
ĠG e
Ġlien ee
M iksi
er it
Ġtar t
ĠK ari
Ġ4 00
Ġprojek ti
H A
K ul
Ġa t
ĠE ikÃ¤
ĠS p
Ġ Ãĸ
ĠT uu
Ġ estÃ¤
ĠSa in
ken tÃ¤
ĠtÃ¤ lle
Ġs aksa
Ġal koh
Ġtunn elma
t taa
Ġer ot
Ġkansa llis
Ġ0 9
ih d
Ġpa ha
h een
Ġx Hamster
ĠhÃ¤n ellÃ¤
maa lla
Ġole via
Ġtuo da
ĠR uoka
Ġma ke
Ġkoh den
O li
isi llÃ¤
palvel un
ĠjÃ¤lj ellÃ¤
Ġ3 8
ti oita
tin g
estÃ¤ ni
ll Ã¤ni
Ġhar vina
Ġes tÃ¤Ã¤
4 9
mat onta
la ki
ĠK uinka
ys tee
Ġole vien
san at
J Ã¤
Ġk g
ĠM uu
Ġtyy pi
is ke
ĠtÃ¤ yttÃ¤Ã¤
ĠpÃ¤Ã¤ set
ĠM un
ĠL on
uh an
Ġkier rÃ¤t
Ġtapahtu mat
uk ea
Ġulko puolella
Ġhankki a
ri d
viik kona
ra h
Ġtote aa
Ġm yyn
Ġta van
D F
Ġhi il
Ġtarjo us
ĠTer vetuloa
Ġenn ak
Ġvoi maan
johta jan
ĠhenkilÃ¶ Ã¤
Ġkaip aa
ala isen
ih de
Ġvi lla
Ġpaika ssa
ĠÃ¤r s
ta sa
Ġpohja lta
Ġik Ã¤Ã¤n
b s
Ġkos ket
Helsin gin
Ġdig itaal
oks ista
Ġka kku
Ġm yr
Ġkor tti
Ġvoima kka
ĠJ ot
Ġvau hd
j i
Ġha ku
Ġha ittaa
ĠH u
men tin
Ġtarjoa vat
ne itÃ¤
Ġkys el
Suo messa
Ġta hto
te istÃ¤
ĠpÃ¤Ã¤ tti
Ġvier essÃ¤
ĠyhteistyÃ¶ tÃ¤
Ġv ei
ur n
Ġtoiv ottavasti
on na
maat ti
kusta nn
ĠMin ulla
Ġlat tia
Ġsuur ta
ik it
e istÃ¤
om o
kÃ¤ t
Ġol enna
Ġvaih d
Ġpa ks
H all
at kais
Ġn ar
kkit eh
Ġri itÃ¤
a h
ur ak
Ġvast usta
Ġkor jaa
Ġmo ti
Ġtalo uden
tis ivu
Ġk alta
Ġnuo re
Ġko to
200 8
Ġvuo r
Ġkes Ã¤nÃ¤
j eet
Ġyhteis kunta
ĠJ al
K iin
ĠpÃ¤Ã¤ sy
as een
j ut
Ġede llisen
i vaa
utun eet
oin tiin
ton en
b jek
Ġr ikko
Ġedell yttÃ¤Ã¤
Ti ed
Ġsukup ol
Ġni illÃ¤
Ġky lÃ¤
yt tely
uv uo
Ġ3 2
Ġsair aa
Ġmahdollis uuden
kes ki
hall itus
p uoli
J O
e mmÃ¤
ĠtÃ¤ llÃ¶in
Ġsiir to
k uk
Ġtuo ks
Ġke vÃ¤Ã¤n
Ġ19 6
Ġliitty en
u della
Ġkohd e
Ġmenn Ã¤Ã¤n
l ann
Ġvi is
yksi lle
Ġsel vÃ¤Ã¤
oi daan
Ġse is
ĠP ER
P ien
ĠeivÃ¤t kÃ¤
Ġviime isen
e issa
an in
pa kka
Ġf ar
Ġkirjoit us
Ġosoit teessa
V O
Ġp op
Ġv es
Ġhuo man
si kka
Ġsuh tee
Ġteh tyÃ¤
Ġk ala
Ġhi ukset
ĠSi is
Ġlaad ukka
ĠS A
Ã¤nn y
ist eli
v inen
ĠRuot sin
ĠkÃ¤sit tely
Ġas etta
ih i
teh tÃ¤
Ġke ll
Ġla itos
ĠhyÃ¶dyn tÃ¤Ã¤
Ġhal unnut
Ġilma iset
ur ssi
N A
Ġhal usi
si lle
Ġpit uus
Ġku iv
ve den
b le
miin a
Ġl Ã¤nsi
ist ettÃ¤
k ann
Ġkesken Ã¤Ã¤n
ri lle
an al
e ks
ks on
ĠS ISÃĦ
Ġvoit to
inna lle
ĠnÃ¤ issÃ¤
Ã¤Ã¤ kÃ¤
osa t
p oja
il d
Ġblog ia
rita nn
llis eksi
O ta
Ġyhd istÃ¤
4 2
Ã¤ kÃ¶
Ġeh tinyt
Ġal uksi
ĠlÃ¶ytÃ¤ nyt
Ġvar asto
ĠSe inÃ¤
va la
Ġh enkilÃ¶n
4 1
lo w
utta vat
ĠympÃ¤r istÃ¶n
te illa
Ġpel it
Ġd olla
ist usta
uka sta
mma sta
Ġalle kirjoit
E uroop
ksi in
P o
v ot
va ara
Ġe ikÃ¶
Ġjo ud
Ġr ea
5 8
Ġkapp ale
ĠV Ã¤l
Ġlo un
lo ad
Ġhy l
ĠK unta
Ġed istÃ¤Ã¤
O le
ĠpÃ¤Ã¤ tin
e llut
Ġpuutar ha
Ġo is
ĠA am
h inta
ĠK ilpa
yksi kkÃ¶
H Ã¤n
Ġo llessa
Ġnaa pur
La taa
Ġt os
ĠEs pan
ĠLa it
Ġhote ll
men taja
ĠkÃ¤ vin
ist osta
Ġto isten
5 6
a ut
M yÃ¶s
Ġyhd istÃ¤Ã¤
b in
Ġosaa mista
ĠL eh
j uttu
Ġs t
Ġtek ni
Ġsaav ut
ĠhyÃ¶ tyÃ¤
Ġsuomala isten
Ġkos kee
Ġna p
pp y
ku us
suo mala
at teri
yÃ¶ rÃ¤
Ġsuure mpi
ka te
Ġpo issa
Ġm eh
vaa tim
E K
Ġtal ven
Ġmit kÃ¤
Suo mala
maa tio
Ġmuuta kin
k ise
koko us
ĠriittÃ¤ vÃ¤n
Ġroo li
ti es
Ġka d
Ġkeskus telua
ĠlÃ¤h i
ĠjÃ¤rjestel mÃ¤
ka kku
Ġvah va
pa ket
ĠyllÃ¤ pitÃ¤
p on
Ġnuor et
Ġtoista iseksi
el un
Ġosoit e
IS ET
me ksi
AS TA
ĠnÃ¤ illÃ¤
aat teet
Ġluk enut
ol u
Ġva ki
Ġilma isia
Ġtun ti
ty ksen
Ġ200 4
st in
Ġsair aan
Ġter vet
m massa
l ia
Ġl yÃ¶
K ar
k yt
ĠâĢ ¦
Ġver si
mmin kin
Ġtoimitus johtaja
oks essa
Ġaja tella
Ġanal ys
Ġosa ksi
Ġvuo sittain
ĠÃ¶lj y
g u
Ġvaale an
Ġpoli isi
Ġyh tiÃ¶n
ans kan
ĠS aar
isi vÃ¤t
ĠymmÃ¤r rÃ¤
lÃ¤ mm
Ġvi en
ĠE UR
Ã¤r Ã¤
Ġl ive
Ġhan kinta
an y
Ġn y
Ġo llu
Ã¶ llÃ¤
Ġvalmist ettu
Ġi P
al ist
ĠJos kus
Ġr uus
Ġko d
ta van
Ġsyn nyt
ALV EL
Ġmer kin
ot h
Ġjohon kin
alu eet
v itys
Ġhy my
O M
ym ys
Ġkauni ita
Ġvaa te
ko ista
Ġko pi
kki in
Ġyle isesti
om in
Ġle iv
ĠT I
lÃ¤ mpÃ¶
Ġhal ut
Ġke ksi
oike uden
Ġor gas
Ġjot kut
Ġop into
yy si
Ġle mp
ek an
k ti
u c
ĠM eidÃ¤n
Ġl it
Ġkul uttua
fi il
Ġkaik esta
uu sa
l ehden
ĠD ig
Ġte et
5 9
ministeri Ã¶
Ġmuut okset
os ki
Ġravinto la
a g
ĠensimmÃ¤ isenÃ¤
Ġyhd ellÃ¤
Ġviikonlo ppuna
Ġonn istun
Ġ0 6
us ka
tun e
mp iin
K ÃĦ
Ġan netaan
ĠToi mi
Ġel intar
Ġvasta ta
ala ista
Ġmerk itty
ĠM ik
ĠS ip
ĠM uka
Ġhall inta
met i
Ġhttp s
O ike
Ġsan an
Ġsyks y
Ġt eillÃ¤
ĠS ar
? "
id on
Ġj un
ĠnÃ¤ ihin
mp ana
enn uksen
Ġhuol ta
ikka us
p h
ĠvÃ¤ it
Ġautomaat tisesti
vÃ¤ ksi
yh tiÃ¶n
Ġto iselle
ĠVan taa
ĠO nn
Ġpu ll
Ġtar ve
ĠS uper
ĠselkeÃ¤ sti
l inna
ĠpÃ¤Ã¤ kaupun
ĠY hti
iten kin
utu mis
s yÃ¶
ĠA lu
Ġkul kee
is ee
ĠR un
19 9
ĠnÃ¤ et
utu misen
ĠI nn
Ġb ussi
Ġvasta us
Ġvuod elta
Ġs ta
yt etÃ¤Ã¤n
ti mme
ĠN ur
la h
ĠJo ens
is yyttÃ¤
hall inta
ĠB e
ra teg
Ġj uus
p um
osa sto
to d
AL A
Ġero ot
Ġa joneuv
ity ksiÃ¤
P it
Ġo ot
7 8
Ġtilan teessa
4 3
llisen a
Ġp uolelle
l ei
Ġammatti korkea
Ġka hdeksan
ĠOy j
Ġf oor
u sia
g h
Y Y
ra ha
ĠW ord
Ġhuo neen
Ġ7 5
Ġvide oita
Ġhe ik
ĠR A
Ġsair as
m ea
ĠVi elÃ¤
ĠnÃ¤hd Ã¤Ã¤n
Ġkysym yksiÃ¤
Ġkoko a
Ġmaananta ina
Ġver sio
Ġsopim uksen
Ġf l
ĠĠ Ġ
ĠLap in
Ġ0 5
n iin
or in
! )
ĠsÃ¤n g
ĠkÃ¤vel y
Ġkau pa
Ġsaatta vat
ek tiiv
vain sanat
Ġetsi Ã¤
Ġpresiden tti
i ir
Ġtoi von
ja lta
am e
ing as
Ġke ino
Ġtied Ã¤n
ĠMies ten
Ġammatti ta
pa ikkaa
Ġb Ã¤n
ĠpÃ¤ ivÃ¤t
matto mia
Ġko vaa
ĠO ulu
isto on
Ġn eli
Ġnet issÃ¤
emm an
Ġmaa se
Ġvah vasti
Ġky ken
otta va
ĠJyvÃ¤sky lÃ¤n
va ar
Ġotta nut
Ġr iko
Ġjoul un
ĠlÃ¤h ten
er as
ĠYrit ys
Ġtodella kin
ĠJ ap
Ġi llan
et y
ĠjÃ¤Ã¤ kaa
es e
own load
Ġky ky
Ġpyy tÃ¤Ã¤
ol d
ĠLa in
il uk
P el
Ġmil f
j os
kun to
mat kan
im iÃ¤
Ġaloit ta
Ġpoh jo
Ġk yy
Ġin for
ĠJ ussi
Ġtuotte iden
hd ot
Ġo ut
Ġval vonta
U l
ĠT YÃĸ
ĠS uur
etty nÃ¤
Ġkokem usta
tt inen
Ġyhte inen
vÃ¤ stÃ¤
Ġpalvelu iden
et yn
Ġm ul
! "
r ista
ar t
Ġh uv
utta maan
c he
is yyden
Ġmi etin
Ġr ek
Ġus eimm
ĠpyÃ¶ ri
enk ki
I TA
hon en
Ġruoka vali
Ġk ita
yy l
m oita
Ġmuist uttaa
vir asto
Ġkuule mma
Ġas ennus
ĠH ote
Ġtar jon
Ġsan ot
ket iet
Ġkl ikkaa
sast us
Ġer oa
Ġkaik kein
Ġtuk ee
Ġp ime
ĠJ O
Ġsop iv
Ġmi ta
yt Ã¶ssÃ¤
Ġsuomala isen
Ġv Ã¤Ã¤rÃ¤
inn Ã¤n
ka h
se ksi
ĠepÃ¤ onn
ti lle
ĠrekisterÃ¶ ity
V AT
ia ika
mm it
Ġuud essa
Ġme istÃ¤
Ġriippu en
Ġmain ittu
Ġpel ata
K K
r k
ase ma
M US
ka ar
Ġvaihtoeh toja
S iv
ann etta
Ġ Ã¤lÃ¤
utta ja
Ġsuorit us
Ġole vaa
Ġmu a
Ġg irl
Ġvas tu
Ġvanh oja
Ġpuna inen
unnunta i
j een
ĠY ksinkertainen
ĠE ri
um ia
ko it
K arja
ĠlÃ¶ ysin
ĠH inta
Ġliik enn
y lÃ¤
ĠV en
pa ketti
Ġtuh an
Ġva uh
ma iden
Ġjulka ise
m il
I KA
Ġmihin kÃ¤Ã¤n
ter veys
Ġtavoit e
Ġainut laatu
Ġpuh e
k uo
Ġmarkkin ointi
Ġpar is
uk up
e issÃ¤
r uo
ite kstit
Ġava in
n sa
ĠS er
yttÃ¤ vÃ¤Ã¤
Ġpyrit Ã¤Ã¤n
v oja
UKS EN
Ġjulkais tu
uksi lle
Ġviime istÃ¤Ã¤n
pite itÃ¤
Ġjouk ossa
kÃ¤ yttÃ¤
ET O
T M
Ġyhte yden
jan i
vÃ¤ line
Ġverk osto
vuo ro
Ġs oi
Ġsi d
ost ettu
ta jat
Ġs tand
Ġuus ista
Ġval menn
op yri
vir ta
Ġ3 3
st rÃ¶
Ġhan kke
Ġviikonlo ppu
it een
r eiden
T EN
Ġet t
Ġ: -)
y le
hon e
ud ulla
Ter vetuloa
il ussa
ĠriittÃ¤ vÃ¤sti
Ġsel kÃ¤
Ġla illa
Ġon net
Ã¤r a
Ko ul
Ġkaupung issa
Ġ0 7
ĠtÃ¤ s
Ġvet Ã¤Ã¤
ĠM ulla
ĠR ekister
ĠM el
Ġkas voi
ĠYks ity
Ġkommentoi massa
te lli
ĠP ie
Ġka mpan
Ġt yttÃ¤
al in
mer kin
ika ssa
KÃ¤ ytÃ¤
v itta
Ġhe ikko
Ġsuo la
Ġasiakka iden
Ko ti
Ġo men
ĠV AL
ia inen
yyn tÃ¶
ru mp
ĠR uo
u kas
Ġpala uta
ro w
v ollis
Ġhar maa
at tiin
ĠvielÃ¤ kin
Ġkul utus
Ġuh ka
Ġost os
t isia
kus sa
ministeri Ã¶n
ĠE L
te esi
ĠS h
I H
ne a
val ikoi
ĠtÃ¤lla inen
Ġtava ra
Ġhyvin kin
Ġtodella kaan
ĠV erkko
S an
Ġ3 7
Ġk uol
ll er
ĠVal itse
ittÃ¤ vÃ¤t
i j
vo jen
Ġkys yÃ¤
oksen a
enn Ã¤
ĠF ran
ĠPor no
ul aa
L o
ĠpysÃ¤ h
Ġper i
Ã¤nn Ã¶
Ġseura uksena
Ġpar haa
Ġlis Ã¤Ã¤n
Ġhet ke
Ġmu issa
ti met
te llÃ¤
Ġrat kaise
K uinka
ll ani
Ġsaa pu
ĠKÃ¤ yttÃ¤
eng as
ĠRak ennus
Ġblog issa
Ġvanhe mpien
Ġo sittain
aika a
ĠA m
Ġf ree
Ġpu hdist
ok on
as an
ĠL Ã¤nsi
5 7
ke et
Ġasi oiden
Ġv ittu
ĠE N
Ġsuur et
Ġvasta si
ĠT h
t isi
ra ta
Ġke vÃ¤
ĠV il
kse mme
ĠK uten
yks istÃ¤
Ġsi ivo
Ġmatka lla
ig a
Ġtausta lla
ĠvÃ¤littÃ¶ mÃ¤sti
ĠBlog itekstit
ui vat
k uor
Ġvoit taa
ĠkÃ¤ytettÃ¤ vissÃ¤
g s
Ġsa una
IN A
Ġvastaa vat
ken ttÃ¤
Ġsija inti
el oku
kaa lle
ke ino
Ġs tar
ĠhyÃ¶ kkÃ¤
ĠnÃ¤yt tely
ki ta
T ek
Ġkuul ostaa
ĠkÃ¤yttÃ¤ yty
ik oh
ĠsisÃ¤ ll
ĠP una
Ġtila ta
Ġsal aa
llis in
oim intaa
m utta
etta vat
jo issa
ĠevÃ¤ste iden
us ko
u mm
Ġa matÃ¶Ã¶ri
Ġr ehe
kÃ¤ ynn
Ġp ann
vide o
k oita
Ġurhe ilu
yhteis Ã¶
oten ti
hoit us
ĠlÃ¶ ytynyt
te llaan
Ġvar rella
Ġvaa di
blog i
ĠV astaa
ĠpyÃ¶ rit
Ġet ene
Ġtorsta ina
Ġotta maan
k ila
ik er
Ġ ura
va mma
n it
L U
teen Ã¤
Ġan aali
Ġt reffit
ĠTa pahtu
Ġjoita kin
ee llÃ¤
Ġkiinnos tunut
opyri ght
Ġluk uun
p ele
Ġkir joja
Ġkaikki in
at ko
vinto la
p oh
l er
Ġven Ã¤lÃ¤
ot telu
Ġvar ustettu
KÃ¤ yttÃ¶
m uksen
Ġla ula
E r
Ġtarv etta
ha ki
Ġra han
Ġmiel ik
la us
pÃ¶ ytÃ¤
ĠEs poo
Ġvaat teita
joukku e
Ġlas ku
Ġmuod os
sin kin
âĢ ľ
ta inen
TO N
ann er
pan o
Ġohj eita
p yy
Ġen empÃ¤Ã¤
P uh
Ġpid Ã¤n
li ike
c rip
Ġmusi ikin
Ġvarmista a
ĠnÃ¤ ytÃ¤
Ġon han
ĠKA UP
Ġval ittu
ĠKa ksi
ĠkÃ¤ d
ur u
Ġb o
imm Ã¤t
Ġkau pp
Ġvih reÃ¤
ĠkÃ¤yttÃ¤ jÃ¤t
Ġsar jan
tyy pp
j ua
Ġyksinkerta isesti
Ġtil in
anta i
Ġpuut tuu
teen i
M et
ik or
ho usut
t ina
LisÃ¤ tietoja
kit tu
Ġs hop
ĠS illÃ¤
Ġkyp sÃ¤
ĠtÃ¤rke itÃ¤
Ġ0 4
V AL
Ġko ostuu
Ġs ir
Ġpare mpaa
ĠM edia
r eita
uut o
ĠK arja
oilla an
itti Ã¶
Ġhalu taan
Ġja pan
u man
Ġrauh assa
kon ser
Ġko o
ĠtyÃ¶ kalu
ĠkÃ¶ yh
IS EN
ymp Ã¤r
Ġpuh ta
kÃ¤yttÃ¶ Ã¶n
Ġhan kin
ve llÃ¤
r ys
ĠS tar
llis iin
utta minen
Ġjo h
Ġvier as
mmat ti
ĠmyÃ¶n tÃ¤Ã¤
Ġkuva ta
ittÃ¤ minen
pyh uone
ĠsÃ¤hkÃ¶posti lla
Ġmed ian
ĠepÃ¤ il
Ġliiken teen
Ġkir jat
Ġver ot
te ihin
m oja
Ġan tanut
Ġle ff
oit o
Ġp et
K on
Ġla ite
ĠÃĦ Ã¤n
Ġmuita kin
ĠH alu
ĠlÃ¤hes ty
iko ista
Ġrakenn ettu
Ġv eh
Ġinno vaa
or is
Ġkor iste
Ġjo htuu
Ġkulu essa
ala isten
mm illa
pit eet
Ġkon k
et usta
usin ess
Ġhien osti
200 7
K as
ĠL an
Ġeur oopp
Ġtamper e
Ġc on
Ġp rin
Ġvet o
Ġro maan
Ġko e
Ġk etÃ¤Ã¤n
hoita ja
tiet een
UT TA
Ġtila lle
Ġtiet osuoja
oksi in
Ġul kon
Ġt yyd
Ġn umero
in ten
Ġpehme Ã¤
Ġinn os
c or
Ġo iva
o saa
vi e
ĠhyÃ¶ ty
da lla
Ġkor ko
ĠmyÃ¶ hÃ¤
tar jo
m yynti
ĠJ ari
kohd at
Ġvan hat
Ġun o
j in
Ġh ita
pÃ¤Ã¤tÃ¶ s
Ġtunn ettu
Ġmet rin
Ġenerg iaa
Ġhien oa
ĠK U
ĠB ra
Ġvin kkejÃ¤
si gn
ĠJ oten
Ġe ihÃ¤n
Ġin to
yrit ys
Ġsa v
Ġf e
ke ja
ĠF I
Ġyhteisk unnan
Ġliiket oiminta
yn tÃ¤
s son
Ġmain it
Ġun el
Ġv it
Ã¶ istÃ¤
Ġk uoli
Ġhar voin
Ġper Ã¤Ã¤n
Ġsit te
Ġ5 5
Ġsil mÃ¤t
Ġes cort
E M
Ġmahdollis uudet
Ġy ou
Ġvi id
US TA
Ġvalta kunna
Ġma ksi
ur va
Ġsuosi kki
m isten
ek tr
Ġkuu llut
Ġpa ll
ĠR anta
ek oita
un eet
ĠKo ke
K uu
Ġl akka
Ġa merikka
ost usta
Ġvoit ti
Ġosa t
Ġul ottu
Å ¡
Ã¤t ty
innÃ¤ ytet
ĠsÃ¤Ã¤ stÃ¤
ken g
es taa
l ti
Ġro ol
Ġs ula
Ġnuor is
Ġsi isti
ĠT Ã¤Ã¤llÃ¤
ita n
m uus
ĠT yÃ¶n
ĠO pp
e ar
Ġsat tuu
ÃĦÃĦ N
ks estÃ¤
ĠjÃ¤sen et
is iv
ĠR oo
ĠhyÃ¶dyn tÃ¤
yr Ã¤
ĠpysÃ¤ kÃ¶
Ġkul ut
Ġvi est
Ġmobi il
S ÃĦ
Ġ200 3
tee llinen
ik kÃ¤
ok os
ĠvÃ¤ estÃ¶
kor va
ĠkÃ¤yttÃ¤ mÃ¤Ã¤n
Ġohe lla
Ġkor jaus
Ġn imeÃ¤
ee mme
Ġhoit oon
kunn alle
ĠS to
Ġviih ty
Ġle vit
ĠRo van
Ġmu mm
ĠyllÃ¤ pit
ĠSuom esta
c y
Ã¶lj y
rak en
suunnit el
han kke
Ġso vi
mist us
ka as
Ġaika taul
Ġvanhe mmat
ĠL at
Ġvar us
L aa
z a
NÃ¤ mÃ¤
ittÃ¤ nyt
ĠkÃ¤ yd
ĠJ on
otta vaa
Ġ4 8
KS I
Ġhet k
Ġtark oita
Ġn Ã¤l
Ġde mok
mi an
A ika
ĠK Ã¤r
ĠsÃ¤il y
Ġna ista
Vuo den
Ġkulj etta
Ġmiel u
ihte eri
po liit
Ġver en
K ansa
x in
vet o
kir je
Ġerila iset
Ġtuo ksu
ĠIs ra
Por n
Ġr up
Ġyhteys tiedot
ĠTur va
TE ET
om ina
keski viikko
ĠsÃ¤Ã¤ stÃ¶
as h
Ġkerro taan
ĠpÃ¤Ã¤t ty
R i
kal ut
Ġomista ja
Ġkaun ista
H al
ĠKÃ¤ sit
Ġs h
Ġ2 50
luo kka
Ġka sa
sin Ã¶Ã¶
Ġper un
Ġmusiikki a
ti ve
Ġg l
jan tai
or it
pp uja
ĠlÃ¶ytÃ¤ mÃ¤Ã¤n
kun taa
is ar
Ġa vat
ĠympÃ¤ri llÃ¤
Ġkulj etus
ĠP ÃĦÃĦ
ĠIl moit
ĠIn ter
alvel ut
ika lla
Ġka usi
Ġopetta ja
Ġmet riÃ¤
ĠRaa mat
val ot
Ġteh o
Ġviet tÃ¤Ã¤
ma ista
ĠjÃ¤t tÃ¤
S isÃ¤
ika t
Ġkeh ityksen
Ġkeh on
ĠM uo
Ġta pp
Ġusko a
v ike
ĠV ol
ĠT Ã¤r
Ġhuol ehti
5 2
Ġolet te
tele vÃ¤t
Ġuskon n
es kel
issÃ¤ Ã¤n
ĠH ir
ĠmÃ¤Ã¤r in
van i
ĠminÃ¤ kin
J ulkais
sa la
Ġsuomala ista
Ġtietok one
ĠpitÃ¤ vÃ¤t
Ġla iva
Ġteki jÃ¤n
ele maan
tun eita
yt tiin
Ġpuol ustus
yhte ys
Ġtila us
Ġko mmun
Y H
Ġlaa je
Ġpros essi
uk ki
Ġilmoit taa
r uoka
lta vasti
este jÃ¤
Ġost in
ĠNa inen
Ġtil at
Ġole kaan
ĠS or
utu maan
Ġva tsa
vaik utus
Ġto isessa
Ġnim ellÃ¤
Ġ1 000
Ġpelaa ja
Ġval miina
s teet
oi mme
ĠS op
Ġens isija
Ġr anska
ĠSa ta
ĠKoti maa
J AN
ro up
si vÃ¤t
Ġkuvit ella
ĠT utkimus
ĠH am
Ġa li
yÃ¶s tÃ¤
Ġf ysi
Ġtied ossa
b let
tiet ojen
R IT
Ġt ren
ĠMar ia
Ã ¡
ĠW eb
Ġpa ikkaa
Ġkol mas
J EN
Ġmaa kunta
Ġik u
yttÃ¤ vÃ¤t
ĠV Ã¤h
elÃ¤ mÃ¤
Ġj uu
ĠpitkÃ¤ lle
Ġvaku utus
Ġann ettu
E ET
ikon lo
et e
pel aa
Ġc h
ĠsisÃ¤ltÃ¶ Ã¤
Ġpol ttoa
Ġm Ã¤r
Ġosa sto
Ġne ga
ĠS ch
Ġke vyt
ro ksen
mus ten
ta vaa
Ġm eidÃ¤t
Ġvi estit
ra por
v ikke
Ġkun tien
ĠHe ikki
Ġo k
Ġhall inn
Ġkatse lla
Ġvas ten
p oika
im on
S itten
Ġtehokka asti
Ġyhteisk unna
hy vin
Ġtunn us
ĠO S
Ã¤n nyt
s ista
ĠV alta
Ġh ei
ust r
Ġkoul utusta
kkiteh tuu
Ġma htuu
k oihin
Ġvalit ettavasti
Ġtai d
Ġmiel ellÃ¤Ã¤n
L in
H O
Ġsukup uoli
tel uk
pa llon
l ot
Ġvahv istaa
Ġsiir tÃ¤Ã¤
mp iÃ¤
kel po
Ġesi llÃ¤
ĠnÃ¤kÃ¶ inen
Ġjuo n
ĠpÃ¤ t
ĠtyÃ¶ hÃ¶n
Ġpan e
kaup asta
Ġkau della
Ġen tis
vuo tis
id ot
ĠjÃ¤ te
ĠMo le
ko la
Ġrak kaus
5 4
Ġtyh jÃ¤
ka ver
telu ja
Ġle hd
en sÃ¤
Li ik
se p
ĠsÃ¤Ã¤ s
Ġkiell etty
ĠI t
Ġhuoman nut
val vonta
Ġmuut tunut
Ġa pp
ĠP ikku
ĠLa ppeen
Ġkerto vat
Ġs ukka
y hd
ite llen
k kun
Ġtapahtu mia
P U
Ġhelp ottaa
Ġmin kÃ¤Ã¤n
kinn an
ĠpidÃ¤t etÃ¤Ã¤n
Ġonn istui
Ġluk ien
ust usta
ĠHer ra
in kaan
Ġusea mman
Ġmaa sta
ĠJÃ¤ sen
s yn
Ġtarp eet
Ġ Ã¶
Ġmil tÃ¤
ĠlÃ¤Ã¤ ke
Ġs ym
k itse
Ġk k
Ġ3 9
Ġpuhu taan
Ġkaikki aan
ĠEnsimmÃ¤ inen
Ġkeski viikkona
V Ã¤
Ġtyy pp
Ġverkko sivu
Ġarv osta
ĠnÃ¤h den
Ġras va
Ġerila ista
ĠSuom ea
Ġkilomet rin
Ġan tavat
lin k
Ġn ime
um iin
kaa va
Ġkilpail uk
Ġs yt
Â ®
Ġmu illa
Ġkan si
ĠK engÃ¤t
Ġpo jan
Ġyhdist yksen
g aan
Ġsuorit taa
ĠpitÃ¤ is
Ġha uta
ĠsÃ¤Ã¤nn Ã¶t
v oim
ĠNÃ¤ itÃ¤
ta ulu
Ġva mma
Ġkes kit
Ġkirjoit tanut
ĠN el
Ġva jaa
Ġa var
yy li
T he
Ġ3 4
Ġoike assa
P ress
Ġto tu
n ne
Ġsiv ut
u uksien
Ġsijoit us
ĠTa mm
rak ennus
c el
Ġhisto rian
Ġseurak unta
Ġmahta va
da ta
c es
ĠJo kainen
Ġet te
Ġsuo r
Ġhuoma sin
Ġesi merkki
sa ari
ĠAsia kas
yÃ¶n ti
Ġt se
Ġniin kuin
Ġlih as
n er
Ġk in
llis ella
pa ikkoja
Ġaiku is
Ġd l
ĠT ein
Ġna hka
mieh et
Ġka ul
ĠsisÃ¤ lle
Ġnyky isin
Ġha kem
ĠS tu
Ġtode llinen
ĠWindow s
kul ut
u illa
ud an
Ġmuka vasti
ja la
Ġparha an
Ġolevan sa
Ġt h
Ġrus kea
S en
Ġmat kus
Ġva iva
Ġmahd ollinen
aal ista
Ġkasvan ut
Ġin h
Ġta ik
ĠKa u
Ġa pu
Ġr iste
ĠmistÃ¤ Ã¤n
ala is
ĠLisÃ¤ tietoja
kir joitus
Ġtote si
ĠpÃ¤Ã¤ stÃ¶
lÃ¤h tÃ¶
ann us
Ġkoul ussa
Ġel emen
k ula
Ġilmoit tautu
ĠyllÃ¤ttÃ¤ vÃ¤n
Ġkes to
d esta
Ġn op
Ġt ytÃ¤
Ġmuka inen
ĠS aat
Ġtiista ina
Ġitsen i
Ġka hta
Ã¤t ys
is ku
y sÃ¤
Ġohjel man
ĠC an
Ġkas vi
ka i
C D
V E
c ar
asi an
Yhte ystiedot
Ġih o
Ġpalaut etta
J oh
sta gra
ĠR as
Ġteke minen
Ġo tte
Ġsiv un
Ġosa ke
yks issÃ¤
ĠLin d
ĠH on
Ġe ks
Ġpalvel ujen
A si
Ġsy yt
ĠkÃ¤sit ellÃ¤Ã¤n
Ġosa puol
Ġl ue
ĠhÃ¤ v
ĠKuo pi
Ġsivu illa
Ġlas ken
U D
ta rin
ĠkÃ¤ytÃ¤ ntÃ¶
u issa
Ġsosiaal it
m edia
ig ht
op iston
K Y
Ġto uh
ĠKa uppa
ikÃ¤ inen
Ġh eillÃ¤
ĠpitkÃ¤ aika
tÃ¤ in
kÃ¤ytÃ¤ ntÃ¶
l es
Ġol oh
Ġpan kki
ĠD i
Ġma tala
k saa
ke issÃ¤
ĠsÃ¤hkÃ¶posti osoit
Ġp yh
Ġn ro
ĠsÃ¤Ã¤nnÃ¶ llisesti
Ġv ene
Ġk isa
uks eksi
Ġt ms
ĠSi ir
ĠyllÃ¤ tys
ĠkÃ¤yttÃ¤ nyt
ti men
ĠS yy
v yyden
it io
p os
Ġvastaa va
l d
ĠA B
YT TÃĸ
te ella
V er
jan kohta
kat saus
Ġvo is
Ġk Ã¤nny
Ġtal v
kunn assa
J oo
Ġpys yvÃ¤
palvel ujen
Ġhaa ve
e m
s sia
ĠE le
li itty
y yt
ti lat
uut ensa
tan i
Ġohjel misto
ĠOp etus
Ġsil mÃ¤n
k pl
Ġp Ã¶l
Ġmaahan muutta
ĠvÃ¤li Ã¤
r isti
Val itse
el ua
ĠLa hti
va ras
es tÃ¶n
Ġmaa ta
Ġto isiin
ĠMin un
Ġtouk oku
kos ki
ar von
mis ella
ĠP A
Ġyksi kÃ¶
ĠpÃ¤Ã¤ asiassa
un e
Ġro man
Kes Ã¤
Ġsivusto lla
si lla
vaat teet
palvelu iden
Ġj Ã¤rj
ĠM istÃ¤
b r
utta nut
yttÃ¤ vÃ¤n
Ġsynty mÃ¤
Ġp etty
tele va
ĠJyvÃ¤sky lÃ¤
Ġlaa tua
Ġw ith
so vell
tÃ¤ vÃ¤n
etta essa
mp Ã¤Ã¤n
Kos ka
ili joiden
Ġ ..
t sin
ĠH ien
S o
isto ja
Ih ana
ĠkÃ¤yttÃ¤ en
Ã¤n tÃ¤
Ġparha imm
KIR JA
Ġtyt Ã¶t
tÃ¤ hti
l eh
Ġjat kuva
Ġo ven
Ġaloit ti
ut h
Ġtark istaa
Ġast etta
ak an
Ġg lob
ĠhÃ¤ tÃ¤
Ġteh tÃ¤vÃ¤t
ĠkÃ¤y tiin
y teen
et Ã¶n
Ġp ikk
tion al
kk ila
Ġ iÃ¤
j oihin
Ġtule van
Ġs um
ote k
te essÃ¤
li ikke
de a
Ġaset taa
Ġ6 5
Ġpal joa
b b
Ġsu ju
el mÃ¤
Ġpur ka
il usta
Ġterveyden huollon
Mi el
E si
ĠTÃ¤ llÃ¶in
ĠtÃ¤ ys
Ġar jen
re am
ĠL ei
T S
ĠE ro
mat tom
v yy
Ġper ustettu
Ġenn alta
is inaan
is tiin
ID EN
Ġb lon
ĠensimmÃ¤ iset
Ġsuo ras
ĠpÃ¤ te
os o
inn it
s h
Ġtunn et
r p
Ġal us
Ġjulk isen
ĠEn si
per he
ĠAr vi
te ma
Ġsa mat
Ġalu eelle
Ġpar ve
D D
Ġsan oin
imp iÃ¤
c en
Ġseur anta
tyi vÃ¤t
ĠÂ §
Ġkyn tti
ĠP DF
oo si
ĠM erk
tunti ja
kilpa ilu
eli Ã¤
lain aa
kohta isesti
Ġide oita
pp uun
Ġyle inen
Ã¤rj Ã¤Ã¤
ĠYmp Ã¤ristÃ¶
pp ur
ĠtÃ¤ ltÃ¤
Ġvoita isiin
Ġkansa lais
6 5
E li
ik kun
uut ena
ĠI L
Ġpoik kea
e itÃ¤
ĠPalvel u
paika lla
Ġto iset
ty n
ĠÃ¤Ã¤ri mmÃ¤
Ġa hd
ĠlÃ¶yd y
ĠP at
Ġkah teen
Ġhui ppu
g ne
T alo
H ien
el ee
Ġra dio
ĠM yy
Ġteks tin
ĠWord Press
sÃ¤ Ã¤ntÃ¶
tun een
r ann
Ġpuol ue
ĠB lack
on ia
Ġvied Ã¤
Ġ: :
Ġsan at
Ġsuorit ta
ĠEspo on
isuud essaan
uk one
llo issa
Ġhalua isi
Ġratkais uja
U uden
Ġhalua isin
ĠS w
Ġmuu hun
oks issa
r uus
maa ilma
k osta
enn ys
Ġker ma
Ġja ksan
Ġ12 0
va un
hd us
E l
Ġkasv ua
ĠNÃ¤ iden
Ġih as
ĠnÃ¤yttÃ¤ vÃ¤t
Ġitse Ã¤ni
ĠVal koinen
Ġriippu matta
ik uun
ĠsÃ¤hkÃ¶p os
Ġaiko inaan
Ġr iv
yks ellÃ¤
Ġtoim innasta
Ġluo kka
ĠmerkittÃ¤ vÃ¤sti
Ġesit etty
Ġerila inen
os ko
ĠY LE
utta vaa
Ġr inn
ig an
ityks ellÃ¤
Ġv is
Ġosoit ta
Ġt op
Ġmaal is
ĠNi itÃ¤
koo di
Ġjoka iselle
to masti
hall ituksen
Ġal ha
ĠPÃ¤ iv
Y TÃĦ
ĠpÃ¤ivÃ¤ ko
Ġpal o
â Ĩ
teli jÃ¤
ĠV ille
Ġris ki
ĠM iet
V AN
Ġristi ri
ĠM or
Ġsyn ttÃ¤
Ġtul osta
im ia
Ġsuunnit elma
Ġin teg
Ġjo utui
per Ã¤is
M AN
s ki
Ġmain os
Ġpalvel uja
Ġomina isuudet
T y
im ista
Ġtode llis
Ġh enki
Ġlu van
Ġkir joita
IN TI
Ġan teeksi
d es
Ġluk ee
jen n
Ġkor ot
ĠlÃ¤mp imÃ¤
Ã¤h ti
Ġras ka
onn an
ĠMar ja
ĠYle is
Ġta kuu
S is
g it
vita miin
ee llistÃ¤
ĠYhte is
la m
Ġhedel mÃ¤
un o
Ġil oa
ĠL U
Ġhe iken
yty i
Ġtarvit set
enn i
ĠMaa ilman
Ġtilan teen
Ġihmis ille
LisÃ¤ ksi
T al
Ġa i
ikk Ã¤Ã¤
Ġilm esty
Ġsuo stu
mi llÃ¤
Ã¶ iden
Ġka ks
Ġs ulla
p issa
j Ã¤ltÃ¤
s op
Ġjal at
Ġt ei
j etti
ta ll
Ġblog gaa
ĠKu itenkin
ĠO Y
ak te
o utu
ik oilla
ĠA M
ĠpitÃ¤ mÃ¤Ã¤n
Ġto isista
ĠKAUP UN
ke istÃ¤
Ġrun o
Ġlop etta
mma lta
Ġriipp uu
ĠIl man
ed on
Ġesiin tyy
Ġhal ve
ĠTavoit teena
ĠK uka
Ġsiv us
Ġpalvel ua
Ġol tiin
kul ttuu
ĠkehittÃ¤ miseen
Ġtote utus
? )
R ak
ul ut
Ġma issa
istel u
Ġval tava
Ġsoit taa
Ġken ttÃ¤
pa us
Ġhu ip
Ġkeskim Ã¤Ã¤rin
mma lle
Ġb et
uk laa
b ora
Y li
ĠSin un
ĠPro jek
ĠMar kku
Ġkoh teen
illÃ¤ Ã¤n
ĠVa ih
To inen
U s
Ġvir ta
6 6
Ġsiv ulta
oinn issa
Ġen glan
5 3
UT US
Ġkappal etta
ettÃ¤vÃ¤ ksi
t v
Ġryh mÃ¤n
id in
5 1
IS TO
tu misen
tit eet
ĠLa h
Ġerino mainen
Ġa joit
Ġmin ne
Ġk yyn
keng Ã¤t
Ġruo an
im er
dc ore
ĠepÃ¤ var
T ER
Ġlaad un
j etus
Ġloista va
Ġeloku van
Ġja ksaa
Ġkun toon
vi esti
ĠMon et
Ġil oinen
H enkilÃ¶
KA A
ĠhyvÃ¤ llÃ¤
imp ien
Ġrea g
jan sa
Ġruo tsa
ĠvÃ¤ riÃ¤
P I
Ġtasa pain
A uto
Ġoli mme
Ġse mm
ma le
Ġviih d
kaan a
Ġka ukana
Ġka kk
rak enn
Ġb e
H i
il yn
te ille
ĠJ or
ston muut
ĠOp iskeli
Ġnukku maan
ĠsydÃ¤ men
Ġpeli Ã¤
ĠkÃ¤ den
Ġaiku isten
Ġhom o
Ġpalvelu ita
Ġ6 00
j ul
o man
Ġsu hde
Ġtuo mio
= "
Ġkuu lo
ĠH anna
Ġp uun
Ġluonnollis esti
ĠâĢ ĭ
se et
j illa
is san
n ia
E s
Ġtava r
Ġsu kat
Ġpel ejÃ¤
is ilta
ĠpÃ¤Ã¤t tyy
Ġjolla in
is kasvat
ĠperÃ¤ ssÃ¤
mo otto
Ġka veri
Ġkatso taan
Ġkal enter
Ġ200 2
Ġkan gas
Ġposta us
Ġt esti
ĠVuo si
ust uksen
Ġg e
ĠkÃ¤y mÃ¤Ã¤n
ĠH Y
mÃ¤tÃ¶n tÃ¤
Ġtar kasti
ĠJ anne
Ġp Ã¤h
Ġvar at
vaku utus
l j
Ġah ker
iti on
Ġerila isten
ran d
Ġtarv ikkeet
ĠP uu
Ġmaa sto
ros of
Ġk lass
ĠA ll
T ule
j it
isi on
Ġhuon osti
ĠP itÃ¤
Ġkr uun
ĠKir joittaja
ur it
ettÃ¤ vÃ¤t
Ġmaail maan
Ġpoikke ukse
c in
Ġsaat toi
da y
Ġs yl
ĠL ED
ote taan
Ġ iden
esi gn
Ġtur ku
Ġhoid on
Ġosaa misen
Ġpo jat
Ġhy pp
Ġs Ã¤r
ta at
m ot
Ġyhd ys
Ġsan oma
koh tia
Ġso dan
sa s
Ġas uu
Ġosoit teeseen
Ġliitty vÃ¤
in kin
ĠRa dio
Ġtuot etta
tun en
il at
Ġartikk eli
suo ja
ala lla
ĠT ilaa
Ġvapaa sti
Ġte atter
tel up
ĠtÃ¤h den
el tÃ¤Ã¤n
ĠpÃ¤Ã¤ osin
la hti
valta in
toim inta
Ġko ordin
maa ilman
suunnit elman
Ġse udun
ha h
Ġkonk reet
politi ikka
Ġa id
ĠsisÃ¤ llÃ¶n
Ġmerk ityks
ĠsÃ¤ vel
ĠHuo ne
isto jen
ĠPa ikka
I s
ĠKo uv
Ġre itti
Ġvi ittaa
mp ut
han kkeen
Ġs ot
til assa
Ġkar to
ohja us
ha an
ĠVar sina
Ġh eija
D ownload
Ġeur o
Ġjuuri kaan
es Ã¤
Ġoppi mis
ĠAn ne
Ġtyt Ã¶n
om us
ĠV as
Ġj yr
Ġtur vaa
Ġperso ona
âĸ ¼
Ġkeh it
ĠÃ¤Ã¤n estÃ¤
akka us
IN G
sa li
Ġsa lli
ang as
Ġmit taa
kaupun ki
Ġpol ku
Ġettei vÃ¤t
Ġtarin oita
ig h
kke ja
ĠsisÃ¤l tÃ¤vÃ¤t
Ġ id
Ġtarvi ta
l it
Ġongel mat
Ġg en
Ġlo g
ĠÂ «
S el
ĠTiet oa
Ġvauh tia
tte jÃ¤
Ġlop ettaa
otta maan
Ġkuulu i
or ld
op er
jÃ¤ lle
k ri
o tan
L Ã¶
Ġal b
ĠlÃ¤mp im
Ġviesti Ã¤
ĠAn dr
Ġtark ista
Ġ20 01
Ġken ties
ĠY ou
Ġhan ke
Ġihan at
s yy
ĠA t
va ro
Ġ= )
muo d
Ġnaa p
ohjel mat
il tu
ti as
Ġm g
Ġ0 2
os taan
ĠM illa
yd et
uun ta
Ġmen ne
Ġnormaal isti
Ġos u
ĠlÃ¤mpÃ¶ tila
ĠC or
ĠEuroop assa
ika inen
s unnuntai
Ġkas in
een johtaja
ĠC D
ĠS yn
Ġsat unna
liik enne
iko ina
ĠtyÃ¶s tÃ¤
Ġma ja
Ġluo na
H er
Ġaika ise
ka d
Ġma joit
ir ektiiv
Ġraken taminen
Ġhoit oa
ĠH annu
il o
yd Ã¤t
Ġ $
V e
Ġhuu m
ĠO ul
ra b
ist ettiin
vÃ¤ ri
ĠPit Ã¤Ã¤
ĠL ehti
Ġsan oja
ist yy
Ġasiakka ille
EL L
ĠHal ua
lin g
fo or
Ġpak etti
strÃ¶ m
Ġturva llis
Ġo lleen
ĠJees us
Mi es
it ettavasti
puh elin
ed ot
KU VA
ĠA se
UL U
ton sa
ĠP oli
Ġliikke elle
ĠPa ko
p inta
Ġsai mme
ĠYl eensÃ¤
ĠSi ihen
ĠUrhe ilu
Ġlait oin
Ġei pÃ¤
un k
Ġnoud at
hd on
ĠPÃ¶ ytÃ¤
w ard
Ġtee ma
ka ikki
200 6
Ġm eri
ĠAina kin
E ilen
Ġop er
t istÃ¤
Ġkerra llaan
Ġhil jaa
Ġsis ar
A sia
va paa
mmÃ¤ ksi
Mat ka
ma isen
Ġtuli vat
Ġitselle si
llis yyttÃ¤
Ġhe istÃ¤
ĠlÃ¶ ydÃ¤
6 8
ollis en
ĠA p
Ġmuut kin
ĠM ukana
lu ettelo
ĠM U
Ġke ksin
Ġtiet enkÃ¤Ã¤n
k g
Ġkas ino
tuo tte
val mis
O ma
ĠT AR
ĠIl mainen
Ġsaira us
keh itys
ĠKaupun gin
F I
ĠnÃ¤h ty
IS UUS
Ġis on
ĠLi ike
ĠvÃ¤l istÃ¤
ĠYh teen
il uo
ala isia
ug h
vÃ¤ llÃ¤
Ġres urs
Ġre il
Ġenglann in
Ġ4 2
ĠK ana
tti Ã¤
Ġvai vat
TÃ¤ stÃ¤
ki an
emm istÃ¶
Ġvel voit
Ġverkko kauppa
ĠM ed
Ġpal kinto
ost uksen
Ġet Ã¤isyys
ra lla
Ġen intÃ¤Ã¤n
ĠT iede
ĠvÃ¤l inen
re lle
ĠS on
c hin
Ġha itta
Ġtutustu maan
Ġj Ã¤n
Ġluke maan
Ġsit ruun
i asta
ĠB al
ĠT utkim
ĠI tali
ta son
Ġyh ty
ĠVa i
Ġsuhtee llisen
Ġ199 0
ĠV Ã¤hÃ¤n
Ġseks it
llis ista
x t
is min
yÃ¶s ken
ty ksessÃ¤
it teet
ĠVal tion
eh Ã¤n
ĠL uu
Ã¤Ã¤ tÃ¤
Ġko ostu
Ġhall itse
materi aali
nn ut
ti ossa
Ġmer en
ĠOl isi
estin tÃ¤
ver o
Ġkel paa
Ã© n
Ġosa an
Ġkauh e
Ġaktiiv isesti
on yy
Ġlan ka
ut ukset
Ġtoi ve
ĠA alto
ma rin
ih ar
u an
Ġko t
ĠJo ul
Ġtut kin
yyd ytys
y mmen
Ġhote llin
Ġhyvinvoin nin
ko itus
Ġk ro
ĠT UL
Ġtuu li
la hden
S E
Ġesit tely
ĠtyÃ¶sken ne
UUNNIT ELMA
Ġl unta
sÃ¤ h
ĠB ea
to man
yt etty
vide ot
ĠToim itus
Ġkerr osta
enn ut
ma ise
maan antai
Ġma joitus
Ġw id
ky l
politi ikan
ĠPoh jan
Ġvir h
ik un
ĠSa ksan
Ġsiv ulla
ĠKoul utus
Ġka mera
Ġka ue
Ġf ir
m ela
Ġop as
Ġra hat
ĠSa von
Ġsi en
Ġr uko
Ġsovel tu
Ġjohtu en
Ġr anga
pas iteet
Ġter r
Ġrun ko
ĠsisÃ¤l tyy
ĠMa in
Ġmu usta
Ġtil annetta
etta isiin
ĠlÃ¤Ã¤kÃ¤ ri
Ġra jat
Ġpa ikkoja
u ck
it oim
Ġhi us
ĠP ur
ĠT op
ĠI S
Ġtuo tan
Ġle ir
ĠSuu rin
ke us
H aa
Ġp ell
pp ar
Ġuh kaa
Ġl uvassa
lo a
ĠP ap
ĠsÃ¶ pÃ¶
ĠN etti
Ġkats oo
voi man
saar en
maan sa
Ġvoit taja
Ġtul o
rek ister
ĠYhdys va
Ġar j
man n
ĠTiet osuoja
b il
ĠKuo pio
ko kona
ĠkÃ¤ynn issÃ¤
ĠpitkÃ¤ stÃ¤
m ed
isin Ã¤
u saa
Ġkutsu taan
j iin
m os
Ġsiv ua
Ġkahd ella
Ġpar iin
ĠA ut
l innan
Ġsa mm
kor tin
Ġvaik utti
Ġme ikki
Ġha mmas
ĠMieh et
kÃ¤sit tely
Ġr yt
ĠkÃ¤yttÃ¤ vÃ¤t
Ġer Ã¤s
b io
Ġtyy ppi
Ġal ko
is al
Ġnous sut
valla t
u taan
ke lla
ll essaan
t uk
Ġotta en
ĠAl ku
Ġkuu den
uta mme
Ġo tin
Ġsin inen
Ġsuomala isia
ĠSis Ã¤ltÃ¶
ka isija
Ġel ektr
K an
- /
de taan
Ġteh neet
Ġmielenkiinto inen
raa f
bora tori
Ġkah v
un g
n to
Ġp im
Ġta isi
Ġluotta mus
etta si
ĠkÃ¤sit yÃ¶
l uku
Ġj oille
ĠLa hden
ĠSisÃ¤ llys
Ġal enn
H alu
am ma
H an
Las ten
Ġasiakka ita
j ina
b ot
uo neen
pa ja
ĠvÃ¤l ittÃ¤
kÃ¤yn ti
ĠB lu
o ppi
Ġet sit
Ġlop ut
im istÃ¶
ĠsÃ¤hkÃ¶ n
Ġsur u
Ġtulla an
ĠtÃ¤h ti
st ys
V D
Ġt r
Ġmieh iÃ¤
teg or
t yÃ¶n
c al
d ika
ĠhenkilÃ¶kohta inen
Ġn ot
ĠS ul
Ġsyr jÃ¤
Ġkiv oja
Ġt yyn
Ġtiet yn
ee llisesti
f ek
Ġhan kkeen
Ġteh okas
y in
Ġ0 40
mm ia
ĠY llÃ¤
ĠpÃ¶ r
Ġno ista
Ġvan haa
min aa
Ġet sin
ĠjÃ¤Ã¤ vÃ¤t
V ih
il uja
ell us
ĠY r
tun te
Ġko mis
IK KA
Ġsa de
Ġkysym yksiin
Ġsuoras taan
Ġer oon
k itus
ĠtÃ¤lla ista
ĠNiin pÃ¤
ĠPal jon
ĠkÃ¤yd Ã¤Ã¤n
Ġnuor en
kÃ¤ r
Ġtunn istaa
V o
tu mista
ĠJoh n
Ġpro te
ĠC ha
c tor
Ġp otenti
Ġperus teet
op iskeli
ĠtÃ¤ ytÃ¤
lÃ¤Ã¤kÃ¤ ri
jo hto
âĢ ī
Ġkeh ityks
ĠtÃ¤yde llisen
ĠhyvÃ¤ ssÃ¤
Ġuud ista
im it
mm er
Ġsuih ku
ĠkÃ¤yttÃ¤ jÃ¤n
ky lÃ¤
Ġseuraa vaksi
pu isto
ik uva
ot onta
Ġtoisia an
Kes ki
S osi
ĠMar kkin
ip pa
Ġval ik
Ġaihe eseen
8 8
ĠP ih
vaih d
T TI
T ube
ĠO on
Ġteki jÃ¤t
Ġlu vat
Ġlah joit
ĠKansa invÃ¤l
Ġkul ku
eh kÃ¤
Ġre issu
kaup assa
Ġle mm
ot er
Ġilta pÃ¤ivÃ¤
Ġdoku men
Ġh Ã¤l
ile vat
ĠkÃ¤ytÃ¤ n
Ġkirja ssa
Ġedell yt
vide oita
so jen
Ġomina isuuksia
Ġtunn etaan
Ġtuo mi
luo kan
Ġf an
n aa
Ġsop e
otta vat
Ġjo utu
ike a
Ġ ite
Ġker ros
ĠTer veys
Ġp ri
Ġaikana an
Ġ ime
di on
ĠpitkÃ¤ t
ee llista
ĠK ale
Ġku ivat
b ol
Ġhal usin
Ġte itÃ¤
ĠT Ã¤nÃ¤
Ġn oi
ï¿½ ï¿½
hil jaa
ĠJoh anna
ĠikÃ¤ vÃ¤
Ġke mi
Ġto ta
mis iin
kun tien
Ġas unn
Ġkah vi
ĠPar as
ell o
Ġli i
b el
Ġluo kit
Ġpro fessori
Ġmuut osta
el okuva
Tuo te
ĠA ivan
asto t
Ġrann alla
sto in
ust yÃ¶
Ġlo ukkaan
Ġmet sÃ¤n
pp ien
ÃĦ IV
o mi
Ġkirja ilija
Ġki p
Ġrauh oit
Ġjuh l
Ġvaik utusta
ka isin
Ġulko puolelle
Ġmain ita
Ġo ulu
Ġb us
ĠT ut
Ġsano taan
Ġra p
ÃĦ H
Ġtarko itetaan
Ġis oja
usta r
Ġkorke us
Ġval von
M istÃ¤
us tin
ĠY HTE
P ekka
Ġal ennus
ĠpÃ¶ ydÃ¤
Ġsuk ula
T R
Ġava us
ĠH ein
un sa
ĠM inna
Ġtasa paino
Ġâ Ĩ
Ġsiir tyy
Il ma
ĠlisÃ¤ tietoja
een Ã¤
Ġmielenkiinto ista
a taan
ka isi
Ġluu ltavasti
huo neen
ip e
Ġkaa va
z ny
mer en
p ien
Ġkan an
Ġyhd eks
esty le
ympÃ¤r istÃ¶n
Ġin ter
ea d
Ġvaatim ukset
udu taan
Ġh eidÃ¤t
Hy vin
ce book
ka mera
ow er
Ġsivu ilta
ĠR ed
Ġsyn n
Ġh uh
m ut
KÃ¤ yttÃ¤
ĠhÃ¤ mmÃ¤
ĠPit kÃ¤
ma llin
Ġvuo delle
Ġmuut oksen
ĠâĢĭ âĢĭ
Ġti ennyt
PÃ¤ ivÃ¤
on al
ĠUS B
V aa
M ulla
im erk
Ġer Ã¤Ã¤
yt in
Ole mme
Ġoike alla
Ġluon te
f l
NÃ¤ ytÃ¤
Ġte ollisuus
v ol
tia an
Ġonne llinen
Ġjoul ua
n u
Ġkun ingas
E rit
ko lla
tel tu
Ġtoim innassa
Ġir to
Ġluo kan
Ġpel kÃ¤Ã¤
te in
Ġja lan
ĠA ri
mo jen
kun taan
ee ta
tel yt
Ġkul ma
IT E
m uksia
Ġpyr kii
Ġmusi ik
ĠI N
Ġkansan ed
Ġporn oa
ĠEn ergia
Ġs okeri
Ġseuraa vana
Ġvir tu
mo ista
P O
Ġuut iset
ĠJ Ã¤l
V erkko
Ġsuh ta
p il
ĠAsi an
OIT US
ula h
Ġvai vaa
h ia
Ġajo issa
Ġa vo
is uo
Ġl enk
ĠSan o
c er
Ġk us
Ġpaika sta
Ġlait teen
et t
h Ã¶
ĠNÃ¤ ytÃ¤
Ġd la
pan kki
tion s
Ġuno hd
Ġasiakas palvel
uotte ita
Ġk onta
lo issa
K AS
Ġmahdollis et
Ġpo tila
j ulkais
ĠToi vo
ÃĦ T
Ġvi ka
n inen
va tiiv
Ġma llin
ĠM il
Ġkuole man
vÃ¤ en
Ġmon esti
Ġvastaan otto
Ġmain i
ĠUse in
Ġtuo vat
H S
val taa
ĠenemmÃ¤n kin
at tua
is yyd
KO N
Ġkon sul
Ġkunnia ksi
ĠR us
ĠTiet o
Ġjuo kse
ettu jen
ĠymmÃ¤r tÃ¤
any ch
Ġvalmista a
im ella
is tua
Ġkeskitty Ã¤
ĠyÃ¶ tÃ¤
matto mat
Ġtapa us
ow anych
Ġz alog
oc zny
ĠpÃ¤Ã¤ tÃ¤
Ġwid oczny
Ġzalog owanych
Ġtu en
ĠkÃ¤ t
Ġpuol elta
ivoi ma
ke aa
Ġelin kein
ĠTuo te
ĠMo otto
ĠK re
is at
ĠK I
ĠP en
Ġhelp ot
Ġsaa maan
isti en
ĠÃ¤Ã¤n en
ĠK unn
Ġtapa uksissa
kke elle
Ġsu lle
ĠJ uuri
Ġp re
Ġlop ulla
ĠlÃ¤hten yt
ĠhÃ¤ mÃ¤
ĠHy vÃ¤Ã¤
Ġhi usten
M er
ĠO SA
r issa
Ġtunn u
K aa
Ġky r
pros essi
I F
ik Ã¤Ã¤n
Ġs uut
Ġra vin
iko issa
Ġvalikoi ma
Ġpar la
ĠA in
d ut
Ġmon een
7 7
Ġuseimm iten
lauta kunta
Ġre ak
ĠKa i
Ġvasta uksia
N uor
Ġkasv un
p uli
ee lliset
Ġmat kaan
Ġlat ti
ĠtyÃ¶ t
ĠVan he
Min ulla
euv oston
T eh
on nut
st ossa
kes Ã¤
Ġtied Ã¤t
Ġsuh tautu
kiel inen
Ġtarpe isiin
ti fi
Ġliit on
ĠO lli
ta nnon
Ġkehitys tÃ¤
kke ella
Ġtai da
pan e
Ġkoken ut
r inen
Ġaiko jen
Ġyksinkerta inen
uu mmin
Ġh ope
ver ikkÃ¶
j eli
lait oksen
Ġhuole llisesti
Ġhu ll
ann es
Ġnuor ia
kin a
Ġalku a
Ġkoh teeseen
Ġas teen
Ġmerk it
Ġenglann iksi
mat tu
k estÃ¤
ĠjÃ¤l ke
is y
Ġvi it
Ġhi ll
Ġh as
Ġa mm
ri c
Ġpika vi
Ġke ks
Ġj una
us en
tel a
ess ut
ĠnÃ¤ e
Ġpsy kolog
Ġkirja sta
Ġty kkÃ¤
ten a
Ġ201 9
si at
Ġap te
v een
ĠL ive
ĠJat ka
Ġot ettiin
Ġus kalta
Ġmukana an
Suo sit
li ikenteen
mp un
Ġuud esta
Ġe ka
istu vat
Ġseuraa vaa
A vainsanat
ir o
Ġasiakka at
? !
Ġmyyd Ã¤Ã¤n
Ġa at
Ġk lassi
ĠM ikk
Ġnopea mmin
Ġyhd istelmÃ¤
Ġluk io
Ġtoim ittaa
h yÃ¶
mies ten
ĠsÃ¤il yttÃ¤
vaihe essa
to mia
uh aa
aale ja
Ġir tis
E lo
Ġjuh li
Ġf i
Ġtarv innut
ĠK unnan
Ġ4 6
ve a
p df
Ġ ut
Ġhake maan
---- ----
Ġp oi
ĠJ uo
Ġtied osto
isi o
Ġkustann ukset
ĠkentÃ¤ t
Ġkoke ilemaan
ĠE ikÃ¶
ĠSuomala inen
ĠTamper eella
Ġf anta
per jantai
ĠPir kan
ro a
Ġtar kast
Ġaika iseksi
Ġpien empi
Ġr in
Ġa m
ĠL yh
ke an
ĠÃ¤Ã¤n tÃ¤
ĠJul kais
ĠkÃ¤yttÃ¤ mÃ¤llÃ¤
ĠPel aa
Ġtuo lloin
ĠV I
u en
Ġpa ksu
Ġvi eh
ul t
ĠmyÃ¶s kin
ĠVan ha
jo ka
Ġoike aan
Ġjohd osta
Ġhan kala
T Ã¤Ã¤llÃ¤
ĠympÃ¤ri lle
T il
Ġal asti
as unnot
nn Ã¶n
ĠSosi aali
Ġme iltÃ¤
n assa
Ġed eltÃ¤
ĠTuk hol
Ġpa p
it it
Ġtur han
ĠA f
Ġs up
ĠW ar
Ġkuunn ella
ve mmin
um Ã¤Ã¤rÃ¤
Ġmyynn issÃ¤
ĠYrit yksen
Ġmukaan sa
Ġluki ja
A nna
Ġma h
Ġtava raa
to mus
t utkimus
Euroop an
Ġpyr ki
ĠnÃ¤ ki
Ġtoim esta
ast ossa
Ġpih alla
in eiden
Ġmonim ut
Ġa kku
ta mme
K ilpa
tin i
Ġkauni it
ĠB en
s essa
Ġkatso massa
Ġpys yÃ¤
ĠPa in
me lle
ĠG ar
ĠP ak
ĠG roup
Ġonne a
Ġs im
ĠL oh
N or
Ġf ak
Ġpel astus
L AN
ĠPÃ¤ ivi
Ġsul j
Ġautta vat
yh mÃ¤n
utu sa
aika an
Ġval itta
Ġsosiaal isen
ĠperÃ¤ ti
Ġ4 4
mm illaan
ĠNo kia
Ġpa ine
uka ssa
s ana
ta malla
Ġsel ittÃ¤Ã¤
h uol
Ġo miin
ĠRuot sissa
ĠKO KO
Ġkaik essa
ell Ã¤ni
ut er
Ġeh ti
inn oista
T K
Ġtilan teissa
nÃ¤ yt
vÃ¤ li
Ġb a
ĠPÃ¤Ã¤ tÃ¶
f estyle
turva llisuus
ĠA mmatti
Ġtava llaan
Ġnega tiiv
Ġv isu
ĠA ar
puna inen
vo ista
kau della
Ġavoin na
Ġuni onin
Ġni i
ci al
Poh jois
am es
Ġtuh o
Ġkri it
Ġtaso lle
ĠE I
ĠtyÃ¶nteki jÃ¶iden
sa t
IL LE
Ġomina isu
Ġjoukku een
Ġja kel
i ikki
ĠLa ura
Ġj uuta
y te
Ã¤n ne
p ress
Ġbon us
Ġviikonlo pun
Ġresep ti
ĠE uro
ĠTÃ¤ ytyy
ĠV Ã¤r
Ġmaks etaan
ĠV AR
ke ita
ĠE de
k ettÃ¤
ĠNeuv osto
T ila
Ġnormaal ia
Ġ0 3
9 8
Ġhyvinvoin tia
ĠMar i
Ġmiljoon an
Ġm essu
isi mme
Ġpien ellÃ¤
p ih
ho li
Ġvoisi vat
Ġot telu
Ġvoimakka asti
si pul
tu re
ĠVÃ¤ lillÃ¤
ĠT utustu
S Ã¤Ã¤
ĠS yks
ĠpÃ¤Ã¤ sin
Ġs he
ĠJa va
ĠR an
Ġtoim inna
Ġsuo meksi
Ġtuhan sia
Ġkon een
Ġvaikut ukset
tele massa
Ġvau van
Ġtuotte ista
er aan
k uri
Ġlas ki
Ġtarin an
kau pp
g mail
Ġuusi in
Ġop in
R E
osa ssa
Ġsuur im
ĠkÃ¤sit ellÃ¤
VI O
ĠT ak
ĠpÃ¤Ã¤se vÃ¤t
Ġkysy i
Ġtoimitta ja
Ġvalit tiin
Ġpuol usta
ĠJ ok
pÃ¤Ã¤tÃ¶ ksen
Ġta vat
ĠErity isesti
Ġjat koi
Ġsy istÃ¤
ĠS ella
k enn
Ġtoisista an
ĠB on
anta ja
ĠJaa kko
Ġmiel enter
O i
Ġkar tan
P an
ĠA iku
ĠN y
ĠA urinko
Ġmaks ut
Ġhien oja
Ġtaloude llinen
ok ki
Ġopiskeli jat
Ġk ynn
ĠTul e
ĠlÃ¤het ys
Ġkolman nen
Ġmuutta misesta
Ġl inn
Ġas unnon
Ġharjoit us
i taa
maks ut
tu mis
ĠLap set
u taa
Ġarvi oida
âĢ¦ ]
Ġn Ã¤Ã¤
M uista
upÃ¤ ivÃ¤
s isa
Ġauto lla
ĠR os
Ġkokona isuus
Ġeloku vat
as ana
ĠI kÃ¤
Ġp ost
Ġh innan
Ãĸ YTÃĦ
Ġtode ta
Kir joittaja
aika isesti
vi d
Ġnuori lle
ĠH EL
ĠA su
Ġkah via
V asta
Ġhetke ksi
juh la
op etus
Ġt estaa
ĠM Ã¤n
Ġsuuri mman
ĠT rump
Ġsuun taa
Ġhuoma ta
pp aat
Jo ka
ĠR Ã¤
ap ia
Ġp k
ha m
Ġkoh teesta
J ÃĦR
l is
Ġs Ã¤Ã¤n
Ġf ik
ĠVi eras
Ġrik os
ĠlÃ¤h elle
Ġper uut
ĠKiin teistÃ¶
ĠhenkilÃ¶ t
ĠE ttÃ¤
Ġ8 00
ĠP eli
suo mi
ĠG a
Ġyrit Ã¤n
Ġav usta
ker r
ma issa
hall innon
Hy vÃ¤Ã¤
Ġusea mpi
ras t
D P
Ġpala ta
nolog ia
Ġinsp ir
ĠpÃ¤Ã¤ ltÃ¤
ĠvÃ¤l ttÃ¤Ã¤
Ġkar tta
Ġj u
kel a
Ġh ot
Ġot to
ettÃ¶ mÃ¤n
oh a
Ġtun tee
mpp ani
et ys
Ġle ikkaa
ks ellÃ¤
ĠG o
Ġjohd on
Ġl iv
V enÃ¤
ili joita
kymmen tÃ¤
tu en
vÃ¤lin eet
Ġsin Ã¤nsÃ¤
b u
p uut
ĠG ra
ĠA ino
Ġmene vÃ¤t
ĠNi iden
ee d
ĠyrittÃ¤ j
Ġsan ottu
ut etaan
kko ja
bjek tiiv
ĠtyÃ¶ llis
l asta
Ġsil m
lÃ¤ inen
Ġra ta
Ġmaa lin
Ã¤Ã¤ ltÃ¤
Ġb rÃ¤n
ka mer
Ġku mp
ja ko
Ġmarkkin oille
Ġauk io
isi mmÃ¤t
m una
Ġk ei
ĠK ES
ĠKi er
se uraa
Ġhaa v
Ġmall ia
Ġla taa
Ġno lla
Ġtava llista
Ġ: (
Ġtoisiin sa
Ġkulttuu rin
ĠVan h
d issa
am mat
Ġtuleva isuus
ĠM ut
Ġprojek tin
uv un
oks ella
Sa von
ĠSa ma
Ġherk ku
Ġmateri aalia
Ġta ul
Ġtul en
Ġp ed
Ġasi oihin
Ġmon ella
b ar
Ġhita asti
Ġp isteet
ĠsÃ¤Ã¤ tÃ¶
Ġsel vÃ¤
Ġter assi
Ġulkoma illa
Ġilmi Ã¶
m ella
Ġsul ke
ĠvÃ¤ki valta
E telÃ¤
Ġm ekko
Ġopiskeli joiden
ita r
muut to
at er
Ġaja ksi
q ue
Ġp Ã¤r
ir aan
le y
la isille
Ġhe ll
ĠC ity
Sa in
ES TA
ton ut
tel Ã¶
Â ´
Ġm ys
Ġvuoro kauden
Ġes teet
ĠN uo
ĠF ree
Ġmuut to
Ġse kaan
Ġoleva an
ber t
Ġhelpo mpi
Ġk assa
Ġkyse isen
ky lÃ¤n
it or
ĠAndr oid
inn yt
ĠvÃ¤hen tÃ¤
Ġkuk kia
mmÃ¤ lle
Ġpaik kansa
tila inen
ĠHall ituksen
Ġjo utunut
Ġkat ta
C o
ĠI P
J ul
ĠJo hd
Y h
7 6
Ġte os
Ġosoit teesta
ti Ã¶t
Ġv s
m Ã¤h
kuva us
y istÃ¤
Hel sinki
Ġl isen
K uten
TO S
Ġalo in
Ġvalmist us
Ġik Ã¤Ã¤nty
et uista
Ġtulle et
ĠW i
Ġvaati vat
vast uu
tel et
Ġaj oin
Ġpuh uu
ĠRa uta
k kon
Ġpar ann
unn us
ĠkÃ¤sit tele
te elle
Ġ4 9
ĠU ni
Ġvoit on
Ġl y
_ _
tu sa
Ġann os
all into
Ġ ]
alu eiden
Ġtoteut etaan
Ġyks inÃ¤
yl Ã¤n
Ġs ihteeri
Ġg ay
ĠtÃ¤y teen
Ġkar va
Ġteks tiÃ¤
ka ra
f an
ky vyn
ei jo
Ġtoimi maan
v ist
Ġmielik uv
yvÃ¤sky lÃ¤
Ġvaikut uksia
ĠjÃ¤Ã¤ h
p ea
N yky
[ /
Ġjulka istaan
val menn
ĠhÃ¤n estÃ¤
Ġkiinn ittÃ¤Ã¤
es el
ff in
Ġp Ã¤rjÃ¤Ã¤
Ġtarvitta vat
Ġv p
Ġs tu
ĠT aa
oita n
ĠS uuri
T C
Ġblog ista
Ġn este
tiet eiden
MikÃ¤ li
Ġmaksa maan
Ġp uk
mp aat
Ġtar j
uunnit elma
kys ym
eh u
Ġker taan
Ġso te
tu maan
Ġs elÃ¤
laa ju
Ġvastaan otta
Ġvil jel
voit to
opet uksen
Ġyksi kkÃ¶
tia uto
Ġa hdist
v oo
ok et
Ġb rit
ila an
Il moit
ĠKul ttuuri
ĠOlet ko
Ġlopp ua
Ġkuo llut
oit ua
se lla
pa ine
Ġluot etta
Ġma iden
ĠvÃ¤l ein
Ġtarin at
opp ilas
Ġpaika llaan
sy kolog
ĠHi eronta
etta jan
ĠLo pp
ĠP L
Ġliiket oiminnan
mista an
kke itÃ¤
yd estÃ¤
kÃ¤ ytÃ¶n
at h
ĠH il
kaa van
Ġo m
Ġja rr
Ġkaun iin
ĠsyÃ¶ mÃ¤Ã¤n
c ed
ĠPoh jo
pi iri
ĠKu vat
Ġna pa
istel y
se minaari
to p
erg ian
ĠPER US
Vuo nna
ĠS oin
tilan ne
toi mi
ik set
SÃ¤hkÃ¶posti osoit
Ġoleva sta
Ġla ulu
Ġhuone essa
Ġpel kkÃ¤
Ġper eh
Ġop ti
ĠkÃ¤ teen
Ġ20 20
U H
ot in
os uus
pp inen
Ġtervet ulle
h imo
ĠkierrÃ¤t ys
ĠD esign
IT ÃĦ
ĠQ u
Ġpid ettiin
Ġher Ã¤Ã¤
ĠO H
ĠH A
ĠKun to
ĠsÃ¤il yttÃ¤Ã¤
Ġvih er
Ġpit k
I C
Ġrav itse
Ġt ui
esti vaal
ĠystÃ¤ viÃ¤
Ġtek isi
IT YS
Ġtut kia
Ġmarkkin oilla
Ġsiv ulle
Ġkul ki
ĠKa in
ĠS ekoita
ĠOn line
len teri
c am
m inÃ¤
Ġto isesta
Ã¤nn Ã¶n
s uk
Ġmon in
Ġinsp iraa
Ġtur na
Ġhi ekka
Ġselv itys
Ġr isk
Ġtarko itta
ĠV illa
ĠO ri
ĠhenkilÃ¶stÃ¶ n
ok one
ĠD is
ĠympÃ¤r Ã¶
Ġmuod ostuu
Ġg ri
ĠEd us
ys ty
Ġp istettÃ¤
us an
ĠM ir
ĠA lan
Ġto iseksi
ĠnÃ¤ke mÃ¤Ã¤n
6 4
Ġlas kea
Ġyrit yksille
ĠpÃ¤iv inÃ¤
Ġyksi l
is eltÃ¤
AN TA
I EN
Ġjat koa
M uuta
Ġyhdeks Ã¤n
c ia
ĠG u
Ġviime in
ĠtyÃ¶nteki jÃ¤
ĠLiik enne
j ilta
Ġhir veÃ¤
Ġkirjoit ettu
val ko
Ġparha ita
is on
ku lla
at ch
ĠY stÃ¤
ĠtytÃ¤ r
Ġstr essi
Ġho usut
Ġas enne
Ġmuo vi
aa minen
te atter
Ġnormaal i
ĠEn sin
u x
Ġluku isia
Ġtutki ja
ul at
merk kejÃ¤
Ġlu in
iv ir
Ġn at
Ġsopi vaa
all eria
Ġtun teita
w ay
KI L
ĠE M
eh toja
mp o
Ġin fo
Ġtait een
Ġsopi vasti
el d
k oilla
Ġsuomala is
ĠtÃ¶r mÃ¤
pako llinen
eh tia
ĠPar haat
Ġir r
ĠKann attaa
p osta
Ġoma lle
taso lla
ĠsÃ¤Ã¤s tÃ¤Ã¤
Ġsaav uttaa
Ġv ol
id Ã¤n
kk ana
ĠEn glann
Ġn is
Ġko lle
ud in
n ing
yhdist yksen
Ġle ik
t isti
Ã¤ yt
ĠMic rosof
Ġmilla inen
kohta inen
Ġjuo ma
ĠKoi v
vi era
ĠS un
op in
ĠM ur
es se
Ġsaa mme
8 5
ĠM it
ĠV in
Ġfiil is
ĠHotel s
ĠyrittÃ¤ jÃ¤
le hd
os of
Ġko kea
w s
Ġblog iin
v osta
200 5
Ġvi ile
ma ala
g es
un taa
ĠB io
Pohjan maan
el en
ĠSam oin
ĠKaupun ki
alla s
g ien
is ki
Ġtal vella
oi va
ell en
r aat
maat tinen
Ġde sign
Ġhir ve
Ġkuuka us
ĠK aar
Ġp iden
ĠK l
Ġvel ka
projek ti
val von
Ġlin kki
Ġposta uksen
ĠjÃ¤rjestel mÃ¤n
Ġna isille
ĠA k
ul in
Ġvalo a
Kir joit
ist inen
Ġava ta
Ġih oa
al oit
Ġkoke e
Ġsan aa
iko ko
T US
E nnen
Ġkor kein
Ġpa ita
iin in
Ġkesk uudessa
ĠKa iken
Ġil tana
Ġm l
Ġsa ll
Ġaja ssa
si la
jÃ¤rjestel mÃ¤t
lait teet
mÃ¤n i
Ġr ikka
enn ot
. :
ĠTap io
j uu
ila iset
H ote
A am
ĠL eena
Ġpyy h
pa idat
ĠYhdysva lloissa
ĠlÃ¤Ã¤kÃ¤ rin
7 9
Ta mper
Ġparhaimm illaan
arv oa
ja ks
g asta
Ġtu pa
Ġku lli
Ġorganisaa tio
ĠY K
ĠKir joit
ki ekko
uotte iden
r annan
Ġmahdollis uutta
ĠP re
le x
k oiden
Ġitset yydytys
Ka un
ĠyhteistyÃ¶ kumppan
Ġodotta maan
Ġhe ittÃ¤Ã¤
te ke
Ġ4 3
S M
jÃ¶ ille
f ia
ka lle
pp ale
Ġpal kan
yrit tÃ¤
Ġsa toja
bo x
Ãĸ N
Ġmut tei
Ġvir taa
utta van
ĠE mme
ak kaa
oit in
crip t
ĠS alo
iste lla
vir anoma
6 9
ĠnÃ¤ky vÃ¤t
Ġa ar
Ġvastaa maan
Ġkommen teista
Ġ imp
ĠK UNTA
Ġot telun
p yyntÃ¶
ht ml
UKS ET
Ġblon di
ag og
oso fi
ty neet
Ġkis san
Ġil maan
Ġreil usti
Ġyrit ti
c ks
Ġkeskusta ssa
vali ok
M un
w n
Ġmietti mÃ¤Ã¤n
M AT
ĠT iina
Ġaih etta
ĠM oni
Ġpe it
ĠP il
Ġseurak unnan
tel ystÃ¤
Ġpa ista
Ġr ie
Ġle mpp
Ġkysym ykset
Ġhar m
K ot
ĠP ika
etus ti
oim inen
ĠP ri
val mist
ta voit
ĠpÃ¤Ã¤ sen
Â °
ĠR en
pÃ¤ t
K ES
Ġpah asti
ĠIh ana
op ol
ta misen
Ġtark kaan
itÃ¤ mme
Ġmyyn tiin
eri aali
Ġp istÃ¤
K IN
er on
va stoin
Ġpikku hiljaa
Vi elÃ¤
Ġliike vaihto
Ġturva llinen
it oksen
Ġopet taa
Ġse iso
Ġsam oja
kk inen
Ġas etus
ĠKyse essÃ¤
ĠHenkilÃ¶ stÃ¶
gan is
ĠkansainvÃ¤l inen
ol osuh
A ivan
O lin
Ul ko
ĠYhdys valtain
u van
tyy l
ĠK ala
ĠsÃ¤ te
ĠJees uksen
Ġmyyd Ã¤
Ġalkoi vat
ĠtyÃ¶ttÃ¶ myys
aal isen
Il moita
n ess
Ġrat sasta
uste h
Ġosallis tui
Ġtyy liin
ĠF l
ED OT
ĠEL Y
Ġli ity
Ġva hin
ita li
oinn ista
Ġhe it
Ġuu della
Ġkuuka udessa
ÃĦ lÃ¤
Ġkeitti Ã¶n
E A
por no
l yÃ¶nti
vat ko
ĠI T
Ġta son
http s
ĠÃĦ iti
Ġpalkka pÃ¤ivÃ¤
Ġja etaan
Ġsuunn attu
Ġkamer an
Ġjulka isi
ĠK il
Ġmuista n
Ġinteg r
K eh
yr y
an ssi
Ġka uk
Ġtehok kaa
mis iÃ¤
Ġjuus to
Ġilmoit ti
ka mpan
vuotia ana
s ol
ĠC har
ĠH ol
ĠtyttÃ¶ jen
ĠSeuraa va
gen d
ĠM usi
Ġuud ist
ĠlisÃ¤ tÃ¤Ã¤n
Ka upun
Ġyle istÃ¤
ĠB usiness
Ġkas ti
V apaa
R uoka
ĠnÃ¤ pp
itty y
Ġmiel uummin
ope us
Ġhelpo mpaa
Ġrakas taa
K oi
Ġval innan
Ġa jel
ĠSe ppo
P ER
Â ²
p et
um pp
Ġaik oihin
kyky Ã¤
m es
ll ist
ka utta
huo n
yt Ã¶t
ĠvÃ¤l t
lu pa
Ġaam una
U n
vas taa
ar ia
Ġles bo
ĠVar sinkin
p elin
Ġtut kinto
ĠKo mmen
sÃ¤Ã¤ntÃ¶ isesti
Ġviime iset
is yy
Ġosa ssa
un en
matka lla
ĠLa uri
ĠPet ri
te isen
Ġlaj it
Ġaja lta
Ġkunni oit
ĠelÃ¤mÃ¤n sÃ¤
Ġmieli pit
tu va
Ġil a
Ġp l
ĠâĨ Ĵ
Ġdemok ra
ud io
Ġpal kki
Ġvoi maa
f on
Ġre ilu
Ġohj een
hd etta
Ġf rom
Ġlu mi
Ġann etun
Ġparis uh
jo ona
Ġajate llut
v Ã¶
teh ok
b or
Ġtai va
TO IM
ĠA ustr
Ġl ehden
v ut
te llen
nn in
yhte istyÃ¶
M aan
Ġta blet
Ġko et
Ġd o
Ġluo ton
Ġe kolog
Ka ksi
Ġa urin
voi maa
Ġvanhe mpi
ĠT utkimuksen
Ġkesk ustan
ĠHe ikk
ĠtehtÃ¤ viÃ¤
Ġkilomet riÃ¤
os tetaan
ĠpÃ¤Ã¤stÃ¤ Ã¤n
ĠKÃ¤ y
ĠK uv
Ã¤ mme
Ġkaikki alla
ha llin
m el
Ġk it
Ġ4 7
s taan
Ġ4 1
de ja
Ġkunn a
Ġkakk os
Ġesit etÃ¤Ã¤n
ut r
jal ka
Ġp elÃ¤
koul utuksen
ĠI II
S u
val inta
D e
uta r
ĠkÃ¤ det
â Ļ¥
Ġkulutta ja
Ġval taa
ma assa
Ġk esti
P u
ke mus
tu ri
ĠystÃ¤ vÃ¤ni
Ġih ast
iv it
Ġme in
ina kin
ĠF il
Ã¤h tÃ¤
Ġp uuta
Ġm iks
h ite
Ġvastaa van
ĠSa mi
Ġna uh
Ġkys een
Ġasian muka
Ġka ula
ase man
or ganisaa
ĠAn al
Ġkir je
Ġh innoit
pp iÃ¤
se ur
Ġgirl s
ĠkÃ¤ytÃ¤ t
to rit
Ġsovel tuu
i da
U M
ĠUs kon
imp iin
teen sa
k yyn
tua an
Ġki usa
om pa
ppu jen
ĠP yh
Ġt yr
Ġj uttua
ĠA lla
Ġsuosit tu
ĠKok ona
Ġlas kee
ĠAn d
Ġsuu hun
Ġe m
J uh
J AT
Ġusko o
ĠLa ita
Ġnyky isen
ĠjÃ¤ tÃ¤
M eidÃ¤n
Ġse kunn
maan i
Ġen tinen
Ġopisk elu
ĠsydÃ¤ m
ÃĦÃĦ R
Ġla uka
ĠM c
Ġtote utettu
Ġhan ka
um b
Ġsaap ui
Ġosta nut
ĠhyÃ¶d ynn
Ġhistori aa
ĠV uor
Ġjoka isella
toim innan
Ġhaaste ita
ĠelÃ¤ ke
A jat
Ġmed iassa
Ġherk ut
inn umero
ĠÃ¤Ã¤rimmÃ¤ isen
b is
ĠE tsi
ter ia
ine itÃ¤
ka dun
ĠSil ti
Ġlei p
kku a
Ġla ukku
ĠtÃ¤yden n
E UR
Ġku vissa
Ġtoiv oa
o v
ĠEl ina
ti f
Ġsano en
Ġk ustan
elta vaa
ĠtÃ¤s mÃ¤
Ġliitty vÃ¤Ã¤
toim en
ĠY lÃ¤
Ġtal ossa
id y
Ġtek niikka
yyd Ã¤Ã¤n
juus to
re llÃ¤
uun i
Ġl un
nn Ã¶ssÃ¤
F i
ell yt
Ġet usi
ĠMuut en
ĠM yÃ¶
Ġalku perÃ¤is
IS TÃĦ
Ġtarvitse vat
D I
uo te
ĠL ea
Ġasi oissa
rak enta
Ġpaika t
Ġmatka ilu
ki at
Ġt ri
ĠG reen
Ġkahd esta
ĠU udet
IS TÃĸ
kor tit
p ula
R uot
Ġparha illaan
H P
ĠTOIM INTA
C O
Ġkokonais valta
Ka ik
ll isty
ĠP lay
maks un
min ister
UOM EN
Ġper ille
uanta i
sÃ¤h kÃ¶
Ġkrit eer
Ġo lle
st ro
E hkÃ¤
Ġpoh ti
Ġsair aal
Ġken elle
ĠE nn
ĠtyÃ¶ markkin
Ġr enn
kk an
ĠVide o
Ġvaadi taan
Ġsa d
Ġnyky inen
ĠlÃ¤mm itys
di c
Ġvih a
Ġ: ).
tar vikkeet
Ġar va
Ġe il
Ġkor ostaa
ĠpÃ¤Ã¤kaupun kise
ĠM use
ĠW al
Ġoike aa
Ġa asi
tu in
Ġvaal ea
ik etta
Ġvaihto ehd
Ġteknolog ia
us teita
ĠR et
Ġhi ir
ko ot
Vi esti
Ġtut tuja
Ġruo tsin
ĠtÃ¤yde llisesti
Ġmerk itsee
ĠL uk
Ġpuol in
uh e
Ġpala utus
Ġkoke ile
fer en
il yÃ¤
ĠP yhÃ¤
oissa an
Ġtilan teeseen
ĠP C
Ġkier to
ĠM issÃ¤
Ġa av
ĠYle istÃ¤
Ġkon tro
ver si
Ġyhd estÃ¤
Ġmonim uoto
J ES
ĠPuh elin
Ġvara ta
Ġha kee
Ġpalvel uun
Ġarv ot
Ġkasvat taa
Ġ ~
o ilta
Ġkat son
man in
Ġarvioi daan
ĠT ÃĦ
iin ia
siv ut
Ġop iske
ĠpÃ¤Ã¤tÃ¶ksen te
Ġ5 8
Ġtu mman
Ġpuol een
ĠT yttÃ¶
var aa
Ġku vista
Ġlopp uu
ĠS P
ĠPien i
ĠK et
ĠE hd
ĠkÃ¤r ki
ĠA jo
Ġup eita
C opyright
w ork
Ġto isinaan
ho ista
im ien
U ut
Ġpah oin
ĠVa ik
Ġc asino
perÃ¤ inen
ti osta
ĠFacebook issa
ĠvÃ¤l ityksellÃ¤
ĠpysÃ¤kÃ¶ inti
in sa
vÃ¤ ssÃ¤
tuo tta
ĠtehtÃ¤ vÃ¤nÃ¤
ĠE pÃ¤
merk it
Ġvar oit
Ġsaman lainen
F in
P ol
P uol
Ġkir kka
son in
Ã¤Ã¤tÃ¤ lÃ¶
Ġko tisivu
Ġt um
Ġkoske va
ĠOsa llistu
ĠE tu
Ġaik oo
Ġpoh jan
Ġtiedot us
aika inen
EnsimmÃ¤ inen
Ġpo tilas
ettÃ¤ vissÃ¤
E G
ĠlÃ¤mm Ã¶n
Ġvuo sit
ik ip
ĠkÃ¤ynn istÃ¤
kir joja
Ġvi ettÃ¤
johta jana
ĠW a
pp e
Ġos annut
ĠF o
ĠP S
Ġselvi Ã¤Ã¤
Per us
Ġa uta
Ġn en
Ġhel sin
Ġyhteist yÃ¶n
kon eet
ĠO ne
uka lla
kÃ¤ y
il do
c kin
j unta
Ġry hd
Ġsi pul
ĠmyÃ¶ ten
ty minen
ĠPa ul
U A
Ġval on
imÃ¤ ki
Ġen immÃ¤
ĠMin usta
uot teen
ĠtyttÃ¤ ren
k isin
ĠHall itus
Ġpo isto
Ġtoim itetaan
lle kin
Ġlaajen n
UO T
Ġmon essa
san omat
Ġed ustaa
Ġhi ihto
li p
Ġperinte inen
Ġno usta
ĠS arja
Ġal e
os toja
ĠJo ku
Ġkar ta
Ġmonipuol inen
Ġis ki
6 7
okka ita
Ġpain aa
Ġorgas mi
Ġnope us
Ġsaa puu
ĠTul eva
at in
ĠG olf
isto ri
rus kea
ĠjÃ¤r k
ann en
Ġohjel maa
Ġp isto
ĠD o
p ika
ĠkÃ¤d essÃ¤
ĠPer he
g ia
ĠlainsÃ¤Ã¤d Ã¤ntÃ¶
Ġvar ust
ma sin
Ġvalmi ita
Ġmin ulta
tul o
il aat
Ġkol mi
Ġvali taan
Ġmuut oin
ks istÃ¤
Ġkokona isuudessaan
teli mme
ar vos
ĠE rÃ¤
Ġket j
Ġpoli isin
ĠherÃ¤t tÃ¤Ã¤
siir to
Ġyli pÃ¤Ã¤
ĠS O
Ġvoit ta
st rateg
Ġtod ista
Ġmil j
Ġna uti
Ġyhte istÃ¤
Ġx xx
K iva
Ġkustann us
Ġrauh an
ĠV el
Ġvir k
Ġosa ltaan
ĠD ia
Ġnetti kasin
tek niikka
vir aston
ĠlisÃ¤ tty
Ġhevos en
jankohta ista
ket ju
suojel u
ve ja
ut kinto
Ġm akka
Ko mmen
Ġilmes tyy
ĠVa ihto
p isto
Ġhava inn
r t
yÃ¶ hy
g et
koh teet
istun eet
oin t
yhty mÃ¤
tal ia
ollis ia
Ġn oja
ĠC asino
uu li
Ġan tamaan
Ġki vasti
ĠV Ã¤ri
Ġilmais kier
Ġvasta usta
Ġiden titeet
Ġp utki
K uka
Ġteks tit
Ġkyken e
ĠT yy
h l
Ġperjan tai
Ġihmis istÃ¤
e es
Ġaam up
Ġseur assa
Ġna pp
Ġe mÃ¤n
Ġkos meti
e era
ud i
ĠkestÃ¤ vÃ¤n
en in
ĠMa ks
Ġ199 9
Ġkys ely
ĠIn stagra
val mista
Ġluot taa
ĠUlko maat
oid on
us et
\ \
ude lle
Ġh Ã¤r
ĠtÃ¤ mm
et ussa
val koinen
Ġuut isia
Ġre p
Ġs ystee
Ġpal kin
Ġnautti maan
ĠHelsin kiin
ol taan
ĠtyÃ¶ paikka
Ġomista a
Ġerinoma isesti
Ġkoko uksessa
an ut
Ġher ra
ain eet
mÃ¤Ã¤r Ã¤n
ĠB i
Ġr innat
Ġpalja staa
te ks
oo lo
AS TO
et oiminta
Ġmahd otonta
Ġsuosit telen
et ulla
Ġpak kas
oin ut
s se
S aat
Ġtapahtu man
Ġkor vat
Ġusea mmin
ĠJ er
Ġis om
Ġkilpailuk yky
ne y
ki jÃ¤
ĠA mer
ĠJap an
ĠystÃ¤ vÃ¤n
Â ł
ĠTur ussa
Ġvaik kei
ĠelÃ¤in ten
Ġk im
Ġr ikki
uka sti
ĠVan taan
u vat
Ġl Ã¤n
A va
Ġbud jet
Ġyrit yksiÃ¤
Ġtutkim uksessa
M usta
Ġr ulla
il tana
yys in
Ġtaik ina
Ġih olle
vi g
ĠympÃ¤ristÃ¶ ssÃ¤
ĠF ar
h as
Ġkaup asta
Ġver on
Ġluot ettava
Ġilma stonmuut
Ġkirjoit taja
Ġmon ien
Ġed estÃ¤
Ġ[ âĢ¦]
Ġti ukka
Ġte or
Ġtavan oma
yrit ysten
lin ja
i llen
isit ko
Ġnoud atta
Ġain eet
Ġsyksyn Ã¤
ĠH uh
Ġeur olla
Ġuus in
ĠTil asto
Ġmeta ll
Ġmer keissÃ¤
ĠS ol
Ġasu mis
ĠyÃ¶ py
ksi lla
mp Ã¤nÃ¤
vi ikon
Ġs om
uoh jel
ĠKuopi on
Ġteke miseen
Ġmiet tinyt
utu va
istu in
ĠelÃ¤mÃ¤n i
Ġorganisaa tion
ĠvÃ¤r ejÃ¤
ok kaa
UO L
it oista
ryh mien
Ġren kaat
Ġmoti vaa
ĠMar tti
Ġlaita n
ĠyÃ¶ llÃ¤
J ÃĦ
ÃĸYTÃĦ KIRJA
Ġtalo usar
h im
ih enkilÃ¶
yn Ã¤
ĠD r
Ġpor ta
Ġkasv ot
ĠR anska
las it
Ġtil ille
Ġp r
ik os
ĠkÃ¤sit telee
op pa
ih uone
ĠpÃ¤Ã¤ttÃ¤ nyt
Ġlapse lle
ĠPa ika
k ilÃ¤
ti aa
Ġkommen tit
jo ukko
m essu
Ġjulk inen
Ġopetta jan
fr ikka
Ġkyl pyhuone
ta mista
tava ksi
Ġva illa
er ot
ĠLa ki
Ġosaa minen
T or
Ġpal jasta
Ġlopputul os
Ġtun tua
Ġti ivi
m usiikki
al ia
Ġkann usta
ran ssi
uu tio
ok an
ha kem
var at
Ġkiinte istÃ¶n
ĠLuo nnon
Ġkahd essa
ĠpÃ¤ivÃ¤ Ã¤n
kirja sto
hte eri
Ġotta matta
ker tomus
Ġmiljar dia
Ġluv un
Ġm usti
teg oria
P P
Y N
Ġta san
ĠÃ¤Ã¤n een
ĠlÃ¤Ã¤ ketiet
Ġo ri
oin een
re ja
ĠEr kki
ĠOhjel ma
al taan
ĠM UU
Ġkeske lle
Ġstrateg ia
Ġasian tunte
ĠT im
Ġn ivel
ĠN A
kokem uksen
er y
eid i
Ġvuok rat
Ġpien emp
Ġtil oissa
ko hde
el mat
tta va
v enn
utki ja
as un
ist etty
ik unta
Ġet e
ĠJ oo
SÃ¤hkÃ¶postiosoit ettasi
ĠP rin
ise mpaa
Ġ8 5
Ġkor t
ĠSe ura
ĠRak enn
g issa
ET US
st uu
T un
Ġra di
Ġovat kin
HÃ¤ meen
ĠhyvÃ¤ stÃ¤
Ġala lla
elÃ¤ mÃ¤Ã¤
Ġmu ina
up an
âĢ Ķ
vi ce
ĠLon to
ĠKa h
? âĢĿ
Ġto maat
Ġede llinen
Ġha j
Ġsuo dat
ĠkansainvÃ¤l isen
stit uut
Ġharras tus
tila isuus
Ġp oja
ĠnÃ¤kÃ¶kul ma
Ta pahtu
s isi
Ġtap ana
Ġkiinte Ã¤
ĠB an
ĠPaa vo
uk ir
r s
Ġkuo pio
Ġseuraa vasti
Ġmuo kkaa
Ġnyky istÃ¤
t issÃ¤
ĠystÃ¤ vÃ¤t
ra an
Ġosaa mis
otta minen
Ġed un
Ġter Ã¤s
Ġpit kiÃ¤
Ġerity istÃ¤
ĠL Ã¤Ã¤
Ġ6 9
ip u
usa ika
Ġole vista
Ġpar emman
Ġvaka vasti
Ġ19 80
Ġlopp up
Ġki ehto
Ġmen o
Ġ18 00
Ġsijaitse vat
op Ã¤
ĠHar ri
paika lle
Oh jel
k isen
Ġoloh uone
Ġaloit us
ĠvielÃ¤ kÃ¤Ã¤n
kun ut
ĠP es
g ur
ĠR isto
ĠsÃ¤il ytys
Ġmen estys
B ritann
aa tte
ĠRuot si
Ġyhdist ys
log ia
S am
Ġensisija isesti
uo tta
TE EN
kit tiin
Ġ5 9
Ġomp el
te isesti
N I
Ġkeskus teluun
Ã¤Ã¤nn Ã¶t
ta ri
ĠnÃ¤yt Ã¶n
uu delle
ĠlÃ¶ ytÃ¶
Ġkeskus tella
kkÃ¤ in
ĠðŁĺ Ģ
Ġoppi i
ĠmyÃ¶n tÃ¤
Ġne ule
ĠTa usta
ust ul
r ut
Ġlas kut
Ġtun tuvat
Ġri itti
ĠKiin n
m itÃ¤
P ir
8 9
ĠpÃ¤Ã¤ dy
Ġval vo
Ġtuota nnon
in toa
Ġpuhel imen
Ġsija sta
ĠMa x
Ġla itetaan
ĠpÃ¤Ã¤si Ã¤
se lle
Ġlaske taan
aal isesti
ta kki
Ġlait teet
ui mme
Ġj utun
Ġj yvÃ¤skylÃ¤
ĠS us
Ġp lan
ĠhÃ¤ iriÃ¶
Ġm una
Ġmuo ti
ula inen
ĠvÃ¤ ittÃ¤Ã¤
K KI
Ġvaku ut
ot tua
met sÃ¤
Ġmin im
Ġa ito
ĠvÃ¤h itellen
Ġtava llinen
tel tiin
h yvÃ¤
Ġnim et
Ġpala uttaa
ĠNÃ¤ istÃ¤
ĠKe vÃ¤t
TÃĸ S
Ġkoul utta
ak kaan
Ġma tema
Ġkorja ta
Ġmuod ostaa
Ġko me
aal iin
Ġre una
per h
Ġra kast
ĠK uus
Ġt ue
1 01
tek niikan
Ã¤ iti
ĠC ol
Ġtap oja
Ġeh tii
IK E
Ġval menta
Ã¶ lle
Ġla data
Ġsiir tyÃ¤
va h
yty minen
inÃ¤ ky
Ġopet uksen
Ġkilpa ilun
ĠR u
Ġka kso
ĠO t
ĠW ill
Ġmieh elle
ĠJot kut
Ġmuka van
yt tyÃ¤
Ġvaih telee
Y l
E sit
Ġtuo m
S il
le an
Ġma kuun
Ġits essÃ¤Ã¤n
ip i
to la
ĠK iva
Ġsanon ut
Ġvar attu
Ġaut oa
Ġ% .
Ġa ion
ĠĠĠĠĠĠĠĠ ĠĠĠĠ
kk is
Ġ uk
Ġpala ute
ĠYhdys vallat
Ġopp inut
ll yn
ĠIh miset
Ġb ar
ĠnÃ¤l kÃ¤
ti ikan
Ġpakka us
ĠkÃ¤ytÃ¤nn Ã¶
ĠkerÃ¤ tÃ¤
w eb
Ġp oim
Ġli p
Ġseur us
oike udet
Karja lan
ĠJava S
Ġmen in
ĠpitkÃ¤ lti
Ġjoul ulah
ĠVe sa
TÃ¤ tÃ¤
Ġhuu li
ĠT on
Ġtar kastus
ra hoit
Ġtava ta
Ġko os
ĠtehtÃ¤ vÃ¤n
Ġkeske inen
Ġkerr oin
Ġn ussi
k itta
c ker
Ġp istÃ¤Ã¤
ĠhenkilÃ¶ kunta
it usta
Ã¤r e
Ġvide os
ĠL es
il Ã¤n
ĠkÃ¤yn tiin
ĠN HL
Ġtait oja
vuotia an
Keskus telu
Ġhi ih
AL O
Ġmi tat
Ġpan o
koi ra
Ġpel asta
Ġku mm
ĠS anna
Met sÃ¤
ĠJÃ¤r ven
uut iset
Ġrakka utta
re ista
Ġpal uu
ttuu r
t isten
ĠjÃ¤sen ten
B o
Ġulkon Ã¤kÃ¶
ĠV ara
ĠpÃ¤Ã¤ oma
v ollisuus
ĠEn tÃ¤
E MA
Ġpa haa
Ġol iko
Ġha mpa
Ġa io
Ġn yr
ka rit
is tia
Ġas te
Vi de
luv ulta
Ġva un
Ġ5 6
ĠP lus
Ġva uri
yttÃ¤ mÃ¤Ã¤n
ĠkehittÃ¤ misen
! âĢĿ
er r
ittÃ¤ jÃ¤
" -
h Ã¤Ã¤n
Ã¤l tÃ¤Ã¤
Ġmyy mÃ¤
Ġki il
ĠPer in
Ġinves toin
je taan
Ġr uud
Ġme ik
Ġt uun
me isesti
ryh mÃ¤t
ĠT IL
ĠâĢ Ļ
kan gas
vaar an
kaupun gin
K US
H AN
ku mo
ĠpÃ¤Ã¤t tyi
Ġde itti
Ġsuosit ella
Ġka don
m maa
lo ja
Ġkasvat us
ĠF C
ĠFinn ish
kÃ¶ hÃ¤n
tunn us
Ġalu eilla
up u
i pa
ĠVer ta
ot toa
Ġsella iset
ĠkÃ¤sit tÃ¤Ã¤
Ġneli Ã¶
h assa
Ġhen keÃ¤
ĠP AR
Ġsin usta
Ġka iva
S al
Ġsat tui
ie mmin
ĠMa d
Ġliitty Ã¤
Ġle hdet
ĠykkÃ¶ s
A d
Ġaik oja
m ppu
Ġprosen tin
A ihe
Ġluu l
kko a
Ġke ikka
ĠLain at
il tiin
z in
Ġda ta
Ġ itali
Ġkaup assa
Ġtod ettu
E C
Ġka ta
ĠH ann
Ġhe vonen
Ġo ire
al usta
ĠperÃ¤ isin
Ġnim eltÃ¤
Ġso tilas
Ġhar dcore
Ġk Ã¤Ã¤
ĠSe ks
Ġmiel ellÃ¤ni
Ġpalvel e
ke d
Ġun elma
ot ettu
Ġha etaan
Ġma htu
Ġved on
Ġsa masta
Ġluo pu
kaa ppi
ĠVaa sa
Ġluonn ollinen
Ġsuunnit tele
Ġuude lle
ĠLÃ¤ hde
ĠyllÃ¤ ty
ma us
Ġpide mpÃ¤Ã¤n
ĠpÃ¤ ih
ĠMa c
Ġkr isti
Y hdys
ikir ja
Ġpresiden tin
Ġsuunnit ella
ĠYle inen
ĠS ari
ka p
ĠE ilen
Ġf et
Ġkaune us
P oli
ar y
LL YS
Ġku ussa
ĠnÃ¤kÃ¶ jÃ¤Ã¤n
Ġpid etty
uutar ha
ĠA ihe
j ossa
Ġarvo inen
Ġpro fi
Ġpel issÃ¤
mp in
ĠSan d
ĠYhdys val
ĠB ig
Ġle veÃ¤
poh jan
T Ã¤hÃ¤n
ĠH eidÃ¤n
Ġ19 70
ka ksi
Ġoma koti
sta i
Ġet Ã¤
ĠYrit tÃ¤
verk osto
Ġseka isin
Ġkymmen iÃ¤
Ġn Ã¶
Ġse kun
tÃ¤ vÃ¤Ã¤
b it
Ġed ist
ĠT UT
Ġtietokon een
ol on
se ura
ans kassa
x y
ĠPako lliset
Ġperus tuvat
ĠB el
t uki
tek ni
; )
ĠKor kea
istel ee
Ġesit yksen
ĠKeskus telu
ker ran
us h
3 00
Ġihme essÃ¤
Ã¤Ã¤kÃ¤ ri
Ġer it
m uuden
Ġarm ei
Y ks
ĠB et
ĠAs unto
Ġsijaitse va
el yn
ĠO K
d ing
ikan sa
Seuraa va
val tio
taa lla
Ġhall innon
Ã¤Ã¤nn Ã¶
ĠLi isa
Ġvi isa
M uka
Ġka toa
re itÃ¤
Ġkoste us
iste ja
Ġseuraa maan
Ġvira llinen
ĠPa si
Ġkoi rat
v yyd
Ġkasv is
Ġoh u
ko ituksen
mÃ¤Ã¤r Ã¤t
Ġvarha iskasvat
ĠE ihÃ¤n
hd ollisuus
8 6
Ġtoim ivan
r d
P alvel
Ġk enki
Ġo te
Ġkohd assa
palvel uja
Ġr oma
Ġtilan teesta
Ġjatkossa kin
kku us
Ġk re
Ġerila isiin
de mok
Ġo tan
Ġsuosi k
Na isten
Ġo mist
ĠjÃ¤rjest ettiin
ĠG r
Ġtapah tua
d assa
ĠyrittÃ¤ nyt
v ira
u uksista
to mat
Kir joita
Ġ5 2
ĠvÃ¤r in
Ġmen oa
Ġmuodosta vat
vÃ¤ h
Ġpa llo
Ġmieh ille
Ġila hd
Ġtut ust
Ġesit telee
Ġma ito
Ġtunn usta
Ġc um
Ġoppi misen
ĠS inÃ¤
ĠhyvÃ¤ks ytty
ĠH or
ĠS tr
Ġpa he
Ġtamm ikuussa
Ġpu itte
Ġkauni isti
Ġyhdist y
Ġpel kÃ¤
ui ja
po li
hoit oa
oste d
ĠT ER
Ġet el
p ista
ĠB ritann
to ria
ĠN ie
Ġkuu li
N i
ĠV erk
ĠL oma
Ġkiinn itys
Ġkoske van
P ala
il mi
Ġtoi mis
Ġg raaf
ĠP ower
Ġpi zz
uks in
ĠR AK
ehto ri
ĠJohd anto
D A
c ta
Ġ5 7
ĠvÃ¤l in
ĠJoens uu
Ġjo hti
s or
voi de
io ksi
u inen
Ġasunto laina
ĠepÃ¤ sel
Mi eh
Ġvahing ossa
Ã¶lj yÃ¤
Ġkuva sta
ĠyllÃ¤ttÃ¤ en
Ġpel kkÃ¤Ã¤
n eiden
h enk
Ġ9 5
ĠK IR
E d
Olet ko
sa ta
yksikÃ¶ n
ĠElo kuva
vuoti aa
K KA
Ġsaman a
» ¿
d yn
ĠJ un
ï »¿
van he
Ġunoh taa
ek sÃ¤
tte ihin
TA R
ĠTy kkÃ¤Ã¤n
ĠnÃ¤h tiin
oit iin
las h
Ġsal asana
ĠTuo mas
Ġkanssa an
N imi
Ġko tia
k ikÃ¤
maal i
Ġet uja
Min un
ti kka
Ġkohd istu
ĠkÃ¤s ittÃ¤
r yt
c ha
muse o
he im
oim en
mar ket
Ġh it
Ġrakenn uksen
Ġb ig
Ġp uto
ĠPala ute
Ġmahdollis ia
ĠO saa
ĠpÃ¤Ã¤ tte
ĠR y
Ġyhte isen
uks elta
kiel en
Ġli pp
Ġjulk ista
K al
Ġkysym ykseen
ki taan
A nn
U r
Ġhah mo
ĠP ros
U E
ok ona
ĠT as
Ġvasta kka
Ġvaik uta
" ]
Ġseksit reffit
H o
Ġlah jaksi
Ġn u
ĠP all
Ġjut ut
teli vat
yksen Ã¤
Ġsa isin
ĠjÃ¤ ivÃ¤t
Ġor ganis
Ġkeskus telun
m ukset
Ġs et
Ġma it
ka rin
ĠpÃ¤iv it
Ġpelaa jat
yn ti
Ġodote taan
ĠkÃ¤yt ettiin
Ġmilla isia
p isteet
Ġmuse o
Ġmuut ti
to it
ĠMa ija
p ussi
ĠpitkÃ¤ llÃ¤
ilmoit us
le k
Ġentis estÃ¤Ã¤n
ĠK AN
F or
Ġtapahtu mista
ĠkÃ¤yt in
lan ti
Ġta kki
ĠkÃ¤ynn isty
Ġall erg
Ġkuts ua
ĠS ara
Ġtu be
Ġva t
alu eilla
ĠT uotteet
a uton
ma te
Ġterve ysa
juttu ja
ik oita
Ġviih de
Ġjatku i
Ġonnet tom
Ġval ossa
Ġohjel mat
op o
ĠpÃ¤Ã¤ sÃ¤Ã¤ntÃ¶isesti
ĠE ero
Ġturva llisuuden
ĠS yÃ¶
yh mÃ¤t
Ġka mppa
Ġpo tilaan
m usi
Ġ1 10
Ġdolla ria
te illÃ¤
ĠO sta
mo inen
etta via
pid on
ĠriittÃ¤ vÃ¤
Ġmootto ri
ke taan
Ġl oi
Ġjaksan ut
Ġpal kkaa
Ġnuor iso
jÃ¶ istÃ¤
Ġ0 50
ĠkÃ¤y vÃ¤t
ĠF i
t utkim
Ġen ne
ĠSa i
it ojen
ĠyhtÃ¤ kkiÃ¤
KS EN
Ġvar as
I O
Ġar kea
Ġeroot tinen
Ġpal at
Ġkeskim Ã¤Ã¤rÃ¤
Ġkun kin
vi an
usa lan
Ġmin isteri
v oa
ĠD oc
su ja
Ġr Ã¤Ã¤tÃ¤lÃ¶
ĠtÃ¤rkein tÃ¤
ĠtÃ¤lla isen
UNN AN
Ġnoud attaa
ĠSe ksit
ĠP ill
Ġper ustus
Ġtoisen sa
ĠtietÃ¤ vÃ¤t
os et
Ġmaailman laaju
Ġto istu
ma llit
ĠvÃ¤ estÃ¶n
Ġar keen
ta miseen
sti in
e ur
ĠhÃ¤ mmen
Ġol y
Ġeri llis
ĠH yÃ¶
h asta
Ġe et
Ġkil oa
ĠVuo k
r il
k uuden
ukse mme
Ġm ustaa
ti ja
Ġinh imi
n or
U se
apor tti
im esta
sa lo
s yys
ĠKir kko
ĠI C
teli jat
Ġl et
Ġoike esti
Ġmahta vaa
ĠA las
2 000
Ġkat tava
ĠT Ã¶
Ġvi estejÃ¤
n ap
ĠS it
ollis et
Ġsis ko
Ġmuod ostu
ĠS UO
Ġshop pa
P ALVEL
ĠSuosit telen
Ġta tuo
ĠI lo
z er
ohjaa ja
ĠS atu
ut ensa
ĠSISÃĦ L
K ann
ĠS y
assa an
st ru
ĠRekister Ã¶
ĠS yys
ĠiP hone
Ġhote llit
Ġpain on
ĠKAUPUN KI
unta r
ty mÃ¤
ĠtyÃ¶nteki jÃ¤n
ĠD I
ĠIhan aa
Ġt utta
ĠT uul
isi en
Ġn osti
m iksi
Ġkoh teena
ĠK anta
Ġ6 4
lla lla
s seja
Ġlyhy esti
Ġkoko inen
IT O
Ġtied us
Ġes pan
Ġlu en
ks ista
ĠyÃ¶n Ã¤
Ġsovell us
ĠB rys
issa kin
ĠtÃ¤lla isia
ĠUs ko
Ġmiel e
Ġteks tiin
op ettaja
hta nut
Ġparan e
va us
tin sa
Ġke ksiÃ¤
ta paa
Ġenn a
ĠpÃ¤Ã¤t tynyt
Ġp uo
ĠkÃ¤te vÃ¤sti
Ġopp ilas
Ġle ivin
Ġvoima kas
h oja
ch en
Ġammattikorkea koulu
tin ut
Ġta ikin
Ġliik keen
okka at
s kin
Ġkor tin
Ġkelta inen
Ġod otan
S iinÃ¤
Ġsel viÃ¤
yle is
Ġar vel
Ġtyh jen
Ġ: -
Ġm oit
re me
Ġmus l
Ġleikka us
ll ik
yttÃ¤ nyt
Ġma ista
ĠKir jan
kan ta
all in
tied on
Ġno uda
Ġlei pÃ¤
otto man
Ġsair asta
ĠY hd
Ġpol y
s opim
Ġpare mpia
Ġruu an
Ġetsi mÃ¤Ã¤n
Ġt reff
ĠlÃ¤h etti
ĠPor in
Ġkunn ian
Ġet enee
la ite
ip lo
Ġin ti
ĠTe ksti
Ġkyl py
? :
Ġinn olla
Ġsis kon
O soit
te iset
ino jen
up in
al at
o to
Ġmuut tui
Ġjuh ann
yhtiÃ¶ iden
Ġku kat
Ġasen taa
Ġetsi vÃ¤t
ĠM usiikki
Ġpositiiv inen
P e
Ġkes Ã¤Ã¤
Ġajat ukset
Ġsaa tava
og ra
u ille
Ġkirja llisuus
ĠL ento
Ġsiir tyi
vaatim ukset
Ġehd in
ĠLÃ¤h tÃ¶
ĠRi ih
Ġkul un
ĠT UR
C H
ke at
le ja
Ġtamm i
ĠLuo nto
Ġo sti
Ġaktiiv inen
okka asti
kys ely
Ġsy ven
tan sa
jÃ¤rjestel mien
Ġp ussi
Ġkein oja
ikk ur
vuo kra
aa tin
Ġmin i
ĠM anner
llis yyden
uk ot
Ġpo istu
Ġc a
ll ot
ĠL ip
tar koit
ĠB B
vi on
haa ste
Ġrakasta n
si joit
Ġs ha
pÃ¶ ydÃ¤
Ġhelpo mmin
Ġoike utta
ut ot
ĠH eng
Ġmakuu huone
Ġhe ittÃ¤
Ġh ip
Ġvuo sisa
ana an
L op
Ġpel asi
ila isen
Ġtutkim usta
ĠKÃĦ YTTÃĸ
p ari
Ġseuraa via
Ġ? ?
Ġko tisiv
Ġmain io
Ġw c
Ġhy lly
Ġtyyl ikÃ¤s
Ġasiak kaalle
Ġtuke vat
ĠpÃ¤ivÃ¤ stÃ¤
Ġkaiken laista
ĠNyky Ã¤Ã¤n
Ġc an
Ġka in
ĠLÃ¤h i
Ġkaupung ista
ĠS ve
in eita
ĠJo ulu
n iset
es sit
in etta
Ġmarras kuu
unn at
d ar
Ġkoul uun
ĠKe mi
Ġvet een
ĠKon ser
Ġ9 9
ki vi
ti ksi
val tion
ĠpÃ¶ ydÃ¤n
kut en
Ġteki vÃ¤t
ĠKan san
hd essa
kinn ot
vet in
200 4
Ġh opea
pp oa
kokem usta
mahdollis uuksia
jÃ¤rjestel mÃ¤Ã¤
ell on
ĠjÃ¤Ã¤ hd
Ġkat taa
K Ãĸ
!! !!
Ġaika taulu
S IT
til asta
Ġarvos telu
Ġha ja
Ġes t
m ik
ĠR anskan
ĠJ yr
ĠnÃ¤ ppÃ¤
Ġosall istuu
cor ts
ĠehkÃ¤ ise
Ġyhd istel
Ġmain itse
Ġjo utuvat
om uksen
Â «
Ġpak etin
Yrit ys
J Ã¤Ã¤
Ġaika isin
ĠystÃ¤ vien
N etti
llis uudesta
Ġoma lta
ka ita
vit eet
mpp iÃ¤
Ġtila an
Ġvalmis tui
ĠT el
ta miin
Ġli uk
uu rin
v ilta
Ġp imeÃ¤
Ġtunte a
Ġkiel ellÃ¤
Ġpalvel ee
Ġrajoit taa
ĠH ui
id assa
Ġti esi
ĠÃĸ lj
ĠJ uma
P i
Ġvar mis
Ġw ork
ud it
Ġasu kas
ikk oihin
utta malla
ĠS im
Ġkir kas
as unto
tuo te
ĠI sÃ¤
Ġpaikka kunn
as enn
ĠN im
Ġs per
Ġkah vin
Ġajate llen
Ġvel vollis
ka ppal
K EL
5 00
y dellinen
Ġhaastat telu
ymmen tÃ¤
ul ot
n b
ĠhyÃ¶ kkÃ¤Ã¤
ĠF IN
ollis esti
Ġke it
ĠP O
ĠP r
Ġmateri aalit
vaa ti
Ġjohta va
Ġp on
Ġliitty vistÃ¤
is yyteen
e c
Ġvas tuun
YKS EN
ĠOn han
Ġrohke asti
ra joit
ĠKr isti
Ġsosiaal inen
od y
te ollisuus
Ġpalvelu ihin
Ġhote lleja
Ġsa taa
k elta
ĠS ha
ĠkevÃ¤ Ã¤nÃ¤
Ġkerro ks
C a
Ġtur vat
O r
Ġikkun assa
ĠS he
Ã¤ ssÃ¤
T ap
Ġmerk kejÃ¤
I lta
ĠH ur
en taa
ĠYhte ystiedot
Ġkein oin
ĠE lin
ĠVaa san
Ġpe il
Ġko uk
Ġvarsina inen
Ġki pu
Ġyhteis Ã¶n
Ġp lus
Ġken enkÃ¤Ã¤n
Ġjohta minen
Ġkeskusta sta
OP IM
Ġeloku ussa
EU V
Ġt ran
ti li
Ġvalo kuvaa
Ġo ud
la illa
b ile
B A
mÃ¤ttÃ¶ miÃ¤
Ġb lack
Ġr uut
ik Ã¶s
Ġain es
ĠAnn i
ĠtÃ¤mÃ¤ kin
o men
voit us
ku utta
Ġpysy vÃ¤t
Ġar t
ud uin
Ġkaver in
ki inn
ettÃ¤ vÃ¤Ã¤
Ġtarkoit ukseen
enki into
Ġkeh itetty
Ġr innalla
ĠN imi
ĠP yÃ¶
re ihin
Ġvas toin
ĠSaksa ssa
ĠtyÃ¶sken telee
ĠisÃ¤n tÃ¤
Ġvalko ista
ĠlÃ¤het etty
Ġuun issa
Ġvastu ussa
Ġalkoh ol
ikko a
Ġ199 8
po jen
ĠPuna inen
ĠAle x
ĠYhti Ã¶n
Ġu mp
Ġajat tele
Ġma llit
it okset
ty mÃ¤Ã¤n
it sin
Ġpiil ota
ĠVal okuva
oni c
w e
Ġtoimi joiden
bl etti
puol en
Ġteke misen
Ġmon issa
kir jaa
T utustu
otta ja
d or
sar jassa
ĠIl kka
Ġse hÃ¤n
ĠC lub
oni ikka
eri Ã¤
ĠT ri
Ġna ura
ĠkÃ¤yn ti
ĠvÃ¤l iaika
Ġalu etta
ĠylipÃ¤Ã¤ tÃ¤Ã¤n
ohjel maan
Ġkuk in
ko od
ni o
ĠP entti
Ġh inn
ĠLiik unta
Ġmieh eni
is ikin
b urg
ĠAjat telin
palvelu ita
Ġke uh
k uudet
Ġtavoit teita
ĠpÃ¤iv iÃ¤
Ġsek oita
iko jen
M O
ĠtyÃ¶nteki jÃ¤t
kul ma
Ġkul unut
Ġ18 0
bo ut
ĠA v
ĠjÃ¤rjest etty
tur b
ĠKeh itys
Ġharras taa
Ġvi ita
Ġg olf
te estÃ¤
kusta n
ĠmerkittÃ¤ viÃ¤
ĠrÃ¤ jÃ¤
ĠKÃ¤yttÃ¶ ehdot
Ġt umma
us kin
ĠelÃ¤ m
h ak
ĠR uus
ĠjÃ¤Ã¤n eet
Ġj uma
Ġhaas teet
Ġh Ã¶l
Ġs umma
Ġpien ten
O nn
vir he
isk unnan
Ġkoi rien
Ġol ka
Ġkaupun kiin
ĠhyvÃ¤ Ã¤n
Ġki usaa
Ġkoko elma
el mia
Ġkir j
Ġkaik keen
Ġhid as
Ġpalvel uista
Li isa
ista ni
ĠW in
ĠLin kit
ĠmetsÃ¤ stÃ¤
âĨ ³
t tua
a ihe
ell in
Ġelin keino
ĠW orld
Ġb akte
roks ella
outu be
Ġpuoli vÃ¤l
Ġlu ettel
ĠTa sa
Ã¤t tÃ¤
Ġteh osta
Ġfl un
IS SA
tu g
joukku een
pp ari
ĠkÃ¤vel e
Ġs ter
ĠÃ ħ
ĠR at
pros essin
Ġd ra
Ġpo ikki
Ġsopiv ia
iv en
ĠkÃ¤yt ti
os Ã¤Ã¤
lu bi
ĠHalu an
Ġyleis Ã¶n
ĠlÃ¤h eltÃ¤
ann in
elÃ¤ inen
Ġla ta
Ġko on
ĠMar ko
ka taan
ĠKa llio
ĠSÃ¤hkÃ¶ posti
Ã¤Ã¤n i
Ġkier ros
Ġhoid ossa
8 4
Ġ Ð
Ġtavoit teiden
Ġkol meen
Ġo v
Ġ istuu
N E
ta lli
kasta ja
ĠnÃ¤ky i
Ġmaail masta
ĠTan ssi
Ġis oa
Ġkys yn
ĠV et
Ġte ori
ale ja
Ġ- >
ko issa
AM K
Ġkirja utua
Ġsuj ui
g een
Ġtiet een
ĠM itta
ĠP ori
ĠD VD
kku ja
Si is
hol m
Ġki ittÃ¤Ã¤
Ġsitten kin
Ġvarmaan kin
Ġhetk essÃ¤
Ã¤l uo
Ġle ve
Ġnope aa
Ġhalua mme
Ġb ei
ĠY ork
Ġuutis kirje
Ġyksil Ã¶n
Ġkansa laisten
A pp
de x
Ġmuut tuvat
Ġhan kal
Ġnimen sÃ¤
tsi kko
Ġhet kiÃ¤
ĠkÃ¤ rÃ¤
t uotteet
ĠpÃ¤iv itetty
Ġtut kinnon
Ġiso mpi
AL I
Y hdist
ĠjÃ¤sen tÃ¤
Ġkuo ri
markkin at
ĠhenkilÃ¶ iden
S Ã¤
F C
ĠyllÃ¤pit Ã¤Ã¤
8 7
sia an
a jo
Ġtarjo taan
ka tee
vuo ri
ĠLop ulta
tapahtu ma
ĠM I
Ġki eh
na tional
las ku
ĠP oika
ĠmÃ¶ kki
Ġus kal
ĠpÃ¤Ã¤tte eksi
uk or
Ġ5 1
ĠT r
Ġmu istiin
ten kin
Ġkuvat tu
Ġpol tto
Ġjulk isesti
Ġnous u
ĠPalvel ut
ĠE vÃ¤
ok kaan
ĠensimmÃ¤ isellÃ¤
ĠG ran
Ġp intaan
Ġveh nÃ¤
ol assa
ĠP os
ki lla
suo sit
all eri
Ġark isto
Ġav ust
Ġmuut tua
ĠTee mu
Ġuusi lle
op iste
Ġkeski viikko
ĠE D
ĠA c
Ġaihe utti
yhte ist
ol Ã¤
Ġmieli pide
ĠJa ana
ĠM ul
Ġme inaa
ĠS U
ettÃ¤ essÃ¤
kar tta
ĠB u
ĠAn der
ĠMar tin
ra y
mÃ¤ttÃ¶ mÃ¤n
joa mme
yhteis Ã¶n
Ġ/ /
ĠalkuperÃ¤ inen
Ġva lais
Ġ7 00
ĠA li
V ER
ĠRa ja
Ġt rans
Ġosta maan
Ġkyl Ã¤n
Ġta at
ĠvÃ¤h enn
so dan
Ġte ollisuuden
S IN
Ġirtis ano
Ã¤Ã¤nn Ã¶s
p uole
Ġliik unnan
otta matta
an der
Ġstand ard
Ġherk kuja
Ġmatkus taa
Ġaam ia
r n
Ġjulkais tiin
toa uto
Ġa u
M EN
b en
Ġ5 4
j es
Ġilmes tyi
Ġto hto
ĠO L
Ġa g
Ġvar talo
En si
ta mis
ĠN oin
ĠL um
ĠnÃ¤yttÃ¤ isi
kka ri
ĠH E
t tis
Ġk ella
Ġte oksen
Ġmahdollis en
lann in
Ġpalja s
On neksi
Ġtal teen
koul ussa
ho te
ES SA
kir jojen
ĠW il
Ġsi el
Ġsis ust
ĠK Ã¤Ã¤n
un an
Ġravinto l
Ġongel man
Ġbio log
ĠkÃ¤yt y
B B
Ġja ettu
Ġpuol is
Ġitse Ã¤
ki eli
ker tom
Ġlin k
ĠK ulta
ĠJ Ã¤rjestÃ¤
Ġm iin
kos en
Ġtarkas tella
r yn
ĠlÃ¤het etÃ¤Ã¤n
Ġyr itÃ¤
ĠT ote
Ġsuunnit telun
Ġgl uteen
Ã ł
re ak
Ġtunnel maa
J K
ĠOs uus
Ġar tik
Ġker tonut
Ġteki jÃ¶itÃ¤
ĠkÃ¤Ã¤n tÃ¤Ã¤
Ġtur haa
ĠlÃ¶y si
Ġluo m
ĠT U
Ġo sia
val mi
ĠpÃ¤iv itys
ĠV R
Ġso velle
y de
AT TI
Ġtaite ilija
w i
Ġpien emm
Ġte ollis
ty neen
m yyden
Ġkirja ston
Ġarvi o
ĠTo della
Ġsuo laa
Ġot ettava
ĠAr t
Ġe van
ja kul
Ġyksityis kohta
Ġkonta k
Ġky ps
Ġedusta ja
Ġol eskel
g yp
ĠJo pa
Ġv Ã¤Ã¤n
Ġy our
a ksi
Ġp onn
Ġmaail malla
ĠNÃ¤ yt
p g
Ġle viÃ¤
Ġteke mÃ¤ssÃ¤
ĠLi ite
Ġtuota nn
Ġrakenta misen
ENN US
Ġtila uksen
Ã ³
Ġv ia
Ġn osto
ĠlÃ¤mmin tÃ¤
ĠlÃ¤htÃ¶ kohta
oim intaan
ĠTer veyden
p aat
Ġperus taa
Ġinn osta
Ġo milla
Ġmaal ia
ĠlÃ¤mpÃ¶ Ã¤
ih aa
Ġtoukoku ussa
Ġtul oksena
Ġpi is
Ġalun perin
Ġo vi
E E
Ġilmen ee
Ã Ń
v itse
Ġratkais ut
Ġjalka pallo
valtu usto
Ġvaike uksia
Ġpro fiil
I so
ĠMole mmat
UN TO
Ġsulj ettu
ĠSISÃĦL TÃĸ
at t
ĠJ Ã¤rjestel
Ġjulkais u
P et
ĠpÃ¤Ã¤tÃ¶ ksiÃ¤
AS SA
n uor
ĠT ea
ĠEr iko
ver sio
ĠNuor ten
val mentaja
V IN
Ġpoik ien
Ġkur ssin
Ġmaini osti
lli on
ho us
Ġsa teen
Ġol ut
llis elle
Ġmuu lla
ĠK angas
la iseen
mp el
Ġvara us
Ġkoko uksen
up Ã¤Ã¤
V AR
oma inen
Ġoir eita
Ġnap sa
ĠW e
Ġaja sta
Ġvaih televat
k konen
Ġo ika
Ġmen tiin
ĠsÃ¤il yy
Ġalue elta
c ho
ĠH ak
ĠkÃ¤yttÃ¤ jien
yÃ¶nteki jÃ¤
ĠJ otta
Ġte mpp
ĠB erg
at ut
Ã¶n tÃ¤
ja inti
Ġop innÃ¤ytet
Ġhuol en
Ġpar kki
Ġra jan
vuo tta
6 2
Ġm ek
ĠkÃ¤te vÃ¤
ĠN aa
l Ã¤t
Ġsuunnit ellut
Ġraken netaan
ĠElÃ¤ mÃ¤
ita lo
ĠnÃ¤k ynyt
M an
ĠJ ÃĦ
Ġtai vaan
Ġhy p
S U
Ġp inn
M W
Ġliik kuu
ĠtyÃ¶sken tele
Ġta ppa
Ġviikonlo ppua
Ġseuraa vaan
ĠÃ¤ kkiÃ¤
ĠUn iver
ĠIsra elin
Tur va
Ġmieleen i
sa ira
Ġter vetuloa
Ġet Ã¤is
mm itys
Ġdia gn
Ġkokem uksen
Ġpuitte issa
ĠlisÃ¤Ã¤ minen
Ġh una
Ġk eng
am b
ressi iv
Ġyliop istossa
Maa ilman
ĠlÃ¤hd in
Ġv enÃ¤
Ġker toja
Ġp yhÃ¤
P ÃĦÃĦ
Ġk ivi
Ġtila isuus
in tia
ĠkesÃ¤ kuu
l uu
N el
Ġvoim in
e eseen
Ġre ilun
kasta n
Ġmuistaa kseni
uk ke
Ġka ma
Ġma x
Ġval itsi
Ġsel visi
Ġtuolla inen
ĠlÃ¶yty Ã¤
Ġta ikka
ĠN u
Ġvan ilja
ĠM ak
Ġti ellÃ¤
ut kin
Ġkyse inen
ĠSin ne
Ġkeskitty y
Ġnim eltÃ¤Ã¤n
Ġesi ko
Ġhe mm
a ikana
i al
Ġmil joona
Ġasiakas palvelu
isyyd essÃ¤
k ele
Ġvaka va
Ã¤ stÃ¤
Ġselvi yty
Ġer ottaa
Ġtuon ne
te is
ar ch
im Ã¤Ã¤n
Ġmieli piteitÃ¤
Ġo vet
van en
h istoria
Ġse minaari
ĠApp le
Si ir
asi akka
Ġtava rat
ll ossa
iko ul
ĠMiel estÃ¤ni
Ġmu mmo
ĠErit tÃ¤in
ko han
rin g
Ġkiinnos tun
hall into
KO R
vÃ¤ lillÃ¤
ĠHyvÃ¤ ks
Ġkolm esta
w are
Ġlang aton
Ġtuo r
ĠKir si
yty ksiÃ¤
ĠU kra
ĠC ap
ose ksuaal
Ġkovin kaan
Ġkal astus
ĠH om
ĠkÃ¤r j
Ġmuo toon
Ġkur kku
Ġtuo nut
imi es
Ġsuosik iks
Ġla boratori
Ġkuo lle
et it
ĠSeksit reffit
Ġa re
Ġna h
ĠLuo nn
Ã¶n en
c oin
ĠEsi m
Ġpol tta
IS TU
Ġp ani
pele jÃ¤
Ġka tegori
laa tikko
sto inti
Ġto isi
iko lle
vapa us
S L
ĠVenÃ¤jÃ¤ llÃ¤
S UUNNITELMA
ca tion
uni or
ma iset
mesta ri
Ġselv ittÃ¤
ĠNo kian
Ġlev yn
Ġhuol ehtia
iv ien
Ġpuut e
o sia
ime si
ot t
kos ken
jÃ¤r vellÃ¤
Ġsuomen kiel
Tiet oa
Ġedell yttÃ¤
Ġkunto utus
Ġtehd yt
Ġja lo
ĠhÃ¤ir itse
Ġtar ken
Ġk ivan
w er
Ġas ua
Ġmiell yttÃ¤vÃ¤
ĠKa lle
9 7
Ġker ron
Ġlaa j
Ġt onn
Ġpel ataan
Ġer oja
O OP
Ġs how
R ekister
ohjel massa
al b
Ġolis ikin
Ġkul uu
uanta ina
n asta
Ġsoit ti
Ġmuu alta
Ġolosuh teissa
uu h
est issÃ¤
m ointi
Ġtuh oa
Ġtai vaa
Ġrat kaista
Ġkevy esti
ET TEL
Ġhy v
Ġkai pa
ĠHe inÃ¤
Ġsuur esti
aar issa
ĠJuh ani
Ġpain ot
all isten
n at
ist ynyt
ĠsisÃ¤ll Ã¶stÃ¤
de ll
Ġtesta ta
v uudesta
mÃ¤ inen
Ġsijoit taa
ĠH ei
AL AN
Ġn uol
Mat ti
ut sen
Ġrei ppaa
mar t
Ġkohd er
ĠtyÃ¶sken tely
Ġalu eiden
ĠSe kÃ¤
Ġtee mme
Ġvi iv
K en
re jÃ¤
Âł Âł
si emen
Ġtul in
Ġbud jetti
tautu minen
ip alvel
im u
isu unnit
Ġpan osta
ĠE K
Ġka kun
Ġpien estÃ¤
Ġlyhy en
Ġp ike
ĠI SO
Ġh intaa
Ġhy ll
Ġlin tu
Ġpuu villa
ta jien
ĠY hdessÃ¤
Ġvide on
ĠV oin
Ġsoker ia
Ġal umiin
ĠC he
Ġsaman aikaisesti
ĠS trateg
Ġa a
ĠhyvÃ¤ks yÃ¤
Ġinn ostu
Ġkulttuu rit
ff a
r ist
foor umi
kun tava
ĠE T
C h
ĠLap sen
yt yn
Ġret ke
ros s
Ġsukupol ven
Ġpuhd ista
Ġtotu us
Ġmielenter veys
ĠL ar
m ber
at us
ĠN uori
kÃ¶ Ã¶n
ĠP ALVEL
ĠKys y
llan en
pÃ¤iv iÃ¤
isaa tio
ĠVir on
Ġluotta m
ĠpÃ¤h kin
Ġus kalla
paikan haki
Ġotsi kko
ĠC om
asia kas
ise mpia
Ġsairaa la
ta vissa
R aa
utu van
Ġe mo
keskus telu
Ġlo hd
j iksi
me ja
Ġnet tisivu
Ġluk umÃ¤Ã¤rÃ¤
P OR
Ġjohd olla
Ġ {
vÃ¤ ki
Ġkah vil
KO KO
innÃ¤ kin
ĠHa ku
Ġjossa kin
den nÃ¤kÃ¶
ys t
Ġsiv ust
ĠVan han
u el
Ġmon elle
tai de
Ġturha an
Ġb is
ĠKO R
Ġlaitte iden
Ġolis iko
ĠVarsina is
l uotto
Ġpar a
Ġpen tu
ĠmyÃ¶ hÃ¤Ã¤n
Ġyrit in
ĠB lo
ur at
Ġku mme
Ġjos kin
Ġvan hojen
Â ¶
ĠSISÃĦ LLYS
ĠpÃ¤in vastoin
ĠA g
S T
Ġluon ne
ĠmÃ¤Ã¤r Ã¤t
ĠMas ter
KS ET
st osta
Ġrek ry
C C
Ġval ot
Ġs oolo
ĠP ÃĸYTÃĦKIRJA
ĠvÃ¤r jÃ¤
esk uksen
Ġmin uun
ĠkentÃ¤ llÃ¤
ĠpÃ¤Ã¤ llys
Ġkerto maan
liik keen
F a
Ġn ak
mp u
ĠmÃ¤Ã¤rit tÃ¤Ã¤
Ġkaik in
Ġp syy
KÃ¤ytÃ¤ mme
d ra
Ġval ti
enn on
in tÃ¤
isto rian
sinÃ¶Ã¶ ri
ak tiiv
Ġtil assa
re issa
s ken
Asia kas
Ġtul kin
ino sa
ĠTa va
iv ia
ĠY hden
T Ã¤nÃ¤
ĠH uolto
Ġjouk osta
Ġhuomi oida
P K
Ġjouluk uussa
ĠAR VIO
Ġvanhe mm
Ġtied osta
Ġohjaa ja
Ġeloku via
pp is
Ġin ten
Ġtun tunut
Ġsaman kalta
kesk uksessa
ĠM aal
Ġalu eet
Ġpan kkila
201 9
Ġyl h
Ġ19 60
Ġko od
Ġain een
sp ot
pros entti
Ġnuor ta
M yy
Ġollut kaan
kÃ¤ynn in
T oiminta
Ġmene mÃ¤Ã¤n
Ġkannatta isi
ĠLa ur
tÃ¤ mÃ¤llÃ¤
Ġalko holi
ke ihin
Ġnet in
Ġpan ostaa
Ġvi itta
ĠH ot
Ġta ito
ĠRa vintola
ĠJ ani
or ks
iva s
Ġaloit tanut
Ġitse si
Ġvarsina isesti
TÃ¤ lla
7 2
mi um
Ġviera ili
ALL INEN
Ġolevan i
kas v
Ġuse immat
op etta
Ġmielenkiinto isia
Ġet un
p paan
Ġkokoon pan
Ġpuhdist us
is ikÃ¶
mat kat
kÃ¤ yt
Ġtar ttu
ffi ce
Ġsil miin
ĠMicrosof t
es to
le hdet
Ġrat sastus
ĠKiin an
Ġlauanta i
hÃ¤ iriÃ¶
ĠRi itta
d ien
Ġka mp
tilan teessa
Ġneul o
Ġhanka laa
G I
ĠBrys sel
Ġar kkitehtuu
Ġli ia
unn asta
t n
ĠLap si
el aa
ĠYhdist yksen
Ġsul o
Ġmonen laisia
tÃ¶ itÃ¤
Al oita
Ġo si
palvel ua
ku vi
Ġoir eet
maks ua
Ġvaa tia
E tÃ¤
ĠG en
Ġturva llisesti
el po
id as
Jo ul
Ġpuhd as
Ġmarras kuussa
Ġpys tynyt
piir in
Ġ5 3
enki llÃ¤
ĠK ak
Ġa ro
Ġn il
ĠP ysÃ¤
ĠnÃ¤yt teli
ĠR yhmÃ¤
Ġjo lta
it ko
Ġsoit to
Ġtule vaa
olog ia
p Ã¤h
ist ukset
ĠkÃ¤sit eltÃ¤
Ġvin kit
rapor tti
Ġmon taa
Ġjoita in
alu eelle
Ġjapan ilainen
Ġmilla ista
Ġauto on
Ġkansa la
maail massa
ĠH et
at un
ĠMuka vaa
ĠTul i
Ġlyh en
ĠHaa stat
ĠâĤ¬ /
ĠJ enni
sÃ¤Ã¤ tÃ¶
e essÃ¤
ĠS port
Ġpa kot
ĠjÃ¤sen ille
ikk ana
Ġhoit ot
Ã¤h tÃ¤Ã¤
Ġmyy jÃ¤
D E
ohjel maa
Ġes itti
isti ikka
Ġsivu ille
Ġvuok raa
Ġv essa
JÃ¤ sen
Ġsuh t
Ġpa ikoi
ik keen
ĠSaa ri
ton in
le hdessÃ¤
6 3
Y mp
w ood
T utkimus
es itys
voi mien
ĠKol me
Ġte oria
ĠensimmÃ¤ isessÃ¤
Ġlan kaa
Ġva lla
Ġtodellis uudessa
Ġsuunn illeen
ihe essa
no w
li e
kan i
Ġpa han
ki o
kun sa
Ġehd i
ks eli
Kaun is
Ġvase mm
Ġlaadukka ita
vi Ã¤Ã¤
Ġkuor ma
Ġki i
Ġmuu alle
Ġlei ma
Ġaiheutta vat
alaa tu
laa ti
Ġas s
tuo tanto
ikke jÃ¤
m ir
IS UU
Ma in
tÃ¤ viÃ¤
Ġb u
ĠTÃ¤r ke
Ġmit taan
ĠTar ja
yh tiÃ¶t
Ġpu isto
irin tÃ¤
Ġkorkea lla
Ġmerk itse
Ġilmasto inti
Ġrauha llinen
Ġka llis
ĠS ur
Ġlaj i
al ojen
D a
utu miseen
Ġperh eelle
V esi
Ġhall ita
llis issa
ĠSisÃ¤llys luettelo
Ġsi gn
Ġsyy nÃ¤
Ġmarkkin oiden
Ġtaj ua
ĠD an
A i
Ġko toa
ĠylÃ¶s pÃ¤in
Ġt enn
ĠEn glan
mmÃ¤ llÃ¤
ĠKi mmo
ĠÃ¤l yttÃ¶
erk ku
w in
ĠEl isa
C A
P lay
Ġterve yttÃ¤
ohj eita
anta lo
ĠtyÃ¶nanta ja
Ġaiv ot
Ġkohta lo
Ġha ud
h or
IL LA
ue hdot
Ġkor osta
hd as
Ġpros ess
Ġpuh ut
Ġmaks ua
Ġg een
ista i
ĠR in
inn ish
Ġohja ta
Ġkomp onen
ĠM ana
so si
ĠMu ita
Ġmen ettÃ¤
ĠjÃ¤nn ittÃ¤
Ġkasva vat
Ġasukka iden
Ġa b
Ġma uste
pu iston
Ġj umala
et s
ĠmyÃ¶ he
Ġmobi ili
b li
K yl
Ġpa ist
ĠÃ¤ itin
Ġarv onta
ku vien
ĠtÃ¶ istÃ¤
Ġvara puh
Ġh im
eto oth
id ioksi
Ġjuur ikin
ĠsÃ¤hkÃ¶postiosoit teesi
Ġliik kua
ittÃ¤ mis
ĠSeinÃ¤ joki
Ġman si
Ġva kuudet
Ġkaupun ge
aal issa
Ġl el
ĠP ul
Ġn ost
Ġkorkea koulu
M uu
Ġ14 0
Ġap una
Ġhy vissÃ¤
men et
Ġmaa talous
Ġsyys kuussa
Ġvast uuta
Ġtul oks
Ġjoul una
Ġru tiin
E ikÃ¶
Ġoikeuden muka
ĠtÃ¶ iden
Ã¶ yh
Ġ199 7
Ġmi e
Ġv isi
ĠkÃ¤sit ys
te istÃ¶n
Ġvalmenn us
ĠTer ve
Ġvaa d
Vuo si
Ġvuo tias
Ġhal pa
f ar
oid ut
ĠUuden maan
Ġainutlaatu inen
tia inen
va ikka
im een
Ġvuor ossa
l yÃ¶
kÃ¤ sti
Ġauto jen
ĠÃ¤Ã¤ rellÃ¤
Ġnaap urin
ĠtÃ¶ rke
jÃ¤rjestÃ¶ jen
Ġperust ettiin
ist ut
f ir
ĠU p
Ġsarja ssa
Ġtar kat
Va in
vit set
Ġper inn
H ub
8 2
Ġvuoro vaik
ape utti
Ġkor istel
om ia
ĠV O
ĠJatka malla
Ġvaik utuksen
ĠYhti Ã¶
k eri
ĠRo man
ĠtyÃ¶elÃ¤ mÃ¤n
v itÃ¤
ĠRa ha
ila uta
eillÃ¤ Ã¤n
Ġdia bet
mÃ¤ ksi
va hv
ĠSin inen
Ġaie mpaa
lassi c
ĠG re
Al ku
Ġtall enn
Ġmitta us
Ġma istuu
r up
aa maan
Ġl on
Ġrak kauden
Ġsarja kuva
ki on
Ġd yn
Ġoike alle
7 4
Ġmet ro
ĠJo ukku
ĠjÃ¤ y
Ġtapahtu mien
ĠM ann
ĠnÃ¤ky mÃ¤t
ĠOh jeet
Ġver rata
Ġtaj usin
ĠToi von
ĠKat s
Ġilmes tynyt
IT US
jÃ¤rjestel mÃ¤Ã¤n
Ġvuoro vaikut
Ġvi ip
muut os
ĠPÃ¤ ivÃ¤n
vi iva
tar kast
ĠE sa
va ri
Ġnukku a
ĠtyÃ¶ hyvin
Ġis tua
Ġper ehd
teki jÃ¤
ĠU lla
ĠA lle
Ġhier ontaa
kaa mme
im uoto
Ġpsy ko
Ġhuhti kuu
6 1
Ġseur asi
ksi en
IK KI
Ġpuolu een
Ġsi e
Ġtar kasta
isu uksien
Ġsen kin
Ġmaise ma
ĠkÃ¤yttÃ¶Ã¶n otto
ĠpÃ¤Ã¤ asia
ĠS Ã¶
Toim itus
vÃ¤ lle
ĠS ÃĦÃĦ
Ġsal asan
o us
kÃ¤ vi
Ġmuutta nut
Ġsunnunta i
ĠVal itettavasti
ĠvÃ¤li lle
ika uden
Ġonn it
ĠKÃ¤ ytÃ¶ssÃ¤
ĠpÃ¤Ã¤n sÃ¤
Ġloka kuussa
las k
u tan
m yÃ¶s
Ġvier een
n ista
ĠY mmÃ¤r
ĠA ine
Ġpa llon
M en
pp oja
Ġarv oa
b ian
ma ksa
I tÃ¤
il tÃ¤Ã¤n
el tua
ĠKaun is
ĠedistÃ¤ minen
Ġnet tisiv
ĠK EH
paika sta
Ġko tel
Jos kus
Ġviranoma isten
ho on
Ġt ihe
Y llÃ¤
Ġko ottu
Ġkoh teita
Ġliitty vien
Ġkommentoi da
Ġhu ike
ĠvÃ¤ kisin
Ġvastaa vaa
Ġtuot to
Ġshe male
Ġesit teli
Ġp ila
Ġpalvel usta
Ġt ha
Ġsy itÃ¤
ĠÃ¶lj yn
ĠLÃ¤ mpÃ¶
matto masti
Ġkoul ula
ĠeikÃ¶ hÃ¤n
ĠS I
Ġmaalisk uu
s ua
ile massa
ĠVal ko
ĠjÃ¤l kikÃ¤
ĠSe pp
Ġperustu va
lle si
Ġkier tÃ¤Ã¤
Ġg o
ne istÃ¤
Ġtule maan
Ġtuu len
Ġongel maa
ĠlÃ¤h etÃ¤
ĠkÃ¤sit telyyn
Ġasi ana
Ġryh mÃ¤t
Ġyl pe
itte itÃ¤
Ġpel ast
Ġjuh lat
Ġsellaisen aan
ĠA N
llis estÃ¤
Ġyhteisk unnassa
un t
us taan
pal at
ĠVa h
Ġrunsa s
re Ã¤t
Ġhar mi
Ġtu eksi
T ra
Ġmat kat
Ġ199 5
ys tys
ite ilija
ll iin
Ġjuo ksi
ik oja
Ġke itto
haa stat
Ġperiaatte essa
Ġtasa isesti
Ġmusta t
Ġennen kuin
Ġhava ittu
Ġotte eseen
te ase
Ġkuul unut
ul assa
ĠJal ka
Ġoh jat
Ġtar kkaa
on taan
Ġbrit ti
llis empi
Ġedellyt ykset
k ukka
Ġku m
Ġjoul up
Ġkoke illut
Ġtod ettiin
ĠV ER
Ġk imp
Ġtamm ikuu
ho usu
ĠK ing
Ġoike at
ĠE tusivu
J al
Ġpit kÃ¤Ã¤
ĠSop ii
va lin
ĠhenkilÃ¶ itÃ¤
Ġkann an
kon een
s ten
ila isia
Ġsek torin
uunnit telu
ĠkÃ¤si in
ĠJ uu
tilo jen
IS I
Ġkohd etta
pol ku
Ġha m
AS I
ho to
Ġits estÃ¤
uo jel
Tur un
Ġuut uus
Ġluo kkaa
V UO
ĠlÃ¤p inÃ¤ky
ĠKa isa
IT TÃĦ
ĠMin kÃ¤
vuo nna
ĠP un
Ġver taa
r ina
ĠKO UL
J uu
kirja ssa
ĠL ehto
To della
Ġvaih tele
T u
Ġammattita ito
ĠkehittÃ¤ mistÃ¤
p la
b eli
Ġkappal een
lain an
Ġli ittÃ¤Ã¤
Ġhall ussa
ĠtÃ¤ r
Ġpuol ia
ĠAir b
je ja
Ġkyn net
Ġjoka iseen
ityks een
Ġtarin aa
Ġpala si
Ġkaupun kia
Ġlin kin
ĠtÃ¤rke immÃ¤t
ra vinto
Ġ19 00
ĠS at
rit eer
Ġmyynn in
on net
M issÃ¤
TEL U
Ġvel jen
Ġkoulut ukseen
tÃ¤ mistÃ¤
Ġkohd an
Ġsuosit uin
Pal jon
in tit
ĠN ÃĦ
isu hde
Tar jo
kke ita
Ġkas vo
m ikÃ¤
si ja
urhe ilu
Toi mi
eh tos
Ġp om
S itÃ¤
Ġsuunnit teli
T ein
Ġvalmis tetaan
tilo issa
Ġjoiden kin
Ġtiet otek
vel i
ossa an
ĠkehittÃ¤ mÃ¤Ã¤n
yrit yksen
va ali
Ġesit ellÃ¤Ã¤n
hd ella
ĠV eh
ĠPÃ¶ytÃ¤ kirja
ĠÂ§ :
ĠPie tar
Ġvoi man
Ġo ff
maa han
SÃ¤hkÃ¶posti osoite
Ġviest innÃ¤n
Ġost ettu
st etta
Ġinfor maa
puol u
J at
ens uu
ĠHer ran
+ ),
j istÃ¤
Ġennen kin
Ġpaikoi lleen
Ġlopp ui
Ġk ih
Ġma lleja
est ystÃ¤
pÃ¶ ydÃ¤n
er an
vo on
uud istus
Ġli ekki
po on
Ġvalmist unut
ĠOh jaus
Ġla hti
Ġl iki
Y YS
ĠkesÃ¤ kuussa
ĠP utin
ko lan
Ġristiri ita
Ta i
Ġfet issi
Ġusko mattoman
ĠPet er
elta va
ĠTa ka
ĠN ap
Ġhalut essaan
4 00
Ġase man
alla an
ĠMin ulle
ĠJavaS cript
Ġkorke an
p si
Ġihmis iin
e esta
Ġjo utua
Ġteke mÃ¤llÃ¤
mÃ¤Ã¤r Ã¤Ã¤
ĠVoi ma
ĠK one
Ġkol ikko
Ġosoit tautu
ĠHote lli
ĠY len
ĠEuroop pa
Ġpel iin
Ġava si
ton i
M E
tin Ã¤
sk yn
ja lan
el maa
ĠTun tuu
ĠB ir
Ġl uva
Ġval itsee
u maan
K uo
tun utta
Ġn enÃ¤
Ġosa ta
mahdollis uudet
kor u
her e
Ġklikkaa malla
Ġkann ustaa
Ġpalvel uk
Ġopiskeli joille
ĠTar kista
Ġsaata isiin
c ur
va hti
imerk ki
A h
ĠPi c
al isti
O K
ĠmÃ¤Ã¤rit elty
Ġteke mÃ¤ttÃ¤
vel y
Ġr engas
T all
Ġsuo messa
korkea koulu
ar eita
Ġseko it
nÃ¤ yttÃ¶
is ot
Ġsaata vissa
is oi
ĠRa h
Ġla dat
ĠPinter est
ĠP R
E x
Ġvar r
Ġsu inkaan
Ġd is
hoit oon
ĠjÃ¤t tÃ¤nyt
P L
ĠPi ir
Ġlaus unto
9 6
Ġhoukut tele
Ġaid osti
v yttÃ¶
d Ã¤Ã¤n
ĠA ho
mist on
Ġpiir iin
r Ã¤Ã¤
kkin i
ra ja
Ġtunn etta
tori lla
ĠOul ussa
Ġkos kien
im iin
ka ut
ĠVa ku
il ei
ven tti
hel m
Ġl ann
ha lli
Ġsuosit u
ĠTo si
tel uta
ĠG l
Ġper usa
Ġjoka ista
enn in
Ġmaalis kuussa
ĠjÃ¤sen iÃ¤
S yks
k yy
ee p
ĠV aatteet
Ġ16 0
Ġra dika
Ġneuv osto
ĠkyllÃ¤ hÃ¤n
ĠT se
Ġoppila iden
el een
yy pp
Ġro ck
Ġlas ket
tu m
Ġaut ot
V EN
si oita
Ġpa istaa
Ġsall ittu
Ġjouluk uu
Pa ikka
Ġlaa jan
ynn Ã¤n
euv osto
Ġtallen taa
lu een
ĠA lue
200 3
kis at
Ġopiskeli jan
Ġken en
ĠBer liin
Ġsovelle taan
Ġpelaa maan
ĠvÃ¤Ã¤rÃ¤ ssÃ¤
te ollisuuden
et en
ĠpyÃ¶ri i
Ġja ko
T aa
sian tuntija
k lo
ĠC O
ka iden
ka ali
Ġvar mist
Ġkorva ta
Ġka saan
e llinen
Ġto l
Ġle veys
verk on
Ġhe vo
ĠP oista
ĠSa man
Ġme inin
Ġsop ia
ĠHan kkeen
8 3
uks etta
jÃ¤n n
Ġsuor ana
Ġaine isto
us kon
ĠPa ula
Ġvasta ukset
si ini
j pg
ĠO man
etty jÃ¤
in f
Ġinno vatiiv
ĠnÃ¤ en
ĠM ini
Ġb as
Ġhan kit
Ġt in
matta kaan
vil jel
ĠkÃ¤vi mme
jo uluk
ĠRovan iemi
ĠKÃ¤ vin
Ã ¸
mis ti
ber gin
Ġ1 30
ĠTe ch
vÃ¤l inen
Ġohjel massa
oa d
Ġt it
ĠLa taa
Ġtoimen piteet
Ġh d
Ġb ro
Ġluonn ossa
Ġturva llisuutta
is yydestÃ¤
ĠJor ma
Ġvaltu usto
Ġesimerk kejÃ¤
Ġki peÃ¤
ĠpyÃ¶ reÃ¤
Ġhur ja
Ġko ki
ko lle
Ġluo kse
Ġki pe
Ġb en
Ġmootto rip
Ġluki on
Ġh aal
ĠJ as
Ġedu llisesti
on gelma
ĠsÃ¤Ã¤ tÃ¤Ã¤
yÃ¶ hÃ¶n
ĠT om
Ġpuhelim itse
Ġol tu
Ġtos issaan
Ġjoud uin
ĠKur ssi
Ġihmis elle
ĠB ro
M illa
Ġvo iko
Ġot telussa
Ġo missa
Ġjonne kin
ĠsitÃ¤ kin
Ġsuunnit telussa
Ġkoi raa
Ġehd ottaa
Ġma itoa
Ġvi ivÃ¤
7 3
Ġpar ia
Ġtuotte esta
Ġvuo tia
Ġro ikku
Y HTE
a mme
Ġ6 3
H TI
koko uksessa
ĠVi ita
ĠC hi
K AN
usti lan
p lay
Ġn uka
Ġkau as
Ġennalta ehkÃ¤
malle ja
Ġkoul ua
Ġkats oi
ko e
ĠL ie
to inen
Ġtun teet
Ġsy ve
ĠY o
Ġmuo kata
Ġmuoto ilu
Ku vat
a mi
ĠMar kus
utta mista
ĠhyvÃ¤n Ã¤
in er
Ã¤t kÃ¤
Ġtul oksen
ĠpÃ¤Ã¤ ty
Ġla itto
ĠvÃ¤h ene
er aa
Ġme ihin
r inta
ĠA voin
Ġro uva
ĠkÃ¤Ã¤nn Ã¶
Ġl elut
us uo
aat tor
it coin
Ġtai ta
e u
vuoti aat
Ġtoimen pite
ol et
Ġarvi oin
ĠYhte istyÃ¶
la lla
ain eita
ĠAn gel
ta kin
t ko
Ġra j
ĠnÃ¤h tÃ¤vÃ¤
SisÃ¤ llÃ¶n
ko itsi
Ġkiel tÃ¤Ã¤
Ġpuut tu
Ġke mia
re elan
Ġtyl sÃ¤
Ġru is
IF K
Ġp v
Ġkys yy
Ġr anne
ĠlÃ¤hte vÃ¤t
Ġsyys kuu
Ġku it
Ġpysty yn
ih yd
ĠEi pÃ¤
ot tinen
Ġupe at
Ġmall iin
Ġperinte isesti
ss Ã¤ni
ĠP osti
ĠTee ma
ika r
ĠAn ti
Ġon kaan
Ġp innan
Ħ ¢
Ġlu et
Ġohj eiden
ch er
Ihan aa
Ġtouk okuu
ila isten
Ġka te
ĠAsi akka
ĠkÃ¤yttÃ¤ minen
te atteri
b ur
Ġvalo kuvia
ot ul
ĠAr k
ĠJot enkin
Ġlaad ukas
Ġsid os
Ġpuhel innumero
7 1
Ġloka kuu
Ġpid in
Ġlas it
US I
Ġhuu mor
siv uston
re mon
to innin
in fo
pp Ã¤r
Ã¶ Ã¶n
ĠL E
Ġkuo h
ĠtyÃ¶ llisty
ĠkÃ¤sit telyn
Ġajoit tain
S ta
kul ttuuri
Ġlukuun ottamatta
Ġn oiden
= =
Ġkeitti Ã¶ssÃ¤
o va
E ur
rat is
Ġkor tit
Ġhal tuun
oita va
J ot
Ġaut ossa
Ava utuu
Ġtoiminta ta
Ġs uv
jo ella
Ġartikkel iin
Ġkats ot
jo o
Ġla use
Ġhak utul
Ġkuul osta
Ġlop et
suojel un
Ġyks ino
ta misesta
Ġmen ivÃ¤t
Ġlento kentÃ¤
ĠNiin istÃ¶
Ġaset ukset
ĠsÃ¤ng yssÃ¤
ettÃ¤ isiin
' '
Ġtall etus
MA AN
ĠPer tti
ĠC l
Ġpoikkeukse llisen
ĠÃ¤it ini
IN O
et urva
Ġosa puoli
ĠHar joit
Ġkustann uksia
al s
p ed
ĠP ohja
Ġ15 00
Ġistu in
ilÃ¤ inen
ist uksessa
Ġ ).
ne lla
Toi vottavasti
Ġb b
ĠA set
Ġfa cebook
Ġvallan kumo
Ġil massa
Ġsuomala isista
MP ÃĦR
Ġeur oon
Ġedu llinen
Ġla taus
Ġviime istÃ¤
mm iksi
Ġnumer ot
Ġoleva ssa
Ġo min
pa peri
kor ut
Ġus eiden
Ġkir kossa
ĠsisÃ¤ llÃ¤Ã¤n
ĠHelsing istÃ¤
Ġalas pÃ¤in
um it
ĠLÃ¶ ydÃ¤t
sun g
ĠmÃ¤r kÃ¤
Ġyhteen sop
Ġhuon oa
Ġka mpaa
Ġmu ussa
ĠsisÃ¤ inen
Ġikkun at
ip o
sin inen
ĠD ra
tek nolog
ker Ã¤
inn olla
Ġo uto
si de
ĠOpiskeli ja
ĠVal mist
Ġopp iminen
op an
x e
Ġsil missÃ¤
ĠsÃ¤hkÃ¶pos tia
ikoh an
OHJ E
ĠB lue
ukse llinen
llis elta
Ġti p
ĠhirveÃ¤ sti
Ġluo vat
f en
ikka at
Julkais tu
uk io
Ġheng itys
Ġvoit toa
iin an
ĠK E
n ee
Ġtuo mar
Ġmarkkin at
imp Ã¤nÃ¤
Ã¤l e
t iseen
Ġjosta kin
Ġva iv
Ġli ima
Kansa invÃ¤l
Ġalkoh olin
ĠH eidi
ih o
l iha
ĠY Ã¶
si llÃ¤
Ġtuleva isuutta
Ġfil osofi
Ġta ppi
iste ita
Ġla kia
ĠpÃ¤iv ittÃ¤Ã¤
Ġloppu jen
alu eita
pain ot
Ġvalta van
pa ikkojen
ĠpÃ¤Ã¤ d
ĠsÃ¤Ã¤ntÃ¶ jen
ma g
palvel ussa
Ġtuk ena
Ġilmoit uksen
Ġvaki o
ĠA i
var usteet
es ep
ĠK ustann
ut uksia
Ġpel ko
ĠymmÃ¤r tÃ¤nyt
An tti
Ġ3 000
us toa
Ġjonkin lainen
ĠjÃ¤rke vÃ¤Ã¤
Ġfin land
al ity
Ġla id
Ġliitty vÃ¤n
Ġma istu
Ġkon sep
IST EN
Ġvie mÃ¤
Ġsil mÃ¤Ã¤n
Ġko okos
Ġho us
ĠherÃ¤ tti
E tsi
jÃ¤rjestel y
tÃ¤ r
ĠM Ã¤Ã¤
Ġkoske via
Ġmaa t
ĠM itÃ¤Ã¤n
itta vaa
Ġpel annut
is sit
Ġjulkais sut
ak enn
Ġ0 01
Ġava utuu
Ġtarp eita
ĠjÃ¤rjes tyksessÃ¤
Ġtil intar
ter it
Ġvasta uksen
Ġvier aa
D ig
ĠHa us
u ihin
ĠlÃ¤mpimÃ¤ sti
Ġm ei
ĠK OS
ĠM osko
Ġhuone eseen
Ġma gne
Ġhuomi on
Ġvi tamiin
Ã¤l y
Ġheik ken
istu minen
Ġmar ja
vi estin
Ġblog it
ĠHÃ¤meen linna
Ġinves tointi
vara in
il et
ĠRa hoitus
ven an
Ġ: /
Ġsiemen syÃ¶
Ġkohd alle
Ġvanha an
Ġteknolog ian
ĠtehtÃ¤ viin
Ġyrit ystÃ¤
ikÃ¤ yttÃ¶
ĠK estÃ¤
Ġturva llista
pa ta
Ġkosket us
Ġent isen
Ġel okuu
Ġpoh tia
ter veyden
ra uta
/ ?
eh allinto
Ġterv eellis
ĠkÃ¤si kirjoit
Ġpik kus
MA A
Ġvuo deksi
Ġmiks ei
Ġliikke ellÃ¤
ĠtyÃ¶s uh
z en
Ġvet oa
ĠKoko uksen
ĠepÃ¤ toi
H inta
Ġhar kita
U TA
ĠU ud
Ġpur kaa
Ġviet etÃ¤Ã¤n
pal kki
Ġenergia tehok
ĠMaa han
to log
ĠTul os
ĠÃ¶lj yÃ¤
yttÃ¤ viÃ¤
Ġeri llinen
ĠNur mi
Ġro kot
Ġval mentaja
Ġikkun an
sa lla
Ġnouse vat
Ġsuunnitel mat
L opp
ĠJ Ã¤rjes
lo jen
Ġtila pÃ¤
ta usta
ĠEn s
ta nn
Ġkaa r
ĠvÃ¤l ittÃ¤Ã¤
Ġkuts uu
ĠK el
ĠhenkilÃ¶kohta isesti
sa laa
Ġtoim innot
Ġman u
a va
Ġes te
on inen
Ġop intojen
Ġmu unn
Ġ ^
... "
p yl
Ġta v
ĠP U
ih eet
Ġtah tiin
Ġ6 8
Ġteke mis
ĠV ik
Ġnuoris ot
k tiiv
ĠjÃ¤sen eksi
ĠlÃ¤hesty mista
kustann ukset
ĠIn d
anal yysi
ik unnan
PÃ¤ iv
Ġeriko istunut
ĠPar k
Ġm ess
Ġm ore
Ġku d
ukun imi
jo ilta
Ġtup la
Ġarj essa
ĠtyytyvÃ¤ isiÃ¤
Ġsuj uu
Ġenn Ã¤tys
Ġtarvit sisi
s opimus
vit tÃ¤Ã¤
jÃ¤rjes tÃ¶n
Ġryh tyÃ¤
Ġosall istun
Ġ199 6
Ġluo maan
Ġtuo lta
Ġpuh taan
Ġhoi detaan
Ġseuraa vista
onyy mi
u hde
Ġt hat
kaup at
ty kseen
ĠMic ha
alu etta
iti et
Ġkuole ma
Ġp issa
fr ikan
ro ksia
Ġpuoli lla
ĠtÃ¤mm Ã¶
OOP AN
Ġsuomala isille
Ġpor kkan
Ġd irektiiv
TA A
Ġ imet
Ġpoh j
ĠkÃ¤yt ettÃ¤vÃ¤
Ġteke mÃ¤
ma ku
kilpa ilun
Ġpus sy
Ġkun in
Ġjo urn
ĠKansa llis
p r
Ġal oita
Ġ7 2
Ġtahto o
ĠT ol
c ol
Ġparanta miseksi
Ġpar ik
ĠSiv usto
Ġras kaus
Ġh uut
ĠSi eltÃ¤
Ġl uks
Ġsivus toa
y e
Ġulko maan
ĠS tand
mp ikin
Ġloun as
Ġnim iÃ¤
je mme
Ġlin jan
ksi lle
... )
Ġkiinnosta va
Ġla ihd
os si
am in
blog spot
ĠP ian
Ġkorkein taan
Ġka uko
ĠP la
Ġtek niikan
ĠTee man
Ġko ve
Ġherk kÃ¤
Ġal k
itte jÃ¤
Ġsuo l
Ġkakso is
Ġma kua
ik oille
kohta iset
Ġasiantunti jat
Ġlaitta nut
Ġesit ellÃ¤
ĠUut is
ĠA va
s toa
mmÃ¤ s
Ġkirjoit taminen
Ġe mÃ¤
Ġku ivu
ut s
b ri
ĠS ukup
Ġhuomi o
Ġnope an
x i
ti llÃ¤
Ġhelppo kÃ¤yttÃ¶
Ġvuoro vaikutus
ĠpÃ¤Ã¤ stiin
Ġsiivo us
pÃ¤ivÃ¤ Ã¤n
ced es
ĠtÃ¤y te
ĠsyÃ¶ ttÃ¶
Ġlin kit
Ġpelaa jan
Ġtapp io
Ġsukupuol en
rip tease
ila itte
Ġperi aatteet
Ġos ui
ĠpÃ¤Ã¤tÃ¶ kseen
ĠK um
t han
Ġs pa
Ġkuva an
hall innan
Ġsuo j
Ġli put
Ġtarjoa maan
Ġneuvot telu
ĠNi istÃ¤
tan een
Ġmuka ista
Ġniin kÃ¤Ã¤n
ĠM yynti
la d
ĠB ib
Ġjoka pÃ¤ivÃ¤
Ġtapahtu maan
it teen
ĠriittÃ¤ nyt
kul jet
ĠT uh
Ġc om
A ina
ĠKir joita
Ġkuva taan
las ten
s ur
Ġkilpa ilut
ĠTied ot
Ġmole mpien
ĠK uor
Ġkoh tu
kymmen en
vell it
Ġlaajen taa
R L
Ġjoul uka
materi aalit
Ġu ppo
Ġmarkkin oinnin
Ġver sion
Ġtuleva isuuteen
Ġvaatim uksia
ĠH eti
Ġperjan ta
EL LA
emp Ã¤nÃ¤
ĠtyÃ¶ terveys
ĠnÃ¤ky viin
Ġ6 2
Ġaiku isille
Ġkahd esti
Ġ6 6
Ġhelm ikuussa
Ġar valla
kas vu
kaa lla
ta vana
âĤ¬ /
uk en
it Ã¤n
ĠL O
k lin
Ġo mit
van nut
Ġkes tÃ¤vÃ¤t
Ġpit o
yttÃ¤ minen
ĠH ell
ettÃ¤ vÃ¤n
Ġosallistu minen
Ġmateri aalin
ĠkÃ¤sit e
Ġjat ketaan
Ġomina isuus
ĠtyÃ¶elÃ¤ mÃ¤
Ġmusta n
] .
Ġtekn inen
oit e
Ġmo d
isk el
ĠKer ro
juo ks
ĠtyÃ¶ paikan
llis uuteen
all on
ĠylimÃ¤Ã¤rÃ¤ istÃ¤
Ġsaman laisia
pall oa
K ur
ĠI mat
ĠKÃ¤ytÃ¤ nnÃ¶ssÃ¤
kat s
ap u
Ġkirjoit tamaan
Ġvanhe mpia
ĠLappeen ranta
Ġruo tsi
ĠRaamat un
isk elu
ÃĦIV ÃĦ
f al
Ġo bjektiiv
Ġel imistÃ¶
Ġp uole
Ġyli oppilas
pa lla
l uot
Ġkes Ã¤t
is mia
Ġtul ikin
ĠymmÃ¤r tÃ¤mÃ¤Ã¤n
s opimuksen
s ukat
Ġlak kaa
Ġuut inen
isk uu
K ER
ĠpÃ¤Ã¤s ty
g le
r uu
sÃ¤Ã¤ stÃ¶
Ko ke
T IN
ĠtÃ¤Ã¤llÃ¤ kin
Ġpyst yssÃ¤
Ġarvon lisÃ¤
p isteen
Ġehd oton
Ġkuk ki
kes ke
Ġra iv
EL LE
ihi eronta
ĠH ie
Ġv iini
tele malla
Ġs yÃ¶n
Ġin d
ĠPorn Hub
ĠAin oa
Ġp estÃ¤
ĠiltapÃ¤ivÃ¤ llÃ¤
yr sky
ĠG ala
Ġfe min
Ġre alist
Ġmuu si
Ġjoka isessa
Ġseikka ilu
Ġpa ikoissa
ĠelÃ¤ vÃ¤t
ki jÃ¤t
Ġkasv oille
toi misto
Ġne kin
ĠA jankohtaista
ti op
Ġtahd on
Ġtahd o
ĠH ieman
Ġp ella
ETTEL O
ta u
ĠT Ã¤Ã¤
g ren
itti met
ĠSE UR
Ġkoh o
Ġtulos ten
Ġtoiminta nsa
8 1
Ġaih eena
ta essa
Ġyle isen
voin nin
ĠjÃ¤rj esti
Ġkahd ek
Ġaine kset
U TO
ĠYksity isyys
Ġperin tÃ¶
Ġras kaana
je ct
EUV OS
** **
K UNTA
ĠEn erg
Ġpiha lle
Ġyksity inen
fl ik
ĠS ky
Ġneuv oja
TÃ¤ ytÃ¤
Ġsuorit etaan
es san
ĠLi itto
ĠB ur
e vÃ¤t
ip er
Ġparan ee
ĠTo isin
tal ossa
ĠvÃ¤ istÃ¤
Ġajat telee
tar jon
Ġres urssi
Ġbet on
Ġsiv istys
Ġede lle
se k
ĠC enter
ĠE eva
ĠyllÃ¤ pito
ĠhenkilÃ¶kohta iset
ĠsÃ¤hkÃ¶p ostin
ul os
mo on
Ġnuk ke
inn oissa
b lo
ĠH ome
er oja
vi et
Ġkuulu va
Ġminuut issa
Ġlaaja sti
ist yksen
vaih don
yksi en
Ġuusi ksi
v uuteen
AR I
Ġes poo
ĠjÃ¤Ã¤ telÃ¶
kÃ¤ ytÃ¶ssÃ¤
jan taina
ĠKoko us
Ġpohja lle
mieh iÃ¤
MPÃĦR ISTÃĸ
Ġs ak
â Ħ¢
ĠP ys
Ġv yÃ¶
Ġlit raa
Ġd el
Ġase massa
urak unta
Ġerila isissa
Ġka pasiteet
to l
Ġmaa laa
ih ku
ĠOh je
Ġb al
ĠKo ulu
mar ras
Ġtuh at
ukka at
n ik
Ġker Ã¤t
ĠL en
Ġyksityis kohtia
Ġa bout
ch at
per uste
tan ssi
Ġtun teen
Ġmenetel mÃ¤
Ġriipp uva
Ġvalta vasti
ter Ã¤
ĠmielestÃ¤ Ã¤n
Ġmu ilta
Ġmas siiv
Ġkanan mun
es sia
ĠpÃ¤r jÃ¤
Ġtoimen pit
ĠH igh
Ġa bs
ĠAr to
Ġasukka at
Ġtas oa
ĠSuunnit telu
Ġsuure mpia
Ġartikkel eita
pp er
ĠmetsÃ¤ stys
Ġvalmist el
kunn at
kÃ¤ si
ĠM P
Ġlaitte ella
ĠE tenkin
Ġkeh itetÃ¤Ã¤n
ĠKo din
ĠR Y
Ġlaati kko
KO S
M uo
oike uksien
Koul utus
mat tomuus
Ġlo ukkaa
Ġon ni
ĠkÃ¤rÃ¤ jÃ¤
tiet Ã¤
Ġi Ã¤n
elÃ¤ in
Ġlehti Ã¤
Ġkir jeen
maa lle
ke ista
ĠT ALO
hoit opi
S uur
ĠK era
q vist
ili jÃ¤
Ġkokem ukset
O TE
kinn at
ĠkÃ¤yt ettÃ¤vÃ¤ksi
EN KIL
Ġmain osta
ĠT ero
Ġtren d
ver on
Ġpro f
ko din
Ġsu va
Ġv yÃ¶tÃ¤
ĠI de
N et
Ġl ika
Ġhom e
Ġme kaan
y ota
utu misesta
ĠsÃ¤hkÃ¶posti isi
Ġsyys kuun
Ġvalko sipul
Sin un
Ġluo pua
Ġr eh
ki jÃ¤n
Ġ% )
is ivu
Ġle vÃ¤
vuo k
Ġlait oksen
per heen
ĠminkÃ¤Ã¤n laista
es on
V astaa
Ġblog ini
Ġsa dan
ĠJyr ki
ĠAr vo
eh an
ope uden
tiin i
alis mi
Ġomista jan
Ġ q
hd ista
ll essani
ok erin
Ġtot tunut
Ġka uka
ĠepÃ¤ ile
kas et
Ġarv ost
ĠAirb nb
tÃ¤ vÃ¤nÃ¤
llis essÃ¤
ĠLaa ja
Ġyhd eksi
Ġeloku un
Ġti ukasti
ik ien
Ġpuh etta
Ġopp ilaat
Ġkaa ka
Ġkoh teet
KÃ¤yttÃ¶ ehdot
Ġta ho
Ġtode llista
ĠvÃ¤l isen
ĠK ek
Ġvi kaa
P ari
ip Ã¤Ã¤
Ġky lÃ¤ssÃ¤
Ġli ppu
ro ja
Ġpoliit tinen
Ġhom maa
ek kÃ¤Ã¤
ve ta
ĠS por
nn Ã¶t
ĠEi ja
Ġp ensa
Ġra jaa
inta ge
Ġolen kin
ir k
J uuri
ĠP yy
ĠL ut
ĠhÃ¤n eltÃ¤
ĠIlma iset
Ġkansaned usta
Ġkap ea
T osi
Ġopet usta
Ġtul ot
Ġkauppa an
ĠkÃ¤ vellÃ¤
com in
vie w
ila h
Ġhelm ikuu
Ġhal uttu
Ġsil min
w ar
Ġerila isista
oi mis
C E
ĠLI IK
Ġulkoma ille
Ġhier oja
ĠElÃ¤ mÃ¤n
tie de
Ġaloit in
ĠT rans
Ġmon ista
puol elta
Ġkor jat
iin sÃ¤
Ġusko tta
ĠN il
P M
Ġp ron
un as
ĠC up
uk tuu
Ġt ele
ĠpÃ¤Ã¤ ministeri
IM I
o is
Ġuus inta
Ġarvon taan
Ġhar va
Ġvalikoi man
ĠNÃ¤ issÃ¤
Ġvirhe itÃ¤
ĠHÃ¤n ellÃ¤
Ġkuulu misia
ĠDa vid
Ġpel astaa
ĠAn u
.. ...
Ġmusiik ista
Ġtai det
yty vÃ¤t
s Ã¤ni
Ġtoteut ettiin
ĠnÃ¤yt telijÃ¤
Ġaiku inen
Ġhor mon
Ġverk on
ksu aali
Ġtoim eksi
Ġryh mÃ¤ssÃ¤
ĠjÃ¤lkikÃ¤ teen
Ġhien ot
Ġve gaan
kilpa ilut
Ġhypp Ã¤Ã¤
vyyd et
Ġhuoma si
Ġvet oket
o llisten
ĠO la
Ġa ku
Ġluoton anto
ĠelÃ¤ imet
mat kusta
pÃ¤ s
r eille
Ġkr ist
ude llinen
i maa
Ġet uo
Ġkehitty y
B S
Ġla uk
ĠkÃ¤rsi vÃ¤
residen tti
j uuri
til aat
ĠM eri
Na iset
ÃĦÃĦR ÃĦ
ĠKe ittiÃ¶
el mÃ¤n
ĠP yÃ¶rÃ¤
hot os
ĠC am
Ġas teessa
r iksi
Ġ> >
uo kaa
ĠkansainvÃ¤l istÃ¤
ĠV ia
Ġtut tua
Ter veys
yr yn
P AN
ĠKor honen
ĠJoens uun
ĠKu kaan
L AS
Ġas ettu
ĠH eli
mÃ¤Ã¤ rit
ma rit
Ġusea mpia
ittÃ¤ is
Ġnyky aika
Ġluke mista
la isista
Ġkehitty nyt
ĠjÃ¤lki mmÃ¤
ĠhÃ¤mmÃ¤ st
Ġv on
ĠsÃ¤n ky
Ġjal kaan
Ġryh mÃ¤Ã¤n
ut uv
Ġhid asta
ja ani
ĠvÃ¤l ine
Ġyl ittÃ¤Ã¤
ĠP ara
Ġras vaa
Ã¶s ten
9 2
ĠenimmÃ¤ kseen
Ġil taa
Ġkeskus taan
Ġtote a
Ġpelaa jia
Ġloista vasti
Ġpys tyÃ¤
ko mp
T Ã¤Ã¤
Ġpoliti ikka
Ġnim essÃ¤
ast osta
Ġpain os
ka ari
ĠTo mmi
il assa
Ġturva paikanhaki
tor stai
il asta
Ġfil osof
Ġta innut
Ġharjoit telu
mmÃ¤ ssÃ¤
IN E
markkin oilla
n im
kul utus
Ġpide mmÃ¤n
Ġvar maa
Ġved essÃ¤
ken tÃ¤n
Ġper son
Ġjoka isesta
ĠjÃ¤r keÃ¤
Ġjousta va
Ġar gu
Mar kkin
uke aa
ĠKaikki en
A mer
ĠH Ã¤r
Sosi aali
ĠPÃ¤Ã¤tÃ¶ s
R S
XX X
pÃ¤iv inÃ¤
ĠlÃ¤hd etÃ¤Ã¤n
oit tain
ĠT een
ĠHalua isin
pros en
juh lat
Ġluu len
ntÃ¶ Ã¶n
ph p
Ġpien essÃ¤
ke si
Ġmuisto ja
U udet
Ġkaver it
Ġlev ittÃ¤
i oita
Ġtai vas
Min usta
Ġlin kistÃ¤
Ġrapor tti
ĠepÃ¤ tasa
ĠTA I
os s
Ġjuo da
Ġp uus
Ġsosiaal isessa
ĠK YS
ĠP idÃ¤
ker ho
Ġtarkas tellaan
ĠK UL
yt yksen
Ġotta vat
Ġh in
S UOMEN
ĠHar mi
ĠpÃ¤Ã¤ tyi
Ġtarpe eseen
Ġmiel in
Ġpar it
Ġpuu haa
ĠTalous sanomat
ĠL ang
Ã ±
tÃ¶ jÃ¤
Ġporno tÃ¤hti
Ġseur at
Ġhy m
unnunta ina
Ġel e
ek kÃ¤
valikoi ma
red it
lo ajat
% .
Ġflun ssa
Ãĸ S
Ġop ast
Ġpys tyi
mis issa
maa ta
untar joa
ĠOn nea
imi el
uo tanto
Ġpos tit
âĤ¬ .
Ġsa llit
Ġblog isi
d ista
ja s
M y
y issÃ¤
mm ilta
VÃĦ T
Pien i
etta vien
Ġk yyd
Ġmelko isen
Ġmu kais
ĠN iko
Ġtuu let
Ġmen en
toi da
Ġjos ko
G B
ĠHel ena
ĠtehtÃ¤ vien
ĠSe ur
Ġtode taan
tujen vÃ¤linen
mat kaa
ĠM Ã¤Ã¤rÃ¤
Ġkir jo
ĠKir kkon
Ġhuu l
Yrit yksen
ĠOh jaa
ĠMy lly
Ġp enn
ĠVi era
p ir
Ġ( +
O A
Ġleikki Ã¤
ĠIsra el
tilan teissa
ri ka
Ġmerkin tÃ¤
Ġto lla
Ġmu ukin
har e
Ġsaa minen
ĠL UO
kkit ehti
ĠtÃ¤h tÃ¤Ã¤
Ġnai misiin
Ġkasv ihuone
Ġjatku vat
ĠhyÃ¶dyn tÃ¤minen
pp eja
Ġtot uuden
ĠMu kaan
yhty mÃ¤n
Ġsu b
Ġku mman
ma llia
kan d
Ġj ur
ko inti
ĠkÃ¤yt etyt
ĠhÃ¤ viÃ¤
Ġtil i
Ġvieh Ã¤t
Ġpoliti ikan
osta in
Ġtiet osi
mis ellÃ¤
kasvat us
Ġtuotta vat
Ha ku
Ġvet i
ke ll
Ġpor ukka
Ġt re
KÃ¤ vin
ke llo
ĠTal vi
Ġkyt k
Ġasu vat
pÃ¤Ã¤ ssÃ¤
pÃ¤Ã¤ stÃ¶
Ġpros tit
Ġkat on
Ġasia kasta
Ġki e
et ki
Ġmonipuol isesti
P ikku
nn Ã¶stÃ¤
yrit ykset
Ġsuo st
va ike
ĠkÃ¤yt Ã¶
ĠAS IA
ĠK in
Ġoppila an
i jÃ¤t
ĠhÃ¤ iri
Ġna isista
Ġtarjo uksia
k issÃ¤
Ġtied etÃ¤Ã¤n
Ġresep tiÃ¤
Ġtoiv oo
Ġhaus koja
Ġtervetulle ita
ĠF ord
ten sÃ¤
Ġpit Ã¤n
Ġlih aa
ann on
Ġtehd yn
ĠB y
Kirja udu
lo ka
Ġkohd at
Ġhuon oja
sel oste
ile va
ĠYh tÃ¤
toi vat
mi ani
sÃ¤Ã¤ din
ĠV aan
da lle
ĠO d
Ġjuo sta
ĠnÃ¤ ille
Hall itus
vuo desta
Ġyl peÃ¤
ut or
Ġko ittaa
uring on
tiet okone
rot her
Ġpid ettÃ¤vÃ¤
pal kinnon
ĠIs ot
uk oita
Ŀ ¤
Ġkaver eita
la uantai
Ġki ito
ti kainen
ĠM Ã¶
Ġvaalean puna
Ġann an
Ġhall intaan
Ġtoivo taan
Ġaika vÃ¤lillÃ¤
Ġc ar
Ġluon ta
Ġvoit tanut
ĠCo lle
ĠÃ¤ly puhel
Ġru mp
ĠtyÃ¶ llisyys
Talo us
ĠS ala
Ġlaps uuden
Ġapte ek
ĠM O
Ġtai dot
ĠSa maan
ĠB re
Hall ituksen
Yhte is
uu deksi
Ġpare mpaan
C K
Ġe es
Ġava ja
ote lla
Ġtieto turva
ĠO mat
EtÃ¤ isyys
Ġod ota
Ġsis usta
ĠP us
kun en
ĠB rit
ĠehkÃ¤ pÃ¤
oker ia
h enkilÃ¶n
koke mus
ĠVir ta
Ġkoti mainen
Ġpyy si
ĠjÃ¤rjestÃ¤ minen
Ġth is
juus toa
Ġtava ran
ĠJuh o
Ġedusta jat
kate mia
Ġkommen tista
anna lle
kuva ssa
Ġklassi kko
ann i
vuor en
ĠtÃ¤ssÃ¤ kin
ĠpÃ¤Ã¤t oim
Ġs ome
tegor iaan
t he
m yyttÃ¤
iss Ã¤ni
Ġsa u
b us
AL LA
Ġtreen i
tun eena
V OIT
SS ÃĦ
ĠG lob
Ġmaks oi
ĠheinÃ¤ kuu
Ġmenet tÃ¤Ã¤
j er
Val tion
Ġvaro vasti
ko tel
ĠmyÃ¶hÃ¤ ssÃ¤
Ġseksi kÃ¤s
et uksi
ĠLÃ¤h es
s hot
ĠMa hdollis
Ġmuka via
Ġle gend
Ġka llio
t teri
Ġis Ã¤nnÃ¶
Ġkorva us
Ġseko itta
Ã¤lÃ¤ inen
ust ukset
Ġb r
, ,
Ġsuunnit telua
G A
ia m
S EN
Ġase maa
ĠYhteen sÃ¤
Ġstand ar
ĠInter national
Ġtu pako
Ġta iv
ĠX XX
ĠN at
Ġkas vit
st r
Ġes corts
ing er
Ġmuist in
ten i
Ġodote llessa
B en
Ġpien een
TI ON
Ġitsen Ã¤isyys
ĠpÃ¤ivÃ¤ llÃ¤
ĠmetsÃ¤ ssÃ¤
Ġ19 50
Ġvah ve
Ġh ellÃ¤
Ġtava llisesti
Ġhuhti kuussa
IT OS
to itu
K KO
ila si
yy ppi
imp Ã¤Ã¤n
liik enn
koko uksen
Ġpohja lla
ĠHaa pa
Ġartikk elin
K T
ĠymmÃ¤r rÃ¤n
ĠM E
enn y
ĠT ho
9 4
Ġis kee
Ġsaman laista
Ġtilan teita
ĠtyÃ¶ tehtÃ¤
T iede
ĠS pa
su hde
i pp
I t
yt ystÃ¤
Ġkes kinÃ¤
Ġsanot tuna
Ġmy yty
Ġs c
ĠS hop
Ġkiinnos tuneita
Ġtohto ri
Ġtoimeen tul
Ġkar sin
il uva
ĠVal mista
ĠTuo tta
ĠmÃ¤Ã¤rit ellÃ¤
Ġke llon
D S
Ġb aa
ER I
li an
ĠE R
ĠEi vÃ¤t
ym y
ll et
kat to
ĠU utta
ist uksia
vel vollis
ĠSa vo
Ġr kl
Ġpike mminkin
Ġvar usteet
n on
Ġsaa tan
ĠlÃ¤hd ettiin
Ġperinte isen
S yn
Ġaih eet
ĠO lo
s teen
Ġis Ã¤nsÃ¤
Ġkirja llisuuden
suunnit telu
Ġras kauden
M edia
ck et
Ã¶ issÃ¤
LÃ¤ hde
Ġulkopuol elta
w an
ja kso
Ġis la
missa an
pan kin
Ihan ia
Ġsuo jat
Ġkoto isin
z ar
Ġ12 5
ĠC hat
ĠM ihin
Ġmun aa
Ġ6 7
ikk eli
Ġilmoit etaan
ks esta
py sÃ¤
ty m
r oin
arv ot
ĠkÃ¤yttÃ¤ jiÃ¤
kar tan
da m
u ch
Ġop intoja
ĠF red
Ġaik ansa
Ġras kaa
la ukku
ĠjÃ¤r ven
etti Ã¤
ĠP uo
Ġdig ital
c us
kko is
Ð ´
Erit y
Ġmuuta mat
ip s
Ġtui j
VA A
A lla
Ġautta maan
Ġhuon etta
Ġkul kea
it sen
pp ila
Ġkoul ujen
ĠK iina
Ġhal kaisija
kinn Ã¤t
ĠKl ikkaa
ĠA vain
Ð °
tee llisesti
ĠH uuto
Ġa isti
ist ukseen
ĠV ASTA
Ġluo daan
Ġp innalle
Ã¶ i
Ġk lub
ĠneljÃ¤ s
Ġsaa ti
JÃĦR JES
don na
Ġvalmist uu
Ġpl ussa
Ġs uussa
tu ma
ĠsydÃ¤n tÃ¤
ing a
Ġsi elun
Ġhal valla
LL ÃĦ
kka la
Ġmaahan muutto
kin tÃ¤
Ġmen es
O sta
ken ut
Ġseuraa valla
Ġva ali
Yks ity
Ġmenet tely
Ġpyr kim
ĠlainsÃ¤Ã¤d Ã¤nnÃ¶n
vuotia iden
Ġkuu m
ĠsyÃ¶ pÃ¤
Halu atko
ky llÃ¤
Ġhalut essasi
Ġpositiiv ista
Ġvaikka kin
k elin
unn alle
Ġvan taa
Ġtavar oita
Ġjolle kin
Ġt ro
ĠT uus
Ġmerk ityksen
ĠMicha el
ĠTuu la
eh me
Ġyrit etÃ¤Ã¤n
Ġpal kitse
projek tin
Ġli pun
itos ten
il er
Ġkyt ke
C ar
Ġlen tÃ¤Ã¤
paket in
Ġkat saus
ĠjÃ¤l kir
p uun
ĠEs cort
On nea
Ġed ut
F S
Ġm Ã¤n
Ġtoimi ala
ĠKuva ssa
Ġ( =
ĠrÃ¤ j
Ġpuh al
Ġakti viteet
Ġverta ilu
Ġann ettiin
Ġvase mmalla
Tiet o
R as
ĠheinÃ¤ kuussa
ĠD ani
Ġtunn issa
de d
mat is
Ġole viin
Ġma lle
Ġvar ti
Ter ve
Ġhaa voit
Ġol koon
Ġpaika llista
Ġasiakka illeen
ĠBlog i
oa an
Ġhalua masi
K L
Ġsuunnit teluun
Ġtiet oon
ĠP y
Ġj utu
Ġtutki jat
y mmÃ¤r
et iet
ĠRa u
en ergia
Ġkir jojen
Ġj an
t yttÃ¶
Ġsaatta isi
ven e
Ġpaper it
k isi
ĠB or
Ġkita ra
Osa llistu
Ġhuo ra
ĠkesÃ¤ kuun
ĠMÃ¤ kelÃ¤
ĠKoi ra
R AN
Ġma usta
Ġrisk it
ĠOike us
Ġval innut
Ġosoit tavat
mi on
Ġposta uksessa
markkin oiden
Ġli festyle
Ġre it
Ġneuv onta
ympÃ¤ristÃ¶ ssÃ¤
Ãĸ T
Ġoh ut
Ġtu llessa
ĠP ot
ĠM assa
di g
pÃ¤iv ien
ras tr
S ivu
kÃ¤yttÃ¶ Ã¤
ĠpÃ¤Ã¤ tellÃ¤
id i
ĠY our
Ġkut sut
EMA KAA
Ġliik untaa
Ġkyr pÃ¤
Ġol it
Ġvien ti
ut y
it ettiin
Ġle ikk
Ġta bletti
Ġjatka maan
Ġvaa sa
Ġfoor u
z i
pain iketta
s uun
ĠvÃ¤ keÃ¤
Ġav un
Ġtarjo ukset
Ġelintar vike
M S
O s
M it
ĠT utki
ĠTul okset
ĠT Ã¤h
ri llÃ¤
ĠTai de
pal kinto
pyÃ¶ rÃ¤n
Ġh ol
Ġpiir issÃ¤
Ġri is
Ġviera ita
Ġ% :
Ġs to
Ġvaikutta nut
ĠMuista n
voi mat
19 99
Ġtoimen pide
Ġsuh teet
ĠKes ke
Ġkysym yksen
Ġlop un
KU U
isi mmin
Ġkat u
Ġlasken ta
ĠelÃ¤ kelÃ¤
mm istÃ¤
Ġmonipuol ista
Ġso vitta
Ġy o
Ġpoikke us
ĠH uu
isel oste
ili joille
ĠOp en
mm on
uks ina
kk ik
Ġulkon Ã¤
ĠhenkilÃ¶ tietoja
Ġparha ista
Ur he
Ġs yste
Ġval eh
loma ke
Ġitsen Ã¤is
L an
Ġkes kia
ĠtyÃ¶ paikat
Ġluk uvuo
s isÃ¤
Ġhelp otta
Ġmas turb
Ġtutkim ukseen
Ġtap atur
tar p
iv erk
ĠelÃ¤mÃ¤Ã¤n sÃ¤
Ġosallis tuvat
itse va
ĠAl uksi
Ġs ua
feren ssi
K AT
itta vissa
ar tikk
ĠsÃ¤hkÃ¶posti osoite
ĠEd u
ĠâĤ¬ .
ĠBea ch
j oi
Ġkar t
ist yÃ¶ssÃ¤
ĠsÃ¤Ã¤ntÃ¶ jÃ¤
Ġko ot
Ġosaa vat
sa iraa
Ġlapsen a
20 01
hoita jan
hdist us
Ã ¨
ĠO tava
Uuden maan
v yttÃ¤
Ġlaul aa
Ġd u
Ġruu mi
te ellÃ¤
Ġarvos telua
unn ossa
Ġet ua
T Ã¤r
oog len
it ykset
Ġ199 4
ĠMar ras
ĠJ uus
Ġh uuto
Ġelintar vikke
ĠsyÃ¶ nyt
ĠvielÃ¤ pÃ¤
Ġen emmistÃ¶
Ġavoim en
Ġkunn at
Ġkal asta
materi aalia
N im
si assa
Ġseur annut
ĠEur ope
ĠYli opisto
ĠV ie
kÃ¶ n
Ġlu men
Ġr om
ip iir
Ġpan kkit
ĠTul ee
ĠvehnÃ¤ jauh
Ġpiir akka
ĠYhdysval tojen
ude ksi
Ġ qu
ĠM esta
Ġm alta
ĠNor d
Ġaiku iset
ĠPel it
KI MUS
Ġma kea
im massa
lin kki
os een
Ġpalvel us
os toa
sit y
os issa
Ġp enk
Ġpal jo
Ġlista n
ape ut
ET TA
to innit
Ġuskon to
ĠtyÃ¶nteki jÃ¶itÃ¤
ĠV astaan
Ġsuunnit ell
kk el
ĠP op
Ġulko a
Ġtai tava
ta isiin
Ġal v
Par as
ĠA D
P aa
ĠkÃ¤r sin
Ġsuklaa ta
ĠH ALL
Ġoik eita
ĠpÃ¤Ã¤s tÃ¤Ã¤
jo hdon
ĠC al
Ġviime isenÃ¤
ĠHo ll
Ġvoit te
Ġvaro va
p utki
UO R
Ġkasv uun
Ġhaas teen
imi eh
ĠtyÃ¶ voima
he inÃ¤
Ġodotta vat
olla an
Ġsaata t
ĠH istoria
San omat
Ġsuunnitel mia
Ġpuh ui
istu sa
T UT
M ÃĦN
J E
Ġharm ittaa
lÃ¤ hde
Ġenn Ã¤
ĠJo uni
P E
Ġhuole lla
Ġaasi alainen
ryh mÃ¤ssÃ¤
ĠðŁĺ ī
ist etÃ¤Ã¤n
Ġkorkea mpi
Ġluotto luo
Ġta uti
Ġerity inen
Ġk Ã¤Ã¤r
Ġku llan
Ġluke massa
Ġrat sa
IN ÃĦ
Ġha ukku
ih misten
KE A
ti ikkaa
Ġperus tel
ĠpÃ¤Ã¤ llikkÃ¶
ĠAr vos
Ġuse at
Ġkier roksen
ĠL uki
ĠB r
Ġluo minen
pum ppu
Ġ9 8
Ġras kas
liik unta
ĠnÃ¤ky Ã¤
ĠHy vÃ¤t
Ġkor tteja
Ġongel mien
ĠtÃ¤rke imm
Ġverkko kaupasta
Ġmat to
Ġja kso
Ġt iman
Ġsan oit
tur na
ĠSu vi
si puli
ĠH it
Ġhi uksia
ĠO ffice
ĠM AA
ĠHuo menna
Ġsoit in
ut ka
Rak ennus
Ġt en
Ġkul taa
ĠP idÃ¤n
Ġl usi
Ġsel ville
Ka iken
Ġtas oit
Ġprosen tti
ĠTurva llisuus
Ġma g
Ġkyl mÃ¤Ã¤
ĠSeks iseuraa
Ġvira llisesti
ĠF ri
aa ti
Ġha p
ĠS pe
ĠympÃ¤ristÃ¶ Ã¶n
st os
maa si
Ġnaap uri
ĠelÃ¤ vÃ¤
ĠP as
Ġpip ar
ĠneljÃ¤n ne
Mies ten
ĠTied Ã¤n
Ġlaj in
uo kka
hd a
h ko
ĠPirkan maan
Ġsym bol
Ġkat ker
h alu
ĠpÃ¤Ã¤tÃ¶ kset
r ei
Ġpop ul
ĠKi el
Ġav uksi
Ġkrit iikki
z on
ĠEsit yksen
Ġjohta misen
IL U
ot tele
Ġka llista
Ġneuv oston
Ġtuotta ja
Ġl istaa
Ġta uon
Ġyhden verta
ol en
Ġk iss
ĠlÃ¤he isyydessÃ¤
ne mmÃ¤n
C on
ĠSa v
ĠP lan
p uku
v immat
Ġvi ll
vi is
ĠTa mmi
hoid ossa
ĠpÃ¤Ã¤si vÃ¤t
b ud
Ġsovel taa
ta il
Ġsyn tyÃ¤
Ġmelko inen
Ġ0 44
Ġsaap unut
Ġmaahan tuo
S TÃĦ
Ġmatka lle
Ġsyn ny
Ġopet ella
Ġko van
Ġaj oi
Ġyhd elle
p sy
ĠK uun
ro kset
l Ã¤Ã¤n
Ġpuol ta
d al
Ġrahoit uksen
ĠtÃ¤ytÃ¤ ntÃ¶Ã¶n
Huo m
Ġmaala us
ĠToim innan
200 2
tÃ¤ mÃ¤
ĠpÃ¤ivÃ¤ koti
ke illÃ¤
Ġpim ppi
Ġkuu maa
M yydÃ¤Ã¤n
ĠtyÃ¶nteki jÃ¤Ã¤
TA N
per us
Ġpo ist
ĠhenkilÃ¶ kunnan
ĠP h
Ġperheen jÃ¤sen
ĠTarjo us
Tamper een
ĠtÃ¤yden tÃ¤Ã¤
Ġh uuta
Ġtus ka
m ul
ĠPalvel un
ĠP ub
lu ettel
Ġluon toa
ĠJo tain
Ġv Ã¤Ã¤
un da
ĠHa uta
ĠKouv ola
ĠR inta
Ġku vio
si hteeri
si kki
ĠsiemensyÃ¶ ksy
Ġtunn en
Ġvast ustaa
Ġmen isi
Ġhar ma
Ġtoimen piteitÃ¤
Ġja a
utettu ja
Ġpaika llisten
Ġsuure lla
ruskea verikkÃ¶
ĠyllÃ¤ pid
ĠLe ppÃ¤
Ġmin er
Ġhake massa
Ġyksinkerta ista
Ġve dellÃ¤
Ġp asta
Ġehd oilla
ĠSus anna
Ġd raa
Ġtaloude llisesti
Ġvier asta
te ksti
Ġpuolu eet
et oiminnan
Ġpien emmÃ¤
Ġris kien
n ro
9 3
Ġpa peri
Ġtaat usti
ĠPoli isi
Ġjuo ksu
Ġlait ettu
vÃ¤line itÃ¤
Ġal haa
V ALL
te llut
Ġvi el
Ġkulttuu ria
ĠNet tiauto
ak on
ĠK om
Ġverkkosivu illa
Ġihmis illÃ¤
L eena
Ġosallistu maan
ĠUusi maa
T UR
Ġd ildo
Ġsuur ten
Ġtoteutta maan
Ġkain al
Ġmootto rin
ark isto
Ġmuutta maan
ON TA
9 1
ĠkÃ¤sit elty
Ġpaika llinen
vu uksia
Ġaine iston
itti Ã¶n
ĠS ig
h h
inn ista
Ġh innalla
ĠTo isen
Ġ9 00
Ġvoit u
ĠMyÃ¶ hemmin
oim ista
Ġkoti talo
Ġla ih
Ġpo istettu
ale issa
Ġkr s
Ð ¾
ĠkÃ¤Ã¤nn Ã¶s
Ġarvi oinnin
uv ut
os ter
ĠpÃ¤Ã¤dy in
L oma
ili Ã¶
k t
kÃ¤n nyt
A merikka
Ġc am
Ġkats el
ĠkÃ¤s issÃ¤
Ġvanh asta
Ġlak an
Ġher m
Ġpal sta
Ġartikkel issa
Ġmuuta massa
valmenn us
ĠvÃ¤lttÃ¤ mÃ¤tÃ¶ntÃ¤
Ġkata stro
Ġti pp
Ġp h
Ð µ
Ġajat usta
Ġmu istel
TA LO
isu uksiin
aut ot
ĠVir tanen
6 00
ĠT otta
ĠP RO
ĠtyÃ¶kalu ja
Ġsuure mpaa
Ġtoimi piste
Ġmietti i
i or
Ġno ve
Ġkim ppuun
Ġtil ojen
pÃ¤Ã¤ t
Per he
Ġoh essa
ĠIl meisesti
ian i
OPIM US
ĠH oit
ĠnÃ¤kem ys
Ġpaika llisen
im ille
ii pp
Ġlu enn
luo n
ĠlÃ¤h den
ket j
Ġolet ko
ĠPir jo
Ġvaih toa
ĠlÃ¤htÃ¶ Ã¤
suh teet
p Ã¶l
f ri
Ġo mme
utu ivat
ĠOn ne
ĠpitÃ¤ en
si lta
ĠKa hden
Ġbi isi
Ġtun ke
Ġluo tu
ĠnÃ¤yttÃ¤ mÃ¤Ã¤n
P osted
ĠpÃ¤Ã¤t ettiin
Ġeriko ista
Ġhauta us
ĠMar ian
tt ina
Ġes ite
mm iin
Ġosoit ti
Ġta ppaa
ta matta
Ġhe iko
Ġtuotan toa
Ġet ta
ka ppale
Ġsen ttiÃ¤
Ġtyt Ã¶
Te ksti
Ġros ka
Ġmahdollista vat
Ġliv enÃ¤
ĠlÃ¤hd Ã¶ssÃ¤
ĠN ar
n Ã¤n
Ġoike uksia
M ari
Ġeri llistÃ¤
Ġhel mi
ĠkansainvÃ¤l isesti
voin tia
Ġhiil idioksi
P idÃ¤
f it
olog ian
Ġseuraa vassa
KÃ¤ ynti
ĠA C
ĠhenkilÃ¶ lle
Ġkir joista
men ettel
ĠS uk
Ġn ok
Ġis tui
ku villa
Ġmyy mÃ¤lÃ¤
tee mme
U usin
t ri
ĠE mil
ĠlÃ¤mm it
Ġedus kunnan
B io
ken ta
Ġvanhe mmille
Ġmaa lais
p rin
hi eronta
d is
la isesta
Ġmahd otto
Ġma ta
n iemi
Ġtule hd
Ġk liin
ĠAse ma
Ġhu man
Ġne iti
ĠMuut os
T yÃ¶n
Ġavio liit
Ġmin ister
kirja sta
V as
ĠL iv
Ġ3 50
US A
Ġlo gi
Ġkulke vat
Ġta ann
ĠvÃ¤it Ã¶s
pp el
Ġvaikutta va
kos uo
as y
itty Ã¤
Ġris kin
ĠSuomala iset
Ġker Ã¤tty
ĠkÃ¤yttÃ¤ jille
ĠNor jan
Ġsuur immat
Ġvaih telua
ĠpuolivÃ¤l issÃ¤
. âĢĵ
Ġjatku vaa
ĠRi ikka
utta via
ĠI V
y o
ĠEn kÃ¤
ĠF e
Ġkaun o
it yn
Ġvel oit
op alvelu
Ġor kes
ĠensimmÃ¤ isestÃ¤
Ġka du
Ġaut oja
ĠW W
ul ehd
m eri
ĠD ating
Ġpyst yt
ĠlÃ¤h empÃ¤nÃ¤
Ġko ossa
Y stÃ¤
ĠBar cel
Ġ199 2
Ġput oa
ĠjÃ¤ mÃ¤
Ġvasemm isto
enki er
ĠKirja udu
ki vÃ¤Ã¤
Ġehd otus
Å Ĥ
Ġsovit tu
Ġp isteen
ĠR ei
ĠmetsÃ¤ Ã¤n
jÃ¤ llÃ¤
Ġennak koon
kaar en
Ġpysy i
is il
Ġluonn osta
V Ã¤hÃ¤n
Ġver ho
itÃ¤ t
men tit
valtu uston
ĠHyvin kÃ¤Ã¤
ĠY a
oit uja
Ġ unta
Op etus
onal d
Ġra ikas
ĠIh mis
Ġmun at
Ã¤t kÃ¶
Ġitse llÃ¤
teh tÃ¤vÃ¤
s ukka
ot s
ittÃ¤ vÃ¤n
Ġtall et
ĠLiike vaihto
l und
Ġteh ta
so ta
est innÃ¤n
Ġsano vat
ĠhyÃ¶kkÃ¤ ys
Ġhaastat telussa
Ġma ino
Ġtoim intoja
ĠkestÃ¤ nyt
ukko ja
llise mmin
ra hoitus
ĠjÃ¤rke vÃ¤
ĠItali an
Ġse ksin
K l
asi at
ĠalkuperÃ¤ isen
Ġed isty
Jo kainen
uh uone
Ġkunto sali
Ġkuljet taa
Ġvahv isti
si is
ĠS imo
il yt
vi es
Ġikkun a
Ġtoteutta minen
ra haa
Ġopp imista
Ġkas vojen
Ġsy yttÃ¤
Ġmaase udun
EL I
Ġreippaa sti
osa ke
Ġopetta jien
Ġvi ite
mÃ¤lÃ¤ inen
Ġhar ha
Ġpaina malla
l aat
ĠH Ã¶
Ġperh eiden
aal to
ĠsÃ¤Ã¤d etÃ¤Ã¤n
h uhti
ĠM AR
te isiÃ¤
n s
ĠFinland ia
Ġtaistel u
ĠmÃ¤Ã¤rÃ¤ stÃ¤
Ġp um
ĠC opyright
Ġpor ukkaa
HD OT
Ġkoo di
ĠÃ¤Ã¤r essÃ¤
Ġmateriaali en
Ġmaal iin
Ġvihre Ã¤Ã¤
Ġan to
Ġpaik oin
Ġko ri
ur ia
Ġero tic
Ġinternet yhteys
Ġmil tei
ĠEspan ja
Ġtota al
ĠYhdist ys
Ġhar vemmin
uv ir
Ġkirjoita n
Ġtakaa pÃ¤in
, ...
Ġuskonn on
ĠO f
Ġjo ensuu
Ġpuna ista
Ġvaih de
tar ina
Ä ±
Ġa katee
rastr uktuu
uh at
kur ssin
ĠVi estintÃ¤
jÃ¤rjestÃ¶ t
Ġte istÃ¤
Ġhake mus
P aika
Ġman sikka
Ġva kiin
Ġput keen
Ġn es
Ka uni
ver in
ĠS ho
ile mÃ¤Ã¤n
ne ll
li x
da p
Ġjal assa
ĠEs ko
Ġhahm ot
Ġkorke alaatu
ĠylÃ¤ puolella
kko jen
ĠPa ista
Ġt ukka
a u
ĠvÃ¤ sy
Ġmen eillÃ¤Ã¤n
Ġa ivo
Ġer on
ch i
Ġkys yntÃ¤
O LL
ĠMika el
mala inen
Ġti es
ĠpÃ¤Ã¤s isi
men laa
Ġval uutta
es tÃ¤Ã¤
Ġapp el
ĠBib le
matto mien
ĠnÃ¤htÃ¤ vyy
taa tio
llis uudessa
Ġautta nut
Play er
Ġva kit
Ġhu llu
Ġmaa kunnan
ED OTE
fer ens
ĠsyÃ¶ t
Ġratkais un
Ġkau ppi
. ).
E de
Ã¤h tÃ¶
ĠF ir
Ġli ika
Ġtarp eiden
ma hdollisuus
ĠI talia
Ġta ika
Ġtarjo si
ĠperÃ¤ kkÃ¤in
ĠKr istuksen
LU ETTELO
vuotia ille
Ġkiinn ostusta
Ġko mea
M el
ĠVas tuu
matto mana
ĠtyÃ¶nanta jan
Ġtila isuuden
ĠHy vÃ¤n
imp ana
Ġm uk
ĠV TT
ĠT enn
ĠKat ja
Ġpysty vÃ¤t
ĠhyvÃ¤ks yy
ĠMer ja
Ġavoim esti
Ġyhte isiÃ¤
ta neet
Ġkomis sion
Ġves istÃ¶
oit unut
Ġsiv uja
Ġlento kenttÃ¤
v ystÃ¤
1 50
S aksa
Ġpelaa jien
ha lla
ĠelÃ¤ imiÃ¤
Ġver otus
Ġs te
Ġkolm ella
ĠK up
Ġtaid etta
ho telli
ĠJar mo
ĠKer ran
Ġal kuva
Ġmuka iset
muka inen
Ġvauhd illa
T IS
Ġpelaa jille
Ġvapa utta
S P
ĠHo use
Ġhy gien
Ġmon ina
Ġliiket oim
Ġsiir ry
Ġpiste itÃ¤
ĠS anta
Ġop tim
Ġma ine
T uli
ĠKoh ta
Ġajat uksen
sÃ¤Ã¤d Ã¤ntÃ¶
Y P
c le
Ġluke minen
Ġpan ee
jÃ¤rjes tys
sk ettÃ¤
ĠA ma
teke vÃ¤
Ġval intoja
ĠitsenÃ¤ isesti
Ġs iin
ik eskus
Ġm ust
Ġpien istÃ¤
Ġs yyn
K N
ee llisia
ĠK elta
eh a
en kaat
ut is
ir as
E dellinen
ilpa ilu
ĠA vainsanat
E hd
ĠtehtÃ¤ vÃ¤Ã¤
Ġv itsi
ds m
Ġkiinn itetty
ĠmÃ¤Ã¤rÃ¤ aika
essÃ¤ si
ĠkehittÃ¤ mist
ke ak
ĠP alo
Ġosa kkeen
ĠO tto
Ġaih eita
Ġkolm essa
ĠkehittÃ¤mis essÃ¤
ik Ã¤Ã¤
Ġo i
mp ur
Ġovat ko
ĠBlu etooth
ĠtyÃ¶ kalut
Ġsekun tia
Ġjolla kin
Ġtod istaa
ik enne
Ġhar mon
Ġrahoit usta
ra dio
Ġt ossa
ĠS ydÃ¤n
Ġkerto mus
Ġhuone kalu
Ġvuokra us
tin eet
ok sa
Ġvastaa vasti
Ġvoim ia
Ġna uraa
Ġsitte mmin
M ukana
Ġop innot
Ġkuu lin
Ġmaksa vat
Ġweb cam
ĠMikk eli
ĠA jan
ĠMi eli
ta h
KA AN
Hal ua
t tit
ĠV ÃĦ
vi ppi
ĠG ay
ĠvÃ¤h emmistÃ¶
ĠM AT
Ġv eli
Ġnuor ena
ien ce
iteet ti
ĠsisÃ¤ isen
Ġkirjoit in
S eksi
Ġsa is
Ġ3 60
ES TI
Ġterr or
Ġkansaned ustaja
Ġperso on
ĠKor ko
Ġtutkim ukset
Ġmuo kka
Ġhistori asta
Ġhote llia
umer ot
kau ppaa
ĠS yste
ĠSal on
ĠD NA
Ġpen is
Ġta uk
enki lle
K y
ĠkÃ¤yttÃ¶ ohje
Ġlaps ista
uks eesi
Ġrool issa
ÃĦ Ã¤n
tyÃ¶ tÃ¤
IS U
lain at
ti ellÃ¤
Ġkoi ria
Op iskeli
se uran
Ġken tÃ¤n
Ġmen neet
Ġroh kea
Ġsil mien
Ġruu miin
Ġleff a
utti vat
om on
Ġtapa hd
ker taa
ĠLa ina
us tetaan
% )
Ġteor eet
Ġne utr
Ġva uhti
Ġrauta tie
ĠAm eri
ĠA ja
laitte iden
Ġtyypi llisesti
jat tain
ĠepÃ¤ mÃ¤Ã¤rÃ¤
ĠKÃ¤ si
s uu
Ġsaun an
Ġnaut in
Poli isi
ĠmÃ¤Ã¤rit ellÃ¤Ã¤n
ĠE gyp
ĠTÃ¤lla inen
Ġilta isin
Ġkah vit
Ġkaiken laisia
maa mme
Ġtai dan
ĠHel ppo
Ġpes u
ĠKa uha
Ġluo nut
Ġposta usta
Ġleiv onna
ĠpysÃ¤ hd
Ġkau ppaa
ĠkÃ¤Ã¤n ty
Ġasu misen
ta ito
Ġaih een
Ġlaitte ita
Ġki pua
Lap set
Ġvide op
ĠTo mi
Ġho mman
pÃ¤Ã¤ tÃ¤
ĠEnglann in
ĠyllÃ¤ t
Ġsa mma
Ġtieto inen
ĠtÃ¤ hd
ĠD el
Ġh ul
Ġtasa lla
vaat teita
mp oo
it tua
ĠR ap
TI O
Ġkunna llis
ra g
ĠMuuta ma
y al
vÃ¤ rit
uks ineen
kohd an
ku ista
liitty mÃ¤
Ġvapaa ta
suomala isten
ym pp
Ġki vat
Ġmahdollis uuksien
Ġse udulla
anta jan
A urinko
Ġkerr ottiin
ku mppani
Ġur an
Ġarvi oita
F A
Ġhuol issaan
Ġa c
Ġa gg
Ġaloit etaan
ĠNÃ¤ kÃ¶
inan ssi
por ta
ĠRo ck
bo li
Ġil maa
ĠN ik
ot telut
Ġa vi
ĠRak en
Ġpo istetaan
Ġkaupun kien
Ġlei pÃ¤Ã¤
Ġvaihtoeh toa
ĠjÃ¤l kelÃ¤
IL A
Ġparhaa ksi
Ġtalo on
mitta ri
g at
Ġtaakse pÃ¤in
IT TA
un een
teki jÃ¤t
Ġmeta lli
Ġhuolehti i
Ġlaad ittu
ĠLa ine
ĠT ehd
Ġhan kkin
e x
eti edot
g ot
Ġarvos telut
ĠkestÃ¤ vyys
vaikut ukset
Ġtoukoku un
ee llisten
Ġta mma
Ġesimerk kinÃ¤
w ord
ĠMÃ¤n ty
Ġavat tu
Ġavar uus
Ġhien on
o ff
vaih een
ĠJ ames
Ġedelleen kin
uut u
Hien o
el mien
O on
ĠLop uksi
hÃ¤ iri
kke essa
Ġr innalle
Ġhi ero
iste llÃ¤
tu van
ĠO stin
Ġmat k
ĠS uh
ĠLo ve
la si
politi ikkaa
ĠH AN
Ġtule via
Ġsein Ã¤Ã¤n
ĠlÃ¤snÃ¤ olo
Ġjauh el
Ġanal yysi
pp Ã¤Ã¤
Ġmootto rit
Ġpeh m
ul ia
Ġammati llisen
kerta inen
lla kin
Ġvaivat tomasti
K unta
KÃ¤ y
Ġta kais
Ġkunn osta
ĠHar maa
Ġris kiÃ¤
ĠpÃ¤Ã¤s seet
vi ihde
Ġuud istus
vo llinen
Ġtuke minen
NÃ¤ itÃ¤
Ġ5 000
Ã¤l Ã¤is
le vyn
Ġkon flik
Ġty yty
Ġaset ettu
kan san
kon i
Ġkaupun k
Ġauk ea
Ġtait oa
Ġo to
Ġko ukku
ĠpÃ¶r ssi
tte iden
le in
Ġlaina ta
Ġle p
pa han
ĠT ube
Ġvi il
ĠhenkilÃ¶kohta isia
V Ã¤l
ĠPalvel uehdot
ĠSata kunnan
Ġvan g
ĠÃĸlj y
Ġpik kul
Ġero tiikka
elle et
+ )
ĠlisÃ¤Ã¤n tyy
Ġes ine
Ġmon ikul
Ġre aalia
ĠVih reÃ¤
Ġmuutta minen
Ġkar vainen
Ġsal aatti
Ġvir an
Ġtart tui
ĠtyÃ¶pa ikkoja
m ite
Ġpur e
ĠKot ka
se er
Ġsiir tynyt
Ġhar ja
Ġkohtuu llisen
Ġkoke ilu
to uk
Ġkot ite
Ġv ila
Ġlaad ukasta
ki e
Ġpes ua
utta essa
Ġkiel ita
ĠMaa se
Ġtapahtu miin
ohjel mia
Ġna iselle
tu us
ĠtÃ¤ysi llÃ¤
B I
Ġjat kan
ĠNÃ¤ illÃ¤
ĠelÃ¤ kkeelle
lÃ¤h e
ĠLyh y
Ġte etÃ¤
pel ien
ka hv
Ġpoli is
Ġped agog
it ut
ĠVir o
sovell us
Ġvah vaa
Ġerinoma isen
Ġkahd elle
ĠYksityisyys kÃ¤ytÃ¤ntÃ¶
ityks estÃ¤
ĠB ab
nÃ¤ ky
j etta
Ġliiket oimintaa
ĠEspan jan
Ġtunn ist
Ġjulkais ut
Ġperhe essÃ¤
ĠHyvin vointi
ĠVe den
ĠÃ¤iti ys
Ġt estit
ĠN O
Al oit
Ġrakennus ten
KÃ¤ sit
Ymp Ã¤ristÃ¶
ĠpyÃ¶ rÃ¤n
Ġper una
Ġtietty jÃ¤
vara us
ĠÃ¤Ã¤n iÃ¤
Ġ7 7
kor tilla
Ġmole mmin
Ġmateri aal
ĠtehtÃ¤ vissÃ¤
Ġkarta lla
ĠystÃ¤ ville
alis min
ĠvÃ¤s ynyt
ĠlisÃ¤Ã¤ vÃ¤t
ĠK AS
re iss
Ġkuts uttu
z y
ele itÃ¤
ĠAn aali
iv uot
Ġvie vÃ¤t
e iksi
Ġkuu me
le ikka
kor ko
ĠMÃ¤ ki
tegori at
ĠlisÃ¤ tietoa
b ra
Ġpide mmÃ¤lle
telli itti
Ġh ass
Ġkat sa
Ġmarras kuun
Ġkoti paikka
Ġpi ppur
ker in
tele minen
Ġtutki maan
ĠkerÃ¤ tÃ¤Ã¤n
Ġtied oksi
V ETO
ĠJuh la
ĠlÃ¤ pÃ¤
Mon et
kir jeen
nn Ã¤
Ġvapa ana
I r
gas mi
ust yÃ¶n
Ġravinto lan
ĠDoc Player
Ġkuvaa maan
al Ã¤
Ġheng issÃ¤
Val itettavasti
ĠMat eriaali
Ka u
s san
ĠSin ulla
To isaalta
Ġpel at
eet ti
et ystÃ¤
Ġmaks uton
j uur
t tori
Ġkeh o
Ġfysi oter
Ġtun ten
ĠtyÃ¶ kaver
ĠEsit ys
ossa in
ow een
ĠL ehd
Ġ6 1
ing s
b ia
har maa
ot uksen
varo jen
Ġhoita maan
istele maan
Ġik Ã¤Ã¤
ĠnÃ¤pp Ã¤rÃ¤
M iet
Ġpes e
ÃĦ iti
Ġresurs seja
Ġkeske iset
Ġlas kun
Ġikkun asta
ĠAs ennus
Ġvastaa via
L uon
Ġl im
vit yksen
ĠVide ot
ti assa
V alo
v d
ĠPit kÃ¤n
Ġpyr kiÃ¤
Ġvar assa
Ġremon tti
wa gen
Ġkal an
Ġsaa mela
anta jat
Ġavio liitto
Ġna ise
ĠkestÃ¤ vÃ¤Ã¤
Ġkerro ksen
ĠtyÃ¶ llistÃ¤
Ġpys ynyt
Ġopetta jat
ĠPor tug
B a
Ġlopp uvuo
Ġmerk kiÃ¤
pohja inen
Ġyle isiÃ¤
Ġpuh eena
ma isia
ĠtyÃ¶elÃ¤ mÃ¤ssÃ¤
ĠU usia
Ġto isena
Ġvapa us
ĠP AL
E Y
Ġasenn ettu
m osta
Ġkiv en
p uo
m itus
Ġken kÃ¤
Ġmielen osoit
Ġsi puli
ĠkÃ¤sit yksen
Ġvier aan
Ġker tynyt
Ġhaa staa
ĠL ee
Ġtul kinta
Ġmoder ni
ĠKuu l
Ä Ĥ
Ġpa hi
ĠPan kki
ĠR on
Ġtul et
ĠevÃ¤ steet
Ġmielu iten
kÃ¤ llÃ¤
ĠNa hka
Ġka ksinkerta
ĠK uk
oin tit
ĠS how
uksista an
men e
Ġyle iset
ti lta
V in
Ġhom oseksuaal
ide mme
yÃ¶sken tely
Ġt l
ĠR ep
tte i
Ġnoja lla
ak enne
Ġ_ --
G e
ĠK ell
Ta voit
ĠT en
Ġno issa
Ġliitty i
kÃ¤ tÃ¤
Ġlop utto
on ut
m ikko
Ġmut ten
Ġyh ten
or an
ĠnÃ¤kem yksiÃ¤
ĠMikk elin
ĠNel jÃ¤
ĠKys ym
Ġluo kassa
ĠMiet in
Ġh oh
ke y
ĠF A
st ra
Ġpes Ã¤
ĠT oista
im istÃ¶n
pros ess
ula in
Ġevan keli
Ġha ju
ĠN opea
ul taan
TM L
un aa
Ġpikku jo
Ġkenki Ã¤
Ġo ch
ĠJyvÃ¤sky lÃ¤ssÃ¤
Ġtiede kunta
ih uo
Ġhuole hd
ĠKir kon
vamma isten
ĠCo mp
Ġ ip
hd an
ĠMo bi
Ġistu maan
Ġpal an
imÃ¤ en
ula is
ĠpÃ¶ ytÃ¤Ã¤n
v yydestÃ¤
Ġpill un
ĠS ing
ĠtyÃ¶ ehtos
ĠP ia
Sa vo
il ia
p innan
v yÃ¶hy
ĠAM K
Ġkiito llinen
ĠM ia
Ġarv oja
te issÃ¤
Ġmaa lla
ĠG irl
i llan
Ġkein ot
ĠCar l
sa lan
kirja an
ĠS tor
Ġvalta kunnan
ĠCo mm
ĠtyÃ¶ lÃ¤
ĠlÃ¤Ã¤kÃ¤ r
Ġoike uksien
Ġkiinnosta vat
ĠKÃ¤ytÃ¶ssÃ¤ si
Ġe jakul
ĠMin ua
puh e
Ġtutki taan
Ġtu llen
eh o
Ty kkÃ¤Ã¤
Ġrakenta miseen
Ġc olle
Ġkokona isuuden
Ġolet taa
Ġ7 6
uud istuksen
Ġkohtaa vat
P una
ĠKuu sa
Ġkemi kaal
d aa
ĠA mmati
Ġl ine
P s
ĠP ut
ES I
Ġruoka ilu
Ġsairaan hoitopi
Ġko men
Ġot telua
Ġki ima
ĠL is
vÃ¤Ã¤ t
Ġ9 6
S to
Ġupe an
ĠUrhe il
ĠtÃ¤ydenn ys
Ġjouluk or
pa kkaus
vi mme
matto masta
Mar ia
Ġtekn iset
Ġvalko isen
ĠMa ksu
j uuden
Ġyksi miel
Kol me
ĠEnsimmÃ¤ isen
Ġpros essin
Ġmal ti
Ġvier e
A utamme
a us
Ġpuhu mattakaan
ali for
Ġseur aan
z an
Ġkod issa
ĠW hat
ĠhyvÃ¤ lle
Ġku mpi
ĠV at
Ġkur ssit
ĠSt reet
ikip edia
c han
Ġkon eella
Ġyksity isen
Ġo opp
laitos ten
Ġlask utus
Ġku mppani
Ġhar maan
palvel uista
ppa us
Ġsaira uden
ĠyleisÃ¶ lle
AN A
Ġhelp on
ĠES IT
Ġa gen
Ġulko il
Ġo ranssi
ĠKuu ma
P erin
h ossa
Ġsuunnit ellaan
ĠSin ulle
Ġsuun tautu
Ġpor i
iv oja
ĠT XXX
Erit tÃ¤in
rin Ã¤
ut ettiin
H Y
ry p
Ġvis siin
ĠÃ¤rs yttÃ¤Ã¤
li kaa
Ġvalko iset
h ir
te ho
ĠKaa da
ĠO per
ĠitseÃ¤ si
oid un
Ġtreen aa
Ġkans sani
kerr assa
ĠProjek ti
ĠmÃ¶ killÃ¤
Ġkehitty Ã¤
v etta
Ġpiir teitÃ¤
peli Ã¤
Ġvalmi it
pa h
Ġim ee
pal kka
Ġsuosi o
Ġsul oinen
Ġko ton
as teen
ĠhÃ¶ yr
Ġnet to
ĠkÃ¤ dellÃ¤
Ġrat sast
kohte ita
Ġteh oa
Ġv itun
Ġniin pÃ¤
P ika
Ġlin kkejÃ¤
Ġvaihd ettu
il ytys
una is
Ġvo isit
ĠO uti
ĠVi er
yhte ydet
in stituut
Ġinto himo
Ġkuukaus ittain
Ġjal kojen
ĠKan kaan
Ġkosmeti ikka
p uk
Ġparanta minen
PÃ¤ ivÃ¤n
Ġkiinnosta via
Van ha
VenÃ¤ jÃ¤n
aal iset
Ġkerr ottu
itte iden
Ġra is
Ġsil mÃ¤llÃ¤
Ġluov uttaa
d elma
ĠAr tikk
esi in
ĠS S
ĠsÃ¤hkÃ¶ inen
Ġkos ketta
menetel mÃ¤
ĠVo iko
Ġjul ki
Ġri pp
Ġpa kas
Ġm ulta
O t
Ġtutki i
puol inen
Ġta ju
Ġmuuten kaan
Sa ta
Ġpaik oillaan
ĠâĢ İ
Ġark isin
Ġkahv ila
ja ka
ĠC ra
Ġse os
ikÃ¤ isten
ĠTÃ¤r kein
Ġvara an
Ġehd otetaan
Ġh up
ĠK ela
Ġjat k
ke lle
tel ulla
Ġpalvel uta
ĠehkÃ¤ is
Ġkuun telemaan
ks wagen
Ġhar kit
Ġw ill
ĠLI IT
ĠlÃ¤h ia
Ġha jo
Ġliitty vissÃ¤
Ġlain oja
iva an
V Ã¤ri
ee lliseen
blog it
tu e
etty jen
edon lyÃ¶nti
ĠO sto
Ġla imin
tyy ppi
Ã¤nn en
vÃ¤Ã¤ llÃ¤
Ġsella iseen
Ġlemm ikki
S UO
ĠR am
Ġet up
ĠW est
at her
ĠjÃ¤Ã¤ kiekko
Ġohj etta
Ġko re
Ġtoisten sa
Ġ den
ukka ita
Ġuus ittu
ĠsinÃ¤ kin
Ġajan tasa
ta mm
kke ellÃ¤
Ġpaika lleen
Ġsp ek
ĠHel mi
ĠA MM
T P
Ġkampan ja
Ġmun ua
ka isen
vaikut uksia
Ġkadon nut
en teri
Ġvanh en
li Ã¤
sÃ¤n ky
ĠVar aa
AN TO
se d
Ġkommen tin
Ġvi i
Ã¤Ã¤r Ã¤n
ta jia
T YÃĸ
Ġpuhd asta
Ī Ĵ
Ġide an
V alta
ĠOike in
Ġlevit tÃ¤Ã¤
Ġ; -)
ĠElÃ¤ in
ist ystÃ¤
lan ka
Ġprin sessa
Ġitse asiassa
Halu an
ĠKa uk
Ġlas kel
kko la
Ke vÃ¤t
tta mus
Ġe den
Ã¤Ã¤ t
Ġsairaal assa
Ġres er
tied osto
ĠhyÃ¶dy llistÃ¤
huone essa
Ġahker asti
ĠK ukka
ĠA SI
g ian
Ġl enkki
ĠK ut
Ġpare mmat
Ġarv ostaa
ele jÃ¤
rah asto
Ġoli ivi
Ġte atteri
ĠJo uluk
K ore
kke eseen
Ġpol t
ĠnÃ¤kÃ¶ isiÃ¤
Ġol isit
ket jun
lu si
ĠhenkilÃ¶kohta isen
Ġhuu taa
Ġta uluk
Ġhyvinvoin tiin
Ġsuk u
d t
d ro
!! :
S uper
p sÃ¤
Ġinspir oi
kos meti
Ġsar jaa
ĠT in
vih reÃ¤
Ġt rak
Ġar vaa
itty vÃ¤t
ĠSo vel
r ana
v ettÃ¤
ist isen
ir it
Ġsel kÃ¤Ã¤n
ma mme
ĠN oh
ĠyksittÃ¤ inen
Ġkirja udu
li b
uo tannon
Ġlei kata
Ġma un
Ġlah joja
lo ista
taan sa
ĠW hite
p Ã¶t
ĠlisÃ¤Ã¤n tynyt
hta va
he vos
Ġstr essa
Ġsuosit eltavaa
Ġtart tua
Ġmiel essÃ¤ni
ĠVieras huone
ĠKÃ¤ yt
ssi en
ĠsiitÃ¤ kin
ni on
j eita
V en
kke ihin
Ġsihteeri opisto
Ġsaata vana
ĠK oo
Ġal kuk
ĠLo ka
luo nn
me ga
m oi
Ġtut kittu
Ġkuva ketta
ĠtyÃ¶n sÃ¤
Ġaj ettu
Ġole valla
ĠÃ¤it ien
Ġpako llinen
d om
Ġlenn ot
j Ã¤rjestÃ¤
ĠNie minen
ĠVe ikko
Ġti esin
Ġso tilaa
Ġlo og
) )
ĠmerkittÃ¤ vÃ¤Ã¤
ĠKiin assa
ĠjÃ¤n nÃ¤
Ġsul jet
ĠlÃ¤hte mÃ¤Ã¤n
m ossa
Mo otto
Ġmoder n
Ġre g
ĠSis ustus
Ġtule vista
m Ã¤hÃ¤n
u uksiin
ut kinnon
Ġnautti i
ĠmetsÃ¤ talous
Ġkaa s
ĠTar koituksen
R C
im maksi
utun een
ustoim en
K KE
EN VETO
Ġsoh va
ĠNor dic
Ġp ulla
ĠA ku
Ġos uu
ĠtÃ¤rke Ã¤nÃ¤
vi ikonlo
Ġra dan
Kys y
ĠTwitter issÃ¤
d id
Ġhuon on
siv ulla
Y L
J yvÃ¤sky
Ġr yÃ¶s
Ġ7 8
Ġku ivaa
Ġtamm ikuun
F F
yks elle
Ġohja taan
ĠK elan
ĠAl oit
ĠkÃ¤te isellÃ¤
Ġuskal taa
esti vaali
Ġkuul ee
Ġseis oo
kor ja
pa ikkaan
teli jan
G IN
atkais u
Ġtul on
h eng
ĠP akko
yty mis
ĠJa ck
Ġtode llisuus
otta van
sa una
kor tteja
im pi
V ET
Ġoma isuus
im paan
mmen ts
it set
ig assa
ĠMa y
Ġtote utuu
ĠS ub
Ġna ppaa
Ġtosia sia
Ġakti voi
ĠS lo
Ġk isaa
Ġyl ivoima
Ġmaa mme
ĠA IKA
Ġtyyl ikkÃ¤Ã¤
Ġruskea verikkÃ¶
T utkim
ura uh
yh teen
Ġ7 4
Ġsex i
ĠA uton
ĠTapahtu ma
Ka uppa
Yle is
us se
ĠkÃ¤rsi i
Ġhel vetin
omet ri
ĠJulkais tu
kad ulla
ĠTil anne
Ġaloit ettiin
ĠjÃ¤Ã¤ ki
ĠpÃ¤Ã¤ oman
ut ukseen
Ġ% ,
ro ista
La ita
ve sien
Yh teen
ĠO mista
Ġlu ettavaa
Ð ¸
istÃ¶ llÃ¤
Ġansa ita
reen i
Ġuse issa
Ġt w
Ġkyse istÃ¤
ĠV all
Ġg rilla
Ġheng e
ĠDig itaal
it oksia
Ġruokavali o
Ġle ivÃ¤n
Ġmerkityks e
Ġmaal attu
Ġvied Ã¤Ã¤n
pa gan
H u
ĠF er
ĠjÃ¤rjestel y
Ġo mille
ĠkÃ¤si llÃ¤
ment issa
ĠKyl pyhuone
ĠA iemmin
sar jat
ĠKa uko
henkilÃ¶ t
Ġpoh tii
Ġasun toa
Ġhir v
minaa rin
Ġhir mu
Ġhir vi
kirja llisuus
Ġa ter
utun eita
Ġpuheen johtajan
d asta
Ġaset uksen
Vide o
lauta kunnan
ĠKoke ile
y ne
ĠKos ki
ĠtÃ¤yt ti
Ġvaih della
ul ukko
Ġol ihan
ĠKa jaan
ĠÃ¤ sken
ĠM S
Ġj umalan
ĠMa lli
Ġo mistus
ĠSi beli
Ã¤n nÃ¤
ĠsÃ¤ng yn
Ġravinto lassa
us sin
tio on
ĠSip ilÃ¤
) ;
H T
te x
Ġhy pÃ¤
Ġpiil o
ĠjÃ¤lleen myy
Ġyhte iset
Ġl ed
ko ordin
ĠtÃ¤h teÃ¤
l uki
llisen Ã¤
ĠCh ild
Ġmain itaan
A la
Ġmesta ri
ruo kaa
Ġvanhe mman
Ġyrityks elle
O SA
Ġhe in
eellis iÃ¤
Ġklass inen
sit e
ongel mia
Ġhy vien
Ġajat telu
peri aatte
s ukunimi
ul uja
essa mme
Ġ8 8
ĠK it
ĠpyÃ¶ rÃ¤t
pa itsi
Ġtule vien
Ġoma ksi
Ġta kka
ĠTER VE
m ekko
Si itÃ¤
ĠGala xy
Ġtehty jÃ¤
te isto
Ġd uun
per Ã¤n
ĠVuok rat
lu van
Ġkyp sy
lu en
Ġp la
Ġsor men
Ġ199 3
ĠSeuraa vaksi
Ġp oin
ĠS OS
Ġhur maa
itti Ã¤
Ġloka kuun
ty mistÃ¤
Ġmiel ellÃ¤
ĠkesÃ¤ lo
Ġarmei jan
Ġjo udun
Ġvar uste
Ġkel po
un aan
jan en
Ġohjel mia
Ġta uko
Ġaiku isen
varas to
as hi
IN TO
Ġhuo maat
Ġrakenta mista
l ut
Ġpohti maan
Ġkolm ea
ĠEd ward
ĠD ub
ista minen
Y hti
ĠkÃ¤y neet
Ġhil jen
ĠtyÃ¶skenne llyt
mm et
Ġonn en
li iken
lÃ¤h etys
Ġpi ipa
upÃ¤ iv
ĠNi issÃ¤
Ġki ipe
Ġjulkais ee
ĠR E
vi taan
Ġvar j
h toa
ĠTi iv
Kiin n
l ossa
ĠRi ch
Ġlo man
ain eiden
Ġenglan ti
Ġaam usta
Ġf unk
ohjel mien
ĠKy lÃ¤
H uh
ann et
Ġmole mmissa
mÃ¤ttÃ¶ myys
ĠS DP
Ġa f
Ġvir tsa
Ġta an
p istÃ¤
utta misen
Ġf o
Ġtunte maan
Ġd iplo
Ġvarsina ista
G E
kan si
Ġseura taan
O ulun
Ġtuo maan
Ġmaise mat
Ġaurin koa
Ġvala istus
. ),
Ġbon g
Ġarvo ista
ĠTea m
Ġopisk ele
Ġolosuh teet
Ġta k
J Ã¤r
Ta idot
Ġal kunsa
ĠTeh tÃ¤vÃ¤
ĠSuomala isen
I IN
ĠHien o
Ġton tti
yty mistÃ¤
A su
ĠKa uni
Ġvarapuh eenjohtaja
Ġhilja lleen
Ġvara osat
ĠS ana
m ppi
ĠÃ¤Ã¤n estys
aale ista
Ġn oihin
Ġka lle
T otta
ongel mat
M U
li iga
Ġtehd as
palvel usta
ĠkÃ¤sit telyÃ¤
palvelu ihin
Ġel inta
ikkÃ¤ itÃ¤
le et
ĠR it
ĠpÃ¤ivÃ¤ mÃ¤Ã¤rÃ¤
Ġkokonais uutena
ĠA rab
ĠhenkilÃ¶ tietojen
Ġyl ivoi
ĠI F
Ġvaikutta maan
Ġammattila isten
ĠMi lloin
Ġaikaan saa
Ġo tat
S uunnit
ĠpÃ¤ ihde
IL L
ista t
Ġverkko on
blog in
ĠkÃ¤ sky
Ġharjoit ella
Ġhi ip
ita t
Ġmon ille
ĠT re
itta nut
Ġo ksa
Ġkri isi
Ġsan ojen
Ġperin ne
ĠĠĠĠ Ġ
Ġtaidet e
ĠlÃ¶ ys
Ġfoor umi
Ġoiva ll
Ġkaup at
Ġtut uksi
Ġtutkim uksia
Ġs k
ka si
Ġlasken ut
Ġsivus toja
ĠTek ninen
Ġko tit
Ġhuomi oi
ĠW C
Ġits eensÃ¤
ĠsÃ¤il yt
ĠK inn
ky ys
Ġaja maan
Ġsu hdetta
Ġta ksi
ĠÃ¤itin sÃ¤
Ġkana va
sian tunti
ĠA ki
mp ina
NÃ¤ yt
neuv os
Ġkyky Ã¤
la isiin
Ġtul okseen
Ġvar astossa
Ġoik een
Ġkevy en
ĠheinÃ¤ kuun
Ġuskon ut
Ġr ot
toim intaa
Ġmaananta i
R uo
Ġkunni oitta
Ġhuo maan
Ġosall istunut
ikoh ta
ĠsÃ¤hkÃ¶ Ã¤
B O
Ġtuor etta
ud ut
ĠAle ksan
ina si
Vi ikonlo
ar en
ĠKa p
ke ille
Ġratkais ua
Ġtaloude llista
Ka tegoria
Ġblog issani
Ġmal tta
ĠL ÃĦ
Ġkontro ll
Ġosallistu mis
Ġket ju
Ġhui ja
Ġkoh teeksi
s hop
Ġas uva
der in
kohd ista
ĠVi c
Ġsuorit ettu
enn en
la isena
Ġliikke et
Ġc hil
Ġliik ettÃ¤
Ġmuut tuneet
ĠK uvia
lait teen
ul ko
Ġjuh lia
us toja
ĠEvÃ¤ steet
ĠKarja lan
mo oth
ka udessa
Ġvih aa
ĠJÃ¤ tÃ¤
Ġenglannin kiel
me jÃ¤
ĠKo kem
Ġvi itsi
Ġmole mmilla
Ã¶ ytÃ¤
INN AN
Ġja zz
Ġmesta r
Ġetun imi
Ġblog eja
Ġkuulu van
ĠKat ri
Ġla u
Ġik Ã¤luo
Ġpuhu vat
ĠP eri
yks e
TA MINEN
t re
S uurin
os ken
Ġkirpp ar
kinn assa
o di
it yÃ¶
Ġpu llo
Ã¤ iriÃ¶
Ġtuotta nut
mia an
ĠNuor et
kÃ¶ inti
ĠJoh annes
kaa peli
l up
ĠtiedÃ¤ mme
ohjel misto
Ġmuutos ten
Ġmo tiiv
ste in
gl ish
Ġlu ukku
Ġvalokuva us
Ġpalvel ussa
ety istÃ¤
Ġravitse mus
Ġf esta
aat torin
s Ã¶
Ġhuomaa matta
ĠB as
j ettajan
ĠjÃ¤sen val
ĠKo va
pit oa
S tar
S ekoita
ĠPro f
in at
Ġmuo toa
rek isteri
Ġvalitse malla
Ġkyyn el
ĠPa ino
ma illa
Ġpir istÃ¤
Ġarj esta
Ġhinnoit telu
tuo tannon
uk er
ĠEspo ossa
inn osta
h ien
ka pasiteet
Ġkot ise
Ġto maatti
Ġvar alta
ĠlÃ¤hti vÃ¤t
ĠLi ian
ĠL innan
i alis
ĠkÃ¤yttÃ¤jÃ¤t unn
Ġsella isena
ĠSto ck
u is
ĠsisÃ¤ istÃ¤
Ġitse mur
matka lle
hal ti
ĠlÃ¤Ã¤ kkeet
Ġh ura
Ġpsyy kk
ĠH alla
Ġre ikÃ¤
ĠyllÃ¤ tti
ĠvÃ¤r inen
Ġal en
Ġkiinnosta vaa
Ġkanssa si
ĠyÃ¶ p
Ġyhte yteen
Ġsid ottu
ĠKain uun
ka iv
Ġamp uma
ĠsisÃ¤l tÃ¤vÃ¤
B N
Ġho uk
Ġtil oihin
Ġsuosit ellaan
Ġtelevisi o
ĠtyÃ¶ paikalla
Ġma kaa
ĠP iet
ĠKos kinen
Ġkaver eiden
Ġtuo tti
Ġpalvel uksessa
Ġun iver
Ġpud otus
an e
Ġkunn assa
ĠtyÃ¶ vÃ¤en
de jÃ¤
ĠlÃ¶yd etty
Ġvanh ana
ikir joit
vi itta
Ġit sel
ĠbÃ¤n din
Va ihto
ĠL ight
kohte essa
K ita
ĠtÃ¶r mÃ¤n
im ma
ĠY or
l innassa
t et
up e
ĠS ot
uut eni
or s
Ġpuhd istaa
Ġtotta kai
Ġinf ek
ĠT yÃ¶s
Ġpal kit
uv er
lap si
ĠB jÃ¶
ĠPyh Ã¤n
o tot
ĠLappeen rannan
ĠR isti
ĠG er
Ġsuosit tuja
Ġtur isti
Ġsu pp
Ġteks tejÃ¤
Ġpoi kaa
ĠtehtÃ¤vÃ¤ Ã¤n
Ġ199 1
Ġkato aa
mÃ¤ttÃ¶ mÃ¤t
Ġuut ena
Ġtapahd u
ver ho
il ulla
ĠL Ã¤Ã¤kÃ¤
ĠT ans
ĠvÃ¤l itÃ¤
Ġtuotte elle
ne ista
Ġrakenn ettiin
Ġmon esta
Ġaihe ista
Ġpiir r
len ter
le a
Y M
llis illa
vi ces
Ġj ees
Ġb est
Ġap ura
V Ã¤r
Ġmenetel miÃ¤
Ġ1 01
Ġ= >
hin taan
ĠTuo n
ra si
L yh
kun tar
Ġongel miin
m essut
ĠM r
Ġkomis sio
t w
Ġliiken teessÃ¤
ĠTall innan
Ġh uma
Ġinnos tunut
ĠB ud
EL ÃĦ
Ġava taan
Ġperinte istÃ¤
pal kin
Ġviime istel
Ġlopp uk
ĠlÃ¶yty isi
kseen kin
Lap in
Ġpy kÃ¤
h ih
M erk
Ġal etaan
Ġkil p
mitta us
i f
Ġlu ettu
Vuo kra
ĠtÃ¤lla iset
oike utta
ĠT uot
Ġil on
jÃ¤rjes tyksessÃ¤
Ġol oa
Ġl ihan
ĠmÃ¤Ã¤ riÃ¤
A C
Ġsuunnitel man
ak ki
Ġodotta massa
Val mista
q ua
ĠAam ulla
Ġma isteri
ili jaa
ust yÃ¶t
Ġlehd istÃ¶
Fin land
Ġra joja
koh taa
ĠpÃ¤Ã¤tÃ¶s valta
ka tta
Ġvaati va
ĠpitkÃ¤ ksi
YT TÃĦ
ĠT PS
pi on
yty misen
lÃ¶ itÃ¤
Ġas ut
verk oston
saa misen
Ġniin kin
Ġsi llo
ĠLyh yt
un tien
kau sia
E ikÃ¤
Ġapte ekki
Ġjo udu
ĠO ppi
Ġis olla
ĠLi pp
Ġosta n
ĠsyvÃ¤ lle
Ġluki jat
m ek
Ġad d
Ġsaata vuus
oh an
Ġtot esin
Ġpoliit tisen
Ġko via
Ġopti maal
Ġjo udutaan
Ġas enta
Ġosallistu jat
un assa
Ġpelaa minen
Ġtuo daan
ĠMa ll
Ġpyrki vÃ¤t
oja an
vi llaa
Ġann oin
Ġvi etÃ¤
ll osta
Ġkul ui
Ġresurs sit
ĠPir kko
it ed
K UL
ĠRo bert
ĠerÃ¤ ssÃ¤
Ġparla mentin
ĠkÃ¤yttÃ¶ ehdot
ĠJ Ã¤nn
ip alvelu
O tsikko
ĠPa itsi
kul jetus
ĠB MW
ĠhÃ¤n een
ha kemus
Ġaika ansa
ĠKes k
Ġpide mpi
Ġa ukeaa
uusi koiden
Ġ7 3
ha min
ĠlÃ¤mm ittÃ¤Ã¤
A D
ĠC lassic
lla mme
Ġmieli pite
llis to
ul uo
ĠE rin
Ġkoske vien
viin i
Ġso v
Ġfik su
Ġasunto jen
UR I
ĠMÃ¤ kinen
kaan i
Ġpain oa
ĠhÃ¤ visi
ar vio
ĠVar mista
Ġtuolla ista
ĠR anskassa
Ġsaa tetaan
Ġhe il
Ġil oit
Ġraken tamaan
qu ery
Ġsin ulta
g or
ty jÃ¤
N uo
Ġet urauh
Ġb ab
ĠVal o
Ġven y
row n
ĠP ost
Ġvir kistÃ¤
En tÃ¤
j oin
astu in
Ġhava itse
llise mpaa
v uudet
t d
oh oito
im essa
Ġa itoa
Ġtor j
Esi merkiksi
ĠE LÃĦ
enn usta
ĠvÃ¤hen ee
ĠM eille
ter o
KO UL
ta via
tyyl inen
sa ssa
im uo
Ġlask ettu
ĠS ki
Ġkuol ee
het kellÃ¤
ĠR uu
Ġjuh annus
Ġb il
ĠLa us
ty ytyvÃ¤
paika ssa
ĠV IR
ĠR ip
ĠpÃ¤t kÃ¤
hall it
ut etun
ĠlÃ¤h immÃ¤
ĠjÃ¤lj iltÃ¤
te ekki
ĠnÃ¤ky vÃ¤
ĠHel m
in es
Ġodot ukset
Ġto iselta
por n
Ġed ustus
H ALL
Mieh et
r iko
Ġkiel ten
tÃ¤ miseen
Ġmiet it
ĠY RIT
ka asta
Ġpas ka
ĠOl isin
Ġsein Ã¤t
ĠjÃ¤ in
ĠS Ã¤r
Ġhaasta va
Ġsi una
ĠPitÃ¤ isi
ĠNa anta
ĠK anga
ise mpÃ¤Ã¤
ĠU ima
Ġosoittautu i
ehto jen
tÃ¤ hden
ĠnÃ¤y te
Ġtuleva sta
Ġvaal it
ĠNyky isin
Ġtarjo uksen
ĠIt sen
tÃ¤ misen
or kes
ĠT ie
Ġva sen
h it
S inÃ¤
Ġajat telen
ĠHan ke
L ei
Ġval itus
a ho
Ġlang an
un at
li d
ihyd raa
Ã¤ llÃ¤
Ġ7 9
H TA
ma x
ĠG ot
Ġpain opiste
Ġkorke am
Ġvih anne
ĠP akka
Kir jan
Ġtarp eellis
V Ã¤h
Ġpaika lliset
Ġsiirr etÃ¤Ã¤n
sit kÃ¶
ĠR is
e pÃ¤
Ġsil ikon
der s
ĠTrump in
ut ettua
Ġlang atto
Ġmuut ettu
n g
Ġann ettava
SO Y
men a
ĠtyÃ¶skenne llÃ¤
Ġfyys isesti
Ġoma isuuden
ekan is
Ġkai vaa
Ġyl ittÃ¤
kauppa an
et oim
Ġpel ia
Ġpih ap
Ġtehd essÃ¤
Ġkoke vat
Ġvir o
one cta
Ġain eita
ĠH uhti
li igan
yli opisto
YY N
Ġtuo tot
et yssÃ¤
Ġjatku van
lista n
c ord
Ġmole mpia
l isen
ud elta
Ġparanta maan
ĠpÃ¤Ã¤si Ã¤is
opp ila
ĠKu van
Ġtaloude llisen
ĠKa ti
tee llista
vala isin
Ġedusta vat
Ġaam un
Ġtyl sÃ¤Ã¤
Ġluu lin
Ã¥ r
Ġpien in
H ui
es ke
Ġsuo raa
ĠTar joamme
ĠL AS
ime lle
ĠbÃ¤n di
Ġre ilut
ĠKÃ¤yttÃ¤ mÃ¤llÃ¤
kor ttia
Ġpuhta asti
Ġkau aa
all innon
ĠpÃ¤Ã¤ tyy
Ġvoit ot
Ġ8 6
n oin
Ġluonn ollista
Ġto isille
ik osta
ĠVuo kra
Ġkuul ua
Ġodot ettavissa
Ġinten siiv
vÃ¤r inen
b Ã¤n
Ġih meen
Ġko en
tilo ja
aali en
S yys
Ġtoimintaan sa
Ġris kejÃ¤
D C
Ġe vol
Ġlattia lle
ĠS id
Ġkerran kin
ĠN osta
Ġtuomio istu
ĠJar kko
uste lla
kat tiin
K estÃ¤
ĠNa isen
vaal it
ĠPet teri
% ,
ĠIh minen
Ġmaalis kuun
Ġbakte er
Ġte mp
vitta essa
li ght
ka las
Ġteksti viesti
Ġus ka
Ġkal aa
Ġne uro
Ġb run
ĠjÃ¤Ã¤kaa pissa
Ġvalo kuvat
Ġopiskeli joita
H ome
U DEN
Ġkaik ilta
ih minen
Ġsel itys
tel ia
Ġjohta jan
Ġkaa su
y tÃ¤Ã¤
ĠSiir ry
ĠEnglan ti
Ġviet ettiin
ĠIn f
Ġpika isesti
Ġtei mme
muka isesti
Ġvalmist elu
ee k
vÃ¤ s
ĠensimmÃ¤ iseksi
Ġviid es
ud as
vell us
SIN KI
ĠM us
Ġnousi vat
Ġhal uta
Ġsaa tte
Ġomen a
Ġvoi malla
por tti
Ġlopu llinen
is immat
ĠMat eri
Ġkommen toin
umm ut
ĠSuo melle
Ġseuraa vien
Ġsuo ri
Ġvi iva
po jat
Ġal ettiin
Ġpaper in
t ran
usa le
val on
c ing
lu eella
m ei
s l
i oiden
kat so
Ġh intoja
Ġilmoit ukset
vaihto ehtoja
Ġmuut oksista
Ġhuol es
ĠTuo lla
Ġett et
Ġkoke il
Ġpalja st
Ġmole mmille
tel isi
Ġpaikkaan sa
it tinen
Ġs w
iha inen
ĠpysyvÃ¤ sti
Ġva sti
ikke ita
pÃ¤Ã¤ hÃ¤n
Ġprojek tit
Ã¤nn Ã¤n
Ġmaahan muut
ĠTo uk
vin ta
uh o
Ġmyr sky
tr y
n yttÃ¤
im masta
ki ja
Ġlin jaa
Ġvanh usten
Ġkysel yn
Ġperh ettÃ¤
Ġma p
Taa s
Ġsa it
ĠD u
Ġlei po
ip ito
palvel uun
Ġc he
Ġlista lla
ĠpÃ¤Ã¤tÃ¶ stÃ¤
F O
Ġilmaiskier rosta
ĠL am
Ġmusi ikk
Ġpaljon ko
ver it
Ġ9 2
Ġul tra
ĠNeuvosto liiton
Ġinternet in
Ġmaks uta
est ettÃ¤
ne estÃ¤
ĠKas vat
Ġvar jo
lÃ¤Ã¤kÃ¤ rin
?? ?
huon etta
Ġole ville
Ġhuol est
Huo menna
Ġmahd oton
ĠpÃ¤ tee
Ġtu llu
Ġku v
ĠystÃ¤ vi
c ka
sÃ¤ Ã¤nnÃ¶
ot usta
ĠKa upan
op ar
ĠjÃ¤rjest ettÃ¤vÃ¤
Ġruu hka
markkin ointi
ikÃ¤ isen
ust inen
ĠtyÃ¶ kal
Ġis ke
ĠC rea
s uunta
Us ko
Ġtoimi al
ih as
Ġmainit ut
j uutta
Ġpuhu maan
ĠlÃ¤hd imme
ĠHÃ¤meen linnan
luv ut
Ġarvi oitu
an taa
ip ar
Ġtuo to
ĠÃ¤Ã¤n et
t utkimuksen
Ġdoku mentti
Ġopiske lla
Ġtoi pu
ĠtÃ¤h tÃ¤
Ġv rk
d l
ĠtyttÃ¶ jÃ¤
ĠIlma stointi
Ġkuul uv
Ġviihty isÃ¤
Ġkats oin
Ġmuod on
Ġvet eraan
Ġne w
Ġkr istin
K uul
yhte yden
Ġs oita
Ġkuulu isa
uksi ani
Ġosta massa
Ġhi taa
Ġtuke va
suo dat
ma isesti
ĠSeinÃ¤ joen
us teiden
Ġhi ek
ĠsÃ¤ vyt
Ġsiv ussa
Ġa jetaan
ityks essÃ¤
bo y
Ġpyyd etÃ¤Ã¤n
jÃ¤rjestelmÃ¤ stÃ¤
ĠK im
Ġro tujenvÃ¤linen
Suomala inen
Ġs Ã¤h
Ġtoinen kin
Ġmul kku
ĠAS EMAKAA
Ġk ite
ke va
ĠHen ri
z o
ĠA al
f estivaal
el ien
Ġyrityks esi
Ġa teri
Ġasiantunti joiden
va ka
kur ssit
Ġedellisen Ã¤
Ġrah asto
ĠtehtÃ¤ vistÃ¤
Ġuse an
Ġespan ja
ĠI mp
Ġpel istÃ¤
Ġha pp
ivo us
Ġko ur
ĠTied on
Ġs tat
Ġvaih tu
perin tÃ¶
MM E
ĠTÃ¤ ydellinen
Ġvel at
Ġhuol et
ĠnÃ¤kÃ¶ istÃ¤
osa ston
ĠOp innÃ¤ytet
mu kaan
TÃ¤ ytyy
ĠS tra
ak ennus
ike us
ĠHa va
ĠK issa
p alo
Ġlu ento
ĠjÃ¤rjestÃ¶ jen
Ġviime isin
Ġpalaut teen
is ma
iti ikka
Ġmeik Ã¤lÃ¤
ili itto
Ġhoid osta
ik se
Van taan
Ġalo jen
lÃ¤h et
Ġpuut tua
ĠI ran
r iv
ĠD C
Ġmaks an
Ġtoim intojen
ĠkyllÃ¤ kin
Ġkatson ut
v yyteen
ra inen
Ġkirja an
vi ikolla
t isin
Ġeriko inen
Ol isi
il yyn
ik kea
Ġsul at
ĠJo on
Ġkansa llisen
Ġheh ta
Ġpuh unut
ĠHe vos
J otta
Ġmuut oksiin
verta ilu
Ġhistoria an
b aari
Ġmatkusta ja
ti istai
Ġruo stu
tiet eellinen
ĠVar ha
Ġte osta
Ġas unut
Ġp intaa
Ġhil jattain
ĠRes ep
ĠVi ip
Sa ma
Ġk ra
ĠG rand
ĠPi il
ĠnÃ¤htÃ¤ vissÃ¤
ĠsyntymÃ¤ pÃ¤ivÃ¤
La h
Ġet s
Ġpysty tÃ¤Ã¤n
ĠR O
Ġtai pum
Ġvasta nnut
Ġsam oilla
ĠkÃ¤yt Ã¶s
ĠyllÃ¤ ttÃ¤Ã¤
Ġpa hemmin
Ġhet keÃ¤
ĠmielestÃ¤ si
ĠjÃ¤t in
s uur
ff er
Ġtoim ihenkilÃ¶
Ġtote utu
ko ukku
Ġhyl kÃ¤Ã¤
ĠA V
Ġli itte
Ġpor ukalla
ĠB run
ĠSir pa
yksi llÃ¤
tee llisen
ĠF it
kk ur
TI EDOT
ĠHalu atko
Ġvier estÃ¤
Ġolisi kaan
Ġsaa miseksi
va lais
ĠÃ¤lyttÃ¶ mÃ¤n
g ista
ĠN YT
Ġkohdalla an
is uon
Ġneuv oa
Ġmen estystÃ¤
ĠjÃ¤t etÃ¤Ã¤n
Ġtoiv eita
Ġle hdessÃ¤
pi ppur
mo issa
Ġaskar telu
Ġpel ien
ĠKaun e
ĠJo uko
Ġnyt kin
ĠVal mis
Ġloh ko
ĠA voim
Ġilmoit usta
valvon nan
ke itÃ¤
p iha
Ġan ime
ĠjÃ¤t etty
ĠPa ina
kate mian
Ġjouluk uun
aal isia
Ġsi ip
Ġtoimi jat
Ġherk kua
ĠhenkilÃ¶kohta ista
ip or
Ġl otto
Ġstressi Ã¤
Ġmaks utto
Ġenn estÃ¤Ã¤n
Ġmu h
Ġkissa t
ĠherÃ¤ tÃ¤
Ġkenelle kÃ¤Ã¤n
iki er
Ġpal kinnon
ĠJ u
ĠSISÃĦLLYS LUETTELO
E nn
ĠAh venan
Ġmiel ettÃ¶mÃ¤n
Ġlegend aar
ĠhÃ¤ peÃ¤
an pes
Ġammattila inen
Ġvalmista ja
m yksen
Ġhalua isit
kiin teistÃ¶
ĠiÃ¤ ssÃ¤
Ġen tÃ¤
Ġtutkim usten
Ġmenetel mÃ¤t
Ġ ana
la isessa
Ġtar jot
ys ta
for t
ĠsÃ¤hkÃ¶ isen
Ġhy ppÃ¤
Ġkoostu mus
E lek
Ġa matÃ¶
kulttuu rin
ĠHaa v
ĠA ss
Ġmu kaa
Ġaiemmin kin
ĠVaih toauto
Ġautomaat ti
Ġaikataul ut
ĠKas v
Ġaut toi
ker roks
ĠhyÃ¶dynn etÃ¤Ã¤n
Ġer Ã¤n
Ġ19 20
Ġyhdist ettynÃ¤
Ġhaaste eseen
is kanen
Ġtiet yt
Ġa hta
P ap
Ġuun in
ĠJoh to
Ġ8 4
ĠPar ha
Ġeloku vaa
Ġsin kku
ï ¸
Ġsuosi kk
mo d
Ġvuod et
ĠVol vo
En ergia
ar kkitehtuu
n t
Ġhenk isesti
Ġva paan
Ġis ku
Ġvalmista jan
Ġla ulun
ĠN ina
ĠMUU TOS
ĠlisÃ¤Ã¤ mÃ¤llÃ¤
Ġsaksa lainen
ol aa
Ġp ihan
Y LE
tuu l
T UL
ĠjÃ¤lj elle
M IN
im malla
2 50
Ġvaim on
ĠlÃ¤Ã¤ kkeitÃ¤
ĠK yr
T uk
Ġha joa
ja kel
ĠVi et
Ġkon kurssi
Ġkyseen ala
et essÃ¤
Ġrun kkaus
Ġviin in
Ġp lay
12 0
M oni
Ġvoima kkaa
ĠKes kusta
ĠE dellinen
Ġvaikut uksesta
llis ille
zz a
Ġpak kaa
P R
ke asti
Ġkul uja
L uu
Ġm ang
ĠAMM ATTI
ta uti
ĠviettÃ¤ mÃ¤Ã¤n
koul utusta
tu ista
mm ut
KES KUS
Ġna vig
vapa uden
Ġusko vat
g no
ĠVar maan
vas taan
Ġinto him
Ġj y
o vi
Kann attaa
ka llio
Ġle pÃ¤Ã¤
uv erk
Ġjaks on
ĠVÃ¤ li
r ossa
Ġvi este
ĠE mma
Ġsynty neet
ĠJO HD
ĠK Ã¶
Ġarvi ointia
ĠTe ollisuus
i as
om er
Ġartikk ele
Ġtunte maton
tom uuden
MIS EN
Ġsovel tuvat
ta id
ĠV es
Ġkriteer it
ba ck
ku vio
Ġsano maan
Ġer ottu
Ġtiet tyÃ¤
Ġpos tin
Ġenne mmin
ta isi
ĠOp et
Ġinn oissaan
ĠHuo mi
la use
Ġtu lleen
ĠHa e
ĠSyks y
Ġlaus un
m iten
Ġvaa hto
pid ettÃ¤
k Ã¤h
IS A
Ġporno videoita
ĠT up
ĠtÃ¤yde llistÃ¤
m ystÃ¤
Ġkaa pel
ĠJoh an
Ġpysty n
s istÃ¤
Ġp Ã¶n
Ġloma ke
Ġsaa ri
ryh mÃ¤Ã¤n
Ġmobiil ilaitte
ĠYr itÃ¤
Y K
Ġkri itt
Ġmieh istÃ¤
uunnit elman
for d
Ġti uk
m pain
ra bi
Ġjo kseenkin
Ġtil asin
Ġsein Ã¤n
ke ittiÃ¶
Ġen Ã¤Ã¤n
ki itos
ĠlÃ¤hia ikoina
ĠOn gel
Ġkier roksella
ja kson
aan i
ĠnÃ¤ke vÃ¤t
p asta
en erg
ĠB ri
Ġsop isi
Ġlo malla
huo llossa
Ġtur hia
H EL
Ġse kÃ¤Ã¤n
men ts
kor keus
Ġ17 0
1 000
tur van
ll un
Ġkyl Ã¤Ã¤n
ĠOli mme
ur io
V il
Ġalaston kuvat
ĠkÃ¤ynn istyy
ik oiden
se kÃ¤
m uksesta
ra han
ĠvÃ¤l iltÃ¤
Ġpur je
Ġtuke maan
ĠT ilin
ĠlÃ¤hes tyy
Ġvalikoi masta
menet tely
Ġpositiiv isesti
ĠKouv olan
ere itÃ¤
P uu
f ul
ĠMik Ã¤Ã¤n
ĠsÃ¤ v
in Ã¶
ĠSano mien
Ġulkoma ilta
Ġli ber
ĠTar koitus
Ġilmoit ettu
ĠtyÃ¶elÃ¤ mÃ¤Ã¤n
ĠTyÃ¶ terveys
Ġtaj unnut
Ġtor junta
ĠMa i
Ġmaail malle
llis ellÃ¤
Ġl Ã¤Ã¤n
ĠemÃ¤n tÃ¤
L Ã¤nsi
Ġkirja llista
Ġku mar
ivi es
Kon ser
Ġhu ikea
Ġpit si
log i
Ġsosiaal ista
Ġtasa inen
maat tisesti
Ġkulj ettaja
im ur
Ġkeskus tel
ĠvÃ¤Ã¤r Ã¤n
ke itto
ĠIC T
ro jen
oks elle
el s
ikki in
P ak
ĠTaa s
Ġsi ze
ĠSe uran
Blog i
kaa vassa
Li ite
kesk ukseen
Ġla iksi
UT U
ratkais u
ĠMit kÃ¤
ĠKilpa ilu
Ġodot ti
Ġhilja inen
ĠK ON
ĠD ar
skettÃ¤ in
Pohjan maa
Ġsynty vÃ¤t
Ġvalmis tu
Ã¶ si
ĠKokona is
Ġvoit toon
os toon
Jo ulu
ĠOn gelma
etta vuus
ĠJÃ¤r vinen
ppeen ranta
Ġpuutar han
Ġsaa ren
ke iden
Ġopiskel ua
d Ã¤n
ĠVaku utus
tti la
tis esta
tilan teen
Ġka ksin
Ġtul oksista
kkun a
Ġalu eita
ĠN iemi
Ġteh taan
Ġjoissa kin
Ġry p
ĠY LI
Ġsol m
Ġvihdoin kin
Ġp rot
ĠystÃ¤vÃ¤ llinen
Ġtunn ustaa
Ġpaika llisia
On pa
or ge
ĠR apor
Ġp ettÃ¤
Ġupe aa
ĠnÃ¤ tti
Ġkohd istuu
Ġik Ã¤r
ĠP K
M usi
vel vollisuus
ir aal
ĠToimitus johtaja
as ter
ine isto
ken aari
Ġkiit okset
H uone
Ġkolm ek
Ġreiss un
p v
kÃ¤yt Ã¶stÃ¤
c ky
te isten
Ġvoin eet
Ġongel mista
Ġluon teen
Ġsoh valla
Ġhelsin kilÃ¤
Y hd
ma tion
Ġposta uksia
ĠlÃ¤mp ene
Ġtoim et
ĠT oni
Ġtiiv istÃ¤
H z
TEL MÃĦ
Ġkysym ystÃ¤
tif ika
isa ira
Ġprote iin
mas taan
Ġl ompa
ĠTarjo lla
ĠM eksi
Oike in
Ġravin toa
ĠHall into
sa i
Ġarvon nassa
Ġlopu llisesti
Ġvanh assa
yks eksi
Ġautomaat tinen
Siv usto
Ġmon illa
Ġsiv iil
Ġrauh aa
al th
ke utta
Ġfar kut
Ġkats eli
no ista
Ġtasa iseksi
Ġa ukko
ĠpÃ¶ydÃ¤ lle
ĠKar l
urs sit
ĠryhmÃ¤ seksi
Ġravinto lat
ĠT reffit
s issÃ¤
Ġpit ivÃ¤t
istu misen
ĠKirja sto
Ġselv itÃ¤
Ġlaitta maan
ĠG ri
minister in
Ġtuo mari
Ġpyy nnÃ¶stÃ¤
om mat
S uuri
' ,
Ġelintar vik
im ellÃ¤
itse mÃ¤n
Ġviranoma iset
Ġsuuri mmista
iv isi
ĠKO TI
ĠyksikÃ¶ n
ĠTo ur
ĠKul jetus
Ġartik lan
ne lle
Ġp anna
Ġlas in
/ -
Ġtil as
JyvÃ¤sky lÃ¤n
Ġpalja sti
Ġ19 30
Ã¤ yttely
Ġha ve
jo ina
ĠTar ke
S tu
Ġhel miÃ¤
P os
Ġsuo jattu
ĠT AM
Ġer ek
ĠTyÃ¶ ttÃ¶
uste k
kasti ke
ĠTiet ysti
Ġluo mi
Ġluo kkaan
ll s
ĠSis Ã¤Ã¤n
Ġselvit etÃ¤Ã¤n
Ġaiheutta nut
Ġka dun
it toja
inga tar
Ġb aari
ĠKaik issa
pÃ¤ivÃ¤ stÃ¤
ĠNÃ¤ ky
Ġsaat ossa
EL TA
Ġselv ittÃ¤mÃ¤Ã¤n
ĠpitÃ¤is ikÃ¶
Ġetsit Ã¤Ã¤n
ta ika
ĠEn iten
koo din
Ġeh to
r ky
indow s
Luo nnon
Ġpuu ha
ĠvÃ¤ki vallan
is Ã¤ltÃ¶
ĠJ oker
Ġlaa tuun
Ġ17 00
Ġaika vÃ¤lin
ĠG ooglen
Ġle ppo
ĠN ight
ĠH P
Ġluo mu
ĠvÃ¤ ittÃ¤
ĠTo yota
In ternet
ĠLei jon
ĠPih la
ta ulun
kunto inen
ĠpÃ¤ivÃ¤ ksi
ak ti
Ġhak us
ĠP hil
Ġhiir en
suo rit
kunn asta
Ġruo kia
Ġma istui
tÃ¤ jÃ¤n
ĠC han
Ġkaa to
Ġha me
Ġsiirty minen
Ġtalven a
kka lan
Ġkirja llisesti
inti e
menetel mÃ¤t
Ha e
lan din
ĠRa kastan
ĠSan oma
il up
Ġmaks ettu
Ġsuur essa
Ġverta ist
Ġriipp uv
ĠhenkilÃ¶ ille
kis oissa
Ġs ho
ĠA mmat
Ġaloit ettu
L IN
Ġkar a
ge ment
is uutensa
ĠMatka ilu
re y
ĠS ota
Ġromaan i
Ġsul kea
Ġaukio loajat
Ġparve ke
Ġa kun
l inn
utun eena
Ġniin ku
Ġvase mmalle
ĠPuh el
ist uksesta
Ġohja usta
Ġreag oi
Ġoma isuutta
ĠsyÃ¶ mÃ¤ssÃ¤
Ġf on
Ġsaa pun
Ki er
cc ess
Ka usi
ĠM ER
is itte
ka lenteri
Ġkuole maan
Ġvall itse
Ġyksi kÃ¤Ã¤n
Ġsaada kseen
ĠB la
ka veri
len to
as ut
Ġasia lla
ĠI isal
Ġsi ist
Ġjonkin laista
Ġ16 00
Ġalkoh olia
A se
h oa
Ġvaat teiden
Ġsi ka
ĠSaa ra
po isto
ta p
oista an
Ġ17 5
Ġfanta sia
ĠnÃ¤kÃ¶kul mia
Ġhava into
Ġker ho
Ġnussi i
Ġpro fess
Ġlaad usta
I nn
Ġpan kin
julkais u
tÃ¤ en
ĠLi fe
Ta sa
F il
Ġterveyden huolto
ĠA a
Ġedellis estÃ¤
Ġ ï
itt le
lah ja
ikki Ã¤
Ġpe ittÃ¤Ã¤
f el
V ol
ĠL uku
ip ut
ity sa
ĠKot ona
la i
ĠToim it
Ġkal ast
Ġtava llisen
ĠensimmÃ¤ isten
ĠS ti
Ġgra fi
Ġperiaa te
tar koitus
Ġtoiv ot
ĠVal tio
sa lainen
ĠHÃ¤ mÃ¤lÃ¤inen
Ġvali ok
mm enn
p ann
ĠedellÃ¤ kÃ¤vi
Ġun en
ll utta
ĠvÃ¤l isenÃ¤
Ġratkais ee
YKS ET
Ġkustann usteh
ik sia
ĠA asian
Ġalha inen
ĠTap ani
ĠKirkkon u
Ma ks
ĠR eijo
arvi ointi
Ġb dsm
ĠJul k
ĠU us
palvelu issa
Ġkan to
Ġki d
esi merkiksi
an t
Ġo sien
ĠtekijÃ¤n oikeus
Ġjalka pall
ĠensimmÃ¤ iseen
ĠK is
ko in
Ġkeskus telut
Ġvah van
M usiikki
tu lla
ĠOl isiko
ĠsÃ¤vy jÃ¤
et h
muut okset
Ġnouda tetaan
ha va
Ġsaun assa
Ġte oksia
ĠHar ry
n umero
Ġlas er
pal oja
Ġh iv
Ġvir t
vÃ¤lin eiden
ish ed
Ġrauha llisesti
Ġ2 20
Ġteho kasta
Va ih
Ġopisk elemaan
Ġti iÃ¤
Ġp esi
ista mme
h ei
Ġsuunn ata
h innat
den t
omista ja
var uste
Ġr ive
j yys
Ġh io
ĠV ala
Ġk ukko
ï¸ ı
kier ros
ĠriittÃ¤ vÃ¤t
Ġsel Ã¤n
Ġkrist itty
ĠtÃ¤ ti
Ġhe vosta
las in
ĠVa pa
Ġep Ã¤r
sta ina
Elek tr
ĠtyttÃ¶ Ã¤
Ġkiih d
Ġtel kka
Ġsp ons
ann os
ed usta
ĠJ ÃĦR
ĠR ek
tis essa
Ġyl itse
ĠRa vinto
Ġval innat
vin Ã¤
ky vyttÃ¶
it toa
Ġsuunnit telee
Ġselvit yksen
ĠlÃ¤mpÃ¶ tilan
Ġinfor maatio
ĠkieltÃ¤ mÃ¤ttÃ¤
ĠhyÃ¶d yt
Ġka mpa
ĠA merikka
gg ed
ĠS K
reelan cer
Ġval ittaa
Ġpuh uttu
Ġkaa voit
Ġyle isin
Ġka ike
Ġhall itsi
gin g
Ġkasva va
do tan
Ġpehme Ã¤Ã¤
Ġlattia lla
ten t
Il man
ĠK op
si akka
Ġsu usta
Ġhom mat
b akte
Ġsuo mea
ken yt
t ula
ĠV ien
Ġtu llessaan
ĠSal minen
ĠHuo m
Ġsiiv oa
ta ppi
ĠT uija
Ġk s
ĠK ER
j esi
mÃ¤n sÃ¤
ĠhyvÃ¤ksy i
Ġkyn si
To ki
ĠJÃ¤l ki
ta villa
Ġf uck
Ġut elia
uka r
je mpÃ¤nÃ¤
ĠW as
Ġhal ti
di taan
Ġkolman n
osa an
Ġhu ivi
Ġvaim onsa
Ġtahd ot
taul ukko
ĠV eli
ĠB ay
Ġrapor toi
Ġ( :
ĠF inna
ĠLu mi
Ġperusta minen
ĠLas se
Ġs uus
Ġmas ennus
S ano
suomala iset
ĠHalua mme
Ġodot ettu
Ġpako tta
Ġte mpa
n am
vastaa va
ilmoit uksen
Ġvuok r
Ar vi
ĠjÃ¤l keÃ¤
Ġyhdisty vÃ¤t
Ġpuh taa
osen tti
ĠMar k
ĠpitÃ¤Ã¤ kin
teh tÃ¤vÃ¤t
Ġn iska
Ġon e
ĠkÃ¤vi jÃ¤
ein een
ĠhyvÃ¤ks ynyt
ĠK ui
Ġkar tat
ĠA ur
o jan
ĠMer cedes
Ġkoste utta
Ġvan hoista
Ġpakot taa
Ġtapaa minen
Ġkeskitty nyt
Ġnel jÃ¤Ã¤n
uka h
Ġpuheen johtajana
ver y
ĠtyÃ¶ yhteisÃ¶
ĠkehittÃ¤ misestÃ¤
oh va
Ġluki joille
telup al
Ġraha lla
ĠnÃ¤yttÃ¶ Ã¤
Ġvarsin kaan
Ġma tal
Ġymp yr
p lan
upÃ¤ ivÃ¤n
Ã¤n ky
kkÃ¤Ã¤ t
Ġyle isty
Ġsata ma
Ġhan kittu
ak enta
VAL MIS
ĠM ess
ĠSis Ã¤ltÃ¤Ã¤
Ġal at
ĠÃ¤ ki
Ġra ikka
Ġtee mana
Ġo jen
Ġbei bi
Ġsyr j
Ġkansa llinen
Ġn aar
ĠpÃ¤Ã¤ henkilÃ¶
ĠG old
Ġpienemp iÃ¤
P itÃ¤
log ian
Ġi ma
un din
Ġpiir in
otto mia
ort sit
etta vana
s ot
vir ran
anta ina
Ġin tr
se ksiÃ¤
d iin
t sÃ¤
ĠkyllÃ¤ sty
, -
Ġs ihte
ĠjÃ¤rjest ys
ĠvÃ¤hintÃ¤Ã¤n kin
uut isia
Ġsynnyt ys
ip alvelut
Ġm op
b org
Ġtuh atta
Ġsuo menn
Ġkats ele
Na inen
Ġliikku maan
her ra
Ġkau kaa
Ġsopiva ksi
Ġla issa
Ġyhdys valta
eloku van
Ġvin kki
ĠR akka
por a
on it
vÃ¤l itys
Ġkesk eltÃ¤
Ġsuosit telee
N S
Ġkehityks een
ta ma
Ġjohto pÃ¤Ã¤tÃ¶
as ennus
ans son
ĠymmÃ¤rr ystÃ¤
olog i
Ġty kÃ¤nnyt
N oin
Ġket kÃ¤
ĠkÃ¤ ttÃ¤
Ġal t
uk eskus
Ġuusi mmat
ĠAmer ikan
sta r
ĠY MPÃĦRISTÃĸ
ff e
tied ote
Ġvuosikymmen en
T uul
min g
Ġsattu malta
Ġkor ostuu
ĠmyÃ¶nn etÃ¤Ã¤n
Ġmuka isia
ĠB ang
Ġmaailman sodan
han kinta
Jal ka
ĠPohjois maiden
Ġkonser tti
ĠStand ard
yt t
vi er
Ġkiinnostun eille
Ġsaatta nut
n issa
ty yn
ĠVÃ¤h Ã¤
vin kit
ĠChild ren
yli opiston
Ġli uku
Ġsi llon
ĠjÃ¤nn ittÃ¤vÃ¤
ward s
demok raa
Ġout oa
Ġotta neet
ĠMo der
pÃ¶ r
E rÃ¤
Ġedu llis
uh i
ĠVal tu
Ġpuol iso
Ġb anaan
ĠlÃ¤htÃ¶kohta na
Ġso tila
Ġri isi
Ġvan kil
tit iet
lla s
Pit Ã¤Ã¤
Ġluki jan
Ġoly mpi
Ġhedel miÃ¤
a ukko
Ġmuse on
c ro
Ġhuon ot
Ġodot tanut
ĠSam sung
Ġtyh jenn
Ġnaa ma
Ġas ui
pp eli
ĠlÃ¤he mmÃ¤s
Ġ8 7
Ġkirjoit usta
ĠkÃ¤ sk
iko ksi
ui mmista
Ġsekunn in
h istori
Ġy tim
Ġsaa ppaat
Ġ8 9
kes to
ĠK yn
oh ta
ĠMe ta
Ġse llanen
e minen
Ġrekister in
N O
ĠkÃ¤nny kkÃ¤
Ġp isti
Ġvide ota
ĠS mart
' .
Ġohjel maan
K am
Ġsivusto lta
asan at
ĠR akkaus
vitamiin i
n sÃ¤
ĠN ro
oit ui
ĠVi ikonlo
ĠtyÃ¶ ryhmÃ¤
ĠPap er
La ki
Ġkiin to
Ġette ikÃ¶
ih y
imin isteri
Ġoppila it
ĠLÃ¶ ydÃ¤
Ġpil vi
Toi vo
tyÃ¶ t
ul ap
Ġku mmit
Ġj e
Ġpel is
oim ia
Ġnuk kuu
Ġmar gin
Ġsat tunut
va ll
Ġansa itse
jÃ¤ ksi
Ġp m
Ġyrityks istÃ¤
35 8
J uha
Ġs etti
Ġf iks
Ġtor ju
Ġsin uun
Min ulle
r jo
Ġosa ston
ĠPÃĦÃĦ TÃĸS
Ġlo maa
P osti
ĠpyÃ¶rÃ¤ ily
Ġsiv ujen
ĠE RI
Ġmuista nut
Ġpsy kiat
ĠVide os
Ġyrit tÃ¤vÃ¤t
D ET
" )
Ġhirve Ã¤n
Ġvaihto ehdot
h erk
Ġohjaa vat
na inen
Ġâ Ŀ¤
Ġla d
ĠÃ¤Ã¤r een
jÃ¤rjestel mÃ¤ssÃ¤
p unut
ĠLi festyle
el issa
vih je
Ġtoim into
g han
Ġarvo kas
Ġvoisi mme
Ġalkan eet
lle mme
op uol
Ġmon iin
ĠmÃ¤Ã¤rit el
Ġsuju vasti
Ġki ista
ks elle
as etus
Ġk etÃ¤
Ġpu iden
Ġhy ppy
al it
Ġtarjoa mme
ikon e
Kl ikkaa
b all
Ġkasa ssa
Ġtiivi isti
ose uraa
Ġitse llÃ¤ni
Mu ita
llik Ã¶n
Ġtila uksesta
Ġvaati musten
bel s
Liik enne
kos ka
v etti
H ak
li pp
ĠIn c
Ar vos
Ġlog istiikka
elÃ¤ mÃ¤Ã¤n
ĠJ Ã¤t
ro ta
Ġverkko sivusto
ĠAr ja
ĠMaa ilma
ĠsÃ¤hkÃ¶ isesti
Ġarvi on
ĠNor maal
ĠkÃ¤ynn istÃ¤Ã¤
Ġparanta miseen
Ġlait toi
ĠP yyd
8 00
Ġk eli
li ck
Ġta ha
itti vÃ¤t
pÃ¤Ã¤n sÃ¤
de m
Ġhuhti kuun
Ġy lin
ĠtÃ¤ yttÃ¶
ĠkÃ¤yt ettyÃ¤
Ġlaula ja
ĠyhteistyÃ¶ hÃ¶n
ja ja
ĠnÃ¤kem yksen
r uot
Ġvastuu lla
Ġver oja
J OIT
ĠH ill
IK KO
Ġmuo toja
20 20
ĠelÃ¤mÃ¤Ã¤n i
Ġvaih eet
ĠVi esti
kkin a
Ġf estivaal
ĠTar kastus
in neet
K in
Ġtekn isen
isiv ut
ĠvÃ¤h emmÃ¤
Ġkuun tele
ĠPar asta
J uo
op innot
R ummut
ĠMuse o
m eet
Ġvuo to
Ġlo massa
Ġsuk un
ĠVo isin
Val koinen
Ġmuiden kin
i mmin
ĠVir ossa
Ġsan kari
de issa
Ġpy ri
ip ul
Use in
low jo
Ġesiin tyÃ¤
As unto
Ġj eng
kir j
ĠLeh tinen
ĠJ i
ost ossa
Ġre itin
maail maan
ĠUniver sity
Ã¶ kset
Ġliikenn ettÃ¤
Ġs ke
hoit ot
Ġsi ed
par in
c tr
Ġhelm ikuun
ĠkevÃ¤t tÃ¤
eera us
Ġsi et
ĠErÃ¤ s
Ġlak isÃ¤Ã¤
H otel
kys ymys
ĠS EL
ĠD on
KO ULU
Ġasia kirjat
Ġgra mmaa
ĠjÃ¤ isi
ĠiP ad
Ġunoh tanut
Ġahd ista
Ġjohta vat
Ġse mmo
Ġto iste
osa inen
Ġro olin
es u
kko on
Ġpa hoit
r Ã¶n
ĠKa iv
ĠW all
Ġtonn ia
tel it
ĠehkÃ¤ isy
Ġvel je
Ġlisen ssi
Ġmaino ksia
mi ell
kat sa
Ġmaks ettava
vaa te
Ġtun teiden
Ġtoimiv ia
Ġed it
Ġtuleva an
aar iin
Ġminun kin
ĠA ug
ĠH oito
uksessa an
ĠVoi daan
E pÃ¤
ĠÃĦ ly
Ġmoti voi
Ġloun aa
Ġkannat us
is se
Ġpaikkakunn alla
Ġ8 2
Ġuskalta nut
Ġpo v
ĠsyÃ¶ dÃ¤Ã¤n
* .
ĠVA IK
Kita rat
ann assa
ĠIlma isia
E ri
ĠTapahtu mat
Ġna ppa
ĠPer h
t ise
Ġkump ikin
eh ua
la ta
ĠPi llu
b rÃ¤n
er ontaa
M ikko
ĠLe mpÃ¤Ã¤
uo s
for man
Ġsovell ukset
ĠC E
ĠSa una
Ġvahing on
y k
emp iÃ¤
ĠKor p
Ġel Ã¤n
Ġkeske isiÃ¤
tun eiden
Ġsor met
âĢ¦ .
Ġkyy tiin
Ġe kso
ĠlisÃ¤ ys
Ġj um
ĠÃ¤Ã¤n esty
ĠlisÃ¤Ã¤ mÃ¤Ã¤n
ish oita
ĠhyvÃ¤ksy minen
Ġpelaa jaa
Ġtietty yn
Ġsel vÃ¤ksi
A vaa
Ġul ot
Ġsuosi kkini
ed i
ĠL ein
vaati mus
ĠnÃ¤yt etÃ¤Ã¤n
Ġtil oja
Ġkaa pista
Ġso und
ma ster
MIS TA
Ġperinte iset
Ġkeksin yt
ok ul
ĠpelÃ¤ tÃ¤
r ja
Ġtuotte isiin
ime llisesti
K UNNAN
ĠDI Y
Ġpuol ilta
Ġpeh men
Ġstrateg ian
a ikoina
Ġmaise mia
ĠlÃ¤h est
ĠÃ¤Ã¤n estÃ¤Ã¤
ĠMuo ti
Ġvan hin
ĠjÃ¤Ã¤kaa ppi
ikko on
Ġsi elu
Ġmuuta maan
muse on
T uotteet
ĠpitkÃ¤ jÃ¤n
Ġesit tele
Ġarvo kasta
Ġfyys inen
tÃ¤ neet
ĠtÃ¤nÃ¤ kin
oit uu
jon ta
y lle
ed u
Ġa alto
Ġilmoit tanut
Rekister Ã¶
Ġhur jan
Ġmuka isen
Ġsuosit tele
Ġe kaa
Ġolemassa olo
Ġper illÃ¤
Ġhuone isto
Ġtall ennus
Ġvaih tuu
Ġku viin
Ġro tu
ĠErity isen
kki i
ĠvÃ¤l ia
Ġs ti
ase malla
Ġilma isu
ĠÃ¤Ã¤n tÃ¤minen
ĠPalvelu ihin
ĠG ol
vin kkejÃ¤
pit sa
L Ã¤Ã¤
Ġluotta musta
bon us
Ġtoden nut
el iin
Ġtaann oin
Ġr ul
ĠystÃ¤ vyys
Pro jek
LE D
T ub
ĠLi iton
Ġra jojen
Ġoike ude
Ġsaavutta miseksi
la isuus
ren kaat
po tila
Ġle mpi
Ġhall innan
Ġost ettua
is pa
ĠT Ã¶r
ut uksesta
I kÃ¤
Ġkuu llaan
Ġtutkim usa
Ġkuo lleen
ĠSe ksiÃ¤
S on
pu ll
ki v
IA ALI
ĠhÃ¤Ã¤ t
le ir
Ġlang at
Ġkysyn tÃ¤Ã¤
ĠP uut
mar k
Ġlait etta
ma ja
Ġv ann
Ġyrit yksessÃ¤
ĠAlas ton
ĠD ay
Ġtaul ukko
ĠKuu si
valiok unta
ish enkilÃ¶
ĠPari isin
ĠV ene
Ġn eid
Ġtuo li
Niin pÃ¤
f oli
jut ut
Ġvaate kaa
Ġtapahtu massa
te ll
ĠK uh
Ġhava ita
o vaa
Ġlah jat
Ma ija
W h
olÃ¤ mpÃ¶
Ġpien illÃ¤
ilmoit ukset
Ġkur ss
Ġaine istoa
Ġtyh mÃ¤
ĠRe al
Ġtunnista minen
AL U
l t
ma isten
ĠympÃ¤ristÃ¶ ystÃ¤vÃ¤
yy nyt
Ġoli pa
IR A
Ġedus kunnalle
mis ista
op alvelut
Ġkol um
mis sion
Ġlapsen sa
Ġtaloude lliset
Ġvapaaehto ist
Ġseuraa valle
Ġits estÃ¤ni
Ġlyhy et
itta vat
Ġeuroopp ala
ĠP ris
Ġkalli ita
uut inen
ne eseen
ip un
Ġedell ytys
Ġvall oit
kka rit
IT I
Ġti eltÃ¤
Ġyhteyden otto
il ity
ĠSa uli
ĠLa hdessa
Ġte koon
ID E
oh ar
Ġmuuta maa
ĠkÃ¤Ã¤n tyi
ĠViime ksi
aken teen
ĠLeh tonen
ĠJo ki
ĠItÃ¤ meren
Ġkirjoit uksia
Ġkys ytÃ¤Ã¤n
Ġkertoi vat
jauh e
Ġkauni ista
p istettÃ¤
Ġvien yt
ĠnÃ¤yttÃ¤ nyt
c ra
Ġkre ikka
ĠM ilan
Ġseko ittaa
Ġtesta us
ĠLopp utul
b rid
J oku
ĠÃ¤l kÃ¤Ã¤
Ġkon eet
ĠMe iltÃ¤
ĠL uotto
ĠS opimus
val taan
ĠTA VOIT
Ġtarvi i
lass inen
Ġverta is
La ina
ĠTo de
ĠKar h
. ;
fi ili
ĠseinÃ¤ joki
al ista
Ġlue taan
ALL ISTU
Ġta ulu
Ġf inanssi
Ġkaupun kila
ĠE e
Ġrahoit usa
it telut
piste itÃ¤
Ġkohtaa minen
Ġkato si
Ġain eiden
Ġkoti maan
Ġprofi ili
ĠLa pp
Ġtha ihieronta
ĠVar masti
Ġt s
Ġvirtu aal
Ġcum shot
muod ossa
Ġtavoit teen
ka lleen
ĠselÃ¤ ssÃ¤
Ġase maan
Ġ:) )
Ka h
Ġyh t
Ġvin kkiÃ¤
Ġpu llon
oike uksia
ikÃ¤ isille
Ġkohd asta
tr ol
is oitu
ko osi
pa ikkana
Ġhakem uksen
LisÃ¤ tietoa
M T
va ta
M TV
Ã¼ n
Ġmatka ssa
ĠKansainvÃ¤l inen
ĠJOHD ANTO
M al
l uke
Ġonn istua
ka ikk
ll iÃ¤
viik osta
Ġloppup uolella
ĠepÃ¤toi vo
Ġtue taan
ĠJer usale
il eri
Ġrak el
Ġna isilla
ik Ã¤Ã¤r
ala lle
ĠInstagra m
Ġvide olla
Ã¤n g
Ġkoko ajan
Ġunohd a
KA UP
ĠnÃ¤h neet
am et
r eillÃ¤
ikka ilu
Ġp df
ĠHal usin
Ġnumer oon
p enk
Ġja r
X L
Ã¶ ihin
ĠDe al
Ġjo kunen
Ġhuu me
Ġsilloin kin
ĠPer Ã¤
utta jan
itti men
Ġva ille
tune esta
ĠKre ikan
ka ton
UOL TO
Ġur ansa
Ġher kÃ¤sti
ĠJoka isella
ĠkÃ¤yttÃ¶ tarkoit
Ġkyken ee
ĠB os
P C
vil jeli
Ġtunn elman
Ġsiemen et
ĠĠĠĠĠĠĠĠ Ġ
tÃ¤vÃ¤ sti
Ġ04 00
Ġkad ulla
Ġmuille kin
âĢĿ -
ĠO ll
Ġtavar oiden
Ġv eri
S arja
tal ot
l issa
n el
Ei pÃ¤
r or
puol ustus
Ġkul utusta
Ġkauhe asti
Ġstu dio
Ġvalitse maan
Ġhaasta vaa
d ol
ĠkeittiÃ¶ Ã¶n
Ġosto ksia
Ġlempp ar
Ġvastakka in
L ento
Ġpuol essa
tt isi
S C
Ġkunn issa
ĠjÃ¤nn itys
Ġsat u
ĠK AT
Ġkap ital
lo in
Ġtut kitta
Ġmaa pallon
ĠJoon as
Ġsex y
ĠAlan ko
Ġsovi taan
Ġis Ã¤ni
ĠpÃ¤Ã¤ st
Ġteke misestÃ¤
aset uksen
Ġkul uttaa
Ġkiinn ostuksen
Ġa teria
ĠjÃ¤nn ittÃ¤Ã¤
Ġ2 30
ĠN umm
Ġko p
Ġhuomi oiden
ĠP sy
Ġverkko kaupan
j us
Ġhaa r
mme kin
Ġomakoti talo
Ġsa ksan
Ġmateri aaleja
Ġkoulu issa
ĠL Ã¤s
ĠJ OH
ys e
Ġvuo de
Ġsijaitse van
Ġlah jan
puol ue
Ġmatka puhel
ĠMa g
l kÃ¤Ã¤
hankke essa
si oiden
Ġlait ettiin
ĠK lo
Ġviikonlo p
Ġaut osta
ĠkÃ¤ mpp
ET TU
sivu illa
UL A
ĠU V
Ġkesken erÃ¤
LÃ¤h etÃ¤
Ġpann ulla
Ġtulee ko
tÃ¶ iden
Ġtilin pÃ¤Ã¤tÃ¶s
ĠLon toon
Ġkaupung illa
at s
Ġra itio
rak enne
Ġpi eleen
op Ã¤Ã¤
re issu
Va ik
an an
Ġtilaa ja
ĠTuu li
Ġkuljetta jan
ĠelÃ¤mÃ¤ ssÃ¤ni
Ġsu unnan
val menta
suunnitel mat
Lap si
Ġtode llisen
Ġlapsi lla
Ġvaa hd
Ġkor uja
Ġtun sin
Ġmonen laista
Ġster e
Ġlyhy itÃ¤
oit un
vuotiaa lle
Ġko ota
op alvel
Ġmesta ruus
Ġser tifi
ĠA vaa
ikÃ¤ li
ĠPor voon
Ġpolttoa ine
ak kais
ist ettua
Ġesiin tyi
Ġoly mpia
um us
varo ja
Ġhar kin
ĠMu isti
Ġma htaa
Ġb lu
t uot
strateg ia
k annut
Ġhaus kan
Ġsama lle
AL UE
c asino
ĠN II
ĠHon ka
ĠL ohja
ĠLisÃ¤ tietoa
Ġnop eita
ka istaan
Ġotta malla
uv ola
Ġmita ta
a i
ĠH IFK
Ġto h
Ġjo llei
lÃ¤mm itys
Ġpol vi
Ã¤Ã¤ ri
ela inen
Ġt uka
ĠRus kea
ĠVa uva
ĠjÃ¤rjestÃ¤ mÃ¤Ã¤n
ĠEl intar
il on
Ġsijoit tuu
Ġkertaa kaan
ĠlÃ¤Ã¤ kkeiden
Ġmen eh
Ġvar muus
Ġseurus telee
P alvelu
Ġneuv o
umpp an
ĠU N
raa mattu
ĠvÃ¤h ittÃ¤is
ĠkÃ¤vely matkan
Ġpien elle
ĠT s
tiet e
Ġliikke itÃ¤
Ġhan s
nÃ¤ yttely
d osta
ĠJap anin
Ġinnovaa tio
sar jaa
Ġru veta
s oa
Ġvaikut uksista
Ġpu ita
Ġj uni
Ġoma vara
ĠAle ksi
Ġer otta
Ġsiirty vÃ¤t
Ġkier rÃ¤
Ġverkkosivu jen
ĠrekisterÃ¶ inti
ĠtÃ¶r mÃ¤Ã¤
va hin
ol ot
har rast
ĠTall inn
er va
Ġpel iaika
Ġava imet
kor iin
Sa malla
toim et
ĠsisÃ¤ llÃ¶
Ġpaljon kin
ĠTiet oja
ĠtÃ¤rkeimm istÃ¤
ĠPÃ¤Ã¤ tin
kÃ¤ inen
Ġlyh enn
â ĺ
ĠTein i
Ġsallit tua
ivisi oon
Ġkaupunge issa
Ġvi lli
mi estÃ¤
ys ym
Ġm ana
ko pi
La it
Kuva us
S un
ĠPuol ustus
Ġva ri
te on
ĠYrit Ã¤n
ĠTuo mo
Ġir rot
B ar
Ġvirk istys
ĠyllÃ¤ tyksen
in ing
Ġjoukku etta
Ġsukka housu
Ġret ki
Ġelokuva ssa
issa a
ĠKOKO US
H ir
mit h
am ia
Ġoloh uoneen
ĠnÃ¶ yr
E mme
Ġmuo v
risti an
ĠViime inen
ĠympÃ¤ristÃ¶ Ã¤
ĠHeikk inen
Ġn uole
ĠL os
markkin a
Ġst ri
Ġtil asta
Ġkirjoit etaan
Ġ198 9
Â ·
Ġtunte vat
Us kon
ĠB ill
ĠJoka isen
K IT
ĠkÃ¤s istÃ¤
Ġtapahtu maa
ĠC as
Ġ( -
h uh
ĠH erk
ĠS aan
ĠV II
ĠM uun
Ġseuraa viin
EUVOS TON
Ġte koa
Ġsijoit ettu
K okona
Ġma idon
Ġtutkim uksissa
yden otto
Ġterveysa lan
Ġsuomala iseen
Ġ7 1
Ġtyyli Ã¤
g alleria
Ġven een
Ġhaav ei
Ġsit e
ih mis
Ġkilpail uun
Ġty per
P eli
ĠkÃ¤ytÃ¤ mme
Ġkiinn itetÃ¤Ã¤n
il ulle
ĠnÃ¤yttÃ¤ vÃ¤
Ġraj usti
jÃ¤rjes tyksen
ĠsisÃ¤l tyvÃ¤t
Ġtila lla
laatu inen
Ġtakaa vat
Ġvier aat
ĠHeikk ilÃ¤
stÃ¶ n
Ġka mal
puh een
MA IS
ĠkansainvÃ¤l isten
Ġelektr on
Ġpalvel untarjoa
Ġtiet oihin
ĠZ oo
vikke ita
Ġhet keen
Ġkustann usten
om b
ĠjÃ¤Ã¤h tyÃ¤
ut etut
ĠvÃ¤ rien
ty misen
pp Ã¤ri
Ġ9 4
Ġjohta nut
ĠRa imo
pa perin
Ġd er
Ġhakutul oksia
S p
Ġhuu h
gen da
M AR
Ġhas su
Ġpaljas tui
Ġviera ilu
Ġpoista minen
pu istossa
ĠNa to
Ġka mala
Ġle iri
Ġorgas min
Ġmuodos tunut
ĠFran k
IL I
Ġilma isen
Ġviis as
Ġsaman tien
Ġr iem
ĠL ÃĦH
Ġb lo
ĠKÃ¤ ynn
s tynyt
M aal
Ġpetty mys
ĠVa kion
Ġ4 50
ĠK ello
messu illa
Ġvar teen
ĠV iin
tod istus
Ġmen ot
Ġtul oja
Ġkatsot tuna
g issÃ¤
llis istÃ¤
ĠSuomessa kin
ko k
Ġtien sÃ¤
vi estintÃ¤
ter ve
ĠkÃ¤Ã¤n tyy
te ch
Ġko osta
ne ksen
Ġkirja stossa
u er
Ġhilja ista
ĠP l
ĠD en
Ġkyl mÃ¤n
Ġe ksy
Ġtoim inn
tuotte ita
Ġhote llissa
Ġtorsta i
ĠĠĠĠĠĠĠĠĠĠĠĠĠĠĠĠ ĠĠĠĠĠĠĠĠĠĠĠĠĠĠĠĠ
h asto
Ġliikke essÃ¤
Ġtunte ja
kys el
Ġtiista i
Ġraken teen
ĠS ie
ĠH ugh
Ġpien enÃ¤
Ġma ha
Ġjul ista
Ġvarsina isen
ĠkÃ¤sit Ã¶itÃ¤
Ġtap et
w ei
vaikutus ten
li ppu
yks emme
Ġargu men
ĠmÃ¤Ã¤r Ã¤tty
utta jat
ĠP ed
Ġperusta ja
SI O
Ġhankki maan
ĠnÃ¤yt el
Ġmon it
ĠkÃ¤sit telyssÃ¤
ĠN ope
S K
SA US
Ġlei jon
to o
Ġtoiv ottaa
ĠM ET
ĠJa zz
Ġver enkier
Ġvihre Ã¤t
Ġranska lainen
Ġasu minen
ĠOike a
Ġilmoit uksia
kat tua
ist et
Ġehdot uksia
Ġv ilja
ĠS C
uk kas
ĠB us
Ġkolman neksi
kul ta
ĠU L
Ġras kasta
S IK
Ġkan gasta
Ġo llessaan
ĠKesÃ¤ llÃ¤
Ġker tyy
Ġpas kaa
Ġmaa talo
Ġsuih kussa
Ġtut un
to itus
Ġkut sun
ok eskus
yhd istel
Ġnormaal in
kais ee
Ġep Ã¤l
ĠtÃ¶rmÃ¤n nyt
Ġtuo tetaan
ak ul
esk uksessa
ĠT oh
Ġna uha
ĠvÃ¤h iten
ur as
Ġen sia
ĠC R
ĠSoin i
ĠĠĠĠ ĠĠ
E KSI
Ġsiv uun
Nuor ten
ĠT uskin
ja in
ĠH AR
Ġhall innassa
Ġinno issani
ĠKys ely
ĠhÃ¤ tÃ¤Ã¤
tio ksi
Ġyrityks issÃ¤
ih all
Ġkes kin
ĠtyÃ¶s uojel
Ġjo en
korva us
Ġti elle
y vyn
Ġsairaa lan
Ġkis at
ĠM IL
Ġmur s
ikka asti
W eb
Kiin teistÃ¶
Ġpikavi ppi
ĠC C
J Ã¤l
R un
Ġkoulut uksessa
ĠUse immat
ĠRekisterÃ¶ idy
ist elin
ela in
ud at
ĠÃ¤ i
uv o
ĠpÃ¤Ã¤kaupunkise udulla
Ġaiheutta ma
m oa
lib ris
ĠnÃ¤hdÃ¤ ksesi
Ġkoko el
Ġpara ti
ĠEdus kunnan
ĠS T
ĠkÃ¤si var
Ġtul oa
jÃ¤l ki
ton e
Ġpoh jaa
mall ien
ks issÃ¤
AS A
ĠNÃ¤ yttÃ¤Ã¤
N ÃĦ
Ġihmet tele
U p
Ġvaku uttaa
Ġhuomatta va
Ġsaavutta nut
) ?
ist ina
ĠJ ostain
II R
Ġtall inna
Ġb ea
Ġtal vir
lo h
Ġkr ista
um u
ĠsÃ¤Ã¤ tiÃ¶
al ian
Ġer inÃ¤
Ġmaja paikkaa
ISUU DEN
H uolto
V IS
uk kia
ĠvÃ¤ki valtaa
Muka vaa
Ġkiinn ostus
ĠneljÃ¤ stÃ¤
ĠB oo
ĠR yh
umer on
ĠO llaan
ĠmitÃ¤ s
Ġmahta via
Ġsuo tu
c is
A iku
osi en
Ġas ukasta
Ġta ap
ĠN IMI
ĠlÃ¶y sÃ¤
Ġpy rin
Ġkustann uksella
Ġla ivan
Ġtalo a
Ġtarjon ta
sal mi
Ġhelp oin
Ġsivusto t
Ġo ra
Ġval men
Ġtuo reita
ĠtyÃ¶ ta
ammat ti
ĠlÃ¶ytÃ¤ minen
yl Ã¤t
ke issa
ĠS et
Ġnim etty
Ġmyy tiin
ĠylimÃ¤Ã¤rÃ¤ isiÃ¤
b aa
Es poon
Ġt ukku
Ġs ka
v eh
ĠYhte ys
piir issÃ¤
Ġs uvun
ĠHEL SINKI
Ġvuokra ta
Ġjo ukon
M oi
Ġsala isuus
ĠylimÃ¤Ã¤rÃ¤ inen
Ġ12 00
ma to
Ġ9 1
ĠStu dio
TI EDOTE
Ġajat telun
tte ita
Ġreun at
vuok raa
Ġvi im
Ġtarkoit uksiin
ikÃ¤ stÃ¤
ĠpÃ¤Ã¤si mme
Ġyhdist etty
tÃ¤ rke
g erin
Ñ Ģ
Ġkeski arvo
ĠEhkÃ¤ pÃ¤
ĠM id
ra vintola
oi lleen
ĠD er
keh ityksen
Ġreiss ulla
UN A
ĠKa m
Ġp oimi
k isa
Ġmiel iku
Ġedellis essÃ¤
ĠtÃ¤llÃ¤ kin
tÃ¤ vien
Ġverkko siv
Ġol u
ma kka
ta iteen
ĠkÃ¤vi vÃ¤t
Ġv isio
ot telussa
Â ½
Ġviin iÃ¤
Ġsal illa
V edonlyÃ¶nti
Ġmuut etaan
Ġr ut
Ġteki jÃ¶iden
Ġm yste
Ġsel kÃ¤n
Ġotti vat
Ġkokous huone
Ġval kos
ij y
Ġkann en
j illÃ¤
ĠF ire
ĠG usta
ĠepÃ¤ illÃ¤Ã¤n
ĠkiinteistÃ¶ jen
ku it
si aa
mmÃ¤ inen
p ani
si um
ĠyksittÃ¤ isiÃ¤
ĠOr g
Ġteh ostaa
ĠKol man
ĠOp into
Ġvaale issa
J ar
ja inen
Ġki valta
de e
Ġkaver iksi
Ġedus kunta
Ġta ustaa
Ġtan ssia
e ikÃ¤
Ġtoteutta miseen
yn een
Ġopp os
Ġluo ta
Ġp innalla
ĠToi misto
ĠS AA
Ġsuh te
ik op
ĠÃ¤id ille
ĠHY VÃĦ
johta jat
Ġleh tien
ĠTal on
kaupun kise
mootto ri
E xt
Ġne uloa
ku iva
e esti
ĠtÃ¤yttÃ¤ vÃ¤t
ĠB ad
Ġgraaf inen
Ġvi etti
Ġku mminkin
ĠvÃ¤l ineet
oi malla
c tic
Ġk enn
Ġjo gur
Ġter min
r el
Ġr ed
ĠP id
A p
Ġper uutta
ĠUs eimm
ĠkÃ¤yttÃ¤ jÃ¤ltÃ¤
Ġ19 18
el vitys
Ġla jia
ĠlisÃ¤ si
Ġkiinn it
mÃ¤ si
Ġkeh ottaa
ĠKeh ittÃ¤mis
c ts
rÃ¤t ys
Ġsoi ja
ĠjÃ¤sen enÃ¤
Ġmagne etti
Ġr Ã¶n
Ã¤Ã¤n esty
Ġmyyn tit
y an
Ġryh mien
Ta mm
ĠLonto ossa
Ġviile Ã¤
Ġkerroks essa
konser nin
B C
OL O
ih oita
gra fi
Ġe kan
ĠValta kunna
Ġ9 7
Ġel o
man nin
io ista
uk ussa
Osoit etta
kku utta
F innish
ĠOla vi
Ġkyn sila
Ġlaina an
ĠMaa kunta
Ġkolle g
Ġva ellus
ĠTuo minen
Ġpalvelu issa
Ġti imi
yhteis kunta
ĠtyÃ¶ ryhmÃ¤n
Ġide at
Ġpikku isen
ĠI D
kon eiden
ĠmeillÃ¤ kin
elÃ¤ mÃ¤ssÃ¤
oinn it
ĠpÃ¤Ã¤ timme
ust oiminta
Ġteh Ã¤
Ġva kaa
Ġkan kaan
v iltÃ¤
ei taan
ĠD ata
Ġher mos
Ġm is
up ol
m sÃ¤
leh tien
onn assa
pa ik
Ġaja tel
Ġenn uste
Ġharjoit taa
Ġka mm
Ġt im
ĠkÃ¤yttÃ¶ kelpo
is kun
Ġk alu
uh et
ikka uksen
ĠhÃ¶l mÃ¶
Ġkats elee
la ulu
il ista
ottu ja
U us
Ġvuorovaik utusta
d illa
Ġma te
ĠhÃ¤ meen
stÃ¤ Ã¤n
p Ã¶n
S ING
ĠseinÃ¤ lle
Ġtuu le
Ġvalit sin
Ġkeskus telussa
Ġpar emm
Ġp ikka
Ġhy vistÃ¤
Ġpuol iksi
ĠLÃ¶ ysin
or ian
ĠKot kan
ĠV amma
ĠB est
Ġmiljar din
istel un
Ġkirjautua ksesi
ĠsÃ¤n kyyn
ĠlisÃ¤ tiedot
Ġsama lta
Ġmas en
Ġkasvan eet
ĠNor ja
Ġpip o
Ġhava ittavissa
ĠTuleva isuuden
Ġalku puolella
Ġblog ga
e y
is kan
ik kÃ¤Ã¤n
Ġakti voit
ĠkansainvÃ¤l isty
ĠbÃ¤n d
ĠlÃ¤h it
ĠTe x
Ġnyky iset
Ġsi lla
or gasmi
Ġnime si
uko ko
yÃ¶nteki jÃ¤t
ĠB ussi
ĠyksittÃ¤ isen
ĠMiel enkiinto
Ġt ho
ĠKuva us
ĠpÃ¤Ã¤t yttyÃ¤
Pel aa
Ġko it
eri an
S illÃ¤
ĠGr Ã¶n
Ġho vi
ist os
Ġtekni ikkaa
ila ista
kel it
ĠIs Ã¤n
ĠtÃ¤ yty
u mista
ĠhyÃ¶dyn tÃ¤mÃ¤Ã¤n
Ġhankkin ut
Ġro ik
ist oihin
Ġihm eellistÃ¤
ĠKoul utuksen
Ġajat telemaan
Ġsuurim maksi
Ġammattila iset
Ġmaks un
Ġkas veja
til oihin
ĠM onta
ĠS UUNNIT
b ul
Ġvalta osa
sÃ¤Ã¤ tiÃ¶
Ġkirja llinen
Ġkorke at
j inÃ¤
ĠJo kais
Ġtunten ut
Ġhe iltÃ¤
ĠpÃ¤ivÃ¤ lle
iko ulu
ĠYle iset
Ġaktiiv ista
Ġpysy mÃ¤Ã¤n
ĠtyÃ¶n haki
Ġpaket issa
Ġp uur
ĠIS BN
Ġarm eija
Ġkorkea koul
yd y
pal sta
ĠsisÃ¤ltÃ¶ Ã¶n
Ġet kÃ¤
Ġuskon no
Ġur os
Ġm Ã¤t
Ġvase mman
Ġkaa van
Ġse utu
ĠpÃ¤iv ien
Ġohjel mien
S op
Ġko vat
ttu ja
HÃ¤ me
ip an
Ġkis an
Ġkyyn Ã¤r
ĠOr ganisaa
Ġpin kki
u usta
ĠKil p
Ġkiv un
Ġhuomi oidaan
ol etti
Ġliikku minen
lloin kin
maks uja
kon ta
Ġkilpa ilua
Ġper iksi
Ġede sa
ittÃ¤ vÃ¤Ã¤
Ġtar ttuu
Ġmu unta
ĠHyvÃ¤ks ytty
Ġtuotta maan
ĠO tan
V oin
tÃ¶ mÃ¤sti
keÃ¤ sti
ĠT UO
po jan
emp Ã¤Ã¤n
Ġturva ta
Netti raamattu
Ġperus telu
Ne w
Ġ1 12
IK ÃĦ
er iin
li peli
Ġka pe
Ġuud is
Ġpohjo iseen
up i
Ġs tim
ĠKoiv isto
ti imi
Ġt osta
kin eet
Ġsairaa laan
u hd
ĠsÃ¤ mp
ĠtyÃ¶ voiman
Ġh ukassa
ĠtykkÃ¤ sin
Ã §
Vo iko
Ġsuk kia
osto t
Ġker Ã¤nnyt
Oli pa
Ġp oker
ĠH ENKIL
Ġkeskus telemaan
ll ien
ĠPÃ¤ ijÃ¤t
ĠLuu len
Kan san
ĠG all
ĠkÃ¤te istÃ¤
Ġviikonloppu isin
Ġmuut u
r im
! :)
Ġpas siiv
Ġvanh us
ko p
Ġhava intoja
ĠPor voo
Ġl innut
k uttaa
ita so
Ġprosen ttiin
Ġuse asti
m yr
Ġloma kohteet
Ġpare mmaksi
M L
kys elyn
ĠlÃ¶ytÃ¶ jÃ¤
Ġkar si
neen Ã¤
ĠEspan jassa
vaun u
ĠKaa kkois
h kaa
J EL
ĠitsestÃ¤Ã¤n sel
ĠO tin
s ku
Ġta udin
yyn y
On han
mi ta
ile vÃ¤
Ġkoulutus ohjelma
Ġkulutta jien
ĠSi joit
ui ma
Ġkir kkaan
ĠMi ch
Ġpuutar hassa
La uantaina
l im
Ġko vassa
kor ot
ĠmÃ¤Ã¤r Ã¤Ã¤n
all ani
ĠvÃ¤s ym
Ġh attu
Ġkulttuur iministeri
h ter
ĠItali assa
Ġai ot
Ġdemok raat
ĠIL M
ĠTuotta ja
S ir
Ġle g
tar kastaja
ĠjÃ¤sen en
ĠlÃ¤Ã¤ kke
Ġas ento
Ġw as
ĠAs un
ohjel masta
ĠT ikkur
ĠK ivi
ĠP uoli
ak ku
ĠG T
ĠT ei
ĠlÃ¤htÃ¶ kohtaisesti
Ġkohd ata
Ġhelpp oja
ĠV eto
kaan sa
Ġd es
H UOM
Ġvarmis tetaan
Ġmaase utu
Ġkaune uden
Pit kÃ¤
ĠBan k
tÃ¤vÃ¤ ksi
ASI ALLINEN
ty le
Ġit ku
Ġlinn un
L ÃĦN
ĠkentÃ¤ lle
ĠKristi ina
Ġkoke ilin
Ġomit u
Ġverkosto itu
ĠDig ital
Ġmatka kohteessa
mieh elle
s oja
ĠMa ja
Ġf it
ĠNo use
us telu
ĠRa uma
ĠD yn
Ġoma ks
ĠkÃ¤yttÃ¶ Ã¶si
ĠkerÃ¤ si
muka ista
Ġmar joja
Ġriste ily
Ġmet sien
Ġammattikorkea koulun
Ġvaik eita
Ġvaati mus
Ġsiv usta
KIN TO
Ġaset etaan
ĠT anska
h n
Ġpoja lle
ĠTavoit e
k kas
ty vÃ¤
Ġrakenn ukset
Ġyhteist yÃ¶stÃ¤
ĠB lon
oksi lla
h uu
d oku
Ġkor rup
Ġjuh liin
Ġkasva maan
jo ta
Hote llit
Ġpan os
ĠPie tarin
aa tion
Ġtavoit taa
ĠSt riptease
pu llo
Ġlapsi perh
ĠMieh en
va uri
ik etti
Ġha uk
ĠKol mas
ĠMuuta man
ĠY kkÃ¶
ĠL AA
ĠRovan iemen
Ġol oinen
Ġperust utkinto
Ġal tis
isaa tion
ĠIh misen
ĠLe vy
tila isuudessa
Ġmaailmanlaaju isesti
T IT
Ġja ettiin
Ġkyl pyh
ak kos
ro om
ĠT ele
ra el
ĠyllÃ¤pit oon
Ġkotima assa
ĠherÃ¤t ys
ĠMat tila
ttuu rin
etu issa
ettÃ¤ viÃ¤
si oissa
Ġaav istuksen
Ġtul kita
ĠL uke
Ġun et
mpan y
Ġkar h
Ġtuotan toon
P alvelut
ĠMo bile
Ġviljel y
ĠH uol
Ġsija in
oi ja
asti an
put ken
ĠTho mas
ĠpÃ¤ivÃ¤ko din
> >
b otti
vas tu
kat sel
Ġma ust
Ġpa ikoista
Ġtein it
Ġaiv ojen
ĠVantaa lla
ĠKarja lainen
Ġsunnunta in
Ġtyyn y
it is
Ġpel to
Ġvaalean punainen
ir t
vi isa
Ġsil mÃ¤Ã¤
Ġtan ssin
Ġt irk
Ġpien eksi
Ġkoh teisiin
Ġs ilta
Ġviime isi
Ġet ur
Ġjaka minen
ĠMusi c
Ġkulutta jan
Ġluki joita
Ġluk en
Ġsex work
er al
c as
Ġpo ike
Ġkoul usta
Ġpo tilaa
j una
H ih
ĠhyvÃ¤n sÃ¤
ĠMassa ge
ol Ã¤h
ĠhyÃ¶ n
up iste
ĠVuokrat tavat
F IN
ker ros
ĠCh r
ĠDani el
iti llÃ¤
ĠKustann us
ĠKo mp
Ġodot uksia
o maa
ĠEuroop paan
Mo le
Ġko kka
ĠepÃ¤onn istui
Ġkeuh ko
Ġyksityis kohdat
uks eltaan
ettÃ¤ vÃ¤sti
ven tÃ¤Ã¤
ĠE X
ĠvyÃ¶tÃ¤ rÃ¶
ĠTÃ¤lla isia
ap Ã¤Ã¤
fi eld
Ġl elu
ĠK Y
Ġmahd u
esit tely
lÃ¤ isen
w al
tom uutta
Kaupun gin
ĠYhteis kunta
kuu lu
ĠK yt
ĠÃ¤ skettÃ¤in
ĠmÃ¤Ã¤rit tely
Ġvel vollisuus
ĠM uoto
Tule va
Ġp unn
Ġtutustu massa
EUR OOPAN
Ġkal enteri
Ġtatuo inti
uor en
J ussi
En sin
ĠmyÃ¶nn etty
valiok unnan
Ġkonser nin
c l
E ttÃ¤
et taan
Ġkir ko
Ġver isuon
Ġilm oita
Ġilmoitta utua
isk ul
Ġjat kos
Ġkun inkaan
ol ut
PÃĦÃĦ TÃĸS
ĠAt lan
ĠkansainvÃ¤l isiÃ¤
ĠM es
Ġe va
ĠelÃ¤mÃ¤n tapa
Ġonnet tomuus
Ġyhd et
ĠS ea
ĠT uki
Ġsuomala isessa
Ġ ukko
te ina
Ġkar ja
ut ur
k itys
Ġro olia
tel isin
N ap
Ġpan kk
ok ko
TO MUS
ĠlÃ¤Ã¤ kkeen
lista lla
Ġsy yttÃ¤Ã¤
Ġkorkea taso
Van he
La bels
ĠF M
Ġsair astu
Ġolenna inen
P il
Ġb usiness
en ergian
kkaa massa
S yÃ¶
Ġpal kittiin
Ġkirja ilijan
Ġluke misen
el ine
tÃ¤ llÃ¤
G IA
Ġresep tit
ĠKU VA
Ġtuo reen
saa ja
V ara
Ġpa ikkoihin
ĠLa dy
Ġhuoma uttaa
ĠMaa rit
Ġpel koa
Ġmotivaa tio
ri ch
uh ar
Ġal asto
Ġmitta inen
Miel estÃ¤ni
Ġanal yy
ak er
Ġyhd eksÃ¤
ĠL VI
ks ella
usi l
IT EN
Ġrakka udesta
emm isto
Ġdolla rin
or o
Ġsuosit telemme
Ġviime iseen
vuosi katsaus
Ġan ten
ot telun
ĠnÃ¤yt Ã¶
Ġvar m
ĠpÃ¤Ã¤ tÃ¤Ã¤n
Ġol on
ĠJuma laa
lÃ¤ iset
ĠProjek tin
Ġotta minen
ĠSo dan
ĠKyllÃ¤ hÃ¤n
Ġtuo mit
Ġ8 3
ĠD uo
ĠKy mmen
te isia
Ġis lam
ĠVe ikkaus
pp ula
Ġas ukkaan
kul ku
ul ar
ĠyÃ¶ ksi
a inakin
kÃ¤ sin
Ġpohja an
Ġaihe uta
Ġta kas
ĠL td
Ġjo usto
kas vit
b al
Ġide olog
Ġtarkas taa
Ġ9 3
Ġtyy pin
Ġpuna isen
Ġpuol itoista
d essa
Ġsuur uus
Ġpoliti ikkaa
Ġl ik
Ġlupa si
ĠAB C
Ġp yyntÃ¶
ĠtÃ¤ hdet
juo ma
ĠjÃ¤l kiÃ¤
! ).
ĠTer Ã¤
se inÃ¤
Ġonnistun eet
Ġpal annut
ui de
ĠKun tien
Ġseksi videot
pitÃ¤ jÃ¤
koko elma
M ika
Ġhoid ettu
Ġkor ttia
up al
Ġvia gra
ĠCo un
nn issÃ¤
ta jana
Ġtan ssit
Ġvat san
ĠAnn eli
Ġenn allaan
Ġdi esel
ĠSÃ¤Ã¤ stÃ¶
Ġa rab
ud ulle
Par haat
op ros
Ġh ukkaan
Min kÃ¤
Ġasia kirja
Ġken ellÃ¤
Ġmyynti Ã¤
Ġero aa
Ġlento kone
Ġmeinin ki
j y
ĠTarkoituksen a
Ġkuva ilee
ĠneljÃ¤n nes
et er
Ġihmis oikeus
Ġka tegoriaan
TI ETO
Ġpar tio
Ġinspiraa tiota
Ġesiinty vÃ¤t
Ġkohder yh
ĠHen rik
A in
ĠC at
Ġtutkim ustul
Ġseko itus
Ġalka essa
jo uk
ĠkÃ¤vele mÃ¤Ã¤n
ĠKatso taan
Ġposta ukseen
j estÃ¤
ĠKys ymys
ĠtyÃ¶pa ikkaa
ust ossa
m n
us ki
Ġhall in
ĠMilla inen
ĠlÃ¶ytÃ¤ neet
hd imme
ĠMinÃ¤ kin
ĠâĤ¬ ,
Ġkur sseja
ii i
ise jÃ¤
VALL ISUUS
Ġmahdollis ista
kor jaus
Ġvasta ukseesi
Ġkauhe an
Ġsynn yttÃ¤
Ġpaper ille
Ġohja uksen
mmÃ¤ stÃ¤
Ġihmet ellÃ¤
ika l
ĠnÃ¤ tisti
Ã¤n neet
pit kÃ¤
Ġhal uttiin
ĠTukhol man
Ġarva ta
Ġkans antalo
Ġvar oitus
ĠAd libris
ĠT Ã¤Ã¤ltÃ¤
Ġasukka ita
atta vissa
ĠVa imo
Ġkann ettava
ĠsÃ¤ vell
isen i
Ġkon t
Ġkas vin
VenÃ¤ jÃ¤
Ġto istaa
Ġed etessÃ¤
innÃ¤ ssÃ¤
k riteer
is arja
Ġjat kunut
ĠhyvÃ¤n tekevÃ¤
J ep
Ġsukupuol ta
Ġpaket tia
ĠYmp Ã¤r
ĠRa uman
co missa
y delle
ta it
mate ur
ĠrekisterÃ¶ idy
Ġ âĸ
Ġtuo ter
lÃ¤mm itin
Ġedus kuntava
Ġko pio
ĠKEH ITTÃĦ
Ġet n
Ġma ihin
etu illa
Ġvastaa jista
r istÃ¤
Ġnumer on
Ġtyy lin
Ġliit teenÃ¤
Ġtied otta
K unto
iem essÃ¤
ĠhÃ¤mÃ¤ rÃ¤
for s
Ġkys ellÃ¤
L ehti
f oni
Ġajoneuv on
Ġtule hdus
H istoria
OHJ EET
ittÃ¤ misen
Ġliik kuvat
ul us
Ġtasa puol
Ġaloitta mista
Ext reme
Oike us
o mme
an at
Ġil taan
Ġkotima ista
Ġin stru
B T
Ġm es
Ġoman a
Ġsa isivat
opÃ¤ ivÃ¤
ĠtyÃ¶ pÃ¤ivÃ¤n
Ġappel siin
Ka isa
ĠR ea
Ġas unnot
oit to
Ġtoiminnan johtaja
uta l
Ġsan d
Ġjohtu vat
Ġt uuri
Se inÃ¤
as sin
OS SA
kor t
Ġhuo ll
Ġlo go
ĠO M
kaupun gissa
TEL Y
Ġkannat ti
Ġvir ran
Ka hden
Ġa jon
suo men
Ġperuut taa
ĠHui pp
ĠÃ¤it iÃ¤
Ġr ivi
-------- --------
ta var
-- -
Ġkats oja
Ġal ihan
Ġomista jat
NN ÃĸT
is uusa
Ġosa sta
ĠP V
ĠSa kari
Ġluonte eltaan
v oid
T anssi
ĠyksilÃ¶ itÃ¤
ma alta
Ġe ko
Ġvahin ko
Ġrehe llisesti
p ek
iem ellÃ¤
ĠHaa sta
uka uden
ĠK ri
ĠF anta
Ġvin kistÃ¤
Ġr ika
ĠJa c
Ġad op
un taan
ear ch
ĠB rother
Ġihmis suh
Ġta llin
Ġr yÃ¶
ĠEhd otus
Ġvoi mala
u ge
ĠAf ri
ann asta
miin i
mieh enÃ¤
Ġetsi mÃ¤ssÃ¤
Ġvara usta
Ġkaa da
e mmin
Ġpos liin
hd it
pel issÃ¤
ĠYr jÃ¶
Ġfysi ikka
ĠTar kka
Ġruus u
M yynti
Ġl ot
Ġas uk
uo tan
Ġke vyttÃ¤
y sio
soit in
m yyn
vuotia ita
Ġjohta mis
pa kko
ĠKa lli
Y hden
d irektiiv
lask elma
ĠKol men
Ġliike voitto
Ġsil mi
Ġjuur et
e g
Ġpa is
Ġsivust osta
elÃ¤ ke
ĠTek nologia
kast in
tis uunnitelma
ĠLe o
ĠT ro
ĠtyÃ¶ aika
Tek niset
ell er
kis uo
Ġto issa
Ġh innasta
ĠensimmÃ¤ isiÃ¤
Ġsar alla
en tin
Ġkol matta
Ġluv ut
Ġmaks anut
va i
ĠP E
ĠV AN
ĠNa uti
Ġuun i
Ġel ossa
it es
Ġanti bio
mis a
blog gaa
Ġede lliseen
to ver
Ġpos tu
vÃ¤ rin
ĠvÃ¤hen tÃ¤minen
Ġkasv ussa
Ġkos ki
ĠSoin in
Ġmatema tiikka
Ġluon toon
ĠL ine
Ġp uku
Ġpa hin
ĠyksittÃ¤ isten
Ã¶ Ã¤
Ġkor ut
ĠJ ossain
Ġenn usta
oit ettu
ĠX L
Ġpro pagan
ĠPal kka
Ġtun si
Ġsuur een
ys ÅĤ
Ġen emm
Ġtuloks e
Ġedell yttÃ¤vÃ¤t
mm onen
am o
Ġki ip
Ġsekunn issa
Ġmu ffin
st eri
u llut
ElÃ¤ mÃ¤
Ġtut ut
pane eli
materi aalin
Ġkaune utta
Ġkysel yyn
Ġhal unn
Ġkorkea lle
Ġsan oista
vi ime
Ġs pe
ĠLa uta
res ep
Ġ: '
Ġko ro
Ġpa idan
Ġvahvista minen
tod oks
maa tion
ul oma
ĠM is
Ġnor mi
Ġra dalla
ĠOl y
ĠSo ft
ĠSaar inen
Ġlemp eÃ¤
D i
Ġran kka
Ġko valla
poliit tinen
Ġmiljoon ia
ĠLaa ks
vel op
ĠTI ETO
Ġvi isaa
IST YÃĸ
ĠAn g
ĠelÃ¤mÃ¤ssÃ¤ Ã¤n
ĠESIT YKSEN
ĠKo ulun
P ur
ĠtyÃ¶nteki jÃ¶
z ed
Ġsen tin
Ġper s
Ġosapuol ten
ĠT anskan
utettu jen
Ġjoh tua
Ġmuo kattu
Ġmaks utta
Ġmuod ot
Ġkuuka ut
ĠVÃ¤ estÃ¶
ĠP on
ĠkÃ¤rsi vÃ¤t
Ã¤Ã¤n sÃ¤
pÃ¤ inen
Ġturva llisen
d etta
Ġsi iste
Ġtieto isesti
ĠJok inen
Ġlin jalla
r assa
Ġaam upÃ¤ivÃ¤
ĠN imen
AL LE
Mat eriaali
har rasta
Ġmin uu
Ġlev yt
Ġkirja imellisesti
ĠKuopi ossa
Ġpiir tÃ¤Ã¤
iksen i
ĠKommen tit
Ġle irintÃ¤
ro maan
Ġpar isuhde
Ġalhaa lla
ku ivaa
S t
kka at
di es
ĠJ ere
ĠhÃ¤ pe
Ġr uh
Ġperus ti
ĠF is
Ġmat ta
Ġsuunnit tel
ĠBritann ian
vel voit
Ġkel pa
Ġominaisu uksien
Ġharvina inen
Ġtotu utta
Ġb ut
K r
ĠtÃ¤ ytyi
oim iston
sa rin
a c
ĠTI EDOT
vin g
ĠOl is
Ġvaka via
Ġma id
ĠHal onen
pal an
Ġagg ressiiv
Ġb asi
ketiet een
ĠkehittÃ¤ miseksi
ĠT esta
op le
Ġhaasta tel
mm Ã¶n
Ġvil jeli
Kul ttuuri
Ġki ekko
istu mis
re un
Ġkehitty mistÃ¤
Ġperun at
ĠT am
Ġtre ffi
Ġku us
Ġkr oppa
ĠterÃ¤ vÃ¤
hy lly
ES S
ysÅĤ any
Ġsul aa
omin isteri
Ġsatunna isesti
ĠepÃ¤ miell
ĠOnn i
Ġratsa staa
ĠL y
kinn asta
ĠC ision
keskus ten
ashi on
utta miseen
mu isti
Ġkor u
Ġ198 8
os ista
kaup oista
Ġal oilla
Ã¶lj yn
Ġpositiiv isia
Ġhal ki
se ihin
ĠS yr
Ġkehityks estÃ¤
iko koinen
kana va
ĠSuo ja
Ġtarkas tel
is uudella
R ad
Ġvara utua
Ġpaika lta
Ġrapor tin
Ġheiken tÃ¤Ã¤
sal issa
ĠkÃ¤yt yÃ¤
mÃ¤ ellÃ¤
Ġan onyy
ĠE C
ĠN E
Ġhampa iden
Ġlaaje mmin
ĠE P
Ġkat tilaan
Ġperus teita
uta pahtu
Ġkoke maan
Ġvaltakunna llinen
Ġsa to
ĠVi ikko
H Ã¤nen
Ġh yt
m uun
ĠTALO US
ĠR oh
et ulle
is Ã¤n
ĠKa ta
Kat s
d d
ikke iden
su jen
p oi
T TU
ĠRekister iseloste
han kin
Ġhenk inen
ĠMiel etÃ¶n
ra mi
Ġby ro
op paan
Ġli ma
uka usi
ĠTiet enkin
Ñ Ĥ
ann at
lu ukku
Ġ198 7
m ittaa
Ġva uv
ĠTe mat
A g
ĠT ot
Ġkoul uk
Ġresep tejÃ¤
Ġnosta l
yÃ¶nteki jÃ¶iden
ĠMat in
jÃ¤rjestel miÃ¤
Ġmuisto t
Ġme inasi
ist ista
ĠT UOT
Ġide aa
Ġsil eÃ¤
Ġasunn ossa
ust uotteiden
Ġmin ussa
teh uolto
ĠvÃ¤hÃ¤ inen
ĠSe udun
ĠP inta
kis ojen
Ġpuol ustaa
jÃ¤ te
tek nologia
kul massa
Ġkoton aan
tar kastus
ter s
TO R
Ã¤h tÃ¤nyt
Ġheng essÃ¤
alis mia
ĠT ran
Ġehd otti
Ġmatka sta
Ġsitruun a
Ġteks tien
ĠAn ton
Ġvapa uden
Ġinternet issÃ¤
kampan ja
h ui
ĠH ans
van teet
S ar
sa v
Ġvarr elta
ĠM IN
Ġtul ia
oista va
Ã¶n Ã¤
Ġtied ottaa
ira uh
Ġ24 0
ku usta
ĠAl usta
ĠmÃ¶ kille
ĠBo ot
ĠMet sÃ¤n
Ġhi gh
Ġkokemus ten
H eh
VI R
Ġlaadukka at
is iltÃ¤
ĠlÃ¤htÃ¶ kohdat
ve itsi
Ġammat in
Ġedell ytyksiÃ¤
kon sep
luv ulle
Ġde mon
ĠAsian tuntija
Ġtreen it
Ġhir si
Ġedu llisia
Ġpan kkien
Ġco ck
Ġuusi lla
ĠLe ikkaa
issa si
Ġval ja
Ġe mail
KA R
uk kanen
Ġsuure mman
Si jainti
ile jÃ¤
mÃ¶ kki
ĠMe tall
Ġsar jat
D R
ĠEn ergian
Ġpoliit tista
um e
ĠJÃ¤ lleen
ko tta
Ġluo sta
ĠSa mpo
ĠkÃ¤si ksi
ĠH eillÃ¤
yÃ¶ nÃ¤
Ġkaa peli
Lap sen
Ġkas vien
ĠKAUPUN GIN
ut ella
ĠH TML
van iemi
Ġkeh ys
ĠAnn an
Ġ20 30
ĠKy menlaa
n eensÃ¤
v s
ĠEnsimmÃ¤ iset
Ġkanssa mme
ff et
K Ã¤Ã¤nnÃ¶s
Ġrauha llista
tiiv i
n eille
Ġyhteen veto
ĠV ilja
h is
[...]
