{"<|endoftext|>":0,"!":1,"\"":2,"#":3,"$":4,"%":5,"&":6,"'":7,"(":8,")":9,"*":10,"+":11,",":12,"-":13,".":14,"/":15,"0":16,"1":17,"2":18,"3":19,"4":20,"5":21,"6":22,"7":23,"8":24,"9":25,":":26,";":27,"<":28,"=":29,">":30,"?":31,"@":32,"A":33,"B":34,"C":35,"D":36,"E":37,"F":38,"G":39,"H":40,"I":41,"J":42,"K":43,"L":44,"M":45,"N":46,"O":47,"P":48,"Q":49,"R":50,"S":51,"T":52,"U":53,"V":54,"W":55,"X":56,"Y":57,"Z":58,"[":59,"\\":60,"]":61,"^":62,"_":63,"`":64,"a":65,"b":66,"c":67,"d":68,"e":69,"f":70,"g":71,"h":72,"i":73,"j":74,"k":75,"l":76,"m":77,"n":78,"o":79,"p":80,"q":81,"r":82,"s":83,"t":84,"u":85,"v":86,"w":87,"x":88,"y":89,"z":90,"{":91,"|":92,"}":93,"~":94,"¡":95,"¢":96,"£":97,"¤":98,"¥":99,"¦":100,"§":101,"¨":102,"©":103,"ª":104,"«":105,"¬":106,"®":107,"¯":108,"°":109,"±":110,"²":111,"³":112,"´":113,"µ":114,"¶":115,"·":116,"¸":117,"¹":118,"º":119,"»":120,"¼":121,"½":122,"¾":123,"¿":124,"À":125,"Á":126,"Â":127,"Ã":128,"Ä":129,"Å":130,"Æ":131,"Ç":132,"È":133,"É":134,"Ê":135,"Ë":136,"Ì":137,"Í":138,"Î":139,"Ï":140,"Ð":141,"Ñ":142,"Ò":143,"Ó":144,"Ô":145,"Õ":146,"Ö":147,"×":148,"Ø":149,"Ù":150,"Ú":151,"Û":152,"Ü":153,"Ý":154,"Þ":155,"ß":156,"à":157,"á":158,"â":159,"ã":160,"ä":161,"å":162,"æ":163,"ç":164,"è":165,"é":166,"ê":167,"ë":168,"ì":169,"í":170,"î":171,"ï":172,"ð":173,"ñ":174,"ò":175,"ó":176,"ô":177,"õ":178,"ö":179,"÷":180,"ø":181,"ù":182,"ú":183,"û":184,"ü":185,"ý":186,"þ":187,"ÿ":188,"Ā":189,"ā":190,"Ă":191,"ă":192,"Ą":193,"ą":194,"Ć":195,"ć":196,"Ĉ":197,"ĉ":198,"Ċ":199,"ċ":200,"Č":201,"č":202,"Ď":203,"ď":204,"Đ":205,"đ":206,"Ē":207,"ē":208,"Ĕ":209,"ĕ":210,"Ė":211,"ė":212,"Ę":213,"ę":214,"Ě":215,"ě":216,"Ĝ":217,"ĝ":218,"Ğ":219,"ğ":220,"Ġ":221,"ġ":222,"Ģ":223,"ģ":224,"Ĥ":225,"ĥ":226,"Ħ":227,"ħ":228,"Ĩ":229,"ĩ":230,"Ī":231,"ī":232,"Ĭ":233,"ĭ":234,"Į":235,"į":236,"İ":237,"ı":238,"Ĳ":239,"ĳ":240,"Ĵ":241,"ĵ":242,"Ķ":243,"ķ":244,"ĸ":245,"Ĺ":246,"ĺ":247,"Ļ":248,"ļ":249,"Ľ":250,"ľ":251,"Ŀ":252,"ŀ":253,"Ł":254,"ł":255,"Ń":256,"Ã¤":257,"ta":258,"en":259,"in":260,"is":261,"Ġk":262,"an":263,"ll":264,"it":265,"Ġj":266,"Ġs":267,"Ġo":268,"Ġt":269,"Ġm":270,"va":271,"et":272,"Ġp":273,"ka":274,"tÃ¤":275,"el":276,"si":277,"ti":278,"ut":279,"sa":280,"es":281,"Ġja":282,"er":283,"Ã¶":284,"us":285,"uo":286,"ik":287,"un":288,"Ġl":289,"Ġh":290,"ma":291,"Ġv":292,"Ġa":293,"Ã¤n":294,"on":295,"aa":296,"te":297,"il":298,"Ġn":299,"lla":300,"os":301,"Ġon":302,"ja":303,"uk":304,"oi":305,"Ġva":306,"uu":307,"Ġta":308,"to":309,"as":310,"al":311,"ul":312,"Ã¤Ã¤":313,"ko":314,"yt":315,"Ġe":316,"lle":317,"ki":318,"inen":319,"ar":320,"ista":321,"Ġr":322,"ĠS":323,"ĠK":324,"mm":325,"at":326,"ke":327,"Ġol":328,"ĠT":329,"Ġy":330,"tu":331,"Ġjo":332,"Ġko":333,"ih":334,"sÃ¤":335,"vÃ¤":336,"llÃ¤":337,"yÃ¶":338,"ia":339,"ks":340,"ur":341,"den":342,"ĠM":343,"kin":344,"vat":345,"een":346,"ir":347,"ist":348,"ys":349,"iin":350,"Ġse":351,"ksi":352,"ot":353,"taa":354,"Ġka":355,"Ã¤Ã¤n":356,"oit":357,"ĠP":358,"Ġ(":359,"hd":360,"Ġet":361,"mis":362,"utta":363,"itÃ¤":364,"uks":365,"la":366,"pa":367,"Ġku":368,"iv":369,"ĠH":370,"Ġ1":371,"ty":372,"ku":373,"im":374,"Ã¤h":375,"tel":376,"or":377,"ĠL":378,"Ġ2":379,"ĠV":380,"llis":381,"ĠA":382,"Ġmu":383,"Ġ-":384,"Ġei":385,"pp":386,"li":387,"Ġvi":388,"eh":389,"ĠkÃ¤":390,"Ġsi":391,"ĠE":392,"mÃ¤":393,"ei":394,"ĠJ":395,"mi":396,"ten":397,"kÃ¤":398,"ri":399,"de":400,"isi":401,"vi":402,"ĠtÃ¤":403,"ee":404,"ĠettÃ¤":405,"lo":406,"unn":407,"mp":408,"Ġen":409,"taan":410,"uh":411,"..":412,"ĠO":413,"issa":414,"op":415,"âĢ":416,"ak":417,"se":418,"ssa":419,"essa":420,"ika":421,"Ġto":422,"usta":423,"ina":424,"tÃ¶":425,"yy":426,"Ġla":427,"man":428,"ĠN":429,"ne":430,"Ġma":431,"maan":432,"Ã¤r":433,"Ġtar":434,"istÃ¤":435,"sta":436,"Ġoli":437,"01":438,"Ġal":439,"oin":440,"mat":441,"isen":442,"yÃ¶s":443,"Ġole":444,"Ġsa":445,"ĠR":446,"mme":447,"Ã¤l":448,"jo":449,"ra":450,"kaan":451,"Ġte":452,"Ġvuo":453,"Ġkan":454,"tÃ¤Ã¤":455,"ĠnÃ¤":456,"Ġti":457,"Ġhy":458,"le":459,"Ġtai":460,"Ġtul":461,"00":462,"Ġsaa":463,"yn":464,"ĠpÃ¤Ã¤":465,"esta":466,"sia":467,"ien":468,"up":469,"vÃ¤t":470,"oim":471,"Ġih":472,"jen":473,"Ġpal":474,"jan":475,"esti":476,"Ġmi":477,"Ġvoi":478,"inn":479,"elÃ¤":480,"ĠI":481,"Ġkun":482,"Ġval":483,"uuta":484,"Ġer":485,"ikka":486,"oh":487,"ua":488,"Ġtuo":489,"Ġpa":490,"ed":491,"Ġli":492,"ossa":493,"Ġyh":494,"ĠmyÃ¶s":495,"ita":496,"ana":497,"minen":498,"Ġper":499,"jÃ¤":500,"ol":501,"rit":502,"ro":503,"sin":504,"Ġmutta":505,"uksen":506,"sti":507,"men":508,"Ġil":509,"ike":510,"tiin":511,"Ġkes":512,"erk":513,"van":514,"nn":515,"ĠkÃ¤yt":516,"etta":517,"ssÃ¤":518,"oa":519,"Ġovat":520,"Ġsuo":521,"Ġra":522,"vel":523,"uus":524,"osta":525,"ha":526,"enn":527,"kÃ¶":528,"kaa":529,"Ġniin":530,"ise":531,"Ġker":532,"iden":533,"eli":534,"iset":535,"essÃ¤":536,"Ġha":537,"stÃ¤":538,"Ġkuin":539,"Ġpar":540,"ĠB":541,"ĠâĢ":542,"ikki":543,"teen":544,"Ġkir":545,"isÃ¤":546,"Ġb":547,"da":548,"itse":549,"yh":550,"iten":551,"re":552,"ve":553,"Ġvar":554,"Ã¶n":555,"pÃ¤":556,"vin":557,"Ġjoka":558,"assa":559,"uol":560,"issÃ¤":561,"ÃĦ":562,"vaa":563,"tti":564,"he":565,"ok":566,"ann":567,"ĠlÃ¤h":568,"Ġki":569,"ittÃ¤":570,"jat":571,"oita":572,"estÃ¤":573,"yks":574,"ĠY":575,"ĠC":576,"ille":577,"Ġ201":578,"ikÃ¤":579,"Ġsit":580,"joit":581,"uut":582,"ek":583,"Ġmin":584,"Ġ3":585,"Ġmaa":586,"ĠtyÃ¶":587,"maa":588,"tta":589,"Ġsen":590,"sit":591,"Ġosa":592,"Ġkuu":593,"mÃ¤n":594,"ĠpÃ¤":595,"ky":596,"iksi":597,"Ġar":598,"ettu":599,"ila":600,"...":601,"st":602,"Ġluo":603,"illa":604,"om":605,"asta":606,"Ã¤t":607,"Ġtoim":608,"isten":609,"inta":610,"Ġky":611,"Ġpit":612,"ĠF":613,"Ġas":614,"llut":615,"Ġhuo":616,"ulla":617,"hta":618,"oja":619,"isia":620,"id":621,"Ġaika":622,"Ġuu":623,"isesti":624,"han":625,"uun":626,"Ġtiet":627,"ĠSuo":628,"Ġna":629,"Ġsitten":630,"ter":631,"ĠsekÃ¤":632,"mista":633,"eet":634,"ĠhÃ¤n":635,"ĠĠ":636,"Ġ:":637,"Ġni":638,"isin":639,"Ġan":640,"tuu":641,"Ġpo":642,"ellÃ¤":643,"Ġf":644,"ĠU":645,"kon":646,"log":647,"teet":648,"ud":649,"tin":650,"uv":651,"Ġolla":652,"Ġkor":653,"ella":654,"Ġasi":655,"yttÃ¤":656,"llinen":657,"Ġmuut":658,"isto":659,"um":660,"ust":661,"201":662,"sen":663,"Ġkanssa":664,"Ġjos":665,"Ġyhte":666,"Ã¤rj":667,"massa":668,"lta":669,"Ã¤Ã¤r":670,"enk":671,"ie":672,"Ġkos":673,"nyt":674,"tun":675,"ĠD":676,"Ġne":677,"ip":678,"Ġus":679,"tia":680,"itta":681,"ettÃ¤":682,"kus":683,"Ġlo":684,"ime":685,"mÃ¤Ã¤n":686,"keen":687,"Ġtoi":688,"ĠKa":689,"ĠlÃ¶":690,"Ġhal":691,"Ġoike":692,"eri":693,"ihin":694,"ran":695,"ĠvÃ¤h":696,"Ġke":697,"Ġkul":698,"Ġsu":699,"Ġ4":700,"Ġpel":701,"Ġsin":702,"ollis":703,"oo":704,"misen":705,"Ġteh":706,"jon":707,"ea":708,"tan":709,"lan":710,"ala":711,"Ġnyt":712,"uksia":713,"Ġihan":714,"ussa":715,"Ġ5":716,"kas":717,"kun":718,"Ġop":719,"mmin":720,"Ġaina":721,"Ġseur":722,"malla":723,"ni":724,"Ġvain":725,"Ġmiel":726,"ĠTÃ¤":727,"Ġhe":728,"iko":729,"Ġed":730,"ĠvielÃ¤":731,"kka":732,"so":733,"Ġle":734,"ĠSe":735,"ytÃ¤":736,"Ġkaikki":737,"ĠG":738,"ĠâĢĵ":739,"Ġmen":740,"Ġesi":741,"ĠjÃ¤l":742,"iÃ¤":743,"âĸ":744,"am":745,"Ġkoko":746,"Ġsan":747,"kk":748,"ĠhyvÃ¤":749,"Ġhel":750,"yd":751,"rin":752,"ĠsitÃ¤":753,"Ġoh":754,"Ġ\"":755,"Ġkeh":756,"Ġmon":757,"ukset":758,"fi":759,"Ġkat":760,"ivÃ¤":761,"Ġkas":762,"Ġitse":763,"Ġtut":764,"âĸº":765,"kki":766,"Ġsuu":767,"EN":768,"Ġis":769,"lÃ¤":770,"ken":771,"ap":772,"ĠelÃ¤":773,"Ã¤rjes":774,"me":775,"hin":776,"Ġollut":777,"aal":778,"Ġso":779,"itty":780,"inÃ¤":781,"Ġsel":782,"jel":783,"mmÃ¤":784,"kan":785,"Ġos":786,"ian":787,"ĠvÃ¤":788,"âĢĿ":789,"jaa":790,"Ġmahd":791,"Ġtapa":792,"Ġmukaan":793,"utu":794,"ity":795,"ĠlÃ¤":796,"yys":797,"Ġd":798,"oks":799,"vÃ¤n":800,"via":801,"Ġkaik":802,"IN":803,"Ġpuh":804,"Ġes":805,"ikko":806,"ĠTa":807,"Ġhyvin":808,"isk":809,"Ġ_":810,"Ġtun":811,"mmen":812,"Ġver":813,"lu":814,"Ġpien":815,"Ġhar":816,"Ġin":817,"enkil":818,"Ġolisi":819,"Ġtil":820,"Ġc":821,"tua":822,"alvel":823,"eita":824,"Ġmat":825,"lleen":826,"lin":827,"Ġel":828,"kir":829,"io":830,"ĠjÃ¤":831,"Ġluk":832,"unnit":833,"uksi":834,"Ġvaih":835,"Ġjon":836,"Ġkys":837,"anta":838,"tte":839,"Ġenn":840,"Ġ/":841,"ĠW":842,"IS":843,"Ġrak":844,"ĠmitÃ¤":845,"ĠpÃ¤iv":846,"etty":847,"Ġvan":848,"Ġkuiten":849,"Ġyrit":850,"vo":851,"usi":852,"uud":853,"tka":854,"kea":855,"Ġvas":856,"asti":857,"ton":858,"ĠvÃ¤l":859,"vasti":860,"Ġkoh":861,"Ġpaljon":862,"utus":863,"aan":864,"isiin":865,"Ġsis":866,"enkilÃ¶":867,"itys":868,"Ġul":869,"tele":870,"upun":871,"Ġtulee":872,"ttÃ¤":873,"ino":874,"Ġ19":875,"ĠjÃ¤lkeen":876,"ĠsiitÃ¤":877,"Ġkiin":878,"ite":879,"Ġ6":880,"ÂŃ":881,"otta":882,"etÃ¤Ã¤n":883,"uutta":884,"uta":885,"Ġhi":886,"Ġpi":887,"val":888,"Ġlaa":889,"Ġtied":890,"oiden":891,"uttaa":892,"esi":893,"ili":894,"Ġtunn":895,"mpi":896,"toa":897,"kim":898,"ĠLa":899,"per":900,"pi":901,"mia":902,"uor":903,"Ġvaan":904,"Ġliik":905,"elle":906,"uka":907,"min":908,"osti":909,"uden":910,"vÃ¤Ã¤":911,"ĠlisÃ¤":912,"TA":913,"Ã¤hkÃ¶":914,"eid":915,"Ġjotka":916,"uuden":917,"isti":918,"Ġtarjo":919,"una":920,"kÃ¤Ã¤n":921,"no":922,"mala":923,"Ġaik":924,"Ġg":925,"Ġpuol":926,"llista":927,"emm":928,"ho":929,"eksi":930,"Ġtur":931,"Ġsiv":932,"Ġpalvel":933,"Ġperus":934,").":935,"Ġter":936,"kuuta":937,"ĠJa":938,"Ġyhd":939,"Ġlas":940,"isÃ¤Ã¤":941,"Ġhet":942,"gin":943,"Ġkoul":944,"vit":945,"san":946,"Ġensi":947,"Ġjossa":948,"uto":949,"ettiin":950,"lli":951,"Ġre":952,"Ġtehd":953,"ver":954,"ker":955,"Ġvaikka":956,"ĠkyllÃ¤":957,"Ġvoit":958,"su":959,"etti":960,"merk":961,"Ġri":962,"Ġteke":963,"Ġviime":964,"ue":965,"na":966,"telu":967,"ĠEn":968,"tit":969,"Ġkol":970,"Ġyli":971,"Ġyl":972,"Ġvir":973,"Ġmuuta":974,"Ġtoimi":975,"Ġ:)":976,"ing":977,"nna":978,"Ġjota":979,"kais":980,"yty":981,"miseen":982,"Ġsop":983,"nÃ¤":984,"oilla":985,"yttÃ¶":986,"Ġno":987,"ilta":988,"Ġjul":989,"Ġlap":990,"ui":991,"eiden":992,"ĠHel":993,"ĠKo":994,"ulle":995,"Ġ0":996,"Ġ7":997,"voit":998,"ros":999,"iti":1000,"Ġme":1001,"Ġolen":1002,"Ġilma":1003,"Ġkuitenkin":1004,"della":1005,"Ã¤nÃ¤":1006,"Ã¤Ã¤rÃ¤":1007,"Ġvaik":1008,"Ġmit":1009,"Ġyksi":1010,"oihin":1011,"Ġkunn":1012,"Ġmuo":1013,"tio":1014,"ĠSa":1015,"lloin":1016,"tion":1017,"itus":1018,"Ġ200":1019,"Ġmar":1020,"istÃ¶":1021,"Ġjat":1022,"Ġvasta":1023,"Ġsil":1024,"Ġot":1025,"nut":1026,"ihe":1027,"yksen":1028,"Ġeri":1029,"vuo":1030,"Ġ8":1031,"aat":1032,"onta":1033,"Ġnim":1034,"htu":1035,"iste":1036,"elta":1037,"ĠkÃ¤yttÃ¶":1038,"palvel":1039,"Ġtule":1040,"Ġkut":1041,"iseen":1042,"uja":1043,"US":1044,"AN":1045,"mmat":1046,"Ġjoten":1047,"llisen":1048,"ula":1049,"vien":1050,"ĠĠĠĠ":1051,"ine":1052,"eidÃ¤n":1053,"mo":1054,"len":1055,"daan":1056,"itti":1057,"Ġkirja":1058,"IT":1059,"uva":1060,"ukka":1061,"neet":1062,"Ġyks":1063,"Ġ10":1064,"ell":1065,"ras":1066,"ĠtÃ¤mÃ¤":1067,"Ġihmis":1068,"unta":1069,"Ġede":1070,"ĠsillÃ¤":1071,"ĠhenkilÃ¶":1072,"Ġkoke":1073,"yr":1074,"ch":1075,"Ġkann":1076,"tÃ¤Ã¤n":1077,"Ġseuraa":1078,"Ġruo":1079,"Ġennen":1080,"kke":1081,"Ġmahdollis":1082,"emmÃ¤n":1083,"uksessa":1084,"po":1085,"ost":1086,"ven":1087,"ytyy":1088,"Ġav":1089,"Ġpor":1090,"Ġkirjoit":1091,"Ġmo":1092,"iva":1093,"Ġsiis":1094,"eille":1095,"ĠeivÃ¤t":1096,"uuri":1097,"ile":1098,"Ġpys":1099,"Ġw":1100,"alla":1101,"Ġkuva":1102,"ilu":1103,"ĠMa":1104,"Ġmerk":1105,"eseen":1106,"illÃ¤":1107,"Ġeh":1108,"Ġtu":1109,"ppi":1110,"mma":1111,"Ġ9":1112,"Ġoma":1113,"laa":1114,"ĠJo":1115,"ĠvÃ¤hÃ¤n":1116,"yyn":1117,"kor":1118,"Ġkaupun":1119,"kuva":1120,"ssi":1121,"ĠlisÃ¤Ã¤":1122,"akka":1123,"ivan":1124,"into":1125,"Ġit":1126,"TÃ¤":1127,"ĠkÃ¤yttÃ¤":1128,"Ġasia":1129,"Ġkoska":1130,"Ġmuka":1131,"ote":1132,"ĠHelsin":1133,"Ġmiten":1134,"ĠVi":1135,"Ġjonka":1136,"ĠÂ":1137,"ĠJos":1138,"mien":1139,"itos":1140,"ikon":1141,"ĠpÃ¤ivÃ¤":1142,"Ġvuoden":1143,"din":1144,"kes":1145,"Ã¤rjestel":1146,"alta":1147,"otto":1148,"Ġhall":1149,"je":1150,"ĠsÃ¤hkÃ¶":1151,"ele":1152,"Ġkon":1153,"Ġhan":1154,"tiet":1155,"all":1156,"Ġtarko":1157,"pÃ¤Ã¤":1158,"Ġtava":1159,"ĠSuomen":1160,"Ġtaas":1161,"tar":1162,"tyy":1163,"oista":1164,"eillÃ¤":1165,"eltÃ¤":1166,"ikin":1167,"10":1168,"Ġsyn":1169,"ppu":1170,"EL":1171,"ĠmyÃ¶":1172,"Ġmaail":1173,"matta":1174,"ukku":1175,"AL":1176,"tila":1177,"moit":1178,"paa":1179,"llen":1180,"kat":1181,"kkin":1182,"Ġeli":1183,"di":1184,"Ġtote":1185,"Ġblog":1186,"ani":1187,"ce":1188,"ĠpitÃ¤Ã¤":1189,"ĠVa":1190,"ĠOn":1191,"ein":1192,"toi":1193,"Ġymp":1194,"oon":1195,"viÃ¤":1196,"Ġvaa":1197,"Ġkar":1198,"Ġsuunnit":1199,"jÃ¤n":1200,"erg":1201,"ĠensimmÃ¤":1202,"ksen":1203,"ĠeikÃ¤":1204,"ĠmitÃ¤Ã¤n":1205,"yky":1206,"Ġjoul":1207,"ĠnÃ¤yt":1208,"kul":1209,"yvÃ¤":1210,"ĠMar":1211,"Ġ,":1212,"kko":1213,"tui":1214,"ĠNÃ¤":1215,"las":1216,"ET":1217,"ym":1218,"ikan":1219,"Ka":1220,"ĠTo":1221,"Ġlu":1222,"ope":1223,"uole":1224,"ĠRa":1225,"ĠjÃ¤Ã¤":1226,"ĠtehdÃ¤":1227,"llisesti":1228,"ĠkÃ¤sit":1229,"ittÃ¤Ã¤":1230,"ĠâĢĿ":1231,"Ġliitty":1232,"olla":1233,"Ġulko":1234,"ukseen":1235,"ig":1236,"elin":1237,"ĠsisÃ¤":1238,"Ġtarv":1239,"yksi":1240,"ĠmikÃ¤":1241,"Ġaikana":1242,"ihen":1243,"hoit":1244,"ittaa":1245,"Ãĸ":1246,"set":1247,"unut":1248,"ĠtÃ¤mÃ¤n":1249,"Ġtuli":1250,"Ġvuonna":1251,"Ġtalo":1252,"tis":1253,"),":1254,"ĠsÃ¤":1255,"ystÃ¤":1256,"iinÃ¤":1257,"ilpa":1258,"kia":1259,"Ġuusi":1260,"Ġ20":1261,"era":1262,"rke":1263,"Ġsija":1264,"Ġtuk":1265,"ĠVal":1266,"Ġeur":1267,"Ġkommen":1268,"Ġlop":1269,"mman":1270,"Ġi":1271,"kit":1272,"Ġhaa":1273,"Ġajan":1274,"Ġsuur":1275,"Ġvuotta":1276,"eng":1277,"ess":1278,"ĠEi":1279,"ĠhÃ¤":1280,"Ġ.":1281,"ĠenemmÃ¤n":1282,"elma":1283,"innan":1284,"kuu":1285,"ointi":1286,"ĠAn":1287,"Ġajat":1288,"ĠpitÃ¤":1289,"ĠSuom":1290,"iet":1291,"isiÃ¤":1292,"Ġvo":1293,"Ġkiinn":1294,"kunn":1295,"Ã¤hÃ¤n":1296,"oma":1297,"aali":1298,"Suo":1299,"ĠSi":1300,"Ġnoin":1301,"Ġyle":1302,"von":1303,"ĠtÃ¤ssÃ¤":1304,"var":1305,"posti":1306,"ĠniitÃ¤":1307,"saa":1308,"merkiksi":1309,"mus":1310,"ĠsisÃ¤l":1311,"teli":1312,"ari":1313,"ĠÃ¤":1314,"Ġverk":1315,"toja":1316,"iseksi":1317,"ff":1318,"ĠPa":1319,"mÃ¤t":1320,"isuus":1321,"mist":1322,"Ġsiihen":1323,"hon":1324,"ojen":1325,"ck":1326,"uot":1327,"Ġjuuri":1328,"Ġaihe":1329,"mistÃ¤":1330,"Ġilman":1331,"istaa":1332,"isa":1333,"Ġsella":1334,"Ġpu":1335,"jien":1336,"Ġod":1337,"tei":1338,"ĠkesÃ¤":1339,"Ġ12":1340,"ĠtÃ¤rke":1341,"pu":1342,"masti":1343,"Ġkaksi":1344,"ĠtÃ¤Ã¤":1345,"sto":1346,"pe":1347,"Ġty":1348,"Ġkansa":1349,"Ġklo":1350,"kohta":1351,"tiiv":1352,"Ġ15":1353,"tien":1354,"Ġher":1355,"ĠLi":1356,"Ġkuten":1357,"net":1358,"Ġtodella":1359,"johta":1360,"Ġkaa":1361,"haa":1362,"Ġpoh":1363,"ota":1364,"pit":1365,"kona":1366,"Ġkuuka":1367,"tee":1368,"ĠIn":1369,"met":1370,"Ġpaika":1371,"11":1372,"ukana":1373,"Ġkaun":1374,"Ġvuosi":1375,"ltÃ¤":1376,"pan":1377,"ĠKÃ¤":1378,"Ġkuul":1379,"ikke":1380,"liit":1381,"Ġhalu":1382,"Ġsaan":1383,"ĠhyÃ¶":1384,"hÃ¤n":1385,"kku":1386,"ulu":1387,"ksu":1388,"Ġik":1389,"Ġmet":1390,"TO":1391,"ĠtyÃ¶n":1392,"Ġlain":1393,"istu":1394,"Ġrat":1395,"Ġkohd":1396,"Ġsiir":1397,"ura":1398,"Ġtila":1399,"see":1400,"ĠhÃ¤nen":1401,"Ġmenn":1402,"mar":1403,"com":1404,"Ġalu":1405,"ĠepÃ¤":1406,"tely":1407,"masta":1408,"oille":1409,"âĢĵ":1410,"ww":1411,"ĠsÃ¤Ã¤":1412,"yyd":1413,"12":1414,"ennus":1415,"ĠehkÃ¤":1416,"ĠOy":1417,"Ġsuomala":1418,"vy":1419,"Ġseksi":1420,"Ġ18":1421,"est":1422,"Ġkah":1423,"alu":1424,"Ġsaat":1425,"etaan":1426,"miin":1427,"Ġkeskus":1428,"Ġtal":1429,"Ġkoti":1430,"ĠMi":1431,"uksesta":1432,"ittÃ¤in":1433,"vu":1434,"tava":1435,"isaa":1436,"rat":1437,"Ġehd":1438,"ĠHÃ¤n":1439,"Ġaikaa":1440,"Ġpid":1441,"ĠvÃ¤li":1442,"Ġpare":1443,"Ġvah":1444,"Ġerila":1445,"Ġkautta":1446,"Ġun":1447,"Ġpro":1448,"rÃ¤":1449,"yÃ¶n":1450,"ĠTÃ¤mÃ¤":1451,"misesta":1452,"tt":1453,"ge":1454,"Ġolet":1455,"ket":1456,"TI":1457,"itte":1458,"Ġmain":1459,"ĠyllÃ¤":1460,"Ġraken":1461,"ĠtÃ¤stÃ¤":1462,"Ġkerto":1463,"mer":1464,"oid":1465,"Ġro":1466,"Ã¶ssÃ¤":1467,"Ġtapahtu":1468,"ĠtÃ¤n":1469,"Ġolivat":1470,"Ġjotain":1471,"ĠAr":1472,"ste":1473,"ttuu":1474,"ĠsiinÃ¤":1475,"Ġvoidaan":1476,"ĠNa":1477,"usa":1478,"Ġtutkim":1479,"Ġlopp":1480,"Ġilmoit":1481,"ER":1482,"Ġerity":1483,"tyÃ¤":1484,"istel":1485,"osa":1486,"ria":1487,"Ġuud":1488,"kel":1489,"inti":1490,"ĠKun":1491,"toon":1492,"kunta":1493,"Ġsaada":1494,"vet":1495,"Ġettei":1496,"jÃ¤rjestel":1497,"aika":1498,"Ġnyky":1499,"ulta":1500,"AS":1501,"ĠlisÃ¤ksi":1502,"Ġosoit":1503,"Ġsuk":1504,"Ġterve":1505,"Ġvastaa":1506,"Ġtaka":1507,"Ġvastaan":1508,"uttu":1509,"000":1510,"Ġpala":1511,"Ġvide":1512,"Ã¶t":1513,"ĠÃ¤Ã¤n":1514,"Ġmil":1515,"talo":1516,"Ġmieh":1517,"ĠMutta":1518,"tunut":1519,"ĠsyÃ¶":1520,"por":1521,"Ġpan":1522,"Ġvih":1523,"oksi":1524,"ĠKir":1525,"hti":1526,"ĠjÃ¤sen":1527,"kirja":1528,"Ġkertaa":1529,"Ã¤ristÃ¶":1530,"Ġesimerkiksi":1531,"ast":1532,"ehti":1533,"Ġpois":1534,"UN":1535,"Ġmatka":1536,"Ġaloit":1537,"Ġsai":1538,"kar":1539,"âĤ":1540,"mpaa":1541,"ikkaa":1542,"oku":1543,"âĤ¬":1544,"ettava":1545,"Ġauto":1546,"Ġmm":1547,"yden":1548,"bo":1549,"uoli":1550,"Ġnuor":1551,"Ġtavoit":1552,"Ã¤nn":1553,"etus":1554,"Ġkannat":1555,"Ġmel":1556,"Ġturva":1557,"voi":1558,"llan":1559,"ĠAl":1560,"Ġpol":1561,"tÃ¤vÃ¤":1562,"son":1563,"ĠenÃ¤Ã¤":1564,"Ġjuo":1565,"pÃ¤ivÃ¤":1566,"Ġaivan":1567,"Ġosaa":1568,"hte":1569,"mÃ¤Ã¤":1570,"mÃ¤ssÃ¤":1571,"Ġlin":1572,"Ġesit":1573,"ieman":1574,"Ġarv":1575,"llo":1576,"19":1577,"20":1578,"taja":1579,"Ġopp":1580,"Ġaja":1581,"ĠKes":1582,"Ġkyl":1583,"tom":1584,"asi":1585,"sy":1586,"ukko":1587,"etÃ¤":1588,"Ġsuh":1589,"ohjel":1590,"Ġonn":1591,"jek":1592,"uppa":1593,"Ġolevan":1594,"mmÃ¤r":1595,"ento":1596,"Ġarvi":1597,"ĠkÃ¤yttÃ¤Ã¤":1598,"Ġ&":1599,"Ġpak":1600,"ikk":1601,"Ġkesk":1602,"ĠIl":1603,"kasta":1604,"raa":1605,"Ġmukana":1606,"ĠtÃ¤llÃ¤":1607,"KO":1608,"gel":1609,"uraa":1610,"asto":1611,"enkin":1612,"Ġnope":1613,"Ġtyy":1614,"Ã¶l":1615,"Ġjopa":1616,"maat":1617,"UO":1618,"ĠlÃ¶ytyy":1619,"ĠTar":1620,"isu":1621,"Ġmak":1622,"ĠmÃ¤Ã¤rÃ¤":1623,"yl":1624,"ĠpitkÃ¤":1625,"Ġtilan":1626,"!!":1627,"kseen":1628,"lliset":1629,"suo":1630,"ĠNe":1631,"usto":1632,"ĠkehittÃ¤":1633,"AT":1634,"ttia":1635,"huo":1636,"koi":1637,"yllÃ¤":1638,"uro":1639,"uin":1640,"teessa":1641,"ĠnÃ¤in":1642,"eensÃ¤":1643,"ĠtÃ¶":1644,"ydÃ¤":1645,"jÃ¤t":1646,"ĠjÃ¤rjes":1647,"oksen":1648,"Ã¤ni":1649,"ero":1650,"Ġniiden":1651,"Ġluonn":1652,"ii":1653,"Ġvai":1654,"Ġainakin":1655,"Ġhieman":1656,"pÃ¤iv":1657,"Ġmuu":1658,"ĠkÃ¤ytÃ¤":1659,"ikku":1660,"ira":1661,"llaan":1662,"Ġviikon":1663,"Ġteki":1664,"ale":1665,"ister":1666,"usten":1667,"ottaa":1668,"lainen":1669,"Ġtoiminta":1670,"ĠvÃ¤r":1671,"ituksen":1672,"vÃ¤l":1673,"Ġedes":1674,"ynn":1675,"ĠPer":1676,"ona":1677,"Ġoman":1678,"Ġalku":1679,"isuud":1680,"ĠtyÃ¶s":1681,"ostaa":1682,"ollista":1683,"KS":1684,"Ġkats":1685,"Ġpros":1686,"ehd":1687,"Ġtuot":1688,"ang":1689,"uma":1690,"isella":1691,"Ġkau":1692,"ĠtÃ¤tÃ¤":1693,"Ġpain":1694,"telee":1695,"teita":1696,"iltÃ¤":1697,"ehto":1698,"mpp":1699,"let":1700,"imp":1701,"eella":1702,"Ġhalua":1703,"Ġann":1704,"ES":1705,"50":1706,"ara":1707,"Ġkal":1708,"ansa":1709,"alo":1710,"osto":1711,"ĠHa":1712,"ĠHe":1713,"tinen":1714,"Ġhuol":1715,"ĠVuo":1716,"Ġtek":1717,"ĠminÃ¤":1718,"Ġmun":1719,"der":1720,"enki":1721,"Ġvaati":1722,"iston":1723,"tr":1724,"ĠKi":1725,"hde":1726,"ĠpyÃ¶":1727,"Ġoikein":1728,"urin":1729,"Ġopisk":1730,"ysin":1731,"mÃ¤llÃ¤":1732,"ĠTur":1733,"Ġohjel":1734,"mon":1735,"teg":1736,"ykset":1737,"Ġkoi":1738,"yttÃ¤Ã¤":1739,"Ġammat":1740,"ikuuta":1741,"En":1742,"Ġ16":1743,"ĠJA":1744,"Ã¤Ã¤nn":1745,"tied":1746,"La":1747,"ĠSuomessa":1748,"uksista":1749,"kut":1750,"uista":1751,"johtaja":1752,"tuna":1753,"ori":1754,"ans":1755,"ĠymmÃ¤r":1756,"Ġhuomi":1757,"Ġnel":1758,"KA":1759,"ĠLe":1760,"ryh":1761,"Ġde":1762,"Ġsyys":1763,"Ġvoisi":1764,"isessa":1765,"ĠNo":1766,"Ġmies":1767,"Ġusko":1768,"200":1769,"Ġusein":1770,"Ġsy":1771,"itsi":1772,"Ġ14":1773,"30":1774,"Ġuut":1775,"ĠTuo":1776,"ĠystÃ¤":1777,"isteet":1778,"ppo":1779,"Ġryh":1780,"voin":1781,"utkim":1782,"enÃ¤":1783,"use":1784,"Ġ11":1785,"ĠkÃ¤y":1786,"oissa":1787,"Ġsaman":1788,"Ġkuulu":1789,"isille":1790,"vir":1791,"kee":1792,"Ġmaal":1793,"kein":1794,"hat":1795,"ĠtÃ¤hÃ¤n":1796,"Ġalkaa":1797,"Ġyhteist":1798,"Vi":1799,"ĠLisÃ¤":1800,"Ġverkko":1801,"Ġosallis":1802,"Ġmaan":1803,"On":1804,"KI":1805,"Ġottaa":1806,"Ġjoita":1807,"ren":1808,"hi":1809,"teki":1810,"iselle":1811,"Ġmaailman":1812,"osi":1813,"ĠsiellÃ¤":1814,"arja":1815,"tynyt":1816,"Ġkuinka":1817,"Ġnuo":1818,"kkÃ¤":1819,"Ġkur":1820,"TE":1821,"sar":1822,"ĠnÃ¤kÃ¶":1823,"koul":1824,"isesta":1825,"kellÃ¤":1826,"Se":1827,"Ġkilpa":1828,"Ġmuod":1829,"stÃ¶":1830,"Ġavulla":1831,"Ġkasv":1832,"ju":1833,"Ġrun":1834,"Ġras":1835,"ow":1836,"oni":1837,"puol":1838,"kerta":1839,"Ġantaa":1840,"Ġjosta":1841,"Ġ17":1842,"Ġjoku":1843,"âĢ¦":1844,"tyi":1845,"miseksi":1846,"tal":1847,"Ġhien":1848,"Ġheti":1849,"Ġ%":1850,"Ġ30":1851,"Ġkier":1852,"okset":1853,"oike":1854,"Ġ2018":1855,"ĠyhtÃ¤":1856,"Ta":1857,"tanut":1858,"jÃ¶":1859,"Ġmaks":1860,"Ko":1861,"utti":1862,"ĠpÃ¤Ã¤t":1863,"ĠlÃ¤hes":1864,"Ġkerran":1865,"Ġsuosit":1866,"Ġteks":1867,"Ġ13":1868,"mper":1869,"yÃ¤":1870,"iha":1871,"Ġvaike":1872,"Ġruoka":1873,"ini":1874,"vaih":1875,"Ġiso":1876,"Ġken":1877,"ĠlÃ¤Ã¤":1878,"Ġsosi":1879,"Ġyhteis":1880,"vista":1881,"ela":1882,"Ġaam":1883,"Ġjohta":1884,"maal":1885,"Ġjal":1886,"hdist":1887,"Ġviikko":1888,"kos":1889,"Ġor":1890,"Ġyhteen":1891,"llisuus":1892,"ĠvÃ¤lillÃ¤":1893,"AR":1894,"Ġaut":1895,"Ġtasa":1896,"ĠNyt":1897,"har":1898,"Ġvapaa":1899,"ep":1900,"llin":1901,"ittu":1902,"Ġasian":1903,"ynyt":1904,"itto":1905,"Ġain":1906,"inna":1907,"ĠPar":1908,"uha":1909,"ĠmissÃ¤":1910,"ĠÂ»":1911,"ĠjÃ¤t":1912,"Ġmahdollista":1913,"ĠtÃ¤Ã¤llÃ¤":1914,"UT":1915,"nin":1916,"ujen":1917,"vissa":1918,"Ġluot":1919,"imi":1920,"Ġkyse":1921,"ĠtÃ¤y":1922,"Ġmarkkin":1923,"valta":1924,"ĠpitÃ¤isi":1925,"ĠMat":1926,"ĠhyvÃ¤ks":1927,"Ġur":1928,"Ġry":1929,"kkaa":1930,"matto":1931,"Ġtarjoaa":1932,"enne":1933,"Ġkysym":1934,"viin":1935,"Ġinn":1936,"isista":1937,"isuuden":1938,"ustus":1939,"Ġalle":1940,"Jos":1941,"Ġjuh":1942,"Ã¶s":1943,"ĠVar":1944,"osin":1945,"tor":1946,"Ġava":1947,"ĠnÃ¤h":1948,"luv":1949,"keÃ¤":1950,"Ġtarp":1951,"Ġvaihto":1952,"2018":1953,"Ġhoit":1954,"Ġpy":1955,"Ġpelaa":1956,"18":1957,"IL":1958,"Ġotta":1959,"tiÃ¶":1960,"kem":1961,"ĠKaikki":1962,"Ġparha":1963,"Ġlasten":1964,"gan":1965,"uksiin":1966,"Ġpur":1967,"MA":1968,"pal":1969,"imo":1970,"ĠSuomi":1971,"Ġsat":1972,"jana":1973,"Ġalka":1974,"reen":1975,"uhti":1976,"Ã¤ri":1977,"Ġuuden":1978,"Ġ+":1979,"ĠRo":1980,"Ġkokona":1981,"Ġmyy":1982,"Ġsilloin":1983,"ivi":1984,"vÃ¤sti":1985,"Ġala":1986,"iss":1987,"SA":1988,"Ġliian":1989,"--":1990,"Ġtoimin":1991,"valla":1992,"ĠelÃ¤mÃ¤n":1993,"tetaan":1994,"ĠLo":1995,"jia":1996,"teiden":1997,"Ġlait":1998,"mpia":1999,"Ġasti":2000,"okuuta":2001,"ga":2002,"ase":2003,"Ja":2004,"kuun":2005,"Ġvalo":2006,"kiin":2007,"isteri":2008,"sina":2009,"ude":2010,"Ġsal":2011,"iks":2012,"Ġsuorit":2013,"Ġyksin":2014,"astaan":2015,"Ġjulk":2016,"uko":2017,"ĠpÃ¤Ã¤tÃ¶":2018,"onen":2019,"ĠmielestÃ¤":2020,"unto":2021,"Ġkoskaan":2022,"Ġmuita":2023,"yhte":2024,"ito":2025,"Ġtullut":2026,"Ġhu":2027,"ene":2028,"paan":2029,"miÃ¤":2030,"Sa":2031,"lÃ¶":2032,"uri":2033,"ĠTe":2034,"Ġmer":2035,"ĠyhdessÃ¤":2036,"Ġsamalla":2037,"tur":2038,"eilla":2039,"pÃ¤in":2040,"Ġtuotte":2041,"Ġmuuten":2042,"15":2043,"Ġlyh":2044,"uki":2045,"Ki":2046,"ĠnÃ¤ky":2047,"Ġjotta":2048,"jÃ¤r":2049,"tse":2050,"ĠKor":2051,"ĠOlen":2052,"utuu":2053,"ĠlÃ¤mp":2054,"Ġvalmist":2055,"ĠtÃ¤nÃ¤Ã¤n":2056,"Ã¤is":2057,"ĠhyÃ¶d":2058,"Ġvara":2059,"isena":2060,"ettua":2061,"telua":2062,"ĠĠĠĠĠĠĠĠ":2063,"ĠÃĦ":2064,"Ġsuora":2065,"Ġsaanut":2066,"Ġeuroa":2067,"one":2068,"Ġkatso":2069,"ottu":2070,"Ġir":2071,"neen":2072,"toim":2073,"ĠpÃ¤Ã¤stÃ¤":2074,"unnan":2075,"Ġenerg":2076,"ilaa":2077,"Ġjoskus":2078,"Ġak":2079,"Ġkertoo":2080,"UL":2081,"ry":2082,"ON":2083,"ĠmeidÃ¤n":2084,"Ġx":2085,"Ġsex":2086,"luo":2087,"Jaa":2088,"ĠpÃ¤Ã¤lle":2089,"ĠMo":2090,"Ġ[":2091,"Ġvel":2092,"Ġvier":2093,"Ġtuleva":2094,"mÃ¤ttÃ¤":2095,"ilen":2096,"ĠKe":2097,"ĠPor":2098,"uroop":2099,"Ġap":2100,"ohja":2101,"Ġvarten":2102,"hall":2103,"Ġsyy":2104,"Ġtarvitse":2105,"llon":2106,"ĠSen":2107,"Ġkaiken":2108,"KÃ¤":2109,"Ġyhden":2110,"Ġtosi":2111,"ts":2112,"bi":2113,"hto":2114,"Ġ2017":2115,"dan":2116,"NÃ¤":2117,"Ġ;":2118,"Ġvast":2119,"Ġvuod":2120,"Ġtamm":2121,"Ġtoinen":2122,"uolella":2123,"Ġesiin":2124,"Ġvarmasti":2125,"villa":2126,"ivÃ¤t":2127,"ussi":2128,"Ġ2015":2129,"IK":2130,"tra":2131,"ĠMin":2132,"ĠympÃ¤ristÃ¶":2133,"//":2134,"telin":2135,"ĠHelsingin":2136,"ĠHar":2137,"Ġho":2138,"essi":2139,"ata":2140,"Ġedelleen":2141,"pel":2142,"Ġ2014":2143,"Ġjouluk":2144,"tuo":2145,"ĠEs":2146,"Ġtuu":2147,"palvelu":2148,"Ġmuun":2149,"Ġpuut":2150,"Tunn":2151,"Ġaikaan":2152,"Ġharjoit":2153,"Ġ100":2154,"Ġpiir":2155,"ĠpÃ¤ivÃ¤n":2156,"Ġonne":2157,"Ġpari":2158,"Ġlapsi":2159,"Ġkuuluu":2160,"ï¿":2161,"ï¿½":2162,"ĠyleensÃ¤":2163,"ĠtÃ¤ysin":2164,"uksella":2165,"ttp":2166,"ÃĦÃĦ":2167,"Ġnor":2168,"ss":2169,"ĠFa":2170,"vinto":2171,"Ġpe":2172,"ĠerittÃ¤in":2173,"okka":2174,"ĠlÃ¶yty":2175,"imen":2176,"Ġtoimii":2177,"Ġperin":2178,"Ġyritys":2179,"misto":2180,"Ġkulttuu":2181,"Ġporno":2182,"ĠKat":2183,"ĠTer":2184,"Ġsuun":2185,"rak":2186,"kal":2187,"ĠRe":2188,"llisia":2189,"tteja":2190,"Ġkiel":2191,"tie":2192,"Ġsijoit":2193,"Ġvoivat":2194,"Ġtiedot":2195,"co":2196,"Ġhier":2197,"ĠSan":2198,"OS":2199,"ĠpÃ¶":2200,"Ġnet":2201,"ilun":2202,"Ġoleva":2203,"Ġtekee":2204,"Ġvanhe":2205,"kana":2206,"Ġjolla":2207,"Ġmusta":2208,"anna":2209,"ĠVan":2210,"Ġtehty":2211,"Ġvet":2212,"Ġmusi":2213,"kiÃ¤":2214,"Ġof":2215,"Ġitsen":2216,"://":2217,"kÃ¤Ã¤":2218,"ĠOp":2219,"IM":2220,"kot":2221,"Ġtapah":2222,"joita":2223,"Ġrakenn":2224,"Ġkannattaa":2225,"Ġkuo":2226,"invÃ¤l":2227,"Ġ50":2228,"Ġup":2229,"vell":2230,"Ġsul":2231,"kusta":2232,"ĠPÃ¤Ã¤":2233,"Kir":2234,"Ġ25":2235,"Ġongel":2236,"tiedot":2237,"ĠmÃ¤Ã¤":2238,"Ġtee":2239,"ĠnÃ¤yttÃ¤Ã¤":2240,"Ġsuuri":2241,"istus":2242,"ub":2243,"Ġ24":2244,"Ġtuh":2245,"ena":2246,"Ġkolme":2247,"Ġvalko":2248,"Ġetsi":2249,"Ġperh":2250,"UR":2251,"ĠTi":2252,"missa":2253,"utuksen":2254,"telun":2255,"keskus":2256,"Ġtakaisin":2257,"meen":2258,"ĠheidÃ¤n":2259,"Ġkuvia":2260,"aar":2261,"Ġneuv":2262,"Ġomista":2263,"Ġlah":2264,"iri":2265,"Ġhote":2266,"iaa":2267,"Ġase":2268,"ekister":2269,"ĠTul":2270,"ĠkÃ¤r":2271,"Ġyliop":2272,"14":2273,"ĠmÃ¤Ã¤r":2274,"Ġtieto":2275,"jois":2276,"Ġkokem":2277,"ĠLÃ¤h":2278,"jille":2279,"pl":2280,"erin":2281,"Ġvoin":2282,"Ġyksity":2283,"Ġtavalla":2284,"Ġmarras":2285,"kunnan":2286,"ĠTyÃ¶":2287,"kinn":2288,"Ġperuste":2289,"Suomen":2290,"ĠKu":2291,"Ġpieni":2292,"Ġvalmis":2293,"Ġ)":2294,"Ġ2016":2295,"llu":2296,"ettÃ¤vÃ¤":2297,"Ġpos":2298,"ĠnÃ¤mÃ¤":2299,"tÃ¤vÃ¤t":2300,"ivat":2301,"Ġ#":2302,"Ġuutta":2303,"tai":2304,"essaan":2305,"mu":2306,"Va":2307,"ĠhyvÃ¤Ã¤":2308,"Ġuusia":2309,"usti":2310,"Ġminun":2311,"for":2312,"teena":2313,"sÃ¤Ã¤":2314,"tavat":2315,"land":2316,"ĠnÃ¤hd":2317,"ĠHelsinki":2318,"Ġaie":2319,"Ġtode":2320,"ĠsÃ¤il":2321,"uur":2322,"onn":2323,"Ġvarsin":2324,"ser":2325,"Ġratkais":2326,"Ġkil":2327,"Ġkaupungin":2328,"yksiÃ¤":2329,"Ġprosen":2330,"ĠmistÃ¤":2331,"opim":2332,"ĠMe":2333,"Ġtouk":2334,"Ġvesi":2335,"Tunnisteet":2336,"ĠMaa":2337,"tain":2338,"estaan":2339,"Ġsair":2340,"TÃĦ":2341,"sky":2342,"sani":2343,"oiminta":2344,"ĠyÃ¶":2345,"estin":2346,"ĠLisÃ¤ksi":2347,"eb":2348,"13":2349,"tuvat":2350,"Ġnopeasti":2351,"mas":2352,"ali":2353,"Ġkoske":2354,"ville":2355,"ĠâĤ¬":2356,"Ġvarmaan":2357,"osoit":2358,"ĠmÃ¤":2359,"lat":2360,"ĠlÃ¶yd":2361,"Ġrahoit":2362,"mainen":2363,"koko":2364,"Ġosta":2365,"Ġmieli":2366,"ca":2367,"Ġjolloin":2368,"Ã¤rjestÃ¤":2369,"ĠToi":2370,"Ġmuiden":2371,"Ġvalta":2372,"ĠPoh":2373,"16":2374,"isenÃ¤":2375,"Ġtietoa":2376,"do":2377,"Ġjuttu":2378,"Ġtor":2379,"ksiÃ¤":2380,"teri":2381,"Ġjoissa":2382,"ĠX":2383,"LÃ¤h":2384,"Ġlei":2385,"Ġvuoksi":2386,"Ġve":2387,"kien":2388,"Ġluon":2389,"ĠjÃ¤r":2390,"pol":2391,"koh":2392,"Ġesim":2393,"ĠHy":2394,"ĠheinÃ¤":2395,"Ġtulla":2396,"mies":2397,"innÃ¤":2398,"Ġhuhti":2399,"Ã¶lj":2400,"uste":2401,"17":2402,"ĠBlog":2403,"ĠkÃ¤yttÃ¶Ã¶n":2404,"Ġeriko":2405,"LE":2406,"oksia":2407,"Ġhelm":2408,"taminen":2409,"lais":2410,"Ġsaata":2411,"Ġminuut":2412,"gen":2413,"Ġhelposti":2414,"sivu":2415,"Ġ2013":2416,"Ġtoiv":2417,"ĠTiet":2418,"ksin":2419,"edia":2420,"Ġkaikille":2421,"Val":2422,"Ġkuvat":2423,"ĠmeillÃ¤":2424,"tÃ¶n":2425,"her":2426,"ĠlÃ¤het":2427,"annut":2428,"ĠKar":2429,"Ġpalvelu":2430,"tori":2431,"Ġhinta":2432,"Ġkeski":2433,"riÃ¤":2434,"Ġhom":2435,"mina":2436,"paikka":2437,"Ġjoiden":2438,"itsee":2439,"Ġopiskeli":2440,"koa":2441,"TÃ¤mÃ¤":2442,"Ma":2443,"yssÃ¤":2444,"uksissa":2445,"ĠniistÃ¤":2446,"Ġhisto":2447,"Ġpohja":2448,"udet":2449,"Ġpikku":2450,"Ġsyks":2451,"Ġvanh":2452,"Ġtoisen":2453,"eena":2454,"Ġasiakas":2455,"ttu":2456,"oika":2457,"utua":2458,"vaan":2459,"kse":2460,"ydessÃ¤":2461,"teeseen":2462,"uuteen":2463,"ron":2464,"Ġmuista":2465,"Ġalkoi":2466,"lain":2467,".)":2468,"yyden":2469,"joiden":2470,"koon":2471,"imet":2472,"2017":2473,"vana":2474,"ĠmÃ¤Ã¤rit":2475,"Ġaset":2476,"ĠTamper":2477,"Ġjohon":2478,"Ġsuosi":2479,"ĠSo":2480,"Ġasiakka":2481,"Ei":2482,"Ġres":2483,"Kun":2484,"Ġsuoraan":2485,"LA":2486,"Ġkiv":2487,"Ġlaad":2488,"lleet":2489,"Ġalla":2490,"Ġuude":2491,"llistÃ¤":2492,"Ġtuntuu":2493,"Ġjulkais":2494,"Ġide":2495,"ĠkÃ¤si":2496,"ĠEuroop":2497,"Ġuh":2498,"VA":2499,"ĠmetsÃ¤":2500,"Ġsoit":2501,"puh":2502,"ĠtyttÃ¶":2503,"ĠriittÃ¤":2504,"kset":2505,"Ġolin":2506,"pain":2507,"Ġmik":2508,"ikoi":2509,"par":2510,"ĠOl":2511,"kkÃ¤Ã¤":2512,"ĠympÃ¤ri":2513,"Ġhuu":2514,"Ãĥ":2515,"Ġverran":2516,"ger":2517,"joon":2518,"kkeen":2519,"Ġ199":2520,"sel":2521,"tunti":2522,"ĠIs":2523,"jaus":2524,"od":2525,"eni":2526,"alan":2527,"Ġ<":2528,"Ġsinun":2529,"ht":2530,"esty":2531,"ĠVir":2532,"Ġtark":2533,"Ġsinulle":2534,"Ġnainen":2535,"ill":2536,"Ġvaikutta":2537,"istÃ¤Ã¤":2538,"kast":2539,"INEN":2540,"Ġjatku":2541,"Ġihm":2542,"Jo":2543,"Ġthe":2544,"Ġjulka":2545,"Ġonkin":2546,"ĠLuo":2547,"ĠpÃ¤ivÃ¤Ã¤":2548,"ĠhetkellÃ¤":2549,"ĠelÃ¤mÃ¤":2550,"vos":2551,"Ġvaihe":2552,"kiel":2553,"-,":2554,"Ġkuitenkaan":2555,"Ġrii":2556,"Ġvaat":2557,"pÃ¶":2558,"Ġvalmista":2559,"attu":2560,"tilan":2561,"Â¤":2562,"misestÃ¤":2563,"yrit":2564,"Ġammatti":2565,"Ġpyy":2566,"40":2567,"ĠyhteistyÃ¶":2568,"tona":2569,"Ġonko":2570,"ĠMitÃ¤":2571,"ire":2572,"mit":2573,"iken":2574,"Ġminulle":2575,"ĠCo":2576,"Ġ22":2577,"JA":2578,"tamaan":2579,"don":2580,"suunnit":2581,"Ġheng":2582,"uli":2583,"ĠlÃ¤pi":2584,"Ġpaikka":2585,"\".":2586,"tojen":2587,"utun":2588,"yynti":2589,"vuus":2590,"istÃ¶n":2591,"ikaa":2592,"Ġmut":2593,"Ġluki":2594,"Ġkuvaa":2595,"uksien":2596,"Ġsosiaal":2597,"ĠtÃ¤lla":2598,"vasta":2599,"Ġand":2600,"ilija":2601,"Ġvoima":2602,"Ġyleis":2603,"Ġkohta":2604,"isuutta":2605,"kur":2606,"Ġohj":2607,"Ġkorke":2608,"ĠMyÃ¶s":2609,"Ġeteen":2610,"line":2611,"Ġnous":2612,"ilja":2613,"Ġmenee":2614,"kÃ¤n":2615,"tikk":2616,"Ã¶stÃ¤":2617,"YS":2618,"Ġihana":2619,"etel":2620,"Ġmelko":2621,"Ġkehitys":2622,"pin":2623,"ber":2624,"Ã¤lÃ¤":2625,"vio":2626,"Ġpuu":2627,"Ġ>":2628,"mieh":2629,"Ġmole":2630,"Ġtuotta":2631,"ĠlÃ¶y":2632,"ytys":2633,"vissÃ¤":2634,"Ġ000":2635,"ĠOh":2636,"ad":2637,"To":2638,"Ġsinne":2639,"itten":2640,"ĠNi":2641,"ustaa":2642,"Ġ2012":2643,"gn":2644,"siv":2645,"Ġaiku":2646,"Ġsama":2647,"kkÃ¶":2648,"ĠTÃ¤ssÃ¤":2649,"ĠNiin":2650,"ĠlÃ¤hte":2651,"opea":2652,"eelle":2653,"paika":2654,"Ġarvo":2655,"oli":2656,"2015":2657,"Ġkiinni":2658,"jet":2659,"Ġyhdist":2660,"imme":2661,"Ġmaalisk":2662,"telen":2663,"uke":2664,"Ġtan":2665,"ru":2666,"Ġmitta":2667,"ikÃ¶":2668,"Ġloma":2669,"ĠPro":2670,"utusta":2671,"ksan":2672,"ĠPÃ¤":2673,"hdys":2674,"ĠHuo":2675,"itin":2676,"unnunta":2677,"ĠKos":2678,"ĠtiedÃ¤":2679,"kauppa":2680,"ĠyhteydessÃ¤":2681,"Ġerityisesti":2682,"Ġmur":2683,"Ġsaattaa":2684,"ustann":2685,"pahtu":2686,".\"":2687,"tietoja":2688,"hy":2689,"Ġmateri":2690,"Ġkorkea":2691,"perÃ¤":2692,"Ġhuon":2693,"immat":2694,"Ġkiva":2695,"Ġluke":2696,"Ġomaa":2697,"ĠMon":2698,"ĠkansainvÃ¤l":2699,"Ġlaina":2700,"Ġkovin":2701,"ard":2702,"hemmin":2703,"hai":2704,"Ġhaus":2705,"24":2706,"Kes":2707,"Ġpysty":2708,"Ġ*":2709,"ĠtehtÃ¤":2710,"Ġsaav":2711,"laista":2712,"oida":2713,"Ġviera":2714,"kra":2715,"Ġosallistu":2716,"ppaa":2717,"ĠFin":2718,"Ġodot":2719,"ĠTÃ¤mÃ¤n":2720,"istuu":2721,"ĠtÃ¤ytyy":2722,"Ġtarkoit":2723,"Ġasu":2724,"kaup":2725,"Ġraa":2726,"ĠSin":2727,"Ġusea":2728,"Ġhui":2729,"elu":2730,"isit":2731,"Ġsopim":2732,"ive":2733,"ĠEU":2734,"ĠLap":2735,"ilin":2736,"katu":2737,"Ġkuukautta":2738,"ineen":2739,"kuussa":2740,"asin":2741,"Ġhava":2742,"2014":2743,"Ġsivu":2744,"Ġtakia":2745,"Ġtutus":2746,"Ġsilti":2747,"uunnit":2748,"Ġihmiset":2749,"jalle":2750,"ĠSaa":2751,"Ġmiksi":2752,"joja":2753,"Li":2754,"Ġlapsen":2755,"ekka":2756,"Ġtarvi":2757,"ĠjÃ¤rjestel":2758,"sio":2759,"Ġtulisi":2760,"Ġmiljoon":2761,"Ġtarjoa":2762,"ish":2763,"anne":2764,"tul":2765,"innat":2766,"ivu":2767,"llit":2768,"Ġopet":2769,"ĠItse":2770,"Ġsano":2771,"Ġtutki":2772,"Ġtutkimus":2773,"Ġasioita":2774,"ĠmerkittÃ¤":2775,"ettÃ¤nyt":2776,"intÃ¤Ã¤n":2777,"ukan":2778,"kÃ¤yttÃ¶":2779,"ĠhyvÃ¤n":2780,"ðŁ":2781,"ĠOsa":2782,"Ġsain":2783,"Ġsuure":2784,"ulun":2785,"okuva":2786,"uku":2787,"ĠjÃ¤rjestÃ¤":2788,"Ġkymmen":2789,"ĠkÃ¤Ã¤n":2790,"sien":2791,"ĠnÃ¤itÃ¤":2792,"hansa":2793,"ysti":2794,"uanta":2795,"Ġkesken":2796,"muo":2797,"alle":2798,"Ġhuone":2799,"Ġperusteella":2800,"Ġtunte":2801,"ityks":2802,"hden":2803,"Ġpuoli":2804,"telut":2805,"Ġperhe":2806,"llÃ¤Ã¤n":2807,"ĠensimmÃ¤inen":2808,"Ġmihin":2809,"usin":2810,"ĠFace":2811,"euv":2812,"Ġjoista":2813,"ĠVoit":2814,"ore":2815,"Ġviikonlo":2816,"Ġeloku":2817,"muut":2818,"Ġtod":2819,"ĠsisÃ¤Ã¤n":2820,"OP":2821,"ĠneljÃ¤":2822,"Ġ21":2823,"etin":2824,"Tuo":2825,"Ġ40":2826,"kesk":2827,"rien":2828,"ĠtÃ¤yde":2829,"ĠpÃ¤ivÃ¤nÃ¤":2830,"Ġ=":2831,"Ġ23":2832,"Ġhelppo":2833,"Ġpeli":2834,"uoka":2835,"Ġloka":2836,"uudesta":2837,"etun":2838,"ĠnÃ¤yttÃ¤":2839,"dat":2840,"ĠlÃ¶ytÃ¤":2841,"jÃ¤Ã¤":2842,"Ġparas":2843,"Olen":2844,"ĠjÃ¤rjest":2845,"ĠikÃ¤":2846,"ĠtyÃ¶nteki":2847,"ppa":2848,"Ġits":2849,"Ġhelp":2850,"Ġlis":2851,"Ġauttaa":2852,"Ġtuon":2853,"Ġmeille":2854,"Ġkeske":2855,"ĠkÃ¤ytÃ¤nn":2856,"muka":2857,"IA":2858,"ikkÃ¶":2859,"pro":2860,"Ġsynty":2861,"TÃĸ":2862,"emp":2863,"ĠNor":2864,"teesta":2865,"intaan":2866,"Ġkr":2867,"Ġtarvit":2868,"Ġkotiin":2869,"Ġparemmin":2870,"ymp":2871,"urinko":2872,"palvelut":2873,"Ġposta":2874,"Ġopetta":2875,"Ġvaikuttaa":2876,"ĠtietÃ¤Ã¤":2877,"Ġmuist":2878,"ĠsÃ¤hkÃ¶p":2879,"ĠyrittÃ¤":2880,"laisia":2881,"imm":2882,"Ġmeni":2883,"Ġpah":2884,"Ġvin":2885,"til":2886,"Ġedell":2887,"htaa":2888,"vara":2889,"jaan":2890,"ĠJoh":2891,"Ġhaluaa":2892,"ĠYle":2893,"Ġmaaliskuuta":2894,"opp":2895,"uudet":2896,"sp":2897,"illaan":2898,"Ġkai":2899,"kua":2900,"Ġlat":2901,"gl":2902,"iina":2903,"Ġ...":2904,"uni":2905,"ĠMikÃ¤":2906,"mÃ¤Ã¤rÃ¤":2907,"Ġvalmi":2908,"Ġhieronta":2909,"Ġtyh":2910,"Ġolleet":2911,"Ġparan":2912,"Ġjonkin":2913,"ĠkÃ¤vi":2914,"ĠnÃ¤hdÃ¤":2915,"2016":2916,"ĠZ":2917,"veys":2918,"ministeri":2919,"otus":2920,"Ġsukup":2921,"Ġvie":2922,"tella":2923,"Ġvalit":2924,"Ġnimi":2925,"Ġtahansa":2926,"eeksi":2927,"ĠYrit":2928,"Ġcm":2929,"joitus":2930,"kaupun":2931,"ĠmennÃ¤":2932,"Ġkahden":2933,"Ġjoulukuuta":2934,"ĠRi":2935,"Al":2936,"25":2937,"Ġjoukko":2938,"Ġhaasta":2939,"ĠyhteyttÃ¤":2940,"Ġluotto":2941,"udu":2942,"Ġpuna":2943,"Ġsuunnitel":2944,"ĠPal":2945,"ternet":2946,"Ġsanoo":2947,"ĠEr":2948,"ikolla":2949,"Ġsanoa":2950,"ms":2951,"alainen":2952,"Ġtosia":2953,"Ġhttp":2954,"ilÃ¤":2955,"Ġterveys":2956,"matka":2957,"Ġkahd":2958,"dy":2959,"umer":2960,"ellÃ¤Ã¤n":2961,"verk":2962,"vassa":2963,"ĠPel":2964,"Ġpiti":2965,"Ġmarraskuuta":2966,"ĠMuut":2967,"ĠAs":2968,"ba":2969,"ikkaan":2970,"Ġtehnyt":2971,"ĠjÃ¤lleen":2972,"KU":2973,"Ġtoukokuuta":2974,"ĠsisÃ¤ltÃ¤Ã¤":2975,"Ġolemassa":2976,"Ġkaup":2977,"ĠsÃ¤Ã¤nn":2978,"Ġwww":2979,"ily":2980,"Ġtammikuuta":2981,"Ġnormaal":2982,"ĠEsi":2983,"\",":2984,"ĠLin":2985,"lÃ¤n":2986,"Ġost":2987,"ĠSisÃ¤":2988,"Ġtilaa":2989,"Ġvali":2990,"Ġmuassa":2991,"Ġurhe":2992,"Ġilm":2993,"rip":2994,"Ġhuhtikuuta":2995,"Ġensin":2996,"aksa":2997,"istun":2998,"yyttÃ¤":2999,"Ġluonnon":3000,"Ġ2011":3001,"isessÃ¤":3002,"vaksi":3003,"Ġkaikkea":3004,"Kiitos":3005,"Ġvil":3006,"jÃ¤rjes":3007,"nÃ¤kÃ¶":3008,"Ġkohti":3009,"tautu":3010,"iso":3011,"ĠperÃ¤":3012,"simmÃ¤":3013,"Ġven":3014,"ilma":3015,"isty":3016,"Ġvanha":3017,"Ra":3018,"Ġluu":3019,"koja":3020,"teissa":3021,"ĠvÃ¤lttÃ¤":3022,"ĠtÃ¤h":3023,"Ġmielenki":3024,"nen":3025,"No":3026,"reff":3027,"misessa":3028,"Ġhelmikuuta":3029,"Ġvahv":3030,"vaik":3031,"Ġkoulutus":3032,"kauden":3033,"ĠvÃ¤hen":3034,"Ġtarvitta":3035,"Ġerilaisia":3036,"ĠlÃ¤mpÃ¶":3037,"Ġ;)":3038,"Ġkaver":3039,"Ġprojek":3040,"hÃ¤":3041,"Ġnaa":3042,"Ġperinte":3043,"isellÃ¤":3044,"lleni":3045,"ydÃ¤n":3046,"gelma":3047,"Ġvuoro":3048,"Ġkuk":3049,"mana":3050,"Nyt":3051,"ĠminkÃ¤":3052,"ĠPi":3053,"Ġrauh":3054,"ĠevÃ¤":3055,"ĠtyÃ¶sken":3056,"teh":3057,"uper":3058,"Ġpuheen":3059,"kis":3060,"Ġnaut":3061,"etut":3062,"Ġtuota":3063,"oitu":3064,"ĠHer":3065,"tim":3066,"ĠVenÃ¤":3067,"gas":3068,"Ġsijaan":3069,"Ġsuurin":3070,"teista":3071,"Ġseura":3072,"Ġpes":3073,"Ġilta":3074,"ilua":3075,"Ġmonta":3076,"Ġkasvat":3077,"Ġhuoli":3078,"Ġravinto":3079,"ĠLas":3080,"ĠlÃ¤mm":3081,"og":3082,"Ġkaupunki":3083,"ĠNÃ¤in":3084,"ĠkestÃ¤":3085,"nolog":3086,"ĠKer":3087,"ĠtÃ¤nÃ¤":3088,"ksa":3089,"ĠlÃ¤htÃ¶":3090,"blog":3091,"Si":3092,"Ġtausta":3093,"maton":3094,"Ġkauni":3095,"yvÃ¤sky":3096,"ĠÃ¤iti":3097,"MitÃ¤":3098,"ĠkÃ¤ynn":3099,"visi":3100,"Ġjoukku":3101,"ollisuus":3102,"Ġsinua":3103,"imman":3104,"VI":3105,"Ġkiinte":3106,"iku":3107,"Ġuudelleen":3108,"Ġkunto":3109,"Ġherk":3110,"Ġrekister":3111,"Pa":3112,"ĠKO":3113,"eja":3114,"ĠEl":3115,"ĠheinÃ¤kuuta":3116,"Ġalas":3117,"Ġomina":3118,"huone":3119,"Ġvideo":3120,"Ġtaso":3121,"Ġuskon":3122,"uti":3123,"Ġpil":3124,"jÃ¤rjestelmÃ¤":3125,"tuja":3126,"oker":3127,"Ġvapa":3128,"ves":3129,"ĠsÃ¤hkÃ¶posti":3130,"60":3131,"Ġhaluat":3132,"este":3133,"Ġaiemmin":3134,"Ġjohd":3135,"Ġedusta":3136,"Ġulos":3137,"Ġlento":3138,"tiÃ¤":3139,"Ġpuhel":3140,"Ġliit":3141,"tat":3142,"ĠHÃ¤":3143,"utunut":3144,"isaalta":3145,"....":3146,"isilla":3147,"isyys":3148,"ĠnÃ¤k":3149,"ĠKys":3150,"Ġminua":3151,"Ġuus":3152,"missÃ¤":3153,"Il":3154,"Ġâ":3155,"ĠYhte":3156,"ĠKoko":3157,"ĠjÃ¤Ã¤n":3158,"Ġasiat":3159,"kossa":3160,"liin":3161,"Ġkapp":3162,"Ġviet":3163,"ihan":3164,"Mi":3165,"Ġsor":3166,"markkin":3167,"Ġkyn":3168,"ĠpysÃ¤":3169,"ĠmyÃ¶tÃ¤":3170,"ilan":3171,"Ġtall":3172,"lliseen":3173,"ĠjÃ¤i":3174,"ĠPalvel":3175,"Ġru":3176,"uutar":3177,"Kaikki":3178,"Ġhir":3179,"ĠtehdÃ¤Ã¤n":3180,"ttÃ¶":3181,"Ġyksinkerta":3182,"Ġ2010":3183,"Ġtoden":3184,"Ġtoista":3185,"Ġaktiiv":3186,"ehdot":3187,"Ġsanoi":3188,"KE":3189,"Ġsuunn":3190,"istin":3191,"isissa":3192,"ens":3193,"Ġtuntia":3194,"jalla":3195,"ĠðŁ":3196,"mÃ¤ttÃ¶":3197,"teja":3198,"ĠmyÃ¶hemmin":3199,"otti":3200,"Ġmaksa":3201,"llisten":3202,".âĢĿ":3203,"uone":3204,"Ġoppi":3205,"Ha":3206,"telÃ¤":3207,"ose":3208,"ĠmieltÃ¤":3209,"Ġmuutaman":3210,"ĠLue":3211,"Ġviikkoa":3212,"Ġkis":3213,"Ġjoilla":3214,"intaa":3215,"alue":3216,"Ġartikk":3217,"Ġalkaen":3218,"omet":3219,"Ġelin":3220,"Ġlaittaa":3221,"ĠHi":3222,"ĠPo":3223,"llÃ¶n":3224,"ĠMÃ¤":3225,"Ġtuolla":3226,"Ġtis":3227,"ĠKuva":3228,"vide":3229,"ora":3230,"Ġprosenttia":3231,"gaa":3232,"Ġtarin":3233,"utettu":3234,"Ġkustann":3235,"uksena":3236,"Ġfor":3237,"Ġtuote":3238,"dio":3239,"ĠlÃ¶ytÃ¤Ã¤":3240,"Ġkerr":3241,"ĠsisÃ¤ltÃ¶":3242,"ston":3243,"Ġmaahan":3244,"hkÃ¤":3245,"2013":3246,"80":3247,"OT":3248,"aari":3249,"piir":3250,"Ġviih":3251,"ĠpÃ¤Ã¤llÃ¤":3252,"Ġtalous":3253,"22":3254,"ĠVaikka":3255,"Ġpian":3256,"Ġolemme":3257,"vuoti":3258,"Hel":3259,"Ġtietok":3260,"Ġvaiheessa":3261,"lait":3262,"Ġkirjan":3263,"ĠEd":3264,"ipuol":3265,"Ġostaa":3266,"ĠkÃ¤ytetÃ¤Ã¤n":3267,"Ġtreen":3268,"Ġsur":3269,"Ġtoimitus":3270,"ĠKul":3271,"Ġlyhy":3272,"uttua":3273,"Ġihmisten":3274,"ĠvÃ¤Ã¤r":3275,"Ġtait":3276,"laiset":3277,"itter":3278,"ĠThe":3279,"Ġtas":3280,"onin":3281,"ĠLu":3282,"Ġpakko":3283,"emen":3284,"ĠKuu":3285,"ĠlÃ¤hellÃ¤":3286,"pun":3287,"ĠPohjois":3288,"ĠâĢľ":3289,"Ġaiko":3290,"Ġkuvan":3291,"Ġomat":3292,"Ġu":3293,"ĠsinÃ¤":3294,"ĠhyÃ¶dyn":3295,"ĠtehtÃ¤vÃ¤":3296,"Ã©":3297,"Ġviesti":3298,"ĠihmisiÃ¤":3299,"Ġselvit":3300,"dÃ¤":3301,"ĠRuot":3302,"ganisaa":3303,"ĠIh":3304,"LÃ¤hettÃ¤nyt":3305,"kseni":3306,"uston":3307,"Ġpuhu":3308,"telemaan":3309,"ort":3310,"www":3311,"ĠTai":3312,"Ġverta":3313,"yhtiÃ¶":3314,"siin":3315,"uteen":3316,"Ġmieleen":3317,"Min":3318,"lÃ¤Ã¤":3319,"Ġkehitty":3320,"Ġhake":3321,"ettel":3322,"Vuo":3323,"ĠhenkilÃ¶kohta":3324,"Ã¤nÃ¤Ã¤n":3325,"ĠkÃ¤ytÃ¶ssÃ¤":3326,"ĠylÃ¤":3327,"TV":3328,"ĠMu":3329,"Ġ27":3330,"istunut":3331,"jasta":3332,"Ar":3333,"mppan":3334,"Ġkiitos":3335,"ĠpitkÃ¤Ã¤n":3336,"vaihto":3337,"iki":3338,"utkimus":3339,"lly":3340,"und":3341,"ED":3342,"olle":3343,"ĠUusi":3344,"Ġmaksaa":3345,"âĢĿ,":3346,"vas":3347,"Ġaino":3348,"kassa":3349,"Ġhuono":3350,"Ġtakana":3351,"akko":3352,"ĠCh":3353,"anoma":3354,"teluun":3355,"ĠyhÃ¤":3356,"Ġtakaa":3357,"Ġhuoma":3358,"pas":3359,"peli":3360,"AM":3361,"lÃ¤h":3362,"laisen":3363,"ensa":3364,"lon":3365,"ĠSal":3366,"neksi":3367,"ukse":3368,"tyÃ¶":3369,"ĠpÃ¤Ã¤si":3370,"ĠVoi":3371,"itystÃ¤":3372,"Ġtuke":3373,"Ġsar":3374,"ĠUl":3375,"Ġsopii":3376,"Ġruu":3377,"Ġmuutama":3378,"Ġmuutta":3379,"kaus":3380,"Ġsovel":3381,"Ġperusta":3382,"Ġ60":3383,"Ġvaku":3384,"umero":3385,"Ġihmisen":3386,"miset":3387,"uloa":3388,"ĠKoti":3389,"rÃ¤n":3390,"Ġkerro":3391,"kinta":3392,"Ġlev":3393,"Ġpeh":3394,"ĠEuroopan":3395,"itiiv":3396,"Ġ26":3397,"Ġoikeus":3398,"Tilaa":3399,"Ġohjaa":3400,"sut":3401,"ĠnÃ¤kÃ¶kul":3402,"Ġmene":3403,"ĠHyvÃ¤":3404,"Ġ28":3405,"Ġalue":3406,"Ġollaan":3407,"Ġkaikkien":3408,"Ġsam":3409,"ule":3410,"fo":3411,"Ġseks":3412,"Ġris":3413,"Ġent":3414,"Ġsinulla":3415,"Ġsiksi":3416,"isuudessa":3417,"Ġosalta":3418,"oten":3419,"Ġtoki":3420,"Ġarvos":3421,"kau":3422,"oston":3423,"ilee":3424,"ĠmyÃ¶n":3425,"Ġikkun":3426,"arvo":3427,"Ġkiinnosta":3428,"Ġmuoto":3429,"Ġtap":3430,"ord":3431,"ĠToim":3432,"ostu":3433,"Ġmukaisesti":3434,"be":3435,"Ġlan":3436,"Ġuseita":3437,"Ġsarja":3438,"Ġsellainen":3439,"ĠHal":3440,"Ġero":3441,"maks":3442,"ottavasti":3443,"zz":3444,"Ġrunsa":3445,"Ġtapahtuu":3446,"tek":3447,"Ã¶r":3448,"An":3449,"inaan":3450,"ilut":3451,"SÃ¤hkÃ¶":3452,"ĠsieltÃ¤":3453,"Ġasiantunti":3454,"ĠDe":3455,"kuvat":3456,"Ġasiak":3457,"Ġminulla":3458,"kasti":3459,"Ġkel":3460,"ĠKr":3461,"hing":3462,"Ġpoli":3463,"ou":3464,"malle":3465,"tista":3466,"Ġajo":3467,"ytyvÃ¤":3468,"Ġman":3469,"Ġsivusto":3470,"udun":3471,"luvun":3472,"hun":3473,"Ġoikeasti":3474,"pros":3475,"Ġlista":3476,"isestÃ¤":3477,"py":3478,"Ġmielenkiinto":3479,"Ġlukea":3480,"tanto":3481,"itetty":3482,"ĠTw":3483,"Ġtarkoittaa":3484,"llÃ¶":3485,"enna":3486,"ster":3487,"oinen":3488,"Ġrahaa":3489,"Ġhoid":3490,"ĠVer":3491,"puolella":3492,"ĠtÃ¤rkeÃ¤":3493,"keh":3494,"book":3495,"Ġhuolimatta":3496,"Ã¤s":3497,"PA":3498,"yÃ¶ssÃ¤":3499,"ĠtÃ¤yt":3500,"jaksi":3501,"Ġmusiikki":3502,"ĠViime":3503,"ĠsisÃ¤llÃ¤":3504,"ĠvÃ¤hintÃ¤Ã¤n":3505,"ĠkÃ¤ydÃ¤":3506,"innassa":3507,"ĠPit":3508,"Ġliikke":3509,"ĠÃ¤l":3510,"tsi":3511,"ĠHan":3512,"Ġkaunis":3513,"Ġkotona":3514,"ikkeet":3515,"Ġkeitti":3516,"II":3517,"pur":3518,"ityksen":3519,"omat":3520,"sinki":3521,"Ġtosiaan":3522,"Ġmed":3523,"TÃ¤ssÃ¤":3524,"ĠIlma":3525,"ute":3526,"ĠKiin":3527,"Ġvaikea":3528,"Ġilmainen":3529,"ĠyhtÃ¤Ã¤n":3530,"ĠHo":3531,"jassa":3532,"Ġkaupung":3533,"gra":3534,"ilman":3535,"ĠKon":3536,"Ġtosin":3537,"koulu":3538,"ĠjÃ¤nn":3539,"Ġnetti":3540,"pÃ¤Ã¤tÃ¶":3541,"Ġmas":3542,"joa":3543,"iemi":3544,"Tar":3545,"vyys":3546,"Ġkeskitty":3547,"mpien":3548,"Ġaiheutta":3549,"Ġjoko":3550,"Mutta":3551,"Ġsuomi":3552,"Ġpalvelut":3553,"Ġpoika":3554,"ay":3555,"ĠedessÃ¤":3556,"Ġpika":3557,"liik":3558,"Ġsamaa":3559,"ĠtekemÃ¤Ã¤n":3560,"Ġtarkas":3561,"ĠVe":3562,"mÃ¤ki":3563,"Ġpih":3564,"utki":3565,"Ġpysy":3566,"YT":3567,"Ġrakennus":3568,"Ġnimen":3569,"esin":3570,"Ġasiaa":3571,"ain":3572,"Ġmelkein":3573,"Ġoon":3574,"menn":3575,"ĠlÃ¤hettÃ¤":3576,"ĠkÃ¤vel":3577,"Ġharras":3578,"kso":3579,"Ġolis":3580,"ĠPuh":3581,"Ġyliopisto":3582,"Ġpienen":3583,"Ġselv":3584,"ejÃ¤":3585,"ivo":3586,"Ġkommentteja":3587,"ikkoja":3588,"otel":3589,"Ġsiten":3590,"Ġtaloude":3591,"Ġtietysti":3592,"Ġmahdollisimman":3593,"Ġkohtaa":3594,"haat":3595,"ĠVaa":3596,"tiÃ¶n":3597,"ĠlÃ¤hd":3598,"In":3599,"telussa":3600,"Ġanta":3601,"Mar":3602,"uolto":3603,"ĠlÃ¤he":3604,"kymmen":3605,"ĠMet":3606,"ssin":3607,"Ġpuolesta":3608,"ĠRak":3609,"Ġvaka":3610,"engÃ¤t":3611,"Ġtarkoitus":3612,"Ġhankki":3613,"21":3614,"astaa":3615,"ĠUut":3616,"iini":3617,"Ġkokon":3618,"ĠMer":3619,"Ġved":3620,"estÃ¤Ã¤n":3621,"ĠtÃ¤rkeÃ¤Ã¤":3622,"kkiÃ¤":3623,"hka":3624,"Ġihminen":3625,"Ġkannalta":3626,"eista":3627,"kinto":3628,"Ġmietti":3629,"Ġkauppa":3630,"ALL":3631,"Ġyksityis":3632,"Ġedu":3633,"ĠMiten":3634,"Ġmahdollisuus":3635,"Ġalusta":3636,"uussa":3637,"reffit":3638,"ukut":3639,"ps":3640,"ree":3641,"gi":3642,"ĠpÃ¤Ã¤see":3643,"Ġliike":3644,"ĠmennessÃ¤":3645,"TU":3646,"ĠtÃ¤nne":3647,"Ġnaiset":3648,"ĠIhan":3649,"Ġasunto":3650,"ĠKan":3651,"LisÃ¤":3652,"23":3653,"imÃ¤":3654,"Ġyhteisk":3655,"osuo":3656,"vÃ¤Ã¤n":3657,"tÃ¤minen":3658,"Ġmiehen":3659,"ola":3660,"Ġkansan":3661,"ĠpÃ¤Ã¤ssÃ¤":3662,"Ġliiket":3663,"Ġnopea":3664,"ustettu":3665,"Ġmonipuol":3666,"Ġaine":3667,"Ġkm":3668,"Ġpyr":3669,"Ġrajoit":3670,"Ġtyt":3671,"ly":3672,"ĠHaa":3673,"rasta":3674,"ris":3675,"viikko":3676,"aalit":3677,"tÃ¤nyt":3678,"Ġtoimitta":3679,"ĠFinland":3680,"Ġtein":3681,"Ġansi":3682,"Ã¤ltÃ¤":3683,"Ġkasva":3684,"jun":3685,"ĠvÃ¤hemmÃ¤n":3686,"toin":3687,"Ġaj":3688,"Ġraha":3689,"Ġkolm":3690,"ĠVÃ¤":3691,"koinen":3692,"Ġtapauksessa":3693,"Ġporn":3694,"ĠpÃ¤in":3695,"ĠhyviÃ¤":3696,"unna":3697,"Ġviikolla":3698,"kkÃ¤Ã¤n":3699,"Ġkunta":3700,"trateg":3701,"kirjoit":3702,"Ġkuor":3703,"vetuloa":3704,"Ġ29":3705,"Ġtoiminnan":3706,"ĠYhdys":3707,"Ġ2009":3708,"Ġongelma":3709,"iver":3710,"Per":3711,"Ġsaadaan":3712,"ĠensimmÃ¤isen":3713,"Ġjne":3714,"Ġhak":3715,"Ġenergia":3716,"Ġtot":3717,"ĠJÃ¤":3718,"Ġilme":3719,"Ġtiedon":3720,"vali":3721,"ĠlÃ¤Ã¤kÃ¤":3722,"Olet":3723,"Ġyhteys":3724,"Ġvaikut":3725,"atta":3726,"vointi":3727,"Ġoo":3728,"isemmin":3729,"Ter":3730,"ppÃ¤":3731,"resi":3732,"SI":3733,"Ġloppuun":3734,"Ġhoi":3735,"ohj":3736,"Ġlopulta":3737,"Ġistu":3738,"ĠOnko":3739,"ĠUn":3740,"mmi":3741,"ĠevÃ¤ste":3742,"ĠvÃ¤ri":3743,"Ġkukaan":3744,"olta":3745,"Ġalussa":3746,"ĠÃ¶lj":3747,"llikkÃ¶":3748,"enter":3749,"Ġollen":3750,"Ġpoliit":3751,"ĠKas":3752,"Ġmall":3753,"Ġsaavat":3754,"juh":3755,"Ġkokonaan":3756,"ynnÃ¤":3757,"intoja":3758,"mpa":3759,"Ġulkoma":3760,"Ġtapaa":3761,"Ġdig":3762,"lista":3763,"OR":3764,"llisuuden":3765,"Ġparempi":3766,"Ġlauanta":3767,"ĠElÃ¤":3768,"iaan":3769,"ĠAnn":3770,"ĠtyÃ¶tÃ¤":3771,":)":3772,"mpan":3773,"iil":3774,"Ġkpl":3775,"empi":3776,"ĠpÃ¤Ã¤se":3777,"oton":3778,"ĠAsi":3779,"intar":3780,"ekko":3781,"Ġkirjoittaa":3782,"ĠLÃ¤":3783,"rian":3784,"70":3785,"Ġalueella":3786,"Ġaurinko":3787,"rÃ¤t":3788,"Ġhuomatta":3789,"Ġtie":3790,"vistÃ¤":3791,"Ġliikku":3792,"ĠHelsing":3793,"ĠhÃ¤ntÃ¤":3794,"ug":3795,"kier":3796,"yttÃ¤vÃ¤":3797,"Ġohja":3798,"ĠnÃ¤kyy":3799,"ĠPet":3800,"Ġtarvitaan":3801,"MIS":3802,"Kat":3803,"uudessa":3804,"ĠTÃ¤llÃ¤":3805,"ĠEtelÃ¤":3806,"ĠeteenpÃ¤in":3807,"milla":3808,"ĠPin":3809,"ĠlÃ¶ydÃ¤t":3810,"ĠKirja":3811,"kainen":3812,"uolelle":3813,"uon":3814,"Te":3815,"2012":3816,"Ġtulos":3817,"ress":3818,"Ġviestin":3819,"mille":3820,"Ġanal":3821,"ĠKol":3822,"Ġriippu":3823,"Ġauton":3824,"ĠympÃ¤r":3825,"kuin":3826,"ĠnÃ¤istÃ¤":3827,"ĠLaa":3828,"Ġhoita":3829,"ajan":3830,"residen":3831,"ima":3832,"HD":3833,"ĠyksilÃ¶":3834,"sk":3835,"Ġelokuva":3836,"uuksia":3837,"ĠUr":3838,"llessa":3839,"âĢĻ":3840,"eellis":3841,"Ġvaal":3842,"Ġperheen":3843,"Ġtoimintaa":3844,"Ġmiet":3845,"ĠlÃ¤hti":3846,"Na":3847,"Ġlaj":3848,"Ġmahta":3849,"Ġkulj":3850,"itetaan":3851,"Ġnuori":3852,"ustan":3853,"Ġtoteutta":3854,"kalla":3855,"Ġteksti":3856,"uton":3857,"tys":3858,"tsa":3859,"Ġsuhteen":3860,"ĠmikÃ¤Ã¤n":3861,"ĠJe":3862,"Ġpill":3863,"ĠkÃ¤te":3864,"Ġterveyden":3865,"Ġmyynti":3866,"ĠmielestÃ¤ni":3867,"Ġnaisten":3868,"Ġpaper":3869,"Mat":3870,"laisten":3871,"35":3872,"mitta":3873,"Ġerino":3874,"ĠyhteensÃ¤":3875,"AA":3876,"Ġminuuttia":3877,"Ġtulevat":3878,"Ġrakenta":3879,"ĠSÃ¤hkÃ¶":3880,"Ġuudet":3881,"Ġkoira":3882,"Ġkilpail":3883,"Ġaih":3884,"tÃ¤mÃ¤Ã¤n":3885,"Ġpako":3886,"ĠOli":3887,"reÃ¤":3888,"mÃ¤stÃ¤":3889,"yhdist":3890,"pyÃ¶":3891,"ind":3892,"Ġmulla":3893,"ĠHall":3894,"ollinen":3895,"IV":3896,"ĠystÃ¤vÃ¤":3897,"Blog":3898,"Ġvaltion":3899,"UKS":3900,"ottomasti":3901,"ohjelma":3902,"Ġkerra":3903,"Ġtah":3904,"innasta":3905,"UNN":3906,"ĠSis":3907,"istuksen":3908,"utul":3909,"ksia":3910,"LL":3911,"ct":3912,"ĠKyllÃ¤":3913,"innut":3914,"kata":3915,"Ġkauan":3916,"Ġkuole":3917,"vonta":3918,"ĠEli":3919,"ysten":3920,"Ġmuutos":3921,"Ġuse":3922,"Ġsijaitsee":3923,"itu":3924,"Ġmy":3925,"Ġjatkaa":3926,"Ġkommentoi":3927,"Ġkirjoitta":3928,"âĢĿ.":3929,"Ġsana":3930,"Ġnuorten":3931,"are":3932,"Ġkerta":3933,"ĠJul":3934,"Hy":3935,"istaan":3936,"ĠriittÃ¤Ã¤":3937,"Ġsunnunta":3938,"rik":3939,"ĠsyystÃ¤":3940,"ĠtÃ¤Ã¤ltÃ¤":3941,"liitto":3942,"Ġperjan":3943,"TEL":3944,"PS":3945,"Ġloppu":3946,"ĠrekisterÃ¶":3947,"politi":3948,"ostitse":3949,"Ġolemaan":3950,"Ġlapset":3951,"essÃ¤Ã¤n":3952,"taso":3953,"ĠÂ·":3954,"ĠKuo":3955,"YÃĸ":3956,"ĠTwitter":3957,"Ġjotenkin":3958,"put":3959,"Ġsaira":3960,"Ke":3961,"ĠSu":3962,"Ġkorva":3963,"pitÃ¤":3964,"ĠLisÃ¤Ã¤":3965,"Ġosto":3966,"uring":3967,"ĠMinÃ¤":3968,"Ġhaaste":3969,"hop":3970,"ĠpÃ¤Ã¤s":3971,"enta":3972,"koti":3973,"ĠtodennÃ¤kÃ¶":3974,"ĠTalo":3975,"kÃ¤stÃ¤":3976,"menna":3977,"ksesi":3978,"Ã¤nsi":3979,"ĠTee":3980,"90":3981,"oste":3982,"lehti":3983,"ukin":3984,"uran":3985,"Ġtus":3986,"Ġohje":3987,"ĠEhkÃ¤":3988,"Ġtaa":3989,"kuja":3990,"Ġautta":3991,"Ġvalita":3992,"delle":3993,"ĠenkÃ¤":3994,"Ġjossain":3995,"Ġkokonais":3996,"Ġolevat":3997,"Ġsaatta":3998,"vyt":3999,"ĠKiitos":4000,"oog":4001,"ĠÃ¤id":4002,"jojen":4003,"turva":4004,"Ġlokakuuta":4005,"tisesti":4006,"ĠPir":4007,"Ġvastuu":4008,"elman":4009,"Ġtutustu":4010,"oinnin":4011,"Ġlih":4012,"Ġlaajen":4013,"kkeet":4014,"tuun":4015,"innon":4016,"Ġsun":4017,"ĠmÃ¶":4018,"ukkaa":4019,"uotteet":4020,"utui":4021,"materi":4022,"Ġvalitse":4023,"alis":4024,"ettyÃ¤":4025,"Ġmootto":4026,"ĠyllÃ¤ttÃ¤":4027,"tusivu":4028,"ĠkesÃ¤kuuta":4029,"kohd":4030,"Ġ'":4031,"ukon":4032,"joille":4033,"ID":4034,"atter":4035,"Ġainoastaan":4036,"ent":4037,"kkit":4038,"vil":4039,"Ġtilanne":4040,"Ġverrat":4041,"ryhmÃ¤":4042,"Yhte":4043,"Ġvaihtoehto":4044,"Ġsille":4045,"Ġoikea":4046,"Ġsyyskuuta":4047,"pÃ¤ivÃ¤n":4048,"Ġmilla":4049,"sittain":4050,"vuotia":4051,"Ġyrityksen":4052,"ija":4053,"ĠelÃ¤mÃ¤Ã¤":4054,"kys":4055,"konen":4056,"Ġkauh":4057,"issaan":4058,"Ġpir":4059,"ĠtyytyvÃ¤":4060,"fe":4061,"Ġlaitte":4062,"ĠKatso":4063,"Ġlaske":4064,"olog":4065,"Ġkoulut":4066,"ĠQ":4067,"isivat":4068,"ĠjÃ¤lj":4069,"Ġkuun":4070,"Ġjalka":4071,"ĠJyvÃ¤sky":4072,"Ġomaan":4073,"kolog":4074,"Ġkaikkia":4075,"Ġomia":4076,"Ġsovell":4077,"ĠryhmÃ¤":4078,"nnon":4079,"kkaan":4080,"Ġtesta":4081,"ilemaan":4082,"istys":4083,"mpÃ¶":4084,"Ã¶itÃ¤":4085,"urs":4086,"Ġmukava":4087,"ĠYksi":4088,"glann":4089,"ĠrÃ¤":4090,"yÃ¶tÃ¤":4091,"ĠSam":4092,"Voi":4093,"Ġket":4094,"Ġpide":4095,"Ġhelpo":4096,"Ġopetus":4097,"Ġtien":4098,"Ġblogi":4099,"Ġhelpp":4100,"ikseen":4101,"kilpa":4102,"vain":4103,"ytty":4104,"Ġpoik":4105,"ĠlÃ¤hteÃ¤":4106,"merkki":4107,"piste":4108,"ĠkerÃ¤":4109,"ret":4110,"ĠKaa":4111,"and":4112,"ostus":4113,"ĠlÃ¤hinnÃ¤":4114,"iska":4115,"iton":4116,"Ġilla":4117,"tisen":4118,"Ġrahoitus":4119,"oiminnan":4120,"imin":4121,"Ġvoinut":4122,"Ġlaus":4123,"ĠedistÃ¤":4124,"Ġkertoi":4125,"vina":4126,"ukÃ¤":4127,"Ġhistoria":4128,"Ġkunnes":4129,"MikÃ¤":4130,"ĠtietÃ¤":4131,"45":4132,"udessa":4133,"oikeus":4134,"Ġlaati":4135,"ĠâĢ¢":4136,"kejÃ¤":4137,"ĠSeuraa":4138,"th":4139,"umalan":4140,"):":4141,"vik":4142,"Ġkuukausi":4143,"Ġpuolella":4144,"Ġkohdalla":4145,"of":4146,"Ġton":4147,"Ġhuomioon":4148,"ĠelÃ¤in":4149,"Ġsala":4150,"Ġeilen":4151,"26":4152,"Ġ?":4153,"ĠsÃ¤Ã¤nnÃ¶":4154,"Ġmiljoonaa":4155,"Ġluku":4156,"ĠTil":4157,"Ġhyvinvoin":4158,"ĠAnna":4159,"Ġseurak":4160,"emme":4161,"Ti":4162,"Ġtunnin":4163,"Ġvau":4164,"Ġvaatii":4165,"juus":4166,"ĠKA":4167,"Ġ2008":4168,"Ġviik":4169,"teisiin":4170,"Uusi":4171,"pohja":4172,"Ġkolman":4173,"oc":4174,"ykseen":4175,"olo":4176,"Ġelokuuta":4177,"Ġliikaa":4178,"Ġ80":4179,"ysi":4180,"27":4181,"OIT":4182,"ĠkÃ¤ytÃ¶n":4183,"Ã¤Ã¤nty":4184,"29":4185,"Ġniihin":4186,"ehden":4187,"annan":4188,"Ġvalinta":4189,"pul":4190,"ĠPien":4191,"ettuja":4192,"Ġbon":4193,"det":4194,"henkilÃ¶":4195,"ĠMies":4196,"umala":4197,"ĠFor":4198,"2011":4199,"Ġroh":4200,"usteet":4201,"Maa":4202,"Ġonnistu":4203,"Ġjonkun":4204,"Ġmoni":4205,"edel":4206,"ĠylÃ¶s":4207,"Ġtoteut":4208,"Ġihmet":4209,"Ġpalja":4210,"sal":4211,"ĠvÃ¤hÃ¤":4212,"Ġsaakka":4213,"Ġhoito":4214,"Ġtietoja":4215,"eti":4216,"ĠTied":4217,"Ġpas":4218,"utuminen":4219,"Ġrapor":4220,"mÃ¤Ã¤r":4221,"Ġkoulu":4222,"ĠitsensÃ¤":4223,"Ġarvon":4224,"tointi":4225,"UU":4226,"Ġrus":4227,"Ġsamaan":4228,"AK":4229,"ood":4230,"ĠAika":4231,"ĠsÃ¤hkÃ¶postitse":4232,"eellinen":4233,"stu":4234,"rot":4235,"aalia":4236,"kÃ¤sit":4237,"Ġpuutar":4238,"Ġvarsina":4239,"Ġthai":4240,"Ġhallituksen":4241,"toihin":4242,"Ġkunnan":4243,"Ġjuhla":4244,"Ġkans":4245,"Ġparanta":4246,"Ġunoh":4247,"Ġby":4248,"paikan":4249,"vÃ¤nÃ¤":4250,"du":4251,"Tiet":4252,"Ġpalaut":4253,"ntÃ¶":4254,"ĠItÃ¤":4255,"astus":4256,"Ġtissit":4257,"Ġhah":4258,"Ġmonen":4259,"asia":4260,"OH":4261,"Ġsuomen":4262,"jar":4263,"28":4264,"ĠkÃ¶":4265,"Ġluov":4266,"udesta":4267,"ght":4268,"cm":4269,"Ġilmi":4270,"ĠnÃ¤iden":4271,"Atom":4272,"Ġtoimen":4273,"yhteis":4274,"olin":4275,"mÃ¤tÃ¶n":4276,"ĠTurun":4277,"ĠhenkilÃ¶stÃ¶":4278,"mmista":4279,"ĠTal":4280,"tÃ¤n":4281,"Ã¤Ã¤ntÃ¶":4282,"Ġkuule":4283,"joista":4284,"hÃ¶n":4285,"Ġjokainen":4286,"rÃ¶":4287,"Ġkasvaa":4288,"ĠKoul":4289,"Ġpus":4290,"Ġodotta":4291,"Ġpalkka":4292,"sion":4293,"Ġasenn":4294,"maksi":4295,"Tee":4296,"Ã¤nyt":4297,"ympÃ¤ristÃ¶":4298,"aton":4299,"ĠNÃ¤mÃ¤":4300,"ci":4301,"Ġsito":4302,"qu":4303,"Ã¥":4304,"Ġkiinnos":4305,"paino":4306,"Ġalueen":4307,"ĠlÃ¶ytyi":4308,"ellaan":4309,"osen":4310,"Ġkulutta":4311,"ĠteidÃ¤n":4312,"Ġonneksi":4313,"Viime":4314,"Ġisot":4315,"teeksi":4316,"ĠPan":4317,"ĠKeski":4318,"jÃ¤rvi":4319,"ĠSuomala":4320,"uinka":4321,"ĠkevÃ¤t":4322,"tiota":4323,"kaat":4324,"ĠliittyvÃ¤t":4325,"my":4326,"Miten":4327,"dit":4328,"ĠjÃ¤ttÃ¤Ã¤":4329,"ĠBlogger":4330,"Ġnumer":4331,"ihto":4332,"Ġ70":4333,"Ġmonet":4334,"Ġsopiva":4335,"apaa":4336,"Ġoppila":4337,"Ġsol":4338,"Ġapua":4339,"siÃ¤":4340,"Ġpiil":4341,"miel":4342,"Ġtekn":4343,"Ġvarsinkin":4344,"dellÃ¤":4345,"laatu":4346,"ĠSil":4347,"ĠsiltÃ¤":4348,"ĠYl":4349,"Ġpositiiv":4350,"Ġns":4351,"kkejÃ¤":4352,"ĠkÃ¤ytettÃ¤":4353,"ĠMusta":4354,"go":4355,"ĠKy":4356,"pid":4357,"Ġnukku":4358,"Ġodottaa":4359,"Ġhieno":4360,"Ã¤Ã¤llÃ¤":4361,"ttien":4362,"ttiin":4363,"boo":4364,"Ġemme":4365,"ĠEnsimmÃ¤":4366,"Ġvuodesta":4367,"ĠTO":4368,"ihÃ¤n":4369,"ÃĦN":4370,"mio":4371,"Ġtukea":4372,"hoid":4373,"niikka":4374,"ĠpÃ¤Ã¤ttÃ¤":4375,"Poh":4376,"ĠÃ¤Ã¤":4377,"hdollis":4378,"istossa":4379,"Ã¤nsÃ¤":4380,"ĠOle":4381,"Ġkein":4382,"Ġjaka":4383,"Ġloista":4384,"auto":4385,"netaan":4386,"Ġkuvit":4387,"uoto":4388,"arin":4389,"nan":4390,"Ġpoikke":4391,"tilas":4392,"ĠnimittÃ¤in":4393,"Ġkolmen":4394,"IR":4395,"doin":4396,"sun":4397,"Ġorganisaa":4398,"ĠselvÃ¤sti":4399,"Ġkanta":4400,"Ġtuotteita":4401,"ĠkÃ¤yttÃ¶Ã¤":4402,"Ġvarmista":4403,"ettuna":4404,"ĠkÃ¤yn":4405,"puu":4406,"Niin":4407,"oinn":4408,"Ġkl":4409,"Ġjaksa":4410,"kuvia":4411,"Ġinno":4412,"Ġkoste":4413,"ĠLiik":4414,"Ġkova":4415,"ome":4416,"Var":4417,"ĠpyÃ¶rÃ¤":4418,"Ġsijaitse":4419,"Ġsata":4420,"osuh":4421,"estiin":4422,"Ġkuukauden":4423,"PÃ¤Ã¤":4424,"osuoja":4425,"Ġluotta":4426,"Ġkovasti":4427,"ksuaal":4428,"Ġvalikoi":4429,"Ġkello":4430,"ĠBo":4431,"ostuu":4432,"ĠKansa":4433,"Ġeuron":4434,"Ġmuuttaa":4435,"Ġneul":4436,"Ġkysy":4437,"ĠsydÃ¤":4438,"ĠSiinÃ¤":4439,"Ġrah":4440,"Ġlaaja":4441,"ytti":4442,"ĠseksiÃ¤":4443,"teitÃ¤":4444,"Ġmeta":4445,"Ġret":4446,"hdet":4447,"Ġnaisen":4448,"iskeli":4449,"dun":4450,"Ġput":4451,"uttava":4452,"ny":4453,"Ġtyyl":4454,"Ġsuoja":4455,"ĠAuto":4456,"talous":4457,"ettavasti":4458,"kinen":4459,"Ġkohtaan":4460,"Ġtoimit":4461,"tunn":4462,"Koh":4463,"joki":4464,"ĠMuuta":4465,"Ġkri":4466,"ĠSitten":4467,"Ġresep":4468,"ĠtÃ¤ynnÃ¤":4469,"hoito":4470,"Ġhallitus":4471,"Ġtarjolla":4472,"ĠvettÃ¤":4473,"mal":4474,"istui":4475,"Ġmassa":4476,"ĠherÃ¤t":4477,"kÃ¤s":4478,"mpaan":4479,"ĠHS":4480,"Ġnoud":4481,"SÃ¤hkÃ¶posti":4482,"Ġtietenkin":4483,"Ġkunnossa":4484,"llÃ¶in":4485,"Ġmilloin":4486,"ĠTek":4487,"uul":4488,"Ġbi":4489,"ĠOr":4490,"Ġtulossa":4491,"hoita":4492,"suojel":4493,"Ġsaisi":4494,"ĠhyvÃ¤t":4495,"Ġtoiseen":4496,"tana":4497,"yksessÃ¤":4498,"ĠpidÃ¤":4499,"ukkaan":4500,"ĠkÃ¤ytetty":4501,"Ġlak":4502,"ĠKaupun":4503,"Par":4504,"Ġautomaat":4505,"telyn":4506,"ĠneljÃ¤n":4507,"Ġkuka":4508,"ketta":4509,"Ġtuotteet":4510,"vÃ¤lin":4511,"nnen":4512,"joukku":4513,"ppua":4514,"ĠsyytÃ¤":4515,"Ã¶Ã¶":4516,"valle":4517,"ĠUs":4518,"Ġkanna":4519,"vuotias":4520,"Ġstrateg":4521,"ure":4522,"Ġsopi":4523,"sivat":4524,"Ġpaitsi":4525,"Ġainakaan":4526,"vesi":4527,"pio":4528,"kalu":4529,"vaat":4530,"hu":4531,"ĠpidÃ¤t":4532,"anska":4533,"Ġsellaista":4534,"ĠmeitÃ¤":4535,"Ġavoim":4536,"Ġ35":4537,"kista":4538,"Ġraja":4539,"Ġtavoitteena":4540,"llisiÃ¤":4541,"kinÃ¤":4542,"ĠHelsingissÃ¤":4543,"Ġjut":4544,"olan":4545,"hel":4546,"Ġmonia":4547,"Ġrauha":4548,"Ġkilomet":4549,"Ġsaatavilla":4550,"utuvat":4551,"Ihan":4552,"ĠOs":4553,"ment":4554,"seja":4555,"Ġliikenne":4556,"tilla":4557,"res":4558,"ĠKeskus":4559,"Ġaloittaa":4560,"ĠKoi":4561,"Ġteille":4562,"ĠvÃ¤lit":4563,"Ġainoa":4564,"ĠJuh":4565,"Ġsuuntaan":4566,"Ġparasta":4567,"eija":4568,"Ġ31":4569,"Ġaiheuttaa":4570,"ilas":4571,"Muut":4572,"OL":4573,"ĠhÃ¤nelle":4574,"isuudet":4575,"tto":4576,"Ġsiirty":4577,"Ġhur":4578,"mmo":4579,"Ġkeskustelu":4580,"ĠSitÃ¤":4581,"lue":4582,"Ġehdottomasti":4583,"Ġkokoon":4584,"hot":4585,"istÃ¤Ã¤n":4586,"pÃ¤Ã¤llikkÃ¶":4587,"essani":4588,"ĠErit":4589,"Ġ90":4590,"Ġmuistaa":4591,"iselta":4592,"ĠselkeÃ¤":4593,"eidÃ¤t":4594,"Ih":4595,"attaa":4596,"usut":4597,"intojen":4598,"TyÃ¶":4599,"iseuraa":4600,"jÃ¤Ã¤n":4601,"tic":4602,"htuu":4603,"oria":4604,"ĠYli":4605,"Ġtoimia":4606,"Ġkokeilla":4607,"Ġasiasta":4608,"Ġveden":4609,"utin":4610,"ers":4611,"tenÃ¤":4612,"Ġehdot":4613,"Onko":4614,"yri":4615,"ĠMeillÃ¤":4616,"sul":4617,"Ġvuokra":4618,"2010":4619,"jÃ¤rven":4620,"Ġtarke":4621,"ĠtÃ¤yden":4622,"osoite":4623,"kaise":4624,"Ġhilja":4625,"Ġnosta":4626,"mmati":4627,"Ġpen":4628,"voima":4629,"Ġsp":4630,"sÃ¤Ã¤d":4631,"ytÃ¤Ã¤n":4632,"ÃĦR":4633,"Ġlupa":4634,"Ġui":4635,"ĠnykyÃ¤Ã¤n":4636,"Ġhetken":4637,"peri":4638,"Ġomasta":4639,"Ġjouk":4640,"vih":4641,"ĠkÃ¤s":4642,"Ġkappal":4643,"UP":4644,"Ġalkan":4645,"olf":4646,"koo":4647,"Le":4648,"Ġran":4649,"sÃ¤n":4650,"enkÃ¤Ã¤n":4651,"ĠlÃ¤htee":4652,"isuuteen":4653,"mg":4654,"ĠikinÃ¤":4655,"vis":4656,"ĠkehittÃ¤mis":4657,"Ġpakka":4658,"ĠvÃ¤lttÃ¤mÃ¤ttÃ¤":4659,"MI":4660,"Ġinternet":4661,"Ġoikeastaan":4662,"ĠâĢĶ":4663,"Ġseko":4664,"ĠOike":4665,"ely":4666,"Ġalan":4667,"kojen":4668,"ĠkÃ¤rsi":4669,"sis":4670,"ĠNet":4671,"ic":4672,"Kor":4673,"Etusivu":4674,"tot":4675,"33":4676,"Ġym":4677,"umi":4678,"Ġliikunta":4679,"Ġota":4680,"huollon":4681,"Ġlen":4682,"KyllÃ¤":4683,"Ġda":4684,"staa":4685,"hdin":4686,"isija":4687,"Ġpehme":4688,"sast":4689,"ĠyhtiÃ¶":4690,"inan":4691,"Ġminut":4692,"44":4693,"ytÃ¶":4694,"ork":4695,"ĠyhteisÃ¶":4696,"Ġsovit":4697,"ĠRaa":4698,"ĠPinter":4699,"Ġauki":4700,"Ġvaikutus":4701,"gon":4702,"Ġjostain":4703,"jista":4704,"ds":4705,"inaa":4706,"âĢ¢":4707,"Ġviisi":4708,"sil":4709,"messa":4710,"ĠmikÃ¤li":4711,"Ġihme":4712,"Ġrik":4713,"ivin":4714,"Ġkutsu":4715,"pite":4716,"Ġeniten":4717,"dot":4718,"ĠelÃ¤mÃ¤Ã¤n":4719,"maksu":4720,"Ġlaps":4721,"ĠtÃ¤yttÃ¤":4722,"Ġolisin":4723,"opisto":4724,"imeÃ¤":4725,"erkko":4726,"Ġtaj":4727,"tus":4728,"ĠhyvÃ¤ksy":4729,"ĠFacebook":4730,"Ġjokin":4731,"liiton":4732,"lay":4733,"tiot":4734,"Ġkyp":4735,"Ġhuomaa":4736,"vuutta":4737,"09":4738,"llia":4739,"teinen":4740,"Ġpuheenjohtaja":4741,"Ġpillu":4742,"sarja":4743,"llisuutta":4744,"Ġosan":4745,"Ġtunne":4746,"Ġkuuluvat":4747,"Ġjohto":4748,"luvulla":4749,"Ġtotta":4750,"esk":4751,"korkea":4752,"mail":4753,"ĠDa":4754,"pito":4755,"kil":4756,"ĠAsia":4757,"Ġ500":4758,"Ġpaik":4759,"Ġesiinty":4760,"laan":4761,"pallo":4762,"Ġammattila":4763,"ĠesittÃ¤":4764,"juo":4765,"Ġvuosina":4766,"ksinkerta":4767,"Ġco":4768,"Ġhelsinki":4769,"jÃ¤rjestÃ¶":4770,"Ġlang":4771,"ĠkestÃ¤Ã¤":4772,"aalin":4773,"Ġhevos":4774,"Ġuun":4775,"mera":4776,"Ġvaale":4777,"99":4778,"Ġpresiden":4779,"pes":4780,"uten":4781,"Ġmaise":4782,"tuneet":4783,"ĠkÃ¤ynyt":4784,"Ġkysymys":4785,"ab":4786,"Ã¤ntÃ¶":4787,"Ġkomp":4788,"jÃ¤rjestelmÃ¤n":4789,"ĠMiel":4790,"Ġilmaiseksi":4791,"ĠTA":4792,"Ġolo":4793,"Ġrann":4794,"ĠAS":4795,"Ġkulttuuri":4796,"Ġ2007":4797,".-":4798,"kirjan":4799,"matÃ¶":4800,"Ġsuunnittelu":4801,"Ġtarkoituksen":4802,"Ġjoulu":4803,"ĠymmÃ¤rtÃ¤Ã¤":4804,"Ġ198":4805,"ĠOma":4806,"ĠhÃ¶":4807,"Ġsaatu":4808,"Ġkatse":4809,"myy":4810,"Ġtoimivat":4811,"ĠSel":4812,"Ġarvioi":4813,"ikuu":4814,"mok":4815,"kortti":4816,"Ġ2000":4817,"projek":4818,"Ġvira":4819,"Ġterv":4820,"jÃ¶iden":4821,"Ġohjelma":4822,"eto":4823,"televat":4824,"llaa":4825,"ĠKoska":4826,"Ġkone":4827,"Ġjatkuvasti":4828,"berg":4829,"Ġasen":4830,"irin":4831,"ointia":4832,"Ġmaksu":4833,"Ġparhaat":4834,"Ġkulu":4835,"Ġark":4836,"umin":4837,"Ġtuki":4838,"Me":4839,"ĠlÃ¤htien":4840,"ĠNaisten":4841,"ĠyrittÃ¤Ã¤":4842,"IST":4843,"Op":4844,"taul":4845,"jiÃ¤":4846,"ĠTampereen":4847,"05":4848,"Ġverrattuna":4849,"Van":4850,"uotte":4851,"onsa":4852,"31":4853,"ĠSuomeen":4854,"eer":4855,"Ġminusta":4856,"yhty":4857,"ĠnÃ¤ke":4858,"ĠHyvin":4859,"Ġasiassa":4860,"Ġtuntui":4861,"Por":4862,"Huo":4863,"ĠKeh":4864,"Ġkertoa":4865,"veri":4866,"Ġteen":4867,"kasvat":4868,"ĠsyvÃ¤":4869,"ĠKÃ¤yttÃ¶":4870,"mÃ¶":4871,"Ġjakaa":4872,"mpÃ¤Ã¤":4873,"issi":4874,"ĠPu":4875,"Ġmaananta":4876,"ĠÂ©":4877,"Ġjatkuu":4878,"kalta":4879,"ĠkyseessÃ¤":4880,"isistÃ¤":4881,"Ġkoulun":4882,"alueen":4883,"saus":4884,"istettu":4885,"llys":4886,"ĠsÃ¤n":4887,"Ġansiosta":4888,"Toi":4889,"ĠTu":4890,"mesta":4891,"Ġesille":4892,"Ġihanaa":4893,"Ku":4894,"ĠEsimerkiksi":4895,"kala":4896,"Ļ¥":4897,"het":4898,"ĠEx":4899,"Ġkyt":4900,"ĠlisÃ¤tÃ¤":4901,"Ġkuts":4902,"PÃ¤":4903,"ĠFaceboo":4904,"Suomi":4905,"Ġetenkin":4906,"Ġmenet":4907,"Ġlehti":4908,"Â»":4909,"perin":4910,"Ġpinta":4911,"ĠAina":4912,"Ġkap":4913,"riin":4914,"Ġz":4915,"Ġkirkko":4916,"Ġongelmia":4917,"Ġkukka":4918,"Ġkymmenen":4919,"hol":4920,"ĠTE":4921,"tuminen":4922,"ĠkeskellÃ¤":4923,"ukselle":4924,"ĠUutiset":4925,"kansa":4926,"isuuksia":4927,"llei":4928,"ĠCar":4929,"Ġ!":4930,"Ġpuhd":4931,"ĠalkuperÃ¤":4932,"ĠKur":4933,"illeen":4934,"Ġkonser":4935,"mmÃ¤n":4936,"ĠPe":4937,"Ġtarpeeksi":4938,"mani":4939,"rop":4940,"**":4941,"Ġlie":4942,"ating":4943,"'s":4944,".,":4945,"Ġpaina":4946,"Ġhuolto":4947,"-)":4948,"Ġjoihin":4949,"Ġturvallisuus":4950,"jÃ¶itÃ¤":4951,"kinnon":4952,"Ġauring":4953,"Ġvuok":4954,"Ġleikki":4955,"saar":4956,"pall":4957,"Ġartikkel":4958,"kaista":4959,"Ġsek":4960,"ytÃ¶n":4961,"oitus":4962,"ĠTÃ¤stÃ¤":4963,"Ġsosiaali":4964,"Ġlup":4965,"ĠtyÃ¶pa":4966,"Ġliha":4967,"Ġhedel":4968,"muutta":4969,"reet":4970,"ĠpÃ¤Ã¤tÃ¶s":4971,"Seuraa":4972,"tapahtu":4973,"Ġfil":4974,"Ġpuhelin":4975,"ĠUlko":4976,"ĠpieniÃ¤":4977,"Ġpun":4978,"ollisuuden":4979,"Ġasiakkaan":4980,"estit":4981,"ĠTor":4982,"rella":4983,"ĠentistÃ¤":4984,"Ġvaikkapa":4985,"Ġavoin":4986,"iemen":4987,"joittaja":4988,"malta":4989,"Ġvase":4990,"Ġtuossa":4991,"imÃ¤Ã¤rÃ¤":4992,"tos":4993,"02":4994,"ĠkieltÃ¤":4995,"ikir":4996,"Ġhaastat":4997,"kÃ¤ytÃ¤":4998,"Ġomalla":4999,"ohje":5000,"ĠHenkilÃ¶":5001,"opimus":5002,"ĠLÃ¶":5003,"ĠsÃ¤Ã¤d":5004,"kausi":5005,"Ġast":5006,"Ġesitys":5007,"ano":5008,"Ġhuomattavasti":5009,"Ġpuolestaan":5010,"Ġlaul":5011,"pyh":5012,"omista":5013,"Ġviin":5014,"Ġkorja":5015,"ĠSisÃ¤llÃ¶n":5016,"Ġpiste":5017,"vyn":5018,"Ġvoimassa":5019,"aston":5020,"ĠIso":5021,"Ġtalon":5022,"Kuva":5023,"ĠtyÃ¶elÃ¤":5024,"ĠSE":5025,"ĠMTV":5026,"ĠOnneksi":5027,"Ġkannatta":5028,"Ġtuntu":5029,"ĠTap":5030,"vottavasti":5031,"Ġsein":5032,"kyky":5033,"ĠAntti":5034,"ĠHÃ¤nen":5035,"Ġkieli":5036,"Ġvuodessa":5037,"Ġhil":5038,"ĠisÃ¤":5039,"ĠjÃ¤Ã¤nyt":5040,"oitta":5041,"arv":5042,"Ġtuotanto":5043,"Ġsuih":5044,"Ġnousi":5045,"Ġilo":5046,"Ġkommenttia":5047,"ĠJees":5048,"puna":5049,"Ġhelppoa":5050,"ĠensimmÃ¤istÃ¤":5051,"pat":5052,"loma":5053,"Ġmalli":5054,"Ġetten":5055,"Ġvaro":5056,"taina":5057,"kari":5058,"Ġruokaa":5059,"ĠTampere":5060,"Ġasioista":5061,"Ġkaikista":5062,"essu":5063,"Ġmuutenkin":5064,"iteet":5065,"ĠMiksi":5066,"istetaan":5067,"osten":5068,"Ġparin":5069,"Ġnuk":5070,"Ġvalmiiksi":5071,"ĠsydÃ¤n":5072,"ĠkevÃ¤Ã¤":5073,"ilmoit":5074,"ĠvÃ¤ki":5075,"Ġtietty":5076,"ergia":5077,"MinÃ¤":5078,"Ġhuipp":5079,"Ġparantaa":5080,"Luo":5081,"http":5082,"mmun":5083,"Ġtulokset":5084,"ĠpitÃ¤nyt":5085,"Ġanna":5086,"eesi":5087,"simme":5088,"lassa":5089,"musta":5090,"ĠSt":5091,"Ġah":5092,"con":5093,"Ġvideot":5094,"ehe":5095,"Ġmennyt":5096,"Ġonline":5097,"tinyt":5098,"ĠÃ¤ly":5099,"ide":5100,"entti":5101,"ĠCon":5102,"Ġlaatu":5103,"jÃ¤sen":5104,"Ġjohtu":5105,"ĠVih":5106,"utto":5107,"ĠNyky":5108,"ion":5109,"ĠYh":5110,"ĠpÃ¤Ã¤tÃ¶ksen":5111,"MM":5112,"Ġmenetel":5113,"Ġrakasta":5114,"Tur":5115,"omaan":5116,"umma":5117,"Ġkunnolla":5118,"alaa":5119,"joen":5120,"ĠJumalan":5121,"isko":5122,"ĠyksittÃ¤":5123,"ĠelÃ¤Ã¤":5124,"yydestÃ¤":5125,"ineet":5126,"jot":5127,"ĠhÃ¤net":5128,"Itse":5129,"ĠNuor":5130,"mentti":5131,"Oh":5132,"Ġlevy":5133,"Ġweb":5134,"Ġvuosien":5135,"valo":5136,"Ġmedia":5137,"Ġhuole":5138,"elan":5139,"ĠSeksi":5140,"etyt":5141,"Ġperust":5142,"100":5143,"Ġohi":5144,"itaan":5145,"Ġlahja":5146,"okas":5147,"Ġkokemus":5148,"myys":5149,"jÃ¤nÃ¤":5150,"HyvÃ¤":5151,"pua":5152,"Ġkana":5153,"Ġsuomalainen":5154,"ĠâĢº":5155,"kistÃ¤":5156,"ĠmielessÃ¤":5157,"ĠÃ¤r":5158,"Ġvaihtoeh":5159,"ivÃ¤n":5160,"Ġosin":5161,"Ġmatkusta":5162,"Ġtuottaa":5163,"org":5164,"neuv":5165,"kokem":5166,"Ġvalkoinen":5167,"Ġteknolog":5168,"Ġkuulla":5169,"ĠOlet":5170,"EEN":5171,"Ġhiukan":5172,"ivuo":5173,"ĠedellÃ¤":5174,"Ġstr":5175,"pen":5176,"Ġnur":5177,"Ġarki":5178,"Ġtietokon":5179,"Yrit":5180,"NN":5181,"Ġselvi":5182,"Ġosuus":5183,"Ġpoista":5184,"Ġsuper":5185,"lillÃ¤":5186,"ĠAd":5187,"mb":5188,"Ġlapsille":5189,"lub":5190,"ivoi":5191,"enkilÃ¶n":5192,"impia":5193,"Ġex":5194,"iraa":5195,"Ġ45":5196,"Ġjatkossa":5197,"ĠSiv":5198,"Ġdi":5199,"Ã¤nen":5200,"Ġmaassa":5201,"Ġtoivo":5202,"lus":5203,"ryhmÃ¤n":5204,"36":5205,"Ġtarkoitettu":5206,"dia":5207,"Ġajankohta":5208,"ĠtÃ¶itÃ¤":5209,"ĠkesÃ¤n":5210,"itaal":5211,"??":5212,"ĠsÃ¶":5213,"Ġlaitta":5214,"Ġavaa":5215,"ĠKok":5216,"Ġtarvittaessa":5217,"ĠJat":5218,"Ġlaita":5219,"ital":5220,"Ġyrityks":5221,"ĠkÃ¤yttÃ¤jÃ¤":5222,"TÃ¤nÃ¤Ã¤n":5223,"Ġkokemuksia":5224,"Ġerinoma":5225,"itÃ¤Ã¤n":5226,"llyt":5227,"Ġerityisen":5228,"Ġuutis":5229,"ĠMan":5230,"Ġrip":5231,"Mo":5232,"Ġvirhe":5233,"viik":5234,"vaikut":5235,"hil":5236,"----":5237,"uvia":5238,"TÃ¤mÃ¤n":5239,"yÃ¶t":5240,"Ġolikin":5241,"uksilla":5242,"ĠerÃ¤":5243,"Ġkatsoa":5244,"Ġliittyy":5245,"tas":5246,"Ġtarpe":5247,"eeni":5248,"SS":5249,"INN":5250,"Ġtavoin":5251,"ilainen":5252,"03":5253,"etu":5254,"Ġtarina":5255,"hal":5256,"Ġitsekin":5257,"vansa":5258,"pako":5259,"unnon":5260,"torin":5261,"lÃ¤Ã¤kÃ¤":5262,"Ġseitse":5263,"ttÃ¤Ã¤":5264,"Ġrento":5265,"ĠtekevÃ¤t":5266,"MP":5267,"Ġmulle":5268,"tro":5269,"Ġajatus":5270,"luk":5271,"Ġkevy":5272,"sian":5273,"fa":5274,"ette":5275,"tala":5276,"ĠPol":5277,"Ol":5278,"yhÃ¤":5279,"Ġperustuu":5280,"Ġkrit":5281,"ssit":5282,"isuudesta":5283,"fer":5284,"iksen":5285,"istit":5286,"tapa":5287,"Ġotti":5288,"sissa":5289,"mÃ¤sti":5290,"ĠSc":5291,"kÃ¤stÃ¤Ã¤n":5292,"Ġtehokka":5293,"Ġerikois":5294,"Ġkotima":5295,"ulkais":5296,"mari":5297,"Ġilmoitus":5298,"Ġpsy":5299,"Ġtuul":5300,"ĠTeh":5301,"Ġviranoma":5302,"innalla":5303,"Ġvahing":5304,"irl":5305,"keskuksen":5306,"Ġilmes":5307,"LO":5308,"Ġkamer":5309,"Ġnautti":5310,"ĠitseÃ¤Ã¤n":5311,"Ġaikaisemmin":5312,"okseen":5313,"Ġkuiva":5314,"Kirja":5315,"Voit":5316,"ĠUrhe":5317,"Ġtoisin":5318,"telyÃ¤":5319,"ĠkÃ¤ytÃ¤nnÃ¶ssÃ¤":5320,"innot":5321,"eva":5322,"Ġverkossa":5323,"EU":5324,"ĠetukÃ¤":5325,"joneuv":5326,"mmalla":5327,"hen":5328,"Ġollenkaan":5329,"ĠmyÃ¶skÃ¤Ã¤n":5330,"asiassa":5331,"yhmÃ¤":5332,"Ġmiesten":5333,"ettavissa":5334,"Ġmolemmat":5335,"ĠNew":5336,"Ġtiiv":5337,"rita":5338,"LI":5339,"menta":5340,"ĠhyvÃ¤ksi":5341,"Ġmuisto":5342,"Ġleikka":5343,"Ġkeskusta":5344,"vuuden":5345,"oogle":5346,"ib":5347,"aste":5348,"ittain":5349,"Ġtehtiin":5350,"ĠOut":5351,"Ġjohtaa":5352,"niikan":5353,"Ġsiirr":5354,"Ġrunsaasti":5355,"ĠvetÃ¤":5356,"Lue":5357,"Ġluonto":5358,"Ġkissa":5359,"Ġmal":5360,"ĠVenÃ¤jÃ¤n":5361,"Ġmuille":5362,"Ġros":5363,"Ġilmais":5364,"Ġmiell":5365,"ĠnÃ¤ytti":5366,"ĠpÃ¤Ã¤n":5367,"ulan":5368,"Ġkirjoitti":5369,"Ġkaupan":5370,"Ġupe":5371,"Ġtahd":5372,"ĠLÃ¤hetÃ¤":5373,"mur":5374,"iluun":5375,"Ġlainan":5376,"Ġkoiran":5377,"ĠSex":5378,"ĠnÃ¤kem":5379,"Ġnoita":5380,"tilaa":5381,"ĠseinÃ¤":5382,"ĠPaa":5383,"teko":5384,"55":5385,"Ġjulkaista":5386,"Ġitselle":5387,"utkimuksen":5388,"Ġaiheesta":5389,"Ġtarjota":5390,"ĠtykkÃ¤Ã¤":5391,"Ġauk":5392,"04":5393,"Ġjotakin":5394,"deksi":5395,"Ġerikseen":5396,"Ġedus":5397,"llissa":5398,"Ġfiil":5399,"Ġriipp":5400,"Ġmuse":5401,"ĠHotel":5402,"pala":5403,"ĠĠĠĠĠĠĠĠĠĠĠĠĠĠĠĠ":5404,"Ġpalvelun":5405,"Ġydin":5406,"Ġ--":5407,"ĠEsit":5408,"Ġtorsta":5409,"Ġliiken":5410,"Ġsaatiin":5411,"ĠyÃ¶n":5412,"asu":5413,"Ġparissa":5414,"ĠMikÃ¤li":5415,"mansa":5416,"ĠVide":5417,"ĠJoka":5418,"ĠTunn":5419,"ĠVA":5420,"Ġtra":5421,"ĠheitÃ¤":5422,"Ġvaatim":5423,"ĠCa":5424,"ĠPerus":5425,"Ġmuihin":5426,"Ġsyksyn":5427,"Ġopiskel":5428,"Ġkiit":5429,"Ġad":5430,"fess":5431,"Ġsuj":5432,"Ġhoitaa":5433,"eskus":5434,"RA":5435,"Ġhakea":5436,"ĠkiinteistÃ¶":5437,"Ġilmeisesti":5438,"Ġhenk":5439,"tiset":5440,"jal":5441,"!!!":5442,"INTA":5443,"ÌĪ":5444,"elty":5445,"Ġim":5446,"ĠLA":5447,"tujen":5448,"Osa":5449,"istyÃ¶":5450,"mppa":5451,"yp":5452,"menetel":5453,"Ġirti":5454,"ĠpÃ¤Ã¤ttÃ¤Ã¤":5455,"Ġsamoin":5456,"Ġajate":5457,"ĻĤ":5458,"Ġyliopiston":5459,"kkaus":5460,"ĠkÃ¤Ã¤nn":5461,"Ġkunnon":5462,"ĠlÃ¤hettÃ¤minen":5463,"ĠkentÃ¤":5464,"empÃ¤Ã¤":5465,"eimm":5466,"08":5467,"pÃ¤Ã¤n":5468,"Ġblogin":5469,"Ġrakka":5470,"ska":5471,"ĠpidetÃ¤Ã¤n":5472,"ĠtyÃ¶ttÃ¶":5473,"ĠlÃ¤p":5474,"Ġreun":5475,"ukat":5476,"elevisi":5477,"run":5478,"ĠOhjel":5479,"merikka":5480,"Ġjatko":5481,"Ġlien":5482,"Ġseka":5483,"Ġjaks":5484,"ĠElo":5485,"Ġseikka":5486,"iat":5487,"Ġtarvitsee":5488,"peÃ¤":5489,"asino":5490,"Ġtoisaalta":5491,"ĠlÃ¤mmin":5492,"miselle":5493,"Ġmielen":5494,"Hei":5495,"Ġnaur":5496,"ĠsisÃ¤ltÃ¤":5497,"Ġsiiv":5498,"ĠOlin":5499,"jÃ¤l":5500,"He":5501,"ons":5502,"poo":5503,"ĠSaksa":5504,"oopp":5505,"Ġinf":5506,"Ġenglann":5507,"kkeiden":5508,"ĠpientÃ¤":5509,"Ġmenesty":5510,"lack":5511,"ĠHÃ¤meen":5512,"Ġolisivat":5513,"Ġloh":5514,"Ġristi":5515,"Ġhuomiota":5516,"Ġteini":5517,"isan":5518,"lassi":5519,"veÃ¤":5520,"ĠTavoit":5521,"ittiin":5522,"ĠisÃ¤n":5523,"masi":5524,"indow":5525,"ĠnÃ¤hnyt":5526,"tand":5527,"37":5528,"ĠvÃ¤Ã¤rin":5529,"annu":5530,"Ġren":5531,"Ġlum":5532,"ĠOta":5533,"eronta":5534,"ĠkeittiÃ¶":5535,"Ġkodin":5536,"ĠpÃ¶ytÃ¤":5537,"ĠpÃ¤Ã¤ss":5538,"Las":5539,"Ġtel":5540,"Ġrakas":5541,"Ġroo":5542,"ĠKÃ¤ytÃ¤":5543,"ĠFacebookiin":5544,"mahdollis":5545,"ĠAle":5546,"Ġhaluan":5547,"ĠetukÃ¤teen":5548,"Ġyritysten":5549,"ĠtyÃ¶ssÃ¤":5550,"vita":5551,"Ġluonnollis":5552,"ĠtekijÃ¤":5553,"ĠnÃ¤kee":5554,"ĠKal":5555,"Ġturha":5556,"Ġilmasto":5557,"anto":5558,"Pal":5559,"tieto":5560,"usiikki":5561,"Ġpuolet":5562,"34":5563,"Ġitselleen":5564,"Ġvaara":5565,"minaari":5566,"Ġohjaus":5567,"dr":5568,"koke":5569,"Ġtaistel":5570,"ĠKot":5571,"HL":5572,"ĠjÃ¤rjestÃ¤Ã¤":5573,"ĠSiksi":5574,"Ġuuteen":5575,"ĠsilmÃ¤":5576,"Ġpuolu":5577,"ĠMatka":5578,"Ġlopussa":5579,"ketti":5580,"ĠSanomat":5581,"wa":5582,"Ġosall":5583,"Ġpitkin":5584,"ong":5585,"lob":5586,"lÃ¤ssÃ¤":5587,"ĠTV":5588,"Ġtoimintaan":5589,"mun":5590,"Ġmatkan":5591,"unnut":5592,"Ġkuusi":5593,"Ġseuraavat":5594,"Ġluv":5595,"ĠMatti":5596,"Ġoikeuden":5597,"Kohteen":5598,"Ġtuosta":5599,"Ġkerralla":5600,"uusi":5601,"istele":5602,"Ġsyntyy":5603,"Lap":5604,"ĠSosi":5605,"Ġfin":5606,"Ġfyys":5607,"Ġmyyd":5608,"Ġjatka":5609,"Ġaiv":5610,"ĠSM":5611,"ĠMy":5612,"itetÃ¤Ã¤n":5613,"Ġpat":5614,"iassa":5615,"yksiin":5616,"ĠJuha":5617,"aatti":5618,"killÃ¤":5619,"taus":5620,"ppia":5621,"ĠBar":5622,"Ġulkopuol":5623,"Ġhintaan":5624,"ĠpitkÃ¤n":5625,"Ġjokaisen":5626,"ĠpelkÃ¤stÃ¤Ã¤n":5627,"ĠkehittÃ¤minen":5628,"yÃ¶nteki":5629,"Ġvoita":5630,"Ġdia":5631,"ĠÃ¤it":5632,"malli":5633,"ĠherÃ¤":5634,"ĠSta":5635,"Ġjust":5636,"Ġomassa":5637,"Ġsiemen":5638,"Ġoik":5639,"Ġantoi":5640,"ĠJumala":5641,"Ġkohteessa":5642,"UUS":5643,"ĠBa":5644,"Ġkiih":5645,"ettavaa":5646,"ĠterÃ¤":5647,"kunna":5648,"Ġkaip":5649,"Ġkumppan":5650,"ĠJaa":5651,"elit":5652,"Ġkunnia":5653,"Ġpaikan":5654,"Ġsaun":5655,"Ġ2006":5656,"suh":5657,"ranta":5658,"king":5659,"Ġ36":5660,"vella":5661,"kaal":5662,"ĠVenÃ¤jÃ¤":5663,"gg":5664,"Ġpalaa":5665,"Ġlainat":5666,"saan":5667,"39":5668,"Ġasukka":5669,"Ġtanssi":5670,"urhe":5671,"Ġratkaisu":5672,"valtu":5673,"Ġharrasta":5674,"Ġlauantaina":5675,"ohjelman":5676,"Ġperustu":5677,"ĠkÃ¤sin":5678,"Ġotetaan":5679,"stan":5680,"Ġasun":5681,"uluk":5682,"mÃ¤en":5683,"ere":5684,"xx":5685,"ĠhyvÃ¤ksyt":5686,"Ġinves":5687,"ĠTwitteriin":5688,"UNTA":5689,"Ġranta":5690,"ĠðŁĻĤ":5691,"Ġpaikalla":5692,"Ġneuvot":5693,"Ġihania":5694,"immÃ¤":5695,"pus":5696,"Ġviiden":5697,"llisyys":5698,"Ġsuuren":5699,"glan":5700,"estÃ¶":5701,"ĠkehittÃ¤Ã¤":5702,"issani":5703,"estys":5704,"ĠnÃ¤kÃ¶kulmasta":5705,"ĠJÃ¤r":5706,"ĠhÃ¤Ã¤":5707,"assi":5708,"ĠTun":5709,"Ġmiehet":5710,"Ġist":5711,"vainen":5712,"ĠniissÃ¤":5713,"tii":5714,"rus":5715,"ft":5716,"telija":5717,"rek":5718,"ĠkesÃ¤llÃ¤":5719,"its":5720,"ĠLasten":5721,"Ġaamulla":5722,"tioiden":5723,"Ġhinnat":5724,"Ġvuoteen":5725,"Ġkaune":5726,"38":5727,"Ġniille":5728,"Ġulkona":5729,"Ġkivaa":5730,"ISÃĦ":5731,"ĠtÃ¶r":5732,"Ġleh":5733,"lien":5734,"ostin":5735,"Ġvihdoin":5736,"ttoa":5737,"hdessÃ¤":5738,"Ġbio":5739,"oor":5740,"Ġperse":5741,"uttiin":5742,"ttuuri":5743,"Ġnostaa":5744,"lauta":5745,"ass":5746,"kÃ¤yn":5747,"HE":5748,"by":5749,"Ġvarma":5750,"Ġpienet":5751,"Ġmerkitys":5752,"vÃ¤ni":5753,"ĠOulun":5754,"Ġtasolla":5755,"kanen":5756,"Bloggaa":5757,"oivat":5758,"ALV":5759,"lass":5760,"Ġperiaa":5761,"Ġtarpeen":5762,"ĠnetistÃ¤":5763,"ukun":5764,"Ġmaailmassa":5765,"tilaan":5766,"Yle":5767,"UOM":5768,"Ġvarha":5769,"Ġansa":5770,"Ã¤isyys":5771,"ressi":5772,"veyden":5773,"paita":5774,"rr":5775,"ĠmissÃ¤Ã¤n":5776,"Re":5777,"06":5778,"own":5779,"istan":5780,"usar":5781,"ĠMikko":5782,"ysa":5783,"red":5784,"huolto":5785,"DEN":5786,"ĠkerÃ¤Ã¤":5787,"vonen":5788,"tyvÃ¤t":5789,"Ġsuklaa":5790,"hv":5791,"ĠTÃ¤tÃ¤":5792,"Ġnauttia":5793,"ull":5794,"Ġtaide":5795,"Ġmus":5796,"Ġmobi":5797,"vaihe":5798,"Ġreiss":5799,"aale":5800,"Ġjoukkoon":5801,"ĠErity":5802,"eria":5803,"kyn":5804,"Ġpoliti":5805,"ĠSiitÃ¤":5806,"Ġuudestaan":5807,"Ġkalli":5808,"Ham":5809,"vaku":5810,"Ġpyrit":5811,"mmaksi":5812,"mmÃ¤t":5813,"Ġchat":5814,"Ġlask":5815,"ĠTall":5816,"ĠVo":5817,"ĠviestintÃ¤":5818,"Ġvaar":5819,"Ġtoteuttaa":5820,"telemme":5821,"Ġkaiv":5822,"matÃ¶Ã¶":5823,"ĠOP":5824,"Ġhaas":5825,"2009":5826,"tiikka":5827,"ytynyt":5828,"essin":5829,"Ġkurssi":5830,"Ġlupaa":5831,"Ġ300":5832,"soit":5833,"ĠSÃ¤Ã¤":5834,"Har":5835,"ĠÃ":5836,"Teema":5837,"Ġkaikilla":5838,"innin":5839,"suunnitelma":5840,"Ġodote":5841,"HTE":5842,"av":5843,"Ġsyr":5844,"ĠPekka":5845,"Ġkiell":5846,"Ġosallistua":5847,"tanen":5848,"Ro":5849,"bet":5850,"vaal":5851,"Ġsukupuol":5852,"RI":5853,"Ġohe":5854,"Ġtehok":5855,"ystiedot":5856,"kaupan":5857,"atto":5858,"ĠKann":5859,"ĠAL":5860,"arit":5861,"Ġtiista":5862,"Ġtutkimuksen":5863,"KIR":5864,"ĠRes":5865,"ikot":5866,"koulun":5867,"idan":5868,"ĠPinterestiin":5869,"sarjan":5870,"ikana":5871,"datus":5872,"Ġheille":5873,"ĠYks":5874,"Ġvapaaehto":5875,"ĠymmÃ¤rr":5876,"Ġposti":5877,"Ġkoken":5878,"Ġhyvinvointi":5879,"ĠlÃ¤hettÃ¤Ã¤":5880,"llisesta":5881,"Ġpelin":5882,"tut":5883,"Ġkato":5884,"32":5885,"ĠvÃ¤liin":5886,"Kys":5887,"Mon":5888,"ĠPuol":5889,"Ġoppia":5890,"tik":5891,"ystÃ¤vÃ¤":5892,"75":5893,"ĠtÃ¤ysi":5894,"Ġkielen":5895,"fin":5896,"ĠKoh":5897,"ruun":5898,"tian":5899,"pide":5900,"Ġinsp":5901,"ppuna":5902,"tietoa":5903,"95":5904,"Ġlinja":5905,"tissa":5906,"MÃĦ":5907,"misia":5908,"kkien":5909,"Ġmaala":5910,"enut":5911,"misessÃ¤":5912,"ĠnÃ¤htÃ¤":5913,"upÃ¤":5914,"ĠTwitteriinJaa":5915,"ĠSamalla":5916,"Ġvallan":5917,"Ġkauden":5918,"Ne":5919,"ittaja":5920,"Ġopiskelija":5921,"anen":5922,"ĠsÃ¤hkÃ¶postitseBloggaa":5923,"vuosi":5924,"rilla":5925,"Helsin":5926,"Ġlauta":5927,"ĠMic":5928,"Ġ01":5929,"Ġmahdollisesti":5930,"Ġmuutamia":5931,"ĠMetsÃ¤":5932,"ĠToisaalta":5933,"ĠmÃ¤Ã¤rÃ¤Ã¤":5934,"okeri":5935,"roks":5936,"inut":5937,"ekki":5938,"Ġens":5939,"Ġtapahtuma":5940,"Ġtaite":5941,"ihte":5942,"Ġkuunn":5943,"ĠMieh":5944,"Ġsela":5945,"kastus":5946,"istoa":5947,"ĠFacebookiinJaa":5948,"Ġgra":5949,"Ġjauh":5950,"Ġhistori":5951,"Ġkaikissa":5952,"itoa":5953,"Ġvuosia":5954,"ĠvÃ¤lissÃ¤":5955,"VÃĦ":5956,"ĠTra":5957,"Ġetu":5958,"Ġlapsia":5959,"kkia":5960,"Ġfa":5961,"Ġkommentti":5962,"kii":5963,"Ġupea":5964,"Ġainut":5965,"Ġmaku":5966,"pÃ¤ivÃ¤nÃ¤":5967,"ĠUse":5968,"ĠsyksyllÃ¤":5969,"Ġjuttuja":5970,"haku":5971,"Ġhaluavat":5972,"anga":5973,"aset":5974,"Ġtiede":5975,"vÃ¤r":5976,"ĠVasta":5977,"Ġvaltu":5978,"ĠTalous":5979,"puolelle":5980,"Ġmesta":5981,"Ġvirka":5982,"Ġseurata":5983,"ĠMen":5984,"Ġlyhyt":5985,"Ġarviointi":5986,"ĠesittÃ¤Ã¤":5987,"Ġvaltio":5988,"opet":5989,"Ġauringon":5990,"eihin":5991,"uksesi":5992,"lleja":5993,"Ġlopputul":5994,"Ġpuhelim":5995,"Ġsopimus":5996,"Ġsopivat":5997,"koulutus":5998,"paikat":5999,"Ġtoimeen":6000,"Ġmyynn":6001,"yksestÃ¤":6002,"Ġajattelin":6003,"ĠAla":6004,"ĠjÃ¤rjestetÃ¤Ã¤n":6005,"ml":6006,"eta":6007,"Kos":6008,"esit":6009,"ĠmiestÃ¤":6010,"sasta":6011,"Ġmor":6012,"opimuksen":6013,"Ġpaino":6014,"Ġmukavaa":6015,"opas":6016,"pÃ¤ivÃ¤Ã¤":6017,"Ġitselleni":6018,"uda":6019,"Â©":6020,"ĠsÃ¤vy":6021,"Ġsellaisia":6022,"iminen":6023,"kone":6024,"Ġavio":6025,"Ġaikoina":6026,"ĠÃ¤idin":6027,"Ġomp":6028,"mmas":6029,"rans":6030,"issu":6031,"Ġheh":6032,"Ġkuvaus":6033,"ĠtÃ¤rkein":6034,"Ġoikeudet":6035,"Ġkannata":6036,"Tul":6037,"tÃ¤jÃ¤":6038,"Ġrei":6039,"ettÃ¶":6040,"Ġtaakse":6041,"ĠlÃ¤s":6042,"ĠUuden":6043,"itun":6044,"nes":6045,"oittaa":6046,"Ġsuihin":6047,"Ġsekin":6048,"Ġminuutin":6049,"ikasta":6050,"Ġitset":6051,"eÃ¤":6052,"aalinen":6053,"ELMA":6054,"our":6055,"ĠðŁĺ":6056,"RO":6057,"MÃ¤":6058,"Ġuni":6059,"Ġvoimme":6060,"vallan":6061,"Ġjoutuu":6062,"Ġsisustus":6063,"Ġtunnista":6064,"Ġpaa":6065,"ĠyhtenÃ¤":6066,"ksti":6067,"ĠtyÃ¶nanta":6068,"ester":6069,"Ġkiire":6070,"miehen":6071,"istoria":6072,"Ġtietojen":6073,"Ġkasvu":6074,"kissa":6075,"kuvan":6076,"Ġhoukut":6077,"Ġihanan":6078,"iede":6079,"tilo":6080,"Ġsota":6081,"cort":6082,"eltiin":6083,"ettaja":6084,"Ġkeskim":6085,"ohjeet":6086,"siiv":6087,"ĠMM":6088,"utumista":6089,"ĠSilloin":6090,"ongel":6091,"ĠES":6092,"Ġhuomenna":6093,"iriÃ¶":6094,"Ġvoida":6095,"ajat":6096,"Ġtunnel":6097,"dellinen":6098,"innoit":6099,"ĠKyl":6100,"kohte":6101,"jauh":6102,"ĠpÃ¤Ã¤ssyt":6103,"ĠTy":6104,"istot":6105,"Katso":6106,"Ġkelta":6107,"Ġjousta":6108,"ĠtodennÃ¤kÃ¶isesti":6109,"oimisto":6110,"Ġkiinnostaa":6111,"Mu":6112,"opi":6113,"Ġpyyd":6114,"Ġjot":6115,"ISTA":6116,"ustaja":6117,"ĠTuk":6118,"ole":6119,"hojen":6120,"llisessa":6121,"Ġseuran":6122,"ĠylimÃ¤Ã¤rÃ¤":6123,"Ġliitto":6124,"ĠKesÃ¤":6125,"Ġmonim":6126,"Ġvaraa":6127,"Sin":6128,"kurssi":6129,"Ġkirjaa":6130,"kirjat":6131,"Ġkantaa":6132,"ĠLop":6133,"Ġpystyy":6134,"ĠVuoden":6135,"Ġaskel":6136,"Ġalta":6137,"ĠtekemistÃ¤":6138,"Ġtoimiv":6139,"pyÃ¶rÃ¤":6140,"Ġihon":6141,"Ġmuodossa":6142,"kelÃ¤":6143,"ĠkÃ¤ytÃ¶stÃ¤":6144,"Ġpoistaa":6145,"ĠTÃ¤nÃ¤Ã¤n":6146,"port":6147,"ĠTan":6148,"ĠKaik":6149,"kol":6150,"ĠihmistÃ¤":6151,"ĠmÃ¤Ã¤rÃ¤n":6152,"ĠAh":6153,"ittÃ¤vÃ¤":6154,"talouden":6155,"Ġseuraavan":6156,"kuvaa":6157,"Ã¤ltÃ¶":6158,"ĠHD":6159,"ĠevÃ¤steitÃ¤":6160,"Ġkulta":6161,"Ġpul":6162,"TT":6163,"vapa":6164,"idat":6165,"Ġparhaiten":6166,"tomuus":6167,"kille":6168,"ĠSuu":6169,"Ġmuuttu":6170,"Ġakti":6171,"Ġseksiseuraa":6172,"Ã¼":6173,"kl":6174,"Ġtoisella":6175,"istelmÃ¤":6176,"ppeen":6177,"Kol":6178,"ĠjÃ¤tti":6179,"ksessÃ¤":6180,"YKS":6181,"ĠII":6182,"kumppan":6183,"seen":6184,"talon":6185,"ĠjÃ¤rke":6186,"isempi":6187,"Ġles":6188,"astu":6189,"pelit":6190,"Ġvahvista":6191,"ĠKyse":6192,"ĠpÃ¤Ã¤hÃ¤n":6193,"isiko":6194,"ĠtyytyvÃ¤inen":6195,"yyteen":6196,"07":6197,"Ġtuotteen":6198,"ĠliittyviÃ¤":6199,"ĠelÃ¤mÃ¤ssÃ¤":6200,"isiksi":6201,"Ġsyntyi":6202,"puhel":6203,"Ġarm":6204,"ĠnÃ¤y":6205,"siir":6206,"harjoit":6207,"ĠsÃ¤Ã¤ntÃ¶":6208,"yste":6209,"Ġpuke":6210,"Ġotsi":6211,"Ġanti":6212,"ĠON":6213,"telusta":6214,"ĠPorn":6215,"verkko":6216,"ban":6217,"Ġjohtaja":6218,"Ġluoda":6219,"ĠInternet":6220,"elia":6221,"ĠPÃ¶":6222,"LÃĦ":6223,"lap":6224,"ĠSivu":6225,"Ġseksuaal":6226,"mall":6227,"Ġsellaisen":6228,"Ġurheil":6229,"Ġtarkoituksena":6230,"iem":6231,"Ġmaailmaa":6232,"Ġsuojaa":6233,"SO":6234,"ĠnÃ¤yttÃ¶":6235,"Ġkohtuu":6236,"ismi":6237,"sty":6238,"villÃ¤":6239,"ilijat":6240,"ekon":6241,"MINEN":6242,"Ġvanhan":6243,"Ġkuljet":6244,"Ġvaatteet":6245,"Ġvuosikymmen":6246,"Ġmoder":6247,"ĠvÃ¤s":6248,"ĠvÃ¤littÃ¶":6249,"Ġjoukkue":6250,"Ġtaitaa":6251,"Ġnouse":6252,"Ġennakko":6253,"Ġillalla":6254,"ĠjÃ¤lki":6255,"ordin":6256,"Ġilmaista":6257,"ith":6258,"Ġalkanut":6259,"ksy":6260,"Ġerityis":6261,"Ġlainkaan":6262,"ĠkevÃ¤Ã¤llÃ¤":6263,"ĠAb":6264,"Ġkulttuur":6265,"Ġedellis":6266,"Ġ00":6267,"ĠYhdist":6268,"LisÃ¤Ã¤":6269,"essÃ¤ni":6270,"Ġvoisin":6271,"Ġkokous":6272,"tejÃ¤":6273,"Ġasema":6274,"ukseni":6275,"Ġlopu":6276,"Ġpud":6277,"Ġkoulutuksen":6278,"ulo":6279,"km":6280,"Ġasiantuntija":6281,"ĠpyÃ¶r":6282,"ĠTimo":6283,"matÃ¶Ã¶ri":6284,"Ġsaavutta":6285,"ĠSuosit":6286,"Ġrinta":6287,"erÃ¤":6288,"ark":6289,"Ġrauta":6290,"ĠtÃ¤ydellinen":6291,"Ġtapaan":6292,"telyyn":6293,"Ġmatkaa":6294,"pot":6295,"bon":6296,"Ġsaaneet":6297,"ĠTOIM":6298,"ction":6299,"Ġmuuttuu":6300,"Ġkasvan":6301,"48":6302,"tisiv":6303,"Ġsuuria":6304,"ĠVapaa":6305,"Ġlainaa":6306,"ppiin":6307,"ettelo":6308,"laina":6309,"ĠEur":6310,"Ġajatuksia":6311,"vast":6312,"jattu":6313,"Ġasiaan":6314,"ikas":6315,"Ġhen":6316,"ĠhyÃ¶dy":6317,"Ġpaket":6318,"laitos":6319,"Ġesimerk":6320,"ĠThai":6321,"ĠVuodatus":6322,"Ġviimeinen":6323,"Ġmahdollistaa":6324,"gar":6325,"Ġperjantaina":6326,"ĠMika":6327,"Ġvaihtaa":6328,"Ġtuore":6329,"Ġkulke":6330,"46":6331,"Vaikka":6332,"ĠitsenÃ¤":6333,"ĠPala":6334,"Ġhetki":6335,"Ġpuolen":6336,"Ġrav":6337,"alaiset":6338,"atti":6339,"ĠnimissÃ¤":6340,"Ġjuoks":6341,"kei":6342,"ĠEt":6343,"Ġhotelli":6344,"Ġsuunniteltu":6345,"Ġvauva":6346,"tuivat":6347,"ĠLI":6348,"ĠÃ¤Ã¤ri":6349,"Ġenergian":6350,"Ġtulevaisuudessa":6351,"Ġsivuston":6352,"ĠjÃ¤rjestÃ¶":6353,"urg":6354,"ffi":6355,"Ġtoimisto":6356,"tiivinen":6357,"Ġtallen":6358,"ontaa":6359,"ĠAir":6360,"Ġohjeet":6361,"ĠSuunnit":6362,"Ġ2005":6363,"Ġkunni":6364,"Ġtup":6365,"ilit":6366,"ĠelÃ¤mÃ¤stÃ¤":6367,"Ġrakenne":6368,"Ġmuutoksia":6369,"XX":6370,"Ġhallinto":6371,"tty":6372,"ĠkengÃ¤t":6373,"ĠmitenkÃ¤Ã¤n":6374,"Ġkunhan":6375,"Ġvall":6376,"vyyttÃ¤":6377,"Ġkera":6378,"osan":6379,"Ġsoh":6380,"Ġhauska":6381,"Ġmuodosta":6382,"paper":6383,"Ġuusien":6384,"mattoman":6385,"Ġvala":6386,"Ġtuskin":6387,"Ġhauskaa":6388,"Ġlopuksi":6389,"ottiin":6390,"uoh":6391,"ape":6392,"ĠUSA":6393,"Ġsuunta":6394,"Ġkilpailu":6395,"ĠpÃ¤ivittÃ¤":6396,"Ġhengen":6397,"Ġsaap":6398,"unnot":6399,"ENN":6400,"idÃ¤":6401,"Ġpohd":6402,"eltu":6403,"ĠyhteistyÃ¶ssÃ¤":6404,"Ġsaivat":6405,"ĠhyvÃ¤ltÃ¤":6406,"fil":6407,"Ġammati":6408,"Ġseuraava":6409,"ĠOlemme":6410,"ilijan":6411,"ĠkylmÃ¤":6412,"Ġhor":6413,"ivel":6414,"MeillÃ¤":6415,"ytyÃ¤":6416,"ĠTosin":6417,"ohjaa":6418,"HÃ¤":6419,"vuoden":6420,"Ġellei":6421,"Ġalkuun":6422,"kik":6423,"ya":6424,"Ġalun":6425,"asen":6426,"eltaan":6427,"uori":6428,"Ġviikossa":6429,"ĠEspo":6430,"Ġbud":6431,"Ġkumma":6432,"usu":6433,"tali":6434,"ĠKÃĦ":6435,"ĠÃ¤Ã¤r":6436,"bl":6437,"stat":6438,"Ġpin":6439,"hoidon":6440,"Ġpuhua":6441,"eensa":6442,"Ġremon":6443,"levy":6444,"Ġser":6445,"llio":6446,"vuor":6447,"ĠLog":6448,"ytet":6449,"oimi":6450,"Keskus":6451,"Ġkuvi":6452,"Ġhid":6453,"ikÃ¤s":6454,"ĠkÃ¤ytÃ¤nnÃ¶n":6455,"arvi":6456,"ĠVesi":6457,"Ġpyst":6458,"OHJ":6459,"ĠsyÃ¶dÃ¤":6460,"Yksi":6461,"Et":6462,"Ġlapse":6463,"iltaan":6464,"ĠhÃ¤ir":6465,"tajan":6466,"mmissa":6467,"itt":6468,"Ġoltava":6469,"ettavaksi":6470,"ĠVain":6471,"Ġyms":6472,"ĠmillÃ¤":6473,"UUNN":6474,"Ġvaikeaa":6475,"ĠPari":6476,"vikkeet":6477,"Ġtavoitteet":6478,"Ġraaka":6479,"As":6480,"ĠJar":6481,"ĠAjat":6482,"ĠitsestÃ¤Ã¤n":6483,"aken":6484,"iman":6485,"oimaan":6486,"ĠToinen":6487,"ĠMA":6488,"aine":6489,"ĠToivottavasti":6490,"Ġiha":6491,"Ġtamper":6492,"ratkais":6493,"Ġjuur":6494,"ĠmillÃ¤Ã¤n":6495,"Ġasuin":6496,"Ġtoiminut":6497,"ĠJukka":6498,"teistÃ¶":6499,"rea":6500,"pÃ¤ivÃ¤t":6501,"Ġtarkka":6502,"mmille":6503,"Ġonnistunut":6504,"ĠtykkÃ¤Ã¤n":6505,"terin":6506,"url":6507,"ĠJan":6508,"Ġetsii":6509,"Ġilmen":6510,"ĠSiellÃ¤":6511,"Ġherku":6512,"Ġnais":6513,"mor":6514,"Ġnousee":6515,"uudella":6516,"cc":6517,"Ġtutustua":6518,"Ġtuohon":6519,"tilin":6520,"okuu":6521,"Ġpysyy":6522,"main":6523,"Ġhomma":6524,"kky":6525,"oksesta":6526,"Ġmuisti":6527,"Ġyritykset":6528,"ltaan":6529,"ksit":6530,"Ġsuojel":6531,"EnsimmÃ¤":6532,"mys":6533,"ĠpÃ¤ivÃ¤ssÃ¤":6534,"Ġsamassa":6535,"ĠToiminta":6536,"Ġtv":6537,"Ġkuvassa":6538,"aatio":6539,"Ġyr":6540,"ĠNeuv":6541,"Ġ150":6542,"ikkojen":6543,"yksikÃ¶":6544,"ĠVUO":6545,"Ġpaikallis":6546,"aattori":6547,"Ġtoimiva":6548,"ĠerÃ¤Ã¤n":6549,"ĠVuonna":6550,"Ġmateriaali":6551,"Ġdoku":6552,"kstit":6553,"Ġpip":6554,"Ġsanon":6555,"toista":6556,"vÃ¤nsÃ¤":6557,"ĠEnnen":6558,"Ġkiir":6559,"ElÃ¤":6560,"ĠtÃ¶issÃ¤":6561,"Ġvaim":6562,"laitte":6563,"ksinkertainen":6564,"Ġalo":6565,"kattu":6566,"koulut":6567,"Ġlaki":6568,"Ġselke":6569,"ĠMal":6570,"lisÃ¤":6571,"Ġ197":6572,"Ġ08":6573,"rom":6574,"Ġvaimo":6575,"Ġosoittaa":6576,"Ġidea":6577,"tegori":6578,"Ġkuvien":6579,"ĠHen":6580,"vun":6581,"Lu":6582,"Ġhallit":6583,"Ġep":6584,"alueella":6585,"llise":6586,"ĠmerkittÃ¤vÃ¤":6587,"Ġvihre":6588,"ĠPÃ¤ivÃ¤":6589,"Ġvero":6590,"ĠSte":6591,"hanke":6592,"fr":6593,"Ġtyl":6594,"telemÃ¤Ã¤n":6595,"Ġtarkemmin":6596,"Ġsyntynyt":6597,"ĠSÃ¤":6598,"Ġrohke":6599,"LÃ¤":6600,"ĠKen":6601,"Ġmahdollisuuksia":6602,"alto":6603,"ĠUS":6604,"dc":6605,"Ġhahm":6606,"ĠMaan":6607,"ĠGoogle":6608,"Ġkorvaa":6609,"Ġomien":6610,"keli":6611,"hdeksan":6612,"ĠseitsemÃ¤n":6613,"Ġoir":6614,"UUNNIT":6615,"ĠpÃ¤ivittÃ¤in":6616,"Ġjolle":6617,"elÃ¤mÃ¤n":6618,"Ġpillua":6619,"ettavan":6620,"Ġmuualla":6621,"Ġteko":6622,"Ġaamu":6623,"Ġolosuh":6624,"Ġharrast":6625,"Pro":6626,"ennyt":6627,"atur":6628,"ĠFinn":6629,"Ġpiha":6630,"Ġtapahtui":6631,"telyssÃ¤":6632,"Ġmaailma":6633,"ved":6634,"ted":6635,"isteen":6636,"yhdistys":6637,"mÃ¤lÃ¤":6638,"Ġaskar":6639,"47":6640,"verta":6641,"ettaa":6642,"ĠykkÃ¶":6643,"Ġnai":6644,"EH":6645,"utustu":6646,"teÃ¤":6647,"ĠÃĦlÃ¤":6648,"ĠTila":6649,"ĠTÃ¤hÃ¤n":6650,"Ġkirkon":6651,"ĠIlta":6652,"Ġkirjasto":6653,"ĠâĻ¥":6654,"tikko":6655,"Ġoikean":6656,"Ġtulevaisuuden":6657,"ikul":6658,"Ġotettu":6659,"Ġjoo":6660,"ĠjÃ¤Ã¤dÃ¤":6661,"inin":6662,"Ġpaikalle":6663,"TY":6664,"Ġtulle":6665,"Ġmakuu":6666,"kasin":6667,"ĠMuista":6668,"Ker":6669,"enee":6670,"Ġtilasto":6671,"Ġsinut":6672,"Ġvoim":6673,"olia":6674,"essasi":6675,"IP":6676,"ĠBer":6677,"sivusto":6678,"Ġlasta":6679,"ĠyleisÃ¶":6680,"Ġsopivan":6681,"ĠmiettiÃ¤":6682,"ustoim":6683,"viksi":6684,"Hamster":6685,"ppal":6686,"unnassa":6687,"mÃ¤nÃ¤":6688,"Koko":6689,"Ġilmoitta":6690,"Ġmassage":6691,"Ġmenossa":6692,"Ġmarkkina":6693,"ĠMas":6694,"ĠJÃ¤Ã¤":6695,"cs":6696,"Ġnaisia":6697,"ĠAR":6698,"ĠTÃ¤lla":6699,"Ã¤Ã¤rin":6700,"Ġvied":6701,"ĠToki":6702,"Ġnimenomaan":6703,"ĠKaun":6704,"ĠWindow":6705,"Ġsuhteessa":6706,"alvelu":6707,"joilla":6708,"tivat":6709,"Ġajaa":6710,"ĠNaiset":6711,"ĠTarjo":6712,"NÃ¤in":6713,"Ġhaita":6714,"illut":6715,"Ġmikro":6716,"eellisen":6717,"atu":6718,"Vir":6719,"velle":6720,"ĠlÃ¤snÃ¤":6721,"ĠvÃ¤hentÃ¤Ã¤":6722,"Ġrakentaa":6723,"maail":6724,"can":6725,"Ġdating":6726,"ze":6727,"Ġmaali":6728,"Ġmerkki":6729,"ĠYmp":6730,"ĠApp":6731,"Ġsoker":6732,"Ġsuomalaiset":6733,"ĠKiv":6734,"ikaan":6735,"Ġjonne":6736,"Ġmiljar":6737,"Ġosana":6738,"Ġsunnuntaina":6739,"ĠIr":6740,"ĠlainsÃ¤Ã¤d":6741,"ĠvÃ¤rit":6742,"stit":6743,"del":6744,"ĠetelÃ¤":6745,"ikenteen":6746,"Ġvaikuttavat":6747,"ĠlÃ¶ytyvÃ¤t":6748,"Saa":6749,"elut":6750,"df":6751,"rosta":6752,"Ġpik":6753,"Ġkatto":6754,"ĠtÃ¶ihin":6755,"how":6756,"Ġtalvi":6757,"ĠSir":6758,"Ġtyyli":6759,"uvassa":6760,"apor":6761,"ube":6762,"Toim":6763,"Ġtelevisi":6764,"Ġviimeksi":6765,"âĢĭ":6766,"Ġlasi":6767,"ĠTurku":6768,"uotto":6769,"Ġpot":6770,"Ġtapahtunut":6771,"Ġalaston":6772,"ittÃ¤mÃ¤Ã¤n":6773,"TÃ¤llÃ¤":6774,"Ġlai":6775,"Ġperiaatte":6776,"Ġamp":6777,"esim":6778,"ipal":6779,"uksensa":6780,"llistu":6781,"ĠmerkitystÃ¤":6782,"Ġuima":6783,"Ġall":6784,"ĠlÃ¤hde":6785,"Ġpohjois":6786,"Ġkatsomaan":6787,"Ġtoisia":6788,"ĠitÃ¤":6789,"Ġhaki":6790,"Ġpaikkaan":6791,"alog":6792,"isel":6793,"UK":6794,"ĠkestÃ¤vÃ¤":6795,"ĠlisÃ¤Ã¤nty":6796,"Ġkirpp":6797,"Ġlenn":6798,"ĠselvittÃ¤Ã¤":6799,"Ġalkavat":6800,"isina":6801,"Ġsaar":6802,"ĠmyÃ¶nn":6803,"ĠsentÃ¤Ã¤n":6804,"Ġkuuma":6805,"Ġkoskevat":6806,"Ġperso":6807,"Ġsattu":6808,"Ġ@":6809,"isissÃ¤":6810,"muoto":6811,"yli":6812,"fessori":6813,"ĠÃ¤Ã¤ni":6814,"Ġtuttu":6815,"Pohjan":6816,"Ġonnistuu":6817,"Ġvalokuva":6818,"ittava":6819,"Ġtuloksia":6820,"ikuussa":6821,"Ġhih":6822,"muse":6823,"itoja":6824,"ĠGe":6825,"Ġlienee":6826,"Miksi":6827,"erit":6828,"Ġtart":6829,"ĠKari":6830,"Ġ400":6831,"Ġprojekti":6832,"HA":6833,"Kul":6834,"Ġat":6835,"ĠEikÃ¤":6836,"ĠSp":6837,"ĠÃĸ":6838,"ĠTuu":6839,"ĠestÃ¤":6840,"ĠSain":6841,"kentÃ¤":6842,"ĠtÃ¤lle":6843,"Ġsaksa":6844,"Ġalkoh":6845,"Ġtunnelma":6846,"ttaa":6847,"Ġerot":6848,"Ġkansallis":6849,"Ġ09":6850,"ihd":6851,"Ġpaha":6852,"heen":6853,"ĠxHamster":6854,"ĠhÃ¤nellÃ¤":6855,"maalla":6856,"Ġolevia":6857,"Ġtuoda":6858,"ĠRuoka":6859,"Ġmake":6860,"Ġkohden":6861,"Oli":6862,"isillÃ¤":6863,"palvelun":6864,"ĠjÃ¤ljellÃ¤":6865,"Ġ38":6866,"tioita":6867,"ting":6868,"estÃ¤ni":6869,"llÃ¤ni":6870,"Ġharvina":6871,"ĠestÃ¤Ã¤":6872,"49":6873,"matonta":6874,"laki":6875,"ĠKuinka":6876,"ystee":6877,"Ġolevien":6878,"sanat":6879,"JÃ¤":6880,"Ġkg":6881,"ĠMuu":6882,"Ġtyypi":6883,"iske":6884,"ĠtÃ¤yttÃ¤Ã¤":6885,"ĠpÃ¤Ã¤set":6886,"ĠMun":6887,"ĠLon":6888,"uhan":6889,"ĠkierrÃ¤t":6890,"Ġtapahtumat":6891,"ukea":6892,"Ġulkopuolella":6893,"Ġhankkia":6894,"rid":6895,"viikkona":6896,"rah":6897,"Ġtoteaa":6898,"Ġmyyn":6899,"Ġtavan":6900,"DF":6901,"Ġhiil":6902,"Ġtarjous":6903,"ĠTervetuloa":6904,"Ġennak":6905,"Ġvoimaan":6906,"johtajan":6907,"ĠhenkilÃ¶Ã¤":6908,"Ġkaipaa":6909,"alaisen":6910,"ihde":6911,"Ġvilla":6912,"Ġpaikassa":6913,"ĠÃ¤rs":6914,"tasa":6915,"Ġpohjalta":6916,"ĠikÃ¤Ã¤n":6917,"bs":6918,"Ġkosket":6919,"Helsingin":6920,"Ġdigitaal":6921,"oksista":6922,"Ġkakku":6923,"Ġmyr":6924,"Ġkortti":6925,"Ġvoimakka":6926,"ĠJot":6927,"Ġvauhd":6928,"ji":6929,"Ġhaku":6930,"Ġhaittaa":6931,"ĠHu":6932,"mentin":6933,"Ġtarjoavat":6934,"neitÃ¤":6935,"Ġkysel":6936,"Suomessa":6937,"Ġtahto":6938,"teistÃ¤":6939,"ĠpÃ¤Ã¤tti":6940,"ĠvieressÃ¤":6941,"ĠyhteistyÃ¶tÃ¤":6942,"Ġvei":6943,"urn":6944,"Ġtoivottavasti":6945,"onna":6946,"maatti":6947,"kustann":6948,"ĠMinulla":6949,"Ġlattia":6950,"Ġsuurta":6951,"ikit":6952,"eistÃ¤":6953,"omo":6954,"kÃ¤t":6955,"Ġolenna":6956,"Ġvaihd":6957,"Ġpaks":6958,"Hall":6959,"atkais":6960,"Ġnar":6961,"kkiteh":6962,"ĠriitÃ¤":6963,"ah":6964,"urak":6965,"Ġvastusta":6966,"Ġkorjaa":6967,"Ġmoti":6968,"Ġtalouden":6969,"tisivu":6970,"Ġkalta":6971,"Ġnuore":6972,"Ġkoto":6973,"2008":6974,"Ġvuor":6975,"ĠkesÃ¤nÃ¤":6976,"jeet":6977,"Ġyhteiskunta":6978,"ĠJal":6979,"Kiin":6980,"ĠpÃ¤Ã¤sy":6981,"aseen":6982,"jut":6983,"Ġedellisen":6984,"ivaa":6985,"utuneet":6986,"ointiin":6987,"tonen":6988,"bjek":6989,"Ġrikko":6990,"ĠedellyttÃ¤Ã¤":6991,"Tied":6992,"Ġsukupol":6993,"ĠniillÃ¤":6994,"ĠkylÃ¤":6995,"yttely":6996,"uvuo":6997,"Ġ32":6998,"Ġsairaa":6999,"Ġmahdollisuuden":7000,"keski":7001,"hallitus":7002,"puoli":7003,"JO":7004,"emmÃ¤":7005,"ĠtÃ¤llÃ¶in":7006,"Ġsiirto":7007,"kuk":7008,"Ġtuoks":7009,"ĠkevÃ¤Ã¤n":7010,"Ġ196":7011,"Ġliittyen":7012,"udella":7013,"Ġkohde":7014,"ĠmennÃ¤Ã¤n":7015,"lann":7016,"Ġviis":7017,"yksille":7018,"ĠselvÃ¤Ã¤":7019,"oidaan":7020,"Ġseis":7021,"ĠPER":7022,"Pien":7023,"ĠeivÃ¤tkÃ¤":7024,"Ġviimeisen":7025,"eissa":7026,"anin":7027,"pakka":7028,"Ġfar":7029,"Ġkirjoitus":7030,"Ġosoitteessa":7031,"VO":7032,"Ġpop":7033,"Ġves":7034,"Ġhuoman":7035,"sikka":7036,"Ġsuhtee":7037,"ĠtehtyÃ¤":7038,"Ġkala":7039,"Ġhiukset":7040,"ĠSiis":7041,"Ġlaadukka":7042,"ĠSA":7043,"Ã¤nny":7044,"isteli":7045,"vinen":7046,"ĠRuotsin":7047,"ĠkÃ¤sittely":7048,"Ġasetta":7049,"ihi":7050,"tehtÃ¤":7051,"Ġkell":7052,"Ġlaitos":7053,"ĠhyÃ¶dyntÃ¤Ã¤":7054,"Ġhalunnut":7055,"Ġilmaiset":7056,"urssi":7057,"NA":7058,"Ġhalusi":7059,"sille":7060,"Ġpituus":7061,"Ġkuiv":7062,"veden":7063,"ble":7064,"miina":7065,"ĠlÃ¤nsi":7066,"istettÃ¤":7067,"kann":7068,"ĠkeskenÃ¤Ã¤n":7069,"rille":7070,"anal":7071,"eks":7072,"kson":7073,"ĠSISÃĦ":7074,"Ġvoitto":7075,"innalle":7076,"ĠnÃ¤issÃ¤":7077,"Ã¤Ã¤kÃ¤":7078,"osat":7079,"poja":7080,"ild":7081,"Ġblogia":7082,"ritann":7083,"lliseksi":7084,"Ota":7085,"ĠyhdistÃ¤":7086,"42":7087,"Ã¤kÃ¶":7088,"Ġehtinyt":7089,"Ġaluksi":7090,"ĠlÃ¶ytÃ¤nyt":7091,"Ġvarasto":7092,"ĠSeinÃ¤":7093,"vala":7094,"ĠhenkilÃ¶n":7095,"41":7096,"low":7097,"uttavat":7098,"ĠympÃ¤ristÃ¶n":7099,"teilla":7100,"Ġpelit":7101,"Ġdolla":7102,"istusta":7103,"ukasta":7104,"mmasta":7105,"Ġallekirjoit":7106,"Euroop":7107,"ksiin":7108,"Po":7109,"vot":7110,"vaara":7111,"ĠeikÃ¶":7112,"Ġjoud":7113,"Ġrea":7114,"58":7115,"Ġkappale":7116,"ĠVÃ¤l":7117,"Ġloun":7118,"load":7119,"Ġhyl":7120,"ĠKunta":7121,"ĠedistÃ¤Ã¤":7122,"Ole":7123,"ĠpÃ¤Ã¤tin":7124,"ellut":7125,"Ġpuutarha":7126,"Ġois":7127,"ĠAam":7128,"hinta":7129,"ĠKilpa":7130,"yksikkÃ¶":7131,"HÃ¤n":7132,"Ġollessa":7133,"Ġnaapur":7134,"Lataa":7135,"Ġtos":7136,"ĠEspan":7137,"ĠLait":7138,"Ġhotell":7139,"mentaja":7140,"ĠkÃ¤vin":7141,"istosta":7142,"Ġtoisten":7143,"56":7144,"aut":7145,"MyÃ¶s":7146,"ĠyhdistÃ¤Ã¤":7147,"bin":7148,"Ġosaamista":7149,"ĠLeh":7150,"juttu":7151,"Ġst":7152,"Ġtekni":7153,"Ġsaavut":7154,"ĠhyÃ¶tyÃ¤":7155,"Ġsuomalaisten":7156,"Ġkoskee":7157,"Ġnap":7158,"ppy":7159,"kuus":7160,"suomala":7161,"atteri":7162,"yÃ¶rÃ¤":7163,"Ġsuurempi":7164,"kate":7165,"Ġpoissa":7166,"Ġmeh":7167,"vaatim":7168,"EK":7169,"Ġtalven":7170,"ĠmitkÃ¤":7171,"Suomala":7172,"maatio":7173,"Ġmuutakin":7174,"kise":7175,"kokous":7176,"ĠriittÃ¤vÃ¤n":7177,"Ġrooli":7178,"ties":7179,"Ġkad":7180,"Ġkeskustelua":7181,"ĠlÃ¤hi":7182,"ĠjÃ¤rjestelmÃ¤":7183,"kakku":7184,"Ġvahva":7185,"paket":7186,"ĠyllÃ¤pitÃ¤":7187,"pon":7188,"Ġnuoret":7189,"Ġtoistaiseksi":7190,"elun":7191,"Ġosoite":7192,"ISET":7193,"meksi":7194,"ASTA":7195,"ĠnÃ¤illÃ¤":7196,"aatteet":7197,"Ġlukenut":7198,"olu":7199,"Ġvaki":7200,"Ġilmaisia":7201,"Ġtunti":7202,"tyksen":7203,"Ġ2004":7204,"stin":7205,"Ġsairaan":7206,"Ġtervet":7207,"mmassa":7208,"lia":7209,"ĠlyÃ¶":7210,"Kar":7211,"kyt":7212,"ĠâĢ¦":7213,"Ġversi":7214,"mminkin":7215,"Ġtoimitusjohtaja":7216,"oksessa":7217,"Ġajatella":7218,"Ġanalys":7219,"Ġosaksi":7220,"Ġvuosittain":7221,"ĠÃ¶ljy":7222,"gu":7223,"Ġvaalean":7224,"Ġpoliisi":7225,"ĠyhtiÃ¶n":7226,"anskan":7227,"ĠSaar":7228,"isivÃ¤t":7229,"ĠymmÃ¤rrÃ¤":7230,"lÃ¤mm":7231,"Ġvien":7232,"ĠEUR":7233,"Ã¤rÃ¤":7234,"Ġlive":7235,"Ġhankinta":7236,"any":7237,"Ġny":7238,"Ġollu":7239,"Ã¶llÃ¤":7240,"Ġvalmistettu":7241,"ĠiP":7242,"alist":7243,"ĠJoskus":7244,"Ġruus":7245,"Ġkod":7246,"tavan":7247,"Ġsynnyt":7248,"ALVEL":7249,"Ġmerkin":7250,"oth":7251,"Ġjohonkin":7252,"alueet":7253,"vitys":7254,"Ġhymy":7255,"OM":7256,"ymys":7257,"Ġkauniita":7258,"Ġvaate":7259,"koista":7260,"Ġkopi":7261,"kkiin":7262,"Ġyleisesti":7263,"omin":7264,"Ġleiv":7265,"ĠTI":7266,"lÃ¤mpÃ¶":7267,"Ġhalut":7268,"Ġkeksi":7269,"oikeuden":7270,"Ġorgas":7271,"Ġjotkut":7272,"Ġopinto":7273,"yysi":7274,"Ġlemp":7275,"ekan":7276,"kti":7277,"uc":7278,"ĠMeidÃ¤n":7279,"Ġlit":7280,"Ġkuluttua":7281,"fiil":7282,"Ġkaikesta":7283,"uusa":7284,"lehden":7285,"ĠDig":7286,"Ġteet":7287,"59":7288,"ministeriÃ¶":7289,"Ġmuutokset":7290,"oski":7291,"Ġravintola":7292,"ag":7293,"ĠensimmÃ¤isenÃ¤":7294,"ĠyhdellÃ¤":7295,"Ġviikonloppuna":7296,"Ġonnistun":7297,"Ġ06":7298,"uska":7299,"tune":7300,"mpiin":7301,"KÃĦ":7302,"Ġannetaan":7303,"ĠToimi":7304,"Ġelintar":7305,"Ġvastata":7306,"alaista":7307,"Ġmerkitty":7308,"ĠMik":7309,"ĠSip":7310,"ĠMuka":7311,"Ġhallinta":7312,"meti":7313,"Ġhttps":7314,"Oike":7315,"Ġsanan":7316,"Ġsyksy":7317,"ĠteillÃ¤":7318,"ĠSar":7319,"?\"":7320,"idon":7321,"Ġjun":7322,"ĠnÃ¤ihin":7323,"mpana":7324,"ennuksen":7325,"Ġhuolta":7326,"ikkaus":7327,"ph":7328,"ĠvÃ¤it":7329,"Ġautomaattisesti":7330,"vÃ¤ksi":7331,"yhtiÃ¶n":7332,"Ġtoiselle":7333,"ĠVantaa":7334,"ĠOnn":7335,"Ġpull":7336,"Ġtarve":7337,"ĠSuper":7338,"ĠselkeÃ¤sti":7339,"linna":7340,"ĠpÃ¤Ã¤kaupun":7341,"ĠYhti":7342,"itenkin":7343,"utumis":7344,"syÃ¶":7345,"ĠAlu":7346,"Ġkulkee":7347,"isee":7348,"ĠRun":7349,"199":7350,"ĠnÃ¤et":7351,"utumisen":7352,"ĠInn":7353,"Ġbussi":7354,"Ġvastaus":7355,"Ġvuodelta":7356,"Ġsta":7357,"ytetÃ¤Ã¤n":7358,"timme":7359,"ĠNur":7360,"lah":7361,"ĠJoens":7362,"isyyttÃ¤":7363,"hallinta":7364,"ĠBe":7365,"rateg":7366,"Ġjuus":7367,"pum":7368,"osasto":7369,"tod":7370,"ALA":7371,"Ġeroot":7372,"Ġajoneuv":7373,"ityksiÃ¤":7374,"Pit":7375,"Ġoot":7376,"78":7377,"Ġtilanteessa":7378,"43":7379,"llisena":7380,"Ġpuolelle":7381,"lei":7382,"Ġammattikorkea":7383,"Ġkahdeksan":7384,"ĠOyj":7385,"Ġfoor":7386,"usia":7387,"gh":7388,"YY":7389,"raha":7390,"ĠWord":7391,"Ġhuoneen":7392,"Ġ75":7393,"Ġvideoita":7394,"Ġheik":7395,"ĠRA":7396,"Ġsairas":7397,"mea":7398,"ĠVielÃ¤":7399,"ĠnÃ¤hdÃ¤Ã¤n":7400,"ĠkysymyksiÃ¤":7401,"Ġkokoa":7402,"Ġmaanantaina":7403,"Ġversio":7404,"Ġsopimuksen":7405,"Ġfl":7406,"ĠĠĠ":7407,"ĠLapin":7408,"Ġ05":7409,"niin":7410,"orin":7411,"!)":7412,"ĠsÃ¤ng":7413,"ĠkÃ¤vely":7414,"Ġkaupa":7415,"Ġsaattavat":7416,"ektiiv":7417,"vainsanat":7418,"ĠetsiÃ¤":7419,"Ġpresidentti":7420,"iir":7421,"Ġtoivon":7422,"jalta":7423,"ame":7424,"ingas":7425,"Ġkeino":7426,"ĠtiedÃ¤n":7427,"ĠMiesten":7428,"Ġammattita":7429,"paikkaa":7430,"ĠbÃ¤n":7431,"ĠpÃ¤ivÃ¤t":7432,"mattomia":7433,"Ġkovaa":7434,"ĠOulu":7435,"istoon":7436,"Ġneli":7437,"ĠnetissÃ¤":7438,"emman":7439,"Ġmaase":7440,"Ġvahvasti":7441,"Ġkyken":7442,"ottava":7443,"ĠJyvÃ¤skylÃ¤n":7444,"vaar":7445,"Ġottanut":7446,"Ġriko":7447,"Ġjoulun":7448,"ĠlÃ¤hten":7449,"eras":7450,"ĠYritys":7451,"Ġtodellakin":7452,"ĠJap":7453,"Ġillan":7454,"ety":7455,"ĠjÃ¤Ã¤kaa":7456,"ese":7457,"ownload":7458,"Ġkyky":7459,"ĠpyytÃ¤Ã¤":7460,"old":7461,"ĠLain":7462,"iluk":7463,"Pel":7464,"Ġmilf":7465,"jos":7466,"kunto":7467,"matkan":7468,"imiÃ¤":7469,"Ġaloitta":7470,"Ġpohjo":7471,"Ġkyy":7472,"Ġinfor":7473,"ĠJussi":7474,"Ġtuotteiden":7475,"hdot":7476,"Ġout":7477,"Ġvalvonta":7478,"Ul":7479,"ĠTYÃĸ":7480,"ĠSuur":7481,"ettynÃ¤":7482,"Ġkokemusta":7483,"ttinen":7484,"Ġyhteinen":7485,"vÃ¤stÃ¤":7486,"Ġpalveluiden":7487,"etyn":7488,"Ġmul":7489,"!\"":7490,"rista":7491,"art":7492,"Ġhuv":7493,"uttamaan":7494,"che":7495,"isyyden":7496,"Ġmietin":7497,"Ġrek":7498,"Ġuseimm":7499,"ĠpyÃ¶ri":7500,"enkki":7501,"ITA":7502,"honen":7503,"Ġruokavali":7504,"Ġkita":7505,"yyl":7506,"moita":7507,"Ġmuistuttaa":7508,"virasto":7509,"Ġkuulemma":7510,"Ġasennus":7511,"ĠHote":7512,"Ġtarjon":7513,"Ġsanot":7514,"ketiet":7515,"Ġklikkaa":7516,"sastus":7517,"Ġeroa":7518,"Ġkaikkein":7519,"Ġtukee":7520,"Ġpime":7521,"ĠJO":7522,"Ġsopiv":7523,"Ġmita":7524,"ytÃ¶ssÃ¤":7525,"Ġsuomalaisen":7526,"ĠvÃ¤Ã¤rÃ¤":7527,"innÃ¤n":7528,"kah":7529,"seksi":7530,"ĠepÃ¤onn":7531,"tille":7532,"ĠrekisterÃ¶ity":7533,"VAT":7534,"iaika":7535,"mmit":7536,"Ġuudessa":7537,"ĠmeistÃ¤":7538,"Ġriippuen":7539,"Ġmainittu":7540,"Ġpelata":7541,"KK":7542,"rk":7543,"asema":7544,"MUS":7545,"kaar":7546,"Ġvaihtoehtoja":7547,"Siv":7548,"annetta":7549,"ĠÃ¤lÃ¤":7550,"uttaja":7551,"Ġsuoritus":7552,"Ġolevaa":7553,"Ġmua":7554,"Ġgirl":7555,"Ġvastu":7556,"Ġvanhoja":7557,"Ġpunainen":7558,"unnuntai":7559,"jeen":7560,"ĠYksinkertainen":7561,"ĠEri":7562,"umia":7563,"koit":7564,"Karja":7565,"ĠlÃ¶ysin":7566,"ĠHinta":7567,"Ġliikenn":7568,"ylÃ¤":7569,"ĠVen":7570,"paketti":7571,"Ġtuhan":7572,"Ġvauh":7573,"maiden":7574,"Ġjulkaise":7575,"mil":7576,"IKA":7577,"ĠmihinkÃ¤Ã¤n":7578,"terveys":7579,"Ġtavoite":7580,"Ġainutlaatu":7581,"Ġpuhe":7582,"kuo":7583,"Ġmarkkinointi":7584,"Ġparis":7585,"ukup":7586,"eissÃ¤":7587,"ruo":7588,"itekstit":7589,"Ġavain":7590,"nsa":7591,"ĠSer":7592,"yttÃ¤vÃ¤Ã¤":7593,"ĠpyritÃ¤Ã¤n":7594,"voja":7595,"UKSEN":7596,"Ġjulkaistu":7597,"uksille":7598,"ĠviimeistÃ¤Ã¤n":7599,"piteitÃ¤":7600,"Ġjoukossa":7601,"kÃ¤yttÃ¤":7602,"ETO":7603,"TM":7604,"Ġyhteyden":7605,"jani":7606,"vÃ¤line":7607,"Ġverkosto":7608,"vuoro":7609,"Ġsoi":7610,"Ġsid":7611,"ostettu":7612,"tajat":7613,"Ġstand":7614,"Ġuusista":7615,"Ġvalmenn":7616,"opyri":7617,"virta":7618,"Ġ33":7619,"strÃ¶":7620,"Ġhankke":7621,"Ġviikonloppu":7622,"iteen":7623,"reiden":7624,"TEN":7625,"Ġett":7626,"Ġ:-)":7627,"yle":7628,"hone":7629,"udulla":7630,"Tervetuloa":7631,"ilussa":7632,"ĠriittÃ¤vÃ¤sti":7633,"ĠselkÃ¤":7634,"Ġlailla":7635,"Ġonnet":7636,"Ã¤ra":7637,"Koul":7638,"Ġkaupungissa":7639,"Ġ07":7640,"ĠtÃ¤s":7641,"ĠvetÃ¤Ã¤":7642,"ĠMulla":7643,"ĠRekister":7644,"ĠMel":7645,"Ġkasvoi":7646,"ĠYksity":7647,"Ġkommentoimassa":7648,"telli":7649,"ĠPie":7650,"Ġkampan":7651,"ĠtyttÃ¤":7652,"alin":7653,"merkin":7654,"ikassa":7655,"KÃ¤ytÃ¤":7656,"vitta":7657,"Ġheikko":7658,"Ġsuola":7659,"Ġasiakkaiden":7660,"Koti":7661,"Ġomen":7662,"ĠVAL":7663,"iainen":7664,"yyntÃ¶":7665,"rump":7666,"ĠRuo":7667,"ukas":7668,"Ġpalauta":7669,"row":7670,"vollis":7671,"Ġharmaa":7672,"attiin":7673,"ĠvielÃ¤kin":7674,"Ġkulutus":7675,"Ġuhka":7676,"Ġostos":7677,"tisia":7678,"kussa":7679,"ministeriÃ¶n":7680,"ĠEL":7681,"teesi":7682,"ĠSh":7683,"IH":7684,"nea":7685,"valikoi":7686,"ĠtÃ¤llainen":7687,"Ġtavara":7688,"Ġhyvinkin":7689,"Ġtodellakaan":7690,"ĠVerkko":7691,"San":7692,"Ġ37":7693,"Ġkuol":7694,"ller":7695,"ĠValitse":7696,"ittÃ¤vÃ¤t":7697,"ij":7698,"vojen":7699,"ĠkysyÃ¤":7700,"oksena":7701,"ennÃ¤":7702,"ĠFran":7703,"ĠPorno":7704,"ulaa":7705,"Lo":7706,"ĠpysÃ¤h":7707,"Ġperi":7708,"Ã¤nnÃ¶":7709,"Ġseurauksena":7710,"Ġparhaa":7711,"ĠlisÃ¤Ã¤n":7712,"Ġhetke":7713,"Ġmuissa":7714,"timet":7715,"tellÃ¤":7716,"Ġratkaise":7717,"Kuinka":7718,"llani":7719,"Ġsaapu":7720,"ĠKÃ¤yttÃ¤":7721,"engas":7722,"ĠRakennus":7723,"Ġblogissa":7724,"Ġvanhempien":7725,"Ġosittain":7726,"aikaa":7727,"ĠAm":7728,"Ġfree":7729,"Ġpuhdist":7730,"okon":7731,"asan":7732,"ĠLÃ¤nsi":7733,"57":7734,"keet":7735,"Ġasioiden":7736,"Ġvittu":7737,"ĠEN":7738,"Ġsuuret":7739,"Ġvastasi":7740,"ĠTh":7741,"tisi":7742,"rata":7743,"ĠkevÃ¤":7744,"ĠVil":7745,"ksemme":7746,"ĠKuten":7747,"yksistÃ¤":7748,"Ġsiivo":7749,"Ġmatkalla":7750,"iga":7751,"Ġtaustalla":7752,"ĠvÃ¤littÃ¶mÃ¤sti":7753,"ĠBlogitekstit":7754,"uivat":7755,"kuor":7756,"Ġvoittaa":7757,"ĠkÃ¤ytettÃ¤vissÃ¤":7758,"gs":7759,"Ġsauna":7760,"INA":7761,"Ġvastaavat":7762,"kenttÃ¤":7763,"Ġsijainti":7764,"eloku":7765,"kaalle":7766,"keino":7767,"Ġstar":7768,"ĠhyÃ¶kkÃ¤":7769,"ĠnÃ¤yttely":7770,"kita":7771,"Tek":7772,"Ġkuulostaa":7773,"ĠkÃ¤yttÃ¤yty":7774,"ikoh":7775,"ĠsisÃ¤ll":7776,"ĠPuna":7777,"Ġtilata":7778,"Ġsalaa":7779,"llisin":7780,"oimintaa":7781,"mutta":7782,"ettavat":7783,"joissa":7784,"ĠevÃ¤steiden":7785,"usko":7786,"umm":7787,"ĠamatÃ¶Ã¶ri":7788,"Ġrehe":7789,"kÃ¤ynn":7790,"Ġpann":7791,"video":7792,"koita":7793,"Ġurheilu":7794,"yhteisÃ¶":7795,"otenti":7796,"hoitus":7797,"ĠlÃ¶ytynyt":7798,"tellaan":7799,"Ġvarrella":7800,"Ġvaadi":7801,"blogi":7802,"ĠVastaa":7803,"ĠpyÃ¶rit":7804,"Ġetene":7805,"Ġtorstaina":7806,"Ġottamaan":7807,"kila":7808,"iker":7809,"Ġura":7810,"vamma":7811,"nit":7812,"LU":7813,"teenÃ¤":7814,"Ġanaali":7815,"Ġtreffit":7816,"ĠTapahtu":7817,"Ġjoitakin":7818,"eellÃ¤":7819,"Ġkiinnostunut":7820,"opyright":7821,"Ġlukuun":7822,"pele":7823,"Ġkirjoja":7824,"Ġkaikkiin":7825,"atko":7826,"vintola":7827,"poh":7828,"ler":7829,"ĠvenÃ¤lÃ¤":7830,"ottelu":7831,"Ġvarustettu":7832,"KÃ¤yttÃ¶":7833,"muksen":7834,"Ġlaula":7835,"Er":7836,"Ġtarvetta":7837,"haki":7838,"Ġrahan":7839,"Ġmielik":7840,"laus":7841,"pÃ¶ytÃ¤":7842,"ĠEspoo":7843,"Ġvaatteita":7844,"joukkue":7845,"Ġlasku":7846,"Ġmuodos":7847,"sinkin":7848,"âĢľ":7849,"tainen":7850,"TON":7851,"anner":7852,"pano":7853,"Ġohjeita":7854,"pyy":7855,"ĠenempÃ¤Ã¤":7856,"Puh":7857,"ĠpidÃ¤n":7858,"liike":7859,"crip":7860,"Ġmusiikin":7861,"Ġvarmistaa":7862,"ĠnÃ¤ytÃ¤":7863,"Ġonhan":7864,"ĠKAUP":7865,"Ġvalittu":7866,"ĠKaksi":7867,"ĠkÃ¤d":7868,"uru":7869,"Ġbo":7870,"immÃ¤t":7871,"Ġkaupp":7872,"ĠvihreÃ¤":7873,"ĠkÃ¤yttÃ¤jÃ¤t":7874,"Ġsarjan":7875,"tyypp":7876,"jua":7877,"Ġyksinkertaisesti":7878,"Ġtilin":7879,"antai":7880,"Ġpuuttuu":7881,"teeni":7882,"Met":7883,"ikor":7884,"housut":7885,"tina":7886,"LisÃ¤tietoja":7887,"kittu":7888,"Ġshop":7889,"ĠSillÃ¤":7890,"ĠkypsÃ¤":7891,"ĠtÃ¤rkeitÃ¤":7892,"Ġ04":7893,"VAL":7894,"Ġkoostuu":7895,"Ġsir":7896,"Ġparempaa":7897,"ĠMedia":7898,"reita":7899,"uuto":7900,"ĠKarja":7901,"oillaan":7902,"ittiÃ¶":7903,"Ġhalutaan":7904,"Ġjapan":7905,"uman":7906,"Ġrauhassa":7907,"konser":7908,"Ġkoo":7909,"ĠtyÃ¶kalu":7910,"ĠkÃ¶yh":7911,"ISEN":7912,"ympÃ¤r":7913,"Ġpuhta":7914,"kÃ¤yttÃ¶Ã¶n":7915,"Ġhankin":7916,"vellÃ¤":7917,"rys":7918,"ĠStar":7919,"llisiin":7920,"uttaminen":7921,"Ġjoh":7922,"Ġvieras":7923,"mmatti":7924,"ĠmyÃ¶ntÃ¤Ã¤":7925,"Ġkuvata":7926,"ittÃ¤minen":7927,"pyhuone":7928,"ĠsÃ¤hkÃ¶postilla":7929,"Ġmedian":7930,"ĠepÃ¤il":7931,"Ġliikenteen":7932,"Ġkirjat":7933,"Ġverot":7934,"teihin":7935,"moja":7936,"Ġantanut":7937,"Ġleff":7938,"oito":7939,"Ġpet":7940,"Kon":7941,"Ġlaite":7942,"ĠÃĦÃ¤n":7943,"Ġmuitakin":7944,"ĠHalu":7945,"ĠlÃ¤hesty":7946,"ikoista":7947,"Ġrakennettu":7948,"Ġveh":7949,"Ġinnovaa":7950,"oris":7951,"Ġkoriste":7952,"Ġjohtuu":7953,"Ġkuluessa":7954,"alaisten":7955,"mmilla":7956,"piteet":7957,"Ġkonk":7958,"etusta":7959,"usiness":7960,"Ġhienosti":7961,"2007":7962,"Kas":7963,"ĠLan":7964,"Ġeuroopp":7965,"Ġtampere":7966,"Ġcon":7967,"Ġprin":7968,"Ġveto":7969,"Ġromaan":7970,"Ġkoe":7971,"ĠketÃ¤Ã¤n":7972,"hoitaja":7973,"tieteen":7974,"UTTA":7975,"Ġtilalle":7976,"Ġtietosuoja":7977,"oksiin":7978,"Ġulkon":7979,"Ġtyyd":7980,"Ġnumero":7981,"inten":7982,"ĠpehmeÃ¤":7983,"Ġinnos":7984,"cor":7985,"Ġoiva":7986,"osaa":7987,"vie":7988,"ĠhyÃ¶ty":7989,"dalla":7990,"Ġkorko":7991,"ĠmyÃ¶hÃ¤":7992,"tarjo":7993,"myynti":7994,"ĠJari":7995,"kohdat":7996,"Ġvanhat":7997,"Ġuno":7998,"jin":7999,"Ġhita":8000,"pÃ¤Ã¤tÃ¶s":8001,"Ġtunnettu":8002,"Ġmetrin":8003,"Ġenergiaa":8004,"Ġhienoa":8005,"ĠKU":8006,"ĠBra":8007,"ĠvinkkejÃ¤":8008,"sign":8009,"ĠJoten":8010,"ĠeihÃ¤n":8011,"Ġinto":8012,"yritys":8013,"Ġsav":8014,"Ġfe":8015,"keja":8016,"ĠFI":8017,"Ġyhteiskunnan":8018,"Ġliiketoiminta":8019,"yntÃ¤":8020,"sson":8021,"Ġmainit":8022,"Ġunel":8023,"Ġvit":8024,"Ã¶istÃ¤":8025,"Ġkuoli":8026,"Ġharvoin":8027,"ĠperÃ¤Ã¤n":8028,"Ġsitte":8029,"Ġ55":8030,"ĠsilmÃ¤t":8031,"Ġescort":8032,"EM":8033,"Ġmahdollisuudet":8034,"Ġyou":8035,"Ġviid":8036,"USTA":8037,"Ġvaltakunna":8038,"Ġmaksi":8039,"urva":8040,"Ġsuosikki":8041,"misten":8042,"ektr":8043,"Ġkuullut":8044,"Ġpall":8045,"ĠRanta":8046,"ekoita":8047,"uneet":8048,"ĠKoke":8049,"Kuu":8050,"Ġlakka":8051,"Ġamerikka":8052,"ostusta":8053,"Ġvoitti":8054,"Ġosat":8055,"Ġulottu":8056,"Å¡":8057,"Ã¤tty":8058,"innÃ¤ytet":8059,"ĠsÃ¤Ã¤stÃ¤":8060,"keng":8061,"estaa":8062,"lti":8063,"Ġrool":8064,"Ġsula":8065,"Ġnuoris":8066,"Ġsiisti":8067,"ĠTÃ¤Ã¤llÃ¤":8068,"itan":8069,"muus":8070,"ĠTyÃ¶n":8071,"ĠOpp":8072,"ear":8073,"Ġsattuu":8074,"ÃĦÃĦN":8075,"ksestÃ¤":8076,"ĠjÃ¤senet":8077,"isiv":8078,"ĠRoo":8079,"ĠhyÃ¶dyntÃ¤":8080,"yrÃ¤":8081,"ĠpysÃ¤kÃ¶":8082,"Ġkulut":8083,"Ġviest":8084,"Ġmobiil":8085,"SÃĦ":8086,"Ġ2003":8087,"teellinen":8088,"ikkÃ¤":8089,"okos":8090,"ĠvÃ¤estÃ¶":8091,"korva":8092,"ĠkÃ¤yttÃ¤mÃ¤Ã¤n":8093,"Ġohella":8094,"Ġkorjaus":8095,"ĠnimeÃ¤":8096,"eemme":8097,"Ġhoitoon":8098,"kunnalle":8099,"ĠSto":8100,"Ġviihty":8101,"Ġlevit":8102,"ĠRovan":8103,"Ġmumm":8104,"ĠyllÃ¤pit":8105,"ĠSuomesta":8106,"cy":8107,"Ã¶ljy":8108,"raken":8109,"suunnitel":8110,"hankke":8111,"Ġsovi":8112,"mistus":8113,"kaas":8114,"Ġaikataul":8115,"Ġvanhemmat":8116,"ĠLat":8117,"Ġvarus":8118,"Laa":8119,"za":8120,"NÃ¤mÃ¤":8121,"ittÃ¤nyt":8122,"ĠkÃ¤yd":8123,"ĠJon":8124,"ottavaa":8125,"Ġ48":8126,"KSI":8127,"Ġhetk":8128,"Ġtarkoita":8129,"ĠnÃ¤l":8130,"Ġdemok":8131,"mian":8132,"Aika":8133,"ĠKÃ¤r":8134,"ĠsÃ¤ily":8135,"Ġnaista":8136,"Vuoden":8137,"Ġkuljetta":8138,"Ġmielu":8139,"ihteeri":8140,"poliit":8141,"Ġveren":8142,"Kansa":8143,"xin":8144,"veto":8145,"kirje":8146,"Ġerilaiset":8147,"Ġtuoksu":8148,"ĠIsra":8149,"Porn":8150,"Ġrup":8151,"Ġyhteystiedot":8152,"ĠTurva":8153,"TEET":8154,"omina":8155,"keskiviikko":8156,"ĠsÃ¤Ã¤stÃ¶":8157,"ash":8158,"Ġkerrotaan":8159,"ĠpÃ¤Ã¤tty":8160,"Ri":8161,"kalut":8162,"Ġomistaja":8163,"Ġkaunista":8164,"Hal":8165,"ĠKÃ¤sit":8166,"Ġsh":8167,"Ġ250":8168,"luokka":8169,"Ġkasa":8170,"sinÃ¶Ã¶":8171,"Ġperun":8172,"Ġmusiikkia":8173,"tive":8174,"Ġgl":8175,"jantai":8176,"orit":8177,"ppuja":8178,"ĠlÃ¶ytÃ¤mÃ¤Ã¤n":8179,"kuntaa":8180,"isar":8181,"Ġavat":8182,"ĠympÃ¤rillÃ¤":8183,"Ġkuljetus":8184,"ĠPÃĦÃĦ":8185,"ĠIlmoit":8186,"ĠInter":8187,"alvelut":8188,"ikalla":8189,"Ġkausi":8190,"Ġopettaja":8191,"ĠmetriÃ¤":8192,"ĠRaamat":8193,"valot":8194,"Ġteho":8195,"ĠviettÃ¤Ã¤":8196,"maista":8197,"ĠjÃ¤ttÃ¤":8198,"SisÃ¤":8199,"ikat":8200,"Ġkehityksen":8201,"Ġkehon":8202,"ĠMuo":8203,"Ġtapp":8204,"Ġuskoa":8205,"vike":8206,"ĠVol":8207,"ĠTÃ¤r":8208,"Ġhuolehti":8209,"52":8210,"Ġolette":8211,"televÃ¤t":8212,"Ġuskonn":8213,"eskel":8214,"issÃ¤Ã¤n":8215,"ĠHir":8216,"ĠmÃ¤Ã¤rin":8217,"vani":8218,"ĠminÃ¤kin":8219,"Julkais":8220,"sala":8221,"Ġsuomalaista":8222,"Ġtietokone":8223,"ĠpitÃ¤vÃ¤t":8224,"Ġlaiva":8225,"ĠtekijÃ¤n":8226,"elemaan":8227,"tuneita":8228,"yttiin":8229,"Ġpuolustus":8230,"yhteys":8231,"Ġtilaus":8232,"Ġkommun":8233,"YH":8234,"Ġlaaje":8235,"Ġprosessi":8236,"ukki":8237,"Ġilmoittaa":8238,"ruoka":8239,"ltavasti":8240,"estejÃ¤":8241,"Ġostin":8242,"ĠNainen":8243,"Ġtilat":8244,"Ġolekaan":8245,"ĠSor":8246,"utumaan":8247,"Ġvatsa":8248,"vaikutus":8249,"Ġtoisessa":8250,"ĠnimellÃ¤":8251,"Ġ1000":8252,"Ġpelaaja":8253,"Ġvalmiina":8254,"steet":8255,"oimme":8256,"ĠSop":8257,"Ġensisija":8258,"Ġranska":8259,"ĠSata":8260,"ĠKotimaa":8261,"JAN":8262,"roup":8263,"sivÃ¤t":8264,"Ġkuvitella":8265,"ĠTutkimus":8266,"ĠHam":8267,"Ġali":8268,"yÃ¶stÃ¤":8269,"Ġfysi":8270,"Ġtiedossa":8271,"blet":8272,"tietojen":8273,"RIT":8274,"Ġtren":8275,"ĠMaria":8276,"Ã¡":8277,"ĠWeb":8278,"Ġpaikkaa":8279,"Ġkolmas":8280,"JEN":8281,"Ġmaakunta":8282,"Ġiku":8283,"yttÃ¤vÃ¤t":8284,"ĠVÃ¤h":8285,"elÃ¤mÃ¤":8286,"Ġjuu":8287,"ĠpitkÃ¤lle":8288,"Ġvakuutus":8289,"Ġannettu":8290,"EET":8291,"ikonlo":8292,"ete":8293,"pelaa":8294,"Ġch":8295,"ĠsisÃ¤ltÃ¶Ã¤":8296,"Ġpolttoa":8297,"ĠmÃ¤r":8298,"Ġosasto":8299,"Ġnega":8300,"ĠSch":8301,"Ġkevyt":8302,"roksen":8303,"musten":8304,"tavaa":8305,"ĠmeidÃ¤t":8306,"Ġviestit":8307,"rapor":8308,"vikke":8309,"Ġkuntien":8310,"ĠHeikki":8311,"Ġok":8312,"Ġhallinn":8313,"Ġkatsella":8314,"Ġvasten":8315,"poika":8316,"imon":8317,"Sitten":8318,"Ġtehokkaasti":8319,"Ġyhteiskunna":8320,"hyvin":8321,"Ġtunnus":8322,"ĠOS":8323,"Ã¤nnyt":8324,"sista":8325,"ĠValta":8326,"Ġhei":8327,"ustr":8328,"Ġkoulutusta":8329,"kkitehtuu":8330,"Ġmahtuu":8331,"koihin":8332,"Ġvalitettavasti":8333,"Ġtaid":8334,"ĠmielellÃ¤Ã¤n":8335,"Lin":8336,"HO":8337,"Ġsukupuoli":8338,"teluk":8339,"pallon":8340,"lot":8341,"Ġvahvistaa":8342,"ĠsiirtÃ¤Ã¤":8343,"mpiÃ¤":8344,"kelpo":8345,"ĠesillÃ¤":8346,"ĠnÃ¤kÃ¶inen":8347,"Ġjuon":8348,"ĠpÃ¤t":8349,"ĠtyÃ¶hÃ¶n":8350,"Ġpane":8351,"kaupasta":8352,"Ġkaudella":8353,"Ġentis":8354,"vuotis":8355,"idot":8356,"ĠjÃ¤te":8357,"ĠMole":8358,"kola":8359,"Ġrakkaus":8360,"54":8361,"ĠtyhjÃ¤":8362,"kaver":8363,"teluja":8364,"Ġlehd":8365,"ensÃ¤":8366,"Liik":8367,"sep":8368,"ĠsÃ¤Ã¤s":8369,"Ġkielletty":8370,"ĠIt":8371,"Ġhuomannut":8372,"valvonta":8373,"Ġmuuttunut":8374,"Ġapp":8375,"ĠPikku":8376,"ĠLappeen":8377,"Ġkertovat":8378,"Ġsukka":8379,"yhd":8380,"itellen":8381,"kkun":8382,"Ġtapahtumia":8383,"PU":8384,"Ġhelpottaa":8385,"ĠminkÃ¤Ã¤n":8386,"kinnan":8387,"ĠpidÃ¤tetÃ¤Ã¤n":8388,"Ġonnistui":8389,"Ġlukien":8390,"ustusta":8391,"ĠHerra":8392,"inkaan":8393,"Ġuseamman":8394,"Ġmaasta":8395,"ĠJÃ¤sen":8396,"syn":8397,"Ġtarpeet":8398,"ĠÃ¶":8399,"ĠmiltÃ¤":8400,"ĠlÃ¤Ã¤ke":8401,"Ġsym":8402,"kitse":8403,"Ġkk":8404,"Ġ39":8405,"Ġpuhutaan":8406,"Ġkaikkiaan":8407,"ĠEnsimmÃ¤inen":8408,"Ġkeskiviikkona":8409,"VÃ¤":8410,"Ġtyypp":8411,"Ġverkkosivu":8412,"Ġarvosta":8413,"ĠnÃ¤hden":8414,"Ġrasva":8415,"Ġerilaista":8416,"ĠSuomea":8417,"Ġkilometrin":8418,"Ġantavat":8419,"link":8420,"Ġnime":8421,"umiin":8422,"kaava":8423,"Ġkilpailuk":8424,"Ġsyt":8425,"Â®":8426,"Ġmuilla":8427,"Ġkansi":8428,"ĠKengÃ¤t":8429,"Ġpojan":8430,"Ġyhdistyksen":8431,"gaan":8432,"Ġsuorittaa":8433,"ĠpitÃ¤is":8434,"Ġhauta":8435,"ĠsÃ¤Ã¤nnÃ¶t":8436,"voim":8437,"ĠNÃ¤itÃ¤":8438,"taulu":8439,"Ġvamma":8440,"Ġkeskit":8441,"Ġkirjoittanut":8442,"ĠNel":8443,"Ġvajaa":8444,"Ġavar":8445,"yyli":8446,"The":8447,"Ġ34":8448,"Ġoikeassa":8449,"Press":8450,"Ġtotu":8451,"nne":8452,"Ġsivut":8453,"uuksien":8454,"Ġsijoitus":8455,"ĠTamm":8456,"rakennus":8457,"cel":8458,"Ġhistorian":8459,"Ġseurakunta":8460,"Ġmahtava":8461,"data":8462,"ces":8463,"ĠJokainen":8464,"Ġette":8465,"Ġsuor":8466,"Ġhuomasin":8467,"Ġesimerkki":8468,"saari":8469,"ĠAsiakas":8470,"yÃ¶nti":8471,"Ġtse":8472,"Ġniinkuin":8473,"Ġlihas":8474,"ner":8475,"Ġkin":8476,"llisella":8477,"paikkoja":8478,"Ġaikuis":8479,"Ġdl":8480,"ĠTein":8481,"Ġnahka":8482,"miehet":8483,"Ġkaul":8484,"ĠsisÃ¤lle":8485,"Ġnykyisin":8486,"Ġhakem":8487,"ĠStu":8488,"Ġtodellinen":8489,"ĠWindows":8490,"kulut":8491,"uilla":8492,"udan":8493,"Ġmukavasti":8494,"jala":8495,"Ġparhaan":8496,"Ġolevansa":8497,"Ġth":8498,"Ġruskea":8499,"Sen":8500,"Ġmatkus":8501,"Ġvaiva":8502,"Ġmahdollinen":8503,"aalista":8504,"Ġkasvanut":8505,"Ġinh":8506,"Ġtaik":8507,"ĠKau":8508,"Ġapu":8509,"Ġriste":8510,"ĠmistÃ¤Ã¤n":8511,"alais":8512,"ĠLisÃ¤tietoja":8513,"kirjoitus":8514,"Ġtotesi":8515,"ĠpÃ¤Ã¤stÃ¶":8516,"lÃ¤htÃ¶":8517,"annus":8518,"Ġkoulussa":8519,"Ġelemen":8520,"kula":8521,"Ġilmoittautu":8522,"ĠyllÃ¤ttÃ¤vÃ¤n":8523,"Ġkesto":8524,"desta":8525,"Ġnop":8526,"ĠtytÃ¤":8527,"Ġmukainen":8528,"ĠSaat":8529,"Ġtiistaina":8530,"Ġitseni":8531,"Ġkahta":8532,"Ã¤tys":8533,"isku":8534,"ysÃ¤":8535,"Ġohjelman":8536,"ĠCan":8537,"Ġkasvi":8538,"kai":8539,"CD":8540,"VE":8541,"car":8542,"asian":8543,"Yhteystiedot":8544,"Ġiho":8545,"Ġpalautetta":8546,"Joh":8547,"stagra":8548,"ĠRas":8549,"Ġtekeminen":8550,"Ġotte":8551,"Ġsivun":8552,"Ġosake":8553,"yksissÃ¤":8554,"ĠLind":8555,"ĠHon":8556,"Ġeks":8557,"Ġpalvelujen":8558,"Asi":8559,"Ġsyyt":8560,"ĠkÃ¤sitellÃ¤Ã¤n":8561,"Ġosapuol":8562,"Ġlue":8563,"ĠhÃ¤v":8564,"ĠKuopi":8565,"Ġsivuilla":8566,"Ġlasken":8567,"UD":8568,"tarin":8569,"ĠkÃ¤ytÃ¤ntÃ¶":8570,"uissa":8571,"Ġsosiaalit":8572,"media":8573,"ight":8574,"opiston":8575,"KY":8576,"Ġtouh":8577,"ĠKauppa":8578,"ikÃ¤inen":8579,"ĠheillÃ¤":8580,"ĠpitkÃ¤aika":8581,"tÃ¤in":8582,"kÃ¤ytÃ¤ntÃ¶":8583,"les":8584,"Ġoloh":8585,"Ġpankki":8586,"ĠDi":8587,"Ġmatala":8588,"ksaa":8589,"keissÃ¤":8590,"ĠsÃ¤hkÃ¶postiosoit":8591,"Ġpyh":8592,"Ġnro":8593,"ĠsÃ¤Ã¤nnÃ¶llisesti":8594,"Ġvene":8595,"Ġkisa":8596,"ukseksi":8597,"Ġtms":8598,"ĠSiir":8599,"ĠyllÃ¤tys":8600,"ĠkÃ¤yttÃ¤nyt":8601,"timen":8602,"ĠSyy":8603,"vyyden":8604,"itio":8605,"pos":8606,"Ġvastaava":8607,"ld":8608,"ĠAB":8609,"YTTÃĸ":8610,"teella":8611,"Ver":8612,"jankohta":8613,"katsaus":8614,"Ġvois":8615,"ĠkÃ¤nny":8616,"Ġtalv":8617,"kunnassa":8618,"Joo":8619,"ĠpysyvÃ¤":8620,"palvelujen":8621,"Ġhaave":8622,"em":8623,"ssia":8624,"ĠEle":8625,"liitty":8626,"yyt":8627,"tilat":8628,"uutensa":8629,"tani":8630,"Ġohjelmisto":8631,"ĠOpetus":8632,"ĠsilmÃ¤n":8633,"kpl":8634,"ĠpÃ¶l":8635,"Ġmaahanmuutta":8636,"ĠvÃ¤liÃ¤":8637,"risti":8638,"Valitse":8639,"elua":8640,"ĠLahti":8641,"varas":8642,"estÃ¶n":8643,"Ġmaata":8644,"Ġtoisiin":8645,"ĠMinun":8646,"Ġtoukoku":8647,"koski":8648,"arvon":8649,"misella":8650,"ĠPA":8651,"ĠyksikÃ¶":8652,"ĠpÃ¤Ã¤asiassa":8653,"une":8654,"Ġroman":8655,"KesÃ¤":8656,"Ġsivustolla":8657,"silla":8658,"vaatteet":8659,"palveluiden":8660,"ĠjÃ¤rj":8661,"ĠMistÃ¤":8662,"br":8663,"uttanut":8664,"yttÃ¤vÃ¤n":8665,"ĠsyntymÃ¤":8666,"Ġpetty":8667,"televa":8668,"ĠJyvÃ¤skylÃ¤":8669,"Ġlaatua":8670,"Ġwith":8671,"sovell":8672,"tÃ¤vÃ¤n":8673,"ettaessa":8674,"mpÃ¤Ã¤n":8675,"Koska":8676,"ilijoiden":8677,"Ġ..":8678,"tsin":8679,"ĠHien":8680,"So":8681,"istoja":8682,"Ihana":8683,"ĠkÃ¤yttÃ¤en":8684,"Ã¤ntÃ¤":8685,"Ġparhaimm":8686,"KIRJA":8687,"ĠtytÃ¶t":8688,"tÃ¤hti":8689,"leh":8690,"Ġjatkuva":8691,"Ġoven":8692,"Ġaloitti":8693,"uth":8694,"Ġtarkistaa":8695,"Ġastetta":8696,"akan":8697,"Ġglob":8698,"ĠhÃ¤tÃ¤":8699,"ĠtehtÃ¤vÃ¤t":8700,"ĠkÃ¤ytiin":8701,"yteen":8702,"etÃ¶n":8703,"Ġpikk":8704,"tional":8705,"kkila":8706,"ĠiÃ¤":8707,"joihin":8708,"Ġtulevan":8709,"Ġsum":8710,"otek":8711,"teessÃ¤":8712,"liikke":8713,"dea":8714,"Ġasettaa":8715,"Ġ65":8716,"Ġpaljoa":8717,"bb":8718,"Ġsuju":8719,"elmÃ¤":8720,"Ġpurka":8721,"ilusta":8722,"Ġterveydenhuollon":8723,"Miel":8724,"Esi":8725,"ĠTÃ¤llÃ¶in":8726,"ĠtÃ¤ys":8727,"Ġarjen":8728,"ream":8729,"ĠLei":8730,"TS":8731,"ĠEro":8732,"mattom":8733,"vyy":8734,"Ġperustettu":8735,"Ġennalta":8736,"isinaan":8737,"istiin":8738,"IDEN":8739,"Ġblon":8740,"ĠensimmÃ¤iset":8741,"Ġsuoras":8742,"ĠpÃ¤te":8743,"oso":8744,"innit":8745,"sh":8746,"Ġtunnet":8747,"rp":8748,"Ġalus":8749,"Ġjulkisen":8750,"ĠEnsi":8751,"perhe":8752,"ĠArvi":8753,"tema":8754,"Ġsamat":8755,"Ġalueelle":8756,"Ġparve":8757,"DD":8758,"Ġsanoin":8759,"impiÃ¤":8760,"cen":8761,"Ġseuranta":8762,"tyivÃ¤t":8763,"ĠÂ§":8764,"Ġkyntti":8765,"ĠPDF":8766,"oosi":8767,"ĠMerk":8768,"tuntija":8769,"kilpailu":8770,"eliÃ¤":8771,"lainaa":8772,"kohtaisesti":8773,"Ġideoita":8774,"ppuun":8775,"Ġyleinen":8776,"Ã¤rjÃ¤Ã¤":8777,"ĠYmpÃ¤ristÃ¶":8778,"ppur":8779,"ĠtÃ¤ltÃ¤":8780,"Ġvoitaisiin":8781,"Ġkansalais":8782,"65":8783,"Eli":8784,"ikkun":8785,"uutena":8786,"ĠIL":8787,"Ġpoikkea":8788,"eitÃ¤":8789,"ĠPalvelu":8790,"paikalla":8791,"Ġtoiset":8792,"tyn":8793,"ĠÃ¤Ã¤rimmÃ¤":8794,"Ġahd":8795,"ĠlÃ¶ydy":8796,"ĠPat":8797,"Ġkahteen":8798,"Ġhuippu":8799,"gne":8800,"Talo":8801,"Hien":8802,"elee":8803,"Ġradio":8804,"ĠMyy":8805,"Ġtekstin":8806,"ĠWordPress":8807,"sÃ¤Ã¤ntÃ¶":8808,"tuneen":8809,"rann":8810,"Ġpuolue":8811,"ĠBlack":8812,"onia":8813,"ĠviedÃ¤":8814,"Ġ::":8815,"Ġsanat":8816,"Ġsuoritta":8817,"ĠEspoon":8818,"isuudessaan":8819,"ukone":8820,"lloissa":8821,"Ġhaluaisi":8822,"Ġratkaisuja":8823,"Uuden":8824,"Ġhaluaisin":8825,"ĠSw":8826,"Ġmuuhun":8827,"oksissa":8828,"ruus":8829,"maailma":8830,"kosta":8831,"ennys":8832,"Ġkerma":8833,"Ġjaksan":8834,"Ġ120":8835,"vaun":8836,"hdus":8837,"El":8838,"Ġkasvua":8839,"ĠNÃ¤iden":8840,"Ġihas":8841,"ĠnÃ¤yttÃ¤vÃ¤t":8842,"ĠitseÃ¤ni":8843,"ĠValkoinen":8844,"Ġriippumatta":8845,"ikuun":8846,"ĠsÃ¤hkÃ¶pos":8847,"Ġaikoinaan":8848,"Ġriv":8849,"yksellÃ¤":8850,"Ġtoiminnasta":8851,"Ġluokka":8852,"ĠmerkittÃ¤vÃ¤sti":8853,"Ġesitetty":8854,"Ġerilainen":8855,"osko":8856,"ĠYLE":8857,"uttavaa":8858,"Ġrinn":8859,"igan":8860,"ityksellÃ¤":8861,"Ġvis":8862,"Ġosoitta":8863,"Ġtop":8864,"Ġmaalis":8865,"ĠNiitÃ¤":8866,"koodi":8867,"Ġjokaiselle":8868,"tomasti":8869,"hallituksen":8870,"Ġalha":8871,"ĠPÃ¤iv":8872,"YTÃĦ":8873,"ĠpÃ¤ivÃ¤ko":8874,"Ġpalo":8875,"âĨ":8876,"telijÃ¤":8877,"ĠVille":8878,"Ġriski":8879,"ĠMiet":8880,"VAN":8881,"Ġristiri":8882,"ĠMor":8883,"ĠsynttÃ¤":8884,"Ġtulosta":8885,"imia":8886,"Ġsuunnitelma":8887,"Ġinteg":8888,"Ġjoutui":8889,"perÃ¤is":8890,"MAN":8891,"ski":8892,"Ġmainos":8893,"Ġpalveluja":8894,"Ġominaisuudet":8895,"Ty":8896,"imista":8897,"Ġtodellis":8898,"Ġhenki":8899,"Ġluvan":8900,"Ġkirjoita":8901,"INTI":8902,"Ġanteeksi":8903,"des":8904,"Ġlukee":8905,"jenn":8906,"Ġkorot":8907,"ĠlÃ¤mpimÃ¤":8908,"Ã¤hti":8909,"Ġraska":8910,"onnan":8911,"ĠMarja":8912,"ĠYleis":8913,"Ġtakuu":8914,"Sis":8915,"git":8916,"vitamiin":8917,"eellistÃ¤":8918,"ĠYhteis":8919,"lam":8920,"ĠhedelmÃ¤":8921,"uno":8922,"Ġiloa":8923,"ĠLU":8924,"Ġheiken":8925,"ytyi":8926,"Ġtarvitset":8927,"enni":8928,"ĠMaailman":8929,"Ġtilanteen":8930,"Ġihmisille":8931,"LisÃ¤ksi":8932,"Tal":8933,"Ġai":8934,"ikkÃ¤Ã¤":8935,"Ġilmesty":8936,"Ġsuostu":8937,"millÃ¤":8938,"Ã¶iden":8939,"Ġkaks":8940,"Ġsulla":8941,"pissa":8942,"jÃ¤ltÃ¤":8943,"sop":8944,"Ġjalat":8945,"Ġtei":8946,"jetti":8947,"tall":8948,"Ġbloggaa":8949,"ĠKuitenkin":8950,"ĠOY":8951,"akte":8952,"outu":8953,"ikoilla":8954,"ĠAM":8955,"ĠpitÃ¤mÃ¤Ã¤n":8956,"Ġtoisista":8957,"ĠKAUPUN":8958,"keistÃ¤":8959,"Ġruno":8960,"Ġlopetta":8961,"mmalta":8962,"Ġriippuu":8963,"ĠIlman":8964,"edon":8965,"Ġesiintyy":8966,"Ġhalve":8967,"ĠTavoitteena":8968,"ĠKuka":8969,"Ġsivus":8970,"Ġpalvelua":8971,"Ġoltiin":8972,"kulttuu":8973,"ĠkehittÃ¤miseen":8974,"Ġtoteutus":8975,"?)":8976,"Rak":8977,"ulut":8978,"Ġmaissa":8979,"istelu":8980,"Ġvaltava":8981,"Ġsoittaa":8982,"ĠkenttÃ¤":8983,"paus":8984,"Ġhuip":8985,"ĠkeskimÃ¤Ã¤rin":8986,"mmalle":8987,"Ġbet":8988,"uklaa":8989,"bora":8990,"Yli":8991,"ĠSinun":8992,"ĠProjek":8993,"ĠMarkku":8994,"Ġkohteen":8995,"illÃ¤Ã¤n":8996,"ĠVaih":8997,"Toinen":8998,"Us":8999,"Ġvirta":9000,"66":9001,"Ġsivulta":9002,"oinnissa":9003,"Ġenglan":9004,"53":9005,"UTUS":9006,"Ġkappaletta":9007,"ettÃ¤vÃ¤ksi":9008,"tv":9009,"ĠryhmÃ¤n":9010,"idin":9011,"51":9012,"ISTO":9013,"tumisen":9014,"titeet":9015,"ĠLah":9016,"Ġerinomainen":9017,"Ġajoit":9018,"Ġminne":9019,"Ġkyyn":9020,"kengÃ¤t":9021,"Ġruoan":9022,"imer":9023,"dcore":9024,"ĠepÃ¤var":9025,"TER":9026,"Ġlaadun":9027,"jetus":9028,"Ġloistava":9029,"Ġelokuvan":9030,"Ġjaksaa":9031,"Ġkuntoon":9032,"viesti":9033,"ĠMonet":9034,"Ġiloinen":9035,"HenkilÃ¶":9036,"KAA":9037,"ĠhyvÃ¤llÃ¤":9038,"impien":9039,"Ġreag":9040,"jansa":9041,"Ġruotsa":9042,"ĠvÃ¤riÃ¤":9043,"PI":9044,"Ġtasapain":9045,"Auto":9046,"Ġolimme":9047,"Ġsemm":9048,"male":9049,"Ġviihd":9050,"kaana":9051,"Ġkaukana":9052,"Ġkakk":9053,"rakenn":9054,"Ġbe":9055,"Hi":9056,"ilyn":9057,"teille":9058,"ĠJor":9059,"stonmuut":9060,"ĠOpiskeli":9061,"Ġnukkumaan":9062,"ĠsydÃ¤men":9063,"ĠpeliÃ¤":9064,"ĠkÃ¤den":9065,"Ġaikuisten":9066,"Ġhomo":9067,"Ġpalveluita":9068,"Ġ600":9069,"jul":9070,"oman":9071,"Ġsuhde":9072,"Ġtuomio":9073,"=\"":9074,"Ġkuulo":9075,"ĠHanna":9076,"Ġpuun":9077,"Ġluonnollisesti":9078,"ĠâĢĭ":9079,"seet":9080,"jilla":9081,"issan":9082,"nia":9083,"Es":9084,"Ġtavar":9085,"Ġsukat":9086,"ĠpelejÃ¤":9087,"isilta":9088,"ĠpÃ¤Ã¤ttyy":9089,"Ġjollain":9090,"iskasvat":9091,"ĠperÃ¤ssÃ¤":9092,"mootto":9093,"Ġkaveri":9094,"Ġkatsotaan":9095,"Ġkalenter":9096,"Ġ2002":9097,"Ġkangas":9098,"Ġpostaus":9099,"Ġtesti":9100,"ĠVuosi":9101,"ustuksen":9102,"Ġge":9103,"ĠkÃ¤ymÃ¤Ã¤n":9104,"ĠHY":9105,"mÃ¤tÃ¶ntÃ¤":9106,"Ġtarkasti":9107,"ĠJanne":9108,"ĠpÃ¤h":9109,"Ġvarat":9110,"vakuutus":9111,"lj":9112,"Ġahker":9113,"ition":9114,"Ġerilaisten":9115,"rand":9116,"Ġtarvikkeet":9117,"ĠPuu":9118,"Ġmaasto":9119,"rosof":9120,"Ġklass":9121,"ĠAll":9122,"Tule":9123,"jit":9124,"ision":9125,"Ġhuonosti":9126,"ĠPitÃ¤":9127,"Ġkruun":9128,"ĠKirjoittaja":9129,"urit":9130,"ettÃ¤vÃ¤t":9131,"Ġmaailmaan":9132,"Ġpoikkeukse":9133,"cin":9134,"Ġsaattoi":9135,"day":9136,"Ġsyl":9137,"ĠLED":9138,"otetaan":9139,"Ġiden":9140,"esign":9141,"Ġturku":9142,"Ġhoidon":9143,"Ġosaamisen":9144,"Ġpojat":9145,"Ġhypp":9146,"ĠsÃ¤r":9147,"taat":9148,"mot":9149,"Ġyhdys":9150,"Ġsanoma":9151,"kohtia":9152,"Ġsodan":9153,"sas":9154,"Ġasuu":9155,"Ġosoitteeseen":9156,"ĠliittyvÃ¤":9157,"inkin":9158,"ĠRadio":9159,"Ġtuotetta":9160,"tunen":9161,"ilat":9162,"Ġartikkeli":9163,"suoja":9164,"alalla":9165,"ĠTilaa":9166,"Ġvapaasti":9167,"Ġteatter":9168,"telup":9169,"ĠtÃ¤hden":9170,"eltÃ¤Ã¤n":9171,"ĠpÃ¤Ã¤osin":9172,"lahti":9173,"valtain":9174,"toiminta":9175,"Ġkoordin":9176,"maailman":9177,"suunnitelman":9178,"Ġseudun":9179,"hah":9180,"Ġkonkreet":9181,"politiikka":9182,"Ġaid":9183,"ĠsisÃ¤llÃ¶n":9184,"Ġmerkityks":9185,"ĠsÃ¤vel":9186,"ĠHuone":9187,"istojen":9188,"ĠPaikka":9189,"Is":9190,"ĠKouv":9191,"Ġreitti":9192,"Ġviittaa":9193,"mput":9194,"hankkeen":9195,"Ġsot":9196,"tilassa":9197,"Ġkarto":9198,"ohjaus":9199,"haan":9200,"ĠVarsina":9201,"Ġheija":9202,"Download":9203,"Ġeuro":9204,"Ġjuurikaan":9205,"esÃ¤":9206,"Ġoppimis":9207,"ĠAnne":9208,"ĠtytÃ¶n":9209,"omus":9210,"ĠVas":9211,"Ġjyr":9212,"Ġturvaa":9213,"Ġpersoona":9214,"âĸ¼":9215,"Ġkehit":9216,"ĠÃ¤Ã¤nestÃ¤":9217,"akkaus":9218,"ING":9219,"sali":9220,"Ġsalli":9221,"angas":9222,"Ġmittaa":9223,"kaupunki":9224,"Ġpolku":9225,"ĠetteivÃ¤t":9226,"Ġtarinoita":9227,"igh":9228,"kkeja":9229,"ĠsisÃ¤ltÃ¤vÃ¤t":9230,"Ġid":9231,"Ġtarvita":9232,"lit":9233,"Ġongelmat":9234,"Ġgen":9235,"Ġlog":9236,"ĠÂ«":9237,"Sel":9238,"ĠTietoa":9239,"Ġvauhtia":9240,"ttejÃ¤":9241,"Ġlopettaa":9242,"ottamaan":9243,"Ġkuului":9244,"orld":9245,"oper":9246,"jÃ¤lle":9247,"kri":9248,"otan":9249,"LÃ¶":9250,"Ġalb":9251,"ĠlÃ¤mpim":9252,"ĠviestiÃ¤":9253,"ĠAndr":9254,"Ġtarkista":9255,"Ġ2001":9256,"Ġkenties":9257,"ĠYou":9258,"Ġhanke":9259,"Ġihanat":9260,"syy":9261,"ĠAt":9262,"varo":9263,"Ġ=)":9264,"muod":9265,"Ġnaap":9266,"ohjelmat":9267,"iltu":9268,"tias":9269,"Ġmg":9270,"Ġ02":9271,"ostaan":9272,"ĠMilla":9273,"ydet":9274,"uunta":9275,"Ġmenne":9276,"Ġnormaalisti":9277,"Ġosu":9278,"ĠlÃ¤mpÃ¶tila":9279,"ĠCor":9280,"ĠEuroopassa":9281,"ikainen":9282,"sunnuntai":9283,"Ġkasin":9284,"eenjohtaja":9285,"ĠCD":9286,"ĠSyn":9287,"Ġsatunna":9288,"liikenne":9289,"ikoina":9290,"ĠtyÃ¶stÃ¤":9291,"Ġmaja":9292,"Ġluona":9293,"Her":9294,"Ġaikaise":9295,"kad":9296,"Ġmajoit":9297,"irektiiv":9298,"Ġrakentaminen":9299,"Ġhoitoa":9300,"ĠHannu":9301,"ilo":9302,"ydÃ¤t":9303,"Ġ$":9304,"Ve":9305,"Ġhuum":9306,"ĠOul":9307,"rab":9308,"istettiin":9309,"vÃ¤ri":9310,"ĠPitÃ¤Ã¤":9311,"ĠLehti":9312,"Ġsanoja":9313,"istyy":9314,"Ġasiakkaille":9315,"ELL":9316,"ĠHalua":9317,"ling":9318,"foor":9319,"Ġpaketti":9320,"strÃ¶m":9321,"Ġturvallis":9322,"Ġolleen":9323,"ĠJeesus":9324,"Mies":9325,"itettavasti":9326,"puhelin":9327,"edot":9328,"KUVA":9329,"ĠAse":9330,"ULU":9331,"tonsa":9332,"ĠPoli":9333,"Ġliikkeelle":9334,"ĠPako":9335,"pinta":9336,"Ġsaimme":9337,"ĠYleensÃ¤":9338,"ĠSiihen":9339,"ĠUrheilu":9340,"Ġlaitoin":9341,"ĠeipÃ¤":9342,"unk":9343,"Ġnoudat":9344,"hdon":9345,"ĠPÃ¶ytÃ¤":9346,"ward":9347,"Ġteema":9348,"kaikki":9349,"2006":9350,"Ġmeri":9351,"ĠAinakin":9352,"Eilen":9353,"Ġoper":9354,"tistÃ¤":9355,"Ġkerrallaan":9356,"Ġhiljaa":9357,"Ġsisar":9358,"Asia":9359,"vapaa":9360,"mmÃ¤ksi":9361,"Matka":9362,"maisen":9363,"Ġtulivat":9364,"Ġitsellesi":9365,"llisyyttÃ¤":9366,"ĠheistÃ¤":9367,"ĠlÃ¶ydÃ¤":9368,"68":9369,"ollisen":9370,"ĠAp":9371,"Ġmuutkin":9372,"ĠMukana":9373,"luettelo":9374,"ĠMU":9375,"Ġkeksin":9376,"ĠtietenkÃ¤Ã¤n":9377,"kg":9378,"Ġkasino":9379,"tuotte":9380,"valmis":9381,"Oma":9382,"ĠTAR":9383,"ĠIlmainen":9384,"Ġsairaus":9385,"kehitys":9386,"ĠKaupungin":9387,"FI":9388,"ĠnÃ¤hty":9389,"ISUUS":9390,"Ġison":9391,"ĠLiike":9392,"ĠvÃ¤listÃ¤":9393,"ĠYhteen":9394,"iluo":9395,"alaisia":9396,"ugh":9397,"vÃ¤llÃ¤":9398,"Ġresurs":9399,"Ġreil":9400,"Ġenglannin":9401,"Ġ42":9402,"ĠKana":9403,"ttiÃ¤":9404,"Ġvaivat":9405,"TÃ¤stÃ¤":9406,"kian":9407,"emmistÃ¶":9408,"Ġvelvoit":9409,"Ġverkkokauppa":9410,"ĠMed":9411,"Ġpalkinto":9412,"ostuksen":9413,"ĠetÃ¤isyys":9414,"ralla":9415,"ĠenintÃ¤Ã¤n":9416,"ĠTiede":9417,"ĠvÃ¤linen":9418,"relle":9419,"ĠSon":9420,"chin":9421,"Ġhaitta":9422,"Ġtutustumaan":9423,"ĠjÃ¤n":9424,"Ġlukemaan":9425,"Ġsitruun":9426,"iasta":9427,"ĠBal":9428,"ĠTutkim":9429,"ĠItali":9430,"tason":9431,"Ġyhty":9432,"ĠVai":9433,"Ġsuhteellisen":9434,"Ġ1990":9435,"ĠVÃ¤hÃ¤n":9436,"Ġseksit":9437,"llisista":9438,"xt":9439,"ismin":9440,"yÃ¶sken":9441,"tyksessÃ¤":9442,"itteet":9443,"ĠValtion":9444,"ehÃ¤n":9445,"ĠLuu":9446,"Ã¤Ã¤tÃ¤":9447,"Ġkoostu":9448,"Ġhallitse":9449,"materiaali":9450,"nnut":9451,"tiossa":9452,"Ġmeren":9453,"ĠOlisi":9454,"estintÃ¤":9455,"vero":9456,"Ġkelpaa":9457,"Ã©n":9458,"Ġosaan":9459,"Ġkauhe":9460,"Ġaktiivisesti":9461,"onyy":9462,"Ġlanka":9463,"utukset":9464,"Ġtoive":9465,"ĠAalto":9466,"marin":9467,"ihar":9468,"uan":9469,"Ġkot":9470,"ĠJoul":9471,"Ġtutkin":9472,"yydytys":9473,"ymmen":9474,"Ġhotellin":9475,"Ġhyvinvoinnin":9476,"koitus":9477,"Ġkro":9478,"ĠTUL":9479,"Ġtuuli":9480,"lahden":9481,"SE":9482,"Ġesittely":9483,"ĠtyÃ¶skenne":9484,"UUNNITELMA":9485,"Ġlunta":9486,"sÃ¤h":9487,"ĠBea":9488,"toman":9489,"ytetty":9490,"videot":9491,"ĠToimitus":9492,"Ġkerrosta":9493,"ennut":9494,"maise":9495,"maanantai":9496,"Ġmajoitus":9497,"Ġwid":9498,"kyl":9499,"politiikan":9500,"ĠPohjan":9501,"Ġvirh":9502,"ikun":9503,"ĠSaksan":9504,"Ġsivulla":9505,"ĠKoulutus":9506,"Ġkamera":9507,"Ġkaue":9508,"Ġfir":9509,"mela":9510,"Ġopas":9511,"Ġrahat":9512,"ĠSavon":9513,"Ġsien":9514,"Ġruko":9515,"Ġsoveltu":9516,"Ġjohtuen":9517,"Ġranga":9518,"pasiteet":9519,"Ġterr":9520,"Ġrunko":9521,"ĠsisÃ¤ltyy":9522,"ĠMain":9523,"Ġmuusta":9524,"Ġtilannetta":9525,"ettaisiin":9526,"ĠlÃ¤Ã¤kÃ¤ri":9527,"Ġrajat":9528,"Ġpaikkoja":9529,"uck":9530,"itoim":9531,"Ġhius":9532,"ĠPur":9533,"ĠTop":9534,"ĠIS":9535,"Ġtuotan":9536,"Ġleir":9537,"ĠSuurin":9538,"keus":9539,"Haa":9540,"Ġpell":9541,"ppar":9542,"Ġuhkaa":9543,"Ġluvassa":9544,"loa":9545,"ĠPap":9546,"ĠsÃ¶pÃ¶":9547,"ĠNetti":9548,"Ġkatsoo":9549,"voiman":9550,"saaren":9551,"maansa":9552,"Ġvoittaja":9553,"Ġtulo":9554,"rekister":9555,"ĠYhdysva":9556,"Ġarj":9557,"mann":9558,"ĠTietosuoja":9559,"bil":9560,"ĠKuopio":9561,"kokona":9562,"ĠkÃ¤ynnissÃ¤":9563,"ĠpitkÃ¤stÃ¤":9564,"med":9565,"isinÃ¤":9566,"usaa":9567,"Ġkutsutaan":9568,"jiin":9569,"mos":9570,"Ġsivua":9571,"Ġkahdella":9572,"Ġpariin":9573,"ĠAut":9574,"linnan":9575,"Ġsamm":9576,"kortin":9577,"Ġvaikutti":9578,"Ġmeikki":9579,"Ġhammas":9580,"ĠMiehet":9581,"kÃ¤sittely":9582,"Ġryt":9583,"ĠkÃ¤yttÃ¤vÃ¤t":9584,"ĠerÃ¤s":9585,"bio":9586,"Ġtyyppi":9587,"Ġalko":9588,"isal":9589,"Ġnoussut":9590,"vallat":9591,"utaan":9592,"kella":9593,"llessaan":9594,"tuk":9595,"Ġottaen":9596,"ĠAlku":9597,"Ġkuuden":9598,"utamme":9599,"Ġotin":9600,"Ġsininen":9601,"Ġsuomalaisia":9602,"ĠSisÃ¤ltÃ¶":9603,"kaisija":9604,"Ġelektr":9605,"Kan":9606,"-/":9607,"detaan":9608,"Ġtehneet":9609,"Ġmielenkiintoinen":9610,"raaf":9611,"boratori":9612,"Ġkahv":9613,"ung":9614,"nto":9615,"Ġpim":9616,"Ġtaisi":9617,"Ġluottamus":9618,"ettasi":9619,"ĠkÃ¤sityÃ¶":9620,"luku":9621,"Ġjoille":9622,"ĠLahden":9623,"ĠSisÃ¤llys":9624,"Ġalenn":9625,"Halu":9626,"amma":9627,"Han":9628,"Lasten":9629,"Ġasiakkaita":9630,"jina":9631,"bot":9632,"uoneen":9633,"paja":9634,"ĠvÃ¤littÃ¤":9635,"kÃ¤ynti":9636,"ĠBlu":9637,"oppi":9638,"Ġetsit":9639,"Ġloput":9640,"imistÃ¶":9641,"ĠsÃ¤hkÃ¶n":9642,"Ġsuru":9643,"Ġtullaan":9644,"ĠtÃ¤hti":9645,"stys":9646,"VD":9647,"Ġtr":9648,"ĠmiehiÃ¤":9649,"tegor":9650,"tyÃ¶n":9651,"cal":9652,"dika":9653,"ĠhenkilÃ¶kohtainen":9654,"Ġnot":9655,"ĠSul":9656,"ĠsyrjÃ¤":9657,"Ġkivoja":9658,"Ġtyyn":9659,"Ġtietyn":9660,"eellisesti":9661,"fek":9662,"Ġhankkeen":9663,"Ġtehokas":9664,"yin":9665,"Ġ040":9666,"mmia":9667,"ĠYllÃ¤":9668,"ĠpÃ¶r":9669,"Ġnoista":9670,"Ġvanhaa":9671,"minaa":9672,"Ġetsin":9673,"ĠjÃ¤Ã¤vÃ¤t":9674,"Vih":9675,"iluja":9676,"ellus":9677,"ĠYr":9678,"tunte":9679,"Ġkomis":9680,"IKKA":9681,"Ġsade":9682,"Ġkysymyksiin":9683,"Ġsuorastaan":9684,"Ġeroon":9685,"kitus":9686,"ĠtÃ¤llaista":9687,"ĠNiinpÃ¤":9688,"ĠPaljon":9689,"ĠkÃ¤ydÃ¤Ã¤n":9690,"Ġnuoren":9691,"kÃ¤r":9692,"Ġtunnistaa":9693,"Vo":9694,"tumista":9695,"ĠJohn":9696,"Ġprote":9697,"ĠCha":9698,"ctor":9699,"Ġpotenti":9700,"Ġperusteet":9701,"opiskeli":9702,"ĠtÃ¤ytÃ¤":9703,"lÃ¤Ã¤kÃ¤ri":9704,"johto":9705,"âĢī":9706,"Ġkehityks":9707,"ĠtÃ¤ydellisen":9708,"ĠhyvÃ¤ssÃ¤":9709,"Ġuudista":9710,"imit":9711,"mmer":9712,"Ġsuihku":9713,"ĠkÃ¤yttÃ¤jÃ¤n":9714,"kylÃ¤":9715,"Ġseuraavaksi":9716,"puisto":9717,"ikuva":9718,"otonta":9719,"Ġtoisiaan":9720,"Keski":9721,"Sosi":9722,"ĠMarkkin":9723,"ippa":9724,"Ġvalik":9725,"Ġaiheeseen":9726,"88":9727,"ĠPih":9728,"vaihd":9729,"TTI":9730,"Tube":9731,"ĠOon":9732,"ĠtekijÃ¤t":9733,"Ġluvat":9734,"Ġlahjoit":9735,"ĠKansainvÃ¤l":9736,"Ġkulku":9737,"ehkÃ¤":9738,"Ġreissu":9739,"kaupassa":9740,"Ġlemm":9741,"oter":9742,"ĠiltapÃ¤ivÃ¤":9743,"Ġdokumen":9744,"ĠhÃ¤l":9745,"ilevat":9746,"ĠkÃ¤ytÃ¤n":9747,"Ġkirjassa":9748,"Ġedellyt":9749,"videoita":9750,"sojen":9751,"Ġominaisuuksia":9752,"Ġtunnetaan":9753,"Ġtuomi":9754,"luokan":9755,"Ġfan":9756,"naa":9757,"Ġsope":9758,"ottavat":9759,"Ġjoutu":9760,"ikea":9761,"Ġite":9762,"Ġkerros":9763,"ĠTerveys":9764,"Ġpri":9765,"Ġaikanaan":9766,"Ġime":9767,"dion":9768,"ĠpitkÃ¤t":9769,"eellista":9770,"ĠKale":9771,"Ġkuivat":9772,"bol":9773,"Ġhalusin":9774,"ĠteitÃ¤":9775,"ĠTÃ¤nÃ¤":9776,"Ġnoi":9777,"ï¿½ï¿½":9778,"hiljaa":9779,"ĠJohanna":9780,"ĠikÃ¤vÃ¤":9781,"Ġkemi":9782,"Ġtota":9783,"misiin":9784,"kuntien":9785,"Ġasunn":9786,"Ġkahvi":9787,"ĠParas":9788,"ello":9789,"Ġlii":9790,"bel":9791,"Ġluokit":9792,"Ġprofessori":9793,"Ġmuutosta":9794,"elokuva":9795,"Tuote":9796,"ĠAivan":9797,"astot":9798,"Ġrannalla":9799,"stoin":9800,"ustyÃ¶":9801,"Ġloukkaan":9802,"ĠmetsÃ¤n":9803,"ppien":9804,"ÃĦIV":9805,"omi":9806,"Ġkirjailija":9807,"Ġkip":9808,"Ġrauhoit":9809,"Ġjuhl":9810,"Ġvaikutusta":9811,"kaisin":9812,"Ġulkopuolelle":9813,"Ġmainita":9814,"Ġoulu":9815,"Ġbus":9816,"ĠTut":9817,"Ġsanotaan":9818,"Ġrap":9819,"ÃĦH":9820,"Ġtarkoitetaan":9821,"Ġisoja":9822,"ustar":9823,"Ġkorkeus":9824,"Ġvalvon":9825,"MistÃ¤":9826,"ustin":9827,"ĠYHTE":9828,"Pekka":9829,"Ġalennus":9830,"ĠpÃ¶ydÃ¤":9831,"Ġsukula":9832,"TR":9833,"Ġavaus":9834,"ĠHein":9835,"unsa":9836,"ĠMinna":9837,"Ġtasapaino":9838,"ĠâĨ":9839,"Ġsiirtyy":9840,"Ilma":9841,"ĠlisÃ¤tietoja":9842,"eenÃ¤":9843,"Ġmielenkiintoista":9844,"ataan":9845,"kaisi":9846,"Ġluultavasti":9847,"huoneen":9848,"ipe":9849,"Ġkaava":9850,"zny":9851,"meren":9852,"pien":9853,"Ġkanan":9854,"Ġyhdeks":9855,"estyle":9856,"ympÃ¤ristÃ¶n":9857,"Ġinter":9858,"ead":9859,"Ġvaatimukset":9860,"udutaan":9861,"ĠheidÃ¤t":9862,"Hyvin":9863,"cebook":9864,"kamera":9865,"ower":9866,"Ġsivuilta":9867,"ĠRed":9868,"Ġsynn":9869,"Ġhuh":9870,"mut":9871,"KÃ¤yttÃ¤":9872,"ĠhÃ¤mmÃ¤":9873,"ĠPitkÃ¤":9874,"mallin":9875,"Ġvuodelle":9876,"Ġmuutoksen":9877,"ĠâĢĭâĢĭ":9878,"Ġtiennyt":9879,"PÃ¤ivÃ¤":9880,"onal":9881,"ĠUSB":9882,"Vaa":9883,"Mulla":9884,"imerk":9885,"ĠerÃ¤Ã¤":9886,"ytin":9887,"Olemme":9888,"Ġoikealla":9889,"Ġluonte":9890,"fl":9891,"NÃ¤ytÃ¤":9892,"Ġteollisuus":9893,"vol":9894,"tiaan":9895,"Ġonnellinen":9896,"Ġjoulua":9897,"nu":9898,"Ġkuningas":9899,"Erit":9900,"kolla":9901,"teltu":9902,"Ġtoiminnassa":9903,"Ġirto":9904,"Ġluokan":9905,"ĠpelkÃ¤Ã¤":9906,"tein":9907,"Ġjalan":9908,"ĠAri":9909,"mojen":9910,"kuntaan":9911,"eeta":9912,"telyt":9913,"Ġkulma":9914,"ITE":9915,"muksia":9916,"Ġpyrkii":9917,"Ġmusiik":9918,"ĠIN":9919,"Ġkansaned":9920,"Ġpornoa":9921,"ĠEnergia":9922,"Ġsokeri":9923,"Ġseuraavana":9924,"Ġvirtu":9925,"moista":9926,"PO":9927,"Ġuutiset":9928,"ĠJÃ¤l":9929,"Verkko":9930,"Ġsuhta":9931,"pil":9932,"ĠAsian":9933,"OITUS":9934,"ulah":9935,"Ġvaivaa":9936,"hia":9937,"Ġajoissa":9938,"Ġavo":9939,"isuo":9940,"Ġlenk":9941,"ĠSano":9942,"cer":9943,"Ġkus":9944,"Ġpaikasta":9945,"Ġlaitteen":9946,"ett":9947,"hÃ¶":9948,"ĠNÃ¤ytÃ¤":9949,"Ġdla":9950,"pankki":9951,"tions":9952,"Ġunohd":9953,"Ġasiakaspalvel":9954,"uotteita":9955,"Ġkonta":9956,"loissa":9957,"KAS":9958,"Ġmahdolliset":9959,"Ġpotila":9960,"julkais":9961,"ĠToivo":9962,"ÃĦT":9963,"Ġvika":9964,"ninen":9965,"vatiiv":9966,"Ġmallin":9967,"ĠMil":9968,"Ġkuoleman":9969,"vÃ¤en":9970,"Ġmonesti":9971,"Ġvastaanotto":9972,"Ġmaini":9973,"ĠUsein":9974,"Ġtuovat":9975,"HS":9976,"valtaa":9977,"ĠenemmÃ¤nkin":9978,"attua":9979,"isyyd":9980,"KON":9981,"Ġkonsul":9982,"Ġkunniaksi":9983,"ĠRus":9984,"ĠTieto":9985,"Ġjuokse":9986,"ettujen":9987,"ĠymmÃ¤rtÃ¤":9988,"anych":9989,"Ġvalmistaa":9990,"imella":9991,"istua":9992,"ĠkeskittyÃ¤":9993,"ĠyÃ¶tÃ¤":9994,"mattomat":9995,"Ġtapaus":9996,"owanych":9997,"Ġzalog":9998,"oczny":9999,"ĠpÃ¤Ã¤tÃ¤":10000,"Ġwidoczny":10001,"Ġzalogowanych":10002,"Ġtuen":10003,"ĠkÃ¤t":10004,"Ġpuolelta":10005,"ivoima":10006,"keaa":10007,"Ġelinkein":10008,"ĠTuote":10009,"ĠMootto":10010,"ĠKre":10011,"isat":10012,"ĠKI":10013,"ĠPen":10014,"Ġhelpot":10015,"Ġsaamaan":10016,"istien":10017,"ĠÃ¤Ã¤nen":10018,"ĠKunn":10019,"Ġtapauksissa":10020,"kkeelle":10021,"Ġsulle":10022,"ĠJuuri":10023,"Ġpre":10024,"Ġlopulla":10025,"ĠlÃ¤htenyt":10026,"ĠhÃ¤mÃ¤":10027,"ĠHyvÃ¤Ã¤":10028,"Ġhiusten":10029,"Mer":10030,"ĠOSA":10031,"rissa":10032,"Ġtunnu":10033,"Kaa":10034,"Ġkyr":10035,"prosessi":10036,"IF":10037,"ikÃ¤Ã¤n":10038,"Ġsuut":10039,"Ġravin":10040,"ikoissa":10041,"Ġvalikoima":10042,"Ġparla":10043,"ĠAin":10044,"dut":10045,"Ġmoneen":10046,"77":10047,"Ġuseimmiten":10048,"lautakunta":10049,"Ġreak":10050,"ĠKai":10051,"Ġvastauksia":10052,"Nuor":10053,"Ġkasvun":10054,"puli":10055,"eelliset":10056,"Ġmatkaan":10057,"Ġlatti":10058,"ĠtyÃ¶t":10059,"ĠVanhe":10060,"Minulla":10061,"euvoston":10062,"Teh":10063,"onnut":10064,"stossa":10065,"kesÃ¤":10066,"ĠtiedÃ¤t":10067,"Ġsuhtautu":10068,"kielinen":10069,"Ġtarpeisiin":10070,"tifi":10071,"Ġliiton":10072,"ĠOlli":10073,"tannon":10074,"ĠkehitystÃ¤":10075,"kkeella":10076,"Ġtaida":10077,"pane":10078,"Ġkokenut":10079,"rinen":10080,"Ġaikojen":10081,"Ġyksinkertainen":10082,"uummin":10083,"Ġhope":10084,"verikkÃ¶":10085,"jeli":10086,"laitoksen":10087,"Ġhuolellisesti":10088,"Ġhull":10089,"annes":10090,"Ġnuoria":10091,"kina":10092,"Ġalkua":10093,"Ġkohteeseen":10094,"Ġasteen":10095,"Ġmerkit":10096,"Ġenglanniksi":10097,"mattu":10098,"kestÃ¤":10099,"ĠjÃ¤lke":10100,"isy":10101,"Ġviit":10102,"Ġhill":10103,"Ġhas":10104,"Ġamm":10105,"ric":10106,"Ġpikavi":10107,"Ġkeks":10108,"Ġjuna":10109,"usen":10110,"tela":10111,"essut":10112,"ĠnÃ¤e":10113,"Ġpsykolog":10114,"Ġkirjasta":10115,"ĠtykkÃ¤":10116,"tena":10117,"Ġ2019":10118,"siat":10119,"Ġapte":10120,"veen":10121,"ĠLive":10122,"ĠJatka":10123,"Ġotettiin":10124,"Ġuskalta":10125,"Ġmukanaan":10126,"Suosit":10127,"liikenteen":10128,"mpun":10129,"Ġuudesta":10130,"Ġeka":10131,"istuvat":10132,"Ġseuraavaa":10133,"Avainsanat":10134,"iro":10135,"Ġasiakkaat":10136,"?!":10137,"ĠmyydÃ¤Ã¤n":10138,"Ġaat":10139,"Ġklassi":10140,"ĠMikk":10141,"Ġnopeammin":10142,"ĠyhdistelmÃ¤":10143,"Ġlukio":10144,"Ġtoimittaa":10145,"hyÃ¶":10146,"miesten":10147,"ĠsÃ¤ilyttÃ¤":10148,"vaiheessa":10149,"tomia":10150,"uhaa":10151,"aaleja":10152,"Ġirtis":10153,"Elo":10154,"Ġjuhli":10155,"Ġfi":10156,"Ġtarvinnut":10157,"ĠKunnan":10158,"Ġ46":10159,"vea":10160,"pdf":10161,"Ġut":10162,"Ġhakemaan":10163,"--------":10164,"Ġpoi":10165,"ĠJuo":10166,"Ġtiedosto":10167,"isio":10168,"Ġkustannukset":10169,"ĠkentÃ¤t":10170,"Ġkokeilemaan":10171,"ĠEikÃ¶":10172,"ĠSuomalainen":10173,"ĠTampereella":10174,"Ġfanta":10175,"perjantai":10176,"ĠPirkan":10177,"roa":10178,"Ġtarkast":10179,"Ġaikaiseksi":10180,"Ġpienempi":10181,"Ġrin":10182,"Ġam":10183,"ĠLyh":10184,"kean":10185,"ĠÃ¤Ã¤ntÃ¤":10186,"ĠJulkais":10187,"ĠkÃ¤yttÃ¤mÃ¤llÃ¤":10188,"ĠPelaa":10189,"Ġtuolloin":10190,"ĠVI":10191,"uen":10192,"Ġpaksu":10193,"Ġvieh":10194,"ult":10195,"ĠmyÃ¶skin":10196,"ĠVanha":10197,"joka":10198,"Ġoikeaan":10199,"Ġjohdosta":10200,"Ġhankala":10201,"TÃ¤Ã¤llÃ¤":10202,"ĠympÃ¤rille":10203,"Til":10204,"Ġalasti":10205,"asunnot":10206,"nnÃ¶n":10207,"ĠSosiaali":10208,"ĠmeiltÃ¤":10209,"nassa":10210,"ĠedeltÃ¤":10211,"ĠTukhol":10212,"Ġpap":10213,"itit":10214,"Ġturhan":10215,"ĠAf":10216,"Ġsup":10217,"ĠWar":10218,"Ġkuunnella":10219,"vemmin":10220,"umÃ¤Ã¤rÃ¤":10221,"ĠmyynnissÃ¤":10222,"ĠYrityksen":10223,"Ġmukaansa":10224,"Ġlukija":10225,"Anna":10226,"Ġmah":10227,"Ġtavaraa":10228,"tomus":10229,"tutkimus":10230,"Euroopan":10231,"Ġpyrki":10232,"ĠnÃ¤ki":10233,"Ġtoimesta":10234,"astossa":10235,"Ġpihalla":10236,"ineiden":10237,"Ġmonimut":10238,"Ġakku":10239,"tamme":10240,"Kilpa":10241,"tini":10242,"Ġkauniit":10243,"ĠBen":10244,"sessa":10245,"Ġkatsomassa":10246,"ĠpysyÃ¤":10247,"ĠPain":10248,"melle":10249,"ĠGar":10250,"ĠPak":10251,"ĠGroup":10252,"Ġonnea":10253,"Ġsim":10254,"ĠLoh":10255,"Nor":10256,"Ġfak":10257,"Ġpelastus":10258,"LAN":10259,"ĠPÃ¤ivi":10260,"Ġsulj":10261,"Ġauttavat":10262,"yhmÃ¤n":10263,"utusa":10264,"aikaan":10265,"Ġvalitta":10266,"Ġsosiaalisen":10267,"ĠperÃ¤ti":10268,"Ġ44":10269,"mmillaan":10270,"ĠNokia":10271,"Ġpaine":10272,"ukassa":10273,"sana":10274,"tamalla":10275,"ĠselittÃ¤Ã¤":10276,"huol":10277,"Ġomiin":10278,"ĠRuotsissa":10279,"ĠKOKO":10280,"Ġkaikessa":10281,"ellÃ¤ni":10282,"uter":10283,"Ġehti":10284,"innoista":10285,"TK":10286,"Ġtilanteissa":10287,"nÃ¤yt":10288,"vÃ¤li":10289,"Ġba":10290,"ĠPÃ¤Ã¤tÃ¶":10291,"festyle":10292,"turvallisuus":10293,"ĠAmmatti":10294,"Ġtavallaan":10295,"Ġnegatiiv":10296,"Ġvisu":10297,"ĠAar":10298,"punainen":10299,"voista":10300,"kaudella":10301,"Ġavoinna":10302,"Ġunionin":10303,"Ġnii":10304,"cial":10305,"Pohjois":10306,"ames":10307,"Ġtuho":10308,"Ġkriit":10309,"Ġtasolle":10310,"ĠEI":10311,"ĠtyÃ¶ntekijÃ¶iden":10312,"sat":10313,"ILLE":10314,"Ġominaisu":10315,"Ġjoukkueen":10316,"Ġjakel":10317,"iikki":10318,"ĠLaura":10319,"Ġjuuta":10320,"yte":10321,"Ã¤nne":10322,"press":10323,"Ġbonus":10324,"Ġviikonlopun":10325,"Ġresepti":10326,"ĠEuro":10327,"ĠTÃ¤ytyy":10328,"ĠVÃ¤r":10329,"Ġmaksetaan":10330,"ĠVAR":10331,"keita":10332,"ĠEde":10333,"kettÃ¤":10334,"ĠNeuvosto":10335,"Tila":10336,"Ġnormaalia":10337,"Ġ03":10338,"98":10339,"Ġhyvinvointia":10340,"ĠMari":10341,"Ġmiljoonan":10342,"Ġmessu":10343,"isimme":10344,"ĠpienellÃ¤":10345,"pih":10346,"holi":10347,"Ġvoisivat":10348,"Ġottelu":10349,"Ġvoimakkaasti":10350,"sipul":10351,"ture":10352,"ĠVÃ¤lillÃ¤":10353,"ĠTutustu":10354,"SÃ¤Ã¤":10355,"ĠSyks":10356,"ĠpÃ¤Ã¤sin":10357,"Ġshe":10358,"ĠJava":10359,"ĠRan":10360,"Ġtoiminna":10361,"Ġsuomeksi":10362,"Ġtuhansia":10363,"Ġkoneen":10364,"Ġvaikutukset":10365,"telemassa":10366,"Ġvauvan":10367,"Ġtuotteista":10368,"eraan":10369,"kuri":10370,"Ġlaski":10371,"Ġtarinan":10372,"kaupp":10373,"gmail":10374,"Ġuusiin":10375,"Ġopin":10376,"RE":10377,"osassa":10378,"Ġsuurim":10379,"ĠkÃ¤sitellÃ¤":10380,"VIO":10381,"ĠTak":10382,"ĠpÃ¤Ã¤sevÃ¤t":10383,"Ġkysyi":10384,"Ġtoimittaja":10385,"Ġvalittiin":10386,"Ġpuolusta":10387,"ĠJok":10388,"pÃ¤Ã¤tÃ¶ksen":10389,"Ġtavat":10390,"ĠErityisesti":10391,"Ġjatkoi":10392,"ĠsyistÃ¤":10393,"ĠSella":10394,"kenn":10395,"Ġtoisistaan":10396,"ĠBon":10397,"antaja":10398,"ĠJaakko":10399,"Ġmielenter":10400,"Oi":10401,"Ġkartan":10402,"Pan":10403,"ĠAiku":10404,"ĠNy":10405,"ĠAurinko":10406,"Ġmaksut":10407,"Ġhienoja":10408,"Ġtaloudellinen":10409,"okki":10410,"Ġopiskelijat":10411,"Ġkynn":10412,"ĠTule":10413,"ĠlÃ¤hetys":10414,"Ġkolmannen":10415,"Ġmuuttamisesta":10416,"Ġlinn":10417,"Ġasunnon":10418,"Ġharjoitus":10419,"itaa":10420,"maksut":10421,"tumis":10422,"ĠLapset":10423,"utaa":10424,"Ġarvioida":10425,"âĢ¦]":10426,"ĠnÃ¤Ã¤":10427,"Muista":10428,"upÃ¤ivÃ¤":10429,"sisa":10430,"Ġautolla":10431,"ĠRos":10432,"Ġkokonaisuus":10433,"Ġelokuvat":10434,"asana":10435,"ĠIkÃ¤":10436,"Ġpost":10437,"Ġhinnan":10438,"ÃĸYTÃĦ":10439,"Ġtodeta":10440,"Kirjoittaja":10441,"aikaisesti":10442,"vid":10443,"Ġnuorille":10444,"ĠHEL":10445,"ĠAsu":10446,"Ġkahvia":10447,"Vasta":10448,"Ġhetkeksi":10449,"juhla":10450,"opetus":10451,"Ġtestaa":10452,"ĠMÃ¤n":10453,"Ġsuurimman":10454,"ĠTrump":10455,"Ġsuuntaa":10456,"Ġhuomata":10457,"ppaat":10458,"Joka":10459,"ĠRÃ¤":10460,"apia":10461,"Ġpk":10462,"ham":10463,"Ġkohteesta":10464,"JÃĦR":10465,"lis":10466,"ĠsÃ¤Ã¤n":10467,"Ġfik":10468,"ĠVieras":10469,"Ġrikos":10470,"ĠlÃ¤helle":10471,"Ġperuut":10472,"ĠKiinteistÃ¶":10473,"ĠhenkilÃ¶t":10474,"ĠEttÃ¤":10475,"Ġ800":10476,"ĠPeli":10477,"suomi":10478,"ĠGa":10479,"ĠyritÃ¤n":10480,"Ġavusta":10481,"kerr":10482,"maissa":10483,"hallinnon":10484,"HyvÃ¤Ã¤":10485,"Ġuseampi":10486,"rast":10487,"DP":10488,"Ġpalata":10489,"nologia":10490,"Ġinspir":10491,"ĠpÃ¤Ã¤ltÃ¤":10492,"ĠvÃ¤lttÃ¤Ã¤":10493,"Ġkartta":10494,"Ġju":10495,"kela":10496,"Ġhot":10497,"Ġotto":10498,"ettÃ¶mÃ¤n":10499,"oha":10500,"Ġtuntee":10501,"mppani":10502,"etys":10503,"Ġleikkaa":10504,"ksellÃ¤":10505,"ĠGo":10506,"Ġjohdon":10507,"Ġliv":10508,"VenÃ¤":10509,"ilijoita":10510,"kymmentÃ¤":10511,"tuen":10512,"vÃ¤lineet":10513,"ĠsinÃ¤nsÃ¤":10514,"bu":10515,"puut":10516,"ĠGra":10517,"ĠAino":10518,"ĠmenevÃ¤t":10519,"ĠNiiden":10520,"eed":10521,"ĠyrittÃ¤j":10522,"Ġsanottu":10523,"utetaan":10524,"kkoja":10525,"bjektiiv":10526,"ĠtyÃ¶llis":10527,"lasta":10528,"Ġsilm":10529,"lÃ¤inen":10530,"Ġrata":10531,"Ġmaalin":10532,"Ã¤Ã¤ltÃ¤":10533,"ĠbrÃ¤n":10534,"kamer":10535,"Ġkump":10536,"jako":10537,"Ġmarkkinoille":10538,"Ġaukio":10539,"isimmÃ¤t":10540,"muna":10541,"Ġkei":10542,"ĠKES":10543,"ĠKier":10544,"seuraa":10545,"Ġhaav":10546,"Ġmallia":10547,"Ġlataa":10548,"Ġnolla":10549,"Ġtavallista":10550,"Ġ:(":10551,"Ġtoisiinsa":10552,"Ġkulttuurin":10553,"ĠVanh":10554,"dissa":10555,"ammat":10556,"Ġtulevaisuus":10557,"ĠMut":10558,"Ġprojektin":10559,"uvun":10560,"oksella":10561,"Savon":10562,"ĠSama":10563,"Ġherkku":10564,"Ġmateriaalia":10565,"Ġtaul":10566,"Ġtulen":10567,"Ġped":10568,"Ġasioihin":10569,"Ġmonella":10570,"bar":10571,"Ġhitaasti":10572,"Ġpisteet":10573,"ĠsÃ¤Ã¤tÃ¶":10574,"ĠselvÃ¤":10575,"Ġterassi":10576,"Ġulkomailla":10577,"ĠilmiÃ¶":10578,"mella":10579,"Ġsulke":10580,"ĠvÃ¤kivalta":10581,"EtelÃ¤":10582,"Ġmekko":10583,"Ġopiskelijoiden":10584,"itar":10585,"muutto":10586,"ater":10587,"Ġajaksi":10588,"que":10589,"ĠpÃ¤r":10590,"iraan":10591,"ley":10592,"laisille":10593,"Ġhell":10594,"ĠCity":10595,"Sain":10596,"ESTA":10597,"tonut":10598,"telÃ¶":10599,"Â´":10600,"Ġmys":10601,"Ġvuorokauden":10602,"Ġesteet":10603,"ĠNuo":10604,"ĠFree":10605,"Ġmuutto":10606,"Ġsekaan":10607,"Ġolevaan":10608,"bert":10609,"Ġhelpompi":10610,"Ġkassa":10611,"Ġkyseisen":10612,"kylÃ¤n":10613,"itor":10614,"ĠAndroid":10615,"innyt":10616,"ĠvÃ¤hentÃ¤":10617,"Ġkukkia":10618,"mmÃ¤lle":10619,"Ġpaikkansa":10620,"tilainen":10621,"ĠHallituksen":10622,"Ġjoutunut":10623,"Ġkatta":10624,"Co":10625,"ĠIP":10626,"Jul":10627,"ĠJohd":10628,"Yh":10629,"76":10630,"Ġteos":10631,"Ġosoitteesta":10632,"tiÃ¶t":10633,"Ġvs":10634,"mÃ¤h":10635,"kuvaus":10636,"yistÃ¤":10637,"Helsinki":10638,"Ġlisen":10639,"Kuten":10640,"TOS":10641,"Ġaloin":10642,"Ġvalmistus":10643,"ĠikÃ¤Ã¤nty":10644,"etuista":10645,"Ġtulleet":10646,"ĠWi":10647,"Ġvaativat":10648,"vastuu":10649,"telet":10650,"Ġajoin":10651,"Ġpuhuu":10652,"ĠRauta":10653,"kkon":10654,"Ġparann":10655,"unnus":10656,"ĠkÃ¤sittele":10657,"teelle":10658,"Ġ49":10659,"ĠUni":10660,"Ġvoiton":10661,"Ġly":10662,"__":10663,"tusa":10664,"Ġannos":10665,"allinto":10666,"Ġ]":10667,"alueiden":10668,"Ġtoteutetaan":10669,"ĠyksinÃ¤":10670,"ylÃ¤n":10671,"Ġsihteeri":10672,"Ġgay":10673,"ĠtÃ¤yteen":10674,"Ġkarva":10675,"ĠtekstiÃ¤":10676,"kara":10677,"fan":10678,"kyvyn":10679,"eijo":10680,"Ġtoimimaan":10681,"vist":10682,"Ġmielikuv":10683,"yvÃ¤skylÃ¤":10684,"Ġvaikutuksia":10685,"ĠjÃ¤Ã¤h":10686,"pea":10687,"Nyky":10688,"[/":10689,"Ġjulkaistaan":10690,"valmenn":10691,"ĠhÃ¤nestÃ¤":10692,"ĠkiinnittÃ¤Ã¤":10693,"esel":10694,"ffin":10695,"ĠpÃ¤rjÃ¤Ã¤":10696,"Ġtarvittavat":10697,"Ġvp":10698,"Ġstu":10699,"ĠTaa":10700,"oitan":10701,"ĠSuuri":10702,"TC":10703,"Ġblogista":10704,"Ġneste":10705,"tieteiden":10706,"MikÃ¤li":10707,"Ġmaksamaan":10708,"Ġpuk":10709,"mpaat":10710,"Ġtarj":10711,"uunnitelma":10712,"kysym":10713,"ehu":10714,"Ġkertaan":10715,"Ġsote":10716,"tumaan":10717,"ĠselÃ¤":10718,"laaju":10719,"Ġvastaanotta":10720,"Ġviljel":10721,"voitto":10722,"opetuksen":10723,"ĠyksikkÃ¶":10724,"tiauto":10725,"Ġahdist":10726,"voo":10727,"oket":10728,"Ġbrit":10729,"ilaan":10730,"Ilmoit":10731,"ĠKulttuuri":10732,"ĠOletko":10733,"Ġloppua":10734,"Ġkuollut":10735,"oitua":10736,"sella":10737,"paine":10738,"Ġluotetta":10739,"Ġmaiden":10740,"ĠvÃ¤lein":10741,"Ġtarinat":10742,"oppilas":10743,"Ġpaikallaan":10744,"sykolog":10745,"ĠHieronta":10746,"ettajan":10747,"ĠLopp":10748,"ĠPL":10749,"Ġliiketoiminnan":10750,"mistaan":10751,"kkeitÃ¤":10752,"ydestÃ¤":10753,"kÃ¤ytÃ¶n":10754,"ath":10755,"ĠHil":10756,"kaavan":10757,"Ġom":10758,"Ġjarr":10759,"Ġkauniin":10760,"ĠsyÃ¶mÃ¤Ã¤n":10761,"ced":10762,"ĠPohjo":10763,"piiri":10764,"ĠKuvat":10765,"Ġnapa":10766,"istely":10767,"seminaari":10768,"top":10769,"ergian":10770,"ĠPERUS":10771,"Vuonna":10772,"ĠSoin":10773,"tilanne":10774,"toimi":10775,"ikset":10776,"SÃ¤hkÃ¶postiosoit":10777,"Ġolevasta":10778,"Ġlaulu":10779,"Ġhuoneessa":10780,"ĠpelkkÃ¤":10781,"Ġpereh":10782,"Ġopti":10783,"ĠkÃ¤teen":10784,"Ġ2020":10785,"UH":10786,"otin":10787,"osuus":10788,"ppinen":10789,"Ġtervetulle":10790,"himo":10791,"ĠkierrÃ¤tys":10792,"ĠDesign":10793,"ITÃĦ":10794,"ĠQu":10795,"Ġpidettiin":10796,"ĠherÃ¤Ã¤":10797,"ĠOH":10798,"ĠHA":10799,"ĠKunto":10800,"ĠsÃ¤ilyttÃ¤Ã¤":10801,"Ġviher":10802,"Ġpitk":10803,"IC":10804,"Ġravitse":10805,"Ġtui":10806,"estivaal":10807,"ĠystÃ¤viÃ¤":10808,"Ġtekisi":10809,"ITYS":10810,"Ġtutkia":10811,"Ġmarkkinoilla":10812,"Ġsivulle":10813,"Ġkulki":10814,"ĠKain":10815,"ĠSekoita":10816,"ĠOnline":10817,"lenteri":10818,"cam":10819,"minÃ¤":10820,"Ġtoisesta":10821,"Ã¤nnÃ¶n":10822,"suk":10823,"Ġmonin":10824,"Ġinspiraa":10825,"Ġturna":10826,"Ġhiekka":10827,"Ġselvitys":10828,"Ġrisk":10829,"Ġtarkoitta":10830,"ĠVilla":10831,"ĠOri":10832,"ĠhenkilÃ¶stÃ¶n":10833,"okone":10834,"ĠDis":10835,"ĠympÃ¤rÃ¶":10836,"Ġmuodostuu":10837,"Ġgri":10838,"ĠEdus":10839,"ysty":10840,"ĠpistettÃ¤":10841,"usan":10842,"ĠMir":10843,"ĠAlan":10844,"Ġtoiseksi":10845,"ĠnÃ¤kemÃ¤Ã¤n":10846,"64":10847,"Ġlaskea":10848,"Ġyrityksille":10849,"ĠpÃ¤ivinÃ¤":10850,"Ġyksil":10851,"iseltÃ¤":10852,"ANTA":10853,"IEN":10854,"Ġjatkoa":10855,"Muuta":10856,"ĠyhdeksÃ¤n":10857,"cia":10858,"ĠGu":10859,"Ġviimein":10860,"ĠtyÃ¶ntekijÃ¤":10861,"ĠLiikenne":10862,"jilta":10863,"ĠhirveÃ¤":10864,"Ġkirjoitettu":10865,"valko":10866,"Ġparhaita":10867,"ison":10868,"kulla":10869,"atch":10870,"ĠYstÃ¤":10871,"ĠtytÃ¤r":10872,"Ġstressi":10873,"Ġhousut":10874,"Ġasenne":10875,"Ġmuovi":10876,"aaminen":10877,"teatter":10878,"Ġnormaali":10879,"ĠEnsin":10880,"ux":10881,"Ġlukuisia":10882,"Ġtutkija":10883,"ulat":10884,"merkkejÃ¤":10885,"Ġluin":10886,"ivir":10887,"Ġnat":10888,"Ġsopivaa":10889,"alleria":10890,"Ġtunteita":10891,"way":10892,"KIL":10893,"ĠEM":10894,"ehtoja":10895,"mpo":10896,"Ġinfo":10897,"Ġtaiteen":10898,"Ġsopivasti":10899,"eld":10900,"koilla":10901,"Ġsuomalais":10902,"ĠtÃ¶rmÃ¤":10903,"pakollinen":10904,"ehtia":10905,"ĠParhaat":10906,"Ġirr":10907,"ĠKannattaa":10908,"posta":10909,"Ġomalle":10910,"tasolla":10911,"ĠsÃ¤Ã¤stÃ¤Ã¤":10912,"Ġsaavuttaa":10913,"Ġvol":10914,"idÃ¤n":10915,"kkana":10916,"ĠEnglann":10917,"Ġnis":10918,"Ġkolle":10919,"udin":10920,"ning":10921,"yhdistyksen":10922,"Ġleik":10923,"tisti":10924,"Ã¤yt":10925,"ĠMicrosof":10926,"Ġmillainen":10927,"kohtainen":10928,"Ġjuoma":10929,"ĠKoiv":10930,"viera":10931,"ĠSun":10932,"opin":10933,"ĠMur":10934,"esse":10935,"Ġsaamme":10936,"85":10937,"ĠMit":10938,"ĠVin":10939,"Ġfiilis":10940,"ĠHotels":10941,"ĠyrittÃ¤jÃ¤":10942,"lehd":10943,"osof":10944,"Ġkokea":10945,"ws":10946,"Ġblogiin":10947,"vosta":10948,"2005":10949,"Ġviile":10950,"maala":10951,"ges":10952,"untaa":10953,"ĠBio":10954,"Pohjanmaan":10955,"elen":10956,"ĠSamoin":10957,"ĠKaupunki":10958,"allas":10959,"gien":10960,"iski":10961,"Ġtalvella":10962,"oiva":10963,"ellen":10964,"raat":10965,"maattinen":10966,"Ġdesign":10967,"Ġhirve":10968,"Ġkuukaus":10969,"ĠKaar":10970,"Ġpiden":10971,"ĠKl":10972,"Ġvelka":10973,"projekti":10974,"valvon":10975,"Ġlinkki":10976,"Ġpostauksen":10977,"ĠjÃ¤rjestelmÃ¤n":10978,"Ġnaisille":10979,"ĠAk":10980,"ulin":10981,"Ġvaloa":10982,"Kirjoit":10983,"istinen":10984,"Ġavata":10985,"Ġihoa":10986,"aloit":10987,"Ġkokee":10988,"Ġsanaa":10989,"ikoko":10990,"TUS":10991,"Ennen":10992,"Ġkorkein":10993,"Ġpaita":10994,"iinin":10995,"Ġkeskuudessa":10996,"ĠKaiken":10997,"Ġiltana":10998,"Ġml":10999,"Ġsall":11000,"Ġajassa":11001,"sila":11002,"jÃ¤rjestelmÃ¤t":11003,"laitteet":11004,"mÃ¤ni":11005,"Ġrikka":11006,"ennot":11007,".:":11008,"ĠTapio":11009,"juu":11010,"ilaiset":11011,"Hote":11012,"Aam":11013,"ĠLeena":11014,"Ġpyyh":11015,"paidat":11016,"ĠYhdysvalloissa":11017,"ĠlÃ¤Ã¤kÃ¤rin":11018,"79":11019,"Tamper":11020,"Ġparhaimmillaan":11021,"arvoa":11022,"jaks":11023,"gasta":11024,"Ġtupa":11025,"Ġkulli":11026,"Ġorganisaatio":11027,"ĠYK":11028,"ĠKirjoit":11029,"kiekko":11030,"uotteiden":11031,"rannan":11032,"Ġmahdollisuutta":11033,"ĠPre":11034,"lex":11035,"koiden":11036,"Ġitsetyydytys":11037,"Kaun":11038,"ĠyhteistyÃ¶kumppan":11039,"Ġodottamaan":11040,"ĠheittÃ¤Ã¤":11041,"teke":11042,"Ġ43":11043,"SM":11044,"jÃ¶ille":11045,"fia":11046,"kalle":11047,"ppale":11048,"Ġpalkan":11049,"yrittÃ¤":11050,"Ġsatoja":11051,"box":11052,"ÃĸN":11053,"Ġmuttei":11054,"Ġvirtaa":11055,"uttavan":11056,"ĠEmme":11057,"akkaa":11058,"oitin":11059,"cript":11060,"ĠSalo":11061,"istella":11062,"viranoma":11063,"69":11064,"ĠnÃ¤kyvÃ¤t":11065,"Ġaar":11066,"Ġvastaamaan":11067,"Ġkommenteista":11068,"Ġimp":11069,"ĠKUNTA":11070,"Ġottelun":11071,"pyyntÃ¶":11072,"html":11073,"UKSET":11074,"Ġblondi":11075,"agog":11076,"osofi":11077,"tyneet":11078,"Ġkissan":11079,"Ġilmaan":11080,"Ġreilusti":11081,"Ġyritti":11082,"cks":11083,"Ġkeskustassa":11084,"valiok":11085,"Mun":11086,"wn":11087,"ĠmiettimÃ¤Ã¤n":11088,"MAT":11089,"ĠTiina":11090,"Ġaihetta":11091,"ĠMoni":11092,"Ġpeit":11093,"ĠPil":11094,"Ġseurakunnan":11095,"telystÃ¤":11096,"Ġpaista":11097,"Ġrie":11098,"Ġlempp":11099,"Ġkysymykset":11100,"Ġharm":11101,"Kot":11102,"ĠPika":11103,"etusti":11104,"oiminen":11105,"ĠPri":11106,"valmist":11107,"tavoit":11108,"ĠpÃ¤Ã¤sen":11109,"Â°":11110,"ĠRen":11111,"pÃ¤t":11112,"KES":11113,"Ġpahasti":11114,"ĠIhana":11115,"opol":11116,"tamisen":11117,"Ġtarkkaan":11118,"itÃ¤mme":11119,"Ġmyyntiin":11120,"eriaali":11121,"ĠpistÃ¤":11122,"KIN":11123,"eron":11124,"vastoin":11125,"Ġpikkuhiljaa":11126,"VielÃ¤":11127,"Ġliikevaihto":11128,"Ġturvallinen":11129,"itoksen":11130,"Ġopettaa":11131,"Ġseiso":11132,"Ġsamoja":11133,"kkinen":11134,"Ġasetus":11135,"ĠKyseessÃ¤":11136,"ĠHenkilÃ¶stÃ¶":11137,"ganis":11138,"ĠkansainvÃ¤linen":11139,"olosuh":11140,"Aivan":11141,"Olin":11142,"Ulko":11143,"ĠYhdysvaltain":11144,"uvan":11145,"tyyl":11146,"ĠKala":11147,"ĠsÃ¤te":11148,"ĠJeesuksen":11149,"ĠmyydÃ¤":11150,"Ġalkoivat":11151,"ĠtyÃ¶ttÃ¶myys":11152,"aalisen":11153,"Ilmoita":11154,"ness":11155,"Ġratsasta":11156,"usteh":11157,"Ġosallistui":11158,"Ġtyyliin":11159,"ĠFl":11160,"EDOT":11161,"ĠELY":11162,"Ġliity":11163,"Ġvahin":11164,"itali":11165,"oinnista":11166,"Ġheit":11167,"Ġuudella":11168,"Ġkuukaudessa":11169,"ÃĦlÃ¤":11170,"ĠkeittiÃ¶n":11171,"EA":11172,"porno":11173,"lyÃ¶nti":11174,"vatko":11175,"ĠIT":11176,"Ġtason":11177,"https":11178,"ĠÃĦiti":11179,"ĠpalkkapÃ¤ivÃ¤":11180,"Ġjaetaan":11181,"Ġsuunnattu":11182,"Ġkameran":11183,"Ġjulkaisi":11184,"ĠKil":11185,"Ġmuistan":11186,"Ġintegr":11187,"Keh":11188,"yry":11189,"anssi":11190,"Ġkauk":11191,"Ġtehokkaa":11192,"misiÃ¤":11193,"Ġjuusto":11194,"Ġilmoitti":11195,"kampan":11196,"vuotiaana":11197,"sol":11198,"ĠChar":11199,"ĠHol":11200,"ĠtyttÃ¶jen":11201,"ĠSeuraava":11202,"gend":11203,"ĠMusi":11204,"Ġuudist":11205,"ĠlisÃ¤tÃ¤Ã¤n":11206,"Kaupun":11207,"ĠyleistÃ¤":11208,"ĠBusiness":11209,"Ġkasti":11210,"Vapaa":11211,"Ruoka":11212,"ĠnÃ¤pp":11213,"ittyy":11214,"Ġmieluummin":11215,"opeus":11216,"Ġhelpompaa":11217,"Ġrakastaa":11218,"Koi":11219,"Ġvalinnan":11220,"Ġajel":11221,"ĠSeppo":11222,"PER":11223,"Â²":11224,"pet":11225,"umpp":11226,"Ġaikoihin":11227,"kykyÃ¤":11228,"mes":11229,"llist":11230,"kautta":11231,"huon":11232,"ytÃ¶t":11233,"ĠvÃ¤lt":11234,"lupa":11235,"Ġaamuna":11236,"Un":11237,"vastaa":11238,"aria":11239,"Ġlesbo":11240,"ĠVarsinkin":11241,"pelin":11242,"Ġtutkinto":11243,"ĠKommen":11244,"sÃ¤Ã¤ntÃ¶isesti":11245,"Ġviimeiset":11246,"isyy":11247,"Ġosassa":11248,"unen":11249,"matkalla":11250,"ĠLauri":11251,"ĠPetri":11252,"teisen":11253,"Ġlajit":11254,"Ġajalta":11255,"Ġkunnioit":11256,"ĠelÃ¤mÃ¤nsÃ¤":11257,"Ġmielipit":11258,"tuva":11259,"Ġila":11260,"Ġpl":11261,"ĠâĨĴ":11262,"Ġdemokra":11263,"udio":11264,"Ġpalkki":11265,"Ġvoimaa":11266,"fon":11267,"Ġreilu":11268,"Ġohjeen":11269,"hdetta":11270,"Ġfrom":11271,"Ġlumi":11272,"Ġannetun":11273,"Ġparisuh":11274,"joona":11275,"Ġajatellut":11276,"vÃ¶":11277,"tehok":11278,"bor":11279,"Ġtaiva":11280,"TOIM":11281,"ĠAustr":11282,"Ġlehden":11283,"vut":11284,"tellen":11285,"nnin":11286,"yhteistyÃ¶":11287,"Maan":11288,"Ġtablet":11289,"Ġkoet":11290,"Ġdo":11291,"Ġluoton":11292,"Ġekolog":11293,"Kaksi":11294,"Ġaurin":11295,"voimaa":11296,"Ġvanhempi":11297,"ĠTutkimuksen":11298,"Ġkeskustan":11299,"ĠHeikk":11300,"ĠtehtÃ¤viÃ¤":11301,"ĠkilometriÃ¤":11302,"ostetaan":11303,"ĠpÃ¤Ã¤stÃ¤Ã¤n":11304,"ĠKÃ¤y":11305,"ĠKuv":11306,"Ã¤mme":11307,"Ġkaikkialla":11308,"hallin":11309,"mel":11310,"Ġkit":11311,"Ġ47":11312,"staan":11313,"Ġ41":11314,"deja":11315,"Ġkunna":11316,"Ġkakkos":11317,"ĠesitetÃ¤Ã¤n":11318,"utr":11319,"jalka":11320,"ĠpelÃ¤":11321,"koulutuksen":11322,"ĠIII":11323,"Su":11324,"valinta":11325,"De":11326,"utar":11327,"ĠkÃ¤det":11328,"âĻ¥":11329,"Ġkuluttaja":11330,"Ġvaltaa":11331,"maassa":11332,"Ġkesti":11333,"Pu":11334,"kemus":11335,"turi":11336,"ĠystÃ¤vÃ¤ni":11337,"Ġihast":11338,"ivit":11339,"Ġmein":11340,"inakin":11341,"ĠFil":11342,"Ã¤htÃ¤":11343,"Ġpuuta":11344,"Ġmiks":11345,"hite":11346,"Ġvastaavan":11347,"ĠSami":11348,"Ġnauh":11349,"Ġkyseen":11350,"Ġasianmuka":11351,"Ġkaula":11352,"aseman":11353,"organisaa":11354,"ĠAnal":11355,"Ġkirje":11356,"Ġhinnoit":11357,"ppiÃ¤":11358,"seur":11359,"Ġgirls":11360,"ĠkÃ¤ytÃ¤t":11361,"torit":11362,"Ġsoveltuu":11363,"ida":11364,"UM":11365,"ĠUskon":11366,"impiin":11367,"teensa":11368,"kyyn":11369,"tuaan":11370,"Ġkiusa":11371,"ompa":11372,"ppujen":11373,"ĠPyh":11374,"Ġtyr":11375,"Ġjuttua":11376,"ĠAlla":11377,"Ġsuosittu":11378,"ĠKokona":11379,"Ġlaskee":11380,"ĠAnd":11381,"Ġsuuhun":11382,"Ġem":11383,"Juh":11384,"JAT":11385,"Ġuskoo":11386,"ĠLaita":11387,"Ġnykyisen":11388,"ĠjÃ¤tÃ¤":11389,"MeidÃ¤n":11390,"Ġsekunn":11391,"maani":11392,"Ġentinen":11393,"Ġopiskelu":11394,"ĠsydÃ¤m":11395,"ÃĦÃĦR":11396,"Ġlauka":11397,"ĠMc":11398,"Ġtoteutettu":11399,"Ġhanka":11400,"umb":11401,"Ġsaapui":11402,"Ġostanut":11403,"ĠhyÃ¶dynn":11404,"Ġhistoriaa":11405,"ĠVuor":11406,"Ġjokaisella":11407,"toiminnan":11408,"Ġhaasteita":11409,"ĠelÃ¤ke":11410,"Ajat":11411,"Ġmediassa":11412,"Ġherkut":11413,"innumero":11414,"ĠÃ¤Ã¤rimmÃ¤isen":11415,"bis":11416,"ĠEtsi":11417,"teria":11418,"ineitÃ¤":11419,"kadun":11420,"ĠSilti":11421,"Ġleip":11422,"kkua":11423,"Ġlaukku":11424,"ĠtÃ¤ydenn":11425,"EUR":11426,"Ġkuvissa":11427,"Ġtoivoa":11428,"ov":11429,"ĠElina":11430,"tif":11431,"Ġsanoen":11432,"Ġkustan":11433,"eltavaa":11434,"ĠtÃ¤smÃ¤":11435,"ĠliittyvÃ¤Ã¤":11436,"toimen":11437,"ĠYlÃ¤":11438,"Ġtalossa":11439,"idy":11440,"Ġtekniikka":11441,"yydÃ¤Ã¤n":11442,"juusto":11443,"rellÃ¤":11444,"uuni":11445,"Ġlun":11446,"nnÃ¶ssÃ¤":11447,"Fi":11448,"ellyt":11449,"Ġetusi":11450,"ĠMuuten":11451,"ĠMyÃ¶":11452,"ĠalkuperÃ¤is":11453,"ISTÃĦ":11454,"Ġtarvitsevat":11455,"DI":11456,"uote":11457,"ĠLea":11458,"Ġasioissa":11459,"rakenta":11460,"Ġpaikat":11461,"Ġmatkailu":11462,"kiat":11463,"Ġtri":11464,"ĠGreen":11465,"Ġkahdesta":11466,"ĠUudet":11467,"ISTÃĸ":11468,"kortit":11469,"pula":11470,"Ruot":11471,"Ġparhaillaan":11472,"HP":11473,"ĠTOIMINTA":11474,"CO":11475,"Ġkokonaisvalta":11476,"Kaik":11477,"llisty":11478,"ĠPlay":11479,"maksun":11480,"minister":11481,"UOMEN":11482,"Ġperille":11483,"uantai":11484,"sÃ¤hkÃ¶":11485,"Ġkriteer":11486,"Ġolle":11487,"stro":11488,"EhkÃ¤":11489,"Ġpohti":11490,"Ġsairaal":11491,"Ġkenelle":11492,"ĠEnn":11493,"ĠtyÃ¶markkin":11494,"Ġrenn":11495,"kkan":11496,"ĠVideo":11497,"Ġvaaditaan":11498,"Ġsad":11499,"Ġnykyinen":11500,"ĠlÃ¤mmitys":11501,"dic":11502,"Ġviha":11503,"Ġ:).":11504,"tarvikkeet":11505,"Ġarva":11506,"Ġeil":11507,"Ġkorostaa":11508,"ĠpÃ¤Ã¤kaupunkise":11509,"ĠMuse":11510,"ĠWal":11511,"Ġoikeaa":11512,"Ġaasi":11513,"tuin":11514,"Ġvaalea":11515,"iketta":11516,"Ġvaihtoehd":11517,"Ġteknologia":11518,"usteita":11519,"ĠRet":11520,"Ġhiir":11521,"koot":11522,"Viesti":11523,"Ġtuttuja":11524,"Ġruotsin":11525,"ĠtÃ¤ydellisesti":11526,"Ġmerkitsee":11527,"ĠLuk":11528,"Ġpuolin":11529,"uhe":11530,"Ġpalautus":11531,"Ġkokeile":11532,"feren":11533,"ilyÃ¤":11534,"ĠPyhÃ¤":11535,"oissaan":11536,"Ġtilanteeseen":11537,"ĠPC":11538,"Ġkierto":11539,"ĠMissÃ¤":11540,"Ġaav":11541,"ĠYleistÃ¤":11542,"Ġkontro":11543,"versi":11544,"ĠyhdestÃ¤":11545,"Ġmonimuoto":11546,"JES":11547,"ĠPuhelin":11548,"Ġvarata":11549,"Ġhakee":11550,"Ġpalveluun":11551,"Ġarvot":11552,"Ġkasvattaa":11553,"Ġ~":11554,"oilta":11555,"Ġkatson":11556,"manin":11557,"Ġarvioidaan":11558,"ĠTÃĦ":11559,"iinia":11560,"sivut":11561,"Ġopiske":11562,"ĠpÃ¤Ã¤tÃ¶ksente":11563,"Ġ58":11564,"Ġtumman":11565,"Ġpuoleen":11566,"ĠTyttÃ¶":11567,"varaa":11568,"Ġkuvista":11569,"Ġloppuu":11570,"ĠSP":11571,"ĠPieni":11572,"ĠKet":11573,"ĠEhd":11574,"ĠkÃ¤rki":11575,"ĠAjo":11576,"Ġupeita":11577,"Copyright":11578,"work":11579,"Ġtoisinaan":11580,"hoista":11581,"imien":11582,"Uut":11583,"Ġpahoin":11584,"ĠVaik":11585,"Ġcasino":11586,"perÃ¤inen":11587,"tiosta":11588,"ĠFacebookissa":11589,"ĠvÃ¤lityksellÃ¤":11590,"ĠpysÃ¤kÃ¶inti":11591,"insa":11592,"vÃ¤ssÃ¤":11593,"tuotta":11594,"ĠtehtÃ¤vÃ¤nÃ¤":11595,"ĠEpÃ¤":11596,"merkit":11597,"Ġvaroit":11598,"Ġsamanlainen":11599,"Fin":11600,"Pol":11601,"Puol":11602,"Ġkirkka":11603,"sonin":11604,"Ã¤Ã¤tÃ¤lÃ¶":11605,"Ġkotisivu":11606,"Ġtum":11607,"Ġkoskeva":11608,"ĠOsallistu":11609,"ĠEtu":11610,"Ġaikoo":11611,"Ġpohjan":11612,"Ġtiedotus":11613,"aikainen":11614,"EnsimmÃ¤inen":11615,"Ġpotilas":11616,"ettÃ¤vissÃ¤":11617,"EG":11618,"ĠlÃ¤mmÃ¶n":11619,"Ġvuosit":11620,"ikip":11621,"ĠkÃ¤ynnistÃ¤":11622,"kirjoja":11623,"ĠviettÃ¤":11624,"johtajana":11625,"ĠWa":11626,"ppe":11627,"Ġosannut":11628,"ĠFo":11629,"ĠPS":11630,"ĠselviÃ¤Ã¤":11631,"Perus":11632,"Ġauta":11633,"Ġnen":11634,"Ġhelsin":11635,"ĠyhteistyÃ¶n":11636,"koneet":11637,"ĠOne":11638,"ukalla":11639,"kÃ¤y":11640,"ildo":11641,"ckin":11642,"junta":11643,"Ġryhd":11644,"Ġsipul":11645,"ĠmyÃ¶ten":11646,"tyminen":11647,"ĠPaul":11648,"UA":11649,"Ġvalon":11650,"imÃ¤ki":11651,"ĠenimmÃ¤":11652,"ĠMinusta":11653,"uotteen":11654,"ĠtyttÃ¤ren":11655,"kisin":11656,"ĠHallitus":11657,"Ġpoisto":11658,"Ġtoimitetaan":11659,"llekin":11660,"Ġlaajenn":11661,"UOT":11662,"Ġmonessa":11663,"sanomat":11664,"Ġedustaa":11665,"Ġhiihto":11666,"lip":11667,"Ġperinteinen":11668,"Ġnousta":11669,"ĠSarja":11670,"Ġale":11671,"ostoja":11672,"ĠJoku":11673,"Ġkarta":11674,"Ġmonipuolinen":11675,"Ġiski":11676,"67":11677,"okkaita":11678,"Ġpainaa":11679,"Ġorgasmi":11680,"Ġnopeus":11681,"Ġsaapuu":11682,"ĠTuleva":11683,"atin":11684,"ĠGolf":11685,"istori":11686,"ruskea":11687,"ĠjÃ¤rk":11688,"annen":11689,"Ġohjelmaa":11690,"Ġpisto":11691,"ĠDo":11692,"pika":11693,"ĠkÃ¤dessÃ¤":11694,"ĠPerhe":11695,"gia":11696,"ĠlainsÃ¤Ã¤dÃ¤ntÃ¶":11697,"Ġvarust":11698,"masin":11699,"Ġvalmiita":11700,"Ġminulta":11701,"tulo":11702,"ilaat":11703,"Ġkolmi":11704,"Ġvalitaan":11705,"Ġmuutoin":11706,"ksistÃ¤":11707,"Ġkokonaisuudessaan":11708,"telimme":11709,"arvos":11710,"ĠErÃ¤":11711,"Ġketj":11712,"Ġpoliisin":11713,"ĠherÃ¤ttÃ¤Ã¤":11714,"siirto":11715,"ĠylipÃ¤Ã¤":11716,"ĠSO":11717,"Ġvoitta":11718,"strateg":11719,"Ġtodista":11720,"Ġmilj":11721,"Ġnauti":11722,"ĠyhteistÃ¤":11723,"Ġxxx":11724,"Kiva":11725,"Ġkustannus":11726,"Ġrauhan":11727,"ĠVel":11728,"Ġvirk":11729,"Ġosaltaan":11730,"ĠDia":11731,"Ġnettikasin":11732,"tekniikka":11733,"viraston":11734,"ĠlisÃ¤tty":11735,"Ġhevosen":11736,"jankohtaista":11737,"ketju":11738,"suojelu":11739,"veja":11740,"utkinto":11741,"Ġmakka":11742,"Kommen":11743,"Ġilmestyy":11744,"ĠVaihto":11745,"pisto":11746,"Ġhavainn":11747,"rt":11748,"yÃ¶hy":11749,"get":11750,"kohteet":11751,"istuneet":11752,"oint":11753,"yhtymÃ¤":11754,"talia":11755,"ollisia":11756,"Ġnoja":11757,"ĠCasino":11758,"uuli":11759,"Ġantamaan":11760,"Ġkivasti":11761,"ĠVÃ¤ri":11762,"Ġilmaiskier":11763,"Ġvastausta":11764,"Ġidentiteet":11765,"Ġputki":11766,"Kuka":11767,"Ġtekstit":11768,"Ġkykene":11769,"ĠTyy":11770,"hl":11771,"Ġperjantai":11772,"ĠihmisistÃ¤":11773,"ees":11774,"Ġaamup":11775,"Ġseurassa":11776,"Ġnapp":11777,"ĠemÃ¤n":11778,"Ġkosmeti":11779,"eera":11780,"udi":11781,"ĠkestÃ¤vÃ¤n":11782,"enin":11783,"ĠMaks":11784,"Ġ1999":11785,"Ġkysely":11786,"ĠInstagra":11787,"valmista":11788,"Ġluottaa":11789,"ĠUlkomaat":11790,"oidon":11791,"uset":11792,"\\\\":11793,"udelle":11794,"ĠhÃ¤r":11795,"ĠtÃ¤mm":11796,"etussa":11797,"valkoinen":11798,"Ġuutisia":11799,"Ġrep":11800,"Ġsystee":11801,"Ġpalkin":11802,"Ġnauttimaan":11803,"ĠHelsinkiin":11804,"oltaan":11805,"ĠtyÃ¶paikka":11806,"Ġomistaa":11807,"Ġerinomaisesti":11808,"Ġkokouksessa":11809,"anut":11810,"Ġherra":11811,"aineet":11812,"mÃ¤Ã¤rÃ¤n":11813,"ĠBi":11814,"Ġrinnat":11815,"Ġpaljastaa":11816,"teks":11817,"oolo":11818,"ASTO":11819,"etoiminta":11820,"Ġmahdotonta":11821,"Ġsuosittelen":11822,"etulla":11823,"Ġpakkas":11824,"oinut":11825,"sse":11826,"Saat":11827,"Ġtapahtuman":11828,"Ġkorvat":11829,"Ġuseammin":11830,"ĠJer":11831,"Ġisom":11832,"Ġkilpailukyky":11833,"ney":11834,"kijÃ¤":11835,"ĠAmer":11836,"ĠJapan":11837,"ĠystÃ¤vÃ¤n":11838,"Âł":11839,"ĠTurussa":11840,"Ġvaikkei":11841,"ĠelÃ¤inten":11842,"Ġkim":11843,"Ġrikki":11844,"ukasti":11845,"ĠVantaan":11846,"uvat":11847,"ĠlÃ¤n":11848,"Ava":11849,"Ġbudjet":11850,"ĠyrityksiÃ¤":11851,"Ġtutkimuksessa":11852,"Musta":11853,"Ġrulla":11854,"iltana":11855,"yysin":11856,"Ġtaikina":11857,"Ġiholle":11858,"vig":11859,"ĠympÃ¤ristÃ¶ssÃ¤":11860,"ĠFar":11861,"has":11862,"Ġkaupasta":11863,"Ġveron":11864,"Ġluotettava":11865,"Ġilmastonmuut":11866,"Ġkirjoittaja":11867,"Ġmonien":11868,"ĠedestÃ¤":11869,"Ġ[âĢ¦]":11870,"Ġtiukka":11871,"Ġteor":11872,"Ġtavanoma":11873,"yritysten":11874,"linja":11875,"illen":11876,"isitko":11877,"Ġnoudatta":11878,"Ġaineet":11879,"ĠsyksynÃ¤":11880,"ĠHuh":11881,"Ġeurolla":11882,"Ġuusin":11883,"ĠTilasto":11884,"Ġmetall":11885,"ĠmerkeissÃ¤":11886,"ĠSol":11887,"Ġasumis":11888,"ĠyÃ¶py":11889,"ksilla":11890,"mpÃ¤nÃ¤":11891,"viikon":11892,"Ġsom":11893,"uohjel":11894,"ĠKuopion":11895,"Ġtekemiseen":11896,"Ġmiettinyt":11897,"utuva":11898,"istuin":11899,"ĠelÃ¤mÃ¤ni":11900,"Ġorganisaation":11901,"ĠvÃ¤rejÃ¤":11902,"okkaa":11903,"UOL":11904,"itoista":11905,"ryhmien":11906,"Ġrenkaat":11907,"Ġmotivaa":11908,"ĠMartti":11909,"Ġlaitan":11910,"ĠyÃ¶llÃ¤":11911,"JÃĦ":11912,"ÃĸYTÃĦKIRJA":11913,"Ġtalousar":11914,"him":11915,"ihenkilÃ¶":11916,"ynÃ¤":11917,"ĠDr":11918,"Ġporta":11919,"Ġkasvot":11920,"ĠRanska":11921,"lasit":11922,"Ġtilille":11923,"Ġpr":11924,"ikos":11925,"ĠkÃ¤sittelee":11926,"oppa":11927,"ihuone":11928,"ĠpÃ¤Ã¤ttÃ¤nyt":11929,"Ġlapselle":11930,"ĠPaika":11931,"kilÃ¤":11932,"tiaa":11933,"Ġkommentit":11934,"joukko":11935,"messu":11936,"Ġjulkinen":11937,"Ġopettajan":11938,"frikka":11939,"Ġkylpyhuone":11940,"tamista":11941,"tavaksi":11942,"Ġvailla":11943,"erot":11944,"ĠLaki":11945,"Ġosaaminen":11946,"Tor":11947,"Ġpaljasta":11948,"Ġlopputulos":11949,"Ġtuntua":11950,"Ġtiivi":11951,"musiikki":11952,"alia":11953,"Ġkannusta":11954,"ranssi":11955,"uutio":11956,"okan":11957,"hakem":11958,"varat":11959,"ĠkiinteistÃ¶n":11960,"ĠLuonnon":11961,"Ġkahdessa":11962,"ĠpÃ¤ivÃ¤Ã¤n":11963,"kirjasto":11964,"hteeri":11965,"Ġottamatta":11966,"kertomus":11967,"Ġmiljardia":11968,"Ġluvun":11969,"Ġmusti":11970,"tegoria":11971,"PP":11972,"YN":11973,"Ġtasan":11974,"ĠÃ¤Ã¤neen":11975,"ĠlÃ¤Ã¤ketiet":11976,"Ġori":11977,"oineen":11978,"reja":11979,"ĠErkki":11980,"ĠOhjelma":11981,"altaan":11982,"ĠMUU":11983,"Ġkeskelle":11984,"Ġstrategia":11985,"Ġasiantunte":11986,"ĠTim":11987,"Ġnivel":11988,"ĠNA":11989,"kokemuksen":11990,"ery":11991,"eidi":11992,"Ġvuokrat":11993,"Ġpienemp":11994,"Ġtiloissa":11995,"kohde":11996,"elmat":11997,"ttava":11998,"venn":11999,"utkija":12000,"asun":12001,"istetty":12002,"ikunta":12003,"Ġete":12004,"ĠJoo":12005,"SÃ¤hkÃ¶postiosoitettasi":12006,"ĠPrin":12007,"isempaa":12008,"Ġ85":12009,"Ġkort":12010,"ĠSeura":12011,"ĠRakenn":12012,"gissa":12013,"ETUS":12014,"stuu":12015,"Tun":12016,"Ġradi":12017,"Ġovatkin":12018,"HÃ¤meen":12019,"ĠhyvÃ¤stÃ¤":12020,"Ġalalla":12021,"elÃ¤mÃ¤Ã¤":12022,"Ġmuina":12023,"upan":12024,"âĢĶ":12025,"vice":12026,"ĠLonto":12027,"ĠKah":12028,"?âĢĿ":12029,"Ġtomaat":12030,"Ġedellinen":12031,"Ġhaj":12032,"Ġsuodat":12033,"ĠkansainvÃ¤lisen":12034,"stituut":12035,"Ġharrastus":12036,"tilaisuus":12037,"Ġpoja":12038,"ĠnÃ¤kÃ¶kulma":12039,"Tapahtu":12040,"sisi":12041,"Ġtapana":12042,"ĠkiinteÃ¤":12043,"ĠBan":12044,"ĠPaavo":12045,"ukir":12046,"rs":12047,"Ġkuopio":12048,"Ġseuraavasti":12049,"Ġmuokkaa":12050,"ĠnykyistÃ¤":12051,"tissÃ¤":12052,"ĠystÃ¤vÃ¤t":12053,"raan":12054,"Ġosaamis":12055,"ottaminen":12056,"Ġedun":12057,"ĠterÃ¤s":12058,"ĠpitkiÃ¤":12059,"ĠerityistÃ¤":12060,"ĠLÃ¤Ã¤":12061,"Ġ69":12062,"ipu":12063,"usaika":12064,"Ġolevista":12065,"Ġparemman":12066,"Ġvakavasti":12067,"Ġ1980":12068,"Ġloppup":12069,"Ġkiehto":12070,"Ġmeno":12071,"Ġ1800":12072,"Ġsijaitsevat":12073,"opÃ¤":12074,"ĠHarri":12075,"paikalle":12076,"Ohjel":12077,"kisen":12078,"Ġolohuone":12079,"Ġaloitus":12080,"ĠvielÃ¤kÃ¤Ã¤n":12081,"kunut":12082,"ĠPes":12083,"gur":12084,"ĠRisto":12085,"ĠsÃ¤ilytys":12086,"Ġmenestys":12087,"Britann":12088,"aatte":12089,"ĠRuotsi":12090,"Ġyhdistys":12091,"logia":12092,"Sam":12093,"Ġensisijaisesti":12094,"uotta":12095,"TEEN":12096,"kittiin":12097,"Ġ59":12098,"Ġompel":12099,"teisesti":12100,"NI":12101,"Ġkeskusteluun":12102,"Ã¤Ã¤nnÃ¶t":12103,"tari":12104,"ĠnÃ¤ytÃ¶n":12105,"uudelle":12106,"ĠlÃ¶ytÃ¶":12107,"Ġkeskustella":12108,"kkÃ¤in":12109,"ĠðŁĺĢ":12110,"Ġoppii":12111,"ĠmyÃ¶ntÃ¤":12112,"Ġneule":12113,"ĠTausta":12114,"ustul":12115,"rut":12116,"Ġlaskut":12117,"Ġtuntuvat":12118,"Ġriitti":12119,"ĠKiinn":12120,"mitÃ¤":12121,"Pir":12122,"89":12123,"ĠpÃ¤Ã¤dy":12124,"Ġvalvo":12125,"Ġtuotannon":12126,"intoa":12127,"Ġpuhelimen":12128,"Ġsijasta":12129,"ĠMax":12130,"Ġlaitetaan":12131,"ĠpÃ¤Ã¤siÃ¤":12132,"selle":12133,"Ġlasketaan":12134,"aalisesti":12135,"takki":12136,"Ġlaitteet":12137,"uimme":12138,"Ġjutun":12139,"ĠjyvÃ¤skylÃ¤":12140,"ĠSus":12141,"Ġplan":12142,"ĠhÃ¤iriÃ¶":12143,"Ġmuna":12144,"Ġmuoti":12145,"ulainen":12146,"ĠvÃ¤ittÃ¤Ã¤":12147,"KKI":12148,"Ġvakuut":12149,"ottua":12150,"metsÃ¤":12151,"Ġminim":12152,"Ġaito":12153,"ĠvÃ¤hitellen":12154,"Ġtavallinen":12155,"teltiin":12156,"hyvÃ¤":12157,"Ġnimet":12158,"Ġpalauttaa":12159,"ĠNÃ¤istÃ¤":12160,"ĠKevÃ¤t":12161,"TÃĸS":12162,"Ġkoulutta":12163,"akkaan":12164,"Ġmatema":12165,"Ġkorjata":12166,"Ġmuodostaa":12167,"Ġkome":12168,"aaliin":12169,"Ġreuna":12170,"perh":12171,"Ġrakast":12172,"ĠKuus":12173,"Ġtue":12174,"101":12175,"tekniikan":12176,"Ã¤iti":12177,"ĠCol":12178,"Ġtapoja":12179,"Ġehtii":12180,"IKE":12181,"Ġvalmenta":12182,"Ã¶lle":12183,"Ġladata":12184,"ĠsiirtyÃ¤":12185,"vah":12186,"ytyminen":12187,"inÃ¤ky":12188,"Ġopetuksen":12189,"Ġkilpailun":12190,"ĠRu":12191,"Ġkakso":12192,"ĠOt":12193,"ĠWill":12194,"Ġmiehelle":12195,"ĠJotkut":12196,"Ġmukavan":12197,"yttyÃ¤":12198,"Ġvaihtelee":12199,"Yl":12200,"Esit":12201,"Ġtuom":12202,"Sil":12203,"lean":12204,"Ġmakuun":12205,"ĠitsessÃ¤Ã¤n":12206,"ipi":12207,"tola":12208,"ĠKiva":12209,"Ġsanonut":12210,"Ġvarattu":12211,"Ġautoa":12212,"Ġ%.":12213,"Ġaion":12214,"ĠĠĠĠĠĠĠĠĠĠĠĠ":12215,"kkis":12216,"Ġuk":12217,"Ġpalaute":12218,"ĠYhdysvallat":12219,"Ġoppinut":12220,"llyn":12221,"ĠIhmiset":12222,"Ġbar":12223,"ĠnÃ¤lkÃ¤":12224,"tiikan":12225,"Ġpakkaus":12226,"ĠkÃ¤ytÃ¤nnÃ¶":12227,"ĠkerÃ¤tÃ¤":12228,"web":12229,"Ġpoim":12230,"Ġlip":12231,"Ġseurus":12232,"oikeudet":12233,"Karjalan":12234,"ĠJavaS":12235,"Ġmenin":12236,"ĠpitkÃ¤lti":12237,"Ġjoululah":12238,"ĠVesa":12239,"TÃ¤tÃ¤":12240,"Ġhuuli":12241,"ĠTon":12242,"Ġtarkastus":12243,"rahoit":12244,"Ġtavata":12245,"Ġkoos":12246,"ĠtehtÃ¤vÃ¤n":12247,"Ġkeskeinen":12248,"Ġkerroin":12249,"Ġnussi":12250,"kitta":12251,"cker":12252,"ĠpistÃ¤Ã¤":12253,"ĠhenkilÃ¶kunta":12254,"itusta":12255,"Ã¤re":12256,"Ġvideos":12257,"ĠLes":12258,"ilÃ¤n":12259,"ĠkÃ¤yntiin":12260,"ĠNHL":12261,"Ġtaitoja":12262,"vuotiaan":12263,"Keskustelu":12264,"Ġhiih":12265,"ALO":12266,"Ġmitat":12267,"Ġpano":12268,"koira":12269,"Ġpelasta":12270,"Ġkumm":12271,"ĠSanna":12272,"MetsÃ¤":12273,"ĠJÃ¤rven":12274,"uutiset":12275,"Ġrakkautta":12276,"reista":12277,"Ġpaluu":12278,"ttuur":12279,"tisten":12280,"ĠjÃ¤senten":12281,"Bo":12282,"ĠulkonÃ¤kÃ¶":12283,"ĠVara":12284,"ĠpÃ¤Ã¤oma":12285,"vollisuus":12286,"ĠEntÃ¤":12287,"EMA":12288,"Ġpahaa":12289,"Ġoliko":12290,"Ġhampa":12291,"Ġaio":12292,"Ġnyr":12293,"karit":12294,"istia":12295,"Ġaste":12296,"Vide":12297,"luvulta":12298,"Ġvaun":12299,"Ġ56":12300,"ĠPlus":12301,"Ġvauri":12302,"yttÃ¤mÃ¤Ã¤n":12303,"ĠkehittÃ¤misen":12304,"!âĢĿ":12305,"err":12306,"ittÃ¤jÃ¤":12307,"\"-":12308,"hÃ¤Ã¤n":12309,"Ã¤ltÃ¤Ã¤":12310,"ĠmyymÃ¤":12311,"Ġkiil":12312,"ĠPerin":12313,"Ġinvestoin":12314,"jetaan":12315,"Ġruud":12316,"Ġmeik":12317,"Ġtuun":12318,"meisesti":12319,"ryhmÃ¤t":12320,"ĠTIL":12321,"ĠâĢĻ":12322,"kangas":12323,"vaaran":12324,"kaupungin":12325,"KUS":12326,"HAN":12327,"kumo":12328,"ĠpÃ¤Ã¤ttyi":12329,"Ġdeitti":12330,"Ġsuositella":12331,"Ġkadon":12332,"mmaa":12333,"loja":12334,"Ġkasvatus":12335,"ĠFC":12336,"ĠFinnish":12337,"kÃ¶hÃ¤n":12338,"tunnus":12339,"Ġalueilla":12340,"upu":12341,"ipa":12342,"ĠVerta":12343,"ottoa":12344,"Ġsellaiset":12345,"ĠkÃ¤sittÃ¤Ã¤":12346,"ĠneliÃ¶":12347,"hassa":12348,"ĠhenkeÃ¤":12349,"ĠPAR":12350,"Ġsinusta":12351,"Ġkaiva":12352,"Sal":12353,"Ġsattui":12354,"iemmin":12355,"ĠMad":12356,"ĠliittyÃ¤":12357,"Ġlehdet":12358,"ĠykkÃ¶s":12359,"Ad":12360,"Ġaikoja":12361,"mppu":12362,"Ġprosentin":12363,"Aihe":12364,"Ġluul":12365,"kkoa":12366,"Ġkeikka":12367,"ĠLainat":12368,"iltiin":12369,"zin":12370,"Ġdata":12371,"Ġitali":12372,"Ġkaupassa":12373,"Ġtodettu":12374,"EC":12375,"Ġkata":12376,"ĠHann":12377,"Ġhevonen":12378,"Ġoire":12379,"alusta":12380,"ĠperÃ¤isin":12381,"ĠnimeltÃ¤":12382,"Ġsotilas":12383,"Ġhardcore":12384,"ĠkÃ¤Ã¤":12385,"ĠSeks":12386,"ĠmielellÃ¤ni":12387,"Ġpalvele":12388,"ked":12389,"Ġunelma":12390,"otettu":12391,"Ġhaetaan":12392,"Ġmahtu":12393,"Ġvedon":12394,"Ġsamasta":12395,"Ġluopu":12396,"kaappi":12397,"ĠVaasa":12398,"Ġluonnollinen":12399,"Ġsuunnittele":12400,"Ġuudelle":12401,"ĠLÃ¤hde":12402,"ĠyllÃ¤ty":12403,"maus":12404,"ĠpidempÃ¤Ã¤n":12405,"ĠpÃ¤ih":12406,"ĠMac":12407,"Ġkristi":12408,"Yhdys":12409,"ikirja":12410,"Ġpresidentin":12411,"Ġsuunnitella":12412,"ĠYleinen":12413,"ĠSari":12414,"kap":12415,"ĠEilen":12416,"Ġfet":12417,"Ġkauneus":12418,"Poli":12419,"ary":12420,"LLYS":12421,"Ġkuussa":12422,"ĠnÃ¤kÃ¶jÃ¤Ã¤n":12423,"Ġpidetty":12424,"uutarha":12425,"ĠAihe":12426,"jossa":12427,"Ġarvoinen":12428,"Ġprofi":12429,"ĠpelissÃ¤":12430,"mpin":12431,"ĠSand":12432,"ĠYhdysval":12433,"ĠBig":12434,"ĠleveÃ¤":12435,"pohjan":12436,"TÃ¤hÃ¤n":12437,"ĠHeidÃ¤n":12438,"Ġ1970":12439,"kaksi":12440,"Ġomakoti":12441,"stai":12442,"ĠetÃ¤":12443,"ĠYrittÃ¤":12444,"verkosto":12445,"Ġsekaisin":12446,"ĠkymmeniÃ¤":12447,"ĠnÃ¶":12448,"Ġsekun":12449,"tÃ¤vÃ¤Ã¤":12450,"bit":12451,"Ġedist":12452,"ĠTUT":12453,"Ġtietokoneen":12454,"olon":12455,"seura":12456,"anskassa":12457,"xy":12458,"ĠPakolliset":12459,"Ġperustuvat":12460,"ĠBel":12461,"tuki":12462,"tekni":12463,";)":12464,"ĠKorkea":12465,"istelee":12466,"Ġesityksen":12467,"ĠKeskustelu":12468,"kerran":12469,"ush":12470,"300":12471,"ĠihmeessÃ¤":12472,"Ã¤Ã¤kÃ¤ri":12473,"Ġerit":12474,"muuden":12475,"Ġarmei":12476,"Yks":12477,"ĠBet":12478,"ĠAsunto":12479,"Ġsijaitseva":12480,"elyn":12481,"ĠOK":12482,"ding":12483,"ikansa":12484,"Seuraava":12485,"valtio":12486,"taalla":12487,"Ġhallinnon":12488,"Ã¤Ã¤nnÃ¶":12489,"ĠLiisa":12490,"Ġviisa":12491,"Muka":12492,"Ġkatoa":12493,"reitÃ¤":12494,"Ġkosteus":12495,"isteja":12496,"Ġseuraamaan":12497,"Ġvirallinen":12498,"ĠPasi":12499,"Ġkoirat":12500,"vyyd":12501,"Ġkasvis":12502,"Ġohu":12503,"koituksen":12504,"mÃ¤Ã¤rÃ¤t":12505,"Ġvarhaiskasvat":12506,"ĠEihÃ¤n":12507,"hdollisuus":12508,"86":12509,"Ġtoimivan":12510,"rd":12511,"Palvel":12512,"Ġkenki":12513,"Ġote":12514,"Ġkohdassa":12515,"palveluja":12516,"Ġroma":12517,"Ġtilanteesta":12518,"Ġjatkossakin":12519,"kkuus":12520,"Ġkre":12521,"Ġerilaisiin":12522,"demok":12523,"Ġotan":12524,"Ġsuosik":12525,"Naisten":12526,"Ġomist":12527,"ĠjÃ¤rjestettiin":12528,"ĠGr":12529,"Ġtapahtua":12530,"dassa":12531,"ĠyrittÃ¤nyt":12532,"vira":12533,"uuksista":12534,"tomat":12535,"Kirjoita":12536,"Ġ52":12537,"ĠvÃ¤rin":12538,"Ġmenoa":12539,"Ġmuodostavat":12540,"vÃ¤h":12541,"Ġpallo":12542,"Ġmiehille":12543,"Ġilahd":12544,"Ġtutust":12545,"Ġesittelee":12546,"Ġmaito":12547,"Ġtunnusta":12548,"Ġcum":12549,"Ġoppimisen":12550,"ĠSinÃ¤":12551,"ĠhyvÃ¤ksytty":12552,"ĠHor":12553,"ĠStr":12554,"Ġpahe":12555,"Ġtammikuussa":12556,"Ġpuitte":12557,"Ġkauniisti":12558,"Ġyhdisty":12559,"ĠpelkÃ¤":12560,"uija":12561,"poli":12562,"hoitoa":12563,"osted":12564,"ĠTER":12565,"Ġetel":12566,"pista":12567,"ĠBritann":12568,"toria":12569,"ĠNie":12570,"Ġkuuli":12571,"Ni":12572,"ĠVerk":12573,"ĠLoma":12574,"Ġkiinnitys":12575,"Ġkoskevan":12576,"Pala":12577,"ilmi":12578,"Ġtoimis":12579,"Ġgraaf":12580,"ĠPower":12581,"Ġpizz":12582,"uksin":12583,"ĠRAK":12584,"ehtori":12585,"ĠJohdanto":12586,"DA":12587,"cta":12588,"Ġ57":12589,"ĠvÃ¤lin":12590,"ĠJoensuu":12591,"Ġjohti":12592,"sor":12593,"voide":12594,"ioksi":12595,"uinen":12596,"Ġasuntolaina":12597,"ĠepÃ¤sel":12598,"Mieh":12599,"Ġvahingossa":12600,"Ã¶ljyÃ¤":12601,"Ġkuvasta":12602,"ĠyllÃ¤ttÃ¤en":12603,"ĠpelkkÃ¤Ã¤":12604,"neiden":12605,"henk":12606,"Ġ95":12607,"ĠKIR":12608,"Ed":12609,"Oletko":12610,"sata":12611,"yksikÃ¶n":12612,"ĠElokuva":12613,"vuotiaa":12614,"KKA":12615,"Ġsamana":12616,"»¿":12617,"dyn":12618,"ĠJun":12619,"ï»¿":12620,"vanhe":12621,"Ġunohtaa":12622,"eksÃ¤":12623,"tteihin":12624,"TAR":12625,"ĠTykkÃ¤Ã¤n":12626,"ĠnÃ¤htiin":12627,"oitiin":12628,"lash":12629,"Ġsalasana":12630,"ĠTuomas":12631,"Ġkanssaan":12632,"Nimi":12633,"Ġkotia":12634,"kikÃ¤":12635,"maali":12636,"Ġetuja":12637,"Minun":12638,"tikka":12639,"Ġkohdistu":12640,"ĠkÃ¤sittÃ¤":12641,"ryt":12642,"cha":12643,"museo":12644,"heim":12645,"oimen":12646,"market":12647,"Ġhit":12648,"Ġrakennuksen":12649,"Ġbig":12650,"Ġputo":12651,"ĠPalaute":12652,"Ġmahdollisia":12653,"ĠOsaa":12654,"ĠpÃ¤Ã¤tte":12655,"ĠRy":12656,"Ġyhteisen":12657,"ukselta":12658,"kielen":12659,"Ġlipp":12660,"Ġjulkista":12661,"Kal":12662,"Ġkysymykseen":12663,"kitaan":12664,"Ann":12665,"Ur":12666,"Ġhahmo":12667,"ĠPros":12668,"UE":12669,"okona":12670,"ĠTas":12671,"Ġvastakka":12672,"Ġvaikuta":12673,"\"]":12674,"Ġseksitreffit":12675,"Ho":12676,"Ġlahjaksi":12677,"Ġnu":12678,"ĠPall":12679,"Ġjutut":12680,"telivat":12681,"yksenÃ¤":12682,"Ġsaisin":12683,"ĠjÃ¤ivÃ¤t":12684,"Ġorganis":12685,"Ġkeskustelun":12686,"mukset":12687,"Ġset":12688,"Ġmait":12689,"karin":12690,"ĠpÃ¤ivit":12691,"Ġpelaajat":12692,"ynti":12693,"Ġodotetaan":12694,"ĠkÃ¤ytettiin":12695,"Ġmillaisia":12696,"pisteet":12697,"Ġmuseo":12698,"Ġmuutti":12699,"toit":12700,"ĠMaija":12701,"pussi":12702,"ĠpitkÃ¤llÃ¤":12703,"ilmoitus":12704,"lek":12705,"ĠentisestÃ¤Ã¤n":12706,"ĠKAN":12707,"For":12708,"Ġtapahtumista":12709,"ĠkÃ¤ytin":12710,"lanti":12711,"Ġtakki":12712,"ĠkÃ¤ynnisty":12713,"Ġallerg":12714,"Ġkutsua":12715,"ĠSara":12716,"Ġtube":12717,"Ġvat":12718,"alueilla":12719,"ĠTuotteet":12720,"auton":12721,"mate":12722,"Ġterveysa":12723,"juttuja":12724,"ikoita":12725,"Ġviihde":12726,"Ġjatkui":12727,"Ġonnettom":12728,"Ġvalossa":12729,"Ġohjelmat":12730,"opo":12731,"ĠpÃ¤Ã¤sÃ¤Ã¤ntÃ¶isesti":12732,"ĠEero":12733,"Ġturvallisuuden":12734,"ĠSyÃ¶":12735,"yhmÃ¤t":12736,"Ġkamppa":12737,"Ġpotilaan":12738,"musi":12739,"Ġ110":12740,"Ġdollaria":12741,"teillÃ¤":12742,"ĠOsta":12743,"moinen":12744,"ettavia":12745,"pidon":12746,"ĠriittÃ¤vÃ¤":12747,"Ġmoottori":12748,"ketaan":12749,"Ġloi":12750,"Ġjaksanut":12751,"Ġpalkkaa":12752,"Ġnuoriso":12753,"jÃ¶istÃ¤":12754,"Ġ050":12755,"ĠkÃ¤yvÃ¤t":12756,"ĠFi":12757,"tutkim":12758,"Ġenne":12759,"ĠSai":12760,"itojen":12761,"ĠyhtÃ¤kkiÃ¤":12762,"KSEN":12763,"Ġvaras":12764,"IO":12765,"Ġarkea":12766,"Ġeroottinen":12767,"Ġpalat":12768,"ĠkeskimÃ¤Ã¤rÃ¤":12769,"Ġkunkin":12770,"vian":12771,"usalan":12772,"Ġministeri":12773,"voa":12774,"ĠDoc":12775,"suja":12776,"ĠrÃ¤Ã¤tÃ¤lÃ¶":12777,"ĠtÃ¤rkeintÃ¤":12778,"ĠtÃ¤llaisen":12779,"UNNAN":12780,"Ġnoudattaa":12781,"ĠSeksit":12782,"ĠPill":12783,"Ġperustus":12784,"Ġtoisensa":12785,"ĠtietÃ¤vÃ¤t":12786,"oset":12787,"Ġmaailmanlaaju":12788,"Ġtoistu":12789,"mallit":12790,"ĠvÃ¤estÃ¶n":12791,"Ġarkeen":12792,"tamiseen":12793,"stiin":12794,"eur":12795,"ĠhÃ¤mmen":12796,"Ġoly":12797,"Ġerillis":12798,"ĠHyÃ¶":12799,"hasta":12800,"Ġeet":12801,"Ġkiloa":12802,"ĠVuok":12803,"ril":12804,"kuuden":12805,"uksemme":12806,"Ġmustaa":12807,"tija":12808,"Ġinhimi":12809,"nor":12810,"Use":12811,"aportti":12812,"imesta":12813,"salo":12814,"syys":12815,"ĠKirkko":12816,"ĠIC":12817,"telijat":12818,"Ġlet":12819,"Ġoikeesti":12820,"Ġmahtavaa":12821,"ĠAlas":12822,"2000":12823,"Ġkattava":12824,"ĠTÃ¶":12825,"ĠviestejÃ¤":12826,"nap":12827,"ĠSit":12828,"olliset":12829,"Ġsisko":12830,"Ġmuodostu":12831,"ĠSUO":12832,"Ġshoppa":12833,"PALVEL":12834,"ĠSuosittelen":12835,"Ġtatuo":12836,"ĠIlo":12837,"zer":12838,"ohjaaja":12839,"ĠSatu":12840,"utensa":12841,"ĠSISÃĦL":12842,"Kann":12843,"ĠSy":12844,"assaan":12845,"stru":12846,"ĠRekisterÃ¶":12847,"ĠSyys":12848,"ĠiPhone":12849,"Ġhotellit":12850,"Ġpainon":12851,"ĠKAUPUNKI":12852,"untar":12853,"tymÃ¤":12854,"ĠtyÃ¶ntekijÃ¤n":12855,"ĠDI":12856,"ĠIhanaa":12857,"Ġtutta":12858,"ĠTuul":12859,"isien":12860,"Ġnosti":12861,"miksi":12862,"Ġkohteena":12863,"ĠKanta":12864,"Ġ64":12865,"llalla":12866,"sseja":12867,"Ġlyhyesti":12868,"Ġkokoinen":12869,"ITO":12870,"Ġtiedus":12871,"Ġespan":12872,"Ġluen":12873,"ksista":12874,"ĠyÃ¶nÃ¤":12875,"Ġsovellus":12876,"ĠBrys":12877,"issakin":12878,"ĠtÃ¤llaisia":12879,"ĠUsko":12880,"Ġmiele":12881,"Ġtekstiin":12882,"opettaja":12883,"htanut":12884,"Ġparane":12885,"vaus":12886,"tinsa":12887,"ĠkeksiÃ¤":12888,"tapaa":12889,"Ġenna":12890,"ĠpÃ¤Ã¤ttynyt":12891,"Ġpuo":12892,"ĠkÃ¤tevÃ¤sti":12893,"Ġoppilas":12894,"Ġleivin":12895,"Ġvoimakas":12896,"hoja":12897,"chen":12898,"Ġammattikorkeakoulu":12899,"tinut":12900,"Ġtaikin":12901,"Ġliikkeen":12902,"okkaat":12903,"skin":12904,"Ġkortin":12905,"Ġkeltainen":12906,"Ġodotan":12907,"SiinÃ¤":12908,"ĠselviÃ¤":12909,"yleis":12910,"Ġarvel":12911,"Ġtyhjen":12912,"Ġ:-":12913,"Ġmoit":12914,"reme":12915,"Ġmusl":12916,"Ġleikkaus":12917,"llik":12918,"yttÃ¤nyt":12919,"Ġmaista":12920,"ĠKirjan":12921,"kanta":12922,"allin":12923,"tiedon":12924,"Ġnouda":12925,"ĠleipÃ¤":12926,"ottoman":12927,"Ġsairasta":12928,"ĠYhd":12929,"Ġpoly":12930,"sopim":12931,"Ġparempia":12932,"Ġruuan":12933,"ĠetsimÃ¤Ã¤n":12934,"Ġtreff":12935,"ĠlÃ¤hetti":12936,"ĠPorin":12937,"Ġkunnian":12938,"Ġetenee":12939,"laite":12940,"iplo":12941,"Ġinti":12942,"ĠTeksti":12943,"Ġkylpy":12944,"?:":12945,"Ġinnolla":12946,"Ġsiskon":12947,"Osoit":12948,"teiset":12949,"inojen":12950,"upin":12951,"alat":12952,"oto":12953,"Ġmuuttui":12954,"Ġjuhann":12955,"yhtiÃ¶iden":12956,"Ġkukat":12957,"Ġasentaa":12958,"ĠetsivÃ¤t":12959,"ĠMusiikki":12960,"Ġpositiivinen":12961,"Pe":12962,"ĠkesÃ¤Ã¤":12963,"Ġajatukset":12964,"Ġsaatava":12965,"ogra":12966,"uille":12967,"Ġkirjallisuus":12968,"ĠLento":12969,"Ġsiirtyi":12970,"vaatimukset":12971,"Ġehdin":12972,"ĠLÃ¤htÃ¶":12973,"ĠRiih":12974,"Ġkulun":12975,"ĠTUR":12976,"CH":12977,"keat":12978,"leja":12979,"Ġtammi":12980,"ĠLuonto":12981,"Ġosti":12982,"Ġaktiivinen":12983,"okkaasti":12984,"kysely":12985,"Ġsyven":12986,"tansa":12987,"jÃ¤rjestelmien":12988,"Ġpussi":12989,"Ġkeinoja":12990,"ikkur":12991,"vuokra":12992,"aatin":12993,"Ġmini":12994,"ĠManner":12995,"llisyyden":12996,"ukot":12997,"Ġpoistu":12998,"Ġca":12999,"llot":13000,"ĠLip":13001,"tarkoit":13002,"ĠBB":13003,"vion":13004,"haaste":13005,"Ġrakastan":13006,"sijoit":13007,"Ġsha":13008,"pÃ¶ydÃ¤":13009,"Ġhelpommin":13010,"Ġoikeutta":13011,"utot":13012,"ĠHeng":13013,"Ġmakuuhuone":13014,"ĠheittÃ¤":13015,"Ġhip":13016,"Ġvuosisa":13017,"anaan":13018,"Lop":13019,"Ġpelasi":13020,"ilaisen":13021,"Ġtutkimusta":13022,"ĠKÃĦYTTÃĸ":13023,"pari":13024,"Ġseuraavia":13025,"Ġ??":13026,"Ġkotisiv":13027,"Ġmainio":13028,"Ġwc":13029,"Ġhylly":13030,"ĠtyylikÃ¤s":13031,"Ġasiakkaalle":13032,"Ġtukevat":13033,"ĠpÃ¤ivÃ¤stÃ¤":13034,"Ġkaikenlaista":13035,"ĠNykyÃ¤Ã¤n":13036,"Ġcan":13037,"Ġkain":13038,"ĠLÃ¤hi":13039,"Ġkaupungista":13040,"ĠSve":13041,"ineita":13042,"ĠJoulu":13043,"niset":13044,"essit":13045,"inetta":13046,"Ġmarraskuu":13047,"unnat":13048,"dar":13049,"Ġkouluun":13050,"ĠKemi":13051,"Ġveteen":13052,"ĠKonser":13053,"Ġ99":13054,"kivi":13055,"tiksi":13056,"valtion":13057,"ĠpÃ¶ydÃ¤n":13058,"kuten":13059,"ĠtekivÃ¤t":13060,"ĠKansan":13061,"hdessa":13062,"kinnot":13063,"vetin":13064,"2004":13065,"Ġhopea":13066,"ppoa":13067,"kokemusta":13068,"mahdollisuuksia":13069,"jÃ¤rjestelmÃ¤Ã¤":13070,"ellon":13071,"ĠjÃ¤Ã¤hd":13072,"Ġkattaa":13073,"KÃĸ":13074,"!!!!":13075,"Ġaikataulu":13076,"SIT":13077,"tilasta":13078,"Ġarvostelu":13079,"Ġhaja":13080,"Ġest":13081,"mik":13082,"ĠRanskan":13083,"ĠJyr":13084,"ĠnÃ¤ppÃ¤":13085,"Ġosallistuu":13086,"corts":13087,"ĠehkÃ¤ise":13088,"Ġyhdistel":13089,"Ġmainitse":13090,"Ġjoutuvat":13091,"omuksen":13092,"Â«":13093,"Ġpaketin":13094,"Yritys":13095,"JÃ¤Ã¤":13096,"Ġaikaisin":13097,"ĠystÃ¤vien":13098,"Netti":13099,"llisuudesta":13100,"Ġomalta":13101,"kaita":13102,"viteet":13103,"mppiÃ¤":13104,"Ġtilaan":13105,"Ġvalmistui":13106,"ĠTel":13107,"tamiin":13108,"Ġliuk":13109,"uurin":13110,"vilta":13111,"ĠpimeÃ¤":13112,"Ġtuntea":13113,"ĠkielellÃ¤":13114,"Ġpalvelee":13115,"Ġrajoittaa":13116,"ĠHui":13117,"idassa":13118,"Ġtiesi":13119,"ĠÃĸlj":13120,"ĠJuma":13121,"Pi":13122,"Ġvarmis":13123,"Ġwork":13124,"udit":13125,"Ġasukas":13126,"ikkoihin":13127,"uttamalla":13128,"ĠSim":13129,"Ġkirkas":13130,"asunto":13131,"tuote":13132,"ĠIsÃ¤":13133,"Ġpaikkakunn":13134,"asenn":13135,"ĠNim":13136,"Ġsper":13137,"Ġkahvin":13138,"Ġajatellen":13139,"Ġvelvollis":13140,"kappal":13141,"KEL":13142,"500":13143,"ydellinen":13144,"Ġhaastattelu":13145,"ymmentÃ¤":13146,"ulot":13147,"nb":13148,"ĠhyÃ¶kkÃ¤Ã¤":13149,"ĠFIN":13150,"ollisesti":13151,"Ġkeit":13152,"ĠPO":13153,"ĠPr":13154,"Ġmateriaalit":13155,"vaati":13156,"Ġjohtava":13157,"Ġpon":13158,"ĠliittyvistÃ¤":13159,"isyyteen":13160,"ec":13161,"Ġvastuun":13162,"YKSEN":13163,"ĠOnhan":13164,"Ġrohkeasti":13165,"rajoit":13166,"ĠKristi":13167,"Ġsosiaalinen":13168,"ody":13169,"teollisuus":13170,"Ġpalveluihin":13171,"Ġhotelleja":13172,"Ġsataa":13173,"kelta":13174,"ĠSha":13175,"ĠkevÃ¤Ã¤nÃ¤":13176,"Ġkerroks":13177,"Ca":13178,"Ġturvat":13179,"Or":13180,"Ġikkunassa":13181,"ĠShe":13182,"Ã¤ssÃ¤":13183,"Tap":13184,"ĠmerkkejÃ¤":13185,"Ilta":13186,"ĠHur":13187,"entaa":13188,"ĠYhteystiedot":13189,"Ġkeinoin":13190,"ĠElin":13191,"ĠVaasan":13192,"Ġpeil":13193,"Ġkouk":13194,"Ġvarsinainen":13195,"Ġkipu":13196,"ĠyhteisÃ¶n":13197,"Ġplus":13198,"ĠkenenkÃ¤Ã¤n":13199,"Ġjohtaminen":13200,"Ġkeskustasta":13201,"OPIM":13202,"Ġelokuussa":13203,"EUV":13204,"Ġtran":13205,"tili":13206,"Ġvalokuvaa":13207,"Ġoud":13208,"lailla":13209,"bile":13210,"BA":13211,"mÃ¤ttÃ¶miÃ¤":13212,"Ġblack":13213,"Ġruut":13214,"ikÃ¶s":13215,"Ġaines":13216,"ĠAnni":13217,"ĠtÃ¤mÃ¤kin":13218,"omen":13219,"voitus":13220,"kuutta":13221,"ĠpysyvÃ¤t":13222,"Ġart":13223,"uduin":13224,"Ġkaverin":13225,"kiinn":13226,"ettÃ¤vÃ¤Ã¤":13227,"Ġtarkoitukseen":13228,"enkiinto":13229,"Ġkehitetty":13230,"Ġrinnalla":13231,"ĠNimi":13232,"ĠPyÃ¶":13233,"reihin":13234,"Ġvastoin":13235,"ĠSaksassa":13236,"ĠtyÃ¶skentelee":13237,"ĠisÃ¤ntÃ¤":13238,"Ġvalkoista":13239,"ĠlÃ¤hetetty":13240,"Ġuunissa":13241,"Ġvastuussa":13242,"Ġalkohol":13243,"ikkoa":13244,"Ġ1998":13245,"pojen":13246,"ĠPunainen":13247,"ĠAlex":13248,"ĠYhtiÃ¶n":13249,"Ġump":13250,"Ġajattele":13251,"Ġmallit":13252,"itokset":13253,"tymÃ¤Ã¤n":13254,"itsin":13255,"Ġpiilota":13256,"ĠValokuva":13257,"onic":13258,"we":13259,"Ġtoimijoiden":13260,"bletti":13261,"puolen":13262,"Ġtekemisen":13263,"Ġmonissa":13264,"kirjaa":13265,"Tutustu":13266,"ottaja":13267,"dor":13268,"sarjassa":13269,"ĠIlkka":13270,"ĠsehÃ¤n":13271,"ĠClub":13272,"oniikka":13273,"eriÃ¤":13274,"ĠTri":13275,"Ġnaura":13276,"ĠkÃ¤ynti":13277,"ĠvÃ¤liaika":13278,"Ġaluetta":13279,"ĠylipÃ¤Ã¤tÃ¤Ã¤n":13280,"ohjelmaan":13281,"Ġkukin":13282,"kood":13283,"nio":13284,"ĠPentti":13285,"Ġhinn":13286,"ĠLiikunta":13287,"Ġmieheni":13288,"isikin":13289,"burg":13290,"ĠAjattelin":13291,"palveluita":13292,"Ġkeuh":13293,"kuudet":13294,"Ġtavoitteita":13295,"ĠpÃ¤iviÃ¤":13296,"Ġsekoita":13297,"ikojen":13298,"MO":13299,"ĠtyÃ¶ntekijÃ¤t":13300,"kulma":13301,"Ġkulunut":13302,"Ġ180":13303,"bout":13304,"ĠAv":13305,"ĠjÃ¤rjestetty":13306,"turb":13307,"ĠKehitys":13308,"Ġharrastaa":13309,"Ġviita":13310,"Ġgolf":13311,"teestÃ¤":13312,"kustan":13313,"ĠmerkittÃ¤viÃ¤":13314,"ĠrÃ¤jÃ¤":13315,"ĠKÃ¤yttÃ¶ehdot":13316,"Ġtumma":13317,"uskin":13318,"ĠelÃ¤m":13319,"hak":13320,"ĠRuus":13321,"ĠjÃ¤Ã¤neet":13322,"Ġjuma":13323,"Ġhaasteet":13324,"ĠhÃ¶l":13325,"Ġsumma":13326,"Ġpienten":13327,"Onn":13328,"virhe":13329,"iskunnan":13330,"Ġkoirien":13331,"Ġolka":13332,"Ġkaupunkiin":13333,"ĠhyvÃ¤Ã¤n":13334,"Ġkiusaa":13335,"Ġkokoelma":13336,"elmia":13337,"Ġkirj":13338,"Ġkaikkeen":13339,"Ġhidas":13340,"Ġpalveluista":13341,"Liisa":13342,"istani":13343,"ĠWin":13344,"ĠLinkit":13345,"ĠmetsÃ¤stÃ¤":13346,"âĨ³":13347,"ttua":13348,"aihe":13349,"ellin":13350,"Ġelinkeino":13351,"ĠWorld":13352,"Ġbakte":13353,"roksella":13354,"outube":13355,"ĠpuolivÃ¤l":13356,"Ġluettel":13357,"ĠTasa":13358,"Ã¤ttÃ¤":13359,"Ġtehosta":13360,"Ġflun":13361,"ISSA":13362,"tug":13363,"joukkueen":13364,"ppari":13365,"ĠkÃ¤vele":13366,"Ġster":13367,"ĠÃħ":13368,"ĠRat":13369,"prosessin":13370,"Ġdra":13371,"Ġpoikki":13372,"Ġsopivia":13373,"iven":13374,"ĠkÃ¤ytti":13375,"osÃ¤Ã¤":13376,"lubi":13377,"ĠHaluan":13378,"ĠyleisÃ¶n":13379,"ĠlÃ¤heltÃ¤":13380,"annin":13381,"elÃ¤inen":13382,"Ġlata":13383,"Ġkoon":13384,"ĠMarko":13385,"kataan":13386,"ĠKallio":13387,"ĠSÃ¤hkÃ¶posti":13388,"Ã¤Ã¤ni":13389,"Ġkierros":13390,"Ġhoidossa":13391,"84":13392,"ĠÐ":13393,"Ġtavoitteiden":13394,"Ġkolmeen":13395,"Ġov":13396,"Ġistuu":13397,"NE":13398,"talli":13399,"kastaja":13400,"ĠnÃ¤kyi":13401,"Ġmaailmasta":13402,"ĠTanssi":13403,"Ġisoa":13404,"Ġkysyn":13405,"ĠVet":13406,"Ġteori":13407,"aleja":13408,"Ġ->":13409,"koissa":13410,"AMK":13411,"Ġkirjautua":13412,"Ġsujui":13413,"geen":13414,"Ġtieteen":13415,"ĠMitta":13416,"ĠPori":13417,"ĠDVD":13418,"kkuja":13419,"Siis":13420,"holm":13421,"ĠkiittÃ¤Ã¤":13422,"Ġsittenkin":13423,"Ġvarmaankin":13424,"ĠhetkessÃ¤":13425,"Ã¤luo":13426,"Ġleve":13427,"Ġnopeaa":13428,"Ġhaluamme":13429,"Ġbei":13430,"ĠYork":13431,"Ġuutiskirje":13432,"ĠyksilÃ¶n":13433,"Ġkansalaisten":13434,"App":13435,"dex":13436,"Ġmuuttuvat":13437,"Ġhankal":13438,"ĠnimensÃ¤":13439,"tsikko":13440,"ĠhetkiÃ¤":13441,"ĠkÃ¤rÃ¤":13442,"tuotteet":13443,"ĠpÃ¤ivitetty":13444,"Ġtutkinnon":13445,"Ġisompi":13446,"ALI":13447,"Yhdist":13448,"ĠjÃ¤sentÃ¤":13449,"Ġkuori":13450,"markkinat":13451,"ĠhenkilÃ¶iden":13452,"SÃ¤":13453,"FC":13454,"ĠyllÃ¤pitÃ¤Ã¤":13455,"87":13456,"siaan":13457,"ajo":13458,"Ġtarjotaan":13459,"katee":13460,"vuori":13461,"ĠLopulta":13462,"tapahtuma":13463,"ĠMI":13464,"Ġkieh":13465,"national":13466,"lasku":13467,"ĠPoika":13468,"ĠmÃ¶kki":13469,"Ġuskal":13470,"ĠpÃ¤Ã¤tteeksi":13471,"ukor":13472,"Ġ51":13473,"ĠTr":13474,"Ġmuistiin":13475,"tenkin":13476,"Ġkuvattu":13477,"Ġpoltto":13478,"Ġjulkisesti":13479,"Ġnousu":13480,"ĠPalvelut":13481,"ĠEvÃ¤":13482,"okkaan":13483,"ĠensimmÃ¤isellÃ¤":13484,"ĠGran":13485,"Ġpintaan":13486,"ĠvehnÃ¤":13487,"olassa":13488,"ĠPos":13489,"killa":13490,"suosit":13491,"alleri":13492,"Ġarkisto":13493,"Ġavust":13494,"Ġmuuttua":13495,"ĠTeemu":13496,"Ġuusille":13497,"opiste":13498,"Ġkeskiviikko":13499,"ĠED":13500,"ĠAc":13501,"Ġaiheutti":13502,"yhteist":13503,"olÃ¤":13504,"Ġmielipide":13505,"ĠJaana":13506,"ĠMul":13507,"Ġmeinaa":13508,"ĠSU":13509,"ettÃ¤essÃ¤":13510,"kartta":13511,"ĠBu":13512,"ĠAnder":13513,"ĠMartin":13514,"ray":13515,"mÃ¤ttÃ¶mÃ¤n":13516,"joamme":13517,"yhteisÃ¶n":13518,"Ġ//":13519,"ĠalkuperÃ¤inen":13520,"Ġvalais":13521,"Ġ700":13522,"ĠAli":13523,"VER":13524,"ĠRaja":13525,"Ġtrans":13526,"Ġostamaan":13527,"ĠkylÃ¤n":13528,"Ġtaat":13529,"ĠvÃ¤henn":13530,"sodan":13531,"Ġteollisuuden":13532,"SIN":13533,"Ġirtisano":13534,"Ã¤Ã¤nnÃ¶s":13535,"puole":13536,"Ġliikunnan":13537,"ottamatta":13538,"ander":13539,"Ġstandard":13540,"Ġherkkuja":13541,"Ġmatkustaa":13542,"Ġaamia":13543,"rn":13544,"Ġjulkaistiin":13545,"toauto":13546,"Ġau":13547,"MEN":13548,"ben":13549,"Ġ54":13550,"jes":13551,"Ġilmestyi":13552,"Ġtohto":13553,"ĠOL":13554,"Ġag":13555,"Ġvartalo":13556,"Ensi":13557,"tamis":13558,"ĠNoin":13559,"ĠLum":13560,"ĠnÃ¤yttÃ¤isi":13561,"kkari":13562,"ĠHE":13563,"ttis":13564,"Ġkella":13565,"Ġteoksen":13566,"Ġmahdollisen":13567,"lannin":13568,"Ġpaljas":13569,"Onneksi":13570,"Ġtalteen":13571,"koulussa":13572,"hote":13573,"ESSA":13574,"kirjojen":13575,"ĠWil":13576,"Ġsiel":13577,"Ġsisust":13578,"ĠKÃ¤Ã¤n":13579,"unan":13580,"Ġravintol":13581,"Ġongelman":13582,"Ġbiolog":13583,"ĠkÃ¤yty":13584,"BB":13585,"Ġjaettu":13586,"Ġpuolis":13587,"ĠitseÃ¤":13588,"kieli":13589,"kertom":13590,"Ġlink":13591,"ĠKulta":13592,"ĠJÃ¤rjestÃ¤":13593,"Ġmiin":13594,"kosen":13595,"Ġtarkastella":13596,"ryn":13597,"ĠlÃ¤hetetÃ¤Ã¤n":13598,"ĠyritÃ¤":13599,"ĠTote":13600,"Ġsuunnittelun":13601,"Ġgluteen":13602,"Ãł":13603,"reak":13604,"Ġtunnelmaa":13605,"JK":13606,"ĠOsuus":13607,"Ġartik":13608,"Ġkertonut":13609,"ĠtekijÃ¶itÃ¤":13610,"ĠkÃ¤Ã¤ntÃ¤Ã¤":13611,"Ġturhaa":13612,"ĠlÃ¶ysi":13613,"Ġluom":13614,"ĠTU":13615,"Ġosia":13616,"valmi":13617,"ĠpÃ¤ivitys":13618,"ĠVR":13619,"Ġsovelle":13620,"yde":13621,"ATTI":13622,"Ġtaiteilija":13623,"wi":13624,"Ġpienemm":13625,"Ġteollis":13626,"tyneen":13627,"myyden":13628,"Ġkirjaston":13629,"Ġarvio":13630,"ĠTodella":13631,"Ġsuolaa":13632,"Ġotettava":13633,"ĠArt":13634,"Ġevan":13635,"jakul":13636,"Ġyksityiskohta":13637,"Ġkontak":13638,"Ġkyps":13639,"Ġedustaja":13640,"Ġoleskel":13641,"gyp":13642,"ĠJopa":13643,"ĠvÃ¤Ã¤n":13644,"Ġyour":13645,"aksi":13646,"Ġponn":13647,"Ġmaailmalla":13648,"ĠNÃ¤yt":13649,"pg":13650,"ĠleviÃ¤":13651,"ĠtekemÃ¤ssÃ¤":13652,"ĠLiite":13653,"Ġtuotann":13654,"Ġrakentamisen":13655,"ENNUS":13656,"Ġtilauksen":13657,"Ã³":13658,"Ġvia":13659,"Ġnosto":13660,"ĠlÃ¤mmintÃ¤":13661,"ĠlÃ¤htÃ¶kohta":13662,"oimintaan":13663,"ĠTerveyden":13664,"paat":13665,"Ġperustaa":13666,"Ġinnosta":13667,"Ġomilla":13668,"Ġmaalia":13669,"ĠlÃ¤mpÃ¶Ã¤":13670,"ihaa":13671,"Ġtoukokuussa":13672,"Ġtuloksena":13673,"Ġpiis":13674,"Ġalunperin":13675,"Ġovi":13676,"EE":13677,"Ġilmenee":13678,"ÃŃ":13679,"vitse":13680,"Ġratkaisut":13681,"Ġjalkapallo":13682,"valtuusto":13683,"Ġvaikeuksia":13684,"Ġprofiil":13685,"Iso":13686,"ĠMolemmat":13687,"UNTO":13688,"Ġsuljettu":13689,"ĠSISÃĦLTÃĸ":13690,"att":13691,"ĠJÃ¤rjestel":13692,"Ġjulkaisu":13693,"Pet":13694,"ĠpÃ¤Ã¤tÃ¶ksiÃ¤":13695,"ASSA":13696,"nuor":13697,"ĠTea":13698,"ĠEriko":13699,"versio":13700,"ĠNuorten":13701,"valmentaja":13702,"VIN":13703,"Ġpoikien":13704,"Ġkurssin":13705,"Ġmainiosti":13706,"llion":13707,"hous":13708,"Ġsateen":13709,"Ġolut":13710,"lliselle":13711,"Ġmuulla":13712,"ĠKangas":13713,"laiseen":13714,"mpel":13715,"Ġvaraus":13716,"Ġkokouksen":13717,"upÃ¤Ã¤":13718,"VAR":13719,"omainen":13720,"Ġoireita":13721,"Ġnapsa":13722,"ĠWe":13723,"Ġajasta":13724,"Ġvaihtelevat":13725,"kkonen":13726,"Ġoika":13727,"Ġmentiin":13728,"ĠsÃ¤ilyy":13729,"Ġalueelta":13730,"cho":13731,"ĠHak":13732,"ĠkÃ¤yttÃ¤jien":13733,"yÃ¶ntekijÃ¤":13734,"ĠJotta":13735,"Ġtempp":13736,"ĠBerg":13737,"atut":13738,"Ã¶ntÃ¤":13739,"jainti":13740,"ĠopinnÃ¤ytet":13741,"Ġhuolen":13742,"Ġparkki":13743,"Ġrajan":13744,"vuotta":13745,"62":13746,"Ġmek":13747,"ĠkÃ¤tevÃ¤":13748,"ĠNaa":13749,"lÃ¤t":13750,"Ġsuunnitellut":13751,"Ġrakennetaan":13752,"ĠElÃ¤mÃ¤":13753,"italo":13754,"ĠnÃ¤kynyt":13755,"Man":13756,"ĠJÃĦ":13757,"Ġtaivaan":13758,"Ġhyp":13759,"SU":13760,"Ġpinn":13761,"MW":13762,"Ġliikkuu":13763,"ĠtyÃ¶skentele":13764,"Ġtappa":13765,"Ġviikonloppua":13766,"Ġseuraavaan":13767,"ĠÃ¤kkiÃ¤":13768,"ĠUniver":13769,"ĠIsraelin":13770,"Turva":13771,"Ġmieleeni":13772,"saira":13773,"Ġtervetuloa":13774,"ĠetÃ¤is":13775,"mmitys":13776,"Ġdiagn":13777,"Ġkokemuksen":13778,"Ġpuitteissa":13779,"ĠlisÃ¤Ã¤minen":13780,"Ġhuna":13781,"Ġkeng":13782,"amb":13783,"ressiiv":13784,"Ġyliopistossa":13785,"Maailman":13786,"ĠlÃ¤hdin":13787,"ĠvenÃ¤":13788,"Ġkertoja":13789,"ĠpyhÃ¤":13790,"PÃĦÃĦ":13791,"Ġkivi":13792,"Ġtilaisuus":13793,"intia":13794,"ĠkesÃ¤kuu":13795,"luu":13796,"Nel":13797,"Ġvoimin":13798,"eeseen":13799,"Ġreilun":13800,"kastan":13801,"Ġmuistaakseni":13802,"ukke":13803,"Ġkama":13804,"Ġmax":13805,"Ġvalitsi":13806,"Ġselvisi":13807,"Ġtuollainen":13808,"ĠlÃ¶ytyÃ¤":13809,"Ġtaikka":13810,"ĠNu":13811,"Ġvanilja":13812,"ĠMak":13813,"ĠtiellÃ¤":13814,"utkin":13815,"Ġkyseinen":13816,"ĠSinne":13817,"Ġkeskittyy":13818,"ĠnimeltÃ¤Ã¤n":13819,"Ġesiko":13820,"Ġhemm":13821,"aikana":13822,"ial":13823,"Ġmiljoona":13824,"Ġasiakaspalvelu":13825,"isyydessÃ¤":13826,"kele":13827,"Ġvakava":13828,"Ã¤stÃ¤":13829,"Ġselviyty":13830,"Ġerottaa":13831,"Ġtuonne":13832,"teis":13833,"arch":13834,"imÃ¤Ã¤n":13835,"ĠmielipiteitÃ¤":13836,"Ġovet":13837,"vanen":13838,"historia":13839,"Ġseminaari":13840,"ĠApple":13841,"Siir":13842,"asiakka":13843,"Ġtavarat":13844,"llossa":13845,"ikoul":13846,"ĠMielestÃ¤ni":13847,"Ġmummo":13848,"ĠErittÃ¤in":13849,"kohan":13850,"ring":13851,"Ġkiinnostun":13852,"hallinto":13853,"KOR":13854,"vÃ¤lillÃ¤":13855,"ĠHyvÃ¤ks":13856,"Ġkolmesta":13857,"ware":13858,"Ġlangaton":13859,"Ġtuor":13860,"ĠKirsi":13861,"ytyksiÃ¤":13862,"ĠUkra":13863,"ĠCap":13864,"oseksuaal":13865,"Ġkovinkaan":13866,"Ġkalastus":13867,"ĠHom":13868,"ĠkÃ¤rj":13869,"Ġmuotoon":13870,"Ġkurkku":13871,"Ġtuonut":13872,"imies":13873,"Ġsuosikiks":13874,"Ġlaboratori":13875,"Ġkuolle":13876,"etit":13877,"ĠSeksitreffit":13878,"Ġare":13879,"Ġnah":13880,"ĠLuonn":13881,"Ã¶nen":13882,"coin":13883,"ĠEsim":13884,"Ġpoltta":13885,"ISTU":13886,"Ġpani":13887,"pelejÃ¤":13888,"Ġkategori":13889,"laatikko":13890,"stointi":13891,"Ġtoisi":13892,"ikolle":13893,"vapaus":13894,"SL":13895,"ĠVenÃ¤jÃ¤llÃ¤":13896,"SUUNNITELMA":13897,"cation":13898,"unior":13899,"maiset":13900,"mestari":13901,"ĠselvittÃ¤":13902,"ĠNokian":13903,"Ġlevyn":13904,"Ġhuolehtia":13905,"ivien":13906,"Ġpuute":13907,"osia":13908,"imesi":13909,"ott":13910,"kosken":13911,"jÃ¤rvellÃ¤":13912,"Ġsuomenkiel":13913,"Tietoa":13914,"ĠedellyttÃ¤":13915,"Ġkuntoutus":13916,"Ġtehdyt":13917,"Ġjalo":13918,"ĠhÃ¤iritse":13919,"Ġtarken":13920,"Ġkivan":13921,"wer":13922,"Ġasua":13923,"ĠmiellyttÃ¤vÃ¤":13924,"ĠKalle":13925,"97":13926,"Ġkerron":13927,"Ġlaaj":13928,"Ġtonn":13929,"Ġpelataan":13930,"Ġeroja":13931,"OOP":13932,"Ġshow":13933,"Rekister":13934,"ohjelmassa":13935,"alb":13936,"Ġolisikin":13937,"Ġkuluu":13938,"uantaina":13939,"nasta":13940,"Ġsoitti":13941,"Ġmuualta":13942,"Ġolosuhteissa":13943,"uuh":13944,"estissÃ¤":13945,"mointi":13946,"Ġtuhoa":13947,"Ġtaivaa":13948,"Ġratkaista":13949,"Ġkevyesti":13950,"ETTEL":13951,"Ġhyv":13952,"Ġkaipa":13953,"ĠHeinÃ¤":13954,"Ġsuuresti":13955,"aarissa":13956,"ĠJuhani":13957,"Ġpainot":13958,"allisten":13959,"nat":13960,"istynyt":13961,"ĠsisÃ¤llÃ¶stÃ¤":13962,"dell":13963,"Ġtestata":13964,"vuudesta":13965,"mÃ¤inen":13966,"Ġsijoittaa":13967,"ĠHei":13968,"ALAN":13969,"Ġnuol":13970,"Matti":13971,"utsen":13972,"Ġreippaa":13973,"mart":13974,"Ġkohder":13975,"ĠtyÃ¶skentely":13976,"Ġalueiden":13977,"ĠSekÃ¤":13978,"Ġteemme":13979,"Ġviiv":13980,"Ken":13981,"rejÃ¤":13982,"ÂłÂł":13983,"siemen":13984,"Ġtulin":13985,"Ġbudjetti":13986,"tautuminen":13987,"ipalvel":13988,"imu":13989,"isuunnit":13990,"Ġpanosta":13991,"ĠEK":13992,"Ġkakun":13993,"ĠpienestÃ¤":13994,"Ġlyhyen":13995,"Ġpike":13996,"ĠISO":13997,"Ġhintaa":13998,"Ġhyll":13999,"Ġlintu":14000,"Ġpuuvilla":14001,"tajien":14002,"ĠYhdessÃ¤":14003,"Ġvideon":14004,"ĠVoin":14005,"Ġsokeria":14006,"Ġalumiin":14007,"ĠChe":14008,"Ġsamanaikaisesti":14009,"ĠStrateg":14010,"Ġaa":14011,"ĠhyvÃ¤ksyÃ¤":14012,"Ġinnostu":14013,"Ġkulttuurit":14014,"ffa":14015,"rist":14016,"foorumi":14017,"kuntava":14018,"ĠET":14019,"Ch":14020,"ĠLapsen":14021,"ytyn":14022,"Ġretke":14023,"ross":14024,"Ġsukupolven":14025,"Ġpuhdista":14026,"Ġtotuus":14027,"Ġmielenterveys":14028,"ĠLar":14029,"mber":14030,"atus":14031,"ĠNuori":14032,"kÃ¶Ã¶n":14033,"ĠPALVEL":14034,"ĠKysy":14035,"llanen":14036,"pÃ¤iviÃ¤":14037,"isaatio":14038,"ĠViron":14039,"Ġluottam":14040,"ĠpÃ¤hkin":14041,"Ġuskalla":14042,"paikanhaki":14043,"Ġotsikko":14044,"ĠCom":14045,"asiakas":14046,"isempia":14047,"Ġsairaala":14048,"tavissa":14049,"Raa":14050,"utuvan":14051,"Ġemo":14052,"keskustelu":14053,"Ġlohd":14054,"jiksi":14055,"meja":14056,"Ġnettisivu":14057,"ĠlukumÃ¤Ã¤rÃ¤":14058,"POR":14059,"Ġjohdolla":14060,"Ġ{":14061,"vÃ¤ki":14062,"Ġkahvil":14063,"KOKO":14064,"innÃ¤kin":14065,"ĠHaku":14066,"Ġjossakin":14067,"dennÃ¤kÃ¶":14068,"yst":14069,"Ġsivust":14070,"ĠVanhan":14071,"uel":14072,"Ġmonelle":14073,"taide":14074,"Ġturhaan":14075,"Ġbis":14076,"ĠKOR":14077,"Ġlaitteiden":14078,"Ġolisiko":14079,"ĠVarsinais":14080,"luotto":14081,"Ġpara":14082,"Ġpentu":14083,"ĠmyÃ¶hÃ¤Ã¤n":14084,"Ġyritin":14085,"ĠBlo":14086,"urat":14087,"Ġkumme":14088,"Ġjoskin":14089,"Ġvanhojen":14090,"Â¶":14091,"ĠSISÃĦLLYS":14092,"ĠpÃ¤invastoin":14093,"ĠAg":14094,"ST":14095,"Ġluonne":14096,"ĠmÃ¤Ã¤rÃ¤t":14097,"ĠMaster":14098,"KSET":14099,"stosta":14100,"Ġrekry":14101,"CC":14102,"Ġvalot":14103,"Ġsoolo":14104,"ĠPÃĸYTÃĦKIRJA":14105,"ĠvÃ¤rjÃ¤":14106,"eskuksen":14107,"Ġminuun":14108,"ĠkentÃ¤llÃ¤":14109,"ĠpÃ¤Ã¤llys":14110,"Ġkertomaan":14111,"liikkeen":14112,"Fa":14113,"Ġnak":14114,"mpu":14115,"ĠmÃ¤Ã¤rittÃ¤Ã¤":14116,"Ġkaikin":14117,"Ġpsyy":14118,"KÃ¤ytÃ¤mme":14119,"dra":14120,"Ġvalti":14121,"ennon":14122,"intÃ¤":14123,"istorian":14124,"sinÃ¶Ã¶ri":14125,"aktiiv":14126,"Ġtilassa":14127,"reissa":14128,"sken":14129,"Asiakas":14130,"Ġtulkin":14131,"inosa":14132,"ĠTava":14133,"ivia":14134,"ĠYhden":14135,"TÃ¤nÃ¤":14136,"ĠHuolto":14137,"Ġjoukosta":14138,"Ġhuomioida":14139,"PK":14140,"Ġjoulukuussa":14141,"ĠARVIO":14142,"Ġvanhemm":14143,"Ġtiedosta":14144,"Ġohjaaja":14145,"Ġelokuvia":14146,"ppis":14147,"Ġinten":14148,"Ġtuntunut":14149,"Ġsamankalta":14150,"keskuksessa":14151,"ĠMaal":14152,"Ġalueet":14153,"Ġpankkila":14154,"2019":14155,"Ġylh":14156,"Ġ1960":14157,"Ġkood":14158,"Ġaineen":14159,"spot":14160,"prosentti":14161,"Ġnuorta":14162,"Myy":14163,"Ġollutkaan":14164,"kÃ¤ynnin":14165,"Toiminta":14166,"ĠmenemÃ¤Ã¤n":14167,"Ġkannattaisi":14168,"ĠLaur":14169,"tÃ¤mÃ¤llÃ¤":14170,"Ġalkoholi":14171,"keihin":14172,"Ġnetin":14173,"Ġpanostaa":14174,"Ġviitta":14175,"ĠHot":14176,"Ġtaito":14177,"ĠRavintola":14178,"ĠJani":14179,"orks":14180,"ivas":14181,"Ġaloittanut":14182,"Ġitsesi":14183,"Ġvarsinaisesti":14184,"TÃ¤lla":14185,"72":14186,"mium":14187,"Ġvieraili":14188,"ALLINEN":14189,"Ġolevani":14190,"kasv":14191,"Ġuseimmat":14192,"opetta":14193,"Ġmielenkiintoisia":14194,"Ġetun":14195,"ppaan":14196,"Ġkokoonpan":14197,"Ġpuhdistus":14198,"isikÃ¶":14199,"matkat":14200,"kÃ¤yt":14201,"Ġtarttu":14202,"ffice":14203,"Ġsilmiin":14204,"ĠMicrosoft":14205,"esto":14206,"lehdet":14207,"Ġratsastus":14208,"ĠKiinan":14209,"Ġlauantai":14210,"hÃ¤iriÃ¶":14211,"ĠRiitta":14212,"dien":14213,"Ġkamp":14214,"tilanteessa":14215,"Ġneulo":14216,"Ġhankalaa":14217,"GI":14218,"ĠBryssel":14219,"Ġarkkitehtuu":14220,"Ġliia":14221,"unnasta":14222,"tn":14223,"ĠLapsi":14224,"elaa":14225,"ĠYhdistyksen":14226,"Ġsulo":14227,"Ġmonenlaisia":14228,"tÃ¶itÃ¤":14229,"Aloita":14230,"Ġosi":14231,"palvelua":14232,"kuvi":14233,"Ġoireet":14234,"maksua":14235,"Ġvaatia":14236,"EtÃ¤":14237,"ĠGen":14238,"Ġturvallisesti":14239,"elpo":14240,"idas":14241,"Joul":14242,"Ġpuhdas":14243,"Ġmarraskuussa":14244,"Ġpystynyt":14245,"piirin":14246,"Ġ53":14247,"enkillÃ¤":14248,
[...]
