#version: 0.2
t e
a r
Ġ b
Ġ f
i s
a l
Ġ p
v e
Ġ h
Ġ m
s t
n t
l e
s e
o f
Ġ of
Ġ d
n e
u r
c o
t h
m e
r o
i o
a s
Ġ y
Ġ e
i c
Ġ r
io n
â Ģ
Ġy o
e d
Ġ co
Ġ l
Ġb e
i l
Ġ g
Ġ I
c e
Ġf o
u t
Ġr e
c h
l y
n o
d e
t ion
Ġ is
s o
r a
r i
Ġfo r
th a
w e
Ġ tha
Ġyo u
s i
a y
w h
w i
T h
Ġ wh
u l
c a
Ġtha t
p e
k e
Ġ u
g e
te r
ar e
ve r
Ġh a
Ġ wi
i n
in g
Ġ in
âĢ Ļ
c t
o o
Ġ we
i r
Ġ se
i e
e a
w o
g h
Ġ st
Ġwi th
a b
Ġ so
Ġ no
Ġh e
Ġm o
o w
Ġ al
Ġ S
u n
Ġ ca
Th e
s h
m p
Ġ are
Ġm a
Ġ A
Ġ wo
Ġ as
il l
o ut
Ġd e
t a
s s
Ġ C
te d
i f
Ġp ro
a d
a c
Ġyo ur
t y
n ce
Ġd o
a tion
l o
r s
t s
Ġ ne
Ġha ve
i d
s u
Ġ sh
me nt
th is
o ne
e t
Ġ this
l l
Ġl i
l a
Ġ M
o p
Ġ a
Ġa n
Ġan d
Ġa t
Ġ W
Ġe x
w as
Ġca n
Ġ was
Ġ ch
r ea
Ġp e
m a
Ġl o
u st
p o
Ġm e
Ġ B
i gh
o ur
e e
q u
ul d
n s
Ġ le
Ġ P
f e
Ġno t
i ve
ro m
Ġ su
u s
w ill
Ġ will
Ġp o
Ġ ab
Ġ The
a te
Ġ H
ur e
Ġ v
t ing
ic e
. .
Ġf rom
Ġwo r
Ġ âĢ
r y
Ġ si
f o
al ly
i ne
Ġ 1
Ġ j
s a
ar t
Ġal l
fo r
Ġ D
de r
Ġ (
i me
Ġp r
k ing
Ġ 2
u gh
i ty
Ġ k
Ġm y
Ġ F
Ġb ut
o l
Ġ T
Ġb y
d s
Ġco n
m o
e y
Ġ sa
Ġg o
' s
Ġmo r
b e
Ġso me
Ġ te
t ime
ver y
Ġ out
c i
ie s
n a
Ġf a
Ġwh e
th ey
w a
Ġ they
Ġh o
i nt
Ġ R
e m
th ing
p p
Ġmor e
e ar
Ġ L
Ġh as
Ġu p
w ay
Ġ one
d ing
t ra
âĢ Ŀ
Ġ N
Ġ G
ri e
Ġab out
igh t
c l
k s
Ġ E
Ġ our
i de
Ġ wa
Ġ time
r t
Ġe n
o th
th o
i m
u se
Ġ ad
i a
un d
Ġhe r
Ġ O
Ġpe r
e ir
th eir
Ġ their
Ġco m
u e
Ġu n
n y
al l
Ġli ke
is t
ic h
Ġwh o
s pe
r ee
se d
nt s
Ġan y
ab le
ar d
g a
0 0
Ġco mp
Ġ ta
h e
ri n
Ġ ac
Ġl a
Ġg et
Ġ Th
i le
Ġp a
i g
ac k
Ā Ā
no w
u m
Ġy ear
b le
Ġwh a
Ġwha t
Ġb u
Ġ if
oth e
n ing
in d
oo k
oo d
Ġbe e
e st
Ġ Y
Ġj ust
Ġ qu
c k
h a
ow n
Ġ tra
Ġwo uld
Ġ othe
Ġ n
' t
o d
c tion
n ge
Ġbee n
th em
e se
ĠâĢ ľ
Ġ them
o m
fe r
r u
i p
Ġwh ich
Ġp la
d u
Ġk now
o t
Ġh is
o ver
Ġ tho
Ġ J
a ch
Ġwhe n
Ġma ke
Ġne ed
Ġtha n
Ġd is
Ġse e
ve n
e p
v ing
op le
rin g
ĠI t
be r
Ġne w
d i
Ġsh o
s p
i ts
Ġ ro
Ġha d
ir e
e nt
Ġothe r
rea t
Ġco nt
l d
l ic
i mp
Ġpe ople
Ġ over
Ġ int
Ġ U
Ġal so
ĠI n
m s
is h
Ġ spe
n i
Ġ "
Ġwor k
Ġ ar
Ġu se
i te
Ġ imp
u p
l p
Ġh ow
.. .
u nt
Ġwe r
Ġwer e
Ġex pe
ar y
Ġ2 0
e w
Ġd ay
e ss
s te
me r
Ġa pp
v a
u ch
ne r
ne d
ic al
n ly
ĠW e
t t
t ter
Ġhe lp
Ġse r
le a
ĠC o
si n
v ice
Ġ way
le d
Ġa f
in k
Ġe very
Ġch a
te n
ne ss
u b
a ge
Ġu s
Ġint o
t ur
Ġta ke
f ul
sin g
Ġp art
Ġr a
Ġ cl
Ġm ay
Ġin ter
pe r
te s
Ġsa id
Ġf ir
u d
ĠY o
Ġb a
ro ugh
se s
Ġ very
st a
o nly
ion s
s c
Ġ -
a m
Ġ 3
po rt
o b
ce ss
is e
Ġ only
g ra
Ġdo n
t ure
so n
Ġg ood
Ġ ce
r ed
for m
Ġof f
Ġmo st
Ġsh e
ci al
n ds
io us
ic k
ation s
Ġco uld
Ġ thing
Ġb ack
o pe
l ay
ĠH e
l i
Ġwe ll
ment s
t ive
th ese
Ġ these
lo g
Ġd a
al s
t wo
c ur
Ġ20 1
Ġfir st
il y
Ġm uch
t ch
W e
u de
il d
le s
z e
se l
Ġyear s
ol d
s ay
Ġno w
tion s
si de
Ġb o
ĠYo u
n c
Ġ say
co m
f f
Ġg ro
t r
wi n
ve d
Ġ K
Ġma ny
t al
t ies
Ġwa nt
ĀĀ ĀĀ
Ġher e
c rea
ĠâĢ ĵ
Ġle a
a ct
Ġ its
ca use
t oo
th rough
Ġa ct
Ġd id
Ġpro v
Ġsho uld
e ct
Ġun der
ce s
me s
Ġ too
Ġpr e
Ġ through
Ġ op
ic a
ĠTh is
Ġst a
Ġ sp
Ġ ke
Ġg a
l s
r ta
for e
Ġd if
th ink
âĢ ľ
if e
ma n
Ġ think
s y
ve s
win g
ĠS o
o ry
Ġf in
Ġre s
Ġg reat
Ġ V
Ġm ar
Ġaf ter
Ġ na
p r
Ġre ally
Ġp h
rie s
Ġe ven
ro n
âĢ ¦
Ġ th
we r
Ġh igh
Ġpro du
Ġ two
as s
ĠA n
m i
ĠC h
c ar
Ġin cl
c al
Ġwhe r
Ġwher e
fe ct
i v
s ur
. âĢĿ
Ġbe cause
Ġa m
e l
Ġre ad
ul t
Ġdo e
Ġwe e
Ġdoe s
Ġf ee
me n
p pe
d ay
Ġg ive
form ation
j ect
Ġser vice
te nt
tt le
Ġbe st
Ġh im
ga in
Ġl ook
ea d
Ġlo ve
I t
Ġre g
Ġ car
Ġ 5
o und
Th is
Ġr ight
Ġg e
Ġbe ing
i th
Ġp lay
ve nt
Ġf ind
co r
Ġtho se
Ġd own
Ġho me
ar ge
ie w
I n
Ġ 4
Ġper son
u al
o rs
ha t
Ġbe fore
lea se
Ġ ope
m ber
Ġbu si
x t
ar ch
Ġtho ugh
Ġgo ing
Ġsu ch
l ine
g n
Ġl ife
s m
j o
i al
s ch
as o
s ure
g o
po n
Ġ sy
Ġin formation
nt h
Ġbe l
d ed
Ġdif fer
Ġm ea
Ġa gain
Ġ ide
l le
Ġl oo
y s
i ma
ĠM a
sel f
Ġ sm
i ties
ĠI f
c lo
al th
il ity
al e
ĠTh a
I f
Ġma de
t ic
Ġ sc
Ġre ce
ĠR e
) .
ve lo
c are
ter s
Ġ sch
Ġwe b
ul ar
Ġcomp a
Ġst ill
way s
Ġexpe rie
a nce
Ġ $
Ġla st
w ri
Ġwor ld
Ġf un
g in
c ted
Ġre qu
ĠM o
s k
Ġfa m
p t
Ġthing s
v o
Ġlo n
Ġar ound
Ġlon g
n k
e rs
Ġsu p
ra te
Ġg u
p h
Ġ crea
m un
Ġ own
s si
g ed
oo l
Ġf ew
Ġfee l
Ġch ild
Ġbusi ness
r ess
Ġsu b
mo n
he n
ĠAn d
Ġp ar
di tion
Ġde si
ĠD e
in ing
ĠN o
Ġst o
ne y
Ġv is
sh ip
ur ing
t ry
Ġ sure
ĠH o
Ġli ttle
Ġ wri
Y o
Ġ clo
Ġ care
co me
Ġimp o
velo p
Ġsome thing
po r
Ġe as
ĠF o
c u
g ing
Ġre al
a st
Ġg ra
Yo u
Ġpo st
Ġ sur
Ġu sed
Ġ1 9
me d
' m
co n
Ġ try
ve l
Ġma n
ra ct
Ġal ways
Ġpla ce
Ġe ach
Ġsh ow
ĠB ut
mp le
Ġst ar
t op
Ġm in
Ġ art
Ġsa me
Ġke ep
Ġco ur
Ġ tr
Ġprov ide
p s
Ġwo n
t ri
Ġe f
Ġm ed
m in
ra tion
aso n
Ġse t
ĠS e
Ġco me
n ding
Ġf rie
Ġprodu ct
Ġwh ile
ver s
ie nt
Ġmo nth
mi t
Ġdiffer ent
a ce
ke t
Ġexperie nce
. "
a ted
rea d
la n
Ġgo t
ro w
Ġbe tter
Ġp ri
Ġlo t
we e
Ġcomp le
r ic
se r
ul l
Ġle ar
c le
ine d
Ġe ar
if ic
Ġp ub
Ġha n
, âĢĿ
Ġne ver
u ally
Ġf ree
Ġde velop
ĠC a
Ġ cur
k ed
Ġcom mun
Ġsy ste
ĠThe y
Ġex p
Ġco unt
i z
as h
Ġ 6
no th
le ss
noth e
Ġse n
nothe r
va il
Ġcha nge
Ġqu est
Ġ ob
od ay
ation al
! !
Ġn um
w ar
Ġhe alth
r k
c r
S o
ct o
b a
Ġp ut
ate s
Ġm ight
l ish
b o
e nce
Ġ sk
ĠFo r
Ġimpo rta
Ġne xt
na ge
Ġwi n
al le
c ust
Ġen d
is s
ĠD o
h o
Ġpr of
Ġpo int
ĀĀĀĀ ĀĀĀĀ
ca tion
Ġfo und
ia n
Ġ top
r der
r ga
u te
c ed
Ġ cust
ĠL o
Ġpro ble
Ġfam ily
Ġm ust
t able
ch a
Ġ tal
Ġ tri
Ġa vail
su e
Ġbe t
Ġb l
Ġr un
ne s
Ġte ch
ĠS t
wee n
Ġ1 0
r al
' r
'r e
Ġ ste
Ġwee k
Ġin d
g le
f t
Ġp ay
c all
Ġb ig
Ġp ur
d o
in s
Ġpro gra
Th a
y e
' ve
Ġad d
a nt
Ġb oth
si te
Ġco r
ge s
g s
si ve
Ġfo l
Ġb i
Ġday s
od y
Ġwith out
i ed
oo r
Ġe le
Ġf l
gh t
ut ion
Ġpo ssi
de rs
Ġhan d
Ġab le
we ver
Ġimporta nt
Ġavail able
H e
ie r
Ġf e
Ġloo king
Ġa nother
Ġtra ns
Ġpla n
v i
lo wing
Ġ ter
00 0
Ġvis i
Ġ tur
ĠThe r
v iew
Ġ 7
Ġsi nce
al ity
o rga
ot o
ra n
Ġe mp
ĠTher e
ĠB e
Ġch e
Ġ call
Ġe nt
w ard
A n
ic s
o rder
Ġh u
Ġst ude
Ġbet ween
ll ow
) ,
Ġst art
Ġapp ro
Ġth ree
Ġcompa ny
Ġwh y
Ġu sing
jo y
Ġis sue
ĠT o
r ent
Ġb ook
Ġl arge
Ġf ar
nc y
Ġ ty
Ġpart ic
Ġ orga
Ġpro ject
Ġin st
ve st
c ra
ie ve
Ġnum ber
t oday
n ted
Ġsup port
ĠW o
Ġte am
Ġv al
Ġ today
Ġco st
Ġbe a
c ri
Ġ 8
qu e
Ġh ard
Ġd uring
Ġe l
Ġj ob
u ding
Ġsi te
Ġres pon
Ġha ppe
Ġb rea
Ġ cal
Ġst ate
r d
Ġh our
Ġd ri
ma il
r n
Ġpr ese
Ġwor king
p a
n line
ess ion
Ġa ge
is ts
g y
ĠS ta
Ġfa ct
Ġd ire
i b
' ll
Ġle t
ed u
g ree
Ġa way
w are
Ġre l
Ġso l
W hat
ĠS a
Ġcont in
s ted
Ġv ar
Ġco nce
i tal
ir ed
Ġbu il
Ġ order
ĠN ew
The r
Ġof fer
Ġgro up
Ther e
ar k
Ġde f
be rs
Ġde c
t u
Ġef fect
n ks
Ġse em
Ġinter est
nt ly
Ġsyste m
Ġac co
Ġen joy
v id
Ġdid n
Ġcon f
Ġunder sta
i ze
Ġb log
Ġmo ney
Ġma king
lo y
Ġf ull
Ġchild r
Ġchildr e
Ġchildre n
Ġe no
Ġ2 00
Ġme et
Ġwa ter
Ġro om
Ġsu c
Ġservice s
Ġe ver
l ing
ill ion
ron g
Ġsm all
ĠA s
Ġch o
Ġweb site
Ġch ar
a ke
v ol
Ġ 9
ar ing
ab ly
ction s
Ġte ll
Ġdo ne
F o
Ġcust o
Ġsch ool
i x
Ġga me
Ġho pe
ide o
Ġho use
mer ica
ture s
o ge
Ġcour se
ĠTha t
cto r
Ġ &
Ġincl uding
Ġpub lic
ĠP ro
Ġ .
id ed
Ġha ving
Ġu nt
w w
Ġ old
ar ed
Ġ ve
ie nts
s ter
Ġget ting
ri b
o nline
ĠP e
nge r
Ġph oto
ce nt
u th
me rs
Ġeno ugh
Ġre la
Ġma nage
Ġco lle
Ġdo ing
Ġall ow
log y
ĠS he
Ġincl ude
Ġ online
ro ss
Ġda ta
Ġ war
Ġun i
ĠW h
Ġprogra m
Ġla w
ue s
c ut
Ġp lease
ĠâĢ ĺ
lan d
ne t
read y
Ġneed s
oge th
il s
Ġca me
Ġspe c
ogeth e
Ġare a
ogethe r
Ġcur rent
Ġfor m
2 0
Ġdoes n
Ġin vest
r m
ni z
Ġpro cess
c y
ice s
A s
, "
a ting
Ġv o
ĠU ni
Ġspe cial
t ogether
Ġtime s
Ġlea st
ie nce
ne rs
ar s
ĠW hat
Ġre se
Ġwith in
ĠCo n
Ġeas y
Ġ ima
w al
r ist
ĠA l
pp y
Ġca se
Ġj o
Ġal ready
Ġof fe
Ġf r
ĠE n
Ġfol lowing
Ġm us
g u
Ġthough t
Fo r
ĠA merica
ar ds
Ġca p
Ġh ea
Ġunt il
Ġpossi ble
ĠR o
rta in
con d
Ġa ppe
s l
Ġv ideo
Ġche ck
n ment
ic le
ke n
Ġex ce
io r
Ġst ud
Ġof ten
Ġ together
An d
n al
Ġpo wer
is ed
ĠH a
Ġbi t
Ġact ually
Ġb oo
m ing
Ġsh are
Ġp op
Ġp ic
is ion
Ġf il
Ġd ra
Ġpo si
Ġcomple te
Ġfo od
Ġsi de
Ġsi gn
Ġlo cal
Ġk ind
Ġh ead
Ġde ta
lo r
ĠP r
Ġ cle
f ic
Ġpro te
Ġre p
Ġvisi t
Ġsay s
Ġsome one
Ġb ring
Ġgo ver
Ġe vent
Ġf ea
Ġstude nts
c red
Ġn ight
ĠJ a
Ġre st
ro l
il i
id s
Ġbea ut
Ġrequ ire
Ġimp ro
y ing
Ġcont act
C o
o ri
Ġl ist
Ġ cri
Ġle ss
Ġ sl
Ġrece ive
port un
Ġp ract
ĠâĢ Ķ
Ġ im
Ġst ay
Ġre so
ra ge
Ġna me
Ġty pe
u tes
a th
Ġperson al
Ġrese arch
ĠM e
Ġe qu
Ġpro per
te ri
he r
u g
Ġre f
ure s
Ġli ve
Ġse ver
Ġsa fe
Ġsi n
Ġgro w
di vid
Ġbe ne
Ġsta n
Ġ '
Ġmake s
Ġb as
g ine
Ġope n
Ġsuc cess
Ġ [
Ġm is
m y
Ġce rtain
Ġex a
Ġop portun
de n
Ġprof ession
ĠT e
Ġpa st
Ġstan d
Ġb ro
ct ive
D o
Ġothe rs
o us
Ġmar ket
ĠC om
f ter
Ġany thing
Ġind ust
Ġm ind
ree n
Ġv iew
Ġl ate
c ul
Ġbe come
Ġe st
B ut
ri t
si ty
u ck
e me
si der
ut ure
W hen
m ic
Ġst ory
Ġle ad
ge st
ff ic
a k
Ġproduct s
ing s
ci ally
Ġcommun ity
un ch
Ġmonth s
ie ty
o nce
Ġevery thing
Ġfrie n
cor ding
Ġfrien d
Ġqu ality
v ious
Ġmea ns
et ty
Ġfrie nds
Ġwa i
Ġad dition
Ġe mail
o ve
Ġapp lic
Ġco ns
ul ts
s po
Ġin te
Ġso cial
Ġ wal
pe n
Ġle ft
Ġfo llow
s is
Ġin divid
ĠP o
Ġproble m
Ġst op
Ġcount ry
Ġ once
E R
ĠL a
Ġhour s
if ul
p tion
Ġa u
ill s
Ġact iv
Ġfr e
Ġbel ow
m b
is ing
Ġal o
Ġcom pe
Ġle g
for t
Ġagain st
ĠJ o
Ġemp loy
Ġper fect
is m
t ru
ma z
Ġpa ge
Ġco mes
Ġf ur
ic ally
Ġla n
ke r
ĠM y
Ġwo men
Ġse cond
of t
Ġbel ieve
Ġwa tch
o c
Ġa ir
Ġy et
Ġma in
Ġte st
Ġsu g
d ge
ĠI s
Ġpro b
Ġalo n
Ġalon g
ĠG e
Ġide a
Ġmo ve
l f
Ġme nt
Ġevery one
igh ts
Ġne ar
Ġf uture
ith e
mo st
co no
Ġmo de
du cation
Ġa go
ima te
Ġoff ice
c us
Ġclo se
ugh t
te e
Ġre ason
r th
Ġqu ick
Ġma tter
Ġcrea te
tur al
Ġdesi g
Ġ tru
ithe r
Ġbe gin
Ġg l
c la
âĢ Ķ
c ks
Ġ ...
t reat
Ġin crea
ci de
Ġlear n
ĠE x
Ġe ve
p art
Ġf ac
Ġcl ass
ge r
Ġca use
Ġstar ted
Ġ :
Ġfo ur
vi ron
s we
Ġte ach
in a
Ġundersta n
mp a
Ġunderstan d
T o
n ies
i ving
as ter
st ru
Ġsho rt
Ġme n
ro om
Ġquest ions
Ġh ist
Ġb ody
ate ly
Ġin f
n der
d a
Ġpr etty
Ġh ol
Ġdesi gn
Ġp l
Ġsever al
ĠCh rist
Ġ spo
Ġe ye
Ġwon der
v al
Ġcle ar
Ġtech no
Ġpa t
Ġcon sider
m iss
is o
Ġ1 2
side nt
Ġsee n
nce s
Ġr u
Ġ ci
W h
i ble
Ġde al
Ġce nt
Ġ cra
al f
c lea
Ġwho le
mo r
com men
Ġel se
ĀĀĀĀĀĀĀĀ ĀĀĀĀĀĀĀĀ
ro nt
ll ing
wh e
Ġmin utes
Ġac ross
Ġ1 5
ĠA ll
Ġbene f
Ġbuil ding
u mp
Ġre tur
Ġ treat
Ġst r
Ġqu ite
spe cially
Ġtry ing
a in
s ale
ĠY our
ĠD a
ar a
Ġta king
Ġdis co
nc ed
Ġwe nt
Ġ oc
Ġprob ably
Ġorga niz
Ġli ne
t ook
sc ri
ĠG od
Ġbeaut iful
Ġle vel
un ds
Ġn ice
ir d
Ġ clea
c ity
Ġyour self
Ġb ad
Ġm illion
ĠB o
Ġso n
m bers
no t
Ġl is
ĠW hen
Ġquest ion
Ġgover nment
Ġre co
Ġ took
1 0
Ġ3 0
ab ility
fer ence
viron ment
Ġex e
por ts
u ff
Ġre commen
ĠCa n
s le
Ġba sed
Ġcon ne
Ġad va
Ġpartic ular
t ical
Ġma jo
i tion
Ġ sale
Ġis n
Ġin vol
ĠHe r
ĠA d
s oft
Ġha ppy
Ġmus ic
Ġac cess
ur y
gra ph
Ġno n
ĠA r
Ġco up
Ġge ner
Ġmar ke
ch e
Ġpr ice
Ġsi mple
ut o
Ġdevelop ment
ĠM ar
Ġre view
Ġ Ġ
Ġpri v
Ġco o
H ow
ig n
Ġth in
Ġh i
Ġissue s
Ġspec ific
Ġacco unt
Ġcha n
Ġse arch
ie ld
ri ty
Ġbu y
Ġch alle
Ġg ir
N o
Ġexa mple
Ġen ter
age s
Ġso o
s se
y o
Ġge ne
lo ad
ĠW ith
ter m
Ġph one
id ing
Ġsu m
ile s
Ġ city
Ġany one
ke rs
n ter
Ġme mbers
Ġfa ce
ile d
Ġcal led
Ġe ns
Ġse le
Ġse ason
Ġdire ct
Ġab ove
Ġde li
p y
Ġsi mp
Ġb ra
ĠM ay
ĠU S
ĠIn ter
ner gy
Ġg ue
Ġgive n
Ġsoo n
Ġsu pp
iz ed
Ġ ow
Ġindust ry
I N
Ġprese nt
Ġcont rol
whe r
sel ves
wher e
t ors
Ġwhe th
Ġwheth e
Ġwhethe r
Ġ1 8
s al
Ġu su
a p
Ġe cono
pp ed
e sted
Ġper for
' d
Ġa mo
y le
Ġas k
me mber
t old
Ġsh op
t as
Ġr is
Ġla ter
Ġst ru
Ġ ite
Ġch oo
Ġcompa nies
Ġre mo
Ġau tho
Ġsp ace
Ġme ss
ĠS h
Ġ told
Ġno thing
Ġyou n
Ġke y
Ġd ist
Ġear ly
tho ugh
Ġst ra
M y
Ġli ght
Ġp ass
Ġfa vo
ful ly
Ġhe art
Ġp ie
Ġwa nted
Ġpo lic
Ġ cla
ver sity
il ities
t ot
Ġfin a
Ġ Â
tch e
if ied
Ġmed ia
Ġread ing
cur ity
Ġhe ar
/ /
Ġal most
R e
Ġcom ing
Ġta x
Ġb ed
Ġcon tent
led ge
ĠJ u
Ġre cor
Ġe specially
Ġseem s
ca de
Ġway s
Ġmea n
.. ..
n cial
Ġp as
5 0
Ġf i
Ġdef in
Ġ Q
Ġ tot
ve rage
Ġp are
Ġre ach
ĠP a
Ġfor ward
Ġen vironment
ĠH ow
n ational
Ġyoun g
b y
ut ions
Ġsto r
Ġe t
ĠB a
Ġre ma
Ġe ducation
Ġa maz
Ġf la
Ġrel ation
Ġpr ep
Ġexpe ct
Ġwri ting
ip s
Tha t
Ġcusto mers
p ing
Ġk ids
Ġm et
Ġra nge
la ce
n se
Ġimpro ve
Ġbrea k
Ġe ither
b ook
ver ed
ur ces
tent ion
Ġa gree
ĠA t
Ġval ue
Ġma teri
Ġwee ks
c ard
Ġchar ac
Ġloo ks
time s
spe ct
so l
Ġm ult
lish ed
Ġ cut
Ġr edu
Ġdif fic
Ġproble ms
Ġli ving
ĠSo me
Ġp le
ne w
b al
Ġh ar
B e
u sh
Ġbe h
ta in
Ġsta ff
3 0
ga n
ĠJ e
Ġtake n
Ġ cr
Ġwor ks
Ġprofession al
ori gin
Ġ soft
Ġ201 8
Ġsin gle
Ġtra ining
Ġcoup le
of f
Ġse lf
Ġ tas
Ġstor e
Ġstr e
Ġsu per
Ġsimp ly
Ġd ue
Ġup d
ke s
Ġneed ed
Ġex tra
Ġeffect ive
d le
Ġlike ly
ĠWo r
n u
Ġen co
Ġas ked
Ġf ive
ĠT ra
Ġide nt
Ġart icle
Ġsi tu
Ġ origin
Ġwor th
u ble
Ġ cred
Ġres ults
ĠO ur
Ġent ire
st s
Ġl ow
R E
is ter
Ġwor ds
ĠN e
ta tion
: //
if t
Ġlea ve
is tra
Ġhu man
ĠL e
Ġra th
Ġrath e
Ġrathe r
s sed
Ġh alf
ĠThe se
Ġg ar
Ġl ink
t ow
so ci
Ġpur cha
ran d
Ġac ce
mon g
i no
if y
ro du
ĠHo wever
Ġsi ze
Ġin sur
Ġsi m
Ġy e
ra ted
ea th
Ġamaz ing
O N
ro us
il le
Ġex ci
Ġet c
Ġper cent
ed e
Ġfur th
cu ss
t our
Ġknow n
Ġ tow
t ro
ri te
t ting
ĠT H
Ġcom mit
Ġre member
w ish
Ġfurth e
g th
n gth
ie t
Ġper io
c as
p ri
cr e
ine s
Ġb ar
M o
Ġse x
Ġg lo
g ue
Ġfurthe r
u ter
Ġp ick
Ġfor e
Ġread y
r ry
t le
Ġ1 1
Ġd ro
Ġopportun ity
Ġrelation ship
ta nce
Ġ wish
Ġpo tent
Ġat ta
Ġre port
ma tic
O ur
Ġm id
Ġnew s
Ġe nergy
ĠSe r
t im
Ġtechno logy
Ġtr ue
Ġtal k
ra tions
Ġph ys
Ġ table
il ar
Ġ tour
A T
Ġlo ca
Ġ #
mp t
s ce
Ġ card
Ġmy self
y ear
Ġappro ach
Ġst rong
ba n
Ġamo unt
Ġpo li
Ġ cul
Ġdeta ils
Ġho wever
Ġex act
Ġst rate
Ġare as
Ġfina ncial
Ġproper ty
ĠC l
ĠO ne
ite ly
Ġele ct
Ġrequ ired
Ġwi de
m ar
Ġf ra
pp ing
Ġstud y
c king
n ic
ma nce
Ġwin d
ci p
ĠMo r
Ġba n
Ġtur n
Ġcontin ue
Ġa ch
use d
Ġf all
Ġ1 00
Ġhist ory
Ġrecommen d
te l
ww w
i ke
si a
as ing
Ġp ack
Ġin de
ath e
ra ting
Ġinsur ance
Ġchalle nge
g g
Ġco lo
Ġmanage ment
ur ce
ĠN ot
Ġ 0
Ġf ront
ĠC ha
ro und
Ġchoo se
Ġan al
Ġte n
Ġmor ning
ĠJ ust
Ġme tho
Ġde b
Ġas se
Ġlo nger
Ġpartic ip
ĠUni ted
ia ns
Ġne cess
Ġtake s
W ith
Ġ Z
Ġmo ment
Ġe a
Ġres ult
Ġeve nts
Ġoffe rs
D e
Ġmajo r
Ġris k
Ġtra vel
ĠTha nks
Ġ vers
so me
Ġsug gest
Ġpa in
He r
Ġknow ledge
Ġfin ish
Ġens ure
Ġ sle
po se
Ġdis cuss
ri ed
Ġsh a
Ġd i
Ġga mes
ĠE ur
a nts
Ġd ate
ĠC e
ĠIn d
Ġwri te
Ġme mber
Ġusu ally
Ġdo cu
Ġan no
M a
Ġrespon si
Ġb ur
Ġcon su
t is
her e
Ġa mong
Ġcom mon
Ġcor r
ab o
w rong
Ġst uff
Ġsub ject
Ġh tt
Ġne two
Ġad ded
ĠHer e
ð Ł
Ġf ig
we rs
Ġen gine
pr ese
Ġpar ty
Ġvar ious
c reat
ide nce
ct ure
if ica
Ġ- -
Ġcha nce
nt i
p ar
Ġmo v
ĠâĢ ¦
Ġcan not
Ġout side
Ġ wrong
Ġinterest ing
rea m
A t
Ġa uto
E S
com ing
ĠB u
Ġli ves
di tions
Ġthin king
Ġfi t
o uch
Ġv ol
A l
Ġlear ning
Ġop tions
po sed
ne l
miss ion
Ġemploy ee
nt y
Ġ5 0
Ġbu ild
ĠPr e
athe r
le b
Ġchange s
b ility
Ġrun ning
ie f
Ġsen se
Ġde vice
Ġbeh ind
Ġpr ess
Ġwai t
Ġuni que
Ġse ries
Ġcl ients
a ns
ow s
Ġ creat
id ay
Ġcusto mer
ct s
t ten
Ġsk ills
Ġperio d
Ġser ious
ĠAmerica n
Ġexp la
A N
Ġe v
in ation
Ġide as
ic ation
Ġro ad
m as
Ġste p
ir st
. )
Ġf ul
ĠN a
Ġfo cus
Ġfavo rite
Ġwas n
Ġan s
Ġpro mo
i um
The y
Ġre prese
p lay
Ġse curity
Ġconce r
Ġans wer
Ġreg ular
ĠP h
ĠP lease
t ouch
Ġdefin itely
Ġdiffic ult
io ned
Ġac cording
Ġone s
H a
Ġm iss
r ary
ĠS ch
Ġj our
Ġincrea se
Ġmarke ting
lo n
Ġcla im
ĠB l
ise s
Ġsign ifica
nes ses
Ġb ir
Ġinter ested
ur ed
1 2
Ġ swe
for d
Ġg r
Ġprov ided
Ġv a
Ġindivid ual
te st
in ce
Ġsi g
ul ation
Ġ sal
O U
s un
me di
Ġ tro
ĠO r
Ġactiv ities
ĠC ar
Ġcompe t
de s
lea sed
nt ial
ĠEur ope
Ġ touch
A ll
Ġin sp
1 9
c ru
por ted
Ġhe ard
Ġoff ic
ir t
Ġadd ress
ĠV e
Ġb ab
il led
lle nt
t own
? âĢĿ
Ġac tion
Ġboo ks
Ġwonder ful
Ġwh ite
Ġsur pr
Ġch arge
Ġ2 4
st i
Ġsi x
Ġse a
Ġpop ular
c ir
O n
c ing
Ġcom b
pe rs
Ġsim ilar
Ġpriv ate
Ġgo e
ac y
Ġcred i
so r
Ġ sce
Ġme as
Ġin j
Ġgu ide
Ġrece nt
ve ls
wo rk
n is
Ġgoe s
Ġimp act
Ġme mo
Ġdiffer ence
ud ed
Ġd ig
Her e
Ġpare nts
Ġsa w
Ġcl ick
Ġpre vious
O ne
Ġ201 7
Ġquick ly
Ġ sun
Ġsen d
Ġin i
ge t
Ġpolic y
Ġra n
ĠO f
Ġfea tures
g ress
- -
Ġat ten
ro r
Ġsum mer
Ġini t
Ġb ot
ĠS p
b ody
w all
t ory
Ġpotent ial
e ci
Ġna tural
Ġgener al
Ġtreat ment
Ġcom ment
p ed
h n
ĠMor e
Ġthem selves
ĠSo uth
Ġprovide s
Ġtr e
Ġite ms
ste ad
ĠA pp
Ġd rin
Ġd eath
Ġinst ru
Ġr ed
oo gle
Ġbo x
Ġco un
Ġapplic ation
Ġ cir
Ġat tention
l come
aso ns
Ġshow s
Ġproject s
Ġsh all
s wi
Ġsay ing
Ġwor d
Ġ2 5
Ġso und
Ġcurrent ly
Ġhappe n
ha ps
Ġwo man
r eci
Ġ1 6
Ġ1 4
Ġpo l
ĠF e
v ation
w ise
Ġpoint s
Ġthan k
ri ght
ĠN ow
Ġpa per
Ġmay be
ĠSta tes
f act
Ġte a
Ġin side
h ol
ĠPe r
Ġcho ice
Ġve h
d y
O R
ĠEn g
Ġtri p
st ic
Ġf ine
Ġ ,
Ġmed ical
Ġsale s
po int
Ġop tion
Ġvers ion
r ts
Ġro le
Ġex tr
ĠD ay
ur ch
Ġf lo
Ġdri ve
Ġlo st
1 5
Ġposi tion
Ġhu ge
Ġp ea
b all
Ġr ate
Ġa vo
Ġclea n
Ġperfor mance
Ġdec ided
Ġmeet ing
Ġretur n
Ġar ri
ver t
Ġce leb
Ġ swi
Ġb al
Ġfe ed
Ġapp ly
b ack
g ic
Ġk i
Ġu pon
Ġenco ur
u me
Ġdesig ned
u sing
Ġsoft ware
h ead
Ġsa ve
Ġhave n
Ġ19 9
Ġf ield
H o
Ġinvol ved
ĠO n
Ġrece ntly
Ġdec ision
ra y
ur s
Ġwork ed
Ġin stead
pen de
el t
Ġli mi
Ġno rm
Ġcomp uter
Ġcredi t
ĠWor ld
Ġcontin u
Ġca nce
Ġcost s
Ġmo th
Ġen ga
ct ing
ĠP ar
Ġcon side
Ġuse rs
Ġ ill
ic les
Ġnecess ary
i ta
Ġexact ly
pe s
no r
ĠG o
Ġa ud
Ġda ma
Ġth ird
Ġfil m
Ġsta t
Ġcrea ted
Ġspe n
Ġfin al
o il
Ġeas ily
Ġspen d
Ġhol iday
ken d
u nts
u als
Ġthrough out
Ġbl ack
Ġho t
ĠCo nt
ĠNo rth
Ġwal k
ĠTha nk
Ġpract ice
Ġb lo
âĢ ĵ
Ġrequ est
s ca
ĠYo rk
A R
Ġsyste ms
Ġf ire
Ġreceive d
ĠA fter
Ġwri tten
Ġg rea
Ġfa st
A fter
ĠSer vice
Ġaddition al
Ġab ility
ni t
Ġ ol
ra ble
Ġbenef its
ĠU n
Ġanno un
Ġ1 3
Ġeye s
So me
Ġco ol
Ġ ðŁ
c up
Ġma int
Ġapp reci
1 1
S e
Ġha nds
Ġm ix
oo ls
Ġplay ing
ye r
Ġf ix
do n
tr e
Ġcont rib
sol ute
ĠDo n
r c
Ġ201 6
Ġgrow th
Ġsle ep
e ssed
N ow
Ġter ms
Ġlan d
Ġcomplete ly
Ġge ts
Ġb us
Ġhigh e
ir s
Ġhighe r
Ġhe ld
ĠC ity
Ġfun ction
Ġ oil
Ġg iving
Ġsk in
istra tion
O T
ĠW a
Ġest ab
Ġtri ed
Ġcount ries
Ġvar iety
Ġlo cation
Ġthan ks
Ġst ri
Ġfeel ing
s qu
d om
Ġan im
Ġuse r
E N
ver se
Tha nk
Ġcont a
Ġposi tive
n ch
S t
P lease
di t
un g
le x
Ġcont ract
Ġa ware
Tha nks
Ġleg al
st o
r g
Ġsome times
ace book
Ġtot al
Ġsitu ation
ub lic
Ġd oor
Ġf elt
ĠUni versity
Ġexce llent
Ġlan gu
wo r
Ġcertain ly
Ġfa ir
sti t
mo us
Ġde term
Ġ town
r ica
Ġpro ces
ck ed
g r
Ġphoto s
Ġpic ture
Ġha ir
Ġplan ning
Ġim medi
Ġsch edu
ffic ient
Ġm as
Ġno te
Ġb rand
Ġco ver
w ed
le ment
z y
Ġwee kend
Ġad vice
Ġb r
ll s
A L
Ġreso urces
Ġlate st
S he
Ġhi t
su s
1 8
ĠM ed
v y
Ġin ten
Ġcare e
one s
Ġset ting
s co
Ġ1 7
Ġpurcha se
Ġco de
Ġh old
Ġcaree r
Ġpart ner
Ġappe ar
Ġst yle
us a
e ed
Ġgu ys
Ġrela ted
ac ed
Ġco ll
nc ing
li ke
Ġmess age
ĀĀĀĀĀĀĀĀĀĀĀĀĀĀĀĀ ĀĀĀĀĀĀĀĀĀĀĀĀĀĀĀĀ
Ġma ch
ĠS y
Ġso c
Ġstude nt
Ġfre sh
Ġtal king
Â Ń
Ġextr eme
im um
Ġexpe n
Ġinclude s
Ġca ses
Ġho r
man d
Ġstar ting
Ġcould n
ĠA f
l ier
der n
Ġorigin al
Ġv ia
ĠF ra
r is
. ,
Ġcon ditions
Ġgo al
Ġex ten
Ġe sse
ĠA c
Ġmo t
Ġcom ments
Ġpre vent
E D
w ood
Ġbir th
Ġas soci
Ġwe ight
mor e
Ġare n
il ing
ip ment
Ġpie ce
Ġda ily
I T
Ġk new
Ġlook ed
st ing
Ġob ject
Ġpla ces
tive s
S T
Ġlo ved
Ġcon te
stru ction
lic k
ĠH is
iv al
Ġin no
Ġprogra ms
ri a
Ġse ction
Ġfo ot
Ġdis ea
Ġpla ns
Ġ4 0
mp o
il ies
Ġima ge
ĠChrist mas
Ġn ational
ĠP ri
Ġsh aring
b ile
Ġp rin
m m
Ġ wall
Ġinter national
Ġdown load
Ġprov iding
ĠSta te
tic s
t self
i tself
Ġinst all
ke ts
Ġd r
ica ted
b i
gra m
Ġrecor d
e x
Ġ itself
ĠMo n
la te
Ġcharac ter
ri al
Ġhigh ly
Ġad min
Ġpro m
ĠR a
nt a
Ġmoth e
Ġb row
ĠD is
Ġex is
Ġbuil t
Ġre sta
Ġse ss
Ġco lor
Ġgir l
Ġbl ood
Ġmothe r
The se
Ġh one
il o
ma t
Ġsu i
Ġh y
o k
Ġresta ur
Ġhealth y
Ġv io
ban d
for table
ĠS u
Ġl ay
Ġde scri
nt al
Ġtra dition
b ly
le r
Ġf ile
Ġd ru
f a
t arge
Ġle vels
Ġsafe ty
ĠS ep
ĠF acebook
l ue
Ġint rodu
ri day
Ġbab y
ĠS te
part ment
Ġde gree
Ġde fe
Ġea t
Ġsol ution
he s
ar ding
C h
P e
Ġab solute
ate ver
Ġlo ts
Ġinter net
Ġach ieve
Ġbusi nesses
t ree
o ugh
Ġtype s
Ġwould n
Ġpat ients
C a
Ġca mpa
Ġde ep
ro te
Ġspe nt
ĠN ational
Ġ X
âĢ ¢
Ġfin ally
Ġexpe cted
Ġtur ned
Ġf und
Ġmult ip
Ġpic tures
Ġga ve
Ġtoo ls
Ġd iv
Ġa verage
Ġgro und
Ġgroup s
qu ent
Ġd ead
Ġl uck
Ġte e
Ġex pr
Ġlea der
Ġpol ice
n ical
Y e
Ġindivid uals
Ġ201 5
Ġat tra
Ġ targe
Ġr ad
ĠA ust
b s
Ġba se
ĠL et
v is
c um
Ġdis play
Ġlo ss
i rit
Ġorganiz ation
ĠE very
Ġtru ly
ĠTH E
Ġat te
Ġal ter
Ġoc cur
Ġsuccess ful
Ġloca ted
Ġter m
Ġbe ha
Ġhelp s
Ġgive s
ns ion
Ġfin ding
Ġcorr ect
s pon
Ġplay ers
Ġwa nts
as ses
Ġbenef i
tion al
u fact
Ġ squ
ĠJo hn
Ġho tel
ĠT a
Ġemployee s
Ġglo bal
Ġeas ier
iso n
ra nge
va nt
Ġsto ries
Ġca mp
n ight
Ġbo ard
Ġ tree
? "
Ġ /
Ġe mer
Ġreco g
Ġexpe rt
Ġtra ck
Ġmode l
Ġhappe ned
ĠÂ £
Ġmov ie
ĠLo n
z ed
Ġexe rc
use s
Ġpla t
oo ds
por ting
ĠC al
Ġman ufact
Ġd ia
Ġte xt
Ġbu dge
Ġopportun ities
Ġhtt p
Ġin sta
Ġpa id
Ġpar ts
Ġgro wing
i ge
ist ic
Ġpoli tical
Ġe mb
ĠU K
ĠC ol
Ġcust om
Ġfam ilies
Ġincl uded
che s
rough t
ĠO ff
Ġgu y
ugh ter
Ġ cy
z z
" .
s ses
Ġcon vers
c ure
Ġprodu ction
Ġcar ry
IN G
n ual
We ll
ĠC he
ba sed
Ġre ci
si gn
ĠG u
Ġde st
Ġallow s
Ġre asons
oo n
le ct
t om
Ġsu f
Ġdo g
Ġso urce
Ġr ights
e ring
li ed
Ġch ea
Ġal one
Ġful ly
u x
t ips
Ġde l
ĠW ill
n na
Ġuse ful
Ġre fer
Ġsi tes
nt o
Ġreg ion
ĠG oogle
I C
Ġphys ical
Ġnetwo rk
Ġop in
Ġprodu ce
Ġv ic
Ġdirect ly
c ro
o rg
Ġ: )
Ġse nt
!! !
Ġundersta nding
tche n
ul a
Ġj ud
Ġsc reen
Ġjo in
Ġsl ow
we some
pr il
Ġef fort
ĠM in
Ġequ ipment
ce mber
ĠF riday
Ġco py
Ġ z
Ġas sis
Ġecono mic
Ġlimi ted
Ġqu al
Ġe mo
cr et
ĠR ead
Ġ tips
Ġg one
A S
ĠT V
Ġavo id
g round
Ġla unch
Ġsignifica nt
Ġsee ing
Ġpr ices
Ġcon dition
m ary
ct ors
ede ral
mer cial
h ood
W o
ric t
Ġ cu
Ġle tter
r ge
Ġconsider ed
oo t
te mber
war ds
l ia
po si
âĢĿ .
Ġtow ards
Ġmateri al
Ġbegin ning
Ġre a
Ġspe ed
Ġ ut
Ġre lease
sp ital
p m
Ġstand ard
Ġmo bile
sp ite
Ġact ive
Ġgue ss
Ġcrea ting
ĠHe alth
Ġas s
Ġmo ving
2 5
cto ber
Ġqu o
Ġne igh
d id
Ġrequire ments
ĠCo unt
imate ly
Ġe p
Ġfa nt
Ġba th
Ġwe lcome
cide nt
Ġ ur
Ġe r
t in
s sing
Ġma tch
off ee
Ġp i
1 7
e ra
ĠM arch
1 6
Ġbenefi t
Ġmo dern
g ot
I S
oo rs
Ġl if
Ġdig ital
Wh ile
rie n
1 4
Ġadva nt
âĢ¦ ]
Ġsol utions
und ay
line s
1 3
ch o
Ġl in
Ġrespon se
Ġbut t
ill ing
Ġinter view
Ġte le
Ġgo als
Ġre side
i ally
Ġba nk
Ġstre ngth
ven ue
Ġpa int
ĠQ u
Ye s
ee p
Ġre le
Ġtr ust
Ġ x
f ace
ad a
ĠT ime
ĠS pe
ĠJu ne
Ġna ture
se n
h ib
ĠD ep
o rn
Ġexp lo
Ġlangu age
ĠSa n
Ġ201 4
Ġin fo
ific ation
yo n
Ġso rt
Ġre spect
Ġgl ad
is ions
ĠWh ile
sc rib
tis f
Ġ tu
Ġlo wer
pri ate
Ġ wed
pe ra
Ġtho usa
iv ity
co mes
Ġh us
ĠHo use
ast ic
Ġso ld
Ġbas is
i tle
ge ncy
ĠB ar
de ring
log ical
cre asing
ic ro
le y
Ġg ift
Ġf ear
ic ed
Y our
b u
ca me
Ġse par
ĠR ep
I s
Ġbe gan
i ver
ĠB y
Ġg reen
Ġma na
Ġchan ged
nu ary
Ġinvest ment
Ġnear ly
E x
ni que
Ġp ush
ar ter
Ġlead ing
Ġpost s
ac tion
c il
Ġbeha v
Ġcoo k
ĠWe ll
Ġcolle ge
v our
Ġdocu ment
tur day
Ġce nter
Ġmultip le
Ġste ps
t ary
ĠThe n
Ġwe ather
Ġhelp ing
Ġtra de
Ġa p
Ġa head
Ġwi fe
Ġan swe
ive s
Ġspo t
Ġb rought
Ġfe et
ĠW ar
Ġk no
ĠDe cember
ĠP ol
Ġsh i
Ġfl oor
ĠA N
Ġpur pose
w rote
J ust
Ġpo r
v il
Ġcom fortable
Ġfa th
k now
ĠA pril
a king
ha n
ĠT ru
Ġcl ub
ĠSep tember
Ġb la
se t
ĠG a
Ġhelp ful
Ġmateri als
Ġpe rs
ys is
ach e
nt ing
und red
Ġwai ting
Ġch ee
iz ation
j ust
? ?
nc ies
rien d
Ġat t
ie l
ĠA ny
Ġle s
Ġcomple x
Ġcolle ction
Ġm ine
Ġse ll
Ġ wrote
al a
ve mber
ĠO ctober
Ġoffe ring
so ns
Ġhim self
vent ion
ĠA ct
ĠPre sident
Ġima ges
t rea
lor e
ĠF a
Ġre leased
Ġsc ience
p ro
Ġf ish
Ġh ur
Ġparticular ly
ĠL ea
ab e
ig ation
Ġac ces
ĠNo vember
ĠMa n
Ġhappe ns
Ġ tic
e ssi
l ies
un ately
Ġ cru
un ding
Ġhus band
c ash
ĠH ar
Ġcl ient
us ion
Ġde pe
ic tion
la ted
ĠS unday
ĠĠ ĠĠ
Ġextreme ly
ĠEng lish
ĠAf rica
te ring
Ġwar m
O h
val u
Ġmea ning
ĠJu ly
in ner
Ġknow s
si ness
l in
b ut
yon d
Ġp oor
Ġbe came
Ġli gh
Ġbe yond
Ġme r
Ġwed ding
ĠA ug
Ġru les
ĠB ea
Ġde cade
Ġaud ience
Ġcour t
Ġev idence
ĠWh y
Ġfor get
Ġvo ice
Ġsub mit
ara n
Ġsch ools
Ġob vious
Ġro und
ce ed
ĠAr e
Ġaf ford
Ġfa il
o se
l ation
Ġl ice
A r
bo r
Ġa wesome
ĠM r
ea h
Ġactiv ity
ĠF r
Ġexperie nced
L L
Ġ2 1
Ġbel ie
ĠAust ral
Ġpea ce
ul ations
Co n
ĠSch ool
Ġal though
Ġin cred
Ġson g
Ġtoo l
Ġper form
Ġbudge t
Ġdo ll
Ġinf lue
Ġspe ak
ĠJa nuary
Ġbas ic
Ġcomp r
Ġcon du
k a
Ġdra w
Do n
Ġtech nique
ĠE ven
Ġnum bers
ve y
Ġki tchen
Ġcons ul
Ġcreat ive
ĠMo st
A C
N ot
Ġ cash
i ted
ĠA b
Ġbutt o
Ġgra du
Ġexci ted
um b
Ġpub lished
Ġ â
Ġ201 3
i tive
Ġco ld
ĠRe g
Ġrela x
Ġad vert
Ġveh icle
Ġthough ts
Ġreso l
ly ing
Ġsa tisf
Ġhone st
Ġas pe
ĠH igh
Ġhelp ed
Ġn ut
Ġnorm al
Ġde cide
Ġplay ed
essi ve
Ġpa th
Ġgra n
6 0
Ġper haps
a po
c used
Ġdisea se
Ġin creasing
c offee
ĠG ra
Ġ ver
Ġmetho d
P r
Ġre pa
Ġow ner
Ġst age
Ġr ates
ĠC ent
Ġpro ced
Ġre ve
Ġimmedi ately
Ġredu ce
Ġlear ned
Ġfath e
cor e
Ġcul ture
Ġso unds
Ġre ported
Ġwor ry
pa n
ĠSa turday
Ġfea ture
Ġfathe r
ĠMa nage
le t
sh op
Ġaf fect
Ġcom mercial
Ġabsolute ly
Ġbo y
Ġfig ure
pende nt
Ġeffect s
Ġde p
Ġstate ment
Ġst ress
Ġdo ub
c ry
Wh y
na nce
art ment
Ġstra ight
Ġfir m
Ġser ve
Ġh undred
ĠF rom
ĠG et
Ġ201 2
Ġwh atever
Ġd ed
t ude
Ġcor po
e g
Ġh op
Ġmach ine
Ġallow ed
Ġde cl
Ġn ation
Ġmid dle
Ġgir ls
Ġjob s
Ġcon se
Ġre pe
ĠY e
Ġear lier
ĠMon day
oo king
Ġsm art
Ġ coffee
Ġ trea
Ġre t
Ġb illion
Ġdama ge
Ġex am
Ġd ark
Ġple as
Ġ19 8
Ġfriend ly
Ġk id
t w
te ning
Ġprote ct
Ġimp lement
i ring
c ious
mo d
Ġas su
O M
Ġ6 0
Ġappro priate
t ab
Ġsa n
Ġsp a
Ġeve ning
Ġlo ad
Ġnot ice
Ġtru th
Ġl ack
ĠInter net
Ġreg ister
o e
Ġr ide
Ġphoto graph
ri dge
Ġb all
Ġenjoy ed
Ġinst i
al ing
ĠI ns
ta nt
ron ic
nt ic
Ġcampa ign
Ġreg arding
Ġre ta
ni ze
ĠT r
Ġpo sted
Ġg as
Ġty p
ash ing
Ġfor mer
b um
ĠG ood
Ġple nty
Ġin come
ĠK e
rd in
Ġpre fer
nit o
for ts
ĠK o
Ġtop ic
Ġacce pt
Ġlo se
Ġdevelop ed
t ize
Ġen able
Ġtro uble
Ġsc ient
cha nge
Ġlove ly
Ġ sco
ĠCe nter
ĠW est
A d
ĠWe b
le n
Ġoffer ed
Ġresponsi ble
yo u
Ġstrate gy
ili tary
E very
Ġcance r
Ġ cro
Ġco l
Ġrema in
Ġsto ck
Ġpa ges
Ġtradition al
ale s
Ġra ce
H i
Ġpress ure
ta n
Ġjour ney
Ġst ates
i tude
Ġcon sta
Ġsh ot
ge rs
in ted
i co
ea n
Ġconf ir
ac ks
Ġsp irit
Ġwatch ing
Ġ sca
ĠD r
Ġdri ving
Ġdo uble
u sive
ĠAug ust
Ġmea nt
b ru
Ġanal y
Ġgran d
Ġpay ment
Ġ[ âĢ¦]
f ast
Ġpo rt
2 00
Ġpre sident
ĠAl so
v ision
o x
mp les
Ġtra ffic
r ders
Ġke pt
L o
Ġm iles
Ġoc cas
Ġexp a
ĠY ear
Ġplay e
Ġplaye r
Ġkeep ing
Ġdro p
4 0
h ow
t ar
Ġwe ar
Ġcon ference
Ġesse ntial
Ġho mes
Ġbot tom
Ġpro gress
z a
ĠC our
c row
Ġca te
wi tter
ĠDep artment
Ġd ry
ĠMa ny
l ight
Ġpower ful
Ġma x
Ġalter na
scrib ed
Ġover all
Ġrel ig
Ġre ser
Ġre ports
ue l
Ġcan did
Ġol der
Ġacce p
Ġda ughter
Ġsh own
ĠGe r
Ġbra in
Ġswe et
ĠHa ve
Ġinsti t
le nce
Ġfo o
Ġar gu
Ġcons is
r ical
for ce
Ġpat ient
ĠG ro
e o
Ġapplic ations
mo cra
ĠL i
Ġho spital
s mo
ia nt
Ġcomp la
ĠOff ice
Ġreal ity
Ġlo g
L et
Ġcon struction
Ġth era
Ġhea t
ke y
he th
Ġadvant age
Ġte m
Ġlin ks
heth e
Ġval u
hethe r
Ġa nti
ĠHo me
Ġac qu
Ġpar a
_ _
ur al
Ġef forts
k y
Ġbro th
ĠA rt
Ġan nual
Ġment ioned
Ġwill ing
Ġsoc iety
Ġbus y
ĠS c
Ġch urch
Ho wever
! âĢĿ
ner al
lo t
Ġcar ds
Ġye s
ĠCh ina
A ny
Ġsu sta
e rn
Ġexperience s
Ġmo ved
ge n
Ġbig gest
Ġcap ital
Ġchallenge s
Ġban d
Ġreg ard
Ca n
Ġfant astic
Ġappreci ate
iz ing
Ġal bum
Ġupd ate
ar ies
Ġpr ed
sa ge
ĠS ee
ĠY OU
t we
Ġ tw
Ġsh ared
Ġre m
j e
om s
Ġfinish ed
Ġfa n
Ġp ool
* *
ri d
ĠCo r
Ġgrea ter
P ro
mon st
Ġa im
Ġgu aran
Ġar ch
Ġ2 2
Ġf ight
ad y
Ġpr em
ĠG reat
r ew
Ġdeli very
Ġdist rib
Ġsupp ly
Ġbo ught
Ġpass ion
p ut
Ġexerc ise
Ġce rt
Ġf ab
Ġshop ping
Ġp et
cut ive
i der
Ġbl ue
if orn
tive ly
Ġd inner
Ġcame ra
Ġtot ally
g no
Ġecono my
rie f
P o
Ġschedu le
ĠCo un
Ġincrea sed
Ġimp r
Ġ crow
wi de
y al
te nce
ĠF irst
Ġopin ion
Ġspe nding
ee l
ĠF in
Ġtea ms
ĠInd ia
Ġfor ce
Ġbu ying
V E
ĠT O
t itle
s n
Ġexis ting
b ur
ĠR us
Ġb io
Ġdo ctor
Ġas king
Ġcon v
B y
s ad
g na
sh e
A c
Ġenga ge
Ġ @
ĠLo ve
ĠðŁ Ļ
Ġroom s
Ġwor kers
Ġob ser
Ġsi t
ĠJe sus
si ble
Ġview s
Ġe ating
se e
ri f
ĠP ark
Ġpie ces
Ġpr ior
Ġautho r
Ġf ru
bru ary
ri ties
ĠMa ke
bo ard
oo th
wh a
Ġplat form
Ġf em
ĠLon don
fort unately
Ġsce ne
Ġcommun ication
ra tes
iforn ia
Ġvideo s
Ġide al
Ġpa tter
ĠM c
ĠM ich
Ġf ill
Ġsele ction
Ġca tch
ra t
ĠFr e
Ġprin cip
ĠCount y
Ġfa t
Ġrep lace
Ġsa ving
Ġoffic ial
Ġmin ute
Ġbal ance
Ġanal ysis
Ġorganiz ations
Ġli nes
Ġ twe
Ġgener ally
ic ations
Ġput ting
oo ks
s ports
Ġexci ting
Ġp sy
Ġ201 1
Ġhist o
Ġsur v
ĠInter national
Ġbutto n
Ġatten d
ĠPe ople
Ġsur ge
a h
ca st
Ġe fficient
Ġun less
Ġrele vant
Ġcomple ted
ĠA ir
va tive
Ġpro ud
wha t
L E
ic ate
Ġb ill
Ġsess ion
Ġd iet
Ġwho se
ay s
Ġd ie
cha n
tche s
l ie
Ġpas sed
Ġ title
Ġencour age
ĠW ed
ster day
Ġact ual
Ġmaint ain
Ġ sad
ist ry
pe rt
Ġwin ter
Ar e
ĠS ho
ĠG over
Ġst ro
ic t
Ġmis ta
Ġho st
ĠI T
Ġdevice s
Ġexp lore
Ġco vered
Ġ cas
Ġlea ders
Ġop tim
ĠT ea
un k
Ġwind ow
Ġm ilitary
Ġla ugh
Ġu ne
ĠE ar
Ġtech nical
Ġth row
Ġpart ies
ĠS co
ph one
Mo r
Ġteach e
Ġreal ize
Ġdoub t
ĠBu siness
vent ure
Ġ201 0
Ġen ha
Ġwas te
i als
min al
ĠI N
Ġse ven
Ġope ning
ĠEurope a
b ed
ĠEuropea n
com mod
Ġfa ns
Ġwal king
Ġexpen sive
Ġbe coming
E O
Ġde monst
Ġtem pera
Ġthousa nds
Ġbed room
Ġprep ared
Ġuse s
ash ion
il t
Ġde lic
Ġim m
Ġ sports
pr e
Ġcharac ters
ĠðŁĻ Ĥ
ĠTru mp
Ġdevelop ing
Ġl ab
mor row
A M
Ġvol un
Ġwi ne
Ġ2 3
Ġac cur
Ġex cl
Ġmo unt
ho use
Ġ www
Ġj ump
men ted
Ġmo nito
Ġprote ction
Ġfa ith
ĠCom mun
ac ing
wo rd
Ġbe ach
Ġmiss ion
ĠO F
p ter
Ġad v
un der
Ġra in
Ġ cry
Ġelect ric
ist ics
Ġment ion
! "
mpa ny
Ġlarge st
log ies
ĠW ho
o s
Ġl unch
Ġcar s
ta ge
ea t
ĠCal ifornia
Ġpl us
o ns
Ġclear ly
Ġent ry
Ġsub sta
Ġannoun ced
Ġest ate
si tes
ĠB ra
ĠK ing
ĠP art
O f
I D
Ġga th
Ġa ward
Ġout d
ĠB ro
Ġad op
r ep
Ġse cure
Ġrequire s
Ġle d
Ġpop ulation
Ġr ich
Ġstand ards
Ġmetho ds
Ġstud ies
Ġcri tical
Ġother wise
ĠM us
Ġg un
Ġcon cl
g al
Ġn ur
Ġment al
Ġassoci ated
lon g
Ġstre et
Ġ ig
tha t
Ġr are
Ġadva nce
Ġb ul
Ġ19 7
i k
Ġfac ilities
Ġf ederal
Ġbo rn
si g
ic y
Ġtrans fer
N e
ch ed
Ġsee med
Ġhigh est
ĠR ese
Ġprofession als
Ġr id
int s
Ġfact ors
ĠFe bruary
Ġdrin k
Ġcommun ities
Ġbro ad
alle r
Ġ2 8
Ġ cup
sta nding
Ġcont ro
Ġ smo
Ġfa vour
Ġv ill
l im
Ġgar den
Ġd ied
Ġlis ted
E C
ĠL ife
Ġin for
Ġgue sts
Ġorga nis
Ġchan ging
Ġne ga
Ġope ration
tur ed
Ġad ding
Ġdeli ver
Ġinte gra
Ġasse ss
e ch
Ġbo n
Ġd ream
Ġp ra
Ġf iles
Ġow ners
we st
I ON
Ġj e
ĠCol le
Ġreci pe
il a
ĠD ire
bi t
Ġ ing
Ġda ting
al ed
ĠS tre
Ġdec isions
Ġrelationship s
c ross
P h
f ree
Ġpar k
Ġcall s
urs day
Ġexpe rts
ues day
Ġconne ction
Ġcon ven
Ġsl ight
Ġhand le
ime d
Ġp ull
s core
ment al
Ġlarge r
Ġart icles
Ġlea ving
Mor e
Ġteach ing
s now
ĠTe ch
O W
Ġga in
Ġre ference
Ġear th
Ġac commod
Ġli b
! )
Ġse ctor
Ġfee ls
Ġa cade
Ġexpla in
" ,
Ġsex ual
ĠLa w
ish ed
ll ige
g ies
Ġwor se
Ġdesi r
Ġdesir e
Ġe valu
E T
ĠRus sia
Ġvo te
Ġhe aring
Ġcoll abo
Ġpri nt
Ġconce pt
Ġ sis
s me
Ġde mand
Ġba g
Ġsele ct
Ġrestaur ant
Ġdru g
t ough
ili ar
Ġ score
ut y
e ne
ta te
ri age
in ds
Ġdeterm ine
Ġdiscuss ion
Ġal le
Ġcl asses
Ġmeas ure
Ġap point
u a
Ġ snow
Ġ9 0
Ġback ground
Ġsp ring
M e
Ġth rea
Ġour selves
Ġce ll
u ted
Ġci vil
Ġfollow ed
ine ss
go n
Ġfra me
Ġsi tting
Ġso rry
o nto
quent ly
Ġima gine
Ġf lex
Ġcl in
Ġded icated
ĠCan ada
ra nt
Ġmo d
wi th
Ġpla nt
Ġci tize
Ġsho wing
o rders
l us
Ġle ngth
il k
Ġ tough
te nance
9 9
Ġtas te
Ġite m
z o
i ration
Ġvic tim
w ild
e hen
ite s
Ġbirth day
p lace
ĠSt o
Ġ8 0
ĠO th
ship s
Ġco ach
Ġ2 7
Ġse cret
Ġser ved
vol ution
2 2
u be
Ġcompet ition
Ġassis tance
Ġin vi
Ġ cross
e fore
Ġep iso
wh ich
r efore
Ġanim als
e refore
ĠO ut
ĠU p
Ġ ine
ga z
Ġlis ten
r et
Ġremo ve
F rom
ul ous
ĠP la
Ġlo a
Ġappe ars
ar m
Ġse lling
I G
Ġ onto
ĠService s
pe ctive
l is
Ġ ice
Ġ2 6
Ġstat us
O nce
ric ul
Ġcomp ared
ic ing
ĠH ol
Ġcause d
Ġfun ds
Ġany where
Ġappro x
Ġblo ck
e less
Ġreview s
Ġen ded
ra nce
Ġpolic ies
Ġna mes
Ġ ok
Ġ _
Ġcom fort
Ġgl ass
Ġass ist
Ġth erefore
Ġhea vy
Ġestab lish
Ġcent r
fe cted
Ha ve
ac ity
Ġuni t
Ġvisit ors
in ter
O L
Ġval ues
ĠMay be
ine r
ĠBe cause
c in
ĠBl ack
nes day
co nds
Ġcomp one
Ġmana ged
S a
go ing
i pped
Ġestab lished
ed s
Ġing red
Ã ©
Ġfeed back
Ġmajo rity
oo m
Ġsusta in
ĠAN D
âĢĿ ,
Ġtal e
use um
ĠE ast
f i
C om
Ġdire ction
ĠYe s
Ġ wild
d own
Ġbath room
Ġatta ck
ĠSe n
Ġvis ion
ĠW al
ha m
Ġtas k
ar ily
ĠAs soci
Ġad mit
i va
ĠF ree
i ra
Ġmo m
Ġch em
ĠT ake
Ġmin imum
ĠStre et
Ġsy mpt
Ġfor ms
Ġclo th
no o
Ġcontinu ed
ĠB est
ĠTh ursday
rat o
Ġconf ide
Ġoccas ion
ĠT uesday
Ġcent ury
Ġbeaut y
Ġsup posed
y a
Ġmemo ry
Ġtra n
Ġj a
1 00
matic ally
Ġso uth
Ġcir cum
othe r
ashing t
Ġqu iet
ra tive
ashingt o
ashingto n
ĠO h
a ging
Ġ ir
Ġr ise
Ġconne ct
ll a
Ġtarge t
ĠN OT
Ġd ump
Ġbrea th
O S
Ġpre gna
ĀĀĀĀĀĀĀĀĀĀĀĀĀĀĀĀĀĀĀĀĀĀĀĀĀĀĀĀĀĀĀĀ ĀĀĀĀĀĀĀĀĀĀĀĀĀĀĀĀĀĀĀĀĀĀĀĀĀĀĀĀĀĀĀĀ
up s
Ġpossi bly
ĠU se
ĠW ind
Ġpr io
Ġconvers ation
n da
Ġteach ers
Ġdis cus
Ġa part
po ses
Ġstru cture
Ġsuf fer
d ra
Ġconcer ns
ild r
ildr e
Ġmis sing
ĠCoun cil
Ġst y
c ket
a se
ĠCh ar
Ġtra in
Ġope ned
âĢ ĺ
Ġstar ts
Ġtow ard
Ġac tions
d ro
ee n
p la
Ġm aster
ĠB rit
Ġpri mary
ĠF lo
b ing
J o
Ġadd r
2 4
ĠI S
co hol
min ation
Ġmove ment
âĢ¦ .
we ll
Ġreside nts
Ġpract ices
as y
Ġch ic
igh ting
Ġre li
Ġdeta il
stit ute
Ġpers pective
Ġde ser
ildre n
o morrow
Ġteache r
t omorrow
Ġcentr e
qu ence
Ġco verage
ĠL ike
Ġse conds
Ġsto rage
Ġd rea
Ġin si
Ġbreak fast
ib ility
pr of
Ġpay ing
Ġp ul
Ġident ify
Ġbe comes
ul ty
Ġ ult
Ġin v
Ġhappe ning
Ġdis a
Ġmaint a
ĠChe ck
Ġmost ly
Ġlaw s
Ġsp read
Ġclaim s
Ġe ight
f in
Ġra ise
Ġru le
Ġcommit ted
Ġgra ph
c les
Ġ tomorrow
Ġclo sed
Ġfil led
Ġweb sites
ic king
ĠAustral ia
ĠWh ite
l ife
Ġad ults
Ġkno wing
ga ge
Ġprep are
Ġdri ver
Ġdia gno
Ġsha pe
u k
Ġrea ders
Ġde e
Ġso urces
Ġproper ly
T H
Ġsho e
ĠK a
Ġqu arter
Ġfun ding
nge rs
Ġde scribed
Ġmanufact ure
if f
Ġacco mp
Ġe dit
ĠO nce
8 0
Ġno rth
Ġye sterday
Ġth eme
be rt
Ġdescri be
S ince
Ġdeb t
Ġfo cused
Ġtechnique s
Ma ny
Ġra p
u ne
Ġresponsi bility
Ġf as
ĠT witter
Ġro ck
Ġcolo rs
Ġdisco ver
A D
The n
Ġha pp
Ġte mp
ĠWed nesday
r est
Ġdocu ments
sp a
Ġsol id
Ġrema ins
scri ption
Ġnetwo r
Ġac cident
Ġf ashion
Ġcl imate
5 00
Ġn ar
Ġex change
sto n
Ġele ments
Ġ7 0
bo n
ster n
Ġla nds
f riend
Ġfor um
Ġpl aced
Ġfore ign
ur ies
mp loy
lle r
A P
ĠW ashington
Ġsepar ate
Ġmo uth
Ġneigh bor
r se
Ġsc ra
Ġatte mpt
Ġleg is
o rdin
Ġtest ing
ume rous
Ġdelic ious
ĠSt ar
ĠO ver
Ġv irt
ĠS ince
s il
iel ds
s la
Ġexce pt
Ġcontin ues
Ġpack age
wh ile
ve ring
ĠRep ublic
am ily
Ġclea ning
p tions
Ġsug ar
Ġexce ption
mpo rary
Ġsm aller
noo n
ĠCour t
Ġsui t
Ġde spite
Ġmode ls
Ġb rief
Ġinit ia
Ġalterna tive
Ġcor ner
Ġsm ooth
u ce
Ġfee s
G et
Ġde co
ter nal
Ġjour nal
Al so
Ġ200 9
Ġcomp o
Ġg old
ĠV a
Ġra ised
Ġfam iliar
Ġach ie
Ġ wood
Ġrecommen ded
Ġdo gs
Ġage ncy
Ġwork shop
Ġinde pendent
Ġno ne
Ġcu te
Ġcall ing
Ġten d
Ġg ol
ĠLo rd
Ġbo a
Ġinj ury
ĠT ur
Ġk illed
du ca
Ġmain tenance
ĠH u
Ġtra ve
u si
rep r
h as
Ġcr is
ie ncy
Ġda nce
fe rs
Ġdis tance
Ġmen u
Ġex hib
tter y
A Y
Ġdepe nding
Ġfol ks
Ġmarke ts
ĠR ed
Ġvalu able
Ġnega tive
Ġagree ment
Ġloa n
te ra
S h
Ġinit ial
Ġleader ship
Ġ sn
un ter
Ġcorpo rate
Ġope rations
Ġsympt oms
if ts
Ġcompr ehen
Ġman ner
Ġswi tch
Ġme al
U n
ĠH ope
Mo st
no n
mp tion
Ġde partment
Ġdoll ars
ĠM id
Ġhtt ps
Ġcircum sta
Ġdisco vered
Ġtell ing
rato r
r eg
ĠI r
Ġswi m
Ġrad io
Ġb ow
Ġsm ile
ĠE ach
ic ine
Ġar range
Ġconsis tent
M ay
Ġ200 8
n n
Ġre nt
Ġexpa n
us ted
Ġst ick
Ġenvironment al
Ġvisi ting
Ġrecor ds
Ġconcer ned
4 5
Ġprof i
P S
si tion
Ġde sk
ĠA nge
Ġreprese nt
pert ies
Ġmot o
Ġco p
Pe r
Ġany way
Ġevent ually
Ġref le
Ġca ught
Ġsee k
Ġconf idence
oe s
Ġsurpr ised
g ar
w is
Ġfa mous
Ġhol ding
Ġcent ral
Ġpla nts
Ġd ress
Ġli ved
Ġcra zy
teri a
spe ctive
Ġdire ctor
ĠE ducation
Ġ tin
Ġpar king
Ġconside ring
Ġemer gency
Ġfre ed
Ġin cor
bo x
Ġest ima
Ġbroth e
Ġm icro
F irst
ĠGro up
ĠDe velop
Ġn umerous
ĠBrit ish
Ġ *
i ga
Ġfun ny
Ġst ation
Ġope rating
Ġmis sed
Ġ od
ge nt
C lick
ma ns
ma ne
Ġfla t
Ġsh oo
Ġm ill
ssi ble
2 3
te ad
te ned
Ġatte mp
Ġsh ut
t les
ic ks
Ġapp are
Ġbrothe r
Ġguaran tee
ne ver
ĠC are
Ġcap acity
fe ring
Ġdeta iled
Ġsur ro
Ġannoun ce
Ġpart ners
ĠSc ience
Ġha te
Ġre min
Ġimporta nce
ust o
Ġreach ed
Ġinflue nce
Ġma g
Ġgene ration
ĠG ar
ba ma
Ġsh ip
ĠA maz
Ġf est
ĠSo cial
Ġa partment
Ġpromo te
ce a
al y
im in
ĠCo mp
Ġstrate gies
ĠManage ment
Ġad just
Ġth r
Ġmanage r
D a
Ġcour ses
Ġ sil
Ġchalle n
pe t
Ġe th
Ġbring s
Ġm ino
Ġro of
v ille
Ġafter noon
e ssing
w ra
ĠGover nment
i ting
Ġci ties
miss ions
Ġmar ried
Ġpract ical
ul ate
ĠFre nch
Ġde le
Ġcho ices
rta tion
Ġbig ger
ĠB el
Ġmult i
rea k
i able
al led
ne ls
Ġma p
ria n
Ġaspe cts
Ġ2 9
un ning
Ġson gs
Ġnot iced
vo ca
Ġ +
Ġwas h
ĠC lick
ĠOth e
Ġcompet itive
Ġshow ed
ĠOthe r
Ġinte ract
Ġexpe ri
T oday
ĠL ear
ab ilities
Ġupd ated
Ġhop ing
E ven
p he
Ġsur vey
Ġpur poses
Ġstop ped
Ġprese nted
Ġserious ly
is co
cle ar
Ġsta nding
ĠBo ard
Ġ3 1
Ġstru gg
tain ment
) :
Ġval id
Ġaf f
Ġsur face
Ġinte llige
Ġde velo
m its
Ġoffic ials
Ġslight ly
Ġre sident
co late
Ġapprox imately
Ġwho m
ĠB ur
Ġcoun ter
ĠIs ra
Ġno r
ar r
Ġupd ates
nge rous
Ġingred ients
Ġsig ns
g ues
ne e
Ġanswe rs
Ġut il
Ġfoo ds
Ġsu d
Ġmov ies
Ġdecade s
Ġconta ins
b ilities
Ġcomp lic
Ġchea p
s na
ĠSt ud
Ġcor e
Ġacco unts
Ġmoto r
e sses
ĠT oday
Ġk inds
le nt
Ġro ut
Ġli ter
Ġmatter s
Ġproces ses
Ġcommit ment
ĠSy ste
Ac cording
ĠN et
ine se
Ġcomb ination
Ġrepa ir
Ġprese nce
ĠS up
O ver
Ġconne cted
N ew
Ġarri ved
ire s
ru pt
Ġbo ys
ĠA sia
Ġincred ible
ĠP lan
Ġinsp iration
Ġna med
Ġli mit
u tho
Ġprodu ced
ĠAmerica ns
la nds
ĠP lay
Ġsurpr ise
Ġhar m
ĠAl though
ĠS T
Ġafford able
ĠB ig
U S
Ġyou th
ca n
Ġf u
ar io
v ie
gr eed
Ġinterest s
Ġusu al
Ġca b
Ġe duca
Ġrest o
Ġp leased
ro id
Ġp u
e sh
Ġp m
if ying
Ġcont ra
a ged
Ġhundred s
st ate
I P
Ġconsu mers
Ġart ists
Ġli ked
Ġspe aking
ĠCh urch
Ġma il
Ġso ul
Ġadvert ising
Ġacade mic
tt o
Ġcrea m
Ġal cohol
mo ny
Ġmar riage
Ġsee king
ur ation
p ts
Ġm ur
Ġup gra
Ġjo y
fo l
Ġrun s
ac king
Ġth us
Ġb right
Ġ wis
Ġan x
Ġbring ing
Ġser ver
Ġfac ility
row n
Ġsele cted
Ġpro po
Ġa g
Ġrestaur ants
Ġlea ves
cor d
Ġvio lence
Ġbro ken
Ġexa mples
ile r
Ġf aster
Ġatt o
Ġatto r
Ġexpert ise
ĠO bama
ri da
Ġpro perties
Ġtree s
ĠCo mpany
ĠG lo
Ġsome where
Ġart ist
ri ble
ress ion
3 5
Ġfem ale
Ġveh icles
ĠTe x
Ġn u
Ġsig ned
Ġstore s
Ġeducation al
h y
Ġsqu are
Ġprof ile
Ġh um
Ġsurge ry
Ġele ction
Ġsc ale
s ick
Ġsis ter
ol ar
Ġ sna
Ġgrea test
Ġfl ow
ĠP al
a el
Ġyour s
ĠR E
ĠThe ir
Ġd oors
Ġk ill
Ġad ult
Ġe di
y na
Ġwi t
ĠB r
I M
Ġtw ice
Ġcloth e
ĠGe neral
ĠS m
Ġdis ap
ran ch
th le
Ġe ss
ver si
ive d
Ġtop ics
Ġpa ir
Ġva cation
Ġfoot ball
Ġperson ally
t io
ache s
Ġho using
Ġdefe n
Ġbehav ior
Ġretur ned
Ġanim al
Ġconce rn
R ead
L Y
abo r
Ġwe aring
g ory
Ġconf lic
Ġ ?
Ġob tain
Ġg oods
Ġda ngerous
Ġdru gs
Ġ wra
Ġrespon d
E n
Ġemo tional
B C
Ġchee se
stit ution
Ġcircumsta nces
ĠDa vid
Ġluck y
Ġmeas ures
Ġarch ite
ma de
Ġsen ior
Ġ ven
Ġno tes
Ġal lowing
ĠChrist ian
ĠApp le
Ġadmin istration
Ġclothe s
ĠRese arch
Ġcharge s
t te
ĠPr of
Ġde te
ĠG reen
Ġmed ium
Ġca st
Ġ sick
ĠPro gram
Ġj u
Ġspecific ally
Ġa nt
Ġadva nced
Ġpriv acy
no logy
mit tee
Ġbehav io
repr ene
Ġtri al
L a
Ġappear ance
ĠJ ack
fe ction
Ġpro ceed
apo s
know n
Ġparticip ate
Ġsurro unding
Ġser ving
ma te
Ġregular ly
l led
ra stru
Ġclo ser
Ġ3 5
Ġve ge
Ġpleas ure
Ġab use
Ġsan d
z ing
Ġba ttle
Ġtur ns
Ġpub lish
Ġf le
Ġro b
7 0
Ġconsta ntly
ro ll
b our
Al though
gaz ine
Ġinten ded
ĠCl ub
a pp
unt ing
T e
Ġchem ical
Ġcal cul
ra id
Ġlead s
. âĢĻ
y m
ut ing
ĠGe o
Ġfl ight
Ġreason able
ĠS ea
Ġmas sive
Ġshould n
Ġer ror
ta t
Ġloca tions
Ġcorr e
u ge
Ġcomprehen sive
Ġtyp ically
Ġmin im
Ġwor st
Ġinsp ired
Ġappoint ment
Ġpick ed
Ġin s
e f
Ġfe llow
m ark
ĠSu per
Ġmax imum
Ġ sla
Ġcha t
Ġtechno logies
ĠWo rk
Ġro ll
Ġmo ments
Ġquo te
Ġsta ted
Ġstru ct
ro y
Ġlib rary
Ġprevious ly
Ġbel ief
Ġwri ter
Ġwi r
Ġmonth ly
Ġfreed om
Ġcri me
Ġexten sive
est yle
ĠCa p
Ġhur t
Ġre ntal
Ġde lay
Ġp ray
ĠTra ns
T ra
Ġf uel
ĠDa n
ĠColle ge
Ġg ent
2 1
Ġis su
d ate
niz ed
Ġperfect ly
Ġremo ved
Ġwon dering
ĠNew s
ĠO N
Ġcause s
Ġimpo ssible
ĠV is
ze n
L ast
we l
Ġspe ct
Ġgue st
for ms
ĠCh inese
Ġd ad
Ġcul tural
ĠPa ul
po rtation
Ġapp lied
ph y
ĠP ublic
i i
Ġuni versity
po inted
m ics
Ġexpr ess
p are
Ġtempera ture
de st
Ġwin ning
ro ad
Ġn ine
Ġmess ages
ĠE l
Ġtic kets
ake r
Ġde pr
ĠEng land
Ġplan ned
Ġparticip ants
Ġeffective ly
Ġa id
Ġepiso de
ir ty
Ġany more
w s
Ġinde ed
V e
Ġse ts
so rs
Ġcon ser
Ġa ges
Ġpost ing
graph y
G ood
ĠS ur
Ġbi ke
Ġne r
Ġrep ut
Ġemploy ment
Ġprov ider
d ar
Ġl ux
Ġsitu ations
ĠA M
ĠTe r
Ġvis ual
ĠWind ows
rastru cture
Ġenha nce
ar ian
Ġda tab
Ġclass ic
Ġlo ves
Ġinter nal
sh o
Ġsea t
ma in
t led
Ġno vel
EN T
ĠI ts
Ġlands ca
Ġfru i
Ġtrea ted
p le
s lo
ni ture
il ding
Ġinstru ctions
Ġfrui t
U T
Ġentire ly
Ġill ust
Ġfl u
one d
Ġfe ll
Ġv ie
Ġpla stic
Ġstud io
Ġaf fected
g ro
Ġinsta nce
k in
Ġk ick
Ġse ttle
Ġshoe s
c ker
ĠEar th
ul ated
ch ing
Ġcar ried
Ġshi pping
ĠE d
Ġfollow s
Ġfact s
Ġdeli vered
Ġfavour ite
ĠK eep
ue st
ie rs
Ġun its
Ġage ncies
Ġreso urce
Ġjud ge
ĠW here
F in
ĠAssoci ation
Ġpsy cho
Ġa greed
mi th
i ation
Ġconsu mer
Ġex ist
et ic
sp here
Ġne t
Ġexcl usive
Ġhas n
Ġgra b
Ġm ilk
st y
ĠDevelop ment
2 7
Ġrest ric
Ġfail ure
Ġfix ed
Ġv ir
Ġ sme
w n
Ġe ffic
Ġre venue
ĠS ha
Ġ spon
ĠMe x
Ġad o
Ġtell s
Ġfor ced
Ġsup porting
ĠPro du
Ġaf raid
2 6
o rie
ĠZ e
e ly
Ġgrow n
ĠPo rt
ig ate
Ġres ul
A nother
ma ny
Ġsc ri
Ġ orders
h old
me stic
l ow
Ġfr ust
Ġsuggest ions
Ġsui table
Ġmar k
Ġsess ions
Ġf ly
Ġfor mat
li t
Ġsal t
Ġsearch ing
Ġrecog nize
Ġfa iled
Ġg am
Ġreli able
Ġcoo king
Ġbuilding s
Ġrap id
Ġceleb rate
ĠTex as
ide s
e ver
Ġthera py
Ġ4 5
ill a
ĠÂ »
ĠFlo rida
2 8
Ġfin ance
Ġoc cup
9 0
Ġoutd oor
Be cause
Ġ ;
ning s
Ġcha ir
Ġkeep s
Ġchic ken
Ġp ump
ĠP M
in ue
ie st
H ey
G reat
W ho
Ġcri tic
Ġconte xt
sig ned
Ġaware ness
Ġprovide rs
Ġexpect ations
Ġb ri
id den
Ġbea t
ee k
Ġ200 7
e lated
ĠAmaz o
ĠWo rd
rge ous
Ġth ro
ĠAmazo n
Ġe dge
ĠR ea
ĠCom mittee
Ġdeal ing
G o
o h
Ġbut ter
Ġwe alth
ĠP R
tur ing
v in
Ġher self
ir y
Ġstr et
el lo
Ġapp s
Ġevery day
Ġinno vative
ĠCon gress
r elated
Ġspe ech
Ġproced ures
Ġpare nt
Ġu na
Ġfore ver
Ġinst alled
ting s
Ġth ea
Ġaccep ted
Ġwind ows
Ġtest s
l t
Ġte x
st ro
alle y
ar ation
Ġvege table
Ġne got
Ġth read
ĠO nly
Ġprote cted
ĠBa n
A pp
Ġscient ific
Ġreg istration
Ġcomp ar
Ġside s
Ġgo nna
ta tions
Ġb od
W here
ĠP ay
g gle
Ġcho colate
Ġlis tening
v ations
Ġv ital
Ġsen si
Ġin form
Ġcris is
Ġenjoy ing
ĠV al
i j
Ġmeet ings
ĠLa n
Ġat mo
Ġtur ning
Ġ5 00
u ters
Ġmea t
Ġfair ly
Ġde als
Ġm ass
ĠDe mocra
Ġfor got
um n
Ġrelig ious
ĠPo st
Ġconfir m
side s
ib ly
Ġun able
ĠC all
ĠIn sta
Ġreco very
ĠS tra
ĠP C
Ġcolle ct
Ġexpla ined
Ġlif estyle
Ġtele vision
d is
ĠW hether
Ġper mit
Ġappro ved
Ġproced ure
ĠE U
Ġce r
Ġful f
id ance
Ġg ear
Ġfa ctor
cea n
7 5
ori al
Ġsho r
6 5
Ġtre n
ĠF ound
s sor
ĠS um
Ġconce nt
Ġd ow
pen d
Ġdra wing
h ab
Ġis land
Ġcolo ur
Ġgath e
Ġboa t
Ġcho sen
Ġdescri ption
Ġtas ks
Ġele ment
Ġcri minal
Ġad venture
o night
Ġm ale
t onight
Ġb unch
Ġpresent ation
Ġro ugh
Ġ slo
M ake
ges ted
Ġf ields
Ġimpro ved
P a
Ġsu spe
Ġcare fully
Ġqu ant
Ġreprese nta
c ular
g ment
. '
Ġpurcha sed
in y
Ġran dom
Ġfeel ings
Ġage nt
ol ic
Ġca t
Ġdis h
S ee
R o
Ġp un
ude nts
Ġcitize ns
Ġ tonight
Ġhe ll
Ġconven ient
Ġa ut
Ġper mane
Ġrep l
Ġrout ine
op s
one y
C he
ĠD id
vo r
Ġmet al
Ġcont ain
qu ality
ta ining
ĠCo lo
Ġdis cip
Ġaccur ate
Ġma th
Ġchallen ging
V ER
co nt
om b
Ġfar m
T ake
W a
ĠIn formation
Ġlo sing
S S
2 9
k i
Ġinf rastructure
Ġsk y
Ġsca n
Ġm ile
mp ion
ĠDo e
Ġv ary
Ġde posi
ordin ary
Ġd ial
Ġris ks
ĠM ac
ĠTh ose
ĠB ook
S te
ĠL ake
n ia
ĠAb out
Ġinstall ation
Ġchar ged
e ssor
Ġrela tively
Ġre cru
Ġsk ill
Ġfun ctions
Ġmill ions
t ight
Ġasse ts
Ġpro ve
Ġcate gory
Ġen ds
Ġa po
ri zo
Ġinvest igation
Ġb le
Ġdeterm ined
Ġno ted
Ġad voca
Ġpe n
ne se
ĠS ub
Ġta ught
Ġobvious ly
Ġauto matically
Ġsol ve
Ġsin g
ĠB ill
Ġorga n
Ġex po
Ġdri vers
te ls
Ġp ha
Ġwe ak
Ġligh ts
ra ce
lia nce
f ield
ĠG ive
ĠBa nk
Ġcl im
C H
Ġinvol ve
Ġaud io
ri ve
Ġtee th
i tions
Ġtr ick
Ġspec ies
ĠD ist
gh ts
v as
ĠM ary
Ġimm ig
Ġinfor med
c ise
Ġb ru
Ġatt itude
Ġst uck
tch ing
ns ation
lo ck
th eless
Ġmemo ries
igh ted
Ġtho rough
ac tions
Ġprofi t
tur ally
Ġpay ments
O D
Ġlice nse
Ġcol lea
Ġrece iving
E M
Ġb les
Ġ201 9
Ġrem ind
Ġdesig ns
Ġyou nger
Ġwal ked
Ġca ke
Ġcrow d
Ġup coming
Ġfre quently
Ġco ast
Ġreg ulations
ĠSe curity
Ġfur niture
ĠB ri
Ġa thle
Ġles sons
ni vers
Ġspo ke
Ġbra nds
Ġclo ud
un ted
Ġent reprene
ĠS al
ĠSta n
t ired
Ġfab ric
Ġup load
Ġproces sing
ĠU N
m ble
Ġreal ized
ific ations
oo se
ĠMar ket
Co nt
ur o
o ries
ur ance
Ġregister ed
Ġappe ared
ĠðŁ ĺ
Ġprom ise
sse ss
ille r
Ġremo te
Ġob l
Ġwere n
Ġindust rial
ic ip
Ġun like
mer ce
ĠTime s
Ġincor po
Ġne ck
Ġcomb ined
Ġboo king
Ġtal ent
Ġd ining
Ġba ttery
Ġar m
Ġel imin
e al
Ġbo und
Ġe sca
Ġpla net
Ġvolun tee
E L
Ġinstit utions
Ġr ing
Ġprese r
s ke
Ġenter tainment
pr ise
Ġimprove ment
Ġperfor med
Ġho no
i tled
r esh
Ġpo ll
Ġhe ro
H ello
Ġsa t
Ġsup ported
Ġcommit tee
Ġe nth
ĠPro ject
ĠU nder
Ġf if
3 3
Ġ tired
O P
Ġar ms
Ġsho ul
posi tion
Ġfor ces
ĠWh ich
tee n
Ġcrea tion
Ġintrodu ced
Ġinvest ors
un ction
ĠF amily
ĠRe al
Ġelect ronic
Ġconse quence
Ġd yna
nti ally
Ġ ille
Ġgo rgeous
Ġcon stru
ke ting
I L
Ġdist in
ĠC ur
Ġpatter n
Ġel ig
il st
son al
ĠK now
Ġengine ering
B u
Ġflo wers
ĠWo uld
Ġpro posed
Ġcandid ates
Ġsetting s
Ġear n
ĠV o
Ġper ce
ĠBe n
e ory
u di
Ġplay s
ĠJa pan
Ġstra nge
Ġsize s
ĠI I
Ġh ire
Ġd ates
Ġr ub
Ġtra ding
wh el
Ġcut ting
ĠT op
ĠIsra el
Ġjust ice
Ġret ire
ilo so
Ġreta il
Ġlaunch ed
i tation
S pe
g ged
Ġvol ume
Ġfac ing
de nly
Ġconfide nt
Ġpa nel
ĠUn ion
ĠWo men
Ġjo ined
Ġhigh l
ish ing
Ġtin y
Ġbegin s
ĠJ our
Ġg ifts
rin k
Ġdrin king
prof i
ru p
Ġe ra
ĠCommun ity
ĠKo rea
B a
Ġholiday s
Ġche cking
Ġincred ibly
ĠT wo
ĠC ra
Ġadmin istra
Ġf ighting
Ġf ro
Ġtax e
Ġâ Ĩ
Ġtaxe s
Ġequ al
Ġnorm ally
Ġoffice r
ze r
Ġstay ing
Ġbas ically
e ts
Ġgu idance
Ġatmo sphere
Ġcate go
Ġredu ced
Ġgr ew
Ġemp has
Ġsuf fering
Ġan g
Ġhor se
Ġl ad
Ġlike s
Ġpa n
Ġprogram me
Ġth eory
ĠVe ry
Ġtrans port
Ġtic ket
ĠM al
Ġh all
Ġbo r
Ġaccomp lish
le rs
Ġautho rity
Ġbee r
ĠSo c
t un
s ac
ĠB ay
ĠS un
nu ine
Ġen force
Ġb read
Ġpossi bility
âĢĻ .
Ġv ac
n going
o ngoing
Ġhouse s
ree ts
Ġ !
Ġqu e
Ġdrea ms
Ġpe e
Ġho sting
Ġsc ree
ĠIns tead
men d
profi t
ic ted
ri fic
I F
ia nce
Ġ ske
co unt
Ġoffice rs
D uring
as si
Ġhealth care
Ġcompone nts
Ġ ongoing
ĠW i
ĠR ich
ĠFra nce
Ġgra de
Ġissu ed
Ġro ute
be s
ĠL O
mon d
Pe ople
Ġassess ment
Ġv ast
Ġsaving s
!! !!
Ġsh ar
Ġsa uce
ĠCa th
Ġdo mestic
i ro
Ġope rate
ĠCom mission
Ġme als
Ġslow ly
Ġe ne
ĠL u
Ġident ity
Ġcare ful
ĠA C
Ġtru ck
Ġdump ster
Ġchoo sing
Ġstar s
i Ph
Ġpro of
Ġconf ig
ĠAd d
Ġimpro ving
Ġdatab ase
Ġexe cutive
ĠMich ael
up id
Ġfor th
Ġva n
Ġvill age
ĠG ree
c art
Ġwatch ed
ĠJa mes
o le
we red
ĠCent ral
Ġse nding
Ġcr ew
ĠSp ring
s port
Ġ19 6
ut s
Ġbrow ser
cra ft
ter n
ĠPo wer
Ġa gg
Ġmed icine
Ġinj uries
in cl
nivers ary
Ġresol ution
ĠD ra
Ġfit ness
ca ted
ĠWa ter
ur a
No te
Ġdest roy
ĠC lo
ĠUS A
ĠV ol
ita min
Ġresearch ers
l ook
Ġmor t
Ġsu spect
Ġexpen ses
Ġdegree s
Ġschedu led
sle tter
Ġassu me
Ġsh oot
u su
Ġbot tle
Ġpri ze
Ġok ay
ĠF ood
ĠCh ildren
la m
Ġsa ved
ĠPar ty
Ġcap able
U R
Ġ tight
Ġg rate
Ġper sons
Ġautho rities
Ġdeb ate
ma nds
Ġa w
Ġma gic
Ġgot ten
ĠM icro
Ġinno vation
Ġtra ined
al lo
Ġu ns
Ġcha in
Ġdepe nds
Ġdefe nse
Be fore
Ġlo ving
Ġsug gested
Ĥ ¬
Ġover whel
um ber
Ġpur su
Ġenth usi
ĠO pen
Ġrema ining
Ġpo ssess
Ġcook ies
Ġp ure
Ġ2 000
ĠâĨ Ĵ
Ġas ide
Ġde part
Y eah
fi t
Ġsignifica ntly
ous ly
out s
ĠL ast
fic ial
Ġatta cks
Ġess ay
Ġde mo
na ted
Ġfil ms
ĠR ight
Ġimmedi ate
Ġshe l
Ġflex ible
Ġ iPh
O k
Ġco vers
Ġimpr essive
Ġmur der
Ġtal ked
Ġb are
Ġtyp ical
Ġas sign
Ġacces sible
Ġdisco unt
de qu
Ġcontrib ute
Ġlice n
Ġ200 6
Ġdef ined
Ġre cording
Ġnew spa
Ġac know
Ġeffic iency
Ġmanufact uring
v ate
Ġge nuine
Ġaspe ct
n dar
Ġwri ters
ĠEn gine
ĠA ss
Ġinte ra
ine nt
W hether
ĠF ind
Pr e
Ġprem ium
Ġsho wer
Ġdi verse
Ġsustain able
Ġba nks
Ġshoo ting
Ġp al
i tors
Ġair port
ĠH all
iva ted
al k
j a
p per
Ġpaint ing
te ers
Ġal ive
ĠInsta gram
ce r
Ġrecommend ations
Ġdist rict
ĠGer many
Ġv ul
t ox
ĠH ist
ica go
Ġce n
4 4
Ġig no
Ġl ie
Ġident ified
ĠM em
Ġ cart
Ġposi tions
me ter
D id
um ble
Ġbod ies
ious ly
ĠJ ew
ĠIn stitute
de nt
ns ions
Ġwant ing
Ġli qu
Ġdo ctors
Ġsp in
Ġsol ar
Ġha b
Ġqual ified
Ġorder ed
Ġarri ve
Ġworld wide
ĠT y
ĠF l
ĠL ook
Ġde ter
al se
Ġmot iv
ro rs
Ġsuccess fully
ĠSome times
Ġclose ly
Ġpul led
Ġpro ven
I R
pr ess
Ġ sport
Ġam b
Ġsi ght
Ġ king
n ario
et ing
Ġge o
Ġmember ship
Ġclass room
Ġcy cle
Ġso r
Ġhan g
Ġevery where
Ġop po
ĠBea ch
ĠGeo rge
ĠFra nc
ĠS ing
Ġ =
ĠPh oto
Ġhu mans
Ġstru ggle
Ġrea der
? !
Ġbrea st
Ġsuc ceed
Ġdiscus sed
Ġfund a
Ġea se
Ġliter ally
Ġreput ation
ĠS pa
c ient
ĠIs land
F i
Ġsub se
Ġ id
Ġshop s
ĠF OR
Ġce lls
ce pt
Ġwhe never
Ġcandid ate
Ġmista ke
Ġneighbor hood
ur th
ĠB ack
ĠRo ad
Ġspirit ual
In ter
Ġbr ill
Ġfig ures
e mes
Ġbelie ved
ĠP lus
Ġnecess arily
ĠAfrica n
9 5
Ġth reat
sta n
Ġinsi ght
Ġgrate ful
scri be
Ġevery body
Ġtre nds
Ġsa mple
ĠL ib
Ġanx iety
ĠM ark
wa ter
Ġ3 00
ĠH ill
ĠO b
Ġenter ed
co ns
ct ic
Ġout standing
Ġargu ment
Ġcondu ct
alle ry
Ġhe si
Ġclo thing
Ġenco unter
Ġcl ar
Ġwall s
Ġpas se
rie r
Ġre porting
are s
Ġappe al
ĠEx e
t ip
Ġsta nds
b ling
Wo r
ĠLo s
ĠDire ctor
Ġin put
Ġreci pes
Ġestima ted
urth e
Ġvisi ted
t ut
Ġde cent
urthe r
Ġ sac
ĠR ob
Ġpoli tics
Ġbro ke
Ġtren d
ER E
Ġres is
Ġcom mand
Ġreve aled
ie n
A b
Ġregard less
ac ted
.. ...
Ġdest ination
Ġshi t
Ġfor est
Ġpas sing
ĠAc cording
ĠB et
Ġexten ded
Ġge nder
na me
E ach
a ins
ĠR iver
Ġinvi ted
Ġex ternal
ĠCan ad
Ġpoli tic
x y
Ġdro pped
al o
ĠS imp
Ġe co
Ġhisto ric
Ġar ts
Ġsever e
uth ent
ĠDa ta
Ġincreasing ly
Ġin cident
Ġ >
ĠS ant
i tar
st ood
I V
Ġcal e
Ġhisto rical
ir l
Ġow ned
Ġcha nces
Ġtrans portation
is a
ĠSpe cial
ĠG l
Ġcha pter
Ġcru cial
Ġnear by
L ike
tr ic
ĠO rga
et ime
Ġhar der
L ove
Ġattor ney
ĠWill ia
cide nts
ĠHu man
Ġinstit ution
M ar
Ġco ope
Ġco u
Ġage nts
ich e
J a
i con
Ġsce nario
Ġd am
Ġexpan d
Ġdef a
Ġcommun icate
Ġst reets
ĠFound ation
ĠSe cret
ra b
ĠAd min
Ġm ut
Ġfound ation
ĠCont act
t ill
Ġr ac
ĠRo ck
Ġemp ty
Ġso le
ĠN E
mp s
G e
Ġrel ief
l ist
ĠDe sign
Ġexpo sure
Ġdis clo
Ġrecor ded
Ġru sh
ĠM iss
Ġprincip les
Ġconsta nt
nal d
ĠiPh one
ĠCont inue
Ġre in
Ġ ze
Ġswim ming
Ġcra f
abe tes
Ġemp lo
ĠL in
Ġsome what
RE E
pa nese
ĠGer man
Ġboo st
ĠG rand
rm al
fol io
ntic ip
ĠBl ue
Ġblog s
o ught
Ġimplement ation
ĠPro te
Ġles son
ĠIn de
Ġemail s
O r
ĠM as
e ncy
Ġin vent
Ġst one
ĠTea m
Ġsurpr ising
ĠHa n
Ġlo ans
Ġco ck
ĠA P
Ġmana ging
Ġshare s
Ġsy mb
ĠSa fe
ni ed
Ġnut ri
Ġprio rity
ĠW as
M S
la nce
ĠC D
Ġcomplic ated
ĠCent r
c m
Ġstrate gic
Ġadv ise
Ġlegis lation
ĠAnge les
Ġste el
et ro
ar i
Ġguide lines
Che ck
cl ing
ni tion
te nsion
fect ive
por ters
Ġhope fully
Ġlo c
be ing
Ġb in
Ġdrin ks
Ġlink ed
Ġcer e
Ġl ady
ĠCh icago
Ġle gs
Ġbrow n
Ġspa ces
Ġn ights
ta ined
Ġcamp us
ĠD uring
Ġin se
Ġorga nic
Ġwe ird
Ġnetwor ks
Ġphotograph y
ĠMed ia
Ġsupp lies
Ġvictim s
ra tors
Ġengage ment
Ġconside ration
ĠA T
Ġgene rate
Ġattra ctive
ca se
ĠMin ister
ĠCar ol
han d
Ġdow nt
Ġcho se
ĠBe fore
ĠW H
Ġst upid
Ġref lect
Ġinter n
Ġla pt
ĠMus ic
Ġph iloso
3 9
Ġdistrib ution
Ġconflic t
ĠGlo bal
Ġima gin
Ġpla ne
Ġ200 5
Ġpo unds
Ġe vol
g gs
Ġ tut
ĠLo u
Ġca ble
Ġm useum
Ġletter s
Ġamo unts
Ġst unning
ĠV ir
Ġexp lan
y ers
Ġp ed
ĠHo tel
Ġwh eel
ĠW ay
Ġho nor
je cted
ĠSyste m
ig ns
Ġsud denly
ĠS am
Ġma gazine
Ġequ ipped
ĠCentr e
R A
8 8
Ġrep ly
Ġorganiz ed
Ġre new
Ġjo int
Ġp in
ĠNe ver
Ġfour th
N a
ĠT om
as p
Ġvul ne
Ġh idden
ĠO nline
friend ly
co l
ni al
ĠDoe s
ĠSho uld
Ġ tip
Ġsu fficient
Ġtri g
Ġhad n
Ġcom mo
h our
Ġregion al
mar ks
ĠPe n
Ġclin ical
hol ders
Ġst ream
st one
M r
ĠĠĠĠ ĠĠĠĠ
Ġbe ar
g un
Ġpatter ns
U se
Ġdifference s
Ġl abor
5 5
ĠI D
ile rs
Ġin spe
Ġbow l
pe rie
Ġinvest iga
io rs
Ġna v
r eal
Ġweek ly
ĠPol icy
ĠSh ow
Ġac cord
ed ing
Ġcheck ed
Ġpor tion
Ġta ck
ine rs
Ġsh ift
âĢ ĭ
Ġ till
le ts
Ġa wa
r r
Ġm al
ĠHa ppy
Ġ tab
g iving
Ġwin ner
ad s
Ġmonito r
W ow
mo th
t ie
Ġcondu cted
ĠD own
Ġoffe n
Ġille gal
ĠRe so
ĠB ir
g ging
ĠP i
Ġmach ines
ad o
Ġgol f
T ube
Ġappare ntly
ĠIn c
ĠF ire
Ġwor ried
Ġa nticip
Ġrequest s
Ġpr ison
Ġnu clear
r ency
ĠB E
Ġstay ed
ĠCl ass
r um
Ġachie ved
ĠE aster
Ġlux ury
p ha
Ġresident ial
Ġmino r
ĠNo r
Ġdel ive
ĠMo unt
o mat
Ġsatisf ied
ĠT our
ĠF ederal
Ġpa pers
Ġdepr ession
ĠMid dle
Ġill ness
Ġphys ic
Ġr iver
Ġorigin ally
Ġen ding
Ġmain ly
Ġcommun ications
g ive
Ġhea ds
un ge
Ġm ig
ĠInd ian
T S
3 4
m ies
Ġg ym
Ġmy ster
ina ncial
ĠS et
Ġult imately
Ġph ra
Ġtravel ing
g as
Ġorganis ation
Ġsho ts
p age
Ġretur ns
ĠM art
Ġin qu
Ġconsul tation
Ġthin ks
3 6
Ġchan nel
Ġrecog nized
Ġpa ce
l lo
t one
Ġmount ain
Ġba gs
cu sing
ĠLon g
Ġ )
ĠT ry
ĠK i
tha n
t omat
ĠFo rt
ific ate
Ġmanage rs
Ġper mission
ma tive
U N
P A
p ay
ĠNe ed
Ġch ief
nge st
ĠJour nal
Ġtreat ments
Ġindust ries
Ġimpr essed
do r
de l
ee r
ĠE cono
c uses
Ġde ar
ĠPe ter
ĠTr e
Ġup per
Ġmix ed
gra t
Ġad ap
te ch
Ġ wise
Ġth eo
ve ra
Ġwa ke
ĠC le
Ġme cha
Ġbelie ves
Ġfall ing
Ġde mocra
Ġelig ible
ĠLea gue
Ġre action
Ġpermane nt
Ġcontinu ing
ĠS pan
Ġrelig ion
Ġlaw yer
Ġhol ds
Ġdep th
Ġe dition
C E
Ġst ood
Ġfac ili
Ġ tim
c use
ĠDist rict
ĠB oth
wor ds
Ġinte g
Ġcollea gues
ĠB ible
Ġin tention
g i
Ġenga ged
Ġpro spect
Ġexperi ment
ĠMex ico
Ġincrea ses
ĠG ol
Ġtee nage
ab y
Ġobject s
Ġanswe red
Ġ tomat
Ġtwe nty
Ġas sur
e ls
ment ary
Ġfas cin
Ġpotent ially
Ġf alse
Ġsta ke
ub a
Ġpass word
apo ns
Ġf iled
Ġdisa ppe
m is
Ġin ches
L ear
a ts
la t
Ġens uring
Ġd u
Ġde crea
Ġpre cise
Ġsubmit ted
ĠTh ings
ĠWe stern
Ġd uty
Ġsch eme
Ġdo main
Ġfish ing
ĠO ld
C C
h i
ri zed
Ġperform ing
Ġpleas ant
p her
Ġdis p
ĠA S
Ġcatego ries
Ġho tels
lle ct
ĠSoc iety
ĠB al
Ġphone s
ĠA cade
Ġh ung
Ġm ood
Ġcolle cted
ur n
Ġlet ting
ear ch
ĠJa panese
in ations
Ġth ick
wo rth
Ġvolun teers
Ġgar de
Ġtran sition
Ġintellige nce
Ġconfir med
Ġ icon
Ġr i
Ġhouse hold
Ġal e
ake rs
Ġde pend
Ġpe nal
Ġautho rs
med y
Ġgreat ly
Ġmonito ring
Ġbas ket
Ġdevelo pers
Ġre spective
Ġstrength e
Ġcarry ing
f all
Ġreplace ment
ma king
Ġca using
Ġgu ard
Ġvegetable s
ĠSt ill
s wa
Ġscient ists
il ly
Ġlo go
n ion
Ġpartner ship
ĠS ol
ĠPol ice
Ġopin ions
May be
Ġwe apons
Ġfir ms
cri pt
Ġrefer red
Ġretire ment
Ġgent le
Ġde ntal
pe cted
Ġencour aged
Ġno ise
Ġbon us
Ġdefin ition
Ġcap ture
Ġconv in
Ġ3 2
ale r
3 7
Ġte sted
vo us
int o
Ġnew sletter
ĠG r
Ġcl icking
H is
Ġbox e
Ġsome body
Ġtal ks
O th
a ir
Ġbrill iant
Ġwe t
Ġexpla ins
3 2
Ġa uthent
Ġhea ding
3 8
Ġter ror
Ġsto rm
Ġport folio
Ġpha se
Ġbeh alf
Ġmista kes
Ġrem ark
ig ital
ĠSco tt
4 8
Ġpo t
Ġlab el
ĀĀĀĀĀĀĀĀĀĀĀĀĀĀĀĀĀĀĀĀĀĀĀĀĀĀĀĀĀĀĀĀĀĀĀĀĀĀĀĀĀĀĀĀĀĀĀĀĀĀĀĀĀĀĀĀĀĀĀĀĀĀĀĀ ĀĀĀĀĀĀĀĀĀĀĀĀĀĀĀĀĀĀĀĀĀĀĀĀĀĀĀĀĀĀĀĀĀĀĀĀĀĀĀĀĀĀĀĀĀĀĀĀĀĀĀĀĀĀĀĀĀĀĀĀĀĀĀĀ
ĠT ri
Ġconsequence s
ra q
Ġfa ces
Ġcr ash
Ġf is
Ġye llow
Ġhope s
Ġlandsca pe
il ty
ĠCo me
Ġsome how
Ġdisea ses
% .
ra in
Ġperson ality
ĠA lex
o we
... ]
Ġmus ical
Ġad s
m l
Ġsuggest s
ĠA rm
Ġplat forms
f ront
Ġli tera
Ġra nk
ĠH im
a way
ĠD O
Ġev il
ea st
Ġpregna nt
Ġune x
ul ing
ĠTech nology
ra nts
Ġdiv o
Ġhard ware
Ġad ds
B A
Ġatta ched
Ġex tent
Ġre su
Ġcorrect ly
Ġlif etime
Ġp ill
ĠT own
ĠM aster
P R
Ġgar age
Ve ry
Ġdivo r
Ġoff ices
Ġk nee
ĠYou Tube
Ġvirt ual
ĠB log
Ġde vo
D F
ĠLi ttle
Ġpri de
Ġcur ious
Ġfea tured
Ġcomp are
ĠHe lp
ĠE ve
Ġact ing
Ġdefa ult
ru ption
Ġre ly
B S
âĢ¦ âĢ¦
ĠV alley
Ġ7 5
Ġb ills
Ġcal m
ĠB as
Ġreg ula
Ġtele phone
y l
I A
Ġphoto gra
Ġappreci ated
ĠPar is
Ġpla te
Ġcar bon
Ġ <
Ġjo ining
lle rs
Ġgover n
Ġcale ndar
Ġappro val
t ons
20 18
Ġat tri
ĠRussia n
ĠMe r
ĠDe n
tch ed
no ny
Ġaccommod ation
i ron
Ġoppo site
ala n
Ġter rible
Ġfab ulous
Ġcons cious
Ġvers ions
Ġ4 8
Ġind ica
ĠSpan ish
t ts
Ġout come
U p
Ġse cur
Ġunder stood
ĠF est
Ġb ars
Ġligh ting
le ep
Ġsch olar
ig ations
ĠEn ter
Ġpara graph
b l
Ġwh ilst
g l
Ġmort gage
ori a
Ġhe aling
ch asing
Ġl ies
S ho
Ġunder ta
Ġan niversary
ĠUn fortunately
Ġcomp uters
ĠR u
Ġacces so
incl uding
S A
Ġsen tence
ĠA gain
ĠC ard
Ġdo min
Ġwide ly
Ġinter ior
ĠKe n
Ġenforce ment
Ġmo tion
ĠIn vest
ir ts
L ooking
Ġle ts
4 7
a ks
ow der
Ġag ricul
Ġconsu mption
nor e
ĠCon ference
ĠM ad
ES T
graph ic
Ġsensi tive
Ġwe a
Ġpropo sal
Ġstate ments
Ġinvol ves
le vel
ĠI raq
ric s
ni ties
Ġun usu
de a
ba t
Ġform al
Ġle n
Ġf lying
Ġpur chasing
Ġconcer ning
Ġelectric ity
la w
ĠC EO
dition al
o ys
Ġlo ud
Ġcount y
Ġsatisf action
Ġprote in
ĠN Y
Ġsure ly
Ġg ri
Ġpregna ncy
c ine
fa ir
Ġcri teria
ar ma
Ġre cy
ne ys
âĢĻ ,
Ġstro nger
Ġrepl aced
Ġpercent age
Ġbrea king
ĠO K
C A
ĠRe view
Ġbuy ers
Ġfl ash
ĠE m
Ġbo rder
ĠGu ide
pt o
Ġin tent
Ġadvert ise
Ġki t
T wo
Ġmus cle
D A
Ġ3 6
Ġredu cing
ĠCo de
Ġfin ds
Ġcas ino
ĠMar keting
O K
Ġaccord ance
o ven
as ure
Ġstrugg ling
e land
po t
Ġli mits
ĠC y
' .
o gue
ĠIt al
Ġsymb ol
Ġsty les
ĠLear n
Ġ swa
cl ass
Ġl ists
ĠPer haps
ĠA m
Ġju ice
Ġk n
4 9
Ġcollabo ration
Ġdeser ve
Ġboxe s
Ġemplo yer
ĠS i
Ġpo tat
Ġpro se
Ġar r
C ha
ĠAnd roid
Ġst im
ĠInd ust
ĠE lect
Ġra il
mar ily
Ġde nt
Ġref resh
Ġur ban
Fin ally
Ġy ard
Ġwar ning
Ġcon ver
Ġne ither
Ġinv ite
- )
ĠW eek
Ġact s
ĠS O
Ġd ip
Ġre call
Ġm ir
Ġvoluntee r
Ġe ggs
Ġatten ded
Ġgradu ate
ĠA LL
ut iful
Ġtri ps
W ill
ar o
Ġthousa n
Ġpre ference
Ġthousan d
Ġna turally
o ile
Ġbir ds
Ġ200 4
Ġre no
Ġdyna mic
t oile
ual ity
mb ly
Ġla id
ĠIn te
Ġst ring
f rom
Ġb ac
Ġmo ves
Ġfest ival
p one
Do e
Ġgo d
Ġdis tra
Ġge n
Ne xt
Ġ oven
Ġcon vention
Re g
less ly
gh a
Ġcra ft
ĠR est
ĠB ud
ge ne
ma ch
Ġapplic able
Ġze ro
Ġab se
ĠVir gin
Ġdoll ar
cal led
ĠD iv
t all
pende nce
Ġdri ven
Ġro o
Ġpro t
Ġho le
Ġrepe ated
Ġod d
__ __
Ġpor tra
S p
Ġavail ability
Ġpro gr
A merica
Ġdesig ner
L e
3 1
co mp
Ġout put
Ġorganis ations
st al
h tt
Ġmainta ining
Ha ving
Ġimprove ments
P ress
v ia
ĠCh ris
ĠO k
Ġrespon ses
ass ion
ĠS mith
cre te
I LL
ĠY et
Ġwe igh
Ġgra nt
Ġha t
b ble
ĠC usto
Ġoccur red
ĠJ im
um s
Ġv itamin
Ġcomp liance
Ġre sc
Ġwith dra
Ġshe et
Ġhea v
Th ose
one r
Ġinj ured
J e
ĠR el
s ion
Ġg ay
Ġprep aring
Ġsup pose
Ġf uck
sh ire
Ġan cient
Ġser ves
Ġcoun cil
Ġchild hood
Ġear ned
ĠManage r
Ġsup ports
ĠM useum
ĠHa ving
rie nds
Ġ toile
Ġlea gue
dequ ate
Ġy eah
b by
Ġexpr ession
Ġ ..
el f
ad ing
Ġprot o
ĠMicro soft
ĠEvery one
rea ming
Ġro les
ĠI mp
ĠT est
ĠO R
ĠCanad ian
na nt
o wer
G E
Ġdi abetes
Ġprep aration
Ġstrong ly
Ġas sa
Ġdesi red
Ġcrea tes
Ġprogram ming
Ġobject ive
Ġesca pe
Ġpassion ate
Ġ tone
ĠAustral ian
ma ntic
Ġdo nt
ĠG old
Ġst rict
Ġput s
ĠF all
i pping
Ġbene ficial
Ġz one
rse y
Ġgu ilty
Ġhapp iness
c ution
Oth e
r ich
Ġwe l
Othe r
Ġrequire ment
ĠSte p
st ar
Ġco vering
Ġsur round
Ġd ust
am b
Ġno body
ac ious
Ġpo inted
Ġra ising
Ġsleep ing
Ġre ward
ĠF REE
Ġli ber
ĠNe xt
sto r
Ġfin ger
ĠIr eland
ig o
Ġsmo ke
Ġsubject s
Ġexis tence
ĠC rea
iso r
lic ations
Ġse tt
o cean
Ġstud ying
Ġhan ging
Ġd ar
Ġblog ging
Ġult imate
ĠEn joy
ĠStan d
Ġtrans pare
ĠL ive
Ġr ising
wh o
bo rn
Ġbe lon
Ġad j
Ġsurv ive
Ġl y
ĠMed ical
Ġre ar
Ġtale nted
Ġr ice
Ġliqu id
Ġ15 0
4 6
Ġapply ing
AT ION
Ġta g
Ġemo tions
Ġdeep ly
Ġdep loy
ĠTh ough
Ġp he
na ment
Ġcompe nsation
Ġemploy ers
ra bly
ga nt
o rt
Ġconne ctions
Â ®
S u
ĠS wi
Ġintrodu ce
C T
Ġd ime
Ġparticip ation
act ive
ĠSant a
ĠR oom
Some times
lic ation
mploy ment
ize s
lo wers
ĠVa n
Ġlay e
se x
Ġpe pper
Ġorga nize
Ġclo sing
rent ly
. [
Ġcreat ivity
Ġprin ted
ĠE nergy
Ġcomp li
ĠF ar
7 7
Ġfac ed
mple te
ĠD el
Ġad vent
ĠFra nk
So rry
Ġsto red
Ġr iding
Ġconce pts
Ġatten ding
st ream
mo nth
Ġhead ed
Ġmin i
stan d
h t
Ġupgra de
va n
Ġsil ver
Ġsce nes
Ġ venue
Ġreco gn
Ġro se
ri ne
Ġcompar ison
iz za
Ġenga ging
Ġresul ting
Ġ ocean
Ġintrodu ction
Ġinter face
o g
Ġra w
Ġmin ds
Ġlapt op
Ġro w
Ġbab ies
ye s
st ra
V D
ĠS k
Ġna tive
Ġredu ction
Ġspecial ist
Ġv ib
Ġroad s
Ġout comes
ĠJ ud
Ġinter pre
Ġprodu cing
ĠAt la
Ġwork place
ĠI ran
ĠGa me
ĠS qu
ma kers
ta ils
? )
Ġsuffer ed
Ġchan nels
Ġ iron
h ea
Ġdeposi t
ĠCa mp
ĠThere fore
s ters
Ġb ird
Ġcla imed
ic ulous
Ġex ha
Ġgu itar
Ġlo yal
Ġlarge ly
Ġtra il
Ġimportant ly
sp i
ĠBe r
ĠC H
Ġfo cusing
Ġb id
Ġshar p
ĠI ma
Ġreach ing
Ġexplo ring
Ġlo l
Ġk illing
i tles
ĠCh o
Ġflo ur
Ġke e
Ġun com
Ġhand ling
ly mp
ĠN ight
we ight
Ġloo se
Ġreprese nts
ĠBe ing
O RE
Ġpack ed
ĠB ush
ĠItal ian
i P
Ġsp lit
as ted
Ġin ner
Ġta ilo
Ġimp le
Ġtrans form
la tes
ĠEvery thing
tho n
ĠFranc isco
Ġdraw n
Ġde mands
Ġpack ages
r el
ĠIns urance
Ġarr ested
Ġ tall
Ġh ook
te ed
Ġintegra ted
Ġpri marily
Ġelect rical
Ġlate ly
Ġgra nted
Ġdefen d
Ġp lot
ta il
Ġb ridge
Ġinitia tive
Ġdis able
Ġspo ts
Ġde spe
na n
Ġr ural
Ġta n
Ġexplan ation
h ear
Ġunex pected
ri tage
ĠAr ts
Ġre v
ĠSe cond
Ġen tering
ĠA utho
in i
Ġarri val
] .
Ġpr icing
Ġhe ight
be l
Ġdee per
Ġbla me
Ġg iant
Ġtra cks
Wo uld
ĠM ike
Ġvis its
Ġdis hes
ent al
c cess
Ġsme ll
r eme
Ġcon test
Ġbl ind
Ġrare ly
Ġner vous
ĠC up
i ate
r essive
Ġch est
ĠTh rough
Ġexpr essed
Ġcommo nly
Ġchar ity
o range
Ġenter prise
Ġex ists
ĠA uto
Wh ich
Ġinvest ments
ĠR ights
ival ent
ly wood
Ġf its
ĠSte ve
Ġreso rt
Ġalle ged
che r
Ġab o
Ġp ink
mer as
vious ly
i ations
Ġref und
ĠMe n
con ne
Ġgl u
Ġconcl usion
Ġany body
Ġvar iable
Ġrequ ested
Ġfig ured
Ġpic king
ĠB rown
Ġcontrib ution
lie rs
ĠB i
Ġwis hes
ĠS EO
Ġexception al
rupt cy
Ġpro mpt
ur b
Ġconven ience
om as
Ġcoun sel
ĠI P
Ġob tained
Ġsea ts
dition ally
Ġ200 3
ut ies
Ġ tox
Ġgovern ments
Ġst ages
Ġ tons
Ġbu g
vers al
Ġswe a
ing ly
Ġinten se
Ġvisi ble
Ġmanufacture rs
alan d
in al
Ġpla in
Q u
Ġfin gers
P art
Ġcut s
Ġexperie ncing
Ġinvol ving
ĠP ac
Ġunusu al
Ġhea ting
Ġrecru i
ĠD ie
Ġgath ering
ĠCha n
ĠW all
Ġch ronic
Ġig nore
Ġmed ication
Ġac id
Ġmo du
ĠSt art
Ġinte llect
Ġhard ly
Ġretur ning
age r
as m
Se r
ĠH ea
ĠCo ast
w oo
ĠP ea
Ġrel ations
Ġh ide
ĠCont rol
ĠF il
ĠC A
et te
Ġimp ression
ur se
Ġfunda mental
Ġcompone nt
se ss
K eep
Ġedit o
Ġve rif
We lcome
ĠL ab
Ġconse nt
Ġedito r
Ġfavo r
Ġattra ct
Ġdisap point
t itude
Ġgr ass
Ġte mporary
Ġta nk
Ġma d
Ġlangu ages
C ar
ĠSo n
Ġprefer red
Ġrapid ly
ĠF inancial
Ġhear ts
Ġga ined
ge nce
Ġhab its
s of
versi ties
ĠSp irit
do us
G ive
Ġst able
ĠDe c
ĠRe member
ic ker
Ġsur ve
Ġapproach e
ĠA nother
Ġasse t
Ġprese nts
ĠM om
Ġapproache s
ur able
ĠHist ory
t als
ver ty
Ġra ting
ĠEn vironment
nt ation
Ġar ray
Ġe m
Ġas p
Ġscri pt
Ġp owder
Ġchea per
Ġdra ft
ter ed
Ġblo cks
I ns
Ġent itled
ath y
Ġfor med
il ot
Ġinde x
Ġp up
log ist
Ġconte mporary
ĠR et
Ġleg i
Ġrecog nition
Ġtable s
Ġu sage
ĠCha nge
ĠW in
Ġ4 00
Ġthera p
ession al
ĠH y
Ġperson nel
o ral
Ad d
Ġnew ly
Ġsha me
D is
t ole
rie rs
ĠH am
Ġstat istics
Doe s
Ġperio ds
ĠIt aly
ĠH ead
Ġemo tion
Ġpra yer
ĠB ob
3 00
ĠSto r
Ġpriv ile
vail able
Ġch art
Ġa wards
Ġda nger
Ġex posed
ca p
Ġhi ring
Ġrepe a
ude nt
ĠFest ival
a u
ĠAr ch
Ġpsy ch
Ġmer ely
um in
E E
Ġme chan
Ġceleb ration
Ġinvest ing
, '
Ġman ual
Ġdis aster
Ġnur se
Ġbru sh
Ġfinding s
wor ks
line d
ĠS ales
Ġshoul der
de e
ĠRe port
ĠD i
ĠI ll
Ġab a
Ġfe wer
Ġk m
Ġfa ult
Ġca ts
ee s
Ġdiffic ulty
Ġphe no
U nder
Ġcha mpion
t itles
Ġequ ally
Ġwe st
ĠSum mer
ee ts
Ġhonest ly
Ġre crea
ĠRo bert
ĠP ress
un ce
Ġpl u
Ġl ift
ĠS H
y ard
ĠO pe
Ġwa ve
Ġsee s
qu est
ĠO lymp
Ġaim s
Ġre volution
alle n
Ġcon crete
s wing
ĠL y
ĠLou is
Ġ iP
Ġpo d
ĠA rab
Ġmar ks
Ġyo ga
Ġ orange
ĠP lace
ĠZe aland
ph ones
ĠF und
Ġworkshop s
ĠK ey
ĠSh op
ur t
Ġ ought
pe nding
Ġso rts
no us
Ġmar gin
Ġdef ine
ĠR ad
ic ide
Ġnar row
ie ce
Ġfar mers
ea u
Ġsc ar
ĠS uch
Ġbal a
Ġe gg
Ġga p
ion al
ĠSen ate
T A
Ġter rit
ke e
Ġcap abilities
Ġro ot
ber g
Ġspect ac
sa n
ĠBri tain
ĠSt udents
N A
Ġaba n
Ġpromo tion
ĠDis ney
Ġca meras
Ġab sor
Ġstret ch
Ġstop ping
Ġpo verty
Ste p
Ġcop ies
Ġex tension
is ation
Ġgro ce
Ġdownt own
Ġdelive ring
o y
Ġelse where
ĠC iv
Ġexten d
Ġdisap pointed
F ind
Ġlaye r
z ard
Ġca tal
ĠNet work
Ġfla vor
Ġarchite cture
ĠE le
ĠMus lim
ĠV iew
lic i
p rodu
in ary
Ġdiscuss ions
ĠAcade my
ĠWa tch
pe st
Ġ sof
ĠN O
Ġhand y
Ġframe work
Ġh its
ica n
ĠM el
6 6
Ġobject ives
ĠPa t
R I
ĠD ad
grat ulations
Ġwir e
Ġf illing
Ġco al
lici t
8 00
ro p
Ġpre cious
ĠS U
Ġpred ic
Ġevalu ation
ch arge
Ġquo tes
Ġmeaning ful
Ġba king
Ġset up
Ġpromo ting
Ġcar ing
bur g
Ġnewspa per
ĠNo te
ĠC la
Ġrelax ing
ĠL ight
B el
Ġcontrol led
me ters
Ġso il
Ġdisplay ed
Ġrela ting
Ġ6 5
Ġa ged
Ġcomp rom
i gan
Ġgene rous
Ġreg ions
Ġqu i
Ġengine s
Ġind icate
Ġflex ibility
ĠC ri
Ġin fection
Ġlis ting
Ġsto mach
Ġsmo king
e le
t oys
tis sue
Ġenjoy able
Ġfall s
k o
Ġpublic ation
ĠJust ice
Ġexp ans
Ġconvers ations
Ġparticip ating
v able
ĠCo ns
Ġtoo th
ĠYOU R
Ġproduct ive
Ġexe cu
C l
Ġwh is
Ġele cted
ĠTe n
Ġinterview s
Ġer rors
Ġin he
b ar
ĠD ia
Ġco in
Ġbo ss
for med
Ġinteract ive
Ġvic tory
Ġpri nting
ĠP ut
Ġse ctions
Ġpe ts
Ġha m
min ute
ya n
Ġlad ies
Ġcas ual
Ġimple mented
Ġequ ivalent
Ġb len
ĠC as
ma tes
e ro
Ġover come
ta nts
Ġnetwor king
Ġconf used
Ġ200 1
into n
Ġsafe ly
Ġoccur s
Ġcolle ctive
Ġa me
ar ters
Ġstri ke
ĠV ideo
ĠSh are
Ġ ox
Ġse asons
Ġremo val
Ġadop ted
ĠPri nce
ĠExe cutive
Ġab road
Ġstri ve
Ġprov ision
si t
0 1
Ġpossi bilities
Ġpur sue
Ġcampa igns
Ġpo cket
Ġdef ic
Ġaff ili
Ġ tissue
Ġad a
Ġdel ight
Ġ toys
ĠEx ce
Ġtrans actions
Ġest imate
Ġab ilities
) ;
Ġdama ged
Ġ19 5
ol lowing
Ġse mi
Ġsubsta ntial
Ġbrea ks
Ġent rance
Ġpo wers
ĠWith out
ate n
Ġsk illed
ĠBo ston
Ġme ets
ĠM other
Ġreve al
Ġcom mission
Ġrepea t
ĠA ge
if o
Ġcitize n
ĠCarol ina
ĠTh ink
Ġlo ck
Ġfea turing
t ries
si zed
Ġ swing
Ġtra cking
Ġcoup les
S E
Ġuni verse
Ġphotograph s
Ġe d
De spite
Ġsh irt
Ġun known
ĠCon ne
Ġf iction
ĠF i
Ġas ks
ĠA D
Ġdis cri
Ġdemonst rate
F L
i que
Ġso ph
ĠV ict
Ġpi pe
Ġcontract s
ĠF ather
niz ation
D r
Ġmainta ined
rt o
Ġdespe rate
ri gin
G B
rea king
ean while
Ġm i
Ġfac ulty
Ġguaran teed
Ġmar ked
Ġtrans action
Ġcolo urs
ĠP age
ĠCh ild
Ġreg ime
Ġdi versity
Ġsco pe
ĠSe ction
ĠW il
Ġwis dom
ber ry
Ġsupp lement
Ġli t
Ġmanufacture r
io t
Ġspec ified
Ġproduct ivity
Ġsin ging
Ġdis order
ĠLib rary
Ġpl ug
Ġrela tive
Ġaccesso ries
Ġbare ly
Ġlaw yers
cu i
Ġadvant ages
ĠJo e
Ġn ations
ĠMa in
Ġde ck
Ġresol ve
ĠStor e
Ġg oogle
Ġre act
ĠM is
Ġapp lies
Ġbur n
Ġvie wing
lle n
Ġcert ificate
Ġdocument ation
Ġnutri tion
ee ls
Ġmax im
Ġp ics
ĠSco t
Ġde man
y our
O C
Ġexce ed
Ġaccount ing
b age
Ġhea ven
Ġ5 5
ad ow
Ġinstru ction
ĠP ur
Ġrece ption
Ġa imed
Ġno se
ves ted
Ġhesi tate
Ġar rest
l ds
Ġadmit ted
Ġ tole
Ġcorre spon
Ġoffic ially
Ġla ke
Ġminim al
Ġpub lis
perie nce
nt il
Ġsign al
Ġ ul
Ġdire cted
Ġref uge
Ġj un
Ġh ub
Ġinsi ghts
ĠCh ief
H ope
Ġdel ighted
Ġcontrib utions
Ġhome ow
Ġauto mo
L ook
Ġvulne rable
Ġbl ow
g are
i tio
Ġcompe te
Ġclo ck
Ġcol umn
app ro
d ri
Ġro mantic
st all
Ġexpect ing
r ese
z il
ĠB la
v ity
Ġp ad
Ġfunction al
ĠâĢ Ŀ
Ġreg ards
Ġfound ed
Ġcoach ing
ri ge
Ġdesig ners
in ger
Ġrema ined
Ġfascin ating
Ġg allery
Ġexe cut
Ġin fe
ĠI m
Ġrepresenta tive
ac ket
ĠLO VE
ĠTa x
Ġcl assi
Ġreside nce
t ile
ri tes
Ġli ability
ĠS ky
Ġu nce
Ġaddr esses
Ġcere mony
Ġinitia tives
Ġgam ing
Ġang ry
Ġgathe r
b ably
ĠJ ob
ĠSecret ary
Ġexpans ion
M A
Ġaddr essed
alle t
Ġinsta nt
sch ool
Ġwal ks
Ġpro hib
r us
in der
Ġmas sage
ĠRo yal
ĠCo uld
Ġbedroom s
Ġpo em
Ġg rin
Ġtr ash
Lear n
u ma
Ġgene rations
R a
ĠFa ir
Ġdisa gree
Ġcen ters
Ġclub s
Ġte ars
Un fortunately
Ġsp i
ob ile
ĠCath olic
ĠD VD
Ġinit ially
Ġ199 0
Ġage nda
lia ment
Ġentreprene ur
su i
Ġend o
Ġbr eed
ĠM i
ia no
Ġfla g
Ġv s
Ġ( $
ĠArm y
um my
Ġdire ctions
Ġstruct ures
Ġbrow se
ĠNo thing
na t
ĠF our
Ġwir eless
sy ste
v ide
Ġencour aging
Ġop posed
Ġpri me
AT E
nony mous
Ġp our
Ġoverwhel ming
S P
Ġran king
Ġinsp ire
Ġve te
ĠYo ung
ver al
Ġy ards
f oot
men dous
4 2
Ġfo ol
Ġar gue
ĠC O
wor ld
ĠU sing
ĠGe ne
Ġcontro ls
Ġdivor ce
b ooks
Ġwork out
Ġre form
t z
Ġgra ce
ĠRepublic a
Ġbe nch
Ġcom me
c ific
ra do
Ġmo ist
Ġbehavio ur
ĠHo ly
tter s
ĠRepublica n
Ġair craft
sh a
ĠTr ust
Ġinsp iring
Ġcur rency
ia ted
e sis
Ġcomple tion
Ġenable s
Ġ orie
R eme
Ġun ion
Ġsum mary
ting u
O nly
Ġene my
Ġprom ised
l ooking
if ies
cui t
ricul um
allo ween
Ġspe akers
ĠSup port
t ub
ĠPer sonal
Ġout fit
Ġma tches
Ġphys ically
Ġcomb ine
Ġ200 2
Ġbu d
Ġtempera tures
, âĢĻ
ab a
8 5
Ġresu me
ra nty
L A
Ġthorough ly
ĠJ ul
Ġun p
Ġe ast
Â ·
ĠA sk
Ġ3 3
ĠSpa in
gen d
op h
Ġgene rated
ul ties
Ġsle e
B I
Jo hn
r un
Ġtr usted
ĠS earch
ĠW ri
Ġcert ified
ĠS ara
room s
ĠBu ilding
T ime
ĠD igital
Ġdon ation
Ġsk i
c ult
Ġinfor mative
Ġesse ntially
Ġunlike ly
ie ties
C e
ul ating
Ġglo be
Ġl abe
Ġgen r
Ġforgot ten
Ġbank ruptcy
Ġir r
Ġgenr e
Ġbon d
Ġdifferent ly
ĠE p
ĠSafe ty
Ġ titles
Ġexci te
Ġst ir
Ġexerc ises
n ut
D S
Ġmor al
Ġgraph ic
Ġir ri
ua na
r ect
Ġaward ed
Ġmount ains
Ġlegis la
ĠS ure
Ġauthent ic
Ġalong side
c kers
Ġcons ists
Ġpush ing
und ed
t ort
ces sive
Ġconce rt
red i
Ġex cess
ĠKing dom
Ġactive ly
Ġresis tance
Ġse eds
ĠHo spital
co ver
ĠH as
b ors
I I
Ġattemp ts
Ġpi tch
U ST
Ġlay out
Ġun fortunately
as hes
Ġ oh
Be ing
Ġhigh light
mar ked
so ur
ire ct
P M
Ġdis po
ĠM oney
io ner
du ate
ĠAdmin istration
Ġrep lied
Ġta ct
c kets
Ġso ught
ad ed
b b
el ly
Ġin cent
ï ¿
Ġtarge ted
ude s
Ġst ations
Ġsupp liers
ER S
Ġfl ights
Ġ vent
ten d
Ġlitera ture
Ġope ns
H S
Ġe volution
ĠGa mes
Ġele ctions
Ġsig na
ot ic
ĠMart in
Ġex cuse
ĠMem ber
Ġdesk top
0 5
Ġfil ter
Ġprof essor
ĠC lea
ha ve
Ġpush ed
ance s
Ġpu zz
ser vice
Ġmo n
Ġg ree
Ġb one
Ġvo ters
d ia
ĠTra ining
Ġconsistent ly
ĠCor po
ĠVirgin ia
Ġgraph ics
ĠFor m
Ġheav ily
Ġtre mendous
ĠTh ree
Ġse ctors
Ġcompla int
spi tals
Ġlegi t
ĠO p
ho st
Ġban king
g ood
be ll
Ġspe aker
t ta
Ġpo et
Ġsurround ed
rom o
as sed
r mous
whe n
co in
Ġshort ly
Ġmix ture
ho me
Ġphiloso phy
Ġel der
st yle
Ġl ying
Ġsl ip
Ġsh ake
L C
Ġrepa irs
h h
s als
f its
u mes
th s
Ġfo cuses
Ġhy po
Ġrep rodu
ĠWord Press
g ie
Reme mber
et t
ï¿ ½
ĠL ooking
lea ses
Ġgro unds
v ors
Ġuni versities
Ġm oon
c s
ĠA ff
Ġagg ressive
... "
oo ns
t ied
Ġpublish ing
Ġal lo
ut ch
ate ll
Ġun de
Ġannounce ment
Ġdevelo per
ĠEn d
ĠD u
Ġ tun
ij uana
Ġcoo rdin
Ġcab ine
Ġassoci ation
ĠC ul
ĠSouth ern
Ġexpe nse
Ġedi ting
ific ial
n ne
Ġop t
Ġfl oo
Ġowner ship
Ġ3 7
b ra
Ġtime ly
Ġfor give
c ree
4 3
Ġint ri
Ġme ta
Ġintera ction
Ġdis ability
Ġdecl ine
Ġ woo
Ġbed s
Ġsp are
Ġsp acious
wel ry
ed ia
Ġeno rmous
ĠO rder
Ġdra ma
Ġ3 8
un a
Ġelimin ate
' ,
Ġsur f
Ġmus cles
Ġdead line
uck y
ĠF ull
ĠF A
Ġexhib ition
Ġf ranch
Ġ198 0
Ġreser ve
u ds
Ġpar ks
ic ke
Ġneigh bour
redi t
lle nce
Ġbur ning
f ied
Ġe ager
ĠD C
ĠH ERE
Ġan n
Ġconte nts
Ġke ys
Ġresponsi bilities
Ġame nities
htt p
ĠS ite
Ġta pe
d ors
B ack
Ġg ate
rta int
Ġacqu ire
Ġsig ning
Ġop pone
Ġ tort
Ġb other
ĠY eah
Ġver sa
Co me
Ġre cip
Ġvo ting
Ok ay
Ġco a
ĠJe rsey
Ġfunction ality
4 1
Ġconta ined
Ġacce le
g ical
ĠL is
Ġbo ring
Ha ppy
Ġcompla ints
Ġfra ud
ĠE qu
Ġemb arr
ab out
Ġfol lowers
ĠQu een
ĠW ood
Ġro lling
Ġcour age
Ġprof its
ĠWeb site
Th rough
int age
Ġform ula
ĠRe ally
st op
m ind
Ġfru its
E A
Ġa mend
ĠS P
ĠP ract
Ġprote cting
âĢ¦ âĢĿ
Ġcom bat
pri nt
ĠMe mo
Ġsuper ior
g ly
Ġamong st
Ġth emes
ache lor
ĠSp ace
e ven
t us
Ġsubsta nce
Ġrid iculous
Ġ ordinary
b r
Ġdam n
Ġd uties
is tent
Ġimmig ration
Ġgar lic
Ġemer ging
ced e
ĠL ee
ĠCusto mer
che ster
und ry
Ġdiagno sis
ĠL iving
se y
Ġrecrui t
ĠSe ason
Ġac cused
he rs
Ġreco ver
Ġcal ories
Ġchemical s
ĠP ra
Ġblog gers
f y
Ġdevelop ments
s ne
C rea
ma nces
ĠRich ard
m ine
Ġclin ic
ĠLan d
Ġemploy ed
ise r
ĠA gency
Ġd edu
Ġvo ted
ĠSt ay
Ġr ede
sel s
Ġ; )
Ġfl ood
Ġse cre
lf riend
Ġany time
h u
Ġevalu ate
gy pt
Ġsal ad
Ġbelief s
ĠQ uest
ĠHe n
Ġdo zen
Ġpain ful
sp ic
Ġspectac ular
Ġpo ly
Ġde n
ĠL ink
Ġsp am
ĠHe art
ĠE a
B o
ĠS il
Ġp izza
Ġra tio
T a
ĠSup reme
Ġsal ary
ĠT oo
ĠU s
Ġfund ra
n dering
rol led
Ġcharacter istics
Ma n
nto n
lo ved
Ġthrea ts
Ġcri mes
T ER
ses sed
ĠFor e
Ġbles sed
Ġreg ret
ĠNorth ern
Ġfre que
ĠCol umb
Ġconta iner
tera ns
G od
h igh
ll ar
Ġphra se
ĠMa x
ĠVe gas
Ġcontra st
Ġâ Ĥ¬
Any way
Ġada pt
Ġche cks
Ġlo sses
m ay
Ġv i
Ġfa ke
wee k
Ġas signed
Ġse ed
Ġhy per
Ġ âĢĻ
n ded
Ġjo ke
Ġine vi
Ġar my
Ġexcite ment
Ġda ncing
Ġ tie
rea ch
ĠJo se
Ġstru ck
Ġta p
Ġtut orial
Ġad vis
Ġe missions
Ġnur sing
Ġpurcha ses
ĠB ed
f fe
ide nt
Ġaccommod ate
Ġha bit
Ġbles sing
pa per
Ġconvin ced
Ġrestric tions
Ġremark able
Ġpeace ful
Ġ venture
ep ing
Ġenter taining
Ġinteg rity
un icip
Ġg ut
Ġtour nament
ĠS oft
ĠA ward
ĠL A
Ġmake up
ĠCiv il
Ġy a
Ġdeath s
Ġlo west
min ated
ĠP op
ĠC reat
ty pe
Ġdiv ision
) (
Ġla tter
ĠBra zil
Ġsold iers
Ġpro ved
n dro
Ġpack aging
ĠA L
ĠA gree
ra tory
Ġpea k
ast s
Ġplu gin
S ub
Ġin ch
Ġsho ck
sui t
ĠThanks giving
Ġ3 4
ĠJew ish
Ġremin der
Ġdon ations
ĠTh omas
Ġa dequate
ic ates
por e
Ġfa ncy
Ġgathe red
Ġwi der
ul f
ea ns
Ġ ~
por ter
Ġact o
Ġview ed
Ġvirt ually
f l
va t
Ġacto r
ĠS w
Ġbo ards
ĠHol lywood
20 17
n ions
ĠHol iday
ĠJa n
ĠDe fe
ĠM S
Ġlast ing
w r
ĠK im
Ġbea ns
ap ed
Ġprevent ion
ma ted
ĠI M
ce ption
Ġg la
Ġre con
ĠGe org
Ġstop s
ĠA R
0 8
ĠC ross
we ar
Ġ oral
e li
Ġwor ker
Ġkee n
St ar
Ġspa n
Ġdiagno sed
F ree
Ġop position
lf are
ĠSm all
ĠB io
Ġregula tory
Ho me
Ġtarge ts
Ġlea th
Ġproces sed
ĠW ant
ish ment
Ġcour ts
Ġprov isions
alle nge
Ġtrave lling
ĠLear ning
Ġdiffic ulties
y ed
Th ough
ĠLo cal
Ġassur ed
ĠPri me
M L
Ġrespon ded
Ġthank ful
Ġapo log
war ding
P ri
viron ments
Ġsc ary
Ġneigh bors
r als
ĠT im
mo ns
su b
ot al
Ġover view
d ies
Ġarrange ments
Ġmin ister
ĠH alloween
v acy
ĠA rea
Ġdisable d
Ġqual ify
Ġde aler
Ġqui t
Ġmot ivated
si e
Ġsc rew
ĠM ur
Ġemphas is
Ġine x
Ġrelax ed
IG H
rea ding
Ġmir ror
ta ting
Ġcoll ap
Ġd irty
Ġthrow n
ĠPr em
p ical
Ġrepresenta tives
Ġhighl ights
Ġ cult
Ġwhere ver
Ġtra iler
Ġwor n
eath e
o logy
Ġd ying
Ġva ca
Ġresto r
Ġenable d
ĠProte ction
in king
ĠA g
Ġja il
e matic
Ġfavo rites
ime r
Ġba nds
Ġintellect ual
Ġintellige nt
Ġfre quent
Ġb ran
Ġgol den
ĠH ard
Ġatta ch
E ar
Ġg ig
Every one
Ġover night
Ġrela te
ne cess
Ġprincip le
r ey
Ġ ster
0 9
Ġimm une
Ġ ves
Ġso up
Ġdri ves
Ġinsta ntly
O ut
Ġrestor e
Ġcir cle
B l
t witter
A ct
Ġadministra tive
Ġoccas ions
Ġacqu is
va ted
ĠRea ding
Ġsa mples
ĠAn nual
Ġelect ron
Ġphotogra pher
Ġfu cking
Ġm ining
Ġinvent ory
ĠStra te
Ġwar ranty
Ġh unting
sc ale
ack ed
Ġauto matic
Ġ[ ...]
sc reen
Ġsub si
R L
Ne ver
Ġsi nger
ĠTra vel
Ġf allen
Ġleath e
Ġfact ory
Ġ sne
sh ot
Ġma ps
Ġengine e
Ġsecond ary
Ġdescribe s
Ġaffect s
Ġgene tic
g ate
ĠAl ways
ĠN ige
Ġwin ners
Ġmotiv ation
Ġadd iction
Ġment o
s wee
Ġh ip
ĠF urther
Ġol ive
ĠTra de
si ght
ĠP are
is ters
Ġwri tes
% )
Ġlicen sed
Ġintegra tion
U L
Ġcor n
Ġcomp assion
Ġwea pon
4 00
Ġan ger
su ch
Ġdestroy ed
sh i
Ġar ran
me t
us ions
ct u
Ġobser ved
so le
ĠSe ries
ĠY a
Ġfulf ill
ĠT able
ĠHo n
ĠRe spon
Ġoccasion ally
Ġcomp ly
Ġcoo ked
lp h
ĠH D
Ġcoope ration
ĠC ook
ĠFor ce
Ġend less
Ġv ice
r tion
Ġent ries
Ġconta ining
ly n
Ġsub scription
Ġattri b
ĠTe ll
Ġdistin ct
n ie
Ġb lan
Ġle ns
Ġsc ared
Ġtour s
Ġsud den
L D
Ġmyster y
ht ml
for ward
je ction
ig ure
ĠC ro
b ow
ĠCl inton
Ġdiv ide
Ġac r
ĠTH IS
Ġsmart phone
IT H
Ġdele te
Ġdiv ided
Ġleathe r
d f
Ġmed ications
lim ited
ash ed
wor king
Ġb ranch
Ġacr e
Ġaccept able
tto n
e qu
Ġloc ally
Ġen vironments
Ġcompet itors
ak is
Ġven dors
Ġho spitals
Ġsett led
Ġload s
Ġ tries
Ġdo se
Ġdial ogue
Ġpolitic ians
i table
Ġpasse ngers
ĠC ir
Ġexam ine
Ġ cree
ĠEx p
St ill
Ġgun s
Ġsl ide
Ġsu icide
Ġref rige
th m
Ġin vo
Ġdeb ut
Ġhi tting
Ġcur riculum
Ġear s
Ġun ifo
Ġind oor
mar ket
ch ar
ĠJack son
ĠMich igan
Ġmemo rable
Ab out
B oth
ĠE gypt
ĠE vent
ĠPac ific
Ġma gn
R S
ĠN ations
Ġremind ed
Ġr acing
ĠS im
r ence
Ġbase ball
Ġcompa t
eathe r
?? ?
Ġpat ience
Ġsp ark
Ġbu yer
ĠRo se
r ch
Ġran ging
ĠDo nald
al t
Ġse min
ĠK ids
ĠM A
Ġinspe ction
Ġne a
Ġrough ly
Ġresc ue
Ġfur n
Ġprom ises
Ġoperation al
Ġso oner
Ġacco mpa
ĠColo rado
ten cy
Ġfl oors
ĠMin istry
Per haps
so red
vie wing
Ġmo no
Ġho les
ĠScot land
ĠAss is
ir m
ĠC ru
ĠKo n
Ġup set
Ġmag ical
ted ly
Ġgl asses
Ġco des
ĠM uch
e ction
Ġspon sor
n ab
Ġsoph ist
Ġlo cked
Ġde ny
Ġacknow led
Ġengine ers
Ġp ate
Â ´
Ġind icated
Ġbasket ball
Ġ tied
is hes
f ood
Po sted
Ġdra matic
Ġp ilot
Ġequ ity
ĠV ill
C all
Ġreg ulation
Ġfinish ing
Ġmo ns
Ġtrans formation
Ġgroce ry
di um
Ġspecial ists
Ġho sted
o ric
ĠC r
Ġapp le
Ġdecrea se
Ġabse nce
Ġefficient ly
Ġrece ip
Ġac cidents
Ġanno ying
be c
Ġtack le
ĠM ia
Ġtech nic
Ġblen d
Ġpro por
Ġ swee
Ġal ike
ick ed
b log
Ġg ues
rea ms
Ġassa ult
Ġachie ving
cy cle
ri ts
ĠCe rt
ve ment
Ġb omb
rd a
0 7
ĠVict oria
ila n
Ġwonder ed
Ġbrea thing
Ġsex y
Ġb ite
Ġp unch
Ġnut rie
Ġbe gun
Ġ2 50
Ġspo ken
rtaint y
Ġsu spic
si ze
se as
Ġreview ed
ĠTH AT
Ġmin istry
as sing
Ġso lo
Ġcontinu ous
Ġbro a
ĠEngine ering
ĠW E
Ġnut s
ĠV iet
Ġperfor mances
con ut
po wer
Ġfina ncing
Ġb ull
Ġassis tant
ĠC ON
Ġknowledge able
Ġsurv ival
K E
ĠStud io
Ġgr e
Ġscore s
ri ff
R ight
Ġcomple ting
Ġrefuge e
Ġbroth ers
Ġan ge
ut ral
ĠP ic
Ġdiscus sing
Ġso ur
he alth
lo wer
Ġhand ful
Ġpa nts
Ġathle tes
if fer
Ġaccomp lished
Ġb old
AN D
Ġepiso des
C O
ES S
Ġpopular ity
st ac
ĠL as
ad ays
Ġwi ns
Ġcontact s
ĠJ ones
ĠE X
Ġ197 0
Ġbe aches
ĠRese r
w ich
Ġcy ber
Ġtemp late
Ġsil ly
ĠE ver
Ġdis orders
Ġwor ship
Ġcra ck
Ġflo wer
Ġnea t
Ġ1 000
Ġextra ordinary
Ġtest i
ĠAsia n
W ant
ĠTe le
mp ire
Ġimagin ation
America n
0 6
Ġan gle
Ġele gant
Ġcom ic
Ġhung ry
Ġsupp le
Ġhone y
Ġtoile t
so m
L ea
Ġwit ness
s cent
se rt
Ġentreprene urs
Ġhome less
ĠT al
le e
scrib ing
Ġdesig ning
Ġref used
Ġdecl ared
ĠRa n
ĠF un
ĠDe spite
i ries
Ġk ilo
no rs
Ġdisco unts
Ġsettle ment
C ur
ĠJohn son
Ġser vers
ĠBo x
ĠYear s
ci a
w il
ĠBir th
Ġhor ses
a tive
Ġe ner
ĠDa ily
Ġtable t
U M
inter est
Ġcoa t
Ġsub scri
ĠWillia m
Ġinstru ment
Ġguide s
ĠE li
Ġje welry
se a
Ġboy friend
ans as
is k
ir ls
Ġdisco very
5 9
Ġre hab
Ġdip lo
ĠM P
udi ed
Ġadv ised
ven ted
de p
Ġvio lent
ĠM E
AR T
if ting
Ġbee f
wa n
Ġch ur
B est
Ġcl ip
ĠOh io
ĠGar den
T r
Co mp
[ âĢ¦]
Ġ tar
Ġnice ly
ĠH A
Ġarchite ct
H igh
Ġsu ite
est h
in ch
Ġhe l
Ġconfide ntial
Ġst ability
Ġthea tre
Ġceleb rating
Ġreal istic
n ate
Ġab und
Ġman ip
ĠGu ard
min ate
we et
tter ed
Ġnav igate
Ġwork force
Ġpract itio
ent ine
ĠB aby
Ġwa ters
T ry
Ġvir us
ĠP DF
a ny
Ġreprese nted
ĠTh ea
uto r
0 3
ĠG irl
Ġdro ve
Ġacknow ledge
% ,
na m
Ġremember ed
Ġthr illed
Ġ9 9
Ġkind a
Ġsh ed
Ġsup porters
Ġaw ful
Ġquant ity
Ġsi lence
Ġbala nced
Ġexam ination
ĠB ru
Ġb its
Ġsa ke
Ġh ill
Ġassign ment
ĠH i
go v
per son
ter y
Ġla nding
0 2
Ġfant asy
ĠC ance
Ħ ¢
ĠW ild
ass ment
Ġal ler
Ġf ence
f ire
Ġre leases
Ġact ors
Ġin a
ĠCount ry
Ġpsycho logical
ter na
Ġhor ror
ĠH ot
ze ns
Ġli p
ĠIr ish
Ġde ri
Ġthro wing
ĠJa va
s atell
20 13
go ri
Ġfif th
Ġau dit
stor e
com merce
ĠH T
Ġmar ijuana
ĠAc count
Ġen dea
tu tes
Ġ4 2
ĠVis i
le ar
ĠPh ys
Ġpull ing
Ġover seas
igh ter
Ġhor rible
Ġwra p
ĠNo n
Ġpermit ted
ĠSyste ms
Ġen l
L ife
Ġpas ses
Ġwoo den
d les
Ġachieve ment
in u
Ġwa ge
ĠSt ory
Ġcondition ing
a ur
Ġargu ments
ĠT i
Ġwash ing
Ġadop tion
Ġ: -)
d th
ĠD I
Ġsubse quent
per ty
b ul
ĠHar ry
Ġst udied
ĠVisi t
u c
ĠS ports
as ka
Ġdr essed
Ġ8 00
ĠA RE
ĠK ind
ĠM et
Ġfol der
Ġcru ise
Ġdis abilities
Ġun necess
ĠO S
Ġacqu ired
Ġeffective ness
Ġl one
ac co
ĠCon f
tte ries
ront o
ĠE nt
Ġhand led
Ġdepart ments
ĠFor d
ĠBet ter
Ġstake holders
ĠM s
Ġli ps
r ted
6 7
Ġalterna tives
Ġinstru ments
Ġphysic ian
Ġcon stitution
Ġ3 9
Ġcon vert
Ġa mp
Ġtour ist
ĠPa tr
Ġscra tch
ĠMa tt
Ch rist
Ġdis se
U sing
Ġbur den
Ġado rable
Ġun in
mes ter
ĠC ast
ĠB reak
for mance
Ġremo ving
is sa
ĠLe g
Ġun do
Ġcl ue
Ġfo ster
Ġexpa nding
Ġinvest igate
Ġf ridge
Ġ ward
Ġreference s
Ġpain ted
Ġtr icks
ĠRo man
Ġback up
ĠF la
Ġcopy right
Ġne west
ĠL im
a pore
Ġpotat oes
Ġsuggest ion
od i
Ġwild life
Ġresul ted
b ro
Ġbeautiful ly
Ġconsul ting
Ġen jo
Ġp ig
ĠHope fully
Ġgir lfriend
â Ħ¢
0 4
Ġdec iding
ĠLea der
Ġfis cal
Ġpray ers
Ġme ters
Ġutil ize
ĠBo n
Ġale rt
Ġcons ult
ce ntly
Ġun r
Ġattemp ting
ut ical
us ter
Ġsi gh
Ġh ired
Ġad mission
ze s
Ġjud gment
o ny
Ġ199 9
v ic
Ġar med
ro me
Ã ¢
Ġga n
Ġinvolve ment
Ġear nings
Ġtomat oes
Ġap pointed
Ġvo tes
Ġse quence
Ġret ired
worth y
ĠS elf
> >
Ġpublic ly
Ġforum s
Ġgarde ns
Ġestima tes
Ġd irt
ĠCom mon
l as
Ġremin ds
Ġoutd oors
ĠRe f
moth e
P C
Ġwel coming
Ġfir ed
Ġde va
Ġf ri
ĠD ead
Ġob stac
Ġcare ers
Ġ satell
ĠB ul
sol id
Ġhome work
Ġhealth ier
ke nds
Cont act
F a
Ġstrengthe n
t oy
ĠM rs
o te
Ġtrea ting
are st
Ġuncom fortable
usto n
ĠDown load
par ty
Ġpheno me
Ġcru sh
Ġste am
Ġne ces
Ġcar pet
G u
Ġbac teria
Ġol dest
O b
Ġut ility
Ġfine st
Ġ1 20
t wi
ĠD ar
Â °
Ġope rators
P ol
Ġba tt
Ġspo use
mothe r
ĠSo rry
I VE
Ġm ild
\ \
ĠB ow
! ).
Ġdi gest
6 8
cons cious
Ġcha irs
Ġload ed
ĠPr ice
ru g
Ġch ips
ĠAir port
ĠR un
ĠG O
Ġapart ments
io x
Ġcon do
ĠF act
Ġdistrib uted
ĠC redit
V is
Ġsu its
log ists
Ġre bu
Ġv ine
ul ta
Ġur ge
ĠI ce
Ġbot tles
Ġla undry
Ġsitu ated
ĠAgree ment
ĠGeorg ia
ĠðŁĺ ī
Ġcorpo rations
Ġroo ts
Ġconvers ion
9 8
n ny
Ġexpan ded
th y
A rt
Ġimplement ing
tto r
d ic
Â Ĵ
ĠBr e
Ġinter vention
Ġh un
Ġsta mp
ĠDemocra ts
dep th
ĠNo v
Ġin vention
ĠA ction
Ġcul tures
Ġharm ful
ab ling
ĠCon stitution
ndro me
Ġpropo sals
ĠP akis
Ġdon ate
iffer ent
Ġcap tured
Ġappare nt
Ġho rm
Ġattra ctions
Ġth irty
Ġmove ments
Ġsouth ern
A B
is ure
Ġexha ust
pro of
ay lor
Ġtox ic
Ġcolle cting
Ġal arm
Ġ tub
Ġenjo ys
Ġhy dro
g ne
com mun
ĠBi t
tt oo
ĠCha pter
t ivity
Ġobl igation
th ew
de m
ca te
ĠEaster n
sh ine
Ġa te
Ġj ur
Ġchee r
Ġ9 5
Ġex cessive
ĠIn cl
li x
Ġhuman ity
Ġle gend
ĠS top
Ġwa ves
ed ge
Ġpa nels
Ġpre scription
Ġsco red
Ġin sure
AN T
va nce
Ġhu mor
Ġres ist
ĠA wards
ĠL ine
.... ..
ĠSome thing
K e
Ġrecommend ation
ste p
â Ĥ¬
Ġshel ter
Ġimpact s
p ture
g ation
Â ł
Ġar ise
Ġbu gs
ri ving
o be
Ġpenal ty
s q
Ġsha pes
ven ues
Ġdis cre
Ġmed ic
Ġpr iced
ĠKon g
su ally
B ea
Ġsp ray
Ġ toy
Ġbutto ns
Ġreta ilers
Ġart ificial
gro unds
tu ne
Ġpl acing
Ġint im
Ġemb race
sh irt
Ġca fe
Ġtu ned
Ġrefer ring
Ġmo use
Ġsto len
Ġtu ne
p ract
9 7
Ġwar ming
Ġspecial ized
Ġste ady
Ġre tain
we ring
ilt o
Ġstay s
Ġre b
no rmal
Ġbook ed
Ġad m
ĠDie go
ga ted
Ġcoo rd
Ġce iling
Ġaccur acy
Ġst ab
OM E
g ni
ea ble
Ġhop ed
Ġpersonal ized
Ġcra p
gra ms
ig ious
Ġfe rt
Ġlib r
ĠArt icle
Ġho rizo
C D
Ġle mon
Ġappreci ation
ĠMa t
sia n
Ġcred its
Ġsupport ive
ĠTh us
Ġdisplay s
ĠPri vacy
one st
Ġd uration
Ġconfirm ation
I ts
ĠE state
Ġtechno logical
ĠStud ies
ĠChrist ians
ma nt
Ġcraf ts
Ġdemocra cy
Ġba ke
ĠAf gha
are ntly
ĠE f
Ġconfig uration
Ġinten d
Ġcritic ism
G O
Ġprecise ly
Ġfacili tate
Ġconvention al
Ġod ds
Ġde pendent
ĠPer son
Ġdama ges
ĠSqu are
Ġelder ly
Ġtour ism
ĠC oo
v isor
Ġrepresent ation
ĠCh allenge
Ġcance l
ilto n
Ġpoll ution
Ġsk ip
Ġcle ver
Ġsac rif
Ġtim ing
Ġcir cul
Ġexpla ining
ĠE th
Ġcont acted
Ġboo ts
Ġeas iest
ĠBu y
Ġch op
Ġsimp l
Ġpi t
ĠPh il
ĠE specially
Ġwar ned
Ġne gle
Ġobl igations
ĠOffice r
ĠB ad
Ġm ira
se ction
Ġpa tch
Ġdo ugh
ĠWillia ms
ĠSing apore
Ġte nder
Ġcount less
Ġens ures
Ġboo t
iv als
Ġ cure
B ook
Ġref use
ard less
ĠD ark
Ġac cum
Ġbo red
Ġd ive
ĠAnd rew
su m
Ġbeing s
ĠC op
Ġdiscip line
Ġfi tting
our s
Ġal ig
Ġconne cting
ga me
Ġprio rities
IC E
Jo in
Ġproduce r
Ġspe aks
win ning
si um
d am
Ġis o
ĠS E
Ġse gment
igh ty
ĠPo int
Ġtrans mission
Bel ow
Ġtri als
p ic
Ġworth y
Ġh unt
ĠFo x
fect s
Ġ ware
Ġterrit ory
Ġconser vative
Ġba tteries
Ġconside rable
Ġfro zen
Ġsecre ts
fa ces
Sho uld
Ġsto cks
ille n
el le
ĠPal est
Ġvo ices
ĠA sh
le st
L i
Ġcontract o
ar ry
ĠCa me
Ġcontracto r
Ġj unk
ĠM ust
Ġtrig ger
o rch
ĠW ITH
ĠCha mpion
lia nces
wa ve
Ġra ces
ĠNa tural
Ġv intage
Ġtee ns
ĠIn f
ĠMin ne
ĠW inter
Ġloca te
Ġbas ics
n z
Ġope rated
d al
ĠTer ms
Ġfil ing
ĠCha ir
Ġmeant ime
Ġart work
Ġche f
Ġant ib
Ġsigna ture
H A
Ġlaugh ing
Ġconf usion
Ġde nied
Ġco medy
Ġhan ded
Ġdra in
Ġprem ier
if ice
ni um
Ġbel t
AL L
Ġten nis
Ġtri b
Ġcan dy
Ġl abo
po li
Ġr ib
be cause
Ġdo zens
Ġsuper b
Ġ om
as sy
Ġkn ife
Ġal gori
Ġpred ict
Ġbr e
Ġcom m
ĠM obile
ĠSimp ly
Ġclim b
vo id
Ġprospect s
ĠCo ll
Ġpresident ial
o ils
Ġtow ns
Ġleg acy
S m
Ġann ually
Ġeth nic
ĠWor king
ĠP sy
Ġdeser ves
Ġsophist icated
u le
ĠPlan ning
ĠBo y
ĠPri vate
ĠE asy
Ġwee kends
Ġinno cent
Ġcontract ors
if ted
Ġtrea ts
ĠDemocra tic
Ġre me
Ġwe lfare
Ġfas test
Ġsi lent
ĠSt udent
Ġagree ments
Ġin vested
Ġ20 20
Ġwe stern
ĠGree k
ĠRe mo
ta king
D P
Ġte ar
1 50
rizo na
ĠPea ce
ĠH IV
ĠMount ain
ma ker
Ġbu bble
c ision
Ġr hy
Ġmoth ers
r dering
Ġtrans lation
ĠM ach
ĠMo nth
ĠGol den
Ġna il
Ġhe ritage
Ġpreser ve
d ney
Ġthea ter
Ġball s
w oods
R ese
Ġadvent ures
ow ed
Ġpro mp
Ġhi king
k ins
se lling
ho e
ĠiP ad
Ġgood ness
St udents
Ġfore cast
o rdering
Ġre verse
Ġgar bage
Ġ199 8
Ġind icates
bo y
Ġscree ning
Ġcro ssed
ĠAs se
ĠP A
d ie
Ġded ication
Ġproduce rs
Ġwh eels
7 8
gu age
Ġlea se
ĠRepublic ans
Ġlo gic
p ters
Ġn iche
mp h
Ġapplic ants
Ġincorpo rate
ĠL ist
la ting
Ġpresent ations
Ġ oils
as te
Ġlimi tations
Ġ8 5
i tis
Ġfa iling
A A
Ġdownload ed
Ġceleb rated
ĠP S
Ġ6 00
fin itely
F e
Ġcry pto
s lot
ĠE N
Ġprincip al
ne ously
te ns
l ations
Ġfrust rating
Ġfreque ncy
Ġcert ification
Ġb om
v io
ĠProf essional
ĠTh o
spe l
a fter
Ġbad ly
win d
Ġattor neys
Ġsta in
Ġsole ly
ĠTo ronto
ĠF eel
if est
2 50
t wee
Ġadop t
Ġunder lying
S ch
Ġlegit imate
Ġprogr essive
ĠB oo
Ġsna p
ĠI de
Ġfriend ship
Ġdis tingu
Ġfeed ing
Ġdirect ory
6 4
Ġmag ne
ĠG ot
Ġfund ed
Ġlay ers
Ġinde pendence
ĠMia mi
Ġbe long
Ġas leep
Ġcustom ized
Ġpar ad
ĠSu pp
r mo
ĠMa de
T ech
Ġshor ter
ĠRad io
mpa nies
ĠC R
ĠF uture
ny a
st ract
Ġexce llence
ĠSoft ware
ol ly
ĠE mer
S et
Ġtour ists
ĠQ uality
a ncy
Ġtouch ed
al ysis
n gue
Ġse as
Ġsupple ments
vi ation
phe rs
rin ge
ĠO ct
pa t
' '
m al
Ġpo rn
ĠJe ff
gra duate
umble d
Ġde struction
Ġno d
f fer
Ġident ifying
Ġfear s
s li
ugh ters
unicip al
Ġr ig
Ġsh eets
Ġreal ise
Ġta sty
rup ted
ĠEcono mic
Ġex i
ĠSara h
Ġno where
Ġsele cting
ĠDiv ision
i tch
ro wing
Ġsty lish
Ġexi t
ss y
ĠL ady
Ġcompla in
Ġro lled
Ġprote st
6 00
r ef
ĠHon g
Ġrob ust
Ġfor ma
me a
g ge
Ġent ity
ĠBro th
Ġcook ie
Ġwa nna
Ġspe ll
ĠSm art
om in
Ġinsta nces
Ġarrange ment
Ġcamp ing
Ġ slot
Ġfo under
Ġchur ches
ĠS ign
ĠHan d
l ash
wr e
ta ted
W H
Ġdeli be
ĠT ro
Ġkey board
ĠCon su
Ġvis a
ĠSea ttle
ĠNa me
row th
Ġgra nts
ow ns
ĠDay s
ĠRo me
ĠMed icine
ppe rs
Ġco aches
Ġp iano
Ġconcl uded
Ġcontrib uted
Ġlab our
Ġaudience s
p lus
ta ke
Ġart istic
wri ting
w l
ĠS M
Ġsub scribe
Ġdirect ors
Ġsh ips
Ġinf lation
ĠM ult
r em
Ġpee r
Ġaccep ting
Ġmain stream
gaz ines
Ġaddr essing
Ġfi ber
ĠT R
Ġsn acks
hy d
Ġrenew able
Ġsub mission
ĠU RL
ĠPer fect
Ġfem in
Ġ6 4
f ra
Ġdr essing
Ġcon j
ĠH ad
Ġ19 60
t ia
Ġamaz ed
Ġsc ul
Ba sed
Ġsatisf y
Ġro mance
Ġb ol
Ġtailo red
ĠCap ital
T ea
Ġaccompa nied
Ġga ins
Ġunnecess ary
Ġmode rate
Ġmeas ured
umb ing
Ġdeal t
Ġb othe
Ġcompe lling
D ay
Ġgro ss
a tors
ĠPr ese
Ġsy mp
Ġm g
ear s
arr e
Ġreprese nting
cla imed
ĠF riends
Ġpe ers
ĠP et
Ġhar sh
ĠP l
Ġ cine
T V
Ġcent uries
Ġbe loved
d oor
Ġ twee
Ġtex ture
Ġma tt
ĠC i
no wing
our ce
g ments
Ġen qu
syste m
20 16
Ġsince r
Ġn i
Ġene mies
A gain
Ġre wards
ne st
ro rist
Ġstraight forward
ri z
Ġdocument ary
ni als
ĠT alk
ĠAc cess
e ft
Ġmarket place
ĠA rizona
mit ted
Ġ sli
Ġdro ps
Ġdiscri mination
Ġfa ils
Ġg em
fa irs
Ġpoint ing
ĠChar les
i ter
ĠIndust ry
Every thing
TH E
bur gh
ĠS ad
Ġpreference s
Ġma ture
ĠStud y
Ġgr ey
Ġattemp ted
im al
Ġaccep tance
ĠHo uston
Ġsustain ability
Ġback ed
po st
ica ting
Ġprogram mes
bo ts
Ġsi ts
a irs
Ġcard io
Ġconser vation
Ġdemonst rated
Ġco uch
Ġste pped
Ġour s
spe cted
ina t
Ġrespon sive
Ġne utral
Ġa esth
Ġsi r
Ġdeman ding
Ġ obe
Q uest
Ġre warding
Ġnorth ern
ma ge
Ġ ordering
ĠTur key
Ġca m
con f
Ġvib rant
Ġreason ably
Ġho sts
ey o
Ġco unts
Ġtas tes
Ġestablish ment
ca sts
Ġemer ge
Ġenginee r
Ġpas sage
ĠP ack
Ġhapp ier
Ġli ver
Ġshoul ders
sta irs
ĠE mail
Ġco conut
âĢ ³
ĠVill age
ĠOr e
ĠN ice
o nion
ĠPol i
v als
Ġoffen sive
Ġconv ince
Ġblog ger
Ġpay s
Ġspect rum
ĠCon ser
A h
Ġsa fer
ĠLa tin
Ġpaint ings
ĠI nt
Ġ4 9
âĢ¦ ..
Ġpossess ion
Ġbri gh
Ġmo net
te ous
Ġre fers
ĠFo llow
Ġsupp lier
Ġseem ingly
Ġsub tle
ation ally
Ġaf fairs
Ġ4 7
Ġfor tun
gra de
Ġread s
x x
jo r
Ġmodu le
Ġr ug
AS E
Ġint u
Ġtru cks
vera ges
ĠE VER
ĠS C
Ġfortun ate
Ġta il
Ġa st
ro ne
Ġoffe nse
ĠFin ance
are n
ĠM ind
Ġsun ny
ï »
Ġph arm
6 9
ĠC L
Ġint ake
t ire
ĠG M
ï» ¿
Ġwall paper
ĠLi ber
Ġimp lications
Ġbor row
p iece
Ġanaly ze
Ġmusic ians
Ġsh out
ĠSta tion
Ġlo gin
d oned
Ġmut ual
Ġliber al
Ġsome time
ON E
Ġecono m
Ġwra pped
Ġinf la
clo sure
Ġau ction
Ġdro pping
R C
ĠT ips
ĠB ridge
Ġtro ops
ĠTy pe
Ġigno red
Ġconf using
Ġpro spe
Ġwi nds
Ġna ked
n ically
ĠW ol
Ins tead
k m
Ġro yal
c key
Ġsing les
vent ions
Ġarran ged
Ġbra ve
ver e
ado r
nder ed
Ġd ic
Ġear ning
Ġapp liances
Ġfranch ise
Ġwell ness
ĠI mpo
Ġlaugh ed
Ġb icy
ĠP ot
Ġcon fe
o nions
Ġspo kes
Ġresol ved
ĠL OL
Ġcost ly
ĠO il
ĠSa ve
Ġ4 4
Ġhe al
Ġm ush
Ġsol ving
aro n
gni tive
F urther
Ġsha de
abe th
ne a
ar ound
nce r
ĠJ un
ĠM oon
Ġuni versal
f low
ra ine
ĠMe eting
Ġvisit o
p i
Ġpod cast
Ġvisito r
ni x
Ġcolle ges
b ally
o ll
ĠA venue
i OS
L O
off s
o ngue
ĀĀĀĀĀĀĀĀĀĀĀĀĀĀĀĀĀĀĀĀĀĀĀĀĀĀĀĀĀĀĀĀĀĀĀĀĀĀĀĀĀĀĀĀĀĀĀĀĀĀĀĀĀĀĀĀĀĀĀĀĀĀĀĀĀĀĀĀĀĀĀĀĀĀĀĀĀĀĀĀĀĀĀĀĀĀĀĀĀĀĀĀĀĀĀĀĀĀĀĀĀĀĀĀĀĀĀĀĀĀĀĀĀĀĀĀĀĀĀĀĀĀĀĀĀĀĀĀ ĀĀĀĀĀĀĀĀĀĀĀĀĀĀĀĀĀĀĀĀĀĀĀĀĀĀĀĀĀĀĀĀĀĀĀĀĀĀĀĀĀĀĀĀĀĀĀĀĀĀĀĀĀĀĀĀĀĀĀĀĀĀĀĀĀĀĀĀĀĀĀĀĀĀĀĀĀĀĀĀĀĀĀĀĀĀĀĀĀĀĀĀĀĀĀĀĀĀĀĀĀĀĀĀĀĀĀĀĀĀĀĀĀĀĀĀĀĀĀĀĀĀĀĀĀĀĀĀ
Ġinfe ctions
Ġdesig nated
ĠH E
Ġwai ted
Ġpe nsion
t win
Ġmake rs
Ġpa nic
Ġgenuine ly
Ġad verse
ino is
G A
ic kets
Ġsn ack
Ġtee n
ow a
Ġ onion
ĠT ree
Ġ onions
Ġdisclo sure
Ġvie wers
Ġcho r
ĠAN Y
t ongue
rda n
ĠAny one
Ġg rid
Ġmechan ism
Ġagricul tural
tern ity
Ġbe sides
Ġsqu ee
gu ard
C lo
Ġte nds
Ġreser ved
Ġbe n
Ġpoet ry
gare t
Ġglu ten
Ġox y
ĠAd am
Se cond
v ised
Ġclea ned
ĠN ick
Ġnar rative
ke ns
Ġexe cution
Ġadvoca te
o z
Ġcon vey
h oods
Ġbreath e
Ġattend ance
Ġacquis ition
Ġb ones
Ġr uling
Ġleg ally
Ġpasse nger
ĠS S
ĠA ttor
Ġtax pay
g les
dle r
Ġstra w
ĠGet ting
ĠCance r
Ġcare s
ĠSy dney
ĠD E
ĠC OM
Ġne uro
ĠCrea te
Ġp rie
Ġsupp lied
b ury
Ġintri gu
ima ted
ĠF ac
ĠR yan
Ġre actions
Ġstro ke
Ġph arma
si bility
Ġa stro
Ġvalu ed
na nts
k ind
ĠCh oose
Ġimp ress
Ġrequ iring
eed om
Ġrefle ction
d ue
Ġshe ll
Ġdispo sal
Ġas sure
ĠBel ow
Ġneed ing
Ġagricul ture
Ġstress ful
nab is
Ġin du
Ġverif y
Ġco tton
Ġsurv iv
ĠCo st
ĠW is
Ġcreat ures
Ġint imate
Ġmed itation
Ġte nsion
b acks
Ġqual ities
Ġsi nk
ĠO l
Ġswea t
Ġdra g
Ġgive away
ĠG ue
Ġj acket
ph o
ĠR ay
Ġbroad cast
S ure
ĠD eath
d ale
Ġreve als
Ġmod ified
5 8
Ġclim bing
hol der
I E
Ġeth ical
Ġsis ters
ĠH R
5 7
Ġme l
ĠSe x
Ġj am
ĠB B
niz ing
Ġga ining
Ġvar ied
Ġacre s
Ġrad ical
Ġth rew
Ġmer e
mind ed
Ġbi tter
Ġex port
Ġse nti
ef fective
Ġtri m
g ling
Ġa ging
Ġprof ound
Ġeduca te
p l
Ġdeva sta
Ġcolle ctions
Ġ tire
Ġta gs
Ġope rator
k ward
Ġpo ster
ni te
Ġobser ve
ĠIn no
va nia
pen sive
ĠU k
ifice nt
EC T
gr eg
o ste
sse rt
ra m
ĠCh ee
ĠB ody
ĠLea ve
ĠFor est
ce utical
Ġfo ld
Ġgrow s
Ġcry ing
co ny
ber ries
ĠNa ture
t ted
I ST
ra py
Ġra tings
Ġbound aries
ĠCl in
** *
d r
Ġse ller
ĠReso urces
Ġauto mated
dee s
ni us
Ġreser ves
ĠN one
ur ious
Ġ cm
Ġma gazines
no te
Ġdeter mination
M eanwhile
Ġsui ted
chan d
IT Y
T C
ĠD rive
Any one
Ġsatell ite
Ġbu ff
Ġplace ment
Ġ tongue
Ġmecha nical
am in
u ver
ĠProdu ct
s so
Ġro cks
Ġbar gain
Ġcor ruption
Ġcup s
Ġintera ctions
om ation
ili pp
ĠC AN
ĠBirth day
F A
Ġmatch ing
ĠPar liament
AL LY
Ġdest inations
sp read
Ġexclusive ly
Ġdent ist
ĠP ub
Ġune mployment
de nts
Ġlo cks
Ġjud ges
Ġf t
Ġcap ability
Ġwit nes
Ġjur is
Ġstre ssed
Ġly rics
F ollowing
Ġinstall ing
b ea
S imp
il ation
Ġaffili ate
Ġfoo tage
cl ick
Ġbar riers
Ġla zy
u ct
20 15
Ġpas te
Ġb ust
Ġco sme
x e
Ġta ttoo
ĠEnvironment al
che ck
Ġsm iled
Ġclose t
Ġundersta nds
ĠDo g
Ġpro spective
Ġafter wards
Ġjump ed
U D
Ġsh y
Ġ cum
v ard
Ġlaw n
Ġbase ment
ns ure
ale rs
pr ises
Y et
Ġsim ulta
ĠJo in
b reak
Ġrela tives
Ġle isure
ĠBro ad
ĠE r
a a
ĠDo ctor
ĠS ale
ĠK ent
ist ical
Ġclose st
t itled
Ġover look
Co uld
Ġm um
Ġse am
ĠComp uter
Ġautho rized
Ġdisappe ar
Ġen roll
ĠMem bers
ĠVal entine
Ġtransfer red
Ġenthusi asm
Ġ iOS
Ġeduca ted
chan ging
Ġflu id
A sk
Ġclaim ing
Ġpublic ations
G a
â Ĩ
Ġappe aling
lin ary
Ġhi ke
Ġsho cked
Ġu gly
Th ree
Ġincor rect
Ġla p
Ġ twin
p ack
ah oo
Ġex ter
min als
ĠJa ne
ĠB ath
P al
se ason
ĠCe n
Ġglo ry
T op
lo ve
Ġste m
ne ath
f unction
ĠO cean
Ġ twi
ĠDa ve
t il
Ġy ield
ĠFil m
j ud
Ġgot ta
Ġcool ing
ve nts
pe l
ĠS ix
Ġch ip
Ġla ser
Ġbul k
j i
ĠSil ver
Ġaban doned
Ġh iding
lie st
Ġthro a
rica ne
Ġtu be
Ġchar ging
ĠMo nt
Ġha zard
ĠEx perience
ĠL ED
Ġsta irs
Ġvol unt
qu arters
no un
F C
Ġreceip t
ĠS ay
Ġth eft
Ġm ud
oo p
in son
ister ed
Ġb und
Ġconsul tant
ĠB BC
Ġse mester
Ġprom ising
ĠTo ny
Ġtact ics
Ġtre asure
Ġ4 3
Ġident ification
Ġprodu ces
ac u
Ġbrow sing
P D
ĠC amb
Ġchar ming
t od
Ġgra des
Ġsoc cer
Ġprof iles
Ġen abling
Ġbla st
yl vania
Ġfl ip
t ower
ĠSy ria
Ġin cur
Ġ199 7
Ġcompo sition
per ed
Ġtable ts
ĠW ars
Ġhe nce
ĠP H
Ġgu ided
Ġco pe
Ġ4 6
Ġread ily
Ġprevent ing
ĠSen ior
Ġrank ed
Ġb rid
ĠApp lication
Ġthroa t
Ġpat io
Ġcir cuit
ĠN FL
na tural
Ġrob ot
Ġcontrib uting
Ġdr unk
b et
Ġf ed
ob acco
e specially
Ġro utes
Ġbathroom s
Ġin sa
Ġprom inent
Ġprize s
ĠPakis tan
ĠF oot
P lay
Ġcontro versi
z abeth
Ġkno ck
iv ities
Ġgent ly
all as
ĠT aylor
Ġbene ath
p ur
ĠAlex a
Ġhomeow ners
da tory
B O
Ġmet r
iff s
Ġlis tened
Ġsh ine
Ġca nt
5 6
Ġmetr e
Ġin cidents
Ġprofi table
ĠBea utiful
Ġconference s
Ġmar ry
she s
mo unt
Ġcontin ually
C L
Ġdesire s
ĠCent ury
Ġasse mbly
N ice
Ġoffering s
Ġdevo ted
He lp
Ġtomat o
Ġpr is
bo ards
Ġconcent ration
ĠWo nder
ĠColumb ia
l ve
Ġte mpo
Ġda ughters
Ġreser vation
Ġsi zed
nat o
Ġde s
Ġwor ries
Ġstrength s
Ġunifo rm
Ġexp licit
igh ters
inat o
Ġawa ke
sp ace
ĠSto ck
b ie
Ġcompa nion
Ġaffect ing
Ġd ash
Ġ ....
Ġexecut ives
D own
F F
Wo rk
ĠB row
ĠB all
Ġpra ise
Ġ5 2
tche r
Ġcar ries
io ne
mo uth
ĠA ut
Ġlabe ls
Ġcompe ting
ĠViet nam
ter al
ĠKorea n
ĠS A
Ġd urable
ĠAn aly
Ġmi t
cto ral
Ġten de
ĠK ar
so rt
ĠM Y
Ġclar ity
t oll
ud io
ĠM etro
ĠB ring
Ġre jected
Ġshi pped
Ġp ile
Ġnutrie nts
Ġcatch ing
ĠIll inois
Ġstri p
ĠAd ditionally
Ġapproach ing
ĠO P
ĠU ser
ĠProdu cts
ĠB rian
Ġver sus
Ġmo ld
Ġst reaming
Ġassoci ate
b ound
IGH T
P ut
The ir
Ġscholar ship
Ġ woods
are r
e med
Ġcab in
f ted
Ġconsu me
Ġprem ises
ind a
Ġassu med
Ġ199 6
Ġlo unge
Ġmod ify
Ġste al
over nment
Ġfo ught
t id
eyo n
Ġsh adow
Ġtra ils
Ġd up
Ġcontinu ously
ĠN umber
Ġk iller
Ġter rorist
Ġexhib i
Ġfa tal
Ġgradu ally
En joy
Ġve terans
Ġr ab
Ġexhibi t
Ġa nonymous
Ġapplic ant
Ġjump ing
Ġdete ct
ob ody
ut ter
Ġth y
C S
Ġprivile ge
ĠWar r
8 7
solute ly
id a
be lie
nis tan
Ġpartner ships
Ġvio lation
Ġaw kward
Ġrefle cts
y p
iso de
mat o
Ġope rates
Ġpick up
Ġwa ges
Ġemb ed
M ed
Ġdepart ure
Ġalle g
Ġacco mpany
ns ylvania
t v
ĠSt one
be ring
ĠT reat
Ġdisp ute
Ġenha nced
Ġemp ower
Ġbla nk
T ru
Ġdist ur
Ġtrick y
ĠC ust
ĠW ales
eyon d
ĠF ive
Ġdis ad
Ġmo le
p ool
ala xy
uck ily
l ink
ĠGo r
ĠD NA
Ġhum ble
Ġlo vers
G ra
Ġpo se
Ġpre scribed
ĠIndia na
Ġle cture
ĠMa gazine
D ear
ĠMay o
Ġra ted
inato r
ĠCon sider
Ġshor e
la mic
rta nt
Ġun for
cla im
Ġso ap
Ġtranspare ncy
Ġin sis
Ġf ue
Ġlaw suit
Ġscree ns
Ġbelon ging
va tives
Ġre lo
ĠLe o
c ies
Ġcro p
Ġrefer e
Ġre si
b ye
ĠM oto
Ġprin ter
Ġoccasion al
ĠPro perty
ĠMa king
Ġexplo ration
Ġanswe ring
able s
tra tion
Ġlo ver
cess ion
ĠC am
Ġpre view
Ġimpo rt
Ġinterpre tation
ĠBe sides
ĠFin ally
Ġhar vest
Ġlog ical
ĠSome one
d iction
ge ts
b ean
Ġmet ab
Ġpara meters
20 12
Ġimmig rants
P L
Ġconta iners
Ġinv as
row s
ot t
ner ally
Ġinvi tation
qu ake
Ġsoc io
Ġshe lf
ĠOre gon
Ġcon solid
Ġno tion
Ġun limited
Ġgradu ated
Ġtw ist
8 9
Ġ4 1
Ġwar rant
N eed
Ġdark ness
No thing
Ġde m
R ep
so ry
ife r
Ġut ter
wri ter
Ġau di
Ġsuggest ing
o me
Ġtran sit
Ġgra m
Ġm all
ĠH ear
Ġk is
n cially
f ather
Ġj ury
ĠF R
ĠAutho rity
Ġwor lds
Lo n
Ġhe y
ha ha
Ġappoint ments
e k
Ġdeterm ining
Ġloo p
Ġsurprising ly
g mail
ĠWh atever
is ted
Ġnot ification
Ġrepeated ly
Ġmetho do
Ġtranspare nt
c ke
Ġf ate
Rese arch
Ġde ssert
Ġthrea tened
nis ms
Ġindivid ually
Ġ( âĢľ
Ġ tod
Ġjournal ists
Ġalbum s
Ġman ifest
fer e
ĠJew s
ĠU ntil
Ġob taining
Ġro unds
Ġdeli vers
ĠDire ct
ĠA I
ĠProf essor
Ġbo nds
ro be
Ġanticip ated
ust ic
Ġnegot iations
Ġde sert
m ia
Ġtale nts
Ġcorpo ration
ea se
Ġr ings
ia tric
ĠOther wise
cor n
S uch
ĠFor um
ĠCon vention
Ġm ise
ne ous
p al
Ġinstru ctor
ĠBro ok
ĠG irls
ĠEx press
Ġrepl acing
Ġperce ption
Ġport able
ili tation
Over all
de ns
Ġrecruit ment
Ġnon profit
ĠAttor ney
Ġreceive s
Ġassu ming
ĠE st
Ġabo rtion
Ġshow case
Pr of
Ġcar rier
Ġbi kes
Ġboa ts
ĠApp ro
Ġasse mble
Ġpri nts
Ġ ties
W E
ig ue
qu al
Ġb un
Ġdra matically
Ġso ns
Ġfree lance
Ġg est
b rid
Ġpar alle
Ġp acking
Ġcomp act
Ġpromo tional
g ined
Ġsecur ed
Ġpre ced
Ġcomplex ity
so ta
Ġsepar ated
Ġin con
ic ken
ĠHa wa
Ġr h
N E
ematic s
ĠP L
ill ance
5 2
Ġdiscre tion
men se
M ich
ĠPalest in
Ġhu ma
al ous
ia nts
Ġfree ly
ĠW ILL
Ġ sq
Ġface book
as ters
Ġfo n
Ġ3 60
z i
Ġseason al
Ġhome made
Ġent ities
Ġk iss
Ġter rific
Ġemb ra
ĠON E
oo ms
Ġd umb
Ġal umin
Ġkey words
ĠInter est
Ġhapp ily
ĠP rin
wa nted
Ġparticip ated
Ġda iry
Ġmake r
ĠAsse mbly
ĠIs lam
ĠAfgha nistan
ĠYou th
) ?
ĠA nt
Ġpract ically
Ġrestric ted
Ġgra titude
Ġdee med
Ġchar m
Ġster eo
hol ds
ĠW ays
Ġfla vour
ĠFi t
Ġappro pri
Ġavo iding
Ġloc als
fo ld
Ġmagn ificent
Ġanaly tics
ĠWri ting
ro e
Ġachieve ments
Ġattra cted
Ġg lance
se ts
ĠO rigin
Ġth umb
ĠStand ard
Ġmas k
ĠF arm
co very
ce p
nato r
Ġ toll
Ġcou pon
Ġar bi
ful ness
Ġsho rta
Ġz ip
Ġtwe lve
Ġm m
ĠAct ually
Ġe aten
ĠKe vin
Ġ tower
Ġtra ged
Ġelect ro
ĠPh ila
side nts
Ġve gan
Ġpath s
P ay
bour ne
ĠSta ff
cha in
Ġg al
de lph
Ġj ar
r as
Se n
ĠS ide
ĠIsra eli
ĠA ppe
Ġven ues
] ,
ĠPart ner
w art
ĠW ik
Ġconstru cted
Ġlis tings
Ġhas sle
as ant
tra ns
Ġdef eat
Ġfundra ising
Ġre spected
S ta
Ġma iling
igo rous
ĠPh ilipp
AC T
Ġimp la
Ġincl usive
Ġsign als
Ġfu neral
Ġsum mar
Ġwelcome d
Ġnewspa pers
ĠF red
Ġcom miss
bu ilding
Ġoptim al
IC K
? âĢĻ
Ġmet ro
Ġsca m
Th ink
Ġrefresh ing
Ġtra uma
Ġcompli mentary
ia ting
ĠCons ul
Get ting
um mer
Ġestablish ing
ĠB ooks
Ġattra ction
Ġcollabo rative
Ġman datory
ee ns
Ġsol ved
Ġmer chand
S y
ĠRest aur
ha ppy
Ġfinance s
Ġfol k
Ġregard ed
ĠHen ry
Ġmay o
Ġim mense
Ġfunction ing
Ġencour ages
Ġrecy cling
ge nous
Ġre ver
ĠSta t
ear ly
Ġsmooth ly
va nced
Ġvete ran
Ġpic ks
ĠDan iel
Ġstri king
Ġbal cony
7 9
Ġban ned
ĠM ORE
t orn
wor kers
Ġbr ut
Ġpo ker
he never
ar ia
Ġsub stitute
Ġstart up
Ġwor e
Ġun f
Ġdefen sive
T u
mo rs
c co
ĠPen nsylvania
Ġsen iors
f irst
ĠW OR
ĠL abor
Ġtra ditions
ĠSho rt
Ġa nth
Ġho bby
ay a
ĠA B
ĠD ue
ce llent
ID S
te nces
ĠVe n
ĠKi tchen
: )
Ġcount ing
Ġelectron ics
ĠL t
Ġ tid
b reaking
P ar
Ġgr asp
he lp
in f
Ġne arest
li mate
Ġment ally
Ġsubmit ting
Ġconsu ming
Ġrad iation
Ġvac u
Ġmar ine
ll ation
Te ll
Ġ7 2
su p
delph ia
ĠF riend
Ġce nts
in ten
ĠV ice
Ġconcent rate
ĠLe vel
He alth
st ics
ĠJose ph
Ġinsa ne
Ġinflue nced
Ġwo ke
ĠAust in
ĠR SS
Ġbio logical
St ay
Ġinvest o
ow ned
ĠEar ly
Ġinvesto r
Ġfrust rated
Ġj eans
Ġfina ncially
Ġen cry
ĠS ty
h ar
Ġhum id
Ġbr ick
ĠBur eau
over s
ut ors
ric ts
vat o
ĠC N
Ġsp ar
Ġlea f
Ġbe ta
ĠOrga nization
ĠR ather
ĠAtla nta
ĠIn i
5 4
Ġ orch
Ġbran ches
Ġbur ied
ilan d
Ġcom mented
io ts
ĠAff airs
Ġmid night
Ġlo bby
ĠC ry
Ġhono red
Ġcondu cting
8 6
Ġmo bility
f ts
ĠH ur
Ġsor e
isa n
Ġrespon ding
l ad
po ns
B et
Ġwi nes
Ġbe ll
Ġ19 50
usa n
Ġbe side
Ġb ay
Ġloyal ty
Ġter race
U C
Ġnight m
ĠA nth
Ġfrust ration
Ġgam bling
iz z
Ġsm iling
Ġpresent ing
Ġoption al
ĠSu ccess
Ġvitamin s
Ġprose cut
dit o
Ġsuc ces
Ġtax i
Ġphenome non
Ġapproach ed
Ġbu mp
Ġdecl ined
Ġupd ating
Ġque ries
ĠEx change
Ġwin gs
era py
Ġknee s
Ġfit ted
ĠCon tent
Ġform ation
e ma
e very
ir ds
Ġoxy gen
Ġra pe
Ġnur ses
is y
Ġpropor tion
Ġtrave lers
Ġse ating
ĠCle ar
mp tions
Ġesse nce
now ned
ĠO ak
Ġsacrif ice
ĠC ab
teri al
wal k
Ġaccur ately
ĠC S
ch ildren
ĠBa sed
ip edia
Ġdri ed
o v
" )
il ize
ĠNE W
ĠA nti
ĠBe ne
Ġre treat
Ġb out
Ġwide spread
Ġco t
Ġins ul
P LE
Ġtra vels
ĠAtla ntic
Ġess ays
Ġa while
Ġun fair
Ġno vels
ro t
sho r
li hood
Ġf et
Wa tch
Ġdelibe rate
Ġload ing
ĠBan g
Ġscenario s
Ġcontroversi al
ĠE mploy
ĠL E
Ġba tch
mo nds
ĠCo nce
se ll
ĠSo und
ub tedly
Ġbrea ch
gra ts
ĠImp ro
le ading
Ġcolor ful
Ġcro ssing
ĠSol utions
Ġdele ted
ĠO range
Ġ wre
O O
Ġback yard
Ġencounter ed
OU N
ĠCreat ive
Ġconv icted
Ġquo ted
ra h
Ġlea n
Ġ199 5
Ġgene rating
Ġsurrounding s
Ġte nt
Ġpup ils
pe ut
Ġsqu ad
Ġgradu ates
Ġicon ic
ĠLo ts
Ġinde pende
tra ck
Ġgl imp
Act ually
h r
Â »
f ish
Ġmino rity
Ġcomp uting
Ġre un
se nse
9 6
Ġcon stra
Ġpre ssing
Ġpro pa
dri ven
Ġdo nated
io sity
7 6
Ġair line
ĠMan chester
Ġven dor
ĠJ am
ĠI ss
Ġpract icing
co nce
Ġassign ments
Ġa nce
ĠD allas
she r
ĠHA VE
ĠFore ign
spe ed
f ly
Ġac cred
is ting
Ġres il
Ġproceed ings
Ġback grounds
Ġmento r
Ġmaxim ize
N OT
Ġf ib
Ġ titled
AC K
ĠPrem ier
Ġrub ber
Ġhigh way
Ġintim id
gene ration
Ġextra ct
Ġin ser
Ġintegra te
ĠP ass
ĠMex ican
Ġpa sta
Ġca ter
ĠF IG
Ġstrugg les
t oes
g lish
Ġcust ody
Ġpla tes
Ġbroa der
ĠLe s
Ġcom man
Ġversa tile
T E
Ġkind ness
Ġlibr aries
orie nted
Ġjun ior
Ġque ry
Ġgover nor
Ġstrict ly
dito r
Ġcan nabis
Ġinevi table
ĠM O
Ġper se
ĠGl ad
e spon
Ġpr est
5 1
ĠMinne sota
Ġcompat ible
Ġnation wide
ĠB uff
Ġconf ront
ĠCa pe
Ġco w
Ġgover nance
Ġchar ts
Ġemer ged
Ġsee ks
ge th
Ġschedu les
ta h
Ġride s
Ġnot ified
Ġcomplic ations
Ġur gent
Ġorie ntation
D ue
col n
we b
ĠK ate
Ġca ta
Ġreli ability
so urce
Ġsurv ived
Ġanx ious
Ġemotion ally
âĢĿ )
S ep
Ġdr ew
Ġspon sored
St art
al though
Ġnav igation
sa ch
ey e
Ġcy cling
Ġfla vors
Ġphys ics
Ġgradu ation
Ġconside rably
gan da
Ġbu zz
geth e
Ġsp reading
Ġconte mp
ĠN ation
Ġavo ided
ĠWe lcome
ita tive
gethe r
ĠIs lamic
h ad
nt ario
. ]
Ġredu ces
Ġoverwhel med
Ġre venues
io tic
Ġcomprom ise
ĠD ream
Ġ199 4
Ġcalcul ated
Ġb ree
Ġsy ndrome
ĠC P
Ġatta cked
Ġthought ful
O pen
rit is
c led
Ġvariable s
qu a
Re ally
ĠSc ient
Ġhar assment
ĠJo n
Ġtro pical
ĠPa per
Ġcounsel ing
Ġsen tences
ĠE ither
ring s
ĠCo ach
ĠPr ep
Ġcabine t
wa tch
Ġinvi ting
With out
Ġevol ved
ĠE sse
Ġsignifica nce
Ġul tra
aso ning
Ġmeas uring
ĠK elly
Ġintern ationally
Ġco gnitive
Ġprov ince
Ġkick ed
Ġsi bling
Ġst ones
iva ting
5 3
Ġargu ed
Ġca ve
Ġpur ple
ĠPa n
Ġam bit
Ġsubsta nces
Ġfir ep
Ġaccording ly
Ġequ ality
Ġorgan ised
ĠGo ing
Ġchallen ged
ay e
Ġpri nce
Ġpo und
ĠK ansas
Ġfar ming
Ġve t
Ġtex ts
Ġre ne
ĠTr ue
ĠStep hen
ĠM ate
Ġm unicipal
ĠMa th
t zer
p ira
in ity
Ġind ication
ĠU r
tr ess
Ġfac ial
ĠCont ract
Ġfle et
Ġgan g
Ġsta ting
ĠJo rdan
Ġexis ted
id o
lic ate
Ġatten dees
Ġre vol
Ġdime nsions
Ġrefugee s
qu is
Ġcle ared
Ġstrugg led
ĠD ow
Ġresto ration
ile y
ĠTo gether
Ġreser vations
T O
C ol
Ġlaunch ing
Ġclassi fied
Ġhighl ighted
lic ity
Ġh ilar
di genous
Ġbehavio rs
Ġident ical
ĠPort ug
ĠAny way
Ġreach e
Ġve gg
st ick
al so
Ġ owe
20 14
Ġed ges
ede n
uch e
Ġuse less
co lo
g led
ĠDe r
Ġligh ter
f ting
Ġa men
Ġconse cutive
Ġquiet ly
Ġind ul
ad ium
Ġep ic
un ate
Ġperce ived
ĠF BI
Ġspecific ations
Ġminim ize
Ġtur no
Ġreache s
Ġd ili
Ġco zy
ĠWed ding
Ġrespective ly
Ġunder ground
cha ir
ic ular
Ġher bs
Ġworry ing
Ġel abo
ĠMo dern
ĠPro bably
Ġfle sh
Ġpsycho logy
ĠR i
ct ures
Ġterror ism
sach use
Ġcont rary
ĠL arge
Ġspec ify
Ġinqu iry
lish ing
, ...
ed i
Ġbur ned
shor e
w allet
Ġanim ation
Ġencourage ment
Ġcan vas
S up
Crea te
Ġinex pensive
Ġde scribing
ĠSe lect
ia na
Ġtherap ist
Ġfon d
Ġsen ten
ĠP ast
ca kes
Ġstri kes
Ġcu is
M ENT
Ġse wing
spe r
Ġout lets
ĠN AS
T R
Ġima gined
Ġdr esses
sachuse tts
Ġre ck
sol ution
Ġfra mes
tho do
Spe aking
De velop
g us
Ġorganiz ing
ĠPhila delphia
iso ns
Ġret rie
Ġno o
Ġp ix
Da vid
P s
Ġteache s
Ġincorpo rated
Ġcentre s
Ġecono mics
ĠThea tre
t owe
ĠMed ic
Wh atever
as se
ĠCa se
Ġcompe tent
Ġadj usted
ĠL ow
mm ation
Ġre viewing
Ġmind set
ĠRep rese
sk i
Ġlo ngest
Ġpursu ing
ĠOlymp ic
ĠA da
s ar
Ġe va
ph ic
Ġra nks
Ġcost ume
Ġhospital ity
Ġearth quake
ĠD J
Ġtechnic ians
Ġcur ve
Ġsne ak
Tra ns
Ġhar dest
ĠNa vy
sti tutes
Ġsimulta neously
Ġarri ving
as k
Ġprov o
t ine
ĠO c
ch em
Ġrent als
Ġh int
Ġa in
ĠClea n
Ġspeed s
si tive
Ġsatisf ying
Ġ5 6
Ġsu ck
Ġfe ver
Ġphysic ians
Ġpo sses
Ġambit ious
ĠGree ce
Ġ torn
S i
Ġprote ctive
Ġpet ition
Ġoptim ization
Ġma te
ĠL ice
R ea
ĠNige ria
ard o
Ġclea ner
he ld
sh ow
f lix
Ġgrand mother
igh ten
u ous
ĠA u
Ġmyster ious
Ġintrodu cing
ĠUn less
Ġprofession ally
c ub
Ġde cor
Ġincl usion
b ian
Ġfor tune
ĠN OW
Ġorganiz ational
Ġab stract
Ġth rive
Ġbul let
Ġre ject
Ġexecu ted
ĠUS B
Ġste ep
Ġmons ter
Ġre cur
Ġact ress
wri tten
Ġin k
Ġwish ing
ĠF ront
ĠOth ers
spe cific
nu fact
art ial
i ary
Ġmanufact ured
edu le
ta ins
ra mic
Ġter rif
Ġconver ted
Ġsh aped
ĠMa il
ĠScience s
Ġcor ners
Ġb ass
Ġcharac teri
ĠOf ten
Ġfloo ring
ĠO x
vato r
t ick
Ġtu ition
lic al
r b
Ġre tro
ĠK ee
Ġcho le
Ġse vent
8 2
ĠC ree
Ġfra nk
s porting
Ġcon sole
ĠQu ick
form ing
ar ity
is tering
Â Ķ
Ġmoment um
N et
Ġpuzz le
S cript
Ġter minal
Ġalleg ations
Ġ towe
Ġr ally
ĠMc C
ĠD ri
Ġadd ic
Ġv iable
Ġdis k
Ġpun ishment
Ġbea ting
I B
Ġexpen di
ra d
fort unate
ĠClo ud
Ġro lls
ĠMa gic
ew is
Ġreported ly
Ġli able
Ġwin g
Ġobstac les
Ġsco ring
Ġinten sive
tha nks
ĠSep t
Ġunce rtainty
ĠEli zabeth
ĠMore over
Ġexecu te
Ġblo cked
Ġqual ifications
Ġconscious ness
p ass
ĠF ield
ĠBar b
Ġru led
ier ce
Ġport al
ĠI ron
Ġle verage
Ġout lined
Ġaut omation
7 2
cha nt
Ġsurve ys
ill o
Ġgra in
Ġr ational
G R
Ġman ually
cor ds
Ġf are
Ġrefle cted
Ġaf fair
Give n
Ġappe t
Ġdecide s
ro o
me l
ĠLe gal
wh y
Ġconsis tency
co st
Ġadm ire
ĠE ll
ĠS l
am ing
ĠSch ools
Ġal ien
Ġba ked
in come
ge tic
ĠR O
So cial
Ġbe aring
rific ation
Ġfor t
ĠDa vis
E nter
Al ways
Ġna sty
b n
Ġdisco ur
Ġsur gical
Ġpop ulations
Ã ¡
Ġobser vation
Ġclo uds
ĠS now
Ġd ual
Ġmerchand ise
Ġindepende ntly
Ġdemocra tic
Ġstruct ural
ĠW rite
Ġdist ricts
Ġcompar able
L ooks
ĠS na
Ġmo b
Ġ wil
Ġhea ted
Ġtouch ing
ĠM ass
Ġrelax ation
ĠI F
Ġper mits
Ġfirm ly
Ġb less
Ġjust ify
Ġlabo ratory
Ġ5 1
ĠWo man
Ġflo ating
Ġ sporting
Ġvacu um
Ġrep ay
ĠR od
Wor king
ĠD utch
IN E
pe ts
ĠF ea
ĠBe ll
ĠSimp le
ĠA mend
Ġ twitter
ĠPh one
Ġvar iations
Ġst ack
Ġp p
vis ible
Ġgra y
m aster
t obacco
Ġinteg ral
Ġwithdra w
Ġexter ior
V iew
f ive
ste em
O ff
Ġda ted
Ġpromo tions
Ġvo cal
cono mic
Ġal together
h ill
qu el
Ġis lands
Ġ wallet
r ms
w rest
ĠMat thew
nk a
ĠC B
Ġen rich
Ġrecogn ised
pe ople
ne ed
Ġso cks
Ġal ar
ĠC uba
Ġmetre s
ĠJ ason
ĠPatr ick
Ġun con
Ġphra ses
be st
ĠMal ay
one rs
Ġcompe ns
Ġhas h
Ġbrief ly
Ġcomp ound
Ġout line
ĠFe b
ĠMemo rial
co urse
F ra
Ġlea k
Ġunder neath
Ġsepar ately
Ġbuil ds
na ting
Ġel ite
Ġsh eep
Ġsearch e
Ġmix ing
We b
Ġstra nger
Ġsusta ined
ir al
OR T
Ġcou sin
ĠC ut
ĠE ric
Ġch ill
co uver
Ġpro s
ma tory
Ġcustom ize
cide nce
Ġaccount able
ĠA mong
ĠG ift
Ġdeco rated
Ġne wer
ke eping
Ġapolog ize
appro priate
ib bean
con sin
Ġtrans formed
mp ions
ĠBit coin
c ience
Q U
C R
Ġwon ders
ĠB ear
Ġre ct
Ġra mp
gree n
Ġingred ient
ĠM iller
Ġci ted
ne ll
Ġmonet ary
ĠLab our
Ġdelay ed
Ġp ools
li co
Ġnot ify
ĠS ir
Ġpl umbing
Ġsimple r
ĠAl terna
Ġspe cially
Ġdead ly
peut ic
Ġho mo
Ġking dom
ĠBl u
g lo
ĠCo mpanies
as a
Ġdescri ptions
Ġsc r
ling s
io tics
ash ioned
Ġtra ins
ĠMas sachusetts
Ġmode st
wh ite
ĠWal k
ms ung
C al
Ġsch emes
ment ation
ĠCour se
ĠD un
Ġin hab
Ġcir cles
Ġj et
ĠJ r
ĠElect ric
B ig
Ġdis mis
Ġde sce
Ġlan ded
ĠUS D
Ġkid ney
Ġj ack
Ġcon sen
ĠD uration
oo oo
ca sting
Ġreal ised
In de
ĠMo de
Ġstruct ured
Ġundo ubtedly
U RE
ĠP hoe
Ġadva nces
so ever
Con gratulations
Ġre porters
ĠTa n
Ġacces sed
ĠJo sh
Ġ5 7
ĠWith in
in ar
ste rol
Ġconsul tants
Ġpu ppy
ĠO ntario
mploy ed
out ube
Ġse al
ĠDo ug
ĠG ran
ĠDe sig
ĠBa se
Ġconflic ts
Ġre vis
g li
ĠMo del
Ġas ses
Ġsurve illance
Ġfe as
o uter
u i
Ġmeasure ment
Ġf ut
Ġdefe nce
p lan
Ġho ly
gr e
Ġpractitio ners
Ġspi rits
cha se
Ġpotat o
ï ¸
Ġprompt ly
ER Y
Ġhouse holds
ud a
Ġwo und
Ġvisi bility
Ġsun shine
Ġfil ters
Ġdime nsion
com fort
Ġmoist ure
Ġcr uel
Ġlux urious
Ġe igh
ĠE dition
Ġl un
Ġ tobacco
Ġedi ted
u ke
ĠP ara
Ġner ve
ĠH op
. -
u matic
st r
ĠSe veral
ĠB rea
Ġinter pr
ĠS tri
Ġresto red
ol ine
Ġe sc
Ġglo bally
lo ts
Ġac ute
ĠR oge
ĠEve nts
Ġkind ly
Ġspe lling
p tic
Ġcon dit
ir k
Ġcha os
p op
ĠBl ood
ĠGol f
et ings
ĠA vailable
Ġlast s
Bea utiful
Ġtraged y
ĠO w
Ġcon dem
Ġcri tics
Ġmedic ines
A m
e lla
Ġba con
Ġsuspe nded
ĠR ub
Ġim pe
tes y
Ġst icking
ĠLin ux
Ġun wanted
ĠPract ice
ap ing
Ġsuspe cted
Ġsound ed
ĠG rea
Ġmar a
ĠLin coln
Mo n
qu et
ĠD ump
Ġsc al
ĠL ooks
Ġsp ite
Ġcollap se
Ġqu icker
Ġje alous
man ship
Ġcha pters
Ġpo wered
Ġneces sity
ch ers
Ġadjust ments
Ġaccount ability
pa id
ĠCap tain
ĠV ar
Ġqu ilt
Ex cellent
h is
Ġpharma ceutical
Ġmine rals
ĠDis ease
K now
Ġpart ly
fic ation
Ġtur key
Ġproces sor
Ġteenage rs
Ġgu ilt
Ġarri ves
Ġdrawing s
Ġlegisla tive
ĠDI Y
ĠG al
Ġste ad
Ġ3 50
e mail
I ma
Ġbook marked
ust ain
Ġmatt ress
Ġg rief
ĠSa udi
g ible
E P
Ġ5 4
ĠA lp
... )
Ġdisappe ared
Ġ wrest
ca ke
Ġspecial ty
ĠFurther more
a ne
st ory
ĠAn alysis
6 3
ede ration
Ġl ug
Ġfo ss
Ġfe r
Ġgener ic
Ġbo rders
Ġdocu mented
AR D
ĠCom ments
Ġd are
Ġbel ly
Ġp ine
Ch ar
Ġver tical
ic ial
B ay
Ġthrea tening
ĠFr eedom
Ġjournal ist
ĠR ain
Ġtrans late
Ġmid st
Ġenter prises
a ses
ĠCorpo ration
ĠHe ll
sess ment
Ġpublis her
iny l
Ġpro active
ĠWil son
Ġe ro
ĠB M
Ġelement ary
m g
Ġsearche s
Ġcri ed
ĠInd one
ru b
ĠF ast
Ġdeb ris
Ġhero e
Ġoppone nt
Ġinst in
n gle
Ġpred icted
Ġheroe s
ï¸ ı
Ġcoo ler
Ġconj unction
t ires
e by
Ġ outer
Ġl acking
ĠInde ed
Ġg ad
Ġpe nc
Ġso da
ĠInte llige
Ġbar rier
Ġbudge ts
Ġunr e
ĠN ut
us ic
ĠAn ne
Ġun fortunate
get arian
ĠHT ML
Ġfat igue
ĠDefe nse
Ph oto
Ġfree ze
un ders
Ġvill a
sta nt
Ġcompo sed
Ġrefrige rator
ĠLt d
Ġh ills
Ġrel ie
ĠR id
Ġinstitution al
Ġsix th
no my
Ġtemp lates
Ġse llers
Ġtarge ting
Ġtheo ries
IM E
uth e
Ġup s
Ch ildren
Ġiso lated
Ġutil izing
r eby
ĠM ine
Ġforma ts
G H
ho ma
Ġna p
Ġev ident
du ct
e reby
ra p
Ġhab ita
p df
ĠReser ve
Ġcontact ing
rtain ly
ĠExp lore
Ġha ck
Ġgrab bed
ĠBet ween
ĠJ ay
tat o
med ies
6 2
OR D
ĠAg ricul
Ġfa cto
Bl ack
Ġper fection
S ur
Ġcompla ining
mpt o
Ġprio rit
Ġa ero
Ġpoor ly
M in
Ġ tires
Ġsad ly
stru ctive
Ġca ution
Ġnot ing
Ġcot tage
Ġinten sity
i us
io logy
ĠM oor
t ty
Ġtrave led
pe ct
vers ion
s ults
ar n
Ġ18 0
Ġsa ves
S ign
ĠChan nel
f are
ĠG allery
ix ed
Ġchea pest
Ġpa nt
Ġnoo n
Ġado r
Ġja zz
Ġsen sor
pri et
ving s
Ġd ign
Ġd iving
ĠGover nor
Ġsuspe nsion
De scription
Ġco ins
ĠMiss ion
pare nts
Ġhilar ious
Ġchem istry
7 00
ĠR ent
Ġwitnes sed
Ġcur iosity
Ġfif ty
Ġnever theless
Ġactiv ists
Ġintent ions
ĠP y
Ġna ils
Ġpaper work
rga n
R O
Ġdis tant
Ġfri gh
ĠHo r
r ise
Ġsuper vision
Ġparalle l
in de
ĠG as
sk y
OU R
que s
ori als
ĠCar ibbean
na na
Ġfire s
Ġworth while
Ġha ha
ĠU sually
S C
Ġcry stal
rg ies
Ġperspective s
ĠWor ks
Ġtra ce
Ġtech nically
ed uling
Ġdraw s
Ġcro ps
Ġinvestiga ting
Ġpart ial
v iet
Ġbet ting
ĠV io
Ġcance lled
Ġnow adays
ent h
Ġstar ing
ific ates
Ġinf ant
Ġsearch ed
ĠD ean
Ġinvest igations
ĠA long
ĠTha iland
od ge
W as
9 2
Ġattrib utes
Ġward robe
Ġnutri tional
Ġmicro wave
Ġcor d
Fo llow
Ġrel uct
Ġwedding s
Ġp ills
Ġwhere as
Ġblan ket
lea ns
ĠMary land
Ġrecogn ise
Ġth ereby
8 4
Ġmodu les
T P
Ġbu cket
RE AT
ĠD ance
etro i
Ġcomment ing
co a
Ġeth ics
Ġpass port
Ġrac ial
Ġpo ckets
ĠI dent
Ġcamp s
Ġbl own
ĠNe th
Ġdelay s
Ġdis g
Ġsof a
Ġinfla mmation
ĠLink ed
Ġst adium
ĠF is
ns wer
Wor ld
ĠF ed
Ġspokes man
Ġsl ice
co g
p in
Ġcontro lling
us al
Inter est
ĠGive n
Ġbreak down
Ġexa ms
Ġow ns
Ġth esis
Ġout look
ua n
Ġse lls
Ġexperi ments
Ġ199 2
Ġga ps
ĠWis consin
Ġcl ips
Ġsh ook
AN K
ĠNeth e
ĠH ills
Ġlay ing
H u
Ġmor tal
Ġtra iner
Ġresearch ing
Ġuns ure
pera tive
Ġmis si
Ġvar ieties
Ġenthusi astic
b ish
Ġpre tend
etroi t
Ġmecha nisms
Ġlif ting
Ġtime line
Ġpenal ties
Ġthrea ds
Ġstain less
Ġ5 3
S W
s sors
ĠW ee
mp l
Ġendo rse
ĠNY C
Quest ion
Ġje we
Ġadvoca cy
ĠSen d
ĠMe tho
Ġout let
umb ling
co mplete
9 4
St o
ĠO pt
Ġst icks
ĠS cri
Ġconcl usions
st age
p lease
Ġwar s
t ioned
Ġme lt
ĠRe volution
ĠC V
ĠNethe r
Ġrange s
m illion
Ġg li
Ġglimp se
Ġwh eat
Ġske tch
ĠCe leb
ĠR ick
G oogle
tha nk
Ġped est
ĠF ant
Ġpump kin
Ġteenage r
ĠU P
Ġob li
Ġfunda ment
ĠW ine
Ġmotor cycle
Do nald
te lling
mb r
ĠBow l
Ġrele asing
Ġintu itive
ĠDen ver
ĠReg ional
Ġsh eer
Ġca ut
ĠEx tra
Ġsecret ary
Ġtrib ute
nn ifer
ĠR am
Ġwas ted
Ġtende ncy
Ġsex ually
Ġreno vation
Ġst i
Ġfar ms
rib ly
Ġwish ed
z ards
Ġba t
Ġunt o
a int
Ġcuis ine
ĠHea ven
Ġdevasta ting
Ġcorrespon ding
ĠM ill
Ġbro ker
B M
ĠVan couver
ĠChar lie
pla nt
ope n
ĠPR O
Ġscene ry
Ġconfe ss
Ġpate nt
ĠS ig
Ġrecip ient
ĠSw eden
Ġsand wich
onest ly
Ġne st
Ġ `
ĠCon struction
Ġhe els
ĠS ug
Ġuns a
Ġ7 00
ĠPort land
e na
Ġrecrea tional
Ġobe sity
Ġre ass
Ġdeb ts
Ġh ood
Ġoccup ied
as is
Ġaut umn
Ġ199 3
Ġst umbled
Ġconsu med
ĠP ha
Ġappe aring
Ġobser vations
Ġsta ts
t oe
Ġbook mark
Ġimp a
health y
no s
Ġreco vered
Ġproceed s
Ġd ys
Ġdefic i
Ġche r
Ġdefici t
Ġbo il
Ġemb odi
Ġsha des
Ġbelie ving
Lo cated
Ġgues sing
Ġtesti mony
ach el
A ss
7 3
ĠMach ine
Ġstra in
Ġacknowled ged
Ġba il
S tate
ĠCom miss
sh irts
Ġli ned
Ġgra ve
Ġautomo tive
pira cy
Ġance st
Ġdistin ctive
h ma
d ated
F ull
Pol ice
ma ture
Ġadvoca tes
e ncies
F O
ĠC offee
lo rd
Ġmuseum s
Ġsi ghts
ma ke
s cor
s word
ĠG ulf
Ġb lon
r encies
per sonal
Ġtouch e
th ms
lot te
Ġwealth y
Ġprov in
Ġceleb rity
h ist
Ġsur faces
6 1
Ġas ser
Ġra ises
ĠMel bourne
Ġdiet ary
Ġweak ness
Ġ( "
ĠE M
vas cular
Ġincent ives
Ġd ude
um ni
Ġbri de
Ġtre as
Ġde v
Ġlin king
irt ual
Ġdisclo se
ede r
ol ars
ĠTa i
Ġphotogra phers
arge t
Ġtouche s
ł Ģ
Ġunderta king
Ġva gue
Ġsurpr ises
ĠLeader ship
Ġathle tic
Ġin spect
ĠD am
ĠLan guage
Ġalleged ly
ĠAssis tant
some thing
I ES
Ġmeasure ments
Ġhun ger
Ġpre ssed
Ġoppone nts
Ġcock tail
conne cted
ĠD ate
" ?
Ġge nius
ĠBa ttle
ĠU lt
Ġwithdra wal
E AR
Ġsmart phones
ĠD ub
ĠScott ish
b eat
Ġdo nors
Ġlen ses
Ġbu ck
Ge neral
ĠCo mplete
r equ
ess ions
ĠC ash
Ġ %
ĠB ee
ĠNet flix
Ġchole sterol
Ġexce ptions
Ġb acking
ĠPsy cho
in te
Ġchampion ship
ĠA do
ĠB ol
Ġre medy
ĠC limate
Ġbl ur
Ġattitude s
ĠOk ay
ten ded
dro p
ĠV i
Ġvan illa
Ġclo sure
n als
Ġimpo sed
Ġeduca tors
ĠA ve
Ġprohib ited
Ġvulne ra
Th ings
Ġboo th
Ġpeople s
Ġqu een
Ġd imin
ud ge
am ination
Ġble eding
ĠAl most
Ġlog istics
Ġover see
mate ur
Ġsepar ation
f la
Ġcheck out
ĠR s
9 3
Ġsp rink
Ġdete ction
Ġhonest y
Ġcrow ded
ĠSi mon
ĠCul ture
Ġcolo red
C are
ĠOr leans
Ġadap ted
Ġado les
Ġabund ance
utho r
ĠMa jor
ry ing
Ġcoun se
Ġca kes
ce n
Ġst all
se cond
Ġconsen sus
Ġenjoy ment
Ġvol umes
iche s
Ġchair man
Ġdisco vering
ĠG rowth
ĠTru th
Ġalter nate
Ġbra nding
Ġcar a
ĠIn divid
Ġutil ized
ĠSo unds
ĠP romo
j u
T oo
rodu ction
Ġind irect
ĠB UT
Ġliter ary
ment ia
Pre sident
Ġre nting
Ġlear nt
ĠMar ine
Tu nes
Ġthat s
ĠM um
ĠTa king
Ġca tering
ĠBan d
Ġvary ing
Ġar o
Ġbu cks
Ġwhat soever
o wel
ĠL ewis
ĠE V
Ġdelic ate
ĠH ey
Ġjo kes
wo uld
Ġsun set
âĢĿ ?
na ments
Ġser v
Ġshel ves
ĠL isa
Ġr if
ĠGra nt
ĠAmend ment
Ġlen ders
Ġincon ven
Ġen rolled
ĠBel g
chan ged
ĠBer lin
Ġdis comfort
Ġtwe et
n dy
Ġpra ying
ri tion
Ġoccur ring
p ted
Ġcom mands
ĠA F
ant ly
ĠTh ird
T W
Ġre nowned
Ġcreat ure
P la
Ġf ried
te xt
hat tan
U ni
tee s
M s
Ġmusic ian
ĠP O
ĠFin al
ĠA h
ĠP ick
em i
N OW
x im
t owel
Ġbook marks
o ning
ĠS han
ĠGra ce
Ġdig i
m ma
ĠE D
Ġfor ge
Ġpo sters
Ġbe ars
Ġscient ist
ĠCl ark
ĠFe r
Ġmarke ters
Ġvine gar
Ġassess ments
ĠWe r
ĠCree k
Ġim mer
ĠNether lands
ĠâĢ ¢
ble m
Ġun co
Ġswitch ing
io d
Ġse nds
Ġadv isor
cip linary
Ġpo n
Ġexpect s
ĠEVER Y
ĠPart icip
8 3
der son
ĠOF F
Ġli me
Ġincent ive
ist ically
Ġstra ngers
Ch oose
Ġpa irs
So unds
mm m
ĠE va
ĠWi Fi
P lus
Ġplan ted
There fore
fer red
Ġg host
ĠRe venue
Su per
Ġwho les
H as
Ġho ckey
Ġpermane ntly
Ġfest ive
Ġappro ve
Ġ sword
m ile
ro ns
Ġgri p
Ġres ur
v ies
ĠA W
ĠRestaur ant
ĠCh em
9 1
h ard
Ġlis te
i Tunes
Ġfeed s
ir th
Ġre com
he imer
Ġwo w
B ar
S ha
Ġhe ck
âĨ Ĳ
Ġm ili
ĠMayo r
valu able
Ġware house
Down load
Ġspon sors
Ġper pe
Ġlear ners
Ġcar ed
ĠF u
Ġsa v
Ġcalcul ate
ĠJava Script
ĠPhoe nix
Ġdistrib ute
Ġmess aging
Ġbelon gs
Ġfir ear
ĠMedic are
r arily
ĠReso rt
Ġspot ted
co ur
she et
je ctions
P G
iv id
Ġclass ical
ad ows
Ġd ea
Ġun su
Ġta nks
ĠReprese nta
use r
Ġevol ving
Ġcop per
Ġre vel
Ġ10 1
20 11
Ġr ival
Ġwe ake
Ġde ce
Ġqu iz
ĠG len
Ġhead quarters
Ġbra ce
ĠCommun ications
Ġcrypto cur
ĠHa w
Ġstim ul
ĠPhilipp ines
lam matory
Ġsubscri bers
th ritis
Ġb uses
for ced
Ġtrig ge
ca t
Ġla ughter
. :
Ġcon stit
io ners
Ġexp ed
ĠFort unately
um bs
Ġhol der
Ġunder graduate
Ġste pping
ĠMuslim s
ci um
Ġdecl are
Ġpe ppers
riz ation
Ġin fected
ĠG PS
Ġalle rgies
Ġves sels
Ġta sting
Ġpre fe
Ġob sessed
Ġclar ify
ig ration
ĠAll iance
igh tened
ca mp
7 4
Ġvac c
Co r
Ġyou ngest
Ġ towel
Ġproto col
Ġwarm th
Ġoff line
Ma king
ĠH ub
de nce
Ġsa il
M ark
Ġpure ly
Ġportra i
ĠDe tails
Ġrehab ilitation
ĠD etroit
Ġpol ite
Ġsto ve
Ġslo wer
Ġanaly sts
Ġfirep lace
sto rm
mpto n
Ġpart ially
ĠAc co
ph p
Ġwhere in
Ġte ns
ĠE mpire
Ġcustom s
t man
Ġcap tain
Ġcommun icating
f amily
Ġmiss ions
Ġmo nu
Ġpare nting
h ind
Ġfif teen
ri de
P P
Ġeas tern
ĠA le
nit arian
Ġwi dth
Ġen velo
ĠAn na
Ġpo rk
Ġd ies
Ġrecru iting
l u
Ġpe ri
ĠI V
ĠOb viously
Ġvio lations
Ġtheo ret
Ġbur eau
te m
Ġinform al
gie ne
ĠA my
Ġhead ache
f Ã©
Ġsho cking
ĠLim ited
K a
sc ar
ma th
Ġinhe ri
ĠO li
may be
ĠRu les
D AY
Ġle nding
ĠM D
Ġappet ite
Ġpromo ted
ĠIn n
Ġover ly
Ġp acks
Ġ5 8
Wo men
Ġvete rin
ĠDire ctors
Ġco ugh
st ation
Ġparticip ant
ĠS D
ĠCa t
rm ally
k g
ĠV ERY
Ġbe aten
ĠI owa
Ġform ing
Ġconv iction
Ġdelight ful
ĠCon ditions
Ġmig ration
Ġsy nth
Ġfix ing
li very
Ġm ul
Ġl asted
Ġsh irts
Ġpositive ly
Com mun
Ġwa ist
Ġconvin cing
Ġecono mies
side ring
Ġtra p
Ġan cho
Ġpill ow
Ġswe ar
Ġexam ined
Ġbi as
ĠTo wer
ĠDo uble
Ġdr um
Ġpro priet
ned y
t ably
Ġhypo th
Ġvar iation
Ġfurn ished
na mon
medi ate
ĠAnd y
Ġderi ved
Ġlight ly
Ġcon ve
Ġvolunt ary
Ġlif ted
Ġun belie
Ġp y
Ġse rial
Ġsc reaming
Ġcollabo rate
Ġsubsi di
ĠTur n
Ġ6 6
Se veral
s w
ĠArch ite
Ġvill ages
la x
Ġcred ent
Ġsum mit
Ġz oo
Ġre cession
Ġtrans fers
Ġ iTunes
ĠA na
iro pract
Ġare na
ĠG reg
lo na
Vis i
Ġbud dy
Ġsc roll
lor ious
ĠGr e
vo tes
Ġmanage s
Ġvac cine
ĠBe gin
Ġh al
Ġshorta ge
Ġprote sts
Ġpublis hers
ĠAl aska
Visi t
Ġg inger
Ġca no
was h
ĠAn n
Ġ' '
Ġun ions
Ġr ack
Ġcast le
Ġfair y
Ġun clear
Ġtowe ls
g ia
Ġcoast al
Ġhur ry
ĠMar ia
Ġpic nic
uba i
ĠPer formance
ĠColle ction
ĠM il
Ġac ids
f r
o ast
Âł Âł
ĠS leep
Ġcontro ller
ĠHawa ii
Ġassoci ations
Ġsch eduling
Ġcollea gue
ĠL LC
Ġrela tes
Ġfl ows
Ġ199 1
F our
ĠCast le
ĠF le
Ġdia meter
Ġmis under
Ġupload ed
if ier
Ġlength y
Ġsun light
ĠF L
Ġtra pped
ea p
Ġsl im
conne ct
Ġcomp iled
Ġdisad vant
Ġ verse
Ġlit igation
Ġgreen house
ac r
ĠC ool
ĠS ource
Â «
ĠJ ess
ĠYa n
ĠB Y
Ġremo de
tre s
Ġfor cing
Ġsurviv ors
Ġte nants
ĠâĢ ĭ
Ġbicy cle
Ġtra ders
Sa ve
Ġrespon dents
ĠSa int
ten ding
Ġl bs
Ġk its
Ġtailo r
ĠQuest ions
Ġhe llo
B as
Ġexha usted
ĠCur rently
b in
Ġ cin
ĠJud ge
Ġlog ged
Ġnegot iate
Ġves sel
ĠEp isode
nea n
ĠG un
ste in
Ġpursu i
Ġear liest
Ġpursui t
Ġlight weight
Ġdef ea
graph ical
Ġbur st
su ming
Ġda ngers
Ġcom ics
Ġcons ist
Ġ Ã
ro lling
Ġtop s
.... ....
F r
I mp
t oast
Ġpa use
arch y
we n
ĠP le
Ġmachine ry
IT E
ĠA mb
m art
ĠB C
J u
ĠCom mercial
ĠB achelor
m bering
net te
ide rs
Ġrese t
Ġin valuable
! ),
Ġfaith ful
ĠMoto r
cuss ion
Ġlone ly
Ġbra ins
Ġlice nce
ab lished
n ation
Ġre marks
Ġr ude
ise rs
Ġhur ts
ĠC old
Ġfree zer
S top
Ġ tv
ĠMan hattan
Ġre tention
Ġthera peutic
Ġslo ts
Ġb iz
co s
ĠJo y
co de
Ġfor ty
A maz
ĠFoot ball
Ġapp les
Ġtra gic
Po int
nt he
sh all
im s
Ġautomo bile
ĠBe rn
v idence
Ġscra p
Ġhe lico
Ġy ummy
Ġcha ins
Ġe c
Ġfra ction
Ġamend ment
ust ing
ĠSa msung
Ġwilling ness
Ġimpro ves
ĠR isk
ĠPrin cip
Ġglo ves
mer ic
ĠCha mber
ĠF ace
Ġsho rts
Ġinterview ed
Ġeco system
In formation
mo t
sle y
ĠSum mit
ro ts
Ġnewsletter s
ĠIndust rial
f illed
Ġneighbor hoods
l ights
la p
ĠMa nufact
Ġranking s
Ġedit orial
Ġthr esh
le ction
ĠM u
V P
Ġam id
Ġreta iler
ĠD rug
Ġdesi rable
Ġz ones
lay e
ĠBea uty
ĠF ran
Ġnot ifications
g ates
Ġte mple
Ġe cho
Ġtr illion
Ġcomment ary
Ġcomp aring
Ġalumin um
Ġb acks
ĠEur o
ĠF ollowing
acr e
zz le
ĠN u
d ling
Spe cial
Ġride rs
ate ring
Ġquant ities
ĠR ace
Ġinflue ntial
ĠA part
ĠB O
ĠAdmin istra
less ness
A ug
ĠVal ue
ĠBud d
Ġ iro
line ss
Ġla ne
Ġnot ic
ĠS weet
Ġan a
ĠSo viet
Ġprest igious
Ġa ne
Ġsoul s
ĠB ran
Ġpe ne
Ġsm iles
al em
Ġbothe red
ĠB rand
ĠCorpo rate
Ġsen sible
lea n
nee r
Ġbo asts
Ġvar ies
ra nean
Ġsh ifts
Ġlea p
ia t
ĠAP I
ĠT am
Ġm u
tes ted
EN D
ĠH al
Ġcon gress
Ġcosme tic
Ġg rie
ĠK id
b ig
wo man
ĠSan d
7 1
ar ians
E l
ĠBreak fast
Ġhy d
ĠApp arently
Ġsub ur
O nline
log ically
Ġdest ro
Ġrefer ral
Q L
a ngle
AC E
ĠOlymp ics
ĠLe ft
Ġassis ted
ĠFl ash
Ġathle te
Ġwash ed
ex i
ĠHo using
Ġnot able
Ġfest ivals
Ġsome day
Ġrenew ed
ĠVe r
ty pes
Ġfail ures
Ġscience s
Ġstat istical
Ġcri minals
ĠTha n
il iated
Ġwit nesses
ĠE C
bu siness
Ġswitch ed
ĠBrook lyn
Ġnightm are
Ġun pre
Ġwatch e
Ġf lowing
Ġmy th
ĠC over
Ġdesperate ly
I RE
Ġdisappoint ment
Ġan k
nna h
Ġaccident ally
Ġguarantee s
Ġdis c
ĠDe b
aba ma
Ġz omb
D isco
ĠA llow
Ġprofessional ism
Ġembed ded
ĠReg ister
Ġ toast
Ġru in
GB T
Ġfle w
Ġinse rt
alle st
Ġoptim istic
Ġbill ions
cent ury
man n
Re al
h alf
Ġinsur ed
Ġportrai t
Ġe ur
Ġwell being
M em
ĠUni t
d one
M O
Ġ tick
Ġdia mond
T aking
Ġele pha
ex e
Ġ1 10
ĠF ro
ĠM ess
ĠInvest ment
Ġsen sors
Ġno minated
ret t
co o
Ġlike lihood
Ġpro jected
ak a
Ġtempo rarily
ĠStrate gy
ĠFa ith
ĠBra d
Ġill nesses
qu o
ĠProdu ction
Ġcoord ination
Ġaccommod ations
ĠRe cords
st ones
Ġprie st
Ġdownload ing
Ġre forms
a x
ĠON LY
ĠLu ke
Ġso y
rent ice
u ed
Ġupgra des
Pa ul
mo nt
Ġ6 2
S O
Some thing
R et
Ġarchitect ural
Ġpor ch
mi no
ĠSo ul
ff le
Ġindica tors
Ġpal m
Ġconcer ts
ĠEmer gency
te enth
Ġvir al
Ġne gli
g overnment
Ġa mple
Ġjuris diction
Ġinflue nces
un ters
Ġr um
Ġunderta ke
iv ate
ico ns
Ġinf in
ĠS ustain
ĠP ue
i as
E d
Ġco ding
Ġsp ra
noun ced
Bu siness
Ġhono ur
ĠS ac
pp ies
ĠIs lands
Ġun ve
mb ling
ing o
co tt
ĠL ot
po l
Cur rently
Ġas sessed
b ine
Ġep ide
Ġhead lines
Be sides
ĠRa il
Ġweb page
ph oto
ĠSh ipping
ĠGu y
ĠW ow
f our
ĠCas ino
Ġfra g
OU T
I m
ĠMoor e
Ġb illing
ĠCom merce
ĠB R
ve land
Ġl ung
ĠB ry
Ġbe verages
n uts
ĠM ars
spo t
Ġtra des
Ġspe nds
Re cently
ĠHill ary
ĠUn like
ac kets
m ming
Ġhy brid
Ġedi tors
Ġdiscip lines
Ġdign ity
Ġhomeow ner
ĠU tah
Ġup side
sour i
ĠSpring s
R ed
ĠPr etty
Ġdis charge
Ġappropri ately
Ġadjust ment
ĠR ap
ĠHe ritage
I nc
Ġenvironment ally
ĠReg ion
ĠN ico
Ġcommit ments
tt able
Ġfo nt
vis ory
ver sy
Ġreal izing
Lon g
Ġp ale
Ġpipe line
Ġpro ne
Ġfo am
ĠF ine
Ġsincer e
alle ries
Ġ !!
tzer land
ud y
Ġmo unted
ĠAd vanced
Ġwa sting
M E
Ġconstitution al
ĠDo ing
Ġac cent
z heimer
Ġnone theless
Ġ( @
Ġpro ves
so cial
exi t
Ġ198 9
Ġdemonst ration
de velop
? '
Ġconside rations
Ġevol ve
g ri
Ġfle e
ĠPre vention
Ġsymbol s
ĠIs n
Ġvo lat
na than
ĠĠĠĠĠĠĠĠ ĠĠĠĠĠĠĠĠ
ĠP interest
ĠDo cu
Ġforest s
tri x
ĠF DA
Ġsk irt
U E
ĠA llen
Ġtran si
ie ns
cede nted
ĠM eanwhile
r ehen
Ġmo ms
Ġdiv ine
Ġqu arters
Ġmara thon
Ġfoss il
ba nk
Ġaut ism
bur n
Ġexplo sion
ĠB us
Ġpr ede
ĠPay Pal
Ġ cub
iox id
Â £
. ).
ĠK y
ĠBud get
ĠAnge l
ce lona
Ġdig ging
Ġpromp ted
cure ment
Ġreve aling
Ġ tile
Ġcine ma
Ġro ller
ĠG R
8 1
ĠO UT
ĠW A
a mple
Ġlug gage
Ġpre ca
t iles
ĠUk raine
Ġde alers
Ġevening s
tra te
ĠDump ster
Se lect
Ġh ints
Ġbout ique
Ġinno vations
la sting
la de
Ġhook ed
ĠQ ue
ĠIma gine
ĠPare nts
k yo
Ġpro pose
Ġtemp ted
ma ins
Ġgarde ning
ia m
im bur
ĠMa na
Ser vice
Ġsimp licity
Ġstuff ed
ĠDe pending
Ġappearance s
Ġoptim ize
Ġdigi t
Ġcred ibility
Ġassu mptions
Ġre porter
ĠH alf
Ġdead lines
Ġhand les
Ġp rea
Ġpee k
w rist
ĠBar ack
Ġsa iling
oor d
clo sed
Ġac ted
ĠAny thing
P T
Ġfla w
Ġpre su
ĠLeg is
sa ges
Ġfig uring
Ġcountry side
Ġ oz
Da n
t ial
S earch
/ .
Ġe ternal
lo a
Ġmayo r
Ġmetab ol
Ġhead line
Ġim mo
ĠUr ban
ĠIntellige nce
Ġre n
lan do
Ġpromo tes
Ġban ner
is si
Ġange l
Ġdama ging
Ġexpr essing
Ġcance llation
Ġrush ed
ĠCi tize
Ġv alley
ĠLinked In
od d
Ġat tain
ĠO pera
Ġaesth etic
Ġm ales
ĠA G
ĠE ye
Ġrepe t
ĠJ ean
Ġpremium s
e rmo
Ġang les
ĠHar vard
Ġbin ding
ma nage
20 10
act ly
l ves
Ob viously
Ġlicen sing
Ġfabric s
Ġindica t
Ġcata stro
per ts
Ġcan dle
Ġsen ses
ce nter
ĠFranc is
ĠNever theless
Ġvegg ies
new s
Ġdistin ction
Ġsurf ing
Ġindicat o
Ġpers u
Ġfl ush
Ġindicato r
Ġdemonst rates
Ġfree zing
Ġp is
ĠCh rome
Ġcour tesy
Ġelabo rate
Ġhead aches
Ġtra its
be ry
Ġtrans lated
Ġa x
ĠCo sta
Ġbree ze
p tive
nes see
la stic
Ye sterday
Ġjournal ism
Ġconcl ude
Ġda unting
Ġrep lies
S L
Ġresearch e
Ġmine ral
P lan
Ġde r
te nsions
ĠWer e
ist o
b ot
S H
ĠSing le
la homa
Ġinqu iries
Ġchar ities
Ġcomb ines
ĠE mb
U ntil
per fect
pr ession
Ġan imated
r ious
Ġfor k
Ġadministra t
da ta
g gy
ub lished
I AL
Ġargu ing
Ġsub missions
no ugh
ĠKen nedy
go s
Ġpe nding
Ġrev ised
Ġdia gram
ĠH P
Ġadministrat o
ĠT otal
Ġden sity
Ġoccup ation
Ġsm allest
ĠN C
Ġadministrato r
Ġgr ill
qu ire
ine e
Ġm ist
Ġex otic
Ġsemin ar
Per son
Ġchar ter
ee ling
Ġdevelop s
A mong
Ġwar mer
Ġpas sive
Ġ wrist
ĠF ish
Ġsuspic ious
s wall
Ġwa x
tr eme
ĠM ot
Ġint ro
ris k
vid ing
ĠMor ning
Ġty ping
Ġcomple ment
Ġfar mer
ĠPo r
ĠEnter prise
ĠFre sh
F eel
ĠCra ig
ri als
Ġcha se
Ġkid ding
Ġho ste
ĠGl ass
Ġbal lot
Ġst reams
Ġsenten ced
ĠChampion ship
Ġnod ded
ma iled
ĠS po
T ur
So uth
ĠAn imal
nda nts
Ġhorizo n
ĠRo ll
ĠC C
Ġsurge o
Ġsold ier
Ġsurgeo n
Ġcircul ation
ĠA nton
F un
e conomic
cust o
ce l
Ġmush rooms
ĠAmaz ing
mo rous
Ġsuc ks
Ġla mp
Je sus
Ġpris oners
ik i
Ġfloo ding
Ġpea nut
ro sis
ĠF ashion
Ġme ter
Ġconstru ct
Ġout reach
ia sed
b id
imp o
ĠL uckily
Ġaim ing
L is
Ġrac ism
Ġtut orials
Ġth ermo
Ġde pri
ĠPri ze
d um
ĠP ope
ĠCom pet
greg ation
Ġhorm one
Ġin appropriate
Ġreput able
o ss
ĠRo n
ĠSer iously
Ġdecrea sed
Ġcomfort ably
Ġblood y
ĠL OT
e lect
Ġve getarian
Ġhol ders
ĠReg istration
sp ira
Ġdistur bing
Ġair pla
Ġremote ly
Ġv inyl
Ġg lorious
Ġmira cle
ĠKe nya
Ġbe verage
Ġcompet itions
ĠWa i
Ġexpect ation
ĠInno vation
sto ck
ĠF ol
gg ie
Ġener getic
Ġpre lim
ta way
Ġcle aring
Ġunderta ken
Ġtop ped
Ġscholar ships
Ġra t
c ca
ar ations
Ġass ists
A G
Ġequ ation
Ġtort ure
um ns
ĠW W
H ar
Ġcou pons
ĠII I
Ġexperi mental
B ring
Ġfulf illing
Ġassis ting
Ġbro ch
Ġ tiles
Ġair ports
Ġmechan ics
Ġkey word
no l
Ġles ser
Ġwatche s
p tures
Ġ5 9
Ġout rage
ĠA BC
B E
ze l
iction ary
Ġoccur rence
Ġchar itable
Ġkno cked
B R
Ġpo lls
p sy
ĠTur k
Ġcomb ining
Ġ scent
Ġaf fection
ĠM ix
G r
Ġdis miss
M c
ĠTreat ment
Ġbo un
â ĸ
Mich ael
am iliar
Ġv ig
N S
ĠJa co
S im
Ġ swall
Ġcomb inations
ĠI mm
U I
no m
ĠBru ce
Ġwo unded
Ġadministra tors
ĠR ound
Ġope nly
g reat
Ġsubsta ntially
Ġunpre cedented
Ġsu pr
Ġso cially
Ġcert ificates
Ġimp acted
Ġfa me
i more
Ġle nder
ak o
ĠR em
Ġsle pt
Sa n
poli tan
Ġunder way
Ġun lock
Ġsho wers
ĠChar lotte
Ġb achelor
Ġreal m
ĠO ffic
ĠT u
Ġsensi tivity
ĠRu le
lo rs
ĠL iver
Ġpre cision
Ġoverlook ed
Ġswa p
Ġf ract
Ġconstit ue
Ġtrouble s
Ġcrow ds
Ġtun nel
iter ranean
ĠTech no
ĠConsu mer
G lo
par ts
ino us
Ġha ts
Ġsibling s
Ġad mi
g urt
Ġbatt les
L S
b rea
ĠRo y
Ġwh ist
ĠAl abama
ĠG ate
Ġhy pe
ĠS usan
est y
Ġsoc ieties
ĠDe gree
Ġsta tic
Ġbio logy
ĠG P
Ġdisappoint ing
Me n
Ġmet als
Ġdoub ts
ĠN HS
po lis
Ġ toes
Ġcontro versy
xim ity
ga ting
Ġwho ever
Ġfra gra
Ġmer cy
y n
Ġstro ngest
Ġma j
M art
OU LD
mp ed
e ssors
Ġmar king
ĠMa ine
ine ntal
j ob
ĠT rib
uff y
ex cept
ru i
ĠLa ure
Ġli king
ĠG alaxy
ĠR ate
in formation
Ġceleb rities
al king
Ġsenti ment
Ġsan ctions
Ġscr ut
ĠP ear
Ġbegin ners
Ġdee r
ĠD ubai
Ġcrow n
Ġad here
Ġgood bye
Ġaller gic
fall s
Ġk icking
Ġm ph
Ġsi ns
clo ck
ĠG ary
ĠCommun ication
Ġexplo red
Ġcar go
Ġtole rance
mp ing
Ġgl ue
Ġur ged
t ones
ump h
C ap
Ġpers istent
Ġyear ly
Ġgrand father
Ġde mentia
Ġman us
ĠV ers
Ġjo ints
Ġlegend ary
Ġmet rics
Ġrel ieve
Ġfin ishes
ĠAn derson
ĠLa ura
ĠT arget
ĠA round
ĠIn stru
Ġsp ine
ĠPal m
Ġintrigu ing
Ġsh iny
ĠP ep
ĠAl zheimer
Ġgu ards
Ġcla use
ga nce
Ġpre vented
ĠI RS
ffe ine
ĠCop y
Ġast hma
cide ntal
Ġconsis ting
Ġcons piracy
Ġcont inent
im m
me nds
Ġterror ists
Ġagree s
Ġlimi ting
ĠSwi tzerland
ĠBu ild
rto n
ass ador
Ġwa king
Ġe Bay
ĠTech nical
ime nsion
A pril
Ġki tche
Ġne o
Fo rt
Ġrac ist
iv o
Ġdeploy ment
V a
ĠHa ir
a tory
P lace
mpa ign
ĠMis souri
ĠS pot
AY S
J une
Ġinter fere
Ġha ted
Ġin visible
Ġquest ioned
Ġprob ability
be i
ble s
ral d
Ġdr ill
Ġgo ssi
Ġresis tant
T y
ba se
ri ze
t ier
Ġin box
ĠExce llent
ĠL ess
f ari
Ġbegin ner
Ġb lowing
Ġassur ance
de ned
Ġa ston
se curity
fe eding
Ġd ull
ac ies
e ns
su fficient
ĠSpe ed
D ra
Ġhy giene
Ġse gments
th ed
Ġ1 30
g ically
Ġassu mption
1 000
Ġcu sh
ON G
ĠC el
Ġcompli ment
v ada
Ġgra ms
do s
ille rs
ĠSur vey
vi ving
Ġcreat o
H ING
laye r
Ġcreato r
int ing
Ġshare holders
ĠMalay sia
Ġswi ft
Ġdedu ct
Ġall ies
Ġrun ners
Ġcar riers
Ġsp l
pe ns
Ġout fits
Ġador e
Ġsc are
ĠL GBT
ĠD ifferent
s no
ĠU pon
?? ??
Ġcoal ition
Ġre medies
ĠR A
va ge
F igure
rus alem
ĠOx ford
Ġorga ns
ha med
ts y
, ,
Ġvo ca
Ġma cro
Ġle tt
G ot
Ġsecur ities
ĠPal ace
et ics
Ġant ioxid
Ġre asoning
Ġdeb i
V al
h em
t ol
ĠM od
ĠBroth e
sho ts
M C
Ġfrank ly
â łĢ
Ġin ac
Ġro ast
ĠQu eens
le ngth
Ġemp o
Ġco ve
op ard
Ġdebi t
H D
ĠTha i
Ġcha mber
p ara
Ġ toe
Ġdis asters
Ġrad ar
Ġme ga
a gain
Ġcoup led
In vest
Ġpla nting
Ġgram mar
ĠL ite
Ġhu g
ĠWe ight
garet tes
Ġtaxpay ers
Ġindica ting
cu its
Ġsemin ars
ĠAr gent
Ġpre vents
lat o
Ġmatch ed
ĠF O
inder gar
ĠYo ga
Ġmethodo logy
Ġce ase
Ġb um
Ġceleb rations
th al
Ġge no
Ġpa tho
Ġenha ncing
ĠF ly
Ġasp i
Ġcy cles
E ver
Ġ6 3
Ġimp lies
ĠM ental
Ġhope ful
Ġbeha ve
Ġro bots
N one
de f
spira tory
Ġun happy
Ima gine
ĠSon g
ke ys
Ġupgra ded
ĠP u
Cha pter
ĠPro cess
ĠBrothe r
Ġacqu iring
ij ing
Ġ14 0
Ġprelim inary
uthe r
Ġinspiration al
ĠThe rapy
ĠPro vide
Ġdi versi
if iable
Ġrecy cled
Ha n
T F
Un less
ĠChair man
ms ter
Ġcy cl
Ġpe st
pat ient
Ġplay ground
Ġexce eding
rin king
Ġdeploy ed
Ġevalu ated
ĠA rk
vera ging
ĠN BA
Ġinter ventions
Ġacces sing
Ġdepr essed
ia h
Ġd ub
sper son
Ġca pt
ĠMich elle
Ġdistra cted
Ġdismis sed
Ġdeco rating
ĠHigh way
ve ns
) )
ĠU C
Ġsch olars
Ġlive ly
Ġl ump
ing le
Ġnon sense
ĠVo ice
Ġpoem s
ĠTo kyo
Ġenco mp
ĠTen nessee
ĠA lan
Ġwork outs
Ġhand some
ĠArab ia
ĠM UST
Ġpartic les
Ġste ering
Ġcris p
Ġ icons
Ġsy rup
Ġde no
ric ket
ĠW ish
Ġre imbur
Ġg um
Ġincl ined
Ġdeco rations
Ġlitera cy
Ġstar ter
Ġillust ration
ĠCust om
cur y
Ġorch est
Ġdie sel
Ġnation ally
am i
Ġconside rs
ĠðŁĺ Ģ
ace nt
ele vant
Ġev acu
rth ur
lic a
e of
Ġalgori thm
s ions
Ġamen ded
Ġrecrea tion
M arch
Ġirr e
day s
ĠBar celona
Ġanticip ate
Ġst iff
ĠWH O
reg ular
Ġdisp utes
Ġresol utions
Ġhalf way
Ġsor ted
Ġuni ted
ĠSo ny
Ġsh ifting
Ġinstru ctors
Po st
ro sity
sess ion
B ER
Ġd ur
Ġal ot
Hope fully
With in
Ġba ses
ce nce
J ack
ĠSer ver
Ġinse cts
Ġsubse ction
Ġhorm ones
Ġdefe nding
Ġcorre ction
ware ness
ĠV in
ric ks
Ġdeposi ts
Ġfem ales
Ġwar r
ĠCamb ridge
Ġpolitic ally
r eof
Ġski ing
ge ttable
Ġtrip le
ho r
Ġl id
ĠInde pendent
ĠD y
r ison
Ġsquee ze
b us
ĠLa ter
e reof
Ad ditionally
Ġcl icks
Ġhol istic
Ġsme lls
pt ical
ĠRead y
ĠSal t
b oth
Ġlo d
ĠIndone sia
Ġpara de
ĠL ux
ĠJob s
Ġscan dal
Ġve rification
ĠD eep
Ġcon dom
NOT E
Ġsea food
Ġunder go
st art
ĠCh i
Ġvoluntee ring
ĠHow ard
ili ation
Ġsp ices
Ġchop ped
h al
Ġbar rel
Ġcost umes
ro s
ĠMo rgan
Ġcr unch
mo ve
ĠS olar
Ġsever ely
Ġ6 7
â Ĺ
-- -
Ġelig ibility
Ġdomin ant
m id
ĠWork shop
Ġinterpr et
am ilies
Ġmess y
Ġcardio vascular
la st
ĠB lock
ĠI C
ri ans
cl ip
Ġu mbr
Ġshop pers
ĠCle veland
sa w
D ER
Ġbehavio ral
Ġsm arter
Ġsal mon
ĠB ron
bei t
ĠCo lor
Ġappe als
Ġart ic
Ġreco vering
Ġdry e
ĠYe llow
ĠOk lahoma
Ġsac red
Ġwo nt
P rodu
Ġdrye r
act s
Ġgo spel
V A
ĠDra gon
sex ual
Ġposi tioned
ns ic
ĠV ic
Ġpro ximity
Ġfound ations
Ġnegle ct
Ġtradition ally
lla n
Ġemb ar
Ġ {
ma p
que r
Ġarch ive
Ġmainta ins
ĠD est
F OR
ĠLeo n
ĠS mo
ĠĠ Ġ
Ġillust rations
ĠJust in
ĠBo ys
Ġ9 00
Ġrein force
Ġstring s
Ġprote cts
ĠEnter tainment
Ġrest ra
Ġbon uses
Ġna use
Ġsubse quently
Ġpon d
Ġname ly
pla in
Ġm il
Ġlett uce
Simp ly
g ger
ðŁ ĺ
ll i
z zy
a na
Ġar ising
f fective
oo ting
ĠEa t
w rink
ĠN ash
Ġtwee ts
Ġre hear
Ġth ru
ĠMed iterranean
Ġab used
D C
Ġth ereof
Ġa we
Ġhar mony
Ġhuma nitarian
Ġconstru ctive
Ġabsor b
ĠPh D
Ġde vil
Ġmemo rial
Ġinsis ted
ĠN obody
Ġbee rs
Ġme lo
Ġinvo ice
Ġpi pes
Ġow ning
ol ation
Ġcal cium
Ġpro ving
Ġg alleries
c d
ĠT ickets
Ġfa ts
ĠE mp
Ġesc al
rib ution
Ġin vented
Ġmath ematics
ĠClass ic
Ġrecom mends
bul ary
ish op
Ġbrut al
Ġexerc ising
ĠF ederation
Ġ6 8
H ER
t oss
ir us
ĠNa tive
Ġfat ty
Ġst ub
C op
Ġrene wal
Ŀ ¤
ĠPalestin ian
De cember
point s
ĠClo se
ment ioned
Ġwi pe
squ i
Ġ198 8
me tric
r essed
ik o
ĠUse rs
Ġref ine
Ġqu il
ĠA li
Ġprogress ion
ĠS ri
Ġar thritis
d owns
ro po
el son
Ġreg ulated
Ġrhy thm
Ġdatab ases
In cl
ĠL ate
m n
Ġgro om
a ment
Ġfue ls
ĠS ize
ĠM AN
ĠFall s
F riday
Ġconnect ivity
Ġun cle
Ġrun ner
Ġbuff et
ĠCommiss ioner
** **
Ġelimin ated
Ġalter ed
ĠS ER
Ġcri t
ĠA bo
Ġrisk y
te ro
ĠT itle
ĠAnth ony
V ideo
de gree
ĠBal t
Ġred ee
fact ory
Ġdef ining
In d
ino sa
Ġcar bo
sa fe
Ġconstra ints
e nch
ac ter
Ġquestion ing
Ġd we
Ġbene fic
ĠJe rusalem
Ġblo cking
Ġob sc
Ġutter ly
Ġjour nals
side ncy
Ġconvenient ly
Da ta
ĠR io
ĠHigh e
a i
ĠChe l
ĠSa me
Ġl ining
Ġre nted
ĠT ed
d ist
Ġdis pa
Ġhot test
ĠHealth y
ĠHighe r
w iches
Ġ ^
Ġcoun ted
p ublic
Ġ9 8
Ġch uck
lo s
Ġbreath taking
r els
der ness
Ġja w
f il
se nal
ĠE P
2 000
Ġcatal og
b ad
Pro vide
Ġspecial izes
ĠMe et
Ġex pose
Ġabse nt
Ġa mateur
Ġv om
Ġf ights
Ġdyna mics
hu man
pp le
ĠV A
si m
Th us
Ġexchange s
Ġfo unding
Ġent a
Ġgrand parents
Ġmo ni
Ġr igorous
ĠOr lando
Ġsur r
un i
Inde ed
Ġsp ice
Ġste e
V ol
Ġcol umns
Ġliber ty
Some one
ĠHo mes
man da
pp i
S ad
ide n
ĠIma ge
ge nder
Ġspecial ize
Ġdemo graphic
Ġfa x
tato r
ĠY ahoo
ĠFin ding
Ġsurr e
Ġin hib
is ive
Ġyoun gs
Ġtale s
ĠFo cus
Ġut ilities
in n
ĠR achel
Ġtod dler
Ġle ctures
A long
Ġ toss
Ġenroll ment
st ically
ĠD ental
Ġp ilo
M uch
Ġbu sh
Ġmult itude
r io
Ġse aled
ctic ut
C ra
ĠWe l
ĠIde as
Ġsimple st
ĠVe h
Ġclin ics
Ġsha king
Ġpen ny
Ġcredent ials
ĠHar ris
Ġapp ra
Ġdeman ded
Ġunce rtain
ĠX box
Ġexpress ions
ĠAC T
Ġinsul in
Ġro cket
iz ations
ĠV ie
Ġcabine ts
Ġ19 30
OU S
red ic
Ġac ne
Ġchor e
Ġcin namon
ple asant
Ġde spa
Ġboo m
De pending
th ree
ĠJe nnifer
ĠO wn
Ġbul lying
W ri
ĠPo land
char ged
ĠAn niversary
Ġim perative
Ġover head
Ġover looking
ĠP ain
was her
Ġbund le
Ġthresh old
ce nts
ri ages
Ġch rist
ĠWH AT
Ġexception ally
ĠE co
sc ience
ĠR V
Ġpriv ately
Ġcom bo
ur u
Ġb ron
ĠB ot
ar ium
Ġpu ssy
Ġ3 65
ĠOp portun
ula tive
Ġcart oon
Ġmagne tic
ĠS el
p ace
Ġgover ning
rc ise
fo und
T om
ĠWo rth
pe e
" ...
Ġembodi ment
E st
ĠHe nce
wi fe
Ġoff set
l ux
shi t
ita n
Ġmode s
ĠDe finitely
Ġunfor gettable
I nt
ĠCl ient
Ġpor tions
op her
we nty
Ġsa mp
ta nces
ĠB right
H ad
ĠG DP
Ġelimin ating
ta g
ĠT ran
ĠP ink
ĠH art
Ġacces sibility
ĠKent ucky
Ġenter tain
Ġrain y
ĠM illion
ĠH us
Ġbrea sts
Ġsp y
Ġmod ifications
cha eo
Ġaddition ally
Ġcr ust
Ġ0 1
ĠBalt imore
ĠE lement
Ġ: (
stru ct
tho use
Ġope ra
Ġbea ts
W ar
Ġgl ow
Cha nge
ĠS wa
fra me
Ġperfor mers
Ġst ur
Ġgree ns
ili con
Ġf li
ĠD ick
Ġis olation
Ġri vers
ind u
ĠA th
Ġcivil ian
do e
c c
O ctober
ĠTe xt
lis ted
P ublic
r esses
Ġcrea tions
Ġ198 6
ĠTrans portation
ĠB een
ĠStand ards
al i
Ġtrust worthy
Ġ 00
Ġpo rts
ĠSte el
Ġreme mbering
u der
Ġdeter io
Ġhazard ous
Ġcom for
ĠTre as
all ing
rea ds
lle ry
Ġ6 1
ĠV P
wed ish
Ġbla de
vo n
A ir
Ġpredic tions
Ġdomin ated
un ks
ĠE R
Ġpre jud
Ġdem ol
Ġuser name
l arge
ĠWik ipedia
Ġpo le
ic ious
Ġpursu ant
Ġsh ri
ĠSha ke
. âĢ¦
Ġwo unds
ĠH ung
Ġne ur
ĠUni verse
bor ne
in ks
Ġrecording s
Ġbrid ges
Ġ wrink
ĠLo g
No rth
ĠG uest
Ġver bal
ĠO UR
a nge
Ġdeser ved
vie wer
Ġintern ship
Ġmonito red
no mous
Ġpo lish
Ġmin s
Ġblessing s
sco w
ĠReso urce
me try
Ġstor ms
Ġin ability
ming ham
Ġdo nor
in ners
ĠK aren
Ġbor ro
wri te
Un like
Ġtra y
Ġadj acent
ĠLo r
ĠTe mple
Ġbooking s
Ġdefend ant
Ġfl ies
ĠPue rto
su its
Ġfea th
ĠGuard ian
Ġfore most
Ġdisco unted
Ġpar liament
ĠDel hi
C usto
ĠC T
ĠT ar
Ġsh ru
ĠPla net
ĠSe ven
xe s
ĠIn side
sa ving
Ġweak nesses
gare tte
Ġvol ca
Ġcraf ted
Ġcul inary
ĠReg ardless
ĠD rop
Ġrebu ild
ĠBB Q
N O
Ġsh ield
Ġim mun
Con sider
Ġvir uses
Ġembarr assing
ott o
ĠAd ditional
ĠIns p
Ġge nes
Ġvis ually
ĠCho ice
Ġantib iotics
Ġfurn ish
count ry
Ġlife long
s wo
ĠR edu
Ġde nse
ctu ary
wi dth
Ġinj ection
ĠM ara
Ġyo gurt
Ġair lines
G eo
mpa gne
ĠVol ume
ĠA void
ful l
F ood
rui t
Ġhumid ity
ĠTri p
Ġg allo
ut ory
Ġref ined
Ġlicen ses
New s
Ġe go
ĠM ilitary
ĠAd vert
ĠLet ter
tee r
u pon
Ġse nsation
Ġg ates
Ġrese mble
Ġmen us
ig i
Ġex ports
sol ved
Ġmar ch
Ġcoordin ate
Ġcl ay
ĠC ale
ta tes
na de
ĠT A
sh aped
9 00
ĠK ings
Ġmortal ity
Ġaccred ited
Ġneed le
ĠLo st
pr ising
ĠSty le
Ġweb log
ĠRel ations
Ġsa us
AS S
M P
r ting
nti als
Ġillust rate
ĠNot ice
Ġwholes ale
T IP
ĠE ss
in sp
Ġcompo unds
Ġgene rosity
go ns
ip le
ĠF ile
Ġf ierce
Ġexce r
ION S
e rmal
ĠProgram me
ĠT W
ĠSk ills
ol ds
ĠBe ijing
S tan
ĠD ating
Ã Ń
Ġremain der
Ġpe ar
Ġgame play
ĠTra il
su ite
Ġdete cted
ĠSw iss
i ac
Ġdist ress
al one
ĠVol un
Ġste ak
m ill
igh teous
ĠOver all
Ġmix e
IN D
Ġpop ping
d ire
200 9
Ġbroad band
Ġback wards
a ire
Ġsta nce
rizo n
Ġinstall ations
gro up
ĠA id
st rong
ĠN H
Ġfix e
ĠN ur
ĠDid n
dition ing
ĠT IME
mp son
year s
Ġf reak
ro le
Ġmotiv ate
Ġd ick
na med
ĠQuest ion
ĠDoe sn
Ġe uro
Ġab sur
Ġcar rots
Ġmorning s
Ġse quel
v ar
va na
with out
Ġp led
indergar ten
G reen
Ġro pe
ĠBarb ara
Ġatta cking
Ġcasino s
ĠFit ness
Ear lier
r ection
ie val
Ġstrengthe ning
ĠDe sk
Ġprince ss
Ġbo unce
Ġcom fy
repr ese
fo x
Ġco ating
Ġtre k
n ish
ĠSh ar
Ġbi tch
Ġid iot
Ġsh red
ĠG ab
Ġad he
e cted
ĠS W
br e
Ġsecur ing
Ġadvis ory
d ict
Ġd row
Ġsp oon
ĠS oon
ĠNAS A
Ġgrand children
ĠB IG
ĠCor ps
Ġca sting
Ġ198 4
Ġpla nes
sa me
Ġh oo
sum ably
Ġro tation
Ġba nana
Ġround ed
Ġvi be
Ġso vere
ĠV ision
Ġac cus
Ġtra ded
Ġextr em
ĠT E
illen nials
Ġm uff
Wa ter
s que
Ġbl ues
Ġroof ing
Ġup stairs
Ġprem ise
Ġre lying
Ġgene rator
ous a
b ay
Ġblock chain
Ġstart ups
Ġsuper market
Ġkid na
Ġself ish
B L
ĠConne cticut
Ġcount ies
t ide
ĠTh ing
tr as
ĠP RE
Ġout sour
ne u
Ġpenc il
Ġgo ds
Ġpublic ity
Ġdie ts
Ġpha ses
Ġr age
Ġposition ing
Ġf led
Go ing
Ġapp la
ĠPi tts
ize r
te in
ho uses
Ġpo iso
Ġme rit
od o
a ked
Ġgr eed
Ġ0 8
Ġ7 6
gest ion
w ool
Ġsh adows
ĠB eyond
ĠLa ne
ĠGr ey
ĠRe quest
ĠJo a
Ġinvestiga tors
Ġsla ve
ĠRE ALLY
ĠShe r
Ġdys function
ĠAgricul ture
alo n
gin a
Ġdete ctive
Ġqual ification
Ġdiagno stic
cent ric
ĠEd ward
Ġfeas ible
Ġpremier e
vis ors
ĠPot ter
ie ncies
ĠChristian ity
Wa i
tur ity
Wh ite
Ġch ew
Ġcomme nce
ba ting
Ġind oors
Ġrub bish
Ġlun gs
ĠS EC
Ġsevent h
Ġte nant
Ġbe ast
Ġimpo se
Ġter rain
Ġ swo
d led
Ġex tensions
Ġdefin itions
Sh are
Ġre sign
Ġprof ic
ĠJun ior
Ġwe ed
ĠFR OM
Ġpass words
Ġ ____
Ġge taway
Ġstret ching
ĠEm ily
Ġca ttle
ĠCert ificate
ĠR ES
Ġpre vail
ĠWal ker
Ġa ug
Ġcan dles
ĠD iet
Ch ris
Ġan ime
Ġrail way
ĠAnton io
ha ts
ĠWo n
Ġtrigge red
Ġli mb
sho uld
Ġca ffeine
Ġrequest ing
ilar ly
ĠOf fer
Ġfulf illed
b ies
em s
Ġvoca bulary
Ġshut tle
Ġpar ked
Ġcivil ians
lic ated
Ġuna ware
Ġpar ish
Ġswe lling
Ġsh ining
ard ed
h ope
ĠMin i
Ġa dequ
Ġfi ring
Ġfascin ated
Ġga ze
ĠCor e
Ġin fect
if ference
ĠLegis la
cla imer
Ġr ip
Re spon
ĠPa nel
Al most
Ġbro kers
um bers
Ġembarr assed
Ġfresh ly
Ġsta mps
Ġcha tting
AM E
ĠK el
we alth
ĠPrince ss
Ġresearche r
Ġn ick
P are
Ġ ordin
Ġbe tra
Ġpersonal ities
Ġinv ites
Ġcompla ined
D R
P ER
Ġ198 7
st able
unt ain
Ġrh et
Ġoutd ated
Ġcap su
Ġsupposed ly
Ġta gged
Ġseas oned
ĠPlay e
Ġmed ian
K ING
Ġinevi tably
Ġgood ies
Ġ ip
Ġtraffic king
Ġcitizen ship
Ġdrive way
Ġins ist
Ġstick y
Ġigno ring
ĠB ird
ĠW AS
Ġevalu ating
Ġsuspect s
Ġwar n
ĠV illa
Ġa th
ĠÂ §
ĠPlaye r
R ob
Ġhabita t
oo sing
Lear ning
Ġtheoret ical
ĠA p
I O
Sep tember
ĠJe n
ĠH ay
Ġk ay
ĠInde x
Ġsta ir
Ju ly
Ġlaw makers
,' '
Ġman date
Ġco he
Ġcoll ar
ĠRel ation
Ġlog ging
Ġprospe rity
Ġimpo rted
ĠS port
Ġcoun c
ĠF if
ĠUni versal
a f
mp oo
Ġagg reg
ila teral
Ġima ging
Ġpharm acy
F T
Ġdouble d
Ġjud ging
be fore
ĠU l
na ce
Ġscri pts
Ġpress ures
Sh op
d ates
Ġina ug
Ġrandom ly
Ġbin ary
l ining
Ġexceed ed
ĠMa kes
R ich
Ġsand wiches
ph ys
nn ie
Ġr ust
e steem
Ġg ru
ĠJim my
M M
Ġas ce
Ġfoot print
Ġgra vity
l ive
ĠC oord
Ġd ile
spo ke
Per sonal
Ġcenter ed
p ically
tent ive
Ġin cons
mon ies
Pre vious
Ġban g
Ġsal aries
Ġclear ance
b one
Ġal right
Ġche rry
Ġjud icial
ĠSt ars
Further more
Ġth riving
ke ep
Ġvir gin
ĠKnow ledge
ve t
Ġdro ne
Ġpay able
ĠRo ss
ĠFra me
Ġsl ides
ven cy
Ġgentle man
Ġtour ing
ud o
ĠEx cept
ĠZ one
ĠLa t
Ġreno vated
Ġattra cting
Ġlad der
Ġal umni
Ja mes
Ġspec ulation
iv ation
n dum
Ġa pt
s lic
Ġga uge
ie ces
ĠSte ven
ĠP ad
Ġexten ding
Ġcor rupt
Ġcomme mo
Ġfil ming
ĠE dge
Ġro ster
Ġm artial
Ġse ve
Ġmas ses
ĠCo al
Ġ19 20
Ġf ines
Ġpast o
Ġbiz arre
Ġphiloso ph
Ġuncom mon
Ġad ditions
Ġpay roll
ac cept
Ġex cuses
ho le
sh ed
ĠCom ment
ĠRob in
val id
Ġma t
o wing
Ġsto ring
w ling
ĠU sed
rr e
B r
p ad
Ġa co
ĠP ant
Ġdo ct
ca ses
Ġigno rance
ch ild
Ġdist urb
ĠOpe rations
ĠN ep
ĠMo vie
Ġrespect ful
inten do
Ġref urb
ĠDu ke
Ġun cover
ĠIS O
Ġcheck list
Co ns
Ġun pleasant
po wered
Ġrecip ients
ol s
cl ub
Ġcon stitute
Ġcomp ul
Ġha ul
U K
lo l
s ci
Reg ardless
Ġsu ites
Ġrel ies
Ġfire f
t form
g irl
K ee
tur n
Ġin car
Ġmile stone
ĠCar ter
he ro
Y ear
gra d
Ġsynth etic
ID E
min ations
N ove
M ust
ĠClin ic
Ch ina
Re view
t ual
ĠAnaly tics
ĠGra de
Ġmurder ed
Ġno mination
Ġale rts
F IG
Ġfath ers
Ġ198 5
Ġvie wer
tur ated
Ġrece iver
in c
Ġla kes
ĠReg ulation
Ġch asing
ge ry
yo ta
ro ck
ĠL ad
Ġpro phe
co se
ĠO scar
Ġrise n
Ġbo arding
Ġk nit
il ure
Ġ 000
ĠCusto mers
Ġlike wise
Ġsad ness
Ġactiv ate
iox ide
Ġre spiratory
nk ind
ĠK ick
ĠCha nce
Ġsucces ses
Ġbar n
Ġcoll ision
n as
ra cy
Ġd uck
Ġele vated
lin der
io s
gl asses
Ġlen d
Ġproble matic
ry e
ĠCh icken
Ġgra ins
Ġwa nder
1 20
Ġperfor ms
ba g
Ġbuil der
Ġcap turing
Ġland lord
Ġalgori thms
ĠS kin
Ġanaly tical
Ġm ug
Ġrefle cting
ĠWh i
Sho rt
ĠF al
O ld
ĠTurk ish
ĠV ent
F S
Ġwe ights
Ġbe r
L ive
N ational
Ġcompassion ate
ch i
Ġverif ied
Ġhea ter
ĠWai t
ffic iency
âĢ¦ )
ĠHa ven
ul se
ĠS ab
Ġallo cated
F amily
Ġread ings
K ey
Ġter ribly
mine e
Ġ7 8
Ġspot light
Ġk ni
Ġabsur d
+ +
Ġa unt
Ġassoci ates
Wai t
Ġut most
Ġproud ly
ĠÂ «
ul der
ĠSch olar
Ġpa ins
Ġdis ruption
Ġinvestiga ted
ĠMo scow
pe a
G lad
Ġli be
Ġtherap ies
Ġreg ulate
Ġble w
ĠGo spel
gi vers
Ġmode ling
Ġpop ped
ĠH ours
ĠCa tal
Ġreward ed
valu ation
Ex p
Ġline up
ĠLo cated
ĠF ur
Ġro uter
Ġco med
Ġl u
ĠAs sessment
ĠW y
ĠG REAT
ĠWol f
ĠCare e
Ġm ic
P ur
Ġexplan ations
Ġth ermal
Ġtan gible
ĠNE VER
Ġimp air
ca m
Ġper f
ĠE mployment
ĠCri minal
Pa t
val ue
te x
AC H
ĠFe llow
Ġ16 0
Ġrevolution ary
ĠB L
Ġkilo meters
Ġconne cts
Ġoffe nce
Ġpo sed
Ġexcl uded
Ġpo ses
ĠS lo
h ot
Ġ7 7
Inter national
Ġadvertise ments
âĢ¦âĢ¦ âĢ¦âĢ¦
ĠSpe aker
Ġhand made
ĠP as
Ġalig nment
Ġillust rated
Ġdeliberate ly
Ġk icks
ĠWa t
Ġassemble d
ema tical
N Y
do g
ĠAl ice
ĠSy rian
Tru mp
v ides
Ġhistoric ally
ĠEcono mics
M B
ĠG ET
f ar
Ġattach ment
han ded
T able
ur ope
ĠBr exit
ĠCaree r
ĠShe riff
Ġstudio s
ĠNe vada
Ġco ps
Ġlo gs
as sin
tent ial
Ġun healthy
Ġsal o
r espon
ĠK NOW
Se ction
ĠD ur
Ġro ws
Ġforth coming
D ep
200 8
Ġhur ting
Ġele vator
F ive
ca pe
Ġenvelo pe
Ġtrans mitted
Ġbureau cra
bu ted
ĠF ab
qu arter
Nove mber
ĠR S
Ġsalo n
Ġpun ish
fic tion
Ġ6 9
b rew
ĠSe nator
ca ting
et ooth
p rote
ne tt
Ġhel met
Ġcl ues
g one
Ġparad ise
Ġ ted
ĠNor way
Ġendo r
Ġexplore s
ĠTea cher
Ġfore front
t um
imension al
Ġcompr ises
vi ate
Bu y
ĠTo uch
Ġsp here
) !
ĠLiver pool
ut t
Ma de
teri m
ĠPoli tical
Ġclassroom s
Ġdownload s
Ã Ĺ
Ġpasto r
Ġnotic eable
roe s
Ġdisclo sed
Ġquarter ly
issi ppi
Ġse iz
Ġde nial
ĠSch edule
Ġlo ses
ect o
rea fter
fe n
Ġpe stic
Ġcock tails
o ke
o rical
mo s
Ġstim ulate
ĠMo ns
ine t
no x
m med
ĠMar vel
igh tening
D O
A f
ces sing
ĠC ards
Ġde pende
Ġinhe rent
Ġstead ily
Ġyour selves
Ġcharacteri zed
sse nger
Sa turday
int h
ĠI a
Ġbreak through
ĠPhys ical
Ġcl ima
Ġ wool
.' '
ound ed
in se
Ġste aling
Ġp ier
Ġmons ters
ĠLa nka
ĠC ate
ĠB EST
Ġfla ws
Ġalig ned
te ms
V o
ĠGa n
ĠV R
Ġchea ting
O pe
Ġdrea ming
htt ps
Ġadap tation
Pr ep
Ġpro lon
Ġno minee
ĠG ent
Ġe mailed
Ġdar ker
Ġprose cution
Ġnurse ry
Ġattri buted
Ġanaly st
E asy
Ġha zards
ĠHam ilton
ĠBene fits
la ces
Ġpur se
ĠMa g
e view
Ġmed al
Ġdi ver
Ġsyste matic
Ġner ves
Ġcritic ally
Ġrest ing
Ġlandsca pes
Ġcree py
ĠIni tia
cation al
ĠStar ting
id al
Ġdo ses
e spect
ĠStat istics
Ġa viation
Ġd read
io neer
Ġpractitio ner
Ġpa tches
b ird
Ġoff shore
Ġjudge ment
Ġsal vation
lia nt
Ġbreed ing
ĠN i
Ġpol ar
Ġ8 8
Ġblon de
: -
ĠV irtual
ĠImp act
us sels
r espect
bu ilt
ri nt
ĠZ a
Ġdigest ive
ab lish
Ġind is
Ġgu iding
ĠEqu ipment
ĠIn stall
Ġdiplo ma
Ġspin ning
ĠCh arter
Ġun ity
Ġover do
ĠL inda
ĠMo nta
Ġlabe led
Ġa ids
Ġ oste
Ġdef ines
B ra
Ġenthusi asts
Ġv ivid
Ġfla me
Ġr ighteous
h op
Â ĵ
ĠDub lin
ĠPri mary
ĠE ditor
ped ia
Ġancest ors
ĠT ool
âłĢ âłĢ
ĠS wedish
ĠG il
a mples
sh are
Ġstri ps
Ġqual ifying
Ġhighl ighting
Ġ slic
Ġsla very
Ġexam ining
use rs
nt own
Ġev ide
Ġpro curement
n in
ĠHa mp
Ġannounce ments
ĠState ment
ĠN A
Ġx x
Ġsymp ath
ĠCon te
ĠMad rid
Ġsuspic ion
ĠI d
Ġcomp ose
Ġlight ning
ĠAlexa nder
Ġwe ars
o gy
Ġstat utory
ĠI sa
Ġsele ctions
ĠHe l
ĠH unter
Ġbe nt
Ġtra iners
Ġbrowse rs
Ġwar nings
Ġ tide
Ġstir ring
int a
Ġdiscus ses
ĠGe n
wor ker
io rity
ĠN ar
ĠCo mple
!! !!!
ĠWho le
w atering
ĠSpe cific
Ġcomprehen d
gro wing
Ġdo mains
ako ta
ĠN elson
Ġg ifted
ĠMas ters
U pon
co lor
Ġmise rable
Ġher b
inu ed
Ġdra gon
Ġde fects
Ġin digenous
T alk
Ġattrib ute
Ġun conscious
Ġ //
Ġactiv ist
ĠCo rn
ĠRE AD
for est
ĠSho r
ĠExce l
Part icip
Ġwheel chair
ĠPay ment
prof its
Ġin sol
Re f
ach ing
Ġide ally
Ġn ude
ĠPr ices
Ġmetabol ism
Ġdistingu ish
ĠCho colate
Ġf ic
im ation
ii i
Ġbra ke
Ġ19 40
nk ed
No n
Ġmention ing
ĠBel ieve
Ma nage
ĠBa pt
Ġendea vor
r eview
Ġtechnic ian
Ġadvert ised
Ġr ises
ĠMo rt
Through out
ĠW ire
Ġeur os
ĠMad ison
Ġcommit ting
Ġre called
ĠIn fo
Ġfire works
Ġa qu
ser ts
Ġorie nted
Ġcur b
Ġe y
ĠJe rry
Ġ0 7
Ġin coming
Ġstro ll
Ġy arn
Ġadmin istered
mod ity
Ġavo ca
ĠMa p
ccess ful
Ġtable sp
Ġaccomplish ments
ĠBe ck
Ġforgive ness
Ġthrow s
bl ack
med ia
C lear
Ġjust ified
Aug ust
Ġcon ten
ica id
G S
F acebook
ta x
Ġp ledge
Ġso ak
ford able
Sm all
ĠHe ro
M R
Ġemp athy
Ġca ps
ĀĀĀĀĀĀĀĀĀĀĀĀĀĀĀĀĀĀĀĀĀĀĀĀĀĀĀĀĀĀĀĀĀĀĀĀĀĀĀĀĀĀĀĀĀĀĀĀĀĀĀĀĀĀĀĀĀĀĀĀĀĀĀĀĀĀĀĀĀĀĀĀĀĀĀĀĀĀĀĀĀĀĀĀĀĀĀĀĀĀĀĀĀĀĀĀĀĀĀĀĀĀĀĀĀĀĀĀĀĀĀĀĀĀĀĀĀĀĀĀĀĀĀĀĀĀĀĀĀĀĀĀĀĀĀĀĀĀĀĀĀĀĀĀĀĀĀĀĀĀĀĀĀĀĀĀĀĀĀĀĀĀĀĀĀĀĀĀĀĀĀĀĀĀĀĀĀĀĀĀĀĀĀĀĀĀĀĀĀĀĀĀĀĀĀĀĀĀĀĀĀĀĀĀĀĀĀĀĀĀĀĀĀĀĀĀĀĀĀĀĀĀĀĀĀĀĀĀĀĀĀĀĀĀĀĀĀĀĀĀĀĀĀĀĀĀĀĀĀĀĀĀĀĀĀĀ ĀĀĀĀĀĀĀĀĀĀĀĀĀĀĀĀĀĀĀĀĀĀĀĀĀĀĀĀĀĀĀĀĀĀĀĀĀĀĀĀĀĀĀĀĀĀĀĀĀĀĀĀĀĀĀĀĀĀĀĀĀĀĀĀĀĀĀĀĀĀĀĀĀĀĀĀĀĀĀĀĀĀĀĀĀĀĀĀĀĀĀĀĀĀĀĀĀĀĀĀĀĀĀĀĀĀĀĀĀĀĀĀĀĀĀĀĀĀĀĀĀĀĀĀĀĀĀĀĀĀĀĀĀĀĀĀĀĀĀĀĀĀĀĀĀĀĀĀĀĀĀĀĀĀĀĀĀĀĀĀĀĀĀĀĀĀĀĀĀĀĀĀĀĀĀĀĀĀĀĀĀĀĀĀĀĀĀĀĀĀĀĀĀĀĀĀĀĀĀĀĀĀĀĀĀĀĀĀĀĀĀĀĀĀĀĀĀĀĀĀĀĀĀĀĀĀĀĀĀĀĀĀĀĀĀĀĀĀĀĀĀĀĀĀĀĀĀĀĀĀĀĀĀĀĀĀ
ĠPh ill
la in
ser ved
ĠInte gra
ĠH U
Li ttle
Ġfib r
Ġdeco rate
Ġexe mpl
Ġde tox
ĠPar ks
ĠLis ten
ĠD ON
ĠF igure
Ġpul ls
ĠPro grams
ula t
ĠH eat
bu cks
Ġcaut ious
Ġperce ive
Ġsca ttered
ĠPri nt
Ġci garette
ĠBe th
Ġmargin al
Ġend ure
ĠCon gratulations
Ġ; -)
ĠBir mingham
ĠA gent
nes is
Cont inue
Ġmo squi
Ġal ign
ĠAdo be
ĠSee ms
Ġpre mature
ul ted
â Ļ
Ġsuper visor
Ġgree ted
ĠPart ners
Ġtheir s
Ġbr ew
ĠCo le
cu te
Ġstory telling
i tol
ho u
in burgh
Ġcra cked
Ġcable s
Com ment
Ġreluct ant
v ior
Ġlimi tation
ĠCen ters
H ol
ĠBelg ium
Ġact ivated
Ġru mors
co t
ig ners
bo arding
Ġshall ow
Ġdefin itive
commun ications
Cl ass
graph ics
ĠR ho
ĠGra ham
Ġp ud
Ġgossi p
ĠS can
Ġexa gge
ĠGor don
pe ri
ject s
Ġma nt
ĠA po
Ġsl iding
ĠA z
ĠP ool
Ġgradu ating
Ġhu h
ĠAd ult
Ġinvas ion
ĠDe al
tes ters
Ġhuge ly
ĠFa t
ĠIns pe
Ġarch ives
Ġrepa ired
ra ys
A lex
Ġop ted
el ation
ic ul
IN K
Ġflo a
ĠVis a
Ġstur dy
I dent
de al
oste rone
Ġreg istering
Ġno od
ĠExplore r
cede s
Ġunderstand able
Ġcarbo hyd
Ġpe el
Ġla mb
Ġflu ctu
ĠEm ma
syste ms
un less
S how
Ġdefin ite
vest o
Ġirr elevant
v ale
Ġincur red
Ġslee ve
ĠSna p
ke l
Ġdecl aration
Ġno ur
Ġfool ish
Ġad ul
Ġrele vance
Ġth emed
ĠCe ll
k ia
Ġsk ies
ĠR ee
ĠU ber
Ġcompr ised
ru ct
ha na
h l
ĠFrank lin
Ġacade mics
Ġfriend ships
Ġadvis ors
Ġsh ifted
Ġben d
Ġexten ds
Ġf ighter
Ġno stal
Ġma tes
ĠBroth ers
Ġf id
Ġhub by
Ġover sight
Ġles bian
cont rolled
ĠF em
ĠD oor
Ġfixe s
ĠIn come
ĠVis ual
Ġanaly zing
ĠSouth east
Ġlapt ops
Ġsucceed ed
ĠMo ve
Lo cal
ecto r
Ġaccompany ing
ĠHigh ly
Com merce
ĠC ris
Ġhead phones
ĠGar dens
Ġrout ines
Ġd rought
ĠBas ically
Ã ¶
G ro
ne z
P DF
Ġham mer
Ġtwi ns
Ġjud ged
Ġins ulation
tis factory
Ġexpendi ture
v ine
Ġci garettes
ĠJo nathan
w ick
lo cked
ration al
Ġange ls
Ġ12 5
Ġcreat ors
c als
Ġweb inar
Ġadvance ment
ĠAd vent
fo under
ba nds
ĠSug ar
e th
ĠG ray
Ġmis leading
S ummer
ĠSto ries
ĠClea ning
Ġrich e
Ġ7 3
Ġr ipped
irst y
ĠD yna
mster dam
ĠPitts burgh
Ġa is
Ġre jection
ĠRe sults
ĠDis cover
ĠO d
W est
iss ion
ĠV IP
Ġparagraph s
ĠWal king
Ġsp icy
Ġas hamed
Ġchic kens
Ġint act
ĠPhoto graphy
Ġinconven ience
ri ad
nit ude
Ġsli pped
Ġar row
fa t
Ġvol tage
se tting
Ġcrit ique
Ġmoni tors
Ġmod ification
Ġcra cks
Ġpe nis
Ġaccele rate
ta gon
Up date
Ġcontrib utes
ĠL arry
Ġeye b
Ġvic t
Ġinitia ted
ĠCanad ians
ĠHo rse
Ġeconom ical
f un
ĠA de
i ber
ul li
kee per
Ġinfin ite
Fin ding
am ine
ĠAl bert
ĠRus sell
Ġr ider
Ġaff iliated
ĠLiber ty
rem y
Ġcell ular
O rigin
Ġorigin s
Ġconcent rated
ĠHa ppe
Ġcompet i
ĠWay ne
ĠRet urn
Ġadd icted
Ġinstall ment
ph et
Ġnot ices
com pe
ĠC ow
co ls
tu ted
Ġg el
ifica nt
Ġcom merce
Ġfla gs
Ġ: -
ĠTea ching
Ġexplicit ly
Ġcru de
ĠUp date
Ġrefere ndum
ĠL I
ĠM ight
ĠG ib
cont rol
co uld
val ent
ĠCh arge
Ġhelico pter
Ġdist o
Ġint ric
Ġneck lace
ĠA ch
Ġ til
Ġcle arer
Ġadop ting
ul ance
Ġfar th
ĠK ra
Ġmas ters
Ġen ters
O rga
ĠV itamin
ĠTra ffic
Ġda wn
Ġ9 6
Ġprote ins
Ġat tentive
ulat o
Ġhat red
un ger
Ġre nder
Ġcalcul ation
ĠJul ie
ĠB illy
nito r
ĠAgain st
Ġ18 00
Ġent r
ny o
Ġcraf ting
Ġpla int
dis ciplinary
C P
ĠI o
ĠCri me
Ġob ey
cri pts
ĠZ im
Sa fe
ĠCur rent
Ġk ills
Ġlin ge
Ġcompeti t
lic t
Ġlaugh s
Ġsick ness
Ġfe lo
Ġsqu a
utho rized
om y
Sen d
Ġspo nta
Ġgenre s
ust ral
Ġdry ing
Ġ7 4
ĠPha se
qu i
Ġunder est
posi tory
p aced
ulato r
ga ns
Ġturno ver
ĠS ean
ĠMiss issippi
tic ally
ne ring
ur ous
Ġtran qu
Ġd il
Ġimpress ions
-- --
Ġdur ability
Ġneighbour s
Ġd ioxide
Star ting
ĠFA Q
yle r
ĠFa n
fo cused
Ġ= )
ach t
ĠP ent
Ġth igh
ĠF ul
Ġrepe ating
Y ep
Ġrif le
ĠWor ds
ĠCoo per
pa th
ĠSad ly
Ġlo ttery
Ġex cur
rye r
Ġpreser ved
ĠJess ica
ĠS em
Ġeduca ting
Ġmind ful
Ġphys io
Ġtesti mo
Ġsur viving
va nts
Ġbee s
Ġ9 7
al d
Ġcompat ibility
cea sed
ason able
Ġdrea med
str e
M ike
Ġe sp
D PR
cha t
Ġamp l
Ġinstru mental
min ating
Ġsco op
be sto
ĠBas ic
ist ries
ĠCa mpaign
Ġbo iler
Ġ8 2
o rious
ĠTreas ury
Ġextensive ly
co lle
Ġcl uster
Ġtrade mark
b its
Ġbelonging s
Ġ7 1
W ed
Ġplugin s
Ġcompetit o
Ġadequ ately
Ġnegot iation
ĠH our
Ġreso rts
Ġpract iced
ĠCN N
accept able
Ġnegot iating
Ġank le
Ġwi d
ĠCon se
Ġcred ible
ĠG ri
cto rate
Ã ³
ic kers
Ġcatal y
Ġrest rict
Ġcolo ring
uche r
ĠSta ge
rif ied
ĠG i
Ġnot ably
Ġinter section
b ab
r of
op ath
Ġj ug
ĠSta dium
ment o
Ġcorre cted
Ġvo ter
Ġfas c
Ġhur ricane
Ġh edge
Ġmal ware
ĠRemo ve
f ty
ber ta
Ġbefore hand
Ġtissue s
Ġ ]
lin ks
Person ally
Ġcan s
we stern
l ift
Ġinsight ful
Ġbuil ders
ĠChee rs
Ġpreser vation
Ġcl iff
Ġconfig ure
ĠWas te
ĠPo ly
le cted
Ġ9 11
Ġdestro ying
Ġback drop
N C
Ġdisplay ing
ic ket
Ġdeterm ines
Ġint ra
Ġasses sing
Ġanti que
Ġunf amiliar
Ġcompetito r
Ġsu ms
Ġ vest
Ab solutely
Ġmel ted
ĠA IDS
Ġsexual ity
Ġso unding
Ġrush ing
Ġarchite cts
t read
Ġamend ments
e nal
ĠD inner
Ġcalcul ations
Ġincorpo rating
tech nology
Ġmoist ur
I Z
ĠGrea ter
Ġstar ed
Ġf ries
ĠPortug al
ro ids
ĠA us
Ġnegle cted
sc ue
Ġcr ashes
va ting
ĠCom ing
in stein
perie nced
Ġtid y
Ġseam less
Ġconsul ta
OC K
u ss
Ġjewe llery
Ġre gain
ĠAda ms
th rea
Ġcivil ization
for mer
Ġback pack
ĠKind le
ĠAb b
Ġemb ro
ĠAn g
Ġasp iring
ĠG A
Ġvo id
Ġhea der
Ġquestion na
ĠPic ture
Ġcrash ed
ĠHa i
ĠAb ra
ĠPerson ally
ĠT ools
fe st
ĠC ream
ĠD omin
Ġpop s
ĠBon d
Ġhum our
Ġexhib itions
x imately
ul ates
ed a
Ġremode ling
ĠDe livery
Bu ilding
Ġfavo rable
Ġfavour ites
ĠDia mond
ĠAd venture
Ġsac rific
Ġabsor bed
ĠC rown
Ġwire s
ĠTrans port
ĠCa fe
Ġmole cu
ĠEx hib
Ġal ph
nc le
ĠNa ncy
Ġment ions
Ġumbr ella
Ġprefe rably
Ġdial og
ĠB S
t ility
Ġ8 4
ĠRe v
ĠC in
Ġsh aping
ĠI nto
ĠHur ricane
Ġdish washer
ĠDemocra t
Ġno ble
ĠL iz
Ġher bal
ĠF oods
Ġde structive
Ġaller gy
W rite
j ack
Con ne
Ġ0 9
Ġprof essors
ĠC F
Ġple asing
ĠL ORD
Ġwonder fully
ĠD R
E urope
Ġar ro
Ġval ve
Ġnew born
Ġ197 9
l ists
C ent
cl usive
ĠLouis iana
Ġab usive
Ġtrans ported
ĠChe f
Ġpredic table
ĠApp lications
Ġ0 3
Ġadvertise ment
R est
ĠR ing
Ġperiod ically
ĠS MS
sce pt
Ġle sse
in ate
ĠS F
ĠP ER
ĠC ze
st arter
Ġrefer rals
Ġtemp ting
ĠN intendo
ĠIa n
ĠJohn ny
Ġcrea my
ĠA ctive
Ġcomprom ised
Ġam use
f ix
Ġover weight
Ġgad gets
- $
bo a
ĠRE AL
ĠQ ual
cast le
Ġtrave llers
Ġbi king
e he
Ġcop ied
Ġpor no
ge ns
Ġso oo
Ġun se
Ġso dium
Ġinter ve
Ġcircumsta nce
ci no
ĠChel sea
ĠW ear
Ġrecur ring
Ġgear ed
Ġpa ired
ĠPlay ers
V C
Ġme rge
besto s
Ġ ome
ĠHoliday s
ch ool
Ġh ips
Ġpo ts
ĠN ich
La n
Ġbur ns
Ġdo t
Ġtrouble d
Ġcommittee s
R us
Ġop tical
Ġexhib its
ĠW henever
Ġepide mic
Ġaccep ts
Ġhe ights
Ġpropa ganda
ĠAll ah
Ġsponsor ship
Ġinac cur
ĠBroad way
ĠP ath
Ġpilo ts
Ġ tread
Ġqu ir
ĠMet al
ĠReg ulations
ĠW ea
d ant
prof ile
Ġabund ant
AN CE
ĠD akota
Ġro de
Ġk g
Ġpa no
ĠL ead
La ter
Ġdeduct ible
Ġas yl
Ġdevelopment al
Ġbala ncing
Ġdi ary
Ġsecure ly
ĠSte wart
Ġswe ep
Ġimpla nts
Ġanticip ation
si ded
ĠN AT
Ġinhab ita
Ġcont amin
Ã ¼
r enal
ĠM U
Ġri tual
. _
Ġgr illed
Ġm ighty
Ġqu ad
Ġma nkind
a ways
Ġab normal
mail s
Ġ sno
ĠPla nt
ĠHe llo
ĠEd inburgh
Ġre vision
ĠEx po
ĠQu o
Ġbo ast
Ġfrag ile
Ġcryptocur rency
ĠBo r
J im
ĠSupp ly
Ġpal ette
ĠS car
ĠNE ED
Ġimage ry
S ay
Ġma turity
ï ¼
ĠGe nerally
ĠG round
ĠCar l
Ġhome town
Ġprolon ged
Ġtab s
la ws
Ġdep uty
ssi bly
Ġnot ch
ĠH ud
Ġsan g
Ġrib bon
ori um
ab et
me ry
Ġcir cular
v r
ĠO ptions
b la
i tine
Ġanno yed
ĠLo a
ĠY EAR
ĠRe asons
Ġb is
Ġba pt
ea ting
Ġnause a
let o
squ are
ĠCy ber
Ġsu scept
ĠF E
Ġdisco nt
Ġfea st
ĠL am
Ġemerge ncies
Ġamb ition
Ġcorrespon dence
Ġtu nes
Ġdi arr
aster n
ĠSto rm
Ġupgra ding
ĠC her
Ġintention ally
Ġsymp athy
ĠCor p
M om
M obile
ĠT X
rie l
Ho use
ĠOc cup
Ġfor ese
Ġsto le
Ġsha mpoo
e fficient
let te
Ġabo ard
ĠH oo
Ġin cre
ĠApp ly
Ġbelie vers
Ġyo ut
ĠThe m
ĠG OP
Ġform ally
Wo nder
S U
Ġdash board
loy d
Ġsh ipment
Ġ sci
ĠW oods
Ġru ined
ĠC u
ĠPH P
Ġob session
Ġp ads
spe are
W henever
Ġgues sed
od ies
Ġtight ly
ĠMed icaid
ĠAlterna tively
Ġsupp lying
Ja nuary
bb ies
Ġ sar
ĠCame ron
Ġbrigh ter
Ġvulnera bility
Ġline ar
Ġpump s
Ġconfig ured
pp iness
ĠC row
ĠRe cord
s lowing
Ġadvertise rs
i time
Lis ten
A uto
b ridge
ĠL odge
Ġill umin
Per fect
lo ne
ron ted
ĠA wesome
ĠBra in
. (
Ġargu ably
Ġglu cose
Ġguard ian
ĠLe x
Ġnote book
ĠPar ker
Ġ itine
lia mentary
Ġcon cise
st ill
ett i
co ck
Ġclim bed
ur i
Ġtrans mit
p ages
Ġdis tances
Ġch iropract
X X
Ġunbelie vable
Ġplan ner
Co mplete
eo n
& #
ue r
le ry
ĠTo yota
, âĢ¦
Ġtas ted
k h
Ġop io
Ġentrepreneur ial
Ġamazing ly
Ġ198 2
A wesome
ĠR ice
Sch ool
se rs
bed room
ĠHealth care
ent o
ĠRid ge
Ġaban don
ĠK night
Ġsna ke
Ġse ated
ract ive
v ial
Ġnegli gence
Ġresil ience
ig ma
Ġma pping
Ġbe spoke
Ġsy nc
Ġigno rant
Ġske ptical
ĠTre k
Ġmento ring
Ġcharacter istic
Ġro asted
! ?
Ġesca ped
ĠRe covery
w icked
ĠFe ed
Ġasyl um
cont ract
Ġwa ndering
N G
ĠPrem ium
IS S
Ġdiagno se
Ġsamp ling
Ġshort cut
spe cial
Ġpe ns
Ġwh ip
Ġina dequate
ĠBut ter
Ġmin isters
Ġtransform ing
dle rs
Ġemploy ing
ĠCe r
Ġreta ined
Ġdis like
ma x
Ġkni tting
ad d
ĠSU V
Ġad missions
S am
o ken
Ġtra umatic
go r
Ġlaunch e
c ud
ĠK nowing
Ġmista ken
Ġprofit ability
ĠH ugh
Ġ slowing
inde x
ĠSky pe
Ġaccomplish ment
Ġ tom
ĠHamp shire
Ġcom modity
Ġencry ption
cal yp
Ġapp rentice
Ġfin ge
W A
ĠT el
Ġpropriet ary
S unday
ĠCom mons
ĠRoge r
Ġstar ters
E lect
L ink
Ġawa iting
ĠKi t
Ġin complete
ĠDen mark
ĠG B
hear ted
Ġtravel led
ins ula
ĠEf fective
ĠL ie
Ġreimbur se
Ġproto type
. *
ĠJo int
Ġa e
Ġb ites
Ġ8 6
Ġal beit
Ġcounter parts
Ġst reak
B lue
Ġcommiss ioned
Ġinser ted
ĠM B
ĠSu ite
ĠTechno logies
our met
Ġde tention
ĠC hat
Ġlook out
ĠMult i
Ġindul ge
Ġsl ices
Ġclo ses
Ġter mination
Ġ tones
E vent
Ġde tri
Ġpost ure
Ġpr ey
Ġz oom
U LL
ime s
Ġroutine ly
Ġcollective ly
Ġannoun cing
pe ring
Ġfix tures
I X
le ntly
ing u
rit ten
A Z
Ġ198 3
a nal
ing t
S elf
ĠAt ta
Ġdec ay
Ġhe rs
Ġneces si
Ġlength s
ĠConne ct
Ġso li
Ġpro position
ur l
th ird
ĠA msterdam
Ġplay offs
ĠA rthur
Ġinsure rs
no unce
Ġstret ched
ick y
ĠTra ck
Ġenter tained
ĠM ir
ĠNorth west
Ġchea t
Ex e
E X
ĠCir cle
Ġshri mp
Ã ±
Ġpred omin
v ideo
ĠTea chers
Ġgas oline
ld o
Tr ue
Ġseve rity
Ġfre ight
Ġchee k
Ġinf ants
Ġconfidential ity
ĠA udio
redic table
ĠInd ians
app le
Ġsc ream
ĠW ard
m ust
n di
ba i
Ġ9 2
ig ible
Ġscan ning
Ġprivile ged
ic tions
Ġtox ins
V AC
Ġmy riad
ĠWarr e
ĠA aron
sort ment
r essing
ĠS L
Ġsto cking
Ġlea ks
Ġcost ing
Ġarbi tr
C our
ur ns
Ġ org
... âĢĿ
Ġairpla ne
Ġunder going
Ġmag nitude
ide l
Ġcons cience
C OM
ĠW eather
Ġtex tures
NE W
ĠS ue
Ġbea n
ier ra
Fort unately
ĠShop ping
ĠPar ad
ingt o
Ġswea ter
La w
ia tr
Ġex tin
icular ly
Ġtaxpay e
tal e
Ġtaxpaye r
ĠM C
Ġmath ematical
Ġsincer ely
Ġd inosa
Ġsn ug
lor ds
ĠOb ser
Ġdemonst rating
Ġey el
fol k
Ġd im
o unce
B ill
Ġpar as
Ġstra p
Ġin fer
vera ged
ri gh
Ġsub jected
Ġ0 2
Ġdis card
3 50
Ġsett ling
Ġinf a
our nal
Ġinteract ing
ĠM L
Ġcare givers
issa nce
Ġpolitic ian
l aced
Lea ve
ĠCa ke
Ġemp owe
ĠM ea
Ġch ick
ĠTho mpson
ĠWarre n
ĠB aker
ĠPut in
ĠB un
ĠMc Donald
Ġine quality
Ġrelig ions
Ġro ses
Ġempowe ring
C ity
ball s
Ġca ge
ĠNash ville
ĠMember ship
ĠPhoto shop
hea ds
Ġrelie ved
we ry
ĠSte ps
ĠF B
( )
Ġbar bec
ĠLice nse
ingto n
ce ans
ĠSustain able
ĠN GO
ĠColo mb
Ġdeco ration
Ġal titude
ĠOpt im
Ġm int
te le
Ġsc ales
Ġremin ding
Ġath e
ĠGO OD
ĠR om
nyo n
Ġallow ance
LE ASE
Co unt
ĠDe vice
Ġsp lash
Ġeconomic ally
A part
ha ul
ac ker
Ġne phe
leto n
g ol
Mon day
Con f
Ġsp ur
Ġwi tch
ge nds
Ġ0 4
ĠFa me
lear ning
M D
ĠH ob
ille t
cha nts
Ġapp liance
Ear ly
Ġar gues
ĠK ay
ĠStudio s
Ġbud dies
custo med
ĠV ale
ge o
Ġtim ber
na tal
Ġdistingu ished
Ġapo logies
More over
Ġlo dge
s ilk
cor po
Ġsce nic
n ity
Ġfo g
o ak
Ġmargin s
Ġdown side
ste ring
: .
Ġreun ion
il gri
Ġspin ach
Ġwil derness
Ġta ctic
Ġtherap ists
Ġenco unters
Ġhome page
tr ical
Ġsimilar ly
Ġterrif ying
AN S
Ġdeco rative
Ġlocks mith
ĠBuff alo
Ġsta ple
Ġtr us
time dia
Ġcard board
Ġce rtainty
ĠÂ ·
Ġsp ill
Ġmile age
Ġha ckers
Ġre ndering
Ġflo ral
Ġreve nge
usi ns
Ġa ma
ĠCom mand
Ġimp ly
Ġweigh ing
AR Y
Ġproto cols
Ġinter ference
Ġla g
Ġdis rup
Ġre cap
Ġpreser ving
Ġlandsca ping
ĠKee ping
Ġcon grat
Ġpe rt
Ġdeb ates
ĠLe ba
is tence
ĠH OW
Ġdele gates
Ġoppo sing
Ġf ighters
ling t
fin ity
Ġele ven
Ġcor ro
Ġdes serts
Ġfibr e
Ġci vic
B ob
ĠZ oo
Ġfuck ed
Ġna vi
ĠVe terans
Ġda n
In te
Ġinhabita nts
Ġar ises
ĠEx pert
Ġmind ed
lingt o
P H
Ġfol ders
Ġallo cation
vis ions
S tra
Ġth ri
Ġdefea ted
ĠWal t
lo e
ĠMount ains
Ġille g
Ġli tter
Ġdis par
ĠPe te
Ġart if
Ġspin al
Ġl ush
Ġpour ed
Ġrespect s
Ġsqu ash
Ġrecog nizing
Ġemphas ize
Ġbra kes
able d
Ġmecha nic
lingto n
ĠNe ither
co pe
Ġenqu iry
ĠThe ory
Ġfellow ship
P O
ĠK ris
Ġcomp ara
Ġanaly zed
Ġcrush ed
Ġtri be
Ġrecommen ding
Ġprovin cial
Ġbo iling
Ġvaca tions
ve ries
Ġ wicked
ys ter
Ġth under
Ġmir rors
Ġhorizo ntal
sco pe
si nce
Ġl ur
Po wer
ĠEle ction
il ings
Ġover time
vo rite
ĠK n
Ġcur rencies
pre ssing
ĠArgent ina
Ġl acks
ĠJaco b
Ġred und
ĠSan dy
Ġtr unk
ĠK u
Ġbit coin
Ġhere in
Ġde ceased
ĠBr ussels
Ġque ue
Ġregula tors
Ġce ment
Pe ter
Ġpe as
bal ance
Ġ sw
Ġscul pture
b irth
Ġscrut iny
Ġre ndered
vas cript
Ġdivor ced
Ġancho r
S ix
Ġas sortment
ĠR ico
Ġenqu iries
Ġ8 7
m us
Ġcon form
Ġ ts
vas ive
Ġmissi le
ĠElect ronic
Ġitine rary
ga ges
Ġdeny ing
ĠFor ces
Ġment ality
ĠS in
Ġexce l
Ġdemonst rations
Ġpre valent
Ġcance rs
H ead
OS E
ine nce
ĠA way
Ġbur ger
Be n
Ġclick ed
ĠSur v
na issance
Ġp lea
Ġill usion
ĠR ey
ĠInitia tive
Ġwra pping
Ġdiscip les
Ġg ee
me ga
Ġdespa ir
Ġco ws
po d
Fra nk
tt i
usu ally
ri nth
Ġfa de
sta t
Ġdo ck
ĠColl ins
m ation
Ġca fÃ©
Ser iously
s nor
tho se
ĠVictoria n
Ġthr ill
Ġimmig rant
Ġbad ge
ĠP oor
Ġdow ns
ven ile
r ick
Ġbom bs
Ġinter vals
Ġa fore
Ġintrigu ed
Ġyout ube
G ar
Ġh ier
Ġhour ly
ĠR ab
ĠFl oor
d imensional
AR K
Ġplane ts
O H
llan d
ĠInter nal
Ġaff ir
wa i
so rry
ĠD ip
ĠQ a
Ġped iatric
Ġbul bs
B ooks
ĠPhoto s
ĠM un
ugh ty
App arently
G ue
n nes
Ġtra ct
Ġspecific s
Ġpro testers
Ġad mits
En glish
Ġlea ning
Stan d
Ġillust rates
whe th
Ġinspe ctions
Ġsqu ir
ĠT win
wheth e
il ization
whethe r
Ste ve
ĠPe rry
Ġdra stically
Ġsp len
Ġ ov
de sign
Ġinf ringe
ita te
e red
Ġcoord inator
bec ca
Ġmanus cript
Ġpheno men
Ġrecognize s
ĠW right
Ġwi dge
Ġwork flow
Ġper taining
Ġsafe guard
ĠChee se
Pr ese
ĠCul tural
Ġsuf fers
Ġty po
B ro
r esis
u du
T Y
200 7
EN CE
f ine
Glo bal
l ly
e ctions
Tra vel
Ġser vant
Not ice
Ġst un
Ex perience
de ss
ot ally
wo w
ĠPe ru
Ġeigh th
crea tion
Is n
Ġ9 3
Ġweigh s
C y
Ġgene rates
ĠJour ney
Imp ro
Ġar chaeo
Ġfloa t
Ġpare ntal
ĠCl ar
rehen sive
Ma x
tu ated
ĠGene ration
pr ep
ĠRe cently
need ed
Ġ197 8
Ġdili gence
Ġadjust ing
ĠSpe ct
ĠT rin
Ġdu o
Ġal iens
f ill
ĠDo gs
th inking
Ġmer chant
Ġdile mma
Ġp acket
Ġsc rub
Ġpo lished
Ġgallo ns
h im
ol ph
Ġorganize rs
Ġdr illing
ĠIce land
Ġp oo
M usic
Ġland mark
Ġfil med
Ġgest ure
Ġcompe lled
ĠQu ite
Ġa merica
c ran
ĠPro blem
ĠIn crea
Ġequ ip
ĠRe ports
Ġ silk
Ġmount ing
Pro bably
Ġout right
ĠUnder standing
car ds
Ġd inners
Ġ198 1
ĠRa nge
Ġdid nt
Ġch ili
ĠThank fully
wh eel
Ġsm ug
Ġst ickers
Ġorgan ise
Ġp lo
Ġwi ves
Ġlo wering
b idden
Ġser vants
Ġunique ly
ĠB les
ĠR ot
Ġobstac le
ad der
ĠTai wan
Ġp ity
Ġintern ally
Ġ !!!
Ġinsp ires
ble ms
ud denly
ĠBar ry
Ġpro state
Lo ts
ĠJam ie
ja n
bo rough
ig ning
ry lic
Ġnega tively
ĠW oo
ho sts
Ġ196 8
bo ring
ĠRe ce
Ġjun gle
mb ra
Ġ snor
Ġbi b
ĠCB D
P E
ĠWal mart
she ll
ĠSc reen
pri nts
nis ation
ĠEx pect
Ġempo wered
ĠAd visory
da ughter
e ches
is sue
f ashioned
Ġperpe tra
Ġju ices
Ġprede ces
Ġex quis
Ġtu bes
App le
ĠTe rry
rit ious
Ġmar ble
ĠNe igh
ĠG ay
Ġstat ue
Ġcounse lor
o wers
Th ird
Ġbelie ver
Ġso lic
M ac
ĠBed room
ĠMe rry
med ical
De sign
L iving
ĠTrans fer
M icro
Ġpuzz les
c ricket
Ġcap ac
ĠInde pendence
âĢĶ âĢĶ
ter ally
Ġsim ulation
wer e
Ġcon cur
ry l
ĠC SS
Ġexplo i
Ġcon st
Ġhy p
Ġsufficient ly
ĠRep air
Ġsp ro
no pa
ĠClin ical
ĠS cra
Ġroo ted
H ist
Ġ197 5
ĠEcono my
Ġune mployed
un cture
Ġmig rants
ĠOffic ial
clip se
ĠA thle
ab el
Ġgra cious
sel ine
Ġsty ling
Ġendea vour
Ġpour ing
t owers
tche ll
Of ten
te p
Ġalph abet
ĠNut rition
sig ning
Ġbreast feeding
Ġph o
Ġth ir
me al
M aster
Ġd well
P rote
ĠF amilies
ĠPat ients
Ġfe rry
Ġsaus age
Ġautho rization
Ġind ie
Ġprep arations
ĠKa tie
Ġfarth e
E nt
Ġal te
Ġfarthe r
Ġadvent urous
ĠEvent ually
Ġacqu aint
ĠTh inking
po ly
ĠStrate gic
ĠA manda
Ġspring s
Ġreg istry
Ã ¨
z one
OL D
U sually
ĠN ine
j ury
ue se
ĠiP od
le ft
Ġspoke sperson
ul u
Ġsta gge
ĠBe ha
Ġen zy
Ġdee pest
se mble
pla ces
Ġ cud
Ġsy nthe
Ġe h
s able
gra pher
k u
C ard
t ous
ĠChrist opher
Ġph ila
Ġlo wered
ĠCze ch
ĠN BC
ĠSt rong
rea med
Ġ8 3
Ġur ine
Ġthrea ten
le te
ĠA me
ĠLe n
ĠWor kers
et c
Ġneighbour hood
sident ial
ĠDe la
N ING
Ġat om
Christ mas
ĠCha mpions
sp ice
rid ges
h eat
ĠC IA
ĠMo vement
pr iced
ĠPur chase
Ġobser ving
ĠUp per
Ġexplo sive
ĠG host
Ġy east
T est
Ġun real
son g
Ġver ses
Ġunp redictable
Ġadvis able
Ġ40 1
ĠLaw rence
Ġmal icious
Ġfurnish ings
cco li
ĠD M
ĠZe ro
ĠL if
ĠR h
of ficial
a de
Ġdwe lling
ĠCe rtainly
lo us
Ġten ure
M ary
ĠBl ues
Ġtrans plant
H y
ĠGue sts
Ġtole rate
Ġsimpl ify
S un
e mo
ĠPsycho logy
Ġac customed
ĠDe cl
sco rt
Ġtest osterone
pe rin
Ġcon gratulations
Ġimpo rts
i ka
Ġall iance
spa n
Ġball oon
ĠD A
ba th
ĠShake speare
M ult
Ġre lied
Ġmed ieval
thodo x
12 5
ĠG ates
g ow
Ġre lay
bet ween
Ġa vid
Ġvirt ue
Ġkilo me
ĠSpe aking
ĠLo ss
Ġrhet oric
Ġoffen ders
Interest ing
Ġun acceptable
Ġinte st
Ġre jo
Ġshoo ter
Ġexploi t
Ġclassi fication
Ġwhite s
H mm
Ġkitche ns
W ind
ĠE ST
Ġr ays
ĠNe il
bo ys
ĠColumb us
t oken
sp he
Ġalcohol ic
am ina
Ġpack aged
ĠSte am
ĠF ear
Ġmit igate
ĠJ UST
Ġty r
S um
Ġpreca utions
lo cks
Ġcondit ioner
Ġop pose
Ġobl ig
ĠS old
IF E
ie ves
Ġdistra ction
Ġfirear ms
Ġshoo ts
ara tus
ĠCompet ition
S D
ĠCry stal
ki t
p ub
I mpo
Ġm ice
Ġref uses
moth erapy
be nt
posi t
Ġre son
ĠHai t
requ is
Ġinto le
Ġfo ul
nse t
mi x
ĠSp ider
Ġspecific ation
AP P
Ġbor rowing
Ġ cran
d isco
Ġst are
Ġin ject
Ġgeo graphic
ĠTest ament
Ġtyr e
s by
ni val
ehe nsion
Ġelepha nt
Sup port
Ġ cricket
f lies
Ġref using
nse n
Ġcl utter
Disco ver
J ul
Ac cess
Ġinj ust
Ġwater proof
ĠLo wer
na tors
ĠMar ie
Ġglad ly
ĠEnt reprene
e ally
Ġintention al
ĠHar bor
Ġfulf il
rist ol
Ġinvas ive
Ġreme mbers
ĠExp lo
im als
Ad ditional
a id
Ġfa int
ĠPhil ip
Ġfert ility
ĠAssoci ates
Ġ9 4
con suming
Ġembra ced
ĠNe eds
gra n
tra ct
Ġpill ows
lo ca
B i
ĠM ason
Ġesse ntials
force ment
Ġy ields
h ey
w k
Com ments
ĠR ooms
Ġcompli ments
Ġdance rs
ri um
Ġd oo
ĠKe ith
ĠA ra
Ġ7 9
Ġremin is
Ġconce ss
od a
Ġble nder
ĠL uther
nch ro
Ġaccum ulated
Ġunder water
le ne
A llow
will ing
Ġk a
ĠTH ANK
ĠPla ns
Ġgover ned
iat o
ĠCommon wealth
Ġch unk
Ġtour naments
Ġvo ucher
Ġ towers
Ġsav vy
Ġday light
tal k
Ġswe pt
Ġreal ities
Fe bruary
ab s
de z
Ġdra gged
F ea
ĠJ ake
ĠE T
ĠMo ving
ga t
ĠQ U
top s
ĠCan did
ĠM BA
Ġ oak
Ġvacc ines
Sad ly
Ġvalu ation
Ġbe ts
ĠDep uty
Ġdiplo matic
Ġga stro
Ġexperiment ing
hol ding
Ġexe mpt
Ġna no
Ġpix els
ĠTra in
ĠAb solutely
E nsure
n do
con tent
Ġheav ier
di ties
cur ities
ĠW ide
th irds
Ġtho u
ĠLo cation
Cop y
IS H
Ġresearch ed
scri ptions
ĠPol ish
Ġspecial s
cra st
Ġ197 6
Ġauto nomous
ig ion
ĠSo lo
m ad
t utor
ĠOr ders
Ġp ins
Ġhar ness
ĠR ental
Ġchoo ses
see ing
Ġgra d
Ġslee ves
ĠPla ces
Ġin terim
Ġdia monds
Ġre charge
% ),
Ġd ug
Ġdiv isions
Ġsun glasses
! âĢĻ
ĠA A
ĠE PA
ĠM all
Me et
ne ts
Ġadvise r
ĠCh ile
Yo ung
Ġenthusi ast
Ġrig id
cul tural
Ġran ch
Ġcr e
ĠDe v
ĠT ee
clo pedia
Ġpro p
Ġdo nating
Ġcredi ted
Off ice
Bet ween
Ġpa tr
ĠI R
Ġreta ining
dic tions
is al
Ġnut ritious
l ifting
Ġtren dy
Ġinsol vency
Ġst ran
Ġcon stitutes
Ġea ts
Ġtime less
r eally
Ġdown stairs
ct ory
Ġtough e
Ġsna pped
Ġde mon
ĠB ull
il ia
Ġdecl ining
y eah
ĠR AM
ĠU A
ĠV AT
Ġhost ile
Ġunsa fe
ne x
ĠS ession
Ġp ione
ĠB ake
ĠAdd ress
Ġwrest ling
ĠAust ria
M I
commen d
Ġse ns
sphe ric
Ġdo me
ĠR unning
Ġtri umph
F ast
Ġin ception
qu id
Ġvalid ity
g rown
Ġsk ate
Ġ15 00
nan as
ĠJa zz
sal m
Ba n
ĠC art
Ġcar bs
ĠS la
Ġco ping
de mand
per formance
p ark
lle y
Ġeva nge
ix o
Ġend urance
ĠSto rage
Ġpo ison
ĠLiber al
Ġadjust able
Ġadva ncing
Ġcra wl
Ġband width
Ġaccesso ry
tom y
Ġextr as
ĠBa nks
Ġwre ck
ĠMont real
T ON
Ġblan kets
Ge nerally
d as
ĠC ities
Ġun law
ĠNo tes
blog spot
Ġdup licate
Ġgem s
Ġsla ves
ber ts
ĠDad dy
" :
Ġphenomen al
U P
Ġpossess ions
Ġsele ctive
Ġportra its
i mo
S ol
Ġalle viate
c lan
Ġwhis pered
Ġsurvey ed
Ġvac cin
Ġa il
ĠK ath
in fo
ta ny
Ġdi ab
Ġtack ling
Ġswe eping
Ġcom missions
Ġin sufficient
mo bile
ĠHist oric
ĠP rom
cu ted
U lt
Ġagree ing
ĠO H
Ġmar riages
ra cle
ĠEducation al
Ġ8 1
Ġber ries
Gr e
ĠIran ian
.... ...
Last ly
ĠPartner ship
mpa t
Ġtreas ures
ur ning
p ting
Ġh alt
si x
ac ific
ĠLoa n
TH ING
Sp ace
F ar
Ġliste ners
ty ard
Ġtrig gers
Ġcu cum
Ġho bbies
Ġam using
Ġsound track
Ġcoordin ated
Ġasse rt
Ġgame rs
Ġchef s
s ul
Ġre bo
Ġte nse
sh oot
threa tening
Ġera d
ĠF ill
ult ry
o ct
Ġda mp
ĠStar bucks
Ġteach ings
pa nic
ph ra
Ġbri des
Ġno de
Ġthea ters
p g
ĠCamp bell
Ġar mor
Ġtra cked
Ġfacto ries
ĠElement ary
ĠA y
Pr ior
Ġgam ble
Ġdest iny
Ġmin us
Ġaco ustic
sp ring
Ġ197 3
e mp
ĠA k
Ġca tches
Ġtu cked
ĠY u
vid ed
ĠCom pe
ĠBa tman
ĠMar io
Ġend ange
Ġgra pe
ĠCap itol
Ġout break
ĠWonder ful
ĠAsh ley
ca ine
Ġmaster piece
Ġfear ed
D I
Ġgeo graphical
AB LE
ob ia
ĠRepresenta tives
Ġsn ip
zz i
ĠMa tch
n gine
ym oon
ara h
Ġrele nt
Ġfulfill ment
ĠD one
Mem bers
ĠN urse
Ġvig il
is ms
ĠT ask
Ġmy ths
Ġcafe s
d rive
Ġdif f
Ġcoll age
e ll
Ġide o
! .
off ice
Ġentire ty
Ġ4 50
Ġce ramic
Ġsal ads
Ġsim mer
vesto ck
ĠH old
c log
Ġsubject ive
pea t
Ġteam mates
Ġstee r
Ġwi fi
ĠFin land
p assed
ĠBlu etooth
Ġli vestock
Ġdefic iency
Ġcap tures
Ġbenefi ted
v ian
oria n
y et
Ġ8 9
ĠLa nds
H R
Ġpre sumably
ĠEvery body
S ource
ĠS oph
o a
Ġfra med
Ġreprodu ctive
Ġmo ck
Ġd ictionary
Ġtw isted
Ġpara meter
Ġal ley
Ġpro tagon
Ġremark ably
Ġgre eting
Ġaston ishing
nge vity
Ġhall s
sh eets
Ġ token
be ls
zo r
Ġsu cked
ĠTo morrow
fa ult
Ġg oo
Ġ tutor
ĠFire fox
T I
Ġinten ds
Ġcontrib utors
H E
Ġ> >
Ġthy roid
Ġri pe
ĠMonta na
in ters
Ġint ru
Ġh ust
Ġfo il
ree s
le tin
ĠDep ression
ĠF lor
Ġthick ness
Ġreal ization
Ġfl ue
Ġprese ntly
Te n
su al
ĠCert ified
Ġch in
âĹ ı
Ġcompr ising
Ġconte sts
Ġfic tional
lato r
Ġp iv
Ġin valid
va tory
su per
Ġcrew s
Ġaddic tive
o ssed
Ġentrepreneur ship
Ġimp lied
Ġattra cts
t ossed
Ġinterpre ted
Ma t
Ġphila nth
Ġ9 1
ux e
Ġco ats
ĠMo ro
fe lt
sca pe
ĠOw ner
Ġfis her
Ġinstru cted
Te r
Ġapo logy
Ġcour teous
rmo nt
ixo n
ĠG iving
Ġinfect ious
ĠEa gle
Ġsup porter
Ġbull shit
ĠH VAC
Ġth umbs
n te
Ġexplo itation
ĠMar shall
Ġad renal
ĠF light
Ġpin ch
Qu ick
Ġbur gl
A vailable
A bility
Ġcolo nial
pto r
Ġaspi rations
Ġvom iting
Ġlaw suits
ĠVers ion
di versity
Ġcal orie
Ġimpro per
ĠTi ger
Ġscar ce
Ġbas il
Ġcon gregation
Ġ0 6
Ġaggreg ate
ni mous
st ri
ĠW iz
Ġpul se
b bing
Ġfin als
Ġdeta iling
Ġserv icing
ĠYan kee
Ġtwe nt
T ickets
ĠGl as
lic ants
ĠÂ ©
Ġpay day
Ġoccup ational
Ġforge tting
Ġcoin cidence
Ġli bert
Ġd y
Ġ197 2
Ġauthent ication
ĠA V
Ġanaly ses
Ġdis gu
] [
ĠMur ray
Ġoptim um
ĠEss ay
Ġbr unch
Ġwi ring
va tors
Ġcoope rative
Ġafter math
Ġwith stand
ĠShor e
il der
Ġwise ly
con duct
Ġclass ics
Ġbe g
Ġsuscept ible
we nt
Ġmicro phone
f unded
Ġinit iate
Ġvo uch
Ġretrie ve
Ġoptim ized
ĠP ump
n ics
a gon
Ġim per
. ),
P age
stitution al
Ġdea f
ric ular
ba ne
Ġir regular
Ġcra ving
Ġgal lon
ĠUlt imate
Ġinter rupted
ĠPer iod
Ġin cap
Ġa ce
Ġgrin d
Ġdar n
S M
ĠD ese
Ġtemp tation
Ġsu ff
ĠCa nyon
ĠS ce
Ġan ten
Ġcur tains
App ro
Ġres po
Ġla nes
Ġdo ts
ĠDow ntown
P ORT
ĠReview s
C ut
Ġfrigh tening
ĠOrigin al
ĠPic tures
ro se
ĠAssis tance
Ġwriting s
Ġbr ass
T urn
E mploy
Ġback p
Ġpred iction
load ed
o un
ri dor
Ġrab bit
Ġcan al
f s
Ġexp one
d ad
ĠThea ter
Ġyoungs ters
Ġpass ions
itle r
ĠTe sla
o nnes
ĠY outube
mon ia
ĠX P
Ġclea ners
ĠL unch
Ġcatal ogue
Ġtoile ts
ĠDe te
st ay
Ġde par
ĠU ncle
L eg
Ġbook store
t onnes
Ġquo tation
boa t
Ġun fold
iato r
ĠA ud
Ġpedest rian
de ning
Ġth ee
inf lammatory
Ġde hyd
Ġce ilings
Ġcalcul a
ba gs
Ġexe mption
Ġcomfor ting
Ġ0 5
Ġcen sus
Ġemplo ys
ĠHar vey
mo tive
ĠQu arter
velo us
Ġcollap sed
Ġ19 00
Ġfla mes
Ġbath s
Ġvalid ation
ĠLu cy
Ġpre sidency
ĠAc ces
Ġconver ting
Ġrain bow
Ġdis reg
ĠU I
ĠP LEASE
Ġtime r
Ġlogo s
Ġrevel ation
Ġe na
ĠDan ny
te ll
ĠDe velo
ey ed
ring ing
ĠGu aran
io p
Ġlear ns
ĠM ino
ĠOr ch
ĠPy thon
Ġci ting
ac le
Ġ197 4
â ĺ
Ġch ess
Ġcalcula t
nc r
ĠF ee
Ġse ized
Ġreprodu ce
Ġbor e
ĠInter ior
y outube
ĠT rea
li ttle
Ġcalculat o
Ġscreen shot
Ġup front
Ġcalculato r
Ġas bestos
Ġalar ming
ĠIss ue
Ġfemin ine
Ġmin ia
nc iliation
Ġfinge rt
edi t
E ither
ĠVo tes
Ġavoca do
ĠP od
Ġprosecut ors
Ġcolour ful
Ġver dict
ĠI da
ĠPr ior
L OL
OW N
ĠS us
ĠCru z
H ard
Ġ tossed
ĠSunday s
ĠA stro
ĠD AY
i ger
ĠOli ver
Ġhall way
Ġnot icing
ĠArt ist
ĠAutho r
Ġdistrib utors
Wh ilst
Ġoffen ded
ĠRa nch
Ġbran ded
ĠBM W
ĠR ow
pe nt
à ¸
Ġsub way
b as
Ġcomm ute
ĠH unt
Ġwi ped
se arch
Ġconf ined
ig ned
ĠGue ss
ĠTour ism
ĠHo nda
ĠS cal
ĠNone theless
Ġbarbec ue
ĠE nsure
ĠGra m
Ġag gra
Ġla ce
w ary
Ġfresh man
al ia
Ġfol lower
200 6
ĠAcade mic
ch ief
wi r
sta tic
N obody
ĠCr e
Ġ196 9
ĠImpo rtant
Ġskin ny
ran ted
Ġr ivals
Ġpe sts
ele ction
ĠRe ci
Ġmag net
Ġse cular
P op
: :
Ġru ins
ĠRe lease
ĠA tt
in ated
pe ror
ĠF irm
Ġdisse rtation
b ial
ĠS ierra
f riends
Ġsigh ed
Ġdump sters
ĠC ub
Ġwas her
li b
qual ified
Ġconf ronted
ĠL ay
Ġpersonal ised
Ġsa tisfactory
Ġl ion
Ġprin ters
sup port
Ġstim ulating
ĠN J
Ġâ Ļ
s ser
Ġproceed ing
Ġ50 1
ĠG U
Ġcommercial s
ĠWee kend
Ġbla med
im ination
ow ners
Ġhydro gen
Ġbl iss
Ġcoope rate
N ET
Ġmea ts
B LE
Ġinter mediate
ĠHe len
ĠFour th
Ġclass mates
ver ted
ĠBrazil ian
Ġf ills
Ġste ms
Ġaccommod ating
Ġ197 7
Ġfore closure
ĠT un
Ġapp aratus
l ice
Ġtu mor
Ġbe ard
Ġ196 7
Ġfo unders
Ġeven ly
Hu man
ĠMana ging
f lower
ow ner
K i
ĠSho e
ĠPortug uese
op a
ĠProject s
Ġh ay
h one
Read y
dit ioned
Ġfin ale
Ġdoct rine
ĠGra duate
ĠM ira
Ġ tonnes
Ġparad ig
C han
Ġmeta pho
Ġdra wer
ff les
Ġrestric tion
Ġmean while
ĠAl cohol
Ġrespo nds
lo cal
perin ten
o ks
Ġexp ired
R un
Ġrest art
Sm art
Ġma c
Ġemp ire
Ġch ro
Ġpu ppies
ĠReg ular
ĠIss ues
p acked
ut ation
ĠPoli tics
de signed
De tails
Ġun le
Crea ting
Ġmar vel
ĠY ES
ge nic
ĠC lay
Ġinter val
Ġinstit ute
ĠBl oo
Ġsoo thing
cra tive
Ġsafe gu
Ġsur plus
Ġcomp liant
Ġpar cel
Ġenhance ment
F ire
Ġsco o
ĠI tems
ĠDe co
Ġdirect ing
Ġformer ly
Ġte asp
Ġele vation
D E
n umber
ĠAut umn
ĠA nswer
Ġdealer ship
ĠS tee
Ġgovernment al
bal a
Ġunve iled
Ġba st
Ġg y
produ ct
Ġr ash
som nia
ch et
Ge r
Ġbio graphy
ĠRest o
Ġfair ness
Ġopening s
C lean
un al
ĠS ar
Ġdomin ate
Ġimpa ired
Ġstat ute
Ġam bi
e as
ĠE ating
L y
Ġgeo graphy
Ġcompe tence
Ġgre et
Ġeco logical
ĠT ip
Ġper ks
Ġbatt ling
B log
ĠAl berta
Ġcha mpagne
Ġpis sed
Ġline n
Ġme sh
Ġwo lf
no id
E dit
ĠH ab
ĠRob inson
ine a
ĠMur phy
ob a
In dia
Ġpost al
ã Ģ
Ġbag gage
Ġfelo ny
ĠBapt ist
w y
ĠCir cuit
ten cies
Ġmo l
W S
ĠS par
Ġke r
ĠDa wn
G M
ĠD ear
Ġreside ncy
Ġceleb rates
ĠCoal ition
Ġfundament als
Ġre vo
Bas ically
j amin
Ġpers ua
ĠVis ta
ĠEgypt ian
im i
Ġsmo ked
Ġweigh ed
Ġfra udu
Ġkno cking
ri k
oo ts
Ġcoo ker
Ġcom men
Ġgroce ries
ke ley
roo ts
Ġstraw berries
te o
ĠC ars
ĠT as
ĠCamp us
Ġass assin
ĠAct ivities
o nset
Ġro d
A nswer
Ġinfa mous
ga e
sa tisf
ĠTele vision
Ġun b
Ġout lines
Ġsan dy
Ġma st
Ġresc ued
R ather
Ġinqu ire
ĠScri pture
Ġstret ches
Ġzomb ie
Ġdro nes
S k
Ġfo cal
Ġele ctoral
F E
han ie
fe nse
ĠPro ced
In divid
sen sitive
L arge
Ġident ifies
ta iled
ĠRo of
ĠCoun sel
ĠC ot
Ġsta ins
ĠP ine
? ).
ĠAdvert ising
Ġhu gs
Ġbu ys
ĠGo v
Ġscrew ed
ĠD rink
Ġoblig ed
Ġdis pro
Ġquant um
Ġsee kers
Ġunco vered
Ġambi tions
Ġas sho
Ġjour neys
Ġrail road
nk y
Ġamb ulance
ĠPsy ch
chem ical
Ġsympt om
Ġintegra ting
ĠB U
Ġfea t
co unter
Ġsto cked
Ġnor ms
Ġwhich ever
ĠMar garet
ili ate
Ġmar sh
Ġh ind
Ġais le
Ġrecy cle
mar kets
Ġp ist
Ġcor p
< /
manage ment
un dering
ĠK h
doe s
ĠDel ta
Ġen glish
Ġspe eches
Ġol ds
ding s
Ġmanip ulation
Ġterrit ories
Ġplay off
Ġtwee ted
Ġbo u
Ġperfor mer
Ġear rings
ĠA ns
Ġstri ving
Ġup wards
D ad
Ġbe am
Ġslow ed
Ġprodu ctions
sh aring
ĠCh uck
ĠRespon se
Ġcolo n
Ġch lo
Ġlo cker
dom inal
Ġprice y
Ġfant as
âĢĿ ).
Ġacco unted
A round
Ġbroch ure
Ġpro nounced
l ooks
Ġsimilar ities
Ġinheri ted
ĠR ica
J ob
Ġfold ed
Ġer ra
Ġunder wear
ĠGro ups
l oo
Ġcolle ctors
Ġquarter back
Ġaf for
ĠGa za
ĠIraq i
ĠDoug las
Ġbroad ly
Ġconsolid ation
Ġno vice
Ġcal ib
un ct
ĠSa ints
Ġun used
ige rs
F ill
nito ring
est ablished
u ces
Ġ clan
for cing
Pr etty
op ol
ĠMain tenance
ĠEn gage
Ġvio lated
Ġuna uthorized
Ġembra cing
r pha
ĠWeek ly
Ġbid ding
Ġwh olly
Ġjust ification
is ta
Ġmet ric
= "
ĠJul ia
fa n
o rpha
ĠH oney
ĠSa tan
Ġgra t
Ġexquis ite
ĠAssoci ate
Ġup ward
ĠYour self
ur us
Ġga ses
Ġ **
Ġre ef
ĠD IS
Ġdepend able
tho ught
sta in
ing ing
Ġâ Ŀ¤
Ġintrodu ces
ĠHU GE
ld om
Ġg lowing
ie tal
ĠR ush
ie th
Ġborrow ed
Ġcolle ctor
Ġdis pen
Ġintimid ating
C la
ĠC hen
Ġpersu as
Ġu no
ĠAcco unting
Ġcur tain
Ġmort gages
Ġdo sage
Ġe book
Ġremin ders
nony m
Clo ud
Ġlu crative
Ġbab e
Ã Ĥ
ĠAl t
Ġment ors
Ġun rest
IN T
oc ks
e astern
Ġdistra ctions
ĠFort une
ĠE mo
Ġpic tured
Uni ted
od ia
g ary
ĠR EC
Ġmarke rs
Ġhor rific
do ing
Ġcredi tors
Amaz ing
ol as
ĠMar riage
Ġliqu o
Ġscar f
Co st
alon g
ĠVe nez
ste ries
Pare nts
ĠW R
Ġrecall s
ĠHo tels
ĠLo ved
ĠTh ought
Ġr ation
Ġmer chants
Ġorganis ms
por tion
Ġprivile ges
Ġamuse ment
op o
some times
Ġgo a
Ġfundament ally
ĠJe remy
ind y
ĠAS AP
gne tic
Ġlea ned
Ġur gency
Ġcont amination
Ġfre nch
ĠD ru
Ġel imination
Ġaccus ations
ĠB ishop
ĠD ining
Ġoptim ism
Ġprote ctions
Ġconsulta ncy
ĠPe ters
! '
ĠProf ile
Ġmar ker
Ġquestion able
Ġsquare s
vie wers
e ngine
Ġk o
niz ations
Ġener g
tta wa
b lue
Ġdr ums
Ġta d
if iers
ĠVe rmont
lo ss
Ġdelive ries
Ġ velo
Ġche motherapy
ĠPe nn
ĠRea gan
Ġy rs
ĠYo r
ley ball
L ist
Ġno isy
ga tive
vale nce
RE N
Ġlegisla ture
Ġre pository
al ph
Ġ itch
Ġra ins
L ight
sm all
Ġliquo r
ĠD om
200 5
Ġhe ctic
Ġflu ids
no tic
pract ice
load ing
ĠP E
ĠMor ris
king s
ĠSee ing
OS S
ĠAr ctic
E mail
ĠG OD
Ã ¤
Ġ tier
mi nology
Ġafore mentioned
Ġsor ting
Ġfert ilize
H ea
Ġinput s
Ġpre tending
Ġtransfer ring
Ġconcept ual
Ġnice r
Ġpop corn
ĠMate rials
v s
AT ED
play ing
ĠTry ing
Ġbod ily
u ven
Ġab ol
Ġpreced ing
Ġdis pose
H onestly
da n
x ual
Ġpat rons
e z
Ġslee k
V ED
ok ie
Ġfore casts
Ġthan ked
Ġsubsi dies
Ġnutrie nt
ĠTHE Y
Ġide ology
Ġinter viewing
mber g
Ġre ap
D igital
Ġfu ss
ĠM ob
Ġmanip ulate
ĠHud son
Ġtax ation
ul as
B ox
ĠSac ra
a uto
ĠFant asy
Ġfingert ips
Ġsurre nder
Ġbur gers
P ic
N umber
Ġtra ction
Ġsa una
b sp
Ġcur se
Ġmagne sium
Ġcha mpions
Ġeffic acy
ĠS QL
Ġvo cals
ĠDri ver
Ġp als
ĠI BM
fe i
Ġgra nite
ĠScient ific
ĠGu ys
ĠPro t
Ġtra i
Ġtex ting
ĠPo sted
E ducation
ĠThrough out
Ġla me
sol ving
b read
Ġgate way
Ġtoughe r
Ġha nding
ĠCla ire
Ġflood ed
Ġco sy
igh test
ĠNa z
t ness
ĠP ier
ĠRo ute
ir ical
l lor
W N
Ġbubble s
Ġground ed
K S
ĠMess age
Ġgentle men
ĠEngine e
ĠSt ru
Ġchore s
Ġcontinu ity
ĠS ter
ĠTa mpa
Ġdra nk
ĠRe solution
Ġ orpha
mo red
H O
ĠA la
Ġdisco veries
Ġtrust ing
IR ST
pol ar
ĠMin utes
Ġpartner ed
Ġpictures que
Ġtruth s
ĠTra ding
Ġimmense ly
ĠEnginee r
Ġha cking
ĠJa ma
Ġins ult
Ma tt
d ul
ĠG DPR
in ja
Ġcontrib utor
Ġshout ing
Ġcapital ism
Ġpod casts
min a
ousa nds
ĠF ig
TH ER
ĠP ix
Ġveterin ary
Ġoutsour cing
ĠVio lence
Ġboo sting
ĠW ake
pr essed
Ġpro crast
Ġprie sts
Ġharm less
ni tal
Ġdiarr hea
Ġextra ction
O ffic
ĠOut side
Ġswi tches
Geo rge
Ġcritic ized
ed o
Ġtrai t
lan der
Ġhar mon
Ġpra ised
ĠB ib
ĠPla za
ĠImm igration
i ar
Sh irt
fin ished
ĠAir lines
ron ics
L u
ĠE S
e nergy
Ġpre cip
Ġsta kes
ĠSet tings
ĠS tr
Ġje rk
Ġobsc ure
Ġdisadvant ages
sh ield
Ġfla wed
io ce
Ġwrink les
b ee
Ġpharm ac
Ġref rain
ĠRe tail
ĠRo le
Ġen closed
R Y
ma na
ĠDe scription
Ġa nest
Ġone self
o rd
ĠBe hind
Ġfashion able
Ġstub born
pur pose
Ġco usins
Ġbench mark
Ġlo rd
Ġ3 000
ĠF ew
Ġlo ngevity
t ly
Ġpersua de
Ġpestic ides
te ries
Ġilleg ally
ĠEx perts
ĠST EM
ĠIma ges
Ġrep ublic
Ġpun ished
bru sh
ĠCale ndar
ĠConser vation
Ġdire ctive
Ġcl ut
o sis
Ġra m
Ġsu e
Ġcomp ression
pe ry
e sso
Ġprob able
Ġenl arge
ĠF ix
wi e
ĠF UN
OUN D
Ġcorr elation
Ġmas ks
Ġdep ic
Ġshel ters
ĠE di
Ġbl acks
f u
Ġneed les
ĠP ers
Ġme ssed
va tar
Ġmut ually
Ġste llar
ĠM I
ĠB ristol
ĠVP N
Ġst icker
b io
ire ment
e reafter
Ġexcl ude
tho ra
Ġfut ures
ĠPar king
Ġstaff ing
Ġappare l
Ġbalance s
Ġfundra iser
Sp ring
ĠVeh icle
T ri
ĠC BS
ĠW AY
Ġod o
ĠTe mp
Ġst umble
Ġpre school
ĠSwi ft
Ġsan ctuary
Ġmino rities
Ġuna nimous
Ġgoa t
Ġsho uted
ĠCrea ting
Ġspec s
Ġ clog
Ġexce eds
i qu
Ġresil ient
Ġexcer pt
ĠClear ly
Ġde creasing
Ġwel comes
Ġphilosoph ical
Ġh in
inee s
Ġresto ring
Ġcer eal
ĠPalestin ians
vr e
Ġmisunder standing
ig nant
Ġdivide n
ĠT odd
ĠMa tter
Ġdividen d
ĠConser vative
th erapy
A side
la h
lic ted
us able
Ġcho ir
ĠNew castle
ĠB uck
Ġma mm
Ġow ed
Ġspecial izing
ĠVe te
Ġg rit
Ġk indergarten
ĠOrga nic
ĠMi tchell
ĠP ages
Ġnood les
Ġprob ation
Ġslic ed
ĠAssoci ated
Ġsupr eme
Ġha tes
Ġdepth s
commen ded
ĠMa j
ĠStan ley
Ġsour ced
K ids
ĠBan king
Ġpaint s
ĠI L
Ġgathering s
ĠVenez ue
Ġli abilities
impo rtant
el led
Ġconcl udes
ĠTo r
ĠM ul
tha m
1 10
Ġh rs
d ars
gha i
Ġun paid
Ġtar iffs
ĠÂ ĵ
Re move
o ceans
Ġvaca nt
pi t
Ġfore head
âĢĭ âĢĭ
Ġmar velous
ĠMara thon
Ġpro xy
ric tion
Ġmotor cy
ĠL CD
Ġa ired
crea m
T ip
Ġco coa
f ea
ĠH ip
ĠArk ansas
ĠD riving
Ġal mond
vo red
Ġprejud ice
Ġd Ã©
cuss ions
ĠCitize n
Ġth ereafter
gl ass
E U
Ġcard iac
tr us
ĠTho r
ession als
Ġsecret ly
Ġac up
ain ted
ĠL ion
li ving
Ġbur nt
Ġvio late
ula tory
Ġtrans gender
ĠC AR
Ro bert
Al terna
Ġdad dy
tr ics
Ġphotograph ed
ĠCru ise
Ġse w
Ġ197 1
ĠMon te
R T
ĠCha se
tras ound
cas ion
Ġho se
ĠAnge ls
mpo sium
Ġom i
co logy
Ġbe ads
i aries
Ġdisg usting
Ġfore igners
ven der
f acing
Ġpo ny
ĠDis covery
ru ptions
Ġplay ful
F ant
Ġbl ink
ĠPear l
ĠH eather
Bet ter
F ORE
Ġun sub
clea n
ĠAB OUT
Ġcompens ate
resis tant
ffer son
ĠA wareness
Ġph y
ĠRe ality
IG N
Ġthr illing
Ġmo der
bu y
ĠS uda
Ġbla des
ĠL ucky
Ġclean sing
Ġra ts
ĠS tress
n dars
Ġwork load
ĠA qu
r gy
Ġla mps
ĠNew t
Ġb iased
Ġmon key
Ġf reaking
Ġdar ling
Ġhesi tation
ĠOak land
Ġhard wood
Ġg ly
G ene
Ġtestimo nials
De c
ĠLI KE
ĠPa int
Ġex h
oun ces
ar ts
ĠB eer
Ġter minate
Ġrese nt
Ġma ternity
Ġcan ned
Na me
Ġsigna tures
Ġele gance
Ġinsure r
ung al
Ġter ra
Ġfo nts
ĠB ris
Ġbl oom
Ġpig s
Ġbar rels
m oney
Ġple aded
ĠNa than
Ġwh ipped
ĠP ie
Ġmap le
ĠW hats
Ġaccount ant
Ġlaunche s
g ian
ĠBang lade
Ġ oceans
c ie
Ġany ways
Ġal pha
sti tuted
Ġtro phy
Ġterrif ied
co nta
ĠS N
Ġkilome tres
ĠProt o
Ġna ming
tra ining
ĠD H
Ġauthentic ity
Ġident ifiable
ht m
M ad
Ġspe lls
Ġindirect ly
sor ship
ĠLaure n
prof essional
Ġhand ica
ĠB art
Ġmo tto
Ġra ining
Ġantioxid ants
n za
Ġafter ward
Wri ting
ĠM ic
ĠK ill
ma id
ĠN ear
ĠH itler
ĠP izza
Ġcra cking
ĠT yler
Ġnur ture
Ġca che
service s
Ġbox ing
ĠA unt
Ġspark ling
Ġmul timedia
Â ¦
ra ture
Ġadoles cents
Com ing
ĠRich mond
Ġ wary
M id
no mic
ĠS om
ĠS ilicon
Every body
ĠM t
ĠLu cas
prising ly
Ġend uring
Kee ping
e nter
Ult imately
Inter ested
ĠAlp ha
Ġbl ows
ĠFac ulty
Ġemail ing
lt o
Ġbed time
Ġquestionna ire
Ġdo lls
ĠShe l
Ġex changed
ĠCo mpo
Ġspo il
ĠConsul ting
s way
e ster
T otal
ro nes
T im
D am
ran da
ĠPo ints
ĠEx am
Ġa mino
Ġrepet itive
Ġu h
Ġreno vations
Ġunlaw ful
ĠDan ie
ĠTy pically
ĠMa nual
Ġconsul tations
Ġcomp ile
pro bably
Ġn iece
7 50
mer cially
FOR M
Ġp reach
vi tal
si gh
ĠE dit
Ġsix ty
Ġsa turated
fin ition
lue nce
T M
D i
Ġinvi tations
Ġac cidental
see n
ĠU V
Ġ oo
v ise
Â ¡
E m
Ġwi ki
ĠTe rm
Ġ ounces
ver ts
Ġmis conce
Ġdoors tep
ĠK yle
tt ling
Ġbro ccoli
ĠRub y
Ġanno y
Ġdemo ns
ĠK irk
) -
Ġin comes
Pr ice
Ġcome back
Ġin nings
Ġaffili ates
Con grats
Ġent itle
ĠIndivid uals
Ġae rial
ĠSure ly
Ġsen sory
if ty
ĠG oods
ino s
alle ts
Ġun related
ak i
ĠS ie
Ġso ber
Ġsp ider
ist ine
Ġcontamin ated
Ġkis sed
ĠJe fferson
ĠGlas gow
center ed
n ine
K ing
Ġin cidence
ĠEva ns
ĠBa g
Ġse du
Ġref unds
ĠFlor ence
ĠBu ilt
Ġredu ctions
um ing
Ġcheer ful
iling ual
ĠRe scue
ĠRan d
Ġgrab bing
Ġbow ls
S wi
term ined
Ġbul b
Ġhoste l
ĠB A
mea ning
ĠRea der
Ġtra der
Ġtrea ty
pe rial
Ġbe gging
ĠCe rtain
ĠN early
Ġphotograph ic
ĠCont inu
ĠP ul
L ow
x o
Ġdis rupt
Ġright ly
ĠA bu
ĠMa ma
Ġiro ny
Ġmel ting
Ġfire wall
ĠOut look
k ok
E le
D ire
Ġpoiso ning
Ġde pressing
ĠNow adays
g iver
Ġpet rol
Ġbi ble
Ġtim ley
Ġun willing
Ġ17 0
ĠB ab
ood le
Ġci der
ĠDo mestic
Ġperce ptions
Ġel bow
R edu
Ġob ed
Ġfragra nce
con ditioned
fe ed
loca ust
ĠEmploy ees
ĠPh iloso
Ġf ry
ca tions
ĠPla tform
C ri
ĠJe nny
Ġbe lls
sel ler
Ġcomman der
Ġquant itative
Ġslo pe
X T
ĠExce llence
Ġspread sheet
conf idence
Ġta pping
Ġconvers ions
ĠF ir
Ġsolid arity
Ġe scort
Ġcr ashing
Ġwi red
Ġ196 4
ĠCP U
Ġab ide
ĠFrame work
Ġestablish ments
ĠW AR
ĠG riff
ĠSy ndrome
Ġpert inent
ed ral
Ġconser vatives
ĠP D
Ġre ju
Ġhypoth esis
Ġissu ing
Never theless
Ġsa nit
ĠL ights
IL D
ĠT ab
ĠâĢ¦ .
? .
cour age
Ġba nanas
Ġexpendi tures
in vest
Ġdoes nt
we a
ĠAbra ham
wa ge
Ex cept
ĠCris is
ĠPa na
ĠDe vil
Ġshe riff
ĠNo bel
ĠNu clear
Ġsubur bs
ĠWild life
AN G
Ġstand point
Ġsk ull
ĠL abo
ĠIda ho
Ġintrodu ctory
ĠC ine
ĠP ART
ĠArchite cture
IF A
Ġarbitr ary
Ġfa ulty
T uesday
ĠMU CH
ĠAC C
nc ient
Ġen vis
wai t
Ġinstin ct
Ġcy linder
Ġre ps
Ġbirthday s
ssi e
Ġsh rink
f ed
al most
Ġcatastro phic
Ġpsych iatric
r esso
ĠSER V
Ġacquis itions
Ġtri bal
Ġprepare s
ĠCo ve
ĠO ttawa
ror ism
Ġcompar isons
Ġwi nding
man der
r ust
Ph ys
Ġsafe st
Ġ sway
ĠAd vice
% ).
ĠWell ness
W al
Ġplan ners
Ġmet all
Ġanth ropo
Ġ20 30
Ġno des
Ġaff irm
Ġimpa t
Ġcarbohyd rates
Ġquir ky
te am
B ot
Ġassis tants
Ġmole cular
ĠElect rical
Ġsh ark
int ain
ĠVen ice
Ġwhere by
Ġhone ymoon
r unning
e u
Ġf ist
ĠO z
Ġcloud y
Ġse ldom
Ġchee ks
Ġm ines
Ġstagge ring
Ġp c
Ġvolca no
ill as
Ġpart nering
Ġendorse ment
Ġcompa nions
quest ion
Ġmad ness
ĠP in
Ġpoint less
si nesses
ĠFact ory
ĠMer cedes
no thing
hear d
Ġ19 65
F P
ĠHar per
R ad
Ġbib lical
Ġpump ing
ĠS ke
Ġgra pes
Ġman ga
âĢĿ :
Inc rea
mo de
Ġ onset
Ġassu mes
W AYS
ra ising
head ed
sh ooting
Ġreceip ts
ĠNur sing
Ġad di
Ġimpla nt
Ġcup cakes
ĠS pon
Ġpant ry
ĠE vil
Ġp uff
Ġpal ace
ĠS low
A ustral
Ġin mates
ĠNep al
Ġdevo te
ĠCom b
Ġjump s
Ġb ins
iso nment
ĠMa ps
S al
I nit
Ġe lastic
Christ ian
ĠFea tures
rin ted
ĠMon ica
Ġtrave ler
Ġadv ising
Ġjo king
F R
Ġmanage able
Ġf ashioned
wri ters
Ġe scor
Â Ģ
n site
ĠS ites
Ġirri tating
ĠP ure
ĠFis her
io graphy
Ġcar ved
ĠLake s
Ġtact ical
icul tural
Ġdra fted
Ġgrin ding
E p
Ġtele communications
Ġlif ts
cas ing
ject ive
Ġl ingu
âĤ¬ âĦ¢
Ġvent ilation
Ġa no
Ġag ile
ĠNor man
Ġinstruction al
Ġfl oods
Ġcolle cts
Ġf lic
ĠGro ve
Ġcomp ilation
ĠR uth
Art icle
Ġlegisla tors
Ġin h
Ġre el
Ġj elly
ĠCab inet
d ish
Ġcop ying
o nsite
S oft
OU GH
ĠChem ical
sea t
Ġst itch
ĠParticip ants
st uff
p aste
Ġg ourmet
Ġsla ughter
Ġbron ze
Ġcon ventions
as ia
Ġbla h
ĠAd voca
Ġhash tag
Ġope ner
Ġhigh s
Ġout s
perinten dent
sie s
us ters
Ġdivide nds
Ġar c
zz ling
Ġpate nts
Ġanaly se
ĠPhys ics
Ġbul lets
ĠSh adow
Ġexp ire
Ġswall ow
C ho
Ġcolo ured
Ġfraudu lent
Ġrob bery
R ay
Ġsuper hero
Ġside walk
medi ately
ne ry
Col le
n ga
Ġsu ic
Ġnur turing
ĠNa zi
Ġsp iral
ĠRo berts
ĠSpecial ist
M AN
Ġp unk
I K
Ġspar ked
Ġk not
Ġ ounce
P acific
Th ursday
Ġclean up
Ġb ob
Ġli ed
ea ch
Ġme rits
E a
ĠRO I
Ġemb ark
Ġcle rk
Ġbl ush
hour s
cha nical
ĠIndivid ual
op athy
Ġblen ded
mo rt
Ġp df
state ment
ĠTh under
ĠR C
ĠTra ve
ĠR ide
Ġas h
Ġcoll a
ĠLo ck
t its
Ġen gra
Ġcon so
Ġte nsions
Ġfor bidden
ĠBo e
C ust
Ġinten si
undred s
n ice
ĠH onestly
Ġstri ves
Ġba tter
ĠG T
Ġbrace let
ĠEa gles
k ar
ilo gy
Ġdest ined
Ġhearing s
Ġneigh boring
C ool
Ġcour tyard
Ġchild care
stand ard
Ġkn ives
k ids
Ġbo wel
Ġcontract ing
Ġreprodu ction
Ġhouse d
ĠEx amples
Ġen semble
ĠMcC ain
Ġen forced
ĠD ent
ĠSwi tch
Ġendange red
Ġvent ures
fo unded
est o
Ġplay list
l r
Ġstri pped
ĠDesig ner
Tea m
lo cking
Ġjoy ful
ri zing
te ps
Ġme tha
ĠAf fordable
Ġch illy
ĠB our
ut a
Ġmo tors
ĠCra zy
H ot
C ook
Ġjo ins
Ġ onsite
B row
Ġinse ct
r bit
ĠA udi
mar king
gu ed
Ġgrand ma
Ġdri ft
sol ve
ile e
clo se
cur ed
Ġprevent ive
Ġba seline
unt il
f acebook
Ġcoo lest
lto n
Ġemphas ized
Ġcar pets
ĠO ption
il ized
1 30
Ġlod ging
Ġcoun selling
Ġen vy
Ġacade my
Ġde fect
gin s
Ġpursu ed
Ġst ip
Ġcompo ser
J oe
Ġteam work
A nge
ĠNo va
ĠSh i
Ġye lling
Ġna ive
bet ter
Ġsun rise
ĠP ate
t ars
Ġfirm ware
ĠS ile
ference s
W in
ĠT wenty
ĠPart ies
co ma
Ġamb ig
ĠOffice rs
ĠNAT O
ĠPar ts
Wonder ful
ĠI E
ĠPresident ial
Y S
ĠT wi
ĠF lex
B aby
ĠCa non
ĠG hana
Ġdifferent iate
Ġch unks
Ġmis conduct
ĠK han
Ġac rylic
Ġrebo unds
Ġe vo
Ġbom bing
K o
dle y
Ġdisp laced
ĠJ et
Ġlab s
Ġcur ry
Ġpa iring
ĠHe brew
Y OU
ĠSt ir
Ġconfir ming
ĠBer keley
Ġsystem ic
ĠTo night
Ġswee ts
ni k
f lo
Ġtrans lates
Ġbound ary
ĠImpro ve
Ġmed s
Ġdispo sable
Ġca th
Ro ck
Ġfla ts
Ġpsycho logist
Ġwar fare
Ġpad dle
OR Y
Ġlunch e
uto ring
sign ificant
y ards
Ġident ities
Ġper missions
C ON
ĠCen sus
Ġexecut ing
Ġcommun icated
Ġa us
ud os
Ġempower ment
Ġelectron ically
Ġpan cakes
t ally
term ine
a g
S ea
Ġsca ns
W ay
Ġmed io
ĠAM AZ
th emed
Ġcance led
Ġdeta ined
Ġevalu ations
Ġinaccur ate
Ġcontra cted
Ġcomp ares
th ood
. ÂĶ
M rs
A void
Ġsing ular
Ġhomo sex
B eyond
ĠS IM
icke st
Ġseam lessly
ĠCoord inator
ĠPare nt
Ġl b
ĠF lat
o use
b ri
ĠRep ly
ĠApp s
Ġple thora
Ġpl as
si tions
Ġha ird
Ġcom mercially
Ġsurviv o
insp ired
Ġob jection
Ġrug by
Ġcush ion
th in
ĠWe lls
ĠSur gery
Ġsurvivo r
o rbit
uk i
ĠF IN
Ġlunche s
Ġted ious
na ncy
Ġre ite
ope rative
ĠEth iop
Ġd ice
Ġu k
Ġer ect
Ġus able
Ġsi ngers
Ġuna vailable
Ġthank fully
Ġreg istra
ĠNo rd
Ġsl ightest
Ġmet iculous
Ġab dominal
ĠBob by
Ġdo lph
ĠLegisla ture
Ġfemin ist
iel ding
Ġ2 20
Ġtra ilers
Ġco caine
Ġhere by
ĠWh ilst
K nowing
. ?
ilo r
ĠS ector
iz able
Ġso licit
Ġsettle ments
PD ATE
Ġpleasant ly
Ġ tits
Ġeth ic
Ġspeed y
M oney
na ture
ĠR ew
graph s
ĠCh eap
Ġpro ps
ĠBla ir
Ġdrain age
ĠA side
are a
Tr ust
ĠIncl udes
ĠIn tel
e mployed
Ġscra mble
Ġinjust ice
illen nium
meter y
Me r
Ġex t
F I
ĠDi abetes
Ġf rea
Ġvis uals
ĠStan ford
ĠK ur
ĠY ard
x a
tern ally
fl oor
ĠCl ients
RE D
Ġ watering
co ne
w ned
Ġhomes chool
ni tation
Ġh unter
ĠBe come
Ġpano ramic
N early
Ġat ro
Ġclar ification
r que
Ġva mpire
Ġwarr ior
Ġe ditions
ĠG iants
EN S
Ġdisadvant age
ĠMo ses
ĠLea ders
Pri vate
am as
ĠInter view
sk in
Ġdump ed
dra ul
m uch
rit ical
Ġma ma
Ġinf r
Mo ving
s ist
ĠSa fari
Ġha unted
Ġrad ius
Ġ24 0
Ġvolat ility
wir e
Ġspeed ing
lo cation
ĠAr med
Ġmor ality
ĠOut door
Ġre ign
V ar
ĠW ANT
Ġimmun ity
Ġr ustic
Ġintric ate
Simp le
Ġsc ars
200 4
par alle
ĠF M
ne ck
Ġupload ing
ĠT ita
ĠB order
Ġperiod ic
h ate
Ġnephe w
Ġpro be
ĠArt icles
p ired
ĠDo llar
ce ll
Ġre medi
Ġmust ard
cident ally
ps is
Ġsl ug
Ġju venile
Ġimpair ment
Ġpop ulated
Ġre trea
Ġfur nace
sta nts
fo llow
Ġv igorous
Ġpris oner
Ġbel ts
ĠCount ries
F act
Ġoccup y
Ġmis use
ĠWat son
Ġencry pted
U CT
b oo
ĠManufact uring
Ġcol der
Ġspec ime
Ġlong time
co al
ian g
Ġrepay ment
Ġtri vial
ĠS ister
Ġmer ger
ver ly
ĠL ives
Rea ding
ðŁ ı
ĠCh ron
Ġ ove
CA A
ment ing
Ġirri tation
iv able
Ġsk illet
Ġte les
ĠYork shire
Ġdiscour aged
le nces
Ġfoot wear
Po rt
ĠMc K
ass is
Ġbed ding
ĠHa nds
Ġadvise rs
pri vate
u kee
ĠPrese nt
cred i
Ġin n
ita tions
M us
la nt
mea nor
AL E
ĠGene va
Ġhono rs
II I
ĠJ ill
ĠRe becca
ĠRe form
ĠRe quire
ĠCame ra
x ide
Ġa qua
Ġpush e
Ġce metery
Ġcl assy
so ring
Ġconfir ms
Ġde pendence
" ).
ĠL ar
Ġspo uses
[ ...]
Ġst igma
Ġwra ps
Ġpray ed
Ġpl unge
ĠMo tion
ĠM ile
Ġpath way
Ġte sta
tr ick
ĠK r
un s
Ġra ped
Is ra
def ined
ĠW rong
r ce
Ġpat rol
ĠL IFE
Ã© e
Bu ild
ver n
Ġrefle ctive
ĠEx treme
Ġpre valence
Ġimpr isonment
Ġsurge ries
Ġperf ume
Ġdistrib utor
ĠWind ow
Ġbutter fly
Ġcomple mentary
ĠHo lland
Ġdec isive
ĠCo up
Ġphenome na
Ġj ars
Ġur ging
L P
Ġhun ters
Ġinter faces
a mp
Ġdar ke
ĠJu a
ĠD ress
ĠE SP
ĠC E
ump s
Ġde ci
Ġstre sses
Ġin somnia
Ġcharge r
Ġeconom ists
Ġp se
ĠH S
Ġexcl usion
Ġba thing
Ġac claimed
Co un
Ġcolla teral
Ġle asing
tas sium
mane nt
Ġm im
ĠG ala
ĠLa unch
Ġhe el
ĠShan ghai
Clear ly
Ġarran ging
ĠMons ter
Ġstar ring
P RE
Ġbow ling
tte ns
Ġpe l
ĠApp reci
Ġ5 000
Ġdo c
Ġab rupt
Ġbo sses
ĠR IGHT
Ġschool ing
Ġmo uld
Ġr inse
D el
cru i
ĠH AS
Pro ject
ĠE nough
i ronic
ĠWar ner
Ġinformation al
Ġtrans cript
Ġflavour s
B B
ĠPack age
p les
Ġincorpo rates
Ġscrew s
Ġsp ins
ĠBanglade sh
Ġbrush ing
ĠSol ution
ve rance
Ġsoc ietal
Ġdownt ime
Ġprosecut o
be ar
T itle
Ġprosecuto r
Ġlear ner
ĠFun ny
ĠU ganda
Ġj ackets
ĠSer ved
ĠDiv ine
Ġac ro
Ġsla p
ĠD ee
M ain
swe et
ĠMay a
! ,
Ġdance r
Ġendea vors
Ġwh ale
Ġcar b
o nic
ĠBo a
ind ust
ĠC able
P ick
Ġsk ating
ĠSM E
ĠOpe rating
Ha ha
Ġ scor
Ġrain fall
ĠWal ter
B reak
Ġshe lls
Ġdra gging
bel ief
ĠSt u
Ġwild ly
M al
ĠCon sidering
Ġdeta ched
Ġre bell
Ġmo tive
ĠS core
ĠRock y
Ġand roid
d uty
Love ly
qu ired
ĠBal ance
ĠInterest ing
Ġspam bots
ĠDer by
WH AT
Ġrevis i
Ġmeaning s
Ġso uven
Ġwa n
ĠDo ctors
Ġnegot iated
Ġrevisi t
ĠCON T
Ġf al
op ping
v ier
Ġdent istry
Â §
En d
ĠCath edral
Ġsimpl ified
Lo rd
A ge
Ġpain ter
ina ncing
Ġbu ds
Ġhe aled
ori ans
in ium
Ġvolat ile
Ġcamp uses
Ġtr io
Ġagg ression
unicip ality
ĠAnd r
Ġstro kes
Ġra nt
ĠT em
Ġg alaxy
Ġfl uffy
e nding
tro gen
Ġremo ves
Ġturn around
Ġamb assador
ĠNico le
ex isting
d ly
S cott
Ġst ash
nta ged
ĠO s
tra vel
ĠPa tter
Ġproceed ed
pare nt
Ġar che
Ġun fol
PR O
Ġins ists
ĠMar kets
Ġun ified
Ġunexpected ly
Ġ7 50
ĠH ood
ĠGuide lines
Ġneat ly
Ġdedu ction
Ġrest ruct
Ġgan gs
Ġland lords
ĠParad ise
Ġtw ists
Ġful lest
ul ture
war m
B ur
ĠAdministra t
ĠSh ip
Ġexplo ded
ĠIn digenous
m usic
T ogether
ĠLeba non
Sa me
Ġhus bands
Ġal lot
ĠColomb ia
ĠAdministrat o
ĠHist orical
cri tical
Ġpe nsions
P romo
rese arch
Ġview point
ĠAdministrato r
ĠSouth west
ĠCy pr
ĠN Z
ATION S
fr e
Ġexp iration
Ġro cking
Ġsun screen
Ġcon gestion
Ġdisco urse
ĠS AT
Ġsubur ban
Ġsor row
ĠPro gress
Ġthr ust
Ġco ho
ĠD S
b ud
Ġunde ni
Ġfo untain
no tch
he w
ĠG am
Ġadmin ister
ĠMel issa
ĠRoge rs
bl ood
ĠV ia
bo ro
ĠTra ditional
Ġje opard
Ġconv ictions
Rich ard
ra tives
ĠR y
st als
Ġmixe r
ĠDip lo
Ġwe aker
Ġstimul us
ĠBase ball
l bs
ĠHe ights
P ract
ĠFo ster
Ġover haul
ran ged
Ġtattoo s
Ġre fe
Ġup right
Ġout ing
ĠH EL
ĠC M
ĠD ry
ga de
Ġded icate
Ġlo cking
Hi ya
ĠG ear
Ġparadig m
ĠHo nor
Ġkis sing
20 19
Ġ10 5
ĠBas ket
ist r
Ġfest ivities
Ġout going
ĠE tsy
cl usion
Ġconsis ted
log ic
ĠBrea st
ĠKe rry
ĠDy lan
P I
ĠHan g
Ġin compe
ĠCR M
ĠB in
Ġtremendous ly
Ġcon den
ĠWhi t
ĠEn forcement
Ġgar ner
tt led
ĠRelation ship
ĠBu ying
bo ns
Ġbenefic iaries
thing s
pp ro
Ġro t
ĠPra yer
Ġrepa iring
Ġcommo dities
Ġno ises
Ġmedic inal
Ġobe se
ĠE yes
Ġd ye
Ġsu ed
Ġunder m
Ġlay outs
we igh
vention al
Ġsoft ly
Ġ orbit
Ġstrate gically
Ġke ttle
Ġexam ines
Ġwe eds
Ġ tum
ĠM ale
Ġleft over
H ub
Ġ-- -
ĠMemo ry
ĠBen jamin
Ġin c
Ġde eds
Ġincar ce
do llar
as i
Ġartif acts
ĠCD s
S tation
ĠNa tal
Ġdis respect
Ġcycl ists
ĠTest ing
F il
AS H
o rque
Ġwo e
Ġe ternity
Ġexcl uding
Ġrelo cation
Q uality
ĠDia na
ĠP ed
ĠCa use
e in
ĠYe sterday
Ġprice less
Ġte nts
ol f
vi tation
ĠBo rn
Ġvast ly
cra fted
rse ys
Custo mer
ĠLad ies
Ġcompens ated
t orque
Ġmolecu les
Ġra id
Ġreb oot
ĠN ik
Ġpro jections
ĠMult iple
ĠMum bai
Ġcommun al
Pro viding
ĠSco ut
Ġmail box
) ...
Ġcale ndars
A K
Co lo
i tching
ĠAre na
ĠCro a
gu ided
ĠA v
ta tive
si ves
Ġenginee red
Ġthro ne
Ġdown ward
Ġpo tassium
Ġpled ged
vi der
ĠDe s
Ġst al
Be gin
Ġexpo sing
ĠSex ual
ĠD ifference
Ġfol ding
gg ling
Ġtough est
rato ries
in ars
ĠFa ilure
ĠM ig
V I
gi ar
ĠMost ly
ĠAu dit
nu ity
cul iar
Ġhu morous
ĠCath e
table s
ĠEnt ry
= =
Ġref usal
Ġmetapho r
Ġbeginning s
Ġorigin ated
, .
ma ha
O p
Ġday time
Ġarrest s
Ġpriorit ize
Ġpath etic
Ġcongress ional
mun ition
In side
in als
Ġvill ain
ĠOpportun ity
Ġfl own
Ġorgan ising
Ġenha nces
Ġunifo rms
ĠRepresenta tive
Ġbl adder
wa ukee
Ġcor ridor
gin al
om i
Ġrep licate
f ile
OR S
Ġsub conscious
pl aced
Ġred ire
ĠPar ish
ĠLo unge
Ġvelo city
Ġunder mine
Con sidering
Ġflo ck
Ġpi tching
Ġre as
if fe
ĠTom my
Ġmetab olic
Ġpath ways
America ns
ĠB le
ĠMo z
o rb
spe aking
produ ction
Ġba mb
Ġbrain storm
ĠD ID
Ġne rd
ĠCont ro
ĠBar n
ram id
ĠD uty
Ġrock y
Ġcult ivate
Ġvo cational
credi t
ĠSol id
ĠVie nna
Ġmissi les
Ġopio id
V R
Ġvic inity
ĠStre ngth
ĠAb use
e ve
Mat thew
be n
Ġome ga
S cient
b lock
IC T
ĠPh arma
Ġliste ner
ĠM ilk
Ġflag ship
rt ility
Ġincons istent
Ġine ffective
10 1
Ġrever sed
Ġsp reads
Ġresol ving
Ġob ses
Ġinfringe ment
Ġrib s
ĠB ranch
Ġbrief ing
Ġcoin cide
Ġdig its
Ġen acted
Ġmed iation
Ġco ral
Ġ( Â£
Ġno minations
Ġroof top
Ġj um
bb ie
Ġ ironic
ĠF IRST
Ġstory line
gr essive
Ex actly
ĠWould n
Ġhair cut
asp berry
Ġanal ogy
ĠOpe ration
Ġpas sages
Ġrebu ilding
m ass
M ix
ĠAnge la
Ġnot orious
Ġtra ps
Ġj i
ĠLove ly
Ġcar riage
Ġpea ks
Ġdent ists
p here
ĠM ut
Ġsuper natural
Ġre signed
el ine
ĠF ried
Â Ŀ
Ġexhaust ing
sm ic
Ġportra yed
A RE
Ġmise ry
ast rous
Ġspecial ised
br aska
ĠV ine
st own
Ġal ly
u led
Ġip hone
ĠSh aron
are lla
cl uded
ĠS essions
ĠBla ke
Ġme mbra
ĠTur ner
und able
Ġ19 45
Ġredee m
ĠMar tha
ĠManufact ure
Ġforma tting
ĠSt uff
ĠAn nie
ĠLin ks
ulli van
ĠMath ematics
Ġlif esty
Ġma trix
ath ers
Ġshow casing
ĠCal gary
Ġmod ular
ope ration
ĠDela ware
ĠDen nis
Ġconse quently
Ty pe
Ġawa i
x ts
ri na
Ġnavi gating
Prof essional
Ġlifesty les
Ġawai t
Ġdistra ct
Ġbru shes
Ġ( +
ran ging
Ġl ust
ĠâĢ ŀ
Ġun fa
est ic
Ġgra bs
Ġvis ions
Ġmur ders
Ġscan ner
ce rs
ĠMetho d
Ġnum b
Ġconce ived
Ġcounc ils
ĠQu ant
G overnment
e sa
Ġpub s
Ġman ic
Ġeduca t
r tions
Ġsplen did
tri p
ĠExe rcise
nat i
ĠB ike
Ġse wer
L uckily
icke l
ING S
ĠMe nu
ĠBea st
ĠHea ting
round ed
mo ving
Ġmy steries
go ries
oc cup
Ġve ins
ĠCra ft
Ġcub ic
ĠZ o
Ġappe tize
Ġthr iller
lick r
Co ll
Ġpa ns
ĠKick starter
Ġpushe s
ĠBon us
Ġdra stic
ĠHait i
Ġco e
ĠBel le
Ġ ny
Ġstun ned
cle ctic
Ġinhe rently
Ġy acht
Al right
Ġ( #
Ġtri bes
ys tery
See ms
S ite
ĠL ions
Ġeducat o
Ġdecl aring
Ġhard core
ĠHa nnah
Ġn inth
Commun ity
ĠHa t
Ġcosme tics
all ow
Ġmor ph
Ġprof essions
ura n
y age
Ġlea gues
co py
Ġbac terial
Ġconf use
B orn
ĠP ap
Ġoffe nder
me mbers
Ġpa m
Ġ torque
IS E
Ġve in
Ġtesta ment
ille ry
Ġrun way
Ġeducato r
ĠAL WAYS
Ġdevo tion
Ġdo r
ct ioned
Ġkey note
Ġgrea se
Ġbas kets
Ġcon quer
R ated
Ġevent ual
Ġx xx
s late
lee n
Ġun stable
ĠS pend
Ġintim acy
ĠG row
Ġsca ms
Ġby pass
Ġpr istine
Wor ks
ĠGo als
Ġun wind
R em
Ġsta ined
po le
ĠCar bon
ĠManage rs
cu mented
Ġtod dlers
ĠDis co
ĠAMAZ ING
Ġban ners
ro py
imp ro
ra th
tra de
Ġsi p
H H
her ence
Ġha cked
mpt oms
j ah
Ġdic tator
O G
Ġfoo ts
ĠT N
u f
Ġbamb oo
ĠRo mans
Ce leb
Ġcal ming
ĠCha in
Ġstandard ized
ĠBris bane
Ġde fective
Ġat tic
casion ally
Ġ icing
stre et
no ld
ĠN est
tur ned
Ġleft overs
ĠInt roduction
Ġswing s
Ġdire cto
ha mm
ĠAth ens
ĠD reams
IT ED
Ġfiref ighters
Ġstar k
Ġcollabo rating
Ġhero in
ĠArab ic
? :
Ġvalid ate
idel ity
Ġ196 3
ĠCon grats
ĠM iles
igi t
ĠMas sage
Ġconte xts
Ġener gies
Ġresi ding
Ġlip stick
r ets
ra il
ĠPat ient
Ġba i
ĠFant astic
ĠA ero
Ġpa used
ã ģ
ĠNOT E
Exp lore
ope ning
Ġfacili tating
ĠDese rt
Ġfact ual
ĠNH L
AT H
ĠSpe ak
ĠE llen
Con su
ĠNige rian
ri ghts
Ġb ricks
Ġd un
ĠT icket
ĠDis play
ĠWa n
OM G
Ġret iring
Ġma iled
Ġeva po
ĠNo ah
Ġrecon struction
ke mon
Ġborro wers
va ntaged
F resh
othe rs
Ġscan ned
ten der
Ġdouble s
b ows
Ġul trasound
ĠQue bec
Ġsuccess ion
P ra
ĠTH ERE
Ġdistur bed
Ġunder gone
ĠUl tra
Ġcompo site
cla mation
he ries
Ġrealize s
ĠD ea
Ġho rn
we gian
Ġpo lling
Ġfast ing
Ġin sider
Ġvic ious
su pp
Ġdemo graphics
stru cted
ĠVolun teer
ho ny
ĠAr senal
Ġtra ces
co ol
Ġmind fulness
Ġmo tives
f unding
ðŁ Ĵ
Ġ ï¿½
ĠPent agon
ĠWire less
S tre
ĠMc G
Ġslo pes
Ġpo inters
Ġpro claim
ga tory
Ġlea ked
qu ot
al ways
Ġlaw ful
Ġeyeb rows
Ġsleep s
Ġfun n
ac kers
ĠSta tus
Ġbake ry
ĠChange s
ĠWarr iors
Ġpsych ic
nth ood
200 3
ĠAct ivity
v d
Ġdisrup tive
Ġbu ffer
Ġoutrage ous
Ġp ilgri
ĠCongress ional
w ks
Ġdia pers
Mo dern
gra ce
Ġma nsion
Ġridiculous ly
ĠA men
ĠC MS
Ġdis astrous
Ġhomeless ness
ĠO rie
ĠCor ner
Ġeco systems
Ġliter al
Ġeager ly
Wo rd
Ġwha ts
Ġregime n
Ġvolunt arily
ĠBu sinesses
Ġbrea ches
Ġpara mount
car a
Ġgo r
ĠWe alth
ĠPo ker
c reen
st rate
Ġinvo ices
âĢ ²
ĠL ily
sh ake
ĠEU R
ĠBea tles
Ġ196 6
ma tched
Ġartic ulate
Ġanten na
Ġadvoca ting
ĠPo ll
No r
Ġbreed s
Ġter minology
ĠSa id
Ġama ze
uff le
gno sis
Ġqu ar
ĠBul gar
Ġy r
ĠGu ild
ĠGlo be
ĠN is
ĠOpe ning
Ġpo ultry
Ġsig nage
Ġfirear m
Ġsi z
Ġadul thood
he im
ĠSan ders
Ġg iants
Ġgo sh
paralle led
ĠTre asure
ĠMid west
Ġha tch
Ġbol t
Ġfur ry
Ġdetri mental
Ġre va
i tars
de ll
Ġpl um
ĠAd ults
Ġworth less
Ġprogram mer
Ġactiv ation
Ġju icy
Ġrug ged
Ġutil ization
ĠJua n
Ġbai t
Ġimpact ing
ĠRussia ns
u no
Ġwind shield
mo m
US E
Ġbutter flies
tab ase
tho logy
L ine
ĠS of
ĠL P
To morrow
a ppe
Ġswift ly
Ġpermit ting
Ġmar ital
Ġre use
ĠHar rison
Ġus ability
Ġporno graphy
F riend
First ly
ĠDeb t
Ġbroad casting
Ġgla nced
Ġlo un
m ale
Cust om
Ġsup per
ĠSch eme
ĠNew sletter
ĠW ash
ĠSam uel
Ġreimburse ment
Ġbre wing
u sible
ĠL ind
Ġriche r
Ġclea nse
Ġba ts
Ġmultip layer
Ġyouth ful
ĠdÃ© cor
Ġdis charged
Ġbra ces
Ġinter personal
Ġflour ish
ĠTW O
ĠCom ic
tu als
Ġse que
ĠEf fects
ĠQuo tes
Ġdeb ug
Ġl oft
Ġevolution ary
Ġabsor ption
Ġgra vel
16 0
Ġroyal ty
Ġadm ired
Ġth ieves
Ġpast ry
hamm ad
F inancial
Ġa nonym
Ġh inder
b een
so na
Â ©
ĠGra ph
Ġcataly st
Ġwithdra wn
rea ted
Reg istration
ĠDis order
Ġdiscour age
Ġbu mps
Ġgene tics
App ly
athe rine
Ġmain land
ĠTr us
ĠDer ek
Ġend ured
Ġcorre ctions
ĠAbo ve
Ġsurge ons
Ġb ark
Ġdefe ndants
Ġna ughty
ĠH ilton
Ġcere monies
Ġloud ly
vo ir
ĠEntreprene ur
Ġcare rs
Ġbrid al
ĠLite rature
ardo n
ĠI mple
road s
Ġaban do
ĠW ii
Ġtrans lations
Event ually
Ġ slate
Ġa sto
Ġconser ve
Ġg own
Ġcoordin ating
oa t
ĠH ire
Ġex ca
sm art
v ish
ĠDan ish
Ġhard ship
Ġsoph o
Ġdam ned
Ġv ain
Ġhe fty
Ġvacc ination
ra c
min ster
ĠG ill
ff i
Re ce
ĠFor get
sort ium
ĠMort gage
Ġst acked
ĠBath room
pp a
government al
name se
Th inking
ĠSpe ech
Ga me
pe ration
ĠHol ly
x iety
Ġro okie
ĠMed ium
Ġembarr assment
Ġgig s
et o
ub ling
cin ct
Ġgradu al
Ġplug ged
Ġhar bour
Ġaccum ulate
ĠRe ed
Ġcr ises
Ġcur ves
ĠMetro politan
Ġimm inent
with standing
ĠK ir
so ri
ĠNo rmally
ĠÂ ½
if fic
Ġvege tation
ĠM one
Ġdu ct
Ġsuspe n
ĠAn imals
Ġcha otic
ĠMate rial
OR K
ine nts
ĠEsse ntial
Ġmo a
Ġprovin ces
ĠHis panic
ĠSt ro
Ġexped ition
ĠL uck
ĠBe lla
x us
ĠSa t
ĠMo vies
IC S
no sis
li ked
Ġpropor tions
ĠCopy right
b rand
Ġmarke ted
Ġodo r
Ġwa gon
ĠDefe nce
ĠF iction
Ġframe works
u lette
Ġspo iled
ten sive
ĠSpe ncer
Ġtrust s
Ġring ing
ĠBio logy
Ġho mic
ĠM AY
A bo
Ġcondem ned
unt y
ol ics
ĠPri de
Ġdec ks
T T
Ġpro jection
Ġjoint ly
Ġy elled
ĠNewt o
Ġpo sing
L ess
ĠCuba n
Ġserv iced
he art
ĠSaturday s
Inter net
IT ION
Ġswi r
T ips
O B
M is
ĠIN TER
g ular
ra de
e sse
ĠAustral ians
Ġstri pes
ĠLaw s
Under standing
Ġpar liamentary
ĠNewto n
ĠVideo s
Ġg hosts
ref undable
ĠD ash
W eek
Ġstraw berry
M G
Ġcompr ise
Ġgl ac
l b
ĠS EE
Ġb allet
Ġscal p
Ġch alk
ĠGro wing
Ġrel iance
18 0
Ġsharp ly
mor r
Ġdefen ded
Ġtri angle
un ky
Ġgro o
ĠCathe rine
matic s
ita ted
ĠAd vance
Ġid le
Ġmen stru
Ġcatal o
g t
tu ous
Ġlea king
Ġmira cles
r ein
ĠJ ac
Ġsymb olic
Ġfr et
Ġde ed
S cience
Ġho llow
Ġstim ulation
Ġped al
Ġrub bing
zz a
nta x
fe ld
Ġpla stics
Ġsponta neous
gh etti
mph is
Ġdiscip linary
cre ts
Ġirri gation
Ġgar ment
b ic
me ns
Ġprofic ient
Ġvol leyball
Ġve ctor
L ate
Ġswo rn
Ġsour cing
id i
apo lis
ĠSta nding
Ã §
ĠWel sh
ĠRom ney
l ime
Ġendor sed
ĠL ol
Ġmile stones
a utho
ĠIll ust
ia ntly
Ġun changed
ĠEmploy ee
ĠCust oms
Ġsacrif ices
Ġpay check
ĠPop ular
Ġske tches
ĠDecl aration
Ġgri m
Ġpe culiar
Ġam munition
u pe
Ġperi phe
k is
po und
Ġ vel
Ġhyper tension
Ġtal ler
T reat
Ġscri pture
Ġdis in
ĠTrin ity
ĠH eath
Ġhust le
y r
Ġcab bage
Ġpho sp
Ġcompul sory
so o
ĠHea vy
ĠRet rie
ĠSa w
Ġmunicipal ities
Ġscree ned
Ġp ioneer
ri ted
ON S
colo red
tr ue
Ġide als
Ġun paralleled
cin nati
Ġgrand son
ĠSuper man
Ġr all
Research ers
mo dern
Produ ct
AD E
Ġsmooth e
ur ations
Wed nesday
Ġrevis ions
W inter
ĠLy nn
ĠBE FORE
ĠA partment
umb lr
ĠCOM P
Ġwai ver
Ġbelon ged
ak h
Fant astic
Ġprotagon ist
per haps
Ġbra cket
Ġcher ish
na h
ara t
dy na
ĠB less
otto n
Ġcolo ny
Ġ20 22
Ġcho co
Ġre po
Ġbo nding
Ġmar ina
Ġmosqui t
Ġp lots
Ġprospe rous
w rea
Ġbeh old
I r
Ġlo bb
Ġsn iff
Ġqu ie
Ġcano e
rif y
Ġconstitue nts
ar ate
Ġhe tero
ĠFur niture
Ġli a
que ncy
ĠSo x
ĠCitize ns
ĠEngine ers
ru ce
pt ors
ĠBran don
G old
D D
Ġrefere nced
ctive ly
Ġsu shi
ĠIm perial
Ġsh ines
role um
Ġco ated
ĠVin cent
Ġrep lay
Ġear nest
Ġhier archy
sole te
Ġarbi tration
Ġcontinu ation
IC AL
Ġatmo spheric
G I
alle rs
Ġcustom ization
Ġd ine
e vent
lis hes
S oon
wo men
po ts
Ġpet roleum
ce rt
Ġmaj ors
Ġje rsey
ugh s
Ġdevasta ted
ĠNa turally
Ġtouch down
Ġfore x
ĠK al
Ġfa ults
ĠS ally
Ġintu ition
88 8
B ad
gu in
Ġflaw less
u gs
t art
Ġg ala
Ġpart ition
ĠUnder stand
Ġcho rus
Ja n
ĠS K
Ġminia ture
ur ry
ĠGra b
il ders
ĠGrand ma
n ar
Ġpost age
ĠR ug
Ġbl unt
[...]
