{"<|endoftext|>":0,"!":1,"\"":2,"#":3,"$":4,"%":5,"&":6,"'":7,"(":8,")":9,"*":10,"+":11,",":12,"-":13,".":14,"/":15,"0":16,"1":17,"2":18,"3":19,"4":20,"5":21,"6":22,"7":23,"8":24,"9":25,":":26,";":27,"<":28,"=":29,">":30,"?":31,"@":32,"A":33,"B":34,"C":35,"D":36,"E":37,"F":38,"G":39,"H":40,"I":41,"J":42,"K":43,"L":44,"M":45,"N":46,"O":47,"P":48,"Q":49,"R":50,"S":51,"T":52,"U":53,"V":54,"W":55,"X":56,"Y":57,"Z":58,"[":59,"\\":60,"]":61,"^":62,"_":63,"`":64,"a":65,"b":66,"c":67,"d":68,"e":69,"f":70,"g":71,"h":72,"i":73,"j":74,"k":75,"l":76,"m":77,"n":78,"o":79,"p":80,"q":81,"r":82,"s":83,"t":84,"u":85,"v":86,"w":87,"x":88,"y":89,"z":90,"{":91,"|":92,"}":93,"~":94,"¡":95,"¢":96,"£":97,"¤":98,"¥":99,"¦":100,"§":101,"¨":102,"©":103,"ª":104,"«":105,"¬":106,"®":107,"¯":108,"°":109,"±":110,"²":111,"³":112,"´":113,"µ":114,"¶":115,"·":116,"¸":117,"¹":118,"º":119,"»":120,"¼":121,"½":122,"¾":123,"¿":124,"À":125,"Á":126,"Â":127,"Ã":128,"Ä":129,"Å":130,"Æ":131,"Ç":132,"È":133,"É":134,"Ê":135,"Ë":136,"Ì":137,"Í":138,"Î":139,"Ï":140,"Ð":141,"Ñ":142,"Ò":143,"Ó":144,"Ô":145,"Õ":146,"Ö":147,"×":148,"Ø":149,"Ù":150,"Ú":151,"Û":152,"Ü":153,"Ý":154,"Þ":155,"ß":156,"à":157,"á":158,"â":159,"ã":160,"ä":161,"å":162,"æ":163,"ç":164,"è":165,"é":166,"ê":167,"ë":168,"ì":169,"í":170,"î":171,"ï":172,"ð":173,"ñ":174,"ò":175,"ó":176,"ô":177,"õ":178,"ö":179,"÷":180,"ø":181,"ù":182,"ú":183,"û":184,"ü":185,"ý":186,"þ":187,"ÿ":188,"Ā":189,"ā":190,"Ă":191,"ă":192,"Ą":193,"ą":194,"Ć":195,"ć":196,"Ĉ":197,"ĉ":198,"Ċ":199,"ċ":200,"Č":201,"č":202,"Ď":203,"ď":204,"Đ":205,"đ":206,"Ē":207,"ē":208,"Ĕ":209,"ĕ":210,"Ė":211,"ė":212,"Ę":213,"ę":214,"Ě":215,"ě":216,"Ĝ":217,"ĝ":218,"Ğ":219,"ğ":220,"Ġ":221,"ġ":222,"Ģ":223,"ģ":224,"Ĥ":225,"ĥ":226,"Ħ":227,"ħ":228,"Ĩ":229,"ĩ":230,"Ī":231,"ī":232,"Ĭ":233,"ĭ":234,"Į":235,"į":236,"İ":237,"ı":238,"Ĳ":239,"ĳ":240,"Ĵ":241,"ĵ":242,"Ķ":243,"ķ":244,"ĸ":245,"Ĺ":246,"ĺ":247,"Ļ":248,"ļ":249,"Ľ":250,"ľ":251,"Ŀ":252,"ŀ":253,"Ł":254,"ł":255,"Ń":256,"te":257,"ar":258,"Ġb":259,"Ġf":260,"is":261,"al":262,"Ġp":263,"ve":264,"Ġh":265,"Ġm":266,"st":267,"nt":268,"le":269,"se":270,"of":271,"Ġof":272,"Ġd":273,"ne":274,"ur":275,"co":276,"th":277,"me":278,"ro":279,"io":280,"as":281,"Ġy":282,"Ġe":283,"ic":284,"Ġr":285,"ion":286,"âĢ":287,"Ġyo":288,"ed":289,"Ġco":290,"Ġl":291,"Ġbe":292,"il":293,"Ġg":294,"ĠI":295,"ce":296,"Ġfo":297,"ut":298,"Ġre":299,"ch":300,"ly":301,"no":302,"de":303,"tion":304,"Ġis":305,"so":306,"ra":307,"ri":308,"Ġfor":309,"tha":310,"we":311,"Ġtha":312,"Ġyou":313,"si":314,"ay":315,"wh":316,"wi":317,"Th":318,"Ġwh":319,"ul":320,"ca":321,"Ġthat":322,"pe":323,"ke":324,"Ġu":325,"ge":326,"ter":327,"are":328,"ver":329,"Ġha":330,"Ġwi":331,"in":332,"ing":333,"Ġin":334,"âĢĻ":335,"ct":336,"oo":337,"Ġwe":338,"ir":339,"Ġse":340,"ie":341,"ea":342,"wo":343,"gh":344,"Ġst":345,"Ġwith":346,"ab":347,"Ġso":348,"Ġno":349,"Ġhe":350,"Ġmo":351,"ow":352,"Ġal":353,"ĠS":354,"un":355,"Ġca":356,"The":357,"sh":358,"mp":359,"Ġare":360,"Ġma":361,"ĠA":362,"Ġwo":363,"Ġas":364,"ill":365,"out":366,"Ġde":367,"ta":368,"ss":369,"ĠC":370,"ted":371,"if":372,"Ġpro":373,"ad":374,"ac":375,"Ġyour":376,"ty":377,"nce":378,"Ġdo":379,"ation":380,"lo":381,"rs":382,"ts":383,"Ġne":384,"Ġhave":385,"id":386,"su":387,"Ġsh":388,"ment":389,"this":390,"one":391,"et":392,"Ġthis":393,"ll":394,"Ġli":395,"la":396,"ĠM":397,"op":398,"Ġa":399,"Ġan":400,"Ġand":401,"Ġat":402,"ĠW":403,"Ġex":404,"was":405,"Ġcan":406,"Ġwas":407,"Ġch":408,"rea":409,"Ġpe":410,"ma":411,"Ġlo":412,"ust":413,"po":414,"Ġme":415,"ĠB":416,"igh":417,"our":418,"ee":419,"qu":420,"uld":421,"ns":422,"Ġle":423,"ĠP":424,"fe":425,"Ġnot":426,"ive":427,"rom":428,"Ġsu":429,"us":430,"will":431,"Ġwill":432,"Ġpo":433,"Ġab":434,"ĠThe":435,"ate":436,"ĠH":437,"ure":438,"Ġv":439,"ting":440,"ice":441,"..":442,"Ġfrom":443,"Ġwor":444,"ĠâĢ":445,"ry":446,"Ġsi":447,"fo":448,"ally":449,"ine":450,"Ġ1":451,"Ġj":452,"sa":453,"art":454,"Ġall":455,"for":456,"ĠD":457,"der":458,"Ġ(":459,"ime":460,"Ġpr":461,"king":462,"Ġ2":463,"ugh":464,"ity":465,"Ġk":466,"Ġmy":467,"ĠF":468,"Ġbut":469,"ol":470,"ĠT":471,"Ġby":472,"ds":473,"Ġcon":474,"mo":475,"ey":476,"Ġsa":477,"Ġgo":478,"'s":479,"Ġmor":480,"be":481,"Ġsome":482,"Ġte":483,"time":484,"very":485,"Ġout":486,"ci":487,"ies":488,"na":489,"Ġfa":490,"Ġwhe":491,"they":492,"wa":493,"Ġthey":494,"Ġho":495,"int":496,"ĠR":497,"em":498,"thing":499,"pp":500,"Ġmore":501,"ear":502,"ĠL":503,"Ġhas":504,"Ġup":505,"way":506,"Ġone":507,"ding":508,"tra":509,"âĢĿ":510,"ĠN":511,"ĠG":512,"rie":513,"Ġabout":514,"ight":515,"cl":516,"ks":517,"ĠE":518,"Ġour":519,"ide":520,"Ġwa":521,"Ġtime":522,"rt":523,"Ġen":524,"oth":525,"tho":526,"im":527,"use":528,"Ġad":529,"ia":530,"und":531,"Ġher":532,"ĠO":533,"Ġper":534,"eir":535,"their":536,"Ġtheir":537,"Ġcom":538,"ue":539,"Ġun":540,"ny":541,"all":542,"Ġlike":543,"ist":544,"ich":545,"Ġwho":546,"spe":547,"ree":548,"sed":549,"nts":550,"Ġany":551,"able":552,"ard":553,"ga":554,"00":555,"Ġcomp":556,"Ġta":557,"he":558,"rin":559,"Ġac":560,"Ġla":561,"Ġget":562,"ĠTh":563,"ile":564,"Ġpa":565,"ig":566,"ack":567,"ĀĀ":568,"now":569,"um":570,"Ġyear":571,"ble":572,"Ġwha":573,"Ġwhat":574,"Ġbu":575,"Ġif":576,"othe":577,"ning":578,"ind":579,"ook":580,"ood":581,"Ġbee":582,"est":583,"ĠY":584,"Ġjust":585,"Ġqu":586,"ck":587,"ha":588,"own":589,"Ġtra":590,"Ġwould":591,"Ġothe":592,"Ġn":593,"'t":594,"od":595,"ction":596,"nge":597,"Ġbeen":598,"them":599,"ese":600,"ĠâĢľ":601,"Ġthem":602,"om":603,"fer":604,"ru":605,"ip":606,"Ġwhich":607,"Ġpla":608,"du":609,"Ġknow":610,"ot":611,"Ġhis":612,"over":613,"Ġtho":614,"ĠJ":615,"ach":616,"Ġwhen":617,"Ġmake":618,"Ġneed":619,"Ġthan":620,"Ġdis":621,"Ġsee":622,"ven":623,"ep":624,"ving":625,"ople":626,"ring":627,"ĠIt":628,"ber":629,"Ġnew":630,"di":631,"Ġsho":632,"sp":633,"its":634,"Ġro":635,"Ġhad":636,"ire":637,"ent":638,"Ġother":639,"reat":640,"Ġcont":641,"ld":642,"lic":643,"imp":644,"Ġpeople":645,"Ġover":646,"Ġint":647,"ĠU":648,"Ġalso":649,"ĠIn":650,"ms":651,"ish":652,"Ġspe":653,"ni":654,"Ġ\"":655,"Ġwork":656,"Ġar":657,"Ġuse":658,"ite":659,"Ġimp":660,"up":661,"lp":662,"Ġhow":663,"...":664,"unt":665,"Ġwer":666,"Ġwere":667,"Ġexpe":668,"ary":669,"Ġ20":670,"ew":671,"Ġday":672,"ess":673,"ste":674,"mer":675,"Ġapp":676,"va":677,"uch":678,"ner":679,"ned":680,"ical":681,"nly":682,"ĠWe":683,"tt":684,"tter":685,"Ġhelp":686,"Ġser":687,"lea":688,"ĠCo":689,"sin":690,"vice":691,"Ġway":692,"led":693,"Ġaf":694,"ink":695,"Ġevery":696,"Ġcha":697,"ten":698,"ness":699,"ub":700,"age":701,"Ġus":702,"Ġinto":703,"tur":704,"Ġtake":705,"ful":706,"sing":707,"Ġpart":708,"Ġra":709,"Ġcl":710,"Ġmay":711,"Ġinter":712,"per":713,"tes":714,"Ġsaid":715,"Ġfir":716,"ud":717,"ĠYo":718,"Ġba":719,"rough":720,"ses":721,"Ġvery":722,"sta":723,"only":724,"ions":725,"sc":726,"Ġ-":727,"am":728,"Ġ3":729,"port":730,"ob":731,"cess":732,"ise":733,"Ġonly":734,"gra":735,"Ġdon":736,"ture":737,"son":738,"Ġgood":739,"Ġce":740,"red":741,"form":742,"Ġoff":743,"Ġmost":744,"Ġshe":745,"cial":746,"nds":747,"ious":748,"ick":749,"ations":750,"Ġcould":751,"Ġthing":752,"Ġback":753,"ope":754,"lay":755,"ĠHe":756,"li":757,"Ġwell":758,"ments":759,"tive":760,"these":761,"Ġthese":762,"log":763,"Ġda":764,"als":765,"two":766,"cur":767,"Ġ201":768,"Ġfirst":769,"ily":770,"Ġmuch":771,"tch":772,"We":773,"ude":774,"ild":775,"les":776,"ze":777,"sel":778,"Ġyears":779,"old":780,"say":781,"Ġnow":782,"tions":783,"side":784,"Ġbo":785,"ĠYou":786,"nc":787,"Ġsay":788,"com":789,"ff":790,"Ġgro":791,"tr":792,"win":793,"ved":794,"ĠK":795,"Ġmany":796,"tal":797,"ties":798,"Ġwant":799,"ĀĀĀĀ":800,"Ġhere":801,"crea":802,"ĠâĢĵ":803,"Ġlea":804,"act":805,"Ġits":806,"cause":807,"too":808,"through":809,"Ġact":810,"Ġdid":811,"Ġprov":812,"Ġshould":813,"ect":814,"Ġunder":815,"ces":816,"mes":817,"Ġtoo":818,"Ġpre":819,"Ġthrough":820,"Ġop":821,"ica":822,"ĠThis":823,"Ġsta":824,"Ġsp":825,"Ġke":826,"Ġga":827,"ls":828,"rta":829,"fore":830,"Ġdif":831,"think":832,"âĢľ":833,"ife":834,"man":835,"Ġthink":836,"sy":837,"ves":838,"wing":839,"ĠSo":840,"ory":841,"Ġfin":842,"Ġres":843,"Ġgreat":844,"ĠV":845,"Ġmar":846,"Ġafter":847,"Ġna":848,"pr":849,"Ġreally":850,"Ġph":851,"ries":852,"Ġeven":853,"ron":854,"âĢ¦":855,"Ġth":856,"wer":857,"Ġhigh":858,"Ġprodu":859,"Ġtwo":860,"ass":861,"ĠAn":862,"mi":863,"ĠCh":864,"car":865,"Ġincl":866,"cal":867,"Ġwher":868,"Ġwhere":869,"fect":870,"iv":871,"sur":872,".âĢĿ":873,"Ġbecause":874,"Ġam":875,"el":876,"Ġread":877,"ult":878,"Ġdoe":879,"Ġwee":880,"Ġdoes":881,"Ġfee":882,"men":883,"ppe":884,"day":885,"Ġgive":886,"formation":887,"ject":888,"Ġservice":889,"tent":890,"ttle":891,"Ġbest":892,"Ġhim":893,"gain":894,"Ġlook":895,"ead":896,"Ġlove":897,"It":898,"Ġreg":899,"Ġcar":900,"Ġ5":901,"ound":902,"This":903,"Ġright":904,"Ġge":905,"Ġbeing":906,"ith":907,"Ġplay":908,"vent":909,"Ġfind":910,"cor":911,"Ġthose":912,"Ġdown":913,"Ġhome":914,"arge":915,"iew":916,"In":917,"Ġ4":918,"Ġperson":919,"ual":920,"ors":921,"hat":922,"Ġbefore":923,"lease":924,"Ġope":925,"mber":926,"Ġbusi":927,"xt":928,"arch":929,"Ġthough":930,"Ġgoing":931,"Ġsuch":932,"line":933,"gn":934,"Ġlife":935,"sm":936,"jo":937,"ial":938,"sch":939,"aso":940,"sure":941,"go":942,"pon":943,"Ġsy":944,"Ġinformation":945,"nth":946,"Ġbel":947,"ded":948,"Ġdiffer":949,"Ġmea":950,"Ġagain":951,"Ġide":952,"lle":953,"Ġloo":954,"ys":955,"ima":956,"ĠMa":957,"self":958,"Ġsm":959,"ities":960,"ĠIf":961,"clo":962,"alth":963,"ility":964,"ale":965,"ĠTha":966,"If":967,"Ġmade":968,"tic":969,"Ġsc":970,"Ġrece":971,"ĠRe":972,").":973,"velo":974,"care":975,"ters":976,"Ġsch":977,"Ġweb":978,"ular":979,"Ġcompa":980,"Ġstill":981,"ways":982,"Ġexperie":983,"ance":984,"Ġ$":985,"Ġlast":986,"wri":987,"Ġworld":988,"Ġfun":989,"gin":990,"cted":991,"Ġrequ":992,"ĠMo":993,"sk":994,"Ġfam":995,"pt":996,"Ġthings":997,"vo":998,"Ġlon":999,"Ġaround":1000,"Ġlong":1001,"nk":1002,"ers":1003,"Ġsup":1004,"rate":1005,"Ġgu":1006,"ph":1007,"Ġcrea":1008,"mun":1009,"Ġown":1010,"ssi":1011,"ged":1012,"ool":1013,"Ġfew":1014,"Ġfeel":1015,"Ġchild":1016,"Ġbusiness":1017,"ress":1018,"Ġsub":1019,"mon":1020,"hen":1021,"ĠAnd":1022,"Ġpar":1023,"dition":1024,"Ġdesi":1025,"ĠDe":1026,"ining":1027,"ĠNo":1028,"Ġsto":1029,"ney":1030,"Ġvis":1031,"ship":1032,"uring":1033,"try":1034,"Ġsure":1035,"ĠHo":1036,"Ġlittle":1037,"Ġwri":1038,"Yo":1039,"Ġclo":1040,"Ġcare":1041,"come":1042,"Ġimpo":1043,"velop":1044,"Ġsomething":1045,"por":1046,"Ġeas":1047,"ĠFo":1048,"cu":1049,"ging":1050,"Ġreal":1051,"ast":1052,"Ġgra":1053,"You":1054,"Ġpost":1055,"Ġsur":1056,"Ġused":1057,"Ġ19":1058,"med":1059,"'m":1060,"con":1061,"Ġtry":1062,"vel":1063,"Ġman":1064,"ract":1065,"Ġalways":1066,"Ġplace":1067,"Ġeach":1068,"Ġshow":1069,"ĠBut":1070,"mple":1071,"Ġstar":1072,"top":1073,"Ġmin":1074,"Ġart":1075,"Ġsame":1076,"Ġkeep":1077,"Ġcour":1078,"Ġtr":1079,"Ġprovide":1080,"ps":1081,"Ġwon":1082,"tri":1083,"Ġef":1084,"Ġmed":1085,"min":1086,"ration":1087,"ason":1088,"Ġset":1089,"ĠSe":1090,"Ġcome":1091,"nding":1092,"Ġfrie":1093,"Ġproduct":1094,"Ġwhile":1095,"vers":1096,"ient":1097,"Ġmonth":1098,"mit":1099,"Ġdifferent":1100,"ace":1101,"ket":1102,"Ġexperience":1103,".\"":1104,"ated":1105,"read":1106,"lan":1107,"Ġgot":1108,"row":1109,"Ġbetter":1110,"Ġpri":1111,"Ġlot":1112,"wee":1113,"Ġcomple":1114,"ric":1115,"ser":1116,"ull":1117,"Ġlear":1118,"cle":1119,"ined":1120,"Ġear":1121,"ific":1122,"Ġpub":1123,"Ġhan":1124,",âĢĿ":1125,"Ġnever":1126,"ually":1127,"Ġfree":1128,"Ġdevelop":1129,"ĠCa":1130,"Ġcur":1131,"ked":1132,"Ġcommun":1133,"Ġsyste":1134,"ĠThey":1135,"Ġexp":1136,"Ġcount":1137,"iz":1138,"ash":1139,"Ġ6":1140,"noth":1141,"less":1142,"nothe":1143,"Ġsen":1144,"nother":1145,"vail":1146,"Ġchange":1147,"Ġquest":1148,"Ġob":1149,"oday":1150,"ational":1151,"!!":1152,"Ġnum":1153,"war":1154,"Ġhealth":1155,"rk":1156,"cr":1157,"So":1158,"cto":1159,"ba":1160,"Ġput":1161,"ates":1162,"Ġmight":1163,"lish":1164,"bo":1165,"ence":1166,"Ġsk":1167,"ĠFor":1168,"Ġimporta":1169,"Ġnext":1170,"nage":1171,"Ġwin":1172,"alle":1173,"cust":1174,"Ġend":1175,"iss":1176,"ĠDo":1177,"ho":1178,"Ġprof":1179,"Ġpoint":1180,"ĀĀĀĀĀĀĀĀ":1181,"cation":1182,"Ġfound":1183,"ian":1184,"Ġtop":1185,"rder":1186,"rga":1187,"ute":1188,"ced":1189,"Ġcust":1190,"ĠLo":1191,"Ġproble":1192,"Ġfamily":1193,"Ġmust":1194,"table":1195,"cha":1196,"Ġtal":1197,"Ġtri":1198,"Ġavail":1199,"sue":1200,"Ġbet":1201,"Ġbl":1202,"Ġrun":1203,"nes":1204,"Ġtech":1205,"ĠSt":1206,"ween":1207,"Ġ10":1208,"ral":1209,"'r":1210,"'re":1211,"Ġste":1212,"Ġweek":1213,"Ġind":1214,"gle":1215,"ft":1216,"Ġpay":1217,"call":1218,"Ġbig":1219,"Ġpur":1220,"do":1221,"ins":1222,"Ġprogra":1223,"Tha":1224,"ye":1225,"'ve":1226,"Ġadd":1227,"ant":1228,"Ġboth":1229,"site":1230,"Ġcor":1231,"ges":1232,"gs":1233,"sive":1234,"Ġfol":1235,"Ġbi":1236,"Ġdays":1237,"ody":1238,"Ġwithout":1239,"ied":1240,"oor":1241,"Ġele":1242,"Ġfl":1243,"ght":1244,"ution":1245,"Ġpossi":1246,"ders":1247,"Ġhand":1248,"Ġable":1249,"wever":1250,"Ġimportant":1251,"Ġavailable":1252,"He":1253,"ier":1254,"Ġfe":1255,"Ġlooking":1256,"Ġanother":1257,"Ġtrans":1258,"Ġplan":1259,"vi":1260,"lowing":1261,"Ġter":1262,"000":1263,"Ġvisi":1264,"Ġtur":1265,"ĠTher":1266,"view":1267,"Ġ7":1268,"Ġsince":1269,"ality":1270,"orga":1271,"oto":1272,"ran":1273,"Ġemp":1274,"ĠThere":1275,"ĠBe":1276,"Ġche":1277,"Ġcall":1278,"Ġent":1279,"ward":1280,"An":1281,"ics":1282,"order":1283,"Ġhu":1284,"Ġstude":1285,"Ġbetween":1286,"llow":1287,"),":1288,"Ġstart":1289,"Ġappro":1290,"Ġthree":1291,"Ġcompany":1292,"Ġwhy":1293,"Ġusing":1294,"joy":1295,"Ġissue":1296,"ĠTo":1297,"rent":1298,"Ġbook":1299,"Ġlarge":1300,"Ġfar":1301,"ncy":1302,"Ġty":1303,"Ġpartic":1304,"Ġorga":1305,"Ġproject":1306,"Ġinst":1307,"vest":1308,"cra":1309,"ieve":1310,"Ġnumber":1311,"today":1312,"nted":1313,"Ġsupport":1314,"ĠWo":1315,"Ġteam":1316,"Ġval":1317,"Ġtoday":1318,"Ġcost":1319,"Ġbea":1320,"cri":1321,"Ġ8":1322,"que":1323,"Ġhard":1324,"Ġduring":1325,"Ġel":1326,"Ġjob":1327,"uding":1328,"Ġsite":1329,"Ġrespon":1330,"Ġhappe":1331,"Ġbrea":1332,"Ġcal":1333,"Ġstate":1334,"rd":1335,"Ġhour":1336,"Ġdri":1337,"mail":1338,"rn":1339,"Ġprese":1340,"Ġworking":1341,"pa":1342,"nline":1343,"ession":1344,"Ġage":1345,"ists":1346,"gy":1347,"ĠSta":1348,"Ġfact":1349,"Ġdire":1350,"ib":1351,"'ll":1352,"Ġlet":1353,"edu":1354,"gree":1355,"Ġaway":1356,"ware":1357,"Ġrel":1358,"Ġsol":1359,"What":1360,"ĠSa":1361,"Ġcontin":1362,"sted":1363,"Ġvar":1364,"Ġconce":1365,"ital":1366,"ired":1367,"Ġbuil":1368,"Ġorder":1369,"ĠNew":1370,"Ther":1371,"Ġoffer":1372,"Ġgroup":1373,"There":1374,"ark":1375,"Ġdef":1376,"bers":1377,"Ġdec":1378,"tu":1379,"Ġeffect":1380,"nks":1381,"Ġseem":1382,"Ġinterest":1383,"ntly":1384,"Ġsystem":1385,"Ġacco":1386,"Ġenjoy":1387,"vid":1388,"Ġdidn":1389,"Ġconf":1390,"Ġundersta":1391,"ize":1392,"Ġblog":1393,"Ġmoney":1394,"Ġmaking":1395,"loy":1396,"Ġfull":1397,"Ġchildr":1398,"Ġchildre":1399,"Ġchildren":1400,"Ġeno":1401,"Ġ200":1402,"Ġmeet":1403,"Ġwater":1404,"Ġroom":1405,"Ġsuc":1406,"Ġservices":1407,"Ġever":1408,"ling":1409,"illion":1410,"rong":1411,"Ġsmall":1412,"ĠAs":1413,"Ġcho":1414,"Ġwebsite":1415,"Ġchar":1416,"ake":1417,"vol":1418,"Ġ9":1419,"aring":1420,"ably":1421,"ctions":1422,"Ġtell":1423,"Ġdone":1424,"Fo":1425,"Ġcusto":1426,"Ġschool":1427,"ix":1428,"Ġgame":1429,"Ġhope":1430,"ideo":1431,"Ġhouse":1432,"merica":1433,"tures":1434,"oge":1435,"Ġcourse":1436,"ĠThat":1437,"ctor":1438,"Ġ&":1439,"Ġincluding":1440,"Ġpublic":1441,"ĠPro":1442,"Ġ.":1443,"ided":1444,"Ġhaving":1445,"Ġunt":1446,"ww":1447,"Ġold":1448,"ared":1449,"Ġve":1450,"ients":1451,"ster":1452,"Ġgetting":1453,"rib":1454,"online":1455,"ĠPe":1456,"nger":1457,"Ġphoto":1458,"cent":1459,"uth":1460,"mers":1461,"Ġenough":1462,"Ġrela":1463,"Ġmanage":1464,"Ġcolle":1465,"Ġdoing":1466,"Ġallow":1467,"logy":1468,"ĠShe":1469,"Ġinclude":1470,"Ġonline":1471,"ross":1472,"Ġdata":1473,"Ġwar":1474,"Ġuni":1475,"ĠWh":1476,"Ġprogram":1477,"Ġlaw":1478,"ues":1479,"cut":1480,"Ġplease":1481,"ĠâĢĺ":1482,"land":1483,"net":1484,"ready":1485,"Ġneeds":1486,"ogeth":1487,"ils":1488,"Ġcame":1489,"Ġspec":1490,"ogethe":1491,"Ġarea":1492,"ogether":1493,"Ġcurrent":1494,"Ġform":1495,"20":1496,"Ġdoesn":1497,"Ġinvest":1498,"rm":1499,"niz":1500,"Ġprocess":1501,"cy":1502,"ices":1503,"As":1504,",\"":1505,"ating":1506,"Ġvo":1507,"ĠUni":1508,"Ġspecial":1509,"together":1510,"Ġtimes":1511,"Ġleast":1512,"ience":1513,"ners":1514,"ars":1515,"ĠWhat":1516,"Ġrese":1517,"Ġwithin":1518,"ĠCon":1519,"Ġeasy":1520,"Ġima":1521,"wal":1522,"rist":1523,"ĠAl":1524,"ppy":1525,"Ġcase":1526,"Ġjo":1527,"Ġalready":1528,"Ġoffe":1529,"Ġfr":1530,"ĠEn":1531,"Ġfollowing":1532,"Ġmus":1533,"gu":1534,"Ġthought":1535,"For":1536,"ĠAmerica":1537,"ards":1538,"Ġcap":1539,"Ġhea":1540,"Ġuntil":1541,"Ġpossible":1542,"ĠRo":1543,"rtain":1544,"cond":1545,"Ġappe":1546,"sl":1547,"Ġvideo":1548,"Ġcheck":1549,"nment":1550,"icle":1551,"ken":1552,"Ġexce":1553,"ior":1554,"Ġstud":1555,"Ġoften":1556,"Ġtogether":1557,"And":1558,"nal":1559,"Ġpower":1560,"ised":1561,"ĠHa":1562,"Ġbit":1563,"Ġactually":1564,"Ġboo":1565,"ming":1566,"Ġshare":1567,"Ġpop":1568,"Ġpic":1569,"ision":1570,"Ġfil":1571,"Ġdra":1572,"Ġposi":1573,"Ġcomplete":1574,"Ġfood":1575,"Ġside":1576,"Ġsign":1577,"Ġlocal":1578,"Ġkind":1579,"Ġhead":1580,"Ġdeta":1581,"lor":1582,"ĠPr":1583,"Ġcle":1584,"fic":1585,"Ġprote":1586,"Ġrep":1587,"Ġvisit":1588,"Ġsays":1589,"Ġsomeone":1590,"Ġbring":1591,"Ġgover":1592,"Ġevent":1593,"Ġfea":1594,"Ġstudents":1595,"cred":1596,"Ġnight":1597,"ĠJa":1598,"Ġrest":1599,"rol":1600,"ili":1601,"ids":1602,"Ġbeaut":1603,"Ġrequire":1604,"Ġimpro":1605,"ying":1606,"Ġcontact":1607,"Co":1608,"ori":1609,"Ġlist":1610,"Ġcri":1611,"Ġless":1612,"Ġsl":1613,"Ġreceive":1614,"portun":1615,"Ġpract":1616,"ĠâĢĶ":1617,"Ġim":1618,"Ġstay":1619,"Ġreso":1620,"rage":1621,"Ġname":1622,"Ġtype":1623,"utes":1624,"ath":1625,"Ġpersonal":1626,"Ġresearch":1627,"ĠMe":1628,"Ġequ":1629,"Ġproper":1630,"teri":1631,"her":1632,"ug":1633,"Ġref":1634,"ures":1635,"Ġlive":1636,"Ġsever":1637,"Ġsafe":1638,"Ġsin":1639,"Ġgrow":1640,"divid":1641,"Ġbene":1642,"Ġstan":1643,"Ġ'":1644,"Ġmakes":1645,"Ġbas":1646,"gine":1647,"Ġopen":1648,"Ġsuccess":1649,"Ġ[":1650,"Ġmis":1651,"my":1652,"Ġcertain":1653,"Ġexa":1654,"Ġopportun":1655,"den":1656,"Ġprofession":1657,"ĠTe":1658,"Ġpast":1659,"Ġstand":1660,"Ġbro":1661,"ctive":1662,"Do":1663,"Ġothers":1664,"ous":1665,"Ġmarket":1666,"ĠCom":1667,"fter":1668,"Ġanything":1669,"Ġindust":1670,"Ġmind":1671,"reen":1672,"Ġview":1673,"Ġlate":1674,"cul":1675,"Ġbecome":1676,"Ġest":1677,"But":1678,"rit":1679,"sity":1680,"uck":1681,"eme":1682,"sider":1683,"uture":1684,"When":1685,"mic":1686,"Ġstory":1687,"Ġlead":1688,"gest":1689,"ffic":1690,"ak":1691,"Ġproducts":1692,"ings":1693,"cially":1694,"Ġcommunity":1695,"unch":1696,"Ġmonths":1697,"iety":1698,"once":1699,"Ġeverything":1700,"Ġfrien":1701,"cording":1702,"Ġfriend":1703,"Ġquality":1704,"vious":1705,"Ġmeans":1706,"etty":1707,"Ġfriends":1708,"Ġwai":1709,"Ġaddition":1710,"Ġemail":1711,"ove":1712,"Ġapplic":1713,"Ġcons":1714,"ults":1715,"spo":1716,"Ġinte":1717,"Ġsocial":1718,"Ġwal":1719,"pen":1720,"Ġleft":1721,"Ġfollow":1722,"sis":1723,"Ġindivid":1724,"ĠPo":1725,"Ġproblem":1726,"Ġstop":1727,"Ġcountry":1728,"Ġonce":1729,"ER":1730,"ĠLa":1731,"Ġhours":1732,"iful":1733,"ption":1734,"Ġau":1735,"ills":1736,"Ġactiv":1737,"Ġfre":1738,"Ġbelow":1739,"mb":1740,"ising":1741,"Ġalo":1742,"Ġcompe":1743,"Ġleg":1744,"fort":1745,"Ġagainst":1746,"ĠJo":1747,"Ġemploy":1748,"Ġperfect":1749,"ism":1750,"tru":1751,"maz":1752,"Ġpage":1753,"Ġcomes":1754,"Ġfur":1755,"ically":1756,"Ġlan":1757,"ker":1758,"ĠMy":1759,"Ġwomen":1760,"Ġsecond":1761,"oft":1762,"Ġbelieve":1763,"Ġwatch":1764,"oc":1765,"Ġair":1766,"Ġyet":1767,"Ġmain":1768,"Ġtest":1769,"Ġsug":1770,"dge":1771,"ĠIs":1772,"Ġprob":1773,"Ġalon":1774,"Ġalong":1775,"ĠGe":1776,"Ġidea":1777,"Ġmove":1778,"lf":1779,"Ġment":1780,"Ġeveryone":1781,"ights":1782,"Ġnear":1783,"Ġfuture":1784,"ithe":1785,"most":1786,"cono":1787,"Ġmode":1788,"ducation":1789,"Ġago":1790,"imate":1791,"Ġoffice":1792,"cus":1793,"Ġclose":1794,"ught":1795,"tee":1796,"Ġreason":1797,"rth":1798,"Ġquick":1799,"Ġmatter":1800,"Ġcreate":1801,"tural":1802,"Ġdesig":1803,"Ġtru":1804,"ither":1805,"Ġbegin":1806,"Ġgl":1807,"cla":1808,"âĢĶ":1809,"cks":1810,"Ġ...":1811,"treat":1812,"Ġincrea":1813,"cide":1814,"Ġlearn":1815,"ĠEx":1816,"Ġeve":1817,"part":1818,"Ġfac":1819,"Ġclass":1820,"ger":1821,"Ġcause":1822,"Ġstarted":1823,"Ġ:":1824,"Ġfour":1825,"viron":1826,"swe":1827,"Ġteach":1828,"ina":1829,"Ġunderstan":1830,"mpa":1831,"Ġunderstand":1832,"To":1833,"nies":1834,"iving":1835,"aster":1836,"stru":1837,"Ġshort":1838,"Ġmen":1839,"room":1840,"Ġquestions":1841,"Ġhist":1842,"Ġbody":1843,"ately":1844,"Ġinf":1845,"nder":1846,"da":1847,"Ġpretty":1848,"Ġhol":1849,"Ġdesign":1850,"Ġpl":1851,"Ġseveral":1852,"ĠChrist":1853,"Ġspo":1854,"Ġeye":1855,"Ġwonder":1856,"val":1857,"Ġclear":1858,"Ġtechno":1859,"Ġpat":1860,"Ġconsider":1861,"miss":1862,"iso":1863,"Ġ12":1864,"sident":1865,"Ġseen":1866,"nces":1867,"Ġru":1868,"Ġci":1869,"Wh":1870,"ible":1871,"Ġdeal":1872,"Ġcent":1873,"Ġcra":1874,"alf":1875,"clea":1876,"Ġwhole":1877,"mor":1878,"commen":1879,"Ġelse":1880,"ĀĀĀĀĀĀĀĀĀĀĀĀĀĀĀĀ":1881,"ront":1882,"lling":1883,"whe":1884,"Ġminutes":1885,"Ġacross":1886,"Ġ15":1887,"ĠAll":1888,"Ġbenef":1889,"Ġbuilding":1890,"ump":1891,"Ġretur":1892,"Ġtreat":1893,"Ġstr":1894,"Ġquite":1895,"specially":1896,"Ġtrying":1897,"ain":1898,"sale":1899,"ĠYour":1900,"ĠDa":1901,"ara":1902,"Ġtaking":1903,"Ġdisco":1904,"nced":1905,"Ġwent":1906,"Ġoc":1907,"Ġprobably":1908,"Ġorganiz":1909,"Ġline":1910,"took":1911,"scri":1912,"ĠGod":1913,"Ġbeautiful":1914,"Ġlevel":1915,"unds":1916,"Ġnice":1917,"ird":1918,"Ġclea":1919,"city":1920,"Ġyourself":1921,"Ġbad":1922,"Ġmillion":1923,"ĠBo":1924,"Ġson":1925,"mbers":1926,"not":1927,"Ġlis":1928,"ĠWhen":1929,"Ġquestion":1930,"Ġgovernment":1931,"Ġreco":1932,"Ġtook":1933,"10":1934,"Ġ30":1935,"ability":1936,"ference":1937,"vironment":1938,"Ġexe":1939,"ports":1940,"uff":1941,"Ġrecommen":1942,"ĠCan":1943,"sle":1944,"Ġbased":1945,"Ġconne":1946,"Ġadva":1947,"Ġparticular":1948,"tical":1949,"Ġmajo":1950,"ition":1951,"Ġsale":1952,"Ġisn":1953,"Ġinvol":1954,"ĠHer":1955,"ĠAd":1956,"soft":1957,"Ġhappy":1958,"Ġmusic":1959,"Ġaccess":1960,"ury":1961,"graph":1962,"Ġnon":1963,"ĠAr":1964,"Ġcoup":1965,"Ġgener":1966,"Ġmarke":1967,"che":1968,"Ġprice":1969,"Ġsimple":1970,"uto":1971,"Ġdevelopment":1972,"ĠMar":1973,"Ġreview":1974,"ĠĠ":1975,"Ġpriv":1976,"Ġcoo":1977,"How":1978,"ign":1979,"Ġthin":1980,"Ġhi":1981,"Ġissues":1982,"Ġspecific":1983,"Ġaccount":1984,"Ġchan":1985,"Ġsearch":1986,"ield":1987,"rity":1988,"Ġbuy":1989,"Ġchalle":1990,"Ġgir":1991,"No":1992,"Ġexample":1993,"Ġenter":1994,"ages":1995,"Ġsoo":1996,"sse":1997,"yo":1998,"Ġgene":1999,"load":2000,"ĠWith":2001,"term":2002,"Ġphone":2003,"iding":2004,"Ġsum":2005,"iles":2006,"Ġcity":2007,"Ġanyone":2008,"kers":2009,"nter":2010,"Ġmembers":2011,"Ġface":2012,"iled":2013,"Ġcalled":2014,"Ġens":2015,"Ġsele":2016,"Ġseason":2017,"Ġdirect":2018,"Ġabove":2019,"Ġdeli":2020,"py":2021,"Ġsimp":2022,"Ġbra":2023,"ĠMay":2024,"ĠUS":2025,"ĠInter":2026,"nergy":2027,"Ġgue":2028,"Ġgiven":2029,"Ġsoon":2030,"Ġsupp":2031,"ized":2032,"Ġow":2033,"Ġindustry":2034,"IN":2035,"Ġpresent":2036,"Ġcontrol":2037,"wher":2038,"selves":2039,"where":2040,"tors":2041,"Ġwheth":2042,"Ġwhethe":2043,"Ġwhether":2044,"Ġ18":2045,"sal":2046,"Ġusu":2047,"ap":2048,"Ġecono":2049,"pped":2050,"ested":2051,"Ġperfor":2052,"'d":2053,"Ġamo":2054,"yle":2055,"Ġask":2056,"member":2057,"told":2058,"Ġshop":2059,"tas":2060,"Ġris":2061,"Ġlater":2062,"Ġstru":2063,"Ġite":2064,"Ġchoo":2065,"Ġcompanies":2066,"Ġremo":2067,"Ġautho":2068,"Ġspace":2069,"Ġmess":2070,"ĠSh":2071,"Ġtold":2072,"Ġnothing":2073,"Ġyoun":2074,"Ġkey":2075,"Ġdist":2076,"Ġearly":2077,"though":2078,"Ġstra":2079,"My":2080,"Ġlight":2081,"Ġpass":2082,"Ġfavo":2083,"fully":2084,"Ġheart":2085,"Ġpie":2086,"Ġwanted":2087,"Ġpolic":2088,"Ġcla":2089,"versity":2090,"ilities":2091,"tot":2092,"Ġfina":2093,"ĠÂ":2094,"tche":2095,"ified":2096,"Ġmedia":2097,"Ġreading":2098,"curity":2099,"Ġhear":2100,"//":2101,"Ġalmost":2102,"Re":2103,"Ġcoming":2104,"Ġtax":2105,"Ġbed":2106,"Ġcontent":2107,"ledge":2108,"ĠJu":2109,"Ġrecor":2110,"Ġespecially":2111,"Ġseems":2112,"cade":2113,"Ġways":2114,"Ġmean":2115,"....":2116,"ncial":2117,"Ġpas":2118,"50":2119,"Ġfi":2120,"Ġdefin":2121,"ĠQ":2122,"Ġtot":2123,"verage":2124,"Ġpare":2125,"Ġreach":2126,"ĠPa":2127,"Ġforward":2128,"Ġenvironment":2129,"ĠHow":2130,"national":2131,"Ġyoung":2132,"by":2133,"utions":2134,"Ġstor":2135,"Ġet":2136,"ĠBa":2137,"Ġrema":2138,"Ġeducation":2139,"Ġamaz":2140,"Ġfla":2141,"Ġrelation":2142,"Ġprep":2143,"Ġexpect":2144,"Ġwriting":2145,"ips":2146,"That":2147,"Ġcustomers":2148,"ping":2149,"Ġkids":2150,"Ġmet":2151,"Ġrange":2152,"lace":2153,"nse":2154,"Ġimprove":2155,"Ġbreak":2156,"Ġeither":2157,"book":2158,"vered":2159,"urces":2160,"tention":2161,"Ġagree":2162,"ĠAt":2163,"Ġvalue":2164,"Ġmateri":2165,"Ġweeks":2166,"card":2167,"Ġcharac":2168,"Ġlooks":2169,"times":2170,"spect":2171,"sol":2172,"Ġmult":2173,"lished":2174,"Ġcut":2175,"Ġredu":2176,"Ġdiffic":2177,"Ġproblems":2178,"Ġliving":2179,"ĠSome":2180,"Ġple":2181,"new":2182,"bal":2183,"Ġhar":2184,"Be":2185,"ush":2186,"Ġbeh":2187,"tain":2188,"Ġstaff":2189,"30":2190,"gan":2191,"ĠJe":2192,"Ġtaken":2193,"Ġcr":2194,"Ġworks":2195,"Ġprofessional":2196,"origin":2197,"Ġsoft":2198,"Ġ2018":2199,"Ġsingle":2200,"Ġtraining":2201,"Ġcouple":2202,"off":2203,"Ġself":2204,"Ġtas":2205,"Ġstore":2206,"Ġstre":2207,"Ġsuper":2208,"Ġsimply":2209,"Ġdue":2210,"Ġupd":2211,"kes":2212,"Ġneeded":2213,"Ġextra":2214,"Ġeffective":2215,"dle":2216,"Ġlikely":2217,"ĠWor":2218,"nu":2219,"Ġenco":2220,"Ġasked":2221,"Ġfive":2222,"ĠTra":2223,"Ġident":2224,"Ġarticle":2225,"Ġsitu":2226,"Ġorigin":2227,"Ġworth":2228,"uble":2229,"Ġcred":2230,"Ġresults":2231,"ĠOur":2232,"Ġentire":2233,"sts":2234,"Ġlow":2235,"RE":2236,"ister":2237,"Ġwords":2238,"ĠNe":2239,"tation":2240,"://":2241,"ift":2242,"Ġleave":2243,"istra":2244,"Ġhuman":2245,"ĠLe":2246,"Ġrath":2247,"Ġrathe":2248,"Ġrather":2249,"ssed":2250,"Ġhalf":2251,"ĠThese":2252,"Ġgar":2253,"Ġlink":2254,"tow":2255,"soci":2256,"Ġpurcha":2257,"rand":2258,"Ġacce":2259,"mong":2260,"ino":2261,"ify":2262,"rodu":2263,"ĠHowever":2264,"Ġsize":2265,"Ġinsur":2266,"Ġsim":2267,"Ġye":2268,"rated":2269,"eath":2270,"Ġamazing":2271,"ON":2272,"rous":2273,"ille":2274,"Ġexci":2275,"Ġetc":2276,"Ġpercent":2277,"ede":2278,"Ġfurth":2279,"cuss":2280,"tour":2281,"Ġknown":2282,"Ġtow":2283,"tro":2284,"rite":2285,"tting":2286,"ĠTH":2287,"Ġcommit":2288,"Ġremember":2289,"wish":2290,"Ġfurthe":2291,"gth":2292,"ngth":2293,"iet":2294,"Ġperio":2295,"cas":2296,"pri":2297,"cre":2298,"ines":2299,"Ġbar":2300,"Mo":2301,"Ġsex":2302,"Ġglo":2303,"gue":2304,"Ġfurther":2305,"uter":2306,"Ġpick":2307,"Ġfore":2308,"Ġready":2309,"rry":2310,"tle":2311,"Ġ11":2312,"Ġdro":2313,"Ġopportunity":2314,"Ġrelationship":2315,"tance":2316,"Ġwish":2317,"Ġpotent":2318,"Ġatta":2319,"Ġreport":2320,"matic":2321,"Our":2322,"Ġmid":2323,"Ġnews":2324,"Ġenergy":2325,"ĠSer":2326,"tim":2327,"Ġtechnology":2328,"Ġtrue":2329,"Ġtalk":2330,"rations":2331,"Ġphys":2332,"Ġtable":2333,"ilar":2334,"Ġtour":2335,"AT":2336,"Ġloca":2337,"Ġ#":2338,"mpt":2339,"sce":2340,"Ġcard":2341,"Ġmyself":2342,"year":2343,"Ġapproach":2344,"Ġstrong":2345,"ban":2346,"Ġamount":2347,"Ġpoli":2348,"Ġcul":2349,"Ġdetails":2350,"Ġhowever":2351,"Ġexact":2352,"Ġstrate":2353,"Ġareas":2354,"Ġfinancial":2355,"Ġproperty":2356,"ĠCl":2357,"ĠOne":2358,"itely":2359,"Ġelect":2360,"Ġrequired":2361,"Ġwide":2362,"mar":2363,"Ġfra":2364,"pping":2365,"Ġstudy":2366,"cking":2367,"nic":2368,"mance":2369,"Ġwind":2370,"cip":2371,"ĠMor":2372,"Ġban":2373,"Ġturn":2374,"Ġcontinue":2375,"Ġach":2376,"used":2377,"Ġfall":2378,"Ġ100":2379,"Ġhistory":2380,"Ġrecommend":2381,"tel":2382,"www":2383,"ike":2384,"sia":2385,"asing":2386,"Ġpack":2387,"Ġinde":2388,"athe":2389,"rating":2390,"Ġinsurance":2391,"Ġchallenge":2392,"gg":2393,"Ġcolo":2394,"Ġmanagement":2395,"urce":2396,"ĠNot":2397,"Ġ0":2398,"Ġfront":2399,"ĠCha":2400,"round":2401,"Ġchoose":2402,"Ġanal":2403,"Ġten":2404,"Ġmorning":2405,"ĠJust":2406,"Ġmetho":2407,"Ġdeb":2408,"Ġasse":2409,"Ġlonger":2410,"Ġparticip":2411,"ĠUnited":2412,"ians":2413,"Ġnecess":2414,"Ġtakes":2415,"With":2416,"ĠZ":2417,"Ġmoment":2418,"Ġea":2419,"Ġresult":2420,"Ġevents":2421,"Ġoffers":2422,"De":2423,"Ġmajor":2424,"Ġrisk":2425,"Ġtravel":2426,"ĠThanks":2427,"Ġvers":2428,"some":2429,"Ġsuggest":2430,"Ġpain":2431,"Her":2432,"Ġknowledge":2433,"Ġfinish":2434,"Ġensure":2435,"Ġsle":2436,"pose":2437,"Ġdiscuss":2438,"ried":2439,"Ġsha":2440,"Ġdi":2441,"Ġgames":2442,"ĠEur":2443,"ants":2444,"Ġdate":2445,"ĠCe":2446,"ĠInd":2447,"Ġwrite":2448,"Ġmember":2449,"Ġusually":2450,"Ġdocu":2451,"Ġanno":2452,"Ma":2453,"Ġresponsi":2454,"Ġbur":2455,"Ġconsu":2456,"tis":2457,"here":2458,"Ġamong":2459,"Ġcommon":2460,"Ġcorr":2461,"abo":2462,"wrong":2463,"Ġstuff":2464,"Ġsubject":2465,"Ġhtt":2466,"Ġnetwo":2467,"Ġadded":2468,"ĠHere":2469,"ðŁ":2470,"Ġfig":2471,"wers":2472,"Ġengine":2473,"prese":2474,"Ġparty":2475,"Ġvarious":2476,"creat":2477,"idence":2478,"cture":2479,"ifica":2480,"Ġ--":2481,"Ġchance":2482,"nti":2483,"par":2484,"Ġmov":2485,"ĠâĢ¦":2486,"Ġcannot":2487,"Ġoutside":2488,"Ġwrong":2489,"Ġinteresting":2490,"ream":2491,"At":2492,"Ġauto":2493,"ES":2494,"coming":2495,"ĠBu":2496,"Ġlives":2497,"ditions":2498,"Ġthinking":2499,"Ġfit":2500,"ouch":2501,"Ġvol":2502,"Al":2503,"Ġlearning":2504,"Ġoptions":2505,"posed":2506,"nel":2507,"mission":2508,"Ġemployee":2509,"nty":2510,"Ġ50":2511,"Ġbuild":2512,"ĠPre":2513,"ather":2514,"leb":2515,"Ġchanges":2516,"bility":2517,"Ġrunning":2518,"ief":2519,"Ġsense":2520,"Ġdevice":2521,"Ġbehind":2522,"Ġpress":2523,"Ġwait":2524,"Ġunique":2525,"Ġseries":2526,"Ġclients":2527,"ans":2528,"ows":2529,"Ġcreat":2530,"iday":2531,"Ġcustomer":2532,"cts":2533,"tten":2534,"Ġskills":2535,"Ġperiod":2536,"Ġserious":2537,"ĠAmerican":2538,"Ġexpla":2539,"AN":2540,"Ġev":2541,"ination":2542,"Ġideas":2543,"ication":2544,"Ġroad":2545,"mas":2546,"Ġstep":2547,"irst":2548,".)":2549,"Ġful":2550,"ĠNa":2551,"Ġfocus":2552,"Ġfavorite":2553,"Ġwasn":2554,"Ġans":2555,"Ġpromo":2556,"ium":2557,"They":2558,"Ġreprese":2559,"play":2560,"Ġsecurity":2561,"Ġconcer":2562,"Ġanswer":2563,"Ġregular":2564,"ĠPh":2565,"ĠPlease":2566,"touch":2567,"Ġdefinitely":2568,"Ġdifficult":2569,"ioned":2570,"Ġaccording":2571,"Ġones":2572,"Ha":2573,"Ġmiss":2574,"rary":2575,"ĠSch":2576,"Ġjour":2577,"Ġincrease":2578,"Ġmarketing":2579,"lon":2580,"Ġclaim":2581,"ĠBl":2582,"ises":2583,"Ġsignifica":2584,"nesses":2585,"Ġbir":2586,"Ġinterested":2587,"ured":2588,"12":2589,"Ġswe":2590,"ford":2591,"Ġgr":2592,"Ġprovided":2593,"Ġva":2594,"Ġindividual":2595,"test":2596,"ince":2597,"Ġsig":2598,"ulation":2599,"Ġsal":2600,"OU":2601,"sun":2602,"medi":2603,"Ġtro":2604,"ĠOr":2605,"Ġactivities":2606,"ĠCar":2607,"Ġcompet":2608,"des":2609,"leased":2610,"ntial":2611,"ĠEurope":2612,"Ġtouch":2613,"All":2614,"Ġinsp":2615,"19":2616,"cru":2617,"ported":2618,"Ġheard":2619,"Ġoffic":2620,"irt":2621,"Ġaddress":2622,"ĠVe":2623,"Ġbab":2624,"illed":2625,"llent":2626,"town":2627,"?âĢĿ":2628,"Ġaction":2629,"Ġbooks":2630,"Ġwonderful":2631,"Ġwhite":2632,"Ġsurpr":2633,"Ġcharge":2634,"Ġ24":2635,"sti":2636,"Ġsix":2637,"Ġsea":2638,"Ġpopular":2639,"cir":2640,"On":2641,"cing":2642,"Ġcomb":2643,"pers":2644,"Ġsimilar":2645,"Ġprivate":2646,"Ġgoe":2647,"acy":2648,"Ġcredi":2649,"sor":2650,"Ġsce":2651,"Ġmeas":2652,"Ġinj":2653,"Ġguide":2654,"Ġrecent":2655,"vels":2656,"work":2657,"nis":2658,"Ġgoes":2659,"Ġimpact":2660,"Ġmemo":2661,"Ġdifference":2662,"uded":2663,"Ġdig":2664,"Here":2665,"Ġparents":2666,"Ġsaw":2667,"Ġclick":2668,"Ġprevious":2669,"One":2670,"Ġ2017":2671,"Ġquickly":2672,"Ġsun":2673,"Ġsend":2674,"Ġini":2675,"get":2676,"Ġpolicy":2677,"Ġran":2678,"ĠOf":2679,"Ġfeatures":2680,"gress":2681,"--":2682,"Ġatten":2683,"ror":2684,"Ġsummer":2685,"Ġinit":2686,"Ġbot":2687,"ĠSp":2688,"body":2689,"wall":2690,"tory":2691,"Ġpotential":2692,"eci":2693,"Ġnatural":2694,"Ġgeneral":2695,"Ġtreatment":2696,"Ġcomment":2697,"ped":2698,"hn":2699,"ĠMore":2700,"Ġthemselves":2701,"ĠSouth":2702,"Ġprovides":2703,"Ġtre":2704,"Ġitems":2705,"stead":2706,"ĠApp":2707,"Ġdrin":2708,"Ġdeath":2709,"Ġinstru":2710,"Ġred":2711,"oogle":2712,"Ġbox":2713,"Ġcoun":2714,"Ġapplication":2715,"Ġcir":2716,"Ġattention":2717,"lcome":2718,"asons":2719,"Ġshows":2720,"Ġprojects":2721,"Ġshall":2722,"swi":2723,"Ġsaying":2724,"Ġword":2725,"Ġ25":2726,"Ġsound":2727,"Ġcurrently":2728,"Ġhappen":2729,"haps":2730,"Ġwoman":2731,"reci":2732,"Ġ16":2733,"Ġ14":2734,"Ġpol":2735,"ĠFe":2736,"vation":2737,"wise":2738,"Ġpoints":2739,"Ġthank":2740,"right":2741,"ĠNow":2742,"Ġpaper":2743,"Ġmaybe":2744,"ĠStates":2745,"fact":2746,"Ġtea":2747,"Ġinside":2748,"hol":2749,"ĠPer":2750,"Ġchoice":2751,"Ġveh":2752,"dy":2753,"OR":2754,"ĠEng":2755,"Ġtrip":2756,"stic":2757,"Ġfine":2758,"Ġ,":2759,"Ġmedical":2760,"Ġsales":2761,"point":2762,"Ġoption":2763,"Ġversion":2764,"rts":2765,"Ġrole":2766,"Ġextr":2767,"ĠDay":2768,"urch":2769,"Ġflo":2770,"Ġdrive":2771,"Ġlost":2772,"15":2773,"Ġposition":2774,"Ġhuge":2775,"Ġpea":2776,"ball":2777,"Ġrate":2778,"Ġavo":2779,"Ġclean":2780,"Ġperformance":2781,"Ġdecided":2782,"Ġmeeting":2783,"Ġreturn":2784,"Ġarri":2785,"vert":2786,"Ġceleb":2787,"Ġswi":2788,"Ġbal":2789,"Ġfeed":2790,"Ġapply":2791,"back":2792,"gic":2793,"Ġki":2794,"Ġupon":2795,"Ġencour":2796,"ume":2797,"Ġdesigned":2798,"using":2799,"Ġsoftware":2800,"head":2801,"Ġsave":2802,"Ġhaven":2803,"Ġ199":2804,"Ġfield":2805,"Ho":2806,"Ġinvolved":2807,"ĠOn":2808,"Ġrecently":2809,"Ġdecision":2810,"ray":2811,"urs":2812,"Ġworked":2813,"Ġinstead":2814,"pende":2815,"elt":2816,"Ġlimi":2817,"Ġnorm":2818,"Ġcomputer":2819,"Ġcredit":2820,"ĠWorld":2821,"Ġcontinu":2822,"Ġcance":2823,"Ġcosts":2824,"Ġmoth":2825,"Ġenga":2826,"cting":2827,"ĠPar":2828,"Ġconside":2829,"Ġusers":2830,"Ġill":2831,"icles":2832,"Ġnecessary":2833,"ita":2834,"Ġexactly":2835,"pes":2836,"nor":2837,"ĠGo":2838,"Ġaud":2839,"Ġdama":2840,"Ġthird":2841,"Ġfilm":2842,"Ġstat":2843,"Ġcreated":2844,"Ġspen":2845,"Ġfinal":2846,"oil":2847,"Ġeasily":2848,"Ġspend":2849,"Ġholiday":2850,"kend":2851,"unts":2852,"uals":2853,"Ġthroughout":2854,"Ġblack":2855,"Ġhot":2856,"ĠCont":2857,"ĠNorth":2858,"Ġwalk":2859,"ĠThank":2860,"Ġpractice":2861,"Ġblo":2862,"âĢĵ":2863,"Ġrequest":2864,"sca":2865,"ĠYork":2866,"AR":2867,"Ġsystems":2868,"Ġfire":2869,"Ġreceived":2870,"ĠAfter":2871,"Ġwritten":2872,"Ġgrea":2873,"Ġfast":2874,"After":2875,"ĠService":2876,"Ġadditional":2877,"Ġability":2878,"nit":2879,"Ġol":2880,"rable":2881,"Ġbenefits":2882,"ĠUn":2883,"Ġannoun":2884,"Ġ13":2885,"Ġeyes":2886,"Some":2887,"Ġcool":2888,"ĠðŁ":2889,"cup":2890,"Ġmaint":2891,"Ġappreci":2892,"11":2893,"Se":2894,"Ġhands":2895,"Ġmix":2896,"ools":2897,"Ġplaying":2898,"yer":2899,"Ġfix":2900,"don":2901,"tre":2902,"Ġcontrib":2903,"solute":2904,"ĠDon":2905,"rc":2906,"Ġ2016":2907,"Ġgrowth":2908,"Ġsleep":2909,"essed":2910,"Now":2911,"Ġterms":2912,"Ġland":2913,"Ġcompletely":2914,"Ġgets":2915,"Ġbus":2916,"Ġhighe":2917,"irs":2918,"Ġhigher":2919,"Ġheld":2920,"ĠCity":2921,"Ġfunction":2922,"Ġoil":2923,"Ġgiving":2924,"Ġskin":2925,"istration":2926,"OT":2927,"ĠWa":2928,"Ġestab":2929,"Ġtried":2930,"Ġcountries":2931,"Ġvariety":2932,"Ġlocation":2933,"Ġthanks":2934,"Ġstri":2935,"Ġfeeling":2936,"squ":2937,"dom":2938,"Ġanim":2939,"Ġuser":2940,"EN":2941,"verse":2942,"Thank":2943,"Ġconta":2944,"Ġpositive":2945,"nch":2946,"St":2947,"Please":2948,"dit":2949,"ung":2950,"lex":2951,"Ġcontract":2952,"Ġaware":2953,"Thanks":2954,"Ġlegal":2955,"sto":2956,"rg":2957,"Ġsometimes":2958,"acebook":2959,"Ġtotal":2960,"Ġsituation":2961,"ublic":2962,"Ġdoor":2963,"Ġfelt":2964,"ĠUniversity":2965,"Ġexcellent":2966,"Ġlangu":2967,"wor":2968,"Ġcertainly":2969,"Ġfair":2970,"stit":2971,"mous":2972,"Ġdeterm":2973,"Ġtown":2974,"rica":2975,"Ġproces":2976,"cked":2977,"gr":2978,"Ġphotos":2979,"Ġpicture":2980,"Ġhair":2981,"Ġplanning":2982,"Ġimmedi":2983,"Ġschedu":2984,"fficient":2985,"Ġmas":2986,"Ġnote":2987,"Ġbrand":2988,"Ġcover":2989,"wed":2990,"lement":2991,"zy":2992,"Ġweekend":2993,"Ġadvice":2994,"Ġbr":2995,"lls":2996,"AL":2997,"Ġresources":2998,"Ġlatest":2999,"She":3000,"Ġhit":3001,"sus":3002,"18":3003,"ĠMed":3004,"vy":3005,"Ġinten":3006,"Ġcaree":3007,"ones":3008,"Ġsetting":3009,"sco":3010,"Ġ17":3011,"Ġpurchase":3012,"Ġcode":3013,"Ġhold":3014,"Ġcareer":3015,"Ġpartner":3016,"Ġappear":3017,"Ġstyle":3018,"usa":3019,"eed":3020,"Ġguys":3021,"Ġrelated":3022,"aced":3023,"Ġcoll":3024,"ncing":3025,"like":3026,"Ġmessage":3027,"ĀĀĀĀĀĀĀĀĀĀĀĀĀĀĀĀĀĀĀĀĀĀĀĀĀĀĀĀĀĀĀĀ":3028,"Ġmach":3029,"ĠSy":3030,"Ġsoc":3031,"Ġstudent":3032,"Ġfresh":3033,"Ġtalking":3034,"ÂŃ":3035,"Ġextreme":3036,"imum":3037,"Ġexpen":3038,"Ġincludes":3039,"Ġcases":3040,"Ġhor":3041,"mand":3042,"Ġstarting":3043,"Ġcouldn":3044,"ĠAf":3045,"lier":3046,"dern":3047,"Ġoriginal":3048,"Ġvia":3049,"ĠFra":3050,"ris":3051,".,":3052,"Ġconditions":3053,"Ġgoal":3054,"Ġexten":3055,"Ġesse":3056,"ĠAc":3057,"Ġmot":3058,"Ġcomments":3059,"Ġprevent":3060,"ED":3061,"wood":3062,"Ġbirth":3063,"Ġassoci":3064,"Ġweight":3065,"more":3066,"Ġaren":3067,"iling":3068,"ipment":3069,"Ġpiece":3070,"Ġdaily":3071,"IT":3072,"Ġknew":3073,"Ġlooked":3074,"sting":3075,"Ġobject":3076,"Ġplaces":3077,"tives":3078,"ST":3079,"Ġloved":3080,"Ġconte":3081,"struction":3082,"lick":3083,"ĠHis":3084,"ival":3085,"Ġinno":3086,"Ġprograms":3087,"ria":3088,"Ġsection":3089,"Ġfoot":3090,"Ġdisea":3091,"Ġplans":3092,"Ġ40":3093,"mpo":3094,"ilies":3095,"Ġimage":3096,"ĠChristmas":3097,"Ġnational":3098,"ĠPri":3099,"Ġsharing":3100,"bile":3101,"Ġprin":3102,"mm":3103,"Ġwall":3104,"Ġinternational":3105,"Ġdownload":3106,"Ġproviding":3107,"ĠState":3108,"tics":3109,"tself":3110,"itself":3111,"Ġinstall":3112,"kets":3113,"Ġdr":3114,"icated":3115,"bi":3116,"gram":3117,"Ġrecord":3118,"ex":3119,"Ġitself":3120,"ĠMon":3121,"late":3122,"Ġcharacter":3123,"rial":3124,"Ġhighly":3125,"Ġadmin":3126,"Ġprom":3127,"ĠRa":3128,"nta":3129,"Ġmothe":3130,"Ġbrow":3131,"ĠDis":3132,"Ġexis":3133,"Ġbuilt":3134,"Ġresta":3135,"Ġsess":3136,"Ġcolor":3137,"Ġgirl":3138,"Ġblood":3139,"Ġmother":3140,"These":3141,"Ġhone":3142,"ilo":3143,"mat":3144,"Ġsui":3145,"Ġhy":3146,"ok":3147,"Ġrestaur":3148,"Ġhealthy":3149,"Ġvio":3150,"band":3151,"fortable":3152,"ĠSu":3153,"Ġlay":3154,"Ġdescri":3155,"ntal":3156,"Ġtradition":3157,"bly":3158,"ler":3159,"Ġfile":3160,"Ġdru":3161,"fa":3162,"targe":3163,"Ġlevels":3164,"Ġsafety":3165,"ĠSep":3166,"ĠFacebook":3167,"lue":3168,"Ġintrodu":3169,"riday":3170,"Ġbaby":3171,"ĠSte":3172,"partment":3173,"Ġdegree":3174,"Ġdefe":3175,"Ġeat":3176,"Ġsolution":3177,"hes":3178,"arding":3179,"Ch":3180,"Pe":3181,"Ġabsolute":3182,"atever":3183,"Ġlots":3184,"Ġinternet":3185,"Ġachieve":3186,"Ġbusinesses":3187,"tree":3188,"ough":3189,"Ġtypes":3190,"Ġwouldn":3191,"Ġpatients":3192,"Ca":3193,"Ġcampa":3194,"Ġdeep":3195,"rote":3196,"Ġspent":3197,"ĠNational":3198,"ĠX":3199,"âĢ¢":3200,"Ġfinally":3201,"Ġexpected":3202,"Ġturned":3203,"Ġfund":3204,"Ġmultip":3205,"Ġpictures":3206,"Ġgave":3207,"Ġtools":3208,"Ġdiv":3209,"Ġaverage":3210,"Ġground":3211,"Ġgroups":3212,"quent":3213,"Ġdead":3214,"Ġluck":3215,"Ġtee":3216,"Ġexpr":3217,"Ġleader":3218,"Ġpolice":3219,"nical":3220,"Ye":3221,"Ġindividuals":3222,"Ġ2015":3223,"Ġattra":3224,"Ġtarge":3225,"Ġrad":3226,"ĠAust":3227,"bs":3228,"Ġbase":3229,"ĠLet":3230,"vis":3231,"cum":3232,"Ġdisplay":3233,"Ġloss":3234,"irit":3235,"Ġorganization":3236,"ĠEvery":3237,"Ġtruly":3238,"ĠTHE":3239,"Ġatte":3240,"Ġalter":3241,"Ġoccur":3242,"Ġsuccessful":3243,"Ġlocated":3244,"Ġterm":3245,"Ġbeha":3246,"Ġhelps":3247,"Ġgives":3248,"nsion":3249,"Ġfinding":3250,"Ġcorrect":3251,"spon":3252,"Ġplayers":3253,"Ġwants":3254,"asses":3255,"Ġbenefi":3256,"tional":3257,"ufact":3258,"Ġsqu":3259,"ĠJohn":3260,"Ġhotel":3261,"ĠTa":3262,"Ġemployees":3263,"Ġglobal":3264,"Ġeasier":3265,"ison":3266,"range":3267,"vant":3268,"Ġstories":3269,"Ġcamp":3270,"night":3271,"Ġboard":3272,"Ġtree":3273,"?\"":3274,"Ġ/":3275,"Ġemer":3276,"Ġrecog":3277,"Ġexpert":3278,"Ġtrack":3279,"Ġmodel":3280,"Ġhappened":3281,"ĠÂ£":3282,"Ġmovie":3283,"ĠLon":3284,"zed":3285,"Ġexerc":3286,"uses":3287,"Ġplat":3288,"oods":3289,"porting":3290,"ĠCal":3291,"Ġmanufact":3292,"Ġdia":3293,"Ġtext":3294,"Ġbudge":3295,"Ġopportunities":3296,"Ġhttp":3297,"Ġinsta":3298,"Ġpaid":3299,"Ġparts":3300,"Ġgrowing":3301,"ige":3302,"istic":3303,"Ġpolitical":3304,"Ġemb":3305,"ĠUK":3306,"ĠCol":3307,"Ġcustom":3308,"Ġfamilies":3309,"Ġincluded":3310,"ches":3311,"rought":3312,"ĠOff":3313,"Ġguy":3314,"ughter":3315,"Ġcy":3316,"zz":3317,"\".":3318,"sses":3319,"Ġconvers":3320,"cure":3321,"Ġproduction":3322,"Ġcarry":3323,"ING":3324,"nual":3325,"Well":3326,"ĠChe":3327,"based":3328,"Ġreci":3329,"sign":3330,"ĠGu":3331,"Ġdest":3332,"Ġallows":3333,"Ġreasons":3334,"oon":3335,"lect":3336,"tom":3337,"Ġsuf":3338,"Ġdog":3339,"Ġsource":3340,"Ġrights":3341,"ering":3342,"lied":3343,"Ġchea":3344,"Ġalone":3345,"Ġfully":3346,"ux":3347,"tips":3348,"Ġdel":3349,"ĠWill":3350,"nna":3351,"Ġuseful":3352,"Ġrefer":3353,"Ġsites":3354,"nto":3355,"Ġregion":3356,"ĠGoogle":3357,"IC":3358,"Ġphysical":3359,"Ġnetwork":3360,"Ġopin":3361,"Ġproduce":3362,"Ġvic":3363,"Ġdirectly":3364,"cro":3365,"org":3366,"Ġ:)":3367,"Ġsent":3368,"!!!":3369,"Ġunderstanding":3370,"tchen":3371,"ula":3372,"Ġjud":3373,"Ġscreen":3374,"Ġjoin":3375,"Ġslow":3376,"wesome":3377,"pril":3378,"Ġeffort":3379,"ĠMin":3380,"Ġequipment":3381,"cember":3382,"ĠFriday":3383,"Ġcopy":3384,"Ġz":3385,"Ġassis":3386,"Ġeconomic":3387,"Ġlimited":3388,"Ġqual":3389,"Ġemo":3390,"cret":3391,"ĠRead":3392,"Ġtips":3393,"Ġgone":3394,"AS":3395,"ĠTV":3396,"Ġavoid":3397,"ground":3398,"Ġlaunch":3399,"Ġsignificant":3400,"Ġseeing":3401,"Ġprices":3402,"Ġcondition":3403,"mary":3404,"ctors":3405,"ederal":3406,"mercial":3407,"hood":3408,"Wo":3409,"rict":3410,"Ġcu":3411,"Ġletter":3412,"rge":3413,"Ġconsidered":3414,"oot":3415,"tember":3416,"wards":3417,"lia":3418,"posi":3419,"âĢĿ.":3420,"Ġtowards":3421,"Ġmaterial":3422,"Ġbeginning":3423,"Ġrea":3424,"Ġspeed":3425,"Ġut":3426,"Ġrelease":3427,"spital":3428,"pm":3429,"Ġstandard":3430,"Ġmobile":3431,"spite":3432,"Ġactive":3433,"Ġguess":3434,"Ġcreating":3435,"ĠHealth":3436,"Ġass":3437,"Ġmoving":3438,"25":3439,"ctober":3440,"Ġquo":3441,"Ġneigh":3442,"did":3443,"Ġrequirements":3444,"ĠCount":3445,"imately":3446,"Ġep":3447,"Ġfant":3448,"Ġbath":3449,"Ġwelcome":3450,"cident":3451,"Ġur":3452,"Ġer":3453,"tin":3454,"ssing":3455,"Ġmatch":3456,"offee":3457,"Ġpi":3458,"17":3459,"era":3460,"ĠMarch":3461,"16":3462,"Ġbenefit":3463,"Ġmodern":3464,"got":3465,"IS":3466,"oors":3467,"Ġlif":3468,"Ġdigital":3469,"While":3470,"rien":3471,"14":3472,"Ġadvant":3473,"âĢ¦]":3474,"Ġsolutions":3475,"unday":3476,"lines":3477,"13":3478,"cho":3479,"Ġlin":3480,"Ġresponse":3481,"Ġbutt":3482,"illing":3483,"Ġinterview":3484,"Ġtele":3485,"Ġgoals":3486,"Ġreside":3487,"ially":3488,"Ġbank":3489,"Ġstrength":3490,"venue":3491,"Ġpaint":3492,"ĠQu":3493,"Yes":3494,"eep":3495,"Ġrele":3496,"Ġtrust":3497,"Ġx":3498,"face":3499,"ada":3500,"ĠTime":3501,"ĠSpe":3502,"ĠJune":3503,"Ġnature":3504,"sen":3505,"hib":3506,"ĠDep":3507,"orn":3508,"Ġexplo":3509,"Ġlanguage":3510,"ĠSan":3511,"Ġ2014":3512,"Ġinfo":3513,"ification":3514,"yon":3515,"Ġsort":3516,"Ġrespect":3517,"Ġglad":3518,"isions":3519,"ĠWhile":3520,"scrib":3521,"tisf":3522,"Ġtu":3523,"Ġlower":3524,"priate":3525,"Ġwed":3526,"pera":3527,"Ġthousa":3528,"ivity":3529,"comes":3530,"Ġhus":3531,"ĠHouse":3532,"astic":3533,"Ġsold":3534,"Ġbasis":3535,"itle":3536,"gency":3537,"ĠBar":3538,"dering":3539,"logical":3540,"creasing":3541,"icro":3542,"ley":3543,"Ġgift":3544,"Ġfear":3545,"iced":3546,"Your":3547,"bu":3548,"came":3549,"Ġsepar":3550,"ĠRep":3551,"Is":3552,"Ġbegan":3553,"iver":3554,"ĠBy":3555,"Ġgreen":3556,"Ġmana":3557,"Ġchanged":3558,"nuary":3559,"Ġinvestment":3560,"Ġnearly":3561,"Ex":3562,"nique":3563,"Ġpush":3564,"arter":3565,"Ġleading":3566,"Ġposts":3567,"action":3568,"cil":3569,"Ġbehav":3570,"Ġcook":3571,"ĠWell":3572,"Ġcollege":3573,"vour":3574,"Ġdocument":3575,"turday":3576,"Ġcenter":3577,"Ġmultiple":3578,"Ġsteps":3579,"tary":3580,"ĠThen":3581,"Ġweather":3582,"Ġhelping":3583,"Ġtrade":3584,"Ġap":3585,"Ġahead":3586,"Ġwife":3587,"Ġanswe":3588,"ives":3589,"Ġspot":3590,"Ġbrought":3591,"Ġfeet":3592,"ĠWar":3593,"Ġkno":3594,"ĠDecember":3595,"ĠPol":3596,"Ġshi":3597,"Ġfloor":3598,"ĠAN":3599,"Ġpurpose":3600,"wrote":3601,"Just":3602,"Ġpor":3603,"vil":3604,"Ġcomfortable":3605,"Ġfath":3606,"know":3607,"ĠApril":3608,"aking":3609,"han":3610,"ĠTru":3611,"Ġclub":3612,"ĠSeptember":3613,"Ġbla":3614,"set":3615,"ĠGa":3616,"Ġhelpful":3617,"Ġmaterials":3618,"Ġpers":3619,"ysis":3620,"ache":3621,"nting":3622,"undred":3623,"Ġwaiting":3624,"Ġchee":3625,"ization":3626,"just":3627,"??":3628,"ncies":3629,"riend":3630,"Ġatt":3631,"iel":3632,"ĠAny":3633,"Ġles":3634,"Ġcomplex":3635,"Ġcollection":3636,"Ġmine":3637,"Ġsell":3638,"Ġwrote":3639,"ala":3640,"vember":3641,"ĠOctober":3642,"Ġoffering":3643,"sons":3644,"Ġhimself":3645,"vention":3646,"ĠAct":3647,"ĠPresident":3648,"Ġimages":3649,"trea":3650,"lore":3651,"ĠFa":3652,"Ġreleased":3653,"Ġscience":3654,"pro":3655,"Ġfish":3656,"Ġhur":3657,"Ġparticularly":3658,"ĠLea":3659,"abe":3660,"igation":3661,"Ġacces":3662,"ĠNovember":3663,"ĠMan":3664,"Ġhappens":3665,"Ġtic":3666,"essi":3667,"lies":3668,"unately":3669,"Ġcru":3670,"unding":3671,"Ġhusband":3672,"cash":3673,"ĠHar":3674,"Ġclient":3675,"usion":3676,"Ġdepe":3677,"iction":3678,"lated":3679,"ĠSunday":3680,"ĠĠĠĠ":3681,"Ġextremely":3682,"ĠEnglish":3683,"ĠAfrica":3684,"tering":3685,"Ġwarm":3686,"Oh":3687,"valu":3688,"Ġmeaning":3689,"ĠJuly":3690,"inner":3691,"Ġknows":3692,"siness":3693,"lin":3694,"but":3695,"yond":3696,"Ġpoor":3697,"Ġbecame":3698,"Ġligh":3699,"Ġbeyond":3700,"Ġmer":3701,"Ġwedding":3702,"ĠAug":3703,"Ġrules":3704,"ĠBea":3705,"Ġdecade":3706,"Ġaudience":3707,"Ġcourt":3708,"Ġevidence":3709,"ĠWhy":3710,"Ġforget":3711,"Ġvoice":3712,"Ġsubmit":3713,"aran":3714,"Ġschools":3715,"Ġobvious":3716,"Ġround":3717,"ceed":3718,"ĠAre":3719,"Ġafford":3720,"Ġfail":3721,"ose":3722,"lation":3723,"Ġlice":3724,"Ar":3725,"bor":3726,"Ġawesome":3727,"ĠMr":3728,"eah":3729,"Ġactivity":3730,"ĠFr":3731,"Ġexperienced":3732,"LL":3733,"Ġ21":3734,"Ġbelie":3735,"ĠAustral":3736,"Ġpeace":3737,"ulations":3738,"Con":3739,"ĠSchool":3740,"Ġalthough":3741,"Ġincred":3742,"Ġsong":3743,"Ġtool":3744,"Ġperform":3745,"Ġbudget":3746,"Ġdoll":3747,"Ġinflue":3748,"Ġspeak":3749,"ĠJanuary":3750,"Ġbasic":3751,"Ġcompr":3752,"Ġcondu":3753,"ka":3754,"Ġdraw":3755,"Don":3756,"Ġtechnique":3757,"ĠEven":3758,"Ġnumbers":3759,"vey":3760,"Ġkitchen":3761,"Ġconsul":3762,"Ġcreative":3763,"ĠMost":3764,"AC":3765,"Not":3766,"Ġcash":3767,"ited":3768,"ĠAb":3769,"Ġbutto":3770,"Ġgradu":3771,"Ġexcited":3772,"umb":3773,"Ġpublished":3774,"Ġâ":3775,"Ġ2013":3776,"itive":3777,"Ġcold":3778,"ĠReg":3779,"Ġrelax":3780,"Ġadvert":3781,"Ġvehicle":3782,"Ġthoughts":3783,"Ġresol":3784,"lying":3785,"Ġsatisf":3786,"Ġhonest":3787,"Ġaspe":3788,"ĠHigh":3789,"Ġhelped":3790,"Ġnut":3791,"Ġnormal":3792,"Ġdecide":3793,"Ġplayed":3794,"essive":3795,"Ġpath":3796,"Ġgran":3797,"60":3798,"Ġperhaps":3799,"apo":3800,"cused":3801,"Ġdisease":3802,"Ġincreasing":3803,"coffee":3804,"ĠGra":3805,"Ġver":3806,"Ġmethod":3807,"Pr":3808,"Ġrepa":3809,"Ġowner":3810,"Ġstage":3811,"Ġrates":3812,"ĠCent":3813,"Ġproced":3814,"Ġreve":3815,"Ġimmediately":3816,"Ġreduce":3817,"Ġlearned":3818,"Ġfathe":3819,"core":3820,"Ġculture":3821,"Ġsounds":3822,"Ġreported":3823,"Ġworry":3824,"pan":3825,"ĠSaturday":3826,"Ġfeature":3827,"Ġfather":3828,"ĠManage":3829,"let":3830,"shop":3831,"Ġaffect":3832,"Ġcommercial":3833,"Ġabsolutely":3834,"Ġboy":3835,"Ġfigure":3836,"pendent":3837,"Ġeffects":3838,"Ġdep":3839,"Ġstatement":3840,"Ġstress":3841,"Ġdoub":3842,"cry":3843,"Why":3844,"nance":3845,"artment":3846,"Ġstraight":3847,"Ġfirm":3848,"Ġserve":3849,"Ġhundred":3850,"ĠFrom":3851,"ĠGet":3852,"Ġ2012":3853,"Ġwhatever":3854,"Ġded":3855,"tude":3856,"Ġcorpo":3857,"eg":3858,"Ġhop":3859,"Ġmachine":3860,"Ġallowed":3861,"Ġdecl":3862,"Ġnation":3863,"Ġmiddle":3864,"Ġgirls":3865,"Ġjobs":3866,"Ġconse":3867,"Ġrepe":3868,"ĠYe":3869,"Ġearlier":3870,"ĠMonday":3871,"ooking":3872,"Ġsmart":3873,"Ġcoffee":3874,"Ġtrea":3875,"Ġret":3876,"Ġbillion":3877,"Ġdamage":3878,"Ġexam":3879,"Ġdark":3880,"Ġpleas":3881,"Ġ198":3882,"Ġfriendly":3883,"Ġkid":3884,"tw":3885,"tening":3886,"Ġprotect":3887,"Ġimplement":3888,"iring":3889,"cious":3890,"mod":3891,"Ġassu":3892,"OM":3893,"Ġ60":3894,"Ġappropriate":3895,"tab":3896,"Ġsan":3897,"Ġspa":3898,"Ġevening":3899,"Ġload":3900,"Ġnotice":3901,"Ġtruth":3902,"Ġlack":3903,"ĠInternet":3904,"Ġregister":3905,"oe":3906,"Ġride":3907,"Ġphotograph":3908,"ridge":3909,"Ġball":3910,"Ġenjoyed":3911,"Ġinsti":3912,"aling":3913,"ĠIns":3914,"tant":3915,"ronic":3916,"ntic":3917,"Ġcampaign":3918,"Ġregarding":3919,"Ġreta":3920,"nize":3921,"ĠTr":3922,"Ġposted":3923,"Ġgas":3924,"Ġtyp":3925,"ashing":3926,"Ġformer":3927,"bum":3928,"ĠGood":3929,"Ġplenty":3930,"Ġincome":3931,"ĠKe":3932,"rdin":3933,"Ġprefer":3934,"nito":3935,"forts":3936,"ĠKo":3937,"Ġtopic":3938,"Ġaccept":3939,"Ġlose":3940,"Ġdeveloped":3941,"tize":3942,"Ġenable":3943,"Ġtrouble":3944,"Ġscient":3945,"change":3946,"Ġlovely":3947,"Ġsco":3948,"ĠCenter":3949,"ĠWest":3950,"Ad":3951,"ĠWeb":3952,"len":3953,"Ġoffered":3954,"Ġresponsible":3955,"you":3956,"Ġstrategy":3957,"ilitary":3958,"Every":3959,"Ġcancer":3960,"Ġcro":3961,"Ġcol":3962,"Ġremain":3963,"Ġstock":3964,"Ġpages":3965,"Ġtraditional":3966,"ales":3967,"Ġrace":3968,"Hi":3969,"Ġpressure":3970,"tan":3971,"Ġjourney":3972,"Ġstates":3973,"itude":3974,"Ġconsta":3975,"Ġshot":3976,"gers":3977,"inted":3978,"ico":3979,"ean":3980,"Ġconfir":3981,"acks":3982,"Ġspirit":3983,"Ġwatching":3984,"Ġsca":3985,"ĠDr":3986,"Ġdriving":3987,"Ġdouble":3988,"usive":3989,"ĠAugust":3990,"Ġmeant":3991,"bru":3992,"Ġanaly":3993,"Ġgrand":3994,"Ġpayment":3995,"Ġ[âĢ¦]":3996,"fast":3997,"Ġport":3998,"200":3999,"Ġpresident":4000,"ĠAlso":4001,"vision":4002,"ox":4003,"mples":4004,"Ġtraffic":4005,"rders":4006,"Ġkept":4007,"Lo":4008,"Ġmiles":4009,"Ġoccas":4010,"Ġexpa":4011,"ĠYear":4012,"Ġplaye":4013,"Ġplayer":4014,"Ġkeeping":4015,"Ġdrop":4016,"40":4017,"how":4018,"tar":4019,"Ġwear":4020,"Ġconference":4021,"Ġessential":4022,"Ġhomes":4023,"Ġbottom":4024,"Ġprogress":4025,"za":4026,"ĠCour":4027,"crow":4028,"Ġcate":4029,"witter":4030,"ĠDepartment":4031,"Ġdry":4032,"ĠMany":4033,"light":4034,"Ġpowerful":4035,"Ġmax":4036,"Ġalterna":4037,"scribed":4038,"Ġoverall":4039,"Ġrelig":4040,"Ġreser":4041,"Ġreports":4042,"uel":4043,"Ġcandid":4044,"Ġolder":4045,"Ġaccep":4046,"Ġdaughter":4047,"Ġshown":4048,"ĠGer":4049,"Ġbrain":4050,"Ġsweet":4051,"ĠHave":4052,"Ġinstit":4053,"lence":4054,"Ġfoo":4055,"Ġargu":4056,"Ġconsis":4057,"rical":4058,"force":4059,"Ġpatient":4060,"ĠGro":4061,"eo":4062,"Ġapplications":4063,"mocra":4064,"ĠLi":4065,"Ġhospital":4066,"smo":4067,"iant":4068,"Ġcompla":4069,"ĠOffice":4070,"Ġreality":4071,"Ġlog":4072,"Let":4073,"Ġconstruction":4074,"Ġthera":4075,"Ġheat":4076,"key":4077,"heth":4078,"Ġadvantage":4079,"Ġtem":4080,"Ġlinks":4081,"hethe":4082,"Ġvalu":4083,"hether":4084,"Ġanti":4085,"ĠHome":4086,"Ġacqu":4087,"Ġpara":4088,"__":4089,"ural":4090,"Ġefforts":4091,"ky":4092,"Ġbroth":4093,"ĠArt":4094,"Ġannual":4095,"Ġmentioned":4096,"Ġwilling":4097,"Ġsociety":4098,"Ġbusy":4099,"ĠSc":4100,"Ġchurch":4101,"However":4102,"!âĢĿ":4103,"neral":4104,"lot":4105,"Ġcards":4106,"Ġyes":4107,"ĠChina":4108,"Any":4109,"Ġsusta":4110,"ern":4111,"Ġexperiences":4112,"Ġmoved":4113,"gen":4114,"Ġbiggest":4115,"Ġcapital":4116,"Ġchallenges":4117,"Ġband":4118,"Ġregard":4119,"Can":4120,"Ġfantastic":4121,"Ġappreciate":4122,"izing":4123,"Ġalbum":4124,"Ġupdate":4125,"aries":4126,"Ġpred":4127,"sage":4128,"ĠSee":4129,"ĠYOU":4130,"twe":4131,"Ġtw":4132,"Ġshared":4133,"Ġrem":4134,"je":4135,"oms":4136,"Ġfinished":4137,"Ġfan":4138,"Ġpool":4139,"**":4140,"rid":4141,"ĠCor":4142,"Ġgreater":4143,"Pro":4144,"monst":4145,"Ġaim":4146,"Ġguaran":4147,"Ġarch":4148,"Ġ22":4149,"Ġfight":4150,"ady":4151,"Ġprem":4152,"ĠGreat":4153,"rew":4154,"Ġdelivery":4155,"Ġdistrib":4156,"Ġsupply":4157,"Ġbought":4158,"Ġpassion":4159,"put":4160,"Ġexercise":4161,"Ġcert":4162,"Ġfab":4163,"Ġshopping":4164,"Ġpet":4165,"cutive":4166,"ider":4167,"Ġblue":4168,"iforn":4169,"tively":4170,"Ġdinner":4171,"Ġcamera":4172,"Ġtotally":4173,"gno":4174,"Ġeconomy":4175,"rief":4176,"Po":4177,"Ġschedule":4178,"ĠCoun":4179,"Ġincreased":4180,"Ġimpr":4181,"Ġcrow":4182,"wide":4183,"yal":4184,"tence":4185,"ĠFirst":4186,"Ġopinion":4187,"Ġspending":4188,"eel":4189,"ĠFin":4190,"Ġteams":4191,"ĠIndia":4192,"Ġforce":4193,"Ġbuying":4194,"VE":4195,"ĠTO":4196,"title":4197,"sn":4198,"Ġexisting":4199,"bur":4200,"ĠRus":4201,"Ġbio":4202,"Ġdoctor":4203,"Ġasking":4204,"Ġconv":4205,"By":4206,"sad":4207,"gna":4208,"she":4209,"Ac":4210,"Ġengage":4211,"Ġ@":4212,"ĠLove":4213,"ĠðŁĻ":4214,"Ġrooms":4215,"Ġworkers":4216,"Ġobser":4217,"Ġsit":4218,"ĠJesus":4219,"sible":4220,"Ġviews":4221,"Ġeating":4222,"see":4223,"rif":4224,"ĠPark":4225,"Ġpieces":4226,"Ġprior":4227,"Ġauthor":4228,"Ġfru":4229,"bruary":4230,"rities":4231,"ĠMake":4232,"board":4233,"ooth":4234,"wha":4235,"Ġplatform":4236,"Ġfem":4237,"ĠLondon":4238,"fortunately":4239,"Ġscene":4240,"Ġcommunication":4241,"rates":4242,"ifornia":4243,"Ġvideos":4244,"Ġideal":4245,"Ġpatter":4246,"ĠMc":4247,"ĠMich":4248,"Ġfill":4249,"Ġselection":4250,"Ġcatch":4251,"rat":4252,"ĠFre":4253,"Ġprincip":4254,"ĠCounty":4255,"Ġfat":4256,"Ġreplace":4257,"Ġsaving":4258,"Ġofficial":4259,"Ġminute":4260,"Ġbalance":4261,"Ġanalysis":4262,"Ġorganizations":4263,"Ġlines":4264,"Ġtwe":4265,"Ġgenerally":4266,"ications":4267,"Ġputting":4268,"ooks":4269,"sports":4270,"Ġexciting":4271,"Ġpsy":4272,"Ġ2011":4273,"Ġhisto":4274,"Ġsurv":4275,"ĠInternational":4276,"Ġbutton":4277,"Ġattend":4278,"ĠPeople":4279,"Ġsurge":4280,"ah":4281,"cast":4282,"Ġefficient":4283,"Ġunless":4284,"Ġrelevant":4285,"Ġcompleted":4286,"ĠAir":4287,"vative":4288,"Ġproud":4289,"what":4290,"LE":4291,"icate":4292,"Ġbill":4293,"Ġsession":4294,"Ġdiet":4295,"Ġwhose":4296,"ays":4297,"Ġdie":4298,"chan":4299,"tches":4300,"lie":4301,"Ġpassed":4302,"Ġtitle":4303,"Ġencourage":4304,"ĠWed":4305,"sterday":4306,"Ġactual":4307,"Ġmaintain":4308,"Ġsad":4309,"istry":4310,"pert":4311,"Ġwinter":4312,"Are":4313,"ĠSho":4314,"ĠGover":4315,"Ġstro":4316,"ict":4317,"Ġmista":4318,"Ġhost":4319,"ĠIT":4320,"Ġdevices":4321,"Ġexplore":4322,"Ġcovered":4323,"Ġcas":4324,"Ġleaders":4325,"Ġoptim":4326,"ĠTea":4327,"unk":4328,"Ġwindow":4329,"Ġmilitary":4330,"Ġlaugh":4331,"Ġune":4332,"ĠEar":4333,"Ġtechnical":4334,"Ġthrow":4335,"Ġparties":4336,"ĠSco":4337,"phone":4338,"Mor":4339,"Ġteache":4340,"Ġrealize":4341,"Ġdoubt":4342,"ĠBusiness":4343,"venture":4344,"Ġ2010":4345,"Ġenha":4346,"Ġwaste":4347,"ials":4348,"minal":4349,"ĠIN":4350,"Ġseven":4351,"Ġopening":4352,"ĠEuropea":4353,"bed":4354,"ĠEuropean":4355,"commod":4356,"Ġfans":4357,"Ġwalking":4358,"Ġexpensive":4359,"Ġbecoming":4360,"EO":4361,"Ġdemonst":4362,"Ġtempera":4363,"Ġthousands":4364,"Ġbedroom":4365,"Ġprepared":4366,"Ġuses":4367,"ashion":4368,"ilt":4369,"Ġdelic":4370,"Ġimm":4371,"Ġsports":4372,"pre":4373,"Ġcharacters":4374,"ĠðŁĻĤ":4375,"ĠTrump":4376,"Ġdeveloping":4377,"Ġlab":4378,"morrow":4379,"AM":4380,"Ġvolun":4381,"Ġwine":4382,"Ġ23":4383,"Ġaccur":4384,"Ġexcl":4385,"Ġmount":4386,"house":4387,"Ġwww":4388,"Ġjump":4389,"mented":4390,"Ġmonito":4391,"Ġprotection":4392,"Ġfaith":4393,"ĠCommun":4394,"acing":4395,"word":4396,"Ġbeach":4397,"Ġmission":4398,"ĠOF":4399,"pter":4400,"Ġadv":4401,"under":4402,"Ġrain":4403,"Ġcry":4404,"Ġelectric":4405,"istics":4406,"Ġmention":4407,"!\"":4408,"mpany":4409,"Ġlargest":4410,"logies":4411,"ĠWho":4412,"os":4413,"Ġlunch":4414,"Ġcars":4415,"tage":4416,"eat":4417,"ĠCalifornia":4418,"Ġplus":4419,"ons":4420,"Ġclearly":4421,"Ġentry":4422,"Ġsubsta":4423,"Ġannounced":4424,"Ġestate":4425,"sites":4426,"ĠBra":4427,"ĠKing":4428,"ĠPart":4429,"Of":4430,"ID":4431,"Ġgath":4432,"Ġaward":4433,"Ġoutd":4434,"ĠBro":4435,"Ġadop":4436,"rep":4437,"Ġsecure":4438,"Ġrequires":4439,"Ġled":4440,"Ġpopulation":4441,"Ġrich":4442,"Ġstandards":4443,"Ġmethods":4444,"Ġstudies":4445,"Ġcritical":4446,"Ġotherwise":4447,"ĠMus":4448,"Ġgun":4449,"Ġconcl":4450,"gal":4451,"Ġnur":4452,"Ġmental":4453,"Ġassociated":4454,"long":4455,"Ġstreet":4456,"Ġig":4457,"that":4458,"Ġrare":4459,"Ġadvance":4460,"Ġbul":4461,"Ġ197":4462,"ik":4463,"Ġfacilities":4464,"Ġfederal":4465,"Ġborn":4466,"sig":4467,"icy":4468,"Ġtransfer":4469,"Ne":4470,"ched":4471,"Ġseemed":4472,"Ġhighest":4473,"ĠRese":4474,"Ġprofessionals":4475,"Ġrid":4476,"ints":4477,"Ġfactors":4478,"ĠFebruary":4479,"Ġdrink":4480,"Ġcommunities":4481,"Ġbroad":4482,"aller":4483,"Ġ28":4484,"Ġcup":4485,"standing":4486,"Ġcontro":4487,"Ġsmo":4488,"Ġfavour":4489,"Ġvill":4490,"lim":4491,"Ġgarden":4492,"Ġdied":4493,"Ġlisted":4494,"EC":4495,"ĠLife":4496,"Ġinfor":4497,"Ġguests":4498,"Ġorganis":4499,"Ġchanging":4500,"Ġnega":4501,"Ġoperation":4502,"tured":4503,"Ġadding":4504,"Ġdeliver":4505,"Ġintegra":4506,"Ġassess":4507,"ech":4508,"Ġbon":4509,"Ġdream":4510,"Ġpra":4511,"Ġfiles":4512,"Ġowners":4513,"west":4514,"ION":4515,"Ġje":4516,"ĠColle":4517,"Ġrecipe":4518,"ila":4519,"ĠDire":4520,"bit":4521,"Ġing":4522,"Ġdating":4523,"aled":4524,"ĠStre":4525,"Ġdecisions":4526,"Ġrelationships":4527,"cross":4528,"Ph":4529,"free":4530,"Ġpark":4531,"Ġcalls":4532,"ursday":4533,"Ġexperts":4534,"uesday":4535,"Ġconnection":4536,"Ġconven":4537,"Ġslight":4538,"Ġhandle":4539,"imed":4540,"Ġpull":4541,"score":4542,"mental":4543,"Ġlarger":4544,"Ġarticles":4545,"Ġleaving":4546,"More":4547,"Ġteaching":4548,"snow":4549,"ĠTech":4550,"OW":4551,"Ġgain":4552,"Ġreference":4553,"Ġearth":4554,"Ġaccommod":4555,"Ġlib":4556,"!)":4557,"Ġsector":4558,"Ġfeels":4559,"Ġacade":4560,"Ġexplain":4561,"\",":4562,"Ġsexual":4563,"ĠLaw":4564,"ished":4565,"llige":4566,"gies":4567,"Ġworse":4568,"Ġdesir":4569,"Ġdesire":4570,"Ġevalu":4571,"ET":4572,"ĠRussia":4573,"Ġvote":4574,"Ġhearing":4575,"Ġcollabo":4576,"Ġprint":4577,"Ġconcept":4578,"Ġsis":4579,"sme":4580,"Ġdemand":4581,"Ġbag":4582,"Ġselect":4583,"Ġrestaurant":4584,"Ġdrug":4585,"tough":4586,"iliar":4587,"Ġscore":4588,"uty":4589,"ene":4590,"tate":4591,"riage":4592,"inds":4593,"Ġdetermine":4594,"Ġdiscussion":4595,"Ġalle":4596,"Ġclasses":4597,"Ġmeasure":4598,"Ġappoint":4599,"ua":4600,"Ġsnow":4601,"Ġ90":4602,"Ġbackground":4603,"Ġspring":4604,"Me":4605,"Ġthrea":4606,"Ġourselves":4607,"Ġcell":4608,"uted":4609,"Ġcivil":4610,"Ġfollowed":4611,"iness":4612,"gon":4613,"Ġframe":4614,"Ġsitting":4615,"Ġsorry":4616,"onto":4617,"quently":4618,"Ġimagine":4619,"Ġflex":4620,"Ġclin":4621,"Ġdedicated":4622,"ĠCanada":4623,"rant":4624,"Ġmod":4625,"with":4626,"Ġplant":4627,"Ġcitize":4628,"Ġshowing":4629,"orders":4630,"lus":4631,"Ġlength":4632,"ilk":4633,"Ġtough":4634,"tenance":4635,"99":4636,"Ġtaste":4637,"Ġitem":4638,"zo":4639,"iration":4640,"Ġvictim":4641,"wild":4642,"ehen":4643,"ites":4644,"Ġbirthday":4645,"place":4646,"ĠSto":4647,"Ġ80":4648,"ĠOth":4649,"ships":4650,"Ġcoach":4651,"Ġ27":4652,"Ġsecret":4653,"Ġserved":4654,"volution":4655,"22":4656,"ube":4657,"Ġcompetition":4658,"Ġassistance":4659,"Ġinvi":4660,"Ġcross":4661,"efore":4662,"Ġepiso":4663,"which":4664,"refore":4665,"Ġanimals":4666,"erefore":4667,"ĠOut":4668,"ĠUp":4669,"Ġine":4670,"gaz":4671,"Ġlisten":4672,"ret":4673,"Ġremove":4674,"From":4675,"ulous":4676,"ĠPla":4677,"Ġloa":4678,"Ġappears":4679,"arm":4680,"Ġselling":4681,"IG":4682,"Ġonto":4683,"ĠServices":4684,"pective":4685,"lis":4686,"Ġice":4687,"Ġ26":4688,"Ġstatus":4689,"Once":4690,"ricul":4691,"Ġcompared":4692,"icing":4693,"ĠHol":4694,"Ġcaused":4695,"Ġfunds":4696,"Ġanywhere":4697,"Ġapprox":4698,"Ġblock":4699,"eless":4700,"Ġreviews":4701,"Ġended":4702,"rance":4703,"Ġpolicies":4704,"Ġnames":4705,"Ġok":4706,"Ġ_":4707,"Ġcomfort":4708,"Ġglass":4709,"Ġassist":4710,"Ġtherefore":4711,"Ġheavy":4712,"Ġestablish":4713,"Ġcentr":4714,"fected":4715,"Have":4716,"acity":4717,"Ġunit":4718,"Ġvisitors":4719,"inter":4720,"OL":4721,"Ġvalues":4722,"ĠMaybe":4723,"iner":4724,"ĠBecause":4725,"cin":4726,"ĠBlack":4727,"nesday":4728,"conds":4729,"Ġcompone":4730,"Ġmanaged":4731,"Sa":4732,"going":4733,"ipped":4734,"Ġestablished":4735,"eds":4736,"Ġingred":4737,"Ã©":4738,"Ġfeedback":4739,"Ġmajority":4740,"oom":4741,"Ġsustain":4742,"ĠAND":4743,"âĢĿ,":4744,"Ġtale":4745,"useum":4746,"ĠEast":4747,"fi":4748,"Com":4749,"Ġdirection":4750,"ĠYes":4751,"Ġwild":4752,"down":4753,"Ġbathroom":4754,"Ġattack":4755,"ĠSen":4756,"Ġvision":4757,"ĠWal":4758,"ham":4759,"Ġtask":4760,"arily":4761,"ĠAssoci":4762,"Ġadmit":4763,"iva":4764,"ĠFree":4765,"ira":4766,"Ġmom":4767,"Ġchem":4768,"ĠTake":4769,"Ġminimum":4770,"ĠStreet":4771,"Ġsympt":4772,"Ġforms":4773,"Ġcloth":4774,"noo":4775,"Ġcontinued":4776,"ĠBest":4777,"ĠThursday":4778,"rato":4779,"Ġconfide":4780,"Ġoccasion":4781,"ĠTuesday":4782,"Ġcentury":4783,"Ġbeauty":4784,"Ġsupposed":4785,"ya":4786,"Ġmemory":4787,"Ġtran":4788,"Ġja":4789,"100":4790,"matically":4791,"Ġsouth":4792,"Ġcircum":4793,"other":4794,"ashingt":4795,"Ġquiet":4796,"rative":4797,"ashingto":4798,"ashington":4799,"ĠOh":4800,"aging":4801,"Ġir":4802,"Ġrise":4803,"Ġconnect":4804,"lla":4805,"Ġtarget":4806,"ĠNOT":4807,"Ġdump":4808,"Ġbreath":4809,"OS":4810,"Ġpregna":4811,"ĀĀĀĀĀĀĀĀĀĀĀĀĀĀĀĀĀĀĀĀĀĀĀĀĀĀĀĀĀĀĀĀĀĀĀĀĀĀĀĀĀĀĀĀĀĀĀĀĀĀĀĀĀĀĀĀĀĀĀĀĀĀĀĀ":4812,"ups":4813,"Ġpossibly":4814,"ĠUse":4815,"ĠWind":4816,"Ġprio":4817,"Ġconversation":4818,"nda":4819,"Ġteachers":4820,"Ġdiscus":4821,"Ġapart":4822,"poses":4823,"Ġstructure":4824,"Ġsuffer":4825,"dra":4826,"Ġconcerns":4827,"ildr":4828,"ildre":4829,"Ġmissing":4830,"ĠCouncil":4831,"Ġsty":4832,"cket":4833,"ase":4834,"ĠChar":4835,"Ġtrain":4836,"Ġopened":4837,"âĢĺ":4838,"Ġstarts":4839,"Ġtoward":4840,"Ġactions":4841,"dro":4842,"een":4843,"pla":4844,"Ġmaster":4845,"ĠBrit":4846,"Ġprimary":4847,"ĠFlo":4848,"bing":4849,"Jo":4850,"Ġaddr":4851,"24":4852,"ĠIS":4853,"cohol":4854,"mination":4855,"Ġmovement":4856,"âĢ¦.":4857,"well":4858,"Ġresidents":4859,"Ġpractices":4860,"asy":4861,"Ġchic":4862,"ighting":4863,"Ġreli":4864,"Ġdetail":4865,"stitute":4866,"Ġperspective":4867,"Ġdeser":4868,"ildren":4869,"omorrow":4870,"Ġteacher":4871,"tomorrow":4872,"Ġcentre":4873,"quence":4874,"Ġcoverage":4875,"ĠLike":4876,"Ġseconds":4877,"Ġstorage":4878,"Ġdrea":4879,"Ġinsi":4880,"Ġbreakfast":4881,"ibility":4882,"prof":4883,"Ġpaying":4884,"Ġpul":4885,"Ġidentify":4886,"Ġbecomes":4887,"ulty":4888,"Ġult":4889,"Ġinv":4890,"Ġhappening":4891,"Ġdisa":4892,"Ġmainta":4893,"ĠCheck":4894,"Ġmostly":4895,"Ġlaws":4896,"Ġspread":4897,"Ġclaims":4898,"Ġeight":4899,"fin":4900,"Ġraise":4901,"Ġrule":4902,"Ġcommitted":4903,"Ġgraph":4904,"cles":4905,"Ġtomorrow":4906,"Ġclosed":4907,"Ġfilled":4908,"Ġwebsites":4909,"icking":4910,"ĠAustralia":4911,"ĠWhite":4912,"life":4913,"Ġadults":4914,"Ġknowing":4915,"gage":4916,"Ġprepare":4917,"Ġdriver":4918,"Ġdiagno":4919,"Ġshape":4920,"uk":4921,"Ġreaders":4922,"Ġdee":4923,"Ġsources":4924,"Ġproperly":4925,"TH":4926,"Ġshoe":4927,"ĠKa":4928,"Ġquarter":4929,"Ġfunding":4930,"ngers":4931,"Ġdescribed":4932,"Ġmanufacture":4933,"iff":4934,"Ġaccomp":4935,"Ġedit":4936,"ĠOnce":4937,"80":4938,"Ġnorth":4939,"Ġyesterday":4940,"Ġtheme":4941,"bert":4942,"Ġdescribe":4943,"Since":4944,"Ġdebt":4945,"Ġfocused":4946,"Ġtechniques":4947,"Many":4948,"Ġrap":4949,"une":4950,"Ġresponsibility":4951,"Ġfas":4952,"ĠTwitter":4953,"Ġrock":4954,"Ġcolors":4955,"Ġdiscover":4956,"AD":4957,"Then":4958,"Ġhapp":4959,"Ġtemp":4960,"ĠWednesday":4961,"rest":4962,"Ġdocuments":4963,"spa":4964,"Ġsolid":4965,"Ġremains":4966,"scription":4967,"Ġnetwor":4968,"Ġaccident":4969,"Ġfashion":4970,"Ġclimate":4971,"500":4972,"Ġnar":4973,"Ġexchange":4974,"ston":4975,"Ġelements":4976,"Ġ70":4977,"bon":4978,"stern":4979,"Ġlands":4980,"friend":4981,"Ġforum":4982,"Ġplaced":4983,"Ġforeign":4984,"uries":4985,"mploy":4986,"ller":4987,"AP":4988,"ĠWashington":4989,"Ġseparate":4990,"Ġmouth":4991,"Ġneighbor":4992,"rse":4993,"Ġscra":4994,"Ġattempt":4995,"Ġlegis":4996,"ordin":4997,"Ġtesting":4998,"umerous":4999,"Ġdelicious":5000,"ĠStar":5001,"ĠOver":5002,"Ġvirt":5003,"ĠSince":5004,"sil":5005,"ields":5006,"sla":5007,"Ġexcept":5008,"Ġcontinues":5009,"Ġpackage":5010,"while":5011,"vering":5012,"ĠRepublic":5013,"amily":5014,"Ġcleaning":5015,"ptions":5016,"Ġsugar":5017,"Ġexception":5018,"mporary":5019,"Ġsmaller":5020,"noon":5021,"ĠCourt":5022,"Ġsuit":5023,"Ġdespite":5024,"Ġmodels":5025,"Ġbrief":5026,"Ġinitia":5027,"Ġalternative":5028,"Ġcorner":5029,"Ġsmooth":5030,"uce":5031,"Ġfees":5032,"Get":5033,"Ġdeco":5034,"ternal":5035,"Ġjournal":5036,"Also":5037,"Ġ2009":5038,"Ġcompo":5039,"Ġgold":5040,"ĠVa":5041,"Ġraised":5042,"Ġfamiliar":5043,"Ġachie":5044,"Ġwood":5045,"Ġrecommended":5046,"Ġdogs":5047,"Ġagency":5048,"Ġworkshop":5049,"Ġindependent":5050,"Ġnone":5051,"Ġcute":5052,"Ġcalling":5053,"Ġtend":5054,"Ġgol":5055,"ĠLord":5056,"Ġboa":5057,"Ġinjury":5058,"ĠTur":5059,"Ġkilled":5060,"duca":5061,"Ġmaintenance":5062,"ĠHu":5063,"Ġtrave":5064,"usi":5065,"repr":5066,"has":5067,"Ġcris":5068,"iency":5069,"Ġdance":5070,"fers":5071,"Ġdistance":5072,"Ġmenu":5073,"Ġexhib":5074,"ttery":5075,"AY":5076,"Ġdepending":5077,"Ġfolks":5078,"Ġmarkets":5079,"ĠRed":5080,"Ġvaluable":5081,"Ġnegative":5082,"Ġagreement":5083,"Ġloan":5084,"tera":5085,"Sh":5086,"Ġinitial":5087,"Ġleadership":5088,"Ġsn":5089,"unter":5090,"Ġcorporate":5091,"Ġoperations":5092,"Ġsymptoms":5093,"ifts":5094,"Ġcomprehen":5095,"Ġmanner":5096,"Ġswitch":5097,"Ġmeal":5098,"Un":5099,"ĠHope":5100,"Most":5101,"non":5102,"mption":5103,"Ġdepartment":5104,"Ġdollars":5105,"ĠMid":5106,"Ġhttps":5107,"Ġcircumsta":5108,"Ġdiscovered":5109,"Ġtelling":5110,"rator":5111,"reg":5112,"ĠIr":5113,"Ġswim":5114,"Ġradio":5115,"Ġbow":5116,"Ġsmile":5117,"ĠEach":5118,"icine":5119,"Ġarrange":5120,"Ġconsistent":5121,"May":5122,"Ġ2008":5123,"nn":5124,"Ġrent":5125,"Ġexpan":5126,"usted":5127,"Ġstick":5128,"Ġenvironmental":5129,"Ġvisiting":5130,"Ġrecords":5131,"Ġconcerned":5132,"45":5133,"Ġprofi":5134,"PS":5135,"sition":5136,"Ġdesk":5137,"ĠAnge":5138,"Ġrepresent":5139,"perties":5140,"Ġmoto":5141,"Ġcop":5142,"Per":5143,"Ġanyway":5144,"Ġeventually":5145,"Ġrefle":5146,"Ġcaught":5147,"Ġseek":5148,"Ġconfidence":5149,"oes":5150,"Ġsurprised":5151,"gar":5152,"wis":5153,"Ġfamous":5154,"Ġholding":5155,"Ġcentral":5156,"Ġplants":5157,"Ġdress":5158,"Ġlived":5159,"Ġcrazy":5160,"teria":5161,"spective":5162,"Ġdirector":5163,"ĠEducation":5164,"Ġtin":5165,"Ġparking":5166,"Ġconsidering":5167,"Ġemergency":5168,"Ġfreed":5169,"Ġincor":5170,"box":5171,"Ġestima":5172,"Ġbrothe":5173,"Ġmicro":5174,"First":5175,"ĠGroup":5176,"ĠDevelop":5177,"Ġnumerous":5178,"ĠBritish":5179,"Ġ*":5180,"iga":5181,"Ġfunny":5182,"Ġstation":5183,"Ġoperating":5184,"Ġmissed":5185,"Ġod":5186,"gent":5187,"Click":5188,"mans":5189,"mane":5190,"Ġflat":5191,"Ġshoo":5192,"Ġmill":5193,"ssible":5194,"23":5195,"tead":5196,"tened":5197,"Ġattemp":5198,"Ġshut":5199,"tles":5200,"icks":5201,"Ġappare":5202,"Ġbrother":5203,"Ġguarantee":5204,"never":5205,"ĠCare":5206,"Ġcapacity":5207,"fering":5208,"Ġdetailed":5209,"Ġsurro":5210,"Ġannounce":5211,"Ġpartners":5212,"ĠScience":5213,"Ġhate":5214,"Ġremin":5215,"Ġimportance":5216,"usto":5217,"Ġreached":5218,"Ġinfluence":5219,"Ġmag":5220,"Ġgeneration":5221,"ĠGar":5222,"bama":5223,"Ġship":5224,"ĠAmaz":5225,"Ġfest":5226,"ĠSocial":5227,"Ġapartment":5228,"Ġpromote":5229,"cea":5230,"aly":5231,"imin":5232,"ĠComp":5233,"Ġstrategies":5234,"ĠManagement":5235,"Ġadjust":5236,"Ġthr":5237,"Ġmanager":5238,"Da":5239,"Ġcourses":5240,"Ġsil":5241,"Ġchallen":5242,"pet":5243,"Ġeth":5244,"Ġbrings":5245,"Ġmino":5246,"Ġroof":5247,"ville":5248,"Ġafternoon":5249,"essing":5250,"wra":5251,"ĠGovernment":5252,"iting":5253,"Ġcities":5254,"missions":5255,"Ġmarried":5256,"Ġpractical":5257,"ulate":5258,"ĠFrench":5259,"Ġdele":5260,"Ġchoices":5261,"rtation":5262,"Ġbigger":5263,"ĠBel":5264,"Ġmulti":5265,"reak":5266,"iable":5267,"alled":5268,"nels":5269,"Ġmap":5270,"rian":5271,"Ġaspects":5272,"Ġ29":5273,"unning":5274,"Ġsongs":5275,"Ġnoticed":5276,"voca":5277,"Ġ+":5278,"Ġwash":5279,"ĠClick":5280,"ĠOthe":5281,"Ġcompetitive":5282,"Ġshowed":5283,"ĠOther":5284,"Ġinteract":5285,"Ġexperi":5286,"Today":5287,"ĠLear":5288,"abilities":5289,"Ġupdated":5290,"Ġhoping":5291,"Even":5292,"phe":5293,"Ġsurvey":5294,"Ġpurposes":5295,"Ġstopped":5296,"Ġpresented":5297,"Ġseriously":5298,"isco":5299,"clear":5300,"Ġstanding":5301,"ĠBoard":5302,"Ġ31":5303,"Ġstrugg":5304,"tainment":5305,"):":5306,"Ġvalid":5307,"Ġaff":5308,"Ġsurface":5309,"Ġintellige":5310,"Ġdevelo":5311,"mits":5312,"Ġofficials":5313,"Ġslightly":5314,"Ġresident":5315,"colate":5316,"Ġapproximately":5317,"Ġwhom":5318,"ĠBur":5319,"Ġcounter":5320,"ĠIsra":5321,"Ġnor":5322,"arr":5323,"Ġupdates":5324,"ngerous":5325,"Ġingredients":5326,"Ġsigns":5327,"gues":5328,"nee":5329,"Ġanswers":5330,"Ġutil":5331,"Ġfoods":5332,"Ġsud":5333,"Ġmovies":5334,"Ġdecades":5335,"Ġcontains":5336,"bilities":5337,"Ġcomplic":5338,"Ġcheap":5339,"sna":5340,"ĠStud":5341,"Ġcore":5342,"Ġaccounts":5343,"Ġmotor":5344,"esses":5345,"ĠToday":5346,"Ġkinds":5347,"lent":5348,"Ġrout":5349,"Ġliter":5350,"Ġmatters":5351,"Ġprocesses":5352,"Ġcommitment":5353,"ĠSyste":5354,"According":5355,"ĠNet":5356,"inese":5357,"Ġcombination":5358,"Ġrepair":5359,"Ġpresence":5360,"ĠSup":5361,"Over":5362,"Ġconnected":5363,"New":5364,"Ġarrived":5365,"ires":5366,"rupt":5367,"Ġboys":5368,"ĠAsia":5369,"Ġincredible":5370,"ĠPlan":5371,"Ġinspiration":5372,"Ġnamed":5373,"Ġlimit":5374,"utho":5375,"Ġproduced":5376,"ĠAmericans":5377,"lands":5378,"ĠPlay":5379,"Ġsurprise":5380,"Ġharm":5381,"ĠAlthough":5382,"ĠST":5383,"Ġaffordable":5384,"ĠBig":5385,"US":5386,"Ġyouth":5387,"can":5388,"Ġfu":5389,"ario":5390,"vie":5391,"greed":5392,"Ġinterests":5393,"Ġusual":5394,"Ġcab":5395,"Ġeduca":5396,"Ġresto":5397,"Ġpleased":5398,"roid":5399,"Ġpu":5400,"esh":5401,"Ġpm":5402,"ifying":5403,"Ġcontra":5404,"aged":5405,"Ġhundreds":5406,"state":5407,"IP":5408,"Ġconsumers":5409,"Ġartists":5410,"Ġliked":5411,"Ġspeaking":5412,"ĠChurch":5413,"Ġmail":5414,"Ġsoul":5415,"Ġadvertising":5416,"Ġacademic":5417,"tto":5418,"Ġcream":5419,"Ġalcohol":5420,"mony":5421,"Ġmarriage":5422,"Ġseeking":5423,"uration":5424,"pts":5425,"Ġmur":5426,"Ġupgra":5427,"Ġjoy":5428,"fol":5429,"Ġruns":5430,"acking":5431,"Ġthus":5432,"Ġbright":5433,"Ġwis":5434,"Ġanx":5435,"Ġbringing":5436,"Ġserver":5437,"Ġfacility":5438,"rown":5439,"Ġselected":5440,"Ġpropo":5441,"Ġag":5442,"Ġrestaurants":5443,"Ġleaves":5444,"cord":5445,"Ġviolence":5446,"Ġbroken":5447,"Ġexamples":5448,"iler":5449,"Ġfaster":5450,"Ġatto":5451,"Ġattor":5452,"Ġexpertise":5453,"ĠObama":5454,"rida":5455,"Ġproperties":5456,"Ġtrees":5457,"ĠCompany":5458,"ĠGlo":5459,"Ġsomewhere":5460,"Ġartist":5461,"rible":5462,"ression":5463,"35":5464,"Ġfemale":5465,"Ġvehicles":5466,"ĠTex":5467,"Ġnu":5468,"Ġsigned":5469,"Ġstores":5470,"Ġeducational":5471,"hy":5472,"Ġsquare":5473,"Ġprofile":5474,"Ġhum":5475,"Ġsurgery":5476,"Ġelection":5477,"Ġscale":5478,"sick":5479,"Ġsister":5480,"olar":5481,"Ġsna":5482,"Ġgreatest":5483,"Ġflow":5484,"ĠPal":5485,"ael":5486,"Ġyours":5487,"ĠRE":5488,"ĠTheir":5489,"Ġdoors":5490,"Ġkill":5491,"Ġadult":5492,"Ġedi":5493,"yna":5494,"Ġwit":5495,"ĠBr":5496,"IM":5497,"Ġtwice":5498,"Ġclothe":5499,"ĠGeneral":5500,"ĠSm":5501,"Ġdisap":5502,"ranch":5503,"thle":5504,"Ġess":5505,"versi":5506,"ived":5507,"Ġtopics":5508,"Ġpair":5509,"Ġvacation":5510,"Ġfootball":5511,"Ġpersonally":5512,"tio":5513,"aches":5514,"Ġhousing":5515,"Ġdefen":5516,"Ġbehavior":5517,"Ġreturned":5518,"Ġanimal":5519,"Ġconcern":5520,"Read":5521,"LY":5522,"abor":5523,"Ġwearing":5524,"gory":5525,"Ġconflic":5526,"Ġ?":5527,"Ġobtain":5528,"Ġgoods":5529,"Ġdangerous":5530,"Ġdrugs":5531,"Ġwra":5532,"Ġrespond":5533,"En":5534,"Ġemotional":5535,"BC":5536,"Ġcheese":5537,"stitution":5538,"Ġcircumstances":5539,"ĠDavid":5540,"Ġlucky":5541,"Ġmeasures":5542,"Ġarchite":5543,"made":5544,"Ġsenior":5545,"Ġven":5546,"Ġnotes":5547,"Ġallowing":5548,"ĠChristian":5549,"ĠApple":5550,"Ġadministration":5551,"Ġclothes":5552,"ĠResearch":5553,"Ġcharges":5554,"tte":5555,"ĠProf":5556,"Ġdete":5557,"ĠGreen":5558,"Ġmedium":5559,"Ġcast":5560,"Ġsick":5561,"ĠProgram":5562,"Ġju":5563,"Ġspecifically":5564,"Ġant":5565,"Ġadvanced":5566,"Ġprivacy":5567,"nology":5568,"mittee":5569,"Ġbehavio":5570,"reprene":5571,"Ġtrial":5572,"La":5573,"Ġappearance":5574,"ĠJack":5575,"fection":5576,"Ġproceed":5577,"apos":5578,"known":5579,"Ġparticipate":5580,"Ġsurrounding":5581,"Ġserving":5582,"mate":5583,"Ġregularly":5584,"lled":5585,"rastru":5586,"Ġcloser":5587,"Ġ35":5588,"Ġvege":5589,"Ġpleasure":5590,"Ġabuse":5591,"Ġsand":5592,"zing":5593,"Ġbattle":5594,"Ġturns":5595,"Ġpublish":5596,"Ġfle":5597,"Ġrob":5598,"70":5599,"Ġconstantly":5600,"roll":5601,"bour":5602,"Although":5603,"gazine":5604,"Ġintended":5605,"ĠClub":5606,"app":5607,"unting":5608,"Te":5609,"Ġchemical":5610,"Ġcalcul":5611,"raid":5612,"Ġleads":5613,".âĢĻ":5614,"ym":5615,"uting":5616,"ĠGeo":5617,"Ġflight":5618,"Ġreasonable":5619,"ĠSea":5620,"Ġmassive":5621,"Ġshouldn":5622,"Ġerror":5623,"tat":5624,"Ġlocations":5625,"Ġcorre":5626,"uge":5627,"Ġcomprehensive":5628,"Ġtypically":5629,"Ġminim":5630,"Ġworst":5631,"Ġinspired":5632,"Ġappointment":5633,"Ġpicked":5634,"Ġins":5635,"ef":5636,"Ġfellow":5637,"mark":5638,"ĠSuper":5639,"Ġmaximum":5640,"Ġsla":5641,"Ġchat":5642,"Ġtechnologies":5643,"ĠWork":5644,"Ġroll":5645,"Ġmoments":5646,"Ġquote":5647,"Ġstated":5648,"Ġstruct":5649,"roy":5650,"Ġlibrary":5651,"Ġpreviously":5652,"Ġbelief":5653,"Ġwriter":5654,"Ġwir":5655,"Ġmonthly":5656,"Ġfreedom":5657,"Ġcrime":5658,"Ġextensive":5659,"estyle":5660,"ĠCap":5661,"Ġhurt":5662,"Ġrental":5663,"Ġdelay":5664,"Ġpray":5665,"ĠTrans":5666,"Tra":5667,"Ġfuel":5668,"ĠDan":5669,"ĠCollege":5670,"Ġgent":5671,"21":5672,"Ġissu":5673,"date":5674,"nized":5675,"Ġperfectly":5676,"Ġremoved":5677,"Ġwondering":5678,"ĠNews":5679,"ĠON":5680,"Ġcauses":5681,"Ġimpossible":5682,"ĠVis":5683,"zen":5684,"Last":5685,"wel":5686,"Ġspect":5687,"Ġguest":5688,"forms":5689,"ĠChinese":5690,"Ġdad":5691,"Ġcultural":5692,"ĠPaul":5693,"portation":5694,"Ġapplied":5695,"phy":5696,"ĠPublic":5697,"ii":5698,"Ġuniversity":5699,"pointed":5700,"mics":5701,"Ġexpress":5702,"pare":5703,"Ġtemperature":5704,"dest":5705,"Ġwinning":5706,"road":5707,"Ġnine":5708,"Ġmessages":5709,"ĠEl":5710,"Ġtickets":5711,"aker":5712,"Ġdepr":5713,"ĠEngland":5714,"Ġplanned":5715,"Ġparticipants":5716,"Ġeffectively":5717,"Ġaid":5718,"Ġepisode":5719,"irty":5720,"Ġanymore":5721,"ws":5722,"Ġindeed":5723,"Ve":5724,"Ġsets":5725,"sors":5726,"Ġconser":5727,"Ġages":5728,"Ġposting":5729,"graphy":5730,"Good":5731,"ĠSur":5732,"Ġbike":5733,"Ġner":5734,"Ġreput":5735,"Ġemployment":5736,"Ġprovider":5737,"dar":5738,"Ġlux":5739,"Ġsituations":5740,"ĠAM":5741,"ĠTer":5742,"Ġvisual":5743,"ĠWindows":5744,"rastructure":5745,"Ġenhance":5746,"arian":5747,"Ġdatab":5748,"Ġclassic":5749,"Ġloves":5750,"Ġinternal":5751,"sho":5752,"Ġseat":5753,"main":5754,"tled":5755,"Ġnovel":5756,"ENT":5757,"ĠIts":5758,"Ġlandsca":5759,"Ġfrui":5760,"Ġtreated":5761,"ple":5762,"slo":5763,"niture":5764,"ilding":5765,"Ġinstructions":5766,"Ġfruit":5767,"UT":5768,"Ġentirely":5769,"Ġillust":5770,"Ġflu":5771,"oned":5772,"Ġfell":5773,"Ġvie":5774,"Ġplastic":5775,"Ġstudio":5776,"Ġaffected":5777,"gro":5778,"Ġinstance":5779,"kin":5780,"Ġkick":5781,"Ġsettle":5782,"Ġshoes":5783,"cker":5784,"ĠEarth":5785,"ulated":5786,"ching":5787,"Ġcarried":5788,"Ġshipping":5789,"ĠEd":5790,"Ġfollows":5791,"Ġfacts":5792,"Ġdelivered":5793,"Ġfavourite":5794,"ĠKeep":5795,"uest":5796,"iers":5797,"Ġunits":5798,"Ġagencies":5799,"Ġresource":5800,"Ġjudge":5801,"ĠWhere":5802,"Fin":5803,"ĠAssociation":5804,"Ġpsycho":5805,"Ġagreed":5806,"mith":5807,"iation":5808,"Ġconsumer":5809,"Ġexist":5810,"etic":5811,"sphere":5812,"Ġnet":5813,"Ġexclusive":5814,"Ġhasn":5815,"Ġgrab":5816,"Ġmilk":5817,"sty":5818,"ĠDevelopment":5819,"27":5820,"Ġrestric":5821,"Ġfailure":5822,"Ġfixed":5823,"Ġvir":5824,"Ġsme":5825,"wn":5826,"Ġeffic":5827,"Ġrevenue":5828,"ĠSha":5829,"Ġspon":5830,"ĠMex":5831,"Ġado":5832,"Ġtells":5833,"Ġforced":5834,"Ġsupporting":5835,"ĠProdu":5836,"Ġafraid":5837,"26":5838,"orie":5839,"ĠZe":5840,"ely":5841,"Ġgrown":5842,"ĠPort":5843,"igate":5844,"Ġresul":5845,"Another":5846,"many":5847,"Ġscri":5848,"Ġorders":5849,"hold":5850,"mestic":5851,"low":5852,"Ġfrust":5853,"Ġsuggestions":5854,"Ġsuitable":5855,"Ġmark":5856,"Ġsessions":5857,"Ġfly":5858,"Ġformat":5859,"lit":5860,"Ġsalt":5861,"Ġsearching":5862,"Ġrecognize":5863,"Ġfailed":5864,"Ġgam":5865,"Ġreliable":5866,"Ġcooking":5867,"Ġbuildings":5868,"Ġrapid":5869,"Ġcelebrate":5870,"ĠTexas":5871,"ides":5872,"ever":5873,"Ġtherapy":5874,"Ġ45":5875,"illa":5876,"ĠÂ»":5877,"ĠFlorida":5878,"28":5879,"Ġfinance":5880,"Ġoccup":5881,"90":5882,"Ġoutdoor":5883,"Because":5884,"Ġ;":5885,"nings":5886,"Ġchair":5887,"Ġkeeps":5888,"Ġchicken":5889,"Ġpump":5890,"ĠPM":5891,"inue":5892,"iest":5893,"Hey":5894,"Great":5895,"Who":5896,"Ġcritic":5897,"Ġcontext":5898,"signed":5899,"Ġawareness":5900,"Ġproviders":5901,"Ġexpectations":5902,"Ġbri":5903,"idden":5904,"Ġbeat":5905,"eek":5906,"Ġ2007":5907,"elated":5908,"ĠAmazo":5909,"ĠWord":5910,"rgeous":5911,"Ġthro":5912,"ĠAmazon":5913,"Ġedge":5914,"ĠRea":5915,"ĠCommittee":5916,"Ġdealing":5917,"Go":5918,"oh":5919,"Ġbutter":5920,"Ġwealth":5921,"ĠPR":5922,"turing":5923,"vin":5924,"Ġherself":5925,"iry":5926,"Ġstret":5927,"ello":5928,"Ġapps":5929,"Ġeveryday":5930,"Ġinnovative":5931,"ĠCongress":5932,"related":5933,"Ġspeech":5934,"Ġprocedures":5935,"Ġparent":5936,"Ġuna":5937,"Ġforever":5938,"Ġinstalled":5939,"tings":5940,"Ġthea":5941,"Ġaccepted":5942,"Ġwindows":5943,"Ġtests":5944,"lt":5945,"Ġtex":5946,"stro":5947,"alley":5948,"aration":5949,"Ġvegetable":5950,"Ġnegot":5951,"Ġthread":5952,"ĠOnly":5953,"Ġprotected":5954,"ĠBan":5955,"App":5956,"Ġscientific":5957,"Ġregistration":5958,"Ġcompar":5959,"Ġsides":5960,"Ġgonna":5961,"tations":5962,"Ġbod":5963,"Where":5964,"ĠPay":5965,"ggle":5966,"Ġchocolate":5967,"Ġlistening":5968,"vations":5969,"Ġvital":5970,"Ġsensi":5971,"Ġinform":5972,"Ġcrisis":5973,"Ġenjoying":5974,"ĠVal":5975,"ij":5976,"Ġmeetings":5977,"ĠLan":5978,"Ġatmo":5979,"Ġturning":5980,"Ġ500":5981,"uters":5982,"Ġmeat":5983,"Ġfairly":5984,"Ġdeals":5985,"Ġmass":5986,"ĠDemocra":5987,"Ġforgot":5988,"umn":5989,"Ġreligious":5990,"ĠPost":5991,"Ġconfirm":5992,"sides":5993,"ibly":5994,"Ġunable":5995,"ĠCall":5996,"ĠInsta":5997,"Ġrecovery":5998,"ĠStra":5999,"ĠPC":6000,"Ġcollect":6001,"Ġexplained":6002,"Ġlifestyle":6003,"Ġtelevision":6004,"dis":6005,"ĠWhether":6006,"Ġpermit":6007,"Ġapproved":6008,"Ġprocedure":6009,"ĠEU":6010,"Ġcer":6011,"Ġfulf":6012,"idance":6013,"Ġgear":6014,"Ġfactor":6015,"cean":6016,"75":6017,"orial":6018,"Ġshor":6019,"65":6020,"Ġtren":6021,"ĠFound":6022,"ssor":6023,"ĠSum":6024,"Ġconcent":6025,"Ġdow":6026,"pend":6027,"Ġdrawing":6028,"hab":6029,"Ġisland":6030,"Ġcolour":6031,"Ġgathe":6032,"Ġboat":6033,"Ġchosen":6034,"Ġdescription":6035,"Ġtasks":6036,"Ġelement":6037,"Ġcriminal":6038,"Ġadventure":6039,"onight":6040,"Ġmale":6041,"tonight":6042,"Ġbunch":6043,"Ġpresentation":6044,"Ġrough":6045,"Ġslo":6046,"Make":6047,"gested":6048,"Ġfields":6049,"Ġimproved":6050,"Pa":6051,"Ġsuspe":6052,"Ġcarefully":6053,"Ġquant":6054,"Ġrepresenta":6055,"cular":6056,"gment":6057,".'":6058,"Ġpurchased":6059,"iny":6060,"Ġrandom":6061,"Ġfeelings":6062,"Ġagent":6063,"olic":6064,"Ġcat":6065,"Ġdish":6066,"See":6067,"Ro":6068,"Ġpun":6069,"udents":6070,"Ġcitizens":6071,"Ġtonight":6072,"Ġhell":6073,"Ġconvenient":6074,"Ġaut":6075,"Ġpermane":6076,"Ġrepl":6077,"Ġroutine":6078,"ops":6079,"oney":6080,"Che":6081,"ĠDid":6082,"vor":6083,"Ġmetal":6084,"Ġcontain":6085,"quality":6086,"taining":6087,"ĠColo":6088,"Ġdiscip":6089,"Ġaccurate":6090,"Ġmath":6091,"Ġchallenging":6092,"VER":6093,"cont":6094,"omb":6095,"Ġfarm":6096,"Take":6097,"Wa":6098,"ĠInformation":6099,"Ġlosing":6100,"SS":6101,"29":6102,"ki":6103,"Ġinfrastructure":6104,"Ġsky":6105,"Ġscan":6106,"Ġmile":6107,"mpion":6108,"ĠDoe":6109,"Ġvary":6110,"Ġdeposi":6111,"ordinary":6112,"Ġdial":6113,"Ġrisks":6114,"ĠMac":6115,"ĠThose":6116,"ĠBook":6117,"Ste":6118,"ĠLake":6119,"nia":6120,"ĠAbout":6121,"Ġinstallation":6122,"Ġcharged":6123,"essor":6124,"Ġrelatively":6125,"Ġrecru":6126,"Ġskill":6127,"Ġfunctions":6128,"Ġmillions":6129,"tight":6130,"Ġassets":6131,"Ġprove":6132,"Ġcategory":6133,"Ġends":6134,"Ġapo":6135,"rizo":6136,"Ġinvestigation":6137,"Ġble":6138,"Ġdetermined":6139,"Ġnoted":6140,"Ġadvoca":6141,"Ġpen":6142,"nese":6143,"ĠSub":6144,"Ġtaught":6145,"Ġobviously":6146,"Ġautomatically":6147,"Ġsolve":6148,"Ġsing":6149,"ĠBill":6150,"Ġorgan":6151,"Ġexpo":6152,"Ġdrivers":6153,"tels":6154,"Ġpha":6155,"Ġweak":6156,"Ġlights":6157,"race":6158,"liance":6159,"field":6160,"ĠGive":6161,"ĠBank":6162,"Ġclim":6163,"CH":6164,"Ġinvolve":6165,"Ġaudio":6166,"rive":6167,"Ġteeth":6168,"itions":6169,"Ġtrick":6170,"Ġspecies":6171,"ĠDist":6172,"ghts":6173,"vas":6174,"ĠMary":6175,"Ġimmig":6176,"Ġinformed":6177,"cise":6178,"Ġbru":6179,"Ġattitude":6180,"Ġstuck":6181,"tching":6182,"nsation":6183,"lock":6184,"theless":6185,"Ġmemories":6186,"ighted":6187,"Ġthorough":6188,"actions":6189,"Ġprofit":6190,"turally":6191,"Ġpayments":6192,"OD":6193,"Ġlicense":6194,"Ġcollea":6195,"Ġreceiving":6196,"EM":6197,"Ġbles":6198,"Ġ2019":6199,"Ġremind":6200,"Ġdesigns":6201,"Ġyounger":6202,"Ġwalked":6203,"Ġcake":6204,"Ġcrowd":6205,"Ġupcoming":6206,"Ġfrequently":6207,"Ġcoast":6208,"Ġregulations":6209,"ĠSecurity":6210,"Ġfurniture":6211,"ĠBri":6212,"Ġathle":6213,"Ġlessons":6214,"nivers":6215,"Ġspoke":6216,"Ġbrands":6217,"Ġcloud":6218,"unted":6219,"Ġentreprene":6220,"ĠSal":6221,"ĠStan":6222,"tired":6223,"Ġfabric":6224,"Ġupload":6225,"Ġprocessing":6226,"ĠUN":6227,"mble":6228,"Ġrealized":6229,"ifications":6230,"oose":6231,"ĠMarket":6232,"Cont":6233,"uro":6234,"ories":6235,"urance":6236,"Ġregistered":6237,"Ġappeared":6238,"ĠðŁĺ":6239,"Ġpromise":6240,"ssess":6241,"iller":6242,"Ġremote":6243,"Ġobl":6244,"Ġweren":6245,"Ġindustrial":6246,"icip":6247,"Ġunlike":6248,"merce":6249,"ĠTimes":6250,"Ġincorpo":6251,"Ġneck":6252,"Ġcombined":6253,"Ġbooking":6254,"Ġtalent":6255,"Ġdining":6256,"Ġbattery":6257,"Ġarm":6258,"Ġelimin":6259,"eal":6260,"Ġbound":6261,"Ġesca":6262,"Ġplanet":6263,"Ġvoluntee":6264,"EL":6265,"Ġinstitutions":6266,"Ġring":6267,"Ġpreser":6268,"ske":6269,"Ġentertainment":6270,"prise":6271,"Ġimprovement":6272,"Ġperformed":6273,"Ġhono":6274,"itled":6275,"resh":6276,"Ġpoll":6277,"Ġhero":6278,"Hello":6279,"Ġsat":6280,"Ġsupported":6281,"Ġcommittee":6282,"Ġenth":6283,"ĠProject":6284,"ĠUnder":6285,"Ġfif":6286,"33":6287,"Ġtired":6288,"OP":6289,"Ġarms":6290,"Ġshoul":6291,"position":6292,"Ġforces":6293,"ĠWhich":6294,"teen":6295,"Ġcreation":6296,"Ġintroduced":6297,"Ġinvestors":6298,"unction":6299,"ĠFamily":6300,"ĠReal":6301,"Ġelectronic":6302,"Ġconsequence":6303,"Ġdyna":6304,"ntially":6305,"Ġille":6306,"Ġgorgeous":6307,"Ġconstru":6308,"keting":6309,"IL":6310,"Ġdistin":6311,"ĠCur":6312,"Ġpattern":6313,"Ġelig":6314,"ilst":6315,"sonal":6316,"ĠKnow":6317,"Ġengineering":6318,"Bu":6319,"Ġflowers":6320,"ĠWould":6321,"Ġproposed":6322,"Ġcandidates":6323,"Ġsettings":6324,"Ġearn":6325,"ĠVo":6326,"Ġperce":6327,"ĠBen":6328,"eory":6329,"udi":6330,"Ġplays":6331,"ĠJapan":6332,"Ġstrange":6333,"Ġsizes":6334,"ĠII":6335,"Ġhire":6336,"Ġdates":6337,"Ġrub":6338,"Ġtrading":6339,"whel":6340,"Ġcutting":6341,"ĠTop":6342,"ĠIsrael":6343,"Ġjustice":6344,"Ġretire":6345,"iloso":6346,"Ġretail":6347,"Ġlaunched":6348,"itation":6349,"Spe":6350,"gged":6351,"Ġvolume":6352,"Ġfacing":6353,"denly":6354,"Ġconfident":6355,"Ġpanel":6356,"ĠUnion":6357,"ĠWomen":6358,"Ġjoined":6359,"Ġhighl":6360,"ishing":6361,"Ġtiny":6362,"Ġbegins":6363,"ĠJour":6364,"Ġgifts":6365,"rink":6366,"Ġdrinking":6367,"profi":6368,"rup":6369,"Ġera":6370,"ĠCommunity":6371,"ĠKorea":6372,"Ba":6373,"Ġholidays":6374,"Ġchecking":6375,"Ġincredibly":6376,"ĠTwo":6377,"ĠCra":6378,"Ġadministra":6379,"Ġfighting":6380,"Ġfro":6381,"Ġtaxe":6382,"ĠâĨ":6383,"Ġtaxes":6384,"Ġequal":6385,"Ġnormally":6386,"Ġofficer":6387,"zer":6388,"Ġstaying":6389,"Ġbasically":6390,"ets":6391,"Ġguidance":6392,"Ġatmosphere":6393,"Ġcatego":6394,"Ġreduced":6395,"Ġgrew":6396,"Ġemphas":6397,"Ġsuffering":6398,"Ġang":6399,"Ġhorse":6400,"Ġlad":6401,"Ġlikes":6402,"Ġpan":6403,"Ġprogramme":6404,"Ġtheory":6405,"ĠVery":6406,"Ġtransport":6407,"Ġticket":6408,"ĠMal":6409,"Ġhall":6410,"Ġbor":6411,"Ġaccomplish":6412,"lers":6413,"Ġauthority":6414,"Ġbeer":6415,"ĠSoc":6416,"tun":6417,"sac":6418,"ĠBay":6419,"ĠSun":6420,"nuine":6421,"Ġenforce":6422,"Ġbread":6423,"Ġpossibility":6424,"âĢĻ.":6425,"Ġvac":6426,"ngoing":6427,"ongoing":6428,"Ġhouses":6429,"reets":6430,"Ġ!":6431,"Ġque":6432,"Ġdreams":6433,"Ġpee":6434,"Ġhosting":6435,"Ġscree":6436,"ĠInstead":6437,"mend":6438,"profit":6439,"icted":6440,"rific":6441,"IF":6442,"iance":6443,"Ġske":6444,"count":6445,"Ġofficers":6446,"During":6447,"assi":6448,"Ġhealthcare":6449,"Ġcomponents":6450,"Ġongoing":6451,"ĠWi":6452,"ĠRich":6453,"ĠFrance":6454,"Ġgrade":6455,"Ġissued":6456,"Ġroute":6457,"bes":6458,"ĠLO":6459,"mond":6460,"People":6461,"Ġassessment":6462,"Ġvast":6463,"Ġsavings":6464,"!!!!":6465,"Ġshar":6466,"Ġsauce":6467,"ĠCath":6468,"Ġdomestic":6469,"iro":6470,"Ġoperate":6471,"ĠCommission":6472,"Ġmeals":6473,"Ġslowly":6474,"Ġene":6475,"ĠLu":6476,"Ġidentity":6477,"Ġcareful":6478,"ĠAC":6479,"Ġtruck":6480,"Ġdumpster":6481,"Ġchoosing":6482,"Ġstars":6483,"iPh":6484,"Ġproof":6485,"Ġconfig":6486,"ĠAdd":6487,"Ġimproving":6488,"Ġdatabase":6489,"Ġexecutive":6490,"ĠMichael":6491,"upid":6492,"Ġforth":6493,"Ġvan":6494,"Ġvillage":6495,"ĠGree":6496,"cart":6497,"Ġwatched":6498,"ĠJames":6499,"ole":6500,"wered":6501,"ĠCentral":6502,"Ġsending":6503,"Ġcrew":6504,"ĠSpring":6505,"sport":6506,"Ġ196":6507,"uts":6508,"Ġbrowser":6509,"craft":6510,"tern":6511,"ĠPower":6512,"Ġagg":6513,"Ġmedicine":6514,"Ġinjuries":6515,"incl":6516,"niversary":6517,"Ġresolution":6518,"ĠDra":6519,"Ġfitness":6520,"cated":6521,"ĠWater":6522,"ura":6523,"Note":6524,"Ġdestroy":6525,"ĠClo":6526,"ĠUSA":6527,"ĠVol":6528,"itamin":6529,"Ġresearchers":6530,"look":6531,"Ġmort":6532,"Ġsuspect":6533,"Ġexpenses":6534,"Ġdegrees":6535,"Ġscheduled":6536,"sletter":6537,"Ġassume":6538,"Ġshoot":6539,"usu":6540,"Ġbottle":6541,"Ġprize":6542,"Ġokay":6543,"ĠFood":6544,"ĠChildren":6545,"lam":6546,"Ġsaved":6547,"ĠParty":6548,"Ġcapable":6549,"UR":6550,"Ġtight":6551,"Ġgrate":6552,"Ġpersons":6553,"Ġauthorities":6554,"Ġdebate":6555,"mands":6556,"Ġaw":6557,"Ġmagic":6558,"Ġgotten":6559,"ĠMicro":6560,"Ġinnovation":6561,"Ġtrained":6562,"allo":6563,"Ġuns":6564,"Ġchain":6565,"Ġdepends":6566,"Ġdefense":6567,"Before":6568,"Ġloving":6569,"Ġsuggested":6570,"Ĥ¬":6571,"Ġoverwhel":6572,"umber":6573,"Ġpursu":6574,"Ġenthusi":6575,"ĠOpen":6576,"Ġremaining":6577,"Ġpossess":6578,"Ġcookies":6579,"Ġpure":6580,"Ġ2000":6581,"ĠâĨĴ":6582,"Ġaside":6583,"Ġdepart":6584,"Yeah":6585,"fit":6586,"Ġsignificantly":6587,"ously":6588,"outs":6589,"ĠLast":6590,"ficial":6591,"Ġattacks":6592,"Ġessay":6593,"Ġdemo":6594,"nated":6595,"Ġfilms":6596,"ĠRight":6597,"Ġimmediate":6598,"Ġshel":6599,"Ġflexible":6600,"ĠiPh":6601,"Ok":6602,"Ġcovers":6603,"Ġimpressive":6604,"Ġmurder":6605,"Ġtalked":6606,"Ġbare":6607,"Ġtypical":6608,"Ġassign":6609,"Ġaccessible":6610,"Ġdiscount":6611,"dequ":6612,"Ġcontribute":6613,"Ġlicen":6614,"Ġ2006":6615,"Ġdefined":6616,"Ġrecording":6617,"Ġnewspa":6618,"Ġacknow":6619,"Ġefficiency":6620,"Ġmanufacturing":6621,"vate":6622,"Ġgenuine":6623,"Ġaspect":6624,"ndar":6625,"Ġwriters":6626,"ĠEngine":6627,"ĠAss":6628,"Ġintera":6629,"inent":6630,"Whether":6631,"ĠFind":6632,"Pre":6633,"Ġpremium":6634,"Ġshower":6635,"Ġdiverse":6636,"Ġsustainable":6637,"Ġbanks":6638,"Ġshooting":6639,"Ġpal":6640,"itors":6641,"Ġairport":6642,"ĠHall":6643,"ivated":6644,"alk":6645,"ja":6646,"pper":6647,"Ġpainting":6648,"teers":6649,"Ġalive":6650,"ĠInstagram":6651,"cer":6652,"Ġrecommendations":6653,"Ġdistrict":6654,"ĠGermany":6655,"Ġvul":6656,"tox":6657,"ĠHist":6658,"icago":6659,"Ġcen":6660,"44":6661,"Ġigno":6662,"Ġlie":6663,"Ġidentified":6664,"ĠMem":6665,"Ġcart":6666,"Ġpositions":6667,"meter":6668,"Did":6669,"umble":6670,"Ġbodies":6671,"iously":6672,"ĠJew":6673,"ĠInstitute":6674,"dent":6675,"nsions":6676,"Ġwanting":6677,"Ġliqu":6678,"Ġdoctors":6679,"Ġspin":6680,"Ġsolar":6681,"Ġhab":6682,"Ġqualified":6683,"Ġordered":6684,"Ġarrive":6685,"Ġworldwide":6686,"ĠTy":6687,"ĠFl":6688,"ĠLook":6689,"Ġdeter":6690,"alse":6691,"Ġmotiv":6692,"rors":6693,"Ġsuccessfully":6694,"ĠSometimes":6695,"Ġclosely":6696,"Ġpulled":6697,"Ġproven":6698,"IR":6699,"press":6700,"Ġsport":6701,"Ġamb":6702,"Ġsight":6703,"Ġking":6704,"nario":6705,"eting":6706,"Ġgeo":6707,"Ġmembership":6708,"Ġclassroom":6709,"Ġcycle":6710,"Ġsor":6711,"Ġhang":6712,"Ġeverywhere":6713,"Ġoppo":6714,"ĠBeach":6715,"ĠGeorge":6716,"ĠFranc":6717,"ĠSing":6718,"Ġ=":6719,"ĠPhoto":6720,"Ġhumans":6721,"Ġstruggle":6722,"Ġreader":6723,"?!":6724,"Ġbreast":6725,"Ġsucceed":6726,"Ġdiscussed":6727,"Ġfunda":6728,"Ġease":6729,"Ġliterally":6730,"Ġreputation":6731,"ĠSpa":6732,"cient":6733,"ĠIsland":6734,"Fi":6735,"Ġsubse":6736,"Ġid":6737,"Ġshops":6738,"ĠFOR":6739,"Ġcells":6740,"cept":6741,"Ġwhenever":6742,"Ġcandidate":6743,"Ġmistake":6744,"Ġneighborhood":6745,"urth":6746,"ĠBack":6747,"ĠRoad":6748,"Ġspiritual":6749,"Inter":6750,"Ġbrill":6751,"Ġfigures":6752,"emes":6753,"Ġbelieved":6754,"ĠPlus":6755,"Ġnecessarily":6756,"ĠAfrican":6757,"95":6758,"Ġthreat":6759,"stan":6760,"Ġinsight":6761,"Ġgrateful":6762,"scribe":6763,"Ġeverybody":6764,"Ġtrends":6765,"Ġsample":6766,"ĠLib":6767,"Ġanxiety":6768,"ĠMark":6769,"water":6770,"Ġ300":6771,"ĠHill":6772,"ĠOb":6773,"Ġentered":6774,"cons":6775,"ctic":6776,"Ġoutstanding":6777,"Ġargument":6778,"Ġconduct":6779,"allery":6780,"Ġhesi":6781,"Ġclothing":6782,"Ġencounter":6783,"Ġclar":6784,"Ġwalls":6785,"Ġpasse":6786,"rier":6787,"Ġreporting":6788,"ares":6789,"Ġappeal":6790,"ĠExe":6791,"tip":6792,"Ġstands":6793,"bling":6794,"Wor":6795,"ĠLos":6796,"ĠDirector":6797,"Ġinput":6798,"Ġrecipes":6799,"Ġestimated":6800,"urthe":6801,"Ġvisited":6802,"tut":6803,"Ġdecent":6804,"urther":6805,"Ġsac":6806,"ĠRob":6807,"Ġpolitics":6808,"Ġbroke":6809,"Ġtrend":6810,"ERE":6811,"Ġresis":6812,"Ġcommand":6813,"Ġrevealed":6814,"ien":6815,"Ab":6816,"Ġregardless":6817,"acted":6818,".....":6819,"Ġdestination":6820,"Ġshit":6821,"Ġforest":6822,"Ġpassing":6823,"ĠAccording":6824,"ĠBet":6825,"Ġextended":6826,"Ġgender":6827,"name":6828,"Each":6829,"ains":6830,"ĠRiver":6831,"Ġinvited":6832,"Ġexternal":6833,"ĠCanad":6834,"Ġpolitic":6835,"xy":6836,"Ġdropped":6837,"alo":6838,"ĠSimp":6839,"Ġeco":6840,"Ġhistoric":6841,"Ġarts":6842,"Ġsevere":6843,"uthent":6844,"ĠData":6845,"Ġincreasingly":6846,"Ġincident":6847,"Ġ>":6848,"ĠSant":6849,"itar":6850,"stood":6851,"IV":6852,"Ġcale":6853,"Ġhistorical":6854,"irl":6855,"Ġowned":6856,"Ġchances":6857,"Ġtransportation":6858,"isa":6859,"ĠSpecial":6860,"ĠGl":6861,"Ġchapter":6862,"Ġcrucial":6863,"Ġnearby":6864,"Like":6865,"tric":6866,"ĠOrga":6867,"etime":6868,"Ġharder":6869,"Love":6870,"Ġattorney":6871,"ĠWillia":6872,"cidents":6873,"ĠHuman":6874,"Ġinstitution":6875,"Mar":6876,"Ġcoope":6877,"Ġcou":6878,"Ġagents":6879,"iche":6880,"Ja":6881,"icon":6882,"Ġscenario":6883,"Ġdam":6884,"Ġexpand":6885,"Ġdefa":6886,"Ġcommunicate":6887,"Ġstreets":6888,"ĠFoundation":6889,"ĠSecret":6890,"rab":6891,"ĠAdmin":6892,"Ġmut":6893,"Ġfoundation":6894,"ĠContact":6895,"till":6896,"Ġrac":6897,"ĠRock":6898,"Ġempty":6899,"Ġsole":6900,"ĠNE":6901,"mps":6902,"Ge":6903,"Ġrelief":6904,"list":6905,"ĠDesign":6906,"Ġexposure":6907,"Ġdisclo":6908,"Ġrecorded":6909,"Ġrush":6910,"ĠMiss":6911,"Ġprinciples":6912,"Ġconstant":6913,"nald":6914,"ĠiPhone":6915,"ĠContinue":6916,"Ġrein":6917,"Ġze":6918,"Ġswimming":6919,"Ġcraf":6920,"abetes":6921,"Ġemplo":6922,"ĠLin":6923,"Ġsomewhat":6924,"REE":6925,"panese":6926,"ĠGerman":6927,"Ġboost":6928,"ĠGrand":6929,"rmal":6930,"folio":6931,"nticip":6932,"ĠBlue":6933,"Ġblogs":6934,"ought":6935,"Ġimplementation":6936,"ĠProte":6937,"Ġlesson":6938,"ĠInde":6939,"Ġemails":6940,"Or":6941,"ĠMas":6942,"ency":6943,"Ġinvent":6944,"Ġstone":6945,"ĠTeam":6946,"Ġsurprising":6947,"ĠHan":6948,"Ġloans":6949,"Ġcock":6950,"ĠAP":6951,"Ġmanaging":6952,"Ġshares":6953,"Ġsymb":6954,"ĠSafe":6955,"nied":6956,"Ġnutri":6957,"Ġpriority":6958,"ĠWas":6959,"MS":6960,"lance":6961,"ĠCD":6962,"Ġcomplicated":6963,"ĠCentr":6964,"cm":6965,"Ġstrategic":6966,"Ġadvise":6967,"Ġlegislation":6968,"ĠAngeles":6969,"Ġsteel":6970,"etro":6971,"ari":6972,"Ġguidelines":6973,"Check":6974,"cling":6975,"nition":6976,"tension":6977,"fective":6978,"porters":6979,"Ġhopefully":6980,"Ġloc":6981,"being":6982,"Ġbin":6983,"Ġdrinks":6984,"Ġlinked":6985,"Ġcere":6986,"Ġlady":6987,"ĠChicago":6988,"Ġlegs":6989,"Ġbrown":6990,"Ġspaces":6991,"Ġnights":6992,"tained":6993,"Ġcampus":6994,"ĠDuring":6995,"Ġinse":6996,"Ġorganic":6997,"Ġweird":6998,"Ġnetworks":6999,"Ġphotography":7000,"ĠMedia":7001,"Ġsupplies":7002,"Ġvictims":7003,"rators":7004,"Ġengagement":7005,"Ġconsideration":7006,"ĠAT":7007,"Ġgenerate":7008,"Ġattractive":7009,"case":7010,"ĠMinister":7011,"ĠCarol":7012,"hand":7013,"Ġdownt":7014,"Ġchose":7015,"ĠBefore":7016,"ĠWH":7017,"Ġstupid":7018,"Ġreflect":7019,"Ġintern":7020,"Ġlapt":7021,"ĠMusic":7022,"Ġphiloso":7023,"39":7024,"Ġdistribution":7025,"Ġconflict":7026,"ĠGlobal":7027,"Ġimagin":7028,"Ġplane":7029,"Ġ2005":7030,"Ġpounds":7031,"Ġevol":7032,"ggs":7033,"Ġtut":7034,"ĠLou":7035,"Ġcable":7036,"Ġmuseum":7037,"Ġletters":7038,"Ġamounts":7039,"Ġstunning":7040,"ĠVir":7041,"Ġexplan":7042,"yers":7043,"Ġped":7044,"ĠHotel":7045,"Ġwheel":7046,"ĠWay":7047,"Ġhonor":7048,"jected":7049,"ĠSystem":7050,"igns":7051,"Ġsuddenly":7052,"ĠSam":7053,"Ġmagazine":7054,"Ġequipped":7055,"ĠCentre":7056,"RA":7057,"88":7058,"Ġreply":7059,"Ġorganized":7060,"Ġrenew":7061,"Ġjoint":7062,"Ġpin":7063,"ĠNever":7064,"Ġfourth":7065,"Na":7066,"ĠTom":7067,"asp":7068,"Ġvulne":7069,"Ġhidden":7070,"ĠOnline":7071,"friendly":7072,"col":7073,"nial":7074,"ĠDoes":7075,"ĠShould":7076,"Ġtip":7077,"Ġsufficient":7078,"Ġtrig":7079,"Ġhadn":7080,"Ġcommo":7081,"hour":7082,"Ġregional":7083,"marks":7084,"ĠPen":7085,"Ġclinical":7086,"holders":7087,"Ġstream":7088,"stone":7089,"Mr":7090,"ĠĠĠĠĠĠĠĠ":7091,"Ġbear":7092,"gun":7093,"Ġpatterns":7094,"Use":7095,"Ġdifferences":7096,"Ġlabor":7097,"55":7098,"ĠID":7099,"ilers":7100,"Ġinspe":7101,"Ġbowl":7102,"perie":7103,"Ġinvestiga":7104,"iors":7105,"Ġnav":7106,"real":7107,"Ġweekly":7108,"ĠPolicy":7109,"ĠShow":7110,"Ġaccord":7111,"eding":7112,"Ġchecked":7113,"Ġportion":7114,"Ġtack":7115,"iners":7116,"Ġshift":7117,"âĢĭ":7118,"Ġtill":7119,"lets":7120,"Ġawa":7121,"rr":7122,"Ġmal":7123,"ĠHappy":7124,"Ġtab":7125,"giving":7126,"Ġwinner":7127,"ads":7128,"Ġmonitor":7129,"Wow":7130,"moth":7131,"tie":7132,"Ġconducted":7133,"ĠDown":7134,"Ġoffen":7135,"Ġillegal":7136,"ĠReso":7137,"ĠBir":7138,"gging":7139,"ĠPi":7140,"Ġmachines":7141,"ado":7142,"Ġgolf":7143,"Tube":7144,"Ġapparently":7145,"ĠInc":7146,"ĠFire":7147,"Ġworried":7148,"Ġanticip":7149,"Ġrequests":7150,"Ġprison":7151,"Ġnuclear":7152,"rency":7153,"ĠBE":7154,"Ġstayed":7155,"ĠClass":7156,"rum":7157,"Ġachieved":7158,"ĠEaster":7159,"Ġluxury":7160,"pha":7161,"Ġresidential":7162,"Ġminor":7163,"ĠNor":7164,"Ġdelive":7165,"ĠMount":7166,"omat":7167,"Ġsatisfied":7168,"ĠTour":7169,"ĠFederal":7170,"Ġpapers":7171,"Ġdepression":7172,"ĠMiddle":7173,"Ġillness":7174,"Ġphysic":7175,"Ġriver":7176,"Ġoriginally":7177,"Ġending":7178,"Ġmainly":7179,"Ġcommunications":7180,"give":7181,"Ġheads":7182,"unge":7183,"Ġmig":7184,"ĠIndian":7185,"TS":7186,"34":7187,"mies":7188,"Ġgym":7189,"Ġmyster":7190,"inancial":7191,"ĠSet":7192,"Ġultimately":7193,"Ġphra":7194,"Ġtraveling":7195,"gas":7196,"Ġorganisation":7197,"Ġshots":7198,"page":7199,"Ġreturns":7200,"ĠMart":7201,"Ġinqu":7202,"Ġconsultation":7203,"Ġthinks":7204,"36":7205,"Ġchannel":7206,"Ġrecognized":7207,"Ġpace":7208,"llo":7209,"tone":7210,"Ġmountain":7211,"Ġbags":7212,"cusing":7213,"ĠLong":7214,"Ġ)":7215,"ĠTry":7216,"ĠKi":7217,"than":7218,"tomat":7219,"ĠFort":7220,"ificate":7221,"Ġmanagers":7222,"Ġpermission":7223,"mative":7224,"UN":7225,"PA":7226,"pay":7227,"ĠNeed":7228,"Ġchief":7229,"ngest":7230,"ĠJournal":7231,"Ġtreatments":7232,"Ġindustries":7233,"Ġimpressed":7234,"dor":7235,"del":7236,"eer":7237,"ĠEcono":7238,"cuses":7239,"Ġdear":7240,"ĠPeter":7241,"ĠTre":7242,"Ġupper":7243,"Ġmixed":7244,"grat":7245,"Ġadap":7246,"tech":7247,"Ġwise":7248,"Ġtheo":7249,"vera":7250,"Ġwake":7251,"ĠCle":7252,"Ġmecha":7253,"Ġbelieves":7254,"Ġfalling":7255,"Ġdemocra":7256,"Ġeligible":7257,"ĠLeague":7258,"Ġreaction":7259,"Ġpermanent":7260,"Ġcontinuing":7261,"ĠSpan":7262,"Ġreligion":7263,"Ġlawyer":7264,"Ġholds":7265,"Ġdepth":7266,"Ġedition":7267,"CE":7268,"Ġstood":7269,"Ġfacili":7270,"Ġtim":7271,"cuse":7272,"ĠDistrict":7273,"ĠBoth":7274,"words":7275,"Ġinteg":7276,"Ġcolleagues":7277,"ĠBible":7278,"Ġintention":7279,"gi":7280,"Ġengaged":7281,"Ġprospect":7282,"Ġexperiment":7283,"ĠMexico":7284,"Ġincreases":7285,"ĠGol":7286,"Ġteenage":7287,"aby":7288,"Ġobjects":7289,"Ġanswered":7290,"Ġtomat":7291,"Ġtwenty":7292,"Ġassur":7293,"els":7294,"mentary":7295,"Ġfascin":7296,"Ġpotentially":7297,"Ġfalse":7298,"Ġstake":7299,"uba":7300,"Ġpassword":7301,"apons":7302,"Ġfiled":7303,"Ġdisappe":7304,"mis":7305,"Ġinches":7306,"Lear":7307,"ats":7308,"lat":7309,"Ġensuring":7310,"Ġdu":7311,"Ġdecrea":7312,"Ġprecise":7313,"Ġsubmitted":7314,"ĠThings":7315,"ĠWestern":7316,"Ġduty":7317,"Ġscheme":7318,"Ġdomain":7319,"Ġfishing":7320,"ĠOld":7321,"CC":7322,"hi":7323,"rized":7324,"Ġperforming":7325,"Ġpleasant":7326,"pher":7327,"Ġdisp":7328,"ĠAS":7329,"Ġcategories":7330,"Ġhotels":7331,"llect":7332,"ĠSociety":7333,"ĠBal":7334,"Ġphones":7335,"ĠAcade":7336,"Ġhung":7337,"Ġmood":7338,"Ġcollected":7339,"urn":7340,"Ġletting":7341,"earch":7342,"ĠJapanese":7343,"inations":7344,"Ġthick":7345,"worth":7346,"Ġvolunteers":7347,"Ġgarde":7348,"Ġtransition":7349,"Ġintelligence":7350,"Ġconfirmed":7351,"Ġicon":7352,"Ġri":7353,"Ġhousehold":7354,"Ġale":7355,"akers":7356,"Ġdepend":7357,"Ġpenal":7358,"Ġauthors":7359,"medy":7360,"Ġgreatly":7361,"Ġmonitoring":7362,"Ġbasket":7363,"Ġdevelopers":7364,"Ġrespective":7365,"Ġstrengthe":7366,"Ġcarrying":7367,"fall":7368,"Ġreplacement":7369,"making":7370,"Ġcausing":7371,"Ġguard":7372,"Ġvegetables":7373,"ĠStill":7374,"swa":7375,"Ġscientists":7376,"illy":7377,"Ġlogo":7378,"nion":7379,"Ġpartnership":7380,"ĠSol":7381,"ĠPolice":7382,"Ġopinions":7383,"Maybe":7384,"Ġweapons":7385,"Ġfirms":7386,"cript":7387,"Ġreferred":7388,"Ġretirement":7389,"Ġgentle":7390,"Ġdental":7391,"pected":7392,"Ġencouraged":7393,"Ġnoise":7394,"Ġbonus":7395,"Ġdefinition":7396,"Ġcapture":7397,"Ġconvin":7398,"Ġ32":7399,"aler":7400,"37":7401,"Ġtested":7402,"vous":7403,"into":7404,"Ġnewsletter":7405,"ĠGr":7406,"Ġclicking":7407,"His":7408,"Ġboxe":7409,"Ġsomebody":7410,"Ġtalks":7411,"Oth":7412,"air":7413,"Ġbrilliant":7414,"Ġwet":7415,"Ġexplains":7416,"32":7417,"Ġauthent":7418,"Ġheading":7419,"38":7420,"Ġterror":7421,"Ġstorm":7422,"Ġportfolio":7423,"Ġphase":7424,"Ġbehalf":7425,"Ġmistakes":7426,"Ġremark":7427,"igital":7428,"ĠScott":7429,"48":7430,"Ġpot":7431,"Ġlabel":7432,"ĀĀĀĀĀĀĀĀĀĀĀĀĀĀĀĀĀĀĀĀĀĀĀĀĀĀĀĀĀĀĀĀĀĀĀĀĀĀĀĀĀĀĀĀĀĀĀĀĀĀĀĀĀĀĀĀĀĀĀĀĀĀĀĀĀĀĀĀĀĀĀĀĀĀĀĀĀĀĀĀĀĀĀĀĀĀĀĀĀĀĀĀĀĀĀĀĀĀĀĀĀĀĀĀĀĀĀĀĀĀĀĀĀĀĀĀĀĀĀĀĀĀĀĀĀĀĀĀ":7433,"ĠTri":7434,"Ġconsequences":7435,"raq":7436,"Ġfaces":7437,"Ġcrash":7438,"Ġfis":7439,"Ġyellow":7440,"Ġhopes":7441,"Ġlandscape":7442,"ilty":7443,"ĠCome":7444,"Ġsomehow":7445,"Ġdiseases":7446,"%.":7447,"rain":7448,"Ġpersonality":7449,"ĠAlex":7450,"owe":7451,"...]":7452,"Ġmusical":7453,"Ġads":7454,"ml":7455,"Ġsuggests":7456,"ĠArm":7457,"Ġplatforms":7458,"front":7459,"Ġlitera":7460,"Ġrank":7461,"ĠHim":7462,"away":7463,"ĠDO":7464,"Ġevil":7465,"east":7466,"Ġpregnant":7467,"Ġunex":7468,"uling":7469,"ĠTechnology":7470,"rants":7471,"Ġdivo":7472,"Ġhardware":7473,"Ġadds":7474,"BA":7475,"Ġattached":7476,"Ġextent":7477,"Ġresu":7478,"Ġcorrectly":7479,"Ġlifetime":7480,"Ġpill":7481,"ĠTown":7482,"ĠMaster":7483,"PR":7484,"Ġgarage":7485,"Very":7486,"Ġdivor":7487,"Ġoffices":7488,"Ġknee":7489,"ĠYouTube":7490,"Ġvirtual":7491,"ĠBlog":7492,"Ġdevo":7493,"DF":7494,"ĠLittle":7495,"Ġpride":7496,"Ġcurious":7497,"Ġfeatured":7498,"Ġcompare":7499,"ĠHelp":7500,"ĠEve":7501,"Ġacting":7502,"Ġdefault":7503,"ruption":7504,"Ġrely":7505,"BS":7506,"âĢ¦âĢ¦":7507,"ĠValley":7508,"Ġ75":7509,"Ġbills":7510,"Ġcalm":7511,"ĠBas":7512,"Ġregula":7513,"Ġtelephone":7514,"yl":7515,"IA":7516,"Ġphotogra":7517,"Ġappreciated":7518,"ĠParis":7519,"Ġplate":7520,"Ġcarbon":7521,"Ġ<":7522,"Ġjoining":7523,"llers":7524,"Ġgovern":7525,"Ġcalendar":7526,"Ġapproval":7527,"tons":7528,"2018":7529,"Ġattri":7530,"ĠRussian":7531,"ĠMer":7532,"ĠDen":7533,"tched":7534,"nony":7535,"Ġaccommodation":7536,"iron":7537,"Ġopposite":7538,"alan":7539,"Ġterrible":7540,"Ġfabulous":7541,"Ġconscious":7542,"Ġversions":7543,"Ġ48":7544,"Ġindica":7545,"ĠSpanish":7546,"tts":7547,"Ġoutcome":7548,"Up":7549,"Ġsecur":7550,"Ġunderstood":7551,"ĠFest":7552,"Ġbars":7553,"Ġlighting":7554,"leep":7555,"Ġscholar":7556,"igations":7557,"ĠEnter":7558,"Ġparagraph":7559,"bl":7560,"Ġwhilst":7561,"gl":7562,"Ġmortgage":7563,"oria":7564,"Ġhealing":7565,"chasing":7566,"Ġlies":7567,"Sho":7568,"Ġunderta":7569,"Ġanniversary":7570,"ĠUnfortunately":7571,"Ġcomputers":7572,"ĠRu":7573,"Ġaccesso":7574,"including":7575,"SA":7576,"Ġsentence":7577,"ĠAgain":7578,"ĠCard":7579,"Ġdomin":7580,"Ġwidely":7581,"Ġinterior":7582,"ĠKen":7583,"Ġenforcement":7584,"Ġmotion":7585,"ĠInvest":7586,"irts":7587,"Looking":7588,"Ġlets":7589,"47":7590,"aks":7591,"owder":7592,"Ġagricul":7593,"Ġconsumption":7594,"nore":7595,"ĠConference":7596,"ĠMad":7597,"EST":7598,"graphic":7599,"Ġsensitive":7600,"Ġwea":7601,"Ġproposal":7602,"Ġstatements":7603,"Ġinvolves":7604,"level":7605,"ĠIraq":7606,"rics":7607,"nities":7608,"Ġunusu":7609,"dea":7610,"bat":7611,"Ġformal":7612,"Ġlen":7613,"Ġflying":7614,"Ġpurchasing":7615,"Ġconcerning":7616,"Ġelectricity":7617,"law":7618,"ĠCEO":7619,"ditional":7620,"oys":7621,"Ġloud":7622,"Ġcounty":7623,"Ġsatisfaction":7624,"Ġprotein":7625,"ĠNY":7626,"Ġsurely":7627,"Ġgri":7628,"Ġpregnancy":7629,"cine":7630,"fair":7631,"Ġcriteria":7632,"arma":7633,"Ġrecy":7634,"neys":7635,"âĢĻ,":7636,"Ġstronger":7637,"Ġreplaced":7638,"Ġpercentage":7639,"Ġbreaking":7640,"ĠOK":7641,"CA":7642,"ĠReview":7643,"Ġbuyers":7644,"Ġflash":7645,"ĠEm":7646,"Ġborder":7647,"ĠGuide":7648,"pto":7649,"Ġintent":7650,"Ġadvertise":7651,"Ġkit":7652,"Two":7653,"Ġmuscle":7654,"DA":7655,"Ġ36":7656,"Ġreducing":7657,"ĠCode":7658,"Ġfinds":7659,"Ġcasino":7660,"ĠMarketing":7661,"OK":7662,"Ġaccordance":7663,"oven":7664,"asure":7665,"Ġstruggling":7666,"eland":7667,"pot":7668,"Ġlimits":7669,"ĠCy":7670,"'.":7671,"ogue":7672,"ĠItal":7673,"Ġsymbol":7674,"Ġstyles":7675,"ĠLearn":7676,"Ġswa":7677,"class":7678,"Ġlists":7679,"ĠPerhaps":7680,"ĠAm":7681,"Ġjuice":7682,"Ġkn":7683,"49":7684,"Ġcollaboration":7685,"Ġdeserve":7686,"Ġboxes":7687,"Ġemployer":7688,"ĠSi":7689,"Ġpotat":7690,"Ġprose":7691,"Ġarr":7692,"Cha":7693,"ĠAndroid":7694,"Ġstim":7695,"ĠIndust":7696,"ĠElect":7697,"Ġrail":7698,"marily":7699,"Ġdent":7700,"Ġrefresh":7701,"Ġurban":7702,"Finally":7703,"Ġyard":7704,"Ġwarning":7705,"Ġconver":7706,"Ġneither":7707,"Ġinvite":7708,"-)":7709,"ĠWeek":7710,"Ġacts":7711,"ĠSO":7712,"Ġdip":7713,"Ġrecall":7714,"Ġmir":7715,"Ġvolunteer":7716,"Ġeggs":7717,"Ġattended":7718,"Ġgraduate":7719,"ĠALL":7720,"utiful":7721,"Ġtrips":7722,"Will":7723,"aro":7724,"Ġthousan":7725,"Ġpreference":7726,"Ġthousand":7727,"Ġnaturally":7728,"oile":7729,"Ġbirds":7730,"Ġ2004":7731,"Ġreno":7732,"Ġdynamic":7733,"toile":7734,"uality":7735,"mbly":7736,"Ġlaid":7737,"ĠInte":7738,"Ġstring":7739,"from":7740,"Ġbac":7741,"Ġmoves":7742,"Ġfestival":7743,"pone":7744,"Doe":7745,"Ġgod":7746,"Ġdistra":7747,"Ġgen":7748,"Next":7749,"Ġoven":7750,"Ġconvention":7751,"Reg":7752,"lessly":7753,"gha":7754,"Ġcraft":7755,"ĠRest":7756,"ĠBud":7757,"gene":7758,"mach":7759,"Ġapplicable":7760,"Ġzero":7761,"Ġabse":7762,"ĠVirgin":7763,"Ġdollar":7764,"called":7765,"ĠDiv":7766,"tall":7767,"pendence":7768,"Ġdriven":7769,"Ġroo":7770,"Ġprot":7771,"Ġhole":7772,"Ġrepeated":7773,"Ġodd":7774,"____":7775,"Ġportra":7776,"Sp":7777,"Ġavailability":7778,"Ġprogr":7779,"America":7780,"Ġdesigner":7781,"Le":7782,"31":7783,"comp":7784,"Ġoutput":7785,"Ġorganisations":7786,"stal":7787,"htt":7788,"Ġmaintaining":7789,"Having":7790,"Ġimprovements":7791,"Press":7792,"via":7793,"ĠChris":7794,"ĠOk":7795,"Ġresponses":7796,"assion":7797,"ĠSmith":7798,"crete":7799,"ILL":7800,"ĠYet":7801,"Ġweigh":7802,"Ġgrant":7803,"Ġhat":7804,"bble":7805,"ĠCusto":7806,"Ġoccurred":7807,"ĠJim":7808,"ums":7809,"Ġvitamin":7810,"Ġcompliance":7811,"Ġresc":7812,"Ġwithdra":7813,"Ġsheet":7814,"Ġheav":7815,"Those":7816,"oner":7817,"Ġinjured":7818,"Je":7819,"ĠRel":7820,"sion":7821,"Ġgay":7822,"Ġpreparing":7823,"Ġsuppose":7824,"Ġfuck":7825,"shire":7826,"Ġancient":7827,"Ġserves":7828,"Ġcouncil":7829,"Ġchildhood":7830,"Ġearned":7831,"ĠManager":7832,"Ġsupports":7833,"ĠMuseum":7834,"ĠHaving":7835,"riends":7836,"Ġtoile":7837,"Ġleague":7838,"dequate":7839,"Ġyeah":7840,"bby":7841,"Ġexpression":7842,"Ġ..":7843,"elf":7844,"ading":7845,"Ġproto":7846,"ĠMicrosoft":7847,"ĠEveryone":7848,"reaming":7849,"Ġroles":7850,"ĠImp":7851,"ĠTest":7852,"ĠOR":7853,"ĠCanadian":7854,"nant":7855,"ower":7856,"GE":7857,"Ġdiabetes":7858,"Ġpreparation":7859,"Ġstrongly":7860,"Ġassa":7861,"Ġdesired":7862,"Ġcreates":7863,"Ġprogramming":7864,"Ġobjective":7865,"Ġescape":7866,"Ġpassionate":7867,"Ġtone":7868,"ĠAustralian":7869,"mantic":7870,"Ġdont":7871,"ĠGold":7872,"Ġstrict":7873,"Ġputs":7874,"ĠFall":7875,"ipping":7876,"Ġbeneficial":7877,"Ġzone":7878,"rsey":7879,"Ġguilty":7880,"Ġhappiness":7881,"cution":7882,"Othe":7883,"rich":7884,"Ġwel":7885,"Other":7886,"Ġrequirement":7887,"ĠStep":7888,"star":7889,"Ġcovering":7890,"Ġsurround":7891,"Ġdust":7892,"amb":7893,"Ġnobody":7894,"acious":7895,"Ġpointed":7896,"Ġraising":7897,"Ġsleeping":7898,"Ġreward":7899,"ĠFREE":7900,"Ġliber":7901,"ĠNext":7902,"stor":7903,"Ġfinger":7904,"ĠIreland":7905,"igo":7906,"Ġsmoke":7907,"Ġsubjects":7908,"Ġexistence":7909,"ĠCrea":7910,"isor":7911,"lications":7912,"Ġsett":7913,"ocean":7914,"Ġstudying":7915,"Ġhanging":7916,"Ġdar":7917,"Ġblogging":7918,"Ġultimate":7919,"ĠEnjoy":7920,"ĠStand":7921,"Ġtranspare":7922,"ĠLive":7923,"Ġrising":7924,"who":7925,"born":7926,"Ġbelon":7927,"Ġadj":7928,"Ġsurvive":7929,"Ġly":7930,"ĠMedical":7931,"Ġrear":7932,"Ġtalented":7933,"Ġrice":7934,"Ġliquid":7935,"Ġ150":7936,"46":7937,"Ġapplying":7938,"ATION":7939,"Ġtag":7940,"Ġemotions":7941,"Ġdeeply":7942,"Ġdeploy":7943,"ĠThough":7944,"Ġphe":7945,"nament":7946,"Ġcompensation":7947,"Ġemployers":7948,"rably":7949,"gant":7950,"ort":7951,"Ġconnections":7952,"Â®":7953,"Su":7954,"ĠSwi":7955,"Ġintroduce":7956,"CT":7957,"Ġdime":7958,"Ġparticipation":7959,"active":7960,"ĠSanta":7961,"ĠRoom":7962,"Sometimes":7963,"lication":7964,"mployment":7965,"izes":7966,"lowers":7967,"ĠVan":7968,"Ġlaye":7969,"sex":7970,"Ġpepper":7971,"Ġorganize":7972,"Ġclosing":7973,"rently":7974,".[":7975,"Ġcreativity":7976,"Ġprinted":7977,"ĠEnergy":7978,"Ġcompli":7979,"ĠFar":7980,"77":7981,"Ġfaced":7982,"mplete":7983,"ĠDel":7984,"Ġadvent":7985,"ĠFrank":7986,"Sorry":7987,"Ġstored":7988,"Ġriding":7989,"Ġconcepts":7990,"Ġattending":7991,"stream":7992,"month":7993,"Ġheaded":7994,"Ġmini":7995,"stand":7996,"ht":7997,"Ġupgrade":7998,"van":7999,"Ġsilver":8000,"Ġscenes":8001,"Ġvenue":8002,"Ġrecogn":8003,"Ġrose":8004,"rine":8005,"Ġcomparison":8006,"izza":8007,"Ġengaging":8008,"Ġresulting":8009,"Ġocean":8010,"Ġintroduction":8011,"Ġinterface":8012,"og":8013,"Ġraw":8014,"Ġminds":8015,"Ġlaptop":8016,"Ġrow":8017,"Ġbabies":8018,"yes":8019,"stra":8020,"VD":8021,"ĠSk":8022,"Ġnative":8023,"Ġreduction":8024,"Ġspecialist":8025,"Ġvib":8026,"Ġroads":8027,"Ġoutcomes":8028,"ĠJud":8029,"Ġinterpre":8030,"Ġproducing":8031,"ĠAtla":8032,"Ġworkplace":8033,"ĠIran":8034,"ĠGame":8035,"ĠSqu":8036,"makers":8037,"tails":8038,"?)":8039,"Ġsuffered":8040,"Ġchannels":8041,"Ġiron":8042,"hea":8043,"Ġdeposit":8044,"ĠCamp":8045,"ĠTherefore":8046,"sters":8047,"Ġbird":8048,"Ġclaimed":8049,"iculous":8050,"Ġexha":8051,"Ġguitar":8052,"Ġloyal":8053,"Ġlargely":8054,"Ġtrail":8055,"Ġimportantly":8056,"spi":8057,"ĠBer":8058,"ĠCH":8059,"Ġfocusing":8060,"Ġbid":8061,"Ġsharp":8062,"ĠIma":8063,"Ġreaching":8064,"Ġexploring":8065,"Ġlol":8066,"Ġkilling":8067,"itles":8068,"ĠCho":8069,"Ġflour":8070,"Ġkee":8071,"Ġuncom":8072,"Ġhandling":8073,"lymp":8074,"ĠNight":8075,"weight":8076,"Ġloose":8077,"Ġrepresents":8078,"ĠBeing":8079,"ORE":8080,"Ġpacked":8081,"ĠBush":8082,"ĠItalian":8083,"iP":8084,"Ġsplit":8085,"asted":8086,"Ġinner":8087,"Ġtailo":8088,"Ġimple":8089,"Ġtransform":8090,"lates":8091,"ĠEverything":8092,"thon":8093,"ĠFrancisco":8094,"Ġdrawn":8095,"Ġdemands":8096,"Ġpackages":8097,"rel":8098,"ĠInsurance":8099,"Ġarrested":8100,"Ġtall":8101,"Ġhook":8102,"teed":8103,"Ġintegrated":8104,"Ġprimarily":8105,"Ġelectrical":8106,"Ġlately":8107,"Ġgranted":8108,"Ġdefend":8109,"Ġplot":8110,"tail":8111,"Ġbridge":8112,"Ġinitiative":8113,"Ġdisable":8114,"Ġspots":8115,"Ġdespe":8116,"nan":8117,"Ġrural":8118,"Ġtan":8119,"Ġexplanation":8120,"hear":8121,"Ġunexpected":8122,"ritage":8123,"ĠArts":8124,"Ġrev":8125,"ĠSecond":8126,"Ġentering":8127,"ĠAutho":8128,"ini":8129,"Ġarrival":8130,"].":8131,"Ġpricing":8132,"Ġheight":8133,"bel":8134,"Ġdeeper":8135,"Ġblame":8136,"Ġgiant":8137,"Ġtracks":8138,"Would":8139,"ĠMike":8140,"Ġvisits":8141,"Ġdishes":8142,"ental":8143,"ccess":8144,"Ġsmell":8145,"reme":8146,"Ġcontest":8147,"Ġblind":8148,"Ġrarely":8149,"Ġnervous":8150,"ĠCup":8151,"iate":8152,"ressive":8153,"Ġchest":8154,"ĠThrough":8155,"Ġexpressed":8156,"Ġcommonly":8157,"Ġcharity":8158,"orange":8159,"Ġenterprise":8160,"Ġexists":8161,"ĠAuto":8162,"Which":8163,"Ġinvestments":8164,"ĠRights":8165,"ivalent":8166,"lywood":8167,"Ġfits":8168,"ĠSteve":8169,"Ġresort":8170,"Ġalleged":8171,"cher":8172,"Ġabo":8173,"Ġpink":8174,"meras":8175,"viously":8176,"iations":8177,"Ġrefund":8178,"ĠMen":8179,"conne":8180,"Ġglu":8181,"Ġconclusion":8182,"Ġanybody":8183,"Ġvariable":8184,"Ġrequested":8185,"Ġfigured":8186,"Ġpicking":8187,"ĠBrown":8188,"Ġcontribution":8189,"liers":8190,"ĠBi":8191,"Ġwishes":8192,"ĠSEO":8193,"Ġexceptional":8194,"ruptcy":8195,"Ġprompt":8196,"urb":8197,"Ġconvenience":8198,"omas":8199,"Ġcounsel":8200,"ĠIP":8201,"Ġobtained":8202,"Ġseats":8203,"ditionally":8204,"Ġ2003":8205,"uties":8206,"Ġtox":8207,"Ġgovernments":8208,"Ġstages":8209,"Ġtons":8210,"Ġbug":8211,"versal":8212,"Ġswea":8213,"ingly":8214,"Ġintense":8215,"Ġvisible":8216,"Ġmanufacturers":8217,"aland":8218,"inal":8219,"Ġplain":8220,"Qu":8221,"Ġfingers":8222,"Part":8223,"Ġcuts":8224,"Ġexperiencing":8225,"Ġinvolving":8226,"ĠPac":8227,"Ġunusual":8228,"Ġheating":8229,"Ġrecrui":8230,"ĠDie":8231,"Ġgathering":8232,"ĠChan":8233,"ĠWall":8234,"Ġchronic":8235,"Ġignore":8236,"Ġmedication":8237,"Ġacid":8238,"Ġmodu":8239,"ĠStart":8240,"Ġintellect":8241,"Ġhardly":8242,"Ġreturning":8243,"ager":8244,"asm":8245,"Ser":8246,"ĠHea":8247,"ĠCoast":8248,"woo":8249,"ĠPea":8250,"Ġrelations":8251,"Ġhide":8252,"ĠControl":8253,"ĠFil":8254,"ĠCA":8255,"ette":8256,"Ġimpression":8257,"urse":8258,"Ġfundamental":8259,"Ġcomponent":8260,"sess":8261,"Keep":8262,"Ġedito":8263,"Ġverif":8264,"Welcome":8265,"ĠLab":8266,"Ġconsent":8267,"Ġeditor":8268,"Ġfavor":8269,"Ġattract":8270,"Ġdisappoint":8271,"titude":8272,"Ġgrass":8273,"Ġtemporary":8274,"Ġtank":8275,"Ġmad":8276,"Ġlanguages":8277,"Car":8278,"ĠSon":8279,"Ġpreferred":8280,"Ġrapidly":8281,"ĠFinancial":8282,"Ġhearts":8283,"Ġgained":8284,"gence":8285,"Ġhabits":8286,"sof":8287,"versities":8288,"ĠSpirit":8289,"dous":8290,"Give":8291,"Ġstable":8292,"ĠDec":8293,"ĠRemember":8294,"icker":8295,"Ġsurve":8296,"Ġapproache":8297,"ĠAnother":8298,"Ġasset":8299,"Ġpresents":8300,"ĠMom":8301,"Ġapproaches":8302,"urable":8303,"ĠHistory":8304,"tals":8305,"verty":8306,"Ġrating":8307,"ĠEnvironment":8308,"ntation":8309,"Ġarray":8310,"Ġem":8311,"Ġasp":8312,"Ġscript":8313,"Ġpowder":8314,"Ġcheaper":8315,"Ġdraft":8316,"tered":8317,"Ġblocks":8318,"Ins":8319,"Ġentitled":8320,"athy":8321,"Ġformed":8322,"ilot":8323,"Ġindex":8324,"Ġpup":8325,"logist":8326,"Ġcontemporary":8327,"ĠRet":8328,"Ġlegi":8329,"Ġrecognition":8330,"Ġtables":8331,"Ġusage":8332,"ĠChange":8333,"ĠWin":8334,"Ġ400":8335,"Ġtherap":8336,"essional":8337,"ĠHy":8338,"Ġpersonnel":8339,"oral":8340,"Add":8341,"Ġnewly":8342,"Ġshame":8343,"Dis":8344,"tole":8345,"riers":8346,"ĠHam":8347,"Ġstatistics":8348,"Does":8349,"Ġperiods":8350,"ĠItaly":8351,"ĠHead":8352,"Ġemotion":8353,"Ġprayer":8354,"ĠBob":8355,"300":8356,"ĠStor":8357,"Ġprivile":8358,"vailable":8359,"Ġchart":8360,"Ġawards":8361,"Ġdanger":8362,"Ġexposed":8363,"cap":8364,"Ġhiring":8365,"Ġrepea":8366,"udent":8367,"ĠFestival":8368,"au":8369,"ĠArch":8370,"Ġpsych":8371,"Ġmerely":8372,"umin":8373,"EE":8374,"Ġmechan":8375,"Ġcelebration":8376,"Ġinvesting":8377,",'":8378,"Ġmanual":8379,"Ġdisaster":8380,"Ġnurse":8381,"Ġbrush":8382,"Ġfindings":8383,"works":8384,"lined":8385,"ĠSales":8386,"Ġshoulder":8387,"dee":8388,"ĠReport":8389,"ĠDi":8390,"ĠIll":8391,"Ġaba":8392,"Ġfewer":8393,"Ġkm":8394,"Ġfault":8395,"Ġcats":8396,"ees":8397,"Ġdifficulty":8398,"Ġpheno":8399,"Under":8400,"Ġchampion":8401,"titles":8402,"Ġequally":8403,"Ġwest":8404,"ĠSummer":8405,"eets":8406,"Ġhonestly":8407,"Ġrecrea":8408,"ĠRobert":8409,"ĠPress":8410,"unce":8411,"Ġplu":8412,"Ġlift":8413,"ĠSH":8414,"yard":8415,"ĠOpe":8416,"Ġwave":8417,"Ġsees":8418,"quest":8419,"ĠOlymp":8420,"Ġaims":8421,"Ġrevolution":8422,"allen":8423,"Ġconcrete":8424,"swing":8425,"ĠLy":8426,"ĠLouis":8427,"ĠiP":8428,"Ġpod":8429,"ĠArab":8430,"Ġmarks":8431,"Ġyoga":8432,"Ġorange":8433,"ĠPlace":8434,"ĠZealand":8435,"phones":8436,"ĠFund":8437,"Ġworkshops":8438,"ĠKey":8439,"ĠShop":8440,"urt":8441,"Ġought":8442,"pending":8443,"Ġsorts":8444,"nous":8445,"Ġmargin":8446,"Ġdefine":8447,"ĠRad":8448,"icide":8449,"Ġnarrow":8450,"iece":8451,"Ġfarmers":8452,"eau":8453,"Ġscar":8454,"ĠSuch":8455,"Ġbala":8456,"Ġegg":8457,"Ġgap":8458,"ional":8459,"ĠSenate":8460,"TA":8461,"Ġterrit":8462,"kee":8463,"Ġcapabilities":8464,"Ġroot":8465,"berg":8466,"Ġspectac":8467,"san":8468,"ĠBritain":8469,"ĠStudents":8470,"NA":8471,"Ġaban":8472,"Ġpromotion":8473,"ĠDisney":8474,"Ġcameras":8475,"Ġabsor":8476,"Ġstretch":8477,"Ġstopping":8478,"Ġpoverty":8479,"Step":8480,"Ġcopies":8481,"Ġextension":8482,"isation":8483,"Ġgroce":8484,"Ġdowntown":8485,"Ġdelivering":8486,"oy":8487,"Ġelsewhere":8488,"ĠCiv":8489,"Ġextend":8490,"Ġdisappointed":8491,"Find":8492,"Ġlayer":8493,"zard":8494,"Ġcatal":8495,"ĠNetwork":8496,"Ġflavor":8497,"Ġarchitecture":8498,"ĠEle":8499,"ĠMuslim":8500,"ĠView":8501,"lici":8502,"produ":8503,"inary":8504,"Ġdiscussions":8505,"ĠAcademy":8506,"ĠWatch":8507,"pest":8508,"Ġsof":8509,"ĠNO":8510,"Ġhandy":8511,"Ġframework":8512,"Ġhits":8513,"ican":8514,"ĠMel":8515,"66":8516,"Ġobjectives":8517,"ĠPat":8518,"RI":8519,"ĠDad":8520,"gratulations":8521,"Ġwire":8522,"Ġfilling":8523,"Ġcoal":8524,"licit":8525,"800":8526,"rop":8527,"Ġprecious":8528,"ĠSU":8529,"Ġpredic":8530,"Ġevaluation":8531,"charge":8532,"Ġquotes":8533,"Ġmeaningful":8534,"Ġbaking":8535,"Ġsetup":8536,"Ġpromoting":8537,"Ġcaring":8538,"burg":8539,"Ġnewspaper":8540,"ĠNote":8541,"ĠCla":8542,"Ġrelaxing":8543,"ĠLight":8544,"Bel":8545,"Ġcontrolled":8546,"meters":8547,"Ġsoil":8548,"Ġdisplayed":8549,"Ġrelating":8550,"Ġ65":8551,"Ġaged":8552,"Ġcomprom":8553,"igan":8554,"Ġgenerous":8555,"Ġregions":8556,"Ġqui":8557,"Ġengines":8558,"Ġindicate":8559,"Ġflexibility":8560,"ĠCri":8561,"Ġinfection":8562,"Ġlisting":8563,"Ġstomach":8564,"Ġsmoking":8565,"ele":8566,"toys":8567,"tissue":8568,"Ġenjoyable":8569,"Ġfalls":8570,"ko":8571,"Ġpublication":8572,"ĠJustice":8573,"Ġexpans":8574,"Ġconversations":8575,"Ġparticipating":8576,"vable":8577,"ĠCons":8578,"Ġtooth":8579,"ĠYOUR":8580,"Ġproductive":8581,"Ġexecu":8582,"Cl":8583,"Ġwhis":8584,"Ġelected":8585,"ĠTen":8586,"Ġinterviews":8587,"Ġerrors":8588,"Ġinhe":8589,"bar":8590,"ĠDia":8591,"Ġcoin":8592,"Ġboss":8593,"formed":8594,"Ġinteractive":8595,"Ġvictory":8596,"Ġprinting":8597,"ĠPut":8598,"Ġsections":8599,"Ġpets":8600,"Ġham":8601,"minute":8602,"yan":8603,"Ġladies":8604,"Ġcasual":8605,"Ġimplemented":8606,"Ġequivalent":8607,"Ġblen":8608,"ĠCas":8609,"mates":8610,"ero":8611,"Ġovercome":8612,"tants":8613,"Ġnetworking":8614,"Ġconfused":8615,"Ġ2001":8616,"inton":8617,"Ġsafely":8618,"Ġoccurs":8619,"Ġcollective":8620,"Ġame":8621,"arters":8622,"Ġstrike":8623,"ĠVideo":8624,"ĠShare":8625,"Ġox":8626,"Ġseasons":8627,"Ġremoval":8628,"Ġadopted":8629,"ĠPrince":8630,"ĠExecutive":8631,"Ġabroad":8632,"Ġstrive":8633,"Ġprovision":8634,"sit":8635,"01":8636,"Ġpossibilities":8637,"Ġpursue":8638,"Ġcampaigns":8639,"Ġpocket":8640,"Ġdefic":8641,"Ġaffili":8642,"Ġtissue":8643,"Ġada":8644,"Ġdelight":8645,"Ġtoys":8646,"ĠExce":8647,"Ġtransactions":8648,"Ġestimate":8649,"Ġabilities":8650,");":8651,"Ġdamaged":8652,"Ġ195":8653,"ollowing":8654,"Ġsemi":8655,"Ġsubstantial":8656,"Ġbreaks":8657,"Ġentrance":8658,"Ġpowers":8659,"ĠWithout":8660,"aten":8661,"Ġskilled":8662,"ĠBoston":8663,"Ġmeets":8664,"ĠMother":8665,"Ġreveal":8666,"Ġcommission":8667,"Ġrepeat":8668,"ĠAge":8669,"ifo":8670,"Ġcitizen":8671,"ĠCarolina":8672,"ĠThink":8673,"Ġlock":8674,"Ġfeaturing":8675,"tries":8676,"sized":8677,"Ġswing":8678,"Ġtracking":8679,"Ġcouples":8680,"SE":8681,"Ġuniverse":8682,"Ġphotographs":8683,"Ġed":8684,"Despite":8685,"Ġshirt":8686,"Ġunknown":8687,"ĠConne":8688,"Ġfiction":8689,"ĠFi":8690,"Ġasks":8691,"ĠAD":8692,"Ġdiscri":8693,"Ġdemonstrate":8694,"FL":8695,"ique":8696,"Ġsoph":8697,"ĠVict":8698,"Ġpipe":8699,"Ġcontracts":8700,"ĠFather":8701,"nization":8702,"Dr":8703,"Ġmaintained":8704,"rto":8705,"Ġdesperate":8706,"rigin":8707,"GB":8708,"reaking":8709,"eanwhile":8710,"Ġmi":8711,"Ġfaculty":8712,"Ġguaranteed":8713,"Ġmarked":8714,"Ġtransaction":8715,"Ġcolours":8716,"ĠPage":8717,"ĠChild":8718,"Ġregime":8719,"Ġdiversity":8720,"Ġscope":8721,"ĠSection":8722,"ĠWil":8723,"Ġwisdom":8724,"berry":8725,"Ġsupplement":8726,"Ġlit":8727,"Ġmanufacturer":8728,"iot":8729,"Ġspecified":8730,"Ġproductivity":8731,"Ġsinging":8732,"Ġdisorder":8733,"ĠLibrary":8734,"Ġplug":8735,"Ġrelative":8736,"Ġaccessories":8737,"Ġbarely":8738,"Ġlawyers":8739,"cui":8740,"Ġadvantages":8741,"ĠJoe":8742,"Ġnations":8743,"ĠMain":8744,"Ġdeck":8745,"Ġresolve":8746,"ĠStore":8747,"Ġgoogle":8748,"Ġreact":8749,"ĠMis":8750,"Ġapplies":8751,"Ġburn":8752,"Ġviewing":8753,"llen":8754,"Ġcertificate":8755,"Ġdocumentation":8756,"Ġnutrition":8757,"eels":8758,"Ġmaxim":8759,"Ġpics":8760,"ĠScot":8761,"Ġdeman":8762,"your":8763,"OC":8764,"Ġexceed":8765,"Ġaccounting":8766,"bage":8767,"Ġheaven":8768,"Ġ55":8769,"adow":8770,"Ġinstruction":8771,"ĠPur":8772,"Ġreception":8773,"Ġaimed":8774,"Ġnose":8775,"vested":8776,"Ġhesitate":8777,"Ġarrest":8778,"lds":8779,"Ġadmitted":8780,"Ġtole":8781,"Ġcorrespon":8782,"Ġofficially":8783,"Ġlake":8784,"Ġminimal":8785,"Ġpublis":8786,"perience":8787,"ntil":8788,"Ġsignal":8789,"Ġul":8790,"Ġdirected":8791,"Ġrefuge":8792,"Ġjun":8793,"Ġhub":8794,"Ġinsights":8795,"ĠChief":8796,"Hope":8797,"Ġdelighted":8798,"Ġcontributions":8799,"Ġhomeow":8800,"Ġautomo":8801,"Look":8802,"Ġvulnerable":8803,"Ġblow":8804,"gare":8805,"itio":8806,"Ġcompete":8807,"Ġclock":8808,"Ġcolumn":8809,"appro":8810,"dri":8811,"Ġromantic":8812,"stall":8813,"Ġexpecting":8814,"rese":8815,"zil":8816,"ĠBla":8817,"vity":8818,"Ġpad":8819,"Ġfunctional":8820,"ĠâĢĿ":8821,"Ġregards":8822,"Ġfounded":8823,"Ġcoaching":8824,"rige":8825,"Ġdesigners":8826,"inger":8827,"Ġremained":8828,"Ġfascinating":8829,"Ġgallery":8830,"Ġexecut":8831,"Ġinfe":8832,"ĠIm":8833,"Ġrepresentative":8834,"acket":8835,"ĠLOVE":8836,"ĠTax":8837,"Ġclassi":8838,"Ġresidence":8839,"tile":8840,"rites":8841,"Ġliability":8842,"ĠSky":8843,"Ġunce":8844,"Ġaddresses":8845,"Ġceremony":8846,"Ġinitiatives":8847,"Ġgaming":8848,"Ġangry":8849,"Ġgather":8850,"bably":8851,"ĠJob":8852,"ĠSecretary":8853,"Ġexpansion":8854,"MA":8855,"Ġaddressed":8856,"allet":8857,"Ġinstant":8858,"school":8859,"Ġwalks":8860,"Ġprohib":8861,"rus":8862,"inder":8863,"Ġmassage":8864,"ĠRoyal":8865,"ĠCould":8866,"Ġbedrooms":8867,"Ġpoem":8868,"Ġgrin":8869,"Ġtrash":8870,"Learn":8871,"uma":8872,"Ġgenerations":8873,"Ra":8874,"ĠFair":8875,"Ġdisagree":8876,"Ġcenters":8877,"Ġclubs":8878,"Ġtears":8879,"Unfortunately":8880,"Ġspi":8881,"obile":8882,"ĠCatholic":8883,"ĠDVD":8884,"Ġinitially":8885,"Ġ1990":8886,"Ġagenda":8887,"liament":8888,"Ġentrepreneur":8889,"sui":8890,"Ġendo":8891,"Ġbreed":8892,"ĠMi":8893,"iano":8894,"Ġflag":8895,"Ġvs":8896,"Ġ($":8897,"ĠArmy":8898,"ummy":8899,"Ġdirections":8900,"Ġstructures":8901,"Ġbrowse":8902,"ĠNothing":8903,"nat":8904,"ĠFour":8905,"Ġwireless":8906,"syste":8907,"vide":8908,"Ġencouraging":8909,"Ġopposed":8910,"Ġprime":8911,"ATE":8912,"nonymous":8913,"Ġpour":8914,"Ġoverwhelming":8915,"SP":8916,"Ġranking":8917,"Ġinspire":8918,"Ġvete":8919,"ĠYoung":8920,"veral":8921,"Ġyards":8922,"foot":8923,"mendous":8924,"42":8925,"Ġfool":8926,"Ġargue":8927,"ĠCO":8928,"world":8929,"ĠUsing":8930,"ĠGene":8931,"Ġcontrols":8932,"Ġdivorce":8933,"books":8934,"Ġworkout":8935,"Ġreform":8936,"tz":8937,"Ġgrace":8938,"ĠRepublica":8939,"Ġbench":8940,"Ġcomme":8941,"cific":8942,"rado":8943,"Ġmoist":8944,"Ġbehaviour":8945,"ĠHoly":8946,"tters":8947,"ĠRepublican":8948,"Ġaircraft":8949,"sha":8950,"ĠTrust":8951,"Ġinspiring":8952,"Ġcurrency":8953,"iated":8954,"esis":8955,"Ġcompletion":8956,"Ġenables":8957,"Ġorie":8958,"Reme":8959,"Ġunion":8960,"Ġsummary":8961,"tingu":8962,"Only":8963,"Ġenemy":8964,"Ġpromised":8965,"looking":8966,"ifies":8967,"cuit":8968,"riculum":8969,"alloween":8970,"Ġspeakers":8971,"ĠSupport":8972,"tub":8973,"ĠPersonal":8974,"Ġoutfit":8975,"Ġmatches":8976,"Ġphysically":8977,"Ġcombine":8978,"Ġ2002":8979,"Ġbud":8980,"Ġtemperatures":8981,",âĢĻ":8982,"aba":8983,"85":8984,"Ġresume":8985,"ranty":8986,"LA":8987,"Ġthoroughly":8988,"ĠJul":8989,"Ġunp":8990,"Ġeast":8991,"Â·":8992,"ĠAsk":8993,"Ġ33":8994,"ĠSpain":8995,"gend":8996,"oph":8997,"Ġgenerated":8998,"ulties":8999,"Ġslee":9000,"BI":9001,"John":9002,"run":9003,"Ġtrusted":9004,"ĠSearch":9005,"ĠWri":9006,"Ġcertified":9007,"ĠSara":9008,"rooms":9009,"ĠBuilding":9010,"Time":9011,"ĠDigital":9012,"Ġdonation":9013,"Ġski":9014,"cult":9015,"Ġinformative":9016,"Ġessentially":9017,"Ġunlikely":9018,"ieties":9019,"Ce":9020,"ulating":9021,"Ġglobe":9022,"Ġlabe":9023,"Ġgenr":9024,"Ġforgotten":9025,"Ġbankruptcy":9026,"Ġirr":9027,"Ġgenre":9028,"Ġbond":9029,"Ġdifferently":9030,"ĠEp":9031,"ĠSafety":9032,"Ġtitles":9033,"Ġexcite":9034,"Ġstir":9035,"Ġexercises":9036,"nut":9037,"DS":9038,"Ġmoral":9039,"Ġgraphic":9040,"Ġirri":9041,"uana":9042,"rect":9043,"Ġawarded":9044,"Ġmountains":9045,"Ġlegisla":9046,"ĠSure":9047,"Ġauthentic":9048,"Ġalongside":9049,"ckers":9050,"Ġconsists":9051,"Ġpushing":9052,"unded":9053,"tort":9054,"cessive":9055,"Ġconcert":9056,"redi":9057,"Ġexcess":9058,"ĠKingdom":9059,"Ġactively":9060,"Ġresistance":9061,"Ġseeds":9062,"ĠHospital":9063,"cover":9064,"ĠHas":9065,"bors":9066,"II":9067,"Ġattempts":9068,"Ġpitch":9069,"UST":9070,"Ġlayout":9071,"Ġunfortunately":9072,"ashes":9073,"Ġoh":9074,"Being":9075,"Ġhighlight":9076,"marked":9077,"sour":9078,"irect":9079,"PM":9080,"Ġdispo":9081,"ĠMoney":9082,"ioner":9083,"duate":9084,"ĠAdministration":9085,"Ġreplied":9086,"Ġtact":9087,"ckets":9088,"Ġsought":9089,"aded":9090,"bb":9091,"elly":9092,"Ġincent":9093,"ï¿":9094,"Ġtargeted":9095,"udes":9096,"Ġstations":9097,"Ġsuppliers":9098,"ERS":9099,"Ġflights":9100,"Ġvent":9101,"tend":9102,"Ġliterature":9103,"Ġopens":9104,"HS":9105,"Ġevolution":9106,"ĠGames":9107,"Ġelections":9108,"Ġsigna":9109,"otic":9110,"ĠMartin":9111,"Ġexcuse":9112,"ĠMember":9113,"Ġdesktop":9114,"05":9115,"Ġfilter":9116,"Ġprofessor":9117,"ĠClea":9118,"have":9119,"Ġpushed":9120,"ances":9121,"Ġpuzz":9122,"service":9123,"Ġmon":9124,"Ġgree":9125,"Ġbone":9126,"Ġvoters":9127,"dia":9128,"ĠTraining":9129,"Ġconsistently":9130,"ĠCorpo":9131,"ĠVirginia":9132,"Ġgraphics":9133,"ĠForm":9134,"Ġheavily":9135,"Ġtremendous":9136,"ĠThree":9137,"Ġsectors":9138,"Ġcomplaint":9139,"spitals":9140,"Ġlegit":9141,"ĠOp":9142,"host":9143,"Ġbanking":9144,"good":9145,"bell":9146,"Ġspeaker":9147,"tta":9148,"Ġpoet":9149,"Ġsurrounded":9150,"romo":9151,"assed":9152,"rmous":9153,"when":9154,"coin":9155,"Ġshortly":9156,"Ġmixture":9157,"home":9158,"Ġphilosophy":9159,"Ġelder":9160,"style":9161,"Ġlying":9162,"Ġslip":9163,"Ġshake":9164,"LC":9165,"Ġrepairs":9166,"hh":9167,"sals":9168,"fits":9169,"umes":9170,"ths":9171,"Ġfocuses":9172,"Ġhypo":9173,"Ġreprodu":9174,"ĠWordPress":9175,"gie":9176,"Remember":9177,"ett":9178,"ï¿½":9179,"ĠLooking":9180,"leases":9181,"Ġgrounds":9182,"vors":9183,"Ġuniversities":9184,"Ġmoon":9185,"cs":9186,"ĠAff":9187,"Ġaggressive":9188,"...\"":9189,"oons":9190,"tied":9191,"Ġpublishing":9192,"Ġallo":9193,"utch":9194,"atell":9195,"Ġunde":9196,"Ġannouncement":9197,"Ġdeveloper":9198,"ĠEnd":9199,"ĠDu":9200,"Ġtun":9201,"ijuana":9202,"Ġcoordin":9203,"Ġcabine":9204,"Ġassociation":9205,"ĠCul":9206,"ĠSouthern":9207,"Ġexpense":9208,"Ġediting":9209,"ificial":9210,"nne":9211,"Ġopt":9212,"Ġfloo":9213,"Ġownership":9214,"Ġ37":9215,"bra":9216,"Ġtimely":9217,"Ġforgive":9218,"cree":9219,"43":9220,"Ġintri":9221,"Ġmeta":9222,"Ġinteraction":9223,"Ġdisability":9224,"Ġdecline":9225,"Ġwoo":9226,"Ġbeds":9227,"Ġspare":9228,"Ġspacious":9229,"welry":9230,"edia":9231,"Ġenormous":9232,"ĠOrder":9233,"Ġdrama":9234,"Ġ38":9235,"una":9236,"Ġeliminate":9237,"',":9238,"Ġsurf":9239,"Ġmuscles":9240,"Ġdeadline":9241,"ucky":9242,"ĠFull":9243,"ĠFA":9244,"Ġexhibition":9245,"Ġfranch":9246,"Ġ1980":9247,"Ġreserve":9248,"uds":9249,"Ġparks":9250,"icke":9251,"Ġneighbour":9252,"redit":9253,"llence":9254,"Ġburning":9255,"fied":9256,"Ġeager":9257,"ĠDC":9258,"ĠHERE":9259,"Ġann":9260,"Ġcontents":9261,"Ġkeys":9262,"Ġresponsibilities":9263,"Ġamenities":9264,"http":9265,"ĠSite":9266,"Ġtape":9267,"dors":9268,"Back":9269,"Ġgate":9270,"rtaint":9271,"Ġacquire":9272,"Ġsigning":9273,"Ġoppone":9274,"Ġtort":9275,"Ġbother":9276,"ĠYeah":9277,"Ġversa":9278,"Come":9279,"Ġrecip":9280,"Ġvoting":9281,"Okay":9282,"Ġcoa":9283,"ĠJersey":9284,"Ġfunctionality":9285,"41":9286,"Ġcontained":9287,"Ġaccele":9288,"gical":9289,"ĠLis":9290,"Ġboring":9291,"Happy":9292,"Ġcomplaints":9293,"Ġfraud":9294,"ĠEqu":9295,"Ġembarr":9296,"about":9297,"Ġfollowers":9298,"ĠQueen":9299,"ĠWood":9300,"Ġrolling":9301,"Ġcourage":9302,"Ġprofits":9303,"ĠWebsite":9304,"Through":9305,"intage":9306,"Ġformula":9307,"ĠReally":9308,"stop":9309,"mind":9310,"Ġfruits":9311,"EA":9312,"Ġamend":9313,"ĠSP":9314,"ĠPract":9315,"Ġprotecting":9316,"âĢ¦âĢĿ":9317,"Ġcombat":9318,"print":9319,"ĠMemo":9320,"Ġsuperior":9321,"gly":9322,"Ġamongst":9323,"Ġthemes":9324,"achelor":9325,"ĠSpace":9326,"even":9327,"tus":9328,"Ġsubstance":9329,"Ġridiculous":9330,"Ġordinary":9331,"br":9332,"Ġdamn":9333,"Ġduties":9334,"istent":9335,"Ġimmigration":9336,"Ġgarlic":9337,"Ġemerging":9338,"cede":9339,"ĠLee":9340,"ĠCustomer":9341,"chester":9342,"undry":9343,"Ġdiagnosis":9344,"ĠLiving":9345,"sey":9346,"Ġrecruit":9347,"ĠSeason":9348,"Ġaccused":9349,"hers":9350,"Ġrecover":9351,"Ġcalories":9352,"Ġchemicals":9353,"ĠPra":9354,"Ġbloggers":9355,"fy":9356,"Ġdevelopments":9357,"sne":9358,"Crea":9359,"mances":9360,"ĠRichard":9361,"mine":9362,"Ġclinic":9363,"ĠLand":9364,"Ġemployed":9365,"iser":9366,"ĠAgency":9367,"Ġdedu":9368,"Ġvoted":9369,"ĠStay":9370,"Ġrede":9371,"sels":9372,"Ġ;)":9373,"Ġflood":9374,"Ġsecre":9375,"lfriend":9376,"Ġanytime":9377,"hu":9378,"Ġevaluate":9379,"gypt":9380,"Ġsalad":9381,"Ġbeliefs":9382,"ĠQuest":9383,"ĠHen":9384,"Ġdozen":9385,"Ġpainful":9386,"spic":9387,"Ġspectacular":9388,"Ġpoly":9389,"Ġden":9390,"ĠLink":9391,"Ġspam":9392,"ĠHeart":9393,"ĠEa":9394,"Bo":9395,"ĠSil":9396,"Ġpizza":9397,"Ġratio":9398,"Ta":9399,"ĠSupreme":9400,"Ġsalary":9401,"ĠToo":9402,"ĠUs":9403,"Ġfundra":9404,"ndering":9405,"rolled":9406,"Ġcharacteristics":9407,"Man":9408,"nton":9409,"loved":9410,"Ġthreats":9411,"Ġcrimes":9412,"TER":9413,"sessed":9414,"ĠFore":9415,"Ġblessed":9416,"Ġregret":9417,"ĠNorthern":9418,"Ġfreque":9419,"ĠColumb":9420,"Ġcontainer":9421,"terans":9422,"God":9423,"high":9424,"llar":9425,"Ġphrase":9426,"ĠMax":9427,"ĠVegas":9428,"Ġcontrast":9429,"ĠâĤ¬":9430,"Anyway":9431,"Ġadapt":9432,"Ġchecks":9433,"Ġlosses":9434,"may":9435,"Ġvi":9436,"Ġfake":9437,"week":9438,"Ġassigned":9439,"Ġseed":9440,"Ġhyper":9441,"ĠâĢĻ":9442,"nded":9443,"Ġjoke":9444,"Ġinevi":9445,"Ġarmy":9446,"Ġexcitement":9447,"Ġdancing":9448,"Ġtie":9449,"reach":9450,"ĠJose":9451,"Ġstruck":9452,"Ġtap":9453,"Ġtutorial":9454,"Ġadvis":9455,"Ġemissions":9456,"Ġnursing":9457,"Ġpurchases":9458,"ĠBed":9459,"ffe":9460,"ident":9461,"Ġaccommodate":9462,"Ġhabit":9463,"Ġblessing":9464,"paper":9465,"Ġconvinced":9466,"Ġrestrictions":9467,"Ġremarkable":9468,"Ġpeaceful":9469,"Ġventure":9470,"eping":9471,"Ġentertaining":9472,"Ġintegrity":9473,"unicip":9474,"Ġgut":9475,"Ġtournament":9476,"ĠSoft":9477,"ĠAward":9478,"ĠLA":9479,"Ġmakeup":9480,"ĠCivil":9481,"Ġya":9482,"Ġdeaths":9483,"Ġlowest":9484,"minated":9485,"ĠPop":9486,"ĠCreat":9487,"type":9488,"Ġdivision":9489,")(":9490,"Ġlatter":9491,"ĠBrazil":9492,"Ġsoldiers":9493,"Ġproved":9494,"ndro":9495,"Ġpackaging":9496,"ĠAL":9497,"ĠAgree":9498,"ratory":9499,"Ġpeak":9500,"asts":9501,"Ġplugin":9502,"Sub":9503,"Ġinch":9504,"Ġshock":9505,"suit":9506,"ĠThanksgiving":9507,"Ġ34":9508,"ĠJewish":9509,"Ġreminder":9510,"Ġdonations":9511,"ĠThomas":9512,"Ġadequate":9513,"icates":9514,"pore":9515,"Ġfancy":9516,"Ġgathered":9517,"Ġwider":9518,"ulf":9519,"eans":9520,"Ġ~":9521,"porter":9522,"Ġacto":9523,"Ġviewed":9524,"Ġvirtually":9525,"fl":9526,"vat":9527,"Ġactor":9528,"ĠSw":9529,"Ġboards":9530,"ĠHollywood":9531,"2017":9532,"nions":9533,"ĠHoliday":9534,"ĠJan":9535,"ĠDefe":9536,"ĠMS":9537,"Ġlasting":9538,"wr":9539,"ĠKim":9540,"Ġbeans":9541,"aped":9542,"Ġprevention":9543,"mated":9544,"ĠIM":9545,"ception":9546,"Ġgla":9547,"Ġrecon":9548,"ĠGeorg":9549,"Ġstops":9550,"ĠAR":9551,"08":9552,"ĠCross":9553,"wear":9554,"Ġoral":9555,"eli":9556,"Ġworker":9557,"Ġkeen":9558,"Star":9559,"Ġspan":9560,"Ġdiagnosed":9561,"Free":9562,"Ġopposition":9563,"lfare":9564,"ĠSmall":9565,"ĠBio":9566,"Ġregulatory":9567,"Home":9568,"Ġtargets":9569,"Ġleath":9570,"Ġprocessed":9571,"ĠWant":9572,"ishment":9573,"Ġcourts":9574,"Ġprovisions":9575,"allenge":9576,"Ġtravelling":9577,"ĠLearning":9578,"Ġdifficulties":9579,"yed":9580,"Though":9581,"ĠLocal":9582,"Ġassured":9583,"ĠPrime":9584,"ML":9585,"Ġresponded":9586,"Ġthankful":9587,"Ġapolog":9588,"warding":9589,"Pri":9590,"vironments":9591,"Ġscary":9592,"Ġneighbors":9593,"rals":9594,"ĠTim":9595,"mons":9596,"sub":9597,"otal":9598,"Ġoverview":9599,"dies":9600,"Ġarrangements":9601,"Ġminister":9602,"ĠHalloween":9603,"vacy":9604,"ĠArea":9605,"Ġdisabled":9606,"Ġqualify":9607,"Ġdealer":9608,"Ġquit":9609,"Ġmotivated":9610,"sie":9611,"Ġscrew":9612,"ĠMur":9613,"Ġemphasis":9614,"Ġinex":9615,"Ġrelaxed":9616,"IGH":9617,"reading":9618,"Ġmirror":9619,"tating":9620,"Ġcollap":9621,"Ġdirty":9622,"Ġthrown":9623,"ĠPrem":9624,"pical":9625,"Ġrepresentatives":9626,"Ġhighlights":9627,"Ġcult":9628,"Ġwherever":9629,"Ġtrailer":9630,"Ġworn":9631,"eathe":9632,"ology":9633,"Ġdying":9634,"Ġvaca":9635,"Ġrestor":9636,"Ġenabled":9637,"ĠProtection":9638,"inking":9639,"ĠAg":9640,"Ġjail":9641,"ematic":9642,"Ġfavorites":9643,"imer":9644,"Ġbands":9645,"Ġintellectual":9646,"Ġintelligent":9647,"Ġfrequent":9648,"Ġbran":9649,"Ġgolden":9650,"ĠHard":9651,"Ġattach":9652,"Ear":9653,"Ġgig":9654,"Everyone":9655,"Ġovernight":9656,"Ġrelate":9657,"necess":9658,"Ġprinciple":9659,"rey":9660,"Ġster":9661,"09":9662,"Ġimmune":9663,"Ġves":9664,"Ġsoup":9665,"Ġdrives":9666,"Ġinstantly":9667,"Out":9668,"Ġrestore":9669,"Ġcircle":9670,"Bl":9671,"twitter":9672,"Act":9673,"Ġadministrative":9674,"Ġoccasions":9675,"Ġacquis":9676,"vated":9677,"ĠReading":9678,"Ġsamples":9679,"ĠAnnual":9680,"Ġelectron":9681,"Ġphotographer":9682,"Ġfucking":9683,"Ġmining":9684,"Ġinventory":9685,"ĠStrate":9686,"Ġwarranty":9687,"Ġhunting":9688,"scale":9689,"acked":9690,"Ġautomatic":9691,"Ġ[...]":9692,"screen":9693,"Ġsubsi":9694,"RL":9695,"Never":9696,"Ġsinger":9697,"ĠTravel":9698,"Ġfallen":9699,"Ġleathe":9700,"Ġfactory":9701,"Ġsne":9702,"shot":9703,"Ġmaps":9704,"Ġenginee":9705,"Ġsecondary":9706,"Ġdescribes":9707,"Ġaffects":9708,"Ġgenetic":9709,"gate":9710,"ĠAlways":9711,"ĠNige":9712,"Ġwinners":9713,"Ġmotivation":9714,"Ġaddiction":9715,"Ġmento":9716,"swee":9717,"Ġhip":9718,"ĠFurther":9719,"Ġolive":9720,"ĠTrade":9721,"sight":9722,"ĠPare":9723,"isters":9724,"Ġwrites":9725,"%)":9726,"Ġlicensed":9727,"Ġintegration":9728,"UL":9729,"Ġcorn":9730,"Ġcompassion":9731,"Ġweapon":9732,"400":9733,"Ġanger":9734,"such":9735,"Ġdestroyed":9736,"shi":9737,"Ġarran":9738,"met":9739,"usions":9740,"ctu":9741,"Ġobserved":9742,"sole":9743,"ĠSeries":9744,"ĠYa":9745,"Ġfulfill":9746,"ĠTable":9747,"ĠHon":9748,"ĠRespon":9749,"Ġoccasionally":9750,"Ġcomply":9751,"Ġcooked":9752,"lph":9753,"ĠHD":9754,"Ġcooperation":9755,"ĠCook":9756,"ĠForce":9757,"Ġendless":9758,"Ġvice":9759,"rtion":9760,"Ġentries":9761,"Ġcontaining":9762,"lyn":9763,"Ġsubscription":9764,"Ġattrib":9765,"ĠTell":9766,"Ġdistinct":9767,"nie":9768,"Ġblan":9769,"Ġlens":9770,"Ġscared":9771,"Ġtours":9772,"Ġsudden":9773,"LD":9774,"Ġmystery":9775,"html":9776,"forward":9777,"jection":9778,"igure":9779,"ĠCro":9780,"bow":9781,"ĠClinton":9782,"Ġdivide":9783,"Ġacr":9784,"ĠTHIS":9785,"Ġsmartphone":9786,"ITH":9787,"Ġdelete":9788,"Ġdivided":9789,"Ġleather":9790,"df":9791,"Ġmedications":9792,"limited":9793,"ashed":9794,"working":9795,"Ġbranch":9796,"Ġacre":9797,"Ġacceptable":9798,"tton":9799,"equ":9800,"Ġlocally":9801,"Ġenvironments":9802,"Ġcompetitors":9803,"akis":9804,"Ġvendors":9805,"Ġhospitals":9806,"Ġsettled":9807,"Ġloads":9808,"Ġtries":9809,"Ġdose":9810,"Ġdialogue":9811,"Ġpoliticians":9812,"itable":9813,"Ġpassengers":9814,"ĠCir":9815,"Ġexamine":9816,"Ġcree":9817,"ĠExp":9818,"Still":9819,"Ġguns":9820,"Ġslide":9821,"Ġsuicide":9822,"Ġrefrige":9823,"thm":9824,"Ġinvo":9825,"Ġdebut":9826,"Ġhitting":9827,"Ġcurriculum":9828,"Ġears":9829,"Ġunifo":9830,"Ġindoor":9831,"market":9832,"char":9833,"ĠJackson":9834,"ĠMichigan":9835,"Ġmemorable":9836,"About":9837,"Both":9838,"ĠEgypt":9839,"ĠEvent":9840,"ĠPacific":9841,"Ġmagn":9842,"RS":9843,"ĠNations":9844,"Ġreminded":9845,"Ġracing":9846,"ĠSim":9847,"rence":9848,"Ġbaseball":9849,"Ġcompat":9850,"eather":9851,"???":9852,"Ġpatience":9853,"Ġspark":9854,"Ġbuyer":9855,"ĠRose":9856,"rch":9857,"Ġranging":9858,"ĠDonald":9859,"alt":9860,"Ġsemin":9861,"ĠKids":9862,"ĠMA":9863,"Ġinspection":9864,"Ġnea":9865,"Ġroughly":9866,"Ġrescue":9867,"Ġfurn":9868,"Ġpromises":9869,"Ġoperational":9870,"Ġsooner":9871,"Ġaccompa":9872,"ĠColorado":9873,"tency":9874,"Ġfloors":9875,"ĠMinistry":9876,"Perhaps":9877,"sored":9878,"viewing":9879,"Ġmono":9880,"Ġholes":9881,"ĠScotland":9882,"ĠAssis":9883,"irm":9884,"ĠCru":9885,"ĠKon":9886,"Ġupset":9887,"Ġmagical":9888,"tedly":9889,"Ġglasses":9890,"Ġcodes":9891,"ĠMuch":9892,"ection":9893,"Ġsponsor":9894,"nab":9895,"Ġsophist":9896,"Ġlocked":9897,"Ġdeny":9898,"Ġacknowled":9899,"Ġengineers":9900,"Ġpate":9901,"Â´":9902,"Ġindicated":9903,"Ġbasketball":9904,"Ġtied":9905,"ishes":9906,"food":9907,"Posted":9908,"Ġdramatic":9909,"Ġpilot":9910,"Ġequity":9911,"ĠVill":9912,"Call":9913,"Ġregulation":9914,"Ġfinishing":9915,"Ġmons":9916,"Ġtransformation":9917,"Ġgrocery":9918,"dium":9919,"Ġspecialists":9920,"Ġhosted":9921,"oric":9922,"ĠCr":9923,"Ġapple":9924,"Ġdecrease":9925,"Ġabsence":9926,"Ġefficiently":9927,"Ġreceip":9928,"Ġaccidents":9929,"Ġannoying":9930,"bec":9931,"Ġtackle":9932,"ĠMia":9933,"Ġtechnic":9934,"Ġblend":9935,"Ġpropor":9936,"Ġswee":9937,"Ġalike":9938,"icked":9939,"blog":9940,"Ġgues":9941,"reams":9942,"Ġassault":9943,"Ġachieving":9944,"cycle":9945,"rits":9946,"ĠCert":9947,"vement":9948,"Ġbomb":9949,"rda":9950,"07":9951,"ĠVictoria":9952,"ilan":9953,"Ġwondered":9954,"Ġbreathing":9955,"Ġsexy":9956,"Ġbite":9957,"Ġpunch":9958,"Ġnutrie":9959,"Ġbegun":9960,"Ġ250":9961,"Ġspoken":9962,"rtainty":9963,"Ġsuspic":9964,"size":9965,"seas":9966,"Ġreviewed":9967,"ĠTHAT":9968,"Ġministry":9969,"assing":9970,"Ġsolo":9971,"Ġcontinuous":9972,"Ġbroa":9973,"ĠEngineering":9974,"ĠWE":9975,"Ġnuts":9976,"ĠViet":9977,"Ġperformances":9978,"conut":9979,"power":9980,"Ġfinancing":9981,"Ġbull":9982,"Ġassistant":9983,"ĠCON":9984,"Ġknowledgeable":9985,"Ġsurvival":9986,"KE":9987,"ĠStudio":9988,"Ġgre":9989,"Ġscores":9990,"riff":9991,"Right":9992,"Ġcompleting":9993,"Ġrefugee":9994,"Ġbrothers":9995,"Ġange":9996,"utral":9997,"ĠPic":9998,"Ġdiscussing":9999,"Ġsour":10000,"health":10001,"lower":10002,"Ġhandful":10003,"Ġpants":10004,"Ġathletes":10005,"iffer":10006,"Ġaccomplished":10007,"Ġbold":10008,"AND":10009,"Ġepisodes":10010,"CO":10011,"ESS":10012,"Ġpopularity":10013,"stac":10014,"ĠLas":10015,"adays":10016,"Ġwins":10017,"Ġcontacts":10018,"ĠJones":10019,"ĠEX":10020,"Ġ1970":10021,"Ġbeaches":10022,"ĠReser":10023,"wich":10024,"Ġcyber":10025,"Ġtemplate":10026,"Ġsilly":10027,"ĠEver":10028,"Ġdisorders":10029,"Ġworship":10030,"Ġcrack":10031,"Ġflower":10032,"Ġneat":10033,"Ġ1000":10034,"Ġextraordinary":10035,"Ġtesti":10036,"ĠAsian":10037,"Want":10038,"ĠTele":10039,"mpire":10040,"Ġimagination":10041,"American":10042,"06":10043,"Ġangle":10044,"Ġelegant":10045,"Ġcomic":10046,"Ġhungry":10047,"Ġsupple":10048,"Ġhoney":10049,"Ġtoilet":10050,"som":10051,"Lea":10052,"Ġwitness":10053,"scent":10054,"sert":10055,"Ġentrepreneurs":10056,"Ġhomeless":10057,"ĠTal":10058,"lee":10059,"scribing":10060,"Ġdesigning":10061,"Ġrefused":10062,"Ġdeclared":10063,"ĠRan":10064,"ĠFun":10065,"ĠDespite":10066,"iries":10067,"Ġkilo":10068,"nors":10069,"Ġdiscounts":10070,"Ġsettlement":10071,"Cur":10072,"ĠJohnson":10073,"Ġservers":10074,"ĠBox":10075,"ĠYears":10076,"cia":10077,"wil":10078,"ĠBirth":10079,"Ġhorses":10080,"ative":10081,"Ġener":10082,"ĠDaily":10083,"Ġtablet":10084,"UM":10085,"interest":10086,"Ġcoat":10087,"Ġsubscri":10088,"ĠWilliam":10089,"Ġinstrument":10090,"Ġguides":10091,"ĠEli":10092,"Ġjewelry":10093,"sea":10094,"Ġboyfriend":10095,"ansas":10096,"isk":10097,"irls":10098,"Ġdiscovery":10099,"59":10100,"Ġrehab":10101,"Ġdiplo":10102,"ĠMP":10103,"udied":10104,"Ġadvised":10105,"vented":10106,"dep":10107,"Ġviolent":10108,"ĠME":10109,"ART":10110,"ifting":10111,"Ġbeef":10112,"wan":10113,"Ġchur":10114,"Best":10115,"Ġclip":10116,"ĠOhio":10117,"ĠGarden":10118,"Tr":10119,"Comp":10120,"[âĢ¦]":10121,"Ġtar":10122,"Ġnicely":10123,"ĠHA":10124,"Ġarchitect":10125,"High":10126,"Ġsuite":10127,"esth":10128,"inch":10129,"Ġhel":10130,"Ġconfidential":10131,"Ġstability":10132,"Ġtheatre":10133,"Ġcelebrating":10134,"Ġrealistic":10135,"nate":10136,"Ġabund":10137,"Ġmanip":10138,"ĠGuard":10139,"minate":10140,"weet":10141,"ttered":10142,"Ġnavigate":10143,"Ġworkforce":10144,"Ġpractitio":10145,"entine":10146,"ĠBaby":10147,"Ġwaters":10148,"Try":10149,"Ġvirus":10150,"ĠPDF":10151,"any":10152,"Ġrepresented":10153,"ĠThea":10154,"utor":10155,"03":10156,"ĠGirl":10157,"Ġdrove":10158,"Ġacknowledge":10159,"%,":10160,"nam":10161,"Ġremembered":10162,"Ġthrilled":10163,"Ġ99":10164,"Ġkinda":10165,"Ġshed":10166,"Ġsupporters":10167,"Ġawful":10168,"Ġquantity":10169,"Ġsilence":10170,"Ġbalanced":10171,"Ġexamination":10172,"ĠBru":10173,"Ġbits":10174,"Ġsake":10175,"Ġhill":10176,"Ġassignment":10177,"ĠHi":10178,"gov":10179,"person":10180,"tery":10181,"Ġlanding":10182,"02":10183,"Ġfantasy":10184,"ĠCance":10185,"Ħ¢":10186,"ĠWild":10187,"assment":10188,"Ġaller":10189,"Ġfence":10190,"fire":10191,"Ġreleases":10192,"Ġactors":10193,"Ġina":10194,"ĠCountry":10195,"Ġpsychological":10196,"terna":10197,"Ġhorror":10198,"ĠHot":10199,"zens":10200,"Ġlip":10201,"ĠIrish":10202,"Ġderi":10203,"Ġthrowing":10204,"ĠJava":10205,"satell":10206,"2013":10207,"gori":10208,"Ġfifth":10209,"Ġaudit":10210,"store":10211,"commerce":10212,"ĠHT":10213,"Ġmarijuana":10214,"ĠAccount":10215,"Ġendea":10216,"tutes":10217,"Ġ42":10218,"ĠVisi":10219,"lear":10220,"ĠPhys":10221,"Ġpulling":10222,"Ġoverseas":10223,"ighter":10224,"Ġhorrible":10225,"Ġwrap":10226,"ĠNon":10227,"Ġpermitted":10228,"ĠSystems":10229,"Ġenl":10230,"Life":10231,"Ġpasses":10232,"Ġwooden":10233,"dles":10234,"Ġachievement":10235,"inu":10236,"Ġwage":10237,"ĠStory":10238,"Ġconditioning":10239,"aur":10240,"Ġarguments":10241,"ĠTi":10242,"Ġwashing":10243,"Ġadoption":10244,"Ġ:-)":10245,"dth":10246,"ĠDI":10247,"Ġsubsequent":10248,"perty":10249,"bul":10250,"ĠHarry":10251,"Ġstudied":10252,"ĠVisit":10253,"uc":10254,"ĠSports":10255,"aska":10256,"Ġdressed":10257,"Ġ800":10258,"ĠARE":10259,"ĠKind":10260,"ĠMet":10261,"Ġfolder":10262,"Ġcruise":10263,"Ġdisabilities":10264,"Ġunnecess":10265,"ĠOS":10266,"Ġacquired":10267,"Ġeffectiveness":10268,"Ġlone":10269,"acco":10270,"ĠConf":10271,"tteries":10272,"ronto":10273,"ĠEnt":10274,"Ġhandled":10275,"Ġdepartments":10276,"ĠFord":10277,"ĠBetter":10278,"Ġstakeholders":10279,"ĠMs":10280,"Ġlips":10281,"rted":10282,"67":10283,"Ġalternatives":10284,"Ġinstruments":10285,"Ġphysician":10286,"Ġconstitution":10287,"Ġ39":10288,"Ġconvert":10289,"Ġamp":10290,"Ġtourist":10291,"ĠPatr":10292,"Ġscratch":10293,"ĠMatt":10294,"Christ":10295,"Ġdisse":10296,"Using":10297,"Ġburden":10298,"Ġadorable":10299,"Ġunin":10300,"mester":10301,"ĠCast":10302,"ĠBreak":10303,"formance":10304,"Ġremoving":10305,"issa":10306,"ĠLeg":10307,"Ġundo":10308,"Ġclue":10309,"Ġfoster":10310,"Ġexpanding":10311,"Ġinvestigate":10312,"Ġfridge":10313,"Ġward":10314,"Ġreferences":10315,"Ġpainted":10316,"Ġtricks":10317,"ĠRoman":10318,"Ġbackup":10319,"ĠFla":10320,"Ġcopyright":10321,"Ġnewest":10322,"ĠLim":10323,"apore":10324,"Ġpotatoes":10325,"Ġsuggestion":10326,"odi":10327,"Ġwildlife":10328,"Ġresulted":10329,"bro":10330,"Ġbeautifully":10331,"Ġconsulting":10332,"Ġenjo":10333,"Ġpig":10334,"ĠHopefully":10335,"Ġgirlfriend":10336,"âĦ¢":10337,"04":10338,"Ġdeciding":10339,"ĠLeader":10340,"Ġfiscal":10341,"Ġprayers":10342,"Ġmeters":10343,"Ġutilize":10344,"ĠBon":10345,"Ġalert":10346,"Ġconsult":10347,"cently":10348,"Ġunr":10349,"Ġattempting":10350,"utical":10351,"uster":10352,"Ġsigh":10353,"Ġhired":10354,"Ġadmission":10355,"zes":10356,"Ġjudgment":10357,"ony":10358,"Ġ1999":10359,"vic":10360,"Ġarmed":10361,"rome":10362,"Ã¢":10363,"Ġgan":10364,"Ġinvolvement":10365,"Ġearnings":10366,"Ġtomatoes":10367,"Ġappointed":10368,"Ġvotes":10369,"Ġsequence":10370,"Ġretired":10371,"worthy":10372,"ĠSelf":10373,">>":10374,"Ġpublicly":10375,"Ġforums":10376,"Ġgardens":10377,"Ġestimates":10378,"Ġdirt":10379,"ĠCommon":10380,"las":10381,"Ġreminds":10382,"Ġoutdoors":10383,"ĠRef":10384,"mothe":10385,"PC":10386,"Ġwelcoming":10387,"Ġfired":10388,"Ġdeva":10389,"Ġfri":10390,"ĠDead":10391,"Ġobstac":10392,"Ġcareers":10393,"Ġsatell":10394,"ĠBul":10395,"solid":10396,"Ġhomework":10397,"Ġhealthier":10398,"kends":10399,"Contact":10400,"Fa":10401,"Ġstrengthen":10402,"toy":10403,"ĠMrs":10404,"ote":10405,"Ġtreating":10406,"arest":10407,"Ġuncomfortable":10408,"uston":10409,"ĠDownload":10410,"party":10411,"Ġphenome":10412,"Ġcrush":10413,"Ġsteam":10414,"Ġneces":10415,"Ġcarpet":10416,"Gu":10417,"Ġbacteria":10418,"Ġoldest":10419,"Ob":10420,"Ġutility":10421,"Ġfinest":10422,"Ġ120":10423,"twi":10424,"ĠDar":10425,"Â°":10426,"Ġoperators":10427,"Pol":10428,"Ġbatt":10429,"Ġspouse":10430,"mother":10431,"ĠSorry":10432,"IVE":10433,"Ġmild":10434,"\\\\":10435,"ĠBow":10436,"!).":10437,"Ġdigest":10438,"68":10439,"conscious":10440,"Ġchairs":10441,"Ġloaded":10442,"ĠPrice":10443,"rug":10444,"Ġchips":10445,"ĠAirport":10446,"ĠRun":10447,"ĠGO":10448,"Ġapartments":10449,"iox":10450,"Ġcondo":10451,"ĠFact":10452,"Ġdistributed":10453,"ĠCredit":10454,"Vis":10455,"Ġsuits":10456,"logists":10457,"Ġrebu":10458,"Ġvine":10459,"ulta":10460,"Ġurge":10461,"ĠIce":10462,"Ġbottles":10463,"Ġlaundry":10464,"Ġsituated":10465,"ĠAgreement":10466,"ĠGeorgia":10467,"ĠðŁĺī":10468,"Ġcorporations":10469,"Ġroots":10470,"Ġconversion":10471,"98":10472,"nny":10473,"Ġexpanded":10474,"thy":10475,"Art":10476,"Ġimplementing":10477,"ttor":10478,"dic":10479,"ÂĴ":10480,"ĠBre":10481,"Ġintervention":10482,"Ġhun":10483,"Ġstamp":10484,"ĠDemocrats":10485,"depth":10486,"ĠNov":10487,"Ġinvention":10488,"ĠAction":10489,"Ġcultures":10490,"Ġharmful":10491,"abling":10492,"ĠConstitution":10493,"ndrome":10494,"Ġproposals":10495,"ĠPakis":10496,"Ġdonate":10497,"ifferent":10498,"Ġcaptured":10499,"Ġapparent":10500,"Ġhorm":10501,"Ġattractions":10502,"Ġthirty":10503,"Ġmovements":10504,"Ġsouthern":10505,"AB":10506,"isure":10507,"Ġexhaust":10508,"proof":10509,"aylor":10510,"Ġtoxic":10511,"Ġcollecting":10512,"Ġalarm":10513,"Ġtub":10514,"Ġenjoys":10515,"Ġhydro":10516,"gne":10517,"commun":10518,"ĠBit":10519,"ttoo":10520,"ĠChapter":10521,"tivity":10522,"Ġobligation":10523,"thew":10524,"dem":10525,"cate":10526,"ĠEastern":10527,"shine":10528,"Ġate":10529,"Ġjur":10530,"Ġcheer":10531,"Ġ95":10532,"Ġexcessive":10533,"ĠIncl":10534,"lix":10535,"Ġhumanity":10536,"Ġlegend":10537,"ĠStop":10538,"Ġwaves":10539,"edge":10540,"Ġpanels":10541,"Ġprescription":10542,"Ġscored":10543,"Ġinsure":10544,"ANT":10545,"vance":10546,"Ġhumor":10547,"Ġresist":10548,"ĠAwards":10549,"ĠLine":10550,"......":10551,"ĠSomething":10552,"Ke":10553,"Ġrecommendation":10554,"step":10555,"âĤ¬":10556,"Ġshelter":10557,"Ġimpacts":10558,"pture":10559,"gation":10560,"Âł":10561,"Ġarise":10562,"Ġbugs":10563,"riving":10564,"obe":10565,"Ġpenalty":10566,"sq":10567,"Ġshapes":10568,"venues":10569,"Ġdiscre":10570,"Ġmedic":10571,"Ġpriced":10572,"ĠKong":10573,"sually":10574,"Bea":10575,"Ġspray":10576,"Ġtoy":10577,"Ġbuttons":10578,"Ġretailers":10579,"Ġartificial":10580,"grounds":10581,"tune":10582,"Ġplacing":10583,"Ġintim":10584,"Ġembrace":10585,"shirt":10586,"Ġcafe":10587,"Ġtuned":10588,"Ġreferring":10589,"Ġmouse":10590,"Ġstolen":10591,"Ġtune":10592,"pract":10593,"97":10594,"Ġwarming":10595,"Ġspecialized":10596,"Ġsteady":10597,"Ġretain":10598,"wering":10599,"ilto":10600,"Ġstays":10601,"Ġreb":10602,"normal":10603,"Ġbooked":10604,"Ġadm":10605,"ĠDiego":10606,"gated":10607,"Ġcoord":10608,"Ġceiling":10609,"Ġaccuracy":10610,"Ġstab":10611,"OME":10612,"gni":10613,"eable":10614,"Ġhoped":10615,"Ġpersonalized":10616,"Ġcrap":10617,"grams":10618,"igious":10619,"Ġfert":10620,"Ġlibr":10621,"ĠArticle":10622,"Ġhorizo":10623,"CD":10624,"Ġlemon":10625,"Ġappreciation":10626,"ĠMat":10627,"sian":10628,"Ġcredits":10629,"Ġsupportive":10630,"ĠThus":10631,"Ġdisplays":10632,"ĠPrivacy":10633,"onest":10634,"Ġduration":10635,"Ġconfirmation":10636,"Its":10637,"ĠEstate":10638,"Ġtechnological":10639,"ĠStudies":10640,"ĠChristians":10641,"mant":10642,"Ġcrafts":10643,"Ġdemocracy":10644,"Ġbake":10645,"ĠAfgha":10646,"arently":10647,"ĠEf":10648,"Ġconfiguration":10649,"Ġintend":10650,"Ġcriticism":10651,"GO":10652,"Ġprecisely":10653,"Ġfacilitate":10654,"Ġconventional":10655,"Ġodds":10656,"Ġdependent":10657,"ĠPerson":10658,"Ġdamages":10659,"ĠSquare":10660,"Ġelderly":10661,"Ġtourism":10662,"ĠCoo":10663,"visor":10664,"Ġrepresentation":10665,"ĠChallenge":10666,"Ġcancel":10667,"ilton":10668,"Ġpollution":10669,"Ġskip":10670,"Ġclever":10671,"Ġsacrif":10672,"Ġtiming":10673,"Ġcircul":10674,"Ġexplaining":10675,"ĠEth":10676,"Ġcontacted":10677,"Ġboots":10678,"Ġeasiest":10679,"ĠBuy":10680,"Ġchop":10681,"Ġsimpl":10682,"Ġpit":10683,"ĠPhil":10684,"ĠEspecially":10685,"Ġwarned":10686,"Ġnegle":10687,"Ġobligations":10688,"ĠOfficer":10689,"ĠBad":10690,"Ġmira":10691,"section":10692,"Ġpatch":10693,"Ġdough":10694,"ĠWilliams":10695,"ĠSingapore":10696,"Ġtender":10697,"Ġcountless":10698,"Ġensures":10699,"Ġboot":10700,"ivals":10701,"Ġcure":10702,"Book":10703,"Ġrefuse":10704,"ardless":10705,"ĠDark":10706,"Ġaccum":10707,"Ġbored":10708,"Ġdive":10709,"ĠAndrew":10710,"sum":10711,"Ġbeings":10712,"ĠCop":10713,"Ġdiscipline":10714,"Ġfitting":10715,"ours":10716,"Ġalig":10717,"Ġconnecting":10718,"game":10719,"Ġpriorities":10720,"ICE":10721,"Join":10722,"Ġproducer":10723,"Ġspeaks":10724,"winning":10725,"sium":10726,"dam":10727,"Ġiso":10728,"ĠSE":10729,"Ġsegment":10730,"ighty":10731,"ĠPoint":10732,"Ġtransmission":10733,"Below":10734,"Ġtrials":10735,"pic":10736,"Ġworthy":10737,"Ġhunt":10738,"ĠFox":10739,"fects":10740,"Ġware":10741,"Ġterritory":10742,"Ġconservative":10743,"Ġbatteries":10744,"Ġconsiderable":10745,"Ġfrozen":10746,"Ġsecrets":10747,"faces":10748,"Should":10749,"Ġstocks":10750,"illen":10751,"elle":10752,"ĠPalest":10753,"Ġvoices":10754,"ĠAsh":10755,"lest":10756,"Li":10757,"Ġcontracto":10758,"arry":10759,"ĠCame":10760,"Ġcontractor":10761,"Ġjunk":10762,"ĠMust":10763,"Ġtrigger":10764,"orch":10765,"ĠWITH":10766,"ĠChampion":10767,"liances":10768,"wave":10769,"Ġraces":10770,"ĠNatural":10771,"Ġvintage":10772,"Ġteens":10773,"ĠInf":10774,"ĠMinne":10775,"ĠWinter":10776,"Ġlocate":10777,"Ġbasics":10778,"nz":10779,"Ġoperated":10780,"dal":10781,"ĠTerms":10782,"Ġfiling":10783,"ĠChair":10784,"Ġmeantime":10785,"Ġartwork":10786,"Ġchef":10787,"Ġantib":10788,"Ġsignature":10789,"HA":10790,"Ġlaughing":10791,"Ġconfusion":10792,"Ġdenied":10793,"Ġcomedy":10794,"Ġhanded":10795,"Ġdrain":10796,"Ġpremier":10797,"ifice":10798,"nium":10799,"Ġbelt":10800,"ALL":10801,"Ġtennis":10802,"Ġtrib":10803,"Ġcandy":10804,"Ġlabo":10805,"poli":10806,"Ġrib":10807,"because":10808,"Ġdozens":10809,"Ġsuperb":10810,"Ġom":10811,"assy":10812,"Ġknife":10813,"Ġalgori":10814,"Ġpredict":10815,"Ġbre":10816,"Ġcomm":10817,"ĠMobile":10818,"ĠSimply":10819,"Ġclimb":10820,"void":10821,"Ġprospects":10822,"ĠColl":10823,"Ġpresidential":10824,"oils":10825,"Ġtowns":10826,"Ġlegacy":10827,"Sm":10828,"Ġannually":10829,"Ġethnic":10830,"ĠWorking":10831,"ĠPsy":10832,"Ġdeserves":10833,"Ġsophisticated":10834,"ule":10835,"ĠPlanning":10836,"ĠBoy":10837,"ĠPrivate":10838,"ĠEasy":10839,"Ġweekends":10840,"Ġinnocent":10841,"Ġcontractors":10842,"ifted":10843,"Ġtreats":10844,"ĠDemocratic":10845,"Ġreme":10846,"Ġwelfare":10847,"Ġfastest":10848,"Ġsilent":10849,"ĠStudent":10850,"Ġagreements":10851,"Ġinvested":10852,"Ġ2020":10853,"Ġwestern":10854,"ĠGreek":10855,"ĠRemo":10856,"taking":10857,"DP":10858,"Ġtear":10859,"150":10860,"rizona":10861,"ĠPeace":10862,"ĠHIV":10863,"ĠMountain":10864,"maker":10865,"Ġbubble":10866,"cision":10867,"Ġrhy":10868,"Ġmothers":10869,"rdering":10870,"Ġtranslation":10871,"ĠMach":10872,"ĠMonth":10873,"ĠGolden":10874,"Ġnail":10875,"Ġheritage":10876,"Ġpreserve":10877,"dney":10878,"Ġtheater":10879,"Ġballs":10880,"woods":10881,"Rese":10882,"Ġadventures":10883,"owed":10884,"Ġpromp":10885,"Ġhiking":10886,"kins":10887,"selling":10888,"hoe":10889,"ĠiPad":10890,"Ġgoodness":10891,"Students":10892,"Ġforecast":10893,"ordering":10894,"Ġreverse":10895,"Ġgarbage":10896,"Ġ1998":10897,"Ġindicates":10898,"boy":10899,"Ġscreening":10900,"Ġcrossed":10901,"ĠAsse":10902,"ĠPA":10903,"die":10904,"Ġdedication":10905,"Ġproducers":10906,"Ġwheels":10907,"78":10908,"guage":10909,"Ġlease":10910,"ĠRepublicans":10911,"Ġlogic":10912,"pters":10913,"Ġniche":10914,"mph":10915,"Ġapplicants":10916,"Ġincorporate":10917,"ĠList":10918,"lating":10919,"Ġpresentations":10920,"Ġoils":10921,"aste":10922,"Ġlimitations":10923,"Ġ85":10924,"itis":10925,"Ġfailing":10926,"AA":10927,"Ġdownloaded":10928,"Ġcelebrated":10929,"ĠPS":10930,"Ġ600":10931,"finitely":10932,"Fe":10933,"Ġcrypto":10934,"slot":10935,"ĠEN":10936,"Ġprincipal":10937,"neously":10938,"tens":10939,"lations":10940,"Ġfrustrating":10941,"Ġfrequency":10942,"Ġcertification":10943,"Ġbom":10944,"vio":10945,"ĠProfessional":10946,"ĠTho":10947,"spel":10948,"after":10949,"Ġbadly":10950,"wind":10951,"Ġattorneys":10952,"Ġstain":10953,"Ġsolely":10954,"ĠToronto":10955,"ĠFeel":10956,"ifest":10957,"250":10958,"twee":10959,"Ġadopt":10960,"Ġunderlying":10961,"Sch":10962,"Ġlegitimate":10963,"Ġprogressive":10964,"ĠBoo":10965,"Ġsnap":10966,"ĠIde":10967,"Ġfriendship":10968,"Ġdistingu":10969,"Ġfeeding":10970,"Ġdirectory":10971,"64":10972,"Ġmagne":10973,"ĠGot":10974,"Ġfunded":10975,"Ġlayers":10976,"Ġindependence":10977,"ĠMiami":10978,"Ġbelong":10979,"Ġasleep":10980,"Ġcustomized":10981,"Ġparad":10982,"ĠSupp":10983,"rmo":10984,"ĠMade":10985,"Tech":10986,"Ġshorter":10987,"ĠRadio":10988,"mpanies":10989,"ĠCR":10990,"ĠFuture":10991,"nya":10992,"stract":10993,"Ġexcellence":10994,"ĠSoftware":10995,"olly":10996,"ĠEmer":10997,"Set":10998,"Ġtourists":10999,"ĠQuality":11000,"ancy":11001,"Ġtouched":11002,"alysis":11003,"ngue":11004,"Ġseas":11005,"Ġsupplements":11006,"viation":11007,"phers":11008,"ringe":11009,"ĠOct":11010,"pat":11011,"''":11012,"mal":11013,"Ġporn":11014,"ĠJeff":11015,"graduate":11016,"umbled":11017,"Ġdestruction":11018,"Ġnod":11019,"ffer":11020,"Ġidentifying":11021,"Ġfears":11022,"sli":11023,"ughters":11024,"unicipal":11025,"Ġrig":11026,"Ġsheets":11027,"Ġrealise":11028,"Ġtasty":11029,"rupted":11030,"ĠEconomic":11031,"Ġexi":11032,"ĠSarah":11033,"Ġnowhere":11034,"Ġselecting":11035,"ĠDivision":11036,"itch":11037,"rowing":11038,"Ġstylish":11039,"Ġexit":11040,"ssy":11041,"ĠLady":11042,"Ġcomplain":11043,"Ġrolled":11044,"Ġprotest":11045,"600":11046,"ref":11047,"ĠHong":11048,"Ġrobust":11049,"Ġforma":11050,"mea":11051,"gge":11052,"Ġentity":11053,"ĠBroth":11054,"Ġcookie":11055,"Ġwanna":11056,"Ġspell":11057,"ĠSmart":11058,"omin":11059,"Ġinstances":11060,"Ġarrangement":11061,"Ġcamping":11062,"Ġslot":11063,"Ġfounder":11064,"Ġchurches":11065,"ĠSign":11066,"ĠHand":11067,"lash":11068,"wre":11069,"tated":11070,"WH":11071,"Ġdelibe":11072,"ĠTro":11073,"Ġkeyboard":11074,"ĠConsu":11075,"Ġvisa":11076,"ĠSeattle":11077,"ĠName":11078,"rowth":11079,"Ġgrants":11080,"owns":11081,"ĠDays":11082,"ĠRome":11083,"ĠMedicine":11084,"ppers":11085,"Ġcoaches":11086,"Ġpiano":11087,"Ġconcluded":11088,"Ġcontributed":11089,"Ġlabour":11090,"Ġaudiences":11091,"plus":11092,"take":11093,"Ġartistic":11094,"writing":11095,"wl":11096,"ĠSM":11097,"Ġsubscribe":11098,"Ġdirectors":11099,"Ġships":11100,"Ġinflation":11101,"ĠMult":11102,"rem":11103,"Ġpeer":11104,"Ġaccepting":11105,"Ġmainstream":11106,"gazines":11107,"Ġaddressing":11108,"Ġfiber":11109,"ĠTR":11110,"Ġsnacks":11111,"hyd":11112,"Ġrenewable":11113,"Ġsubmission":11114,"ĠURL":11115,"ĠPerfect":11116,"Ġfemin":11117,"Ġ64":11118,"fra":11119,"Ġdressing":11120,"Ġconj":11121,"ĠHad":11122,"Ġ1960":11123,"tia":11124,"Ġamazed":11125,"Ġscul":11126,"Based":11127,"Ġsatisfy":11128,"Ġromance":11129,"Ġbol":11130,"Ġtailored":11131,"ĠCapital":11132,"Tea":11133,"Ġaccompanied":11134,"Ġgains":11135,"Ġunnecessary":11136,"Ġmoderate":11137,"Ġmeasured":11138,"umbing":11139,"Ġdealt":11140,"Ġbothe":11141,"Ġcompelling":11142,"Day":11143,"Ġgross":11144,"ators":11145,"ĠPrese":11146,"Ġsymp":11147,"Ġmg":11148,"ears":11149,"arre":11150,"Ġrepresenting":11151,"claimed":11152,"ĠFriends":11153,"Ġpeers":11154,"ĠPet":11155,"Ġharsh":11156,"ĠPl":11157,"Ġcine":11158,"TV":11159,"Ġcenturies":11160,"Ġbeloved":11161,"door":11162,"Ġtwee":11163,"Ġtexture":11164,"Ġmatt":11165,"ĠCi":11166,"nowing":11167,"ource":11168,"gments":11169,"Ġenqu":11170,"system":11171,"2016":11172,"Ġsincer":11173,"Ġni":11174,"Ġenemies":11175,"Again":11176,"Ġrewards":11177,"nest":11178,"rorist":11179,"Ġstraightforward":11180,"riz":11181,"Ġdocumentary":11182,"nials":11183,"ĠTalk":11184,"ĠAccess":11185,"eft":11186,"Ġmarketplace":11187,"ĠArizona":11188,"mitted":11189,"Ġsli":11190,"Ġdrops":11191,"Ġdiscrimination":11192,"Ġfails":11193,"Ġgem":11194,"fairs":11195,"Ġpointing":11196,"ĠCharles":11197,"iter":11198,"ĠIndustry":11199,"Everything":11200,"THE":11201,"burgh":11202,"ĠSad":11203,"Ġpreferences":11204,"Ġmature":11205,"ĠStudy":11206,"Ġgrey":11207,"Ġattempted":11208,"imal":11209,"Ġacceptance":11210,"ĠHouston":11211,"Ġsustainability":11212,"Ġbacked":11213,"post":11214,"icating":11215,"Ġprogrammes":11216,"bots":11217,"Ġsits":11218,"airs":11219,"Ġcardio":11220,"Ġconservation":11221,"Ġdemonstrated":11222,"Ġcouch":11223,"Ġstepped":11224,"Ġours":11225,"spected":11226,"inat":11227,"Ġresponsive":11228,"Ġneutral":11229,"Ġaesth":11230,"Ġsir":11231,"Ġdemanding":11232,"Ġobe":11233,"Quest":11234,"Ġrewarding":11235,"Ġnorthern":11236,"mage":11237,"Ġordering":11238,"ĠTurkey":11239,"Ġcam":11240,"conf":11241,"Ġvibrant":11242,"Ġreasonably":11243,"Ġhosts":11244,"eyo":11245,"Ġcounts":11246,"Ġtastes":11247,"Ġestablishment":11248,"casts":11249,"Ġemerge":11250,"Ġengineer":11251,"Ġpassage":11252,"ĠPack":11253,"Ġhappier":11254,"Ġliver":11255,"Ġshoulders":11256,"stairs":11257,"ĠEmail":11258,"Ġcoconut":11259,"âĢ³":11260,"ĠVillage":11261,"ĠOre":11262,"ĠNice":11263,"onion":11264,"ĠPoli":11265,"vals":11266,"Ġoffensive":11267,"Ġconvince":11268,"Ġblogger":11269,"Ġpays":11270,"Ġspectrum":11271,"ĠConser":11272,"Ah":11273,"Ġsafer":11274,"ĠLatin":11275,"Ġpaintings":11276,"ĠInt":11277,"Ġ49":11278,"âĢ¦..":11279,"Ġpossession":11280,"Ġbrigh":11281,"Ġmonet":11282,"teous":11283,"Ġrefers":11284,"ĠFollow":11285,"Ġsupplier":11286,"Ġseemingly":11287,"Ġsubtle":11288,"ationally":11289,"Ġaffairs":11290,"Ġ47":11291,"Ġfortun":11292,"grade":11293,"Ġreads":11294,"xx":11295,"jor":11296,"Ġmodule":11297,"Ġrug":11298,"ASE":11299,"Ġintu":11300,"Ġtrucks":11301,"verages":11302,"ĠEVER":11303,"ĠSC":11304,"Ġfortunate":11305,"Ġtail":11306,"Ġast":11307,"rone":11308,"Ġoffense":11309,"ĠFinance":11310,"aren":11311,"ĠMind":11312,"Ġsunny":11313,"ï»":11314,"Ġpharm":11315,"69":11316,"ĠCL":11317,"Ġintake":11318,"tire":11319,"ĠGM":11320,"ï»¿":11321,"Ġwallpaper":11322,"ĠLiber":11323,"Ġimplications":11324,"Ġborrow":11325,"piece":11326,"Ġanalyze":11327,"Ġmusicians":11328,"Ġshout":11329,"ĠStation":11330,"Ġlogin":11331,"doned":11332,"Ġmutual":11333,"Ġliberal":11334,"Ġsometime":11335,"ONE":11336,"Ġeconom":11337,"Ġwrapped":11338,"Ġinfla":11339,"closure":11340,"Ġauction":11341,"Ġdropping":11342,"RC":11343,"ĠTips":11344,"ĠBridge":11345,"Ġtroops":11346,"ĠType":11347,"Ġignored":11348,"Ġconfusing":11349,"Ġprospe":11350,"Ġwinds":11351,"Ġnaked":11352,"nically":11353,"ĠWol":11354,"Instead":11355,"km":11356,"Ġroyal":11357,"ckey":11358,"Ġsingles":11359,"ventions":11360,"Ġarranged":11361,"Ġbrave":11362,"vere":11363,"ador":11364,"ndered":11365,"Ġdic":11366,"Ġearning":11367,"Ġappliances":11368,"Ġfranchise":11369,"Ġwellness":11370,"ĠImpo":11371,"Ġlaughed":11372,"Ġbicy":11373,"ĠPot":11374,"Ġconfe":11375,"onions":11376,"Ġspokes":11377,"Ġresolved":11378,"ĠLOL":11379,"Ġcostly":11380,"ĠOil":11381,"ĠSave":11382,"Ġ44":11383,"Ġheal":11384,"Ġmush":11385,"Ġsolving":11386,"aron":11387,"gnitive":11388,"Further":11389,"Ġshade":11390,"abeth":11391,"nea":11392,"around":11393,"ncer":11394,"ĠJun":11395,"ĠMoon":11396,"Ġuniversal":11397,"flow":11398,"raine":11399,"ĠMeeting":11400,"Ġvisito":11401,"pi":11402,"Ġpodcast":11403,"Ġvisitor":11404,"nix":11405,"Ġcolleges":11406,"bally":11407,"oll":11408,"ĠAvenue":11409,"iOS":11410,"LO":11411,"offs":11412,"ongue":11413,"ĀĀĀĀĀĀĀĀĀĀĀĀĀĀĀĀĀĀĀĀĀĀĀĀĀĀĀĀĀĀĀĀĀĀĀĀĀĀĀĀĀĀĀĀĀĀĀĀĀĀĀĀĀĀĀĀĀĀĀĀĀĀĀĀĀĀĀĀĀĀĀĀĀĀĀĀĀĀĀĀĀĀĀĀĀĀĀĀĀĀĀĀĀĀĀĀĀĀĀĀĀĀĀĀĀĀĀĀĀĀĀĀĀĀĀĀĀĀĀĀĀĀĀĀĀĀĀĀĀĀĀĀĀĀĀĀĀĀĀĀĀĀĀĀĀĀĀĀĀĀĀĀĀĀĀĀĀĀĀĀĀĀĀĀĀĀĀĀĀĀĀĀĀĀĀĀĀĀĀĀĀĀĀĀĀĀĀĀĀĀĀĀĀĀĀĀĀĀĀĀĀĀĀĀĀĀĀĀĀĀĀĀĀĀĀĀĀĀĀĀĀĀĀĀĀĀĀĀĀĀĀĀĀĀĀĀĀĀĀĀĀĀĀĀĀĀĀĀĀĀĀĀĀĀĀĀ":11414,"Ġinfections":11415,"Ġdesignated":11416,"ĠHE":11417,"Ġwaited":11418,"Ġpension":11419,"twin":11420,"Ġmakers":11421,"Ġpanic":11422,"Ġgenuinely":11423,"Ġadverse":11424,"inois":11425,"GA":11426,"ickets":11427,"Ġsnack":11428,"Ġteen":11429,"owa":11430,"Ġonion":11431,"ĠTree":11432,"Ġonions":11433,"Ġdisclosure":11434,"Ġviewers":11435,"Ġchor":11436,"ĠANY":11437,"tongue":11438,"rdan":11439,"ĠAnyone":11440,"Ġgrid":11441,"Ġmechanism":11442,"Ġagricultural":11443,"ternity":11444,"Ġbesides":11445,"Ġsquee":11446,"guard":11447,"Clo":11448,"Ġtends":11449,"Ġreserved":11450,"Ġben":11451,"Ġpoetry":11452,"garet":11453,"Ġgluten":11454,"Ġoxy":11455,"ĠAdam":11456,"Second":11457,"vised":11458,"Ġcleaned":11459,"ĠNick":11460,"Ġnarrative":11461,"kens":11462,"Ġexecution":11463,"Ġadvocate":11464,"oz":11465,"Ġconvey":11466,"hoods":11467,"Ġbreathe":11468,"Ġattendance":11469,"Ġacquisition":11470,"Ġbones":11471,"Ġruling":11472,"Ġlegally":11473,"Ġpassenger":11474,"ĠSS":11475,"ĠAttor":11476,"Ġtaxpay":11477,"gles":11478,"dler":11479,"Ġstraw":11480,"ĠGetting":11481,"ĠCancer":11482,"Ġcares":11483,"ĠSydney":11484,"ĠDE":11485,"ĠCOM":11486,"Ġneuro":11487,"ĠCreate":11488,"Ġprie":11489,"Ġsupplied":11490,"bury":11491,"Ġintrigu":11492,"imated":11493,"ĠFac":11494,"ĠRyan":11495,"Ġreactions":11496,"Ġstroke":11497,"Ġpharma":11498,"sibility":11499,"Ġastro":11500,"Ġvalued":11501,"nants":11502,"kind":11503,"ĠChoose":11504,"Ġimpress":11505,"Ġrequiring":11506,"eedom":11507,"Ġreflection":11508,"due":11509,"Ġshell":11510,"Ġdisposal":11511,"Ġassure":11512,"ĠBelow":11513,"Ġneeding":11514,"Ġagriculture":11515,"Ġstressful":11516,"nabis":11517,"Ġindu":11518,"Ġverify":11519,"Ġcotton":11520,"Ġsurviv":11521,"ĠCost":11522,"ĠWis":11523,"Ġcreatures":11524,"Ġintimate":11525,"Ġmeditation":11526,"Ġtension":11527,"backs":11528,"Ġqualities":11529,"Ġsink":11530,"ĠOl":11531,"Ġsweat":11532,"Ġdrag":11533,"Ġgiveaway":11534,"ĠGue":11535,"Ġjacket":11536,"pho":11537,"ĠRay":11538,"Ġbroadcast":11539,"Sure":11540,"ĠDeath":11541,"dale":11542,"Ġreveals":11543,"Ġmodified":11544,"58":11545,"Ġclimbing":11546,"holder":11547,"IE":11548,"Ġethical":11549,"Ġsisters":11550,"ĠHR":11551,"57":11552,"Ġmel":11553,"ĠSex":11554,"Ġjam":11555,"ĠBB":11556,"nizing":11557,"Ġgaining":11558,"Ġvaried":11559,"Ġacres":11560,"Ġradical":11561,"Ġthrew":11562,"Ġmere":11563,"minded":11564,"Ġbitter":11565,"Ġexport":11566,"Ġsenti":11567,"effective":11568,"Ġtrim":11569,"gling":11570,"Ġaging":11571,"Ġprofound":11572,"Ġeducate":11573,"pl":11574,"Ġdevasta":11575,"Ġcollections":11576,"Ġtire":11577,"Ġtags":11578,"Ġoperator":11579,"kward":11580,"Ġposter":11581,"nite":11582,"Ġobserve":11583,"ĠInno":11584,"vania":11585,"pensive":11586,"ĠUk":11587,"ificent":11588,"ECT":11589,"greg":11590,"oste":11591,"ssert":11592,"ram":11593,"ĠChee":11594,"ĠBody":11595,"ĠLeave":11596,"ĠForest":11597,"ceutical":11598,"Ġfold":11599,"Ġgrows":11600,"Ġcrying":11601,"cony":11602,"berries":11603,"ĠNature":11604,"tted":11605,"IST":11606,"rapy":11607,"Ġratings":11608,"Ġboundaries":11609,"ĠClin":11610,"***":11611,"dr":11612,"Ġseller":11613,"ĠResources":11614,"Ġautomated":11615,"dees":11616,"nius":11617,"Ġreserves":11618,"ĠNone":11619,"urious":11620,"Ġcm":11621,"Ġmagazines":11622,"note":11623,"Ġdetermination":11624,"Meanwhile":11625,"Ġsuited":11626,"chand":11627,"ITY":11628,"TC":11629,"ĠDrive":11630,"Anyone":11631,"Ġsatellite":11632,"Ġbuff":11633,"Ġplacement":11634,"Ġtongue":11635,"Ġmechanical":11636,"amin":11637,"uver":11638,"ĠProduct":11639,"sso":11640,"Ġrocks":11641,"Ġbargain":11642,"Ġcorruption":11643,"Ġcups":11644,"Ġinteractions":11645,"omation":11646,"ilipp":11647,"ĠCAN":11648,"ĠBirthday":11649,"FA":11650,"Ġmatching":11651,"ĠParliament":11652,"ALLY":11653,"Ġdestinations":11654,"spread":11655,"Ġexclusively":11656,"Ġdentist":11657,"ĠPub":11658,"Ġunemployment":11659,"dents":11660,"Ġlocks":11661,"Ġjudges":11662,"Ġft":11663,"Ġcapability":11664,"Ġwitnes":11665,"Ġjuris":11666,"Ġstressed":11667,"Ġlyrics":11668,"Following":11669,"Ġinstalling":11670,"bea":11671,"Simp":11672,"ilation":11673,"Ġaffiliate":11674,"Ġfootage":11675,"click":11676,"Ġbarriers":11677,"Ġlazy":11678,"uct":11679,"2015":11680,"Ġpaste":11681,"Ġbust":11682,"Ġcosme":11683,"xe":11684,"Ġtattoo":11685,"ĠEnvironmental":11686,"check":11687,"Ġsmiled":11688,"Ġcloset":11689,"Ġunderstands":11690,"ĠDog":11691,"Ġprospective":11692,"Ġafterwards":11693,"Ġjumped":11694,"UD":11695,"Ġshy":11696,"Ġcum":11697,"vard":11698,"Ġlawn":11699,"Ġbasement":11700,"nsure":11701,"alers":11702,"prises":11703,"Yet":11704,"Ġsimulta":11705,"ĠJoin":11706,"break":11707,"Ġrelatives":11708,"Ġleisure":11709,"ĠBroad":11710,"ĠEr":11711,"aa":11712,"ĠDoctor":11713,"ĠSale":11714,"ĠKent":11715,"istical":11716,"Ġclosest":11717,"titled":11718,"Ġoverlook":11719,"Could":11720,"Ġmum":11721,"Ġseam":11722,"ĠComputer":11723,"Ġauthorized":11724,"Ġdisappear":11725,"Ġenroll":11726,"ĠMembers":11727,"ĠValentine":11728,"Ġtransferred":11729,"Ġenthusiasm":11730,"ĠiOS":11731,"Ġeducated":11732,"changing":11733,"Ġfluid":11734,"Ask":11735,"Ġclaiming":11736,"Ġpublications":11737,"Ga":11738,"âĨ":11739,"Ġappealing":11740,"linary":11741,"Ġhike":11742,"Ġshocked":11743,"Ġugly":11744,"Three":11745,"Ġincorrect":11746,"Ġlap":11747,"Ġtwin":11748,"pack":11749,"ahoo":11750,"Ġexter":11751,"minals":11752,"ĠJane":11753,"ĠBath":11754,"Pal":11755,"season":11756,"ĠCen":11757,"Ġglory":11758,"Top":11759,"love":11760,"Ġstem":11761,"neath":11762,"function":11763,"ĠOcean":11764,"Ġtwi":11765,"ĠDave":11766,"til":11767,"Ġyield":11768,"ĠFilm":11769,"jud":11770,"Ġgotta":11771,"Ġcooling":11772,"vents":11773,"pel":11774,"ĠSix":11775,"Ġchip":11776,"Ġlaser":11777,"Ġbulk":11778,"ji":11779,"ĠSilver":11780,"Ġabandoned":11781,"Ġhiding":11782,"liest":11783,"Ġthroa":11784,"ricane":11785,"Ġtube":11786,"Ġcharging":11787,"ĠMont":11788,"Ġhazard":11789,"ĠExperience":11790,"ĠLED":11791,"Ġstairs":11792,"Ġvolunt":11793,"quarters":11794,"noun":11795,"FC":11796,"Ġreceipt":11797,"ĠSay":11798,"Ġtheft":11799,"Ġmud":11800,"oop":11801,"inson":11802,"istered":11803,"Ġbund":11804,"Ġconsultant":11805,"ĠBBC":11806,"Ġsemester":11807,"Ġpromising":11808,"ĠTony":11809,"Ġtactics":11810,"Ġtreasure":11811,"Ġ43":11812,"Ġidentification":11813,"Ġproduces":11814,"acu":11815,"Ġbrowsing":11816,"PD":11817,"ĠCamb":11818,"Ġcharming":11819,"tod":11820,"Ġgrades":11821,"Ġsoccer":11822,"Ġprofiles":11823,"Ġenabling":11824,"Ġblast":11825,"ylvania":11826,"Ġflip":11827,"tower":11828,"ĠSyria":11829,"Ġincur":11830,"Ġ1997":11831,"Ġcomposition":11832,"pered":11833,"Ġtablets":11834,"ĠWars":11835,"Ġhence":11836,"ĠPH":11837,"Ġguided":11838,"Ġcope":11839,"Ġ46":11840,"Ġreadily":11841,"Ġpreventing":11842,"ĠSenior":11843,"Ġranked":11844,"Ġbrid":11845,"ĠApplication":11846,"Ġthroat":11847,"Ġpatio":11848,"Ġcircuit":11849,"ĠNFL":11850,"natural":11851,"Ġrobot":11852,"Ġcontributing":11853,"Ġdrunk":11854,"bet":11855,"Ġfed":11856,"obacco":11857,"especially":11858,"Ġroutes":11859,"Ġbathrooms":11860,"Ġinsa":11861,"Ġprominent":11862,"Ġprizes":11863,"ĠPakistan":11864,"ĠFoot":11865,"Play":11866,"Ġcontroversi":11867,"zabeth":11868,"Ġknock":11869,"ivities":11870,"Ġgently":11871,"allas":11872,"ĠTaylor":11873,"Ġbeneath":11874,"pur":11875,"ĠAlexa":11876,"Ġhomeowners":11877,"datory":11878,"BO":11879,"Ġmetr":11880,"iffs":11881,"Ġlistened":11882,"Ġshine":11883,"Ġcant":11884,"56":11885,"Ġmetre":11886,"Ġincidents":11887,"Ġprofitable":11888,"ĠBeautiful":11889,"Ġconferences":11890,"Ġmarry":11891,"shes":11892,"mount":11893,"Ġcontinually":11894,"CL":11895,"Ġdesires":11896,"ĠCentury":11897,"Ġassembly":11898,"Nice":11899,"Ġofferings":11900,"Ġdevoted":11901,"Help":11902,"Ġtomato":11903,"Ġpris":11904,"boards":11905,"Ġconcentration":11906,"ĠWonder":11907,"ĠColumbia":11908,"lve":11909,"Ġtempo":11910,"Ġdaughters":11911,"Ġreservation":11912,"Ġsized":11913,"nato":11914,"Ġdes":11915,"Ġworries":11916,"Ġstrengths":11917,"Ġuniform":11918,"Ġexplicit":11919,"ighters":11920,"inato":11921,"Ġawake":11922,"space":11923,"ĠStock":11924,"bie":11925,"Ġcompanion":11926,"Ġaffecting":11927,"Ġdash":11928,"Ġ....":11929,"Ġexecutives":11930,"Down":11931,"FF":11932,"Work":11933,"ĠBrow":11934,"ĠBall":11935,"Ġpraise":11936,"Ġ52":11937,"tcher":11938,"Ġcarries":11939,"ione":11940,"mouth":11941,"ĠAut":11942,"Ġlabels":11943,"Ġcompeting":11944,"ĠVietnam":11945,"teral":11946,"ĠKorean":11947,"ĠSA":11948,"Ġdurable":11949,"ĠAnaly":11950,"Ġmit":11951,"ctoral":11952,"Ġtende":11953,"ĠKar":11954,"sort":11955,"ĠMY":11956,"Ġclarity":11957,"toll":11958,"udio":11959,"ĠMetro":11960,"ĠBring":11961,"Ġrejected":11962,"Ġshipped":11963,"Ġpile":11964,"Ġnutrients":11965,"Ġcatching":11966,"ĠIllinois":11967,"Ġstrip":11968,"ĠAdditionally":11969,"Ġapproaching":11970,"ĠOP":11971,"ĠUser":11972,"ĠProducts":11973,"ĠBrian":11974,"Ġversus":11975,"Ġmold":11976,"Ġstreaming":11977,"Ġassociate":11978,"bound":11979,"IGHT":11980,"Put":11981,"Their":11982,"Ġscholarship":11983,"Ġwoods":11984,"arer":11985,"emed":11986,"Ġcabin":11987,"fted":11988,"Ġconsume":11989,"Ġpremises":11990,"inda":11991,"Ġassumed":11992,"Ġ1996":11993,"Ġlounge":11994,"Ġmodify":11995,"Ġsteal":11996,"overnment":11997,"Ġfought":11998,"tid":11999,"eyon":12000,"Ġshadow":12001,"Ġtrails":12002,"Ġdup":12003,"Ġcontinuously":12004,"ĠNumber":12005,"Ġkiller":12006,"Ġterrorist":12007,"Ġexhibi":12008,"Ġfatal":12009,"Ġgradually":12010,"Enjoy":12011,"Ġveterans":12012,"Ġrab":12013,"Ġexhibit":12014,"Ġanonymous":12015,"Ġapplicant":12016,"Ġjumping":12017,"Ġdetect":12018,"obody":12019,"utter":12020,"Ġthy":12021,"CS":12022,"Ġprivilege":12023,"ĠWarr":12024,"87":12025,"solutely":12026,"ida":12027,"belie":12028,"nistan":12029,"Ġpartnerships":12030,"Ġviolation":12031,"Ġawkward":12032,"Ġreflects":12033,"yp":12034,"isode":12035,"mato":12036,"Ġoperates":12037,"Ġpickup":12038,"Ġwages":12039,"Ġembed":12040,"Med":12041,"Ġdeparture":12042,"Ġalleg":12043,"Ġaccompany":12044,"nsylvania":12045,"tv":12046,"ĠStone":12047,"bering":12048,"ĠTreat":12049,"Ġdispute":12050,"Ġenhanced":12051,"Ġempower":12052,"Ġblank":12053,"Tru":12054,"Ġdistur":12055,"Ġtricky":12056,"ĠCust":12057,"ĠWales":12058,"eyond":12059,"ĠFive":12060,"Ġdisad":12061,"Ġmole":12062,"pool":12063,"alaxy":12064,"uckily":12065,"link":12066,"ĠGor":12067,"ĠDNA":12068,"Ġhumble":12069,"Ġlovers":12070,"Gra":12071,"Ġpose":12072,"Ġprescribed":12073,"ĠIndiana":12074,"Ġlecture":12075,"ĠMagazine":12076,"Dear":12077,"ĠMayo":12078,"Ġrated":12079,"inator":12080,"ĠConsider":12081,"Ġshore":12082,"lamic":12083,"rtant":12084,"Ġunfor":12085,"claim":12086,"Ġsoap":12087,"Ġtransparency":12088,"Ġinsis":12089,"Ġfue":12090,"Ġlawsuit":12091,"Ġscreens":12092,"Ġbelonging":12093,"vatives":12094,"Ġrelo":12095,"ĠLeo":12096,"cies":12097,"Ġcrop":12098,"Ġrefere":12099,"Ġresi":12100,"bye":12101,"ĠMoto":12102,"Ġprinter":12103,"Ġoccasional":12104,"ĠProperty":12105,"ĠMaking":12106,"Ġexploration":12107,"Ġanswering":12108,"ables":12109,"tration":12110,"Ġlover":12111,"cession":12112,"ĠCam":12113,"Ġpreview":12114,"Ġimport":12115,"Ġinterpretation":12116,"ĠBesides":12117,"ĠFinally":12118,"Ġharvest":12119,"Ġlogical":12120,"ĠSomeone":12121,"diction":12122,"gets":12123,"bean":12124,"Ġmetab":12125,"Ġparameters":12126,"2012":12127,"Ġimmigrants":12128,"PL":12129,"Ġcontainers":12130,"Ġinvas":12131,"rows":12132,"ott":12133,"nerally":12134,"Ġinvitation":12135,"quake":12136,"Ġsocio":12137,"Ġshelf":12138,"ĠOregon":12139,"Ġconsolid":12140,"Ġnotion":12141,"Ġunlimited":12142,"Ġgraduated":12143,"Ġtwist":12144,"89":12145,"Ġ41":12146,"Ġwarrant":12147,"Need":12148,"Ġdarkness":12149,"Nothing":12150,"Ġdem":12151,"Rep":12152,"sory":12153,"ifer":12154,"Ġutter":12155,"writer":12156,"Ġaudi":12157,"Ġsuggesting":12158,"ome":12159,"Ġtransit":12160,"Ġgram":12161,"Ġmall":12162,"ĠHear":12163,"Ġkis":12164,"ncially":12165,"father":12166,"Ġjury":12167,"ĠFR":12168,"ĠAuthority":12169,"Ġworlds":12170,"Lon":12171,"Ġhey":12172,"haha":12173,"Ġappointments":12174,"ek":12175,"Ġdetermining":12176,"Ġloop":12177,"Ġsurprisingly":12178,"gmail":12179,"ĠWhatever":12180,"isted":12181,"Ġnotification":12182,"Ġrepeatedly":12183,"Ġmethodo":12184,"Ġtransparent":12185,"cke":12186,"Ġfate":12187,"Research":12188,"Ġdessert":12189,"Ġthreatened":12190,"nisms":12191,"Ġindividually":12192,"Ġ(âĢľ":12193,"Ġtod":12194,"Ġjournalists":12195,"Ġalbums":12196,"Ġmanifest":12197,"fere":12198,"ĠJews":12199,"ĠUntil":12200,"Ġobtaining":12201,"Ġrounds":12202,"Ġdelivers":12203,"ĠDirect":12204,"ĠAI":12205,"ĠProfessor":12206,"Ġbonds":12207,"robe":12208,"Ġanticipated":12209,"ustic":12210,"Ġnegotiations":12211,"Ġdesert":12212,"mia":12213,"Ġtalents":12214,"Ġcorporation":12215,"ease":12216,"Ġrings":12217,"iatric":12218,"ĠOtherwise":12219,"corn":12220,"Such":12221,"ĠForum":12222,"ĠConvention":12223,"Ġmise":12224,"neous":12225,"pal":12226,"Ġinstructor":12227,"ĠBrook":12228,"ĠGirls":12229,"ĠExpress":12230,"Ġreplacing":12231,"Ġperception":12232,"Ġportable":12233,"ilitation":12234,"Overall":12235,"dens":12236,"Ġrecruitment":12237,"Ġnonprofit":12238,"ĠAttorney":12239,"Ġreceives":12240,"Ġassuming":12241,"ĠEst":12242,"Ġabortion":12243,"Ġshowcase":12244,"Prof":12245,"Ġcarrier":12246,"Ġbikes":12247,"Ġboats":12248,"ĠAppro":12249,"Ġassemble":12250,"Ġprints":12251,"Ġties":12252,"WE":12253,"igue":12254,"qual":12255,"Ġbun":12256,"Ġdramatically":12257,"Ġsons":12258,"Ġfreelance":12259,"Ġgest":12260,"brid":12261,"Ġparalle":12262,"Ġpacking":12263,"Ġcompact":12264,"Ġpromotional":12265,"gined":12266,"Ġsecured":12267,"Ġpreced":12268,"Ġcomplexity":12269,"sota":12270,"Ġseparated":12271,"Ġincon":12272,"icken":12273,"ĠHawa":12274,"Ġrh":12275,"NE":12276,"ematics":12277,"ĠPL":12278,"illance":12279,"52":12280,"Ġdiscretion":12281,"mense":12282,"Mich":12283,"ĠPalestin":12284,"Ġhuma":12285,"alous":12286,"iants":12287,"Ġfreely":12288,"ĠWILL":12289,"Ġsq":12290,"Ġfacebook":12291,"asters":12292,"Ġfon":12293,"Ġ360":12294,"zi":12295,"Ġseasonal":12296,"Ġhomemade":12297,"Ġentities":12298,"Ġkiss":12299,"Ġterrific":12300,"Ġembra":12301,"ĠONE":12302,"ooms":12303,"Ġdumb":12304,"Ġalumin":12305,"Ġkeywords":12306,"ĠInterest":12307,"Ġhappily":12308,"ĠPrin":12309,"wanted":12310,"Ġparticipated":12311,"Ġdairy":12312,"Ġmaker":12313,"ĠAssembly":12314,"ĠIslam":12315,"ĠAfghanistan":12316,"ĠYouth":12317,")?":12318,"ĠAnt":12319,"Ġpractically":12320,"Ġrestricted":12321,"Ġgratitude":12322,"Ġdeemed":12323,"Ġcharm":12324,"Ġstereo":12325,"holds":12326,"ĠWays":12327,"Ġflavour":12328,"ĠFit":12329,"Ġappropri":12330,"Ġavoiding":12331,"Ġlocals":12332,"fold":12333,"Ġmagnificent":12334,"Ġanalytics":12335,"ĠWriting":12336,"roe":12337,"Ġachievements":12338,"Ġattracted":12339,"Ġglance":12340,"sets":12341,"ĠOrigin":12342,"Ġthumb":12343,"ĠStandard":12344,"Ġmask":12345,"ĠFarm":12346,"covery":12347,"cep":12348,"nator":12349,"Ġtoll":12350,"Ġcoupon":12351,"Ġarbi":12352,"fulness":12353,"Ġshorta":12354,"Ġzip":12355,"Ġtwelve":12356,"Ġmm":12357,"ĠActually":12358,"Ġeaten":12359,"ĠKevin":12360,"Ġtower":12361,"Ġtraged":12362,"Ġelectro":12363,"ĠPhila":12364,"sidents":12365,"Ġvegan":12366,"Ġpaths":12367,"Pay":12368,"bourne":12369,"ĠStaff":12370,"chain":12371,"Ġgal":12372,"delph":12373,"Ġjar":12374,"ras":12375,"Sen":12376,"ĠSide":12377,"ĠIsraeli":12378,"ĠAppe":12379,"Ġvenues":12380,"],":12381,"ĠPartner":12382,"wart":12383,"ĠWik":12384,"Ġconstructed":12385,"Ġlistings":12386,"Ġhassle":12387,"asant":12388,"trans":12389,"Ġdefeat":12390,"Ġfundraising":12391,"Ġrespected":12392,"Sta":12393,"Ġmailing":12394,"igorous":12395,"ĠPhilipp":12396,"ACT":12397,"Ġimpla":12398,"Ġinclusive":12399,"Ġsignals":12400,"Ġfuneral":12401,"Ġsummar":12402,"Ġwelcomed":12403,"Ġnewspapers":12404,"ĠFred":12405,"Ġcommiss":12406,"building":12407,"Ġoptimal":12408,"ICK":12409,"?âĢĻ":12410,"Ġmetro":12411,"Ġscam":12412,"Think":12413,"Ġrefreshing":12414,"Ġtrauma":12415,"Ġcomplimentary":12416,"iating":12417,"ĠConsul":12418,"Getting":12419,"ummer":12420,"Ġestablishing":12421,"ĠBooks":12422,"Ġattraction":12423,"Ġcollaborative":12424,"Ġmandatory":12425,"eens":12426,"Ġsolved":12427,"Ġmerchand":12428,"Sy":12429,"ĠRestaur":12430,"happy":12431,"Ġfinances":12432,"Ġfolk":12433,"Ġregarded":12434,"ĠHenry":12435,"Ġmayo":12436,"Ġimmense":12437,"Ġfunctioning":12438,"Ġencourages":12439,"Ġrecycling":12440,"genous":12441,"Ġrever":12442,"ĠStat":12443,"early":12444,"Ġsmoothly":12445,"vanced":12446,"Ġveteran":12447,"Ġpicks":12448,"ĠDaniel":12449,"Ġstriking":12450,"Ġbalcony":12451,"79":12452,"Ġbanned":12453,"ĠMORE":12454,"torn":12455,"workers":12456,"Ġbrut":12457,"Ġpoker":12458,"henever":12459,"aria":12460,"Ġsubstitute":12461,"Ġstartup":12462,"Ġwore":12463,"Ġunf":12464,"Ġdefensive":12465,"Tu":12466,"mors":12467,"cco":12468,"ĠPennsylvania":12469,"Ġseniors":12470,"first":12471,"ĠWOR":12472,"ĠLabor":12473,"Ġtraditions":12474,"ĠShort":12475,"Ġanth":12476,"Ġhobby":12477,"aya":12478,"ĠAB":12479,"ĠDue":12480,"cellent":12481,"IDS":12482,"tences":12483,"ĠVen":12484,"ĠKitchen":12485,":)":12486,"Ġcounting":12487,"Ġelectronics":12488,"ĠLt":12489,"Ġtid":12490,"breaking":12491,"Par":12492,"Ġgrasp":12493,"help":12494,"inf":12495,"Ġnearest":12496,"limate":12497,"Ġmentally":12498,"Ġsubmitting":12499,"Ġconsuming":12500,"Ġradiation":12501,"Ġvacu":12502,"Ġmarine":12503,"llation":12504,"Tell":12505,"Ġ72":12506,"sup":12507,"delphia":12508,"ĠFriend":12509,"Ġcents":12510,"inten":12511,"ĠVice":12512,"Ġconcentrate":12513,"ĠLevel":12514,"Health":12515,"stics":12516,"ĠJoseph":12517,"Ġinsane":12518,"Ġinfluenced":12519,"Ġwoke":12520,"ĠAustin":12521,"ĠRSS":12522,"Ġbiological":12523,"Stay":12524,"Ġinvesto":12525,"owned":12526,"ĠEarly":12527,"Ġinvestor":12528,"Ġfrustrated":12529,"Ġjeans":12530,"Ġfinancially":12531,"Ġencry":12532,"ĠSty":12533,"har":12534,"Ġhumid":12535,"Ġbrick":12536,"ĠBureau":12537,"overs":12538,"utors":12539,"ricts":12540,"vato":12541,"ĠCN":12542,"Ġspar":12543,"Ġleaf":12544,"Ġbeta":12545,"ĠOrganization":12546,"ĠRather":12547,"ĠAtlanta":12548,"ĠIni":12549,"54":12550,"Ġorch":12551,"Ġbranches":12552,"Ġburied":12553,"iland":12554,"Ġcommented":12555,"iots":12556,"ĠAffairs":12557,"Ġmidnight":12558,"Ġlobby":12559,"ĠCry":12560,"Ġhonored":12561,"Ġconducting":12562,"86":12563,"Ġmobility":12564,"fts":12565,"ĠHur":12566,"Ġsore":12567,"isan":12568,"Ġresponding":12569,"lad":12570,"pons":12571,"Bet":12572,"Ġwines":12573,"Ġbell":12574,"Ġ1950":12575,"usan":12576,"Ġbeside":12577,"Ġbay":12578,"Ġloyalty":12579,"Ġterrace":12580,"UC":12581,"Ġnightm":12582,"ĠAnth":12583,"Ġfrustration":12584,"Ġgambling":12585,"izz":12586,"Ġsmiling":12587,"Ġpresenting":12588,"Ġoptional":12589,"ĠSuccess":12590,"Ġvitamins":12591,"Ġprosecut":12592,"dito":12593,"Ġsucces":12594,"Ġtaxi":12595,"Ġphenomenon":12596,"Ġapproached":12597,"Ġbump":12598,"Ġdeclined":12599,"Ġupdating":12600,"Ġqueries":12601,"ĠExchange":12602,"Ġwings":12603,"erapy":12604,"Ġknees":12605,"Ġfitted":12606,"ĠContent":12607,"Ġformation":12608,"ema":12609,"every":12610,"irds":12611,"Ġoxygen":12612,"Ġrape":12613,"Ġnurses":12614,"isy":12615,"Ġproportion":12616,"Ġtravelers":12617,"Ġseating":12618,"ĠClear":12619,"mptions":12620,"Ġessence":12621,"nowned":12622,"ĠOak":12623,"Ġsacrifice":12624,"ĠCab":12625,"terial":12626,"walk":12627,"Ġaccurately":12628,"ĠCS":12629,"children":12630,"ĠBased":12631,"ipedia":12632,"Ġdried":12633,"ov":12634,"\")":12635,"ilize":12636,"ĠNEW":12637,"ĠAnti":12638,"ĠBene":12639,"Ġretreat":12640,"Ġbout":12641,"Ġwidespread":12642,"Ġcot":12643,"Ġinsul":12644,"PLE":12645,"Ġtravels":12646,"ĠAtlantic":12647,"Ġessays":12648,"Ġawhile":12649,"Ġunfair":12650,"Ġnovels":12651,"rot":12652,"shor":12653,"lihood":12654,"Ġfet":12655,"Watch":12656,"Ġdeliberate":12657,"Ġloading":12658,"ĠBang":12659,"Ġscenarios":12660,"Ġcontroversial":12661,"ĠEmploy":12662,"ĠLE":12663,"Ġbatch":12664,"monds":12665,"ĠConce":12666,"sell":12667,"ĠSound":12668,"ubtedly":12669,"Ġbreach":12670,"grats":12671,"ĠImpro":12672,"leading":12673,"Ġcolorful":12674,"Ġcrossing":12675,"ĠSolutions":12676,"Ġdeleted":12677,"ĠOrange":12678,"Ġwre":12679,"OO":12680,"Ġbackyard":12681,"Ġencountered":12682,"OUN":12683,"ĠCreative":12684,"Ġconvicted":12685,"Ġquoted":12686,"rah":12687,"Ġlean":12688,"Ġ1995":12689,"Ġgenerating":12690,"Ġsurroundings":12691,"Ġtent":12692,"Ġpupils":12693,"peut":12694,"Ġsquad":12695,"Ġgraduates":12696,"Ġiconic":12697,"ĠLots":12698,"Ġindepende":12699,"track":12700,"Ġglimp":12701,"Actually":12702,"hr":12703,"Â»":12704,"fish":12705,"Ġminority":12706,"Ġcomputing":12707,"Ġreun":12708,"sense":12709,"96":12710,"Ġconstra":12711,"Ġpressing":12712,"Ġpropa":12713,"driven":12714,"Ġdonated":12715,"iosity":12716,"76":12717,"Ġairline":12718,"ĠManchester":12719,"Ġvendor":12720,"ĠJam":12721,"ĠIss":12722,"Ġpracticing":12723,"conce":12724,"Ġassignments":12725,"Ġance":12726,"ĠDallas":12727,"sher":12728,"ĠHAVE":12729,"ĠForeign":12730,"speed":12731,"fly":12732,"Ġaccred":12733,"isting":12734,"Ġresil":12735,"Ġproceedings":12736,"Ġbackgrounds":12737,"Ġmentor":12738,"Ġmaximize":12739,"NOT":12740,"Ġfib":12741,"Ġtitled":12742,"ACK":12743,"ĠPremier":12744,"Ġrubber":12745,"Ġhighway":12746,"Ġintimid":12747,"generation":12748,"Ġextract":12749,"Ġinser":12750,"Ġintegrate":12751,"ĠPass":12752,"ĠMexican":12753,"Ġpasta":12754,"Ġcater":12755,"ĠFIG":12756,"Ġstruggles":12757,"toes":12758,"glish":12759,"Ġcustody":12760,"Ġplates":12761,"Ġbroader":12762,"ĠLes":12763,"Ġcomman":12764,"Ġversatile":12765,"TE":12766,"Ġkindness":12767,"Ġlibraries":12768,"oriented":12769,"Ġjunior":12770,"Ġquery":12771,"Ġgovernor":12772,"Ġstrictly":12773,"ditor":12774,"Ġcannabis":12775,"Ġinevitable":12776,"ĠMO":12777,"Ġperse":12778,"ĠGlad":12779,"espon":12780,"Ġprest":12781,"51":12782,"ĠMinnesota":12783,"Ġcompatible":12784,"Ġnationwide":12785,"ĠBuff":12786,"Ġconfront":12787,"ĠCape":12788,"Ġcow":12789,"Ġgovernance":12790,"Ġcharts":12791,"Ġemerged":12792,"Ġseeks":12793,"geth":12794,"Ġschedules":12795,"tah":12796,"Ġrides":12797,"Ġnotified":12798,"Ġcomplications":12799,"Ġurgent":12800,"Ġorientation":12801,"Due":12802,"coln":12803,"web":12804,"ĠKate":12805,"Ġcata":12806,"Ġreliability":12807,"source":12808,"Ġsurvived":12809,"Ġanxious":12810,"Ġemotionally":12811,"âĢĿ)":12812,"Sep":12813,"Ġdrew":12814,"Ġsponsored":12815,"Start":12816,"although":12817,"Ġnavigation":12818,"sach":12819,"eye":12820,"Ġcycling":12821,"Ġflavors":12822,"Ġphysics":12823,"Ġgraduation":12824,"Ġconsiderably":12825,"ganda":12826,"Ġbuzz":12827,"gethe":12828,"Ġspreading":12829,"Ġcontemp":12830,"ĠNation":12831,"Ġavoided":12832,"ĠWelcome":12833,"itative":12834,"gether":12835,"ĠIslamic":12836,"had":12837,"ntario":12838,".]":12839,"Ġreduces":12840,"Ġoverwhelmed":12841,"Ġrevenues":12842,"iotic":12843,"Ġcompromise":12844,"ĠDream":12845,"Ġ1994":12846,"Ġcalculated":12847,"Ġbree":12848,"Ġsyndrome":12849,"ĠCP":12850,"Ġattacked":12851,"Ġthoughtful":12852,"Open":12853,"ritis":12854,"cled":12855,"Ġvariables":12856,"qua":12857,"Really":12858,"ĠScient":12859,"Ġharassment":12860,"ĠJon":12861,"Ġtropical":12862,"ĠPaper":12863,"Ġcounseling":12864,"Ġsentences":12865,"ĠEither":12866,"rings":12867,"ĠCoach":12868,"ĠPrep":12869,"Ġcabinet":12870,"watch":12871,"Ġinviting":12872,"Without":12873,"Ġevolved":12874,"ĠEsse":12875,"Ġsignificance":12876,"Ġultra":12877,"asoning":12878,"Ġmeasuring":12879,"ĠKelly":12880,"Ġinternationally":12881,"Ġcognitive":12882,"Ġprovince":12883,"Ġkicked":12884,"Ġsibling":12885,"Ġstones":12886,"ivating":12887,"53":12888,"Ġargued":12889,"Ġcave":12890,"Ġpurple":12891,"ĠPan":12892,"Ġambit":12893,"Ġsubstances":12894,"Ġfirep":12895,"Ġaccordingly":12896,"Ġequality":12897,"Ġorganised":12898,"ĠGoing":12899,"Ġchallenged":12900,"aye":12901,"Ġprince":12902,"Ġpound":12903,"ĠKansas":12904,"Ġfarming":12905,"Ġvet":12906,"Ġtexts":12907,"Ġrene":12908,"ĠTrue":12909,"ĠStephen":12910,"ĠMate":12911,"Ġmunicipal":12912,"ĠMath":12913,"tzer":12914,"pira":12915,"inity":12916,"Ġindication":12917,"ĠUr":12918,"tress":12919,"Ġfacial":12920,"ĠContract":12921,"Ġfleet":12922,"Ġgang":12923,"Ġstating":12924,"ĠJordan":12925,"Ġexisted":12926,"ido":12927,"licate":12928,"Ġattendees":12929,"Ġrevol":12930,"Ġdimensions":12931,"Ġrefugees":12932,"quis":12933,"Ġcleared":12934,"Ġstruggled":12935,"ĠDow":12936,"Ġrestoration":12937,"iley":12938,"ĠTogether":12939,"Ġreservations":12940,"TO":12941,"Col":12942,"Ġlaunching":12943,"Ġclassified":12944,"Ġhighlighted":12945,"licity":12946,"Ġhilar":12947,"digenous":12948,"Ġbehaviors":12949,"Ġidentical":12950,"ĠPortug":12951,"ĠAnyway":12952,"Ġreache":12953,"Ġvegg":12954,"stick":12955,"also":12956,"Ġowe":12957,"2014":12958,"Ġedges":12959,"eden":12960,"uche":12961,"Ġuseless":12962,"colo":12963,"gled":12964,"ĠDer":12965,"Ġlighter":12966,"fting":12967,"Ġamen":12968,"Ġconsecutive":12969,"Ġquietly":12970,"Ġindul":12971,"adium":12972,"Ġepic":12973,"unate":12974,"Ġperceived":12975,"ĠFBI":12976,"Ġspecifications":12977,"Ġminimize":12978,"Ġturno":12979,"Ġreaches":12980,"Ġdili":12981,"Ġcozy":12982,"ĠWedding":12983,"Ġrespectively":12984,"Ġunderground":12985,"chair":12986,"icular":12987,"Ġherbs":12988,"Ġworrying":12989,"Ġelabo":12990,"ĠModern":12991,"ĠProbably":12992,"Ġflesh":12993,"Ġpsychology":12994,"ĠRi":12995,"ctures":12996,"Ġterrorism":12997,"sachuse":12998,"Ġcontrary":12999,"ĠLarge":13000,"Ġspecify":13001,"Ġinquiry":13002,"lishing":13003,",...":13004,"edi":13005,"Ġburned":13006,"shore":13007,"wallet":13008,"Ġanimation":13009,"Ġencouragement":13010,"Ġcanvas":13011,"Sup":13012,"Create":13013,"Ġinexpensive":13014,"Ġdescribing":13015,"ĠSelect":13016,"iana":13017,"Ġtherapist":13018,"Ġfond":13019,"Ġsenten":13020,"ĠPast":13021,"cakes":13022,"Ġstrikes":13023,"Ġcuis":13024,"MENT":13025,"Ġsewing":13026,"sper":13027,"Ġoutlets":13028,"ĠNAS":13029,"TR":13030,"Ġimagined":13031,"Ġdresses":13032,"sachusetts":13033,"Ġreck":13034,"solution":13035,"Ġframes":13036,"thodo":13037,"Speaking":13038,"Develop":13039,"gus":13040,"Ġorganizing":13041,"ĠPhiladelphia":13042,"isons":13043,"Ġretrie":13044,"Ġnoo":13045,"Ġpix":13046,"David":13047,"Ps":13048,"Ġteaches":13049,"Ġincorporated":13050,"Ġcentres":13051,"Ġeconomics":13052,"ĠTheatre":13053,"towe":13054,"ĠMedic":13055,"Whatever":13056,"asse":13057,"ĠCase":13058,"Ġcompetent":13059,"Ġadjusted":13060,"ĠLow":13061,"mmation":13062,"Ġreviewing":13063,"Ġmindset":13064,"ĠReprese":13065,"ski":13066,"Ġlongest":13067,"Ġpursuing":13068,"ĠOlympic":13069,"ĠAda":13070,"sar":13071,"Ġeva":13072,"phic":13073,"Ġranks":13074,"Ġcostume":13075,"Ġhospitality":13076,"Ġearthquake":13077,"ĠDJ":13078,"Ġtechnicians":13079,"Ġcurve":13080,"Ġsneak":13081,"Trans":13082,"Ġhardest":13083,"ĠNavy":13084,"stitutes":13085,"Ġsimultaneously":13086,"Ġarriving":13087,"ask":13088,"Ġprovo":13089,"tine":13090,"ĠOc":13091,"chem":13092,"Ġrentals":13093,"Ġhint":13094,"Ġain":13095,"ĠClean":13096,"Ġspeeds":13097,"sitive":13098,"Ġsatisfying":13099,"Ġ56":13100,"Ġsuck":13101,"Ġfever":13102,"Ġphysicians":13103,"Ġposses":13104,"Ġambitious":13105,"ĠGreece":13106,"Ġtorn":13107,"Si":13108,"Ġprotective":13109,"Ġpetition":13110,"Ġoptimization":13111,"Ġmate":13112,"ĠLice":13113,"Rea":13114,"ĠNigeria":13115,"ardo":13116,"Ġcleaner":13117,"held":13118,"show":13119,"flix":13120,"Ġgrandmother":13121,"ighten":13122,"uous":13123,"ĠAu":13124,"Ġmysterious":13125,"Ġintroducing":13126,"ĠUnless":13127,"Ġprofessionally":13128,"cub":13129,"Ġdecor":13130,"Ġinclusion":13131,"bian":13132,"Ġfortune":13133,"ĠNOW":13134,"Ġorganizational":13135,"Ġabstract":13136,"Ġthrive":13137,"Ġbullet":13138,"Ġreject":13139,"Ġexecuted":13140,"ĠUSB":13141,"Ġsteep":13142,"Ġmonster":13143,"Ġrecur":13144,"Ġactress":13145,"written":13146,"Ġink":13147,"Ġwishing":13148,"ĠFront":13149,"ĠOthers":13150,"specific":13151,"nufact":13152,"artial":13153,"iary":13154,"Ġmanufactured":13155,"edule":13156,"tains":13157,"ramic":13158,"Ġterrif":13159,"Ġconverted":13160,"Ġshaped":13161,"ĠMail":13162,"ĠSciences":13163,"Ġcorners":13164,"Ġbass":13165,"Ġcharacteri":13166,"ĠOften":13167,"Ġflooring":13168,"ĠOx":13169,"vator":13170,"tick":13171,"Ġtuition":13172,"lical":13173,"rb":13174,"Ġretro":13175,"ĠKee":13176,"Ġchole":13177,"Ġsevent":13178,"82":13179,"ĠCree":13180,"Ġfrank":13181,"sporting":13182,"Ġconsole":13183,"ĠQuick":13184,"forming":13185,"arity":13186,"istering":13187,"ÂĶ":13188,"Ġmomentum":13189,"Net":13190,"Ġpuzzle":13191,"Script":13192,"Ġterminal":13193,"Ġallegations":13194,"Ġtowe":13195,"Ġrally":13196,"ĠMcC":13197,"ĠDri":13198,"Ġaddic":13199,"Ġviable":13200,"Ġdisk":13201,"Ġpunishment":13202,"Ġbeating":13203,"IB":13204,"Ġexpendi":13205,"rad":13206,"fortunate":13207,"ĠCloud":13208,"Ġrolls":13209,"ĠMagic":13210,"ewis":13211,"Ġreportedly":13212,"Ġliable":13213,"Ġwing":13214,"Ġobstacles":13215,"Ġscoring":13216,"Ġintensive":13217,"thanks":13218,"ĠSept":13219,"Ġuncertainty":13220,"ĠElizabeth":13221,"ĠMoreover":13222,"Ġexecute":13223,"Ġblocked":13224,"Ġqualifications":13225,"Ġconsciousness":13226,"pass":13227,"ĠField":13228,"ĠBarb":13229,"Ġruled":13230,"ierce":13231,"Ġportal":13232,"ĠIron":13233,"Ġleverage":13234,"Ġoutlined":13235,"Ġautomation":13236,"72":13237,"chant":13238,"Ġsurveys":13239,"illo":13240,"Ġgrain":13241,"Ġrational":13242,"GR":13243,"Ġmanually":13244,"cords":13245,"Ġfare":13246,"Ġreflected":13247,"Ġaffair":13248,"Given":13249,"Ġappet":13250,"Ġdecides":13251,"roo":13252,"mel":13253,"ĠLegal":13254,"why":13255,"Ġconsistency":13256,"cost":13257,"Ġadmire":13258,"ĠEll":13259,"ĠSl":13260,"aming":13261,"ĠSchools":13262,"Ġalien":13263,"Ġbaked":13264,"income":13265,"getic":13266,"ĠRO":13267,"Social":13268,"Ġbearing":13269,"rification":13270,"Ġfort":13271,"ĠDavis":13272,"Enter":13273,"Always":13274,"Ġnasty":13275,"bn":13276,"Ġdiscour":13277,"Ġsurgical":13278,"Ġpopulations":13279,"Ã¡":13280,"Ġobservation":13281,"Ġclouds":13282,"ĠSnow":13283,"Ġdual":13284,"Ġmerchandise":13285,"Ġindependently":13286,"Ġdemocratic":13287,"Ġstructural":13288,"ĠWrite":13289,"Ġdistricts":13290,"Ġcomparable":13291,"Looks":13292,"ĠSna":13293,"Ġmob":13294,"Ġwil":13295,"Ġheated":13296,"Ġtouching":13297,"ĠMass":13298,"Ġrelaxation":13299,"ĠIF":13300,"Ġpermits":13301,"Ġfirmly":13302,"Ġbless":13303,"Ġjustify":13304,"Ġlaboratory":13305,"Ġ51":13306,"ĠWoman":13307,"Ġfloating":13308,"Ġsporting":13309,"Ġvacuum":13310,"Ġrepay":13311,"ĠRod":13312,"Working":13313,"ĠDutch":13314,"INE":13315,"pets":13316,"ĠFea":13317,"ĠBell":13318,"ĠSimple":13319,"ĠAmend":13320,"Ġtwitter":13321,"ĠPhone":13322,"Ġvariations":13323,"Ġstack":13324,"Ġpp":13325,"visible":13326,"Ġgray":13327,"master":13328,"tobacco":13329,"Ġintegral":13330,"Ġwithdraw":13331,"Ġexterior":13332,"View":13333,"five":13334,"steem":13335,"Off":13336,"Ġdated":13337,"Ġpromotions":13338,"Ġvocal":13339,"conomic":13340,"Ġaltogether":13341,"hill":13342,"quel":13343,"Ġislands":13344,"Ġwallet":13345,"rms":13346,"wrest":13347,"ĠMatthew":13348,"nka":13349,"ĠCB":13350,"Ġenrich":13351,"Ġrecognised":13352,"people":13353,"need":13354,"Ġsocks":13355,"Ġalar":13356,"ĠCuba":13357,"Ġmetres":13358,"ĠJason":13359,"ĠPatrick":13360,"Ġuncon":13361,"Ġphrases":13362,"best":13363,"ĠMalay":13364,"oners":13365,"Ġcompens":13366,"Ġhash":13367,"Ġbriefly":13368,"Ġcompound":13369,"Ġoutline":13370,"ĠFeb":13371,"ĠMemorial":13372,"course":13373,"Fra":13374,"Ġleak":13375,"Ġunderneath":13376,"Ġseparately":13377,"Ġbuilds":13378,"nating":13379,"Ġelite":13380,"Ġsheep":13381,"Ġsearche":13382,"Ġmixing":13383,"Web":13384,"Ġstranger":13385,"Ġsustained":13386,"iral":13387,"ORT":13388,"Ġcousin":13389,"ĠCut":13390,"ĠEric":13391,"Ġchill":13392,"couver":13393,"Ġpros":13394,"matory":13395,"Ġcustomize":13396,"cidence":13397,"Ġaccountable":13398,"ĠAmong":13399,"ĠGift":13400,"Ġdecorated":13401,"Ġnewer":13402,"keeping":13403,"Ġapologize":13404,"appropriate":13405,"ibbean":13406,"consin":13407,"Ġtransformed":13408,"mpions":13409,"ĠBitcoin":13410,"cience":13411,"QU":13412,"CR":13413,"Ġwonders":13414,"ĠBear":13415,"Ġrect":13416,"Ġramp":13417,"green":13418,"Ġingredient":13419,"ĠMiller":13420,"Ġcited":13421,"nell":13422,"Ġmonetary":13423,"ĠLabour":13424,"Ġdelayed":13425,"Ġpools":13426,"lico":13427,"Ġnotify":13428,"ĠSir":13429,"Ġplumbing":13430,"Ġsimpler":13431,"ĠAlterna":13432,"Ġspecially":13433,"Ġdeadly":13434,"peutic":13435,"Ġhomo":13436,"Ġkingdom":13437,"ĠBlu":13438,"glo":13439,"ĠCompanies":13440,"asa":13441,"Ġdescriptions":13442,"Ġscr":13443,"lings":13444,"iotics":13445,"ashioned":13446,"Ġtrains":13447,"ĠMassachusetts":13448,"Ġmodest":13449,"white":13450,"ĠWalk":13451,"msung":13452,"Cal":13453,"Ġschemes":13454,"mentation":13455,"ĠCourse":13456,"ĠDun":13457,"Ġinhab":13458,"Ġcircles":13459,"Ġjet":13460,"ĠJr":13461,"ĠElectric":13462,"Big":13463,"Ġdismis":13464,"Ġdesce":13465,"Ġlanded":13466,"ĠUSD":13467,"Ġkidney":13468,"Ġjack":13469,"Ġconsen":13470,"ĠDuration":13471,"oooo":13472,"casting":13473,"Ġrealised":13474,"Inde":13475,"ĠMode":13476,"Ġstructured":13477,"Ġundoubtedly":13478,"URE":13479,"ĠPhoe":13480,"Ġadvances":13481,"soever":13482,"Congratulations":13483,"Ġreporters":13484,"ĠTan":13485,"Ġaccessed":13486,"ĠJosh":13487,"Ġ57":13488,"ĠWithin":13489,"inar":13490,"sterol":13491,"Ġconsultants":13492,"Ġpuppy":13493,"ĠOntario":13494,"mployed":13495,"outube":13496,"Ġseal":13497,"ĠDoug":13498,"ĠGran":13499,"ĠDesig":13500,"ĠBase":13501,"Ġconflicts":13502,"Ġrevis":13503,"gli":13504,"ĠModel":13505,"Ġasses":13506,"Ġsurveillance":13507,"Ġfeas":13508,"outer":13509,"ui":13510,"Ġmeasurement":13511,"Ġfut":13512,"Ġdefence":13513,"plan":13514,"Ġholy":13515,"gre":13516,"Ġpractitioners":13517,"Ġspirits":13518,"chase":13519,"Ġpotato":13520,"ï¸":13521,"Ġpromptly":13522,"ERY":13523,"Ġhouseholds":13524,"uda":13525,"Ġwound":13526,"Ġvisibility":13527,"Ġsunshine":13528,"Ġfilters":13529,"Ġdimension":13530,"comfort":13531,"Ġmoisture":13532,"Ġcruel":13533,"Ġluxurious":13534,"Ġeigh":13535,"ĠEdition":13536,"Ġlun":13537,"Ġtobacco":13538,"Ġedited":13539,"uke":13540,"ĠPara":13541,"Ġnerve":13542,"ĠHop":13543,".-":13544,"umatic":13545,"str":13546,"ĠSeveral":13547,"ĠBrea":13548,"Ġinterpr":13549,"ĠStri":13550,"Ġrestored":13551,"oline":13552,"Ġesc":13553,"Ġglobally":13554,"lots":13555,"Ġacute":13556,"ĠRoge":13557,"ĠEvents":13558,"Ġkindly":13559,"Ġspelling":13560,"ptic":13561,"Ġcondit":13562,"irk":13563,"Ġchaos":13564,"pop":13565,"ĠBlood":13566,"ĠGolf":13567,"etings":13568,"ĠAvailable":13569,"Ġlasts":13570,"Beautiful":13571,"Ġtragedy":13572,"ĠOw":13573,"Ġcondem":13574,"Ġcritics":13575,"Ġmedicines":13576,"Am":13577,"ella":13578,"Ġbacon":13579,"Ġsuspended":13580,"ĠRub":13581,"Ġimpe":13582,"tesy":13583,"Ġsticking":13584,"ĠLinux":13585,"Ġunwanted":13586,"ĠPractice":13587,"aping":13588,"Ġsuspected":13589,"Ġsounded":13590,"ĠGrea":13591,"Ġmara":13592,"ĠLincoln":13593,"Mon":13594,"quet":13595,"ĠDump":13596,"Ġscal":13597,"ĠLooks":13598,"Ġspite":13599,"Ġcollapse":13600,"Ġquicker":13601,"Ġjealous":13602,"manship":13603,"Ġchapters":13604,"Ġpowered":13605,"Ġnecessity":13606,"chers":13607,"Ġadjustments":13608,"Ġaccountability":13609,"paid":13610,"ĠCaptain":13611,"ĠVar":13612,"Ġquilt":13613,"Excellent":13614,"his":13615,"Ġpharmaceutical":13616,"Ġminerals":13617,"ĠDisease":13618,"Know":13619,"Ġpartly":13620,"fication":13621,"Ġturkey":13622,"Ġprocessor":13623,"Ġteenagers":13624,"Ġguilt":13625,"Ġarrives":13626,"Ġdrawings":13627,"Ġlegislative":13628,"ĠDIY":13629,"ĠGal":13630,"Ġstead":13631,"Ġ350":13632,"email":13633,"Ima":13634,"Ġbookmarked":13635,"ustain":13636,"Ġmattress":13637,"Ġgrief":13638,"ĠSaudi":13639,"gible":13640,"EP":13641,"Ġ54":13642,"ĠAlp":13643,"...)":13644,"Ġdisappeared":13645,"Ġwrest":13646,"cake":13647,"Ġspecialty":13648,"ĠFurthermore":13649,"ane":13650,"story":13651,"ĠAnalysis":13652,"63":13653,"ederation":13654,"Ġlug":13655,"Ġfoss":13656,"Ġfer":13657,"Ġgeneric":13658,"Ġborders":13659,"Ġdocumented":13660,"ARD":13661,"ĠComments":13662,"Ġdare":13663,"Ġbelly":13664,"Ġpine":13665,"Char":13666,"Ġvertical":13667,"icial":13668,"Bay":13669,"Ġthreatening":13670,"ĠFreedom":13671,"Ġjournalist":13672,"ĠRain":13673,"Ġtranslate":13674,"Ġmidst":13675,"Ġenterprises":13676,"ases":13677,"ĠCorporation":13678,"ĠHell":13679,"sessment":13680,"Ġpublisher":13681,"inyl":13682,"Ġproactive":13683,"ĠWilson":13684,"Ġero":13685,"ĠBM":13686,"Ġelementary":13687,"mg":13688,"Ġsearches":13689,"Ġcried":13690,"ĠIndone":13691,"rub":13692,"ĠFast":13693,"Ġdebris":13694,"Ġheroe":13695,"Ġopponent":13696,"Ġinstin":13697,"ngle":13698,"Ġpredicted":13699,"Ġheroes":13700,"ï¸ı":13701,"Ġcooler":13702,"Ġconjunction":13703,"tires":13704,"eby":13705,"Ġouter":13706,"Ġlacking":13707,"ĠIndeed":13708,"Ġgad":13709,"Ġpenc":13710,"Ġsoda":13711,"ĠIntellige":13712,"Ġbarrier":13713,"Ġbudgets":13714,"Ġunre":13715,"ĠNut":13716,"usic":13717,"ĠAnne":13718,"Ġunfortunate":13719,"getarian":13720,"ĠHTML":13721,"Ġfatigue":13722,"ĠDefense":13723,"Photo":13724,"Ġfreeze":13725,"unders":13726,"Ġvilla":13727,"stant":13728,"Ġcomposed":13729,"Ġrefrigerator":13730,"ĠLtd":13731,"Ġhills":13732,"Ġrelie":13733,"ĠRid":13734,"Ġinstitutional":13735,"Ġsixth":13736,"nomy":13737,"Ġtemplates":13738,"Ġsellers":13739,"Ġtargeting":13740,"Ġtheories":13741,"IME":13742,"uthe":13743,"Ġups":13744,"Children":13745,"Ġisolated":13746,"Ġutilizing":13747,"reby":13748,"ĠMine":13749,"Ġformats":13750,"GH":13751,"homa":13752,"Ġnap":13753,"Ġevident":13754,"duct":13755,"ereby":13756,"rap":13757,"Ġhabita":13758,"pdf":13759,"ĠReserve":13760,"Ġcontacting":13761,"rtainly":13762,"ĠExplore":13763,"Ġhack":13764,"Ġgrabbed":13765,"ĠBetween":13766,"ĠJay":13767,"tato":13768,"medies":13769,"62":13770,"ORD":13771,"ĠAgricul":13772,"Ġfacto":13773,"Black":13774,"Ġperfection":13775,"Sur":13776,"Ġcomplaining":13777,"mpto":13778,"Ġpriorit":13779,"Ġaero":13780,"Ġpoorly":13781,"Min":13782,"Ġtires":13783,"Ġsadly":13784,"structive":13785,"Ġcaution":13786,"Ġnoting":13787,"Ġcottage":13788,"Ġintensity":13789,"ius":13790,"iology":13791,"ĠMoor":13792,"tty":13793,"Ġtraveled":13794,"pect":13795,"version":13796,"sults":13797,"arn":13798,"Ġ180":13799,"Ġsaves":13800,"Sign":13801,"ĠChannel":13802,"fare":13803,"ĠGallery":13804,"ixed":13805,"Ġcheapest":13806,"Ġpant":13807,"Ġnoon":13808,"Ġador":13809,"Ġjazz":13810,"Ġsensor":13811,"priet":13812,"vings":13813,"Ġdign":13814,"Ġdiving":13815,"ĠGovernor":13816,"Ġsuspension":13817,"Description":13818,"Ġcoins":13819,"ĠMission":13820,"parents":13821,"Ġhilarious":13822,"Ġchemistry":13823,"700":13824,"ĠRent":13825,"Ġwitnessed":13826,"Ġcuriosity":13827,"Ġfifty":13828,"Ġnevertheless":13829,"Ġactivists":13830,"Ġintentions":13831,"ĠPy":13832,"Ġnails":13833,"Ġpaperwork":13834,"rgan":13835,"RO":13836,"Ġdistant":13837,"Ġfrigh":13838,"ĠHor":13839,"rise":13840,"Ġsupervision":13841,"Ġparallel":13842,"inde":13843,"ĠGas":13844,"sky":13845,"OUR":13846,"ques":13847,"orials":13848,"ĠCaribbean":13849,"nana":13850,"Ġfires":13851,"Ġworthwhile":13852,"Ġhaha":13853,"ĠUsually":13854,"SC":13855,"Ġcrystal":13856,"rgies":13857,"Ġperspectives":13858,"ĠWorks":13859,"Ġtrace":13860,"Ġtechnically":13861,"eduling":13862,"Ġdraws":13863,"Ġcrops":13864,"Ġinvestigating":13865,"Ġpartial":13866,"viet":13867,"Ġbetting":13868,"ĠVio":13869,"Ġcancelled":13870,"Ġnowadays":13871,"enth":13872,"Ġstaring":13873,"ificates":13874,"Ġinfant":13875,"Ġsearched":13876,"ĠDean":13877,"Ġinvestigations":13878,"ĠAlong":13879,"ĠThailand":13880,"odge":13881,"Was":13882,"92":13883,"Ġattributes":13884,"Ġwardrobe":13885,"Ġnutritional":13886,"Ġmicrowave":13887,"Ġcord":13888,"Follow":13889,"Ġreluct":13890,"Ġweddings":13891,"Ġpills":13892,"Ġwhereas":13893,"Ġblanket":13894,"leans":13895,"ĠMaryland":13896,"Ġrecognise":13897,"Ġthereby":13898,"84":13899,"Ġmodules":13900,"TP":13901,"Ġbucket":13902,"REAT":13903,"ĠDance":13904,"etroi":13905,"Ġcommenting":13906,"coa":13907,"Ġethics":13908,"Ġpassport":13909,"Ġracial":13910,"Ġpockets":13911,"ĠIdent":13912,"Ġcamps":13913,"Ġblown":13914,"ĠNeth":13915,"Ġdelays":13916,"Ġdisg":13917,"Ġsofa":13918,"Ġinflammation":13919,"ĠLinked":13920,"Ġstadium":13921,"ĠFis":13922,"nswer":13923,"World":13924,"ĠFed":13925,"Ġspokesman":13926,"Ġslice":13927,"cog":13928,"pin":13929,"Ġcontrolling":13930,"usal":13931,"Interest":13932,"ĠGiven":13933,"Ġbreakdown":13934,"Ġexams":13935,"Ġowns":13936,"Ġthesis":13937,"Ġoutlook":13938,"uan":13939,"Ġsells":13940,"Ġexperiments":13941,"Ġ1992":13942,"Ġgaps":13943,"ĠWisconsin":13944,"Ġclips":13945,"Ġshook":13946,"ANK":13947,"ĠNethe":13948,"ĠHills":13949,"Ġlaying":13950,"Hu":13951,"Ġmortal":13952,"Ġtrainer":13953,"Ġresearching":13954,"Ġunsure":13955,"perative":13956,"Ġmissi":13957,"Ġvarieties":13958,"Ġenthusiastic":13959,"bish":13960,"Ġpretend":13961,"etroit":13962,"Ġmechanisms":13963,"Ġlifting":13964,"Ġtimeline":13965,"Ġpenalties":13966,"Ġthreads":13967,"Ġstainless":13968,"Ġ53":13969,"SW":13970,"ssors":13971,"ĠWee":13972,"mpl":13973,"Ġendorse":13974,"ĠNYC":13975,"Question":13976,"Ġjewe":13977,"Ġadvocacy":13978,"ĠSend":13979,"ĠMetho":13980,"Ġoutlet":13981,"umbling":13982,"complete":13983,"94":13984,"Sto":13985,"ĠOpt":13986,"Ġsticks":13987,"ĠScri":13988,"Ġconclusions":13989,"stage":13990,"please":13991,"Ġwars":13992,"tioned":13993,"Ġmelt":13994,"ĠRevolution":13995,"ĠCV":13996,"ĠNether":13997,"Ġranges":13998,"million":13999,"Ġgli":14000,"Ġglimpse":14001,"Ġwheat":14002,"Ġsketch":14003,"ĠCeleb":14004,"ĠRick":14005,"Google":14006,"thank":14007,"Ġpedest":14008,"ĠFant":14009,"Ġpumpkin":14010,"Ġteenager":14011,"ĠUP":14012,"Ġobli":14013,"Ġfundament":14014,"ĠWine":14015,"Ġmotorcycle":14016,"Donald":14017,"telling":14018,"mbr":14019,"ĠBowl":14020,"Ġreleasing":14021,"Ġintuitive":14022,"ĠDenver":14023,"ĠRegional":14024,"Ġsheer":14025,"Ġcaut":14026,"ĠExtra":14027,"Ġsecretary":14028,"Ġtribute":14029,"nnifer":14030,"ĠRam":14031,"Ġwasted":14032,"Ġtendency":14033,"Ġsexually":14034,"Ġrenovation":14035,"Ġsti":14036,"Ġfarms":14037,"ribly":14038,"Ġwished":14039,"zards":14040,"Ġbat":14041,"Ġunto":14042,"aint":14043,"Ġcuisine":14044,"ĠHeaven":14045,"Ġdevastating":14046,"Ġcorresponding":14047,"ĠMill":14048,"Ġbroker":14049,"BM":14050,"ĠVancouver":14051,"ĠCharlie":14052,"plant":14053,"open":14054,"ĠPRO":14055,"Ġscenery":14056,"Ġconfess":14057,"Ġpatent":14058,"ĠSig":14059,"Ġrecipient":14060,"ĠSweden":14061,"Ġsandwich":14062,"onestly":14063,"Ġnest":14064,"Ġ`":14065,"ĠConstruction":14066,"Ġheels":14067,"ĠSug":14068,"Ġunsa":14069,"Ġ700":14070,"ĠPortland":14071,"ena":14072,"Ġrecreational":14073,"Ġobesity":14074,"Ġreass":14075,"Ġdebts":14076,"Ġhood":14077,"Ġoccupied":14078,"asis":14079,"Ġautumn":14080,"Ġ1993":14081,"Ġstumbled":14082,"Ġconsumed":14083,"ĠPha":14084,"Ġappearing":14085,"Ġobservations":14086,"Ġstats":14087,"toe":14088,"Ġbookmark":14089,"Ġimpa":14090,"healthy":14091,"nos":14092,"Ġrecovered":14093,"Ġproceeds":14094,"Ġdys":14095,"Ġdefici":14096,"Ġcher":14097,"Ġdeficit":14098,"Ġboil":14099,"Ġembodi":14100,"Ġshades":14101,"Ġbelieving":14102,"Located":14103,"Ġguessing":14104,"Ġtestimony":14105,"achel":14106,"Ass":14107,"73":14108,"ĠMachine":14109,"Ġstrain":14110,"Ġacknowledged":14111,"Ġbail":14112,"State":14113,"ĠCommiss":14114,"shirts":14115,"Ġlined":14116,"Ġgrave":14117,"Ġautomotive":14118,"piracy":14119,"Ġancest":14120,"Ġdistinctive":14121,"hma":14122,"dated":14123,"Full":14124,"Police":14125,"mature":14126,"Ġadvocates":14127,"encies":14128,"FO":14129,"ĠCoffee":14130,"lord":14131,"Ġmuseums":14132,"Ġsights":14133,"make":14134,"scor":14135,"sword":14136,"ĠGulf":14137,"Ġblon":14138,"rencies":14139,"personal":14140,"Ġtouche":14141,"thms":14142,"lotte":14143,"Ġwealthy":14144,"Ġprovin":14145,"Ġcelebrity":14146,"hist":14147,"Ġsurfaces":14148,"61":14149,"Ġasser":14150,"Ġraises":14151,"ĠMelbourne":14152,"Ġdietary":14153,"Ġweakness":14154,"Ġ(\"":14155,"ĠEM":14156,"vascular":14157,"Ġincentives":14158,"Ġdude":14159,"umni":14160,"Ġbride":14161,"Ġtreas":14162,
[...]
