#version: 0.2
Î ±
Î ¿
Ï Ħ
Î ¹
Î µ
Î ½
Ġ Ï
Ï ĥ
Ï ģ
Î º
Ï Ģ
Î ·
Î ¼
ĠÏ Ĥ
Î »
Ġ Î±
Ï ħ
Î ¯
Î ¬
Ġ Î¹
Ġ Î½
Î¿ ÏĦ
Î Ń
Î ³
Î ´
Ï Į
Î· ÏĦ
Î ®
Ï ī
Î± Îº
Ï ĩ
Ġ Îµ
Î¿ ÏĢ
Î ¸
Ġ ,
Îº Î¹
ĠÏ ħ
Ġ Î·
Ï į
Ï Ĩ
Ġ Î¿
Î± ÏĦ
Ïħ Î¿
Î¯ Îµ
Ï İ
ĠÎ¹ Î±Îº
Ġ Î¿ÏĦ
Ï Ĥ
Î ²
Î¿ Ïģ
Î¹ Îµ
ÏĦ Ïĥ
ĠÎ± Î½
ĠÏ Į
Ïģ Îµ
Î½ Î±
Î ĳ
Ġ Î®
ĠÎ± Î¹
Î± Î¼
Ġ .
ĠÎ½ Î·ÏĦ
Ġ Î¬
ĠÎ¹ Îµ
Î± Ïģ
Î ķ
Î ¾
ÏĢ Î±
Î± Î½
ĠÏħ Î¿ÏĦ
ĠÎµ Î¼
Î¹ Î´
ĠÏĤ Î·ÏĦ
Î ¶
Î £
ĠÎ± ÏĦ
ĠÎ½ Ïī
Î ł
Î ¤
Î» Î»
Î± ÏĢ
Î¹ Ïģ
ĠÏĤ Îµ
Î¿ Î½
ĠÎ· Ïĥ
ÎŃ Î¼
Î Ł
Î¿ Î¼
ÎºÎ¹ ÏĦ
Îµ Î¼
Î ļ
ĠÏħ Î¿ÏĢ
Î¿ Î»
ĠÎ±Î¹ Î³
ĠÎµ Ïĥ
Î¹ ÏĦ
ÏĢ Îµ
Ïħ Ïĥ
Î ľ
Î¯ Ïģ
Î· Ïĥ
Ïħ Î¿ÏĦ
Ġ Î·ÏĦ
ĠÏĮ ÏĢÎ±
Ïħ Îµ
Î¿Ïģ ÏĢ
Î¿ Îº
ĠÎ± Î¯
ĠÎ½Ïī ÏĦ
Î Ķ
Î½ Î¬
Î½ Îµ
Ïĥ Î¹
ĠÎ½ Î¿ÏĦ
ĠÏĤ Î±
ĠÎ¹ Î±ÏĦ
. .
Î Ĺ
ÏĮ Ïģ
Îµ Î´
ĠÏĤ ÎŃ
Î Ļ
ĠÎ½ ÏħÎ¿
ĠÎ¹ Î±Î½
Î¬ Ïģ
ĠÏ į
Î» Îµ
ĠÎ¿ÏĦ Ïĥ
Ïį Î¿
Îº Îµ
Ïħ Î±
ĠÏĤ Ïī
ĠÏĤ Î®
Î Ŀ
ĠÎ½ Ïİ
ĠÎ¹Î±Î½ Î¯Îµ
ĠÎ± Î¼
Î¹ Î»
ÏĦ ÏĮ
ĠÏħ Î¿
Î¹ Ïĥ
Ïģ ÎŃ
ÏģÎµ ÏĢ
Ïģ Î±
Î½ Ïī
Ïĩ ÎŃ
ĠÏĤ Î¹Îµ
Î· Î»
Ï Ī
â Ģ
ĠÎ± Î¸
ĠÎ¹ Î¿
ĠÏĤ ÏħÎ¿ÏĦ
Î± Î¹Î´
Î± Î»
ĠÎ½Î·ÏĦ Ïĥ
Ġ Î¯Îµ
Î¿ ÏĨ
Ïģ Î¬
Î½ Î¹
Î ĵ
ĠÎµ ÏĦ
ĠÏ ī
Î¿ÏĢ Î±
Â »
Â «
Ġ ÎĹ
Î± Ïĥ
Î½ Ïİ
Ïĥ Î®
Î· Î¸
Î³ Î±
ĠÏĤ ÏĮ
Î½ Î¯
Îº Î±
Ġ :
Î½ Î¿
Ïĥ Î±
ĠÎ½ ÎµÎ´
Î¬ Î¼
Î¯ ÏĦ
ÏĦ ÏħÎ±
ĠÎ® ÎºÎ¹
Ïī Ïģ
ĠÏĤ Î¹ÏĦ
Î½ ÏħÏĥ
Î¬ ÏĦ
Î³ Ïģ
Î· Î´
Î¬ Îº
Î¿ Î´
Î¹ ÏĢÎµ
ÏĢ Ïħ
Î¿ Î¹
Îµ ÏĦ
Î¹ ÏĢ
Îµ Ïģ
Î Ľ
Ïĥ ÏĮ
Î½ ÎŃÎ¼
Î± Î¯
ĠÎ¹Î±ÏĦ Îµ
Î¿ ÎºÎ¹
Î¾ Îµ
ĠÏĤ Î·Ïĥ
Î ¥
Î ¡
Ïģ ÏĦ
Îµ Î¸
ÎŃ Î¸
ĠÎ¹ ÏĦÏĮ
Î½ ÏĮ
Î³ Î¿Î»
Î» Î±
Îº Ïĥ
ĠÏĮ ÎºÎ¹
ĠÎ¬ ÏĦ
ĠÏĤ ÏħÎ¿
Ġ ÎŁ
Î Ĵ
0 2
ÎŃ Î»
Î± Î¹
Î» ÏĮ
Ïĩ Ïĥ
ÎŃ ÏĦ
Ġ Î¯
Ïİ Ïģ
Î¹ Î¼
Î»Î» Î±
Î· Î¼
Î· Î½
Ġ âĢ
ÎŃ Ïģ
Î· Ïģ
ĠÎ¬ ÎºÎ¹
Î± Î½Î±
ĠÎ½ Î±ÏĦ
ÏģÎµ ÏĦ
ÏĢ Î¼
Î±Ïģ Î³
Ïĥ Î¿ÏģÏĢ
Î² Î¼
Îº Î³
Î¹ ÏĦÏĥ
Î §
Î¯ Î»
Î¿ÏĢ Î¼
Î±ÏĦ Î±Îº
Ġ -
Î¹ Î¿ÏĢ
.. .
Î·ÏĦ ÏĮ
Îµ Î»
ÏģÎµ Î¼
Ïĥ Î¬
Î¿ÏĢ Ïħ
ĠÎ¿ Î¤
Î ĺ
Î± Ïĩ
ĠÎ± Ïģ
Î» Î¬
ĠÎµÎ¼ ÏħÎ¿
ĠÎ·ÏĦ Ïĥ
ĠÏĤ Î¿
Î´ Î¯
ĠÎ±Î½ ÎŃ
Ġ )
Ġ Â»
ĠÏĤ Î±ÏĦ
Î±Ïģ Î±ÏĢ
ĠÏĤÏī ÏĢ
Î»Î» Î¬
ĠÎ± ÏĦÏĥ
ĠÎ±Î¹ Î¼
Î¿ÏĢ Î¿
Î½ ÎŃ
ĠÏ İ
Î ¦
ĠÎ±ÏĦ Î±Î¼
Î± Îļ
Ïĥ Ïİ
ĠÏĤÎ± Î¯
Ïĥ Î¯
ÏĮÏģ ÏĢ
Ïħ Î´
Î± Î²
Ïį Îµ
ĠÎµ Îº
Î» Î±Îº
ĠÎ¹ ÏĦ
Ġ 0
Î³ ÏģÎµ
Î»Îµ ÏĦ
ĠÏĤ Î±Î¼
Î¿ÏĦ Î±Î¼
Î´ Îµ
ĠÎ® ÎºÎ¹ÏĦ
Î» Î¿
ĠÎ¹Îµ ÏĩÎŃ
Ïį Ïĥ
Î Ī
ĠÏĤ Î·
ĠÎ½ Î±
1 02
Î¿Ïģ ÏĦ
Î® ÏĦ
Î¶ Î¯
Î· Î»Î»
Ġ Îĳ
r e
ĠÎ± Ïĥ
ÏĤ Îµ
ĠÎµ ÏĦÏĥ
ĠÏĤ Ïİ
Ïħ Î¿ÏĢ
Î¿ÏĦ Ïĥ
Î¹ Î±
Î±ÏĦ Ïĥ
Î¬ Î»
Ïģ Î¿ÏĨ
Ïį Î¿Ïģ
Î¹ ÏģÎµÏĢ
Î³ ÏĮ
ĠÏĤÎ® ÎºÎ¹
Ïħ ÏĦ
ĠÎ½Î¿ÏĦ Ïĥ
Ïģ Ïĩ
Ġ e
Ïħ Îº
ĠÏĤ Î¹ÏĦÏĥ
Î½ ÎµÎ¼
ÏĨ Î±ÏģÎ³
Î¹Îµ Î»
ĠÎ½ Î±Ïĥ
Î¶ Î¬
Î´ Î¬
ÏĨ Î¼
ĠÏĤÎµ ÏĦ
Î® Î»
ÏĮ Î¼
ĠÎ¯Îµ Î¸
Îº Î¯
ĠÎ¬ ÎºÎ¹ÏĦ
Î¹ Î±ÏĢ
ÎŃ Î½
Î¼ ÏĮ
ĠÎ¬ Î»Î»Î±
ĠÏħ Î¿Î¼
ĠÎµÏĦ Îµ
ĠÎ± Î¯Îµ
Î¼ Î¿Î½
Ïİ Ïĩ
ĠÎ·Ïĥ Ïī
Ïģ Î±ÏĢ
ÏĨ Îµ
Î¸ Î±Îº
Î Į
Ïħ Î£
Ï Ĭ
ĠÎ± Î¹Îµ
Î³ Îµ
Î¿ Ïĥ
Î±ÏĦ ÎµÎ¼
Î® Î¼
Î» Î¿ÏĢ
n i
Î³ Î±Ïģ
Î³ ÎµÎ¼
Ïį Î¿ÏĦ
ĠÏĮ ÎºÎ¹ÏĦ
Î·ÏĦ Ïĥ
ĠÎ¹ ÎŁ
Î½ Ïĩ
ÏģÎµ ÏĦÏĮ
Ïī Ïĩ
ĠÏĤÎŃ ÎºÎ¹
ÏĤ Î¹Îµ
ĠÎµÏĦ Î¯Îµ
Ġ Î£
Ġ s
Ïī Î½
ÏĤ Î·Ïĥ
ĠÎµÎº Î·Î¸
Ïģ ÏĮ
Ïį Î´
ĠÏĤÎ± Ïĥ
Ïģ Î¿ÏĢÎ¼
ÏĦÏĥ Î¹
ĠÏĮ ÏĦÏħÎ±
Ïħ Î¸
Î½Î¬ Îº
Î¯Îµ Î¼
Î¹ Î±Îº
Î½ Î±Îº
ĠÎ¹Î±ÏĦ Î½
ĠÏĤÎµ Î¯
Î± ÏĨ
Ïĩ ÏģÎ¬
Ïħ ÏĨ
Î¹ÏĦ Î½Î±
Î½ Î·Î»Î»
ÏĮÏģ Ïĩ
ĠÎ½Ïİ ÎºÎ¹
Î ©
Î¹ Î±ÏĦ
ĠÎ·Ïĥ Î·
ĠÏį Î¿ÎºÎ¹
ÏħÎ¿ Î¼
Ïģ Î¿
ÏģÎŃ ÏĨ
Îµ Ïĥ
Î¬ Î½Î±
Î³ÏĮ Î»
ĠÎ½ÏħÎ¿ ÏĩÎŃ
Î½Î± Î¼
ĠÏĤ Î¿Ïģ
Î¿Î½ ÎŃÎ¼
ĠÎ· Î¾
Ïĥ Îµ
ĠÎ½Î±ÏĦ Î®
Î® ÏĦÏĥ
! !
Î¹ ÏĨ
Î»Î» Îķ
Î½Î¬ ÏĢ
Ïĩ ÏĮ
n o
ÏİÏģ ÏĢ
ĠÎ¹Îµ ÏĢ
Ïħ Ïģ
Îµ ÏĢ
Î³ Î·
Ïħ Îĳ
ÏĤ Î±
Ïĥ ÏĦ
ÏĤ Î±Î¯
n a
ĠÎ± Î¯Ïģ
ĠÎ±Î¯ Ïĥ
ĠÎ½ Î¿
Î± Îł
ÏĦÏĥ Î¹Ïģ
Î¹Î» Î¿ÏĢ
Ïĩ ÏģÎ±
ĠÏį Î¿
Î® Î´
ĠÎ½ Îµ
ĠÏĤ Î±Î½
ĠÏĮ Î¼
ĠÎ¹ Îº
Ïĩ Îµ
Î¯ ÏĢÎµ
Î¯ Î¿ÏĢÎ¿
Î¬ Î²
Î¬Ïģ Î³
Î» ÏĢ
Î·Î» ÏĢ
ĠÎ¹Îµ ÏĥÎ®
ĠÏĤÎ¹Îµ Ïĥ
Î¿Îº Ïĥ
ĠÏĤÏīÏĢ ÏĮ
ĠÎ±ÏĦ Î·ÏĦÏĮ
ĠÎ¿ ÏĥÏĮ
Ïį Î¿Î»
ÏģÎµÏĦ Ïį
Î¬ ÏĢ
Î½ ÏĮÏģÏĩ
ĠÎ¿ Ïģ
Î½ÏĮ Î¼
Î½Î¹ Î¿Îº
ĠÎµ Î¸
9 1
Î½ Î¿Ïģ
Ġ 5
ĠÎ½ ÏįÎ¿
ĠâĢ ĵ
Î³ Î³
Î¿ÏĦ ÏĥÎ¹
ÏĮ ÏĦ
Î±Ïģ Îº
Ġ !
Î Ĩ
ĠÏĤÎ¹Îµ ÏĥÎ®
r a
ÏĤ Î®
Ïī ÏĦ
ĠÏħÎ¿ Î¯Ïģ
Î½ ÏħÎ¿
Î¯ ÏĢ
Î¶ Î¯Ïģ
ĠÎ¿ Î¼
Î½ Îĳ
ĠÎ± Î¤
âĢ ¦
ĠÏĤ Î¯Îµ
ĠÏĤ Î¿Î»
ÏīÏģ ÏĢ
Ïį Î¿Î¼
Ġ 1
Î® Î¸
Î¹Îµ Ïĩ
Ïĥ Î¹Ïģ
ĠÎ¿ Î¹ÏĢ
ĠÎ· Î¼
Ġ 2
Ïī Ïĥ
Î¥ ÎŁ
Î´Î¬ Î»Î»Îķ
ĠÎ±Î¯ Î¼
Î¿ÎºÎ¹ Î¿
Î» Î·
r o
Î¬ÏĦ Î±Îº
Î½ Î¿Î¼
Î¿Î¼ Î·Î´
Î¬Ïģ Î±ÏĢ
Î¯ Ïĥ
ĠÎ¹Î±ÏĦ Î½Î¿
ÏĦÏĥ Î±
ÏĢ Îĳ
ÏĤ ÏħÎ¿ÏĦ
Ïĩ Î¯Îµ
ĠÎ¬ÏĦ Î±Îº
ÏĤ Î±Î¼
ĠÎ¹Îµ Ïĥ
ÎŃÏģ ÏĢ
Î¾ Î±
Î¿Ïģ Îł
ĠÎ¹Îµ Î½Î¯
ĠÏį Î»Î¿ÏĢ
ĠÏĤ Î¿ÏĦ
Î´ Î¬Î¼
ĠÎ½Î±ÏĦ ÏĮ
Î¿ Îł
ÎºÎ¹ Î´
Ġ Î¯ÏĦ
ÎŃ ÏĢ
ÏħÎ¿ Î»
ĠÎ® Ïĩ
Î¹ Î³
Ġ ;
Î¹ Îº
Î· ÎĶ
Î¯ ÏģÎµÏĢ
Ġ Îķ
Ġ "
ÏĦ Îµ
Ïħ Îķ
ĠÏĤ Î¿ÏĦÎ±Î¼
Îº ÎŃ
t s
Î¬ Î¹Î´
Î¿ÏĦ ÏħÎ±
Ġ ÎĻ
ĠÎ½ Î±Îº
Î® Ïģ
Î»Î» Î¿ÏĢ
Î½Î¹ Îº
ÎºÎ¹ÏĦ Î±Î¼
ÏĤ Î·ÏĦ
Ïī ÏĨ
Î½ Î¸
Ïİ ÏĦ
Î¹ Î²
ÏģÎµ Î¸
Î¼ ÏħÏĥ
Î½ÎµÎ¼ ÏĮ
Î¿ Î¹Î´
ĠÏħÎ¿ Î¯
ÏĩÏģÎ¬ ÏĢÏħ
Î¿ Î³
ĠÎ¿ Î¯Îµ
ĠÎ¹ÎµÏĢ ÎŃÏģÏĢ
Îµ Î¾
ĠÎ½Îµ ÎĶ
Ïħ Î»
ĠÏĤ ÏįÎ¿
ĠÎ¿ Î¹Ïģ
Î ĸ
ÏĦ Î·
Ïī Î¶
Ïĥ ÏĥÎ¹
ĠÏĤÏħÎ¿ÏĦ Ïĥ
l a
Ġ 8
ĠÎ¯Îµ ÏģÎ¿ÏĢÎ¼
ÎºÎ³ ÏħÏĥ
Ïĩ Î¹
ÏĨ Î±
ĠÏĤÎµ Ïģ
ĠÎ¬ ÏģÎ¿ÏĨ
ĠÎ½ ÏĮ
Ġ 3
ÏīÎ½ Î³
ĠÏĤ Î¿Î½
ÎºÎ¹ Î¼
ÏĥÏĮ Îº
ĠÎ¿ Î»
Î½Îµ Î³
Îº Î±Ïģ
Î¹ ÎĶ
ĠÎ± Î»
Î¯ Îķ
n e
0 0
Î±Î¹ Î³
Î±ÏĦ Î±Î¼
Î±Îº Î¹Î´
Ġ 4
Ïį ÏĦ
ÏĤ ÎŃ
ĠÎµÎ¸ Î¬Îº
ĠÏ ģ
ÏĮÏģ ÏĦ
Î·Î» Îº
ÏĤ ÏħÎ¿
ĠÎ·Ïĥ Î·ÏĦ
ĠÎ® ÏĦÏħÎ±
Î·Ïģ Ïĩ
Î¿Îº Î±
ĠÎ¬ÏĦ ÎµÎ¼
Î»Î¬ Î³ÎµÎ¼
ĠâĢ Ļ
ĠÎ· Î½ÎŃÎ¼
ĠÎ½ Î±Î½
Îĳ Îł
Î¼ Î±ÏģÎ³
ÏĤ Î·
Î¿ Ïĩ
Î¯ Î¿ÏĢ
Î¹Î±ÏĦ Îµ
Î±Ïģ ÏĦ
Î³ ÏģÎŃ
r g
ĠÎ¿ Î½ÎŃÎ¼
ÏģÎµÎ¼ Î®
ĠÏĤÏĮ Î¼
Î³ Ïī
Î¿Î¹ ÏģÎµÏĢ
Î´ Î¹Îµ
ĠÎ½ Î¹Ïģ
Î¿ Î²
ĠÏĤÎŃ ÎºÎ¹ÏĦ
ĠÎ¿ Î½ÏĮÎ¼
Î³Î±Ïģ ÏĢ
ĠÎµ ÏĩÎ¯Îµ
t i
ÏĦ ÏĢ
Ïĥ Î¹ÏĦ
ĠÏħÎ¿ Ïĥ
ĠÎ±Î¯ Î¿ÏĢÎ¿
Îº Î¬
Ġ a
Î» ÎŃ
Î¿ Îļ
Î³Ïģ ÏħÎ¿
ĠÎ±Î¹ Îĵ
Ïħ Î³
ÏĮ Îº
Î¸ Î½Î±
ĠÎ¹ Î±Îļ
ĠÎ±Î½ ÎŃÎ¼
ĠÏĤ Î¿ÏģÏĢ
Ġ ÎĿ
ĠÎµ Îľ
ĠÎ· Î½
Î½Î± ÏĢ
Ïĩ Ïģ
Î±Î½ Îĳ
ĠÎ® Î¼
Î±Î½ ÏħÎ´
Î¸ Î·
Îµ ÏĩÏĥ
ÏģÎµ ÏĨ
ĠÎ· ÏĪ
Î³ ÎŃ
ĠÏį Î¿Î¼
ĠÎ±Ïĥ ÎŃÎ¼
ĠÏĮ ÏĦ
Ġ, Â»
ĠÏİ Î½Îµ
ÏĥÏĥÎ¹ ÏģÎµÏĢ
ÏħÎµ ÎºÏĥ
ÏĮ ÎºÎ¹
Î¿Ïģ Î´
Ġ 6
Î¯ Î´
ĠÏĤ Î¯Ïģ
Ġ 7
Ġ, )
Î» ÏħÎ¿
Ïį Î¿Î½
ĠÏĤÎ® ÎºÎ¹ÏĦ
ĠÎ¿ ÏįÎ´
Î½Î·Î»Î» Îµ
ĠÎ¹Î±ÏĦ Î¯Îµ
Îº ÏĬ
ÎŃ ÏĩÏĥ
ÏĮ ÏĢÎ±
ĠÎ¿ Î¹
ÎµÏģ Î·
Ġ t
Ġ â
Ïģ Î¿Î¼
Ïħ Î¼
o o
Î½ Î¿Î½
Î½ Î¿ÏĦ
Î¯Îµ Î´
Îĳ Îļ
Î¹ÏĢ Îķ
Î¯ÏĦ Î½Î±
Ïī Î»
Î® ÏģÏĩ
Ïī Î´
ÏįÎ¿Ïģ Î¿ÏĢÎ¼
Î²Î¼ ÏħÏĥ
Îº Îķ
Î¿Ïģ Îµ
Îº Ïģ
Ġ '
Î¿ Î½Î±
Î¹Ïģ ÏĦ
Î² ÏħÎº
ÏħÎ¿ Ïģ
Î¸ Î®
Ïĩ ÏħÏĦ
Î² Î¿ÏģÏĢ
Ġ Î¿ÏĢ
ÏĤ Î±Ïĥ
ĠÎ® ÏĦ
ÏĥÎ± Î³ÏģÎµ
Î¶ Î±Î¼
Î¬Ïģ ÏĢ
Î³ÏģÏħÎ¿ Î¹Î¼
ĠÏĤ Î±Ïģ
Î¿Î¼ Î¹Ïĥ
ÎŃÎ¼ Î·
ĠÏĤÎŃ ÏĦ
ÎµÎ¼ ÏĮ
Ġ. ..
Ïį Îº
Î±Î» ÏĢ
Ïĥ ÏħÎ¿
Î¹Îµ Îº
ĠÏĤÏİ Î¸Î±Îº
Î¹Îµ Î¼
l i
Î³Î± Î½Î±
Î¯ Î±
Î³Ïģ Ïħ
ĠÏĤÏĮ ÏĦ
ĠÏĤÎ±ÏĦ Î½Î¿
á ½
Î² Îµ
ĠÏĤ Î¿Î¹
t a
Î· Î¶
ĠÎ± Î»ÏĮ
ÏģÎµ Îł
m o
Î½Ïī Î½Î¹Î¿Îº
Î¹ Î¿Î»
Î½Î¿Ïģ Ïĩ
Ïį Ïģ
Ïģ Î¿ÏĢ
Î´ Î¹
âĢ ľ
Î· ÏĪ
ĠÎ½ Î·
Î¬ Î½
ÏĥÎ¹ ÏĢÎµ
Î³ÏģÏħ Î¿ÏĢÏħ
e r
Î ŀ
Ġ o
Î´Î¬Î¼ Î¿
Î³Ïģ ÏħÎ¿ÏĦ
ÏħÎ¿ Îº
ÎĻ Îķ
Î¬ Î¹
Î· Î½Î¯
ĠÏĤÎ¯Ïģ ÏīÏĩ
Î¯Ïģ Î²
Ïį Î£
ÏģÎµÏĦÏĮ ÏĥÏĥÎ¹ÏģÎµÏĢ
Î» Îº
Î¹Ïģ Îº
Î»ÎµÏĦ Î¿ÏĢÎ±
ĠÎ¹ ÏģÏĩ
c i
ÏģÎµÎ¼Î® Ïĥ
Î¼Î¿Î½ Î¿ÎºÎ¹Î¿
ĠÏĤÎ¹Îµ ÏĥÏİ
ÏĮ ÎºÎ±
ĠÎ¹Îµ Î¶Î¯
ÎĻ Î¡
Î¹ Îĵ
ÎŃ ÏĨ
Î± Îľ
Î´ Î¿
Î±Ïģ ÏĦÏĥ
l e
Î¹Î´ Î¯
ĠÏĤÏī Î¼ÏĮ
Î±ÏĦ ÏħÎµ
ĠÎ¬ Ïģ
Î¤ Î£
ÏĮ ÏĢ
ĠÎ¹ÏģÏĩ ÎŃÎ¼
Î¾ Î±ÏĦ
ĠÎ½ÏįÎ¿ Î¸
Î³ÏģÏħÎ¿Î¹Î¼ Î·Î´
ĠÎ± Î´Î¯
Ïĥ ÎŃÎ¼
0 1
Î½Î¸ Îµ
ĠÎ½Ïİ ÎºÎ¹ÏĦ
Î³ Îĳ
Ïį Î»
Î¬ ÎºÎ¹
ĠÏħ Î¿Î»
ĠÎ· Î»
ĠÎµ Î£
ĠÏĮ ÏĢÎĳ
ĠÎ·Ïĥ ÎµÎ¸
Ïĥ ÎŃ
c a
ĠÎ½ÏīÏĦ Î¬Î¼
ĠÏĤÎ±ÏĦ Î½Ïİ
Î´ Î¹Î±ÏĢ
ÏĩÎ¹ Î¿ÏĦÏĥ
Î® Î¶
. Â»
ĠÎ¹ Î¿Î»
ÏģÎµÎ¼ Î·
Î¯ ÏĨ
Ġ y
ÏĦ Î±Îº
ÏĢ ÎŃ
Î¹Ïĥ ÏħÎ¿
ĠÎ±Î¹ Ïģ
ĠÎ½ Î·Î¼
Î±ÏĦ Î·ÏĦÏĮ
ĠÎ¹ Î±Î¼
Ïį Î¸
Ġ d
Î¹Ïģ Î±
Î²Î¼ Î±Î»
o l
Îµ Îľ
ĠÎ¹Î±ÏĦÎµ Î½Î¯
Ïį ÏĨ
ĠÎ¹Î±Î½ Î¯Îķ
ĠÎ½Î±Îº Î·Î¸
ÏĨ Î¬ÏģÎ³
ĠÎ±Î¹ Î½ÏĮÏģÏĩ
Î¹Îµ Î´
Î±Î¹ ÎĶ
ĠÎ¹ ÏĩÏĮ
Î·Î½ ÏģÎŃ
Ïħ Ïĩ
ĠÎ½Ïİ ÏĦ
ĠÎ½Ïī Îµ
ĠÏī Î½Î¬ÏĢ
ĠÎ¹Îµ Î¾
Î»Îµ Ïĥ
ĠÎµ ÏĦÏĮ
ĠÎ±Î½ Ïī
ĠÏħ Î¿Î½
ĠÎ¯ÏĦ Î±Î¹Î³
Î»Î¿ Î²
Î¹Î¿ÏĢ Î¿Î¼Î¹Ïĥ
Î±ÏĦÏħÎµ Î»ÎµÏĦ
Î¿ÏĦ Î±Îº
ÏģÎŃ ÏĦ
ÏĮ Î½
ĠÏĤÎ± Î¯Îµ
Ġ re
Î¯Ïģ Îº
Î½Î± ÏĨ
ĠÎ¹ ÏĥÏĦ
Ġ %
Î³ Î¯Î»
Î¿ÏĨ Î±
Î³ÏģÏħÎ¿ÏĦ Î¹ÎµÎ»
ĠâĢ ¦
Î½Ïī ÏĦ
ÏĤ ÎµÏĦ
ÏĢ Ïī
o r
ĠÎ¬ Î¹
Î¶ ÏĦ
ÏīÏģ Î¸
ĠÏĤ Î·Î½
ĠÎ® ÏĨ
ÏĤ Ïī
Ïĥ Î¹Îµ
Î³ Ïħ
ĠÎ¹Îµ Î½
ÏĢÎ¼ Îµ
Î¾ ÎŃ
Îļ ÎĻ
ĠÏĤ Î¿Î¼
Ïħ Îļ
ĠÎ¹Îµ Î½Î¬Îº
ĠÎ½ Î¬
Î± Î³
Î¹ Î¿ÏĦ
Îº ÏģÎ±
ÏĥÎ± Î²
ÏħÎ¿ Ïĥ
ĠÎ® Î»
Ġâ ĸ
ĠÎ· Î´
ĠÎ±Î½Ïī ÏĨÎ¼
Îµ Î½
ĠÏĤÏĮ ÎºÎ¹
m a
ÎŃÎ» ÏĢ
ÏģÎ¬ ÏĢ
Î½ ÏħÎ£
Î½Î± Î³Ïģ
Î¿Î¼ Î·ÎĶ
Î½ Î³
ĠÎ½ Îĳ
ÏĢ ÏİÏģ
Î¿ÏĢ Î¬Îº
Îµ Îĺ
Î± Î¹Îµ
ĠÏħÎ¿ÏĢ ÏĮ
ÏĢ Îķ
Ġâĸ º
0 02
Î¬ ÏĦÏĥ
ĠÎ± Î´Î¬Î»Î»Îķ
ĠÎ½ÏħÎ¿ ÏĥÎ®
Îµ Î³
Î±Ïģ Î´
ÎĽ Îķ
ÎºÎ± Î¹Ïģ
ĠÎ¬ Î¹Î´
Î»Î± Î³ÎµÎ¼
ĠÏħ Î¿Ïģ
s e
ÏĩÎµ Î½ÏħÏĥ
ĠÎ¿ Î¯Î¿ÏĢÎ¿
ĠÎ¹Îµ Î½Ïİ
ĠÎ½Î¹Ïģ ÏĢ
ĠÎ¹Îµ ÏĥÏİ
ĠÎ± ÎŃÎ½
ÏĤ Î¿ÏĦÎ±Î¼
ĠÏįÎ¿ ÎºÎ¹ÏĦ
Ïģ ÏħÎµ
Ġ _
ÎµÏģÎ· ÏĢÏħ
Î¯Îµ Ïĩ
ÏĨ ÏĥÎ±
ĠÏĤÎ±Î½ ÎŃ
u o
Î¹Î¿ÏĢÎ¿Î¼Î¹Ïĥ Î·ÏģÏĩ
ÎµÎ¼ Î¼ÏħÏĥ
ÏħÎµ ÏĦ
Î½ Î¿Î»
ÏģÎµÏĦÏį Î»Î±Îº
ÏĮÏģ Îł
Î¹ Ïĩ
Îĳ Îľ
Î± Î³ÏģÎµ
Î³ Î±ÏĦ
Î·Î½ÏģÎŃ Î²ÏħÎº
Î» ÎŃÎ¸
ÏĢÎµ Î»
Î½Î± Ïĩ
ĠÎ¬ ÏĦÏħÎ±
ĠÎ· Ïģ
ĠÎµÏĦÏĥ Î±Î¼
ĠÏĤÎµ Î¯Ïģ
ĠÎ¿ ÏģÏĦ
ÎŃ ÎĿ
ĠÎ¹Î±ÏĦÎ½ Î¿Î½
Î½ ÏħÎ¸
Î½Ïī Î½Î¹
Î³ Î¹ÏĦÏĥ
Î¯ Î¼
Î¯Îµ ÏĦ
ÏĦÏĥ Î¹ÏĢ
ĠÎ¿ÏĦ Î£
ÏĢÏī ÏĥÎ¿ÏģÏĢ
Î± Î¯Ïģ
Ïĥ ÏĮÏģÏĢ
Î± Î´
ÏĨÎ¼ ÏħÏĥ
ĠÏħ Î¿Î½ÎŃÎ¼
ĠÎ¹Îµ Î¶Î¬
Ïģ Î±Îº
ĠÎ¹Îµ ÏĩÏģÎ¬ÏĢÏħ
Î´Îµ ÏĢ
Î±ÏĢ ÏīÏģ
Î¿ÏĢ Îĳ
Î± ÏĢÎ±
Î½Î·Î»Î» Îķ
Ġ 9
Î»Îµ Î³Î³
ÎºÎµ Î¾
ĠÎ± ÏģÎµÎ¼Î®Ïĥ
ĠÎ¯ Î¶Î±Î¼
Î¿ ÎĿ
ĠÎ¿ÏĥÏĮ ÏĦ
ĠÎ® Ïĥ
ĠÎ¹Îµ ÏģÎŃÏĨ
Î½ Î±ÏĦ
Ïĩ Î£
ÏĤ Î¿
Î±Î¼ Î·Ïĥ
Î½ Î®Î¼
ĠÎ½Ïī Î½ÎŃÎ¼
ÏĢÏħ ÏĦ
Î³ Î·Î´
ÏĮ ÏĢÏħ
Î® ÏĢ
ÎºÎ±Ïģ Î±Ïĩ
Î¬Ïģ Îº
ĠÏĤ Î¿ÏĢ
Î¿ÏĨ Î¿Ïģ
t e
. )
Î¹Ïģ ÎºÎµ
Î²Î¼ Îµ
Î¯Îµ ÎºÎµ
ĠÎ¹ÏĦ Î¬Îº
Î¹ Î¿
ÏīÏģÎ¸ Î½Î¬
ĠÎ± Îĺ
ĠÎ¿ Î¹Ïĥ
ĠÎ½ Î±Ïĩ
ĠÏĤÏĮ Î½Îµ
Î½ ÏįÏĥ
ĠÎ±Î¹ Î´Î¯
ĠÎ±Î¼ ÏĮÎºÎ±
ĠÎ±Ïģ Ïİ
Ïį Î¿Îº
Î½Î±Î¼ Î·Ïĥ
Ïĩ Ïħ
Î±Î½ ÏħÎ³
ĠÎ± ÏģÏĦ
ÏħÎ¿ Î´
ÏĢ Î¿
Î¹ Î¿Îº
ĠÎµÏĦÏĥ Ïİ
Ïĥ Ïĥ
s i
Ïį Ïĩ
Ïį ÎµÏĦ
ÏĨÎ¼ Îµ
Ïī ÎµÎ¸
ĠÏĤÎ¹Îµ ÏĥÎ¬
ÏĥÎ¹ Î¼
Î³ ÎµÎ»
ÏĮÏģ Î´
ÏĨ ÎŃ
ĠÎ±Î¹ ÏĦ
Î¹Ïĥ Î¿Î¼Î·Î´
k oo
ĠÏĤ Î·Î»
Î±Ïģ Î±Îł
ĠÎ· Î¼ÏĮ
Î» Î·Î´
ĠÎ½Î±Î½ ÎŃ
Î½ Î·Î¼
Î½Î¹ ÏģÎµÎ¼
Î³Ïī Î³
Î¯Ïģ ÏĦ
ÏģÎµÏĦ Ïī
ĠÎ¹Îµ ÏĪ
ĠÎ¯ Î¿
Ġ0 0
ĠÏī ÏĦ
ĠÎµ Î´
ĠÏĮ Ïģ
ĠÏĤÎ¹Îµ Î¾
Ġ Î¥ÎŁ
ÎŁ Îł
Î¾ Î±ÏĦÎµÎ¼
Ġ ÏĦ
Î¸ Î±Î²
ĠÎ± ÎĿ
Î¼ Î¿Îº
Î¶ ÎµÏĢ
Î½Î± Îł
ĠÎµÎº Î·ÏĦ
Î¹Ïĥ ÏĦ
Î½ Î®
ĠÏĤÎ±ÏĦ Î·ÏĦÏĮ
ĠÎ·ÏĦ ÏİÏģÏĢ
ĠÎ·ÏĥÎ· Î¯Î¿ÏĢ
Î½Ïĩ ÎµÏĦ
ÎºÏĥ Î¯ÏģÎ²
ĠÎ¹Îµ ÏĥÎ¬
Î¹Î¿ÏĢ Î¬Îº
ĠÎ½Î·ÏĦ Î£
Î² Î¹Î²
ÏĢ Î¹Î¿Î»
ĠÎ¹ Î¤
Î»Î¿ ÏĩÏĥ
Î®Î» ÏĢ
Î±Î½ ÏħÏĥ
ĠÏĤÎ® ÏĦ
d i
ÏĨ ÏģÎ¿Î¼
ÏĢ Î¿ÏģÏĦ
Î±ÏĦÏĥ Î¬ÏĦÎ±Îº
Ïį Î¿ÏĢ
ĠÎµ Î¾
Î¹Ïģ Î¬
Î· Î¾
Î¬Ïģ Î´
ĠÎ· Î»ÏĮ
ĠÏĤÎ±ÏĦ Î½Î¿Î½
Î½ Îķ
Î¹ÎµÏĩ Î¹ÏĢÎµ
ĠÎ±Î¹ Î´
Ïĥ ÏħÏĨ
ĠÏĤÎ±Î¯ Ïĥ
ĠÏĤÎ· Î¾
ÏĨ Ïĥ
ĠÏħÎ¿ Î¯Îµ
Î½Î¬ Î²Î¼Î±Î»
Ġ g
Î¿Î½ ÏħÏĥ
ÏĥÎ¯ ÏĢ
Î³ Î¿
ĠÎ±Î¼ Ïĥ
Î¹Îµ ÏĢ
Îĳ ÎĿ
ĠÎ±Î¯ Î»
Î³Î·Î´ Î¿
Î½ Î¿Îº
ĠÎ¿ Î¯
ĠÎ·Ïĥ Î±ÏĦ
ĠÏĤÎµ Î½ÎŃÎ¼
Î¿ÏĦ ÏīÏĨ
Î¸ ÏģÎ¬
ĠÎ·Ïĥ ÏħÎµ
ÎĹ Î¤
Îĳ Î¡
ĠÎ± Îº
Î» ÏĢÎ±
Îº Î®Î¸
8 1
ĠÎĳ ÎĻ
Îµ Î²
ÎºÎµ Î»Î·
Î»Î»Î¬ Î²
ĠÎ¹ Î¿Î½
Î¿Ïģ ÏĦÏĥ
ĠÏħÎ¿ Î¯Î»
ĠÏĤÎ± Î¹Î¼
ĠÏį Î¾Î±ÏĦÎµÎ¼
Ïħ ÏĢ
Î±ÏĢ Î¼
Î¹Î´ Î¹
Î½Ïİ ÏĦ
ÏĤ ÏĮ
Î¬ Îļ
Î¿Î¼ ÏģÎ±
a m
Î³ Î¬
ÏĩÏģ Îĳ
ĠÎ½Î¿ ÎŃÎ»ÏĢ
Î® ÎĶ
ĠÎ·Î¼ÏĮ ÎºÎ±
ÏĨ Î¿ÏĢÎ±
ÎºÎ¹ ÏĢÎµ
ÏħÎ¿ Î¤
ÎµÎ» ÎŃÏĦ
ÎŃ Î½Î±
Î® ÎºÎ¹
Î¹ Î½
ÏĤ ÎµÏģ
Ïį Î¼
ÏĬ Î¿ÏģÏĢ
Î¥ Î£
ÏĤ Î¿ÏĦ
ĠÎµÏĦ Î¿ÏĢ
Î½Ïī ÏĨ
ÎŃÎ» Î²
ĠÏĤ Î¬
Î½Î±Î¼ ÏģÎµ
ÎŁ Î¡
Î·Î¸ Î±Îº
ĠâĢ Ŀ
Î· Î¯Î¿ÏĢ
Î±ÏĢ Îµ
Ġ Î»
Î½Î± Î¸
ĠÎ¹ÎµÎ½Î¯ Î³
ÏĮ ÏĨ
ĠÎ½Î· Î¤
ĠÎ½ ÏįÎ¿ÏĦ
ĠÏĮÏĦ ÏħÎĳ
ĠÎµ ÏĪ
Îĳ ÎĻ
Ïį Î»Î±Îº
ĠÎµÎ¼ ÏįÎ¿
ĠÎ± Î´
ÏĮ Î»
Î½ÎŃ Î³
Î¹ÏģÎºÎµ ÎºÎ³ÏħÏĥ
Ġ &
ÏĤ Î¿Î»
ÏģÎµÏĢ Ïħ
ÏħÎ¿ Î³
!! !
Îĳ Î¤
ĠÎ½ÏħÎ¿ ÏĩÏģÎ¬ÏĢÏħ
Î¹ Î¿Î¼
s a
l o
Î¿ÏĢ Îµ
ĠÏī ÏĥÎŃÎ¼
ĠÎ±Î¼ Î·ÏĦ
re t
Â Ń
Î Ħ
Î® Î½
ÏĢ Î¬
Î· Î³
ĠÎ¿ Î½
Î¹Îµ Ïĥ
Î± Î¯Îµ
Î¿ÏĨÎ¿Ïģ Î·Î»ÏĢ
Î¿Î» Î¿
ĠÎ¹ Î¿Ïģ
Î± Î¸
Ġ. )
Î·Î» Î¸
ÏĨ Î¿
ÏĢÎ± Î½Î±
ĠÏĤÏī ÎŃ
ĠÎµ Î½Î¹
Â µ
Ïģ Î¹Î±ÏĦÎµ
ÏĢ Î¥
Î¹ÎµÎ» Îº
Î¿ Î³Î±
á ¼
ĠÎµÎ¼ÏħÎ¿ ÏĩÎŃ
Îķ Îľ
Î³ Î²
ĠÎ®ÎºÎ¹ÏĦ Î±Î¼
ÏĨÎµ Îº
Î· Î¹Î¿ÏĢ
ĠÎ¿ Î½ÎµÎ¼ÏĮ
Î³Î±Ïģ ÏĦ
Î½Ïĩ Î¹Î±ÏĢ
Ġ0 1
Ġ no
Î¹Î» Î¿Îł
Î·ÏĦ Î±Îº
ÎºÎ³ Îµ
Î½Î¿ Î³
ÏĥÎµ Îĺ
Î½Î±Ïĩ Î·Î¼
Î¯ÏĦ Î±Î¼
Î®Î¸ Îĳ
ĠÏĤÎ± Î¹Îµ
ĠÎµÏĦ ÏįÎ¿
Î¹ ÏģÎµÎł
ĠÎ® ÏīÎ¶
Îº ÏģÎ¬
Î¿Ïģ Ïĩ
Ġ Î¿ÏĢÎ±
ÏĦ Î½Î±
2 1
Î¬ Î¸
ÎŃ ÏģÏĦ
ĠÏĮÎºÎ¹ Î´
ÏįÎ¸ ÏħÎµ
Î·Î» Î²
ÎºÏĬ Î±ÏĢÏīÏģ
b e
Ïį Îļ
ÏģÎ± Î²
ÏģÏĮ ÏĨ
ĠÏĤÎŃ ÏģÎ¿ÏĨ
ÏĤÎ¹Îµ ÏĥÎ®
ĠÎ¹ Î±Ïĥ
Î±Î¯ Ïĥ
ÏĤÎ¹Îµ Ïĥ
ÏĮ ÏĦÏħÎ±
ĠÎ½ÏħÎ¿ Ïĥ
Ïĩ ÏģÎŃ
Îļ Îķ
Î·Î½Î¯ Îº
ĠÎ½ÏħÎ¿ Î½Î¯
ĠÎ¹ Ïģ
ÏģÎµÏĦÏį Î»Î±Î³ÎµÎ¼
ĠÎ·Ïĥ ÏīÏģ
ÏĮ Î´
Î½ÏīÎ½Î¹ Î¿ÎºÎ¹
ĠÏį Î¿ÏĨÎ±
Î¿ÏĨ Î±Î¹Î´
ĠÏīÏĦ Î¬Îº
Î± Î´Î¬Î»Î»Îķ
ĠÎ½Î±Ïĩ Î¯Îµ
ĠÎ·Ïĥ ÎŃÎ¸
ĠÎ¿ Î¹Î´
Î· ÏĨ
Î½ Î¿ÏģÏĦ
Î¿ Î¹Ïģ
Î³ Î¬ÏģÏĢ
ÏĦÏĥ Î¹Î»
ĠÎ¹ÏĥÏĦ ÎŃ
Ġ0 00
ĠÏĤÎ± Î¯Ïģ
Î±Î¹Î´ Î½Îµ
ÏĤ Î±Ïģ
ÏģÏĦ Î½Îµ
Î¹ Î¿Î½
Î¸ Î¬ÏĢ
Î¹Î» ÏĮ
Î»Î¬ Î²
Îº Î±Î¼
ĠÎ¬ÎºÎ¹ÏĦ Î±Î¼
ĠÏĤ ÏįÎ¿Î¼
ÏģÎ± Ïĩ
Î³ ÏħÏĥ
ĠÏĮÎ¼ ÏĥÎ¹
Î±Ïĥ ÏĥÎµÎĺ
Î¿Î¹ Î¾Î±
ĠÎ¹Îµ Î¶
ĠÎ· Î»Î¬Î³ÎµÎ¼
Î ī
ĠÎ¬ ÏĦÏĥ
ĠÎµÏĦÏĮ ÏĦ
t o
Ïĩ ÎĪ
ĠÎµ Î½
ÏģÎŃ Î¾
ĠÎ¿ ÎŃÎ½
g ol
Ïį Î³
Î¿Î´ Î¿
ĠÏĤÎµ Î¹Îµ
ÏĨÎ±ÏģÎ³ Î¿ÏĦÏīÏĨ
ĠÏĤ Î¿Î½ÎŃÎ¼
Î³Î¿Î» ÎºÎµ
ĠÎµÏĥ Ïī
5 1
Ïģ Î®
ĠÏĤÎµ Î»ÏĮ
Î»Î» ÏħÏĥ
ĠÎ±Ïģ ÏİÏĦ
Î¿ÏĦÎ±Î¼ Î³Î±ÏģÏĢ
Î¯ÏĢ Ïĥ
ÏĩÎŃ Î½ÏħÏĥ
Î´ Î½Î±
h c
ĠÎ±Ïģ ÏİÏĩ
ĠÎ¬Î¹Î´ Î¹Î±ÏĢ
Î¯Î» Î¿ÏĢ
ÎºÎ± Î¹Ïĥ
Îµ ÏĦÏĥ
ĠÏİ Î´Îµ
ĠÏī Î³ÏĮÎ»
ĠÎ± Î´Î¬Î¼Î¿
Î· Ïĩ
w e
Î¯ Î±Î¹Î´
ĠÎ½Î¹Ïģ Îł
Î½Î¿ Î³Îµ
Ġ. Â»
ĠÎ¬ Î»Î»Î¿ÏĢ
ĠÏĤÎ·Ïĥ Î¯ÏĢÎµ
âĢ Ŀ
ÏĢ Î¿ÏĦ
Î² Î¬Î»
ĠÎ® ÏĨÎ±ÏģÎ³
Î· Îº
Î½ ÏįÎ¿
Ïĥ ÏħÎ¿Î¼
ÏĦÏĥÎ¹ Î½Ïī
Ïĩ Î¿Î¹ÏģÎµÏĢ
Ïį Î±
ÏīÏĥ ÏĮÏģÏĢ
Î¹Îµ ÏģÏĩ
Îķ ÎĶ
ÎµÎ¼ Î¬
ĠÎ¹Îµ ÏĥÎ¯
Ïİ Î½Î³
ĠÏħÎ¿Î¯Ïģ Î±
Î´ Î±Î»
Î½Î¸ Îķ
ÏģÎµ Îº
ĠÎ¹Î±ÏĦÎµ ÎºÏĥÎ¯ÏģÎ²
Î¼Î¿Î½ Ïħ
Î» Ïħ
Î¿Î´ Î¿Î½
Ġ /
ĠÎ½ÏħÎ¿ Î¶Î¯
Î½Î¿Î³Îµ Î³
ĠÏİ ÏģÏħÎµ
ÏĢÎ¼ ÏħÏĥ
Î¯Îµ Î¸
ÎµÎ¼ Î¹ÏĦÎ½Î±
ĠÎ±Î¼ ÎŃÎ¸
ĠÎ½ ÏįÎ¿ÏģÎ¿ÏĢÎ¼
ÎŁ Î¤
Î½ ÏĢ
1 1
ĠÎ±ÏĦ Î½Î¬ÏĢ
ĠÎ±Î½ÏīÏĨÎ¼ ÏįÏĥ
Î ¨
.. ..
g a
Î¾ Îķ
Î· Î½Î¹Îº
Î»ÏħÎ¿ Î²
ĠÎ¹ Î¿ÏĢ
ĠÏĤ ÎŃÎ¼
ÏģÎµ ÏĦÏĥ
ÎµÎ» Î·ÏĦ
h t
Îº Î±Î»
Î½ Î¿ÏĢ
Ïį Î¿ÏĦÏĥ
8 102
ĠÎ·ÏĥÏī ÏĦÏĢ
Î² Î¬
i r
ĠÏĤÎ¹Îµ ÏĪ
Î·Î¸ Î±Î¼
Î² ÎŃ
Î±ÎºÎ¹Î´ Î±Î¹Î´
Î¹ÏĥÏħÎ¿ ÏģÎ±ÏĢ
Ïį Î¿ÎºÎ±
Îķ Î¤
Î½Î±Î³Ïģ Î¿
ĠÎŁ Î¤
Î½Î±Îº Î¹
ÎºÎ± Î¹Îµ
ÎºÎ¯ Î´
Ġ Î¼
Î² Î±Î»
Î³ Îķ
ÏĩÏĮ ÏĦÏĥ
ĠÎ½Ïī Î¯
ÏĦ Î±Î¼
Ïģ Î²
Î·ÏĦ ÎºÎ±ÏģÎ±Ïĩ
Î»Î· ÏĪ
ĠÎ¿ Î½ÎµÎ¼
ĠÎ±Î¼ Î¼Î±ÏģÎ³
Î± Î£
ÏĤ ÎµÎ´
ÏģÎµÏĦ Î¯Î±Î¹Î´
ĠÏĮ ÏĦÏĥ
Ïī ÏģÎµ
Ġ i
ĠÏĤÏįÎ¿ ÎºÎ¹
ĠÎ¹Î±ÏĦÎµÎ½Î¯ Î³
Î± Î¹Ïģ
Î¯ Î±ÏĢ
Ġ la
ĠÎ± ÏģÎµÏĦÏĮ
ÎºÎ± Îľ
Ġs e
Ïį ÎµÏģ
Î¿ÏĢ Î¿ÏĦ
ĠÎ±Î¹ Îľ
ÏĢ Î¯Îµ
Î¼ Î¬ÏģÎ³
ĠÎ¹Î±ÏĦÎµ Î¶Î¬
Î·ÏĦ ÏģÎ¬
Î±Î½ Î¿Î¼
ĠÏĤ ÏħÎ¿ÏĢ
ĠÏĤÎµ Î´
ÎµÎ»ÎŃÏĦ Î¿ÏĢÎ±
Î½Ïī ÏĨÎ¼ÏħÏĥ
Î±Ïģ Î²
Î»Î± Îļ
Î±Î¹ Îĵ
ĠÏĤ Î¿Îº
Î¬Ïģ ÏĦ
ĠÎ¿ÏĢ ÏĮÏģÏĦ
Î³ Î³Î±
ĠÏĤÎµÏĦ Î·ÏĦÏĮ
Î¿Î´ ÎµÎ´
ĠÏħÎ¿Î¯Ïģ Î²Î¼Îµ
ĠÏĤ Î¬Ïģ
Î¿Î» Îº
Î½Îµ Î¸
ÏĥÎ¹ Î±
ĠÎµÎ¼ Î±Ïĥ
Î¿Î³ Î·ÏĦÎ±Îº
ĠÏĤÎµ Î»
ÏħÎ¿ Î¯
Î® Î½Î±
ĠÏĤÎ¹ÎµÏĥ ÎŃÎ¸
ÏİÏģ Î¸Î½Î±
Î»Î» Îĳ
Î® ÏĪ
Î³Î± Î»Î»Î±
ĠÏĤÎŃ ÏĦÏħÎ±
ÎµÎ¼ ÏħÎ¿
ĠÎ¹Î±ÏĦÎµ Î¶Î¯
Î½Î±Îº ÎŃ
Î½Îµ Îĵ
ĠÎ¿ Î¯ÎµÎ¼
ÎŃÏĦ Î¿ÏĢ
ÏĢÎ± Î¹Î´
Îļ ÎŁ
ÎºÎ³ Î¬Î½Î±
ĠÎ¯Îµ ÏĦ
Î³ÏģÎµ Î½Îµ
ĠÎµÏĦÎ¿ÏĢ Î®Î´
Î¹ Î±Î½
Î½Î¿Î» Î±ÏĥÏĥÎµÎĺ
Ïĥ Ïħ
ÏħÎ¿Î» Î¿ÎºÎ±
ĠÎ¿ Î»ÏĮ
Î¼ Î¹ÏĦ
Î³ Î¿Î¼ÏģÎ±
ĠÏįÎ¿Î¼ ÏĥÎ¹
Î½ÏĮ ÏĬÎ¿ÏģÏĢ
Î³ Î¯
ĠÎ¿ Î³Î¯Î»
Îµ Îº
Ïī ÏĢ
Î¹Î±Îº Î¹Î´
Î¸Î· Î¿Î²
ĠÏĤÎ¹ÎµÏĥÎ® ÏĦ
ĠÎ¹Îµ Î¶Î¯Ïģ
Î»Î± ÏĨÏĥÎ±
Î¹ÏĢ Î¼
Î½ Î¹Ïģ
ÏĦÏĥ Î±Ïģ
w w
Î±Î² ÎŃ
Î³ÏīÎ³ Î±ÏģÎ±ÏĢ
Ïī Î¯
ĠÎ®ÎºÎ¹ Î´
Îķ Îł
ĠÎ±Î½ Ïİ
Î±ÏĦ ÏĥÎ¿ÏģÏĢ
Î³Î¿Î» Î¹ÏĢÎµ
Î¹Ïģ ÎºÎ±
ÎµÏģ Ïĩ
Î¯Ïģ ÏħÎº
ĠÎ® Î´Î¹Îµ
ĠÎµÏĥ Î·ÏĦ
ÏĢÏİÏģ ÏħÎķ
ĠÎ¹Î¿Î» ÏĮ
ÏĦÏĥ Î¹ÏĦ
Î´Î¯ Î»ÎµÏĥ
Î¬ Îľ
Ïģ Îĳ
ĠÎ½Ïī ÎµÏĥ
âĢ Ļ
ĠÎ± ÏģÎŃ
ÎºÎ¯ Î½Î¿Î»Î±ÏĥÏĥÎµÎĺ
Î³ ÏħÏĨ
ÏħÎµ Î»
Î·ÏĦ ÏĥÎ¹ÏĢÎµ
Î® ÏĨ
Î³Ïī Î³Î±
ĠÎ½ ÏįÎ¿Ïģ
Ġ 02
Î±ÏĦ Î½Î±
Ïī Îº
ĠÎµÎ½Î¹ Î³ÎŃ
Î½Î±Î¼ÏģÎµ Îĵ
ĠÏĤÎ¿Ïģ Î´Îµ
Î¿Î´ Î²Îµ
Î½Î± ÏĨÎ¼Îµ
Î¯ÏĢ Îķ
Î½Î¬ ÏĢÎ±
Î½Î¿ÏģÏĦ ÎºÎµÎ»Î·
Î¬ Î»Îµ
ĠÎ±Î¹Îµ ÎºÏģÎ¬
ĠÎ·Ïĥ Î·Ïģ
ÏģÎµÏĦÎ¯Î±Î¹Î´ Î¹
ĠÎ± Î»Î»Î¬
Î» Îĳ
Ïİ Ïĥ
Î³Î¿Î» Î¿
ĠÎ¯ Î¿ÎºÎ¹
Î½Ïī Îµ
ĠÏĤÎ¿ Î¸
Î¿ÎºÎ¹ ÎŁ
ÏīÎ» Î®Î´
ĠÏĤÏī ÏĦ
Î Ĳ
ÎŃ ÏĢÏħ
ĠÏĤÎµÎ¯ Ïĥ
ĠÎ±Î½ ÎĪ
ĠÎ¹ Î»Î¬
ĠÎ¿ Î¹Î´Î¯
ÏħÏĦ ÏĢ
Î½Î± Ïģ
ÎŃ Î´
ÏħÎµ Î´Î¹Î±ÏĢ
ĠÎ¹ Î¿Î½ÎŃÎ¼
Î¹Ïģ Î®ÏĦÏĥ
ÏĥÎ¹ÏĦ Î±Î¼
ĠÎ· Î½ÎµÎ¼ÏĮ
Ġ8 102
d a
Î½ÏīÏĦ Î¬Î¼
Î· ÏĢ
ĠÎ¿ Î»Î»Î¬
ĠÎ± ÏĥÏĮ
Ġ k
ĠÎĳ Î¤
ÏįÏĩ ÏĥÎ¹
ĠÎ·Î´ Î®
ĠÎ®Î¼ Î³Î¹ÏĦÏĥ
ÎºÎ¯ Î±Î½ÏħÎ³
Î³Ïģ ÏħÎ¿ÏĢ
Î® Î²
ĠÎ¹Î±ÏĦ Î¹ÎµÎº
ÎŃ Îł
ÏĤÎµ Î¯
Ïģ Î±Î¼
Î¸ Î¹ÏģÎ±
Î» Î¿ÏĦ
ĠÏĤÏĮÎ¼ ÏĥÎ¹
ĠÎ½ ÏįÎ¿Î»
ĠÎ·Ïĥ Î·Î½ÏģÎŃÎ²ÏħÎº
Î¬ Î³
Î¬ ÎºÎ¹ÏĦ
ĠÎµÎ¼ÏħÎ¿ ÏĥÎ®
Î³Î· Î¿ÏģÏĢ
ÏĢÎ± Î³Î±
Î±Î½ ÏįÎ´
ĠÎ· Î»Î»Î¬
Î· ÎºÏĥ
ĠÏĤÏħÎ¿ Î»
Î¿Î¹ Î²
ĠÏī ÏĩÎŃ
ĠÎ·ÏĥÏīÏĦÏĢ Î¯ÏģÎµÏĢ
Î³ÏģÏħÎ¿ÏĢ Î¥
Ì ģ
Ġ Îº
ÎºÏģ ÏħÎ¿Î¤
e l
Î¸ ÏħÏģ
ĠÏĤÎ¿ Î¯Î¿ÏĢÎ¿
ÏĤ Î±Î½
Î½Î¯ Îº
ĠÎ½Î±ÏĦ ÎĮ
ĠÎ±Î¯ Î±ÏĦÏħÎµÎ»ÎµÏĦ
Î³ÏģÎŃ Î½Îµ
ĠÎ·Ïĥ Î±ÏĦÏĥÎ¬ÏĦÎ±Îº
li am
ĠÎµÎºÎ·Î¸ Î®
ĠÎ® Ïģ
ĠÎ® Î´Î±Î»
Ïħ Î±ÏĦ
Î¹Îµ ÏĦ
Î½Î¯ Î¿Îº
Î¹Î± ÏĢÎ±
ÎµÏģ Î¿ÏĨÎ±Î¹Î´
Î¹ Î¾
v i
ÏħÏĦÏĢ Î¬Î½Î±
Ïģ ÏīÏĩ
ÎºÎµ ÎĶ
ÏĥÎ¹Ïģ Î¿
Î» Î¹ÏĨ
Î¹ Î»Î»
ÏģÎ± Îľ
Ġ- -
ÏĥÎ¬ Î¹Î´
ĠÎ¹ Î´Î¯
ĠÎ·Ïĥ Î®ÏģÏĩ
ĠÎ¿ÏĦ ÏİÏģÏĢ
ÏĢÎµ Ïģ
Î´ ÏĮ
Ġ0 3
Î´Îµ ÏĩÏĥ
Î½ÎŃ Îº
ĠÏĤÏħÎ¿ Î»ÏĮ
ĠÎ½ÏħÎ¿ Î½Î¬Îº
ĠÏĤ ÏįÎ¿ÏĦ
Î´Î¯ Î±ÏĢ
Ïĥ ÎµÎ¸
ÎĿ Îĳ
Ïį Î½
ÎµÏĦ Î½Î¯
ÏĦ Î±Î½ÏħÎ´
ĠÏĤÏħÎ¿ Ïģ
ĠÎ¿ Î¹Î»
á ¿
ĠÏĤÎ¿Î» ÎŃÏĦ
Î±ÏĨ ÏĮÏĢÎ±
ĠÎ¯Îµ Î»ÎµÏĦÎ¿ÏĢÎ±
Î³Î· ÏĢ
ÏĢ Î¿ÎºÏĥ
ĠÎµ Î½Î±ÎºÎŃ
Î¸ Î±ÏĢ
h T
ĠÎ±Î¹ÎµÎºÏģÎ¬ Î¹Î´
Îº Î±ÏĦ
Î»Î± Î½Î±
Î¿Î» Î±Îº
ÎŃÏĦ Î±Îº
ĠÏĤ ÏĮÏģ
ĠÎ®Ïĩ Î¿Î¹ÏģÎµÏĢ
ĠÎ½ÏīÎµ ÏĥÎ®
Î³ÎµÎ» ÎŃ
Î·Î½ Î¼
d e
ĠÏĤÏĮ ÎºÎ¹ÏĦ
ÏĢÎµ Î£
Ġ á½
Ïĩ ÎµÏĦ
Ïĥ Î¿Îº
Î±Î¯ ÏĥÏħÎ¿
Î¬ Îł
Î¶ Î±Î³ÏģÎµ
ĠÏĤÏĮÏĦ ÎºÎµ
ÏĢ Î¿Îº
Î±Îº Î¹
ÏĦÏĥ Î±ÏĦÎ±Îº
ĠÎ±Î¯Ïĥ ÏħÎ¿
ÎµÏģ Î¹Î±
Î¸Î¬ÏĢ ÏĥÎ¿ÏģÏĢ
ĠÎ±Î¼ Î·ÏĦÏĥ
ĠÎ±Î¯ ÏĥÎ±Î³ÏģÎµ
Î¿ Î¹Î»
Î¬ÏĦ ÎµÎ¼
ĠÎ·Ïĥ ÎŃÏĩÏĥ
Î®ÏĦÏĥ Î¹ÏĢÎµ
Î®Î» Î²Î¿ÏģÏĢ
ÎºÎ¹ Î»Î·
Ïĥ Î±Î»
ĠÎ£ ÎŁ
Î¬Ïģ ÏĨ
ÏĩÎŃ Î´
Î² Î¹ÏģÎºÎ±
s o
ÎŃÎ¸ Î±Î¹Î´
ÏĩÎŃ ÏĦ
Ï ĭ
Î¿ÏģÎµ Î±
ÏīÏģ Îł
ÏĢ Ïĥ
ĠÎ¿ Î»Î¬Î³ÎµÎ¼
Î¹Î¿ÏĢ Î¿
ĠÎ¯ ÏĢÎµ
ÏĦÎ· Î¶
Î½Î¬ Î³Ïģ
ÎŃÏģ Î±ÏĢ
ĠÏĤÎ¿Ïģ ÎŃÎ¼
ÏħÎµÎºÏĥ Î±ÏĦÎ±Îº
p o
Î³Ïģ Ïİ
Î¿ÏĦ ÏīÏģÏĢ
ĠÎ¬ÎºÎ¹ÏĦ ÎµÏĩÏĥ
r u
ĠÏĤÎŃ Î»Î»Î¿ÏĢ
Î½ Ïģ
ĠÎ®ÎºÎ¹ÏĦ Î¹Î»Î¿ÏĢ
Î¿ÏĦ ÎµÎ¼Î¼ÏħÏĥ
Ġ Â
Î²Î¼ ÏħÎ£
ÏģÎµÏĦÏį ÎµÎ´
ÏģÎŃÏĨ Î±Î½Î±
Î½Î± Î½ÎŃ
Î¶ Î¤
ĠÎ±Î¹ Î¿ÏĢÎ¬Îº
ĠÏĤÎµ Î¼
ĠÎ¿ Î½ÏĮÏģÏĩ
koo be
ĠÎ±Î¯Îµ ÏĩÎ¹Î¿ÏĦÏĥ
ÏħÏĩ ÏĥÎ¹
ĠÎ¯ÏĦ Î±Î¹Îĵ
Î³Î¿Î» Î¿Î½
ts e
ĠÏĤÎµ Î½
Ïį ÎµÎ´
Îµ ÏĨ
ÎºÎ¹ÏĦÎ±Î¼ Î³Î±ÏģÏĢ
Îº ÎŁ
Î¾ Î¬
Î±Î² ÎµÎ²
ÎŃ Î¾Îµ
Î¹Ïģ Î·ÏĦÏĥ
ĠÎµ ÏģÎµÏĨ
ÏĦÏĥ Îµ
Ïħ Î»Î¿ÏĢ
ÎĽ ÎŁ
Î±Î¹ Î½ÏĮÏģÏĩ
Î® ÏĦÏħÎ±
ÎŃÏģ Ïĩ
ĠÎ¬ Î½Î±
ÏĥÎ¹ Ïĩ
Îł Îķ
Î½Î±Î¸ Î¹ÏĢ
Ġ na
ĠÎ½ÏħÎ¿ Î½Ïİ
Î½Î¹ Î±ÏĦ
ĠÎ½Ïİ Î¼
Ïĥ ÎĻ
Î¹ Î½Î¬
Î¿ÏĦ Î¬
ĠÎ¿ Î¹Î¼
0 3
koobe ca
ÎºÎ±Î¹Ïģ ÏħÎļ
Î½Î¹ÏģÎµÎ¼ Î·Î¸Î±Îº
f o
Î¸ ÏĨ
r i
ĠÏĤ Î¯ÎµÎ¼
Î¿Î½ Î¹
ĠÎ¬ÎºÎ¹ ÏĦÏĥ
Î¯Îµ Î»
ÏĦ Î±
ÏĥÎ¯ Î¼
Î¹ Îĳ
ĠÏį Î¿ÏĦ
Î¿Î» Î¹ÏĨ
Ġ l
ÏģÎµ Î½
ĠÎ·Ïĥ Î¿Î´
Ïĩ Î¿Ïģ
ĠÎ¿Ïģ ÏİÏĩ
ÏİÏģ ÏħÎµ
ÎŃ Îľ
Î½ Î¹ÏĦ
ĠÎ¹Î±ÏĦÎµ Î½Ïİ
ĠÎ±Ïģ ÎŃÎ¼
ÏĨ Î·ÏĪ
Ġ S
ĠÎ± ÏģÎŃÏĦ
7 1
Î¹Î± Îł
ĠÎ¹Îµ ÏĦ
ÏĩÏħ ÏĪ
ĠÎ½ÏħÎ¿ Î¶Î¬
Î¿Î´Î¿Î½ ÎµÎ¾
4 1
ĠÏħÎ¿ÏĢ Î¯ÏģÎµÏĢ
ĠÎ¬ Î»Î±Îº
Î£ Îĳ
ĠÎĻ ÎĳÎļ
Î¬Ïģ Î²
Î»Î¿ Îł
Î³ ÎŃÎ»
c e
ÏħÎµ ÏģÎŃ
Î¯Îµ Î»Îº
ĠÎµ ÏĢÎ¯Îµ
Î® ÎºÎ¹ÏĦ
Ïį ÎµÎ»
Î³Î¿Î¼ÏģÎ± ÏĨÎµ
ĠÎ± ÎŃÎĿ
Î¯ÏĦ Î±ÏģÎº
Ïħ ÎĶ
ÏģÎ¿ Î³Î±
Î½ÏħÎ¸ ÏįÎµ
ÏĮÏģ Î±ÏĢ
Î»ÏĮ ÏĢ
Î»Î·ÏĪ Ïħ
ÏĤ Î¿Ïģ
ĠÎ¬ Î¼
ĠÎĳ ÎĿ
ĠÏĤÎµ Î´Î¬
Î½ÎŃÎ³ Î¿ÎºÎ¹Î¿
Î» Î¹Îµ
Î½Î¯Î¿Îº Î±Î½Î±
ÎŃ Îĺ
Î¬ Î´
Î³ Î±ÏĢ
mo c
ÎŃÎ¼ Î¿ÏĦ
Î¹Î»ÏĮ ÏĩÏĥ
Î¿Îº ÏįÎµ
6 1
ÏĢÏİÏģ Î¸Î½Î±
Î´ ÎŃ
Î¹ÎµÎ» ÏħÎ¿Î´
ĠÎ®Î´Î±Î» Î·Î´
ĠÎµÏĦÎµ ÏĥÎ®
ĠÎ¬ÏģÎ¿ÏĨ Î±
Î¹ Î±Î»
Î¼Î¿Î½Ïħ ÏĦÏĥÎ±
Î± ÎĽ
ÏħÎ¿ Î¯Ïģ
ÏĤ ÏĮÎ¼
ÏĨ Î¿ÏģÏĦ
Î»Îµ Î²
ĠÏĤÏīÏĢ ÎĮ
ÏħÎ¿ Î½Î±
ĠÏĤÎ¿ Ïĩ
ĠÎµ Î¶
Î³ Î·ÏĦ
Î±Î½ ÎŃÎ¼
ĠÎ±Î½ÏīÏĨÎ¼ ÏįÎ£
3 1
Î»Î» Îµ
ĠÎ¿ Î´Î¿
ĠÎ±Î¼Î¼Î±ÏģÎ³ ÏĮÏģÏĢ
Î® Ïĩ
ÏĥÏĮ Î´
ÏĦÏĥ ÎŃ
Îº ÏĥÎ¹ÏĢÎµ
Î´Î¬Î¼ Î¿Î´Î²Îµ
5 2
ĠÎ¬ ÏģÎ±ÏĢ
ÏģÎµÎ¼ Îĳ
Î¹ÎµÎ¼ Î·Ïĥ
Î¿ÏĦ ÎŃÏĦ
Ġ rg
Î½ÏīÎ½Î¹Î¿ÎºÎ¹ ÏĢÎµ
ĠÏĤÏī Î¯ÏģÏħÎº
Î½Î± ÏĢÎµ
ĠÎ¯Îµ ÎºÎµ
Î½Î¹ ÎºÎµÎ¾
ÏħÎµÎ´Î¹Î±ÏĢ ÎºÎµ
Ġ A
ĠÎ±Î¼Ïĥ ÎµÎ»ÎŃÏĦÎ¿ÏĢÎ±
Ïģ Î¹ÎµÏĩÎ¹ÏĢÎµ
ÏįÎµ Î»Îµ
Î²Îµ Î¦
ÏĢÎ± ÏģÎµÎ¸
ĠÏħÎ¿Î½ÎŃÎ¼ Î¹ÎµÎº
Î² Î±Î¹Î´
Ġ ÎŃÏĦÎ¿ÏĢ
ĠÎ® Î»Î¿Î²
Î¬ ÏĨ
ÏĩÏħÏĦ Î¹ÏĢÎµ
ÏĤ Î±ÏĦÎ·ÏĦÏĮ
ÏģÎµ ÏĦÏĥÎ¹Ïģ
ĠÏĤÎµ Î»Î»Î¬
ĠÎ½ÏħÎ¿ Î¶
ĠÏ Ģ
ĠÎ·ÏĦ Î£
Ïİ Î¹
t S
ĠÎ¿ ÏģÎµÏĦÏĮ
Îķ ÎĿ
4 2
ĠÎ¬ Î¹Î»
ĠÎ¹Î±ÏĦÎµ Î¶
ĠÏĤÏĮ Î³ÏģÏħÎ¿ÏĢÏħ
Î·Î»Î² ÏĮÏģÏĢ
ĠÎ¹Î±ÏĦÎ½ ÏįÎ¿
ĠÏĮÎºÎ¹ÏĦ Î±Î¼
ĠÎ·Ïĥ Î¬Î²
ĠÎ®ÎºÎ¹ ÏĦÏĥ
ÏĤ ÎŃÏĦ
Ïį Î»Î¿ÏĢ
Î¿ÎºÏĥ ÏįÎ´
Î¼Î¿Î½ Î¿ÎºÎ¹ÎŁ
ÏģÎ¿ÏĢ Îľ
ÏħÎµ Î»ÏħÎ¿Î²
ÏĤ Î±ÏĦ
ĠÎ¿Î¼ ÏĥÏĮÎº
ĠÎ±Î¼ Î³
ĠÎķ Îľ
Î¯ Î±Ïģ
Î¯ Î±Î»ÏĢ
m i
ĠÎ·ÏĥÏī Î»
n u
Î» Î±ÏĦ
ĠÎ±Î´Î¯ Î»ÎµÏĥ
Ïĥ Î¿ÏĢ
Î±Ïĩ ÏģÎ±
ÏħÎ¿Î½Î± ÎĻ
Î¼ÏĮ Îº
p a
Î¯Îµ Îº
Ġg ni
ÎŃÎ¼Î· Î½Îµ
Ïħ Î½Î®Î¼
t h
ĠÎ½Î¿ Î»Î»
Î» ÎµÎ´
ĠÏħÎ¿Î¯Î» ÏħÎ¿
ĠÏĤÏİ ÏĢ
Îµ Îĵ
ĠÎ¿ ÏģÎµÏĦÏĮÏĥÏĥÎ¹ÏģÎµÏĢ
Î¹Î¿ÏĢ Î¿ÏĦÎ±Î¼Î³Î±ÏģÏĢ
Î½ÏĮ ÏĦ
ĠÏĤÎ·Ïĥ Ïī
ĠÎ±Î¯Ïģ Î¿ÏĦÏĥÎ¹
Î¿Î» ÏĢ
ĠÎµÏĦÎ¯Îµ ÎĶ
ÎŃ ÎºÏĥ
ĠÎ·ÏĥÎ·ÏĦ Î®Î¶
Î¬Î½ ÏħÎ´
Î³Î¿Î» Î¿Ïģ
ÏĤ Î·Î»
Î¿Î»Îº ÏħÎº
ĠÎ¹ÏĦ Î½Î±Î½ÎŃ
ĠÎµ Ïģ
Ġ ÎºÎµ
ÏħÎ» ÎŁ
ÏĮÎ¼ Î·Î´
Î½Î± Î´
Ïī Î¹
Îł Îĳ
ĠÎµÏĥ Î¹
ĠÏĤ Î¿Î´
ĠÎ½Ïī Î»ÏĮ
Î´ÎµÏĢ Î¯ÏĢÎµ
Î»Î» ÎŃ
ÎºÏĬÎ±ÏĢÏīÏģ ÏħÎķ
ÏħÎ¿Ïģ Î²ÎµÎ¦
Îĸ ÎĻÎ¡
ĠÎ¬ÏĦ ÎµÎľ
ÏģÎŃ Ïĩ
ÏģÎµ Î²ÏħÎº
ĠÎ±ÏĦÏĥ Î¹Î»
Ïħ Î»ÏĮ
Î¹ÏģÎµÏĢ Î¼ÏħÏĥ
Î±Ïģ ÏĮ
Î¹Îµ Î³
Î¹Î¿ÏĦ Îµ
Î£ ÎĹ
ÏħÎµ Î»Îµ
m u
ĠÎ®Î´Î¹Îµ ÏĢÎµ
ÏħÎµ Ïģ
ÏħÎµÎºÏĥ Î±ÏģÎ±Îł
Ġ, "
Î¹Î±Îº ÏħÎµ
Î³ ÏģÎ±
Î¾ ÎŃÎ»
ÏĤÎ± Î¯Îµ
Î¿ÏģÏĢ Î¼
Î³ ÏħÎĳ
Ïĥ ÎµÎ´
9 91
Î¿Î½ Î¿
ÏĮÎºÎ¹ Îµ
Ïħ ÏĪ
ÏģÏĦ ÎŃÎ¼
Î½Î·Î»Î» ÎĪ
ÏģÎµÎ¼Î· Î½Îµ
Ïī Î¡
ÏįÎµ ÏĦÏĥÎ¹ÏĢ
ĠÏī ÏĥÎ¯ÏĢ
Ïĩ ÎµÎ´
ÏģÎ± Îł
g i
ÎµÏĦÎ½Î¯ Î²
Î» Î¯Îµ
ÎŃÏģ ÏĦÏĥ
ĠÎ¹Îµ ÎŃÎ»
ÏĢÎ± Îł
e di
Î¬ Î³ÎµÎ¼
ÏĥÏĮ Î¼
ĠÎĿ Î©
Î½Î¸Îµ Î¹Î´
Ġ5 1
ĠÏĮ ÏĢÏħ
Îµ ÎºÏģÎ±
Î±ÏĦ Î±Îļ
ĠÎ±Î¹Îµ Î¸Î®
ĠÏĤÎµ ÏĦÏĥ
ĠÎ¹Î±ÏĦÎµÎ½Î¯ Î±ÏĨ
Î¿Î¼ Î¿Î½
n I
ÏĥÏİ Î»
Î¹ÏĦ Î±Î¼
Î³Îµ Îľ
Î¹Ïģ ÏīÏĩ
ĠÎ¿ Ïĩ
Î¿Î¼ Î¿
ĠÏĤÎµÎ¯ Î¿ÏĢÎ¿
no i
Ïħ Î»Î¬
Î¶ Î¹
Î¹Îµ ÏĢÎ¼Îµ
ÎµÏĦ Îµ
Î½Ïĩ Î¯ÎµÎ´
koobeca F
Î·Î» ÎºÏĥ
ÏĤ Î¬
Î£ Îķ
ÏĤ ÏįÎ¿
ĠÎ¬ÏĦ Î½Î¿Îº
ÏīÏĦ ÎµÎ¼Î¹ÏĦÎ½Î±
Î½Î¿ Î´Îµ
Î³ÏģÏİ Î¹Îĵ
Ġ H
g ni
ÏĦÏĥÎ¹Ïģ Î·ÏĦÎºÎ±ÏģÎ±Ïĩ
Î± Î²Î¼
ĠÎ¹ÎµÎ½Î¯ Î±Î¼Î·Ïĥ
ĠÏĤÎµÎ¯Ïģ Î¿ÏĨÎ¿ÏģÎ·Î»ÏĢ
Î¹Î» Î¹Ïĩ
Ïģ ÏīÎµÎ¸
Î·Î¸ Îĳ
Î¯Î» Î²Î¹Î²
Î¿Ïģ ÎŃÏĨ
ÏħÎµ Î»ÏĢ
Î¼ ÏħÎ¸
Î¿ÏĢ Î¥
Î½ Î±ÏĦÏĥ
Î¯Ïĥ Î¤
ĠÎ½ÏĮ ÏĢÎ¹Î¿Î»
Ïħ ÎŁ
ÎºÎ¹ÏĦ Î½Î±
Ïī Î¹Î´Î¹
ĠÏĮÎºÎ¹ ÏĦÏĥ
Î·Î»Îº Î¿Î»Î¿
Î¹Î»Î» Î±Îº
Î£ ÎŁ
ÏĦ Î¯ÏĦ
Î±Ïĩ ÏħÎµ
Î»ÎµÎ³Î³ Î±ÏĢÎµ
ĠÎµÎ¼ÏħÎ¿ Ïĥ
ÏİÏģ Ïĩ
Ïģ Î·ÏĦ
ĠÎ±Î¼ Î¿Î½
ĠÎ® ÏĢÎ¿ÏģÏĦ
ĠÏĤÎ¯Îµ Î½Î±Îº
Î» Î¹Î¼
ĠÎ¹Îµ Î¸
Îĳ ÎĽ
ĠÎ¿ ÏħÎ´
Î¹ÏĢÎ¼ ÏħÎ»ÎŁ
ĠÎ·Ïĥ Î¹Ïģ
ĠÎ±Î½ ÎµÎ¼
Î½Î¬ ÏĨ
ĠÏħÎ¿Î½ÎŃÎ¼Î¹ÎµÎº Î¿ÏģÏĢ
Î¹Î¿ Îľ
Î½ÏĮ ÏĢ
Ġ2 1
ÎºÎ± Î¹
Î¯Ïģ Î¤
ĠÎ¹Î±Î½ Î¹Îµ
ĠÏĤÏĮ ÏĦÏħÎ±
Î· ÎºÎ¹
ĠÎ¿Î¹Ïĥ Î¯Î±Î»ÏĢ
ĠÏĤÏİ Îł
Ïģ Î¿ÏĦÏĥÎ¹
Î½Ïī Î³
ÏħÎ¿ Î²
Î¹Î±Î½ Î¯Îµ
ĠÎ±Î¹Îµ ÏĩÎŃÎ½ÏħÏĥ
ĠÏĤÏĮ Î½Î¿Î³ÎµÎ³
Î±Ïģ ÎŃÏĢ
Î¶Î¯Ïģ ÏīÎ½Î³
ÏħÎµ Î¹Î´
ĠÎ¹Îµ Î½ÎŃÎ¼
Î·ÏĦ Îº
Î¹ Î¦
Ġ ni
Î¼ Î¿ÏĦÎ±Îº
Î¿Î¹ Î³
ÏĮ ÎºÎ¹ÏĦ
Î½Î¬ Î¹Îĵ
ĠÎµÏĦÎ¯Îµ ÏĦÏĥÎ±Ïģ
Î± Î§
ĠÎ®ÎºÎ¹ Î½Î·Î»Î»Îµ
Î½Î¬ Î¼
ĠÎ±Î¯ ÏĦ
Î¿ Î¯Îµ
Î¾ ÏħÎ±
ÎĸÎĻÎ¡ Î¥Î£
ĠÎ·Ïĥ Î±ÏĨÏĮÏĢÎ±
Î²Î¼ ÎµÏĦ
ÏĤ Î¯Îµ
ĠÎ¹Î±ÏĦÎµ ÏĩÏģÎŃ
Î³Î¿Î» Î¿ÏĢÏħ
ĠÎ±Ïĥ ÎµÎ¼
Î®Î¼ ÏĦ
ÏħÏģ Î¿Îº
ĠÏĤÎ±Î¯ ÏĥÎ±Î³ÏģÎµ
Î¬Ïģ Î¿Î³Î±
ÎµÎ¸ Î¿ÏĢÎ¿ÏĦ
ÏĤ Î·Î½
Î²Î¼ÎµÏĦ ÏĢÎµÎ£
ĠÎµÏĦÏĥÎ±Î¼ ÏĮ
Ïĩ Î¬Î¼
ÏĦ Îº
Î¡ Îķ
7 102
Ġ (
s we
ĠÎ±ÏĦ Î·ÏĦ
ÏħÎµ ÎĶ
Î¹ÏĦ Î¬Î¼
ÏģÎµÏĦÏī Î¾Îµ
ĠÎĳ Îł
Î¿ÎºÏĥ Î¯ÏģÎ²
ÎºÎ¹ Îµ
Î´ Î½Î¬
ĠÎ½ÏħÎ¿ ÏĥÏİ
Î±Îº ÎµÎ´
ĠÎ¬ Î½
ĠÎ½Ïī Î¼
ĠÏī Ïģ
Î¹Ïģ ÏħÎº
ÏįÎ¿ Î³Î·Î¿ÏģÏĢ
ĠÏĤ Î·Î´
Î¬Î» ÏħÎ¿ÏĦ
ĠÏĤÏįÎ¿ ÎºÎ¹ÏĦ
ĠÎ®Î» Î¿ÏĦÏĥ
Î¿Îº Î¿Ïĥ
Ïħ Î¿ÏĢÎ¼
Ïİ Î´Îµ
ÏģÎ± Î½Î±
Ïī Î¸
Ïĥ Î±Î¹Î´
ÏĤ Î¿Î½
ĠÎ¹ Îļ
ĠÎµÏĦÎ¯Îµ ÏģÎ¿ÏĢÎ¼
Î³ÎŃ Î»Îµ
Îº Î¬Ïģ
ĠÎ¹ÏĦ Î¯ÏĢÏĥ
Ïĭ Î¿ÏģÏĢ
Îº Î¬ÏĦ
ĠÎµÏĦÎµ ÏĩÎŃ
Î¬Î» ÏĢ
ÎºÎ¯ Î½
ÎºÎ± Î½Î±
ÏħÎ¿Î» Î¿Îº
Ïģ ÏįÎ¿
ÎŃ Î´Î¹
Ĥ ¬
Î¿ÏĢ Î¯ÏĦ
ĠÏĤÎ¿ÏģÎ´Îµ ÏĮÏģÏĢ
ĠÎ½ÏħÎ¿ Î½
ĠÎ·Ïĥ Î·Î¸
m e
ÏĤÎµ Î¯Ïģ
ĠÎ® ÏĦÏĥ
ĠÎ±Î¹ÏĦ Î¬Î¼
ĠÏĤ Î¹
Ïĥ Î¿ÏģÎł
ĠÏĤÎ¹Îµ ÏģÏĦ
Î³ ÏįÏĥ
Î¿Ïĥ Î¿ÏĢ
Î¿ÏģÎµ ÏĦÏĮ
ÏĢ Î¯ÏĥÎ¤
Î¿Î½ Î¹Î¿Îº
gol B
ĠÏİ Î³Îµ
Î¶ Î¹Ïģ
w o
ĠÎ±Î¹ Î»ÏĮ
ÏħÎµ ÏģÎµ
ĠÏį Î¿Îº
ÏĮ Î»Î¿
ĠÎ®ÏĦ ÏħÎĳ
Î¿ Î¹ÏĥÎ¿Î¼Î·Î´
Ïī Î¹ÏĦ
ĠÏĤ Î¿ÏĨ
Î·ÏĦ Î¹
Î½Ïĩ ÏħÏĥ
Î±Î½ Ïİ
ÏħÎ¿ Îļ
ĠÎ±Î¼Î·ÏĦÏĥ ÏįÏĥ
ÎĿ ÎĻ
1 2
Î» Î®
Î½Î¬ ÏĦ
ÏĤÎ± Î¯Ïģ
Î¯Ïĥ Î¿Î¼Î·Î´
Î¬Ïģ Î±Îł
Ġ O
ĠÏĤÎµ Î½ÏĮ
ĠÏĤÎ·Ïĥ Î·
ĠÎ¿ Î³ÏĮÎ»
Î± Î²Î¼ÏħÏĥ
ÎºÎ¹ ÎµÎ´
Î» Î¿Î½ÏħÏĥ
Î·ÏĦ Î®Î¶
Ġ ÎĦ
ĠÎ±Ïĥ ÏħÎ¿
ĠÎ® Î»Î±Îº
ĠÎ¬Ïģ Î¹ÎµÏĥ
ĠÎ¿ Î³ÏģÎŃ
ĠÎ±Î½ ÎµÎ¼ÏĮ
ĠâĢ ¢
Î½Î¿Î´Îµ ÎºÎ±Îľ
Î± ÎĴ
Î· Îľ
ĠÎµÎºÎ·Î¸ Î®ÏĦ
ÏĤÎ® ÎºÎ¹
Î³ Î¹Î»
Î»Î¿ ÏĩÎ£
ÏĤÏī Î¼ÏĮ
ÏĮÎ¼ ÏģÎ±
ĠÎ½ ÏħÎ¿ÏĦ
Ġ *
ĠÏĤ Î¹Î»
Ïī Î¼
k i
ĠÎ·ÏĥÏīÎ» Î®Î´
ÏħÎ¿ÏĢ ÏĮ
ÏģÎµÏĦ ÏĮÏģ
Î·Î¼ Î±Ïĩ
Î¬ Ïĩ
ĠÎ½Ïİ Î¹
ĠÎ® Î½
ĠÏĤÎµ ÏģÎµÏĦÏĮ
ÏĥÎ± Î¹ÏģÎ±
ÏĢÎ¬ Î³Î±
Î½Îµ Î¾
ĠÎ¹Îµ Î»ÎŃÎ¸
ÏįÎ¿Î¼ ÏĥÎ¹
ÏĥÎŃ Î»ÎµÏĦÎ¿ÏĢÎ±
ĠÎ¿ Ïĥ
ni l
ĠÎ½Ïİ Î¹Ïĥ
ĠÎ®ÎºÎ¹ ÏĩÏģÎĳ
ÏĤÎ±Î¯ Ïĥ
ÎŃ Îº
ĠÎ¹Îµ Î½Î¬Î²Î¼Î±Î»
Î³Ïģ Îķ
ÎµÏģÏĩ Î¿ÏĢÏħ
ÎŃÏģ Î¿ÏĨ
ĠÎ¹Î¿ÏĢ ÏīÏģÎ¸Î½Î¬
Îµ ÎºÏĥ
ÏģÎµÎ¼Î· ÏĨÎµ
Î± ÏģÎµÎ¼Î®Ïĥ
Î¯ Î±ÏĨ
ÎĽ Îĳ
ĠÎ¹ÏĦ Î¿
Î¹Î¼ Î¸
ĠÎµÏĦÏĥÎ±Î¼ Î¯Îµ
ĠÎ½Î¿ÏĦ ÏĥÎ¹Ïĩ
Î½Î±ÏĦÏĥ Î½Ïī
Î¹ ÎĽ
ĠÎ·Î» ÎŃÎ¼
Î± Î¤
ĠÎ±Î¹ ÏģÎ¬
Î»Î»Î¬Î² Î¹ÏģÎµÏĢ
ÎºÎµ Î»
Î´ ÏħÎ¿ÏĢ
ĠÎ¹Î»Î¬ ÏĢ
Î±ÏĦ Î£
Î¿Î¼ ÏĥÏĮÎº
ĠÏĤÎµÏģ Ïİ
ÏĤÎ¹Îµ ÏĥÏİ
Î Ĭ
ÏĨ Ïħ
Î±Î½ ÎŃ
ĠÎ±ÏĦÎ·ÏĦÏĮ ÏĦÎ±Î½ÏħÎ´
Î³Î¿Î» Î¿Î¹
Î±ÏĦ ÏĥÎ¹
ÏīÎ´ ÎŃ
c o
ĠÎ¹Î±Î¼ Î¯Îµ
Îµ Î¾Îµ
ÎµÏģ Î²
ÏħÎµ ÏĦÏĥ
Î¿Î½ ÏįÏĥ
ÏĦÏĥÎ¹Î½Ïī Î³Î±
ĠÎ¬ Î»ÏĢÎ±
Î¸ Îµ
Î¹ÏĦ Î½Îĳ
Î¹Îº Î¿Î´
ĠÎµÎºÎ·Î¸ Ïİ
ĠÏĤÎ¹Îµ ÏĩÎŃ
Î®ÏĦÏĥ ÏħÏĥ
Î¹Î» Îº
ĠÎ½Ïī Î¯Îµ
ĠÏĤÎ¹Î» ÏĮÎ¼
ĠÏį Î¿ÏĦÏħÎ±
ÎºÎ¹ Î¿
ĠÎ±ÏĦÎ±Î¼ ÎŃÎ¸
ĠÎ½ÏħÎ¿ Î¾
ĠÏĤÎ¹ÏĦ Î£
ĠÏĮ Î»Î±Îº
ĠÎ± Ïĩ
Î»ÏħÎ¿ ÎĴ
ĠÎµÏĦÎµ Ïĥ
ĠÏĤÎ® Ïĩ
Î½ÎŃ Îļ
ĠÎ¬ Î»Î»Îĳ
ĠÎ· Î¸
ĠÎ·Ïĥ Î±Î²
ÏīÏĦ ÎºÎŁ
ĠÎ¹ Î¿Î¼
ĠÏĤ Î·Î¼
ĠÎµÏĦÎ¯ÎµÏĦÏĥÎ±Ïģ Î¹Î¿Îľ
Î±Ïģ Îĵ
ÏĨ Î®ÏĪ
ÏĥÎ± ÎĴ
ĠÎ±ÏĦÎ±Î¼ Î³Î¬ÏģÏĢ
p u
ÏħÎ» Î³
Î¥ Îķ
Î»Îµ Î¸Î®
Î¯ Î±Îº
ĠÏĤÎµ Î¸
Îº Î±Îº
a i
ĠÎ±ÏĦÏĥÎ¹Î» Î¬Î¼
ÏģÎµÏĦÏī ÏĥÎµ
Î·Î»Î¸ Î±
ĠÏħ Î¿Îº
ÏħÎµ Î´Î¯Î±ÏĢ
Î¿Î½ Îµ
ĠÎ£ Îķ
ĠÎ¹ ÏģÎ¬
Î¬Ïģ Î¿ÏĨ
Î¼Î¬ÏģÎ³ Î¿ÏģÏĢ
ĠÏīÏģ ÏįÎ³
ÏĥÏħÎ¿ Îľ
ĠÏħÎ¿Î¯ÏģÎ²Î¼Îµ ÎºÎµÎĶ
Î´ Î±
s u
ĠÏĤÎ· Î½ÎŃÎ¼
ĠÎ±Î¼ ÏħÎ½Î®Î¼
Î±Î²ÎŃ Î²
ĠÎ£ ÎĹ
0 5
b u
Ġ ÎĶ
Î¬ ÏĢÎ¼
Î¿Ïģ ÎµÎ¼
ĠÏħÎ¿ Î¯ÏĦ
ÏģÎµ Î¹
Î¹Ïģ Î§
Î¿Î¹ ÎĶ
ĠÎ®ÏĨ Î¿ÏģÏĦÏĥ
ĠÎ½ÏĮ Î´ÎµÏĩÏĥ
Î¸ Ïģ
Î½Îµ ÏĢÎµ
ĠÎ¯Î¿ ÎºÎ¹ÏĦ
Î®Î» Îº
Î½Ïİ ÎºÎ¹
ĠÏĤÏī ÏĥÎ¯
Î¯ Î³
Î±Î¯ÏĥÏħÎ¿ ÏģÎ±ÏĢ
ÎµÏģÎ¹Î± Î¾Îµ
ÎŃÏģ Î²
ĠÎ½ Î¿Î¹
ÎºÎµ Î½
ÏĩÏĮ ÏĦ
Î¸ Î±ÏĦÏĥ
ÏĥÎ±Î¹ÏģÎ± Î³Î¿Î»
Ïİ Î½
ÎŃÎ» ÎµÎ¼
t ne
ÏħÎ¿Î³ Î¯Ïĥ
ĠÏĤÏįÎ¿ÏĦ ÏħÎ±
ÏįÎµ Î¹ÏĥÎ¿Î¼Î·Î´
Î®Ïģ Î³
ÎºÎ³ Î±ÏĢ
Î½Î¹ÏģÎµÎ¼ Î·Ïĥ
ĠÎ± ÏģÎµÏĦÎ¯Î±Î¹Î´Î¹
ĠÎ¹Îµ Î³
ĠÎĳÎĻ Îĵ
Î¯ Î²
Î¬ Î¹ÏĦ
ĠÎ¯ Î¿Î¼
Î¸ ÏīÏģÏĢ
Î¯ ÎĿ
ĠÎ±Î¹Ïģ Î®ÏĦ
ĠÎ±Î» ÎĮ
Î¯ Î»Îµ
Î¯Îµ ÏĢ
ĠÎµÏĥ Î·
ĠÎ½Î· ÏİÏģÏĢ
Îµ Î½Î±
ÏĥÎ¹ ÏĢ
ĠÎ¿ Î´
Î´Î¹ Îķ
ÏįÎ¿Î» Î±Îº
Î¿ÏĦÏĥ ÎĻ
Ġe l
ĠÎµÏĦÏĥ Î®
ĠÎ·ÏĥÎ· Î³
Î·Ïģ Î¹ÎµÏĩÎ¹ÏĢÎµ
Î¿ ÏĩÏĥ
h C
Î¹Î´ Î¹Î±ÏĢ
ĠÏĤÏħÎ¿ Î½ÎŃÎ¼
ĠÏī Î¶Î¯
ÏĩÏģÎ¬ ÏĢÎ¥
ÏħÎ´ Î½ÏħÏĥ
Ïī ÎĻ
ĠÏĤÎ¿Î¹ Î¿ÏĢ
Î³Î¿ Î»Î»ÏħÏĥ
a l
p t
Î·Î»Îº ÏĮÎ»Î¿
ÏĦÏĥ Ïī
ÎĿ ÎŁ
ĠÏĤÎ¹ÎµÏĥÏİ Î»Î·Î´
Î¹ÎµÎ»Îº Î¿ÏĢÎ±
ĠÏĤÎ± Î¯Î»
ĠÎ±Î¼ Î·Î»Î²ÏĮÏģÏĢ
Ïĥ ÏįÎ¿
ĠÏħÎ¿Î¯Ïģ Î²Î¼ÎµÏĦÏĢÎµÎ£
ĠÎ±Î¯Ïĥ Î±ÎºÎ¹Î´Î±Î¹Î´
Î¯Î±Ïģ Î±ÏĢÎ±
Î¿Î¹Î´ Î¹
ĠÎµÏĦÏĥ Î¬Î²
Î¹Î» Î¬
Ġ Î¤
ÏĥÏİÎ» Î³
ĠÎ½ Î®ÏĦÏħÎ±
ĠÎ¹Î±ÏĦÎ¹ÎµÎº ÏĮÏģÏĢ
ÏħÏĦ ÎºÎ¯Î´
ti w
Î³Î± Îł
t u
ĠÎ±Î½Ïİ Î³Î±
ĠÎ®ÎºÎ¹ Î¼
ÎºÎ±Ïģ ÏĢ
ÏħÎ»ÏĮ ÏĢÎ±
ĠÏĤÎµ Î½Î·Î»Î»ÎĪ
ĠÏī Î½Î¬
ĠÎ¹ Î´
ĠÏĤÎµ Î½Î®Î¼
Î»Îµ Î¤
Ġ7 102
ĠÎ± ÏģÎµÏĦÏĮÏĥÏĥÎ¹ÏģÎµÏĢ
ÏĨÏģÎ¿Î¼ ÏĮ
Î¾ Î¿Î´
ĠÏĤÎ¹ÎµÏĥ Î¬ÏĦ
ÎºÎ®Î¸ Î½ÏħÏĥ
ĠÏĤÎµÏģ ÎŃÎ¼
âĢ ĺ
Î· Î£
ĠÎ¿Î¹Ïģ Î®ÏĦ
Î®ÏĦ ÎºÎ±ÏģÎ±Ïĩ
Î½ÏħÎ¿ ÎĻ
ĠÎ±ÏĦÎ±Î¼ Î®Î»Î²Î¿ÏģÏĢ
ĠÎ½Î¬ Îµ
Î±Îº ÎŃ
ÏģÏĦÎ½Îµ Îº
ĠÎ¿Î¼ Î¹Ïĥ
ĠÏħÎ¿Î¯ÏģÎ± ÏħÎ¿Î½Î±ÎĻ
ĠÏĤÎ® ÏīÎ¶
ÏĥÎ± Î´
Î± Î¸Î±Îº
Î¿Î½Î¹ Î¿Îļ
ÏĤÎ± Î¹Îµ
Î½ÎŃ ÏĢ
ĠÏĤÏħÎ¿ Î¼
Î· ÏĢÎ±Î³Î±
Îµ Î½Î¬
Î· ÏĩÏĥ
Î³Î¿Î»Î¿Î½ ÏĩÎµÏĦ
ĠÏħÎ¿Î¯ÏģÎ± ÏħÎ¿ÏģÎ²ÎµÎ¦
Î½Î±ÏĦÏĥÎ½Ïī Îļ
Î± Î»Îµ
ĠÎµÎº Î·ÏĦÏĥ
Î¹Î± ÏĨ
Î¸ Î¬
ĠÎ¹Î±ÏĦÎ½Î¿ Î¶Î¯
ĠÏĤÏİ Î²Î¹ÏģÎºÎ±
ĠÎ½Î¿ ÏĥÏĮ
ĠÎ¹Î±Ïĥ Î¯Îµ
ÎºÎ¹Î´ Î¹Îµ
ĠÏĤÎ· ÏĪ
ĠÎ± ÏĢ
ĠÎ¯ÎµÎ¸ Ïī
Î±ÏĦ ÎµÎľ
Î³Ïģ Ïī
ĠÎ¹Î±ÏĦÎµ Î½
2 2
ĠÎ¹ÎµÏĥÏİ Î´
ÎµÏģ Îº
ĠÎ· Î½ÎµÎ¼
ĠÎ±ÏĥÎµÎ¼ Î¬Î½Î±
ĠÎ¯Îµ ÏĦÏĥ
Î½ ÎĨ
ĠÎ± Î¹ÎµÎ»
ĠÎ±ÏĦÎ±Î¼ Ïİ
Î½Î± Î²
ĠÎ·Î»ÏĮ ÏĢ
ĠÏį Î¿Ïģ
ÏĩÏģ Î±Î¼
Ġ1 1
ĠÏī ÏĢ
Î¹ÏģÎ·ÏĦÏĥ Î±ÏģÎ´
ĠÎ¬ÎºÎ¹ Î»ÎµÏĦ
Î²Î¬ Î£
Ġ h
Ġ le
Ġ liam
ĠÎ½Î±Îº Î·ÏĦ
ÏĩÎµ Î¹ÏģÎµÏĢ
ĠÎ±ÏĦ Î£
Ïĩ ÏĥÎ±
Ġ. .
ĠÎ½ÏħÎ¿ ÏĪ
ÎŃ Î¤
ÎŃ ÏĢÎµ
Î»Î¬ ÏĨÏĥÎ±
Î¾Îµ Î½Î±
ÏĮ ÏĦÏĥ
ÎµÏĦ Î¿ÏĢÎ±
ĠÏĤÎ¿Ïģ Î¬Î²
ÏĥÏĮ ÎºÎ³Î±ÏĢ
ĠÎ¬ÏĦÏĥ Î¿ÏģÏĢÎ¼
Î¸Î® Î½ÏħÏĥ
ĠÏĤ ÏįÎ¿Î½
ÏħÏĩ Î±ÏĦ
ĠÎ½Î± Î¾
Ġ0 5
ĠÎ¿Ïģ Î¸ÏģÎ¬
Î·ÏĦÏĥ Î¿ÏĢÏħ
ĠÎµÏĥ ÏįÎ¿ÏģÎ¿ÏĢÎ¼
a r
ĠÎ¹Î±ÏĦÎµ Î¶Î¯Ïģ
Î¿Î½ Î±ÎºÎ¹
ÎŃÎ» Î²Î¿ÏģÏĢ
Î¿ ÏĥÏĮ
Î·Î½Î¯ ÎºÎµÎ¾
ĠÎ½Ïī Î¯Ïģ
Î¿ Î¹Îµ
ÏįÎ¿Î» ÏĢ
ĠÏī ÏĥÎ®
ĠÎ¿Î¹Î´ ÎŃÏĩÏĥ
ÎĻ Î¤
ĠÎ¿Î¯ÎµÎ¼ Î·Ïĥ
ÏģÏĮ ÏĢ
ĠÏĤ Î±Îº
ĠÎ½ÏĮ ÏĦÏħÎ±
Î¿ÏĦÎ±Î¼ Î·ÏģÏĩ
p s
ÏĦÎµ Î¤
ĠÎ®Ïĩ Î¿ÏĦÎµÎ¼Î¼ÏħÏĥ
ĠÎĻ ÎŁ
ĠÎ¹Î´Î¯ Î½ÏĩÎ¹Î±ÏĢ
ĠÎ·ÏĥÎ· Î¾
ÎĿ Îķ
n A
ĠÎ¹ Î¿ÏĦ
ÏĦ Îĳ
3 2
ĠÎ¹Î¿Ïģ ÎĮ
ÏħÏģ Îº
ÏįÎ¿ Î²
ĠÎ£ ÎĹÎ¤
ĠÎ¹ÎµÎ½Î¯ Î´
ĠÎ±Î¯Î¼ Î±Îº
ÏĨ Î¿ÏģÏĦÏĥ
ĠÎ¹Î±ÏĦÎ½ Î¿ÎºÏĥÎ¯ÏģÎ²
Ġ ÎºÎ¹
ÏĦÏĥ Îĳ
ĠÏĤÎ¹ÎµÏĥÏİ ÏĦÏĢ
ĠÏĮÎºÎ¹ Î¼
ĠÎ¯ Î¿ÏĦÏħÎ±
Î±Î½ Î¬Î¸
Î¯ Î¿
ĠÏĤÎ¿Î¹ Î¿ÏĢÎ¬Îº
Ġ, .
ÎºÏĬÎ±ÏĢÏīÏģ ÏħÎµ
ÏģÎµÎ¸ ÏįÎµÎ»Îµ
Î±ÏģÎº Î¿Î¼
Î¹ÎµÎ´ Î¬ÏģÎ±ÏĢ
ÏģÎ¬ Ïĩ
Ïİ ÏĥÎ¿ÏģÏĢ
ĠÎ±ÏģÏĦ ÎŃÎ¼
ÏīÏģ Î¸Î½Î±
ÏĦÎ±Îº Îµ
Î½Ïī Î³Î±
Î¼Î¿ÏĦÎ±Îº Îµ
Î¿Î» Ïħ
ĠÎ¥ÎŁ Î¤
ĠÎ½Î¿ÏĦÏĥÎ¹Ïĩ Î¬Î»ÏħÎ¿ÏĦ
Î¿ÏĦ ÏħÎĳ
ĠÎ±Î¼Î¿Î½ ÏĮ
ÎºÎ¯ Î±ÏĢ
Î®Ïģ Î§
ÏģÎµÏĦÏĥÎ¹Ïģ Î±
ÏģÎ¬ Îº
Î¬ ÏģÎµÏĦ
ĠÏħÎ¿ Î¯ÎµÎ¼
Î±Ïģ Ïī
Î·Ïĥ Î¯ÏĢÎµ
ÏģÎ±Î² Î¿Ïĥ
ĠÎ±Î¹ ÏĢ
ĠÏīÎ½Î¬ÏĢ Î±ÏģÎ±ÏĢ
ĠÎµÏĥ ÏīÎ»Î®Î´
Î½Ïİ Î¼
Î·Ïĥ Ïī
ÏģÎµ ÎĻ
ĠÎ¿ Î¹Î¿ÏĢÎ¬Îº
Î¸ Î±
Î´Î¯ Î´
Î³Î± Î»Î»
Ġ x
Ïĩ Î¿Î´Î¿Î½ÎµÎ¾
Î®Î¼ Î·ÎĶ
Î±Ïĥ Î¹Îµ
ÏģÎ¬ Î²
Î±Î½ Îµ
ĠÎ±Î¹ Î¿ÏĢ
v o
ĠÎ¯ÎµÎ¸ Î·
Ġt e
Ïĩ ÏįÏĦ
ÏģÎµ Î²
Î±Î» ÏĮ
ĠÎ± Î»ÏĢ
ĠÎ¹ÏĥÏĦ ÎĪ
Î¸ ÏģÎ¿
ĠÎ¹Î±ÏĦÎ½Î¿ Î¶Î¬
Î½ Î¿ÏĨ
ĠÏĤÎ±Ïģ ÏİÏĩ
Î½ÏīÎ½Î¹ Î¿Îļ
. "
Î¯ÎµÏĩ Î¹ÏĢÎµ
ĠÎ½Ïİ Ïģ
Î½Î¿Î½ Î±Îº
Ġ ÎļÎŁ
Ġ8 1
ĠÎ¹Îµ ÏĦÏĢ
ÎºÏģ ÏħÎ¿ÏĦ
Î³ÏģÎµ Î½ÏħÏĥ
Ġ ÎŃ
Î½Î¬ Î½ÏħÏĥ
ÏħÎ» Î¬Îº
Î¸ ÏħÎ¿Î»Î¿ÎºÎ±
Î½Î± Ïĥ
ĠÎ¹Î¿ Î¯Î¿ÏĢÎ¿
Î¹ ÎĴ
Î¹Îµ ÏĥÎ®
ÏĨ Îķ
ĠÎ±Î¯ Î³ÏģÏħÎ¿ÏĦÎ¹ÎµÎ»
Î· Î½Î±
ĠÎ±Î¯ÏĥÎ±Î³ÏģÎµ Î½ÏħÏĥ
Î·Î½Î¯Îº Î¿ÏĦÏħÎ±
Ïħ Îĵ
Î¹ ÏĪ
ĠÎ·Ïĥ Î·Î¼
ÎļÎĻ Î¤
Ġ ]
ÏģÏĦ Î±
ĠÎ½Ïī Î»Î»Î¬
ÏħÎµ Î½
ĠÎ±Î¯ Î³Î¿Î»
l u
Î¹ÏĦ ÏĮ
Î»ÏĢ Î¹Î´
Ïİ Î¶
ĠÎ¹Î±ÏĦÎµÎ¶Î¬ Î¹ÎµÏģÏĩ
ĠÎ¯ ÏģÎµÏĢ
Î±Î² Î²Î¬Î£
Î½ÎµÎ¸ ÏĥÎ±
Î¬ÏĦ ÏĨ
ĠÎ¿ÏģÏĦ Î½ÎŃÎº
ww w
Î± Î¹Î»ÏĮÏĩÏĥ
Î» ÎµÎ¼
ĠÏĤ Î·Ïģ
ÏįÎ¿ Î³Î±ÏģÏĦ
Î³Î¿Î»Î¿Ïģ Î¿ÏĨ
ĠÏĤÎµ Î½Ïİ
ÏģÏĦ ÎµÎ¼
ÏģÎ± Îļ
Î½Î¯ Î³
ÏīÎ½ Î³Î±Î½Î±
ĠÏĤÎµ Î´Î¯
ĠÎ·Ïĥ Î½ÏħÎ¸ÏįÎµ
Ïĥ Î¹Î´
Î®Ïģ Îļ
ÏģÎµÎ¼ Î±
ÏħÎµ Î´
ĠÎ±Î¯Îµ ÏĦ
Î¾ ÎµÎ´
' '
Î±ÏĨ ÏĥÏĮÏģÏĢ
Ïī ÏĢÏħÏĦ
ĠÎ¯ Î´Î¹Î±ÏĢ
Î¿ÏĢ ÏĭÎ¿ÏģÏĢ
ĠÎ½Ïİ ÏĦÎµ
6 102
ĠÎ±ÏĦÎ±Î¼ Î®ÏĦ
e L
ÏģÎµÎ¸ ÏħÎµÎ»Îµ
ĠÎµ ÏĢÎµÏģ
Î¹ Îķ
Î¼ Î¬Î½ÏħÎ´
Ïģ Î¿ÏĢÎ±
Î·ÏĦÏĮ Î´
Ġa i
ÎºÎ³ ÎŃ
Î® Î½Î¹Îº
Î½Î¬Î³Ïģ Î¿
ĠÎ±Î¹Îµ Î¸Î¬ÏĢÏĥÎ¿ÏģÏĢ
ÏģÎ® ÏĢÏħ
Î£ ÎĳÎł
ĠÎ¿ Î¹Î³
Î® Îº
ĠÎ½Î¿ Î¤
Î½Î± Îļ
ĠÎ±Ïģ ÎŃÎ¼Î·
ÏįÏģ Îº
Î³ Î¥
ĠÎ½Î± ÏĪ
ÎŁÎ¡ Îł
Î¹Î» Î±ÏĢ
ÏĥÎµ Î»ÎµÏĦÎ¿ÏĢÎ±
Î¬Î» Îº
Î¬Îº Ïĥ
Î±Î² Î±Î»
ÏįÎ¿ ÎºÎ¹
Î³Î±Î½Î± Îł
Ïİ ÏģÎµ
ĠÎ·ÏĪ Î·Î»
Ïĩ Î³ÎŃÎ»Îµ
ĠÎ· ÏģÎµÏĦÏįÎ»Î±Îº
ĠÎ® ÎºÎ±Î¹ÏģÏħÎļ
ĠÏĤÏħÎ¿ ÏĥÏĮ
ÏīÏģ ÏĦ
Î½ ÏįÎ£
Î² ÏīÏĦÎºÎŁ
ÏĪ Ïį
ĠÏĤÎµ ÎŃÎ½
ĠÎ·Î¾ ÏħÏĦÏĢÎ¬Î½Î±
ĠÎ¹Îµ ÏģÎ¬ÏĢ
ÎºÎ±Î» ÏħÏĨ
ĠÏĤÎ± Î´Î¬Î»Î»Îķ
ĠÎ¬ÏĦ ÎµÎºÏģÎ±
Î¸ ÏĥÎ¹Î¼
Î¹Ïģ ÏĢÎĳ
ÎµÏģ ÏīÎ´
ĠÏĤÎµ Î½ÎµÎ¼ÏĮ
ĠÎ¹ÎµÏģÎŃÏĨ ÏĥÎ¿ÏģÏĢ
ĠÏĮ ÎºÎ±
ĠÏĤÎ® Î¼
Î¹Ïĥ ÏĮÎ¼Î·Î´
ÏīÎ¹ÏĦ Î±ÏģÏĦÏĥ
ĠÎ¹Îµ Î¬ÏĢ
ĠÎ±Î¯Ïģ Î¹Î±ÎºÏħÎµ
Î·Î» Î±
Î¡ Îĳ
Ïį Î¤
ĠÎ½ÏįÎ¿ Î¸Î·
Î¶ÎµÏĢ Î±ÏģÏĦ
i koo
ĠÎĻ Îķ
Î»Î»Î± Îĵ
ÏĦÏĥÎ± Î¹ÏĥÏħÎ¿
Î·Î¸ ÏĥÎ¹Î±
Î´ÏħÎ¿ÏĢ Ïĥ
Ġ E
Ġ ne
ĠÎ¯ÎµÎ¸ Ïĩ
ĠÎ¬ Î¹Î¼
/ /
Îµ Î»ÏĮÏĢ
ĠÏĤ ÏįÎ¿Ïģ
Î·Î»Îº ÎºÎķ
ÏĮÎ¼ ÏĥÎ¹
Î¯ÎµÎ¼ Î·Ïĥ
ÏģÎµÎ¼Î® Î£
ÏīÏģ ÎŃÎ¼Î·Î½Îµ
ĠÎµÏĦ ÎµÎ»
ÏģÎ± ÏĨ
Î½Ïī Î¶
ĠÏį Î¿ÎºÎ±
ĠÎ±Î½ Î®Î¸Îĳ
ĠÏĤÎµÏģ ÎŃÎ¼Î·
ÏĢÎ¼ Î¿ÏĢ
ĠÏħÎ¿Î¯Ïģ Î²ÏīÏĦÎºÎŁ
ĠÏĤÎ® ÏĦÎ·
Î¯Î» Îº
ĠÏĤÎŃ Ïģ
ĠÏĤÎ¿ Î¹Ïģ
ÏĢÎ¼ ÎŃÎł
ĠÎµÏĥ Î·Ïģ
t ro
ÎºÎ¯ Î¿Î¹Î´
Î¯ÏĦ Îµ
Î² Ïĥ
ÎŃ Î³
Ïħ ÏĩÏĥ
Ïī Î¦
Ïį Î±Î¼
ĠÏĤÎ® ÎºÎ¹ÏĦÎ±Î¼
d o
ĠÎ±ÏĦ ÏİÏģÏĢ
Î± ÎĿ
pt th
Î± Î´Î¯
ĠÏĤÎŃ ÏĩÏģÎ±
ÎĹ ÎĶ
!! !!
ĠÏĤÎµ ÏģÎµÏĦÏĮÏĥÏĥÎ¹ÏģÎµÏĢ
Î¹ Îľ
Î® Ïĥ
ÏħÎµÎºÏĥ ÏħÏĥ
ĠÏĤÎµ Î¯Î»
Î®ÏĦ Îº
edi v
ĠÎ¹Î±ÏĦÎ½Î¿ Î¶
ÏħÎµ Î½ÏĢ
ĠÎ· ÏģÎµÏĦÏįÎ»Î±Î³ÎµÎ¼
Î·Î» Îł
Î¼ Îµ
ÎµÏģ ÏĦ
Î±Ïģ Î¹Îµ
Ïĩ Î±Î¼
ÏĤÎ¹Îµ ÏĥÎ¬
ĠÎ® Î³Î¿Î¼ÏģÎ±ÏĨÎµ
Ġ5 2
ĠÎ¬ ÏģÎ¿Î³Î±
Ïģ Î¿Î¹Î³
ĠÏĤÎ¯ÎµÎ¼ Îµ
ĠÎ½Ïī Ïģ
ĠÎ±Î½ Î¯
ĠÎ±Î¯Îµ ÏģÎ¹Î±ÏĦÎµ
ĠÎ½ÏħÎ¿ ÏĥÎ¬
Î± ÏģÎµÏĦÏĮ
ĠÎ¿Î´Î¿ Î¯ÏģÎµÏĢ
ĠÎĳÎł ÎĹ
ĠÎ¿ÏĥÏĮ ÏĢ
ĠÎ®ÏĨÎ±ÏģÎ³ Î³Îķ
p i
ÎºÎµ ÏĦ
// :
8 91
Î±Ïģ ÏĨ
ĠÎ¬ÏĦ ÏĢÎµÎ»
Ïģ Î±Î½Îĳ
Î±Î½Î± Îł
ĠÎ±Î¹ Î»
ÎĿ Î©
Î³ Î±Î¼
ĠÎ±Î» Î·Î»Î»
ÏĥÏįÎ¿ Î³ÏħÎĳ
Î¿Î½ ÏĮÎ¼
ÏģÎµ ÏĥÏĥ
Î¹ÏģÎ®ÏĦÏĥ Î¿ÏĢÏħ
ÏĤ Ïİ
Î»Îµ ÏģÎ±ÏĢ
Î³Î¿Î» Î¬Î½Î±
ĠÎ½ÏħÎ¿ ÏģÎŃÏĨ
ĠÎ¬ÏĦ Î±Îļ
Ïĩ ÏįÎ¿
ĠÏħÎ¿Î¯ÏĦ ÏģÎ±Îľ
Ġno i
ĠÎ·ÏĥÎ·Î¾ ÏįÎ±
Î½ ÎŃÎ¸
Î±Ïĥ ÏĦ
Î± ÎŃÎ¸
ÎĹ ÎĽ
ĠÎ¿Î» ÏĮÏģ
ĠÏħÎ¿Î» ÏĮ
Î¿Î´ Î¿ÏĢ
ĠÏī Î¾ÎŃ
ÎŃÏģÏĦ Î¹ÏĢÎµ
ÏĤ Î·Î´
ÎŁ Îļ
Î¿ÏģÎ´ ÏħÏĩÎ±ÏĦ
ĠÏĤÎµÎ¯Ïĥ ÎµÏģÎ·ÏĢÏħ
Î¾ Î¬ÏĦ
Î½Î¿ Î»Î»
Î½ÎŃÎ¼ Î¹ÏģÎµÏĢ
ĠÎ¹ÎµÏģÎŃÏĨ Î±Î½Î±
ĠÎµÎ¼ ÏįÎ¿ÏģÎ¿ÏĢÎ¼
ĠÎ± ÏģÎµÏĦÏįÎ»Î±Îº
ĠÏĤ Î¬ÏĦ
ÎµÎ» Î¿ÏĢ
ĠÏĤÏħÎ¿ÏĢ ÏİÏģÎ¸Î½Î±
Î½Î¿Ïģ ÎŃÏĨ
Î±Î½ Î®Î¸Îĳ
ĠÎ· ÎºÎ³Î¬Î½Î±
ÎµÏĦ Î±Îº
ĠÎ·Ïĥ Î±ÏĦÏĥ
ÏģÎŃ Îº
ÏĢ Î»Îµ
ĠÎ¿ Î¯Î»Î²Î¹Î²
or u
ĠÎµÏĦÏĥÎ¬Î² Î±Î¹ÎĶ
ĠÎ¹ÏĦÎ½Î±Î½ÎŃ ÏĢÎ±
Î¿Î½ Î¿Î¼
ÏīÎ¯ Î±ÎºÎ¹Î´
Ġ6 1
ĠÎ® ÏĩÏģÎ±
ĠÏĤÏĮÏĦ Î½Îµ
ÏģÏĦ Î±Î¹
ĠÎ½ÏħÎ¿ Î¶Î¯Ïģ
b a
ÏĥÎ¹ÏĦ Î¹Î»Î¿ÏĢ
ĠÏĤÎµÏģ ÏİÏĩ
Î´ ÏģÎµÎº
ĠÏħÎ¿Î¯ÏģÎ²Î¼Îµ Î¿ÎĿ
ÏĨÎ¼ Î±
ĠÏĤÎ® ÏĦÏħÎ±
ĠÎµÏĦ Î½ÎŃÏĢ
Î»Î± Ïĩ
Î±ÏĢÎ± Îł
Î¾Îµ Î¹Î´
ĠÎ±Î½ ÏĮÎºÎ¹Îµ
ĠÏĤÎ±Î½ ÎĪ
Ïİ ÏĢÎ±
ÏĥÎ± ÏĨÎ¿ÏĢÎ±
tiw T
Î¶ÎµÏĢ Î¬ÏģÏĦ
Îµ ÎĿ
ĠÏĤÎ±ÏĦÎ½Î¿ Î¶Î¯
Î¼Î±ÏģÎ³ Î¿ÏģÏĢ
ÏģÎµÏĥÏĥ ÎŃÏĦ
ĠÎ¯Îµ Î»Î±Îº
Î¯ Îº
ÎºÎ¹ Î¿ÏĦÎ±Îº
ĠÎ½Ïİ ÏĦÏĥ
ÏĮ Î½Î¿
Ġ ?
ĠÎµÎ¼ÏħÎ¿ Î½Î¬Îº
Î¿ Î¾Îµ
Î±Ïģ ÎŃ
ĠÎ±Î¯Îµ ÏģÎ¿ÏĢ
Î» Î·Î¼Î±Ïĩ
0 4
ÎµÎ¸ Î±Îº
ĠÎµÏĦÏĥ Î¯Îµ
ĠÏħÎ¿Î¯ Î¼
Î¿Ïģ ÎºÎ¹Î¼
ĠÏĤÎ¿ Î³ÏĮÎ»
Î±ÏĦ Î½Î±ÏĨ
ĠÏĤÎµ Î¯Îµ
Îķ Îļ
ÏħÏģ Î§
ĠÎ¹ÎµÏĥ ÎŃ
ĠÎ½ÏīÎµ ÏĥÏİ
l A
Î½Ïī ÎµÏĥ
ĠÎ±Î¼ Î·
Î»Î± ÏĨÎµ
ĠÎ½Ïİ ÏĦÏħÎ±
ĠÎ¬ÎºÎ¹ ÏĥÏħÏĨ
Î³ Î¿ÏĦ
ĠÏĤÎŃ Ïĩ
ÏĮ Î¹
Î»Îµ ÏĦÏĥ
ĠÎ®Ïĩ Î¿ÏĢÎµ
Î¿Ïģ ÎµÏĦ
ÏįÏĦ ÎºÎ¹Î´
ÏĢ Îľ
Î¹ Î¿Îł
Î¾ Î¿
ĠÎ®ÎºÎ¹ Î¼Î¿Î½Î¿ÎºÎ¹Î¿
ĠÎ·ÏĥÏī Î¯ÎµÎ¼
ĠÎ¿ ÏĩÏĮÏĦÏĥ
ĠÎ½ ÏħÎ¿ÏĢ
ÎĻ ÎĶ
Îµ Î¶
k a
ĠÎ±Î¯Îµ Î¼
ĠÎ® Î³Î¿Î»Î¹ÏĢÎµ
ĠÏħÎ¿Î¼ Î®ÎĶ
Î½Ïİ Ïģ
Î»Î» ÎĨ
Î¿ÏĢ Î¬
Î® Î³
Ïħ Î±ÏģÏĦ
Î½Ïī Î½ÎŃÎ¼
ĠÏħÎ¿Î¯ Î½ÏħÎ¿ÎĻ
Î¹ÎµÎ» ÏĢ
ĠÎ·Î¾ Î±ÏĦ
ĠÎ½Ïİ Î½
ĠÎµ Î²Î±Î»
Ġ n
Î¾Îµ Ïĥ
ĠÎ± ÎºÎ¹
ĠÎ® Î½Î¿Î¼
ÏģÏĦ Î®Î¼Î·ÎĶ
ĠÏĮÎºÎ¹ Î½Î·Î»Î»Îµ
ÏīÏģ Î·Î»ÏĢ
e R
ÏģÎ¿ Ïĩ
ĠÎ¬ Î¹ÎµÎ»ÏħÎ¿Î´
Î³Î·ÏĦ Î±ÏģÏĦÏĥ
Î· Î½ÎŃÎ¼
Î±Ïģ Î±Îļ
Îº ÎĪ
ĠÎµÏĢÎµÏģ ÏĢÎŃ
Î¼ÏĮ Î½
Î³Î±ÏĦ Î½ÏħÏĥ
Î¹Ïĥ Î·Î½
ĠÏĤÎŃ ÎºÎ¹ÏĦÎ±Î¼
ĠÎ· ÎºÎ®Î¸
ÎºÏĬ Î±Î»
d na
Ġ4 1
ÏħÎ´ Î½Î¯Îº
ĠÏī Ïĥ
ĠÎµ Î½Î¬
Î¬ÏģÏĨ ÎºÎµ
ÏĢÎŃ ÎºÏĥÎ¹ÏĢÎµ
ĠÎ¿Î¹Ïģ Î®ÏĦÏĥ
5 102
Î±ÏĢ Îľ
Î½ÏĮ Î¸
ÏĨ Îĳ
Î½Î® Î»Î»Îķ
ĠÎ±Î¹ ÏģÎŃÏĩ
Î±Îº Î¹ÎĶ
Î½Î¬ Ïĩ
Ïİ Î´
âĢ ĵ
ĠÎ½ ÏįÎ¿Î½
ĠÎ±Î¯ Î³ÏģÏħÎ¿Î¹Î¼Î·Î´
Î±Î» Î±
Î·ÏĦ Î¯Î±ÏģÎ±ÏĢÎ±
Îº ÏĮÎº
Î¹Ïĥ Î±Î²
ÏĤ Î¿Î¼
Î¿ ÎµÎ½
Ġ D
Î»Î¿ÏĦ Î±Î½Î±
ÏĮ ÏĦÏĥÎ¹
ĠÏĤ Î¬Î¹
ĠÎ¹Îº Î¬
Î¹Î± ÏĨÏĥ
Î·Ïģ Î¸
Î¯ÏĦÎ±ÏģÎº Î¿Î¼Î·ÎĶ
Ġ ro
ĠÏĤÏī Î¼
ĠÎ¿ ÎµÏĦÎ½Î¯Î²
Î±Ïģ ÏİÏĦ
Ïĩ ÏħÏĥ
t ra
ÎĳÎĻ ÎĶ
Ïī ÏģÎŃ
Î´Îµ Î½ÏħÏĥ
Ġ3 1
ÏħÎ¿ Î»ÏĮ
ĠÏĤÎ¿Î½ Î¿ÏģÏĩ
ÏĤÎ® ÎºÎ¹ÏĦ
Ġs i
Î½Î¿Ïģ ÏĨ
; ;
t A
ĠÎ¬ÎºÎ¹ÏĦÎ±Î¼ Î³Î±ÏģÏĢ
ĠÎ¬ÎºÎ¹ Î´
ĠÏĤÏħÎ¿ Î»Î»Î¬
ÏĥÎ¯ Î±
Îµ Îł
ĠÎ¬ÏĦ Î±Î¼
Î·Î» Î²Î¿ÏģÏĢ
ĠÎķ Î¤
ĠÎ¹ÎµÏĥÎ® ÏĦ
ÏĦ ÎµÎ¼Î¼ÏħÏĥ
ÏįÎ½ ÎºÎ¹ÎµÎ´
ĠÎ±Î¯ÏĥÏħÎ¿ ÏģÎ±ÏĢ
Ġ fo
Î¹Î» ÎŃÎ¾Îµ
ĠÎ¹ÏĦÏĮ Î¹Î´
ĠÂ ·
ĠÎ±Î¼ Î¿ÏĦÎ¬
ÏĦÏĥÎ¹Ïģ Î±ÏĩÏħÎµ
Î±Î¯ Î»
ĠÎ½Î± ÏĥÎ¹
ĠÎ±Î¹Î³ ÏĮÎ»
ĠÏĮÏĦÏħÎ± Îµ
ĠÎ½ÏħÎ¿ Î»ÎŃÎ¸
ÎŃÏģ Îł
ĠÎĿ ÎĹÎ¤
ÏħÎ¿ Î¯Î»
ÎŃÎ» Î±Îº
ĠÎ± ÎºÎ¯Î±Î½ÏħÎ³
Î¿Îº Î³
8 2
ĠÏĮÎºÎ¹ÏĦ Î½Î±Î¼Î·Ïĥ
Î±ÏģÎ¹Îµ Îł
ikoo c
ÎºÎ³ ÏħÎ£
Î½Î¹Î¿Îº Î±Î½Î±
ĠÎ·Ïĥ Î·Î»
ÏĢÎµ Î¾
Î¯ÏĦÎ½Î± Î½Îµ
ÏħÎµÏĦ Î½ÎŃ
Î¯ÎµÏĩ Î±Î¹Î´
Î·ÏĦÏģÎ¬ Î½Î±
re g
Î¿ÏĨ Î¿Î»ÎºÏħÎº
Ġ ÎºÎ³
Î¸Î±ÏĢ ÏĥÎ¿ÏģÏĢ
ĠÏĤ Îĳ
ĠÎ±Ïĥ ÎµÎ¼Î¬
ÏħÏĩÏĥ Î¯
Ġ7 1
Î½ÎŃÎ¼ Î±Î½Î±
ĠÏĤÎŃ ÏĦÏĥ
Î± Î¹Î»
Î¿Î³ Î®ÏģÎ³
Ġ4 2
Ġ Î©
ÎŃÏģÏĦÏĥ Î¹ÏĢÎµ
Î¯ ÏĥÎ±ÎĴ
ĠÏį Î¿ÏĢ
Î½Îµ Îº
ĠÏĤÎ¿ Î¹Î´Î¯
ĠÎ® ÎºÎ±
Î½Ïİ Î¶
Î½Î¿Î¼ Î·ÏĦÏĥÎ¹ÏĢÎµ
Î± Î¹Ïĥ
ĠÎ± ÏģÎ¬
ĠÎ±Î¯ Î½ÏīÏĨÎ¼ÏħÏĥ
ĠÎ¿ Î´ÎµÏĢÎ¯ÏĢÎµ
Î½ ÎĻ
Î·Î³ Î®
ĠÏĮÏģ ÎºÎ¹Î¼
ĠÎ¹Î¿Î½ ÎµÎ¼ÏĮ
Î¿Î´ Î±ÏģÎ±ÏĢ
ÏĦÏĥÎ¹Î½Ïī Î³Î±ÏĦ
Ïī Î§
Î½Î¿ Îľ
ÏİÏĦ ÎµÎ¼Î¹ÏĦÎ½Î±
Î·Î´ Î¯Îµ
ĠÎ¹Îµ ÏĨÎ¬ÏģÎ³
Î¾Îµ ÏĢÎµ
ĠÎ¬ÎºÎ¹ Î´Î¹Îµ
Î¬Î¹Î´ Î¹Î±ÏĢ
ĠÎ·Ïĥ Î¹Î½Î¬
ĠÎ±Î¹Ïģ ÏįÎ¼
ĠÎ¬Ïģ ÏħÎµÎ»ÏĢ
ÏĥÏĥÎ¹ ÏģÎµÎł
Î¹Î¿ÏĦ ÎŃ
Î½ÏīÎµ ÏĥÎ®
v a
Î³Î¿ Î»Î»
ĠÎ±Î¯Ïģ ÏĦ
ÎµÏģ ÎĴ
ÏģÎ¿ Î³
ĠÎ· Î½Î¿ÏģÏĩ
ÎĻ ÎĽ
Î¬ Î¹Î»
ÏĦÏĥ Î©
7 91
Î± Î´Î¯Î»ÎµÏĥ
ĠÎ±ÏĦÎ±Î¼ ÏĥÎŃÎ»ÎµÏĦÎ¿ÏĢÎ±
Ïİ Î¹Î´
ÏĥÎ±Î¹Î´ ÎµÏĩÏĥ
ÏĨÎ±ÏģÎ³ Î³ÏħÏĥ
ĠÏħÎ¿Î¯Î»ÏħÎ¿ ÎĻ
ĠÏĮ Î½
ÏģÎµÏĢ Î¼
Î¿ÏģÎŃÏĨ Î±Î¹Î´Î½Îµ
ĠÎ·ÏĥÎ· Î½Î¯Îº
Ġ ÎļÎķ
ĠÎ½ÏħÎ¿ ÏĥÎ¯
Ġ C
oru E
Î¿Î´ Î¹Îµ
ÏĦÎ½Î± ÏĢÎ±
Îķ Îķ
Î¿ÏĦ Î½Îµ
ĠÎµÏĦÎ¯Îµ Î´
Î·Ïģ Î§
ÏĮ ÏĥÎ¹Îµ
ĠÏį Î¿Î¹
ÏħÏĦ ÏģÎ±Î¼
Î¿ÏģÎµÏĦÏĮ ÏĥÏĥÎ¹ÏģÎµÏĢ
ĠÎ®Ïģ ÎºÎ¹Î¼
ÏĩÎ¹ Î¿Î½Î±
Î³Î±Ïģ ÏĢÎ±Î¹Î´
ĠÎ¿Î¯ Î±ÏĦÏħÎµÎ»ÎµÏĦ
Î·Ïĥ Î·
Î¿Ïĩ ÏĥÎ±
Î½Ïİ Î¹
Ïĩ ÏģÎµ
Î±Î½ Î±ÏĦÎ±Îº
ĠÏīÏĦÎ¬Îº Î±ÏģÎ±ÏĢ
ĠÎ® ÏħÎµÎºÏĥÎ±ÏģÎ±Îł
ĠÎ· ÏģÎµÏĦÏįÎµÎ´
ĠÏįÎ¿ÎºÎ¹ Î½Î¿ÏģÏĦÎºÎµÎ»Î·
Î±ÏĢ Ïħ
ĠÏĮ ÏĢÎ¿ÎºÏĥ
Î· Î²
Î±Î½ Î·Î¸
Î½Ïİ ÏĦÎµ
ĠÎ¬ Î¹ÏĦ
Î½Î¹ Î±ÏĨ
Ïį ÎĶ
ĠÎ± ÏĩÎ¯Îµ
ĠÎ±Î¼Î·ÏĦ ÏĥÎ¬Î¹Î´
Î» Î¯ÏĨ
ĠÏĤÎµÎ´Î¬ Î¹Î»Î¹Ïĩ
Î®Î¼ Î¤
ÏīÏģ Ïĩ
Ġ1 2
ÏĩÎ¹Î¿ÏĦÏĥ Î¯ÏĦÎ½Î±
Î³Î± ÏĨ
ÏĦÏĥÎ¹Î» Î±ÏĨ
ĠÎµÏĥ ÏīÎ´ÎŃ
ÏħÎ¿Î»Î¿Îº Î±ÏģÎ±ÏĢ
Îº Î±Î¹Î´
Î¹ÏģÎº Î±Î¼
Î½ÏīÎ½Î¹Î¿ÎºÎ¹ ÏĢÎķ
Ïĥ Î¤
ÏĥÏĮ ÏĢÎ±
Î¹Î¿Î½ Î¬
ÏīÏĦ ÏĢ
ĠÏĤÎ·Ïĥ Î·Î¯Î¿ÏĢ
ĠÏĤÎµ Ïĥ
Î¿Î» Î¿Î´
Î½Ïī Î¯
ĠÎ¹Î¿ ÏĥÏĮ
ĠÏħÎ¿Î¯Î» Î¹ÏģÏĢÎĳ
Î»Î» Î¿Îł
ÏģÎ¬ ÏĢÏħ
ĠÏĤ Î¬Î¼
ÏģÎµÎ¸ Î±ÏĦÏĥ
ĠÏĤÎ¹ÎµÎ¾ Î¬ÏĦ
Ïģ ÏĮÎ¼
ÏĨ Î¿Ïĥ
Ïģ Î§
ÏĤÎµ Î¹Îµ
ÏİÏģ Îł
Î·Î½ ÏħÎµÏģÎµ
Î¿ÎºÏĥ ÏħÎ´
ĠÎĳ ÎĸÎĻÎ¡Î¥Î£
ĠÏĤÎµ ÎºÎ¯Î±Î½ÏħÎ³
Î¹ Î¶
ĠÎ±Î¯ Î´
ÏģÎµ Î¾
ĠÎ¯ÎµÎ¸ Î·Î¹Î¿ÏĢ
ĠÎ¹Î±ÏĦÎ½Î¿ ÏĩÏģÎŃ
ÏĤ ÏįÎ¿Î¼
Î¯ÎµÏĦ Î¿ÏģÏĢ
Î½Î¹ ÏĢÏİÏģÎ¸Î½Î±
ĠÎ· ÏģÎµÏĦÏĮ
Î½ ÎĪ
Ġd e
ÏģÎ¬ ÏĦÎ±Îº
ÏģÎŃ Î¸
ĠÎ¹Îµ ÏĩÎĪ
Î¿ Î¹Ïĥ
ti s
Î¿ Î»Î»Î¬
ĠÏĤÎ¹Îµ ÏĥÏĮÎ´
ÏħÎµ ÎĽ
Î½Î±Î¼ÏģÎµ Î³
Î² Î±Ïģ
ÏĤÎ± Î´Î¬Î»Î»Îķ
Îº Î®Î½Î±
ĠÏĤÎµ ÎºÎ®Î¸Î½ÏħÏĥ
Î¬Î» Î¹Î¼
ĠÎ½Î¿ Î¯ÏĦÎ½Î±Î½Îµ
ĠÎ½Î¬ Îķ
ÏĢ Î»Îº
Î½Î± ÏĢÎ±
ĠÏĤÏī ÏĥÎŃÎ¼
ÎµÎ» Î¬Îº
ĠÏħ Î¿ÏģÎ´
ĠÎ®ÎºÎ¹ Ïģ
ÎµÎ¼ ÏįÎ¿
ĠÎ·Î¼ Î±Î½ÏįÎ´
4 102
ĠÎ®Î¼ Î¹ÏĦ
Ïĥ Î±Î¼
ĠÎ±Î¹ ÏģÏĦ
ĠÎµÎºÎ·ÏĦ ÏĥÎ¯
ĠÎ¹Îµ Î²Î¬Î»
ĠÎ¿Î¹Î» ÏįÎ¿
ĠÏĤÏī Îµ
ĠÎ®ÏĨ ÏģÎ¿Î¼
Î·Î»Îº ÎºÎµ
Î®Ïģ Î²
ĠÏĤÎ±Î¯ Î¼
p S
ĠÎ¹ Ïĩ
Î±ÏģÏĦ Î£
ÏīÏĩ ÎµÎ¾
Î¿ÏģÎµÎ¼ Î·
ĠÎµÎºÎ·ÏĦ ÏĥÎ¬
ĠÎµÏĦÎ¯Îµ Î¸
R A
ĠÏħÎ¿ ÎŃÎ½
ĠÏħÎ¿Î¯ Î³Îĳ
ÏīÏģ Î·Î»ÎºÎ¿Î»Î¿
ĠÎ¹Îµ Î¬
ÏħÎ¿ Î³Î±ÏģÏĦ
ĠÎ¿ÏĦ Î±Î²Î²Î¬Î£
ĠÏĤÎ¿ÏĢ ÏīÏģÎ¸Î½Î¬
ÎµÎº Î·Î¸
ĠÎ±Î¯Ïģ Î¹ÎµÏĢÎ¼Îµ
ÏģÎ¿ÏĢÎ¼ Îµ
ĠÏĤÏħÎ¿ Î´
ĠÎ· Î»Î¬
6 2
ÏģÎ¿ÏĨ Î¬Î¹Î´
ĠÎ½Î±ÏĦ Îī
ret ni
Î¹Î±ÏĦ Î½Î¿
Ïī Î£
ĠÏħ Î¿ÏģÏĦ
Ġ0 01
h s
ĠÎ¿Î¼ ÏĮÏģÎ´
ĠÎ£ ÎĻÎķ
ts o
Ïħ Î²
ĠÎ¹Î±ÏĦÎ½Î¿Î½ Î¯Î³
Ġ m
ĠÎ¿ Î½ÏĮ
Î·Ïĥ ÎµÎ¸
ÏĥÏħ Î¦
ĠÏĤÎ® ÏĢÎ¿ÏģÏĦ
ĠÏĮ ÏĦÎ·
ĠÎµÏĥ ÏįÎ¿
ĠÎµÏģ Î®ÏĢ
ÏħÎ¿ ÎĴ
Î» Îķ
Î±Îº Îµ
Î´ Î½Îĳ
Î·ÏĦÎ¹ Î¿ÏĨ
ÎŃÎ¸ ÏĥÎ¿ÏģÏĢ
ÏĮ ÎºÏĥ
ĠÎ±ÏĦ Î½ÏĮÏĬÎ¿ÏģÏĢ
ĠÏİ Î´
ÏģÎ¬ ÏĦÎµÎ¤
Î¹ Î¸
ÏģÎ¬ ÏĦ
ĠÏħÎ¿ Î´ÏĮ
ÏĤÎ±Ïģ ÏİÏĩ
Î±Î½Î± ÏĢÎµ
ĠÎµÎ¼ÏħÎ¿ Î¶Î¯
ĠÎ±ÏĦ Î¿ÏĢÎ¯ÏĦ
ĠÎ±Î¹ Î¿ÏĦÎŃÏĦ
ĠÏĤÎ¿ Î³ÏģÏİÎ¹Îĵ
Î±Ïģ Î¤
Î·Î¸ ÏįÎ¿Î»
ÏĢÎ¼Î¿ÏĢ ÎºÎµ
ÏįÎµ Î³
ÏĤÎµÏĦ Î·ÏĦÏĮ
Îļ Îĳ
ÏĥÏĮÎº Î³Î±Îł
ÏĥÎ± ÏħÎ´Î½ÏħÏĥ
Î½Î±ÎºÎ¹ ÏģÎµÎ¼Î±
ĠÎ¹Î¿ Î»Î»Î¬
Î¿ Î¸Î±Îº
ÎŃÏĦ Î½Î¿Î¼
Î®Î½ Î¼
Î£ Î©
ÏħÎ¸ Î¹ÏĢÎµ
Î¿ Î£
Î²Î¼ ÎŃ
Î¹Îµ Î»ÎµÏĦ
ÏģÎ± Î¸Î±Îº
ĠÏħÎ¿ÏĦ ÏĥÏįÎ¿Î³ÏħÎĳ
ĠÎ½ÏįÎ¿Î» ÎµÏĦÎ¿ÏĢÎ±
7 2
ÏĦÎ· Îľ
ÏĮ Î³
ĠÎ±Î¼ ÏīÎ¯Î±ÎºÎ¹Î´
Îº Î·Î»ÏĢ
Î¹Ïĥ Î¬
ĠÎ¯Îµ ÏģÎ¿ÏĢÎľ
ĠÎ¿ Î½Î¯
Î® ÏīÎ¶
Î±Ïģ ÏĢ
Î» Ïĩ
ĠÏĤÎµ Î»Î¬Î³ÎµÎ¼
Ġ Î¶
Ïĩ ÏįÎ½
ÏĥÎ±Î» Î¬Î¸
gol b
ĠÎ¿ ÏģÎµÏĦÏįÎ»Î±Î³ÎµÎ¼
Ïħ Î±Î½
Ġ6 102
Î½ÏĮ ÏĢÎ¹Î¿Î»
ĠÎ·Ïĥ Î¹Î¼Î¸
Î»Î± Î§
ĠÏĮ ÏģÎµÎ½
Î³ ÏįÏĨ
Ïĥ ÏħÎ¸
Î½Ïİ Î½
ÎµÏģÎ· ÏĢÎ¥
ĠÎ¹Î±ÏĦÎµ Î¸
ÏİÏģ Î·Î»ÏĢ
Î±Î¹ Î¼
Î·Î½ Î¿ÏĢ
Î³Ïģ Îĳ
ĠÎ±ÏģÎŃÏĦ ÏħÎµÎĶ
ĠÎµÎ½ ÎŃÎ»
s er
ÏĮ ÏĢÎĳ
h p
ÎµÎ´ Î¹
Î¹ÏĢ ÏİÏĦÎµÎ¼Î¹ÏĦÎ½Î±
ĠÎ¿ ÏģÎµÏĦÏįÎ»Î±Îº
ĠÏĤÎ·Ïĥ Î·ÏĦ
Î¿ÏĦ Î±
ĠÎ¹ÎµÎ½ Î¯ÎµÎ¼
Ġd na
ÎŃÎ» Î¿ÏĢ
Î¬ Î»Î»Î±
Îº Îĳ
Î¬ ÏĦÏħÎ±
Î¼ ÏħÎ³
ĠÎµÎ¼ÏħÎ¿ ÏĥÏİ
Î»Î¯Îµ ÏĨÎ¿
ĠÎ¯ ÏīÏģÏĢ
ĠÏħ Î´
ÏįÎµ Î½
Î»Î± Î²
ĠÎ¹Îµ Î½ÏĩÎ¯ÎµÎ´
ÏĩÏħ ÏĦÏĥ
ĠÏ Ĩ
Î¿ÏĨ Î¬Î¹Î´
ĠÎ¿Î¯Îµ ÏĩÎ¿Î´Î¿Î½ÎµÎ¾
ÏĥÎ± ÏĨ
Î»Î± Î¸
ĠÎ±ÏĦ Î½Î¬
ÎµÏģ Î±ÏĢ
ĠÎµÎ¼ Î±Ïĩ
Ïİ Î½Î±
ĠÎ¬ Î½ÏĩÏħÏĥ
Î³ Î®ÏĢ
y a
Î³ÏĮ ÏĢÎ±
ÏĦÏĥÎ¹Ïģ Î§
ĠÏĤÎ± Î´Î¬Î¼Î¿
Ġ0 4
ĠÎ·Î½ÎµÎ¼ÏĮ ÏĢÎµ
Î½Î¹ Îļ
Ïį Î¾
ĠÎ¹Î±ÏĦÎµ Î½ÎŃÎ¼Î±Î½Î±
Î¯Î±Îº Î¿Î»Î±Îº
ĠÎ½Î¿Î»Î» Î¬Î¼
Î¬ Î»Î±Îº
Î½Î¿ÏĢ Ïĥ
Î½Î±Î³Ïģ Î¿Î¹Î´
ÏīÏĢÏħÏĦ Î½Îµ
ÎĳÎł ÎĹ
ĠÎ±Î½ÎŃ Î½Î±Îº
Î½ÏħÎ¸ ÏħÎµ
Î±Î½Î·Î¸ Î±Î½Î±Îł
ĠÏĮÎºÎ¹ÏĦ Î¹Î»Î¿ÏĢ
ĠÏĤÎ±Ïģ ÎŃÏĦ
ÏīÎ½ ÎĪ
Ïĩ Î¯
ĠÎ·Ïĥ ÏįÎ»
ĠÎ·Ïĥ Î¯ÏģÎº
Î¿ÏĦ Î½ÎŃ
ĠÎ¹Î±ÏĦÎ½Î¿Î½ Ïİ
ĠÎ±Î¹ Îº
ĠÎµÎ¼ ÏįÎ¿Ïģ
Î¿ Îľ
ĠÎ±Î¹ ÏĥÏĮÎ¼
ÏĦÎµ ÎºÏģÎ±
Î½Î¬ ÏīÎĻ
ĠÏĤÎ·Ïĥ Î·Î½ÏģÎŃÎ²ÏħÎº
Î½Î¿Ïģ ÎŃ
Î¿ÏĦ Î½
Î¯ Î¿Î¼
ĠÎ±Î¼ ÏĥÎ¹
Î·Î» ÏĢÎ¼ÏħÏĥ
ĠÎ±Î½ ÏħÎµÏģÎŃ
Î¯Î»Îµ Î¾Îµ
00 1
Î±Ïģ Ïİ
ĠÎ½ÏīÎµ ÏĥÎ¬
Ġe hT
Ġ2 2
ĠÎµÏĥ Î¹Ïģ
ÎŃÎ´ Î½ÏħÏĥ
ĠÎ± Î³ÏģÎŃ
ÏįÎ»Î±Îº Î¿ÏĢÎ±
Î½Îµ ÎĴ
ĠÏĤÎ®ÎºÎ¹ÏĦ Î¹Î»Î¿ÏĢ
ĠÎµÏĦÎµ Î½Î¬Îº
ĠÏĤÎ¿Î¼ ÏĥÏĮÎº
i l
Î·Î»Î» Î¬ÏĦÎ±Îº
Îĵ ÎŁ
ĠÎ· ÏĢÏİÏģÏħÎķ
ĠÏĤÎµ Î´Î¬Î¼Î¿
ĠÎ·Ïĥ Î±Î²Î¼
ÏĤ ÏħÎ¿ÏĢ
Î½Î¯ Î¼
ĠÏĤÎ¿Î½ ÎµÎ¼ÏĮ
Î¹Ïģ Î²
ÏĢ ÏīÏĦÎµÎ¼Î¹ÏĦÎ½Î±
ĠÏĤÎ± Î´
ĠÎ¿ ÏģÎµÏĦÏįÎµÎ´
Î½Îµ Ïĥ
Î½Î± Î¹ÏĦÏĥ
ĠÎ± ÏģÎµÎ¼Î®Î£
Îµ ÏĩÎ£
Ġ T
x e
ĠÏĤÎ¿Î» ÎŃÎ¼
ĠÎĿ ÎķÎĶ
ĠÎ±Î¼ ÏĥÎ¹Ïģ
Î±ÏĢ ÏĥÎ¿ÏģÏĢ
Î· ÏĢÏħ
ÎºÎµ Î¹Î´
ÏģÎµ Ïĥ
ĠÏİÎ´ Îķ
Îµ ÏĦÏĮ
ĠÏĮ Î½Î¹Î¿Îº
ĠÎ¹ÎµÏĥ Î¯Ïģ
ĠÏħÎ´ Î¬ÏģÎ²
Ïį ÏĢ
ĠÏĤÎŃ ÏĩÎ¿Î¹ÏģÎµÏĢ
ÏĤÎ· Î¾
ĠÏĤÎ·Ïĥ Î¯ÏĢÎķ
ret tiwT
ĠÎ¿ Î¹Îµ
ÎºÎ¬ Î´
ÏĤ ÏħÎ¿Î»
ĠÎ±ÏĦÎ±Î¼ Î®Î¸
Ġ 91
Î±ÏģÎº Î¿Î¼Î·Î´
Î¬ Î²Î¼Î±Î»
Î³Î¿Î» Î¿Î¼
Î±ÏĦ Î½Îµ
Î·Î½ ÏģÎ±
Î¾Îµ Î»Îĳ
Ïĥ ÏħÎ´
ĠÎ¹Î±ÏĦÎ¹ÎµÎº ÏĮÏģÎł
ĠÎ½Î¿ÏĦ Î£
ĠÎ±Î¼ ÏİÏĥ
ĠÎµÏĥ Î·Î»
ĠÏĤÎµÏĦ Î¯Î»Î¿ÏĢ
ÏįÎ¿Î½ Î¹Î±Îº
ĠÎ½ÏīÏĦ Î®ÏĦ
ĠÏĤÎ¹Îµ Î½Î¬Îº
mo tA
ĠÎ¿Ïģ ÏĢ
ÎŃÏģ Îº
u ga
ĠÎķ Îķ
Î¹ Î±Î¼
Î³ ÏħÎµ
ĠÏĤÎµÎ¯ ÏĨÎ±ÏģÎ³Î¿ÏĦÏīÏĨ
Î® Î»Îµ
ĠÏĤÎŃÏĦ Î·Î¸Î±Î¼
ĠÏĤÎµ Î¹Î¿ÏĢÎ¬Îº
ĠÏĤÎŃ Î³Î¿Î»ÎºÎµ
ÏĥÎ® ÏģÏĩ
ĠÏĤÎ¹ÎµÏĥ ÎŃÏĩÏĥ
ÏİÎ½ Î³Î±Î½Î±
Î¹ÏĢ Ïĥ
Î»Î» Î±ÏĦÎµÎ¼
Ïĩ ÏħÎµ
ĠÎ½ Î¿ÏģÎŃÏĨÎ±Î¹Î´Î½Îµ
Î·Î»Î» ÎĪ
ĠÎ¿Î» ÏĦÎ¯ÏĦ
ĠÎĳ Îľ
Î½ÏĮ Îº
Ġ !!!
ĠÎ±Î¹ Ïĥ
ĠÎ±Î¼ Î·Î¸
Î¿Ïģ Î±ÏĢ
Î¹ ÎºÎ¹
Î±Î²ÎµÎ² Î¹ÏĢÎµ
Î¿ÏĦ Î½ÏįÏĥ
ĠÏĤÎ¿Ïģ ÎµÏĦ
Î·ÏĦÏĥÎ¹ÏĢÎµ Î½Î±Îł
ĠÎ·ÏĥÎµÎ¸ Î¯ÏĢÎµ
ĠÎĳ Î¡
ÏĤÎ·Ïĥ Î¯ÏĢÎķ
ĠÎ·ÏĥÎ½ÏħÎ¸ÏįÎµ Î¹Î´
ÏĤ Î®ÏĦ
Î¿ÏģÏĢ ÏįÎļ
ĠÎ·ÏĥÎ·ÏĦ Î½Î¬ÏĢÎ±
ĠÏī Î½Î¬Îº
ĠÎ½Ïī ÎŃÎ½
ÏħÎµÏĦÎ½ÎŃ Î½ÏħÏĥ
ÎĲ Î±Îľ
Î»Îµ Î³Î³Î±
ĠÏĤÎ®ÎºÎ¹ Î½Î·Î»Î»Îµ
Î¿Ïģ ÏħÏĢ
ÎŃÎ½ Î±Îº
Î£ ÎĻ
ĠÏĤÎŃÎºÎ¹ ÏĦÏĥ
ÏģÎ±ÏĢ Ïį
Î±Î» Î¬
ĠÎ®Î»Î¿ÏĦÏĥ Î¿ÏĢÎĳ
ĠÎµÎ¼ÏįÎ¿ Î´
ÏĥÎ± Î½Î±
ĠÎ®ÎºÎ¹ Î½Î·Î»Î»Îķ
Î³ÏģÏī ÎµÎĵ
Î¶Î¬ Î²
ÏĢÎ¿Îº Î±Î¹Î´
Î¹Î¼ Î¿Î½
ĠÎ¹ÏĦ Î¬Î¼
ĠÎµÎ¸ Î¬Îļ
ÏģÎ¿ÏĨ Î±
ÏħÎµÎ´Î¯Î±ÏĢ ÎºÎµ
3 102
ĠÎ·ÏĥÎ±ÏĦ ÏĮÏģÏĢ
ĠÏįÎ¿Îº ÏĬ
Î³Î³ Îĳ
ĠÎ½Î¿Î»Î» ÎŃÎ¼
Î¬ Î»Î»Îķ
ÏįÎº Î¿ÏģÏĢ
Ïģ Î¿Îº
ĠÏĤÎ® Ïĥ
Î³ÏģÏħÎ¿ÏĢÏħ Î¸ÏīÏģÏĢ
ĠÎ¬ÎºÎ¹ Î¼
ĠÎ·Ïĥ Î½
ĠÎ·ÏĥÎµÎ¸ ÎºÎŃ
Ġ ra
Î½Î¸Îµ Î¹ÎĶ
Î½ ÏįÎ¸ÏħÎµ
ÏĨÏĥ Îĳ
ĠÎ® Î³Î±Î»Î»Î±
ĠÎ½Ïİ Î¹Ïģ
ĠÎ±Î¼ ÏħÎµ
ĠÏĤÎ± Î£
Î½ ÏħÎ¿Î¼
t na
Î½Î±ÏĩÎ·Î¼ Î¿Î¹Î²
ĠÏĮÏĦÏĥ Î¿ÏĥÎ¿ÏĢ
ĠÏĤÎ¯Îµ ÏģÎ¿ÏĢÎ¼
ÏįÏĥ Î¿Î¹
ĠÎ± ÎŃ
Ïį Î¿ÏĢÎ¼
ĠÎ¹Îµ Î´
Î¥ Îĳ
ĠÎ¿ ÎºÎ¹
Î±Îº Î³Î±Î½Î±
Î³Î· Î¾Îµ
ĠÎ½Î¬ ÎµÏģÏīÎ´
Î¥ÎŁ Î¤
Î½ Î¯Ïģ
ĠÎµÎ¼ ÏįÎ¿ÏĦ
Î¬Ïģ Î¤
ĠÏĤÎ·Ïĥ Î·Ïģ
ÎµÏģÎ· ÏĢÎµ
ĠÎµÏĦÎµ ÏĥÎ¬
Î»Î± ÏħÎ¼
ĠÎ±Î¯ ÎºÏģÏħÎ¿Î¤
Îº ÏįÎº
ÏħÎ¸ ÏįÎµ
Î¯Îµ ÎºÎ¹ÏĦÎ½Î±
ĠÏĤÎ¿ÏĢ ÏĮÏģÏĦ
ĠÎ¯Îµ ÏĦÏĥÎ±
Î±Î» Îº
ĠÎµ Î½Î±
ÏĢÎŃ Î½ÏħÏĥ
Ġ. "
Î½Î¬ Ïģ
ÏĥÎŃ Î´
Î¹Î¿ÏĢ Î¿ÏĦ
ĠÏĮÏģ Î¹Î±Îº
ÏįÎ» Î¿ÏĢÎ±
Î±ÏĦ ÏīÏģÏĢ
Ïİ ÏĢ
ÏĩÏħÏĦ ÏĢ
Î·Ïģ Î·ÏĦ
ĠÎ±Î´Î¯Î»ÎµÏĥ Î¿ÏĦÏĥÎ¹
ĠÏħÎ¿ÏĢ ÏįÏĦ
ÏįÏĩ Î±ÏĦ
Î· Î»Î»Î¬
Î² Î±ÏģÎ²
ĠÏĤÎ¹Îµ Î¼Î¬Î½ÏħÎ´
? ?
ĠÎ·Î½ Î¯ÎµÎºÎµ
ĠÎ½ÏħÎ¿Î½Î¯ Î³
ĠÏħÎ¿ Î´
ÏĤ Î¿ÏĢ
Î¹Ïĥ Î¬ÏģÏĢ
ÎºÏģÎ± Î¹Î´
ÏĤÎ±Î¯ ÏĥÎ±Î³ÏģÎµ
ĠÎ·ÏĪ ÎµÎºÏĥ
ÏĤ Î¿Î´
Î¹Î¼ Î¿
ĠÎ±Î¹ÎµÎ¸Î® Î»Î±
á¼ Ĳ
ĠÎ½Î± Î¶
Î¹Ïģ Ïĩ
Î¹ Î¾Î±ÏĦ
ÏħÎ¿ Î¯Îµ
Î»ÎŃ Îĺ
ĠÎ¿Î¹Ïģ Î¬
Î¹Ïĥ Î±ÎĴ
ĠÎ½Ïİ ÎºÎ¹ÏĦÎ±Î¼
Î¸ Î¬Î²
Î¹Î¿ÏĦ ÎŃÏĦ
ĠÎ·ÏĥÎ¿Î´ ÎºÎŃ
Î¬Î¼ Î¹Î¿ÏĦÎµ
ĠÎ±ÏĦÎ±Î¼ Î®
ra M
ĠÎ¬ Î¹Îµ
Î±Ïģ ÏİÏĩ
ÏĮ Î²
ÎºÎ¹ Îľ
Î±Î½Î± Î¾
ÏĤ ÎµÎ»
6 3
ÏģÎŃ Î´
ĠÎ·ÏĥÎµÎ¸ ÏĮÏĢÏħ
Î® ÏĢÏħ
Î·Ïĥ Î±ÏĦ
ĠÎ±Î¼ Î®Î¼ÏĦ
Î®Î» Î±ÏĦÎ±Îº
ĠÎ£ Îĳ
2 102
Î¹ÏĨ Î®ÏĪ
ÏĦÏĥ ÎµÎ¸Î±Îº
Î± ÏĪ
Î·Ïĥ Î·ÏĦ
Ïĥ Î¯Ïģ
Î¿Î½ Îĳ
Î± Î¹ÏĢ
ts a
ÏģÎ¬ Îľ
Î½Ïī Ïģ
Î³ÏĮÎ» Î¿Î¹Î¾Î±
ÏģÎ¬ ÏĨ
ÏĥÏħÎ¸ Î·Î»ÏĢ
Î±Î¯ Î¼
9 2
Î¿ ÎĴ
Ïħ Îľ
ÏħÎ´ Î½Î¯
Î¹ Î±Ïĩ
Î¬ÏĦ ÎµÎ¾Îµ
ĠÎ¿ Î½Î¿ÏģÏĩ
ÏģÎµ ÏĢÎµÎ¾
Î±ÏģÎ³ ÎŃ
Î¹ Î±Ïĥ
Î¿ ÏĥÎ¹
Î±Î¯ Î´
ĠÎ±Î½ Î®Î¼
ĠÏħÎ¿Î¯ÎµÎ¼ Î¿ÏģÎ´ÏħÏĩÎ±ÏĦ
â Ĥ¬
ÏĤÎµ Î¯Ïĥ
ÏĦÏĥÎ¹ Î³Î¿Î»Î¿ÏĢÏħ
ĠÏĤÎŃÎ¼ Î¹ÏĦ
ĠÎ· ÎºÎ¯Î½
ĠÎµÏĦ Î±Ïĥ
ĠÎµÎºÎ·Î¸Î®ÏĦ ÏģÎ±Î½Îĳ
ĠÏĤÎ·Ïĥ ÎµÎ¸
ÏĩÏĮÏĦ ÏħÎ±ÏĦ
Î¯ÏĦ Î¹Î±
ĠÎ·Î¾ ÎŃÎ»
ÏģÎŃÏĨ Î¹ÏģÎµÎł
ĠÏĤÏī Ïģ
Î¹ÎµÎ´ ÎŃ
Î¼ Î±ÏģÎĵ
Î¿Î½ ÏĮÏģÏĩ
Ġ á¿
ĠÏĤÎµ ÎºÎ³Î¬Î½Î±
ĠÏĤ Î¿Î´Î¿
ĠÎ±Ïĥ ÏĦ
Î¬Î½Î± Î¸
ÏĤ Î¿Î½ÎŃÎ¼
Î»Î» ÏħÎ£
Ïħ ÎµÎ¼
ĠÎµÏĦÎ¿ÏĢÎ®Î´ Î±Î¹
Î½Î± Î´Î¹
Î±Î½ Î¯
Î½ÏīÎ³ Î±Î¹Î´
Î¹Î³ Ïħ
Î¿Ïģ Î³Î±
ĠÏİ ÏģÎ¿ÏĢÎ¼
Î¿ÎºÎ¿Ïĥ Î¿Î½
Îº Î·Î¸
ĠÎ·ÏĥÏīÎ»Î®Î´ ÎºÎµ
ĠÎ®ÎºÎ¹ Î³Î¿Î»
Î¯ Î±Ïĩ
ĠÎ±Î¯ ÏĩÏħÏĦÎ¹ÏĢÎµ
ÎºÎ± Î»Î»
ĠÎ· ÏĢÎ¬Î³Î±
Î¯ Î±ÏĦ
ĠÏį Î¿Î½
Ġ5 102
ĠÎ¯Î¿ Î»Î»Î¿ÏĢ
Î½Î¹ Î¼
R E
reg golB
Î¹ÏĢ ÏĮÏĦ
ÏĥÎ± ÏģÎµÏĢ
ĠÎ¹Îµ Î»Î¬Î²
ĠÎ±ÏģÏİ Î¤
ĠÎ¿ÏĥÏĮ ÏĦÏĥÏī
ĠÎ½Ïİ Î¹Îµ
Îĵ Îĳ
ĠÎ¯ Î¿Ïģ
ĠÎ¿ÏģÏĦ Î½ÎŃÎļ
ÏĥÎ¹ Î±Î½ÏħÏĥ
ĠÎ¬Î½Î± Î¾
d ra
Î¿ Î³Î¿Î»
Ġá½ ¶
ÎĹ Î¤Î£
Î¯ ÏĢÎ±
ĠÎ® ÏĦÎ·
ĠÏĤÎ¿ÏĦ ÎŃ
Î½Î¬ Îļ
Î¿Î´ Î¿ÏĢÎ±
Î® ÏĨÎ±
Î² Î±Î£
ĠÏĤÏī Îł
ÏįÎµÏĦ Î±Îº
Î· Î»Î»Î±
Î½ ÏĮÏģ
ĠÎ¹ Î»
6 91
ĠÎ± ÎŃÎ¼Î¿ÏĦ
ĠÎ±Î½ÎŃÎ¼ Î¿Î´ÎµÎ´
Ġ ci
ĠÏĤÎµ Î³Î¯Î»
ÏĦÏĥÎ¹Î»Î±ÏĨ ÏĥÎ±
ĠÎ±Î»ÏĢ Î¯Î´
Î·Î½ ÏģÎµÎ²ÏħÎº
Îµ ÎĽ
Ġâ Ĥ¬
Î±Î¼ Î¼Î±ÏģÎ³
ĠÏĤÎ± Î´Î¯
Î³Ïħ Î¶
ĠÎ±Î¯ Î½Î¹Î±ÏĦ
ĠÎ·Ïĥ Î¬ÏĦÏĥ
Î³ Î·Î¸Î±Îº
ĠÎµÏĦÏĥ Î®ÏĦ
ĠÎµÏĥ Î·Î½Î¯ÎºÎµÎ¾
Î¹ ÏĩÏĮ
ĠÎ½Ïī Î»
ĠÎ± Î´Î¬
Î»Î¿ Î²Î¿ÏģÏĢ
ĠÎ±Î¹ Î±Î²ÎŃÎ²
ÏĮ Î½Î¿Î³ÎµÎ³
ĠÎ½Î±Î½ Î±ÎºÎŃ
ĠÏĤÎµÎ¸ Ïĩ
ÏīÏĥÏĮÏģÏĢ ÎºÎµ
ÎŃ Î¿ÏģÏĢ
Î¹ÏĦÏĥ Îµ
ÏĮÎ¼ Î·ÎĶ
Î½ Î·ÏĦ
ĠÎ±Î¹ÏĦ Î½Î¬
ÎµÎ¸ ÏĥÏĮÏģÏĢ
ĠÏĤÎ±Î½ Ïİ
ĠÎ½Ïī ÎµÎ¾
Î½Î¿ Î»Î»Î¬Î²Î¹ÏģÎµÏĢ
Ġliam e
Î¿ÏĢ ÏĮÏģÏĦ
ÏĢÎ¹Î¿Î» ÏĮÏĢÏħ
Î¹ Î»Î»Î±
ĠÎ¿Ïģ Î´Îµ
Î±Î¯ Î²
Î¹ÏĨ Î±
ÏįÎ¿ Ïĥ
ĠÎµ Î»Î±
ĠÎµÏĦÎ¯Îµ ÏģÎ²
ĠÎ·ÏĥÎ·ÏĦ Î½Î¬Î½ÏħÏĥ
Î½ÎŃ Î´
Î® Îľ
Î¼Î¿Î½Ïħ ÏĦÏĥÎĳ
ÏħÎ¿ ÎĽ
Î¹Îµ Î»Î»ÎŃ
Î¿ÏĦ ÏīÏģÎł
Î¬ Î¹Ïģ
Ïħ Î½Ïİ
ĠÎ·ÏĥÏī Î½Î¯Î¿ÎºÎ±Î½Î±
ĠÎ¬ Î¹Ïģ
ÎºÎ±Î¹Îµ ÏģÎµÏĨ
Ïİ Îº
ĠÏĤÎ¿ÏģÎ´Îµ ÏĮÏģÎł
ÎºÎ¯ Î¿ÏĦÎ±Îº
Ġ, âĢĿ
ĠÎ±Î¹ÏģÏįÎ¼ Î¼Î¿ÏĦÎ±ÎºÎµ
ĠÎ± Î»Î¬Î³ÎµÎ¼
ĠÎ·ÏĦ ÏģÎ¬ÏĦÎµÎ¤
ĠÎŁ ÎłÎĳ
ĠÏĤÎ¹ÎµÏĥÎ¬ ÏĦÏĥ
er G
Î·ÏĨ Î¬
ÏģÏĦÎ½Îµ Îļ
ĠÏĤÎŃ Î³Î±Î»Î»Î±
Î¿ÏĦÏĥÎ¹ ÏĢ
Ġ3 2
ĠÏĤÎ¬Ïģ Î¿ÏĨ
ĠÎ®Î¼ ÏģÎ¿ÏĨÎ±
ÏĨ Î±Ïĥ
ÏģÎ¬ Î¼
Î³ Î¹Îĳ
Î¹ Î£
ĠÎ¹Îµ Î¬ÏĦ
g e
Ġs u
Ïī ÎµÏģÏĩÎ¿ÏĢÏħ
v e
ÏĥÎ¹ Îķ
ÏĤÎ® Î¾Îµ
ÏģÎµ Î³
Î¿Ïĩ ÏħÏĪ
ĠÏĤÏīÏĥÎŃÎ¼ Î±
Î© Î¡
Î¹ Î½ÏĮÎ¼
ĠÎ¿Î½ÎŃÎ¼ Î¹ÏģÎºÎµÎºÎ³ÏħÏĥ
ĠÎ¬ÎºÎ¹ ÏĦÏĥÎ¹ÏģÎ·ÏĦÎºÎ±ÏģÎ±Ïĩ
Î¯ÎµÎ´ Î¹Î±Îł
ĠÏĤÏħÎ¿ ÏģÏĮ
Î¹Ïģ ÎŃ
Î¹Î» Î¿ÏĩÏĥ
Î³ÏĮ Î»Î¿
Î±Î¼ Ïĥ
ĠÎ½ ÏĮÏĦ
ÎŃÎ½ ÏħÎ£
ĠÎ¯ Ïĥ
Îº ÎµÎ´
Î½Î±Î³Ïģ ÎŁ
h P
ĠÎ· Î»ÎŃ
ĠÏĤÎ¹ÎµÏĥ Î¬ÏģÎ´
ÏĥÎ¯Î¼ Î¸ÏħÏģ
ĠÏĤÎµÏĦ ÎŃ
Î¸ Î±Îļ
Ïį Îķ
ĠÏī ÏģÎŃÏĦ
ĠÎ½Ïī ÏĢ
ÏĥÎ¹Ïģ Î¿Î¹ÏģÎµÏĢ
ĠÎ½Î· Îľ
p e
b o
Î·Î»Î¸ Î¬ÏĦ
ĠÏĮÏĦÏĥ ÏīÎ½Î³
Îº ÏĥÎ±
Ïİ ÏģÏĦ
ĠÎ½Ïī Î½Î®Î»Î»Îķ
ÏģÎµ Î£
ĠÎ± Î´Î¬Î¼Î¿Î´Î²Îµ
Ïİ Î¹Î½
ĠÎ¬ÏĦ Î·ÏĦÏĮ
Î½ Î±ÏĦÎ±Îº
Î®ÏĦÏĥÎ¹ÏĢÎµ Î½Î±Îł
ÏĮÏģ Î¹Î±Îº
ÏĩÏĥÎ± ÏĢÎ±
ÏĢÏħÏĦ Ïĩ
ĠÏĤÎ·Ïĥ Î¹Ïģ
Î¹Î±ÏĦ Îķ
Ġ Â«
o ediv
ĠÎ¹ÎµÏĦ ÎŃÎ¸Î±Î¹Î´
Î¬Î¼ ÎµÎ³
Î±ÏĢ Ïĥ
ĠÎ¿ Î²
ĠÏĤÎ±ÏĦÎ½Î¿ ÏĩÎŃ
ÏĤ ÎŃÎ¼
ÏĤÏĮÎ¼ ÏĥÎ¹
Î¬ ÏĪ
Î¹ÏĦ ÏĨ
ĠÎ¹Î±ÏĦÎ¯Îµ ÏĦ
Î¿ Î¶
Î¹ÏĦ Î»ÎµÎ²
Î· ÏĢÏİÏģÏħÎķ
Î³ ÏįÎµ
ÏįÎ´ Î½ÎµÏĢÎµ
ĠÎ±Î¯Ïĥ Î±ÏĦÏĥÎ¿ÏģÏĢ
Îķ Îĺ
ĠÎ¯ÎµÎ¸ Î·ÏĦ
Î¹Î±ÏĨÏĥ Î¿Î´Î¿ÏĢ
Î½Ïİ ÎºÎ¹ÏĦ
ÎºÎ¹ Ïģ
ĠÏĤÏħÎ¿ Î³ÏĮÎ»
Î¿ Î¶Î±Î³ÏģÎµ
ÏħÏĦ ÎºÎ¹Î´
ĠÎ·ÏĥÎ·Î¯Î¿ÏĢ Î¿Î½Î¹Î¿Îļ
ĠÏĤÎ¿ÏĦ Î¬ÏģÎº
Î¶ÎµÏĢ Î¬ÏģÎ¤
Ġo T
ĠÏĤÎ¯Îµ Î½Î¿Î³
Î½Î±ÏĦ ÎµÏģÎĴ
Î½ÎµÎ³ Î¿ÎºÎ¹Î¿
Î¯ Î¿Î½Î±
ĠÏĤÎ¹ÎµÏĥÏİÏĦÏĢ Î¹ÏģÎµÏĢ
ÏĨ Î¬Ïģ
ĠÎ±Î¯ Î½ÏīÎ½Î¹Î¿Îº
ĠÎµÏĦ Î¿ÏĦ
Î± Î¶
Î¿Ïģ Î¹ÎµÏĩ
Î¯ÏĦ Î½Î¿ÏģÏĨ
ĠÎ±Î¹Î»ÏĮ ÏĩÏĥ
ĠÎ½Î±ÎºÎ·Î¸ Î®
ÎµÎ´ Î½ÏįÏĥ
Î²Î¼ ÏįÏĥ
ĠÏĤÏĮÏĦ ÏħÎĳ
ĠÎĶ ÎĿ
ÏįÎ¿ Î´
ĠÎ¹ Î¾ÎŃ
ĠÎ±Î½ Î¿Ïģ
ÏĨÎ·ÏĪ Î¿
ÎºÎ³ ÏįÏĥ
ĠÎ±ÏĦÎ·ÏĦÏĮ ÎºÎ¹
ĠÎ½ÏįÎ¿Ïģ Î¿ÏĨÎ±
ĠÏī Î»ÎŃÎ¸
ĠÎ±Î¹ Î¿Î½
Î¹ÏĨ Î·ÏĪ
ĠÎ¿Î» Î¿Î½ÏįÏĥ
ÎµÏĦÏĥ Î±Î¼
ĠÎ· Îº
ĠÎ¥ÎŁ Îł
ĠÎ½ ÏįÎ¿ÏĦÏĥ
ĠÎ½ÏħÎ¿ Î½ÎŃÎ¼
ÏİÏĦ ÏĢ
ÎºÎµÎ» ÎĹ
ÏĤÎ¹Îµ ÏĪ
Î¸ ÏĩÎµ
ĠÎ±ÏģÎŃ ÏĢ
ÏĨ Î»ÎµÎ´
ĠÎ¹Îµ ÏįÎµ
Ïī ÎµÎ³
Î½ÎŃ Î¾
ĠÏĤÎ® Î»Î±ÏĨÎµ
Î¿ÏĦ Î¬Îº
Î¬Îº ÎµÎ´
ts i
n O
ĠÏ ĩ
Î¿ÏĦ ÎµÎ¼
ĠÏĤÏī Î¸Î®Î½ÏħÏĥ
Î±Î¼ Î³
ÎºÎ± Î´
Î¹Î³ ÎŃ
ĠÎ¹Î±ÏĦÎµ ÏĩÎŃÎ´
ĠÎ±Î¼Î·ÏĦ Î®Î¶
ÏīÎ¹ Î¾Î±
Î¿ ÎµÎĺ
Î½Î¹ Î¿ÏĢ
Ġ Î¿ÏĢÏħ
ĠÎ½Ïī Î¯Î¿ÏĢÎ¿
ÏĦÏĥ Î¯
ÎĶ Îķ
ÎµÎ» ÏĢ
Î¹Îµ ÏĢÎ±
ĠÎ¬Î¹ Î½Î¿ÏģÏĩ
Î¬Î»Îµ ÏĢ
ĠÏĤÎ·Î½ Î½Î¬Î¹Îĵ
ĠÎ· ÎºÎ¬
ÎºÏģ Î±Îº
Î±Î¼ ÎŃÎ¸
ÏįÏĩÏĥÎ¹ Î½Îµ
Ïģ Î±Î½ÎŃ
ÎµÎ¸ Î¯ÏĦÎ½Î±
ĠÎ±Î¹ ÎºÎ¬
l le
ĠÎ¬ÏĦ ÏħÎĳ
ĠÎµÏĦÎ¿ÏĢÎ®Î´Î±Î¹ Î¿ÏĢÎ¿
ĠÎ½ÏħÎ¿ Î½Î¬Î²Î¼Î±Î»
Î±ÏģÏĮ ÎµÎ»Î·ÏĦ
Î±Î¹Î´ Î¯
ÎŃ Ïĥ
ĠÎ±Î¹ÎµÎ¸Î® Î¿Î²
Î¸Î® Î»Î±
Î±ÏĦ ÏĨÎŃ
ĠÎ¹ÎµÏĢ ÎŃÏģÎł
ÎĳÎĿ Îĳ
ĠÏĤÎ¿Î¹ Î³
Î±Î¼ Î±Î£
Î½Î¿ ÎŃÎ»ÏĢ
Îµ ÏģÎ¬
ĠÎ·ÏĦ ÏĢÎ¼ÎŃÎł
Î½Î±ÏĢ ÏĥÎĻ
ĠÎ¹Î±ÏĦÎµ ÏģÎŃÏĨÎ±Î½Î±
ÏĢÎ¬ Î½Îĳ
ĠÎ·Ïĥ Î¬ÏģÎ´
Ïĥ Îķ
ĠÎµÎ¸ ÏģÎ®
ÏĮ Îļ
Î»Î± Î³ÏģÎµ
ĠÏĤÎµÏĦ ÏİÏģÏĢ
Î¿Ïģ Î¸ÏģÎ¬
Î¹Î» Î·
Ïģ Î¹ÎµÏĩ
Ïī ÎĶ
Î² Î¹ÎĴ
ĠÎ·ÏĥÎ·ÏĦÎ®Î¶ ÏħÏĥ
ĠÏħÎ¿ Î¤
ĠÎµÎ¼Î±Ïĩ Î¯Îµ
ĠÎ½Î±ÏĦ Î½Î¿
ĠÎµ ÏĩÏģ
ÎŃÎ¸ Î±Îº
ĠÏĤÎ¿Îº Î¯ÎĿ
Î½Î±ÏĦ Î½ÏīÎ¶
Î»Î»Î± Î²
ĠÎ®ÏĨ Î¿ÏģÏĦ
Î¿Î½ Î½Îµ
ĠÎ¯ÏĦ Î½Î±
Î·Î½ÏģÎŃ Î²
ĠÏįÎ¿ÎºÎ¹ Î½Î·Î»Î»Îµ
ĠÎ¹Î±ÏĦÎµÎ¸ Î¯ÏĦ
ĠÏĤ Î©
ÏģÏīÏĩ Î¿ÏģÏĢ
ĠÎ±Î¹ÏĥÏĮÎ¼ Î·Î´
ĠÏħÎ¿ Î³ÏĮ
Î±ÏģÎºÎ¿Î¼ ÏģÎµÎ¸
ĠÎ·ÏĥÎ·Ïģ Î®ÏĦ
ĠÎ±Î¯ ÏĨÎ±ÏģÎ³
h S
Î¹Î±ÏĢ ÎŃ
Ïĥ ÎµÎ¼
Îµ Î¯ÏĢ
ĠÎ·Î½ÎŃÎ¼ Î¹ÏģÎºÎµÎºÎ³ÏħÏĥ
Î·Î´ Î±Îº
ĠÎµÎºÎ·Î¸ Î®Î½
ĠÎ±Ïģ ÏħÎ¿Î³Î¯Ïĥ
ÎŃ ÏĥÎ¿ÏģÏĢ
ĠÎ¹ÎµÎ½Î¯ Î±Î²Î¼ÏħÏĥ
Î»Îµ Îľ
Î±ÏĢÏīÏģ ÏħÎķ
ĠÎ¿ ÏħÏĦÎºÎ¯Î´
ÏħÏĦ ÏĢÎ¬Î½Îĳ
ÏĢÎ¿ ÎµÎ»Î·ÏĦ
ĠÎ±Î¯Ïĥ Î±Î¼
Ïį Î³Î³
ÏĩÎµ Î¾
Î±Ïģ ÏĥÎĻ
ÏĥÎ¹ ÏĢÎķ
ĠÎ±Î» Î¿ÎºÏįÎµ
Ïģ Î¿ÏĦ
ÏħÏĩÏĥÎ¯ Î½Îµ
ĠÎµÏĦÏĥ Îµ
ÎŃÏģ Î¿ÏĢÎ¼
ÎµÎ´ Î½ÏħÏĥ
ÎĹ Îľ
Î¾ Îĳ
Î·Î¾ ÏħÎ±
ÏĩÏħÏĦ ÏħÎµ
ĠÎĿÎ© Î¤
ÏĤÎµÏģ Ïİ
Î¯ÏĦ Î½Îĳ
Î¯ÏĦ Îº
ÏĦÏĥÎ¹ ÏĢÎ±Î¹Î´
ĠÎ¹ÎµÎ½Î¬Î²Î¼Î±Î» Î¹ÏģÎµÏĢ
ÏįÎ¿ Î¤
Î®Î»Îº Î¿Î»Î¿
Î¬Î½ Î±ÏĦÎµÎ¼
ĠÎ¿ Î¹Î¿ÏĢ
Î½Î·Î¼ Î¿ÏģÎµÎ¼Î·
Î² Î¿ÏĨ
ÏĥÎµ Îľ
Î¯ÏĦÎµ Î±ÎºÎµÎ´
Î·Î½ Îķ
ÏģÎ·ÏĦ Î±Î¹Î´
ĠÎ½Î± ÏģÎµÏĨ
ĠÎ· Î¤
Î½Î·Î¼ ÏģÎµ
ĠÎ± Î»Î¬
ĠÎ¬ÎºÎ¹ÏĦÏĥ Î¹ÎµÎ»ÎºÎ¿ÏĢÎ±
Î· ÎºÎ¯Î½Î¿Î»Î±ÏĥÏĥÎµÎĺ
Î¿Î´ Î¿ÏĢÏħ
ÎºÎŃ Î´
ĠÎ±Î¯Îµ Î³Ïħ
Î³Î· ÏĩÏģÎ±
Î¬Î¼ ÏħÎ¸
ĠÎ®ÎºÎ¹ÏĦ Î¹Î»Î¿Îł
ĠÎ±Î¹ ÏģÏĮ
ĠÎ±Ïĥ ÎŃÎľ
ĠÎµÎ¼ Î±Îº
ĠÎ±Î¯Ïģ Î¿Î³Î·ÏĦÎ±Îº
ĠÎ¿Î½ÏĮ Îľ
ĠÏĤÎ± ÎŃ
Ïħ Î±Îº
Î·Î³ Î®Î´
ÏĤ Î¬Î¹
Ġ P
Î½Ïģ Î¯Î±ÏĢ
ÏģÎ¿ Îµ
Î½ ÏįÎ¿ÏĦ
Î½Ïī Î¼
ĠÎ±ÏĦÎ±Î¼ Î®ÏģÏĩ
ĠÎ·Ïģ Î®Î»ÏĢ
Î¹Î¿Î» ÏĮÏĢÏħ
ĠÎĻ Î¤
ĠÏĤÎ¯Ïģ ÏīÎ§
Î½Î± Î½ÏħÏĥ
ĠÎ·Î¾ Î¹Î»ÎŃÎ¾Îµ
ĠÎ·Î¼ Î¹Ïĥ
ÏħÎ± ÎĿ
5 3
ĠÏĤÎŃÎºÎ¹ Î´
ĠÎ±Î¯ ÏĦÎµ
ĠÎ±Ïģ Î¿ÏĨÎ¬Î¹Î´
ĠÏĤÎ¿ÏĦ ÎŃÏĨ
ĠÎ·Ïĥ ÎµÎ¼Î¬
Î·Î½Î¿ÏĢ Î¿ÏģÏĢ
Î±Î¼ Î·ÏĦ
ĠÏĤÎ· ÎºÎ¬
Ġ4 102
Î³Ïģ ÏįÎ¿
4 91
ĠÏį ÏĥÎµ
Ġ ma
Î¿ÏĢÎ¼ Îµ
ĠÏį Î»Î¿Îł
ĠÎ·Î¼ ÏİÎ½Î³
ÎºÎ±Î¹Ïĥ Î¿Î´Î±ÏģÎ±ÏĢ
Î¥ Îļ
Ġs o
ĠÏī ÏģÎŃÎ¾
ĠÎµÎ¼ÏįÎ¿ Î¸
uga eL
ĠÎ± ÏģÎ¬ÏĢ
ĠÎ·Ïĥ ÏħÎ»Î¬
Î·ÏĦÏĥ ÏħÏĥ
Î¹Ïĥ Î¹Îµ
Î¿ÏĥÏĮ ÏĦÏĥÎ©
Î±Ïģ Î±ÏĦ
ĠÎ®ÎºÎ¹ ÏĥÏħÎ¿Î¼
ÏĤ Î±Îº
ĠÎ½Î±Ïĥ Î·
ĠÎµÏĦÏĮ ÏĢ
noi ta
ĠÎ½ÏİÎ¹Ïĥ ÎµÏģÎ·ÏĢÏħ
ĠÏĤ ÏĦ
ĠÎ®ÏĢÎ¿ÏģÏĦ Î¹ÏĢÎķ
ÏħÎ¿ Î£
N I
Î¡ ÎŁ
ĠÏĤÎ®Î»Î±ÏĨÎµ ÎºÎ¹ÏĢÎµ
Î¹ Î¤
ĠÎ¿Ïĩ Î³ÎµÎ»ÎŃ
ÏĩÎ¿Ïģ ÎŃÏĢÏħ
Î·Î¼ Î¯ÏĦ
Ġre t
Î±Î½ÏħÎ´ Î±
ĠÎ¬Î¹Î´ ÏģÎ±Îº
ÏĥÏħ ÏģÏĩ
Î½Ïģ Îķ
ĠÎµÏģÎµÏĨ ÎŃÎ½Î±
Î¸ Î·Î»Î±
ÏĨÎŃ ÎºÏĥ
ÎµÎ¸ Î¿Î¼Î¿Î½
ĠÎ¿ Î´ÎµÏĢ
0 6
ĠÎĻ ÎĳÎĿ
ĠÎ±Î¹Î»ÏĮ ÏĩÎ£
0 8
Ġ Î»Îµ
Î³ÏģÎµ ÏĢÎ±
s re
Î³ÏħÎµ Î¶
ĠÏĤÎ·Î» ÏĮÏĢ
ĠÏĤÏħÎ¿ Î½ÎµÎ¼ÏĮ
Î¿Ïĥ Î¹Îµ
ĠÏĤÏĮ ÎºÎ±
ĠÏĤÎŃ ÏĦÎ·
Î®Î¼ Î³Î¹ÏĦÏĥ
ĠÎĹ ÎļÎĻ
Î®Î½Î± Î»ÏĢ
ĠÎ½ÏħÎ¿ ÏĩÏģÎ¬ÏĢÎ¥
ĠÎ® Î³ÏīÎ³Î±ÏģÎ±ÏĢ
Î¿ÏĢ Î¿ÏģÏĦ
ĠÎ±Î¯Ïĥ Î±Î¼Î·Ïĥ
ÏĤÎµ Î½Î®Î¼
f a
ĠÎ½ÏħÎ¿ Î¸
ÏħÎ¿Î¼ ÏĥÏĮÎº
ÏĩÏģÎ± Î¹ÏģÏħÎº
1 102
ĠÎ¿Ïĥ ÎĮ
ÏģÏĮ Îº
Ïħ Î¸Î±Îº
ĠÏģ ÎŃÏĢÏħ
r uo
ĠÎ±Î¯ ÎºÎ¹Î»Î·
ĠÎ¹ÎµÎ½ÎŃÎ¼ Î±ÏģÎ±ÏĢ
Î·Î´ Î¹Îµ
Î¹ÎµÎ» ÎŃÏĦ
ÏģÎ± ÎĴ
Î¿ÏĨ Î¬ÏģÎ³
ĠÎ¹Î¿ Î¹Î¿ÏĢÎ¬Îº
Î½Î¿Î¼ Î·Î½Î¼
ÏĦÎ·Î¶ ÏħÏĥ
ÏĦÏĥ ÏīÎ½Î³
ÏģÎµÏĨ Î±Î½Î±
ÏĥÎ¬ Î´
ĠÎ¿ Î¹ÏĦ
Î¿ ÎµÏĦÎ½Î¯Î²
ĠÎĹ Î¤
Î³Î· Îł
ĠÏħÎ¿ Î¯Ïĥ
ÏģÎ± Î¾Îµ
ĠÎ¹Îµ Î½Î¬
Î½ Î¼
Î¹ÎµÏĩ Î±Î¹Î´
ĠÎ± Î¶
ĠÏĤÎ® Î»
ÏħÎµ ÏĪ
ĠÏĤÏī Î½ÎŃÎ¼
ĠÎ±Î¼Î³ Î¹ÎµÎ´Î¬ÏģÎ±ÏĢ
ĠÎ¿Î½ÎµÎ¼ Î¯ÎµÎº
Î½Î¬Î³Ïģ Î¿Î¹Î´
Î¬ÏĦ Î½Îµ
ĠÎ¿ÏĢ ÏīÏĥÏĮÏģÏĢ
ĠÎ¿ Î»Î»
Î¿ ÏĥÎ¿ÏģÏĢ
ĠÏĤÎ¹ÎµÏĥÎ® ÏģÎ¹ÎµÏĩÎ¹ÏĢÎµ
ÏĤ Î®Î»
ĠÎµÏĦÎµÎ» ÎŃÎ¸
ĠÎ½Î±Î½ Î¹Î³ÎŃ
ÏģÎµ Î´
Î±Îº Ïĥ
ĠÎ¹Î±ÏĦÎ½Î¿ Î¶Î¯Ïģ
Î¹Ïģ ÏįÎº
Î¯ÏģÏĦ Î±ÏĢ
ÏĩÎŃ Î»ÎµÏĦÏĥ
Î¹ Îļ
ĠÏĤÏįÎ¿ Î»Î»Î¿ÏĢ
swe N
Î¿Îº Î±Îº
Î¸ Î¯Î±
ÎºÎ¹ Î½ÎµÎ³
Ġ I
ĠÏĤÎŃÎºÎ¹ ÏģÎµÎ¼
ĠÏĤÎ·Ïĥ ÏħÎµ
ĠÎ± Î»Î»Î±
Î·Ïĥ ÎµÎ¼
ĠÎµÎºÎ·Î¸ ÎŃÏģÎ²
ĠÎ·ÏĥÎ±Î² ÏĥÏĮÏģÏĢ
Î¹ÏģÎ¬ ÎĽ
Î± ÏģÎµ
Ïģ Î¯Î±ÏĢ
Ïī Îĸ
ĠÎ½ ÏįÎ¿Î¼
Ġ8 2
ĠÎ®ÎºÎ¹ÏĦ Î½Î±Î¼Î·Ïĥ
d u
ĠÎ·ÏĦ Î¯ÏģÎ¤
Ġe ht
ÏĦÎ±Î¼ Î±ÏĦÏĥ
ĠÎ¿Î¯Îµ Î³ÏģÏħÎ¿ÏĢÏħ
Î³Î¿ÏĦ Î½ÏģÎķ
ĠÏĮ ÏĥÎ¿ÏĢ
ĠÎ¹Î¿Î» ÎĮ
ĠÎ¬ Î»
Ïģ ÏħÏĥ
ĠÏĤÏħÎ¿Î» Î¯ÏĨ
ĠÎ¹ÎµÏĥÎ¬ ÏģÎµÏĢ
ĠÎ·ÏĥÎ·Î³ Î®
Î»Î» Î¬ÏĦÎµÎ¼
si hT
ĠÏįÎ¿Î¼ ÏĥÎ¹ÏĦ
ĠÏĮÎºÎ¹ ÏĢÏīÏĥÎ¿ÏģÏĢ
Î»Î±ÏĦ ÎĻ
ĠÏĤÎ± ÎŃÎĿ
ÏīÎ½ ÎĹ
ÏĢÎ¼ ÎŃ
ĠÎ¿ Îº
ÏĥÎ± Î³ÏģÎķ
ÏħÎ´Î½Î¯ ÎºÎ¹ÏĢÎµ
Ġ Î»Î¬Î²
ĠÎ¹ÎµÏĩÎŃ ÏģÎ±ÏĢ
ĠÎ¯ Î¿ÏĦ
Î³Î¯ Î¿Î½Î±
ÏĤÎ·Ïĥ Î·
Î½ Î¯ÎµÎ¼
ĠÏĮ Îº
Î±Î» ÏįÏĨ
ÏħÎµÏĦ Î¯Î»Î¿ÏĢ
ĠÎµÏĦÏĮ ÏĢÎ¿
Î±Î½ Î¯ÏĢ
ĠÎ±Î¼ Ïī
Ïį Î¿ÏģÏĦ
sihT golB
Ïį Î½Î·Î¼
r A
ĠÏİ Î³Îķ
Î¿ÏĦÏĥÎ¹ ÏĢÎµ
ĠÎ®Î¼ Î¿ÏģÎ´
Î¸ ÏħÎµ
Î½Î¬ ÏĢÎ¼
Î½Îµ ÏĦ
Î¬Ïģ Îł
ÏģÎ±ÏĢ Îµ
Î½Î¬ÏĦ ÏĨ
ĠÏĤÎ¹ÎµÏĥÎ®ÏĦ ÏģÎ±Î½Î±
ĠÏĮÎ¼ Î¸Î¹ÏģÎ±
Î½ÎŃ ÎºÎ³ÏħÏĥ
ÏĨÎµ ÎºÏĥ
ĠÏĤÏİ ÏĩÏħÏĦÏĥ
Î¸ ÎµÎ¼
ĠÎ¯Îµ ÏĦÏĥÎ¹
ÏĤÎ¿ Î¸
ĠÎ·Î½ ÏįÎ¸ÏħÎµ
ĠÏĤÎ±Î¯ Î³ÏģÏħÎ¿ÏĦÎ¹ÎµÎ»
ÏĢ Ïį
ÏħÎ¸ÏįÎµ ÏĢÏħ
Î»Î±ÏĨÏĥÎ± Î¾Îµ
Î»Î± ÎĴ
ÏįÎ³Î³ ÎµÎ»
ĠÎ± Î³Î¿Î»Î¬Î½Î±
ÎŃÏĨ Î±Îº
Ġ p
Î¯ÎµÏĩ Î¿Î´Î¿Î½ÎµÎ¾
ÎµÏĢ Î¯Îµ
Î±ÏĨ ÏħÏģÎ¿Îº
ĠÏĤÎ¿ÏĦ ÏĥÏĮÎº
ĠÏī ÏĦÏĥÎŃ
ĠÎ± Î³Î¯Î»
Î»ÏĢ Îĳ
Ġ L
ĠÎ½ÏĮ ÏĬÎ¿ÏģÏĢ
ĠÎ® ÎºÏĬÎ±ÏĢÏīÏģÏħÎķ
ĠÎ¹ÎµÏĪ Î¬ÏģÎ³
ÏħÎ¿ ÎºÏĥ
ÎŃÏĢ Î¿Îº
ĠÎµÏĥÏī Î½Î¯Î¿ÎºÎ±Î½Î±
ÎĶ ÎĻ
Î±Î³ Î²
Î·ÏĦÏģÎ¬ Î¾ÎµÎ½Î±
Î±ÏĦÏĥÎ¹ ÏģÎµÏĢ
f i
Î¯Îµ Î»ÎµÏĦ
ÏĦÏĥÎ¹ÏĦ Î¹Î»Î¿ÏĢ
Î¯ Î£
ĠÏĤÎŃÎºÎ¹ÏĦ Î¹Î»Î¿ÏĢ
Î³ Î·Ïģ
Î± ÏĩÎŃ
ÏĦÏĥÎ¹Ïģ ÏħÎ¿ÏĦ
Î¿Î´ ÎµÏĢ
ĠÎ±Î¹Îµ Î³ÏģÎŃÎ½Îµ
Î·ÏĨ Î±Î¹Î´
Î®Î½Î¹Îº Î¿ÏĦÏħÎ±
ĠÎ¹Î±ÏĦÎµ ÏģÎŃÏĨ
Ïģ ÎŃÎ¼Î¿ÏĦ
Îº Ïħ
ÏĤ ÏīÏĦ
Ïį ÎºÏĥ
ÎĿ ÎĶ
Î¿ÏĨ Î·ÏĪ
ĠÏħÎ¿Î¼ ÏĥÏĮÎº
Î¹ÏĦ Î¯ÏĢÏĥ
ĠÎ®ÎºÎ¹ Î½Î¸Îķ
Ġ Îł
Ïħ Î»Î±Î½Î±
Î½ Î·ÎºÏĥ
Î³ÏģÏħÎ¿Î¹Î¼ Î·ÎĶ
ĠÎ¹ÎµÎ¾ ÏģÎ¬ÏĢÏħ
ÏĤÎ¹Îµ Î¾
Î±Ïģ ÎŃÎ¼
ÏĤÎ® ÏīÎ¶
ĠÎ¯Îµ Î³ÏģÏħÎ¿ÏĦÎ¹ÎµÎ»
Îľ ÎŁ
Ïį Îĳ
Î±ÏĦÏĥ Î¿ÏģÎł
Î¹ Îł
r t
tse retni
ĠÎŁ Î¤Î£
ĠÎ±ÏĦÎ·ÏĦÏĮ Î¼
ÏĮ Î½Î¹
ĠÎ±Î¯ Îľ
ĠÎ½ Î±Î»
Î»ÏĢ Î¿Î¾Îµ
Î·Î³Î®Î´ Î¿
Î¹Ïģ Î¤
ÎŃ Î¹Î´
ĠÎ±Î¯ÎµÎ¼ Î·Ïĥ
ĠÎ½ÏīÎµÏĥ ÎŃÎ¸
Î¬ Î³ÏģÎµÎ½ÏħÏĥ
ĠÎ¹ÎµÏĦ ÎŃÎ¸
ÏģÎ¬ Î¹Î´
ĠÏĤÎ¿ Î»Î»Î¬
ÏģÏĦ ÎºÎµÎ»Î·
Î»Î¬ Î½Î±ÏĦÎ±Îº
ÏĨÎ·ÏĪÎ¿ Î¹ÎµÎ»ÏĢ
ĠÎ®ÎºÎ¹ Î½ÏīÎ½Î¹Î¿Îº
Ġ7 2
Î¸ ÏħÎ¼
Î³Î¿Î»Î¿Î¹ Î±ÎºÎ¹Î´
ĠÎ·ÏĥÏīÏģ ÎŃÎ¼Î·Î½Îµ
Î±ÏģÎº Î¿Î¼Î·ÎĶ
ĠÏĤÏħÎ¿ Î½
Î½Î±ÏĨ Î¿ÏģÏĢ
ĠÎ· ÎºÎ¹
ĠÎ±Î»Î·Î»Î» Î¬ÏģÎ±ÏĢ
ÎŁÎł Îĳ
ĠÎĳ Îĺ
ĠÏĤÎ¹Îµ Î´
ÏĢ ÎŃÎ»Î²
ĠÎ® Î½Î¹ÏģÎµÎ¼Î·Ïĥ
ĠÎµÏĥÎ¹ Î½ÏĮÏĦ
ÏħÎ¿ÏĢ ÏĮÏĦ
Ġ00 5
ÏĤÎ·Ïĥ Î®ÏģÏĩ
ĠÏĤÏħÎ¿Ïģ ÎŃÎ¼
Î±Î¼ Î¿
ĠÏĤÏī ÏĨ
Î»Îµ ÎĶ
ÎŃÏĦ Î£
Î¬Î¼ Î¹ÎºÎ¿Î´
ÎµÏģ Î¯Î±
ĠÎ±Î¯ ÏĨÎ±ÏģÎ³Î¿ÏĦÏīÏĨ
ĠÎµÏĩÏģ Î®ÏĢÏħ
tseretni P
ĠÏĤÎ®ÎºÎ¹ Î½Î¸Îķ
ĠÏĤÏīÎ¼ ÎĮ
Î½Î¿ÏģÎŃ ÏĨÎ¼ÏħÏĥ
Î½Î¬ Î¶
ÎŃ ÏĦÏĥ
Î½Î¿ÏģÎŃÏĨ Î±Î¹Î´Î½Îµ
ÏīÏģ ÏħÎµ
ĠÎ±Î¼ ÎŃÎĺ
Î±Î¼ Î³Î±ÏģÏĢÎ±Î¹Î´
ÏģÎµÏĦÏī Î¾Îķ
ĠÎ¯Îµ Î¹Î¿ÏĢÎ¿Î¼Î¹ÏĥÎ·ÏģÏĩ
ĠÎ±Î¹ÏĦÎ½Î¬ Î½Îµ
Î½Î¬ Îł
ĠÎ¹ ÏģÎŃÏĩ
Î½Î¿ÏĦ Îº
Î»Î¬ Î³Î²
Ïħ ÎºÏĥ
ĠÎ· ÏĩÎ¬Î¼
ĠÏĮÎºÎ¹ Ïģ
ĠÎ¹Îµ ÏĩÏģÎ¬ÏĢÎ¥
ĠÏĤÎµÎ½Ïİ Î³Î±
Î¿Ïĥ Î¯Îµ
ĠÎ®ÎºÎ¹ÏĦ ÎµÏĩÏĥ
ĠÎ±Î¼ Î¼
g m
ĠÏįÎ¿ÎºÎ¹ Î¼
Î¯Ïģ Î¿Îº
ĠÎ½Ïī ÏĢÏİÏģÎ¸Î½Î±
ÎŃ ÏĢÎ±
Ïİ Îļ
ĠÎ±ÏĦÎ·ÏĦÏĮ ÎºÎ¹ÏĦ
ÏĨÎ± Î»Îµ
ĠÎºÎ¹ Î»Îº
Î±Î» Îł
Ġ >
ĠÎ· ÏĨ
Î¸ ÎŃ
ro F
ĠÎ¿ ÏĥÎŃÎ¼
ÏħÎ¿ÏĦ ÏĥÎ¹Ïģ
ĠÎ½ÏīÏĦ Î½ÏĮÏĬÎ¿ÏģÏĢ
ĠÏĤÎµÏĦ ÎºÎ¯Î±ÏĢ
ÏĤÎ® Ïĩ
ÏīÎ» Î±Î½Î±ÏĦÎ±Îº
ĠÎ¿Î¹ Î¿ÏĦÎŃÏĦ
Ġ6 2
ĠÎ¹ÏĦÎ¬Î¼ Î¼Î¿Îº
Ġe vi
d ni
Î²Î¬ Î»Î±Î½Î±
ĠÏĤÎ±ÏĦÎ½Î¿ Î¶Î¬
ÏĤÎ·Ïĥ Î®ÏģÎ§
Îĳ ÎĸÎĻÎ¡Î¥Î£
ĠÎ±Ïģ Î¿Î³Î®ÏģÎ³
ÏĤÎŃ ÎºÎ¹
Ġ Îľ
ĠÎ·ÏĥÏħÎµ Î´Î¯Î±ÏĢ
ÏĤÎµ ÏĦÏĥ
ĠÏħÎ¿ ÎĲÎ±Îľ
u q
Î·Î» ÏĮ
ÎŃÎ» Î·ÏĦ
ĠÎ½ Î±Ïģ
ĠÏĤÎ·Ïĥ Î±ÏĦ
Ïį ÎµÎ¼
Ïħ Î»Î¿Îł
ĠÎ±ÏĦÎ·ÏĦÏĮ ÎºÎ¹ÏĦÎ±Î¼Î³Î±ÏģÏĢ
ÏħÎ´ Î½ÎµÏĢÎµ
ÎºÎ±Î¹Ïģ ÏĢÏħ
ĠÎ± ÏģÎµÏĦÏĥ
Îķ Î¡
ĠÏĤÎ±ÏĦÎ½Î¿Î½ Ïİ
ĠÎµÏĦ ÎµÎ¸
Î½ÎµÎ¾ Î¿Î»Î¹ÏĨ
Î±Ïĩ ÏģÎĳ
Ġ ÏĦÎµ
Î±ÏĦÎ±Îº Î³Îµ
Î»Îµ Î¸
ĠÏĤÎ®ÎºÎ¹ ÏĦÏĥ
ĠÎ±Î¹Îµ Î½ÎŃÎ³Î¿ÎºÎ¹Î¿
Ġ !!
ĠÏĤÏİ Î»ÎµÏĦ
Î®Î» Î²
ĠÏĮÎ¼ ÏĥÎ±Î¹ÏģÎ±Î³Î¿Î»
ĠÏĤÎ® Î»Î¿Î²
Î½ÏĮ Î³
ĠÏĤÎ±Î¯ ÏĥÏħÎ¿
Î¬Î¼ Î¿Î½Î¿
Ġe nil
Î¿Î¹ Î¼
Î¾ÎŃÎ» Î¹ÏĢÎµ
ĠÎ¹Ïĩ ÎĮ
Î³Î¿Î» Î¿ÏĢÏĭÎ¿ÏģÏĢ
Î½Î¯ Î´
c na
Ġ3 102
g oo
Î±Î» Î·Î´
ĠÎ·Ïĥ Î±Î¯ÏĥÏħÎ¿ÏģÎ±ÏĢ
Î¬ Î¹ÎĶ
ĠÏĮÎ¼ ÏĥÎ¹Ïģ
ĠÎ±Î¹ ÏĦÏĥ
Î½Î¿Î³ Î¬ÏģÎ±ÏĢ
Î¿ Î¤
ĠÎ¬ÏģÎ¿ÏĨ Î±Î¹Î´
ĠÏĤÎµÎ¯ Î±ÏĦÏħÎµÎ»ÎµÏĦ
ĠÎ¹Ïģ ÏĩÎŃ
ĠÎ·ÏĦ ÎŃÎ»ÎµÎ¼
ĠÎ½Ïī Î´
1 3
Î»Î·Î´ ÎºÎµ
ĠÎ±Î½ Îµ
- -
Î±ÏĦ ÏĥÎ¯
Î½Ïī ÏĨÎ¼
Î¹Ïģ Îĳ
Î¿Î½ ÎµÎ¼ÏĮ
ĠÎ½Î¿ÎŃÎ»ÏĢ Î¹ÏĢÎµ
ĠÎ¿Î¹ Î³ÏĮÎ»
ÎµÏģ ÏĢ
ĠÏĤÎµ Î½ÎµÎ¼
ĠÎ·Ïĥ Î¹
ĠÏĤÎ± ÎŃÎ½
Î¹Îµ Î½ÏĮ
ĠÎ¯ÎµÎ¸ ÏħÎ¿Î»Î¿ÎºÎ±
ĠÏĤÎµ ÏģÎ¿ÏĨÎ¬Î¹Î´
ÏħÎ± Î¸
ĠÏĤÎ·Ïĥ Î®ÏģÏĩ
ĠÎ¿Î½ÎµÎ¼ÏĮ ÏĢÎµ
Ġ Î¾Îµ
ĠÎ±ÏĦÎ±Î¼Ïİ Î¹Î±ÎºÎ¹Î´
ĠÏĤÎ¿ ÏĩÏģÎ±Î¼
Î¬Î¹ÏĦ ÏĨ
Ġ M
ĠÎ½Ïİ Î¹Î´Î¹Î±ÏĢ
Ïī ÏĥÎ¿ÏģÏĢ
Îµ Î¤
ĠÎ¹Îµ ÏĢÎ¼
ÏĤÎ· ÎºÎ¯Î½Î¿Î»Î±ÏĥÏĥÎµÎĺ
Î¿Ïĥ ÏĦÎ·Îľ
Î·Î¶ ÏħÏĥ
ÏĤÎ·Î» ÏĮÏĢ
ĠÎ±ÏĦÎ±Î¼ Î³
Î¹ Î³Î±
Î½Î¿ÏĦ Î¹ÎµÎ³
ĠÎ¬ Î½Î¹ÏģÎµÎ¼Î·Î¸Î±Îº
Î¯Î± Î³Î¹Îĳ
Ïī ÏĪ
ĠÎµÏĦÎ¯ÎµÏĦÏĥÎ±ÏģÎ¹Î¿Îľ rettiwT
ÏīÎ½Î³ Î¬
Î¯ÏĦ Î»ÎµÎ²
ĠÎ±Î´Î¯ ÏģÎµÎ¼Î·ÏĨÎµ
ĠÎ½ÏħÎ¿ Î¼
ĠÏĤÎ¿Î¸ Î¬Î»
ÏĤÎ·Ïĥ Ïī
ÏĥÎ¯ÏĢ ÏīÏĦÎµÎ¼Î¹ÏĦÎ½Î±
ÎŃÏĦ ÎµÎ¼
Î®Î» Î¸
ĠÏħÎ¿Î¯Î¼ Î·ÏĦÏĥÎ¹ÏĢÎµÎ½Î±Îł
Î®ÏĦÎº Î¿Î¹Î´Î¹
ÏģÏĮ ÎĴ
Î¯ÏĦ Î½Î±ÏĦÏĥÎ½ÏīÎļ
ÏģÎ¿ Îļ
ĠÎ½ÏħÎ¿ Î½ÏĩÎ¯ÎµÎ´
Ïģ Î±ÏĦ
ĠÏĤÎ±ÏĦÎ½Ïİ ÏĦ
Î¹Ïĥ ÎµÎ¸
Ïħ Îł
Ġe no
Ġ) .
ĠÎ±Î½ÎŃÎ¼ Î¹ÏģÎºÎµÎºÎ³ÏħÏĥ
ĠÎ·ÏĥÎµÎ¸ Î¬Î¹Î´
ÎµÏĢ ÎŃ
ĠÎµ Î»Î¹Îµ
ĠÏĤÎ¹ÎµÏĥÎ¬ ÏĦÏĥÎ±ÏĦÎ±Îº
ÏįÎµÏĦ Î±ÏĦÏĥÎ¿ÏģÏĢ
Î¹ÏĨ ÏģÎ¿Î¼
ÎŃ ÎĽ
ÏģÎµÏĦÏĮÏģ Î¹ÎµÏĩ
ĠÎ½Ïī Î½
Ïį ÎŁ
ĠÎ£ Î©
ĠÏĤÎµ Î¯ÏĦÎ±Î¼
ĠÏĤÏĮÎ¼ Î¸Î¹ÏģÎ±
ÏĤ ÏĮÎºÎ¹
Î¸ Î½Îµ
Î§ ÎŁ
Î½Î® Î»Î»Îµ
Î»Î± ÏħÎ¿
Î½Î±Î² Î»Îĳ
ĠÎ½ Î¿Ïĥ
ĠÎ¿Î¯Îµ Î³ÏģÏħÎ¿ÏĢÎ¥
Î¿ Î¦
ĠÎ±Î¼ Î®Î²
ĠÎ·Ïĥ Î·Î½
ĠÏĤÎ·Ïĥ Î·ÏĦÏģÎ¬Î½Î±
ĠÎ· Î½ÏĮÎ¼
ÏģÎµÏĦÏĥÎ¹Ïģ Îĳ
Î¹ Î¿Ïģ
ĠÎ¬ Î³
Î¬ Î¶
Î¹Îµ ÏĥÏİ
ĠÎ¿ Î³Î¿Î»
ÏįÎµ Î½ÏĢ
Î¹ ÏĩÏģÎ±
ÎºÎ¹Î´ ÎºÎµÎ¹Î´
Î³Ïģ Î¿
ÏĮÎº Îĳ
ĠÎµÏĥ ÎµÎ»Î¬Îº
ÏĦÏĥÎ¹Ïģ ÏīÏĩÎµÎ¾
ÏįÏĦ ÏĢÎ±Î½Î±
ĠÎļÎŁ Î£ÎĳÎł
E N
ĠÎ¹Î±ÏĦÎ½ ÏįÎ¿Ïģ
ĠÎ¬ÎºÎ¹ÏĦ Î½Î±Î¼Î·Ïĥ
ĠÎ¹Î´Î¯ Î¾Î±ÏĦ
Î·Ïĥ Î·Î½ÏģÎŃÎ²ÏħÎº
ÏħÎ¿ ÎºÎ±
ĠÎ±Î½Î¿Ïģ ÏĩÏĮÏĦÏħÎ±ÏĦ
ÎŃÏģ Î´Î½Î±
Î½Ïī Î³Î±ÏĦ
Î¬Î» ÏħÏĨ
ĠÎ¬ÎºÎ¹ Î¼Î¿Î½Î¿ÎºÎ¹Î¿
ĠÎ± Î²
ĠÎ¹ÎµÎ¾ Î¯ÎµÎ´
ĠÎµÏĦÏĥ Ïī
ĠÎ±Î¹Î´Î¯ Î½ÏĩÎ¹Î±ÏĢ
ĠÎĻÎĳÎĿ ÎĻÎķ
Î³Î¯ ÎĽ
Î¹Î¿ÏĢÎ¿Î¼Î¹Ïĥ Î·ÏģÎ§
Î¸Ïģ ÎŁ
ÏĦÎº Î¿ÏĢÎ±
0 102
ĠÎ±Î¯ Î¾Î±
ÎµÎ¸ Î¹ÏĢÎµ
Î·Î¸ ÏĨ
Î¿Î¹ Î¿ÏĢÎ¿
ĠÏĮÎ¼ Î¸Î±Î²
ÎŃ Î¾
Ġá½¶ Î±Îº
ÏīÏĦ Î¬Îº
ÏĦÏĥÎ¹Ïģ Î¿
0 9
ĠÎ±Î¹ Î¿Îł
ÏĨ Î·Î»
ÏĨÎ¿ÏģÏĦÏĥ Î±ÏĦÎ±Îº
S I
ÏĤ ÎŃÏģÎ¿ÏĨ
ÏĨÎ± Î¾Îµ
ĠÎ® Î³ÏīÎ³Î±
ÏįÎ¿ÏĦ ÏħÎ±
Î·Ïģ ÏīÎµÎ¸
ÏĨÎ¬ÏģÎ³ Î¿Î¹ÏĥÎ¿Î¼Î·Î´
Î¯ Î¦
0 7
ĠÎ½Î¿ÏĥÏĮ ÏĨÎµ
ĠÎ± ÎŃÎ´Î¹
ÏĥÎµ Î³Î·
Î®ÏĦÏĥ Î±ÏĦÎ±Îº
ĠÏĤÎ®ÎºÎ¹ Î¼Î¿Î½Î¿ÎºÎ¹Î¿
Î¹Î¼ Î·Î¶
Î½Î± Îľ
Ġ2 102
ĠÏĤÏĮ ÎºÎ¹Î´
ÎºÎµ Îŀ
ĠÎµÎ¼ÏħÎ¿ Î½Ïİ
Î¾Î¬ Î»Î»Î±
ĠÏĮ Î»Î±ÏħÎ¼
ĠÎ½Î¿ Î»Î»Î¬Î²Î¹ÏģÎµÏĢ
Ïħ ÏĦÏĥ
Î·ÎºÎ¹ Î¿Î¹Î´
ÎºÎ±Î¹Ïĥ ÏīÏĢÏħÏĦÎ½Îµ
ÏĦÏĥÎµ Î»ÎµÏĦ
ÏĩÏħÏĥ Î·Î½Î±
ĠÏĤÎ· ÏģÏĦÎ®Î¼Î·ÎĶ
Î½ Î·Ïģ
Î¹Î¼ ÏĮÎ½
Î¶ ÎµÏĥ
Î¿Î½ ÏħÎ£
ĠÎ¹ÏģÏĩÎŃ Îľ
f e
ĠÏĤÎ¿ÏĦÎ±Î¼ Î¼Î¬ÏģÎ³Î¿ÏģÏĢ
ĠÂ ©
ÏĮ ÎĿ
Ġ N
Î±Ïģ ÎŃÏĦ
ÏĤÎµÎ¯Ïģ Î¿ÏĨÎ¿ÏģÎ·Î»ÏĢ
ĠÎµÎ¾ ÏģÎ®ÏĢÏħ
Î³ÏīÎ³ Î±ÏĥÎ¹Îµ
ĠÎĿ Î¥ÎŁ
Î½Î±ÎºÎ¹ ÏģÎµÎ¼Îĳ
ĠÎ·ÏĥÎ·Î¯Î¿ÏĢÎ¿Î½Î¹Î¿Îļ koobecaF
ÏħÎ¸ Î¬ÏģÎ±ÏĢ
ĠÎ¹Î±ÏĦÎ¯Îµ ÏģÏīÎµÎ¸
ĠÎ·ÏĪ Î¿ÏĢÎ¬
Ġ9 2
ĠÏĤÎ·Ïĥ ÏīÏģÎŃÎ¼Î·Î½Îµ
ÏĤÎµÎ´ Î¬Î¼
ĠÎ½ÏįÎ¿ÏĦ ÏĥÎ¹
ÏģÎŃÎ¼Î¿ÏĦ ÏĢÎµÎ»
ÏģÎŃ ÏĦÏĥ
ÏĥÎ¹ÏģÎ¿ Î¿ÏģÏĢ
ÏĢ ÏīÏģÎ¸Î½Î±
Î¹Î¿ÏĦÎµ Î¿ÏģÏĢ
ĠÏĤÏħÎ¿Î´ Î¯Îµ
Ïİ Î¸
ĠÏĮ Î¹ÏģÏīÏĩ
Î¿ Î³ÏģÎµ
Î® ÏĢÎ¼
Ġ: )
Î¹ Î¿Î½ÎŃÎ¼
ĠÏĦ Î½
8 3
ÏĮ ÏĢÎ¼
ĠÎ¬ Î¹ÏģÎºÎ±Î¼
ĠÏĮÎºÎ¹ ÏĥÏħÏĨ
ĠÎ¿Î¹Î»ÏįÎ¿ Î²Î¼ÏħÎ£
Î¯Î±ÏĨ Ïĥ
Î· ÎºÎ¬
Î±Î» Î±Îļ
Î»Î» Î±Î¼
ĠÎ¿Î¹Ïĥ ÏĮÎ¼Î·Î´
Ïĩ Î®
Î¿Îº Î£
ÎŃÏģÎ´Î½Î± ÏĢÎ±Îł
Ïį Î±Î»
c u
Î»Îµ Î£
Î½Î¹Îº ÎºÏĮÎº
ÏħÎµÎ» Îķ
ĠÏħÎ¿Î¯Î»ÏħÎ¿ Î²Î¼ÏħÎ£
ĠÎµÏĦÎµ ÏĥÏİ
Î¿Î´ ÎºÎµ
ĠÎµÎ¼ÏħÎ¿ ÏĪ
Î¹Ïĥ Î±ÏĨ
Ïī ÏģÎµÎ¼Î·Î½Îµ
ĠÎ¯ Î¶
Î½Î¹ Î³
ĠÎ½Î± Î£
Ġ ï
Î¸ ÏįÎ¼
Î¤Î£ ÎĻ
ĠÎ±Î¯Îµ ÏĢÎ±ÏģÎµÎ¸
Î¯ ÏĦÏĥ
Î¯ Î¿ÏĦ
ĠÎķ Î£
ĠÏĤÏįÎ¿Î¼ ÏĥÎ¹
ĠÎ¬ ÏģÎ±Ïĩ
ĠÏįÎ¿ ÎºÎ¹ÏĦÎ±Î¼
Î½Î¿Î»Î» ÎŃÎ¼
ÏĩÎµ Î¤
ĠÎµÏĥ Î·Î¯Î¿ÏĢ
ÏĢÎ± ÏĢ
ĠÏĤÏħÎ¿ ÏĨ
ĠÎ±Î¼ ÏİÏģÏĩ
ĠÎ·ÏĥÎ¹Î½Î¬ ÏĨÎ¼Îµ
Î³Î³ ÏħÏĥ
Î±Î¼ Î·ÏĦÏĥ
ĠÏį Î¿ÏģÎµ
t no
ÏĤÎ¹ÎµÏĥ ÎŃÎ¸
ÏīÏģ ÏħÎķ
ĠÏĮÎºÎ¹ Î»ÎµÏĦ
Î¹ÏĦÎ¬Î¼ ÏīÎ´
ÏĨÎ¿ÏģÏĦ Î±Î¹Î´
ĠÎµÎ¼ ÏħÎ¿ÏĦ
ĠÎµÏĦÎ¯Îµ ÏģÎ¿ÏĢÎľ
ĠÎ®ÏĨÎ¿ÏģÏĦÏĥ Î¹ÏĢÎµ
ĠÎ¬Ïģ ÎºÎ¹Î¼
Î½Î¿ Îļ
ÏĥÎ± Îļ
Î¿Î¼ ÎŁ
Î³Îµ ÏĦÏĥ
ĠÎ± Î»Î»
ÏģÏįÎ¿ Î¤
Î¹Îµ Î½Î±Î´
ĠÎ¿ ÏģÎµÏĦ
Î½ Î¹Î»
ĠÎ¿ÏĦ Î·Î½Î¯ÎºÎ¿ÏĦÏħÎ±
Îł ÎŁ
ĠÏĤÎµ ÏĥÏĮ
Î³ Î¹
ĠÎ½ ÎµÎ¸
ĠÎ½ÏħÎ¿ÏĦ ÏĢ
Î±Î½ Î±ÏĦÎµÎ¼
Î½Î¬ÏĨ Î¹ÏĢÎµ
Î±Ïĩ ÏħÎķ
Î½Î¿Î» ÎµÎ¸
Ïį Î¶
ĠÎ¹ÎµÎ¸ ÏģÎŃ
ĠÏĤÎ®ÎºÎ¹ Î½ÏīÎ½Î¹Î¿Îº
ĠÎµÏĥÎ¹ ÏĩÏģÎ¬
Ïī Îļ
Î¿Ïģ Î¤
5 4
Î±Î» Î±Îł
ĠÎ· Î»Î¿ÏĢ
ĠÎ± Î»ÎµÎ¸Î®
ĠÎ¹Î±Î¼ Î¯Îķ
Î¿ÏĦÏĥ Î¿ÏĢÎ±
ĠÎ¿ ÎºÎ¹ÏĦ
ĠÎ·Ïĥ Î¹ÏĢÏİÏĦÎµÎ¼Î¹ÏĦÎ½Î±
ÏĮ ÏĢÎ¼Îµ
Î¿Ïģ Î¸
Î±Î» ÎŃ
Î¹Îµ Î¶Î¯
Î½ÏħÎ¸ ÏħÎµÎ¹Î´
ÎĽ ÎĳÎļ
ĠÏįÎ¿Î¼ ÏĥÎ¹Ïģ
ĠÎ· ÏĢ
ĠÎ¬ÎºÎ¹ÏĦ ÎµÏģÎ¹Î±Î¾Îµ
Î½Îµ ÏĦÏĥ
Î±Îº Î³
Î±Î¹Îµ ÏĩÎŃÎ½ÏħÏĥ
ĠÎ±Ïĥ ÏĥÏİÎ»Î³
ĠÏĤÎ®ÎºÎ¹ Î½Î·Î»Î»Îķ
Ġg ol
ĠÎ±Î¹ ÏĥÎ¯
Î½Ïī Î¯Îµ
Ġ Î¥
Î»Î¯Îµ ÏĦÏĥ
Î·Ïĥ Î±ÏĦÏĥÎ¬ÏĦÎ±Îº
ÏģÎŃ Îľ
Î½Îµ Î²
ÏħÎµÎ´Î¯Î±ÏĢ ÎºÎķ
ĠÏĮ ÎºÏĬ
ÎŃÏģ Î·ÏĢÏħ
Î½Îµ Î´
l la
ĠÎ¹ Î¿ÏģÎµÏĦÏĮÏĥÏĥÎ¹ÏģÎµÏĢ
ÏģÏĦÎ½Îµ ÎºÎ³ÏħÏĥ
Î¼ ÏħÎ£
Î® Î½Î¹
ĠÎ® ÏħÎµÎºÏĥÎ±ÏĦÎ±Îº
Ġ mu
Î¿Î½ Î·ÎºÏĥ
ĠÏĤÎ®ÏĢÎ¿ÏģÏĦ Î¹ÏĢÎķ
ĠÎ¿Î¹Î¼ Î®ÏĦÏĥÎ¹ÏĢÎµÎ½Î±Îł
Î²Î¬Î» Î±ÏĦÎ±Îº
ĠÏĤÎ¿Î¹ Î¿Îł
ĠÎ·Ïĥ Î¬ÏĨ
ĠÏĮ Î½Î¹
Î±ÏĦ Î½Î¬ÏĢ
Î½Î¬ Î´
ĠÎ¹ÎµÎ¾ Î¬Î»Î»Î±
Îµ Îŀ
ĠÎ®ÎºÎ¹ Î½Î¸Îµ
ĠÎ¹Î±ÏĦÎ½ Î¿ÏģÎŃÏĨ
Î³ÎŃ Îľ
ĠÎ¿ÏģÎµÏĦÏĮ Î³Î¹Î»
Î¹Ïģ Î±Îº
Î½Ïİ Î¹Ïĥ
Î³Î¿Î»Î» ÏįÎ£
ĠÎµÏĥ ÏįÎ¿ÏĦ
ĠÎ·ÏĪ ÏħÎ»Î¬Îº
ĠÏħÎ¿ Îł
ĠÎ±Î¹ÎµÎ» ÏİÏĢÎ±
ĠÎµÎºÎ·Î¸Î® Î¹Î¿ÏĢÎ¿ÏĦÎ±Î¼Î³Î±ÏģÏĢ
Î¿ÏĦÎ±Î¼ Î·Î½Î¹Îº
ÏĢÎŃ ÏģÏĦ
ĠÏĤÏİ Î»ÏĢÎ±
z a
ĠÏĤ Î±ÏĢ
ĠÏĤÎ¿ÏĦÎ±Î¼ Î®ÏĦÏĥÏħÏĥ
Î·ÎºÎ¹ Î¿Î¹ÎĶ
ĠÎ®ÎºÎ¹ ÏĦÏĥÎ¹
ĠÎ± ÏģÎµÏĦ
ÏĥÏİ Îļ
ÏĤ Î¬Ïģ
Î±Î½ ÏħÎĵ
Ġd a
ĠÎ½Î¿Î¹ Î¿ÏĢÎ¬Îº
ĠÎ±ÏģÎŃÏĦ Î·Î¼
ĠÎ±Î¼ Î¹Ïĥ
ÏĮ Î¡
ÏįÎ´ Î½Î¹Îº
R O
ÏĦ ÏħÎ±ÏĦ
ĠÎ¹ÎµÏĥÎŃ ÏģÎ±
ÎŃÎ»Î±Îº Î¿ÏģÏĢ
Ġâ Ĩ
Ïİ Î¹Î±ÎºÎ¹Î´
Î¿Î½ Î±ÏĦÎ±Îº
ĠÎ½Î±Ïĥ Ïī
ÏĮÏĥÎ¹Îµ ÏĢÎµ
ĠÎ¹Îµ ÏģÎ²
ÏĦ Î®
ÏĤ Î·Î¼
Î¿Î¹ Ïħ
Î² ÏįÏģÎº
ĠÎ®Î»Î¿ÏĦÏĥ Î¿ÏĢÎ±
Î±Î¯ ÎºÏģÏħÎ¿Î¤
ÏĤ Î¬Î¼
ĠÏĢ Î¼
Î¹Îµ ÏģÎµÏĨ
ĠÎ±Î¼ Î·Î»Î¸Î¬ÏĦ
Î¹ Î¿ÏĦÏĥ
ĠÎ¿ Î¯ÏĦ
or p
Î¹ÏĥÏĦ ÎĪ
ĠÎµÎ½ Î¹ÎµÎ¼
ĠÎ¬ÎºÎ¹ ÏģÎµÎ¼
Î½Î¿ÏĨ Î¿Î»Î¿Î´
ĠÏħÎ¿Î½ ÏĮÏģÏĩ
Ġ1 102
ĠÎ± ÎºÎŃÎ´
ĠÏĤÎ± Î¯ÏĦÎ¹Î±
ĠÏĮÎºÎ¹ Î½Î¿ÏģÏĩ
ĠÏĤÎ¹ Î¤
v re
ÏħÏģ Î®Îº
ĠÎ» Î®
Î½ÏħÎ¿ ÏĥÎ®
ĠÏĤÎ¹Îµ ÏĥÎ¯
ĠÎ½ÏħÎ¿Î½Î¯ Î´
Î½Ïİ ÏĦÏĥ
Î»ÎŃ Î´
ĠÎ¬ÏģÎ¿ÏĨ Î±Î½Î±
ĠÏĤÎµÎ» ÎĮ
ĠÎ¹Î±Ïĥ Îµ
ĠÎµÏĦ ÏĪ
ÏīÏĥ Î¿ÏģÎł
ĠÏĤÏįÎ¿Î½ Î¸Îµ
ÏĨÎµ Î½
ĠÎ½Î±Îº Î·ÏĦÏĥ
ÎºÏĥ Î¹ÏģÎ²
ĠÏĤÎ¹ ÏģÎµÏĥÏĥÎŃÏĦ
Î¸ ÏħÎ¿Î»Î¿ÎºÎ±ÏģÎ±ÏĢ
k e
Ġ Îļ
ĠÎ¬ÎºÎ¹ Î½Î·Î»Î»Îµ
Î± Î³ÏģÎķ
ÏįÏĥ Î¿Î¼
Ïģ Î¹Î±ÏĦÎķ
Î½Î® ÏĨÎ±
ĠÎ½ÏİÎºÎ¹ Î¼Î¿Î½Î¿ÎºÎ¹ÎŁ
ĠÎ¹Îµ ÏįÏĩÏĥÎ¹
ÏģÎ¿ ÏĥÎ¹
ĠÎ±Î¯ Î¼Î¿Î½Î¿ÎºÎ¹Î¿
ĠÎ±Î¹Îµ Î´Î¬
Î¹ÏĦÏĥ Î¬ÏģÎµÏĦ
Î³ÏģÎµ Î½Î±
Î·ÏĦÏĮÎ´ Î¿ÏĦÎ±Î¼Î·ÏģÏĩ
ĠÎ® Îº
Ïī Î½Î¬ÏĢ
Î±Î¯Ïģ Î´ÎµÎ½ÏħÏĥ
n na
Î·Î¸ Î±Îļ
ĠÎ¯ÎµÎ»Î±Îº Î¿ÏģÏĢ
Ġt ne
ĠÎ® Î»ÏħÎ¿ÎĴ
Î© Î¦
ĠÏĤÎ· ÎºÎ¯Î½Î¿Î»Î±ÏĥÏĥÎµÎĺ
ĠÏį Î¿ÏĦÏĥ
ÎºÎ¹ Î½
Î±Î»Î± ÏĨÎµÎº
Î¿ÏĦ Î½Î±
ÏĤ Î¿Îº
ĠÎ±ÏĦÎ±Î¼ ÏĥÎ¬
Î¹Î¿ÏĢ Î¿Î´Î¹Îµ
ĠÎµÎ¼ÏħÎ¿ ÏĥÎ¯
Î±Î²Î±Î» Î±ÏĦÎ±Îº
ĠÎµÎ¼ÏħÎ¿ Î¶Î¬
Ġ0 6
Î¬Î½ ÏģÎµÏĢ
ĠÎµ Ïĩ
Î¹ÏĨÏģÎ¿Î¼ Î¿
ÏģÎ¿ Îł
ÏĨÎ±ÏģÎ³ Î³ÎŃ
ÏįÎ»Î±Îº Î±Î½Î±
ÏĢ ÏįÏĦ
ĠÎ· ÏģÎ¬Ïĩ
ĠÏĤÎ¿ÏĦ ÏİÏģÏĢ
Î¿ÏĦ ÏīÎ¦
Î½Î¯ ÏĦ
ĠÎ±Î¯Ïĥ ÎµÏģÎ·ÏĢÏħ
Î±Î½ÏįÎ´ Î±
Î¿ÏĢ Îľ
ĠÏĤÎ® ÎºÏĬÎ±ÏĢÏīÏģÏħÎķ
Î¿Î» ÎŁ
ĠÎµÎ¼ Î±
Î½Î¿ ÎĽ
ÏĮÏģ ÎºÎ³ÏħÏĥ
Î±ÏĦ Î¿ÏĢÎ¯ÏĦ
Î¹Î±Îº Î¿Î»Î±Îº
ĠÎķ Îļ
ĠÏĤÎ¹ÎµÏĥÎ¬ ÏĨÎ¿ÏĢÎ±
Î¸ Î¬Îº
ĠÎµ Î½Î¬ÏĢ
ĠÎ½Î±ÎºÎ·Î¸ Ïİ
ĠÎ±ÏĦÏĥ Î¯Î»
ĠÏĤÏĮÎ¼ ÏĥÎ¹Ïģ
ra m
Î® ÏĩÏĥ
Î¬ Î¹ÏĢ
Ïģ ÏħÎ¿
Î±ÏĢ Î¯Îµ
Î¬ Î»Î±
ĠÏĤÎµÎ¯ ÏĥÎ±Î³ÏģÎµ
ÏģÎµ Îľ
Î¹Î±Î» Î±ÏĢ
ĠÎ¹Ïģ Î¯Î±ÎºÎ¿Î»Î±Îº
ÏĤ ÎŃÏģ
ĠÎµÎ»Î± Î²ÎŃ
Î¯ Î±Î½ÏħÎ³
ÏĮ ÏģÎµÎ½
ĠÎ½Ïī Î½ÎµÎ¼ÏĮ
Î¯ ÎĽ
ĠÎ·Î¾ ÏģÎ±Î½ÎŃ
Î¬Ïģ ÎĶ
ĠÎ¹ÎµÏĥÎ® Î½Î¹ÎºÎµÎ¾
ĠÏĤÎ±Î¯ ÎºÎ¹Î»Î·
Î¿Î¹ Î¿ÏĢ
ĠÎ±Î¹Îµ Î»Î¬ÏĨÏĥÎ±
ĠÏĤÏĮÎ³ÏģÏħÎ¿ÏĢÏħ Î¸ÏīÏģÏĢ
ÏģÎµÏĦÏĮÏģ ÎºÎ¹Î¼
ĠÏĤÎ¿Î½ ÎµÎ¼
ĠÎµÎ¼ÏħÎ¿ Î¶
ÏĤÎ± Î´
ĠÎ½ á½
Î·Î´Î¹Îµ Î½ÏħÏĥ
ÎºÎ±Ïģ ÎĹ
Î·Ïĥ Î·Î¯Î¿ÏĢ
Ïī Î½Î±Î³ÏģÎ¿
Ġ G
ÏĤÎŃ ÎºÎ¹ÏĦ
Î½ÏħÎ¸ ÏįÎµÏĦÎ±Îº
Î½Ïİ Î³Î±
ĠÎ¿Î» Î¿ÎºÏĥÏįÎ´
Î¿ÏĦ ÏĮÏĦÏĥÎ¹
ĠÏĤÎ®ÎºÎ¹ Î¼
ĠÏĤÎµÎ½ÏĮ ÎºÎ¹Îµ
Î³Î·Ïģ Î¿Ïĩ
ĠÎ½Î±Ïĥ ÏįÎ¿
ĠÏĤÏħÎ¿ Î¯
Î· ÏĢÎ±
ÏĤ ÏĮÏĦ
ÎĶ ÎĿ
ĠÎ¿ ÎºÏĥ
Î¹ÏĢ Î±Îº
Ïħ Î¿ÏĢÎ±
Î»ÏĮ Î²
Î¿Î½ ÎµÎ¼
ĠÏĮÎºÎ¹ Î»Ïħ
Î±ÏĦ ÎĻ
ĠÎ·ÏĥÎ·ÏĦÎ®Î¶ Î±Î½Îĳ
ĠÏĤÎ±Ïģ ÏĢÎ¯ÏĥÎ¤
ĠÎ±Î¹ ÏĥÏĦ
ĠÎ¿ ÏģÏĮ
ĠÏħÎ¿Ïģ Î¸ÏģÎ¬
ĠÏĤÎŃÎºÎ¹ Î¼
Ġ0 02
Î¿ÏĨÎ¿Ïģ Î·Î»Îł
ĠÎ±Î¯Î» Î²Î¹Î²
Î¹ÏģÏĦ Î±ÏĢ
ÏįÎ¿ÏĦÏĥ Î¹ÏģÎ§
ĠÎ¿Î½ ÏħÎ´Î½Î¯Îº
ĠÎ·Î» ÎŃÏĦ
Î® ÏĩÎ¿Î¹ÏģÎµÏĢ
ĠÎ¹ Î¿Îº
Î¹Î¿ÏĢÎ¿ Î¸Î·
ÏĤ ÏĮÏģ
ĠÎ¬ÎºÎ¹ÏĦ ÎµÏĩÎ£
ĠÏĤÎ¿Î» ÏħÎ¿ÏĢ
ÏĤ Î¿Ïĩ
3 3
Ġse ikooc
ÏİÏģ Î·Î»ÎºÎ¿Î»Î¿
Î¿ Î¯
Î±ÏĦÏħÎµ Î»ÎµÎ¤
ĠÏĤÎ¹ÎµÏĥÎ¬ÏĦ Î¿ÏģÏĢ
ĠÏĤÎµ Î½Î¿Î¼
ÏīÏĦ ÎŃÎ¼
ÏĩÎµÎ´ Î½Îµ
Ġ, %
Î±ÏĢÎ± Î½Î±
Î±Î»Î¬ ÏĨÎµÎº
ÏįÏģ Î´Î¹
Î¸Î· Î½ÏħÏĥ
ĠÎ½Î±Ïĥ Î·ÏĦ
ĠÎ½ Î¿Î½ÏĮÎ¼
Î¿ÎºÎ¹ ÎĿ
Î±ÏĦÏĥ ÏħÏĥ
ĠÎ® Î½Î¹Î¿Îº
ĠÏĤÎŃ Î¹
Î£ Î¤
ĠÎ¹ÎµÎ½ ÏģÎ¯Î±ÏĢ
Î½Ïĩ Î¬ÏĪ
ĠÏĤÎ¿ ÎŃÎ½
ĠÎµÎ¼ ÏħÎ¿ÏĢ
Î¿Ïģ ÎºÎ±
ÏģÏħÎµ Î»ÏĢ
ĠÎ·ÏĥÏī Î½ÎĪ
ĠÎ½Ïİ ÎºÎ±
Î½ ÏģÎµÎ²ÏħÎº
ĠÎ½ÏīÎ½ÎŃÎ¼ Î¿Î´ÎµÎ´
ĠÏģ ÎµÏĦ
ĠÏĤÎ¿Î½ ÏĮÏģÏĩ
Î±ÏĦ ÏĥÎ±
ĠÎ® Î½Î¹
ĠÎ®ÏĦ Î±Î½ÏħÎ´
Î±ÏĦ Î·ÏĦ
ÏħÎ¿ÏĢ Îľ
ĠÎ®Î»Î¿Î² Î¿ÏģÎł
ĠÏĤÎ¿ Î¹Î»
Ġ ÎĽÎķ
ĠÎ®ÎºÎ¹ÏĦ ÏħÎµ
9 0
ĠÎ¿Î¹Ïģ ÏįÎ±
Îµ ÏĪ
ĠÎ·Î»Î¬ Î³ÎµÎľ
ĠÏį Î¿ÏĨ
Î¿Î½Î± Î¹Î´
Î·Î¸ Î¬ÏĢ
Î³ Î¬ÏģÎ±ÏĢ
ĠÏĤÎ±Î¯Îµ ÏģÎ¹Î±ÏĦÎµ
ÎºÎ¯ ÎĿ
ĠÎ£ ÎĳÎľ
ÏĢ Î»
ÏģÎ¬ Î§
ĠÎ¬Î¹Î¼ Î±Îº
ĠÏĤÎ¹ÎµÏĪ ÏĮÏĢÎ±
Î´Î¬Î¼ ÎŁ
ĠÎ· ÎºÎ¯Î½Î¿Î»Î±ÏĥÏĥÎµÎĺ
ÏĨÎ±ÏģÎ³ Î³Îµ
Î¼ Î±Îº
Î½Î¿ Î»Î»Î±Î²
ĠÎ¹ÎµÎ¶Î¯ Î±ÏĢ
ÏĤ ÎŃÎ»
ÎŃÏĢ Î±ÏģÏĦ
ĠÏĤÎ® Î³ÏīÎ³Î±ÏģÎ±ÏĢ
Î¹Îµ ÏĢÎŃ
Ïģ Î±ÏĦÎµÎ¼
ÎŃÎ¼ Î·ÏĥÎµÎ¼
ĠÎ½Ïİ Î»ÎµÎ¼
ÏĤÎµÏģ ÎŃÎ¼Î·
ÎµÏģÎ·ÏĢÏħ Î¾Îµ
goo G
ĠÎ±Î¹Î´ ÎŃÏĩÏĥ
00 0
Î¾ Î¿ÏĦ
ĠÎµÏģÎµÏĨ Î¬ÏĦÎ±Îº
l B
Ġ ti
Îĳ Î§
ĠÎ¿Î¯Îµ Î»Î¿ÏĩÏĥ
ÏģÎµ Î±
Î±Ïĩ ÏħÏĦ
ĠÎ½ ÎµÎ¼
ĠÏĤÎ±Î¯Îµ Î³Î¥
ÏĮÎ¼ÏģÎ± ÏĨÎµ
Ïī ÏĦÏĥÎ¹ÏĢ
Î¬ÏĦ Î±Îļ
ĠÎ±ÏĦÎ·ÏĦÏĮ Î¹Î¿ÏĢ
ĠÏĤ ÏĦÎ±Î¼
Î»Î±ÏħÎ¿ Î¾ÎµÏĥ
ĠÎµÏĥÎ·ÏĦ Î®Î¶
ĠÎ¯Îµ Î³Î·Î´Î¿
ĠÎ¯ÎµÎ¸Î·Î¹Î¿ÏĢ Î¿ÏĦÎ±Î¼Î³Î±ÏģÏĢ
ĠÎ¹ÎµÏĥÎ® Î¸Î·Î¿Î²
ĠÏĤÏİÎ»ÎµÏĦ Î½Îµ
Î¿Î¹Î´ Î¯
ĠÎ® ÎºÏĬ
Î·Î´Î¯Îµ Î½ÏħÏĥ
Î¶ ÏħÎ²
ĠÎ·ÏĥÎ· ÎºÏĥ
ÏĮÏģÎ´ Î¿ÏģÎµÎ±
ĠÎ¿ÏĦ Î±Î½Î¬Î¸
ĠÏĤÎ® ÏĩÎ¿Î¹ÏģÎµÏĢ
Ïĩ Î±ÏĦ
ĠÎ½Ïī ÏģÏĦÎŃÎ¼
á¼ Ģ
Î¿ÏĢ Î±ÏĦÎ½Î±
ĠÎ·ÏĥÏī ÏĨ
Î¬Ïģ Îļ
ĠÎµÏĥ ÎµÎ¸
ĠÎ½Ïİ Î¹ÏģÏĦ
ĠÎ¬ÎºÎ¹ ÏĦÏĥÎ±Î¹ÏĥÏħÎ¿
Î¿Ïģ ÏģÎ¿ÏĥÎ¹
ÏĮ Î½Î±
ÏĮ Ïĥ
Î±Ïģ Î¹ÎµÏĢ
ĠÎ¹ÎµÎ¶Î¬ Î¹ÏĥÏħÎ¿ÏģÎ±ÏĢ
ĠÏĤÎµÎ¯Îµ ÏģÎ¹Î±ÏĦÎµ
ĠÎ±Î¼ Î¼ÏĮÎº
ĠÎ± Î´ÎµÏĢÎ¯ÏĢÎµ
Î·Î» ÎºÎ³Îµ
ĠÏĤÎ·Ïĥ Î¿Î´
ÏħÏģ Î´Î¯
ÎĹ Îĺ
ÏīÏģ Î·Î»
ĠÎ·Î¾ ÏħÎµÏĦÎ½ÎŃÎ½ÏħÏĥ
ĠÎ½ÏįÎ¿Î» Î±Îº
ĠÏĤÎŃ ÏĨ
Î½ÏİÏĦ Î½Îĳ
Ïī ÎµÎ»
Î±Ïĥ ÎµÎ¼
ĠÎ·ÏĥÎ¹Ïģ Î¯ÎµÏĩÎ±Î¹Î´
ĠÎ±ÏģÎµÏĦÏĮ Î³ÏģÎ±
ÏĦ ÏīÏģÏĢ
ĠÎµÎ¼ Î±Î½
Î½Î±Î¹ÏĦÏĥ Î¹ÏģÏĩ
Î¶ ÏħÎ¿Îº
Î³ÏģÏįÎ¿ Î¹Î¼
ĠÏĤÏħÎ¿ Î¯Î¿ÏĢÎ¿
Î± Î³Î·ÏĢ
ĠÎ·ÏĥÎ· ÎºÎ¯Î¿Î¹Î´
ÎŃÏģ Î´Î½Îĳ
ĠÎ·ÏĥÎ·ÏĦ ÎŃÎ¸
Î½Î¿ÏģÏĦ ÎºÎµÎ»ÎĹ
ĠÎ·ÏĥÎ±ÏĦ ÎºÎŃ
ĠÏĤÎ¿Ïģ ÏİÏĩ
Î¿ Î¡
Î½ÏİÎ½ Î·Î¸Îĳ
ĠÏĤÎ±Î¯Îµ Î³Ïħ
Î·Î½ÏģÎŃÎ² ÏħÎļ
ÏīÏĨ ÏģÎ¿Î¼
ĠÎ·Ïĥ Î¹ÏģÎº
ÏģÎµÏĦÏį ÏģÏħÎµ
ĠÎ½ÏĮÏĦ Î±Î½ÏħÎ´
ĠÎ¹ÎµÏĩÎŃ Î¹ÏģÎµÏĢ
ĠÎĳ ÎĻÎķ
Î¹Î»Î¬ ÏĨÏĥÎ±
ĠÎ¹ÎµÎ½ ÏģÎŃÏĨ
ĠÎµ ÎĶ
Î½Î± Î§
ĠÎ¹Îµ ÎºÎ®Î½Î±
Î¹Îº Î¬
Î¹ÏģÎºÎµ ÎºÎ³ÏħÎ£
ĠÎ·ÏĦ ÎŃ
ĠÎ¬ÎºÎ¹ Î»Î¿Î½ÏħÏĥ
Î¯ÏģÎº Î±Î¹Î´
Ġ0 102
ĠÎ® Î¾
ĠÏĤÏħÎ¿ ÎŃÎ½
ĠÏĤÎ±ÏĦ ÏĥÏİÎļ
ÏģÎ·ÏĦ Î±ÏģÎ±ÏĢ
ĠÏģ Îµ
ĠÏĤÏĮÏĦ ÎºÎķ
Î®Î¼ Î¹ÏĦ
ĠÎ½ÏİÎºÎ¹ Î½ÏīÎ½Î¹Î¿Îº
ĠÏĮÎºÎ¹Î´ Î±Î½Î¿Î¼
ĠÎ® Î½Î¸ÎµÎ¹Î´
Îľ Îķ
ÏĢ Î·Î»
Î»ÏħÎ¿ Î²Î¼ÏħÏĥ
ĠÏħÎ¿ Î³ÏģÎŃ
Îµ Î¡
Ïį Î¿ÏĢÎ±
8 0
Î±Ïĥ Î¤
Î³Î¿Î»Î¿ ÎµÎ´Î¹
Î³ Î³Îµ
ĠÎ±Î´Î¯ ÏģÎµÎ¼Î·
ĠÏĤÏħÎ¿Î» ÎŃÏĦ
ÏĨ ÎµÎ»
ÏģÎŃ ÏĢ
Î± ÏģÎµÏĦÏĮÏĥÏĥÎ¹ÏģÎµÏĢ
ÏĢÎ¿ Î¿ÏģÏĢ
ÎŃÎ» Îķ
Î±Î½ Î®Î¼
ret nI
Î½ÏĮÎ¸ Î»ÎµÏģÎ±ÏĢ
ÏīÏģ Î®Î»
Î½Î¹ÏĦ ÎµÏĨ
ĠÎ·ÏĥÎ±ÏĦ ÏĥÏĮÏĢÎ±
ĠÎ½ÏİÎ½ Î·Î¸Îĳ
ĠÎ·ÏĥÏī Î¯
ÏĤÎ·Ïĥ Î¯ÏĢÎµ
ÏģÏĦÎ± ÎĻ
ĠÏī ÏĩÎĪ
te l
Ïİ ÎµÎ¸
Î±Ïģ ÎºÎ¹ÏĢÎµ
Î½ÏįÎ¿ Î¸
mo H
Î¹Î± ÏģÎµÏĢ
Î½ÏīÏĨ ÎµÎ»Î·ÏĦ
ÏĨÏģÎ¿Î¼ Î±Î¹Î´
Î¿ Î¹ÏĦ
ĠÏĤÎ¿Î½ ÏĮÎ¼
ĠÎ®Î¼ Î¼Î±ÏģÎ³
c s
ÏĦÎ½Î± Î½ÏħÏĥ
Î±Îº Î³Î±
Î¯Îµ ÎºÎķ
ĠÏĤÎ¿ÏĨ Î¬ÏģÎ³
Î±Î² Î¿Ïĥ
ĠÏĤÎŃ Î³Î¿Î»Î¹ÏĢÎµ
Ïī Î¹Î±ÎºÎ¹Î´
ÏħÎµÎºÏĥ Î·ÏģÎ¸
ĠÎ½ÏīÏĦ Î½ÏĮ
1 0
Î» ÏīÏĢ
ĠÎ·Î¾ Î¬ÏģÏĢ
ÎĽ ÎŁÎł
ĠÎ¹Î±ÏĦÎ½Î¿Î½ Î¬Î²Î¼Î±Î»
ÏĤ ÏħÎ¿Î¼
c S
ĠÎ·ÏĥÎ·Ïģ ÏİÏĩ
Î¹Îµ Î¶Î¬
Ïģ Îķ
ÏĥÎ¿Îº Î³Î±ÏĢ
ĠÎµÎ¼ÏħÎ¿ Î»ÎŃÎ¸
ĠÏĮÎ¼ ÏĥÎ¹ÏĦÎ±Î¼
ĠÎ·Î½ Î½Î¬Î¹Îĵ
Î½Ïĩ ÎµÎ¤
7 0
ĠÎ®ÎºÎ¹ ÏĢÏīÏĥÎ¿ÏģÏĢ
Î»Î¿ÏĦ Î±Î½Îĳ
ÎŃÎ» Îĳ
s se
ÎµÎ» ÎµÎ¼
Î½ ÏĨÎ±
ÎµÎ³ ÎŃÎ¼
ÎŃÎ» Îº
ĠÎ» Î¿ÎºÎ³
ĠÎ±Î¼ÏħÎµ Î³ÏĮÏĢÎ±
ÏīÏĦ ÏĨ
Ġ R
Î¹Îµ ÎĽ
Î»ÎŃ ÏĦÏĥ
Ïĥ ÏĮÏģÎł
ĠÎ· ÏĩÎŃÎ»ÎµÏĦÏĥ
ĠÎ·ÏĥÎ±ÏĦÏĥ Î¬ÏģÎ±ÏĢ
ĠÎ¬ ÎºÎ±
l li
Î·Î¸ Î®
ĠÏĤÎµÎ¼ Î¹Ïĥ
ĠÏĤÎµ Î¹Î¿ÏĢ
Î¦ Îķ
Î¹Îµ ÎºÎ¹ÏĦÎ½Î±
i v
ĠÎµ Î³ÏħÏĨ
ĠÎµÎ¼ÏħÎ¿ Î¾
ÏģÎ¿ÏĨ Î¿Î»ÎºÏħÎº
Î¹ÎºÎ¹ Î¿ÏĢ
ÏĥÎ® ÏģÎ§
Î¸ Î»ÎµÏģÎ±ÏĢ
Î¿Ïĥ ÎµÎ¼
Î¹ÏĥÎ¬ ÏĨÎ¿ÏĢÎ±
ĠÎ·ÏĥÏī Î½Î³
6 0
ÏģÏĮ Î²
ĠÎ¬ Î¹Î³
ĠÏĤÎµ Îº
ĠÎ±Î¼ Î®Î¼Î¤
Î»Î¿ Î²Î¼ÏħÏĥ
ĠÎ·Ïģ ÎŃÎ¼
ĠÎ±ÏĦÎ±Î¼ Î¼Î¬ÏģÎ³Î¿ÏģÏĢ
ĠÏĤÎ¿ ÏĩÏĮÏĦÏĥ
Î İ
Î±ÏĢ Î¿
Î¯ÏĦ ÎµÏĩÏĥ
p A
ÎŃÏģ ÏĨ
Îµ ÎĶ
ĠÎµÏĥÎ·Ïģ ÏİÏĩ
. âĢ¦
Î³Î¿Î»Î¿ Î¹Ïĥ
Î³Ïģ ÏĮ
ĠÏĤÎ¿Î¼ Î®ÎĶ
Î±ÏĦÎ±Î¼ Î³Î¬ÏģÏĢ
ĠÏĮÎ¼ ÏĥÎ±ÏħÎ´Î½ÏħÏĥ
Î¿Î» Î±
ÎŃÏĦ ÏĢÎµÎ£
Î» ÏĢÎ¼
Ïģ ÏħÏĢ
ĠÎµÎ¼ Î¬ÏĦ
Î³ ÎŃÎ¼
ĠÎ¬ÎºÎ¹ ÏĩÏģÎ±
ÎºÎ¹ÏĦ Î½Î±Î¼Î·Ïĥ
Îł Î¥
ĠÏĤÎµ ÏģÏĦ
ĠÏħÎ¿Î»ÏĮ Î¸Î±Îº
Î·Î¶ Î±Î½Î±
ĠÏħÎ¿ Îľ
Î½Ïī Î¯Ïģ
Ïī Î½Î±
ĠÏĤÎµÏĦ Ïİ
ĠÎ®ÏĦÏĥ ÏīÎ½Î³
ÏħÎµÏĦÏĥ Î¯ÏĢÎ±
ĠÏĤÎ¯Îµ ÏĥÎµ
ÏĨÎµÎº ÏĥÎ¹ÏĢÎµ
ĠÎ¹ÎµÏĥ Î¬ÏĦÏĨ
ÏĨÎ¼ Îķ
5 91
ĠÏĤÎ¿ ÏĪÏį
5 0
Î» Î±Î½
ĠÎ¹Î±ÏĦÎµ ÏĢÎŃÏģÏĦ
ÏİÎ¹ Î³Î±Î½Î±Îł
ÎºÎ±Î»Î» Î±Î½Îµ
Î²Î¼ ÎŃÏĦÏĢÎµÎ£
Î·Î¸ÏįÎ¿Î» Î¿Îº
Ïį ÏģÎ±Î²
ĠÎ±Ïģ Î®ÏĦÎºÎ±ÏģÎ±Ïĩ
ĠÎ·ÏĥÏīÏģ ÏĦ
Î½Î±Ïģ ÏħÎ¿
ĠÎ±Î¹ÏĥÎ¯ Î±Î»ÏĢ
Ġ B
Ġy a
ĠÎ·Î¾ Î¹ÏģÎ®ÏĦÏĥ
ĠÏĤÎ¿Î´ Î¯Îµ
Î¶Î¹ Î½ÎµÎĴ
ĠÎ½ÏİÎºÎ¹ÏĦ Î¹Î»Î¿ÏĢ
Î¿Ïģ Î¿ÏĨ
Î½ÏĮ ÎºÎ¹Îµ
ĠÎ¯Îµ ÎºÎķ
Î½Î¿ÏĦ Î½ÏħÏĥ
ĠÎ®Ïĩ ÏħÏĪ
ĠÎµÏĥ Î±ÏģÎŃÏĢ
ĠÎ·ÏĥÎ·ÏĦ ÏģÎ¬
n uo
Î¯ Î¤
ĠÎ·Î½ÎŃÎ¼ ÏĥÎ¹
Î½ Î½ÎµÎ³
ĠÏĤÏīÏĦ Î½Î¬ÏĢ
Î¹ÏĦÏĥÎµ Î¦
ĠÏĤÏĮ Î±Î»
ĠÎ¯Ïĥ Î·Î½
ÏĤÏħÎ¿ Î»ÏĮ
ÎŃ ÏĪ
Ġla i
g o
ĠÎ±Î¼ Î³Î¬ÏģÏĢ
ĠÏħÎ¿ Î¯Î¿ÏĢÎ¿
Î¼Î¹ÏĦ ÎºÎµ
ĠÎµÎ¼ ÏįÎ¿ÏĦÏĥ
Î½ÏĮÎ¼ Î·Î½Î¼
ÏĥÎ±Î´ Î¹Î´
ĠÎ±Î¹ÏĦÏĥ Î¬ÏģÎµÏĦ
Î½Ïī ÏĢÎ±
ĠÏĤÎ¹ÎµÎ¾ Î¯Î»ÎµÎ¾Îµ
ÏįÎ½ÎºÎ¹ÎµÎ´ Î¿ÏĢÎ±
k ca
ĠÎ½ÏİÎºÎ¹ Î¼
Î»Îµ Î¾Îµ
Ġ po
ĠÎ±Î¯ Î½Î±Î¼ÏģÎµÎĵ
Î½Ïĩ ÎµÎ¾
ĠÎ¿ Î½Î¬
ro f
Î± Î´Î¬Î¼Î¿
ÏĢ ÏīÏĥÎ¿ÏģÎł
Î·Ïģ Î¯ÎµÏĩÎ¹ÏĢÎµ
ĠÎ®ÎºÎ¹ Î½ÏĩÎµÏĦ
ĠÎļÎķ Îĳ
Î¹ ÏĩÏģÎĳ
Îľ ÎĹÎĶ
ÏģÎ± Î¹Î´
Î½ÏħÎ¿ Î²
ĠÏĤÎ¯ÎµÎ¼ Îķ
ÏģÎµ Îĺ
ĠÎ±Î¼Î¼Î±ÏģÎ³ ÏĮÏģÎł
Î»Î»Î± Î³
Î»Î» Î±ÏĢÏħ
Î¹Î» Î¸
Î¿Î½ Î¹Î±Îº
ĠÎ¿ ÏįÎĶ
ĠÎ±Î¹Ïģ Î®ÏĦÏĥ
Î³ÏħÎ¶ ÏįÏĥ
ĠÎļÎŁ ÎĳÎł
Î²ÎŃ Î½ÏħÏĥ
Î± Î¹ÏĦ
ÏįÎ¿Ïģ ÏĨ
ÏĩÎ¿Ïģ Î±ÏĢ
Î¬ Î½ÏħÏĥ
Ġe tis
Î¹ÏģÏĦ Î±Îł
Î±ÏģÎ´ Î¯ÏĦÎ½Î±
ĠÎ¹Îµ Ïģ
Î±Î¼ ÏīÏĥ
Î³ÏģÏįÎ¿Î¹Î¼ Î·Î´
Ïī Î¼Î¹ÏĦ
ĠÏĤÎ·Î¾ ÏħÏĦÏĢÎ¬Î½Î±
ĠÎ±Î¹Î¼ ÏĥÏĮÎºÎ³Î±ÏĢ
ĠÎµÏĦÏĥÎ±Î¼ Î¯Îķ
ÏĤÏī ÏĢ
Î¹Îµ Î½Î¯
ĠÏĤÎ±Î¯Îµ ÏĦ
Î¿ ÎĽ
Ġ +
Ïĥ ÏīÏģ
ĠÎ·ÏĥÎ¹Î¼Î¸ ÏįÏģ
ĠÏĤÎ±ÏĦÎ½Î¿ Î¶
Ġ' '
Î±Î¯Ïģ Î¿ÏĦÏĥÎ¹
ÎĳÎ¡ Îĵ
ÏĩÎµ Î½ÏħÎ£
ĠÏĤÎµ ÏģÎµÏĦÏįÎ»Î±Îº
ĠÎ¿ ÏģÏĮÏĨ
Î·Î½ Îľ
ĠÎµÎºÎ·Î¸ ÏĮÎ´
ÏĤ ÏĦ
Ïį Î±Îº
á½ Ĳ
Î»Î¹Îµ ÏĢÎ±
Î¼ Î±Îļ
Î¬Ïģ Î±Ïĩ
ĠÎ±Î¯Ïģ Î±Îľ
ĠÎ· ÏģÎµÏĦÎ¯Î±Î¹Î´Î¹
Ġt h
7 3
ĠÎ±Î¹Î´ ÏĮÏĢ
Î½Î¿ÏĢÏĥ Î¿Î¼ÎŁ
ĠÏĤ ÏįÎ¿Î»
ĠÎ¹Î±ÏĦÎ½ ÏįÎ¿Î»
ÏĤÎ¹ÎµÏĥÎ® ÏĦ
Î¹ Î¿ÏĨ
ÏģÎµÏĦ ÏħÎµÎ´
Î¸ ÎŃÎ¼
ĠÏĤÎµÏĦ ÏĢÎŃÎºÏĥÎ¹ÏĢÎµ
Î¬ Ïĥ
Ġ V
ÎŃ Î¶Î¹Î½ÎµÎĴ
Îº Î¯ÎµÎ´
ĠÎ½Ïī ÏģÏĮ
ĠÎ® ÎºÎ±Î¹Îµ
ÏħÎµÏĦÎ¯Î»Î¿ÏĢ Î¹ÏĦÎ½Î±
ĠÎ½Î±Ïĥ ÏįÎ¿ÏģÎ¿ÏĢÎ¼
ĠÎ¿Î½ÎµÎ¼ÏĮ ÏĩÎµÎ¹ÏģÎµÏĢ
ÏĥÎ±Î² ÎµÏĥ
Î·Î» Î¿ÏĢ
ÏĥÎ¹Îµ Ïĥ
ÏįÎµÎ» ÏħÎ¿Î´
ÏħÏĦÏģÎ±Î¼ Î±Î¹Î´
Ġs re
Î¿Î½ Î·Î»Î»
ÎŃÎº Î±ÏĢ
ĠÎ·ÏĥÎ·ÏĦ Îº
ĠÎ±Î¹ÏĦ Î¯ÏĢÏĥ
Ïī Î¾Îµ
ÏĦ Î½Î¬
ĠÎ¹Î±ÏĦÎ½ ÏįÎ¿ÏĦ
ĠÎ¹Î¿ Î¯
Î¿Ïģ ÏİÏĩ
Î½ Î½Î±
ĠÏĤÎ± Î¯ÏĦÎ±ÏģÎºÎ¿Î¼Î·ÎĶ
ĠÎ·ÏĥÎ·Ïģ Î¯ÎµÏĩÎ¹ÏĢÎµ
ÎºÎ¬ÏĦ Î¿ÏĥÏĦÎ·Îľ
ĠÎ·Ïĥ ÏħÏĩÏĥÎ¯Î½Îµ
ÎºÏģ ÏįÎ¿Î¤
Î¿Î¹Ïģ Î·ÏĦÏĥ
Î¬ÏĦ Î½Î¿ÏĦ
ĠÎ¿ÏĥÏĮ Îł
ĠÎ·Ïĥ ÎµÎ´Î½ÏįÏĥ
Î·ÏĦÎ®Î¶ Î±Î½Î±
ÏģÎ± Ïĥ
Î»Î»Î¬Î² Î¹ÏĢÎµ
ÏĨÎµ Î¾
ĠÎ½ÏİÎºÎ¹ ÏĦÏĥ
ĠÎ®Î´Î¹Îµ ÏĢÎķ
ĠÎµÏĥ Î¹ÏĥÎ¬ÏĨÎ¿ÏĢÎ±
ĠÎµÏĥ Î±Ïģ
ÎºÎ¹ Î»
ÏħÎ¿ Î¡
Î½ ÏĮÏģÎ±ÏĢ
ĠÎ®Ïĩ Î¿ÏģÎ±ÏĢ
ĠÎ¹Î¿ Î¹Î¿ÏĢ
Î·Î»Î¸ Îĳ
ĠÎµÎ¼ÏħÎ¿ ÏĥÎ¬
Î½Î± Î»
ÏĤ Î¿Î¹
ĠÎ½ÏĮ Î¸Î»ÎµÏģÎ±ÏĢ
ĠÎ¹Î±ÏĦ ÎµÏĦ
ÏħÎ¿ Î½ÎŃÎ¼
ÏĢÎµ Î½ÏħÏĥ
ÎĿ ÎķÎľ
ĠÎ¿ Î½ÏīÏĨ
ÏĥÎ±Î» Îº
Ġ tse
ÏįÎµÏĦ Î±Î¼Î³Î±ÏģÏĢÎ±Î¹Î´
s or
Î·ÏĦÏĥ ÏħÎ±
Ïį ÏĥÎ±
Î»ÏĢ ÏĮ
ÏĮÎ¹ Î¾Î±
ĠÏĤÎ¿ Î¯
ĠÏĤÎ±ÏĦ Î½Î¿ÏĦ
Î¿Î» Î¹Î¦
z i
Î½Ïī Î»Î»Î¬
Î± Î¡
Îŀ Îķ
ĠÎµÏĥ ÏįÎ¿Ïģ
ĠÏĤÎ® ÎºÎ±
Î±Î¼ ÏģÎ¬ÏĨ
ÏĨ Î±ÏģÎĵ
ĠÎ½Ïī Î´Î¬
ĠÎµÎ¼ÏħÎ¿ Î½
Î³Ïī Î³Î±Ïģ
ĠÎĿ ÎŁÎ¤
Ġ1 3
ĠÎ½Î± Î¸
ÏħÎ¿ Îĵ
Î¿ÏģÏĩ Î³ÏįÏĥ
ÏĤÎ¿Î» ÏħÎ¿ÏĢ
ĠÎ®ÎºÎ¹Î´ Î±Î½Î¿Î¼
ĠÏĤÎ· ÏĩÏģÎ¬
Î½Î¿ ÎºÎ¹Îµ
ĠÏĤÎ¹ÎµÎ¾ ÎŃÎ»
ÏĮ ÎµÎĺ
ĠÎ®ÎºÎ¹ ÏĨÎ±ÏģÎ³
ĠÎ¹ÎµÎ¶Î¯ ÏĩÎµÎ½ÏħÏĥ
Î¹ ÏĨÎ¼Î±
ĠÎ½Ïī ÏģÏĮÏĨ
Î½Î¿ Î´
ĠÎ¹ÎµÏĥÎ¯ ÏĩÏģÎ±
ts u
Î¼ ÏħÎĵ
Î¹Î¼ Î·
ĠÏĮÎºÎ¹ ÏģÎµÏĦÏīÏĥÎµ
ĠÏĤÎŃ ÏĦÎµÎºÏģÎ±
Ġ u
Ïĥ Î¿Ïģ
ĠÎ·ÏĥÏīÏĨ ÏģÏĮÎ¼
ĠÏĮÎºÎ¹ ÏĨÎ±ÏģÎ³
ÏĨÎµ Îļ
f f
Ġ Îī
Î»ÎµÎ³Î³ Î±ÏģÎ±ÏĢ
ĠÏĤÎµ ÏĥÏħÎ¿
ÏīÏĦÏĢ Î¯ÏģÎµÏĢ
ĠÎ·Î´ Î¯Îµ
ĠÎ·Î¾ Î¹ÏģÎ®ÏĦÏĥÎ¿ÏĢÏħ
Î¹ÎµÎ» ÎºÎŃ
Î±ÏĢ Î¯ÏĦÎ½Î±
ĠÎ·ÏĥÎ·ÏĦ Î¯Î±
ÏĨ ÎŃÏĢ
ÎµÎ»ÎŃÏĦ ÎºÎµ
ÏģÎµÏĦ Î±Îļ
ĠÏĤÎ® Î¾Îµ
Î¿Ïģ ÎºÎ±Î¼
ÏģÎ¬ Îł
ĠÎĿ ÎĹÎ¤Î£
ĠÎ¹ÎµÏĢ ÎŃÎ»Î²
ĠÎ·ÏĥÎ·ÎºÏĥ Î¬
Î±Î¹ Îº
ĠÏĤÎŃÎ¼ Î³Î¹ÏĦÏĥ
ĠÎ® ÏĢÎ¼Î¿ÏĢÎºÎµ
Î½Î¿ ÎµÎ»ÏĢ
ÏīÏĩ Î¿ÏģÏĢ
ÏİÏĥÎ¿ÏģÏĢ ÎºÎµ
Ïĩ Î¿ÏĦÏĥ
ĠÎ¿ÏĢ ÏĮÏĦ
s sa
ĠÎ¹ Î¼
ĠÎµ Î¾Î±
Î½ÏĮ Î´
2 0
Î±ÏģÎºÎ¿Î¼ Î¿ÏģÏĦ
ÎµÎ¸ ÏįÎµÎ»Îµ
ÏģÎŃÏĨ ÏĥÎ¿ÏģÏĢ
Î·ÏĦÎº Î¿Î¹Î´Î¹
ĠÎ¿Î¼ Î®ÎĶ
Î½Ïī Î´
ĠÎ±Î¼ ÏĮÎºÎĳ
ĠÎ®ÏĨ Î±ÏĢÎµ
Î¼ÏĮ ÏĦÎ±
ĠÏĤÏħÎ¿Ïģ Î®Î»ÏĢ
ĠÎ· Îľ
ĠÎ¿Î½ÎŃÎ¼ ÏĥÎ¹
ÎºÎ±Î¼ ÏģÎ±ÏĨ
ĠÎ·Ïĥ Î¹Î¼
4 3
Î±Î½ Î¼ÏħÎ³
ĠÎ½Ïī Îº
Î¾ÎŃÎ» Îĳ
ÎºÎ¯ Î¿Î¹ÎĶ
d ne
ÎĻ ÎłÎķ
Ġl la
ĠÎ±ÏĢ ÏīÏĥÏĮÏģÏĢ
Î½Î¬ÏĢÎ± Î´
Î¿ ÎºÎ¹ÏĦ
Î¿Ïģ Î·Î»ÏĢ
Î¼ÏħÎ¸ Î¹ÏĢÎµ
Î£ ÎĳÎľ
ĠÎ·ÏĥÎ· Î¯Î¿ÏĢÎ¿
ĠÏĤÏī Ïĥ
Î½Î±Î¼ Î®
ĠÎµÏĦÎµ ÏĪ
Î±Î¼Î·ÏĦÏĥ ÏįÏĥ
ĠÎ®ÏĦÏĥ ÏīÏĥ
ÏħÎµÏĦÏĥ Î¯ÏĢ
Î´Î¯ ÏĢÎµ
ÏĩÎ¹ Îľ
ÏģÎŃ ÏĢÏħ
h ta
ĠÎ¿ÏģÎ´Îµ ÏĮÏģÏĢ
ĠÎµ Î»ÎµÎ¸Î®
Î¹Îµ ÏĥÎ¬
ĠÏĤÎ¿Î¹Î³ ÎĨ
ÏĥÏĮ Îļ
Î®Î»Î¸ Î±ÏĦÏīÏģÏĢ
Ġ0 8
ÏĩÎ¿Ïģ Î²
ĠÎ½ Î¹ÏĢÏĮÏĦ
ĠÎ®ÎºÎ¹ÏĦ Î¹ÏģÎº
Î½Ïİ ÏĨ
Î·Î½ ÏħÎº
ÏħÎ¼ Î±
Î½Î¬ÏĢ Ïĥ
Ïħ ÎĽ
ĠÏĤÎ¬Î¼ Îµ
ÏīÎ½ Îĵ
ĠÎĳ ÎļÎĻ
Î¬ÏĦ Î½Î±
ÏħÎ¿ Î½
ĠÎ±Ïģ Î¸ÏģÎ¬
Îº Î¿ÏĢÎ±
ĠÎ½ÏİÏĦ Î¹Î»Î¿ÏĢ
Î½ÏĮÎ¸ Î¿
Î¬ÏĦ Î£
ĠÏĤÏīÏģ Î®Î»ÏĢ
ĠÎµÏĦÏĥ Î®Î¸
Î· ÏĮÎ½
Î±Î½Ïİ Î¹Î±
ĠÎ® Î³Î·ÏĢ
re b
Ïį Îł
ĠÎ±Î¯Ïĥ ÎµÎ¸Î¿ÏĢÎ¿ÏĦ
Ïī Î¿ÏģÏĢ
Î±Î» Î·Î»Î»
Î¹ Î§
Î·Ïģ ÏİÏĩ
ĠÏĤÎ· Î¾Î±ÏĦ
.. ...
Ïħ Î±ÏĦÏĥ
ĠÎ¹Î±Î¼ Î¿
Î± Î´Î¬Î¼Î¿Î´Î²Îµ
ĠÎ½ÏħÎ¿ÏĥÏİ Î´
Î¼ Î¹Ïģ
Î® Î³Î²
ÏīÏģ Î®
ĠÎ± ÏģÎµÎ¼
ĠÏĤÎµÏĦ Î½Î¿
Î³Î· ÎºÎ¹Î´
ĠÏīÎ¶Î¯ Î¼Î¿Î½
ĠÎ·Î´ Ïİ
Ġ ÎĴ
Î¹ Î½Î±
ĠÎ® ÏĦÎµ
ÏĨÎ¿Ïĥ Î¿Î»Î¹ÏĨ
Î±Î» Î±Îº
ĠÏĤÎ¿Ïģ ÏĮ
ĠÎ¬ÏģÎ¿ÏĨ ÏĥÎ¿ÏģÏĢ
Î¾Î± Î¤
ĠÏĤÏīÏĢ Î®Îľ
ĠÎ¹Î´ ÏįÎ¿Î³Î±ÏģÏĦ
Î¸ ÏĥÎ¹Î±
swe n
ĠÏĮÎºÎ¹ Î½Î·Î»Î»Îķ
ĠÎ¿ÏĢ ÏīÏģÎ¸Î½Î¬
Î´Î¯Î»ÎµÏĥ Î¿ÏĦÏĥÎ¹
ĠÎ·Ïģ Î·Î»ÎºÏĮÎ»Î¿
ĠÎ¹ Î¶
Î±Î»Îµ ÏģÏĦ
ÎµÎ¼ Î¬Î½ÏħÎ´
Ïİ ÏĨ
Î³ÎŃÎ» Î¹ÏĢÎµ
ĠÏĤÎ±ÏĦÎ½Î¿Î½ Î¬Îº
ĠÏħÎ¿Î¯Îµ Î³ÏģÏħÎ¿ÏĢÎ¥
ĠÏħÎ¿ Î»Î»Î¬
ĠÏĮÎºÎ¹ Î½ÏīÎ½Î¹Î¿Îº
Ïĩ Ïį
ÏĩÎŃ ÏģÏĦ
ÏĤÎµ Î½
ÏįÎ¿ Îļ
Î½ Ïħ
ĠÏģ ÎµÏĢ
ĠÎ· Î´Î¯
ĠÏĤ á½
ĠÎ¯ÎµÎ¸ ÎµÏģÎ²
ÏĥÎ¬ Î»Î±Î¸
ĠÎ¹ÎµÏĢ ÎŃÏģÏĦÎ¹ÏĢÎµ
or P
Î¹ Î±Î¹Î´
ĠÏī ÏĪ
Î·Ïĥ Î¯ÏģÎº
ĠÎ¹Îµ ÏĨ
9 002
Î±ÏĦÎ·ÏĦÏĮ ÎºÎ¹ÏĦÎ±Î¼Î³Î±ÏģÏĢ
ĠÏħÎ¿ÏĢ ÏįÎ¤
ĠÏĤÎ·Ïĥ ÏīÎ½ÎĪ
Î¹ÏĥÏĦ ÎŃ
Î±Î½ ÎµÎ¼
ĠÏĤÎ¿ Î¹Ïĥ
ĠÏĤÎ±Î¯Îµ Î¸ÏħÎµ
ĠÎµÏĦ Î½Î¬Îļ
Î¹ ÎŃ
ÏĦÏĥÎ¹Î½ÏīÎ³Î±ÏĦ ÏīÏģÏĢ
ĠÏĤÏİ ÏĩÎµÎ½ÏħÏĥ
ĠÎ»Î¬Î² Î¹ÏĦÏĥÎµÎ¦
ĠÎ± Îľ
ÏĤÎ¿Î» ÎŃÎ¤
Ïį Î±Î¸
ĠÎ½Ïī Î½ÎµÎ¼
ĠÎ·ÏĥÏħÎ»Î¬ Î½Î±
Î± ÎµÎ¸
Î±ÏĢ Îķ
Î±ÏĦ Î½
ĠÎµÏĦÎ¯Îµ ÏĦ
ĠÏī ÏĥÏİ
p ma
ĠÎ® Î»Î±Îļ
ĠÎ¬ÎºÎ¹ÏĦ Î¹Î»Î¿ÏĢ
Î½Î¿Î»ÎµÎ¸ Îµ
Î¶ ÎŃ
ĠÎ·Ïĥ Î·Î»Îº
ĠÏĤÏħÎ¿ ÏĪÏį
Î½Î±Ïĩ Î·Îľ
Ġ5 3
ĠÏį Î¿Î»
ĠÎ±Î¯ Î±ÏĦÏħÎµÎ»ÎµÎ¤
Î»Î± Î³
ĠÎ¬ ÏĦÏĥÎ¹
n E
ÎºÎ¹ Î±Î½ÏħÎ³
ÏħÎ¿ Îľ
ÎµÏĦÎ½Î¯ ÎĴ
ĠÏĤÎ¹ÎµÏĥÏİÎ»Î·Î´ ÎºÎµ
ÏĮÎ¼ Î¿
Î¬ Î£
ĠÎ¯Îµ Î³ÏģÏħÎ¿Î¹Î¼Î·Î´
Î± Îĵ
ĠÎ·ÏĥÏī ÏĦ
ÏĩÎŃÏĦ Î¹Î»Î»Î±Îº
Î£ Î¥
ÏĤÎŃ Î³Î¿Î»ÎºÎµ
ÏĤ ÎµÎ¼
ÎŃÏģ Î¹Î±
Î¿Î¹ÏģÎ·ÏĦÏĥ Î±ÏģÎ´
Îĳ ÎĴ
ĠÎµÏĦ ÏįÎŁ
ÏĤ Î±Î¹
ĠÎ¹ÎµÏĥ ÎŃÎ¸
ÎºÎ¹ ÎĶ
ĠÎ·ÏĥÏī Î¯ÏĦÎ»ÎµÎ²
ĠâĢ Ķ
ĠÏħÎ¿Î³ÏĮ Î»Î»ÏħÎ£
ĠÎ¹Îµ ÏģÎŃÎ¾
Î¯ Îľ
ĠÏĤÏħÎ¿Ïģ ÏİÏĩ
ÏĤ ÏİÏĩ
ĠÏĤ ÏįÎ¿ÎºÎ±
Ïİ Î»Î±Îº
ĠÎ±Îº Î·Î¸
Î¹ Î±Î²ÎµÎ²
ÏģÎŃ Îļ
ĠÏĤÎµÎ½ÎµÎ¼ÏĮ ÏĢÎµ
ĠÎ±Ïģ Î´ÎŃ
Î±Î¯ Î½Î±Î¼ÏģÎµÎĵ
Î±Ïģ ÎŃÎ¼Î·
Î·ÏĦ ÏģÎ±
ÏģÎ±ÏĢ Ïħ
ÏħÎ¿Î»Î¿Îº Îĳ
ĠÎµÎ¼ÏħÎ¿ ÏĩÎĪ
ÏįÎ¿Î½ Î¹Îº
Î±Î½Ïİ Î³Î±
D I
ĠÎ½ÏħÎ¿ ÏģÎ¬ÏĢ
ÏĨÏĥ Î±Î¹Î´
ĠÏħÎ¿ÏģÎ´ ÎŃÎ¿ÏģÏĢ
ĠÎ±Î¯ Î½Î·Î¼Î¿ÏģÎµÎ¼Î·
ĠÏİ ÏĦÏĥÎ¹ÏģÎ±ÏĩÏħÎµ
Ġ ÏĦÏĥ
ĠÎ¹Î±ÏĦÎµ Î½Î¬Î²Î¼Î±Î»
Î¸Ïģ ÎĨ
ĠÏĤÏħÎ¿Î¼ ÏĮÏģÎ´
ÏħÎ³ Î³Îµ
ĠÎ¹Î¿Î½ ÎµÎ¼
ĠÎ¹ÎµÎ³ ÏįÏĨ
ĠÏįÎ¿ÏĨ Îĳ
Î¹Î± ÎĿ
ĠÏĤÎ¿Î´ Î¬Î»Î»Îķ
n U
Ġs a
Ïį Î±Îł
ĠÏĤÎ® Î»Î·ÏĪÏħ
ĠÏĤÎ±Î¯ÏĦÎ¹Î± Î¾Îµ
ĠÎ®ÎºÎ¹ Î»ÎµÏĦ
pu S
Ïģ Î±ÏĦÎ±Îº
Î¬ÏĦ ÏĢÎµÎ»
Î¹Î¿ÏĢ Î¿Î»Ïħ
ĠÎ±Î¯ Î»ÏħÎ¿Î²
ĠÎ¿Ïģ Î·Î»ÎºÏĮÎ»Î¿
Ïĥ Îĳ
ĠÎ¿ÏĦ ÏħÎ±
Î¿ ÏĩÎµÎ¹ÏģÎµÏĢ
ĠÏĤÎµÎ´ Î¬ÎºÎµÎ´
Î§ Îķ
ĠÎ®Î» Î¿ÏĦÏĥÎ¹ÏĢÎµ
ĠÎ¯ÎµÎ¸ Î¿Î´
ĠÎ±ÏĦ ÏĮÎ½Î¿Î³ÎµÎ³
ÏįÎ±Î» Î¿ÏĢÎ±
ĠÎ¬ÎºÎ¹ Î»Ïħ
Î±Ïģ Îļ
ÏĩÎ¯Îµ Î´
Î¹Î´Î¯ Î½ÏĩÎ¹Î±ÏĢ
ĠÎ±Î½Ïİ Î¹Î±
ĠÎ½Î±ÎºÎ·Î¸ ÎŃÏģÎ²
Îĳ Î£
ĠÎ®ÎºÎ¹ Î»
ÏĤÏħÎ¿ Ïģ
ÏĦÏĥÎ¹Î½ÏīÎ³Î±ÏĦ Î½Î±
ĠÎ·ÏĥÏī Î½Î¬Î³ÏģÎ¿
ĠÎ¿Î¯Îµ ÏĨÎ±ÏģÎ³
Ïī Î¹ÎµÎ¼
Î¯Î´ Î¹
ĠÎ®Ïĩ Î¿ÏĥÎ¿ÏģÏĢ
Î·ÏĢ ÏįÏĦ
Î¹Î´ ÏģÎŃÎº
Î¹Ïĥ Î¤
âĢ¦ [
ĠÏĮÎºÎ¹ÏĦ Î¿Î¼Î·ÎĶ
Î³Ïģ Î±ÏĦÎ±Îº
ĠÎ·Ïĥ ÏİÎ½Î³
ÏĤÎ±Î¯ Î»
Î³Î· Î¿ÏģÎł
ĠÎ¬ Îº
ĠÎ±Î¹Î¿Î½ Î½ÎŃ
g ir
Î¿ÏģÏĦ Î·Îľ
ĠÏīÏģÎŃÏĦ Î¹Î±ÏģÎµÏĢ
ĠÏĤÏħÎ¿ Î¤
ĠÏĤÏĮÏģ Î¹Î±Îº
ÏħÏĦÎºÎ¹Î´ Î±Î¹Î´
Î¬ÏĦ Î½ÏħÏĥ
ĠÎ¹ Î³
ÎķÎľ ÎĹ
Î³Î³ ÎŃÏĥÎ¿ÏģÏĢ
Î¿Î´ Î¿ÏĦÎ±Î¼Î·ÏģÏĩ
Îĵ Îķ
ĠÏĮÎºÎ¹ Î½Î¸Îķ
ĠÎ·ÏĪ Î¹ÎµÎ»Î»ÎŃ
ci M
ÏįÎµÎ´ Î¿Î½ÏħÏĥ
Î³Î¿Î»Î¿Î½ ÏĩÎµÎ¤
ÏįÎµ ÏĪ
ÎºÎ±Î¹ÎµÏģÎµÏĨ Î¹ÏģÎµÎł
Î¹Î¾ ÎµÎ´
Î³ÏħÏĨ ÏĥÎ¿ÏģÏĢ
ĠÏĤÎ® ÏĦÏĥ
Ïī ÎµÎĺ
ĠÏĤÎµ Î¶ÎµÏĢÎ¬ÏģÏĦ
ĠÎ¹Î¿ ÎºÎ¹
Ġe i
ÏĤÎ¿Î» ÎŃÏĦ
ÏħÎµÎ´Î¹Î±ÏĢ ÎºÎķ
ĠÎ¹ÎµÎ½Ïİ Î»Î·Î´
Î» Î²
Î® ÏħÎµÎºÏĥÎ±ÏģÎ±Îł
Ġt a
ÎºÎ¹ÏĦÎ±Î¼ ÏĥÎµÎ»ÎµÏĦÎ¿ÏĢÎ±
ĠÎ¹Îµ ÏĩÎµ
ĠÎ½Ïİ Ïĩ
Ïģ Î´
ÏħÎ¼ Î¬
ĠÏĤÎ¹ÎµÏĥÎ® Î½Î¹Îº
ĠÎ½ÏīÎ½ÎŃÎ¼ Î¿Î¶Î±Î³ÏģÎµ
ĠÎ¯ÎµÎ¸ ÎµÏĦ
Î»Îµ Î³
Î± Î¦
Î¬Ïģ Î¹Î¿Î¼
ĠÎ·ÏĥÏī ÏĢÏįÏĦ
Î· ÏģÎ±Ïĩ
ĠÏĤÏīÏĢ Î®Î¼
ĠÎ¿Î¹Ïģ ÏįÎº
ĠÎ±Î¹ ÏĥÎ®
Î¯ Îĳ
Î¶ Îµ
ĠÏĤÎŃ ÏģÎ¿Î³Î±
Î½ÏīÏĨÎ¼ ÏħÎ£
9 3
Î¿Ïģ ÎºÎ³ÏħÏĥ
Î»Î¿Î² ÏģÎµÏĢÏħ
Î½Î®Î»Î»Îµ Î½Î±Îł
ĠÎ±ÏĦ Î¹ÎµÏĢÎŃ
S A
Î¯ÏĦÎ±ÏģÎº Î¿Î¼Î·Î´
ÏĤÎ·Ïĥ Î·ÏĦ
Î¸ Î¬Î¼
N A
ÏģÎŃÏĨ Î±Î¹Î´Î½Îµ
ÏīÏĨ ÏģÏĮÎ¼
ÏħÎ¿ ÏĨ
Î¹Î± ÏģÎµÏĦ
Î½Î¯Î¼ Î±ÏĦ
ĠÎµÎ¼ÏħÎ¿ Î½Î¯
ÎŃ ÏĢÎ¼
ÏĦÏĥÎ± Î¹Ïĥ
Î¿ ÎĶ
Î³Î±Î»Î» Î±Î½ÏħÏĥ
Ïį Î»Î±Î½Î±
ĠÎŁ ÎĻ
4 4
ĠÎµ Î³Î®ÏĢ
ÏįÏĥ Î¿ÏĦÏĥÎ¹
Î±Î¼ Î·Î»Î²ÏĮÏģÏĢ
ÎĹÎĽ ÎĽÎķ
Î·ÎºÏĥ Î¬
ĠÎ½ ÏĮÏģÎ±ÏĢ
ĠÎ·Î¼ Î·ÏĥÎ¯ÏĢÎµ
ĠÎµÏĪ Î±ÏģÎ³ÎŃ
ĠÏĤÎ·Ïĥ Î±ÏĦÏĥÎ¬ÏĦÎ±Îº
Ġe ro
ĠÎ¹ÎµÎ¶Î¯Ïģ ÏīÎ½Î³
Î½ ÏįÎ¿Ïģ
ÏĤ Î±Î»
ÏĢÎ¿ Î¤
Î¯ Îļ
ĠÎ±ÏĦ Î±ÏĦ
Ġe g
Î² Î·
Î¿Î´ Î²
ÏĥÎ¹ ÏĨÎ¼Î±
Î¬ÏĢ Îľ
ĠÎ¬Î¹Î» Î±ÏĢ
Î³Î· Î½Î±ÏĢ
ĠÎ· ÎºÎ¹ÏĦ
ĠÎµÎºÎ·Î¸ Ïĩ
ĠÎ±ÏĦ Î±ÏĨÏĥÏĮÏģÏĢ
S E
ÎºÎ¹ ÎŁ
ĠÏħÎ¿ Î³ÏĮÎ»
Î¿ÏĨ Îµ
Î½ÏĢ Î±Îº
ĠÏĤÎ±Î¯ Î´
ĠÎµÏĦ Î¾
ĠÏĤÎ±Î¹Îµ Î³ÏģÎŃÎ½Îµ
Î±Î¼Î³ Î¹ÎµÎ´Î¬ÏģÎ±ÏĢ
ÏĤ Î¯ÎµÎ¼
Î¹Î´ ÏĮÎ¼ÏģÎ±
ĠÏħÎ¿Î¯Îµ Î³ÏģÏħÎ¿ÏĢÏħ
Î´Î½Î± Î»
ĠÎ® Î¿Ïģ
ĠÎ¬ÎºÎ¹ ÏĢÏīÏĥÎ¿ÏģÏĢ
ĠÏĮ Î³ÏģÏħÎ¿ÏĢÏħ
Î»ÎµÎ³Î³ Î±ÏĦÎ±Îº
ÏĢ ÏįÎļ
ĠÏī Î¶
mo C
ÏįÎ¿Ïģ Î±ÏĢ
ĠÎ·ÏĥÏħÎµÎ´Î¯Î±ÏĢ ÎºÎµ
Î¿ÏĦ Î£
Î¿ÎºÎ¿Ïĥ Î¿ÎĿ
ĠÎµÏĥ Î±ÏĦÏĨÎŃ
Î¹ Î±Îļ
ĠÎ± Î³
ĠÎ£ Î¥ÎŁ
Î·Ïĥ Î¬Î¹Î´
c ne
Î¹Îµ ÏĪ
3 0
ÏİÏģ Î·Î»ÏĢÎ¼ÏħÏĥ
ÏĨ Ïī
ĠÏĤÎ¯Îµ ÏģÎ¿ÏĨ
Î¿ÏĦ Î±Î²
ĠÎ¹Î±ÏĦÎµÎ¶Î¯ Î½Î±ÏĨÎ¼Îµ
ĠÎ·Î¾ Î¹ÎµÎ´
Ïī Î¹Î´
ĠÏĮÏĦ Î±Î½ÏħÎ´
Î»Î¬ Îľ
ÏįÎ¿Î¼ ÏĥÎ¹ÏĦ
ÏĮÏģ Î³Î±
Î¹Î±ÏĦ Î½Î¿Î½
ÎºÎ±Î¼ Î¿ÏĢÎ±
ÏİÎ¹Î´ Î¹ÏĢÎµ
Î®Ïĩ Î¿
Î³ÏģÏħÎ¿ ÏģÎ¹ÎµÏĩ
ĠÏĤÏī ÎµÏĥ
Î¹Îµ ÎŃÎ»
Ïģ Î¤
ĠÎ±Ïģ ÏĢÎ¯ÏĥÎ¤
ÏĤÎ· ÏĪ
ÏģÎ¿ÏĢ Î¿ÏģÎµÎ±
ĠÏĤÏīÏĥ ÎĬ
ĠÎ¹Î±ÏĦÎ½ Î¿ÏĦ
x i
ÏĦÏĥÎ¹Ïģ Î¹Î±ÏĨÏĥÎ¿Î´Î¿ÏĢ
Î·Î» ÎµÎ¼
ÏĢÏħ Î¾ÎŃ
ĠÏĤÏİ ÏĦÏĥÎµÎ¸Î±Îº
Î¿Î³ Î·ÏĦ
ĠÎ¬ÎºÎ¹ÏĦ ÎµÏģÎ¿ÏĨÎ±Î¹Î´
ĠÏĤÏĮ ÎµÎĺ
ĠÏĤÎ¿Î» ÎŃÎ¤
ĠÏĤÎµÏģ Î´Î½Î¬
Î® Î¸Î±Îº
ÏĮ Î¹Î´
Î¯ÎµÎ»Îº Î¿ÏĢÎ±
ÎµÏģ ÏĦÏĥ
O C
Îł Îľ
Î³Î·Î´ ÎŁ
ÎĿ ÎĳÎł
ĠÎµÏĦÎ¿ÏĢÎ®Î´ Î¿Î¹Î¿ÏĢÎ¿
ÎºÏģ Î±Î½
Ġgol b
Î±Î¹ Î³ÏĮÎ»
ĠÎ±Î¯ ÏĨÎ·ÏĪÎ¿Î¹ÎµÎ»ÏĢ
Î¿Î¹Î» Î²Î¹Î²
Î¬ ÏĥÏĦ
Î¿Î» ÎµÎł
Î½Î± ÏĨÎ±Î¾Îµ
ĠÎ·ÏĥÎ·Î¸ ÏĥÎ¯Î±
ĠÎ®ÎºÎ¹ÏĦÎ±Î¼ Î³Î±ÏģÏĢ
ĠÎ·Î½ÎµÎ¼ ÏįÎ¿Î³Î·Î¿ÏģÏĢ
ĠÏī ÏįÎµÏĦÏĥÎ¹ÏĢ
Î²Îµ Î½Î±
Î½Î¬ Î¹Î³
Î»Î¹Îµ ÏĨÎ¿
ĠÏĤÎ± Î¯ÎµÎ´Î¹Î±Îł
ĠÏĤÎ± Îľ
Î¿Î½ Î³Î±
Î¬ÏĦÎ½Î¿ÏĦ Î±ÎºÎµ
ĠÎµÏĥ ÏīÎ´
ĠÏĮÎ¼ ÏĥÎ¹ÏĦ
ÎºÏĥ Î·ÏģÎ¸
Î¸ Ïħ
ÏģÏĦÎ± ÎµÎ¸
Î³ÏħÏĨ ÏĥÏĮÏģÏĢ
ĠÎ·ÏĥÎ·Î¼ Î¯ÏĦ
ĠÏħÎ¿Î¯Ïģ Î·ÏĦ
ĠÎ¹Î»Î¬ ÏĨÎµÎº
Î±Ïģ ÎĴ
ĠÏįÎ¿ Î³ÏģÏħÎ¿ÏĢÏħ
Î®Î´ Î±Î»Î·Î´
ĠÏĤ Î¿ÏĦÏĥ
ÏĤÏĮ ÎºÎ¹ÏĦ
ÏħÎ¿ÏĦÏĥÎ¹Ïģ Î§
Î¿ ÏħÏĦÎºÎ¯Î´
Ġ moc
Ġo t
ĠÏħÎ¿Î¼ ÏĮÎ½
ĠÎµÎ¼ Î¬
ĠÏĤÎ±Î½ ÎŃÎ¸Î±Îº
Î±Î¯ Î½ÏīÎ½Î¹Î¿Îº
ĠÎµÏĦÏĮ Î¤
ri A
ĠÎ¬ÎºÎ¹ Î½ÎµÎ³
Î¹Î´Î¹ Î½ÏĩÎ¹Î±ÏĢ
ĠÎ¿Î¯Îµ ÏĥÏħÎ¿Îľ
Î½ÏīÎ³Î±ÏĦ Î½Î±
Î¬Î¹Î´ ÏģÎ±Îº
ÏĦÏĥÎ¹ Îł
ĠÎµÎ²Î±Î» ÎŃ
Î½Î±Ïģ Îº
ÎŃ Ïĩ
Î±ÏĢ ÏĥÎŃ
ĠÎ±Î¯Îµ Î»Î¿ÏĩÏĥ
ÏħÎ¿ Î²Î¼ÏįÏĥ
Î¿Î´ÎµÏĢ Î¯ÏĢÎµ
Î»Îµ ÏģÏĦ
ĠÎ½Î¿Î¹ Î¿ÏĢ
Î¹ÏĦ Îº
ĠÏĤÎ±Î½ Î·Î»Î»ÎĪ
Î¿ÏĨÎ± Î´ÎŃ
Î¿ Î¸
ÏĥÎ® Î½
ÏįÎ³Î³ÎµÎ» Î·Î»Î»Î±
Î» ÏħÎ¿ÏĢ
Î² Î¯Ïģ
ĠÎ® Î³Î¿Î»Î»ÏħÏĥ
ĠÏĤÎ¬Ïģ Î¿Î³Î±
ÏĩÏĮÏĦ Î£
Î¹ÏĨÎ®ÏĪ Î¿ÏĢÏħ
ÏģÏĮ Î³Î±
Î¬Ïģ ÎºÎ¹ÏĢÎµ
. âĢĿ
ÏįÏĥÎ¿ÏĦÏĥÎ¹ ÏĢÎ¼Îµ
ĠÎ¹Î¿Î» Î¯ÏĨ
Ġnoi ta
ÏİÏĦ ÎºÎŁ
ÏģÎ¿Î³ Î·ÏĦÎ±Îº
Î¹Ïģ Î±ÏĩÏħÎµ
ĠÎ¿Î½ Î¯ÎµÎºÎµ
ÎŃ ÏĩÎ£
ĠÎ¿ ÎŃÎĿ
Î±Î½ Î·Î¸Îĳ
Ïį ÎĽ
ĠÎ½Ïİ ÏģÎ¿ÏĨ
te n
Î¿Î¹Î´ ÏĥÎ¿ÏģÏĢ
Î¹ÏĦ ÎºÎµ
ÏħÎ±ÏĦ Î£
Î¿Î½ ÎŃ
Î·Ïĥ ÎŃÎ¸
ĠÏĤÎ¹ÎµÎ¾Î¬ÏĦ Î±Î¹Î´
ÏĤÏħÎ¿ÏĢ ÏİÏģÎ¸Î½Î±
ĠÎ·Î¾ Î¬ÏĦ
ÏħÎ¿Î»ÏĮ ÎºÎ±
Î½Î¿ÎŃÎ»ÏĢ Î¹ÏĢÎķ
Î¿Ïĥ ÎµÎľ
ĠÎ±ÏĦÎ±Î¼Î®ÏĦ Î·Î¶
ĠÏĤÎ±ÏģÎŃÏĦ Î±ÏĢ
ÏĩÏįÏĦ ÎµÏĢ
Î¹ÎµÎ» ÏİÏĢÎ±
ÎĻ Î¦
ÏĦÏĥÎ¹ÏĦ Î±Î¼
ĠÎ½ Î±Î²Î±Î»
Î½ÎŃÎ¸ ÏĥÎ±
4 0
ĠÎµ Î³ÎµÎ»ÎŃ
ĠÎ¿ ÎºÎ³
ĠÎ·Î¼ Î®Î½Î¼
ĠÏĤÎ·Î½ ÎµÎ¼ÏĮ
ĠÎ¹ ÏĢÎ¼
Î±Î¼Ïĥ ÎµÎ»ÎŃÏĦÎ¿ÏĢÎ±
ĠÏĤÏī Î¯
ÎŃÎ¼ Î·Î½Îķ
Îº Î¿Î´
Ïİ Î³Îµ
ĠÎµÏĥ ÎµÏĢÎŃ
ĠÎ±Î¯ÎµÏĦ Î±Î»ÏĢ
Î¯Îµ ÏĦÏĥ
ĠÏĤ Î¹Î»ÏĮ
Î½ÏĨÎ± Î¾
2 3
ĠÎ¬ÏģÎ¿ÏĨ Î¹ÏģÎµÏĢÎ¼ÏħÏĥ
ÏħÎ¿ ÎºÎ¬
ĠÏĤÎ· Îº
ĠÎµÏĥ ÏįÎ¿Î»
Ġ ÎŃÏĦ
ĠÎ¹Î¿ Ïĥ
ĠÏĤÎµÎ¹Îµ Î³ÏģÎŃÎ½Îµ
edi V
ĠÏī ÏĥÎ¬
ĠÏĤÎ¿ ÎŃÏģÏĩ
Î±Î¸ Î±Î¼
ĠÎ¿Î¯Îµ ÏĩÎ¹Î¿ÏĦÏĥ
e s
ĠÎµÎ¼ÏħÎ¿ÏĢ ÎŃÎ»Î²
Î½Î±ÏĦ Î®
ĠÎ±ÏģÎŃÏĦ Î±ÏĢ
ĠÏīÏĢ ÎŃÎ»Î²
ÏħÎ¿Î¯Ïģ Î²Î¼Îµ
ÏħÎ»Î¬ ÎºÎ±Î½Î±
Ġ hc
ĠÎ± Î¾
ĠÎ±Î¹ ÏĦÏĮ
Î»ÎµÎ³Î³ Î±ÏĥÎ¹Îµ
liam e
ĠÎ¯ÎµÎ¸ Î±ÏĢÏĥÎ¿ÏģÏĢ
ĠÎ¹ÎµÎ¶Î¯ ÏĩÏģÎ±
ÏģÎŃÎ¸ ÏħÎµÎ»Îµ
Ġá¿ ¦
ÎµÎ» Î²
t uo
Î³ÏģÏħÎ¿ÏĦ Î¹ÎµÎĽ
ĠÎ®ÎºÎ¹ Î½ÎµÎĵ
ÏīÏĥ Îķ
ÏħÎ¿Î¯Î» ÏħÎ¿
ÎĿ ÎŁÎ¡
ro P
Î¹Îµ ÏĩÎŃ
ÏħÎ¿ Î½ÏĮÏģÏĩ
Î¹Îµ Î½Ïİ
9 6
ĠÏĤÎ¿Î» ÏħÎ¿ÏĢÏĮ
ĠÎ¹ÎµÏĥÎ¬ Î²
Î·Î½Î¯ ÎºÎ±
ĠÏĮÎºÎ¹ Î³Î¿Î»
Ïħ ÎºÎ³
Î¿Ïģ Î·Î»Îº
ci p
Î±Î¯ ÏĥÎ±Î³ÏģÎµ
Î½Î¬Î¼ Î¹Î»
ÏįÎ¸ÏħÎµ ÏĢÎ±
ĠÎ½Ïī Î³ÏģÎŃ
Î·Ïĥ Î¿Î½
Ġ Î¯Ïģ
ÏĥÏİ Î¡
Î·Î¸ÏįÎ¿Î» Î¿ÎºÎ±
ÎµÎ½Î± Î½Î±
ÏĤÎ· ÎºÎ¬
Î´Î¿ Î¾ÎŃ
ĠÎ±ÏģÎµÏĦÏĥ Ïį
ĠÏĤÎ¹Îµ ÏĥÎ¯Î¼Î¸ÏħÏģ
Î¬ Î³ÎµÎľ
Î½ ÎŃÎ»
ĠÎ± ÎºÎ¹ÏĦ
ÏħÎ´ Î¬ÏģÎ²
Î»Î»Î¬Î² Î¹ÏģÎµÎł
ĠÎ¿ Î½Î·Î¼
Î½Î±ÏĢ Îķ
ÏĢÏīÏĥÎ¿ÏģÏĢ Î¹ÏĦÎ½Î±
ĠÎ¹ÎµÏĥÎ¬ Ïĩ
ÏĥÎ¬ Î½Î±ÏĢÎµ
Î¯Î¼ Î¿
ĠÎ¹ÎµÎ½Î¯ Î±Î²
ĠÏĤÎµÏĦÏĥ Î®ÏģÏĩ
Î½ÏīÎµ ÏĥÏİ
ĠÎ± ÏģÎµÏĥÏĥÎŃÏĦ
Î±Î¹ ÏĦÏĥÎµ
ÎĹ ÎŁ
Î¹Ïģ Îļ
ÏįÏĥÎ¿Î¹ Î±ÎºÎ¹Î´
ĠÎµÎ¼ ÏįÎ¿ÏĢ
ĠÏĮÎºÎ¹ ÏĦÏĥÎ¹
Î¸Î® Î¿Î²
ĠÎµÎ¼ ÎŃÎ»
Î½Î¹ Î¿Îļ
ĠÏĤÎ¿Î¸ ÎµÎ³ÎŃÎ¼
Î±Î¼ ÏħÎµ
Î¹Îµ Î§
ĠÎ¹Îµ Î³Î²
Î¹ÏĦ Î¹ÏĢÏĥ
ÏħÏĦ ÏĢÎ±Î½Î±
Î± Î»Î»Î¬
Î·Ïĥ Î¿Î´
ĠÎ½Ïī ÎŃ
ĠÎ¬Î¹ÏĦ ÏīÏĨ
Ġ W
Î·ÏĦÎ¹ Î±Î¹Î´
ĠÎ½Î¬ Î³Î¿ÏĦÎ½ÏģÎķ
ĠÎ¹Îµ Î²Î¬Î»Î±Î½Î±
ĠÎµÎ¼ ÏįÎ¿Î»Î±Îº
ĠÏĮÎºÎ¹ ÏĥÎ±Î²
ÎºÎ¹Î´ Î±
d ro
ÏħÏĦ Ïĩ
ĠÎ¿Î½ÎµÎ¼ ÏįÎ¿
ĠÎ®ÎºÎ¹ ÏĥÏħÏĨ
ÏħÎ¿ Î¯Ïĥ
ÎŁ ÎĶ
ĠÎ· ÏģÏĮÎº
Î¶Î¬ Î¹ÎµÏģÏĩ
ĠÎ¿Î´Î¿ Î¾ÎŃ
e no
ĠÎ±Î¯Ïģ Î¹Î±ÏĦÎµ
ÏĤÎµÏģ ÏİÏĩ
ĠÎ¹ÎµÎ¶Î¬ Î¹Î¿Î¼
ĠÎ¬ÏģÎ¿ÏĨ Î±ÏĦÎµÎ¼
Îº Î·Ïĥ
Î±Î¹Îµ Î¸Î®Î»Î±
Ġo i
ĠÏĤÎŃÎºÎ¹ Î½Î·Î»Î»Îµ
ĠÎ± ÏĪ
ĠÎ¿ÏĦ ÏįÎ¿ÏĦ
Î²Î¼ÎŃ ÎºÎµÎĶ
na r
Î´Îµ Î¿ÏģÏĢ
o i
Î·Î¸ ÏĥÎ¹Î±Î½ÏħÏĥ
Î® ÏĩÏģÎ±
Î½Ïī Î»
Î¿Î½Î± Î²Î¼Î±Î»
Ġ ÎŃÏĨÎ±Îº
ÏģÎµÏĦ ÏīÏĥÎķ
ĠÎ±Î¯Îµ ÏĨÎ±ÏģÎ³
ĠÏĤÎ®Ïĩ Î¿ÏĦÎµÎ¼Î¼ÏħÏĥ
Ġ: .
Î»Î»Î±ÏĦÎµÎ¼ ÎºÎµ
ĠÎ½ÏħÎ¿ ÏįÎµ
ĠÎ¹ÎµÎ½Ïİ Ïģ
Î· Î³Î±ÏĨ
ĠÏĤ Î±ÏģÏĦ
ĠÎ±Î¹Î´ ÏįÎ¿Î³Î±ÏģÏĦ
Î·Î» ÏĮÏĢ
ĠÏĤÎµ Î¹
ĠÎ·ÏĥÎ·Î¸ Ïİ
Ġ Ìģ
Î±Î¯Îµ ÏĩÎ¹Î¿ÏĦÏĥ
Î¹Î¾Î±ÏĦ Î½ÏħÏĥ
ÏįÎµÏĦ ÏīÏģÏĢ
ĠÏī Î´
Î¹Ïģ Î¹Î±ÏĦ
ĠÏĮ Î±Î»
Ġ. ...
ĠÎ±ÏĦ Î½Î¿
ĠÏĤÎµ ÎŃÎ´Î¹
ĠÎ®Ïĥ ÎµÎ¸
ĠÏĤÏħÎ¿ÏĦ Î¬ÏģÎº
ĠÏ ĥ
ĠÎµÎ¾ Î¹ÎµÎ´ÎŃ
ĠÏĤÎ± Î¹Ïĥ
Î»ÏĮ Îº
ĠÎ· ÏģÏĦÎ®Î¼Î·ÎĶ
Î¸ ÏīÏģÎł
ĠÎ¹ÎµÏĥÎ® Î³Î·Î´Î¿
ĠÎ·Ïĥ Î±ÏģÏĨ
ÏįÎµÎ¼ ÏĥÎµÎ´
ĠÎĳ ÎĶ
Î§ Î£
ĠÏĤÎ¯Îµ Î½ÎµÎ¸ÏĥÎ±
ĠÎ®ÏĨÎ¿ÏģÏĦ Î±Î¹Î´
ĠÎ¬ ÏģÎ±Î²Î¿Ïĥ
ĠÎ± ÎŃÏģÎ±ÏĢ
Î¿Ïģ Î³Îĳ
Î± Î¶ÏĦ
ĠÎµÎ¼ Î¬ÏĢ
Î± ÎŃÎĺ
ĠÎ¿ ÏĨ
ĠÎ±Î¼ Î¿ÏĦÎ½ÏįÏĥ
Î¹Î¼ Î¿Î½ÏħÏĥ
Î®Î´ Î¿ÏĥÎ¹Îµ
ĠÏĤÎ±Î½Ïİ Î³Î±
Î±ÏĦ ÏĦ
Î¿ÏģÎµ Îĳ
Î¸ Î·Î¼
Î½ Î¹ÏģÎº
ÏĤÎ±Î½ Î®Î¸Îĳ
Î·Ïĥ ÏħÎµ
ĠÎ· Î½Î¯
ĠÎ¹ÎµÏĥÎ® Î³ÏģÏħÎ¿Î¹Î¼Î·Î´
Ïī Î»ÏĢÎ¹Î´
Î±Ïģ Î¿
l p
á¿ ¶
Î¼Î¿Î½ Î¬ÏģÎ±ÏĢ
Ġ5 4
Ġe moH
Ïħ ÎºÎ³Îµ
ĠÎ·ÏĦ ÏħÎ»ÏĮÏĢÎ±
ÏħÎµÏģ ÎĪ
ĠÏĤÎ®ÏĦ ÏħÎµÎ»ÏħÎ¿Î²
ÏĢÎµ Î»ÏĮ
ĠÏĤÎ¹Î»ÏĮ Îľ
ĠÎ±ÏĥÏĮ ÏĦ
ĠÎ¹Î¿Î½ÎµÎ¼ÏĮ Î¶Î±Î³ÏģÎµ
Î¿ÎºÎ¹ Î´
ĠÎ½ÏīÎ¯Îµ ÏĩÎ¹Î¿ÏĦÏĥ
Ïħ ÎºÎ±
ĠÎ¹Î±ÏĦÎ¯Îµ Î»Î±Îº
ĠÎ¯ Î±Îº
ĠÎ±Î¯Î» Î¹Î¼Î¿
Î¬Îº Î³Î±Î½Î±
ĠÏĤÎµ ÏĦÏĮ
ĠÎµÏĥÎ·Î» Î¯Î¼
ĠÎ¹Î¿ Î³ÏĮÎ»
Î¾Î¬ Î¹ÏĦÏĨ
ÏĤÎ¬Î¼ Îµ
Î±Îº ÏģÏħÏĢ
Î³Î¿Î»Î¿Î¹Ïĥ ÏħÏĨ
ĠÏī ÎŃÎ»
ĠÎ¹Î¿ Î¹Î¿Îł
ÏĤÎµÎ¯ ÏĨÎ±ÏģÎ³Î¿ÏĦÏīÏĨ
ÏĤÎ· ÏĢÏİÏģÏħÎķ
ĠÎ¹Îµ Î´Î¯Î´
ÏĩÎŃÏĦ ÎµÎ¼Î¼ÏħÏĥ
Î¬ Î»Î»Î¿ÏĢ
ĠÎ·ÏĪÎµÎºÏĥ Î¯ÏĢÎµ
ĠÎ±Î¯ Î³Îĳ
Î½ÎŃ Î²
ĠÎ® Î½ÏīÏĨ
Î¯Îµ Î³
Î±ÏĦÎ±Î¼ ÎŃÎ¸
ĠÎµ Î½Î±Î¸
we N
ĠÎ±Î¯Ïĥ ÏīÎ¡
ĠÎ¹Î±ÏĦÎµ ÏįÎµÏģ
Î¹Î¿ÏĢÎ¿ Î³ÏģÎµÎ½Îµ
Î¯ Î½Î±
ĠÎ·Î¾ ÏģÎ±ÏĢÏį
ÏĤÏī Î¼
ĠÏĤÎ±ÏĦÎ·ÏĦÏĮ Î¹Î¿ÏĢ
ÎµÎ¸ Î¿Î¹Ïħ
ĠÎ±ÏĦ ÏħÎ»ÏĮÏĢÎ±
ĠÎ¿ÏĦ Î¯ÏģÏĦ
ĠÏĤÎ®ÎºÎ¹ Î´
ÏħÎ´ Î½ÎŃ
ĠÎ±ÏĥÏħÎ¿ Î¸Î¯Î±
ĠÏĤÎ±Î¯ÎµÎ¸ÏħÎµ ÏĢÎ±
Î¿Ïĥ ÏĦ
ÏįÎ¿ ÎºÎ¹ÏĦ
Î¿ Î¯ÎµÎ¼
ĠÎ¹ Î½ÏĮ
ĠÏī ÏĥÎ¯
Î»Î» Î¿Îº
ÏįÏĥÎ¿Î¹ Î±ÎºÎ¹ÎĶ
Î±Î»Î·Î»Î» Î¬ÏģÎ±Îł
Î² ÏİÏĦÎºÎŁ
k S
ĠÏĤÏīÏĦ ÏįÎ»Î¿ÏĢÎ±
Î¬ Î¹ÎµÎ»ÏħÎ¿Î´
ĠÏĤÎ± Î»
Î¿Îº ÏħÎµ
ÏģÏĮ Î¥
e nil
ÏĢÎµÏģ ÏĢ
Î½Î¿ÏĦ ÎºÎµÏĦ
ĠÎ½ÏħÎ¿ÏģÎŃÏĨ ÏĥÎ¿ÏģÏĢ
Î·Î» Î¿ÏĩÏĥÎ±
Î¿Î¹ ÎĴ
ĠÎ±Î¯ Î±ÏģÏī
ĠÏĤÎµÎ¯ Î½Î¹Î±ÏĦ
Ġ koobecaF
Ġ Î¾
Ïħ Îĺ
Î½ Î¹ÎµÏĦ
ÏīÎ» Î·Î´
Î¹Î´ ÏħÎ¿Î³Î±ÏģÏĦ
ÏĥÏĮ ÏĢÏħ
ĠÎµÏĥ Î±ÏĩÎŃ
ÏģÎŃÏĨ Î±ÏĦÎ±Îº
ĠÎ¯ Î¿ÏĦÏħÎĳ
ĠÏĤÎŃÎºÎ¹ÏĦ ÎµÏģÎ¿ÏĨÎ±Î¹Î´
ÏĢÎ¼ Î±Î»
ÎŃ Î²
Îĵ Î¡
ÏĥÎ¬ ÏĨÎ¿ÏĢÎ±
li a
Îµ Î»ÏĮ
Î½Îµ Î³Î³ÏħÏĥ
Îµ Î³Î³
ĠÎ¹ÎµÎ¶Î¯ Î¾Î±
Î·Î¸ ÏĥÎ¯Î±
ĠÎ± ÏĥÎ¬
ĠÎ½Ïİ Î»Î»Î¿ÏĢ
ÏĢÏī Î¹Ïĥ
E L
ĠÏĤÎ±Î¯ Î¿ÏĢÎ¿
Î½Ïİ Î¹Î±
Î»Îµ ÎĴ
ĠÏĤÎ±ÏĦÎ½Î¿ Î¶Î¯Ïģ
Î²Î¼ÎŃ Î¿ÎĿ
ĠÎ±Î¼ Î·Î»
ĠÎ¬Î¹ Î¸Î±Î²
ĠÎ®ÎºÎ¹ ÏģÏĦÎ½ÎµÎº
Î³Î¿ ÎĽ
Î¯ÏĦ Ïĩ
ĠÎ¿Î» ÎŃÏĦÎ½Î¿Î¼
ĠÎ±Î¼Î·Î»Î¸Î¬ÏĦ ÏīÏģÏĢ
Î®ÎºÎ¹ÏĦ Î¹Î»Î¿ÏĢ
Î¹Î±ÏģÎµÏĦ Î¿ÏģÏĢ
ÏĥÎ¹Ïĩ Î¬Î»Îµ
ĠÏĤÎµÎ¹Îµ Î¸Î¬ÏĢÏĥÎ¿ÏģÏĢ
ĠÎ·ÏĥÎ·ÏĦ ÏİÏģÎµ
ÏĦÎ·Î¶ Î±Î½Î±
ĠÏĤÎµÎ¯Ïģ Î¿Î³Î·ÏĦÎ±Îº
ĠÎ¹ÎµÏĥ ÎŃÎ»Î±ÎºÎ¿ÏģÏĢ
Î»ÎµÏĦ Î¿ÏĢÎĳ
Î¹Î±ÏĨ ÏĥÏĮÎ¼
Î¿ÏĦ Î±Î½Îĳ
ĠÎ¹Îµ Î²
ĠÎ¯Îµ ÏĦÏĥÎ¹Ïģ
Î¸ ÏħÎ±
ĠÎ¬Î³ Î¹Ïĥ
ÏģÎ¿ÏĢ Îĳ
ÏĮ Î´Î¿
ÏģÎµÎ¾ Î®
Î· Î¤
ĠÎ¿ÏĦ Î±ÏĦ
Î·Î¸ÏĥÎ¹Î± ÏħÎµ
ĠÎ¹ Ïĥ
ÏħÏģ Î´
ÎºÎ¹ÏĦ Îķ
Î¹Îµ Î¶
Î±Î³ Î±Î¼
ĠÎ¿Î¯ Î´ÎµÏĢ
ĠÎµÏĥ Î·ÏĨÎ¬
ÏĥÎŃ ÏģÎ±
ĠÎ½ÏħÎ¿ÏĩÎŃ ÏĦÎµÎ¼Î¼ÏħÏĥ
ĠÏĤÏħÎ¿ÏĦ ÎŃ
Î¬Î¹ Î½Î¿ÏģÏĩ
ÏģÎ¿ Î²
ĠÏī Î»ÎŃÎĺ
Î³ÏģÎŃ Î¹Î»Î»Î±Îº
Î³ÏĮ Î¼
Î½Îµ Ïģ
Îĳ ÎĶ
ĠÏİ ÏĦ
ĠÏĤÎ±Î½ Î®Î¸Îĳ
Î¹Î´ Î±
e g
ĠÎ· Î³
d no
ĠÎ¹Î±Î¼ Î¿Ïĩ
ÎļÎŁ Î£ÎĳÎł
ĠÏĤÎ¹ÎµÏĥ ÏįÎ»
Ġe ta
Î±Î» Î±ÏĢ
ĠÏĤÎŃÏĦ ÏħÎµÎ»ÏħÎ¿Î²
Î¹Î¿Î¼ Î±
ÎµÏģ Î¹Î±Ïĩ
ĠÎ½ÏħÎ¿ Î¶Î¯ÏģÏīÎ½Î³
Î£ ÎĹÎ¤
ÎŃÏģÏĩ Î¿ÏĢÏħ
ĠÎ·Ïĥ ÎŃÎ¼
ÏĨÎ¿ Î£
Ïį Î¦
ĠÎ½ Îķ
ĠÏĮ ÎºÎ±Î¹Îµ
Î¬ÏĦ Î½Î±ÏĨ
ĠÏĮ ÎºÎ±Îº
ĠÏħÎ¿Ïģ ÏİÏĩ
ĠÏĤÎŃ Î³Î·ÏĢ
ĠÏĤÎ±Î¯Ïĥ Î±ÏĦÏĥÎ¿ÏģÏĢ
Î¿Î³Î·ÏĦ Î±Îļ
Î½Î¿Î»Î»Î±Î² Î¹ÏģÎµÏĢ
ÎĳÎĽ ÎĽÎķ
ĠÎ® ÏĪ
ĠÎ® Î½Î¹ÏģÎµÎ¼Î·Î¸Î±Îº
Î¬ ÎĽ
ÎµÏĦ ÎºÎµ
ÏĢÏħ Î»
ĠÎ±Ïĥ ÏĥÎ±Î»Î¬Î¸
Î·Î»Î»Î¬ ÏĢÏħ
Î£ ÎŁÎ¡Îł
ĠÏĤÎ¿ÏĢ ÏīÏĥÏĮÏģÏĢÎºÎµ
Î½Î±Îº Î·Î¸
ĠÎ¬ÎºÎ¹ ÏģÎ¿ÏĨ
ÎĽ Îļ
Î³Î± Î»Î»Îĳ
Ïī ÎºÏģÎ±Î½
Ġd i
ĠÎµÎºÎ·Î¸Î®Î½ Î½ÎµÎ³
ĠÎ·ÏĥÎ¿Î´ Î¬ÏģÎ±ÏĢ
ÏģÎµÏĨ Î±Î¹Î´Î½Îµ
ĠÎ¬ÏĦÏĥ ÏīÏĥ
ĠÎ½ÏīÎµÏĥÎ® ÏĦ
ĠÎ¬ÎºÎ¹ Î»
Î±Ïĥ ÎŃÎ¼
ÏīÎ»Î®Î´ ÎºÎµ
ĠÎ½ÏĮ ÏĩÏħÏĦ
ĠÎµÏĥ Î¹Î¼
Îĳ ÎŁ
ĠÎ®ÎºÎ¹ Î´Î¹Îµ
ÏĢÎ¿ÏĦ Î½Îµ
ĠÎ·ÏĦ Î¯ÏģÏĦ
Î¯Ïģ Îļ
ĠÎ·Ïĥ ÏİÏĦÏĢ
ĠÎ±Î¼ Î¯Î»Îº
l C
ÎŃÏĦ Î½Î±
ĠÎ·Î» Î¿ÎºÏĥÏįÎ´
ÎĽ ÎĽÎĳ
ĠÏĤÎŃ ÏĦÏĥÎ¹
ÏĥÎ¹ Î³Î¿Î»
Î¬ Î§
ÏĨÎ»ÎµÎ´ Î±
ĠÎ·Ïĥ ÎµÏģ
Î¹Î±ÏĨÏĥÏĮÎ¼ ÏĦÎ±
ÎĵÎŁ ÎĽ
ĠÏĤÏĮÎ¼ ÏĥÎ¹ÏĦ
ĠÎ½ÏħÎ¿ÏĥÎ® ÏĦ
Î¹ÎµÎ³ Î±Î¼
Î± Î¯ÏĦ
ÏģÎµ Ïĩ
Î¯Ïģ ÎĴ
ÏĦ Î£
ÏĩÎŃÎ´ Î¿ÏĢÎ±
Î¹Î±Î» Î±Îł
Î±Î¼ ÏĮÎºÎ±
ĠÏĤÎŃÏģ ÎºÎ¹Î¼
Ġ f
ÎºÎ¹ Î¿Î½Î±
ÏĢÏħ Î¾
ĠÎķ Î¤Î£
Ġk ca
s si
ĠÏĤÎ· ÏĢÏİÏģÏħÎķ
ÏİÏģ ÏĦÏĥ
ĠÎ·Ïĥ ÏįÏĨ
ĠÏħÎ¿ ÏįÏĦÎºÎ¹Î´
Î¿Î´ ÎµÎĶ
Ġ0 7
ÏģÎ¿Î³ Î®ÏģÎ³
ÏİÏĦ ÏĢÎ¼ÏħÏĥ
Ïī ÏĢÎ¿
ĠÏħ Î»Î¿ÏĢ
Î¹ÏĦ ÎºÎ±
Î¯Ïģ ÏīÎ½
ĠÏįÎ¿ÎºÎ¹ Î½Î·Î»Î»Îķ
ĠÎµÏģÎµÏĨ ÎŃ
Î£ Î¥ÎŁ
Î·ÏĢÏįÏĦ Ïĩ
ÏĤÎµÏģ ÎŃÎ¼
Ġ00 3
Î»Îµ Îº
t ce
Î± Î±
ĠÎ±Î¼Î·ÏĦ Î¯Î±
ĠÎ¯ Î¿Î½
Î¯ ÎºÏģÎ±Îº
ĠÎ¬ÏĦ ÏĢÎµ
Î± ÎµÎ½
Î¬ Î¹Ïĥ
ĠÎ®Î» ÏĢÎ±
ĠÏĤÎ®ÎºÎ¹ Î½Î¸Îµ
Î¸ ÏģÏĮ
Î½ÏħÎ¿Î¼ Î¼Î¿Îº
Î»Î» ÏħÏĨ
ĠÎµÏĦ Î½Î¬Îº
Î¬ Î¡
Î³Î¿Î» Î¿Î¼Î¿
ĠÏĤ ÏįÎ¿Îº
Î®ÏĦ Î·Î½Î¹Îº
ĠÏĤÎŃÎºÎ¹ÏĦ Î½Î±Î¼Î·Ïĥ
Î·Ïĥ ÏīÏĦÏĢÎ¯ÏģÎµÏĢ
Î¿ÎºÎ¹ ÏģÎµÏĢ
Î·ÏĦ ÏĥÎ¹ÏĢÎķ
ÏģÎŃÏĨ Î¹ÏģÎµÏĢ
rg a
ĠÎ¹ÎµÎ¸ Î»ÎŃ
Î±Î¼ ÏĥÎ¹
ĠÏįÎ¿ÎºÎ¹ Î´
ÎŃ Î¹ÏĢ
tso p
ĠÎ¹Î±ÏĦÎ¯Îµ Î¹Î¿ÏĢÎ¿Î¼Î¹ÏĥÎ·ÏģÏĩ
ĠÎ¿ÏĢÏħ ÏĦ
ĠÎ·Ïĥ Î±Î¯ÏģÎ´ÎµÎ½ÏħÏĥ
ÎºÎ±ÏĦ ÎºÎŃ
ÏģÎ¿ÏĨ ÏīÎµÎ»
Î£ ÎĻÎķ
Â» .
Î½Î± Î½
Î³ ÏħÎ£
ÎķÎ¤ ÎĿÎĻ
ĠÎ±ÏĦÎ·ÏĦ ÏĮÏģ
Î¹Î±ÏĨ ÏĥÏĮÎ´
ĠÏĤÎ±ÏĦÎ½Ïİ Î¹Î¿ÏĢÎ¿Î¼Î¹ÏĥÎ·ÏģÏĩ
Ïİ Î£
Ïħ Î½
ĠÎ¿Î» Î¿ÎºÏįÎµ
Î´ ÎŃÎ½ÏħÎ£
ÏĨÎ±ÏģÎ³ ÏīÎ¶
Î½Ïİ Ïĩ
x E
Î¹ Î½ÏĮ
ÎºÎ¹ Îķ
Î³ÏģÎµ Î¯ÏģÎµÏĢ
ĠÏĤÎµÏĦ Î¬Î³ÏģÎµÎ½ÏħÏĥ
Ïħ Î±Î¼
Î¯Î´ Î¹Î±ÏĢ
ĠÏĮÎºÎ¹ Î¼Î¿Î½Î¿ÎºÎ¹Î¿
ĠÎµÎº Î·
Î»Î¯ÏĨ Î¿ÏģÏĢ
ÏĦ Î±Î»ÏĢ
ÎºÎ¹ Î¿Î¹Î´
O R
ĠÏĤÎ¯Îµ Î¸
ĠÏĤÎ·Î» Î¬Î³ÎµÎ¼
ÏħÎ¿Î¯Ïģ Î±
Î¯Îµ Î¸Î·
ĠÎ·ÏĥÏī Î»Î¬Î½Î±ÏĦÎ±Îº
ĠÎµÏĥ ÏħÎµ
ĠÎ¹Î±ÏĦ Î½ÎµÎ¸
ÎĻ ÎŁ
ÏĢÎµ ÎºÏĥ
ĠÎ¹Î±ÏĦÎµ ÏĥÏĥ
ĠÎ¹Î±ÏĦÎµ Î½Î¬
ĠÎ±Î´Î¯ÏģÎµÎ¼Î· ÏĨÎķ
ĠÎ¯Îµ Î²Î¼ÏħÏĥ
8 4
T A
ĠÎ½ÏįÎ¿Î¸ ÏħÎ¿Î»Î¿ÎºÎ±
Î½Î¹ Î²
Î¹Îµ Î¾
ĠÎ½ÏħÎ¿Î¼ Î®
ĠÏĤÎµÎ¯Ïĥ Î±ÎºÎ¹Î´Î±Î¹Î´
Î¿ Î¸ÏĨ
ĠÎ·ÏĪ ÏĮÏĢÏħ
ĠÏĮÎºÎ¹Î´ Î¿Î¹ÏģÎµÏĢ
ĠÎ®ÎºÎ¹ ÏĢÎ¿ÏĦ
Ġ X
y o
ĠÏįÎ¿ Î±Î»
s ser
ĠÎ¿ÏģÏĢ ÏįÎļ
ÏĢÎµÎ»ÏĮ ÏģÎµÏĦÏħÎµÎ´
ÏģÎ± Î¸Î¬
ĠÎ±Î¯ÏĦÎµ Î±ÎºÎµÎ´
Î¿Î´Î¿Î½ ÎµÎŀ
Î»Î¿ ÏĩÏĥÎ±
Î ª
ĠÎ·ÏĥÏħÎµ Î»ÎŃ
ÎµÏģ Îł
ĠÏī Î½Î¯
Î¯Î» Î·
Î¬ÏĦ Î±ÏĢ
ĠÏĤÎ¿ Î³Î¿Î»Î»ÏįÎ£
Î¬ÏĦ ÎµÎ¼Î¼ÏħÏĥ
Î¿ÏĨ Î¿ÏģÏĦ
Ġ F
Î±ÏĦ Î¿ÏĢ
ÏħÎµ ÎºÎ¹Î´Î¹Îµ
ĠÎ±ÏĦÎ±Î¼Î®Î¸ Î±Î¼
ÎĽ Î¥ÎŁ
ĠÎ¤ ÎĿÎĶ
ĠÎķÎļ Îļ
e w
Î½Ïİ ÏģÏĦ
ĠÎ¹ÎµÎ¶Î¬ Î»Î»Î±
ĠÏĤÎµÏĦÎ·ÏĦÏĮ Î¹ÏģÎ·ÏĦÏĥÎ±ÏģÎ´
ÏĤÎ·Ïĥ Î·Î½ÏģÎŃÎ²ÏħÎº
ÏħÎ¿ Î¯ÏĦ
Î±Î½ ÏĮ
Î½Î¯ Î±Îº
Î» Î±ÏĦÏĥ
ĠÏĤÎ¿ Î³Î¿Î»
Î½Î¿Î»Î» ÎµÎ¼
ĠÎ¹Î¿ Î¹Î´Î¯
ĠÎ½Ïī Î´Î¯
ĠÎ±Î¼ Î¯Î±
ÏĤÎ¿Î´ Î¬Î»Î»Îķ
Î¬ Î½Î¿Î¼
ÏģÎŃ Îŀ
Î»Î±ÏĦ Î¹
ĠÎ½Ïī Î¯Ïĥ
ÏĦ Î½
ĠÎ¹Î±ÏĦÎµ Î³ÎŃÎ»
ĠÎ½Ïī ÏĥÏĮ
Î±ÏĦÎ±Î¼ Î®Î»Î²Î¿ÏģÏĢ
ĠÎ·ÏĥÏīÏģ Î®Î»ÎºÎ¿Î»Î¿
ÏģÎ¿ ÎĴ
ĠÎŁ Î¡
ÏīÏģÎ·Î» ÏĢÎ±Î½Î±
ĠÎ¯Îµ ÏģÏīÎµÎ¸
ĠÎ·ÏĪ ÎŃÎºÏĥ
ĠÏİ Î½Îķ
ÏħÎ´ Î½Î¹Îº
ĠÎ·Î½ÎŃÎ¼ Î·
8 002
Î¯ Î¿ÎºÎ¹
Î³Î± Îľ
Î ı
ĠÎ±ÏĦÏĥ ÏİÎļ
Î¿ Î³ÏĮÎ»
ĠÏī Î¾
ÎĻÎ¡ ÎŁ
ĠÏĤÏİ Î¹Î»Î»Î±
ÏħÎµÏĦ Î¬Î¼
Î·Î´Î±Îº Îĳ
e ro
Ïİ Î¼
Ġ z
ĠÎµÏĦÎµ ÏĥÎ¯
ĠÎµÎº Î®ÏģÎ²
Î±Î¹Ïģ Î®ÏĦ
Ïĥ Î±ÏĦ
ĠÎ·ÏĥÏīÏģÏĦ Î½ÎŃÎºÎ³ÏħÏĥ
ÏĩÏħÏĦ Î¿ÏĢÎ±
ĠÏĤÎ® Ïģ
Î¿ÏĦ Îº
ÏĥÎ± ÏģÎµÏĢÏħ
m y
ĠÎµÎ»Î¹Îµ ÏĦÏĥÎŃ
ĠÎ·Ïĥ Î±
ÎµÏĦÏĮ ÏĦ
ĠÏĤÎŃ ÎºÎ±
ÏĩÏĥ Î¬ÏĦÎµÎ¼Î¼ÏħÏĥ
ĠÎ½Î±ÎºÎ·ÏĦ ÏĥÎ¬
Ġ Î»Î¬
ĠÎ± ÏĢÎ¹Î¿Î»ÏĮÏĢÏħ
Î¹ Î¿Ïĩ
ÏħÏģ ÎĴ
Î±Î¼ Î³Î¬ÏģÏĢ
ĠÏĤÎµ Î¹Ïģ
Ġ9 002
ÏĤÎµ Î¯Î»
Î¬Î² Î±Î½Î±
ĠÎ¹ÎµÎ¶Î¯Ïģ Î·ÏĦÏĥÎ¿ÏĢÏħ
ĠÏħÎ¿Ïģ ÎµÏĦ
Î½Î±Î¼ Î±ÏģÎ±Îļ
ĠÎ¿ Î»Î±
ĠÎ¿Î½ÎµÎ¼ Î¯ÎµÎºÎ¹ÏĦÎ½Î±
Î¬Î¹ Î½Î½ÎµÎ³
Î·Î» Î±Îļ
ÏĮ Îł
ĠÎ½ÏĮ Î¶ÎµÏĥ
ĠÎ±Î¼Î·ÏĦ ÏİÏģÎµ
Ïħ Î±Î½ÏħÏĥ
Î·ÏĦÎ®Î¶ ÏħÏĥ
ĠÎ±ÏģÎŃ Î±
e B
ĠÎ±Î¼ Î·Ïĩ
Î¹Îµ Î¸
ĠÏĤÎ±Î¯ÏĥÎ±Î³ÏģÎµ Î½ÏħÏĥ
ÎºÎ±Î¹Ïĥ Î±Î³ÏģÎµ
Î´ÎŃ Î½ÏħÏĥ
ĠÎķÎľ Î¥ÎŁ
Î³ÏģÎµ Î¹Î»Î»Î±Îº
Î»Î»Î¬ Î²Î¼ÏħÏĥ
ĠÏĤÎ·Î» Î¿ÏĢ
ĠÎ®Ïĥ Î·ÏĦ
Î½Îµ ÏĢ
ĠÎ¬ÏĦ ÏĨÎµÎ»
ÏĤÎµ Î½Î·Î»Î»ÎĪ
ĠÎ¹Ïģ ÎŃÎ¼Î·ÏĥÎµÎ¼
Î¿Ïĥ ÎŃ
ÏĥÏĮ Îľ
ĠÏĤÎ¿Ïģ Îł
Î»ÎµÏĦ ÎºÎµ
ĠÎ¹ Î½Î¬
Î±Î¹ Î½Îµ
ĠÎ¿ Î¼ÏĮÎ½
ĠÏĤÎ¿Î» Î¬Î³ÎµÎ¼
ĠÎ¬ÎºÎ¹ Î³Î¿Î»
Ġte n
ÏĮÏģ ÎºÎ¹Î¼
ÏįÎ¿ Îł
ÏģÎ±ÏĦ ÎŃÏĦ
ÏĬ Î¿ÏģÎł
Î® Î³Î·Îł
ÏĩÎŃ Î¤
Î¿Î½ Î¿ÏģÏĩ
Î¿Î´ Î½Îµ
ÏįÏģ Î·Îº
Î¹Ïĥ Î·Î»ÏĢ
ĠÏĮÎºÎ¹ ÏģÎ¿ÏĦÏĥÎ¹
ÏīÏģ Îķ
ĠÎ¬ Î¼Î¿Î½
ĠÎ½ÏİÎºÎ¹ ÏģÎµÏĦÏīÎ¾Îķ
ĠÎ·Î¼ÏĮ ÎºÎĳ
Î· ÏĢÎ¬Î³Î±
ÏĢÎ¼ Î±Îº
ÎºÎ¹ ÏĢÎķ
ĠÎ¹Îµ Ïĩ
Î· ÎĿ
ÏĮÏģ ÏĢÎ±
Î¥ Î¤
Ïģ Î±Î½ÏħÏĥ
ĠÎ±ÏĦÎ±Î¼ Î¼
Î· Î½Î¹Îļ
ĠÏĮ ÏģÏĦ
Î·Î» ÎŃÏĦÎ±Îº
Ġ ÎłÎķ
ÏģÎŃ Î²
ÏģÎ± ÎµÎ½
ĠâĨ ³
ĠÎ±Î¯ ÏĥÎµÎ³Î·
Î¿Îº ÏĥÎ¯
ÏĢ Î¿ÏģÏģÎ¿ÏĥÎ¹
ĠÎ·Ïĥ ÎµÎ¯ÏĢ
Ïģ ÎĨ
ĠÎ½ÏįÎ¿ Î¹Î¿ÏĢÎ¿Î¼Î¹ÏĥÎ·ÏģÏĩ
Î·Î¸Î¬ÏĢ ÏĥÎ¿ÏģÏĢ
ĠÎ¹Îµ Î½Î¬ÏĦÏĨ
ÏĢ Î»Îķ
ĠÎ¯ Î¼
Ġ Îĺ
ĠÎ±Î¯ Î³Î¿Î»Î¿Î½ÏĩÎµÏĦ
ĠÏħÎ¿ ÏĨÎ¬ÏģÎ³
ĠÎĿ ÎŁ
Î±ÏģÏĦ ÎŃÎ¼
) :
5 5
Î¹ÏĢ ÏİÏģÎ¸Î½Î±
ĠÎ±ÏĦÎ±Î¼ ÏĥÎ¯
ĠÎ¹ÎµÏĦÏĢ ÏįÎºÎ¿ÏģÏĢ
âĢ¦ âĢ¦
Î½Î¯Î¼Î±ÏĦ Î¹Î²
ĠÏįÎ¿ÎºÎ¹ÏĦ Î¿Î¼Î·ÎĶ
ÏĦ ÎµÎ¼
ÎºÎ¹ Î½Î¸Îµ
ĠÎ±ÏĦÎ±Î¼ Î®Î¼ÏĦ
Î½Î¿ÏĦ Î½ÎŃ
ÏīÏģÏĦ Î½Îµ
Î½Ïī ÎµÎ¾
á½ ·
ĠÏĮ Î»
ĠÎ¬ÎºÎ¹ÏĦ ÎºÎµ
ĠÏĮ ÏĢ
ĠÎ·Ïĥ Î·Î»ÎºÏĥ
Î¬ ÎºÎ¹ÏĦÎ±Î¼
Î¬ÏĦ ÏģÎ¿ÏĢ
ÏĦ Î¹Î»
ĠÏĤÎŃ ÏĨÎ±ÏģÎ³
ĠÏĮÎºÎ¹Î´ ÏīÎº
ÎµÏģ ÏīÎĶ
ĠÎ±Î¯Ïĥ Î·Î»ÎºÎºÎķ
ĠÎ±Î¯Î» Î±ÏģÎ±ÏĢ
ĠÏĤÎ·ÏĦ ÏİÏģÏĢ
ĠÎ¬Î¹ Î¾ÎµÎ´
ĠÏĤÎ±Î½ ÎŃÎ½Î±Îº
ĠÎ· Î¸ÏĨ
ĠÎ®ÎºÎ¹ ÏĦÏĥÎ¹Î½ÏīÎ³Î±
ÏĨÎ¼ ÎŃ
ĠÎ± ÎŃÎ¸
ĠÏĮÎ¼ ÏĥÎ±
ÏħÎµ ÏĢÎ±ÏģÎµÎ¸
Î¹Î» ÎµÎ¼
ÏģÎµ Î´Î±
Î³ÏĮ ÎĽ
Î½Î± Î¹Ïģ
ÏħÏģ Î´Î¹
ĠÎ½Î±Ïĥ ÏįÎ¿ÏĦ
ĠÏĮÎºÎ¹ÏĦÎ±Î¼ Î³Î±ÏģÏĢ
Î½Ïĩ Î¯Ïģ
Î±Îº Î¯Î´
ĠÏĤÎµÎ½ÏĮ Î½Î±Îº
ĠÏĤÏİÏĩÏħÏĦÏĥ ÏħÎ´
Ġ: Â»
ĠÎ·ÏĥÎ¿Î´ ÏĮÏĢÎ±
ĠÎ¿ÏģÏĦ Î±ÎŃÎ¸
ÏĩÏĥ Î¬Îł
ĠÎ±Î¯ÏĥÏħÎ¿ Î¾Îµ
Î¹ÏģÎ¬ ÏĩÏħÎµ
ĠÎ½ÏħÎ¿ ÏģÎŃÏĨÎ±Î½Î±
Ġ Ġ
Î¬Îº Î³
ÎķÎ¤ÎĿÎĻ ÎĴ
ĠÏĤÎ·Ïĥ Î¯ÏģÎº
Î±Î²ÎŃ ÎĴ
ÏħÎµÏĦ Î±ÏĦÏĥÎ¿ÏģÏĢ
ÎļÎĻ ÎĿ
ĠÏĤÎ±Î¯ ÎºÏģÏħÎ¿Î¤
Î¿Î³ ÏģÎŃ
. %
Î¯ ÏģÎµÎł
Î¹Ïĥ Î±ÏģÎµ
ĠÎ±Î¯Ïģ Î¿ÏĦÏĥÎĻ
ĠÎ®ÎºÎ¹ÏĦ ÎºÎ±ÏĦ
ĠÎ®ÏĨ ÏħÏģÎ¿Îº
Ïī Î¯Î´
ĠÎ®ÎºÎ¹ Î½ÎµÎ³
ÏģÎŃ ÏĦÏĥÎ±
ÏĤÎ¹Îµ Î¾Î¬ÏĦ
ĠÎ±Î¯Î»ÏħÎ¿Î² Î¿ÏĦÏīÏģÏĢ
ĠÏįÎ¿ÎºÎ¹ ÏĢÏīÏĥÎ¿ÏģÏĢ
Î½Î¿ Ïĩ
ĠÎ±Î¼ ÏģÏĮÏĨ
Î±ÏĢÏīÏģ ÏħÎµ
ĠÎ£ ÎĳÎĻ
ĠÎ¹ÏĦ Î¬Îļ
Î¯ÏĦÎ±Î¼ Î·ÏĩÏĥ
ÏĤÎ¿Î» ÏħÎ¿ÏĢÏĮ
ĠÏĤÏĮÎ¼ ÏĥÎ±
h o
Î¿ ÎµÎĿ
ĠÎ½Î¿ Î»Î»Î¬
ĠÎ®ÎºÎ¹ ÏģÎ¿ÏĦÏĥÎ¹
Î½ÏħÎ¸ÏħÎµ Î¹ÎĶ
* *
ĠÏĤÎ¿ÏĦ Î½Î¿
Î¹Îµ Î´Î¬
to H
ÏįÎ¿ Î¹
ĠÏĢÎ¼ Î±ÏģÎ¤
ĠÏĤÎ±Î¯ Î³Îĳ
Î±Î¯Îµ Î³Ïħ
ĠÏĤÎ®Ïĩ Î¿ÏĢÎµ
Î½Î±Ïĩ Î±Î»
Î³ÏģÏİ ÎµÎĵ
ĠÎ® ÎºÎ±Î¹Ïģ
Î»ÎŃÎ´ Î±Î½ÏħÏĥ
Î¹Îµ Î¹Î³Ïħ
ĠÏĤÏĮ ÎºÏĬ
Î¹Îµ Î½Î¿
Î±Ïģ Î±Îº
ĠÏĤÎ·Ïĥ Î±Î²
Î®ÏĦ Îµ
Ġy ti
Î³Î³ Î±ÏĦÎ±Îº
Î½Î± Î¹Îĵ
ĠÎ· ÏģÎµÎ¸ÏįÎµÎ»Îµ
ÏħÎ» Î±Î½Îĳ
Î±Î¼ Î¯Î»Îº
ĠÎ±ÏģÏĦ Î½ÏĮÎº
ĠÎ½Ïī Î»Î¬Î³ÎµÎ¼
ÏĮ Î¤
ra P
ĠÏĤÏħÎ¿ ÏģÎ¬Î²
Î±Î¹ Î²
ÎĽÎķ Î¤
ÏĦÏĥÎ¹ÏĦ Î¹Î»Î¿Îł
ĠÏĤÎ¹ÎµÏĪ ÎŃÎºÏĥ
Î½Î±Î¼ ÏģÎŃÎ¸
Îĵ Î¥
ÎºÎµ Ïģ
ĠÎ¹ÎµÏĢ ÎŃÎ»Î²Î¿ÏģÏĢ
Î¿Î½ Î¬
Î®Î½Î¹ ÎºÎ±
Î· Î¿Î½
Î¿ÏĢ Îķ
ĠÏħÎ¿ ÏĩÎ³ÎŃÎ»Îµ
Î¹Î±ÏĦ Î¯Îµ
ĠÎ· ÏĨÏģÎ¿Î¼ÏĮ
Î¼ÏĮ ÏĦ
ÎĳÎ¡ ÎĳÎł
ĠÏĤÎ±Î¯ Î³Î¿Î»
ĠÏĮÎºÎ¹ ÏģÎµÏĦÏīÎ¾Îµ
ĠÎ¿Î¼ ÎµÎ»ÏĮÏĢ
ĠÎ¹ÎµÏĥÎ® ÏģÏīÏĩÎ¿ÏģÏĢ
Î¹Î¿ÏĢ Î¿Î¹Î¾Î±
Î¿ÏĦÏĥ Î¹ÏģÎĳ
Ġe ni
Î¹ÏĨ ÏĮÏģÏĦ
ÏĨ ÏĮ
Î½ Î¹Î»Îº
ĠÎ¿Î¼ Î¿ÏĦÎ¬
Ġenil no
ĠÎ¹Î±ÏĦÎµ Î³Î¬
ĠÎ¿Î´ÎµÏĢ Î®Î³
Ïħ Î½Îµ
ĠÏĤÎ¹Îµ ÏģÎŃÎ¾
ĠÏĤÎµÎ½Î¿Î¼ Î®ÏĦÏĥÎ¹ÏĢÎµ
ÎºÎ¹ ÏĦÏĥ
ÏīÏģ Î®Î»ÏĢ
Î» Îļ
ĠÏĤ ÏįÎ¿ÏĢ
ÏħÎ¿ ÏģÏĦ
ÏĤ Î¬ÏģÎ¿Î³Î±
Î¹Î» Î±
ÏĤÎ® ÏĩÎ¿Î¹ÏģÎµÏĢ
Î³ÏīÎ³ Î±ÏĦÎ±Îº
ĠÏĤÏħÎ¿ Îº
ĠÎ¹Î±ÏĦ Î¬ÏĦ
ÏĤÎ± Î´Î¯
Î·Î½ Î½ÎµÎ³
ÏįÎ¿ ÎĴ
ĠÎ¬Î¼Î¿Î½ ÏĮ
Î½ ÏħÎ¼Î±
Î¯ Î¶Î±Î¼
ĠÏĤÎµ Î¹Î¿ÏĦÎŃÏĦ
ĠÎ±ÏĦÎ±Î¼ Î¼ÏĮÎº
ĠÏĤÎ¿Î½ Î¯ÎµÎºÎµ
uo rg
k o
ĠÎ½Ïİ ÏĦÎ·
ÏĢÎ¼ ÏħÎ£
ÏĦÏĥÎ¹Î» Î±ÎºÎ¹Î´
Î¬ Î¤
ÏĤ Î®Î¼
Î¿Î³Î± ÏĢÎ±
Î½ÎµÎ³ ÏįÎ¿ÏĦÏĥÎ¹ÏģÎ§
ÎµÎ¼ÏĮ Î¹Î»Î¹Ïĩ
Î±Î½Î± Î¸
ĠÎ½ÏīÎµÏĥÎ® ÏģÎ¹ÎµÏĩÎ¹ÏĢÎµ
ĠÏĤÎ¹Îµ Î»ÎŃÎ¸
ĠÏĤÎµÎ´Î¬ Î½Î¿Î¼
ÏĮÏĦ ÎĿ
e ugaeL
ĠÎ¹ÎµÎ½ Î¯ÎµÏĦÎ¿ÏģÏĢ
Î¬ ÏĢÎ±
ĠÏĤÎµÏĦÎ·ÏĦÏĮ ÏĦÎ±Î½ÏħÎ´
Î¯Î» Î¿
Îº Î¿Îº
] âĢ¦[
ĠÎ±ÏĦ ÏĩÏįÎ½
ĠÎ½Î¹ÏĢÏĮÏĦ Î±Îº
ÎºÎµ ÏĢÎµ
5 7
ÎŃÏģ ÏĦÏĥÎ±ÏĦÎ±Îº
ĠÎ¬ÏĦ Î·Î¶
ÎºÎ¯ ÏĢÎµ
ĠÏħÎ¿ÏĢ Î¬Îº
ĠÎ± Î³Î¿Î»
ÏĩÏģÎ¬ Î¼
ĠÏĤÎ±Î¯Îµ Î»Î±ÏĨÏĥÎ±
Î·Î¸ Î±Îľ
ÏĦÏĢ Î¹ÏģÎµÏĢ
ĠÎ¹Îµ Îº
ĠÎķÎľ Îľ
ĠÎ·ÏĥÏħÎµ Î¯ÏĥÎ¿Î¼Î·Î´
ÎĻÎ¡ ÎķÎł
ĠÎ±ÏĦÎ·ÏĦÏĮ Î½Î±ÎºÎ¹
ÏģÎ± Î£
Î¿ÏģÏĦ ÎºÎµÎ»Î·
ĠÏįÎ¿ÏģÎµ Î½
Î³ Î¬ÏĦ
ĠÎĻ ÎĳÎ¤
Î½Î¹Ïģ ÏĢ
Ġ. âĢĿ
ÎºÎ¹Î´ Î¹Îķ
Î¼ Î»Ïĩ
ĠÏĤÎ·Î¾ Î¬ÏĦ
ÏģÏĮ Î¦
ĠÏĮÎºÎ¹ Î»
ĠÎ¬ÎºÎ¹ Ïģ
ĠÎ¹ÎµÏĥÎ¯ ÏĩÎµÎ½ÏħÏĥ
ÏĦÎ± Î§
ĠÏĤÎ±Î¯ Î¾Î±
E R
ĠÎ·ÏĥÎ½ÏħÎ¸ÏįÎµ Î¹ÎĶ
ÏĩÏħ Î¨
Î¯Ïģ Î·ÏĦÏĥ
ÏĢÎ¼ ÏįÏĥ
ĠÎ·ÏĥÎ·Î³ ÏģÎ¬ÏĦÎ±Îº
ĠÎ±ÏĦÎ±Î¼ ÏĮÎ½Î¿
Î¿ÏģÎ´ Ïħ
Î¿ÏĦÏĥÎ¹ Ïĩ
Î½Î¹ Î±Îº
ĠÎ±Î¼ Î³Î±ÏĦ
ÏĦ ÎŃÏĢ
ÏĤÎµÎ´ Î¯
ĠÏĤÎ¹Îµ Î»ÏĮÏĢ
Î¹ÏĦÏĥ Î½ÎĻ
ÏĩÎµ Îŀ
Î¹Î±Îº Î¯Î´
Î¹ ÎºÏĥ
ĠÏĤÏħÎ¿ÏĢ ÏĮÏģÏĦ
ĠÎ½ÏİÏĦ Î·Î¸Î±Î¼
ĠÎµÎ¼ÏħÎ¿ Î¶Î¯Ïģ
ÏĥÎ¹ Î»
ĠÎ±ÏģÎŃÎ¼ ÎĹ
ĠÏĮ ÎºÏĬÎ±ÏĢÏīÏģÏħÎķ
ĠÎ£ Î¥ÎŁÎ¤
Î½Ïī Îº
ĠÎ½Î±Ïĩ ÏģÎ®ÏĢÏħ
ĠÎ½ÏħÎ¿ÏĢ ÎŃÎ»Î²
Î»Î± ÏĨÏĥÎĳ
Îķ Î£
ÏģÏĦÎŃÎ¼ Î±Î½Î±
ĠÎ±Î» ÎŃ
ĠÎ¹Î¿ ÎŃÎ½
Î®Î¸ Î±Î¼
ĠÎ·ÏĪ Î®Î»
ÏħÏĦ ÏģÎ¬Î¼
Î³Ïģ ÏįÎ¿Î½Î¹Î±Îº
ĠÏĮ Î»Î±Îļ
ĠÏĮÎºÎ¹ ÏģÏĦÎ½ÎµÎº
ĠÏħÎ¿ ÎŃÏģÎ´Î½Î±ÏĢÎ±Îł
Ïī ÏģÎ±Î½Î±
ĠÎ® ÎºÎ±Î¹
Î½ÎµÎ¼ ÏħÎ¿
ĠÏĤÏįÎ¿Î¼ Î¸Î±Î²
ĠÎµ Âµ
Î·ÏĦÏĥÎ¹ÏĢÎµ Î½Î±ÏĢ
ĠÎ¿Î¹Î³ ÎĨ
Ïİ Î»
Î± ÏģÎµÏĦ
Î¬ Î¾Îµ
ĠÎ·Î½ ÏĩÎŃÏĦ
ÏĤÏħÎ¿ Î½ÎŃÎ¼
Î³ÏģÎŃ Î½Îķ
Ġd ra
ĠÎ½Î±Ïģ Î®ÏĢ
ÏįÎ¿ Î³
ÎŃÏģÎ·ÏĢÏħ Î¾Îµ
ÎĿ Î¥Î£
ĠÎ½Ïī Î´ÏĮ
re p
ĠÎ¹Î±ÏĦÎµ Î»Î¯ÎµÏĨÎ¿
ĠÎµÏĦÎµ Î½Î¯
Î¿Î½Î±Î²Î¼Î±Î» Î¹ÏģÎµÏĢÎ¼ÏħÏĥ
ÏĥÎµÎ´ Î½ÏįÎ£
l c
ÎµÏģ ÏĦÏĥÎŃ
Î¾Îµ Î»
ĠÎ½ÏįÎ¿ Î³ÏģÏħÎ¿ÏĦÎ¹ÎµÎ»
Ïħ ÎĴ
ÏģÎ±Î¼ Î±
ĠÎµ Î½ÎµÎ¼
Î¿Î¹Î´ Î±Ïģ
Î± Î¹ÏĦÎ¬Î¼
ÏĤÎ· Îº
Î½ÏīÏĦ Î®ÏĦ
ĠÏħÎ¿ÏĢ ÏİÏģÎ¸Î½Î±
h ca
ĠÎĿ Îĳ
Î¹ÎµÎ´ Î±
Î½ÏĩÎµÏĦ Î¿Î³Î¿Î»
Î²Î¼ ÎµÏģÎ±ÏĢ
Î±Î¼Î·ÏĦ ÏĥÎ¬Î¹Î´
ĠÎ±Î¯Îµ Î´
Î¥ ÎĶ
ÏĢÏħ ÏĦÏĮ
ĠÏģ ÎµÎ»
ÎŃÏģÏĦ Î±ÏĦÎµÎ¼
ĠÏĤÎŃÏĦ ÏħÎĳ
s tro
ĠÎ½Î±ÏĦ Î½
Î»Î»Î¬ÏĦÎµÎ¼ ÎºÎµ
ĠÎ½ÏħÎ¿Ïĥ Î¯Ïģ
ÎºÎ±Î´ Î¹Î´
ĠÎ®ÎºÎ¹ÏĦ ÎµÏģÎ¿ÏĨÎ±Î¹Î´
ĠÏĤÎ· Î¤
ĠÎ½ÏįÎ¿Î¸ Ïĩ
Î¼ÏĮ Îļ
Î¿ Î§
ĠÎ±Î½ Î±
Î³Î±Ïģ Îł
Î·ÏĦ Î±Î¹Î´
ĠÎ½Î±Ïĥ ÏīÎ´ÎŃ
ĠÎ¹Î±ÏĦÎ½Î¿Î¶Î¬ Î¹ÎµÏģÏĩ
Î´Î¬Î¼ Î¿Î´Î²
ĠÏĤÎµÎ´ Î¬ÏĦÎ½Î¿ÏĦÎ±ÎºÎµ
ÏģÎ±Î¸Î¬ ÎºÎµÎ¾
ĠÏħÎ¿Î½ Î¿ÏģÏĩ
ĠÎµÏĦÏĥÏī Î»Î»Î¬
Î¿ÎºÎ¹ Î¿Î½
ÏİÎ¸ Î¹ÏģÎµÏĢ
e t
ĠÎ®Ïĥ Ïī
ÎĻÎĽ ÎŁÎł
ĠÎµÎºÎ·ÏĦÏĥ Î¯Ïģ
Î¹Î±Îº Î¹ÎĶ
Ïį Î»Î±Î³ÎµÎ¼
Î¿Î³ Î¿ÏĢÎ±
ĠÎ®ÏĨÎ¿ÏģÏĦÏĥ Î±ÏĦÎ±Îº
Î¯ Î¡
Î³Î¯ Î¿Î½Îĳ
ĠÎ¹Î±ÏĦÎ¯ÎµÏĦ Î¹Î±ÏĢÎ±
Î¹ÏĦ Î¬Îº
Ġs se
ĠÎ¬ Î½Î¹ÎºÎµÎ¾
ĠÏĤÏĮÎºÎ± Î¹ÏĢÎ¼ÏħÎ»ÎŁ
Î¿ÏģÎ´ Î±Î¹Î´
Î¹Ïģ ÏįÎļ
Î»Îµ ÏĨÏī
ÏĤÎµ ÎºÎ¯Î±Î½ÏħÎ³
ĠÎ±Î¯Îµ ÏĩÎ¿Î´Î¿Î½ÎµÎ¾
ĠÎ½ÏİÎºÎ¹ Î½Î·Î»Î»Îµ
ĠÎ¹Î¿ÎºÎ¹ Î¿ÏĦÎ¬Îº
ĠÎ±Î¯ Î½ÏīÎ½Î¹Î¿ÎºÎ¹ÏĢÎµ
ĠÎµÏĥ ÎµÏģÎ¬
ĠÎ½ÏīÎ¯Ïģ Î·ÏĦ
ĠÎ¿Î¹ Îł
Î¸Î± Î³Î±
Î¸ Î½Îĳ
ĠÏĤÎ±Î¹Î¼ Î¸Î¬Î²
Î¯Î±ÏĦ Îµ
ĠÎĹ ÎķÎĶ
ĠÎ±Î¹Îµ ÏģÎŃÏĨÎ¹ÏģÎµÎł
Î½ÏįÎ¿ ÎĻ
Î·Ïģ Î®ÏĦ
ĠÏĤÏħÎ¿ Î´ÏĮ
Î±ÏĦÏĥ Î±Î½Îĳ
ĠÏĤ á¿
ni a
ÏĤÎ±Î¯ ÏĥÏħÎ¿
P S
ÏĥÎµÎ¸ ÏĮÏģÏĢ
Î¬ Îĸ
Ġá½ °
ĠÏį Î¿Ïĥ
Ïį Î±ÏĦÎ£
ĠÏį Î¿Î½Î¹Î¿Îº
Î±ÏĢ Îĳ
Î±Î¼Î¼Î±ÏģÎ³ ÏĮÏģÏĢ
ÎºÎ±Î¹Î´ Î±ÏĦÏĥ
ĠÎ·ÏĥÎµÎ¸ Î¯ÏĦÎ½Î±
ĠÏĤÎµÎ½ ÏħÎµÏģÎŃ
hc s
Î±Ïĥ ÏĥÎ±Î»Î¬Î¸
ĠÏĮ ÎºÎ±Î¹Ïģ
Î¿Ïģ ÎŃ
ÏĨÎ®ÏĪ Î¿ÏĢÏħ
wo dni
ĠÎ·Î¸ Î¬Î»
Ïħ ÎºÎ³ÎŃ
Î½Ïī ÏĢÏİÏģÎ¸Î½Î±
Î¼Î¿ÏĦÎ±Îº ÎµÏĥ
Î¬ÏĦ Î¹Î¿Îº
Î½ÏħÎ¿ Ïĥ
ĠÏĤÎ¿ÏĩÏģÎ±Î¼ Î®Î´
ÏĥÎ¹ÏĦÎ±Î¼ Î¼Î±ÏģÎ³Î¿ÏģÏĢ
ĠÏĤÎµ Î´Î¬Î¼Î¿Î´Î²Îµ
ts nI
Î¼ Î¹ÎµÏĩ
ĠÎ¹ÎµÏĪ ÏĮ
ĠÎ·Ïĥ Î½ÏħÎ¸ÏįÎµÏĦÎ±Îº
Î¯ÏĢ Î¿ÏĦ
ĠÎ±Î¯Ïĥ Î±ÏģÎºÎ¿Î¼ÏģÎµÎ¸
Ġ =
ÎĶ Îĵ
ĠÎ¯ Î¿Î½Î±
Î¿Î³ Î·Ïģ
Î±Î¯ Î½Î¿Î´ÎµÎºÎ±Îľ
ĠÏĤÎµ ÏĢ
ĠÏĤÎ¹ÎµÏĥÎ® Î´Î¹Îķ
h sa
ÏĤÏħÎ¿ Î³ÏĮÎ»
Î¹Î»Î»Î± Îļ
ĠÎ¯ÎµÎ¸Ïī Î¹ÎµÎ¼Î·Ïĥ
ĠÎ±Î¯ÏĦ Î±ÏģÎºÎ¿Î¼Î·ÎĶ
ĠÎ¹Î±ÏĦÎ½Î¿Î¶Î¯ Î½Î±ÏĨÎ¼Îµ
ĠÎ®ÎºÎ¹ Î½Î¿ÏģÏĦÎºÎµÎ»Î·
Î¹ÏĥÎµÎ¸ Ïĩ
Î±Î¼ Î¿ÏĦÎ¬
L A
ĠÎ±Î¯ Î±ÏĨÏħÏģÎ¿Îº
ĠÏīÎ½Î¬ ÏĢÎµ
ĠÎ±Î¼ Î·ÏĥÎ¯ÏĢÎµ
Î¬ÏĦ ÏģÎ¿Î¹Î³
Î·Ïģ Î¹ÎµÏĩ
to ps
ĠÎµÎ½Î¹ÎµÎ¼ ÎŃ
Ïį Îľ
Î± ÎŃÎ½
ĠÎ¿Î´ Î¿ÏĥÎ¯Îµ
Î±ÏĦÎ±Î¼ Î®ÏĦ
ĠÎ¿Î¹Î¼ ÏĮÏģÎ´Î¿ÏģÎµÎ±
ÏģÏįÎ¿ ÏĨ
Î³ ÏįÎ¿ÎºÎ±
Î¿ÏĢÏħ ÏĦ
ĠÏĤÎ·Î¾ ÏħÏĦÏĢÎ¬Î½Îĳ
ĠÎ¹ÎµÎ½ Î®ÏĨÎ±
Î½Ïİ Î¹Ïģ
y al
ĠÎµ ÏĩÏħÏĦ
ĠÏĤÎŃ Î»
ĠÏĤÎ·Î» Î¯ÏĥÎ±ÎĴ
di v
ĠÎ¹ÎµÏĥ ÎŃÏĢ
ĠÎ½ÏħÎ¿ Î»Î¬Î²
ÎŃ Î¶
ÏħÎº ÏģÎŃÎļ
ÏģÎµÏĦÏĥ ÏħÎ¸Î±Îº
ĠÏĤÎ¹Îµ Î¶Î¯
Î·Î´Î±Îº Î±
ĠÏĤÎ® Î½
ÏĤÎ·Î» Î¿ÏĢ
ĠÏĮ Î´Î¿
Î± Î¯ÎµÏĦ
ÏĮÎº ÏĬ
Î® Îł
Ïħ ÎºÎ³ÏħÏĥ
ĠÏħÎ¿ Î»Î»
ĠÎ±Î´ Î¯ÏģÏĦÎ±ÏĢ
ĠÎµÏĦ Î¿ÏĢÎ¬Îº
ĠÏĤÎ¿ Î²
ÏħÎ¿Î´ ÏĮ
ĠÎ± ÏĢÎ¼
ĠÏĤÎ¿Î¸ Î¬Î²
ÏĤÎ¿ÏĦÎ±Î¼ Î®ÏĦÏĥÏħÏĥ
Î¬Ïģ ÏĦÏĥ
Î» Î¬Î¼
ĠÎ½ÏħÎ¿Î½ÎŃÎ¼ Î±ÏģÎ±ÏĢ
ĠÎ±Î¼Î·ÏĦÏĥ Î¬ÏĦÎ±Îº
ĠÎ±ÏĦÎ±Î¼ ÏİÏģÏĩ
Î¿Î´ ÏģÎµÎº
ĠÏĮÎºÎ¹ Î´Î¹Îµ
Ġe ugaeL
ĠÎ®ÎºÎ¹ ÏĩÏģÎ±
ÏĤÎ¿ÏĦ Î¬ÏģÎº
ĠÎ· Ïĩ
Î¹Î±ÏĨÏĥÏĮÎ´ Î¿ÏĢ
ÏĦÏĥÎ¹Ïģ Î±ÏĩÏħÎķ
ĠÏĤÎµÏĦ Î¬Î»ÎµÏĢ
ĠÎ±Î½ÎµÎ¼ Î¯ÎµÎº
Î±Î»ÎµÏģÏĦ ÎµÏĢ
Î®Ïģ Î¹Îµ
ĠÎ¿Î½ÎµÎ¼ÏĮ Î½Î¹Î±ÏĨ
ĠÎµÏĥÏī Î¯ÎµÎ¼Î·Ïĥ
ÏįÎ¿ Î±Î»
ĠÎ·ÏĦ ÏĥÎ®ÏģÏĩ
t c
Î±Î½ Î¿Îľ
ĠÎ¬Î¹ Î»Î»Î±Î¼
na m
ÎĻ ÎŁÎł
Î¿Î½ Îķ
te k
ĠÎ·ÏĦ Î¬ÏģÎº
ĠÎ±Î¯ Î²
ĠÏĮÎºÎ¹ Î½Î¸Îµ
ĠÏĤÎ®ÏĦÎ· Î³Î·Î¸Î±Îº
ĠÏĤÎ·ÏĥÎ¹Ïģ Î¯ÎµÏĩÎ±Î¹Î´
Î¹ Î±Î¯Î´
Î¯ÏĦÎ±Î¼ ÏħÎ±ÏģÏĦ
koobeca f
E C
Î¼Î¹ÏĦ Î¿ÏģÏĢ
Î½Î¹Ïģ ÏīÏĥÎ¿ÏģÏĢ
Î½Ïİ Î¹Îµ
Î½Î±ÏĦ ÎµÏģÎ²
ĠÎ¬ÎºÎ¹ ÏĥÎ±Î²
Î½ÏĩÎµÏĦ Î¹Î»Î»Î±Îº
ĠÏī Î¸
ĠÎ¹Î±ÏĦ ÎŃ
Î¹ÏĦ Î±ÏģÏĦÏĥ
o c
Î¿Î¹Î» Î²Î¹ÎĴ
ĠÎ¿ ÏĨÏģÎ¿Î¼ÏĮ
ĠÎ·Ïĥ Î±Ïģ
se ikooc
Î¿Î¹Ïģ Î®ÏĦÏĥ
Î±ÏģÎ±ÏĦ Î±Î¹Î´
ÎµÎ¼ Î±Ïĥ
Î»Î¬ ÏĨÏĥÎĳ
ÎºÎ®Î¸ Î¿ÏĢÎ±
ĠÏĤÎ¹ÎµÎ¾ Î¯ÎµÎ´
ĠÏĤÎ¿Î¼ ÏĮÏģÎ´
Î¾Î±ÏĦ ÎµÎľ
ĠÎ±ÏĦÎ·ÏĦÏĮ ÏĥÎ¿ÏĢ
ĠÎ·ÏĥÎ·Î¯Î¿ÏĢ Î¿ÏĦ
ÎŁÎ¤ Î©Î¦
Î© Î¤
ĠÎ±Î¹Î¼ ÏĥÏĮÎºÎ³Î±Îł
ĠÏĤÏİ Î½Î±ÏĨÎ¿ÏģÏĢ
d oo
ĠÏĤÎ¿ÏĦÎ±Î¼ Î®Î¼Î¤
Î· ÎĻ
ĠÏģ ÏĮ
Ġt o
ĠÏĤÎ·ÏĦ Î¯Î»Î¿ÏĢ
Î± ÎŃÎ¼Î¿ÏĦ
Ïģ Î¹ÏĢÎµ
ĠÎ±Î¼ Î®ÏĩÏĥ
ĠÎ· ÏĩÏįÏĦ
ĠÎ±Î¹ÎµÎ» ÎŃÏĦ
ĠÏįÎ¿ÎºÎ¹ ÏĦÏĥ
Î»Î± Î¹Ïĥ
Ïħ Î¶
Î®ÏĨ Î±Î¹Î´
ÏĪ Ïħ
ra C
ÏĥÎ¯ÏĢ Î¿ÏĦÎ½Îµ
ĠÎ·Î½ Î¿ÏĦÎ½ÎŃ
ÏĤÎ± Î¯ÏĦÎ±ÏģÎºÎ¿Î¼Î·ÎĶ
na i
ĠÎµÎ¼ÏħÎ¿ Î¶Î¯ÏģÏīÎ½Î³
ĠÎ½ÎµÎ¸ Î®Î´
Î¹ Î±Î²ÎµÎ²Î¹ÏĢÎµ
ĠÏĤÎ¿ ÏĩÏĮÏĦÎ£
) .
ĠÎ·ÏĥÎ· Î³ÏĮÎ»Î¿Î¹Î¾Î±
Î±Ïģ Î¹Î¿Î¼
ĠÏĤÎ¯Îµ Î½Î¸ÎµÎ¹Î´
ĠÏħÎ¿Î½ ÎµÎ¼ÏĮ
ĠÎ±ÏĦ ÏģÏĮÏĢ
Îµ Î½Î¹
ĠÏħÎ¿ Î³ÏģÏİÎ¹Îĵ
Î± Î´Î¬
ĠÏİ Î»Î±Îº
Î¬ÏĦ Î¿ÏģÏĢ
ĠÏĤÎ®ÎºÎ¹ÏĦ ÏħÎĶ
ĠÎµ Î³
ĠÏĮ ÎºÎ±Î¹
ĠÎ¹Î±ÏĦÎµÏĢÎŃÏģÏĦ Î¹ÏĢÎµ
ĠÎ¬ ÏģÎ±Î¸Î±Îº
vi v
á½Ĳ Î±
ÏĤÎŃ ÏĦÏħÎ±
ÏĢ Î¿ÎºÎ¹ÏģÎµÏĢ
ĠÏĤÏįÎ¿ ÎºÎ¹Î´
er B
ÏģÎµ Î»
ĠÏĤÎ® Î½Î¿Î¼
ÏįÎ» Î¿Îº
Î¯ ÏĥÎ±Î²
ÏģÎŃÏĨ Î±ÏĦÎµÎ¼
ÎºÎ¹ Î»Î¹Îµ
Î½Î·Ïģ ÏħÏĢ
ĠÎ¯Î¿Î¼ ÏĥÎ¹
Î·Î»ÏĢ ÎºÎŃ
ĠÏĤÎµÎ¯ Î³Î·Î´Î¿
ĠÎ±ÏģÎµÏĦÏĮ ÏĥÏĥÎ¹ÏģÎµÎł
ĠÎ® Î»Î·ÏĪÏħ
e n
s ne
ÏĮÏģ Î¤
ĠÎ±Î¯ Î¼Î¿Î½ÏħÏĦÏĥÎ±
ÏĦÏĥÎ¹Î»Î±ÎºÎ¹Î´ Î½ÏħÏĥ
Ġ00 4
Î¼ ÎŃ
ĠÎµÏĥÎµÎ»Î¬Îº Î¿ÏģÏĢ
ĠÎ®Î» Î¿ÏĦÎ½Îµ
Î¹Îº ÎºÏĮÎº
ĠÏħ Î¿ÏģÏĢÏįÎļ
uo Y
i m
ĠÎ· ÏĩÏģÎ¬
Î·Î¹Î¿ÏĢ Î¿Î½Î±ÎºÎ¹
ÏĥÎ¯Î¼ Î·ÏĨÎ±Î¹Î´
ĠÎ·Î» Î¿ÎºÏįÎµ
ĠÏĤÎµÏĦ Î½Î¿Î³Î¬ÏģÎ±ÏĢ
Î¯Ïģ ÏĢÎĳ
Î¬ ÏĩÎµÎŀ
ÎķÎł Î¥
Î¹ÏĦ Î½Î±ÏĦÏĥÎ½ÏīÎļ
Î¹Îµ ÏģÎ¿
ĠÎ·Î¸ÏĨ Î®Î»Îµ
ĠÏĤÎ±Î¯ Î½ÏīÎ½Î¹Î¿ÎºÎ¹ÏĢÎµ
Î±Î½ ÏħÎ£
Î±Î¼ Î¼
ĠÏįÎ¿ÎºÎ¹ÏĦ Î¹Î»Î¿ÏĢ
ĠÏħÎ¿Î½ÎŃÎ¼ Î¿ÏĩÎµÎ¹ÏģÎµÏĢ
ĠÎ±Î¯ Î±ÏĩÏģÎ±
Î£Îĳ ÎĴ
r B
ÎµÎ´ Î½Îµ
ĠÏĤÎŃ Î½
ÏħÎ¿Ïģ ÎºÎ³ÏįÏĥ
Î³ Î·Î»ÏĢ
Î·Î»Î» ÏįÏĥ
ĠÎ¯ÎµÏĦ Î¹Î±ÏĢÎ±
ĠÎ½Î±ÏĦÏĮ ÎºÏĥÎ¹ÏģÎ²
Î±ÏĦÏĥÎ¹ Î»Î¬Îľ
Îµ ÏĥÎ¹
Î³Î¿Î» Î¿Î¹Î¾Î±
ĠÎ¿Î½ÎµÎ¼ÏĮ ÏĢÎķ
r re
ĠÎ¯ÎµÎ¸ ÏĨÎ·Î»
ÏħÎ¿Î³ ÏįÎĳ
t nA
ĠÎ±ÏĦ Î½ÏĮ
Î»ÎµÎ³Î³ Î±ÏĢÎķ
ÏĮÎºÎ¹ ÏģÎµÏĦÏīÎ¾Îµ
ĠÏĤÎŃ Î»Î±Îº
e ni
Î®ÏĦÏĥÎ¹ÏĢÎµ Î½Î±ÏĢ
ĠÏĤÎµ Î¹Ïĥ
ÏħÎµÏĦÎ¬Î¼ Î³Î±ÏģÏĢÎ±Î¹Î´
Ïģ ÎĴ
ĠÎ¹ÎµÎ¶Î¬ Î²
b i
Î»ÎµÎ³Î³ Îĳ
ÏįÎ¿ Î²Î¼ÏħÏĥ
Ġel gooG
Î·ÏĩÏĥ Î¬
ÎºÎ³ Îķ
ĠÎ½Ïī Î½Î¯
ĠÏĮÎºÎ¹ÏĦ ÎµÏģÎ¿ÏĨÎ±Î¹Î´
ĠÏĤÎ±Î¯ Î½Î¿Î´ÎµÎºÎ±Îľ
Î²Î¯Ïģ ÎºÎ±
ÎºÏĥ Î¿ÏģÏĢ
Î±Î¹ ÎºÎ¬
Î¹Ïĥ Î¿Î¼Î·ÎĶ
ÏįÎ¿ ÎµÎĺ
ÏĥÎ¬ Î»
d nA
Ïī ÏĥÎ¯ÏĢ
Î¼Î¬ÏģÎ³ Î¿ÏģÎł
se R
Î·Î¶ ÏĦÎ±Î§
ĠÏĤÎ·Ïĥ ÏħÎµÎ´Î¯Î±ÏĢÎºÎµ
Î· Î¨
Î½Î¿ÏģÏĩ Î³ÏįÏĥ
ĠÏĮÏĦÎ· Î½Î¹Îº
ĠÎ±ÏĦÎ±Î¼ Î®ÏĦÏĥÏħÏĥ
ÏīÏĨ ÎŃÎ»Î·ÏĦ
ĠÏħÎ¿Î» Î¬Î³ÎµÎ¼
ĠÏħÎ¿ÏĦ ÏİÏģÏĢ
Î®ÏĢ Î¿ÏģÏĦ
ÎºÎ± Î²
ĠÏĤÎ¿Î¸ Î®Î»ÏĢ
Î¼ Î¼Î±ÏģÎ³
Î±Î¼ Î¼Î±ÏģÎĵ
Ġ pu
ĠÎ· Î½ÏİÎ¶
ĠÏī Î½
Î¬ ÎºÎ¹Î´
ĠÎ¬ ÏģÎ±Îł
e rg
ĠÎ¬ Î¹ÏĥÎ·Î½
Î±Î¼ ÏİÏĥ
ĠÎ¹Î±ÏĦÎ½ÎµÎ¸ Î¯ÏĦ
ÎŁÎ¡ Î¤
Î¡ ÎĳÎł
ĠÎ·Ïĥ Î±ÏģÎ´Î¯ÏĦÎ½Î±
ĠÎ¿Î½ÎµÎ¼ÏĮ ÏĩÎµÎ´Î½Îµ
ĠÎ½ÏħÎ¿Î½ Î¯ÎµÎ¼
Î¹Î¿ÏĢÎ¿ÏĦ Î·Î½Î¹Îº
ÏįÎ¿Ïģ Î±Ïĩ
ĠÎ½ÏįÎ¿Î¸ Î±ÏĢÏĥÎ¿ÏģÏĢ
ĠÏĤÎ¹ÎµÏĥÎ¬ÏĦÏĥÎ±ÏĦÎ±Îº Î³Îµ
ÏĥÎ¬ ÏĦÏĥ
ĠÏĤÎ·Ïĥ Î·Î½Î¯Îº
Î±Ïģ Î¸
Î¹Îµ Î½Î¬Îº
Î¿Î¼ Î¿ÏģÏĦ
Î±Î¯ Î»Î»Î±Îĵ
ĠÎ¿Î¯ÎµÎ¼ Î¿ÎºÎ¿ÏĥÎ¿Î½
ĠÏĤÎ·Î¾ ÎŃÎ»Îĳ
ĠÎ¯Îµ ÎºÏģÎ±
ĠÎ±Î¹ Î»Î¬
ĠÏĤÎµ Î´Î¯Î»ÎµÏĥ
ĠÎ±Î½ÎµÎ¼ÏĮ ÏĢÎµ
ÏĤÎ®ÎºÎ¹ÏĦ ÏĦÎĳ
ÏįÎµÎ½ ÏħÎ´Î½Î¹Îº
Î·ÏĦÏģÎ¬ Î¾Îµ
ÏĨ Î±Îº
ĠÎ½Î±Ïĩ Î¯ÎµÏĦ
6 4
r G
Î¯ ÏĥÏĦ
ĠÎ±Î¹Îµ Î½Î¬ÏĨÎ¹ÏĢÎµ
ÎµÎ¼ÏħÎ¿ ÏĥÎ®
ĠÏĤÎ¿Îº Î®Î¼
ĠÎ½ÏħÎ¿ÏĦ ÎŃÎ¸Î±Î¹Î´
ĠÏĤÎ±ÏĦ Î½Î¿ÏĢ
Î¬ Îĺ
Î¹Îµ Î½
Î¯ÎµÎ» Î±ÏĦÎ±ÎºÎ³Îµ
Î¹ ÎºÎ³
ĠÏĤÎŃÎºÎ¹ Î½ÏīÎ½Î¹Î¿Îº
ĠÎ½ÏħÎ¿ Î½Î¬
ĠÎµÏĦÏĥÎ® Î½ÏīÎ½Î¹Î¿ÎºÎ¹ÏĢÎķ
ÏĤÎ± Î´Î¯Î»ÎµÏĥ
Î® ÏĨÎ±ÏģÎ³
Î·Î¼ Î·ÎĶ
Î±ÏģÏĦÏĥ ÏħÎĳ
ĠÏĤÏħÎ¿ ÎŃÏģÏĩ
ÎºÎ±Î¹ÎµÏģÎµÏĨ Î¹ÏģÎµÏĢ
ĠÎ±Î´ Î¯Îµ
Î½Î±Î¹ÏĦÏĥ Î¹ÏģÎ§
ĠÎ¿Î¯Îµ ÏĩÏģÎ±
Î½Î¬ Îŀ
ĠÎ±Î¯ Î´ÎµÏĢ
ĠÎ±Î¹ÏĦÎ¬Î¼ Î¼Î¿Îº
ÏīÎ½ Î¿Î¼
ĠÎ¬ÎºÎ¹ Î½Î·Î»Î»Îķ
ĠÏĤÎ¿Î¼ ÏĮÎ½
Î±Î½ÎŃÎ¼ Î¹ÏģÎºÎµÎºÎ³ÏħÎ£
ĠÎ®ÎºÎ¹ÏĦ ÎµÎ¸
ĠÎ¹Î¿ Ïĩ
Î¬ÏĦ ÎµÎľ
ÎºÏģ Îĳ
ĠÎ¿ Î¹Î»ÏĮÏĩÏĥ
ĠÎ·Î½Î¿ÏģÏĩ Î³ÏįÏĥ
Î¿ÏĦÏĥ ÏīÎ½Î³
ÎµÏģÏĦÏĥÎŃ ÏĢÎµ
ĠÎ¹Î±ÏĦ Î±ÏĦÏĥÎ¯
ÏĥÏĮÎ¼ ÏģÎ±
Î³Î¿Î»Î¿Î¼ Î¸Î±Î²
ĠÎµÎ´ Î¯Îµ
ÏħÎ»Î¬Îº Î¿ÏĢÎ±
de m
ĠÎ½Î¬ ÎµÏģÏīÎĶ
Î¼Î¿Î½ Î¿Î¹ÏĥÎ¿Î¼Î·Î´
ĠÏĤÎµÎ½ÎŃÎ¼ ÏĥÎ¹ÏģÎ¿
ĠÎ½ÏħÎ¿ Î½ÏģÎ¯Î±ÏĢ
ÏħÎ± Îľ
ĠÏī Î¶Î¬
ĠÎ½ÏħÎ¿ ÎºÎ®Î½Î±
Î¿ÏģÎµ ÎĴ
Îµ ÏĨÎ±
Î¼ÏħÎ¸ Î½Îµ
ĠÏĮÎºÎ¹ÏĦ ÎµÏĩÏĥ
ÏĮ Ïĩ
ÎŁ ÎĿ
ĠÎ± ÏĥÎ¹
ĠÎµ Î¾Î±ÏĦ
Î¯ Î§
ĠÏĤÎ±Î¯ Î½ÏīÎ½Î¹Î¿Îº
ĠÎ¿Î½ÎµÎ¼ ÏįÎ¿Î³Î·Î¿ÏģÏĢ
ÏĤÎ®ÎºÎ¹ÏĦ Î¹Î»Î¿ÏĢ
hP i
ĠÏĤÏĮ Î³ÏģÏħÎ¿ÏĢÎ¥
ĠÎ·ÏĥÏħÎµ Î»
Î¯ÏĨ Î·ÏĪ
ĠÏĤÏħÎ¿ÏĦ Î£
ÏĥÏĥ ÏīÎ»
Î±ÏģÎ² Îķ
ÏĤÎµ Î½ÎŃÎ¼
¸ ÏĦ
ĠÏĤÎ·Ïĥ ÏīÎ¯
ĠÎ±Î¯ Î½Î¿Î´ÎµÎºÎ±Îľ
ÎºÎ¹Î¼ Î±Î½ÏħÎ´
Î±ÏĦÎ½Îµ ÏĢ
Î²Î¬Î» Î²
Î·Î»ÏĮ ÏĩÏĥÎ±ÏĢÎ±
ĠÎ±ÏĦÎ·ÏĦ ÏįÏĩÎ±ÏĦ
ÏĮÏģÏĦ Î±Î¹Î³
Î¸ Î±ÏĦÎ£
Ïħ ÏģÏĩ
Ġe ci
ÏģÎµ Î³ÎŃ
Î¯ÎµÏĩ Î±Î¹ÎĶ
ÏįÎ¼ Î¼
Î¯ Ïĩ
ÎŃ Î³Î³Î±
ÏĤÎ±Î¯Îµ Î³Ïħ
ĠÎ¿Ïģ ÏĦÏĥ
Î± ÎŃ
Î¹ÏĥÏħÎ¿ Î¸Î½Îµ
ÏĨÎ±ÏģÎ³ Î¿ÏĦÏīÎ¦
ĠÏĤÎµÏĦÎŃ ÎºÎ¹ÏĦÎķ
ÏĤÎ¹ÎµÏĥÎ¬ ÏĦÏĥ
ÏĢ ÏĮÎº
ÏĤ ÎµÎ¸
ĠÎ¿Î¹Î¼ ÏĥÏĮÎºÎ³Î±ÏĢ
Î®Î» ÏħÎ¿ÎĴ
Î¬ÏģÏĦ ÎµÏĦ
ĠÎ±Î½ ÏĮ
ÎºÎ±Ïģ Î±Î§
Ïī ÏĥÎ®
Î¿Î¼ ÏĮÏģÎ´
ÏħÎ´Î½ÎŃ ÏĢÎµ
Î¿ÏĢ ÏīÏģÎ¸Î½Î¬
Î¾Îµ Î»ÎŃ
ĠÏ Ĭ
Ġy b
ĠÎ±Î¼ ÏģÎŃÎ´
ĠÎ£ÎŁ Îľ
ĠÎ¹Î±ÏĦÎ½ ÏįÎ¿Î»Î±Îº
Î¾ Î±ÏģÏĢ
Î±Î´ Î¯Îµ
ÎºÎ±Î¹ÏģÏĢÏħ Îļ
ÎĿÎŁ Îľ
ĠÎµÎ¼ Î¬Î»Î¹Î¼
ÏĤÎŃ ÏĦÏĥ
ÏħÎ¿ ÏįÏĦÎºÎ¹Î´
ĠÏĤÎŃÏģÎ¿ÏĨ ÏĥÎ¿ÏģÏĢ
Ġ0 9
ĠÎ±ÏĦ ÎŃ
ĠÎ¹Î±ÏĦÎ¯Îµ Î»ÎµÏĦÎ¿ÏĢÎ±
Î¹ÏĦ ÏįÎ»Î¿ÏĢ
ĠÏĤÎ±Ïģ ÎŃ
ÎºÎ¬Ïģ Îĺ
ÏģÎµÎ¸ ÏħÎµÎ»Îķ
ĠÎ·Ïĥ Î¹ÏĦ
ĠÎ±Î¹Îµ ÏĢÎŃÎ½ÏħÏĥ
Î»ÏħÎ¿ Îº
Î¿Î¹Ïģ Î®ÏĦ
ĠÎµÏĥ Î±Î²
Î½Î¬ ÎºÎ¹
W EN
Ïģ ÎŁ
ĠÎ·ÏĥÎµÎ¸ ÏĮÏĢ
ÏħÎ¿ÏĦ Î®Ïģ
Î»Î¬ Î³ÎµÎľ
Î³ ÏħÏĦ
ĠÎ±ÏĦÎ·ÏĦÏĮ Î¹ÏģÎ·ÏĦÏĥÎ±ÏģÎ´
Î¬ÎºÏĥ Î¿ÏģÎµÎ±
ĠÎ±Î´Î¯ ÏĢÎ»Îµ
Î¹Î´ ÎµÏĩÏĥ
ĠÎ¹ Î½Î¬Î¼Î¹Î»
ĠÏĤÎµ ÏģÎµÏĦÏįÎ»Î±Î³ÎµÎ¼
ĠÎ½Î±ÏĦ ÏĥÎ±Î¼
ĠÎ± ÏĨÏģÎ¿Î¼ÏĮ
Î¬Î² ÎµÏģÎº
ĠÎ¿ Î»Îµ
ĠÎ½ÏħÎ¿ ÏĨÎ¬ÏģÎ³
ÏĮÎºÎ¹ ÎĿ
ĠÎµÏĦÏĮ Îł
Î¿ÏĦ ÏģÎ¿ÏĢ
ĠÎ®Î´Î±Î» Î·ÎĶ
ÎºÎ±Î» Î±Î¼
Ġ ht
ĠÎ· ÎºÎ¯Î´
ĠÎ·ÏĥÎ·ÏĦÏģÎ¬ Î½Î±
ĠÎ±ÏĦÎ·ÏĦ Î¯Î±ÏģÎ±ÏĢÎ±
Î·ÏĦ Î®ÏģÎļ
ĠÎ½Î±ÏĦ Î½Î¿Î½
ĠÎ½Ïİ Î¹Î»
Î² Î¹ÏĢÎµ
Î±ÏĦÎ±Î¼ ÏĥÎŃÎ»ÎµÏĦÎ¿ÏĢÎ±
ĠÏĮ Î»ÏĢÎ±
Î·Ïģ Îĺ
ĠÏģ ÎŃÏĦ
ĠÎ±Î¯ÏĦ Î¹Î±
ĠÎ¿Ïģ ÏįÎ±Î¼
ĠÎ±ÏĦÎ±Î¼ Î®Î²
ÎŃÎ» ÎĴ
d A
ÎµÎ´ ÎµÎ´Î½ÏħÏĥ
vo N
ĠÎ½ÏİÎºÎ¹ Î¼Î¿Î½Î¿ÎºÎ¹Î¿
x a
ĠÏĤÏħÎ¿ ÏģÎµÏĦÏĮÏĥÏĥÎ¹ÏģÎµÏĢ
Ġo ediv
Î±Ïĥ ÏħÎ¿
ÏįÎµ ÏĦÏĥÎ¹Îł
Î¯Î» Î¿Îł
ÏĩÏįÎ¿ Î¹Î¾Î±ÏĦÎ½ÏħÏĥ
Î½Îµ Î½ÏħÏĥ
ĠÎ½ÏįÎ¿Î¸ Î·ÏĦ
ĠÎ®ÎºÎ¹ Î³Î·ÏĦÎ±ÏģÏĦÏĥ
ĠÏĤÎ·ÏĪ Î·Î»
ĠÎ·ÏĥÎ·Î» ÏİÏĢ
ÏĤÎ·ÏĦ Î®ÏģÎļ
p y
Ïħ Î¨
ĠÎ½ÏİÎ¼ ÏĥÎ¹
ĠÎ·Î½ ÎŃÎ»Îķ
ĠÎ± Î»Îµ
ÏģÎ±ÏĢ Îľ
ĠÏĤÎ¹ÎµÏĥÎ® ÏĦÎ½Î±ÏĢÎ±
th gi
Î¹Îµ ÏģÎ§
ĠÎ½ÏįÎ¿ÏĦ Î·Î¶
ÏģÎŃÎ¸ÏħÎµÎ»Îµ ÏĢÎ±
Î®ÏĦÏĥ Î¹ÏĢÎķ
Î´Î½Î± Î»Î»
Î¹ÎµÎº ÏģÎ¬Î¹Î´
ĠÏħÎ¿Ïģ ÏĮÏĨ
Î²Î±Ïģ Îĳ
Ġ Î¶Î¬
9 102
ĠÏĮÎ¼ Î¸Î±ÏĦÏĥ
ÏĤÎµÏĦ Î¯Î»Î¿ÏĢ
ÏįÎ¿ ÏĨ
Ġ Î¡
ĠÏĤÎ±ÏĦÎ·ÏĦÏĮ Î¼
ĠÎµÎ²Î±Î» ÎŃÎ½Î±
ĠÎµÏĦÏĥÎ±Î¼ÏĮ Î¶
Î±Î¯ Î¼Î¿Î½Î¿ÎºÎ¹Î¿
ÎķÎľ Îľ
Î¬ Î½Îĳ
ĠÎ± ÎºÎ¹Î´
ĠÎ±Î½ÎŃÎ¼ Î¼
ĠÎ±Î¯Îµ ÏĦÎ±Î¼
Î±Î½ ÏĮÎºÎ¹Îµ
ÏįÎ¿ÏĦ Î¹Î±ÏĢÎ±
ĠÎ±ÏĦÎ±Î¼ Î®Ïģ
ÏĥÎ± ÏħÎµÎºÏĥÏħÏĥ
Î¯ Î¶
ÏĦÏĥÎ¹Î» Î±ÏĦ
ĠÏĤÎµ Î¯ÎµÏĦ
Ïĩ Î¹Î±
ĠÎĳÎĻ Îľ
ĠÏİ ÏĦÎº
Î¯ Î¿Îº
ĠÏĤÏīÏĦ Î½ÏĮ
ĠÎ± ÎºÏĥ
Î´Îµ Î½ÏħÎ£
ĠÎ±Î¹Îµ ÏģÏĮÎĴ
ÏĤÎ·Ïĥ Î¯ÏģÎº
po C
Îº Îĵ
ĠÏħÎ¿Î¯ Î´ÎµÏĩÏĥ
e T
ĠÎ½Ïİ ÏģÎµÎ¼Î·
Î´ Î±ÏĢÎ¿
Î¬ Î³ÏģÎµ
ÏĤ Î®ÏĦÏĥ
ĠÏĤÎµÎ½ÎŃÎ¼ Î¹ÏģÎºÎµÎºÎ³ÏħÏĥ
ÏīÎ´ Î¿ÎµÎĺ
Îµ Î½ÎµÎ³
Î¬Î» Îł
ÏĤÎµ Î¯Îµ
Î¿ÏĦ ÏĥÏĮ
ĠÎ® Î»Î¿ÏĩÎ£
ÎĻ Îĳ
ĠÎ½ÏħÎ¿Î½Ïİ Ïģ
Î½ ÏħÏģ
ĠÏĤÎŃ ÏĢÎ¿ÎºÎ±Î¹Î´
lo C
Ïĥ ÏħÏģÎ§
Î¿Î¼Î¹Ïĥ Î·ÏģÏĩ
Î¯ Î±ÏģÎ±ÏĢ
ĠÎµÎºÎ·Î¸ ÏģÎŃÏĨÎ±Î½Î±
ÏģÎµÏĦ Î£
Î± Îĸ
Î¸ Î®Î»
Î·Î»Îº Î¿ÏģÏĢ
ĠÎ¬Î» Î¹Îº
ĠÏĤÎŃÏĦ Î·ÏĦÎ¹Î¿ÏĨ
Î´Î¿ Î»Î»Î±
Ġe d
T I
ĠÏħÎ¿ÏĢ ÏĮÏĦ
ĠÎ· Î²ÎŃÎ½ÏħÏĥ
ĠÏī ÏĩÎµ
ĠÏĤÏħÎ¿Î½ÎµÎ¼ÏĮ Î¶Î±Î³ÏģÎµ
ĠÎ½Ïİ ÏģÏīÏĩ
ÏģÎµ Î½Î±ÏĨ
ĠÏĤÎ¿Î» ÏĮÏģ
ĠÏĤÎ±Î¯ Î¼Î¿Î½Î¿ÎºÎ¹Î¿
Î¯ ÎĶ
ÏīÏģ ÏĦÏĥ
ĠÏĤÎŃÏĦ Î·Î½ÏħÎµÏģÎµ
ĠÎ±ÏĦÎ±Î¼ Î®ÏĦÏĥÎ±ÏĦÎ±Îº
ĠÏĤÎµÏĦÏĥ Î¬Î½Î±ÏĦÎµÎ¼
ĠÏħÎ¿Î¯Î» Î²Î¹Î²
ĠÎµÏĪ Î±ÏģÎ³
Ïħ Î¾
ĠÎ±ÏĦ ÏĦÎ®
ĠÏĤÎ¹ÎµÏĥÎ®ÏĦ Î¹Î±ÏĢÎ±
g u
ÎµÏģÎ¯Î± Î¾Îµ
Î¬Ïģ Î±ÏĢÎ±
Î¬Î² Î¿ÏĨ
ĠÎ±Î½ Î±ÎºÎŃ
ĠÎ½Ïİ Îº
ĠÎ±Î» Î¿ÎºÏĥÏįÎ´
ĠÎ¬ÎºÎ¹ ÏĥÏħÎ¦
ĠÏĮ Î½Î±Î¸Î¹ÏĢ
ÏĢÏħ Ïģ
ÏĢÎµ Î½Î±
Î¼ Î¿ÎĿ
Î±Ïģ ÏĢÎ¯ÏĥÎ¤
ĠÏįÎ¿ÎºÎ¹ Î½ÏīÎ½Î¹Î¿Îº
Î¹Î» ÎŃÏĥ
ĠÎ¹ÏĦ Î±Î¹Î³
Î¿Î½ ÏħÎµ
Î±Ïĩ Î±Ïĩ
ĠÏĤÏĮ ÏĦÏĥÏīÎ½Î³
ĠÏĤÎµ ÎºÎ¹
Î¼Î¿ÏĦÎ±ÎºÎµÏĥ Î¹Î´
ĠÏĤ Î¿ÏģÏĦ
ĠÎµ Î»ÏĢÎ¼
Î½Î¬Î¶ Î¿Îļ
ÏİÏĦ ÏĨ
ĠÎ±Î¹Ïĥ ÏįÎ¿Î»ÏĢ
Î±Î¯Ïģ Î¿Î³Î·ÏĦÎ±Îº
Î»Î± ÏĨÏĥÎ±Î¹Î´
ĠÏħÎ¿Ïģ ÎŃÏĦ
ÏĢ Î¹Î»
ĠÎ½ÏįÎ¿Î»Î±Îº Î¿ÏģÏĢ
ĠÎµÏĥ Î¹Î´ÏģÎŃÎº
ĠÎ·Ïĥ Î±ÏģÏĮÎµÎ»Î·ÏĦ
ĠÏİÏĦÎº Î¿
Î® ÎºÎ±Î¹ÏģÏħÎļ
Î¹ÏĦ Î¿ÏģÏĢ
r F
ĠÎ±Î¹Ïģ ÏĦÏĥ
Î¿Î´Î¿ Î¯ÏģÎµÏĢ
ÎŃÏĢ Î¹ÏĢÎµ
ĠÎ¿Î½ÎµÎ¼ÏįÎ¿ Î³Î·Î¿ÏģÎł
ÎºÎ·Î¸ Î¿ÏĢÎ±
Î®ÏĨ Î¿ÏģÏĦ
Î±Î¯ Î»Î±ÏĦÎĻ
Ïİ Î¹Î²
ĠÏĤÎ¿ Î¹ÏģÎ¬
ÏħÎ¿ ÏĥÏĦ
Î»Î»Î¬Î² Î¿ÏĢÏħ
Î· Î½Î¹
á½ ³
ĠÎ¯ÎµÏĦ ÏħÎµ
ÏĨÎŃ Î¾Îµ
Î·Ïģ ÏīÏĩ
Î¬Î¼ Î±Î»Î±Îļ
ĠÏĤÏħÎ¿ ÎºÎ¯Î¿ÏĦÎ±Îº
x o
ĠÏĤÏħÎ¿ ÏĩÏĮÏĦÏĥ
Ïĩ Î¯Î´
Î±Î¼ ÎŃ
ÏĤÏīÎ¼ ÎĮ
Î´ÏħÎ¿ÏĢ Î£
ĠÏĤÏĮ ÎºÎ¹ÏĦÎ±Î¼
ĠÎ¹ÎµÏĥÎ® ÏĦÎ±Î¼Î±ÏĦÏĥ
ĠÏĤÎ¹ÎµÏĥÎŃÎ¸ Î¿ÏĢÏĭÎ¿ÏģÏĢ
ĠÎ¿ Î½Î¹ÎºÎºÏĮÎº
Ïī ÎµÎĵ
ĠÎ¯ÎµÎ¸ Î±ÏĦÏĥ
ĠÎ½Ïī ÎµÎ¼Î¬Î½ÏħÎ´
Ïİ Î½Îµ
Ġá¿¦ Î¿ÏĦ
ÎµÏĦ Î½Î±Ïģ
Î±ÏģÎŃÏĦ ÏħÎµÎĶ
ĠÎ½ÏīÏĦÎ¬Î¼ ÏīÎ¹Î±ÎºÎ¹Î´
Î¬ÏģÎ´ Î¹ÏĦÎ½Î±
Î½Î¹ ÏĢ
ÎļÎŁ ÎĳÎł
ĠÎ½ÏīÎµ ÏĪ
Î±Î¼ Ïī
ĠÎµÎºÎ·Î¸ ÎŃÏĦ
Î²Ïĥ ÎµÏģÏĢ
ĠÎ¬ÎºÎ¹ Î½ÏīÎ½Î¹Î¿Îº
ÏīÎ½Î¬ÏĢ Î±ÏģÎ±ÏĢ
ĠÎ±Î¹ÏĦÎ¬Î¼ ÏīÎ´
Î±ÏĦÏĥÎ± Î½Î±ÏĢÎµ
ĠÏĤÎ®ÎºÎ¹ Î½ÏīÎ½Î¹Î¿Îļ
Î¿Îº Î»Î±
ĠÎ®ÎºÎ¹ ÎºÏģÏħÎ¿ÏĦ
ĠÎ¹ÏĦ ÎĮ
Î±Î¯ Î³Î¿Î»
ĠÏĤÎµÏģÎµÏĦÏĮ ÏĥÏĥÎ¹ÏģÎµÎł
ÏĮÏĦ Î±ÏģÏĦÏĥ
Î¯Î¿ ÎºÎ¹ÏĦ
ÏİÏĦ Î±Îº
Î¿ ÎµÏģÏĩ
na M
ĠÎ± Î¶ÎµÏĢÎ¬ÏģÎ¤
Ïī Î³Î±ÏģÏĦ
Î¬ÏĦÏģÎ¿ÏĢ ÎµÏģ
Î±Î¹Îµ ÏģÏĩ
ĠÎ¹ÎµÎ½ÎŃÎ¼ Î¹ÏģÎµÏĢ
Î¡ Î§
Ïİ Î¡
Ïģ ÏħÎ¿ÏĦ
ĠÏĤÎŃÎºÎ¹ Î¼Î¿Î½Î¿ÎºÎ¹Î¿
ÏĤÏħÎ¿ÏĦ Î¬ÏģÎº
ÏĤÎ±Ïģ ÎŃÎ¼Î·
ĠÎ® Î»Î¿Î²Î¿ÏģÏĢ
ÎĳÎ¤ ÎĳÎļ
ĠÎ±Î»Î¬ ÏĢÎ¼
Î±Î½ Î¼ÏħÎĵ
S U
Î³ÏįÎµ ÏĨ
Î½ÏīÏĢÎ± ÎĻ
Î¹Î±ÏĦÎµ Î¶Î¯
ĠÎ½Î±ÏĥÎ¹ ÏĩÏģÎ¬
ĠÏĤ Î¹Î´
Ġ b
" .
Î¹ Î±Ïģ
Î· ÏĢÎ±Î½Î±
Î½ÏĮÏĢ Î¿ÏģÏĢ
ĠÏĤÎµÎ¯ Î¼
ĠÎµÎ¾ Î¹Î¿Î½Î¬
ĠÎ¿Î¯ÏĦ Î»ÎµÎ´
Î¦ ÎŁ
ÏĮÎº Î±Îº
Î½ÎµÎ¼ Î¹ÎµÎºÎ¹ÏĦÎ½Î±
Î¿ÏģÏĦ Î±Î¹Î³
ÏįÎ¿Î½ Î¹ÏĦÎ½Î±ÏĦÏĥÎ½ÏīÎļ
ÎĻ ÎĳÎļ
ÏĤÎŃ Ïĩ
ÏįÎµ Î¹ÏĥÎ¿Î¼Î·ÎĶ
Î±Î³ Î»ÏħÎ¿ÎĴ
ĠÏĤÎ¿Î¹Î¿ÏĢ ÏĮ
ÏĥÎ¹ÏĦÎ±Î¼ ÏħÎ±ÏģÏĦ
Î¹ÎµÎ»Îº Î¬Ïģ
ĠÎ±ÏĦ Î½Î¿ÏģÎŃÏĨÎ¼ÏħÏĥ
ĠÏĤÎ·Ïĥ ÏħÎµÎ´Î¯Î±ÏĢÎºÎķ
ĠÎ½ÏįÎ¿Ïģ ÏīÎµÎ¸
Î¸ Î®Î¼
Î·Ïĥ ÏįÎ»
ĠÎ± Î»Î¿
Î±Î¯Ïĥ ÏīÎ¡
ĠÎ¹Î±ÏĦÎµÏĩÏģÎŃ Î¿ÏģÏĢ
ĠÎ½Î±Ïĥ ÏįÎ¿Ïģ
Î¹Î¿ÏĢ ÏīÏģÎ¸Î½Î¬
ĠÎķÎ¤ ÎĻÎķ
E M
Î¸ ÎµÏĢ
Î½Î½Î± ÏīÎĻ
ĠÎ¹Î±ÏĦÎ½ Î¿ÏĢ
Ïħ Î»Î±Îº
ĠÏĤÎ¹Îµ ÏģÎ²
ĠÏĤÎ±Î¯Ïĥ Î±ÏĦÏĥÎ¿ÏģÎł
ĠÎ¹Î±ÏĦÎµ ÏĨÎ¬ÏģÎ³
ĠÎ±Î¼ Î·Î½Î¯Îº
Î¹Î¼Î¸ ÏįÏģ
ĠÎ±Î¯Ïģ ÏħÎº
ÎºÏĥ Î¬ÏĢÎ¼
ĠÏĤÎ± ÎŃÏĦ
ĠÎ¿ÏģÏĦ Î±ÎŃÎĺ
ĠÎ·Ïĥ Îµ
Î¬Ïģ Î¹ÎµÏĢ
ÏĢÎ± Î½Îĳ
Î¿Î» ÏĢÎ¼
wodni W
ÏĩÏģÎ± Î¯ÏģÏħÎº
ĠÎ±Î¼ Î·Ïģ
ÏĤ ÏįÎ¿Ïģ
ĠÎµÎ¼Î±Îº Î®Î¸
Î¹ÏĢÎµ Î½Î±
ÎĳÎł Îķ
ĠÏĤÎ±ÏĦÎ½Î¿ Î³ÎŃÎ»
5 6
ĠÎ¯ÎµÎ¸ Î·Î»Î²
ĠÏĤÎ¹ÎµÎ¾ Î¬ÏģÏĢ
ĠÎ½ÏİÎºÎ¹ ÏĢÏīÏĥÎ¿ÏģÏĢ
ÏĤ Î¿ÏĨ
ĠÎ¹Îº Î¬Ïģ
Î³Î±ÏĢ Î¿ÏģÏĢ
s ptth
Î¯ÏĨ Î¿ÏģÏĦ
Î¯ ÏīÏģÏĢ
ĠÎ® ÎºÏĬÎ±ÏĢÏīÏģÏħÎµ
Î®ÏĨ Îĳ
Î¿Î¼ÏģÎ± ÏĨÎµ
ĠÏįÎ¿ Îł
ĠÏĤÎ¹ÎµÏĥÎ¬ÏĦ ÎµÎ¾Îµ
Î¿ÏĦ Î±ÏģÎº
ĠÎ±Î¼Î·Î¸ Î¬Î¼
ĠÏħÎ¿Î» ÏįÎ¿ÏĢ
Î¹Îµ ÏĩÏģÎ¬ÏĢÏħ
Î±Î¼ Î·
ĠÏĤÎ¿ÏĦÎ±Î¼ ÎŃÎ¸
ÏħÎ¼ ÎĨ
Î¿ ÎµÏĦÎ½Î¯ÎĴ
ĠÎ®ÎºÎ¹ÏĦ ÎµÏģÎ¹Î±Î¾Îµ
ĠÎ·ÏĥÎ·Î¯Î¿ÏĢ Î¿Î»Ïħ
ĠÏĤÎ±ÎŃ ÏĨÎ±ÏģÎ³Î³ÏħÏĥ
ÎŃ Î¿ÏģÎł
Î¿Î»Î± Î³ÎµÎ¼
ĠÏĤÎ· Î½Î¯
Î¿Ïģ Î²
Î±ÏĢ ÏģÎµÏĢ
ĠÎµÎº Î®ÏĢÎ¼
ĠÎ¹Î¿Ïĥ ÎĮ
ĠÎ¿ Î³ÏģÏİÎ¹Îĵ
Î·Îº Î¬Ïģ
ĠÎĳÎ¤ ÎĳÎľ
Î¬ ÏĦÏĥÎ¹
Î±ÏĦ ÏħÎ¿Îº
Î· Îļ
Ïĩ Î¿Î´Î¿Î½ÎµÎŀ
ĠÏĤÎ® Î³Î¿Î»Î¹ÏĢÎµ
Î¹Î½Î¬ ÏĨÎ¼Îµ
Î¹ÎµÎ»ÎºÎ¬Ïģ ÎĹ
ĠÎ®Î½ Î·ÎºÏĥ
k s
ĠÎ·Ïĥ Î¬ÏĦ
ĠÎĹ ÎļÎĻÎ¤
ĠÏĤÏįÎ¿Î½Î¸Îµ Î¹Î´
ÏĤÏįÎ¿ ÎºÎ¹ÏĦ
ĠÎ¹Îµ Î¬Î»Î¹Î¼
Î» Î¿Î´
Î½ÏįÎ¸ÏħÎµ Î¹Î´
ĠÎ¯ÎµÏĦÏĥÎ± Î¹ÎµÏģÏĩ
ĠÎµÏĦÎµÏĥÎ¬ Ïĩ
ĠÏĤÎ±Î¹Îµ ÏģÎŃÏĨÎ¹ÏģÎµÎł
Î³ÏĮÎ» Î¿Î¹
Î¬Î» Î²
ĠÎ®Î¼Î¿ÏģÎ´ Î±Î¹Î´
ĠÏįÎ¿ ÎµÎĺ
Î³ÏģÏī ÎµÎ³
ĠÎ±Î¯ÏĥÎ±Î³ÏģÎµ Î¾ÎµÏĢÎµ
ni m
Î¹Ïģ Î¯Î±ÎºÎ¿Î»Î±Îº
ĠÎ¹Î±ÏĦÎ½Î¿ÏģÎŃÏĨ Î±Î½Î±
Î»Î»Î¬ Î²Î¿ÏģÏĢ
ĠÎ½Ïī Î¯Î»
ÏĤÎ± Î´Î¬Î¼Î¿
Î±Î¹ Î±Î²ÎŃÎ²
ĠÏĤÎ±Î¯Ïģ Î¿ÏĦÏĥÎ¹
Î¬Ïģ Îĵ
Ġ K
Î¿Ïģ ÎµÎ¸
ĠÎ½ÏįÎ¿ Î³Î·Î´Î¿
e D
Î¹ÎµÎ´Î¬ Î½Î±
ĠÏĤÎµ Î¹Î´Î¯
ĠÎµÎ¼ Î±Î³
ĠÎ·ÏĦ ÏĥÎ¹
ĠÏĤÎ±ÏĦ Î½Î¿ÏģÎŃÏĨ
ĠÎ¬ÎºÎ¹ÏĦ ÎµÎ¸
ÏįÎµÏģ ÏĦ
ĠÏĮÎºÎ¹ ÏĦÏĥÎ¹ÏģÎ·ÏĦÎºÎ±ÏģÎ±Ïĩ
ĠÏįÎ¿Îº Î±Î¹
ÏĥÏĮ Î½
Î½ÏħÎ¿ Î¶Î¯
ĠÎ¿Î¹Î¼ ÏĥÏĮÎºÎ³Î±Îł
Î¹ÏĦ Î¿
Î±Î¼ Î¿Î½Î¿
ĠÏİ Î¸
Î³Î¿Î»ÎºÎµ Î¿ÏģÏĢ
ÎºÎ±ÏĦ ÎºÎĪ
Î¹ÏĥÎ±ÏĨ Î¿ÏĢÎ±
ĠÎ±Î¹Î¿ÏĢ ÏĮ
ĠÎ· Î½Î¹ÏĢÏİÏģÎ¸Î½Î±
Î·Î¸ÏįÎ¿Î»Î¿Îº Î±ÏģÎ±ÏĢ
swe ni
ĠÎ¿Ïģ ÏİÎ´
Î¯ ÎºÎ¹
ÏīÎ» Îº
Î³Î±Ïģ Î¤
Î¿Î³ Î¯Î»
7 002
Î¸ ÏģÎ±
Î·Î½ Î½ÎŃÎ³
Î¹Ïģ Î¿Îº
ĠÎ±Î½ÎŃÎ¼ ÏĥÎ¹
ĠÎµÏĦÎ¿ÏĦ Î½Î¬ÏĢ
ĠÎ¿Î¹Î´ÎŃÏĩÏĥ Î¿Î¼Î¿Î½
Î²Î¼ Î¿Î²
Î±Î¼ Î¿Î½
ĠÏĤÎ¿Î½ Î¯ÏĦÎ½Î±ÏĦÏĥÎ½ÏīÎļ
ĠÎ·ÏĦ Î±ÏĨÏĥÏĮÏģÏĢ
Î·Ïĥ Î¹Îµ
ĠÏĤÎµÎ¹Îµ ÏĢÎŃÎ½ÏħÏĥ
ĠÎ¹ÎµÎ½Î¯ÎµÎ¼ Î±ÏģÎ±ÏĢ
Î»Î± ÏĨÎµÎº
ÏĤÎ¿ÏĢ ÏīÏģÎ¸Î½Î¬
Î±ÏĦÏĥ Î¬ÏģÎ±ÏĢ
ÏģÎ± Î»Î±Ïĩ
ĠÏĤÎ± Î¹
ÏģÎµ Îļ
ĠÏĤÎ¹ÎµÏĥÏİÏĦÏĢ Î¹ÏĢÎµ
ÏħÎ¿Ïģ ÏĢÏįÎļ
ĠÏĤÎŃÎ¼ Î¼Î±ÏģÎ³
ĠÎµÎ¼ÏħÎ¿ÏĦ ÎŃÎ¸
ĠÎ¬ Î³ÏģÎ±
ĠÎ±Ïĩ ÏįÎ¿Ïģ
ĠÏĮ Î½Î±
ĠÎ¿ÏģÎ´Îµ ÏĮÏģÎł
ĠÎ½Î±ÏĦÏĮ Î¶
ĠÏĮÎºÎ¹ Î½Î¿ÏģÏĦÎºÎµÎ»Î·
ĠÏĤÎ·Ïĥ ÏīÏģ
ÏĤÎ¹ÎµÏĥÎ® ÏģÎ¹ÎµÏĩÎ¹ÏĢÎµ
ÎµÏĦ ÎµÎ¼
ru S
s s
ĠÎ®ÏĦ ÏģÎ¿Î¹Î³
ĠÏĮÎºÎ¹ ÏĦÏĥÎ¹Ïģ
Î¿Î´ Î¿ÎºÎ¹Î¿
Î®Ïģ Î¹Îķ
ÎŃÎ¼ Î±Î¹Î´
Î·Î¶ ÎŃ
Î±ÏĦÎ±Î¼ Î®
ĠÏĤÏİÏĩÏħÏĦÏĥ ÏħÎĶ
er P
ÏħÎ¿ÏĢ ÏįÎ¤
tops golb
ÎµÏĦ Î¯Îµ
ÏĨ ÏħÏĦ
ĠÎµÏĦÎµ Î½Î¯ÎµÎ¼
9 9
ÏĤÏħÎ¿ Î»Î»Î¬
ĠÎ¹Îµ Î³Î¯Î¿Î½Î±
ĠÏĤÎ¹ÎµÏĥÎ®ÏĦ ÏīÏģÎµ
ĠÎ¿ Î»Î¿
ĠÎ¹ÎµÎ¶Î¯ ÏĢÏīÏĦÎµÎ¼Î¹ÏĦÎ½Î±
ÏħÎ¼ Î¼Î¿ÏĦÎ±ÎºÎµ
ĠÎ±Î¹ ÎºÎ¬ÏĦ
ĠÏĮÏĦÎ· Î³Î±ÏĨ
ĠÏĤÎ¹ÎµÏĥÏİ ÎµÏģÏĩÎ¿ÏĢÏħ
ĠÎµÎºÎ·Î¸ ÏĨ
ÎŃÎ¸ Î¿Î½Î·ÎºÏĥ
Î¹Ïģ ÏĮ
l P
e h
Î±ÏģÎµÏĦÏĮ Î³ÏģÎ±
ĠÏĤÎ±Î½ ÏħÎµÏģÎŃ
ĠÎ±ÏĦÎ±Î¼ ÏİÏĦÏĢÎ¼ÏħÏĥ
ĠÎ± Î´Î¬Î¼ÎŁ
Î³Î¿Î» Î¿ÏĢÎ±
ĠÎ»Î® Î±ÏģÏĥÎĻ
ri a
ĠÏĤÎ·Î´ Î¯
ĠÎ¯Îµ Î¹Î¿ÏĢ
ĠÏįÎ¿ Î²
ÏĤÎµ Ïĥ
Î¹Ïģ ÏĦÏĥ
ĠÎµÏĦÎµ Î¾
ÏįÎ¿ÏĢ Î±ÏĢ
ĠÏĤÎµÎ¹Îµ ÏģÎŃÎ¼Î¿ÏĦÏĢÎµÎ»
Î¬Î¼ ÏģÎ±ÏĨ
Î½Ïī Î´Î¯
Ïħ Î¦
Î¯ÎµÎ¸ ÏħÎµ
ĠÏĤÎ¿Ïĩ Î³ÎµÎ»ÎŃ
ĠÎ±Î½ÎŃÎ¼ Îµ
ĠÏĤÎ® ÏĨÎ±ÏģÎ³
ĠÏĤÎ¹ÎµÏĪ Î®Î»
ÏĥÎµÎ¸ Î¿ÏģÏĢ
Î¿Ïģ ÏĦÏĥÎ±
Î¸ ÏħÎ²
7 4
Î¿Î¯Îµ Î»Î¿ÏĩÏĥ
Î¹ Î¸Î±Îº
00 5
Î·ÏģÎ¹ÎµÏĩ Î¹ÏĢÎķ
ĠÎ·ÏĥÎ·ÏĦÎ®Î¶ Î±Î½Î±
Ïį Î±Îľ
Î³Î¿Î»Î¿Î¹ Î±ÏĩÏģÎ±
ÏĤÎµ Î½ÏĮÎºÎ¹Îµ
ĠÏħÎ¿ÏģÎ´ ÎŃÎ¿ÏģÎł
Î½ÏİÎ¹Ïĥ ÎµÏģÎ·ÏĢÏħ
Î± Âµ
ĠÎ±Î¯ Î»Î»Î±Îĵ
Î£Îķ Îĺ
Î±Ïģ ÎºÎ±
ĠÏĮ ÎºÏĬÎ±ÏĢÏīÏģÏħÎµ
ÎļÎķ Îĳ
Î»Î» ÏĮÏĢÎĳ
ĠÎ·ÏĥÎ¹Î½Î¬ ÏĨÎ¼Îķ
ÏĦÏĥÎ¹Î»Î±ÏĦ Î¹ÏĢÎ±Îº
ÏĤÎ·Ïĥ Î·Î¯Î¿ÏĢ
ĠÎ¬ Î¸Î·Î¿Î²
ÏģÎŃÏĦÏĥ ÏħÎ¸Î±Îº
ĠÎ·Î´ ÏģÎŃÎº
ĠÏĤÎ®ÎºÎ¹ÏĦ ÏĦÎĳ
Î¹Î´ ÎŃ
ĠÎ®ÏĨÎ±ÏģÎ³ Î¿ÏĢÏħ
Î½Ïĩ ÏħÎ£
ĠÎ¹ÎµÏĥÎ® ÏĨÎ±
ĠÎ½Î±ÏĩÎ¯ÎµÏĦ ÎµÎ¼Î¼ÏħÏĥ
ĠÏĮÎºÎ¹ÏĦ ÏħÎµ
ĠÏĤÎ¿Î½ ÏħÎ´Î½Î¯Îº
ĠÎµÏĥ Î·Î³Î®Î´Î¿
Î´ Î¯Îµ
ĠÎ¿Î¼ Î¿ÏģÎ´
ĠÏĮ ÏĥÎ¹Î¼
ÎŃÏģ Î¿Îļ
Î¾Î¿Î´ ÏĮ
Î³Îµ Î»Îµ
Î±Î¹Î´ ÎµÏĩÏĥ
Î´Î¬Î¼ Î·Ïĥ
ĠÎ¯Î¿ Î»Î»Î¿Îł
Î¹Î±Î» Î±ÏĦ
Î½ÏİÏĦ Î¹Î»Î¿ÏĢ
ĠÎ·Ïĥ Î·ÏĦÏĮÎ´Î¿ÏĦÎ±Î¼Î·ÏģÏĩ
Î½ Î·ÏĦÏĥ
ĠÎ½Ïī Î¼ÏĮÏĦÎ±
ÏĮÎºÎ± Î¹ÏĢÎ¼ÏħÎ»ÎŁ
ĠÏĤÎ¿ÏĦÎ±Î¼ Î¼ÏĮÎº
Î± Î¹ÏģÎ¬
be w
ĠÎ¿ Î¹ÏĦÏĥÎ¬ÏģÎµÏĦ
ĠÎ¹ÎµÎ¾ Î¯Î¿Î½Î±
Î² Î¹ÏģÏĦ
Î¬ Î´Îµ
Î½Ïī Î½Î®Î»Î»Îķ
ĠÎ½Î±Î» Î±Î²ÎŃ
T S
ÏĮÎ» Î¹ÏĨ
ÎµÏĦ Î£
Ġ8 002
ĠÏĤÎ¿Î¹Ïģ ÏįÎº
ĠÏĤÎ±Î¯Ïĥ Î·Î»ÎºÎºÎķ
ĠÎ¬ Î»Î»Î¿Îł
Î³Î¿Î» Î±Î½Î±
Î·Î»Î» Îĳ
Ġ2 3
ĠÎ¹ÎµÏĥ Î¯ÎµÎ»Îº
ÏħÎµÎºÏĥ Î±ÏĦÎ±Îļ
ĠÎµÏĥ Î±Î¯ÏĥÏħÎ¿ÏģÎ±ÏĢ
ÎµÎº Î·ÏĦ
Î¿ÎºÎ¹ Îµ
Î½Î¿ÏĦÎºÎµÏĦ Î¹ÏĩÏģÎ±
ĠÎ±ÏĦÎ·ÏĦÏĮ Î½Î±Î¸Î¹ÏĢ
ĠÏĤÎ¹ÎµÏĥÎŃÎ¸ Î¹ÏĢÎµ
ĠÎ¹Î¿Î½ÎŃÎ¼ ÏĥÎ¹
Î»Î® Î½Îµ
Î·ÏĦ ÏīÏĥ
ĠÎ±Î´ Î¿ÏĥÎŃ
ÎĻÎ¡ Î¤
ÏĦÏĥÎ± Î»Îµ
ĠÏħÎ¿ÏģÏĦ Î½ÎŃÎļ
ĠÎ±ÏĦÎ±Î¼ ÏįÎ½Î·Î¼
ĠÎ±Î»Î·Î»Î» Î¬ÏģÎ±Îł
ÏĤÎ¿Î¸ Î¬Î»
ĠÎµÏĦÎ¿ÏĢ Î¯ÏĦ
ĠÎ¿ÏĥÏĮ ÏĦÏĥÎ©
Î¯Î¼ ÏĥÎ¿ÎºÎ³Î±ÏĢ
Î·Î¸ÏĥÎ¯Î± ÏħÎµ
ĠÎ± ÏĢÏħÏĦ
ÏħÎµÎºÎ¹Î´Î¹Îµ Î¾Îµ
ÏįÎµÎ» Îķ
ĠÎ¯Î¶ Î±Îľ
ÏĮÎº Î£
ĠÎ¬ ÏģÎµÏĦÏĥÎ¹ÏģÎ±
ÏįÏģ Î´
ĠÎ½ÏİÎºÎ¹ÏĦ ÏħÎµÎ´Î¹Î±ÏĢÎºÎµ
ÏĤÎ±Î¯ Î½Î¿Î´ÎµÎºÎ±Îľ
Î¤Î£ ÎĻÎ¡
Î±ÏĦ ÎĿ
ĠÎµÏĦÎ±Ïĥ Î¬ÏĩÎµÎŀ
ĠÎ½ÏħÎ¿ Î´
ÏĮÎ´ Î±ÏĢÎ±Îł
Î±Î¹Î´Î¯ Î½ÏĩÎ¹Î±ÏĢ
o ediV
Î±ÏĦ Î½ÏĮÏĬÎ¿ÏģÏĢ
ĠÏįÎ¿ÎºÎ¹ ÏĥÏħÏĨ
ÎµÎ¸ Î¯ÏĦÎ½Îĳ
Î»Î¿ ÏĩÏĥÎ±ÏĢÎ±
Îļ Î£
ĠÏĤÏħÎ¿ Î¹Î¿ÏĢÎ¬Îº
ÎºÎ±Ïģ Îł
ĠÎ¹Î±ÏĦÎµÎ½Ïİ Î¹ÎµÎ¼
á¼ °
ÎµÎ´ Î¯Î´
ĠÎ® Î³ÏħÏĨ
c re
ÏĦÏĥÎ¯ ÏĢÎ±Î¹Î´
ÎºÎ¹ ÏĢÏīÏĥÎ¿ÏģÏĢ
ĠÎ¹Îµ Î³Î¯Î¿Î½Îĳ
ĠÎµÏĦÎµ Î¶Î¯
Î±Î¼Î·Ïĥ Î¹ÏĢÎµ
ĠÎ½ÏħÎ¿Î¶Î¯ Î±ÏĢ
Î½ÏĮ ÏĨ
ĠÎ¿Î¹Ïģ ÏĮ
Î¿Î¹ Îĵ
ÎºÎ·Î»ÏĢ ÎºÎµ
ĠÎ±Î¹ Î½ÏĮÏģ
ÏĦÏĥÎ¹ÏĦ Î±ÏĦÏĥ
Î¼ ÎµÎ³
ÏįÎ¿Ïģ ÎºÎ³ÏħÏĥ
ĠÏĤÎ·Ïĥ Î±ÏĨÏĮÏĢÎ±
ĠÎµÏĦÎ¯Îµ ÏģÎĴ
ĠÎ¹ÎµÏĩÎŃ ÏĦÎµÎ¼Î¼ÏħÏĥ
ĠÎ¿Î¹Ïģ Î´ÎŃÎ½ÏħÎ£
Î±ÏĢ ÎŃ
ÎŁ ÎķÎ¤ÎĿÎĻÎĴ
ÏĩÎ¹Î¿ÏĦÏĥ Î¹ÏĦÎ½Î±
Î¿Ïģ ÏħÎ¸Î¬ÏģÎ±ÏĢ
Î»ÏħÎ¿ ÏĥÏħÎ¿Î¼
Î½ÏĩÎµÏĦ ÏħÎ»Î¿Îł
ĠÏĤÎ·Ïĥ Î¬ÏģÎ´
Î±ÏĦÏĥÎ¹ Î»Î¬Î¼
Î¿ÏĦÎ±Î² Î²Î±Î£
Î¯ Î¿ÏĨ
ÏħÎ¿Î» ÏįÎ¿ÏĢ
ĠÎ±Î¹ Î½ÏĮ
Î»Î¿ Î¹ÏģÏħÎº
Î»Î±Îº ÏĥÎ±Î´Î¹Î´
ÏĤ ÏįÎ¿ÏĦÏħÎ±
ÏĦÏĥÎµÎ»ÎµÏĦ Î½ÏħÏĥ
ĠÎ·ÏĥÎ±Î²Î¼ ÎŃÏģÎ±ÏĢ
ÎĻ ÎĴ
ĠÎ·Î¾ÎŃÎ» Îĳ
ĠÏĤÎ¬ ÏĥÎµ
ĠÏĤÎµ Î¹ÏģÏĦ
ÏįÎ¿ ÎĻ
ÎºÎµ ÎĿ
k na
Î± ÏģÎµÎ¼Î®Î£
Î» Î±ÏĢÎ¼
ĠÎ¬ÎºÎ¹ Î»ÎµÎ¤
Î½Î± Î¹Î´
Î·Î´ ÏĮÏĥÎ¹Îµ
Î¹Ïĩ ÎĮ
Î½Ïĩ Î¬Î¹ÏĦÏĨ
ÏĮ Î£
Î´Î½Î± Î¾ÎŃÎ»Îĳ
ĠÎ·Ïĥ ÏįÎµÎ³
d nu
Îµ Î³Î·
Î¿Î¼ ÏĮÏģÎ±ÏĢ
ÏīÏĢ ÏįÏĦ
ĠÏĤÏħÎ¿Î»ÎŃÏĦ Î¹ÏĢÎµ
ĠÏĤÎ±ÏĦÎ½Ïİ Î»Î¹Î¼
ĠÎµÎ¼ÏħÎ¿ ÏģÎŃÎ¾
ÏĦÏĥÎ¹Î» Î±Î¹Ïĥ
Î¿ ÏįÎ´
Ġ Î§
Î£ ÎĳÎĻ
ĠÏĮ ÎºÎ±Î¹Ïĥ
ĠÏİ Ïģ
ÏĨÎ¬Ïģ Îĵ
Ïĥ Î¹ÎµÎ»ÎºÎ¿ÏĢÎ±
ÏĮÏģ Î±Îł
ĠÎ¿Î¹Î´ Î¬ÏĦÏĥ
ĠÎ±Î½ Î¯ÎµÎºÎµ
3 4
Ïī Î»Î±Îº
ĠÎ½Ïī ÏģÏĦ
ĠÎ¹ÎµÏĥÎ® ÏĦÎ·Î¶
ĠÎ£ ÎŁÎ¡
ĠÏĤÎ·ÏĦ Ïİ
ĠÎ±Î¯ ÏģÎµÎ¸ÏħÎµÎ»Îµ
ĠÏħÎ¿ Î²
Î½Î± Î³
ĠÏĤÎ® ÎºÏĬ
Î¬Î´ Î¹Î´
ĠÎ½ÏħÎ¿ ÏģÎŃÎ¾
p pA
Î½Ïİ ÏĦÏħÎ±
Î¿ÏĦ ÏĥÎ±Îļ
mi T
Î·Î¸Î® Î¿Î²
ÏĤÎ±Î¯Îµ Î³Î¥
ÏħÎ¿Î² Î¿ÏĦÏīÏģÏĢ
Î¹Î¶ Î±ÏģÎĴ
Ïģ ÏħÎ¿Îº
Ġ Î²
Î¹ÎµÏģÎµÏĨ Î¹ÏģÎµÏĢ
ĠÏĤÎ¹ÎµÏĥÏĮÎ´ ÎºÎµ
ÏįÎ¿ Î£
ÎµÏĦ Î½
ĠÏĤÎ®ÎºÎ¹ Ïģ
ĠÎ· ÏģÎµÏĦ
ĠÎ±Î½ Î¿ÏĦÎ½ÎŃ
ÎµÏĨ ÏĮ
ĠÎ¹Î±ÏĦÎµ ÏĢ
ĠÏħÎ¿ Ïĩ
Î±Ïĥ ÏĥÏİÎ»Î³
ĠÎ¹ÎµÎ½Î¯ Î±Î³Î²
ÏĤÎ¯Îµ Î½Î±Îº
ÏĤÎ±Ïģ ÏĢÎ¯ÏĥÎ¤
Î½Î±ÏģÎº ÏħÎŁ
ÏĥÏħ Î»Î±
r b
ĠÎ®ÏĢÎ¿ÏģÏĦ Î¹ÏĢÎµ
ma H
Î±Ïģ ÎĶ
Ïħ ÏģÏĮ
ÏģÎµÎ¸ÏħÎµÎ»Îµ ÏĢÎ±
ĠÏĤÎ·ÏĥÎ· ÎºÎ¯Î¿Î¹Î´
Ġth gir
Î·Î¾ ÏħÏĦÏĢÎ¬Î½Î±
ĠÏħÎ¿ Î¹
ĠÎ½Î±Î½ ÎŃÎ½Î±Îº
ÎµÎ» Î¿Îł
Î³Î±Î»Î» Î±ÏĦÎ½Î±
ĠÏĤÎ¿ÏĦ ÏĥÎ®ÏģÎ§
er i
ĠÎ½Ïī Î´Î¬Î¼Î¿
Îĺ Îķ
ĠÎ½ÏİÎ¹Ïĥ Î±Î³ÏģÎµ
Î± ÏģÎµÏĦÏįÎ»Î±Îº
ĠÎµÎ¼ÏħÎ¿ÏĥÏİ Î´
ĠÎ¹ÎµÏģÎŃÏĨ Î±ÏĦÎ±Îº
ĠÎµÏĩ Î¯Îķ
h a
ĠÏĤÎµÎ½ÏĮ ÎºÎ¹Îķ
ĠÎ±Î½ÎŃÎ¼ ÏĥÎ¹ÏģÎ¿
ĠÎĹ Î£ÎĹ
Î»Î¬ Ïĥ
ĠÏĤÎ¹ÎµÏĥÎ®ÏĦ ÏģÎ±Î½Îĳ
Î·Î¼ ÏĥÎ¿Îº
Î± ÎµÏģ
Î¿ÏĦÎ±Î¼ ÏīÎ¹Î¾Î±
ÎŁ Îľ
ÏĤ ÏİÎ¹
ĠÏĤÏħÎ¿ Î½ÎµÎ¼
ĠÏĤÎ¹ÎµÏĥÎ¬ÏģÎ´ Î¹ÏĦÎ½Î±
Î³ÏĮÎ¼ Î±Ïĩ
ĠÏĤÏī ÏĩÎ¯Î´
Î±Î½Î± Îļ
ĠÎ¿Î½ÎŃÎ¼ Î·ÏĢÎ±Î³Î±
ĠÏĤÎ® Î³Î¿Î¼ÏģÎ±ÏĨÎµ
Î¹Îµ Î¾Î¬ÏĦ
Î¹Î» Î¬ÏĢ
m A
o f
ĠÏĤÎŃ ÏĨÏģÎ¿Î¼
mo r
ĠÏħÎ¿ÏĦ ÏįÎ¿ÏĦ
ĠÎķ ÎĳÎł
ÏĢÎµ ÏĢ
ĠÏģ Î¿ÎºÏĥ
ĠÏĤÎ·Ïĥ Î±Î²Î¼
de M
Î³Î¿Î» Î¿ÏĦÏĥÎ¹
ĠÏįÎ¿ÎºÎ¹ Î½Î¸Îķ
ÎºÏĥ Î±Î¹Î´
ĠÎ±ÏĦÎ±Î¼ Ïĥ
Î¬ ÎĴ
ĠÎ±ÏĦÏĥÎ¹Î» Î¬Îľ
ĠÎ±Î¹Ïģ ÏįÎº
Ïī Î³Î±ÏĢ
ÏģÎŃ Î£
ĠÎ¹Î¿Î½ ÏĮÎ¼
ĠÎ½Î±ÎºÎ·ÏĦ ÏĥÎ¯
ĠÎ¿ Î½Î¿Î¼
Î¾ÎµÎ»ÎŃ ÏĢÎµ
ĠÏĤÎ¹ÎµÏĥÎ¬ Î²
ÏģÎ± Î¦
ĠÎ±Î¯Ïģ Î¿ÏĨ
Ġ. %
ĠÎ·ÏĦÏĥ Î¯ÏĢ
Ïį Î²
ÏīÏģÎµ Î¹ÏĨÎ±
Î±Î¯Ïģ ÏħÎ£
ÎµÏĦ ÏīÏģÏĢ
ĠÏĤÎµÎ¯Ïģ Î¿ÏĦÏĥÎ¹
ĠÏĮÏĦ ÏĢÎµÎ»
ÏĢ Î¹
Î±Î» ÎµÎ¼
Î±ÏĦ ÎµÎ¾Îµ
ĠÎ®ÎºÎ¹ Î½Î¿Î¼Î·ÏĦÏĥÎ¹ÏĢÎµ
ÏīÏģ Î·
ÏĥÎ¯ Î¾Îµ
ĠÎ¿ ÏĨÎ±ÏģÎ³
ĠÎµÏĦÎµ Î¶Î¬
ÏĩÎ±Î¼ Î¼ÏħÏĥ
Î¬Î½Î± Î¾
ĠÎ±Î¼ ÏĮÏĦÏĥ
ĠÏĤÎŃ Î½Î¸ÎµÎ¹ÎĶ
Î³ Î¹ÎµÎ´
Ġre ts
ĠÎ¹ÎµÎ²Î¬Î» Î±ÏĦÎ±Îº
ĠÎ¥ÎŁ Îľ
Î¹ÎµÏĢ ÎŃÏģÏĢ
Î· ÏħÎ¿Î£
Î¹Ïģ ÏĢ
ĠÎ®ÏĨÎ±ÏģÎ³ Î³Îµ
ĠÏĤÎ¿Ïģ ÏĮÏĨ
ÎŃÎ¸ Î½ÏħÏĥ
ÎºÎ¹ Î¿Î½Îµ
Î» ÏĦÎº
M A
ĠÎ¬ ÏģÎ¿
Î±Î»ÏĮ Î²Î¼ÏħÏĥ
Î½ÏīÏĨ Î±Î¹Î´
ĠÎ½ÏħÎ¿ ÏĩÎĪ
ĠÏĤÏīÏĢ Î¬Îº
ÏĢÎµ ÏģÏĦ
Î¿ÏģÎ´ Î½ÏħÏĥ
ÏīÏĢ Î¹Î±Î»Î±ÏĦ
ÎĻ Îľ
Ïģ ÏįÏĥ
Î¿Î² ÏįÎķ
ÏĨ ÏħÎ¿
ĠÎ±Ïģ ÏħÎ¿Î³
Î¸Î·Î¼ Î¿ÏģÏĢ
ÏĦÏĥÎ±ÏĦÎ±Îº Î³Îµ
ÏĤÎ±Î¯ ÎºÏģÏħÎ¿Î¤
ĠÎ½ÏħÎ¿ Î²Î¬Î»
ĠÎµ Î½ÏħÎ¿
ĠÎ¹ Î¶Î¬
Î¿ÏĩÏĥÎ± ÏĢÎ±
ĠÏħÎ¿Îº Î¯ÎĿ
ĠÎ·ÏĥÏī Î½Î¬Î³ÏģÎ¿Î¹Î´
ÎºÎ±Î¹ÏģÏĢÏħ Îº
Î±ÏģÏĦ Î¬Îł
Î¬Îº ÏĥÎ±Î´
ÏĨ Î±Ïģ
ĠÏĤÎŃÎºÎ¹ Î´Î¹Îµ
ĠÏĤÎŃÎºÎ¹ ÏĥÎ±Î²
ÏīÏģÏĦ Î½ÎŃÎºÎ³ÏħÏĥ
ÏħÎ¿Ïģ ÏĨ
Î¬ÏĦ Î¿ÏĢ
Î±Î»Îµ ÏĢ
ĠÎ¹Îµ Î¬Î½ÏģÎµÏĢ
Î© Î§
Î·Î» ÏİÏĢ
ÏįÎ¿Î¼ ÏĥÎ¹Ïģ
Î½ÎµÎ¼ Î±Î½Î±
Ġ Y
Î´ Î¿ÏĢÎ¼Îµ
ĠÏĤÎŃÎºÎ¹ Ïģ
ĠÎ·ÏĥÎ±ÏĦ Î½ÎŃ
ĠÎ¹ÎµÎ³ ÏįÎµ
ĠÎ±Îº Î±Î¼ÏģÎ¬ÏĨ
Î¹Î± Î»Îµ
Î· Îĸ
ÏģÎ¬ Îļ
Î½Î¹Î¼ ÎµÏĥ
Î½Î¯Î¿Îº Î±Î½Îĳ
ĠÎ± ÏĢÎ¯Îµ
ĠÎ®ÎºÎ¹ ÏģÏĦÎ½ÎµÎļ
ÎºÏģÎ¬ Î¼
ĠÎ± ÏİÎ¶
ĠÎ¹ÎµÏĥÎ¯ Î´ÏģÎµÎº
Î³ÏĮÎ» Î¿Î¼Î¿
Î¬ÏĦ Î±Î¹Î´
ĠÎµ ÏĢ
ĠÏĤÎ¹ÎµÏĥÎ® Î»Îº
ĠÎ±Î½ Î·Î»Î»ÎĪ
ĠÏĤÎ±Ïģ Î´ÎŃ
g ro
ĠÎ±Î¯Ïģ Î¿ÏĨÎ¿Î»ÎºÏħÎº
Î¹Ïģ ÎºÎŃ
ÏĩÎµ Î»ÎµÏĦÏĥ
Î¿ÏĥÏĮ ÏĦÏĥÏī
Ïį Î¿ÎºÏĥ
ÎŃ Î½Î±ÏĢ
ĠÎ¯ÎµÎ¸ ÏīÏģÎ·Î»ÎºÎ¿Î»Î¿
ĠÏĤÏħÎ¿Î½ Î¯ÎµÎºÎµ
ĠÎ¬ Î¹ÏĦÎ±Î¼
ÏĢÏħ Îļ
Ïĩ Î¿Î½Îµ
Î¬ÎºÎ¹ ÏĦÏĥÎ¹ÏģÎ·ÏĦÎºÎ±ÏģÎ±Ïĩ
ĠÎ® Î³Î±ÏĦÎ½ÏħÏĥ
ÏĤÎµÎ´Î¬Î¼ Î¿Î´Î²Îµ
ĠÎ¹Î±ÏĦÎµÏĢ ÎŃÎ»Î²Î¿ÏģÏĢ
Î±Î¹ ÏĦÏĥ
ÏħÎµÏĦ Î¯ÏĢÎµ
ÏīÎ¹ ÎºÎ¹Î»Î·
ĠÎ¿ ÏģÎ±
ÎĻ Îĵ
Î»Î¿Î² Î±ÏĦÎµÎ¼
Î·ÏĢÎ± Î³Îĳ
Î³Ïħ ÏĪ
Î·Î»ÎµÎ¼ Î¹ÏĢÎķ
Î» Î¹Îľ
ĠÎ¹Î±ÏĦÎ¯Îµ Î¹Î¿ÏĢ
ĠÎ±Î¯Î» Î±ÏĦÎĻ
ĠÎ·Ïĥ Î±Î¯
ĠÏĤÎ®ÎºÎ¹ ÏģÏĦÎ½ÎµÎļ
Î¿Î½ÎµÎ¼ÏĮ ÏĩÎµÎ¹ÏģÎµÏĢ
ĠÎ¹Î±ÏĦÎµ ÎºÏĥ
Î´Î½Î±Î»Î» ÎŁ
ĠÎ½Ïī Î¯Î´
Ġt ro
Î½Î± ÏĥÎ±Î²
Î±ÏģÏĦÏĥ ÎºÎµ
ÏĤÏī Îµ
ĠÎ¹Î¿Îº ÏģÏįÎ¿Î¤
ĠÎ¹Î±ÏĦ Î¬Î¼
ĠÎ·Ïģ ÎºÎ¬
ĠÏĤÎ·Î½ Î½Î¬ÏīÎĻ
ĠÎ·ÏĦ Î®Î½Î±Î»ÏĢ
Î±Î½Î¯ Îļ
ÏĮÎ½ Î±ÏĦÎ±Îº
se i
Ïĩ ÏģÎ±ÏĢÎµ
ÏĮÏģÎ¹Î±Îº Î¹ÏĢÎµ
e d
ĠÎ½ÏİÎºÎ¹ Î´
ĠÎ·ÏĦ Î·ÏĦÎ¯Î±ÏģÎ±ÏĢÎ±
Î¼ Î¼
ĠÎ±Î¯Ïģ ÏīÎµÎ¸
ĠÎµÏĦÎµ ÏĩÎĪ
Î®ÏĨ Î¿ÏģÏĦÏĥ
ĠÎ½ÏħÎ¿ ÏģÎ²
ĠÏī Î¬ÏĢ
I L
Î¿Î¼ Î¿ÏģÎ´
ĠÎ¿Î½ÎŃÎ¼ ÏĥÎ±ÏģÎµÏĢ
ĠÎ·ÏĥÎ·Î¸Ïİ Î¿ÏģÏĢ
ĠÎ·ÏĦ Î±ÏĦ
ĠÎ·ÏĥÎ±ÏĦÎºÎŃ ÏĢÎµ
ÏĢÎµÎ» Î²ÎŃ
ĠÎ®Î»Î¿Î² Î±ÏĦÎ±Îº
Î¹Ïģ ÏİÎ½Î³
Î¹Îº Î»Î±Î§
Î»ÎµÎ³Î³ Î¬
Ïī Î¾ÎŃ
ĠÎ½ÏİÎºÎ¹ Î±Î½ÏħÎ³
ÎŃÏģ Î±Îº
ĠÎ¿ÏģÏĦ ÎŃÎ¼
ĠÏį Ïĩ
Î±Îº Î¯Î±Î½ÏħÎ³
Î¯ Îł
Ïģ ÏįÎ¼
Î³Î³Îµ ÏĥÎ¿ÏģÏĢ
ÏħÎµÎ¼ ÏĥÎŃÎ´
ĠÏĤ Î¿ÏĨÎ±Î´ÎŃ
ĠÎ±ÏĦÎ±Î¼ ÏįÎ¸
Î³ÏīÎ³Î± Î¹ÏĢ
ĠÎĳ ÎķÎĿ
ĠÎ·Î»ÎŃ ÏĨÎ¿
ÏĥÎ¹ Î±Î»ÏĢ
Î·Î¼ Î¹ÏĦ
ĠÏĤÎ±ÏĦÎ½Î¿Î½ Î¯Î´
ĠÎ¬ÎºÎ¹ ÏĦÏĥÎ¹Ïģ
Î½ÏħÎ¸ÏįÎµ Î¹Î´
ÏħÎ¿Î¯ÏĦ ÏģÎ±Îľ
Î±ÏĦ ÏħÎ±
ĠÎ±Î´ Î¹ÏĦ
ĠÎ¹ÏģÎ¬ Î³ÏħÎµÎ¶
ĠÎ±ÏĦÎ±Î¼Î³ Î¯ÎµÎ´
Î± Î¯ÎµÎ¼
ĠÎ·Î» Î·Î»Î»Î¬ÏĦÎ±Îº
ĠÎ® ÏĩÎµÎ½ÏħÏĥ
ĠÎ±Î½ÎŃÎ¼ Ïĥ
p ir
Î¬Î» Î¿ÎºÎ¿Ïĥ
ÎºÎ¯ ÎĶ
ĠÎ±Î¼Î· ÏĮÎ½
ÏĤÎ±Î¯ Î½ÏīÎ½Î¹Î¿ÎºÎ¹ÏĢÎµ
ĠÏħÎ¿Î´ÏĮ Î¹ÏģÎµÏĢ
ĠÎµÎº Î®Î³Î²
ÏĩÏħ Î½
Î½Ïī Ïĩ
ĠÏīÏģÎŃÏĦ ÏīÎ½Î±
Ã ©
ĠÎ¬ÎºÎ¹ ÏĨÎ±ÏģÎ³
ÏĤÎ±Î¯ Î¼
Î£ÎŁ Îļ
ÏĩÏħÏĦ Î±
ĠÎĹ Î£Î©
ĠÎ·ÏĦ Î®ÏģÎļ
ÏĩÏģ ÎĪ
ĠÎ¹Î±ÏĦÎ½ÏįÎ¿ Î¹Î¿ÏĢÎ¿Î¼Î¹ÏĥÎ·ÏģÏĩ
ÏĤÏħÎ¿ ÏģÎ¬Î²
ĠÎ±Î¯ Î¾
ĠÎ·Î¾ Î±Î»ÏįÏĨ
ĠÎ½ÏħÎ¿ÏĥÎ® Î¸Î·Î¿Î²
ĠÏĤÎ¯ÎµÎ¼ Î¿ÏĦ
ĠÏĤÎ± Î´Î¬
ĠÏĤÎ±ÏĦ Î·ÏĦ
Î¹ÏĦÏĥ ÏĮÏģÏĢ
ÎĻ ÎĳÎł
ÎĻ Îł
ĠÎ¿ ÏģÎµÎ¼Î®
Î»ÎµÏĦ Î½Î±Îł
Î¿Î¹ ÏģÎµÎł
ĠÎ·Ïģ Ïī
ĠÏįÎ¿Î¼ÏĥÎ¹ÏĦ Î¹Î»Î¿Îł
ĠÎ¹Î±ÏĦÎµÎ¶Î¯ ÏĥÎ±Î²
Î± Î»Î»Îµ
ÏģÎµÎ¼ ÎĹ
9 4
Ïİ Î§
ĠÏīÎ½Î¬ Îł
ĠÏĤÎµÎ¯ÏĦÎ±Î¼ Î»ÎµÎ³Î³Î±ÏĢÎµ
ĠÏĤÎ® Î»ÏħÎ¿ÎĴ
Î¿ Î»Î»
Î¹Î¼ ÏĮ
Î¿ Î¹Î»ÏĮÏĩÏĥ
p oruE
N O
ÏįÎ» Î±Î¹Î´
ĠÎ¹Î±Î¼ Î¿Î½
Ġe ra
Î¾ ÏħÏģÎĴ
Î» Î®Î½Î±
Î»Î»Î± Îļ
ĠÎ±Î¼ÏĥÎ¹ ÏĨÎ®ÏĪ
ĠÎ·ÏĥÎ·ÏģÎ®ÏĦ Î±Î¹Î´
ÏĥÎ¬ ÎºÎµ
Î¿ Î¾
ĠÎ¹ÎµÏĥÎ® ÏĦÎºÎ¿ÏĢÎ±
Î½ ÏģÎ±
ĠÏĤÎ±Ïģ ÎŃÎ¼Î·
Î±Ïĩ Î¹Îľ
ÏĤÎ± Î¯ÎµÎ´Î¹Î±Îł
ÎŃ Î³Î·
ĠÎ±Î¹ÏģÎ®ÏĦ Î¹ÏģÎº
ĠÎ£ ÎŁÎ¤
Î¸ Î¬ÏĦÏĥ
ÏĤÏħÎ¿ ÎŃÏģÏĩ
ĠÏĤÎµ ÎŃÎĿ
ÏħÎµÎ½ Îł
ÏĤÎ±Î¯ Î½ÏīÎ½Î¹Î¿Îº
ÏĮ Î»Î±Îº
Î¹ Î±ÏĩÏģÎ±
Îµ ÎĴ
ÏĤ ÎŃÏĢÎ¿Îº
Î£ ÎĳÎ¡
ĠÎ¹Îµ ÎºÏĥÎ¯ÏģÎ²
Î²Î· ÏĨÎµ
ĠÏĤÎ·Î½ ÎµÎ¼
ĠÏħÎ¿Î¯Îµ Î»
Î¹Î¿Î½ ÎĨ
Î¯ Î¿ÏĦÏĥ
Î¹ÏĨ Î¿Î¼Î·Î´
Ġe ga
ĠÎµÎ³ÏħÏĨ ÎŃ
y poC
ĠÎ¯ Î¿Î³
t lu
Î·Ïĥ Î·ÏĦÏģÎ¬Î½Î±
ĠÏĤÎ·ÏĦ Î®ÏģÎļ
Î¸ Î±Ïģ
ĠÎ±Î¯ÏĥÎ±Î¼ Î¿Î½Î¿
Î®ÎºÎ¹ ÏĥÏħÎ¿Î¼
ÏħÎº ÎŃÎ¿ÏģÏĢ
Ïĩ Îķ
ĠÎ½Î±ÎºÎ·Î¸ Î®ÏĦ
Î¿ÏĦ Î¿Î½Î¹Î±Îº
ÏħÎ¿ Î»Î»Î¬
ĠÎ¯Îµ ÏĢ
Î³ÏīÎ³Î± Î¾Îµ
Î±Î¹Î´ Î±
Î±Î¹Îµ Î³ÏģÎŃÎ½Îµ
Î¯ Î¿Î»
ÏĤÎ·Ïĥ ÎµÎ¸
ĠÏĤÎ¿ Ïĥ
Ġ li
ĠÎ¹Î±ÏĦÎ½ Î¿ÏĨÎ¬ÏģÎ³
Î±Î» ÏĮÎºÎ¹ÎĿ
ĠÎ½ÏįÎ¿ Î³ÏģÏħÎ¿Î¹Î¼Î·Î´
ÏĦÏħÎ± Î¤
ĠÎ±ÏģÏĦ Î½ÎŃÎº
ÏĨ ÏħÏģÎº
Î½Ïİ Î¹Î´Î¹Î±ÏĢ
ĠÎķ ÎĶ
bu T
ĠÏĤÎ®ÏĦ Î½ÏħÎ¸ÏħÎµÎ¹Î´
Î½ÏīÎ½ÎŃÎ¼ Î¿Î´ÎµÎ´
ĠÏģÏĮ ÎºÎµÏģ
Î§ Î¡Îĳ
ÎµÎ¼ Î·
Î¿Î½ Î¹Î±ÏĨ
Î´Î½Î± Î¾ÎµÎ»Îĳ
ĠÏĤÎ¿Î» Î¯ÏĨ
ÏįÎ¿ Î²Î¼ÏħÎ£
ÏīÏģÏĦÎ½Îµ ÎºÎ³ÏħÏĥ
ÏģÎ¹ÎµÏĩ Î¹ÏĢÎķ
ĠÎ¹Î¿Î½ Î¯ÎµÎºÎµ
Î¹Î¿ÏĢÎ¿Î´Î¹Îµ Î¿ÏģÏĢ
ÏĦ Î¹ÏĦ
Î¬ ÎĿ
ÏĤÎ±Î¹Îµ Î³ÏģÎŃÎ½Îµ
Ïī Î½Îµ
Î¹Ïģ Î·ÏĦ
ĠÏĤÎ¿ÏĩÏģÎ±Î¼ Î®ÎĶ
ĠÎ¬ Î»Î·ÏĪ
ĠÎ¬ Î½Î¹
ĠÎ·Î¾ ÏħÏģÎ®Îº
Î²Îµ Î£
ÏĨÎ¿ÏģÏĦ Î½ÏįÏĥ
Î¹ÎµÎ» Î¯ÏĥÎ±ÎĴ
ĠÎ½ÏħÎ¿ ÏįÎµÏĦÏĥÎ¹ÏĢ
Î½Î¿ Î½Î±Îļ
ĠÎ¿ Î½Î¹ÏĢÏİÏģÎ¸Î½Î±
ĠÏĤÎ¿ÏĦÎ±Î¼ ÏİÏĥ
ĠÎ¬ Î»ÏĢÎĳ
ĠÎ®ÎºÎ¹ Î»Î¿Î½ÏħÏĥ
Ġe u
Î¿Î» Î¿Îļ
Î¬Î¼ Î±ÏĦÏĥ
ĠÎĻ ÎķÎ¤
ÎºÎ¹Î´ Î±ÏĦÎ±Îº
ÎºÎŃ ÏĢÎ±
ÏĮÎºÎ¹ ÏĦÏĥ
ÎºÎ± ÏĨ
! Â»
Î¿Î¼ Î±Ïĩ
ÏįÎµÎ´ Î¹Î¾Î±ÏĦ
ĠÎµÎ¼ Î±Ïģ
ĠÎ½Î±ÏĦÏĮ Î½Î¹Î³
ĠÎ¿Î½ÎŃÎ¼ Î¼
Î» Î¹Î¦
ĠÎ±Î¼ ÏįÎµÎ½ÏĢ
Î¯Ïģ ÏģÎ¿ÏĢÎ±
Î½ÎµÎ´ Î·Î¼
Î±Î¼ ÏĥÎ¹Ïģ
ĠÎ¹ÎµÎ½Î¯ Î±ÏĢÎ¼
ÏĥÏĮÎ¼ÏģÎ± ÏĨÎµ
ĠÎ· Î½Î¬
Î½Î±Î¼ Î·Î£
ĠÎ¹ÎµÎ¶ Î¬ÏģÏĨÎºÎµ
Î½ÎµÎ¸ ÏħÎ¿ÏĢ
ĠÏģ ÎµÏĦÏĥ
ĠÎ±Î¯ Î½Î¿ÏĨÎ¿Î»Î¿Î´
ĠÏĮ Î½Î¹ÏģÎµÎ¼Î·Ïĥ
ĠÏĤÎ±Î¹Îµ Î½ÎŃÎ³Î¿ÎºÎ¹Î¿
ĠÎ¹ÎµÎ¾ Î¯Î±ÏĢ
ĠÏĤÏīÎµ ÏĥÎ®
Î±Î¼ ÏİÏģÏĩ
Î¿Ïģ Î·Î´
Î¬Ïģ ÎĻ
Î¶ Î±Îļ
Î³Î² ÎŃ
ĠÏĤÎ¬ Î¹Î»
ÏĤÏįÎ¿ ÎºÎ¹
ÏģÎµÏĢ Î¼ÏħÏĥ
ĠÎ· Î³Î¯Î»
ĠÎ½Ïī ÏģÎ¬
Î¹ÎµÏģÎµÏĨ Î¹ÏģÎµÎł
ÏĦÏĥÎ¹Ïģ Î¹ÎµÏĩÎ±Î¹Î´
Î©Î¡ Îł
ÎµÏĦÏĥ Ïī
Î¾ÎŃÎ» Î¹ÏĢÎķ
ĠÏĮÎºÎ¹ÏĦ ÏīÎ¹Î´Î¹
ÏħÎ¿Ïģ Îº
ĠÎ±ÏĦ Î·Î½Î¯ÎºÎ¿ÏĦÏħÎ±
Î·ÏģÎ·ÏĦ Î½ÏħÏĥ
Î¹Î±Î¹Î´ Î¹
ĠÎ· Î½ÏĮÎ¸Î¿
Î±ÏĦ Î±ÏĢÎ¼
Î¬Î½ ÏħÎĶ
Î»Îµ ÏĢ
ĠÏĤÏĮ Î³Î·Î´Î¿
ĠÎ±Î¯ Î±Î´
Ġlai co
Ġ6 3
ÏĢ ÏįÎ»Î±Îº
Î¸ÏįÎ¼ Î±ÏģÎ±ÏĢ
ÏħÎµ ÏĥÎ¿ÏģÏĢ
ĠÎ®ÎºÎ¹ ÏģÎµÏĦÏīÏĥÎµ
ĠÎ·ÏĥÏī ÎŃÏģÏĩÎ¿ÏĢÏħ
Î± Î»Î»
ÏĢ Î¿ÏĢ
ÏħÎ¿ Î³ÏĮÎ»
ÎļÎĻ ÎŁ
ÏħÎ¿ Î¯ÏģÎ²
ĠÎ¹Î±ÏĦÎµÎ¶ Î¬Î¼Î¿Î½Î¿
ÏīÏģÎ®Î» ÏĢÎ¼ÏħÏĥ
ĠÎ¹Î¶ ÎŃÏĢÎ±ÏģÏĦ
ĠÏĤÎŃÎºÎ¹ ÏĢÎ¿ÏĦ
ÎĳÎĻ Îĵ
Î±Î½ ÏħÎĶ
ĠÏįÎ¿ Î¹Î´Î¹Î±ÏĢ
Î±Î½ÎŃÎ¼ Î¿Î´ÎµÎ´
ĠÏĤÎµÎ¯ ÏĥÏħÎ¿
Î¿ÏĢ ÏīÏĥÏĮÏģÏĢ
ĠÎ½ÏħÎ¿ Î½ÎŃÎ¼Î¹ÏģÎµÏĢ
ÏħÎµÎ»ÏħÎ¿Î² Î¿Î½Î¹Î¿Îº
Îº ÏħÏĢ
Î¯ÏĦ Î±Î¹Î³
ĠÎ±ÏģÎŃ Î¹ÏģÎ±Îº
Î½Î¿Î» ÎºÎ³ÏħÏĥ
ĠÏĤÎµÏģÎµÏĦÏĮ Î¹Î±Î»Î±Îł
ĠÎ®ÎºÎ¹Î¼ Î±Î½ÏħÎ´
ĠÎ¹ÎµÏĥ ÏİÏģÎ·Î»ÏĢ
Î¬ÏģÏĢ Îľ
Î³Ïģ ÎĪ
ĠÏĤÎ¿Î½ÎŃÎ¼ ÏĥÎ¹
Îº Î±Î½
Î±Î¹ Î½Î·Î¼
ĠÎ¿Î» Î·Î»Î»Î¬ÏĦÎ±Îº
ĠÏĮÏĦÏĥ ÏīÏĥ
Î±Î¸ ÎµÏĢ
Î½Îµ Îľ
ÎĿÎŁÎ¡ Î§
Î»Î»ÎŃ Î¾ÏħÏģÎĴ
Î±Î¯Ïĥ Î±ÎºÎ¹Î´Î±Î¹Î´
ÏĩÏįÎ¿ Î¹Î±ÎºÎ¹Î´
Î·Ïĥ ÏħÎµÎ´Î¯Î±ÏĢÎºÎµ
ĠÎµÏĦÎµ Î½
Î¯Î¼ Î·
ĠÏĤÎ±Î¹Îµ Î»Î¬ÏĨÏĥÎ±
Î·ÏĨ Î¯ÏģÎµÏĢ
no C
ĠÏĤÏħÎ¿ ÏģÏĮÏĨ
Î¶ ÏħÎĴ
Î¹ÏģÏĦ Î¯Îº
Ġs ne
ĠÎ¹Î±ÏĦ ÎµÎ´Î¯Î´
ĠÎ½ÏĮ Î½Î±Î¸Î¹ÏĢ
ĠÎ±Ïĥ ÏįÎ¿ÏģÎ±ÏĢ
ĠÏĤÎ¹Îµ Î½Î¯
Î¸Î®Î¼ Î¿ÏģÏĢ
ÏģÎµÎ´ Î¹ÏĢÎµ
ĠÎ¹ÎµÎ¸ Î¬Î¼
ĠÎ·ÏĥÎµÎ¸ ÎºÎĪ
ĠÎ±Ïģ Î¿Î½ÏįÏĥ
n y
Î¹ÎµÏĦ Î¿ÎºÏĥ
Î±Î¼ Î¹ÎºÎ¿Î´
ro W
ĠÎ±Î¯Î» Î¹ÎºÎ¹Î¿ÏĢ
ĠÏĤÎµ Î³ÏħÏĨÏĥÏĮÏģÏĢ
ÏħÎ¿ Ïĩ
ĠÎ¿ÏĢ Î¹Î¿Î»ÏĮÏĢÏħ
ÎµÎ¾ Î¿Î»Î¹ÏĨ
t ca
7 6
ĠÎ¿ÏĦ Î·ÏĦÎ¯Î±ÏģÎ±ÏĢÎ±
Î¯Î¿ÏĢ ÎµÏĢ
ĠÎµÎ¼ Î±Î»
Î¯Ïģ ÏĢ
Îº Î·Ïģ
ĠÏħÎ¿Î¼ ÏĮÏģÎ´
Î´Î½Î¬ Î¾ÎµÎ»Îĳ
Î¯Î´ Î½Î¿ÎĽ
ĠÎ·ÏĥÎ·ÏĦÎŃÎ¸ Î¿ÏĢÎ¿ÏĦ
ĠÎ¹ÎµÎ¶Î¯ Î½Î¿ÏĦ
ÏħÎ» Î¯ÏĢÎµ
Î¤ ÎĿÎĶ
ĠÏĮÎºÎ¹ÏĦ ÎµÎ¸
ÏģÏĮÎ³Î± ÏĢÎ±
Î»ÎµÎ´ Î±
ÏĢÎ¼ ÏħÎ¿Îº
no c
ĠÎ» Î¯ÏĨ
ÏįÏģÎ´ ÎĻ
ĠÎ®ÎºÎ¹ ÏģÏĦÎ±Î¹
ÏĤ Î·Ïģ
Î³ÎµÎ» Î¹ÏĢÎµ
r P
ĠÎµÏĥÎ·ÏĦ Î½Î¬ÏĢÎ±
r T
ÏħÎµÏģ Îķ
Î¯ÏĨÎ·ÏĪ Î¿ÏĢÏħ
ÏħÎ¿Î¯ÏģÎ² ÏīÏĦÎºÎŁ
ÏĩÏĥ Î¬ÏĢ
ĠÎ·ÏĦ ÏİÏģÎł
ĠÎ¹Îµ Î»Î¬Î³Î²
ĠÎ®Ïĩ Î¿ÏĦÎ±Îº
ĠÎ± ÏģÎµÏĦÏįÎ»Î±Î³ÎµÎ¼
ÏĤÎµ ÎºÎ®Î¸Î½ÏħÏĥ
Îº ÏĮÎļ
ĠÏĤÎ·ÏĦ Ïĥ
ĠÎ¹Î±ÏĦÎ½Î¿ÏĩÏģÎŃ Î¿ÏģÏĢ
ĠÎ®Ïĥ ÏħÏģÎ§
Î³Î¹ Î±ÏĦÎ±Îº
Î¹Î³ Î±ÎºÏģÏħÏĢ
Î½Î¹Ïģ Î¹Î±ÎºÎ¿Î»Î±Îº
ĠÎ¹Îµ ÏįÎµÏĦÏĥÎ¹ÏĢ
ĠÏĤÎ±Î¯ Î²
ĠÏĤÎ¿ÏĦÎ±Î¼ Î®ÏĦ
Î·ÏĪ Ïħ
ÎµÎ»ÏĮ Îł
ÏĤÎ±Î¯ Î¼Î¿Î½Î¿ÎºÎ¹Î¿
Î³Î± Î¹Î³
Î¬ÎºÎ¹ ÏĦÏĥ
ÏĤ ÏīÏĨ
ÏģÎ± ÏĢÎ±
Î±Î¹ Î¿Î½
Î½ ÏģÎµÏĦ
ĠÏĤÎ¹ÎµÏĥÏİ Î½Î³
ĠÎ·ÏĥÎµÎ¸ Î¬ÏĦÎ±Îº
ÏħÎ¿Î» Î³
Î¬Î¹ Î±ÏģÎ¹ÎµÎł
ÏħÎ¿Î¯ Î½ÏħÎ¿ÎĻ
ĠÏĤÎŃÎºÎ¹ÏĦ ÎµÏĩÏĥ
ĠÏĤÎµÎ½ ÏįÎ¸ÏħÎµ
ĠÎ·ÏĦ Î¯Î»Î¿ÏĢ
ÏģÏįÎ¼ Î£
Î·Î¸ ÏĥÎ¹
Î®Î» ÎºÎ³Îµ
ÏĤ ÏįÎ¿Î¼ÏĥÎ¹
Î±Î¼ Î¹Î¿ÏĦÎµÎ¿ÏģÏĢ
Î¯Îµ Î»Î»Îµ
Î² ÏĮÎº
Î½Ïĩ Î¹Î±Îł
ĠÏħÎ¿Î¼ Î®Î´
ĠÎ¿Î½ÏīÏĨ ÎŃÎ»Î·ÏĦ
ĠÎ¹Îµ Î»Î¯ÎµÏĨÎ¿
rga tsnI
Î±Î¹Î´ Î¿ÏģÏĢ
Î¹ÏĥÏĦ Î±Ïģ
Î·Î¹Î¿ÏĢ Î¿ÏĦÏĥÎ¹ÏĢ
Ïĩ ÏĥÏĮÏĢÏħ
ÎŃÏĢ Îľ
Îĳ Îķ
ÎĻÎ¡ Î¥Îļ
Ïĩ ÏīÏĦÏĨ
ÎŃÎ¼ Î±
ÏħÏģÎ´ ÎĬ
ÏħÏĨ ÎŃÎ³
Î®Ïĩ Î¿ÏĢÎµ
ĠÎ¿Î¹Ïĥ ÏĮÎ¼Î·ÎĶ
ĠÏĤÎ±Ïĥ ÏħÎ¿
Î½Î¿Î¼ ÏģÎ±
ĠÎ¹ÎµÎ½Ïİ Î½Î±Î³ÏģÎ¿Î¹Î´
ĠÏĤÎ¹ÎµÏĥÎ® ÏĦÎ·Î¶ÏħÏĥ
ĠÎ¿ Î¹ÏĦÎ¬Î¼ÏīÎ´
ĠÎµ Î½Î±Î¼Î®
ĠÎµÎ¼ÏħÎ¿ Î½ÎŃÎ¼Î¹ÏģÎµÏĢ
ĠÎŁ Îļ
ĠÎ±Î¼ ÏĥÎ¬
ĠÏĤÎ¹Îµ ÏĢ
ĠÏĤÎ·Ïĥ Î·Î¸
ĠÎ® ÏĦÏĥÎ¹Î³Î¿Î»Î¿ÏĢÏħ
ĠÎ±Îº Î·ÏĦ
ĠÏĮÎ¼ ÏĥÎ±Î¹Î´ÎµÏĩÏĥ
ĠÏĤÎ®Ïĥ ÏħÏģÎ§
uorg oruE
ĠÎ¹Î±ÏĦÎ¯Îµ Î½Î¹Îº
ĠÏĤÎµÏģÏĦ Î½Î¬
ĠÎ¯Îµ ÏģÎ·ÏĦÎ±Î¹Î´
ĠÎ±Ïģ ÏĮÏĨ
Î½Î¿ÏĦÎº Î¿ÏĦÏħÎ±
ÏĤÎŃÏĢÎ¿Îº Î±Î¹Î´
ĠÎ¹Îµ ÏĥÎ¯ÏĢÏīÏĦÎµÎ¼Î¹ÏĦÎ½Î±
ĠÏĤÏĮÎºÏĬ Î±Î½Î·Î¸Î±Î½Î±Îł
ĠÏĤÎŃ Î»ÏħÎ¿Î²Î¼ÏħÏĥ
ĠÏĤÎ±ÏĦ Î½
Ġ bu
ĠÎ½ Î±ÏģÎŃÏĢ
ÎºÏģÎ± Ïĥ
ĠÏĮÎºÎ¹ Î½Î±Î´Î¹
Î½Î¿ Îł
Î»ÎµÎ³Î³Î± ÏĥÎ¹Îķ
Ġs ser
ÏĥÎ± ÏĩÎŃ
Î¿Î¹Îµ ÏģÎ¿Î²
ĠÏĤÎ®ÎºÎ¹ÏĦ Î¹Î»Î¿Îł
e H
ĠÎ¹Îµ Î½Î¬Ïĩ
Ġ á¼
Î¬Î¼ Î¿ÏĦÎ½
ĠÎ±Î½ÎµÎ¼ Î¯ÎµÎºÎ¹ÏĦÎ½Î±
ĠÎ¹Î±ÏĦÎ½ Î¿Îº
ĠÏĤÎµÏĦ ÎŃÎ»ÎµÎ¼
ĠÎ¬ÎºÎ¹ Î½ÏĨÎ±Î¾
ÏģÎµÎ¼ Î·Î½Îķ
ĠÎ± ÎŃÏĦ
Î¿Î½Î± Ïĩ
ÏīÏĩ Î±Î¹Î´
Î± Î¹ÏĥÏĦ
ÏħÎ» Îĵ
Î¯ÏĢ Î£
Î¾Î¿Î´ Î¿Î¹
ĠÎ½Ïİ Î¹ÏĦÎ±Î¼
Î±ÏģÎŃ Î±
ĠÏįÎ¿Î¼ ÏĥÎ±
Î·Î¼ ÏĮÎºÎ±
Î±Ïĩ Î¿ÏģÏĦ
Î½ÎµÎ¸ ÏħÎ±
ÎĳÎ¡ Î¤
ĠÎ½Ïİ Î´Î¹Îµ
Î¹ Î¿Îļ
Îµ ÏģÎµÏĦÎ£
ĠÏĤÎ¿ÏĦÎ±Î¼ Î®Î¼ÏĦ
ÏĥÎŃ ÎĽ
ĠÎ·Ïĥ ÎµÎ»ÎŃÏĦÎºÎµ
ÏĢÏħÏĦ Î¿ÏĢÎ±
Ġthgir ypoC
ĠÎ·ÏĥÎ·Î³Î® ÏģÎ¿Ïĩ
ÏģÎµ Îĵ
Î¹ÏģÎº Î±Î¹Î´
ĠÎ± Î»Î±
Î½ÏĮ ÏĦÏħÎ±
Î¾Î± Îľ
ĠÏĮ Î¹Î»Î±ÏĢ
ĠÎ±Î´Î¯ Î»ÎµÎ£
Î·Î»Î¸ Î±ÏĦÏīÏģÏĢ
ÏģÎ± Î¸
Î·Ïĥ Î®ÏģÏĩ
Î¬Î¹Ïģ ÏħÎļ
ĠÎ½Î±ÏĦ Î·
ÎµÏĥ Ïī
ÏįÎµ ÏģÎµ
ĠÎ½ÏħÎ¿ÏĩÎŃ Î¹ÏģÎµÏĢ
Ġs noi
ĠÎ¯ Î¿Î»
v ir
Î±ÏĦÎ½Î± Î¦
ĠÏģ Î¬
ĠÏĤÎ±ÏĦÎ·ÏĦÏĮ ÎºÎ¹ÏĦ
ĠÎ¯Îµ ÏģÎ¿ÏĨÎ¿Î»ÎºÏħÎº
Î¿ÏĢ Ïĥ
_ _
Î³ÏģÎµ Î½Î¬
ĠÎ¿Î½ Î¹ÏĥÎ¬ÏģÏĢ
Ġle toH
ĠÎ¹ÎµÏĥÎŃ Î»ÎµÏĦÎ¿ÏĢÎ±
Î½Î¿ÏģÏĩ Î³ÏħÏĥ
ĠÎ± Î´Î¿Î¾ÎŃ
ro w
Î¹Ïģ ÏİÏĩ
ĠÏĤÎŃ Î»Î»Î¿Îł
ĠÎ½Ïī ÎºÎ¯Î¿ÏĦÎ±Îº
ĠÏħÎ¿ ÏĨ
ĠÎ® ÎºÏĬÎ±Î»
ĠÎ±Î¯Ïĥ Î·Î»ÎºÎºÎµ
Î¶ Î±Î½
ĠÎ¹Î±ÏĦÎµ ÎŃÎ´Î½ÏħÏĥ
Î¹Îµ ÏĥÎ¯
ĠÎŁ ÎļÎĻ
ÏĢÏĥ Î¿ÏĢÎ±
Î· Î½ÏĮ
ĠÏĤÎ¹Îµ ÏĢÎŃÎ»Î²
ÏįÎµ ÎĶ
ĠÎ¹Î¿Ïģ ÎµÏĦ
ĠÏĤÎ®Î¼ Î³Î¹ÏĦÏĥ
Î½Î¿ÏĢ Î¿Î»ÎµÎł
ÏĮÏĨ Î¿Î»ÎºÏħÎº
Î± Î¾ÎµÎ¹Î´
ĠÎ¯Î¿ÎºÎ¹ÏĦ Î¹Î»Î¿ÏĢ
ÏĤÏİÏĩ ÏħÏĦÏĥ
e S
ÏĤÎ¹Îµ ÏĥÏĮÎ´
Ïī Î´Î¹Îµ
ĠÏįÎ¿ÎºÏĬ Î±ÏĢÏīÏģÏħÎķ
ĠÎĹ Îľ
ĠÎ¹ÎµÏĨ ÎŃÏģÏĦÏĥÎ¹ÏĢÎµ
ĠÏī Î½Ïİ
ÎŃÎ¸ Î±ÏĦÎ±Îº
ĠÏĤÎ¯Ïģ ÏīÎ½
Î»Îµ ÏĢÎ¼
Î½ÏħÎ¿ Î¶
Î³ÏĮ Î»Î»ÏħÏĥ
ÏħÎºÎ³ ÎĨ
ÏĨÎŃ ÎºÏĥÎ¹ÏĢÎµ
Î¿ÏħÏĦÎºÎ¯Î´ Î±Î¹Î´
Î ĩ
Î¹ÏģÎ¬ Î¸Î±Îº
ĠÎ¿ÏĢÏħ ÏĦÏĮ
ĠÎ·ÏĥÎ¹ Î³Î³ÎŃÏĥÎ¿ÏģÏĢ
enil no
ÏģÏĮ ÏĢÎ±
ÏĤÎ¿Ïģ ÎŃÎ¼
Î¬ Î¦
ĠÎ½Ïī ÏĥÎŃÎ¼
ĠÏĤÏįÎ¿Î½Î¸Îµ Î¹ÎĶ
Î¬Î» Î¿ÎºÎ¹ÎĿ
ĠÎ·ÏĥÎ± ÏĨÎ¼ÎŃ
ĠÏĤÏī Î¯Î´Î¹
Î¹Î± Î´
ÏĢÎ± Îļ
Ïħ Î³Î·Î½Î±ÏĢ
Î±Î» ÎŃÏģÏĦ
Î·Ïĩ Î¿
ĠÏĤÎ·Ïĥ Î·Î¼
ÎŃÎ» Î¹ÏĢÎµ
ÏįÎ¿ ÏĥÏĦ
ÏįÏĢ Î£
Î¹ Î²Î¼ÏħÏĥ
Î¿Î½ Î¹ÏĦÎºÎ±
ĠÎ·Ïĥ Î·Î½ÏģÎŃÎ²ÏħÎļ
ĠÎ¬Î¹ Î±ÏģÎ¹ÎµÎł
6 6
Î»ÏħÎ¿ Î´
Î¿ÏĦ ÏģÎ±Ïĩ
ĠÏĤÎµÏģÎµÏĦÏĮ ÎµÎĿ
Î½ÎŃÎ² ÏħÎ¿Îº
Î± ÎĶ
ĠÎ½ ÏħÎ¿ÏĢÎ¼
ĠÎ¹ÎµÏĦÏĢ ÏįÎ»Î±Îº
Ïħ Î½Î·Î¼
ĠÎµÏĥ ÏįÎ¿Î½
ĠÎ½ Î±ÏĢÎ¯Îµ
Î·ÏĦÏģÎ¬ ÏĦÎµÎ¤
ÏįÎ¿Î» Î¿Îº
ĠÎµÏĥÎ· Î³ÏģÏįÎ¿Î¹Î¼Î·Î´
Ġ0 51
ĠÎŃ Ïĥ
Î¬Î¼ ÏħÎ±Î¸
ÏįÎ¿Î» ÏħÎ¿Î»
Î® Î»Î»Î±ÏĢÏħ
Î»Îº ÏħÎº
Î¯Ïģ Î±Îľ
Î²Î¼ ÏįÎ£
ĠÎ± T
Î·Î¸ÏĨ Î®Î»Îµ
ĠÎ¹Îº Î¬ÏĦ
ĠÏĤÎ¹ÎµÎ¾Î¬ÏĦ Î½ÏħÏĥ
Î³Î·ÏĦ Î±ÏģÏĦÎ£
ĠÎ±Î¼ ÎµÏģ
ÏĦÏĥÎ± ÏħÎµÎºÏĥÎ±ÏĦÎ±Îº
ĠÎ± Î»Î±Îº
Î¾Î±ÏĦ Î½ÏħÏĥ
g na
ĠÏĤÎ¿ÏĦÎ±Î¼ ÏĥÎ¯
Î·Î¼ ÏįÎ¸
ĠÏĤ Î¿ÎºÎ¹
ÏĤ Î¬ÏģÎ¿ÏĨ
ĠÎ½Ïİ ÏĨ
Î¹ ÎºÎµÎ¾
Î±Î¯ÏĥÏħÎ¿ ÏģÎ±Îł
ÏĨÎ±ÏģÎ³ Î³Îķ
Ġ) !
ÏĤÎ·Î´ Î¯
ĠÎ¼ Î»Ïĩ
ĠÎ½ Î¹ÏĦ
Î¿Ïĩ ÎµÎ´Î½Îµ
ĠÎ¬ÎºÎ¹ÏĦÏĥ ÏħÎ¼
ĠÏħÎ¿ÏĦ Î¬Î½Î±Î¸
Î¹Îº Î¬Î»ÏħÏĨ
ĠÎµÎ¼ÏħÎ¿Ïĥ Î¯Ïģ
á½ ±
Ġ Îĵ
ĠÎ½ÏĮ Î¹
ĠÏĤÏĮ Î»Î±Îº
ĠÎ± ÎºÎ³
ĠÎµÎ¼ÏħÎ¿ ÏģÎ¬ÏĢ
Î´Îµ ÎºÏĥÎ±Î¹Î´
Î»ÎŃ Î³Î³
Î¼ Î¸Î±Î²
e ce
8 5
Î±Î¼ Î·Î´Î±ÎºÎ±
ÏĦÎŃÏĢ Î¹ÏģÎµÏĢ
Î´ ÏħÎµÏĪ
ĠÎµÏĦÏĥÎ®ÏĦ Î±Îł
Î»ÏĢ Î¿
ĠÎ®Î½Î¿Î¼ Î±ÏģÎ±ÏĢ
ĠÎµÏĦÏĥ Î®ÏĨÎĳ
Î¹ÏĦÏĥ ÎµÏĨ
ÏįÎ¿ Î¶
Î³ÏįÎµ ÏĨÎ¿ÏĢÎ±
Î·Î¼Î¯ÏĦ ÎºÎµ
2 4
ĠÏĤÎµÎ¹Îµ Î½ÎŃÎ³Î¿ÎºÎ¹Î¿
ĠÏĤÎµ Î¯ÏĦÎµÎ±ÎºÎµÎ´
ĠÎļÎķ Î¦
ĠÎ¿Î¯ Î±ÏģÏī
ÎŃÏģ ÏħÎµ
ÏİÏĦ Î¿ÎºÏĥ
ÏħÎ± Îł
ĠÎµÏĦ Î¾ÎŃÎ»Î¹ÏĢÎķ
ĠÎ®Ïģ ÏħÏĩÏĥÎ¹
ÏĦÏĮ ÎºÏĥ
ĠÎ½ÏħÎ¿Î¶Î¯ ÏĢÏīÏĦÎµÎ¼Î¹ÏĦÎ½Î±
ĠÎ®ÎºÎ¹ ÏĥÎ±Î²
ĠÏīÏĦ Î¬Îļ
ĠÎ±ÏĦÎ·ÏĦÏĮ Î½Îµ
ÏįÎ½ÎºÎ¹ÎµÎ´ Î±Î½Î±
O E
ĠÎµÎ¸ Î»Î®
Î²ÎŃ Ïĥ
Î¹ÏģÎ¬ Ïĩ
ĠÎ¬ÎºÎ¹ Î´Î¹Îķ
Î»Î»Î¬Î² Î±ÏĦÎ±Îº
ÎĿ ÎĳÎļ
ĠÏĤÎŃÎºÎ¹ Î½ÏĩÎµÏĦ
Î´Îµ ÏĩÎ£
Î» Î¿ÎºÎ³
ĠÎµÏĥ Î¹ÎµÎ»ÎºÎŃ
ĠÎ®Î»Î¿Î² Î¿ÏĢÏħ
ĠÎ·ÏĥÎ±ÏĦ ÎŃÎ¾Îµ
ÎºÏĥ Î¹Ïģ
ĠÎ¿ T
viv ruS
ĠÏĤÎ·ÏĥÎ·Ïģ Î®ÏĦ
ĠÎ±Î¯ÏĥÎ±Î¼ Î¹Î¿ÏĦÎµÎ¿ÏģÏĢ
ĠÎ±Î¯Ïĥ ÎµÏģÎ·ÏĢÎ¥
ĠÎ¹ÎµÏĥÎ® Î¸ÏħÎ¿Î»Î¿ÎºÎ±
ÎŃÎºÏĥ Î±Î¹Î´
Î¿Î¼ Î¹Î±
ĠÎ¿Î¹ Î±Î»Î¬ÏĨÎµÎº
Î¹Î´ Î¿Î¼ÏģÎ±
e b
ÎĹ ÎķÎĶ
Î½Ïī ÏĢ
Ġre puS
Î¯Î±ÏĨ Î±
ĠÏĤÎ® Î»Î¿ÏĩÎ£
ÏħÎµ Î³
Î½Î±ÏĦ ÏĮ
Î·Î½ ÏĩÎµÏĦ
ĠÎ·ÏĥÎµÎ¸ Î½ÏįÏĥ
6 5
ĠÏĤÎ¹ÎµÏĥ ÏįÎ´Î½ÎµÏĢÎµ
ĠÎ® Î³ÏīÎ³Î±ÏĥÎ¹Îµ
ĠÎ·ÏĪÎ·Î» Î¬Î½Î±
ĠÎµÏĦÎ¿ÏĢÎ®Î´ Ïĥ
ĠÎ® Î½Î±ÏĩÎ·Î¼
ĠÏĤÎŃ Î½Î¸ÎµÎ¹Î´
Î¿Î¹Î» Î¹Ïĩ
ĠÎ¹Î±ÏĦÎ½Î¿Î¶ Î¯ÏĦÎµÏĩÏĥ
Î¼ Î¯Î»
Î¯Î¼ Î·Î¶
Î·ÏĦÏģÎ± Î¾ÎµÎ½Î±
Î® Îĸ
ĠÏĤÏĮ Î¹Î¿ÏĢÎ¿Î¸Î·
Î±ÏĦ Î½Î¬
Î·ÏĦ ÎºÎ±ÏģÎ±Î§
Î» Î±Î½Î±ÏĦÎ±Îº
Î½Î±Î¼ Î¹Îº
Î³ÏįÏĨ Î¿ÏĢÎ±
Ġse i
ĠÏĤÎ¿ÏĦÎ±Î¼ Î®
Ġ Î»ÎŃ
á ¾
Î·Ïĥ Î±ÏģÏĮÎµÎ»Î·ÏĦ
Î² ÎµÏĦÎ±Îº
Î¯ÎµÎ» Îļ
ĠÎ¿ Î³Î¯ÎĽ
ĠÎ® ÎºÎ±Îº
ÏįÎ¿ Î¹Ïģ
Î»Î± ÏĢÎ±
ÏĥÎ± Îł
ĠÎ·ÏĥÎ±ÏĦÏĥÎ¬ÏĦÎ±Îº Î¿ÏĢÎ±
ÏĤÎ± ÎŃ
Î³ÎŃ ÏĦÏĥ
ĠÎ·ÏĥÎ·ÏĦ Î¬ÏģÎº
Î»ÎµÏĦ Î¹ÏĢÎµ
ÏĮÎ¼ ÏĥÎ¹ÏĦ
ÎĿÎĻ ÎŁÎļ
ÏįÏģ ÎºÎ±Î¼Î¿ÏĢÎ±
ÏħÎ¿ÏĢ ÏİÏģÎ¸Î½Î±
ĠÎ¹Îµ ÏģÎ¬
Î¯Ïģ Î´
ĠÎ·ÏĥÎ±ÏĦÏĥÎ¬ÏĦÎ±Îº Î³Îµ
Î¬Î½Î± Îĺ
fo sor
Î½Î¬ Î³Î¿ÏĦÎ½ÏģÎķ
ÎĻ ÎĳÎ¤
Î¿Î´ Î¹ÏĢÎµ
ĠÎ¬ ÏģÎµÎĻ
Î¬Î² Î¹ÏĢÎµ
Î½ÏħÎ¸ÏįÎµ Î¹ÎĶ
Î±Î¼ ÏħÎ±Î¸
Î·Î»Î± Î»Î»ÏħÏĥ
Î»Î¹ÏĨ Î¿Î¼Î·Î´
ÏĨÎ¼ Îĳ
Ġ3 3
ĠÎµÎºÎ·Î¸ Î¬ÏĦÏĥ
ĠÎ±ÏĦÎ·ÏĦÏĮ Î½Î¹Î¿Îº
stro ps
ÏĤÎ·Ïĥ ÏħÎµ
ĠÎ·ÏĥÎµÎ¸ÏĮÏĢ ÏĭÎ¿ÏģÏĢ
ĠÏĤÎ® ÎºÎ±Î¹Îµ
ĠÎ¹Î±ÏĦÎµÎ½ Î¯ÏģÎº
ÎµÎºÏĥ Î¯ÏĢÎµ
ĠÏĤÎ® ÏħÎµÎºÏĥÎ±ÏĦÎ±Îº
ĠÎ¹ÎµÏĦÏĢ ÏįÎ»Î±ÎºÎ¿ÏĢÎ±
e ci
Î±Î¼ÏīÏĥ Î½Îµ
u a
ĠÏĤÎ·Î» ÏĮ
ÏĩÎŃ ÏģÎ±ÏĢ
Î¸ ÏīÎ¿ÏģÏĢ
ÏģÎµÏĦÏĥ ÎŃ
ĠÏĮ ÏģÎ±Î²Î¿Ïĥ
Î³Î¬ Îł
Î¬ ÏĨÎµ
Î±ÏĨ ÏĥÏĮÏģÎł
Î¹Î±ÏĦÎµ Î½Î¯Î³
ÏĮ Î½Î¹Î¿Îº
e vi
Ġs we
ĠÎ® ÏĥÎ¹
Î¬ÎºÎ¹ Î»
ÏģÎµ Î¤
Î¸ÏģÎ¿ Î¹Î´
ÏĦÏĥÎ±Ïģ ÏĨ
Î¿ÏĢÎ¼ ÏħÏĥ
Î±Ïģ Î¿Î³Î®ÏģÎ³
ĠÏĤÎ¿Î¼ ÎµÎ»ÏĮÏĢ
Î·Î¼ Î±Î½ÏįÎ´
ÏįÎ¿ ÎĽ
V T
ÏĩÎµÎ´ Î¿ÏĢÎ±
ÏĮÏĨ Î¿ÏģÎ·Î»ÏĢ
Î¦ ÎĳÎ¡Îĵ
ĠÏį Î¿Î´
ĠÏĤ Î¹Î¿ÏĦ
ĠÏĤÎ·Ïĥ Î·Î³Î®
ĠÎ¯ Î´
ĠÎ½ Î®ÏĦ
ĠÏĤÎ±Î¯Ïĥ Î±ÎºÎ¹Î´Î±Î¹Î´
Î³ Î·Î½ÏħÎº
ĠÎ½Î±Ïĥ Î·Î¯Î¿ÏĢ
Î² Ïħ
ÏĮÏĦ Î±Î¹ÏĦÏĥÎµ
ĠÎ·Î¾Î±ÏĦ Î½ÎŃ
ĠÎµÏĥ ÎµÏģ
ÏģÎŃÏĦ Î½Î¿Î¼
Î¿Î½ ÏĢ
ĠÎ¹ÎµÎ½Ïİ Î¹ÎµÎ¼Î·Ïĥ
Î±Î¯ ÏĩÏħÏĦÎ¹ÏĢÎµ
ĠÎ±Î¯ Î³ÏģÎµÏĢÎ±
ĠÎ¹Îµ ÏįÎµÏģ
ÏħÎµÎºÏĥ Î·ÏģÎĺ
ĠÏĤÏīÏĦ Î½Î¬Îł
ÏĮ ÎĴ
ĠÏĤÎ± Î¯ÏĦÎµÎ±ÎºÎµÎ´
ĠÎ±Î½ Î¿Î¼
ÏĮ Î±Î»
ĠÎµÏĥ Î·ÏĦÏĥ
Î¼Î±ÏģÎ³ ÎµÎ³
ĠÎ½ ÏįÎ¿Îº
Ïĥ Î±Ïģ
Ïĩ Î¿ÏģÏĦ
# #
ĠÎ±Ïģ ÏĦÏĥ
Î¿Î´ ÏĮ
ĠÏĤÎ®Î»Î¿Î² Î¿ÏĢÏħ
Î½Î¹Î¿Îº Î±Î½Îĳ
Î¹ÎµÎ» Îļ
Î½Î± Î¹Î»
t ni
g re
ĠÎ£ ÎķÎ¤
Î¯ ÎĴ
ĠÎ±Ïģ Î´
ĠÎ¹Îº Î¬Î»
Î¿Ïĥ ÏĥÎ¹
Î½ÎµÎ¼ÏħÎ¿ ÎºÎ¹ÎŁ
w a
ĠÏĤÏįÎ¿ÎºÎ¹ÏĦ Î¹Î»Î¿ÏĢ
Ġ Î¾ÎµÏĥ
ÏĦÏĥÎ¹Ïģ Î±
Î»Î± Î³Î¿ÏĦ
ÏĨ Î±ÏģÏĦÏĥ
Ġk e
ĠÎ·Ïĥ Î·Î´Î¯Îµ
ÎŃ Î±
ÏģÎµÏĢ Î¥
Î·ÏĦ Î®Î½Î±Î»ÏĢ
Î·ÏĦ ÏĢÎ¼ÎŃÎł
Î¹ÎµÎ» ÎŃ
ĠÏĤÎ¬Ïģ Î¹ÎµÏĥ
ĠÎ±Î¹Î½ÏĮÏģ Î§
Î¹ÎµÏĩ Î¹Î¿ÏĦÏĥ
ĠÎ¹Î¿ÏĦ ÏİÏģÏĢ
Î³ÏģÎµÎ½Îµ Î¹Î´
Î·Î½ Î³Î±Î¼
ĠÎ¬ÏĦÏĥÎ¹ Î¸Î±Îº
d lo
ĠÎ¹ÎµÎ¶Î¯ Î¾Îĳ
to hp
Î¹ÏĢ Îľ
Î·Î»Îº Î¿Î»ÎŁ
Î·ÏĦ ÏīÏģÎµ
Î³Î±Î»Î»Î± ÏĢÎ±
Ïĩ Îĳ
Î¿Î½Î·Î»Î» Îµ
Î½Î¿ Ïĥ
;; ;
ÏĨÏģÎ¿Î¼ ÎŃÎ½Î±ÏĢ
Ġ,) .
ĠÎ¿Î¹Ïģ Î¯ÏĦÎº
ĠÎ±Î¹Îµ ÏģÏĮÎ²
Î¿ Î»Î»Î±
Î» ÎĨ
ĠÎ¹ÎµÏĪ ÎŃÏģÏĦÏĥÎ¹ÏĢÎµ
ĠÏĤÎ·Î½ ÏĩÎŃÏĦ
ĠÎ·ÏĦ Ïİ
Î¹ÏĢ ÎŃ
ÏĥÎ± Ïĩ
9 5
Î¹ÏĥÎ¬ ÏħÎŁ
f fo
Î³Î¿Î»Î» ÏįÏĥ
Î±ÏģÎ´ Î±Î¹Î´
ÏģÎ¿ÏĢÎ¼ Îķ
ĠÎ±ÏĦ Î¹ÎµÏĢ
ĠÎ¹Î¿ÏĢ ÏĮÏģÏĦ
ĠÎ¿Î¯Îµ Î²Î±ÏģÎ²
Ïĩ Î¿Î´
ÏħÎ¿ÏĦÎ®Ïģ ÏģÎ¿ÏĢÎĳ
Î±Î¹Îµ Î½ÎŃÎ³Î¿ÎºÎ¹Î¿
Î³ÎµÎ» ÏĨ
Î·Ïģ ÎºÎŃ
ĠÎ¿ Î¸
ĠÎµÏĥ Î¹ÏĦ
Î±Î´ ÎŃÎºÏĥÎ±Î¹Î´
ĠÎµÏĥ Î±ÏĢÏĥÎŃ
ÏħÎµÏĦÏĥÎ¯ÏĢ Îĳ
ĠÎ½ á¿¶
ÏħÎ¿ Î½Î¯
ÎºÎ³ ÎµÎ»
ĠÏĤÎ¿Ïģ ÎµÏĦÏĮ
u G
ÏįÎ³ Î³Îµ
ĠÏĤÎŃ Î»Î¿Î²Î¿ÏģÏĢ
ĠÎ¹Î±ÏĦÎ½Î¿ ÏĥÏĥ
ÏħÎ¿ÏĢ Ïĥ
ĠÎ½Ïī Î»Î®
ĠÎµÎºÎ·Î¸ ÏĩÎŃÎ´
ĠÎ®Î¼ ÏīÏģÎ·Î»ÏĢ
Î½Î¹ÏģÎº ÏħÎµÎ¹Î´
ÏĤÎ®Ïĩ Î¿ÏĢÎµ
ĠÎ±ÏģÏĦ ÎµÎ¼ÏĮÎ¹Î»Î¹Ïĩ
ĠÎ¬ÎºÎ¹ Î½ÎµÎĵ
ĠÎµÏĦÎ¿ÏĦ ÏĥÎ¬ÎºÎµ
ÏģÏĦ Î±Î»
ĠÎ® ÏģÎ±Î²Î¿Ïĥ
Ġro f
Ïį ÏģÏĦ
Î¡ ÎŁÎł
Î½Ïī Î½
Î±Î¯ÏĥÏħÎ¿ Î¾Îµ
ĠÏĤÎ±ÏĦ Î½Î¿ÏĨ
ĠÏİ ÏģÏīÎµÎ¸
Ïĩ Î±Î»
Î¿Ïĥ Î¿ÏģÎł
Î¹Î»ÎŃÏĥ Î¿ÏĦÏīÏģÏĢ
Ïĩ Î±Î½Î¿Î¼
Î± ÏģÎµÎº
e G
Î·Î¸ Î½Î¬Îŀ
ĠÎ±Î½Î± Î³ÏģÏĮ
ĠÏĤÎ· Î½ÏİÏĦÎ½Îĳ
ĠÎ·ÏĥÎ¹Ïģ ÎºÎ³ÎŃ
ÏĤÎ¯ÎµÎ¼ Îµ
ĠÏĤÎ¬ÏĦ Î·ÏĦÏĮ
Î¬ÎºÎ¹ ÏĥÏħÏĨ
Î¿ Î¯Î»Î²Î¹Î²
Î¥ÎŁ Îľ
ĠÏĤÎ±Î¯ ÏĥÎ±Î³ÏģÎķ
á¿ ¦
ĠÎ¹Î±ÏĦÎµÎ¶Î¯Ïģ Î¿
ÏĤÎ® ÏĢÎ¿ÏģÏĦ
ÏĮÏģ ÎĶ
ĠÎ· Î´Î¬
Î¹ÎµÏĢ ÏĮÏĢÎ±
ĠÎ·ÏĥÎ¹Ïģ ÎºÎ³ÏįÏĥ
ĠÎ±Î¯Î¼ ÏħÎ¸Î¹ÏĢÎµ
ff O
ĠÏĤÎŃÏģÎ¿ÏĨ Î±Î½Î±
Îķ ÎĽ
Îº Î»Î±Î§
ĠÎ½Î±ÏģÎµÏĨ Î¬ÏĦÎ±Îº
ĠÎ® Î»Î¿Î²Î¼ÏħÏĥ
Ġ wo
Î¹ Î»Îµ
ÏģÎŃÏĦ Î½
ÏĤÎµÎ¯Ïĥ ÎµÏģÎ·ÏĢÏħ
Î·Î½Î¹Îº Î¿ÏĦÏħÎ±
Î¹Î² Î±ÏģÎ±ÏĢ
Îº Î£
ĠÎ±Î¯Î¼ Î±Î½ÏħÎ´Î±
ĠÎ®ÎºÎ¹ÏĦ ÎºÎ±ÏģÏĢ
Î»Î¬ Î¹Î´
ĠÎµÎ¾Î± Î»Î»Î¬
ĠÏĤÎ·ÏĦ ÏİÎ¹Î³Î±Î½Î±Îł
Î»Î±Îº Î¿ÏĢÎ±
ĠÎ¿Î» ÎºÏįÎº
Î¹Î»ÎµÎ¼ ÎµÎ¸
Îĳ Î¤Î£
ĠÎ¹Î±ÏĦÎµÎ½Ïİ Ïģ
ĠÎ½Î¿Ïĥ ÎĮ
ÏĦÏĢ Î±ÏģÎ³
Î¹ÎµÏĢ Î±ÏĦ
ÏĤÏħÎ¿ ÏĨ
ĠÎ¿ÏħÏĦÎºÎ¯Î´ Î±Î¹Î´
ĠÎ½ÏħÎ¿Î¶Î¯Ïģ Î·ÏĦÏĥÎ¿ÏĢÏħ
ĠÎ¬ÏĦÏĥ ÏīÎ½Î³
ĠÎ·ÏĥÏīÏĢÏįÏĦ Î½Îµ
Î»Î® Î±ÏģÏĥÎĻ
Î½Î¬ Î½ÏħÎ£
ĠÎ±Î»Î¬ Î³
Ïī Î¹Î²
ĠÎ»Î¯ÏĨ Î¿ÏģÏĢ
Î½Îµ Î³ÏģÎĳ
Î±Î¯ ÏĨÎ±ÏģÎ³
ÎķÎł Îĳ
ĠÎ¿Î¹Ïģ Î´ÎŃÎ½ÏħÏĥ
ra B
Î±ÏĦ ÏīÏģÎł
Î½Îµ ÏĨÎ±
ÏħÏĩÏĥÎ¹ Î½Îµ
ÏĩÎ¯ ÏĦÏĥ
Î¶ÏĦ Î¿Îļ
ÏĦÏĥÎ¹ Î±Î»Î±Îł
Î½Îµ ÎºÎ¯ÏĢÎµ
o b
ÏħÎ¿Î¯Î»ÏħÎ¿ ÎĻ
ÎµÎ¸ Î¬Îº
ĠÏĤÎµÎ½ÎŃÎ¼ ÏīÎ½ÎĹ
ÎµÎ» Î·Î¤
Î· Î³Î¿Î»Î¿Î¹Î±ÎºÎ¹Î´
ÎķÎļ Îļ
ÏħÎ¿ Î¶
ĠÏĤÎŃÎºÎ¹ Î»
Î½Î¬Î¼ Î·Ïĥ
ĠÎ¿Î¯ Î¿Î»ÏĢ
ÏĤÎ¹ÎµÏĥÎ® Î´Î¹Îµ
Î¿Î» Î¿Îº
Î½Ïī ÏģÏĦÎŃÎ¼
ÏĤÎ± Î¯ÎµÏĦ
Î¿Ïģ ÎºÎµÎ½
Î½Î¿ Î¹ÎĶ
Î³Î¬ÏĦ Î½ÏħÎ£
ĠÎ±ÏĦ ÏģÎ¬Îº
ĠÎ¹ÎµÏĥ Ïĥ
Î¼ ÏģÎµÎ´Î¹ÏĢÎµ
Î¸Î¬ Î»Î±Îº
ĠÎ¹ÎµÏĥ ÎŃÏģÎ¿ÏĢÎ¼
s uo
ĠÏĮÎ¼ ÏĥÎ±Î²ÎµÏĥ
u Q
ÏİÏģ ÏħÎº
Î² Î¹Î¿Î¼Î±
ĠÎ½ÏįÎ¿ Î¸Î·Î¿Î²
Î½Î± Î¾
ÎµÎ³Î³ Î¬
ĠÎ¹Î±ÏĦÎµ ÏįÎµ
Î¿Î½Î·Î»Î» Îķ
Î· Î½Î¬
ĠÏĤÎ±Î¯ Î³Î¿Î»Î¿Î½ÏĩÎµÏĦ
ĠÏĤÎ¹Îµ Î¶
ĠÎ¬ÎºÎ¹ ÏĦÏĥÎ¹
Î¹ Î½Î¯
ĠÎµÏĥÏī Î¯
ĠÎ·Î¾Î±ÏĦ Î½ÏįÏĥ
ĠÏĤÎ® ÏĨ
Î·ÏĦ Î±ÏģÎ±ÏĢ
ĠÎ½Î±Î½ Î¹ÎµÎ¼
Îµ Î¹Î²
ÎºÎŃ ÏĦÏĥ
Â« (
ĠÎ¬ÎºÎ¹ÏģÎ¿ÏĨ Î±Î½Î±
ÎĶÎĵ Îł
ĠÎ¯ÎµÎ¸Î· Î³ÏģÏħÎ¿Î¹Î¼Î·Î´
ĠÏĤÎ±Î¯ Î½ÏīÏĨÎ¼ÏħÏĥ
ĠÎŁÎ¤ ÎĳÎĿ
ĠÎ¹ÏĦÏĮ Î¹ÎĶ
ĠÎ£ ÎĻÎ¤
Î½Î¿ Î¹ÎµÎ¼
ĠÎ±Î¼Î¿Î½ ÎĮ
Î½ÏĩÎµÏĦ Î¹ÏĥÎ±ÏģÎµ
ĠÎ±ÏģÏħÎ¿Î³ Î¯Î£
ĠÎ±Î½Î¯ Îļ
ĠÎ±Î»ÏĢ ÏĮ
ĠÎµÏĩÎ¯Îµ ÏĦÎµÎ¼Î¼ÏħÏĥ
Î³ÏīÎ³Î±Ïģ Î±ÏĢÎ±Î½Î±
Î²Î¼ ÏĮÎº
ĠÎ½Î±Ïĥ Î·Î»
Î¼ Î¬Î»
Î½ÏħÎ¿ Î¶Î¬
C I
Î·ÏĦÏĮ Î´Î¿
ĠÎ±Îº Î±Î½Î¯ÏĢ
ÏĤÎ·Ïĥ Î±ÏĦ
fosor ciM
ÏħÎ¿ ÎŃÏģÎ´Î½Î±ÏĢÎ±Îł
ĠÎµÎ½Î¹ Î±Î³
Îĳ Îĵ
ĠÎ½Ïī Î½ÏĮÏģÏĩ
Î¿Î¼ Î¹Î¼Î¿Î½
ĠÎ·ÏĥÎ½ ÏħÏģ
ĠÏĤÎ¿Î» ÎµÏĨÏĮ
ĠÎ·ÏĥÏī Î½
Î¿ÏĦ Î±Î²Î²Î¬Î£
ĠÎ¬ÎºÎ¹ ÏĢÎ¿ÏĦ
ĠÏĤÎ¹ÎµÏĥÎ®ÏĦ Î¹Î±
ÏīÎº ÏħÎµÎĽ
ĠÏĤÎ±Ïģ Î´Î½Î¬
ĠÎ¿Î¯Îµ Î»Î±Î³ÏģÎµ
Î½Ïī Î»ÏĮ
t ta
ĠÎµÎºÎ·Î¸Î® Î³ÏģÏħÎ¿Î¹Î¼Î·Î´
ĠÎ¬ÏĦÏĥ Î¿ÏĥÎ¿ÏĢ
Î½ ÏįÎ¿Îº
ÏĨÎ±ÏģÎ³ ÎŃ
ĠÎ·ÏĥÎ·Î¼Î¯ÏĦ ÎºÎµ
Î¹Îµ ÏĨÎ¿
ĠÎ® ÎºÎ±Î»ÏħÏĨ
ÎµÎ» Î±Îº
ĠÎ·Î¾ Î¹ÎµÎ´Î¬Î½Î±
7 5
ÏįÎµ ÎºÏĥ
ÏĨ ÎŃÏģÏĦÏĥ
Ġna i
Î»Î¬ ÏĢ
ÏĥÎ± Î½Î±Î¸
ÎºÎ·Î»ÏĢ Î±ÏĦÎ±Îº
ĠÎ·Î½ÎŃÎ¼ ÏĥÎ±
Î±Î» ÏĥÎ¹
ĠÏĤÎ¿Î» ÏħÎ¿Î²Î¼ÏįÏĥ
ÏĢÎµÎ» Î²
ĠÎ·ÏĥÎ±Ïģ Î´Î¯ÏĢÎµ
ĠÏĤÎ® ÏĩÏģÎ±
Ġ ÎĽ
ĠÏĤÎ·ÏĥÏī Î½Î¬Î³ÏģÎ¿
ĠÎ¿Ïģ ÏįÎ³
x erB
ĠÎ±Î¹ Î²
Î± ÎŃÎĿ
ĠÎ¹ Î±ÎĿ
ĠÏĮÎºÎ¹ÏĦ Î±ÏĦÏĥÎ¹ÏģÎµÏĢ
w or
Î±Î¼ ÏģÎ±ÏĨ
ĠÎ·ÏĥÏī Î½Î¯Î¿ÎºÎ±Î½Îĳ
ÏĤÏħÎ¿ÏĦ ÎŃ
ĠÏīÎ¶Î¯ Î¼Î¿ÎĿ
ĠÎ±Î¼ Î¿Î´
ÎŃ Î½ÏħÏĥ
Î¿Î´Î¹Îµ Î¿ÏģÏĢ
ĠÎ¬ÎºÎ¹ Î½Î¿Î½Î±Îº
ĠÏĤÎµÎ¯Ïģ Î¹Î±ÎºÏħÎµ
Î³Î±Ïģ Î¬
Î·Î» Î±Îº
ÏĥÎŃ Îľ
ĠÎ±ÏĦ Î»ÏĮÎ²
ĠÎ¬ ÏģÎµÎ½
ÏĦÏĥ Î·Î»
ĠÏĤÎ±Ïĥ ÏĦ
Î±Î¯Îµ ÏĢÎ±ÏģÎµÎ¸
ĠÏįÎ¿ÎºÎ± Î¹ÏĢÎ¼ÏħÎ»ÎŁ
ÏįÎ¿ÏĦ Î»ÏħÎ¿Îº
ĠÏĤÎ± Î¹ÏĥÏĮÎ¼Î·Î´
Î¹Î´Î¹ Î¾Î±ÏĦ
ÏģÎ¿ÏĦ ÎºÎ±ÏģÏĢ
Ïį ÎºÎ±
Î¸Î®Î» Îĳ
Î·Î»Î» Î¿Îº
ÎµÏĦÏĥÎ±Î¼ Î¯Îµ
ÏĤÎµÎ´Î¬Î¼ Î¿
Î¯Î±ÏĦ ÏĨ
ĠÎĹ Îļ
ÏįÏĦ ÏģÎ±Î¼
ÏħÎ¿ Î½Ïģ
ÏįÏĥÎ¿Î¼ ÏħÎºÎ³Îµ
Î¹Îµ Î½Î¯Î³
Î¯ÎµÎ´ Î¹Î±ÏĢ
ÏįÎ³Î³ÎµÎ» Î·Î»Î»Îĳ
ĠÏĤÎ± ÎŃÏģÎ´Î½Îĳ
Î»Îµ ÏĢÎ±
ĠÎ½ÏħÎ¿Î¶Î¬ Î¹ÏĥÏħÎ¿ÏģÎ±ÏĢ
Î¹Ïģ Î®ÏĦ
ĠÎ· ÏģÎµÏĦÏĮÏĥÏĥÎ¹ÏģÎµÏĢ
Ïģ Î³
ĠÎ¶ Î¬ÏĦÏģÎ¿ÏĢÎµÏģ
ĠÎ½ÏħÎ¿Î¶Î¯ ÏĩÎµÎ½ÏħÏĥ
ĠÎ¿ ÎºÎ¯ÎĿ
Î® Î½Î¿Î¼
ĠÎ½ÏİÎ¹Ïģ Î¿ÏĨÎ¿ÏģÎ·Î»ÏĢ
ĠÏħÎ¿Î¼ ÎŃÎ»Î¿ÏĢ
Î·Î¼ ÎºÎµÏĦ
00 02
ĠÏĤÏĮ Î½
ÎŃÎ½ Îĳ
ĠÎ¯Î¿Ïģ ÎºÎµÎ½
ĠÎ·Î¾ Î®Î»
Î¬ ÏĩÎ¹Îľ
ĠÎ¹ÏĦ Î±Î¼Î³Î¬ÏģÏĢ
ĠÎ®Ïĩ ÏģÎĳ
r C
er tS
N E
ĠÎ¿ ÏģÎµÏĦÎ¯Î±Î¹Î´Î¹
ÏĤÎ¹ÎµÏĥ ÎŃÏĩÏĥ
Î¶Î¯Ïģ Î¿
ĠÎ¿Î½Î¿ÏģÏĩ Î³ÏįÏĥ
ÏĥÎµÎ´ Î½ÏįÏĥ
Î¬Î² Î²Î±Î£
ĠÎµÎºÎ·Î¸Î® Î¹Î¿ÏĢ
Îľ Î¥Î£
ÏĤÎ¿ Î³ÏĮÎ»
k ci
ÎµÏģÎº ÎºÎµ
Î¿Ïģ Îº
Î»Î±Î¹Ïĥ Î¿Ïĥ
ÏħÎ¿Î¯Ïģ Î²Î¼ÎµÏĦÏĢÎµÎ£
ĠÎ·Ïĥ Î±Î»
ĠÏĤÏİ Î¸Î±Îļ
Î·Ïĥ Î¬Î²
ÏģÎ±Ïĩ Î¬Î¶
ÏīÏĦÎ¬Îº Î±ÏģÎ±ÏĢ
ĠÎ±Î¹ÏģÎ¬ Î»Î¿Î´
Î½Î±Î¼ ÏīÎ¸
Î´Îµ ÏĮÏģÏĢ
Î½ ÎŃÏĦ
Î»Î±ÏĦ Î¹ÏĢÎ±Îº
ĠÎ½ Î±ÏĢ
ÏĥÏİ Î½
Î· Î¿Î²
Î½Î¹ÏģÎµÎ¼ Î·Î¸Î±Îļ
Î»Î¿ Î¸Î±Îº
ÎĹ Î£
ĠÎ±Ïĥ Î·ÏĦ
ÎĶ ÎŁ
Î¹Î¾ ÏħÏĦÏĢÎ±Î½Î±
ĠÏĤÎµÎ¯Î» Î¿ÎºÏĥÏħÎ´
ĠÏĤÎ¿Î´Î¿ Î¯ÏģÎµÏĢ
Î¿Î³ Îĳ
ĠÎ·ÎºÎ®Î¸ ÏĥÎ¿ÏģÎł
ĠÎ·Ïĥ ÏĮÎ´
Î½ÏĮÎ¼ Î·Î½Îľ
ĠÏĢ Î±
Ġ4 3
ÏĦ Î¿ÎºÏĥ
ĠÎ½ Î¹Ïĥ
DI V
ĠÎ¿ÏĦ ÎŃÎºÎ±ÏĢ
ĠÎ®ÎºÎ¹ Î½Î¿ÏģÏĩ
ĠÎ·ÏĥÎ·Ïģ ÏİÎµÎ¸
ÏħÎµ ÏĦÏĥÎ¹ÏĢ
Î®ÏĦ ÏĢ
ĠÎ·ÏĥÎ¹Î¼Î¸ Î¬Î²Î±Î½Î±
ÏħÎ± Ïĥ
Î¿Î¹ Î¾Î±ÏĦÎ½ÏħÏĥ
Ġe ma
Î¼ ÏģÎµÎ¸
Î»Î»ÎŃ Î³Î³Î±ÏĦÎ±Îº
ÎŃ ÏĦÏĥÎ¹ÏĢ
Î±ÏĨ ÎŃ
ĠÏĤÎ±Î¯Ïģ Î¿ÏĨÎ¿Î»ÎºÏħÎº
Î·Ïĩ Î±Î¼
l lo
Î´Î¿ Î¿ÏģÏĢ
Î¹ÏĦ ÎĿ
ĠÎ½ Î±Î¼
ÏįÎ¿Îº Îĳ
ĠÏħÎ¿ÏĢ ÏİÏĥÎ¿ÏģÏĢ
ĠÎ® ÏħÎµÎºÏĥÏħÏĥ
ÏħÎµ Î»ÏħÎ¿ÎĴ
ĠÏĤ Î¿Î´Î¿Î½
ĠÎ¬ Î¹Îº
ĠÏħÎ¿Î¯Ïģ Î·ÏĦÏĥ
Î·Ïĥ Î¬ÏģÎ´
ÎŃÎ½Î± Î½Î±
ĠÎ¹ÎµÏĥÎ® Î»Î¹Î¼
Î»Î¿ Îļ
T O
ĠÎ½ÏħÎ¿ÏĥÎ¬ ÏģÎµÏĢ
Ïİ ÏĦÏĥÎµÎ¸Î±Îº
t te
ÏĤÎ¿Ïģ Î¬Î²
Î½Î±ÏĨ Î®
Ġ) %
Î¿Ïĩ ÏħÎ¨
e ta
ĠÎµÏĦÎ¿ÏĢÎ®Î´ Î¹ÏĦÎ¿
Î¹Ïĥ Î¬ÏģÎł
ĠÎ·ÏĥÎ±Î²Î¼ ÏįÏĥ
ÏĥÏİÎ» Îĵ
ÏĥÎ¯ Î±Î½ÏħÏĥ
ÏĩÎµ ÏĥÎ¿ÏģÏĢ
l b
Ïĥ ÏħÏĥ
Î¿Î¹Ïģ ÏįÎ±
ĠÎ½Î±Ïĥ Î·Î½Î¯ÎºÎµÎ¾
Î·Î»Î» ÏħÏĥ
Ġ8 4
ĠÎ·Ïĥ ÎµÎ¼
Î·Î½Î¯ ÎºÎµÎŀ
ĠÏĤÏĮÎºÎ¹ÏĦ Î¹Î»Î¿ÏĢ
Î» Î±Ïĥ
ĠÏĤÎŃ ÏĨÎ¿ÏģÏĦ
Î³ÏĮ ÏĥÎµÎľ
Î±Ïģ Î®ÏĦÎºÎ±ÏģÎ±Ïĩ
Î½ÏĮ Îł
Î¹ÏĢ Î¿ÎºÎ£
ÏĤÎ±Î¯ ÏĥÎ±Î³ÏģÎķ
s cip
ĠÏįÎ¿Î² ÎµÏĦÎ½Î±Ïģ
ĠÎ¹Îµ Î»Î¯ÎµÏĦÏĥ
Î·Ïĥ ÏīÏģ
ÎĿÎķ Îĵ
Î¹ ÏģÎµÎ¼
ĠÎ·Ïĥ ÏħÏģÎ´Î¯
Î¯Î±ÏĨÏĥ Î¿Î´Î¿ÏĢ
ĠÎ® Î¼Î¿Î½
Î±Î½ ÎµÎ¼ÏĮ
Î±ÏģÎŃ ÏĢÎ¼ÏħÏĥ
ÎºÎ¿Î´ ÏĥÎ¿ÏģÏĢ
ĠÎµÏĥ ÏīÏģ
ÏĥÏĥ Î±Î»
ĠÏĤÎµÏĦ ÏĮÏģÎ³Î±
Î¿ÎºÏĥÎ¯ ÏĢÎµ
Î±Î´ Ïħ
ĠÎ®ÎºÎ¹ÏĦÎ±Î¼ Î»ÎµÎ³Î³Î±ÏĢÎµ
Î¯ ÏģÎµ
Â ¨
Î¬ÏĦ ÎµÏĢ
Î¯ÎµÏĢ ÎĹ
ĠÏĤÏĦ Î¹Î²
Î½Î±ÏĢÎ± Î´
Ġeno hPi
ÏģÎ± Î³
ĠÎµÏĦÎ¯Îµ Î¹Î¿ÏĢÎ¿Î¼Î¹ÏĥÎ·ÏģÏĩ
ĠÎ½ÏīÎµÏĥ ÎŃÏĩÏĥ
Î±Ïģ ÏħÏĢ
ĠÎ®Î½Î¿Î¼ Î±Î¹Î´
ĠÎ±Î¹Îµ Î½Î¬Î´
ĠÏĤÎµÎ½ Î¯ÎµÎºÎµ
ÏĨÎ¿ÏģÏĦÏĥ Î¹ÏĢÎµ
ĠÏĤÏĮ Î³Î·ÏĩÏģÎ±
Î·Î¾ ÏįÎ±
ĠÎ¬Î¹Îµ Î½ÎŃÎ³Î¿ÎºÎ¹Î¿
Î½Î¬ Î»
ĠÎ·Ïĥ Î¬ÏģÏĨ
ht A
ĠÎ¬Î¹ Î½ÎµÎ³
ÏħÎ½Ïİ ÏĢÎµ
A R
ÏĥÎŃÎ´ Î½ÏħÏĥ
ĠÎ®ÎºÎ¹ Î½Î±Î¼ÏģÎµÎ³
ĠÎ½ Î¿Î½
Îº Î¿Î»
ĠÎ½ÏİÎºÎ¹ Ïģ
ĠÎµ Î½Ïī
L E
Î±Î» Î¿
ĠÎ· ÏģÎµÏĦÏįÏģÏħÎµ
Î¿ÏĦ Î±ÏĦ
ĠÏĤÎµ Î½Î¯
ĠÎ¯ÎµÎ¸Î· Î¹Î¿ÏĢÎ¿Î¼Î¹ÏĥÎ·ÏģÏĩ
ĠÎ· Î½ÏĮ
ÏĮÎ´ Î¹ÏĢÎµ
ÎŃÎ´Î¹ Î¾Î±ÏĦ
Î¬Ïģ Î±ÏĦ
ĠÎ½Î±Ïĥ ÏįÎ¿Î»
ÎºÎ¹ÏĦ ÏīÎ¹Î´Î¹
ĠÏĤÎ® Î³ÏīÎ³Î±
ĠÎ± Î²Î±Î»
Î¿Î» Î±Îļ
ĠÎ·ÏĦ Î¬Î¼ÎµÎ³
ĠÎ¿Î½ÎŃÎ¼ Ïī
Î¹Î»Î¸ Î¬ÏĦÎ±Îº
ÏĢ Î¿Î»Îº
ĠÎ¹Î±ÏĦÎ¯Îµ Î¹Î¿ÏĢÎ¿ÏĦÎ±Î¼Î³Î±ÏģÏĢ
ĠÎ¬ ÎºÎ±Î¹Î´Î±ÏĦÏĥ
Î¯Î» Î¸
8 8
3 5
ĠÏįÏĩ ÏĥÎ¹
Î¿Ïĩ Î·
ĠÎ¬ÎºÎ¹ÏĦ ÏħÎ´
Î¿Ïĩ Î£
ĠÏĮÎ¼ Î¸ÏħÏģ
Î¹Î² Î¹ÏĢÎµ
ĠÏĤÎ·Î¾ Î¹ÏģÎ®ÏĦÏĥ
ÏħÎ¿ Î¹Îĵ
ĠÎ½ ÎŃÎ´
ÏĩÎ¹ Î¿Î½Îĳ
ĠS O
ĠÎĳ ÎļÎĻÎ¤
Î¯Î±Ïĩ Î±Î¼
ĠÎ¿Î½ÎŃÎ¼ Ïĥ
ÏħÎ¿ Î²Î¼ÏįÎ£
Î¾ÎŃ ÏģÏĦ
ĠÏī Î³Îµ
Î¹Îµ ÏĢÎ¼ÎŃ
ĠÎ®ÎºÎ¹ Î´Î¹Î±ÏĢ
ÏĤ ÏĮÎ½
Î¸Î½Î± Î¾
Î± Î³Î³
ĠÏĤÏĮÏĦ Î±Î¼
ĠÎ®ÎºÎ¹ÏĦ ÏĢÎ¿Î¿ÏģÏĢ
ĠÎ¿Î½ÎŃÎ¼ Î·
Î»ÎµÏĦ ÏħÎ»Î¿ÏĢ
Î½ÏİÎºÎ¹ Î¼Î¿Î½Î¿ÎºÎ¹ÎŁ
Î© Îĸ
Î¬Î» Î±Ïĥ
ÏĥÎµ Î¾
ĠÏĤÎ¹ÎµÏĥÎ® Î½ÏģÎµÎ²ÏħÎº
Î½Î¿ÏĦÎº Î¿Î½
Î¿ Î¹ÏģÎ¬
Î® ÎĽ
ĠÎ¿Î¹ÏģÎ¬ Î½ÎµÏĥ
Î¿Ïģ ÏģÎ¿ÏĢÎ±
ĠÎ±Î¹ÏģÎ®ÏĦ Î¹ÏĥÎ¹Îµ
ĠÏĤÎ¿Î¹Î¿ÏĢ ÎĮ
ÏħÎ» Î¿ÏĢÎ±
ĠÎ¯ÎµÏĢ Î±ÏģÏĦ
Ġ Îĩ
ĠÏĤÎŃÏģÎ¿ÏĨ Î±Î¹Î´
.... ..
Î±ÏĦÎ·ÏĦÏĮ ÎºÎ¹
4 002
Î¹ÏģÎ·ÏĦÏĥ Î¹ÎµÎ»ÏĢ
ĠÏĤÏįÎ¿ ÎºÎ¹ÏĦÎ±Î¼
ÎµÏģ ÏĨ
ÏĢÎ¿Îº Î¿ÎµÏģÏĩ
ÏģÎµ ÏĨÎ¼ÏħÏĥ
ĠÎ·Î½ÎŃÎ¼ ÏĥÎ±ÏģÎµÏĢ
ĠÏħÎ¿ Î£
ĠÎ¯ÎµÎ¸ÏħÎ¿Î»Î¿ÎºÎ± Î¾Îµ
ĠÎ®ÎºÎ¹ÏĦÎ±Î¼ ÏħÎµÎ½ÏĢ
ĠÏĤÎ·ÏĥÎ· Î³ÏĮÎ»Î¿Î¹Î¾Î±
Ïī Î¹ÏģÏĦÎ±ÏĢ
ĠÎ·ÏĥÎ·ÏĦÎº ÏĮÏĢÎ±
Ġno t
er C
ĠÎ®ÎºÎ¹ÏĦ ÏīÎ¹ÏĦÎ±ÏģÏĦÏĥ
ĠÏĤÎ¬ÏģÎ¿ÏĨ Î±ÏĦÎµÎ¼
k co
ĠÏħÎ¿ Î¹Î´Î¯
ĠÎ½ÏħÎ¿Î¶ Î¯ÏĦ
Î±Î½ ÏħÎµÏģÎŃ
Î·Î¼ ÏĦ
Î¦ Îĳ
Î¯Î± Î´ÏħÎ¿ÏĢÏĥ
ĠÎ¹ Î¿ÏģÎµÏĦÏĮ
1 4
ĠÎ¯Îµ ÏĨÎ±ÏģÎ³
ĠÏĤÎ±ÏĦÎ½Î¿Î½ Î¬Î²Î¼Î±Î»
Î· ÎºÎ¯Î½
Î¿Î´ Î¿ÏĨÎ¿ÏģÏĦ
ÎµÎ» ÎŃ
ĠÏĤÎ¿ÏĢ ÏĮÏĦ
ĠÏĮÎºÎ¹ÏĦÏĥ ÏħÎ¼
ĠÎ¹ÏĥÏĦ Î¯ÏģÎ¿Îº
ÎºÎ±Ïģ Î¸
Î±ÏĦ Î½ÏīÎ¶
Î¹Ïĥ ÏīÏĢÏħÏĦÎ½Îµ
Î» ÎĹ
Î·Ïĥ Î·Î½Î¯Îº
ĠÎµÏĦ Î¿Î»Î»Î¬
Î¬ÏĦÏĥ Î¿ÏģÏĢ
Î¹Î±Îº Î³ÎŃ
Î¿Ïģ Î·Î»Îł
ĠÎ±ÏĦÎ±ÏĦ ÏĮ
ĠÎ½Ïİ Î¹Î´
Î³ Î·Î¸Î±Îļ
ÏĩÎ¹ Î¿ÏĦÎ£
ĠÎ·Î½ ÏįÏĥÎ¿ÏĦÏĥÎ¹ÏĢÎ¼Îµ
ĠÎ¹ÎµÎ¶Î¯ Î¼ÏħÎ¸
ĠÎ¹Î¶Î¬ Î¹Î³Î±
Î½Î¿ÏĢÏĥ Î¿Î¼Î¿
Îµ Î£
ÎµÎ¸ Î¿Î½Î·ÎºÏĥ
ĠÏĤÎ® ÎºÎ±Î¹ÏģÏħÎļ
ÏħÎ¿Ïģ ÏİÏĩ
ĠÎ· ÎŃÏģÏĩ
Î² ÏīÎ»
ÏĦÏĥ Î¿Îº
ĠÏĤÎ± Î»ÏĮ
Î³Î¯ Îĳ
Î·Ïĥ ÏĥÎµÎľ
ĠÎ®Î» Î¹ÎµÏĢÎ±
Î»Î±ÏĨÎµ ÎºÎ³Îµ
ÎĶ ÎĻÎķ
ĠÎµÎºÎ·ÏĦÏĥÎ¯ Î½Î±ÏĨÎ¼Îµ
ÏĥÎ®Î½ Î½Î¿ÏĢÎ¿Î»ÎµÎł
ĠÏĤÏħÎ¿ ÏģÎµÏĦÏĮ
Î¹ÎµÎ´ Î¿ÏĢÎ±
ĠÎ½Ïİ ÎºÎ±Î¹
ĠÎµÏĥÎ±Ïģ ÏĨÎŃÎ¾Îµ
ĠÎ±Î¹ÏĦÏĮ Î½
ĠÏĤÎ·ÏĦ ÎºÎ¯Î±ÏĢ
Î±Îº ÏĥÎ¬Î´
ĠÎ±ÏģÎµÎ¼ Î¬Îº
ÏģÎµÎ¼ Î¬Îº
ĠÏĤÎ·Î½ Î¿ÏģÏĩ
ĠÎ®ÎºÎ¹ ÏĦÏĥÎ¹Ïģ
ÏĤÎµ Î¶ÎµÏĢÎ¬ÏģÏĦ
ÏģÎŃ Ïĥ
ĠÎ¬ÎºÎ¹ Î½Î¿ÏģÏĩ
ĠÎ¹Îµ Î³Î¬
Î»Î¿ÏĦÎ±Î½Î± ÏĥÎ¿ÏģÏĢ
ÏģÎµÎ² Î¿ÏĨ
ĠÎ¹ÎµÎ¬ Î¸Î·Î¿Î²
Ïį Î±ÏĢ
ĠÎ·ÏĥÏīÏģ ÏįÎº
ĠÎ¿Î´ Î¿Î½Î¬
ÏĤÎ±Î¯ Î´
ĠÎ·ÏĥÎ·Î¯Î¿ÏĢ Î¿Î¹Î¾Î±
ĠÏĤÎŃÏĦ Î·Î»Î¸Î±
Î¿ÏĦ Î±Î½Î±
ĠÎ¯Îµ Î¼
Î±Î¼ ÏīÎ¡
Î³ÏĮ ÏĢÏħ
l m
Î»Î» Î±Îº
Î±Î½Î± ÏĨ
ĠÎµÏĦÎ¿ÏĢÎ®Î´ Î½Î¿
Î½Î¬ Î¹
ĠÏĤÎŃÎºÎ¹ Î³Î¿Î»
p pa
ÏĤÎ¿ÏĦ ÎŃ
ÏįÎ¿Î½ ÎµÎ¾Î¿Î»Î¹ÏĨ
ĠÎµÏĦÎ¯Îµ ÏĨÎ±ÏģÎ³Î³Îķ
ÏħÎ¿ Î³ÏģÎŃ
ÏĢ ÏĮÎºÏĥ
ĠÎ½ Î¹
ĠÏĮ Î»Î·ÏĪÏħ
ÏĤÎ±Î¯Îµ ÏģÎ¹Î±ÏĦÎµ
Î³Î¿Î¼ÏģÎ± ÏĥÎ¿ÏģÏĢ
ĠÏį ÏĥÎķ
Î³ Î¿ÏĥÎµÎľ
ÏħÎµ Î¸Î·Î¼Î¿ÏģÏĢ
Ïī Î²
ÏħÎµÎºÏĥ Î±ÏģÎ±ÏĢ
ÏİÏģ Î²
ĠÎ¹ÎµÎ¾ Î¯Ïģ
ÏĥÏĥÏīÎ» Î³
Î± ÏĨÎµÎļ
ĠÎ·Î» Î¯ÏĥÎ±ÎĴ
Î¿ÏĦÎ±Î¼ Î·Î½Î¹Îļ
ĠÎ¿ÏĦ ÏħÎ»ÏĮÏĢÎ±
ĠÏĤÏİ Î»Î±Îļ
ÎµÏģ ÏĮ
ĠÎ½Î± Î»ÎµÎ¸Î®
ĠÎ¿ ÏĩÎ¹Î¿ÏĦÏĥÎ¯ÏĦÎ½Î±
ÎºÎ¹ ÏĢ
ĠÏĤÎµ ÎĶ
ĠÎ½ÏįÎ¿Î¼ ÏħÎ¸Î¹ÏĢÎµ
ĠÏĮÎºÎ± Î¹ÏĢÎ¼ÏħÎ»ÎŁ
ĠÎ·ÏĥÎ¹Ïģ ÏİÎ½Î³Î±Î½Î±
ĠÎ½ÏīÏģÏĮÏĨ Î±Î¹Î´
ĠÎµÏĪ ÏħÎ»Î¬ÎºÎ¿ÏĢÎ±
Î·Ïģ Îļ
ĠÏĤÎ®ÎºÎ¹ Î³Î¿Î»
Î½Î± ÎĶ
ÏģÎµÏĦÎ¯Î±Î¹Î´ ÎĻ
Ġs wodniW
Î·Î» Î·Î´
ÎŁÎł Î¥
Î½ÏħÎ¿ ÏĥÏİ
Î¹Î¼ ÎµÏģÏĢ
Î¼ Î±
ĠÏĤÏĮÎ¼ ÏĥÎ¹ÏĦÎ±Î¼
Ïĥ Î¿Îļ
Î±ÏĦÏĦ ÏįÎº
ÎºÎ¬ ÏĨ
ÏĢÎ¼ ÎŃÏĢ
Ġh sa
ĠÎ¿Î½ÎŃÎ¼ ÏĥÎ±
ĠÎ½Ïİ ÏģÏĦ
Î·ÏĦÏģÎ¬Î¾Îµ Î½Îĳ
ĠÏĤÎŃ ÎºÎ±Î¹
Ġa ci
ĠÎ¹ÎµÏĪÏĮ Î½Îµ
ĠÏĤÎ¹ÎµÏĥÎ® Î´Î¹Îµ
ĠÎ½ÏīÎ¯ Î±ÏĦÏħÎµÎ»ÎµÏĦ
ĠÏĮÎ¼ÏĥÎ¹ Î½ÏīÎ³Î±Î¹Î´
ĠÏĤÏİ ÎºÎ¹
ÏĤÎŃÏģ Î¿Î³Î±
ĠÏĤÎ±Î¯ Î³ÏģÏħÎ¿Î¹Î¼Î·Î´
Î¸ Î±Î»
Î¹ÏģÎŃ Ïĩ
Î¹Î³ Î±Î¼
ĠÎ¿ÏģÏĦ Î½ÎµÎºÎ¯ÏĢÎµ
ĠÎµÎºÎ·Î¸Ïİ Î¹ÎµÎ¼Î·Ïĥ
Î¹Î¼ Î¸ÏħÏģ
ĠÎ½Î¿Î¹Î¿ÏĢ ÏĮ
ĠÏĤÎµ ÏĥÏĦ
ĠÎ¿ Î½ÏĮÏĢ
ĠÎ·ÏĪÎ·Î» Î¯ÏĦÎ½Î±
ĠÏĮ ÎµÎĺ
ĠÎ¹Î±Ïĥ Î¯Îķ
l bu
M B
ĠÎµÏĥÎ·ÏģÏİÏĩ Î¿ÏģÏĢ
ÎºÎ¹Î¿ Î¾Îµ
ĠÎ¿ ÏĨÎ±ÏģÎ³Î³ÎŃ
ĠÎµÏĦÎµ ÏģÎŃÎ¾
Î®ÎºÎ¹ ÏĦÏĥ
ĠÎ±Î¹ ÎºÎ¬Ïģ
ÏħÎ¿ Î²Î¼ÏħÏĥ
ÎĽÎĳ Îĵ
Î½Î±Î² Î»Î±
4 5
Î³Î· ÏĨÎ±
ĠÎ¿ ÏĩÏģÎ±Î¼
ĠÎ·ÏĥÏī ÏģÎŃÎ¸ÏħÎµÎ»ÎµÏĢÎ±
Î¬ÏĢ Î¿Î½Î¿Î¼
Î½ÏīÏĦ Î½ÏĮ
ĠÎ¹ÎµÏĥ ÏįÎ¿ÎºÎ±
Î®ÎºÎ¹ ÏģÎµÎ¼Îĳ
ĠÎ±Î½ÎŃÎ¼ Î·ÏĢÎ±Î³Î±
ĠÎ±ÏĦÎ±Î¼Î®ÏĦ ÏīÏģÎµ
ĠÎµÎ¼Î±Ïĥ Î®
ĠÏĮÎ¼ÏĥÎ¹ Î½Î±Î³ÏģÎ¿
ĠÏĤÎŃÎºÎ¹ÏĦ ÎºÎ±ÏģÏĢ
Îº ÎŃÏĦ
Î¹Î¼ Î·ÏĨÎ±Î¹Î´
ĠÎ±ÏĦÎ½Î¬ Îł
ÏĤÎ®ÎºÎ¹ ÏģÎµÎ¼Îĳ
ĠÎ±Î½Î¯ ÏģÎµÏĦÎ±Îļ
ÏĢÎŃ ÏĥÏĦ
ĠÎ¿ ÏĩÎ¿ÏģÎŃÏĢÏħ
ÎºÎµÎ´ Î¿ÏĢÎ±
strops nO
ĠÎ®ÎºÎ¹ ÏģÎµÎ¼Îĳ
Î¿Ïģ Ïī
ÏħÎ¿Î¯ÏģÎ²Î¼Îµ Î¿ÎĿ
Î¿Î½Î±ÎºÎ¹ ÏģÎµÎ¼Îĳ
ĠÎ±Ïģ Î¹Î±ÏĨÏĥÏĮÎ¼ÏĦÎ±
ĠÎ®ÏĨÎ¿ÏģÏĦÏĥ Î¹ÏĢÎķ
ĠÎ±Î´Î¬ Î½Î¿Î¼
n ne
Ġ pi
ĠÏĤÎ·ÏĥÎ±Î² ÏĥÏĮÏģÏĢ
Î¬ÏĢÎ¼ ÎŁ
ÏĮÏģ Î¹ÎµÏĩ
Î¤ Î¡Îķ
ĠÏħÎ¿ÏĦ Î®Î½Î¹ÎºÎ¿ÏĦÏħÎ±
ĠÎµÎºÎ·Î¸ Î®Ïģ
ĠÏĮÎº ÏħÎµÎ»
Î¿Î³ Î¿ÎĽ
ĠÎ® ÎºÎ±Î¹Ïĥ
ĠÎ±Î¼ÏħÎµ Î¯ÏĥÎ¿Î¼Î·Î´
ĠÏİ ÏĦÏĥÎ¹ÏģÎ±ÏĩÏħÎķ
ĠÎ¬ Î¹Ïĥ
ĠÏĤÎµÏĦÎ·ÏĦÏĮ Î½Î±Î¸Î¹ÏĢ
ÏģÏīÏĩ Î¿ÏĢÎ±
2 5
ĠÎĻ Î§ÎŁ
ÏįÏĦ Î±
Î¿Î» Îµ
ĠÏĤÎ¹ÎµÏĥ ÏįÎµÏĦÎ±Î¼Î³Î±ÏģÏĢÎ±Î¹Î´
Î¬ ÎµÎ¸
Ġ Î»ÏĮ
ĠÎ¹Î¿ÏĢ ÏīÏĥÏĮÏģÏĢÎºÎµ
Î¿ÏģÎµÎ¼ ÎĹ
ĠÎ½ÏįÎ¿Î¸Î· Î¹Î¿ÏĢÎ¿Î¼Î¹ÏĥÎ·ÏģÏĩ
ĠÎĳ ÎĻÎ¡
ĠÎµÎ¼ÏħÎ¿ ÏģÎŃÏĨÏĥÎ¿ÏģÏĢ
ĠÎ®ÎºÎ¹ Î¼Î¿Î½
ĠÎ£ ÎķÎĿ
ÎĹ ÎĿ
ĠÎ·Î½ÎŃÎ¼ Ïī
Î±ÏĦ ÏĨ
hc S
Ġe ca
ĠÎ±Î½ÎµÎ¼ÏĮ Î¶
Î¯ÎºÎ¹ Î¿ÏĢ
Î¼ Î¬
r D
ÏĤÏī Î½ÎŃÎ¼
Î¿Î½ Î·ÏĦÎº
ĠÎ½Î¿Î¹ ÏĢ
6 002
Î¹Ïģ ÏīÎ½Î³
ÏĢÎ¼ Îķ
ĠÏĤÎ® Î¼Î¹ÏĦ
ĠÎ·ÏĥÏħÎµ Ïģ
ĠÎ±ÏĦ Î·ÏĦÏģÎ¬Î¾ÎµÎ½Î±
ĠÎ·ÏĥÏīÏģ ÎŃÎ¼Î·Î½Îķ
ÏīÏģ Î·Î»ÏĢÎ¼ÏħÏĥ
ĠÎ¯Îµ Î³Î·Î¾Îµ
ĠÎ½Ïİ Î³Î¿Î»ÎºÎµ
ĠÎµ ÏħÎµ
Î¹Ïģ Î±ÏĩÏħÎķ
Î¿Î¹Î´ ÎŃÏĩÏĥ
ÏĦÎµ Îł
A M
Ġ ts
Î¸ Î¹ÎµÏĢ
ĠÏįÎ¿ Î¹ÏĦÎ¹ÏĢÏĥ
Î±ÏĦÎ±Î¼ ÏĥÎ¬
Î¿ Î¾Î¬
ĠÎ®ÎºÎ¹ Î»Î±ÏħÎ¿Î¾ÎµÏĥ
ĠÎ±Î¯Ïĥ Î±ÏĦÏĥÎ¿ÏģÎł
Ïħ ÏģÏĦ
ĠÎ®Ïģ Î·Î»ÎºÏĥ
ĠÎ¬ Î¹ÏĨÏģÎ¿Î¼Î¿
ÏħÎ¿ Î³Î·Î¿ÏģÏĢ
ĠÎ·Î½ÎŃÎ¼ Ïĥ
ĠÏĤÏīÎ½ÎŃÎ¼ Î¿ÏĩÎµÎ´Î½Îµ
ÏĥÎ¬ Î½Î±ÏĢÎķ
ĠÎ¹Î±ÏĦÎ½Î¿Î½Î¬Î²Î¼Î±Î» Î¹ÏģÎµÏĢ
ĠÎ®ÎºÎ¹ÏĦ Î±ÏģÎº
Ïĥ ÏĥÎ¯
ĠÏĤÎŃÎºÎ¹ ÏĦÏĥÎ¹
ÏĥÏĥ ÎµÏĦ
ĠÎ¿ÏĦ ÏĥÎ¹
ĠÎ¹ÎµÎ½Î¬Î²Î¼Î±Î» Î±Î½Î±
Ïģ Î¿ÎºÏĥ
ÏģÎŃ ÏĢÎ±
ĠÎ±Î¯Îµ Î»Î±Î³ÏģÎµ
Îº ÏīÏģÏĢ
ĠÏĤÎŃ ÎºÏĬÎ±ÏĢÏīÏģÏħÎµ
ÎŃÎ» ÏħÎ¿Î´
ĠÏįÎ¿Î¼ ÏĥÏħÎ¸Î·Î»ÏĢ
Î±Î² Î¹ÏĢÎµ
ĠÎĳ Î¤Î£
Ġret tiwT
ĠÎ±Î¯Î³Î¿Î» Î¿Î¼
ĠÎ·Ïĥ Î±Î¯ÏĥÏħÎ¿ÏģÎ±Îł
Î³Î· Î¹Î´
ÏįÎ»Î¿Îº ÏħÎµÎ¹Î´
ÏĦ Î½Îĳ
ĠÎ±Î¼ ÏīÏģÎŃ
ĠÎ±Î¼ ÏįÎ¸
ĠÎ¹ÏĦ Î±Îº
Î¹ÏĦ ÏīÏģÎ±Î½Î±
ho J
Î¿Î¹ÏĦ Î¿Î½
Î²Î¼ ÏĮÎ²
ĠÏĤÎ±ÏĦÎ·ÏĦÏĮ ÎºÎ¹
ĠÎ±Î¯Ïģ ÏħÎ£
ÏĮÏĦ ÏħÎĳ
Ġá½ ģ
ĠÎ¿Î½Î¬ Î»ÏĢ
Ġla noita
ĠÏĮÏģ ÏħÏĩÏĥÎ¹
ĠÏĮÏģ ÏīÎ¼
ÏģÎµÎ² ÏħÎļ
ĠÎ·ÏĥÏħÎµ ÎºÎ¯
d E
ĠÎ»Îµ Îº
ÏģÎµÎ¼Î· Î¾
ĠÎ®ÎºÎ¹ ÏģÎµÏĦÏīÎ¾Îµ
ÏĥÎ±Î² Î¬Î¹Î´
Î±ÏĦÎ±Î¼ Î®ÏģÏĩ
Ġ7 002
Î¿Î½ ÏĩÎµÏĦ
Ġl lA
ĠÎ±ÏĦ Î¿ÏĢ
Î¬ÏģÏĢ ÏĥÎ¹Îµ
ĠÎ¹ÎµÎ¬ Î½Î¹ÎºÎµÎ¾
Î®Ïģ ÏħÏĢ
ÏīÏĨÏģÎ¿Î¼ Î±Î¹Î´
ĠÎ¿Î¹Ïĥ Î¬ÏĦÏĥ
ĠÎ½Ïİ ÏĩÏģÎ±
ĠÎ½ÏįÎ¿ÏĦ ÏĥÎ±
ĠÏĤÎ¯Îµ Î½Î±Îļ
ĠÎ½ÏīÏĦÎ¬Î¼ Î·Î»Î²Î¿ÏģÏĢ
ĠÎ·ÏĦ Î¬Î»ÏĢ
ĠÏĤÏĮÏģ ÎºÎ¹Î¼
Ġ ~
Ġ !!!!
ÎŃ Î¡
Î¿Î¸ÏĨ Î±Î¹Î´
Î¬Ïģ ÏħÎµÎ»ÏĢ
ĠÏĤÎµÎ½ÎµÎ¼ ÏįÎ¿Î³Î·Î¿ÏģÏĢ
ĠÏĤÎ¿Î¹ Î³ÏģÏİÎµÎĵ
Î¿ÏĦÏĥ Î¹ÏģÎ§
ÏĤÎŃ ÏĩÎ¿Î¹ÏģÎµÏĢ
ĠÎ½ ÏįÎ¿ÏĢ
ÏĮÎ¼ ÏĥÎ¹Ïģ
Î±Î» Î¿ÎºÏįÎµ
Ġt ce
ĠÏĮÎºÎ¹ÏĦ ÏħÎµÎ´Î¹Î±ÏĢÎºÎµ
ĠÎ¹ÎµÎ¶Î¬ Î³Î²
Î³Î±Ïģ ÏĨÏĥ
Î¹Î» ÏįÎ¾
Ïģ ÎĻ
ĠÎ¿ÏĥÏĮ Î¤
Î»Î± ÏĨ
ĠÎ±Î¹ÎµÎ» ÎŃÎ¼
Î¿Î´ Î¿ÏģÏĢ
ĠÎ¹ÎµÏģÎŃÏĨ Î±ÏĦÎµÎ¼
ĠÎ¯ Î¿ÎºÎ±
ÏīÎ¹ÏĦ Î»ÎµÎ²
ĠÏĤÎ¬Ïģ ÏħÎµÎ»ÏĢ
ÎµÏģ ÎºÎ³
ĠÎ» ÏħÏĦÏĥ
ĠÎ½ÏİÏĦÏĥ Î±Î½Î±ÏĦÎµÎ¼
Î½ÏİÏģ Î·Î»ÏĢ
ÏĦÏĥ ÏħÎĳ
ĠÎ¬ Î¹ÏģÏīÏĩ
Î¬ÎºÎ¹ Î»ÎµÏĦ
ÏħÎ¿ Îł
Î¯Ïģ ÏħÎ¿ÏĦ
ĠÎ¹Î±ÏĦÎ½ÏįÎ¿ Î¹Î¿ÏĢ
ĠÎ¿ÏĦ Î¬Î¼ÎµÎ³
Î±Î½ Î¿Ïģ
Î±Î¯Îµ Î»Î¿ÏĩÏĥ
Î¹ÏĥÏħÎ¿ Î¹ÏģÎµÏĢ
ÏĥÎ¹ÏģÎ¿ Î¸Î±Îº
Îµ ÏģÎµÏĦÏĥ
ÏīÏģÎ¸ Î½Îĳ
Î¿ÏģÏĦ Î½ÎŃÎº
ĠÎ±Î¹ÏĥÏĦ Î¯ÏģÎ¿Îº
Î½ÏĮ Î½Î±Îº
ĠÎ¿Î» Î¯ÏĨ
Î¿ Î¯ÎµÏĩÎ¿Î´Î¿Î½ÎµÎ¾
ÏĤÎ±Ïģ ÎŃÏĦ
ĠÎ¹ÎµÏĥÎ¯ ÏĥÎ±ÏĨÎ¿ÏĢÎ±
Î¿ÏĢÎ¿ Î¤
7 7
ÏģÎµ ÏĩÏħÏĦ
ÏįÏĥ Îµ
Ïħ Î³Î³
ĠÏįÎ¿Ïģ Î¹Î±Îº
Î¬Î¹ÏĦ ÏīÏĨ
Î½Î± ÏĢÎ¼
Î¹ÎµÏĦ ÎŃÏĢÎµ
ĠÏħÎ¿Î¯ Î±Î»ÎµÏģÏĦÎµÏĢ
ÏĤÎ¬ ÏĥÎµ
ĠÎ½ÏħÎ¿Î½Î¯ Î±Î²Î¼ÏħÏĥ
Î³ÏģÎµ Î¾ÎµÏĢÎµ
ÏĤÎ· Î½Î¯
p O
ĠÏĤÎ±Î´Î¯ ÏģÎµÎ¼Î·ÏĨÎµ
Î·Î³Î® Î¾Îµ
ĠÎµÎ¼ÏħÎ¿ Î¶Î¬Î²
ÏĤÏīÏĦ Î½Î¬ÏĢ
Î¿ÏĦ Î·Î½Î¯ÎºÎ¿ÏĦÏħÎ±
ĠÎ¹ÎµÏĥÎ¬ Î¹ÏĥÏħÎ¿ÏģÎ±ÏĢ
Î±ÏģÎµÏĦÏĮ ÏĥÏĥÎ¹ÏģÎµÎł
Î½ÏħÎ¿ Îº
Ġl m
ÏĮ Î½Î¿Î¼
Î³Î± ÎĽ
4 6
ĠÏĤÎµÎ¯ Î¾Î±
ÏĢÎ¿ÏĢ Ïį
ĠÏģÎµÏĢ ÏįÎ¿Ïĥ
ĠÎµÎ½Î±Î¸ ÎŃÏĢ
ĠÎµÏĦÎµ ÏĢÎŃÎ»Î²
ĠÏĤÎ¿ÏĢ Î¯Î»
ĠÎ¹Îµ Î¬Î½
Î¹ÏģÏħÎº Î¿ÎºÎ¹Î¿Î½
ĠÎ¬ÎºÎ¹ÏĦ Î±ÏĦÏĥÏħÏĥ
ĠÎ¹ÎµÎ½Î¯Î±Î¼Î·Ïĥ Î¹ÏĢÎµ
ĠÎĳ Îļ
ĠÏįÎ¿ÏĦ Î½Î±ÏĢ
ÎĳÎł ÎŁ
Î»Î±Î³Î¿ÏĦ ÏģÎ¿Îł
ÏĦÏĥ Î¹Î´
Î¿Î½ ÏįÎ£
ĠÎ¹Î±ÏĦÎµÎ½Î¯ Î´
ĠÎ®ÏĢÎ¿ÏģÏĦ Î±Î½Î±
ĠÎ¤ Î¡Îķ
Î´Îµ Î¿ÏģÎł
Î¹Ïģ Î±Îľ
ĠÎ¹Ïģ Î®ÏĦÏĥ
ĠÏħÎ¿Î½ ÎµÎ¼
ĠÎ± Î´ÎµÏĢ
Î±ÏģÏĮ Î³Î±
Î¿Î¼ ÎµÎ»ÏĮÏĢ
ĠÎ½ÏīÎ¯Ïģ ÏħÎ¼Î¼Î¿ÏĦÎ±ÎºÎµ
Î®Î² Î±Î¹Î´
ĠÎ±Î½ Î½ÎµÎ³ÏįÎ¿ÏĦÏĥÎ¹ÏģÎ§
Î¬ÏĦ ÎĿ
ĠÎ£ ÎĶ
ĠÎ¬ Î»Î±Îļ
Î½ÏħÎ¿ ÏĩÏģÎ¬ÏĢÏħ
ÏħÎ¿ Î»Î±
ĠÎ±Ïĥ ÏįÎ¿ÏģÎ¿ÏĢÎ¼
ĠÏĤÎŃ ÏħÎµÎºÏĥÏħÏĥ
5 8
ĠÎ½Ïī ÎŃÏģÎ¿ÏĨ
Î½Î¿Î¼ Î·ÏĦÏĥÎ¹ÏĢÎķ
Î¿ÏģÎ¸ Î±Î»
ĠÎ¿ Î»ÏĢÏĮ
Î³Î· Î²
ĠÏĤÎ± Î¶ÎµÏĢÎ¬ÏģÎ¤
Î¹Î¿ÏĢÎ¿ÏĦ Î·Î´Î¹ÎµÎ½ÏħÏĥ
ÎĹ Î¡
Î¬Î» Î¹Îľ
ĠÎµÎ¼Î±Î½ Î¬Îº
ĠS WEN
ĠÏĮÎºÎ¹ Î½ÎµÎĵ
Î½ ÏįÎ¿ÏĦÏĥ
ÎµÏĦÏĥÎ±Î¼ ÏĮ
Î· Î¾Î±ÏĦ
ÏģÎ¿ÏĨ Î¿ÏģÎ·Î»ÏĢ
Î¹ Î¿Î¹
Î¹Î» Î¿
ÏĮÎºÏĬ Î±Î½Î·Î¸Î±Î½Î±Îł
ÏĤÎ±ÏĦ Î½Î¿
ar t
tu A
ĠÏĤÎµÏĦ Î®ÏĦÎºÎ¿Î¹Î´Î¹
Î¹Î±ÏĦÎµ Î½Î¯
ÏĤÎµ ÏĥÏĦ
ĠÏĤÎŃÎºÎ¹ ÏĢÏīÏĥÎ¿ÏģÏĢ
ĠÎ¹Î±ÏĦÎ½Î¿Î½ Î¯Î±ÏĨ
ĠÎ¯ Î¿Î´
Î¿ÏĦ Î±Îļ
ĠÎĳ ÎĽÎŁ
ĠÏĤÎ·Ïĥ Î¹ÏĦ
Î¹Ïģ ÏħÎļ
gi se
Î·Î»Î» Î¬ÏģÎ±ÏĢ
Î¿ÏĦ ÎĿ
Ïħ ÏģÎ¿Îļ
tne m
ĠÏĤÎ¿ÏĨÎ¬ÏģÎ³ Î¿Î¹ÏĥÎ¿Î¼Î·Î´
ĠÎ½Ïī Î³ÏįÏĨ
ÎŁ Îĳ
ĠÎµÎ¼ÏįÎ¿ Î¶
Î½Î¿ Îĵ
A F
ĠÎ¿Î¹Î´ ÏĮÏĥÎ¹ÎµÏĢÎµ
Ġ7 3
ĠÏĤÎ®ÏĦ Î·Î½Î¿ÏĢÎ¿ÏģÏĢ
, )
Î³ Î·ÏĥÎ¹Îµ
ĠÎ·ÏĥÏīÏĨÏģÏĮÎ¼ Î±Î¹Î´
ĠÎ± ÏĩÎ¹Î¿ÏĦÏĥÎ¯ÏĦÎ½Î±
ÎµÏĥ Î·ÏĦ
ĠÏĮ ÏģÏħÎµÎ»ÏĢ
Î¹ÎµÏĦ ÏĮÏģÏĢ
ĠÏĤÎ·Ïĥ Î·ÏĦÎ®Î¶Î±Î½Î±
Î¹ÏĦÏĮ ÎĿ
Î½ÎŃÎ³ ÏħÎ¿ÏĦÏĥÎ¹ÏģÎ§
ĠÎ®ÎºÎ¹ Î½Î±Î´Î¹
ĠÎ±Î¯ Î³ÏģÏħÎ¿Î¹Î¼Î·ÎĶ
Î¹Î±ÏĦ Î½ÏįÎ¿
ĠÏĤÎ¿Î¹ ÏĨÎ®ÏĪÎ¿ÏĢÏħ
Ġ00 6
ĠÎ±Î¹ ÏĨ
ÏĤÏĮ Î½Î¿Î³ÎµÎ³
ĠÎ¹ÎµÏĦ ÏĨÎŃÏĢ
ĠÎ±Î¼ Î¹ÏĨÏĮÏģÏĦ
ĠÎµÎ¼ÏįÎ¿ Î¹Î¿ÏĢÎ¿Î¼Î¹ÏĥÎ·ÏģÎ§
ÎķÎ¤ Î¥
Î¹ ÏĨÎµ
Î¬Î¼Î¹Î¿ÏĦÎµ Î¿ÏģÏĢ
ĠÎµÏĥ Î·Î¸ÏįÎ¿Î»Î¿ÎºÎ±
ĠÎĹ Î¤Î£
Î¹ÏĢ ÏĥÎ¬
ĠÎ·Ïĥ ÎµÎ´
Î½ÏĮ Î¶ÎµÏĥ
ÏħÏĨ Ïĥ
Î½Î¹ÏĦ Î½Î¿Îº
Î½ ÏħÎµÏģÎµ
ĠÎ·ÏĥÎ·ÏĦ Î½Î¬Î½ÏħÎ£
ĠÎ½Î±Î¸ ÏģÎ®
ĠÏį Î¾Î±ÏĦÎµÎľ
ÏħÎµÏĦ Î¹ÏĢÎµ
ĠÎŁ ÎĻÎķ
ĠÎ±Î¼ ÎŃÏģÎº
Î¹ Î½Î¿Î³
ÏĢÎµÏģ Î¸
ĠÎ® Î³Î±Î»Î»Îĳ
Î¬ ÏĩÏĥ
Î·Ïĥ Î±ÏĨÏĮÏĢÎ±
Î¹ÎµÎ» ÎŃÎ¸
ÏīÏĢ ÏĮÎ½Î¹
Î¿ÏĦ ÏĢÎµÎ»
Î¯Ïģ ÎºÎ³Îµ
ĠÎ½ÏįÎ¿Î¸ Ïī
ĠÎ¬ ÏĥÎ¿ÏĢ
ĠÎ¹Î±ÏĦÎµÏĩÎŃÎ´ Î½Îµ
ĠÎ½ Î¿Î»
ĠÏħÎ¿Î¯Îµ Î»Î¿ÏĩÏĥ
ÏĢÎ¿Îº Î£
Î½ÏīÏĦ Î½ÏĮÏĬÎ¿ÏģÏĢ
Î¿Ïģ Î¿ÏĨÎ±Î¹Î´
Î¿Î¹ Î³ÏĮÎ»
Ġ8 3
Î±ÏģÎ³ Ïħ
w ol
ĠÎ½ Î·Î»ÏĢ
ÏįÎ¿Ïģ ÎµÎ½
Î³ Î®
Î½ ÏħÎ¿ÏĦ
ĠÏĤÏĮ ÏĢÎ¿ÎºÏĥ
Î¹ Î¾Î±
Î¯Ïģ Ïī
Î½Î± Î²Î¼Î±Î»
Î¹ÏĥÎµÎ¸ Î±Î¹Î´
ÏģÎ¬ÏĢ Î£
ĠÎµÏĥ Î·Î¸Î¬ÏĢÏĥÎ¿ÏģÏĢ
pma hC
ĠÏĤÎµÎ» Î¿ÎºÏĥÏįÎ´
Î¹Î¿ Î»Î»Î¬
ĠÎĻ ÎķÎĿ
ÏĦÎ½Î± Î¾Îµ
Î¹Î¿Î¼ Î¿
I F
ĠÎ»ÎµÎº ÏģÎŃÎľ
Î¿Î½ Î¹Îº
ĠÎ½Ïī ÏĨ
Î½ ÏħÎº
ĠÎ¹Î±ÏĦÎ¬ÏĦ ÏģÎ±Î¾Îµ
Î¶ Î¬Î¼
Î±Î½ Î±Îº
ĠÎµÎ¼ÏįÎ¿Ïģ Î²
ĠÎ¹ÎµÏĩÎŃ ÏģÏĦ
Î»Î»ÎŃ ÏĦÏĥ
Î³Ïģ ÏįÎł
Î¯ Î¾Î±Îľ
ĠÏĮ ÏĦÎµÎºÏģÎ±
Ġe ki
Î±ÏģÏĦ ÎµÏĦ
Î®ÏĢ Î¥
ÏīÎ¸ ÏĥÎ¹Î¼
ÏģÎ± Î§
ĠÎ½ Î¿Îº
ÏĤÎ·Ïĥ ÏħÎµÎ´Î¯Î±ÏĢÎºÎµ
ÏĤÎ±Ïĥ ÏĦ
Î¥ÎŁ Î¡
ĠÎ¿Î½Î¯ ÎºÏģÎ±Îº
ĠÎ±Î¹Î´ ÏĮÏĥÎ¹ÎµÏĢÎµ
ÎĳÎļ Îķ
ĠÎ® ÏĢÎ¿Îº
Î»Î· ÎĶ
ĠÏĮÎºÎ¹Î¼ Î±Î½ÏħÎ´
ĠÎ¹ÎµÎ¶Î¯Ïģ Î·ÏĦÏĥ
Î¿ÏĢ ÏīÏģÎ¸Î½Î±
ĠÎ±Î¯ Î½Î±ÏĩÎ·Î¼Î¿Î¹Î²
Î¹ ÎĿ
ĠÎ·Ïĥ Î±ÏĨ
á½ »
ĠÏĤÏħÎ¿ ÏģÎ¿ÏĨÎ¬Î¹Î´
ĠÎ½Ïī Î½ÏİÎ³Î±
Î½ÎŃ Îł
ĠÎ¿Î¼Î¹Ïĥ Î¯ÎµÎ»Îº
Î½ Î¹Ïĥ
ÏģÏħÎµ Î½
ÏģÎ¬ Ïĥ
Î±ÏĦÎ·ÏĦÏĮ Î¼
Î±Î¯ ÎºÎ¹Î»Î·
ĠÎ¹ ÏĥÎ¿Îº
Î»ÎµÎ³Î³Î± ÏħÎķ
ĠÏĤÎ¹ÎµÏĪ ÎŃÎ»Î²Î¿ÏģÏĢ
ÎŁÎ¤ ÎĳÎĿ
ĠÎ±Î½ÎµÎ¼ÏĮ Î½Î¹Î±ÏĨ
Î± Î¯ÏĦÎ±ÏģÎºÎ¿Î¼Î·ÎĶ
ĠÎ±Î½ Î¬Î¼
ÏĥÎ¯ Î´
ĠÎ¿ÏĦ Î·
ĠÎ¹Ïģ Î®ÏĦ
Î¸Ïħ ÏģÎµ
ĠÎ·Î½ÎŃÎ¼ Î·ÏĢÎ±Î³Î±
Î²ÏīÎ» ÎºÎ³Îµ
ĠÎ½Ïī ÏĨÎ¬ÏģÎ³
ĠÎ¹Î¿Î¹Î¿ÏĢ Î¬Îļ
Î±Î² Î¬Î»
Ġ weN
ĠÎµÏĥ ÎµÎ¸ÏĥÏĮÏģÏĢ
ĠÎ®ÎºÎ¹ Î½Î±ÎºÎ¹ÏģÎµÎ¼Î±
ĠÏĤÎ® ÏĨÎ¿ÏģÏĦÎ±Î¹Î´
ĠÎ®Îº Î¿Î»
ÏİÏģ Î·Î»
y ti
ÏįÎ¿ Î¹Î±ÎºÎ¹Î´
ĠÎ±Î¼ ÏħÏģÎ´ÎĬ
ĠÎ¹Î±ÏĦÎ½Î¿ ÏįÎµ
Î³ÏĮ Î»Î»ÏħÎ£
ÏĩÏĮ ÏĦÏħÎ±Î¤
Î·ÏĦ ÏĥÎ®ÏģÏĩ
Î·Î´ Î¯
ĠÎ¹ÎµÎ½Î¬ Î¾ÏħÎ±
Î±Î¸Î±Îº ÎµÎ¾
Î£ ÎķÎľ
h si
ĠÎ¹ÎµÏģÎŃÏĨ Î±Î¹Î´Î½Îµ
Î±Î´ Î¹ÏĦ
ĠÎ±Î¯ Î³Î¿Î»Î¿
Î±ÏĦÎ±Îº Î¹ÏĦÎ½Î±
ĠÎ±Î¹Î¼ Î¸Î¬Î²
Î±Î´Î¯ Î»ÎµÎ£
Ïģ Î¹Î±ÏĢÎŃ
Î¿Î»Îº ÏħÎļ
ĠÏĤÎ±ÏĦÎ½Ïİ Î»Î±Îº
ÏĦ ÏħÎº
ĠÎµÏĦÎ¿ÏĢÎ®Î´ ÏħÎ¿
ĠÎ·ÏĥÎ·Î»Îº ÏĮÏģÏĢ
ÏħÎ¿ Î¯Î±Î³Î¹Îĳ
Î³Ïī Î³Îĳ
R G
ĠÎ¬ Î½Î±ÏĦÎ½ÏīÎ¶
ÏĤÎ·Î¾ ÏħÏĦÏĢÎ¬Î½Î±
Î½Î¿ Î´Î¿
ÏīÏģ ÏħÎ¼
b mo
ÏħÎ¿ Î¯ÎµÎ»
Î¯Îµ Îľ
Î·Î¾ Î¬ÏĦ
ĠÎµÎ½ Î¹ÏģÎºÎŃ
ĠÏĤÎ¿ÏģÎµÏĦ ÏįÎ»Î±Îº
ĠÎµÎºÎ·ÏĦ ÏĩÎŃÎ´
Î½Î±Ïģ Î¦
ĠÏĤÎ®ÎºÎ¹ ÏĦÏĥÎ¹
Î»Î¿ÏĦ Î½Îµ
ĠÎ¹Î¿Ïģ ÏĮ
Ġ [
ĠÎ¹Î±Î¼ Î¬Î¼ÏħÎ¸
ĠÎµÎºÎ·Î¸ ÏİÏģÎ·Î»ÎºÎ¿Î»Î¿
ĠÏĤÎµ Î¹Î¿Îł
ĠÎ®ÎºÎ¹ Î»Î¿ÏĩÏĥ
no r
ÏĥÎ¹Î¼ Î¿Îļ
ĠÏĤÎ® ÏĩÏħÏĪ
ÎŃÎ»Î¿ÏĢ Î±ÏĦÎ±Îº
ĠÎ® Î½Î¹ÏĦÎµÏĨ
ĠÏħÎ¿Î¯ Î±Î³
S O
Î³Î± ÏĨÏĥ
Î¿Ïģ ÏĮ
Î±ÏĢ ÏģÎ±Î½ÏħÏĥ
ĠÎµÏĥ Î±Î¯
ĠÎ®Î¼ Î¿Î´
ĠÎ¯Î¿ÎºÎ¹ Î¼Î¿Î½ÏħÏĦÏĥÎ±
Î¶Î¹Ïģ Î¿
ĠÏĤÎµ Î½Î¬ÏĢÎ±Î´
ÏħÎ¿ ÏģÏĮÏĨ
ÏħÎº Î»Îµ
ĠÎ±Î»Î» ÏįÏĨ
ĠÎ¬ÏĦ ÏĩÎ¹Î¿Î½Î±
ÏĤ Î¹ÏĦ
ÏįÎ» Î³
ĠÎ±Î¼Î¼ ÎŃÎ»Î²
ĠÎµÏĦÎµÎ¸ Î¬Îľ
ĠÎ¹ÎµÏĥÎ®ÏĦ Î±ÏģÎº
ÏĦÏĥÎ¹Î» Î±ÎµÏģ
Î·ÏĮÎ½ Î¿ÏĦÏħÎ±
ĠÎ±Î¯Îµ ÏģÎ¹Î±ÏĦÎķ
ÏħÎ¿ÏĦ ÏĥÏįÎ¿Î³ÏħÎĳ
Î¹ÏĦ ÏĨÎŃ
ĠÏĤÎŃ Î¹Î´
Î¯ÏĦÎ±Î¼ Î·ÏģÎ¹ÎµÏĩÎ¹ÏĢÎµ
Ġna m
ĠÎ·Î¾ Î·Î»ÏĢÎºÎŃ
ĠÎ¿Î² ÏĮÏĨ
Î» Î¿Îº
ĠÎ±Î¯ ÎºÎ¹Î¿ÏĦÎ±Îº
Î²Î¼Îµ ÏĢÎµ
ĠÎ·Ïĥ Î·ÏĦÏĮÎ´
ĠÎ¬ÎºÎ¹ Î½Î¿ÏģÏĦÎºÎµÎ»Î·
ĠÏĤÏīÏģ ÎºÎ¬
ÎµÏĦÎµ ÏĥÎ¬
ĠÎ·ÏĥÎ·Î»ÎºÏĥ ÏĮÏģÏĢ
c A
ÏħÎµÎ¼ ÏĥÎµÎ´
ĠÏĤÎ® Î½Î¸ÎµÎ¹Î´
ÏĩÏħÏĦ ÏħÎķ
ÎµÎ´ ÏħÎ¿
ĠÎ¬ Î´
ĠÎ±Î¹ Î´Î¬Î¼Î·Ïĥ
Ïģ Î±Î½
ĠÎ®Ïĩ Î¿Î´Î¿ÏĢÎ±
ĠÎ¿ ÏģÎµÎ¸ÏįÎµÎ»Îµ
Î¹ÏģÎº Î¿ÏĢÎ±ÏĦÎ½Î±
ĠÎ½ÏħÎ¿Î½Î¬Î²Î¼Î±Î» Î¹ÏģÎµÏĢ
Î±ÏĦÎ±Î¼ ÏİÎ¹Î±ÎºÎ¹Î´
ĠÏĤÎ¬Ïģ Î±Î¼Î±Î£
ĠÎ¿Ïģ Î¹ÎµÎ½ÏĮ
Ġ5 5
ÏĦÎ· Î²
er F
ĠÏĮÎºÎ¹ Î½Î¿ÏģÏĦÎºÎµÎ»ÎĹ
Ġ ÎłÎĳ
ĠÎ±Î¯Îµ ÏĩÏģÎ±
ĠÏĤÎ®ÎºÎ¹ ÏĥÏħÎ¿Î¼
l E
ÎĻ ÎĻ
Î¹ÏĨÎ·ÏĪ Î¿ÏĢÏħ
Î±Î» Î¿ÎµÎ½
ĠÎ·Î½ÎµÎ¼ÏĮ ÏĩÏģÎµ
ĠÏħÎ¿ Î¹Î¿ÏĢÎ¬Îº
ĠÎ® ÏĥÎ¹Î¼
Î±Î¯Ïģ Î¹ÎµÏĢÎ¼Îµ
ĠÏĤÎ· Î³
ĠÎ¬ÎºÎ¹ Î»Î¿ÏĦÎ±Î½Î±
ĠÎ® Î½Î¿Îľ
ÏħÎ» Î¿Îº
Î¸ ÏĥÎ¹
ÎŃÎ» Îł
ĠÎµÎ¼ Î±Î´Î¯Îµ
ĠÎ±Î¹ÏģÎ®ÏĦ Î·ÏģÎ±Ïĩ
ĠÏįÎ¿ Î³ÏģÏħÎ¿ÏĢÏħÎ¸ÏīÏģÏĢ
ÏĥÎ±ÏĦ ÏģÎ¿Îµ
ĠÎ±Î¼ Î¿ÏĦ
Î½ÏħÎ¿ Îľ
ĠÎ·Ïĥ ÏħÎ¿ÏģÎºÎ³ÏįÏĥ
ĠÎ±ÏĥÏħÎ¿ ÏįÎµÏĦÏīÏģÏĢ
Î¹Î¿ ÎĽ
Î¹Ïģ Ïī
Îĳ ÎĻÎķ
ÎĴ Îķ
ĠÎµ Î½Î±Îº
ĠÎ±Î¯ÏĦ Î±ÏģÎºÎ¿Î¼Î·Î´
ĠÎ¿Î¯ÎµÎ¼ Î±Î¤
ÎµÎ² Ïĥ
Î³ Î¬Ïģ
ÏĤÎ¿ÏĦ ÎŃÏĨ
ÏįÎ¿ ÎĶ
Î±Ïĩ Î¹Î¿ÏĦÏĥ
Ġ0 002
ĠÎ¿Î¹Ïĥ ÏįÎ¿Î»ÏĢ
ÏįÎ¿ÏĦ Î½Î±ÏĢ
Î¯Ïģ Î±ÏĩÏħÎµ
ĠÏĤÎµÏĦ Î·ÏĦÎ¯Î±ÏģÎ±ÏĢÎ±
ÏģÎµÎ¼ Î±Î¹Î´
ĠÎ® ÏĢÎ¿ÎºÎ±Î¹Î´
Î±ÏĦÎ·ÏĦÏĮ ÎºÎ¹ÏĦ
ÏħÎ¿Î¯ Î³Î¿Î»Î¿ÏĦÏĥÎ¹
Î¹ÏģÎ± Î¸Î±Îº
ĠÎ±Î¯ ÏĪ
ÏĤÎ·Ïĥ ÏīÎ½ÎĪ
ĠÎ¿Ïģ Î¸ÏģÎĨ
ÏħÎ¿ ÏĥÎµ
ĠÎ½Î±ÏĦ ÎŁ
ĠÎ¹ÎµÎ¶Î¬ ÎµÏģÎ·ÏĢÎµ
Î® Î½Î³
ÎºÎ±Î¹Ïģ ÏįÎº
ĠÏĤÎ¿Ïģ Î´Î½Î±Î¾ÎŃÎ»Îĳ
ĠÎ½ Î®
ĠÏĤÎµÎ¯Ïģ Î¿ÏĨÎ¿ÏģÎ·Î»Îł
Î·Î¾ Î¬ÏģÏĢ
ĠÏĤÎŃ Î³Î¿Î¼ÏģÎ±ÏĨÎµ
Î½ Î·ÏĥÏĥÎµÎľ
ÏĢ ÎĻ
e i
ÎŃÏģÏĦ Î¿ÏĢÎ±
ĠÎ¿ Î¯Î±Î³Î¹Îĳ
ĠÏĮÎºÎ¹ÏĦ Î·ÎºÎ¹Î¿Î¹ÎĶ
Ġa ni
ÎŃÎ¸ Î¿ÏĢÏħ
ĠÎ®ÎºÎ¹ ÏĦÏĥÎ±
Î½ÏīÎ³Î± Î¹ÎĶ
ĠÏĮ Î³ÏģÏħÎ¿ÏĢÎ¥
Î¯ÏĦÎ±Î¼ ÏīÎ´
ĠÎ± ÏĨ
maH x
ÎµÏĦÎµ ÏĥÎ®
Î½Î¹Ïģ ÎºÎ¹Î»Î¹Îµ
ĠÏĤÎ¹Îµ ÏģÎ¤
ÏĤÎ·Î½ ÏĩÎŃÏĦ
Î·Î¸ Î±ÏĢ
ĠÎ½Ïİ Î½Î·Î¼
ĠÎ¹Î´ Î¬Î»
ÏĤ Î¿ÏĨÎ¬ÏģÎ³
Î·ÏĦÏĥ Î±ÏĦÎ±Îº
ĠÎ½ÏįÎ¿Î¸ ÏĨÎ·Î»
ĠÏĤÎ±Î¯ÏĥÏħÎ¿ Î¾Îµ
Î¼Î¬ÏģÎ³ Î¿ÏĢÏħ
ÎŃ Î»Îµ
Ïİ Î½Îĳ
Î±Î¯ Î½Î¹Î±ÏĦ
ĠÎ·ÏĥÎ±Î²Î¼ ÎŃÏĢÎµ
ÏĤÎ¹Îµ Î¾ÎŃÎ»
8 6
ĠÏĤÎµÏĦÎŃ Î³Î·
Î½Ïī Î»Î¿Îł
ĠÎ½Î±Îº Î®ÏģÎ²
Î±Î¹Îµ Î»Î¬ÏĨÏĥÎ±
ĠÎ¹Î¿Î» Î¬Î³ÎµÎ¼
ĠÏĤÎŃ ÏĨÎ±Ïĥ
Î½Î® ÏĦÏħÎ±
Î´Î½Î¬ ÎºÏĥ
ÏĤÎŃÎ¼ Î¹ÏĦ
ÏĤÎ¹ÎµÏĥÏİ ÏĦÏĢÎ¹ÏģÎµÏĢ
Îķ Îĵ
ĠÎµÏĦÎ¯Îµ ÏĦÏĥ
ÏĩÏģÎ± Î½Î±
er f
ĠÎ±ÏĦÏĥ Î¹Ïĩ
ĠÏĤÎ®ÎºÎ¹ Î½ÎµÎĵ
Î±Î» Î²
ĠÎ± Î¶ÎµÏĢÎ¬ÏģÏĦ
ÏīÎ¸ ÏģÏĮ
ÏīÏĦÎŃÎ¼ Î¹ÏĦÎ½Î±
ÎºÎ¹Ïģ Î·ÏĦÏĥÎ¿ÏĢÏħ
Î·ÏĥÎµÎ¸ ÏĮÏĢÏħ
Ïī Î¹Î¾
Î¹ÏĢ Î¿ÎºÏĥ
ĠÏĤÏī Î¯ÎµÎ»ÎµÏĦ
ĠÎ¹ÎµÎ³ Î¬ÏģÎ±ÏĢ
ĠÏĤÎ¹Îµ Î¶Î¬
- .
ĠÎ½Ïī ÏģÎŃÏĦ
ĠÏĤÎ®ÎºÎ¹ ÏĦÏĥÎ¹Î½ÏīÎ³Î±
Î±Î¯ Î¿ÏĢÎ¿
ĠÎ½Î±Ïĥ Î±ÏģÎŃÏĢ
ĠÏĤÎ¿ Î¸Î¬ÏĢ
ĠÎ½ÏħÎ¿Î¾ ÏģÎ¬ÏĢÏħ
Î¹Î¿Î» ÏĮ
ÏħÎ¿Î¯Î» Î¹ÏģÏĢÎĳ
ĠÎ·Î¾ ÏīÎ¯Î´
ÎºÎ¹ ÎĿ
ĠÎ¯ ÏģÎµÎł
Î±Î¹Ïģ Î®ÏĦÏĥ
ÏĥÎ¹Îµ Î½Î±Î´
ÏĩÎ¯ Î¿ÏĦ
ÎŃÏĦ ÎĿ
ÏĥÏĮÎº Î±Î¹Î´
Î¸ ÏİÎ¹Î½
ĠÎ·Î´ Îī
Ġ tsa
ĠÎ±Î¹ Î½Î¬ÏĢÏĥ
ÏħÎ¿ Î±Î£
ÏįÎµÎ½ Îł
ĠÎ·ÏĥÎ·Î¸ ÏįÎ¿Î»Î¿Îº
Î±ÏĢ ÏĥÏĮÏĢÎ±
Î·Î¼ Î¿ÏģÎ´Î½ÏħÏĥ
Î¯Ïģ Î³
ĠÏĤÎ¿ Î¹ÏĦ
ĠÎķ ÎĹÎŁ
ĠÏĤÎŃÏĦ Î·ÏĦÏĮ
ĠÏĤÎ¹ÎµÏĥÎ® ÏĦÎ½Î±Î½ÏħÏĥ
Î¹Î¸ ÎŃ
Î±ÏģÎµÏĦÏĮ ÎºÎ¹Î´Î¹Îķ
ĠÎķ Îł
ĠÏħÎ¿Î»Î» ÎŃÏĢÏħ
ĠÎ±ÏģÎµÏĦÏĮ ÎºÎ¹Î½ÎµÎ³
ÏĤÎ±Î¯Îµ Î»Î±ÏĨÏĥÎ±
y e
Î¿ Î¯ÎµÎ¼Î·Ïĥ
ĠÏĤá¿ Ĩ
Ġrets maHx
ĠÂ» ;
5 9
ÏħÎ¿ ÎĲÎ±Îľ
Î¬ Î¶ÏĦ
Ïİ Î¸Î±
ÎµÎ¸ ÏĥÎ±
ĠÏĤÎ·Î» Î¬ÏĩÎ¹Îľ
ĠÎ½ÏīÏĦÎ¬Î¼ Î¼Î±ÏģÎ³Î¿ÏģÏĢ
00 3
ĠÎ¿Î¹ Î¿Îł
ĠÎ½Ïİ Î»
ÎµÎ¼ ÏħÎ¿Ïĥ
Î¾Îµ Îľ
ĠÎ½ÏħÎ¿Î½Ïİ Î»Î·Î´
ĠÎ¯Îµ ÏĦÏĥÎ¹ÏĢ
ĠÏĤÎŃ Î¹Î»
ĠÏĤÎ±Î¹Î¼ ÏĥÏĮÎºÎ³Î±ÏĢ
Ġ9 102
ĠÏĤÎŃ ÎºÎ±Î¹Îµ
ĠÎ· ÏģÎ¬
ĠÎ±Î¹ÏĥÎ® ÏĦÎµ
Î±ÏģÏĨ ÎºÎŃ
Î¸ Î¦
Î³ÏģÎµ Î½Îķ
ĠÏĤÎ· Î½ÏİÎ¶
Î¹Î¼Î·Î¶ Î¿ÏĢÎ±
ĠÎ¹Î±ÏĦÎµÎ¶Î¯ ÏĩÎµÎ½ÏħÏĥ
ĠÎ±Î¯ Î½ÏīÎ½Î¹Î¿ÎºÎ¹ÏĢÎķ
8 7
ĠÏįÎ¿Ïģ ÎºÎ¹Î¼
ĠÏĤÎ¹ÎµÏĥÎ® Î»ÏīÏĢ
Ġ1 0
ĠÎ¬ÎºÎ¹ ÏģÎ¿ÏĦÏĥÎ¹
ĠÏĤÎ± Î¯ÏĦ
Î¿Ïģ ÏĨÎĳ
ÎµÏĨ Ïį
ÏĢÎ± Î»Î»Î¿ÏĢ
Î»ÎµÎ³Î³Î¬ ÏĢÎµ
ĠÎ± ÎŃÏģÎ´Î½Îĳ
ÏįÎ¿ÏĢÎ± Î³Î±
Ïį ÏĨÎµÎ¾
Î¹ÎµÎ¾Î¬ÏĦ Î½Îķ
ĠÎ·Ïģ ÏįÎ±Î¼
ĠÎ±Î¼ Î·Î´ÏĮÏĥÎ¹Îµ
ĠÏĮ Î³ÏģÏħÎ¿ÏĢÏħÎ¸ÏīÏģÏĢ
ÎµÏĦ Î½Î¹Î²
Î½Î±ÏĨ Î¿ÏģÎł
ÏĨÎµ ÏĦÏĥ
ĠÏĤÏİ ÎºÏģÎ±Î¹Î´
á½ ¹
ĠÎ¬ ÎºÎ±Î¹Îµ
ÏĢÏħÏĦ Î½Îµ
ĠÏĤÎ¹ÎµÏĥÎ® ÏĦÏĢ
ĠÎ½ÏīÏģÎ¬ ÏĥÏĥÎµÏĦ
Î¯Ïģ ÏīÎ½Î³
ÏģÎ¿Î¼ ÏĮ
ĠÏįÎ¿Î¼ÏĥÎ¹ Î³Î¿Î»Î¿ÏĢÏĭÎ¿ÏģÏĢ
ÏĢÎ¼ Î±ÏģÎ¤
ÏĢÎ¬ Î³Îĳ
Î·Î¼ÏįÎ¸ Î¹ÏĢÎµÎ½Î±
ĠÎ¿Î»Î» ÎµÏĢ
of ni
ĠÎ±Î¯Ïĥ ÏħÎ¿ÏĢÎ±
Î·Ïĥ ÏįÏĨ
ĠÎµÏĦÎ¿ÏĢÎ®Î´ÏħÎ¿ Î¹Î¿ÏĢÎ¿
Î¯Î¼Î·Î¶ Î¿ÏĢÎ±
ĠÎ¹Î»Î¬ Î½Î±Îº
ĠÎ½ÏīÏĢ ÏİÏĥÎ¿ÏģÏĢ
ĠÏĤÎ·ÏĦ ÏĥÎ®ÏģÏĩ
ĠÎ·Ïģ ÎĨ
vre s
ĠÎ±ÏĦÎ±Î¼ Î¼Î¬ÏģÎ³
ÎĲ ÎµÏĦÏīÏģÏĢ
Î¬ ÏĥÎ¤
ÎºÎ¹ÎµÎ´ Î½Îµ
Î½ÏīÏĨ Î¿Î¹Î´Î±Ïģ
ĠÎ½ÏįÎ¿Î» Î¹Î¼
Ġk na
ĠÏĤÎŃ ÏģÎ±Î²Î¿Ïĥ
Î¯Î±ÏĢ Ïħ
Ġevi l
t re
Î¯Î² ÏģÎµÏĥ
ĠÎ±Î¯ Î±Î¼Î·Ïĥ
Î² Î¹ÏģÎº
ĠÏĮÎ¼ ÏĥÎ¹ÏģÎ¿Î¿ÏģÏĢ
Î¿Î¼ÏģÎ± ÏĥÎ¿ÏģÏĢ
Î²Î±Ïģ ÎĴ
ĠÎ¹ÎµÏĥÏİ Î»Î·Î´
Î³ÎµÎ» ÎºÎµ
ĠÎ±Î¯ÏĦ Î»ÎµÎĶ
ĠÏįÎ¿ Î³ÏģÏħÎ¿ÏĢÎ¥
ĠÏĤÎ® ÏĩÎ¿ÏģÎ±ÏĢ
ĠÏħÎ¿ Î¹Ïĥ
Ġ. âĢ¦
Î½ÏīÎµ ÏĥÎ¬
Î±Î» Î®Î´
Î¿ÏĦÏĥÏĮ ÏĢÎĳ
ĠÎ® ÏģÎµÎ¸Î±ÏĦÏĥ
ÏħÏĦ ÎºÎ¯ÎĶ
ĠÏĤÏİ Î¹
ĠÎµÏĦÎ¿ÏĢÎ®Î´Î½Î¿ Î¹Î¿ÏĢÎ¿
ĠÎ¹Î±ÏĦÎ½ Î¿ÏĨ
Î±Ïĥ ÏĦÎ±Îº
Î¯ÎµÏĦ Î£
Ġ9 3
ÏħÎ¿ Î»ÏĢ
ĠÏħÎ¿Î¯Î±Î³ Î¹Îĳ
ĠÎłÎķ Îĳ
Î¹Î» ÎĹ
ÏįÎ¿ÏĦ Î±ÏģÎº
ÎŃÎ» Î¿Îł
ÏĥÎ¹Îµ Î½ÏħÏĥ
ÏĩÏĮ Î´
ÏīÏĥ Î½Îµ
ÎºÎµÎ´ Î¬ÏģÎ±ÏĢÎ±
Î¬Î¼ Î¹Î»Îº
Î¯ÏĦÎ±Î¼ Î»ÎµÎ³Î³Î±ÏĢÎµ
ĠÏĮÎºÎ¹ Î»Î¿Î½ÏħÏĥ
Î¬Î» Î¿Î´
Î·ÏĦ ÏĨ
ĠÎ·ÏĥÎ·ÏĦ ÎŃÏģÎ·ÏĢÏħÎ¾Îµ
ÏħÎ±Ïĥ Î·Î¸
ĠÏĤÎŃ Î¹Îµ
Î® Î³Î¿Î»Î¹ÏĢÎµ
ÏħÎ¿ÏĢ ÏįÏĦ
ĠÎ±Î¼ ÏįÎµÏģ
Î½Î±ÏĢ ÏĥÎ¹
ĠÎ¿Î¹ÏģÎ®ÏĦÏĥ Î±ÎºÎ¹Î´
Î½Î¿ÏģÎŃ Îĵ
Î±Î¼ ÏĮÏĦÏħÎ±
ĠÎ±ÏģÎµÏĦ Î¯ÏģÏīÎ½
ĠÏĤÎµ ÎºÎ¹ÏĦ
ĠÎ¿Î¯Îµ Î»Î¿ÏĩÎ£
Î¿Î¼ ÏģÎµÎ¸
ÏĤÎ±Ïĥ Î¹ÏģÎ¬ÎĽ
ĠÏĤÎ®ÎºÎ¹ ÏĢÎ¿ÏĦ
ÎµÏĦ Î¯ÎµÎ¸
ĠÎ·Î¾Î±ÏĦ Î¬Î¹Î´
ĠÎ¹Î±ÏĦÎ½ ÏįÎ¿Î½Î¹Îº
ĠÏħÎ¿Î³ÏĮ Î»Î»ÏħÏĥ
ĠÏĤÏĮÎºÎ¹ ÏĦÏĥ
ÏĮÏģ ÎºÎĳ
Î³ Î¬ÏĢ
ĠÎ¬Ïģ Î±Î¼Î±Î£
ĠÏĤÎ¬ÏĦ Î½Î¿
ĠÎ±Î¼Î· ÏĩÏĮ
Î¿Î¹ Ïĩ
ĠÏĤÎ¿Î¹ Î¼
Î±Ïģ Î©
ÏĢÏħÏĦ Î±Î¹Î´
ÏĢÏħ Î³Î¯Îĳ
ĠÎ±Î» ÎŃÏĢÎ¿Îº
Î¯Ïĥ ÏħÎ±Îº
ÏħÎ¿ÏĢÏĮÏĦ Î¿Îº
Î¹ Î½Î±Î¼
ĠÏĤÎ¿ÏĦÎ±Î¼ Î¯Î±
Î·ÏĦ Î¯ÏģÎ¤
ÏħÎ¿ Î¸
ĠÎ· ÎºÎ¬Ïģ
ĠÎ±Î¹Îµ Î²Î¯ÏģÎºÎ±
Î½ÏħÎ¸ÏįÎµ ÏĢÏħ
ÎµÏĦ Î¿ÏĢ
ĠÎ®ÎºÎ¹ÏĦ ÏħÎĶ
Î·Ïĥ ÏīÎ½ÎĪ
ÎłÎŁ Îķ
ĠÏĤÎ®ÎºÎ¹ Î»
ÏįÎ¿Ïģ Îº
ĠÏĤÎ¿ÏĢ ÏįÏĦ
ÏĮ ÎºÎ¹Î´
Ïĩ Î±
Î³Î¿Î» ÏĢÎ¼
Ïĭ Î¿ÏģÎł
ĠÎµÎºÎ·Î¸ Î®Î»Î²
ÏįÎ¿Ïģ Î¿Î³Î·ÏĦÎ±Îº
ts ir
ĠÏĤÎ¹ÎµÎ´ Ïİ
Î±Î» Î¿Î´
ĠÎ· ÏĩÎ¹Î¿ÏĦÏĥÎ¯ÏĦÎ½Î±
ĠÎ·ÏĥÏīÏģ Î®Î»
ĠÎ½ÏħÎ¿ ÏįÏĩÏĥÎ¹
Î½Î¬ Î²
Î»Î¿Î² Î¿ÏģÏħÏĢ
ÏĢ Î±Îº
ĠÎ¹ÎµÎ½Ïİ Î¹ÎµÎ¼
ĠÎ±Î¯ Î»Î±ÎºÏĥÎ±Î´Î¹Î´
ĠÎ£Îĳ Î£
Î¿Î¹ Î±ÏĩÏģÎ±
ÏĤÏħÎ¿Î» ÎŃÏĦ
ĠÎ½Î±Î¾ Î¹ÎµÎ´ÎŃ
ĠÏĤÎ¿ÏĦ Î±Î½Î¬Î¸
Î·Îº Î¬ÏĦ
ĠÎ®ÏĦÎµ Î»ÎµÏĦ
Î²Î¬ Î»Î¿
liam g
Â» âĢ¦
Î¾Î¿Î´Î¿Î¹ ÏĥÎ¹Î±
ĠÎµÏĩÏħÏĦ ÎŃÏĢ
Î³Î¿Î¼ÏģÎ± ÏĨÎķ
ĠÎ±Ïģ Ïī
ĠÏħÎ¿ ÏĥÎ¯Î¾Îµ
ĠÏĤÏīÏĢ ÎŁ
ĠÏĤÎ±Î¯ Î½Î¹Î±ÏĦ
ĠÏħÎ¿ÏĦ Ïĥ
ĠÏħÎ¿Î¯ Î´
ĠÎ½Ïİ ÎºÎ·Î¸
ĠÏĤÏĮ Î½Î±ÎºÎ¹ÏģÎµÎ¼Îĳ
ĠÏĤÏİ ÏĨÎ±Ïĥ
ĠÎ® Î½Î¸ÎµÎ¹ÎĶ
ÏĥÎ¬ Î¤
Î³ÏģÎµ ÏħÎµ
ĠÏĤÎ®ÎºÎ¹ÏĦ Î¿ÏģÎ³Îĳ
ĠÎ¬ Î»Î¹Î¼
ĠÎ±ÏĦÎ±Î¼Î®Î¸ ÏĥÎ¹Î±Î½ÏħÏĥ
ĠÏħÎ¿ Î¹Î¼
ÏĢÎ¼ Î±ÎĽ
ÎŃÏĢ Î±ÏģÎ±ÏĢ
or dnA
ĠÎ½Ïī Î½ÎŃÎ¾
ĠÏįÎ¿Î¼ ÏĥÎ¹ÏĦÎ±Î¼
ĠÏĤÎ±ÏĦÎ½Î¿Î½ Î®ÏĨÎ±
ĠÎ±Î¹ Î±Î²ÎŃÎĴ
Î»Î¬ ÎĴ
ĠÎĳÎł Î¦
ÏħÎ»Î¬ Î½Î±
Î»Îµ ÎºÏĥ
ĠÎ½Î¿Î¹ÏĢ ÏİÎ½Îµ
be W
Î¹Î¿ÏĢ Î¿Î½Î±ÎºÎ¹
m oo
ÏħÎ¿Î¼ ÎŃÎ»Î¿ÏĢ
Î»Î¬ ÏĨÏĥ
ÏĤÎµ Î½Î¿Î¼
Î³Î·ÏĦ ÏģÎ¿ÏĨ
ĠÎ¿Î¯ÎµÎ¼ Î¿ÎºÎ¿ÏĥÎ¿ÎĿ
ĠÏĤÎ±Î¯Ïĥ Î±Î¼Î·Ïĥ
ÏħÎ¿ Î¯ÎµÎ¼
Î¬Î¹Î½Î½ÎµÎ³ ÏħÎ¿ÏĦÏĥÎ¹ÏģÎ§
Î³ Î¹ÏĥÏĦ
ĠÏĤÎ® ÏĦÏĥÎ¹
ĠÎ½ÏīÎµÏĥÏİ Î»Î·Î´ÎºÎµ
el gooG
ĠÎ® Î½Î±ÏĦÎ½ÏīÎ¶
Î³ÏģÎµ Î»Î»Î±
ĠÏĤÏħÎ¿ Ïĩ
Ġ U
ĠÎ½Î±Ïĥ Î·Î¸
ĠÎ¹ ÎºÏĥ
ĠÎ½ÏħÎ¿ÏĩÎŃ ÏģÎ±ÏĢ
ĠÏī Î½Î¬Î²Î¼Î±Î»
ÏħÎµ ÎºÏĥÎ¹ÏĢÎµ
Ïī Îľ
Î¥ÎŁ Îļ
Î·ÏĥÎ·ÏĦ Î½Î¬ÏĢÎ±
ÎºÎ± Îł
ĠÎ·Ïĥ ÎŃÎľ
ÎŃ ÏģÎ±
ĠÎ¬ÏĦ Î±Î½ÏħÎ´
Î¯ Î±Îł
Î· Îĵ
ĠÎ¹ÎµÏĪ ÏįÎ»Î±Îº
ĠÎ·ÏĥÎ· ÏģÏĦÎŃÎ¼Î±Î½Î±
ÎĻ Î¤Î£
á¼ Ķ
Ïī ÎµÏģÏĩ
ĠÎµÎ¾ Î·Î»ÎŃÏĦÎ±Îº
ĠÎ¹Î¿ Î¹ÏĨÎ®ÏĪÎ¿ÏĢÏħ
ĠÎ¹Îµ ÏįÎµÎ»
Î³ Î±ÏģÎ±ÏĢ
Î·ÏģÎ·ÏĦ Î±ÏģÎ±ÏĢ
Î½Î¹ ÏĨ
re vi
S R
Î¿ Î¯Î±Î³Î¹Îĳ
ĠÏĤÎ±Î¯Ïģ Î¹Î±ÏĦÎµ
Î¯Î± Î´
ĠÏħÎ¿Î» ÏħÎ¿ÏĢ
S P
Ïį ÎºÎ³Îµ
Î±Î² ÎµÎĴ
ĠÎ¹Î±ÏĦÎµÎ¶Î¬ Î¹ÎµÏģÎ§
Ïī Îł
ĠÎ¹Î¿Î¼ ÏĥÎµÎ´Î½ÏįÎ£
Î½ÎŃ Î¶ÏĦ
tro pS
ĠÏħÎ¿Î¯ Î³ÏģÏīÎµÎĵ
ĠÎ·Î¾Î¹ÎµÎ´ Î½ÎŃ
ĠÏĦÎµ ÎºÏĥÎ¬ÏĢÎ¼
ĠÏħÎ¿ ÏĩÏģÎ¬Î¼
ĠÎ½Ïİ ÏĦÏĥÎ¹
ĠÎ® ÎºÎ±Î¹Î´
ĠÏĤÏħÎ¿ÏĦ ÏĥÏĮÎº
ĠÏĤÎ·Î´ Ïİ
tu a
er u
ÎºÎ¹ Î±ÏĢ
ĠÎ®Î»Î¿Î² Î¹ÏĢÎµ
Î¤ ÎĿÎĳ
ĠÎ¿Î¼ Î¬Î³
Î·Î½ Î½ÎŃ
ĠÎ¹Î±ÏĦÎ½ÏįÎ¿Ïģ ÏīÎµÎ¸
Î±ÏĦÎ±Î¼ Ïİ
Ïį ÏĦÏĥ
Î·ÏĦÏĥ ÎµÏĦÎ±Îº
ĠÎ® ÏĦÏĥÎ¹ÏģÏīÏĩÎµÎ¾
ĠÎ¿ÏĢ ÏįÏĦ
ÏĤÎ¿ÏĦÎ±Î¼ ÏİÏĥ
Î±Î¼ÏħÎµ Î³ÏĮÏĢÎ±
Î½Î¿Îº Î®Î¸Î±Îº
Î±ÏĢ ÏīÏĥÏĮÏģÏĢ
ĠÏĤÎ¿ÏĢ Î¿ÏĦÏĮÏĦÏĥÎ¹
ĠÎ±Î¯ÏĥÏħÎ¿ Î¹ÏģÎµÏĢ
Î±Î» ÏĥÎĻ
Î½ÏīÎµÏĥÎ® ÏģÎ¹ÎµÏĩÎ¹ÏĢÎµ
ĠÏĤÎ±Î¯ Î½Î±Î¼ÏģÎµÎĵ
ĠÏħÎ¿ Î¹ÏĥÏĮÎ¼Î·Î´
Î¿Ïĥ Î¿Î½
Ïį Î±ÏĦ
ÏĥÎ± ÎĶ
ĠÏĤ ÏĮÏģÏĦÎ±Î¹Î³
ÏĮÏģ Î²
ĠÎ·Î¾ ÏħÎµÏĦÎ¯ÏĢÎµ
Î½Îµ Îł
ÏĦÎº Î±ÏĦÎ±Îº
ÏĦÏĥÎ¹ ÏģÎµÎł
Î¿Î» ÏĦÎ¯ÏĦ
Î¿ÏĦÎ±Îº Îµ
ĠÎ½ÏīÎ³ÏįÏĨ ÏĥÎ¿ÏģÏĢ
ÏģÎ¬ ÏĦÏĥ
Î±Î¯ Î½Î±ÏĢÏĥÎĻ
ÏĩÎ¯ÎµÎ´ Î¿ÏĢÎ±
ÏīÏģ Î¹ÎµÏĢ
ĠÏĤÏĮ ÏĦÏĥÎ¹ÏģÎ§
Î¯Ïģ Î±Îł
ĠÎ±Î¯ ÏĦÎ±Î¼
ĠÏĤÎŃÎºÎ¹Î» Î¿Î½ÏħÎ£
ĠÎ½Î± Î³ÎµÎ»ÎŃ
Ġ uo
ÏĤÎ¯Îµ Î½Î¿Î³
ÎºÎ±Î» ÏįÏĨ
ĠÏĤÏįÎ¿Ïģ Î¹Î±Îº
Î½Î¬Î³Ïģ ÎŁ
ÏįÎ¿ÏĦ Î·Î¶
ĠÎ·ÏĥÎ±ÏĦ ÏĥÎ¬Î½Î±ÏĢÎµ
ÎĿ Îĵ
Î¹ÏĦÎ½Î± Î¶ÏħÎĴ
ĠÎ½Ïī Î½ÏĮÎ¼
ĠÏįÎ¿ Î¹Ïģ
Ġ, âĢĻ
Î·Î» ÎŃÎ¼
" ...
ÎŃÏģÎ¹Î± ÏĨÎ±
Î¬Î» ÏħÎ¿Î¤
ÏģÎµÎ¼ Î¿ÏģÏĦ
ĠÏĤÎ±Î¯Ïĥ ÎµÏģÎ·ÏĢÏħ
Î¸ÎŃ Î³ÎµÎ¼
ĠÏĮÎºÎ¹ ÏĢÎ¿ÏĦ
ĠÏĤÎ¿ÏĦ Î±ÏĦ
Î¼ Î¿Îļ
Î¿ÏĦÎ± Î¾Îµ
Î² Î±Î½
Î»Î¿ Ïĩ
Î®Î» Î¸Î±
ĠÎ½Ïİ ÏĩÎµÎ»ÎµÏĦÏĥ
Î¼Î¼Î±ÏģÎ³ Î¿ÏĢÏħ
ĠÎ½ÏİÎºÎ¹ ÏģÎµÏĦÏīÏĥÎķ
Î¿ÏģÎµÏĦ ÏħÎµÎ´
Î¹Î± ÏĨÎ±
ĠÎ·ÏĦ ÏģÎ¬Ïĩ
Î¹Î»Î¬ÏĨÏĥÎ± Î¾Îµ
ÏĤÎŃ ÏĦÏĥÎ¹
ĠÎ±Î½ Î¯ÏĦ
ĠÎ± ÏģÎµÏĦÏį
ĠÎ¯ ÏĢÎķ
Î¸ Î±Î¼
ĠÎ½Î¿ÎŃÎ»ÏĢ Î¹ÏĢÎķ
ÏħÎ¿Î¯ÏģÎ²Î¼Îµ ÎºÎµÎĶ
ĠÎ±Î½Î¯ Î¶ÏħÎ¿Îº
ĠÏįÎ¿ÎºÎ¹ Î½ÎµÎĵ
ÏĥÏĦ ÎµÏĢ
ĠÎ½ÏħÎ¿ ÏĩÎµ
ĠÎµÎ½Î¬ Îļ
ĠÎ·ÏĥÏīÏģÏįÎº Îĳ
Î¹ÏĦ Î¹Î±
ĠÎ±ÏĦÎ±Î¼ ÏĮÏĦÏħÎ±
ĠÎ¹Î±ÏĦÎµÎ½ ÏįÎ¸ÏħÎµÏĢÎ±
ĠÏħÎ¿ Î¹Î¿ÏĦÎŃÏĦ
Î¬Ïģ ÏħÎ¿Îº
ĠÎ· ÏģÎ¿Î³Î®ÏģÎ³
Î½Î±Î¼Î¹Îº Î¿ÏĦÎ½
Î½Î¿Ïģ Î§
Î·Î¼ ÏħÎ¸
Ïħ Î¤
ĠÎ®ÎºÎ¹ÏĦ Î¿Î¼Î·ÎĶ
ÏĦÎ· Î¿Î³
Â» !
Î·ÏĦÏģÎ¬ Ïĩ
ro p
Ġ ruo
ĠÎ±Î» ÎŃÏĦÎ½Î¿Î¼
l f
Î¯Îµ ÎĶ
ĠÎµÏĥÏīÎ´ ÎŃÎ¾Îµ
Î¿Î´ Î¿ÏĢÎ¥
ĠÎ±ÏĦÎ·ÏĦÏĮ ÏĦÏħÎ±ÏĦ
» ¿
Î¥ Îľ
ĠÏĩ ÏĢ
ÎºÎ¯ Î¿
ĠÏħÎ¿Î½ Î¯ÏĦÎ½Î±ÏĦÏĥÎ½ÏīÎļ
ÎµÎ² ÏĥÎ¿Ïģ
Î¹Îµ Î¶Î¯Ïģ
ĠÎ· Î½ÏİÏĦÎ½Îĳ
Î¹Î² ÎºÎµ
Ġk ci
ĠÎ±Î¯Îµ Î´Î¹Î±ÏĢ
ĠÎ·ÏĪ ÎµÎ»Î²
ÎŁ ÎļÎĻ
ÏģÎµÏĨ Î±ÏĦÎµÎ¼
Î· Î½ÏİÎ¶
Î»Î± Î³ÎµÎľ
ÏįÎ¿ Î»Î»Î±
ĠÎ±Î¹ Î´Î¬
ĠÎ¯ Î¤
ĠÎµÏĦÏĥÎµ ÏĩÎŃÎ´Î¿ÏĢÎ±
ĠÎ½ÏħÎ¿Î¸ ÏģÎŃ
ĠÎ¹Î¿Î¼ Î¹Î¿ÏĦÎŃ
ĠÎ½Î±ÏĦ Î¿
Ïħ Î±ÏĢ
ĠÎ¹ÎµÎ¶Î¬ Î¹ÏģÎ¹Î±ÏĦ
Ïĥ ÏīÎ¡
ĠÎ¹ÎµÏĥÎ® Î³ÏģÏħÎ¿ÏĦÎ¹ÎµÎ»
ĠÎ± ÏĩÏĥÎ¬Îł
ĠÏį Î¿Î´Î¿
ÏģÎ¬ Î»Î±Ïĩ
m m
Î¬Î¸ ÏĥÎ¹Î±
ÏĨ Î¬
Îº ÏģÎ¿
Î¹Îº Îĵ
ÎµÏĩÏĥ Î¬
Ġ Î¸
ÏĥÎ¿Îº Î³Î±Îł
n re
Î»ÎŃ ÎĴ
ĠÎ½ÏįÎ¿Î¸ ÎµÏģÎ²
Îµ Îµ
Î½ ÏģÎµÏĢ
ÎŃ ÎºÏĥÎ¹ÏĢÎµ
ĠÏĤÎ¿ÏĦÎ½Î¿ Î»Î»Î¬Î²Î¹ÏģÎµÎł
ÏĦ Î±ÏģÎº
Î½Î±Îº Ïĥ
Î®Î»Îµ Î£
ĠÎµÎºÎ· Î½Î¬ÏĨ
Î¹ÏĦÎ±Î¼ Î·ÏģÏĩ
ÏįÎ¿ÏģÏĦ Î±Î¹Î³
5 002
ĠÏĤÏīÏĢ Î¿
Î½ÏħÎ¿ ÏĩÎŃ
ĠÎ½Ïİ Î¶ÎµÏĢÎ±ÏģÏĦ
Î³Î¿Î»Î¿Î¹ Î±ÏĩÏģÎĳ
ÏĩÏħÏĦÏĢ Î±ÏĦÎµÎ¼
Î½Î¬ ÏĨÎ¼Îµ
Î¯Ïĥ Î·Î½
ÏĦÏĥÎ±Î¹Ïĥ Î·Î»ÎºÎºÎµ
ĠÎ®ÏĥÏī Î½Î¯Î¿ÎºÎ±Î½Î±
Ïİ ÎĶ
ĠÏĤÏįÎ¿ÎºÎ¹ Î¼Î¿Î½ÏħÏĦÏĥÎ±
ĠÎµÏĥÎ·Ïģ ÏĮÏĨÎ¿Î»ÎºÏħÎº
ĠÎ± ÎºÎ¯
ĠÎ¯Îµ Î¼ÏħÎ¸Î¹ÏĢÎµ
ĠÎ±ÏĥÎ¬ ÏĢ
Î¿Î¹Ïĥ Î¿Î¼Î·ÎĶ
Î´Î± Î»Î»Îµ
Î¹ÏĦ Î½
Î½Ïī ÏģÏĮ
ÎŁ Î¦
ĠÎ¹ÎµÏĥ ÏįÎµ
Î±Î¼ Î±ÏĦÏĥ
ÏĤÏħÎ¿ Î½ÎµÎ¼ÏĮ
ĠÏĤÎ¿Î½ ÏħÎ¸ÏįÎµÏĢÏħ
ĠÎµÏĦÎµÏĥÎ® Î¹Î¿ÏĢÎ¿Î¼Î¹ÏĥÎ·ÏģÏĩ
ÏĤÎ·ÏĥÎ·ÏĦ Î½Î¬ÏĢÎ±
C A
s ma
Î¹ÏĦÏĥ ÏĮÎ½
ÏħÎ± Î»ÏĮ
ĠÏĤÎµ Î¶Î¯Ïģ
Î¹ÏĨ Î·Î¨
ÏĢ ÎŃÏģÏĢ
Î¬Î» Î¹ÏĨ
ĠÏĤÎµ ÏĦÏĥÎ¹
ĠÎ¹ÎµÎ³ Î®Î»Î±ÏĦÎ±Îº
ÏĮÏģÏĦ Î½ÏħÏĥ
ÎµÎ²ÏĥÎ¿Ïģ ÏħÎł
Î¹ÎµÎº ÏģÎ¬
ĠÏĤÏįÎ¿Ïģ ÎºÎ¹Î¼
ĠÎ¹ÎµÏĨÎ¬ÏģÎ³ Î¹ÏģÎµÏĢ
ÏĮÏĦ Î¿ÎµÎĺ
Ġï Ĥ
ÏģÏĮ ÎºÏĥ
ÏįÏģ Î²
ĠÏĤÎ±ÏĦÎ½Ïİ ÏĦÎ·Î¶
Î±Î¼ Î·Î»Î¸Î¬ÏĦ
ĠÎ¿ Î½Î¿ÏĦÎ½ÎŃ
ÏĮ Î»ÏĢÎĳ
Î¹Ïģ Î´ÎµÎ½ÏħÏĥ
ĠÎ½Î±Ïĥ Î·Î³Î®Î´Î¿
Î¹Ïģ Î±Î²
Î®Î»ÏĢ ÎºÎµ
ĠÎ·Î½ Î½Î¬ÏīÎĻ
ÏĥÎ¹ ÏĨ
Î±Î¯ Î½ÏīÏĨÎ¼ÏħÏĥ
Î¹Î¼ ÎĮ
Î»ÎŃ Î¿ÏģÏĢ
ĠÎ¹Îµ ÏĢÎµÏģÏĢ
ÏħÏģÎº Î¬Î¼
ĠÎ±Î¹Î´ ÏĮÎ¼ÏģÎ±
ĠÏĤÎ¹ÎµÏĥÎ¬ Î²Î¼ÎµÏģÎ±ÏĢ
Ġ0 52
ĠÎ½ÏİÎ¹Îµ ÏģÎ¹Î±ÏĦÎµ
ÏįÏģÎ±Î² Î¹ÏĢÎµ
Îº Î¿
ĠÏĤÎŃ ÏĢÎ¿ÏģÏĦ
ĠÎ½ÏīÏĦ Î®Î½Î¹ÎºÎ¿ÏĦÏħÎ±
ĠÏĤÎ±ÏĦÎ½Ïİ Î³ÏģÏħÎ¿Î¹Î¼Î·Î´
Î±Î»ÎŃÏģÏĦ ÎµÏĢ
Î³ÏīÎ³Î± ÏĩÏħÏĪ
ĠÎ·ÏĥÎ±ÏģÏĨ ÎºÎŃ
ĠÎ½ÏħÎ¿ Î´Î¯Î´
Î¶ÏĦ Î±Î§
Ġe ti
ĠÎµÏĥÎµÎ¸ ÎŃÏĦÎ±Îº
Î¯ÎµÎ´ Î¿ÏĢÎ±
or G
ĠÎ±Î¯Î» ÏħÎ±Î½ÏħÏĥ
ÏĦÏĥÎµ Î¶
ĠÏĤÎ±ÏģÏĦ Î½Î¬
Î·Î» Î¿Ïĩ
Î±Î¯Î» Î²Î¹Î²
Î£ ÎĻÎ¡
s k
ĠÎ¯Îµ Ïģ
ĠÎ·ÏĥÏħÎµÎ´Î¯Î±ÏĢ ÎºÎķ
ÏĩÏĮ Î½Îµ
Î¯Î±ÏĨ ÏħÏģÎ¿Îº
ĠÎ±ÏĦÎ·ÏĦÏĮ ÏĦ
Ġ02 1
ĠÎ¿Î¹Î»ÏįÎ¿ Î²Î¼ÏħÏĥ
ĠÎºÎ¹ Î»Îļ
ĠÎ¯ÏĦ ÏģÎ±Ïĩ
ĠÎ·Ïĥ ÏģÎµÎ³ÎŃ
l F
Î¹Î¼ Î®ÏĨÎ±Î¹Î´
ÎĿ ÎĳÎľ
ĠÏĤÎµÏĦ Ïĩ
Î·Î¼ÏĥÎ¿Îº Î±Î¹Î´
ni L
Î® ÎĴ
ĠÎ±Î¯ Î±ÎºÎ³Î±Î½Î±
Î¯Î» Î¿ÏĦÏĥ
ĠÎ±Î¼Î·Î¸ ÏĥÎ¯Î±
ÏħÎ¿ ÎºÎ³
ĠÎ¹ÎµÏĥÎ® Î¶
âĢĻ âĢĺ
ÏĤÏħÎ¿ ÏģÏĮ
ĠÎ½ÏīÎ´Î¬ Î¹Î»Î¹Ïĩ
Î» Î¯ÎµÏĦÎ£
ĠÎ±Î¯ Î¿Î»ÏĢ
l y
Î¸ Î¹ÏģÎĳ
Î¹ÏĦÎ½Î± Î¶ÏħÎ²
ĠÎ·ÏĥÏħÎµÎ» ÎŃÎ½ÏħÎ£
ĠÎµÏĦÎµ Î¾ÎŃÎ»Î¹ÏĢÎµ
ÏĤÎ¯Îµ ÏģÎ¿ÏĨ
Î® ÏĦÏĥÎ¹
Î± Î¹ÏģÏĦ
ÏĮ ÎĶ
ĠÎ±Î¹Î³ Ïģ
Ġ2 4
ĠÏĤÎ¿ÏĦÎ±Î¼ Î®Î»Î¸Î±ÏĦÏīÏģÏĢ
ĠÎ±Î¯ Î±ÏĩÏģÎĳ
Î½ÏħÎ¿ Î½Î¯
Î»ÏħÎ¿ Î²Î¼ÏħÎ£
Î¬ Î¾ÏħÎ±
Î»Î¬ÏĢ Î¹ÏĦÎ½Î±
Î³ÎŃÎ» Îķ
ĠÎ¹Î±ÏĦÎµÎ½ Î¯ÎµÏĦ
Î¬Î» Îķ
Î·Î¼ Î·Î´
t oo
ĠÏĮÎ½Î¹ ÏīÏģÏĢ
I D
ÏĤÎ¿ÏĦÎ±Î¼ Î¼Î¬ÏģÎ³Î¿ÏģÏĢ
ĠÏĤÎ® Î½Î¹Î¿Îº
Î±ÏĦ ÏĩÏįÎ½
ÏĤÎ¬Î¹ Î½Î¿ÏģÏĩ
ĠÎ±Î½ Îķ
Î£Îĳ Î¤Î£
ĠÎ®Ïĩ Î¿ÏĦÎ½Î±
ÏĥÎ±Î» Î±Î¸
Î»Î± Î£
ĠÎ¬ÎºÎ¹ÏĦ ÏīÎµÏģÏĩÎ¿ÏĢÏħ
ĠÎ¹ Î½Î¯
ÏĢÏīÏĥÎ¿ÏģÏĢ ÎºÎµ
ĠÎ¹Î±ÏĦÎµÎ¶ Î¯ÏĦÎµÏĩÏĥ
Î·Î½Î¯ Îļ
ĠÎ±Ïĩ Î¬Î½Î¿Î¼
Î¬ÏģÏĦ ÎµÎ¼
Î¿ Î¶Î¹Ïģ
ÏĦÏĢ Î¿ÏĢÎµ
ma g
ĠÏĤÎ±Î¯Ïĥ ÏīÎ¡
Î·Î» ÏīÏĢ
ÏĩÏħÏĦÏĥ ÏħÎ´
Î² ÎµÏĥ
ĠÎ±Î´ Î¯ÏĦÎ½Î¿ÏģÏĨ
ĠÎ±ÏĦÎ·ÏĦÏĮ Î¹ÏĥÎ¿Î¼Î·Î´
Ïģ ÏĢ
ĠÏĤÎŃ Î´ÏħÎ¿ÏĢÏĥ
ĠÎ® Î»Î»Î¿ÏĢ
ĠÎ±Î¼ Î®Ïĥ
Î±ÏĦ ÏĢÎµÎ»ÏĮÏģÎµÏĦÏħÎµÎ´
Îµ ÏģÎµÏĨ
Î¯ÏģÏĦ Î±Îł
ÏīÎ´ ÏĮÎµÎĺ
ĠÎ±Î¹ÏĦÏĮ ÎĿ
ĠÎ® Î½Î¹Î¿ÏĢ
Î³Î¿Î» Î¹ÏĢÎķ
ĠÎ½ÏİÏģ ÎºÎ¹Î¼
Î¿ÏĦ Î±Î½Î¬Î¸
Î¯ÏģÎ´ Î±Îľ
Î®Î´ Î¹Îµ
ÏįÎ¼ Î¼Î¿ÏĦÎ±ÎºÎµ
Î¡ ÎĳÎľ
ĠÏĮÎºÎ¹ ÏĩÏģÎ±
O L
ĠÎµÏĥÎ·Î¯Î¿ÏĢ Î¿ÏĦÎ±Î¼Î³Î±ÏģÏĢ
Î®ÏĦÏĥ Î±Î¹Î´
Î¬ÏģÏĨ Î±ÏĦÎµÎ¼
ĠÎ¯ÎµÏĦ Î±ÏģÎºÎ¹ÏĢÎµ
ÏīÏĦ Î¹Îĳ
ĠÎ¿Î¼ Î·ÏĥÎ¯ÏĢÎµ
Î¹Î¼ Î¿Îº
ĠÎ¬Î¹Î» Î±
Î¿ÏģÎµÎ¸ Î±ÏĦÏĥ
Î·ÏĦ Î¬ÏģÎº
Î±ÎºÎ¹Î´ Î±ÏĦÎ±Îº
ÏĮÏĢ Îľ
ĠÎ¹Î±ÏĦÎ¯Îµ Î»Î¿ÏĩÏĥÎ±
ĠÎ»Î¬Î² Î¹ÏĦÏĥÎµÏĨ
ÎŃÎ´ ÏħÎ¿
ĠÎ½ÏİÎºÎ¹ Î´Î¹Îµ
ĠÎŃÏĦ Î¿Îł
pa C
ĠÎ¹ÎµÎ½ Î¯ÎµÏĦ
ĠÏĤÎµÎ¯Ïģ Î¹Î±ÏĦÎµ
Î¬Îº Îĵ
ÎºÎ¹ ÏĨÎµ
ĠÏĤÏīÎ¯ Î±Î²ÎµÎ²
ĠÎ¹ÏĢÎ¼ ÏģÎŃÏĦÎ½
ĠÎ¬Î¹Î» Î±ÎºÎ³Î±
ÏĤÏīÏĢ ÏĮ
ĠÏĤÎ±Î¯Ïģ Î¿Î³Î·ÏĦÎ±Îº
ĠÎ½ÏīÏĦÎ¬Î¼ ÎµÎ¸
mi t
ĠÏĮ ÎºÎ±Î¹ÏĥÏīÏĢÏħÏĦÎ½Îµ
Î³Î¿Î» Î¿ÏĢÎ¥
ĠÏħÎ¿ Î¹Î»
Î·Ïĥ Î·Î¸
Ġret tel
ĠÎ½Î± Î¾Î±
lo p
Ġna e
ĠÏĤÎ¬Î¹ Î½Î¿ÏģÏĩ
ĠÏĤÎµÏĦÎ½Î¿ ÏĩÎŃÏĦÎµÎ¼Î¼ÏħÏĥ
ĠÎ¬ÏģÎ¿ÏĨ Î±Î½Îĳ
Ġlaico s
ĠÎµÏĦÎ¯Îµ Î½ÏīÏĨÎ¼ÏħÏĥ
Ïİ Î¾Îµ
ĠÏĮ ÏĥÏħÏģÏĩ
Î¿Î´ Î¿ÏĦÎ±Î¼
Î¿ÏĦ Î¿Î¼
Î½ ÏįÎ¿Î»
ĠÎ·ÏĥÎ·Î» ÏĮ
Î½ÏħÎ¿ ÏĪ
ĠÎ· ÏĩÎ¿ÏģÎŃÏĢÏħ
ĠÎ¹ O
ĠÎ½ÏħÎ¿ Î¼ÏĮ
Î¿ÏĦ Î¬ÏģÎº
Î¿Ïģ Îļ
ĠÎ·ÏĥÎ· ÎºÎ¯Î¿Î¹ÎĶ
ĠÎ®ÎºÎ¹ÏĦÎ±Î¼ ÏĥÎµÎ»ÎµÏĦÎ¿ÏĢÎ±
ĠÏĤÎ± Î¹Î´Î¯
ĠÎ·ÏĪÎ·Î» ÏĥÏĮÏģÏĢ
Î»Îµ ÏĥÏĦ
ĠÎ½Ïİ Î¼Î¹ÏĦ
ĠÎ¿ Î¹Îº
Ïī Î¶Î¯
ĠÎ® Î³Î¿Î»ÎºÎµ
ÏĤÏī Î¯
Î¬ÏĦ Î¿ÎºÏĥ
Î¹ÏĥÏħÎ¿ Î¾Îµ
ÎŃÎ¸ Î¿ÏĢÎ¿ÏĦ
ĠÏĤÎµÎ´ Ïİ
ÏħÎ½Ïİ Î½Î±
ÏĤÎ¹Îµ ÏĥÎ¯
Î¿Î½ÎµÎ¼ Î¯ÎµÎº
ĠÎ½ÏħÎ¿Ïĥ ÏİÏģÎ·Î»ÏĢ
Î®ÎºÎ¹ Ïģ
ĠÎ¬ÎºÎ¹ÏĦ ÏħÎ»Î±Î½Î±
ĠÎ®ÏĦÎ· Î³Î·Î¸Î±Îº
ĠÎ±Î¯ Î½ÏīÏĨÎ¼ÏħÎ£
ĠÎĳÎĿ Îķ
Î¿Ïģ ÏħÎ±Îľ
Î®Î½ Î½ÎµÎ³
ÏįÎµÏĦ Î±ÏģÏĦÏĥ
ĠÏĮÏĦÏĥ ÎµÎ¶
ÏĢÎµÎ» Î²Î¿ÏģÏĢ
Î±ÏģÎµ Îļ
ĠÎ®ÎºÎ¹ÏĦ ÏīÎ¹Î´Î¹
ĠÎ¬Î¹Ïģ Î±Î²
h W
ÏĤÏħÎ¿Ïģ ÏİÏĩ
ĠÏįÎ¿ÎºÎ¹ ÏĦÏĥÎ¹
ĠÏĤÎ±Î½ ÏħÎ¼ÎĨ
ĠÎµÏĪ ÎµÏģÏĦÏĥÎŃÏĢÎµ
ĠÎµÎºÎ·Î¸ ÏİÏģ
Î¹ÎµÏĩ ÏİÏĦÏĨ
ÏĤÎŃÏĦ Î·Î¸Î±Î¼
Î±Ïģ Î¸ÏģÎ¬
Î¬ ÏģÎµÏĦÏĥÎ¹ÏģÎ±
ĠÎ¯ Î¿ÏģÏĦÎ±Î¹Î³
ÏĩÏħÏĦ ÏĢÎ±Î½Î±
ÏĤÎ¹Îµ Î¼Î¬Î½ÏħÎ´
Ïģ ÏħÎ¿Î¤
ÏĢÎµ ÎºÏĥÎ¹ÏĢÎµ
ĠÏĤÎ¿Ïģ ÏįÎ±ÏĦÎ£
h pt
ĠÎ®Î» Î·Î¼Î±Ïĩ
y kS
Â» ;
ĠÏĤÎ· ÎºÎ¬Ïģ
ĠÎ±Î¼ ÏīÏĦ
Ïī ÏģÎ±
Î±Î¹ ÏģÎµÏĢÎ¼
Î¬Ïģ ÏĢÎ¼
ÏĤ Î¿Î¹Î´Î¯
ĠÏĮ ÏģÎ±Î¸Î±Îº
ÎºÎ¹ Î¿ÏĢÎ±
ĠÏĤÎ¹Îµ ÏĩÎĪ
ĠÏħ ÎµÎ½Î¬
ĠÏĤÎ¿Î» ÏĦÎ¯ÏĦ
Ġ c
ÏĤÎ±Î¯Ïģ Î¿ÏĦÏĥÎ¹
ÏħÎ¿ÏĦÏĥÎ¹Ïģ Ïĩ
ÏĥÏĥ Î±Î»Îº
ĠÎ½ÏħÎ¿ Î½Î¬ÏĦÏĨ
ÏĨ Î±ÏĦ
ĠÎ¹Î±ÏĦÎ½Î¿ ÏĩÎŃÎ´
ĠÎ®ÎºÎ¹ Î»Î¿ÏĦÎ±Î½Î±
ĠÎ± Î´Î¬Î¼Î¿Î´Î²
ĠÎ¯Ïĥ Î±ÏģÎº
ÏħÏģ Î¸
Î¯ÏĢ Î¿ÎºÎ£
Î·Î´ Î¿
ĠÎ½Î±Î¾ ÏģÎ®ÏĢÏħ
ĠÏĤÎ± Î¹ÎµÎºÏģÎ¬Î¹Î´
ĠÏĤÎµ ÏĢÎ¹Î¿Î»ÏĮÏĢÏħ
ĠÏĤÎµÏĦ Î¯
ĠÎ¹ÎµÎ¶ Î¯ÏĦ
ĠÏĮ Î±ÎĿ
hpt ram
ÏīÏģÎ¸ ÏģÎ¬Î¹Î´
ÏĤ Î±ÏģÎ´
ĠÏĤÎŃ ÏĦÏĥÎ±
ÏħÎ¼ Î¼
Î¯ÎµÎ´ Î¹ÏĢÎµ
Î¬Îº ÏħÎ¿ÏĢÎ¼
Îŀ ÎĳÎ¤
ĠÏĤÎ¹ÎµÏĥÎ® ÎºÏĥÎ±
Î±ÏĦ Î½Î¿
ÎµÎ» ÎŃÏĦÏĥ
Î·ÏĪ Î·Î»
ĠÎ½ÏħÎ¿Î½Î¯ Î±Î²
Î¿Î½ Î¿ÏĢÏħ
ĠÏĤÏħÎ¿ÏĢ ÏİÏĥÎ¿ÏģÏĢÎºÎµ
ÏħÏĦÏĩ Î¬Î´
ĠÏĤÎ·Ïĥ ÏīÎ»Î®Î´ÎºÎµ
ĠÎµÏĪ ÎµÏģÏĦ
Î¯Ïģ ÏīÎ»
Î· ÏģÎŃ
ĠÏĤÏįÎ¿Î¼ ÏĥÎ¹Ïģ
ĠÎ¹Îµ ÏĩÏįÏĦÎµÏĢ
ĠÎµÎ¼ Î±ÏĪ
ÏĨ ÎŃÏģÏĦÏĥÎ¹ÏĢÎµ
pu s
Î± Î³ÏģÎŃ
Î±Ïĩ Îĳ
ĠÎµÏĦÎµ Î½Î¬Î²Î¼Î±Î»
ĠÎ½Î±Ïĥ Î±ÏĩÎŃ
ĠÎµÏĦ Î¹Îµ
Î³ ÏħÎ±
ĠÎ¯ÎµÏĦÏĥ Î¿ÏĢÏħ
Îĸ ÎŁÎĳ
ÎĿ Î¥ÎŁ
ĠÎ½Ïİ ÎºÎ±Î¹Îµ
Ïħ Î½Ïī
ÏĤÎµ Îº
Î·Îº Î£
ÏĤÎŃ ÏĩÏģÎ±
Î¿Î¼ Î¹ÏĦ
Ġ4 4
Î¯ÏĦÏĥ Î¿ÏģÏĢ
ĠÏĤÎµÎ¯Ïģ Î¹ÎµÏĢÎ¼Îµ
ĠÏĤÎŃÎºÎ¹ Î½Î¸Îµ
ÎŃÏģ ÎĴ
ÏģÎ¬ Î¸
Î¥ Îĵ
ra e
ĠÎ½Ïī Î¯ÏĥÎ¿Î¼Î·Î´
Î¯ÎµÏĩ Î³Îµ
ĠÎ±ÏĥÏĮ ÏĢ
ĠÏĤ Î¹Ïĥ
ĠÏĤÎ· ÎºÎ®Î¸
ĠÏĮ Î»ÏĢÎ¹Î´
ĠÎ¯ Î¿Î¹
ĠÎ¿Î½ÎŃÎ¼ Î¿Î´ÎµÎ´
ĠÎ·Î» ÎĮ
ÏİÎ» Î¦
Î¿Î½ Î¸Îµ
ĠÎµÎ¼ Î¬Îł
00 4
ĠÎ½Î± Î´Î¯Îµ
Î³Î±Î½Î± Î¾
ÏģÎµÏĦ ÏĩÏħÎ½
ĠÎ¿Ïģ Î¹Î±ÏĨÏĥÏĮÎ´Î¿ÏĢ
ÏĦÏĥÎ¹Î» Î±Î¹ÏģÎµÏĢÎ¼
ĠÎ¹Î±ÏĦÎµÎ¶Î¬ Î¹ÏĥÏħÎ¿ÏģÎ±ÏĢ
Î¸ Î±ÎĴ
ĠÏįÎ¿ÎºÎ¹ÏĦ ÏīÎ¹Î´Î¹
ĠÏĤÎµÎ¯ Î³ÏģÏħÎ¿ÏĦÎ¹ÎµÎ»
ĠÏįÎ¿Î¼ÏĥÎ¹ Î½Î±Î³ÏģÎŁ
ÏĦ ÎĿ
ĠÎ±Î½ ÏīÏĨ
ĠÏįÎ¿ Î»Î»Î±
Î¬Îº ÏħÎµÎĽ
ĠÎ¯ÎµÎ¸Ïĩ Î±Î¾ÎµÎ¹Î´
Î¹Î»Î» Î±Î¼
ĠÏĮÎºÎ¹ÏĦ Î¿Î¼Î·Î´
ĠÏĤÎµÎ½ÎŃÎ¼ ÏĥÎ¹
ĠÎ¿Î¯ÏĦ Î»ÎµÎĶ
ÏħÎ¿ Î¯Î¼
ĠÏĤ ÏįÎ¿ÏĦÏĥ
Î¬ÏĦÏĥ ÏīÏĥ
ĠÎ¹Ïĩ Î¿
ĠÎµÎ»Î± Î³Î²ÎŃ
ÏģÎ¬ÏĦ Î±Îļ
ĠÎ¹ÎµÏĥÎ® ÏĦÏĥÎ±ÏĦÎ±Îº
Î»Î¬ Î²Î¼ÏħÏĥ
ĠÎ±Î¼Î³ Î¹Î¿Î½Î¬
Î®ÏĨÎ¿ÏģÏĦ Î±Î¹Î´
Î½Î¬ Îľ
lo V
ÏĥÎ¹ ÏĨÎ¼
ĠÏĤÎ¹ÎµÏĥÎ¬ ÏĨ
ÎºÏħ ÎĽ
ÏģÎ¿ÏĨ Î¿ÏģÎ·Î»Îł
ĠÎ¬ÏĦÏĥÎ¹ Î½ÏħÏĥ
N D
Ġd l
RA F
Î´ÎµÏĢ Î·Î³
ĠÎ·Ïĥ ÎµÏģÎ¯Î±Î¾Îµ
Î¹ÏĦ ÏħÎľ
ĠÎ½Î±Î½ ÎµÎ¼
Î´Î½Î±Î» ÏģÎĻ
ÏħÎµ ÏĨ
ÏįÎº Î»Îµ
ĠÏĮÎºÎ¹ Î¼Î¿Î½
ĠÏĤÎ±Îº Î¯Î±Î½ÏħÎ³
Î¯Î¼ ÎŁ
e tis
ĠÏĤÎ·Ïģ Î®Î»ÏĢ
ĠÎ±Î¯ ÏĨÎ¿ÏĥÎ¿Î»Î¹ÏĨ
ĠÎµÏĦÏĥÎ®ÏĦ Î±ÏĢ
ĠÏīÎ¶Î¯ ÏĢÎ»Îķ
ÎĿ ÎĹÎĽÎĽÎķ
Î»Î¹ÏĨ Î¿ÎµÎ½
ĠÎ¹ÎµÎ½Ïİ Î½Î¹Î¿ÎºÎ±Î½Î±
ĠÏĤÎµÎ¯ÎµÏĦ Î¹Î»Î¿Îł
ÏįÎµ Î»Î±
ÏĥÎ± Î¹ÏģÎ·ÏĦÏĥÎ¹ÎµÎ»ÏĢ
ÏīÎ¹Î´ ÎĻ
ĠÎ±Ïģ Î¿ÏĨ
ÏĤÎµÏĦ Ïİ
Î½Î±ÏĩÎ·Î¼ Î¿Î¹ÎĴ
ĠÏĤÎŃ Î½Î¹
ÏĤÎ® Î³ÏīÎ³Î±ÏģÎ±ÏĢ
ÏĤÏħÎ¿Î¼ ÏĮÏģÎ´
ĠÎ¬ÎºÎ¹ÏĦ ÏħÎ»Î±Î½Îĳ
ÎĽÎŁ Î§Î£
Î½ÏīÎ½ÎŃÎ¼ Î¿Î¶Î±Î³ÏģÎµ
ĠÏħÎ¿Î´ ÎŃÏĢÎ¹ÏĢÎµ
ĠÎ¹Î¿Ïģ ÏĮÏĨ
ÏĤ ÏįÎ¿Î½
ĠÏĤÏĮÏĦ Î½Î±ÏĢ
Î¸ Ïĩ
ÏĤ Î¿Î³
ÏīÎ»Î·Î´ Î±Î¹Î´
ĠÎ¿ Î¹Î±ÎºÎ¯Î´
Î·Ïĥ Î±
ĠÎ¿ÏģÎ± Î³ÎŃÎľ
ÏĦÏĥÎ¹Î»Î±Î¹Ïĥ Î¿Ïĥ
ĠÎ±ÏĦÎ±ÏĦÏĮ Î½Î±Î¸Î¹ÏĢ
ĠÏĤÎ¹ÎµÏĥÎ¯ Î½Î±ÏĨÎ¼Îµ
ĠÏĮÏģ Î·Î»ÎºÏĥ
ĠÎ® Î³Î±ÏĦ
ÏģÎµÎ¹ Îł
ĠÎ¿ÏĦÏįÎ¿ÏĦ Î¹ÏĦÏĥÎ½ÎĻ
sweni tna
Î·ÏĥÏī Î½Î¯Î¿ÎºÎ±Î½Î±
ÎŃÎ» ÏĢÎ¼Îµ
ÎºÎµ ÏĥÎ¿ÏģÏĢ
Î¬Î² Î±Îļ
ÎºÎ± ÎĽ
Î¶ÏĦ Î½Î±
ĠÏĮÏĦ ÏĩÎ¹Î¿Î½Î±
Ġla ti
ÏħÎºÏĥ Î¿ÏģÏĢ
ĠÎ½Ïī Î¯ÎµÎ¼
l g
ĠÎ±ÏĦ Î¹Î±Î¯Î´
ÏįÎ¿Ïģ Î´Î½Î±Î¾ÎµÎ»Îĳ
Ġs ci
1 5
ĠÎ¬ ÎºÏĬ
ĠÏħÎ¿Î½ ÏįÎ´Î½Î¹Îº
ĠÎ±ÏĦÎ±Î¼ Î®ÏĩÎ¿
ĠÎµÎº Î·Î²
ĠÎµÏĦÏĥ Î¯Îķ
ĠÎ¹ ÏĥÏħ
ÏħÎµ Î»Î»Î±ÏĦÎµÎ¼ÎºÎµ
ĠÎ¬Î¼ Î±Î¼
Î½ Î·
Î¹Îº Î¬Ïģ
ĠÎ·ÏĥÎ· Î½ÏĮÏĢÎ¿ÏģÏĢ
Î·Ïĥ Î±Î²Î¼
ĠÎ½ÏİÎº Î³Î±Î½Î±
Î¿Ïĥ Î¿Î½Î±
ÎĽ ÎĹ
ĠÏī ÏĨÎ¬ÏģÎ³
Î·ÏĦ Îµ
ĠÎ±Î¯Ïģ Î¿ÏĨÎ¿ÏģÎ·Î»ÏĢ
ĠÏĤÎ®ÏĢÎ¿ÏģÏĦ Î¹ÏĢÎµ
Î¿ÏĢÎ¿ÏĦ ÏīÏģÏĢ
Î¾Îµ ÎĶ
ĠÏī ÏįÎµÏĦÏĥÎ¹Îł
ĠÎ®ÎºÎ¹ ÏĦÏĥÎ±Î¹ÏĥÏħÎ¿
á¼° Îµ
ĠÎ¿Î¹ Î½ÏįÎ¿ÎĻ
ĠÎ¬ÎºÎ¹ ÏĢÏīÏĥÎ¿ÏģÎł
Î½ ÏįÎ¿Î½
ÏħÎ¿Î» ÏĢÎ¼Îµ
ĠÎ¿Î¹Ïģ Î²Î¼ÎŃÏĦÏĢÎµÎ£
ÏħÏģÎºÎ¬Î¼ Î¿ÏĢÎ±
ĠÎµ Î½Î¯
ĠÎ±Î½ÎŃÎ¼ Î¹ÏģÎºÎµÎºÎ³ÏħÎ£
> >
Î¶ Î±Î³Î±Î¼
ĠÏĤÎµ ÎºÎ®Î¸
ĠÎ¯Î¿ Î½Î±Î¼ÏģÎµÎĵ
ĠÎ½ÏħÎ¿Î¶Î¯ ÏĩÏģÎ±
R U
ĠÏħÎ¿Î» Î³
ÎĳÎ¡ Îł
ĠÎ±Î¼ Î±ÏģÏĮ
ĠÎ¿Ïģ ÏħÎ¿Î³Î¯Ïĥ
ĠÎ¹ÎµÎ½Î¯ Î±Î³Î·ÏĢ
Î½ÎµÎ³ ÏħÎµ
ĠÎ±Î¼ÏģÏĮÏĨ ÏĦÎ±Î»ÏĢ
ĠÎ½Ïī Î¯ÏĦ
OE DIV
ÏħÏģ ÎºÎ¬Î´
ĠÎµÏĦÎµ ÏģÎ¬ÏĢ
ĠÎ¬ÎºÎ¹ÏĦ ÏħÎµ
ĠÎ±Î¼Ïĥ Î±ÏģÎŃÏĢÎ¼ÏħÏĥ
Î¹Ïģ ÎºÎ³ÏħÏĥ
ĠÏĤÎ± Î´Î¯Î»ÎµÏĥ
ĠÎ½ÏīÎ¼ Î¯ÏĨÎ¿ÏģÏĦ
Î±Î¼ Î·Î¸
ĠÎ½ÏįÎ¿Î½ Î¹ÎºÎµÎ¾
Ġ RE
Î¿Î´ ÎºÎŃ
ĠÏĤÎ¿ÏĦ Î½Î¿Î»Î»Î¬Î²Î¹ÏģÎµÏĢ
ÏĨÎ¿Ïĥ Î¿Î»Î¹Î¦
ĠÎ½Ïİ Î´ÏħÎ¿ÏĢÏĥ
ĠÏĤÎ±Î¹Ïĥ ÏĮÎ¼Î·ÎĶ
Î½Î¿ÏĦ Î½ÏħÎ£
Î±Î½Ïİ ÏĨ
ĠÎ±ÏĦÎ·ÏĦÏĮ Î¹Î±ÏģÎµÏĦÎ¿ÏģÏĢ
ĠÎ±Î¼Î¿Î´ Î¯ÏĢÎµ
we iv
Î³Ïħ Î±ÏģÎº
ĠÏĤÎ¹ÎµÏĥÏİ Î¹ÎµÎ¼
ĠÎ¿ÏĦ ÏĥÎ¹ÏĩÎ¬Î»Îµ
ĠÎ·ÏĥÎµÎ´ Î½ÏįÎ£
ĠÎ½á½ ´
i W
Ïį ÏĢÎ¼
ĠÎ½Î± Î³Î®ÏĢ
ĠÎ¬Î½ ÏģÎµÏĢ
ĠÎ½ÏīÏĦÎ¬Î¼ Î¼Î¿Îº
ĠÎ®ÎºÎ¹ÏĦÎ±Î¼ ÏīÏĥ
ĠÎ®ÎºÎ¹ÏĦ ÏĢ
ĠÏįÎ¿ÎºÎ¹ Ïģ
ĠÎ¿ Î¹ÎµÎ»ÎŃÏĦ
ĠÏĮ Î½ÎµÎº
ÎµÏģÏĦ ÎŃ
Î±Î»Î®Î´ Î¿ÏĢ
su M
ĠÏĤÎ¬ ÏģÎµÎĻ
Ġ koo
ĠÎŁ ÎļÎĻÎ¤
ÏģÎµ Î¹ÏĨÎ±
ĠÎ·ÏĪ Î·Î»Î»ÏįÏĥ
ĠÎ½Î¿ÏĦÏĥÎ¹Ïĩ Î¬Î»ÏħÎ¿Î¤
Ġel ppA
ĠÎ½ÏīÎµÏĥÎ¬ ÏĦÏĥ
ĠÎ±Î¼Ïĥ Î±ÏģÎŃÏĢ
ÎµÎ¼ÏħÎ¿ Î½Î¬Îº
ÏĤÎµ Î½ÏİÎ³Î±
ÎŃÏĢ Î¥
ĠÏį Ïģ
Î±Î¹Ïģ ÎŃÏĩ
ÏįÎµÏĦÎ±Îº Î±Î½Î±
ĠÎ·ÏĪÎ·Î» ÏĮÏģÏĢ
ĠÎ·ÏĥÏī Î½ÎŃ
ÏħÎ¿Î¯ÏģÎ± ÏħÎ¿Î½Î±ÎĻ
ĠÏĤÎ¿ÏĦÎ±Î¼ Î¼Î¬ÏģÎ³Î¿ÏģÎł
ĠÎ¹Î±Î¼ Î¿Î¶
ÏĤÎ¿ ÎŃÏģÏĩ
ÏħÎ¿Î¯ÏģÎ± ÏħÎ¿ÏģÎ²ÎµÎ¦
ÏįÎ¿ Î¹Ïĩ
ĠÎ·Î» Î¯ÏĨ
ĠÎ¹Î±Î¼ Î¿Ïģ
ĠÎ·Ïĥ ÏħÎµÏĦ
Î¥ Î¡
ĠÎµÏĪ ÏħÎºÎŃÎ¿ÏģÏĢ
ĠÎ±ÏĦ ÎµÎ¼
ĠÎ½ÏħÎ¿ÏĢ ÎŃÏģÏĦÎ¹ÏĢÎµ
Î¤ ÎļÎķ
Î±Î¯ Î½ÏīÎ½Î¹Î¿ÎºÎ¹ÏĢÎķ
ĠÎ¹Î±ÏĦÎ½Î¿ ÎŃÎ´Î½ÏħÏĥ
ÏĩÏį Î¿ÏĦÎ±Î¼ÏīÎ¹Î¾Î±
Î½Î¿ÎºÎ¹Îµ ÏĢÎ±
ĠÎ¹Î±ÏĦÎµÏĩÏģÎŃ Î½Î±
ĠÏĤÎ·ÏĥÎ· ÎºÎ¯Î¿Î¹ÎĶ
wo P
ÏĥÎ± Îľ
ĠÏĤÎ·Ïĥ ÎŃÎ¸
ÎµÎ¾ Îķ
ÏĤÎµ ÏĦÏĮ
Î±Îº Î¹Îµ
Î¿Î½ Î¯Î´Î½Î¿ÎĽ
Î¯ Î¾Î±ÏĦ
ĠÎ¿ Î»Î±Îº
ÏīÎ´Î¹Îµ Î¾Î¿
ĠÎ±Î¯ Î»Î¿Î²
ĠÎ¿Î¹Î´ ÎŃÏĩÎ£
ĠÏĤÎ·ÏĥÎµÎ¸ ÎºÎŃ
Î¸Îµ ÏģÎµ
ĠÎ±ÏĦÎ±Î¼ ÏĥÎ¯Ïģ
ĠÎ¬ ÏħÎ¿Î½Ïģ
xe N
ĠÎµÏĥÎ¹Ïģ Î®ÏĦÎºÎ±ÏģÎ±Ïĩ
ĠÎ¹ÎµÏĥÏİ Î¹ÎµÎ»ÎµÏĦ
ÏħÎ» Î·Î¸
ĠÎĻÎ¤ ÎŁ
ĠÎ·ÏĥÎ·Î¸ÏįÎ¿Î»Î¿Îº Î±ÏģÎ±ÏĢ
Î»Î· Î»Î»Î±
ĠÎĳÎĶ ÎĳÎĽÎĽÎķ
Î»ÎŃÎ³Î³ Î±ÏĢÎµ
ĠÏįÎ¿ Î¹ÏģÏīÏĩ
ĠÏĤÎ¿ÏĦ Î½ÏĮÏģÎ±ÏĢ
ĠÎ¹Îµ ÏĨÎ¬ÏģÎĵ
ĠÎ·Î½ÎŃÎ¼ Î¼
ÎĽÎķ ÎĶ
Î¿ÏģÎ·Î´ Î¹Ïĥ
l or
ĠÎ±Î¯ Î½ÏīÎ³Î±
Ġd oo
ĠÎ½Î±Ïĥ Î±ÏĦÏĨÎŃ
ĠÎ½ÏħÎ¿Î½ÏİÏģ Î·Î»ÏĢ
ĠÏįÎ¿ÎºÎ± Î¹Ïģ
ĠÎ±Î½ÎŃ Ïĥ
ĠÎ®ÏĦ ÏħÎµÎ»ÏħÎ¿Î²
ar T
Î»Î± Î´
ĠÎ¬ ÏģÎµÎ¸Î±ÏĦÏĥ
ĠÏĦÎ½ Î»Î±Î½
Î» Î±ÏĢ
ÏīÏģÎµ Î¹Î¸Î±Îº
Î±Î¯ ÏĨÎ±ÏģÎ³Î¿ÏĦÏīÏĨ
ĠÏĤÎ· ÎºÎ¬ÏĦÎ¿ÏĥÏĦÎ·Îľ
ÏħÎ¿Î» ÏħÎ¿ÏĢ
ĠÏĤÎ¿Î½ ÏĮÏĢ
a M
ĠÎ±Î¯Ïĥ ÎµÎ¸Î¿Î¼Î¿Î½
ĠÏĤÎµ Î¹ÏĥÏĮÎ¼Î·Î´
ĠÎ½Î± Î¶Î¹Ïģ
Î±Î¼ Î·Ïĩ
ĠÎ¬ Î»Î·Î¼Î±Ïĩ
ĠÎ½ÏħÎ¿ÏĥÎ¯ ÏĩÎµÎ½ÏħÏĥ
ĠÎ±ÏĦÏĥÎ¹Ïĩ Î¬Î»Îµ
ĠÏħÎ¿ Î¯ÏĥÎ¿Î¼Î·Î´
Î¯Î´ Î¿ÏģÏĨÎĳ
ĠÎ±Î¹Î¿ÏĢ Î¬Îļ
ĠÏĤÎµ Î½Î¿ÏģÏĩÎ³ÏįÏĥ
Î¿Î¹Îµ ÏĨÎ±ÏģÎ³
ĠÎ½ÏīÎ½ÎŃÎ¼ ÏīÎ½ÎĹ
Î¯Îµ ÏĢÏĥ
Î¹ÏĦ ÏīÏĨ
ÏģÎ¿ Î¦
Î®ÏĦÏĥ ÏħÎ£
ĠÎ·ÏĥÎ·ÏĦ ÏĮÏģÎºÎ³ÏħÏĥ
Î® ÏĨÏģÎ¿Î¼
ĠÏĮÎºÎ¹ Î»Î¹ÏĨ
Î½Î±Î³Ïģ ÏĮ
ĠÎ¯ Î¿Îº
ÏĤÏĮÎ¼ ÏĥÎ¹ÏĦ
Î¿ÏģÎµÏĦ ÏįÎ»Î±Îº
ĠÎµÏĥÎ¹ ÏĩÎŃÎ½ÏħÏĥ
ĠÏĦÏĥ ÎµÏĦ
ĠÎ±Î¼Î³ Î¯ÎµÎ¼
ĠÏĤÎ¹ÎµÏĥÎ¬ÏĦÏĥ Î±Î¹Î´
ÏĦÏĥÎ¹ÏĢ Î¿Î¹Î¾Î±
ĠÎµÏĦÎ¯ÎµÏĦÏĥÎ±Ïģ Î¹Î¿Î¼
n roP
ÏĤÎ® ÏĦÏħÎ±
Î½Î¿ÏģÏĩÎ³ÏħÏĥ ÎºÎµ
ÎĽÎĳÎĵ ÎķÎľ
ĠÎ·Î¾ ÏħÏĦÏĢÎ¬Î½Îĳ
Î³ ÎĪ
Î½Î±Îº Î»Î±ÎĴ
Î»ÏĢ Î¹ÎĶ
Îķ Îĳ
h ci
Î·Î½ ÏĩÎŃÏĦ
Î´ Ïī
ĠÎ±Î¯Îµ Î½Î·Î¼ÏģÎµ
ĠÎ±Ïģ Î´Î½Î¬
ĠÎ¹Î±ÏĦÎ¯Îµ Ïģ
Ïį Î³Î·Î½Î±ÏĢ
ĠÏĤÎ¿Î½ Î¬Îł
ĠÎµÎ¾ Î¹ÏģÎ®ÏĦÏĥÎ¿ÏĢÏħ
ĠÏħÎ¿Î½ÎŃÎ¼ Î¿Î´ÎµÎ´
ĠÎ± ÎŃÏģÎ¿ÏĨ
ĠÎ± ÏģÎµÎ¸ÏįÎµÎ»Îµ
ĠÎ±Î¼Î³Î±ÏĦ Î½ÏįÎ£
Î½ÏĮÏģ ÏĨ
ÏĮÎ» Î¹ÏĢ
ÎµÎ» ÏĢÎ¼
Î®ÏĦ Î±Îº
ĠÎ½ÏīÏĦÎ¬Î¼ Î·ÏĦÏĥÏħÏĥ
ĠÎ¿Î´Î¿ Î¸ÎŃÎ¼
ĠÏĤÎ¿Ïĩ Î³Î¬
ĠÎ½ÏīÏĦÎ¬Î¼ Î·
Î·Ïĥ ÎŃÏĩÏĥ
ĠÏĤÎŃ ÏĦÎµ
ĠÎ±ÏĦ Î½Î®
Î·ÎºÎ¹ Î½
ĠÏįÎ¿ Î¹ÏĥÎ·Î½
b riA
Î±ÎŃÎ¸ Î¿Î¹Î¾Î±
á¿ ĸ
ÎĻ Îļ
ÏİÎ½Î± Îľ
ÎºÎ±Ïģ ÏĦ
ĠÎ½Î±ÏĥÎ¹ ÏĥÎ¬ÏĨÎ¿ÏĢÎ±
Î¹Îµ ÏĥÎŃÏģÎ±
Î¯Ïģ ÏīÏĩ
ÏĤÎ¹ÎµÏĥÎ® Î´Î¹Îķ
ÏİÎ»Î±Îº Î±ÏģÎ±ÏĢ
ÏĤ Î¿Î²
ĠÎ¹Î±ÏĦÎµÎºÏĥ Î¯ÏģÎĴ
Î´ Î½Î¿ÎĽ
Î½Ïİ ÏģÎ¿ÏĨ
Î±Î¼ ÎµÏģ
ĠÏĤÎ¯Îµ Î½ÎµÎ³Î³ÏħÏĥ
Ïī Î³Îµ
Î®ÏĦ ÏīÎ£
ĠÎ¿Î¯Îµ ÏĨÎ±ÏģÎĵ
ĠÏĤÎŃ Î»ÏĢÎ±
ĠÎ± ÏĨÎ±ÏģÎ³Î³ÎŃ
Î·Ïĩ Î¬Î¼
ĠÎ±ÏģÏİ Î´
Ġe ru
ÏĮÏĢ Î±ÏĦÎ½Î±
ĠÎµÏĦ Î¾ÎŃÎ»Î¹ÏĢÎµ
ÏĢÎ±Î½Î± Î¾
ÎµÎ½ ÎŃÎ»
ĠÏĤÎ¹ÎµÏĥÏİ Î½Î±Î³ÏģÎ¿
ĠÎ±Î¹ÏĥÏĦ ÏįÎ¿ÏĢÎ±ÏĢ
Î±ÏĩÎ¹Î¿ÏĦÏĥ Î¯ÏĦÎ½Î±
ĠÏĤÎ®ÎºÎ¹ ÏĦÏĥÎ¹ÏĦÎ¹Î»Î¿ÏĢ
Î¸ Î½Î¹Ïģ
ÏĥÏĦ Î±Ïģ
ĠÎ·ÏĥÎµÎ¸ ÏĮÏģÏĢ
Î¹Îµ Îľ
ĠÎ¬ÎºÎ¹ Î½Î¸Îµ
ÏĨ Î·Î»Î»ÏħÏĥ
... "
ĠÏħÎ¿ Î¯ÎµÏĦ
Î¸Î® Î½ÏħÎ£
e f
ÏĮÏĦ Î¹ÏĢÎµ
ÎĳÎļ ÎĻ
Î³Î· ÏĩÏģÎĳ
ĠÎ±ÏģÏĦ Î½Î¬
Î±Îº Î¹ÏĦ
ÏĥÎ¹ Î»Î±ÏĨÏĥÎ±
Î· ÎºÎ³Î¬Î½Î±
ĠÎ±Î¯ Î³ÏģÎµÎ½Î±
ĠÎµÏĦÎ¯Îµ ÏĢ
ĠÏĤÎŃ ÏģÏħÎµÎ»ÏĢ
ÏĤÎ±Î¯ Î³Î¿Î»
Î· ÏģÎ¬
Î¾ ÎĪ
ĠÎ½ÏħÎ¿ Î¾Î¬Î»Î»Î±
7 9
Î½ÏħÎ¿ Î½Ïİ
ĠÎ½ÏīÎµ ÏĥÏĮÎ´
tno c
ÎºÎ¹ÏĦ Îµ
ÏĤÎ±Î¯ÏĥÏħÎ¿ Î¾Îµ
Î¹ Î³Î³
la i
Î½ÏīÏĦ Î½Îĳ
ĠÏĤÏĮÎºÎ¹ Î½Î·Î»Î»Îµ
ÎĽ ÎĻÎ¦
ÏħÎ±Î»ÏĮ ÏĢÎ±
ĠÏĮÎºÎ¹ Î½ÏĩÎµÏĦ
Î¿Ïģ ÏĢÎ±
ĠÏĤÎ®ÎºÎ¹ Î»Î¿ÏĩÏĥ
Î½Î¹ ÎºÎµÎŀ
ĠÏĤÎŃ ÎºÎ±Î¹Ïģ
ĠÏĤÎµÏĦÎ·ÏĦÏĮ Î¹Î´Î¹
ÏĮÏĦ Î·Î³Î±ÏĨ
ĠÎµ Î½Ïĩ
ĠÎ¿Î½ÎŃÎ¼ Î·ÏĦ
.... ....
ÏħÎ¿ÏĢÎ¼ Î»Î¬
ĠÏĤÏįÎ¿Î¼ Î¸ÏħÏģ
ÎºÎ¯ Îľ
Î±ÏĦÏĥ Î¯ÏĦÎ½Î±
Î½ÎµÎ¼ Î±
ĠÎµÏĦÏĥÏī Î»Î»ÎĨ
RO PS
ĠÎ¹Î±Î¼ Î¿ÏĦ
ĠÎµÎ»Î¹Îµ Î³Î³
fo S
ĠÎ®ÎºÎ¹ÏĦ ÏħÎ´
ĠÎ®ÏĦ ÏĩÎ¹Î¿Î½Î±
Î¹Î¿Î½ Î½ÎŃ
Ïģ Î¿Î¹Îĵ
ÏĥÎŃ Î»ÎµÏĦÎ¿ÏĢÎĳ
ĠÎ·Î¼ Î¹Î¿ÏĦÎŃ
ĠÎ½ÏīÎµÏĥÎ®ÏĦ Î¹Î±
ĠÏĤÏħÎ¿ Î»Î¬Î³ÎµÎ¼
ĠÎ·Ïĥ ÏħÎ´Î½ÎŃÏĢÎµ
Î½Î¿ Î¹Ïĩ
ÎºÎ·Ïģ ÎºÎµ
ÎµÏĥ ÏĦ
no m
I I
ra H
ĠÎ½ÏİÎºÎ¹ ÏĢÎ¿ÏĦ
ĠÏĤÏĮ ÏĢÎ¿ÎºÎ£
ÏħÎµÎ´ Î¿Î½ÏħÏĥ
ĠÏĤÎ®Î¼ ÏīÏģÎ·Î»ÏĢ
Î±Î¼ Î¯Î±
ĠÎ¹ÎµÎ½ Î¯ÎµÎ»Îº
Î¿Îº ÎŃ
ĠÎ½Ïī Î¹Î¿ÏĢÎ¬Îº
ĠÎ±Î¼Î·Î» ÎºÎ³ÎŃ
ĠÎ¹ÎµÎ³ÏįÎµ ÏĨ
ĠÎ¬ ÎºÎ±Î¹
ĠÎ½ÏħÎ¿ Î²
ĠÎ¹Î±ÏĦÎµ Î³ÏįÎ¿ÎºÎ±
Î½ÎŃ Ïĥ
ĠÎ®ÏĥÎµÎ¸ Î¬Î¹Î´
ro C
Î¹ÎµÎº ÏįÎĽ
ÎľÎŁ ÎĿ
Î¾Î¿Î´ ÏĮÎ¹
Ïģ Îī
ĠÎ¯ÏĦ Î½Îĳ
ĠÎ±Î¹Î³Ïģ ÏįÎ¿Î½Î¹Î±Îº
Î±Î² Î±Î¹Î´
ĠÎµÏĥ Î±Î¼
ĠÎ¬ÏĦ Î½Î±ÏĢÎ±
cS a
ĠÏĮÎº ÏħÎ»Î³
Î½Î¹ Î±Î¤
v E
ĠÏĤÎŃ Î½ÏĩÏħÎ£
Î¹ ÏĮÎ£
ÎµÎ¸ Î½ÏįÏĥ
ÎŁÎł Îķ
ĠÎ·Î¾ Î±Ïģ
Î³ Î¹Î±
Ġre b
ÎµÎ½Î¹ Î³ÎŃ
Ġ3 4
ÏħÎµÏĦÏĥ Î±Î½Î±ÏĦÎµÎ¼
ÏĮÎ» ÏĢÎ¼
Ïį Î¾Î¿
Î±Î¼Î¿Î½ ÏĮ
Î¹Î»Î¬ ÏĨÎµÎº
ĠÎµÏĦÎµ Î¶Î¯ÏģÏīÎ½Î³
Ïĩ Î±ÏģÎ´
ĠÏĤÏħÎ¿ÏĢ ÏĮÏĦ
ĠÎ±Î½ ÏħÎ¼Î¬
Ġe cna
ĠÎ±ÏĦ ÏİÏģÎł
Î¥ ÎłÎŁÎķ
Î½ÎµÎ³ Î¿ÏĦÏīÏģÏĢ
ÏįÎ¿ Î¹Î´Î¹Î±ÏĢ
ĠÎ·Î½ÎŃÎ¼ ÏħÎµ
ÎĽÎķ Î£
ÎºÎµ Î½Î¿ÎµÎ»ÏĢ
Î¿Îº ÏħÏĥ
ĠÎ¹Î¿Î» Î·Î»Î»Î¬ÏĢÏħ
ĠÎ¿Ïģ ÏħÎ¸Î¬ÏģÎ±ÏĢ
ĠÎ±Î¼Î·ÏĦ ÏĮÏģÎºÎ³ÏħÏĥ
Î±Î¸ ÏģÎ®
ĠÎ¬ Î»Î·ÏĪÏħ
ÏĤÎ· Î³
Îµ ÏģÎ±
ĠÎ®ÎºÎ¹ Î»Î¿ÏĦÎ±Î½Îĳ
ĠÏħÎ¿Î¯Îµ ÎºÏħÎĽ
ĠÏįÎ¿Î¼ Î¸Î¹ÏģÎ±
ĠÎ½ÏīÎ´Î¬ Î½Î¿Î¼
ĠÎ¹Î±ÏĦÎ½Î¿ Î³Î¬
Î¹Ïĥ Î¯ÏģÎ±Îł
ĠÎ· ÏģÎ±ÏĩÎ¬Î¶
02 02
ĠÎ±Î»Î·Î»Î» Î¬ÏĦÎ±Îº
ĠÏĤÎµÏĦÎ·ÏĦÏĮ ÏĥÎ¿ÏĢ
ĠÎ½Î¹ÏĦ ÏįÎ¿Îł
ĠÎ·Ïĥ ÏħÎ»Î¯ÏĢÎµ
ĠÏĤÎ·ÏĦ Î®ÏĦÎºÎ¿Î¹Î´Î¹
ĠÎ¹ÎµÏĥÎ¬ Î²Î±Î¹Î´
ĠÏĤÎ·Î½ ÏįÎ¸ÏħÎµ
ÏĤÎ±Î½ ÏĮÎºÎ¹Îµ
ĠÏĤÎ® ÎºÎ¹ÏĦÎ±Î¼Î³Î±ÏģÏĢ
ĠÎ± ÏĢÏħÏĦÏĮ
Î± Î¾
ĠÏĤÎ¿ÏģÏĢ ÏįÎļ
ĠÎ±Ïģ Î¹ÎµÎ½ÏĮ
ĠÎ¬ ÎºÎ±Î¹ÏĥÎ¿Î´Î±ÏģÎ±ÏĢ
ĠÏĤÎ±Î¯Îµ ÏĢÎ±ÏģÎµÎ¸
ÏįÎµÏģ Î¿Î³Î±ÏĢÎ±
Ġth gi
Î½ÏįÎ¸ÏħÎµ Î¹ÎĶ
ÏĤÎ· Î¾Î±ÏĦ
ĠÏĤÏī ÎµÎ¾
ÏĤ Î¿Î¼ÏĥÏĮÎº
ĠÏĤÎŃ ÏĢÎ¿ÎºÎ¹ÏģÎµÏĢ
Î±Ïģ ÎºÎ¹ÏĢÎķ
Î© ÎĶ
Îĺ ÎĹ
ĠÏī ÏģÎ¬ÏĢ
ĠÏĤÏīÎ½ÎŃÎ¼ Î¿ÏĢÎµ
ĠÎ¹Îµ Î»Î»Î¬Î²Î¼ÏħÏĥ
Î±Î¯ Î¾
Î¬Ïģ Î¹ÎµÏĥ
ÏĤÎ·Ïĥ ÏīÏģÎŃÎ¼Î·Î½Îµ
ÎµÎ² Î»Îķ
ÏģÏįÎ¿ Îļ
ÏĤÎµÏĦÏĥ Î¬Î½Î±ÏĦÎµÎ¼
ĠÏĤÎ±Î¯ Î±ÏĦÏħÎµÎ»ÎµÏĦ
ĠÎ½Î±Ïĥ Î·Î¸ÏĨÎ®Î»Îµ
ĠÏĤÎ±Î½ Î¯
ĠÎ¿Î¹ Î±Î»ÏĮÎ²Î¼ÏħÏĥ
Î¿ÏĦ ÏĥÎ±Î½Î±
ĠÎ¬ÎºÎ¹ÏĦ Î·Î½ÏģÎ±
ÎºÎ¹ÏĦÎ±Î¼ Î·ÏģÎ¹ÎµÏĩÎ¹ÏĢÎµ
ĠÎ¿Î´ Î¬Î»Îº
Ġ5 6
ĠÏĤÏĮÎºÎ¹ Î½ÎµÎĵ
Îµ Ïĩ
ĠÏĤÎ¿Î´Î¿ Î¸ÎŃÎ¼
ÎĿÎĻ Îļ
H C
ÎĻ Î£
Ġsnoi pmahC
ĠÎ®ÎºÎ¹ÏĦ Ïī
ÏģÎ± Î¸Î½Îµ
Î®Î» Îł
r E
Â °
ĠÏħÎ¿Î¯Ïĥ Î¿Î¼Î·ÎĶ
ĠÎ¯ÎµÎ¸ ÏĩÎµÎ´
Î½ÎµÎ¼ Î¹ÎĽ
... ,
ĠÎ¹ÏĦ ÏĮÏģÎ±ÏĢ
ÏħÎµÎ½ ÏĢÎ¼Îµ
ÎºÏĥ Î¬Î´Î¹Î´
Î½ÏİÏĨ ÎµÎ»Î·ÏĦ
ÏĮ ÏĦÏĥÎ¹ÏģÎ§
ĠÎ±Î¯ Î½Î±ÏĢÏĥÎĻ
ĠÎ®ÎºÎ¹ Î½ÏīÎ½Î¹Î¿Îļ
Î½Î± Î»Î±ÏĦ
ĠÎ¹ÎµÎ¬ÏĦ Î±ÏģÎº
âĢ ¢
ĠÏĤÎ±ÏĦÎ½Î¿Î½ Î¯
ÏĤÎ· ÎºÎ¬Ïģ
Î¹Î±ÏĦÎµ Î½Ïİ
ÏĦÏĥÎ± Î¹ÎµÏģÏĩ
ÏħÏģ Î¿Î´
ÏĤÎ±Î¯Ïĥ Î·Î»ÎºÎºÎķ
ĠÎµÏĪ ÎµÎ»
ÏħÎ¿ ÎĻ
Î¯Î´ ÏģÎ±Îļ
9 8
Î±ÏĦÎ±Î¼ ÏİÏģÏĩ
Î·ÏĪ Î¿ÏĢÎ¬
ĠÎ·ÏĦ ÎºÎ±ÏĦÎºÎĪ
Î½Î¹ Î¿ÎºÎ¹
Îĳ Î¦
Ïį ÎµÎ¸
ĠÎµÎ¾ Î¹Î±ÏĢÎŃ
?? ?
ÏħÎ» Î±Î¹Î´
ÎĻÎ¤ ÎĿÎĳ
Ġs uo
ÏģÎ¿ ÎĿ
ĠÎ±ÏĦ ÎµÎ¸Î¯ÏĦÎ½Î±
ĠÏĮ Î»Î·Î¼Î±Ïĩ
Î±ÏĦÎ±Î¼ Î®Î¸
Î±Î¼ Îĳ
ĠÎ±ÏĦ Î±Îº
Î· ÎºÎ®Î¸
Î¸Î½Î± Î»
Î¹Î´ Î¬Î²
ÎºÎ± ÏĢÎ±Îł
Î±ÏĦÏĥ Î±ÏĦÎ±Îº
ĠÎ½ÏīÏĦ Î®Î½Î¹ÎºÎ±
ĠÎ·Ïĥ Î·Î´Î¯ÎµÎ½ÏħÏĥ
ĠÏĮÏģÏĦ Î±Î¹Î³
ĠÏĤÎ± Î´Î¯Î»ÎµÏĥÎ¿ÏĦÏĥÎ¹
Î¶ Î½ÎµÎ²
Î½Îµ ÏĢÎķ
ÎĹ Îł
Î¼Î±ÏģÎ³ Î¿ÏģÎł
ÎŃÏģ Î¸Î±Îº
ÎºÎ¹ Î¿Î½Îķ
Î¿ÏģÏĦ ÎºÎ·Î»ÏĢ
ĠÏİÎ»Î±Îº Î±ÏģÎ±ÏĢ
ts y
ÏĦÎµ Îľ
Î½ÎŃÎ» Î±ÏĦ
Î±ÏģÏİ Î¤
ÏģÎŃ Îł
ĠÎ½ÏħÎ¿ Î½Î®ÏĨÎ±
ĠÎ±Ïģ Î±ÏĦÏĦÏįÎº
ĠÎ¹Î±ÏĦÎ½Î¿Î¶Î¬ Î³ÏģÎµ
ĠÎ¹ÏĦ Î¬Î²ÎµÏģÎº
D H
Î± Î¯ÏĦÎ±ÏģÎºÎ¿Î¼Î·Î´
ÏĤÏĦ Î¹Î²
ĠÏĤÎ·ÏĦÎ¯Î»Î¿ÏĢ Î¿ÏģÏĦÎ·Îľ
ÏħÎ¿ÏĢ Î¯ÏģÎµÏĢ
ĠÎ¹Î±ÏĦÎµÎ¶Î¬ Î³ÏģÎµ
Î¿Î´Î¿ Î³ÏģÎµ
ĠÏĮÎºÎ¹ ÏĦÏĥÎ±
ĠÎµÏĦÏĥÎ®Î¸ ÏħÎ¿Î»Î¿ÎºÎĳ
Î½Î±Î¼ ÏħÎ¿Î¡
ÏĦÏĥÎ¹Î»Î±Î¹ÏģÎµÏĢÎ¼ Î¹
ĠÎµ Î¾ÎµÎ»ÎŃÏĢÎµ
Î·Ïĥ Î·Ïģ
1 002
Î¬Î¹Î½Î½ÎµÎ³ ÏħÎ¿ÏĦÏĥÎ¹ÏģÏĩ
ĠÎ·ÏĥÎ· ÏģÎŃÏĦÏĥÏħÎ¸Î±Îº
ĠÎ¿Î¹ Î¬Îľ
ĠÏĤÎ·ÏĥÎ·Ïģ Î¯ÎµÏĩÎ¹ÏĢÎµ
s p
ÏīÎ½Î¿Î¼ ÎµÎ¼
Î¹ÏĨ Îĳ
ĠÎ¿Î»Î¿ Î²Î¼ÏįÏĥ
ĠÏĤÎ± Î¹ÏģÏĦ
ĠÏĤÎ·Î¾ Î¹ÏģÎ®ÏĦÏĥÎ¿ÏĢÏħ
ĠÎ¹Î±ÏĦÎ½ ÏįÎ¿Î¼
ĠÎ¹ÏĥÎ¿Îº Î¯Îµ
ÏĮ Îľ
I C
Î±ÏĦÎ±Î¼ ÏįÎ½Î·Î¼
ĠÎ¿ Î»Î¬Î³ÎµÎľ
ĠÎ®ÏĦ Î·Î½Î¿ÏĢÎ¿ÏģÏĢ
ĠÎµÎ¼Î± Î¾
ĠÎ¹Îµ ÏĩÏįÏĦ
ĠÏįÎ¿ÏĦÏĥ Î¹ÏģÎ§
ĠÎ½Î±ÎºÎ·Î¸ ÎŃÏĦ
ĠÎ¹Îµ Î½Î±Îº
e ra
Î´ Î¹Î´
ĠÎ½ÏħÎ¿ Î³
ĠÎ±Ïģ Î¹ÎµÏĢÏĮÏĢÎ±
ĠÏįÎ¿Î¼ ÏĥÎ¹ÏĦÎ¹Î»Î¿ÏĢ
Î¿ÏĢ ÏĭÎ¿ÏģÎł
E T
ÏĢ ÏįÎ³
Î½Î¬ ÎµÏģÏīÎ´
ĠÏī Î³ÏĮÎĽ
Î±Î¹ Î½ÏĮ
3 6
ĠÏįÎ¿ÎºÎ¹ Î»Ïħ
ĠÎ½ÏįÎ¿Ïģ Î¿ÏĨÎ¿Î»ÎºÏħÎº
ÏģÎµÏĢ Îľ
ÏĤÎ®Î» ÏħÎ¿ÎĴ
ĠÎ·Î¼ Î®ÏĦÏĥÎ¹ÏĢÎµ
ĠÎ·Î¾Î±Î»ÏįÏĨ Î¹ÏĢÎµ
ĠÎ±Î½ Î½ÎĨ
ĠÎ±Ïĥ Ïī
ĠÎ¹Î´ ÏĮÏĢ
ĠÎ¹ÎµÎ½ÏİÏģ Î·Î»ÏĢ
ĠÎµÎ¼ÏħÎ¿ Î½ÎŃÎ¼
ĠÎ¹ÎµÏĢ Î¯ÎµÎ»
Î»ÎµÎº ÏģÎŃÎľ
Ġ5 7
Î¯ÎµÎ¼ Î·Î£
ĠÎ¿Î¹Ïģ Î²ÏİÏĦÎºÎŁ
ÏīÏĦ Î±Î¼ÏīÏĥÎ½Îµ
Î³Î¿Î»Î» ÏħÎ£
ĠÏĤÎ® ÎºÎ±Î¹
Î» ÎŃÏĦ
ĠÏĤÎµ ÏĨÏģÎ¿Î¼ÏĮ
ĠÏĤÎ®ÎºÎ¹ÏĦ ÏħÎµ
ni su
ĠÎ®Î¾ ÏħÎµÏĦÎ½ÎŃÎ½ÏħÏĥ
ÎºÎ³ ÎĪ
ð Ł
ĠÏĤÎ·ÏĦ ÎŃÎ»ÎµÎ¼
te b
Î±Î» Î¬Î³
Î¿Ïģ Î¿
Î±ÏĦÎ±Î¼ ÏĥÎ¯
ÎĵÎŁ ÎĽÎŁ
ĠÎ½Î±Ïĥ ÏħÎµ
lo P
ÎĿ Î§
Ġ1 4
Î¬Î¹Î´ Î±
Î½Î¬ÏĨ Î±Î¹Î´
ÎŃÏģÏĦ Î±Î½Î±
Î½Ïī Î½ÏĮÏģÏĩ
ĠÎ¯ÎµÏĦÏĥÎ¹ Î½Î±ÏĨÎ¼Îµ
ÎºÎ±Î¹ÏģÏįÎº Î¿ÏĦÎ±Î²Î²Î±Î£
ĠÎ±Î¼ÏĥÎ¹ÏĨÎ®ÏĪ Î¿Î¼Î·Î´
ĠÎ·Ïĥ ÏĮÏĦ
ĠÎ¹Î±ÏĦÎµÎ½ ÏįÎ¸ÏħÎµ
Î½Ïİ ÏĨÎ¼ÏħÏĥ
Î±Î¯Î² Î±ÏģÎ±ÏĢ
Î· Îĺ
Ġ00 8
Ġ6 002
ni F
ĠÏĮÎºÎ¹ÏĦ ÏĢÎ¿ÎµÎ»Î·ÏĦ
Ïģ ÏħÎ¿Îļ
ĠÎ¹ÎµÎ½ Î»ÎŃÏĦÏĥ
ÏīÎº Î·Ïĥ
ĠÎ±ÏģÎŃ Îł
ĠÎ±ÏģÎŃ Î¹Î¼ÎµÏģÏĢ
Î·Î»Î» ÏĮÎº
ÏģÎ¬ ÏĦÎ½Î±
ĠÎ½ÏİÏĦ Î±ÏģÎº
ĠÏĤÎ· ÏĢ
ĠÏĤÎ·Ïĥ Î·ÎºÏĥÎ¬
ÎŃ Î»Î±
ÎĳÎļ Î£
Î¬ÏģÎ±ÏĢ Î¹ÏĦÎ½Î±
Î½Ïİ ÏģÎµÎ¼Î·
Î³ÏīÎ³Î± Î´Î¹Î±ÏĢ
Î¿ÏģÏĢ Îľ
Î½Ïİ Î¹Î»
Ïį ÏĪ
ÏģÎ± Î²Î¼Î¿Î²
Ġt fosorciM
E S
Î¼ÏħÎ¸Î½Îµ ÏĢÎ¥
ĠÎ¿Î¹Ïģ ÏİÎ¸Î¹ÏģÎµÏĢ
ĠÎ¿ÏĢÏħÏĦ ÏĮÏģÏĢ
Î·Î½ ÏħÎ´
Î½Î¬ÏĢ Îĳ
ĠÎ·ÏĥÎ· ÏĮÎ½Î±ÏĦÎ±Îº
Î± Î´ÎµÏĢÎ¯ÏĢÎµ
Î·ÏģÎ·ÏĦ Î±Î¹Î´
ĠÏĤÎ± Î²
ĠÏĤÎ¹ÎµÏĥÎŃÎ¸ Î¿ÏĢÏħ
ĠÎ±Î½ÎµÎ¼ ÏįÎ¿Î³Î·Î¿ÏģÏĢ
si v
ĠÏĤÎŃÏĨ Î±ÏĢÎµ
Ġp uorgoruE
ĠÎ·ÏĥÎ±ÏĦ Î¬ÏģÎ±ÏĢ
ĠÎ®Ïĩ Î¿Î´ÎºÎµ
Î¹ÏĨ Ïĥ
ÎµÏģ Î¿ÏĨ
ĠÎµÎ¼ ÏįÎ¿Î»
ÎºÎ¹Ïģ Î¤
ĠÎ¹ÎµÎ¾ ÎŃÎ»Î¹ÏĢÎµ
Î¿Î½Î±Ïĩ Î·Î¼
ĠÎ±Î½ ÏĮÎ¼
Î® Î³Î·ÏĢ
Îĺ ÎĿÎĳ
ĠÏĤÎ±Î½ ÏħÎµÏģÎĪ
ĠÎ±Î¯ ÏĩÏħÏĥÎ·Î½Î±
ĠÎ±ÎŃ ÏĨÎ±ÏģÎ³Î³ÏħÏĥ
Îº Î±Ïĥ
ĠÎĿÎ© ÎļÎĻ
ĠÏĮ Î¹
Î½Î¬Î¹Î³ Î¿Îº
Î·Ïģ Î¿Î³Î·ÏĦÎ±Îº
ÏĤ ÏīÏĥ
ÏĤÏĮ ÏĦÏħÎ±
ĠÏĤÏħÎ¿ÏĦ Î½ÏĮÏĢ
ĠÎµ Î³Î±
ĠÏĮÎºÎ¹ÏĦ ÎµÏģÎ¹Î±Î¾Îµ
ĠÏħÎ¿Î¯ Î±Î»Î±ÏĨÎµÎº
ÏĮÏģ Î¸
Î±Î½ ÏĮÎ³
ĠÎµÏĦÎµÎ» Î¬Î²
ĠÎ·ÏĥÎ· Î½Î¯
ĠÎ¬ÎºÎ¹ Î¼Î¿Î½
Î³Î±Ïģ ÏĨ
ĠÏħÎ¿ÏĦ ÏĮ
ÏĦ Î¹ÏģÎµÏĢ
ĠÏĤÎ¿ÏģÎµÏĦ ÏįÎµÎ´
ĠÎ½ÏħÎ¿Î½Î¯ Î±ÏĢÎ¼
Î¶ÎµÏĢ Î±ÏģÎ¤
ĠÎ± ÏĥÎ¯
ĠÎ½ÏīÎ½ÎŃÎ¼ Î¿Î½Î±Î²Î¼Î±Î»Î¹ÏģÎµÏĢÎ¼ÏħÏĥ
Î½ÏĮÎº Î»Î±ÏĢÎ¼
ÏĤÎ·Ïĥ ÏīÎ¯
Î±Ïĥ Î¹ÏģÎ¬ÎĽ
Î¹Ïģ Î¿ÏĦÏĥÎ±Îļ
ĠÏĤÎ¿Ïĩ ÎµÎ»ÎŃÏĦÏĥ
ÎºÎ³Îµ Î»Îµ
ĠÎµÏĦÎµ Î³Î¬
ĠÏį Î¿Î½Î¹
ĠÎ· ÏģÎµÏĦÏį
ĠÎ±ÎŃÎ½ Î½Îµ
ĠÎ·Ïĥ ÏħÎµÎ¼ÏĥÎŃÎ´
ÏģÎµ ÎĴ
ĠÏĤÎ¿ ÏįÏĩÏĥÎ¹
ĠÏĤÎŃ Î¹ÎµÎ»ÏħÎ¿Î´
ĠÎ¹Î±ÏĦÎµÎ½Î¬ Î¾ÏħÎ±
gol o
ĠÎ·Î¾Î¹ÎµÎ´ ÏĮÏĢÎ±
Î±Î½ Î¯ÏĦ
ĠÎ±Î¹Ïģ Î³Î¬
ÏĤÎµÎ¯Ïģ Î¿Î³Î·ÏĦÎ±Îº
ĠÎĽÎķ ÎĿÎĳ
Î´ ÎºÎµ
ĠÎ½Ïİ ÏĢÎ¿ÎºÎ±Î¹Î´
ÏħÎ¿ ÏĨÎ¬ÏģÎ³
ÏįÎ¶ ÏħÏĥ
ÏħÎµÎ¼ Î¸Î¬ÏĦÏĥ
ĠÎ±Î¹Ïĥ ÏĥÎ¬Î»Î±Î¸
ĠÏĤÎµ ÏģÎŃÏĦ
Î®ÏĨ ÏħÏģÎ¿Îº
s le
ĠÎµÏĦÎ¿ÏĢ ÏĮ
Î½Î±ÏĨ Î¿ÏĦÏīÏģÏĢ
s ci
ĠÏĤÏħÎ¿ Î¸
ĠÏĤÎ®Î» Î¿ÏĦÏĥÎ¿ÏĢÎ±
ĠÏĦÎ½Î»Î±Î½ ÏĮÏĦÎĿ
ĠÏĤÎµÎ¯Ïĥ ÎµÏģÎ·ÏĢÎ¥
ÏĮ ÏĥÎ¹
ĠÎ·Î¼Î¹Ïĥ Î¯ÏģÎº
ĠÏĤÎ¹ÎµÏĥÎ®Î»Îº Î¿ÏģÏĢ
Ġ mo
ÏįÎ¿Îº ÏĬ
Î·ÏĥÎµÎ¸ Î¯ÏĢÎµ
ĠÏī ÏģÎ²
ĠÏĤÎ±ÏĦÎ½ Î¿Î½ÎŃÎ¼
ĠÎ½ÏħÎ¿ÏĥÎ¬ Ïĩ
Î¿ÎºÎ¹ Î½
ĠÏĤÎ·Î¼ Î®Î½Î¼
ĠÎ¬Î¹Î´ Î±ÏģÎ²
Î¯ÎµÏĩ Î¹ÏĢÎķ
Î¿ Î¿Î½
ĠÎ½ÏīÎ»Î® Î»Î»Î±ÏĢÏħ
ÏģÎµ Î¦
Î¹Ïĥ ÏģÎµÏĢ
ĠÎ¿ÏĦÏĥ ÏħÎ¿Î³ÏįÎĳ
Î¯Îº Î¿Î´
ÏģÎµÏĦ ÏĨ
ÏįÎ¿ Î¡
M S
Î¶ Î±ÏĢ
Ġ4 002
Îº ÏģÎ±ÏĢÎµ
ĠÏĮÎºÎ¹ ÎºÏģÏħÎ¿ÏĦ
ÏĥÎ¯Î¼Î¸ÏħÏģ ÏģÎ±ÏĦÎµÎ¼
ĠÏĤÎ¹ÎµÏĥÎ¬ Î²Î¼ÏħÏĥ
Ïį Î½Î¿Î¹ÎĶ
ÏĮÎ¹Î´ Î±Ïģ
ĠÎ¬ÎºÎ¹ÏĦÎºÎµ Î»Î¿Î¹ÏģÏħÎº
ĠÎ·Î¾ Î·ÏģÎºÎŃ
ĠÎ¹Î±ÏĦ ÎµÏģ
ÏĥÎ±Î¹Î´ ÎµÏĩÎ£
ĠÏįÎ¿ÎºÎ¹ Î»Î¿Î½ÏħÏĥ
6 7
Î·Ïĥ Î·Î¼
Î¿ÏģÎ¸ ÏģÎ±
ÏģÎ¿Î³Î± ÏĢÎ±
ĠÎ®Î³ÏīÎ³Î± Î¾ÎµÎ¹Î´
ĠÎ¿Î¹Î» ÏįÎ¿Î²
ĠÎµÎ¼Î±Ïĥ ÏįÎ¿ÏģÎ¿ÏĢÎ¼
Î±Î½ Îķ
ĠÏĤÎŃÏĦÏĥ Î¹ÎµÎ½Î±Î´
Ïį Î¿ÏĢÎ¿
Î¹ÏĢÏĮÏĦ Î½
li W
ÎºÎ± Î¹ÎĶ
ĠÎµÏĦÏĥ Î®ÏĦÎº
Î¿ÏĢÏħ Î½Î±
g A
ÎŃÎ¼ Î¿Î¤
ĠÎ¬ÎºÎ¹ÏĦ ÏīÎ¹Î´Î¹
ĠÏĤÎŃ Î»Î¿Î²
3 002
ĠÏĤÎŃ Î¿Ïģ
ÏĦÏĥÎ¹ÏĢ ÏīÏģÎ¸Î½Î±
ĠÎ½ á¼Ĳ
ĠÎ± Î³ÎµÎ»ÎŃ
Î¯ÏĦÎ±ÏģÎº Î¿Î¼Î¿ÏģÏĦ
Î½ÏħÎ¿ Î½Î¬Îº
ĠÎ½ÏħÎ¿ Î½Î¬Ïĩ
ĠÎ±Î¼Î·Î»Î¸Î¬ÏĦ ÏīÏģÎł
ĠÎ·ÏĥÎ·Î¼ ÎŃÎ»Î¿ÏĢÎ±ÏĦÎ±Îº
ÎĹÎĽ Îł
Î±Î» Î·ÎĶ
ÏĤÎ± Î´Î¬
ĠÎ±Î¯Îµ Î»
Î±ÏĦÎ·ÏĦ ÏĮÏģÎ¹Î±ÎºÎ¹ÏĢÎµ
Î¾Î¿Î´ Î¿Î»Î¹ÏĨ
Î±Î³ÏģÎµ Î½ÏħÏĥ
ĠÏĤÎ· Î½Î¹ÏĢÏİÏģÎ¸Î½Î±
ca M
Î¹ÎµÏĩ Î³Îµ
Î³Î¿Î» ÎºÎķ
ÏħÎ¿ÏĥÎµ Î¾Î±
ĠÏĮÎºÎ¹ Î½Î·ÎºÏĥ
Î¹Î» Î±ÎºÎ³Î±
e ga
ĠÏĤÎ¿Î´ Î¿ÏĥÎ¯Îµ
ÎºÎ¬ÏĦ Î½ÏħÏĥ
Î·ÏĥÎ· ÎºÎ¯Î¿Î¹Î´
ĠÎ½Î±ÎºÎ·Î¸ ÏĮÎ´
ĠÎ® Î½Î±Î¸Î¹ÏĢ
ĠÎ·ÏĦ ÏİÎ¹Î³Î±Î½Î±Îł
Î»Î±Î¸ Î¯ÏģÎµÏĢ
ĠÎ±ÏĦ ÏįÎ¿ÏģÏĨ
s y
Î¹ÎµÏĢ Îī
ÏĪ Î¬
ĠÏĤÎ® Î½Î¸ÎµÎ¹ÎĶ
ÏĩÏģ ÎĨ
Ġ00 7
ĠÎ±ÏģÎµÏĦÏĮ ÎºÎ¹Î´Î¹Îµ
ĠÎµÎ¼Î±Ïĥ Î®ÏĦ
ĠÏĤÎ±Î¯ Î¼Î¿Î½Î¿ÎºÎ¹ÎŁ
ĠÏĮÎ¼ Ïĥ
ĠÏĤÎµÏĦÏĥ ÏİÎ½Î³Î±Î½Î±
ĠÎ¿Î½Î¯ Î´Î½Î¿ÎĽ
Î½ÏħÎ¸ÏħÎµ ÏĢÎ±
ÏįÎ¿ Î¹ÏĥÎ·Î½
ĠÎ±Î¼ÏĥÎ¹Ïģ ÎŃÎ¼Î±Î¹Î´
ĠÎµÎºÎ·ÏĦ Ïĩ
Ïī Î½Î¬Îº
ÎµÏĥ Î¤
ĠÏĮ Î³Î·Î´Î¿
Î½Î±Î¼ Î¿Ïģ
ÏįÎ¼Î¼ ÎµÏģÎº
i ki
Î® ÎºÎ¹ÏĦÎ±Î¼
ĠÎ±Î¹ Î½Î¬ÏĢÎ¼
ĠÏĤÎ¿Î» ÎºÏįÎº
Ġh si
ĠÎ±ÏĦÎ·ÏĦÏĮÎ¼ Î¹Ïĥ
ĠÎ¹ÎµÏĥÎ¬ ÏģÎµÏĢÎµÎ¾
ĠÎ¹Î±ÏĦÎµÎ½ÏİÎ¹ÎµÎ¼ Î·Î£
ÏĩÎ¯Îµ ÏĦ
ĠÏĤ Î¬Î¹Î´ÏģÎ±Îº
vi tse
ĠÎ½ÏħÎ¿Î½Î¯ Î±Î³Î²
Î¬ÎºÎ¹ Î»Ïħ
ĠÎ±Î¼Ïī ÏģÎ¬
ĠÎ¿Î»Î» ÏįÏĨ
ÏĦÎ·Î² ÏĥÎ¹ÏĨÎ¼Î±
ĠÎ¯Î¿ÏĦ ÎµÎºÏģÎ±
Î¯ÏĦ Î±Î¹Îĵ
Î±Ïģ Î¯ÎµÏĢ
Î½Î¬ Î»ÏĢ
ĠÎ½ÏħÎ¿ÏĥÎ® Î³ÏģÏħÎ¿Î¹Î¼Î·Î´
Î½ÏĮÏĢ Î¿Î»ÎµÎł
Ġ) ;
ĠÏĤÎ±Î¯Î´ Î½Î¿ÏĢÏĥÎ¿Î¼ÎŁ
am i
ĠÎ½Î±ÏĦÎ½ Î¿ÎºÏĥÎ¯ÏģÎ²
ĠÎµÏĦ Î½ÎŃÎł
ĠÏĮ ÏģÎµÎĻ
Î±Î¼ Î³Î±ÏĦ
Î¿Î¹ Î¿ÏĦÎŃÏĦ
ÏħÎµÏĦÎ½ÎŃ Î½ÏħÎ£
ĠÎ¿Î» ÏħÎ¿ÏĢ
r d
ĠÎ¯Î¿ ÎºÎ¹ÏĦÎ±Î¼
Ġe li
ĠÏĤÏħÎ¿ÏĨ Î»ÎŃÎ´Î±Î½ÏħÏĥ
ĠÎ¿ ÏģÎµÏĦÏĮÏģÎºÎ¹Î¼
ĠÎ±Î¯Î´ Î½Î¿ÏĢÏĥÎ¿Î¼ÎŁ
Î±Î¹Î´ Î¿ÏģÎ¿ÏĨ
Î´Îµ ÏĮÏģÎł
Î±Î¹ Î½
ĠÏĤÎ® ÎºÎ±Î¹Ïģ
ĠÎŁÎ¤ Î¥Îĳ
Î±Ïģ ÏĢÎŃ
ĠÎ±Î¯Îµ Î³Î¥
... [
Î·Î½Î¹ ÎºÎ³ÏħÏĥ
ĠÎ±Î½ÎŃÎ¼ ÏĥÎ±
ÏĤ Î¯ÎµÎ¸
ĠÏĮÎºÎ¹ÏĦ Î·Î¹Î¿ÏĢ
Î¡ Î¤
Î½Î¬Îº Î»Î±ÎĴ
Î¿Î¼ Î¼ÏħÏĥ
ĠÎ±Î½ÎŃ Î¿Î»Î¿
Î·Î» ÎŃ
ĠÏīÏĥÏİ Î´
ÏĮÏĢÎ± Î½Î±
ĠÎµ Î³Î±ÏģÎ¬
ÏĥÎ¹ÏĨ Î·Îļ
ĠÎµÎ¼ÏįÎ¿ÏĦÏĥ Î¹ÏģÎ±ÏĩÏħÎµ
ĠÎ½Î±ÎºÎ·Î¸ Ïĩ
Ġe cne
Î³Î± Î¸
Ïħ Î³ÏģÎĳ
ĠÎ¿Î¼ Î®Î´
t y
ĠÎ±Î¹Îº Î¬Î»
0 51
ĠÎ·Î¾ Î¿Î´ÏĮ
ĠA RAF
Î¿Î´Î¿ Î¸ÏģÎŁ
ĠÏĤÏħÎ¿ Î¹Î´Î¯
ÏĦ Î±Îļ
ĠÏĮ ÏĢÎ¥
ÏħÏĦ ÏįÎ¿Î²
ÏģÎµÏĦÏĥ Î·Î»Î¿Ïĩ
ÏīÎ¹ Î½ÎŃ
ĠÏĤÎ¬ÏĦ Î½Î¿Î½
ĠÏĤÎµÏĦÏİ Î¹ÏĦÎ±ÏģÏĦÏĥ
ĠÎ¿Î¹ Î½Î®
ĠÎ·ÏĥÎ· Î³ÏĮÎ»
ĠÎ¿Î¼ Î¹ÏĪ
ĠÎ® Î»Î±ÏĨÏĥÎ±
ĠÏĤÎŃÏĦÎ· Î³Î·Î¸Î±Îº
ÏĮÏģ ÏĦÎ·Îľ
ĠÎ±Î¼Î·ÏĦÏĥ ÏįÎ£
ĠÏĤÎ¹ÎµÏĥÎ¬ÏĦÏĥ Î±ÏģÎ±ÏĢ
ĠÎµ Î½Î¬ÏĦ
Î±Î¼ Î¼ÏĮÎº
ĠÎ·ÏĥÏīÎ»Î®Î´ ÎºÎķ
ÏĬ Îĳ
ÏįÎ» Î¿Î¼
Î´ Î¹ÏĦÎ½Î±
ĠÎµÎ½ÎµÎ¼ Î¯ÏģÎµÏĢ
Î®Î² Î±ÏģÏĦ
ĠÎ¹ÎµÏĦÎŃÎ¸ Î±Î¹ÎĶ
!! !!!
ĠÎ½Ïİ ÏģÎ±ÏĢ
Î±Î¼Î·Î»Î¸Î¬ÏĦ ÏīÏģÏĢ
ĠÏĤÎ·Î½ Î¿ÏģÏĩÎ³ÏįÏĥ
Î³Î¿Î» ÏħÎµ
ĠÎ½ÏįÎ¿Î¸ ÎµÏĦ
Î¥ Îĺ
ĠÏĤÎ·Ïĥ Î®ÏģÎ§
ge M
ÏĢÎµ Î½ÏħÎ£
ĠÎ½ÏįÎ¿Î½ ÏģÎµÏĢ
ĠÎ¹Î±ÏĦÎµÎ½Î¯ Î±Î¦
ÏīÎ½ Îķ
ĠÎ½Î±ÏģÎµÏĨ ÎŃ
ĠÏĤÎµÏĥÏĮ ÏĦ
Ġ @
Î±ÏĦ ÎµÎ¸Î¯ÏĦÎ½Îĳ
Ïī ÎµÎĽ
ĠÎ¹ ÏĥÎ¯Ïģ
ĠÏĤÎ¿ÏģÎµÏĦ ÏįÎ»Î±Î³ÎµÎ¼
ĠÏĤÎ· ÏĢÎ¬Î³Î±
ÏĤ ÏįÎ¿ÏĢ
ĠÎ· Îĵ
ĠÎ¹ÎµÏĩÎŃ ÏĦÎ±Îº
ĠÎ±Îº Î®ÏģÎ²
Î·Î½ Î½ÏĮÏĢÎ¿Î»ÎµÎł
ĠÏĤÎ® ÏħÎµÎºÏĥÎ±ÏģÎ±Îł
ĠÎ±Î¯Ïĥ Î±ÏĦÎ½Î±ÏĨ
ĠÎ· ÏģÎ¬Î§
ĠÎ¹Î±ÏĦÎµ ÏĩÏģÎĪ
Î¹ÏģÏĦ Î½ÏħÏĥ
Î® Îĺ
c ol
Î½ÏįÎ¸ÏħÎµ ÏĦÎ±Îº
ĠÎ·ÏĥÎ·Î½ Î½ÎŃÎ³
ÎºÎ±Î» Î¬Î³
ĠÎ¹Î±ÏĦÎµÎ¶Î¯Ïģ Î·ÏĦÏĥ
Î±ÏĦÎ±Î¼ Î¼
ĠÎ±Î¼Î³ Î¯ÎµÎ´
ĠÏĤÎ¿Îº Î¬Î¹ÏģÏħÎļ
Ïī Î½Î¬
Î½Ïİ ÏģÏīÏĩ
ĠÎ¯ ÏĢÎ¼ÏħÎ¿Îº
Ïį Îĵ
ĠÎ¿ ÏģÎµÏĦÏĮÏģÎ¹ÎµÏĩ
Î½Î¹Î±Îº Î³Îµ
Î¬Ïģ Î±Îº
ĠÎ±Î¯ Î½Î±ÏĦÎµÏģÎĴ
ĠÏĤÎµÎ¯Î» Î±ÏģÎ±ÏĢ
Î¼ Î¸ÏħÏģ
ĠÎ¹ÎµÎ¶Î¯ Î´ÏģÎµÎº
Î½Î±ÏĨ Î¹ÏĢÎµ
ĠÎ¿Î½ ÏģÏįÎ¿ÏĨ
Î½Î¬Î¼Î·Ïĥ Î¹ÏĢÎµ
Î·Î¾ Î¹Î»ÎŃÎ¾Îµ
ĠÎ¹Î±ÏĦÎµÎ¶Î¯Ïģ Î·ÏĦÎºÎ±ÏģÎ±Ïĩ
ÏįÎµÎ´ Î¹Î±ÏĢ
ĠÎ®Î½ Î¹ÏĥÎµÎ¸Ïĩ
ĠÎ® ÏģÎ±Î¸Î±Îº
Î¬ Î½ÏħÎ¿
Î¬ Î¹ÏģÎºÎ±Î¼
Î±Î¯ Î½Î±ÏĦÎµÏģÎĴ
ÏħÏĨ Î¿Î¼Î¿
ĠÎ½ÏħÎ¿ ÏĥÎŃÏģÎ±
Î© ÎĶÎķ
Î±Î½ ÎµÏĥ
tro p
ĠÏĤÎ·Ïĥ ÏīÏĨÏģÏĮÎ¼
ĠÎ¹ÎµÏĩÎŃ ÏĢÎ±
ĠÏĤÎ·Ïĥ Î½ÏħÎ¸ÏįÎµÎ¹ÎĶ
â Ĩ
ÏĬ Î±Îľ
Î¬Ïģ Î¿ÏĨÎ±Î¹Î´
ÏģÎµÎ¸ ÏįÎµÎ»Îķ
ĠÎ¹Î±Î¼Î¿Ïĩ ÏįÎµ
ĠÎµÎ½Î± Î²Î¼
ĠÎ¹ÎµÏĥÏİ Î¹ÎµÎ¼
ĠÎ·Î½ÎŃÎ¼ Î·Î¹Î¿ÏĢ
ĠÏĤÎ±Ïĥ Î¹ÏģÎ¬ÎĽ
ĠÏīÏĪ Î¬ÏģÎ³
ĠÎº Î¿Ïĥ
ĠÎ½Ïī Ïĩ
ĠÎ®ÎºÎ¹ Î¸Î·
ÎĻÎ¡ÎŁ Î¤Î£ÎĻ
ĠÎµÎ¼Î±Ïĥ Î¯
ÏĩÏħÏĦ Î¬
ĠÎ±Î´ Î¹Î»ÎŃÏĥÎ¿ÏĦÏīÏģÏĢ
ĠÎ¹ÎµÏĥÎ¯ Î»Î±ÏĨÏĥÎ±Î¾Îµ
Î¿Î¼ ÏĥÎ¿Îº
ÏħÎ¸ ÏĮÏģÏĢ
hptram s
ĠÎ® ÏīÎĸ
ÏĩÏħÏĥ Î·
ĠÎ· Î½Ïİ
ÎºÎŃ Î½Î¿ÎµÎ»ÏĢ
Ġlla b
Î³ÏħÏĦ Î¹ÏĢÎµ
ÏĥÎŃ Î¤
ĠÎ±Î¯ ÏĨÎ¿Î£
ĠÏĦ ÏħÎ¿Ïĥ
Î¸Î½Î¹Ïģ Î¿Îļ
ĠÎ· Î½Ïĩ
Î±Î¼ ÎŃÎĺ
ĠÎ¹ÎµÎ¬ÏĦ Î·Î¶
ÎĳÎľ ÎŁ
Î¹Î» Î²Î¹Î²
ÏĤÎ± Î¯ÏĦ
ĠÏĤÏĮÏģ Î±ÎµÎ½
ĠÏĢ Î»Îº
ĠARAF RA
Î½Ïī Î½Î¯
ĠÎ¹ÏĥÎ¯Ïģ Î±Îł
Î±Î½ÎŃ Ïĥ
ÎĳÎ¤ ÎŁ
Î¬Î¹ Î»Î»Î±Î¼
ĠÏĤÎ±Î¯ Î³Î±Î½Î±Îł
ÏħÎ¿Ïģ Ïİ
ĠÎ½Î±Ïĥ Î±Ïģ
ĠÎ¿Î¹ Î³ÏģÏįÎ¿Î½Î¹Î±Îº
ĠÎ¯ÎµÎ¸ Î·Î¾ÏħÎ±
ÎµÏĨ Ïī
ĠÏī Î¶Î¯Ïģ
ÏĥÎ±Î² Î¹Î²Î¼ÏħÏĥ
Î³Î¿Î»Î¿ Î¸ÏģÎ¿
Î¬ÏĦ Î½Î¿Îº
Î¯ ÏĢÎ¼
Î¿ÏĦÎ±ÏĦ ÎºÎ¹Î´
ĠÏĤÎ±ÏĦÎ½Î¿Î¶Î¯ Î½Î¿ÏĦ
ĠÎ±Î¹ Î¿Î¼ÏĮÏģÎ±ÏĢ
ÎŃÎ» Î±ÏĢ
ĠÂ» .
Î¸ Î¯Î±ÏĢÏħ
ĠÎµÏĦÏĥ Î¯Ïģ
Î½ Î¿ÏĦÏĥ
Î® Î»Î¿Î²
ĠÎµÎ¼Î¬ Î½ÏĩÎµÎ¾
ÎµÎº ÏĥÎ¹ÏĢÎµ
ÏĮÎºÎ¹ Î»Ïħ
ĠV T
ĠÎµÏĥ ÎµÎ»ÎŃÏĦÎ¿ÏĢÎ±
Ġe ce
Î½Î¿Ïģ Î¦
ĠÎµÎ½ Î¹Î´ÎŃ
ĠÎ±Î¼Î¹Ïĥ ÎŃÎ¸Î±Î¹Î´
ĠÎ¬Î¹Îµ Î¸Î¬ÏĢÏĥÎ¿ÏģÏĢ
ĠÎ¯ÎµÎ¸Ïī Î¹ÎµÎ¼
ĠÏħÎ¿Î½ Î¯ÎºÏģÎ±Îº
ÏĮÏĦ Î½
ĠÎµÎºÎ·Î¸ ÏįÏģÎ´Î¹
nna cs
ĠÎ½ Î¿ÏģÎŃ
Î¿Îº Î±Î¼ÏģÎ±ÏĨ
ÎºÎ¯Î´ ÎºÎµÎ¹Î´
Î±Î¯Ïĥ Î±Î¼Î·Ïĥ
ĠÎ½ÏīÎ¯Ïĥ Î¿Î¼Î·ÎĶ
\ \
ĠÎ½ÏħÎ¿Î¶ Î¬ÏģÏĨÎºÎµ
ĠÎ¬ Î½Î¹Î¿Îº
ĠÏĤÎŃÏĩ ÏħÎµ
8 9
Î¹Ïģ ÏİÎ»Î¦
ĠÎ±Î¯ ÏĩÏģÎ±Î¹ÏģÏħÎº
ĠÎ±Î¼ Î®ÏģÏĩ
ĠÏĤÎ±Î¯Îµ Î»Î±ÏĨÏĥÎĳ
ĠÏħÎ¿Î» ÏħÎ¿ÏĢÏĮ
ĠÎµÎ¼ÏħÎ¿ Î»Î¬Î²
Î»Î±Î½ ÎŃÏĢ
ĠÎ¿Î¹ Î½ÏĮÎ¼Î·Î½Î¼
Î½ Î¿ÏĦÏĥÎ¹Ïĩ
Ïİ Î¦
ĠÎ½ÏİÎºÎ¹ Î½Î¸Îµ
r p
Î¿ÏĦ Î½Î¿
ĠÏĤÎ±Î¯ Î³ÏģÎµÎ½Î±
ĠÎ¬ÏĦ ÏħÏĨ
ĠÎ±Î¹ÏĥÏĮÎ¼ Î·ÎĶ
Î¿Î³ Î±ÏĢÎĳ
ÏĥÏĥ ÏħÎ´
ÏįÏģ ÏħÎµ
Î½Î¬ Î³Î±ÏĢÎ¿ÏģÏĢ
ĠÏĤÎµ Î½Î·Î»Î»Îķ
Î¬ Î½Î¹ÏģÎµÎ¼Î·Î¸Î±Îº
ĠÎ®ÎºÎ¹ ÏģÏĦ
Î¬Ïģ Î¿
ĠW MB
Î±ÏĦ ÏĮÎ½Î¿Î³ÎµÎ³
to hP
ĠÎ£Îķ Î¡
Î¼Î¹Ïģ ÏģÎ¿ÏĢÎ±
k u
ĠÎ¹ÎµÎ½ Î¯ÏģÎº
ÏĮÏĦÏĥÎ¹ Î¸ÏħÎ¼
ÏĢ ÏĮÎºÎ¹
ÏīÏģÎ¸ Î½ÎĨ
Î¯Îµ ÏĨÎ¿
ĠÎ·ÏĪÏħÎ»Î¬Îº Î¿ÏĢÎ±
ĠÎ¯Îµ ÏĦÏĥÎ¹ÏĦÎ±Î¼
ĠÏħÎ¿Î¯ ÏģÎµÎ±
Î¸Î± Î¾Îµ
ĠÏĤÎ±Î¯Ïģ ÏħÏĦÏģÎ±Î¼Î±Î¹Î´
ĠĠ ĠĠ
ĠÎµÏĦÏĮÏĢ ÎŁ
Î¿Î» ÏħÎ¿ÏĢ
Î±Î¹Îµ Î¸Î¬ÏĢÏĥÎ¿ÏģÏĢ
ÎķÎ¤ ÎŁ
Ïī Îĺ
ĠÎµÏĥ ÏħÎ»
Î¿ÏĦÏĥ Î¿ÏĢÎĳ
ÏĢÎ¿ÎºÏĥ Î¿Î´ÏģÎµÎº
Î±Ïĥ ÎµÎ¼Î¬
le H
Î¹ÏģÎº Î¿ÏģÏĢ
ÏĥÎ¬Î» ÏħÏĨ
ÎĶÎĻ ÎĳÎł
ÎµÎ» ÎĪ
Î³Î± Î¹ÏĦÏĨ
ĠÏĤÎ¯Îµ ÏģÎ¿ÏĢÎľ
ĠÏĤÎŃÎºÎ¹ÏĦ ÏħÎµ
co D
ĠÎ·Î½ ÏħÎ¸ÏįÎµÏĢÏħ
Î±ÏĦ Î½ÏĮ
ÏįÏĨ Î±ÏĦÎ±Îº
r O
ĠÎ±Î¯ Î½ÏīÎ½Î¹Î¿Îļ
ÏīÎ½Î³ Î¬Î½Î±
ĠÎ½Î±Î²Î±Î» ÎŃ
ÏįÏĦ ÎºÎ¹ÎĶ
ÏħÎ» Î¬ÏĦÎ±Îº
Î»ÎŃ ÏĥÎ¿ÏģÏĢ
Î¬Ïģ Î±Î¼Î±Î£
ĠÏĤÎ¿ÏĦ Î½Î¿ÏģÎŃÏĨÎ±Î¹Î´Î½Îµ
Î½Î± Î¾ÏħÎ±
ĠÏĮÎºÎ¹ ÏĥÏħÎ¿Î¼
ÏģÎ´ ÏħÎ½Îµ
ÎŃÎº Î£
Î½ÎµÎ¼Î± Î¾ÎµÎ´
Î·Î» Î¹Îµ
Î· ÏĩÏħÏĦÎ¹ÏĢÎµ
Ïį ÎºÎ±Î½Î±
l oo
Îĳ ÎĶÎĻ
ĠÎµÎ¼ÏįÎ¿ Î¹Î¿ÏĢÎ¿Î¼Î¹ÏĥÎ·ÏģÏĩ
ÏİÎ½ Îĵ
Î·Ïĥ ÏīÏģÎŃÎ¼Î·Î½Îµ
ĠÏĤÎ®ÎºÎ¹ Î»Î¿ÏĦÎ±Î½Îĳ
ĠÎ½Ïī ÏģÎŃÏĦÏĥÎ±
Î±Î¼ Î·ÏĦÎ®Î¶
ĠÏĮÏĢ ÏīÏĥÏĮÏģÏĢ
ĠÎ·Î¸ ÏĩÎ®
Ġ Î¿ÏĢÎ¼
ĠÏħÎ¿Î¯Ïģ ÏĦ
ĠÎ¹Î±ÏĦÎµ Î½Î¬Ïĩ
A T
ÏħÎ¿ÏĢ ÏİÏĥÎ¿ÏģÏĢ
Î» Î¹Îļ
ĠÏĤÎ¿Î¼ Î¹Î¿ÏĦÎŃ
ÏħÎµÏĦ ÏīÏģÎµ
Ïī ÏĨÎ¼ÏħÏĥ
ĠÎ¬ ÏģÎµÏĦÏĥÎ¹ÏģÎĳ
ĠÎ¹Î±ÏĦÎ½Î¿Î¶Î¬ Î¹ÏĥÏħÎ¿ÏģÎ±ÏĢ
ÎĻÎķ Î¤
ĠÎ¬ÎºÎ¹ ÏĦÏĥÎ±
ĠÎ¹ÎµÏĥÎ® ÏĦÎ½Î±ÏĢÎ±
ĠÎ·ÏĪÎ·Î» Î¬ÏĦÎ±Îº
Î¶ÏĦ Ïģ
ĠÎ¿ Î¯ÏĢÎ¿ÏĦ
Î¹Î´ ÏįÎ¿Î³Î±ÏģÏĦ
ĠÎ±Î¹ÏģÎ¬ Î½ÎµÏĥ
ĠÎ¿Î³Î¿Î» Î¬Î¹Î´
ĠÏħÎ¿Ïģ ÏĮ
ĠÏį Î¿ÏĥÎ¿ÏĢ
Î¿ÏĦ Î½ÏħÏĥ
Ïį Î±Î½
ĠÎ½Î±Ïĥ Î·ÏĦÏĥ
ĠÏħÎ¿ÏĢ ÏĮÏģÏĦ
ÏĤÎ¹ÎµÏĥÏİ Î»Î·Î´
ÎķÎĿ Î¥Î£
Î¿Ïģ ÏīÏĩ
ÏĢ ÏĮ
Î¸ Î¹ÏģÎ¬
ĠÎ±Î¯Î´ ÏīÎ³Î±ÏģÏĦ
ĠÎ±Î¯Îµ Î¼Î¿Îº
Î¿Ïģ Î¹Î±Îº
Î·Î¼ Î¹Î¿Îº
bmo b
Î¬Î¼ Î±
ÏĨ Î¹Î±
Î½ÏħÎ¿ ÏĥÎ¬
Î¬Î´ Ïħ
ÎŃ Î³ÎµÎ¼
ÏĤÎµÎ¸ Ïĩ
ĠÏįÎ¿ Î¹Î»
ĠÎ½Î¿ÏģÎŃ ÏĨÎ¼ÏħÏĥ
Î±ÏĨÎŃ ÎºÎ³Îµ
ĠÎ±Î¹ÏģÏįÎ¼ Î¼Î¿ÏĦÎ±ÎºÎµÏĥÎ¹Î´
ÏĤÏħÎ¿ Î½
tso P
to M
Î¿Ïģ ÏĨ
ÏħÏģ Î®
ĠÎ±Î¹Î´Î¯ Î¾Î±ÏĦ
ĠÎ¿Î¹Î³ÏĮÎ» Î¿ÏĦÏĥÎ¹
Î¬Î¹Î´ Î½Îµ
ĠÎ¹ÎµÏĥÎŃÎ¸ Î±ÏĦÎ±Îº
ĠÏĤÎ±Ïĥ ÏĥÏİÎ»Î³
Î±Î¯Îµ ÏģÎ¹Î±ÏĦÎµ
ĠÎ¿Î¹ Î½Î®Î»Î»ÎµÎ½Î±Îł
ĠÎ¯Î¿ÎºÎ¹ Î´Î¹Îµ
ÏĮÏģ Î¿
Î¹Ïĥ Ïħ
ĠÎ½ÏįÎ¿ÏĦ Î¹Î±ÏĢÎ±
ÏĤÎ±Î¯ Î²
ĠÏĤÏĮÎºÎ¹ Î½ÏĩÎµÏĦ
ÎµÎ¸ Î¿ÏĢÎ¿Î¤
ĠÎ·ÏĥÏīÏģ Î®Î»Îº
ĠÏĤÎ¹Îµ Î½
ÏħÎ¿ ÎĶ
ĠÏĤÎŃ Î¹Î¼Î·Î¶
ĠÎ±Î½Ïİ Î¼Î¹ÎµÏĩ
ĠÎµÎ¼ÏįÎ¿ÏĦÏĥ Î¹ÏģÎ±ÏĩÏħÎķ
ĠÎ·ÏĥÏħÎµ Î»Î»Î¬ÏĦÎµÎ¼ÎºÎµ
ÏħÎ¿Î» ÏħÎ¿ÏĢÏĮ
ĠÏĮ ÏģÎµÏĦÏĥÎ¹ÏģÎ±
ÏĢÏįÎ³ Î¹Îĳ
ĠÎ·ÏĥÎµÏģ ÏįÎµ
ĠÏįÎ¿Î» Î·ÏĪÏħ
ÏĤÎµÎ¯Ïģ Î¿ÏĨÎ¿ÏģÎ·Î»Îł
ĠÎµ ÏĢÎµÎ»Î²ÎŃ
Î±Ïģ ÏĥÎ¹
Ġtce j
ÏĤÏī ÎµÏĥ
ĠÎ½ÏħÎ¿Î¶Î¬ Î»Î»Î±
Ïį Î»Î¿Îł
ÏĮÎºÎ¹ Î¿
ĠÏĤÏħÎ¿ Î¹Î¿ÏĢ
ĠÎ¹ÎµÎ½Ïİ ÏģÎµÎ¼Î·Î½Îµ
ĠÎ¹ÎµÏĪ ÏįÎºÎ¿ÏģÏĢ
ĠÎ½ Î¬ÏģÎĻ
ÏĢÏĥ ÎµÏģÎł
Î±Î¯ Î³ÏģÏħÎ¿ÏĦÎ¹ÎµÎ»
ÏģÎµÏĨ ÏħÏģÏĦ
Î±Î¹ Î±Î²ÎŃÎĴ
ĠÏĤÎ· Î»Î»Î¬
ĠÎ¹ÎµÏĥÎ® Î¹Î¿ÏĢÎ¿Î¼Î¹ÏĥÎ·ÏģÏĩ
Î±Î¹ÏĢ ÎŃ
e ca
ĠÎµÎ¼Î±Î» ÎŃÎ¸
ĠS I
Î®Î¼ Î¼Î±ÏģÎ³
Î±Î¯Îµ ÏģÎ¿ÏĢ
ĠÏĤÎ±Î¹Îµ Î³ÏģÎŃÎ½Îķ
D C
ĠÎ½Ïī Î»ÏĢÏĮ
ĠÏħÎ¿ Î³
ĠÏĤÎ¿ÏĦÎ±Î¼ Î®Î´Î¿ÏĥÎ¹Îµ
Î±Î¹ ÎºÎ¬ÏĦ
Î½ÎµÎ¾ Î¬ÏģÎ±ÏĢ
Î±Îº Î±Î¼
Ïī ÏģÎŃÎ¾
ĠÎ¹Î±ÏĦÎµÎ¶ Î¯ÏĦ
Î¿ÏĢÎ± Îļ
ÏĥÏĥÏħÎ´ ÎŁ
ÎµÏĦ ÎµÏĥ
Î¹Îº Î±Î¼
a h
ĠÎ® ÏĦÎµÎºÏģÎ±
ĠÏĤÎ¯Îµ ÏĦ
Ïģ ÎĶ
Î·Ïĥ Î¹Ïģ
Î½ÎµÏĥ ÏģÎ±
) !
ĠÎ·ÏĪ Î¼Î±Îº
Î¯Ïģ ÎºÎ³ÏħÏĥ
U S
Ïī ÎŃÎ»
ÎŃ Î¶Î±Î¼
ÏĤÎŃ Î³Î±Î»Î»Î±
Î³ ÏįÎ£
ÏĨÎ»ÎµÎ´ Î¬Î½ÏħÏĥ
Î¼ Îķ
ĠÏĤÎŃ ÏĦÏĥÎ¹ÏģÎ¹Î±ÏĨÏĥÎ¿Î´Î¿ÏĢ
ĠÏĤÎŃ Î½ÏīÏĨ
ĠÎ·ÏĥÏīÏĦÏĢ ÎºÎŃ
ÎµÏĦ Î¯ÎµÎ´
Î±Î³ Î²ÎŃ
ĠÎ±Ïĩ Î¯Îķ
ba t
ĠÎ¬ÎºÎ¹ÏĦ ÎºÎ±ÏģÏĢ
Î±Î¼ ÏīÏģ
ĠÎ·Ïĥ Î¹ÏĨ
ÏĤÏħÎ¿Î» Î¯ÏĨ
ĠÎ½Î±Ïĥ Î·ÏģÏİÏĩ
Î·Ïĩ Î·
ÏģÎµÎ¼ Î·Ïĥ
ĠÎ¯Îµ Î½Î±ÏĨ
Î±ÏĦÎ·ÏĦÏĮ Î¹ÏģÎ·ÏĦÏĥÎ±ÏģÎ´
âĢ ĭ
ÎµÏĦÏĥ Î¯ÏĢ
ĠÏĤÎŃ ÏĩÏģÎĳ
ĠÎ·ÏĪÎµÎºÏĥ ÏįÏĥ
ĠÎ¹Î±ÏĦÎµÎ¶Î¯ Î³Î¿Î»Î¿ÏĢÏħ
ĠÏįÎ¿ Î¹Î´Î¹Î½ÏĩÎ¹Î±ÏĢ
ÏĤÎ¹ÎµÏĥÎ®ÏĦ ÏīÏģÎµ
ĠÎ½ÏħÎ¿Î¶Î¬ Î²
ÏħÎ¿Î³ Î¹Ïĥ
Î±ÎºÎ¹ ÏĮÏģÏĦ
ĠÏĤÏĮ Î¹Î¿ÏĢ
ĠÎ½ÏīÎµÏĥÎ¬ ÏĨÎ¿ÏĢÎ±
ÏĨÎ± Î´Îµ
ĠÎ½ÏīÏĦÎ¬Î¼ Î·ÏĩÎ¿
a ni
ĠÎ¿ÏĢ Îĳ
ĠÎµÏĦÎµ Î¶
Î¸ÎŃ Î½ÎµÎ³
ĠÎ½ÏİÎºÎ¹ Î½Î¿ÏģÏĦÎºÎµÎ»Î·
Î¸Î±Ïģ Î±Îľ
ÏĤÎ¿ÏĦ ÏĥÏĮÎº
ĠÎ¿Î» ÏĮÏģÎ±ÏĢ
ĠÏĮÏĦÏĥ Î¹ÎµÎ»Îº
ĠÎ¹Î±ÏĦÎ½ Î¿Ïģ
ÏĤÎ¹ÎµÏĥÎ¬ ÏĦÏĥÎ±ÏĦÎ±Îº
ĠÎ±Î¹Îµ Î³ÏģÎŃÎ¹Î»Î»Î±Îº
ĠÎ½ÏħÎ¿ÏĩÎŃ ÏģÏĦ
ĠÏĤÎ·Ïģ ÎĨ
ĠÎµÎ¼ÏįÎ¿Ïģ Î¿ÏĢÎľ
ra p
ÏĤÎ±Î¯ Î½Î±Î¼ÏģÎµÎĵ
Î» Î¿ÏģÎµÎĴ
ĠÎ·ÏĥÎ±ÏĦÏĥ Î¯ÏĦÎ½Î±
ÏįÎ¿ Î¹Î´
Ġ mi
ĠÎ·Î¸ÏĨÎ®Î»Îµ Î½ÏħÏĥ
ÏĤÎ±Î½ Ïİ
ÏĥÎ¹ÏĢ Î»ÎµÏĢÎ±
Î¿ÏĢ Î¿ÏģÎµÎĳ
ÏħÎ¿Î´ÏĮ Î¹ÏģÎµÏĢ
9 7
Î¹Î±ÏĦÎµÎ½Î¯ Î±ÏĨ
Ġá½ ²
ĠÎµÏĥÎ·ÏĦ Î¬ÏģÎºÎ¹ÏĢÎµ
Î½Î¯ Î±Î½ÏħÏĥ
Î½Î¿Î» Î±ÏĨÎµÎļ
Î¡ÎŁÎł Îľ
ĠÎ¿Î¼Î¹Ïĥ ÎŃÎ¸Î±Î¹Î´
ĠÎ· Î½Î¯Î¼Î±ÏĦÎ¹Î²
n retnI
ÏįÎ¿ Î²Î±Î¹Î´
ĠÏĤÏħÎ¿Îº Î®Î¼
Î¬Î» ÏĢÎ±
ĠÎµÏĦÏĥÎ® Î½ÏīÎ½Î¹Î¿ÎºÎ¹ÏĢÎµ
Î¿Î» ÎµÎ³
ĠÏĤÎŃÎºÎ¹ ÎºÏģÏħÎ¿ÏĦ
ĠÎ® ÏĦÏĥÎ¹
ÏĦÏĥÏī Îļ
ÏħÎµÏĦ Î±Î¼Î³Î±ÏģÏĢÎ±Î¹Î´
ĠÏħÎ¿Î»ÏĮ Î½ÏħÏĥ
ĠÎ£ ÎĳÎĿ
Ġá½ ¸ÏĦ
Î¼ Î±Î½ÏħÎ´
ĠÏĤÎ± Î¹ÎµÎ»ÏİÏĢÎ±
ĠÏĤÎ¿Ïģ ÎŃÎľ
ĠÎ½ÏħÎ¿Î¶Î¬ Î¹Î¿Î¼
Î½Î¿ Î¶
Î´ ÏħÎ¿Î³Î±ÏģÏĦ
ÏĢ ÏĥÎŃ
ĠÏĤÎ¹Îµ ÏģÎ¬ÏĢ
ĠÎ½Ïī Î³ÏĮÎ»
ĠÎ· Î¼Î¿Î½Î¬ÏģÎ±ÏĢ
ÏģÏīÏĩ Î¿ÏĢÏħ
ĠÏĤÎ· ÏįÎ³Î³ÎµÎ»Î·Î»Î»Î±
Î¹Ïģ Ïİ
ĠÎ¹Îµ ÏĩÏĥÎ¬ÏĦÎµÎ¼Î¼ÏħÏĥ
ĠÎ¿Î¹ Î±Î²ÎŃÎ²
ÏĦÏĥÎµÎ»ÎµÏĦ ÎºÎµ
lle H
Î½Î±ÏĨ ÎŃÏĦÎ£
Î³Ïģ ÏįÏĢ
ĠÎ±Î¼ ÏĥÎ±
ĠÎµÏĦ Î¯Îķ
ĠÎ±ÏĦ ÏħÎ±
Î¹ÎµÏĦ ÏīÏĨ
lbu P
o P
ÏħÏĥ Î·Î½Î±
Î½Î±Îº Î·ÏĦ
Î±Î¹Ïģ Î¬Î»Î¿Î´
ĠÏĤÎµ ÎºÎ¯Î½
te N
Î®Î¶ ÏĦ
Î¹Î¼ ÎŁ
Î½Î¼ Î±Î½Î±
Î½Î¸ ÎŃ
cre M
ÎĳÎ¤ ÎķÎľ
ĠÎµÏĦÎµ Î²Î¬Î»
Î½ÎŃÎ¶ÏĦ Î±
ti xerB
ĠÎ±Î½ÎµÎ¼ÏĮÎ¶ Î±Î¹
Ïĩ Î¿
ĠÎ¿Î½Î·Î¼ Î¯ÏģÏĦ
Ġtne m
Î·ÏĦÏĥ Î±Î¹Î´
ĠÎ±ÏĦÎ±Î¼ ÎŃÎĺ
ÏĥÎ±Î» Î¬Îĺ
ÏĤÎ·Ïĥ Î±ÏĦÏĥÎ¬ÏĦÎ±Îº
ĠÏĤÏħÎ¿ Î³Î¯Î»
ĠÎ·ÏĥÎ±Î² Î¬ÏĦÎµÎľ
ĠÏĤÎŃ Î»Î¹ÎµÏĨÎ¿
ĠÏĤÎŃ Î»Î·ÏĪÏħ
ĠÏĤÎ·ÏĥÎ¹Ïģ Î¯ÎµÏĩÎ±Î¹ÎĶ
ĠT ROPS
ÏĤÎ¿ÏĦÎ±Î¼ Î¼ÏĮÎº
Ïĩ ÏįÎµ
Ġg nu
ĠÎ® Î»Î¿ÏĩÏĥ
ĠÎ®Ïĩ Î¿ÏĦÎµÎ¼
ĠÎµÏĥÎ·ÏĦ Îº
Î¹Îµ Î»Î¬
ĠÎ¿Î³Î¿Î» Î¬ÏĦÎ±Îº
ĠÎ½ÏħÎ¿ÏĦÏĢ ÏįÎºÎ¿ÏģÏĢ
ĠÎ±ÏĦ Î±ÏĨÏĥÏĮÏģÎł
Ġ9 0
ĠÏĤÏīÏĦ Î®ÏĦ
Î±Î½ Ïī
ĠÎµÏĦ Î¬
Î³ÏĮÎ» ÏĨ
ĠÏĤÏĮÎ¼ ÏĥÎ±Î¹Î´ÎµÏĩÏĥ
Ġe hcs
ga M
á½ µ
ĠÎ¬Ïģ Î·Î»ÎºÏĥ
ĠÎ¹ Î¿ÏĦÏĥ
ĠÏĮÎºÎ¹ÏĦ Î±ÏģÎº
ÏĤÎ¹Îµ Î½Î¬Îº
ÏĮÎ´ Î¿ÎºÎ¹Î¿
ĠÏĤÎ®ÎºÎ¹ ÏģÎµÎ¼Îĳ
Î½Î¹ Î¦
Î¹ÏĨ Î¬
ĠÎ¿Î¹ÏĦ ÏģÎ¬Îľ
Ïģ Î®ÏĢÎ¥
Î¬Î»Îµ Î³
Îĸ ÎĳÎľ
ÏĨÏħ Î»Î±Îº
ĠÏĤÎ¿Î´Î¿ Î¾ÎŃ
Î½Ïİ Î»
Î¿ÏĦÎ±ÏģÎº Î¿ÏĦÏħÎ±
Î±Î¹Îµ Î¸Î®Î¿Î²
Ġ5 0
ÎµÏĦÎµ ÏĥÏİ
ÏĮÏĢ Î¿ÎºÏĥ
ÎĳÎ¡ ÎĶ
ĠÎ®ÏĥÎ¹ Î½Î¬ÏĨÎ¼Îµ
ĠÎ¿Î¹Î» Î®
Î¬Î¹ Î¶ÏħÎ²
ÏįÎ» Î±ÏĦÎ±Îº
Î¯Îµ ÏĢÎµ
ĠÎ±Ïģ Î¯Î¿Î¼
ĠÎ±Î¼ Ïħ
er ts
Î¯ Î¶ÏĦ
ÏĢÎ± Î´Î¿Î»Î»Î±
Î¼ Îĳ
ĠÎ·ÏĥÎ±ÏĦÏĥ ÏįÏĥ
ĠÏĤÏĮÎ¼ Î¸Î±ÏĦÏĥ
ĠÎ·Î¼ Î¹Î½ÏĮÎ¼
ĠÎ¿ ÎºÏģÎ¬
ĠÎ·Î½ÎŃÎ¼ Î·Î¾ÏħÎ±
ÏħÎµÎ» Î·ÏĥÎ¿Î½
Î½Î¹ ÏĢÎ¼
ĠÎµÎºÎ·Î¸ Î¯ÏģÎº
ĠÎ±ÏĦ ÏīÏģÎŃ
ĠÏĤÎŃÏĦÏĥ ÏīÎ½Î³
Îĵ Î¡Îķ
ĠÎ¿ ÏĨÎ¬ÏģÎ³
ĠÎ¬ÏĦ Î·Î½Î¹Îº
ÎµÏĢ Îľ
Î±Î¼ ÏģÎŃÎ´
ĠÎ½Ïİ Î½Î¸ÎµÎ¹Î´
ĠÎµÏĦÎ¿ÏĢÎ®Î´Ïĥ ÏīÏĢÎ¿
ÎµÏĪ Î±ÏģÎ³ÎŃ
ÏħÎ¿Î¯Ïģ Î·ÏĦ
ĠÏĤÎ±Î¯Î» ÎĹ
i S
Î»Ïĩ Î¿Î½Îµ
ĠÏĤÎ¿Î» ÏįÎ±Îł
ÏĤ ÎŃÎ½
ĠÎ¿ÏĢ ÏīÏĦÎŃÎ¼
Î±Ïģ Î±
ĠÏĤÎµ Î¹ÎµÎ»ÏİÏĢÎ±
Ġ ÎŃÎ¼
ÏīÏĢÏĮÎ½Î¹ Î¸ÏĨ
c M
ĠÎ¿Î¹ÏģÎ¬ ÏħÎ¿Î½Î±ÎĻ
Î½Î·Ïģ Î¹Îµ
Î·Ïĥ Î½ÏħÎ¸ÏįÎµÏĦÎ±Îº
ÎµÏĦ ÎµÎ»
ĠÎ·ÏĥÎ·Î»ÎºÏĥ ÏĮÏģÎł
ĠÎ±Î¹ÏģÎ¬ ÏĪ
ĠÎ¬ ÎºÎ±Î¹Ïĥ
ÏģÎµÎ¼ Î¿ÏĦÏĢÎµÎ»
ĠÎ½ÏīÏĦ ÏİÏģÏĢ
ĠÎ¿Î½ ÏĢÏį
ĠÏĤÏİ Î½Î±ÏĨÎ¿ÏģÎł
fi L
* (
ĠÎ·ÏĥÎ·Î¸ Î¯Î¿ÏĢÎµÏĢ
ĠÏĮÎºÎ¹ÏĦ Ïī
Î²Î±Î» Î±ÏģÎ±ÏĢ
Î± ÏĩÏĥÎ¬Îł
ĠÎ½ÏīÎ¼ Î¹Ïĥ
ÏĤÎ±Î¯Ïĥ ÏīÎ¡
ĠÏĤÎ¹ÎµÏĥ ÎŃÎ¹ÏĢ
ĠÏĤÎµÎ½ ÏĩÎŃÏĦÎ¹Î»Î»Î±Îº
ĠÏĤÎ±Î¯Îµ ÏģÎ¹Î±ÏĦÎķ
ĠÎ»Î¬ ÎµÎ¡
D A
ĠÎ·ÏĥÎ±ÏģÏĨ Î¬ÏĦÎµÎ¼
ÏĥÎŃÎ´ Î½ÏħÎ£
ĠÏĮÎºÎ¹ ÏĦÏĥÎ¹Î½ÏīÎ³Î±
ĠÎ¹ÎµÎ¶Î¯Ïģ Î¿
ĠÏħÎ¿Î»Î»ÎŃÏĢÏħ Îļ
Ġy r
Î³ÏīÎ³Î±Ïģ Î±Îł
ĠÎ½Î¿ÏĦ ÎºÎ³
B B
ĠÏĤÎŃ Î³Î±ÏĦÎ½ÏħÏĥ
Î¿Î¼ Ïī
ÏīÎ¹ÏĦ Î±ÏģÏĦÎ£
da R
Îº Î±ÏĦÎ±Îº
ĠÏĤÎ±ÏĦÎ½Î¿ Î³Î¬ÏģÎ±ÏĢ
ĠÎ½Î± Î³ÏħÏĨ
bu tuo
n wo
Î·Î¸ Î·Î¿Î²
Î¿Î¹Ïĥ ÏĮÎ¼Î·ÎĶ
ĠÎ½ÏīÎ´ÏĮ ÏĥÎµ
ÏĮÏģ Î§
Î¿ÏĦÎ½Î± Î£
Î¹Î±Ïĥ Îµ
ĠÎ¿Î¹ ÎºÎ¯Î´
ĠÏĤÎ±Î¯ ÏĨÎ±ÏģÎ³
ĠÎ½ÏīÏĦÎ¬Î¼ Î·ÏĦ
Î¶ÎŃ Î½Î¹Îļ
Î¯ Î³Î±
ĠÎ¬ÏĦ Î±ÏģÎº
ÏĢ Î¯ÏģÎµÏĢ
ÏĤÎ¹ÎµÎ¾Î¬ÏĦ Î½ÏħÏĥ
Î± Î¿ÏģÎºÎ±
ÏĢÎ¿ÎºÏĥ Î¿Î¼Î·Î´
ĠÏįÎ¿ÎºÎ¹ Î»
ĠÎ¯ Î¿ÏĢ
ĠÎµÏĥÎ¹Î¼ Î¼Î¬ÏģÎ³Î¿ÏĢÏħ
Îµ Î½ÏħÏĥ
ÏģÎ¬ÏĦ ÏĦÏħÎº
ĠÎµÏĥÎ·ÏĦ Î¬ÏģÎº
ĠÎ±Îº ÎµÎ´
ÏĤÎ±ÏĦ Î·ÏĦ
ĠÏī Î½ÎŃÎ¼
la P
ĠÎµÎ¼ÏħÎ¿ Î»ÎŃÎĺ
ĠÎ¹Îµ ÏįÎµÏĦÎ±ÏĦÏĥÎ¿ÏģÏĢ
Î½Î¿ Î§
Ïĥ Î¯Î»
Î·ÏĦ ÎŃ
ĠÎ±Î¯ Î±ÏĩÏħÏĦ
Ïĥ Î±ÏĢÏĥ
ÏĤÏİÎ¹ Î»Î»Î±
Î¿Î´Î¿ Î¾ÎŃ
ÏĤÎ¿ÏĦÎ±Î¼ ÏĥÎ¯
ĠÎ® ÎºÎ±Î¹ÏĥÏīÏĢÏħÏĦÎ½Îµ
Î½ÎŃ ÎĽ
Î¬Î¼ Î±ÏĦÎ£
ÏĮÎ³ Î·Ïģ
Î½ÏİÎ¼ ÏĥÎ¹
ĠÎ¯Îµ Î»Î¹ÎµÏĢÎ±
Î¿Î¹Î¼ ÏĥÎ¿ÎºÎ³Î±ÏĢ
ĠÏĤÎŃÎ¼ Î¿Î´
ĠÎ½Ïī ÎŃÎĿ
ĠÏĤÎŃ ÏīÎ¶
ĠÎ¿ ÏģÎµÎ¼
ĠÎ·ÏĥÎ·ÏĦÎº Î¬ÏĦÎ±Îº
Î±ÏĦÎ±Î¼ Î³
ĠÎ½ÏīÏĦÎ¬Î¼ ÏĥÎµÎ»ÎµÏĦÎ¿ÏĢÎ±
ÏįÎµÏģÏĦ Î±Î»
ĠÎ¬ Î³ÏģÎµÎ½Îµ
ĠÎ¹ÎµÎ¶Î¯Ïģ Î·ÏĦÎºÎ±ÏģÎ±Ïĩ
e m
ĠÎ¹ Î¸Î¬Î»Î±Îº
Î¹ÏĦ ÏħÎ±Î½
ĠÏĮÎºÎ¹ Î½ÏīÎ½Î¹Î¿Îļ
hp lA
ĠÎ±ÏĦÎ·ÏĦÏĮ Î½Î¹ÏģÎµÎ¼Î·Î¸Î±Îº
ÎºÎµ Î¹ÏģÎµÏĢ
ĠÎ±Î¯ÎµÏĦÎ±Î¼ Î¼Î±ÏģÎĵ
ĠÎ¿Î¯Îµ ÏĦÎ±Î¼
Î¯ÏĦÎ±Î¼ Î¼Î±ÏģÎ³Î¿ÏģÏĢ
tno C
H T
Î¿Î» ÏĮÏģ
ÎºÎµ Î¸Î½Î±
Ġ8 0
Î¿Î½ Î¿Î¹Ïĩ
ĠÎ½ÏīÎµÏĥÎ® Î´Î¹Îµ
ĠÎ±ÏĢÏħÏĦ ÏĮÏģÏĢ
ĠÏĤá¿Ĩ ÏĦ
Î¤ ÎĳÎľ
Î¿ÏĢÎ¿ÏĦ ÏĮÏĦÏĥÎ¹
ĠÏĤÎ¿Ïĩ ÏįÎµÏĦ
ĠÎ½Ïī ÏģÏĮÏĢ
ĠÏĤÏī Î¯Î¼ÏĥÎ¿ÎºÎ³Î±ÏĢ
ĠÎ±Ïģ ÏīÏĦ
I M
ĠÏĤÏĮ Î½Î±
Î¹ÏĢÏĥÎ¬ ÏģÎµÏĢÏħ
2 6
Ġke erG
ĠÎ±Î½ Î¹ÏĢÏİÏģÎ¸Î½Î±
n briA
ĠÎ¹Îµ ÏĩÎ³ÎŃÎ»Îµ
Î½Îµ ÏĢÎľ
ĠÏĤÎ±ÏĦÎ½Î¿ÏģÎŃÏĨ ÏĥÎ¿ÏģÏĢ
ĠÎ· ÎºÎ¬ÏĦÎ¿ÏĥÏĦÎ·Îľ
Î¹ÏĨ Î¿ÏģÏĦ
ĠÎ±ÏĦÎ±Î¼Î®Ïģ ÏħÎµ
nnacs ykS
ĠÏĤÏįÎ¿ Î¸ÏĥÎ¹Î¼
ĠÎ¯Î´ Î¹ÎµÎ»Îº
ĠÎ·ÏĥÎ· ÏĢÏĮÎºÏĥ
ĠÎ½Ïİ Î´ÏħÎ¿ÏĢÎ£
ĠÎĿ ÎĹÎľ
ÎŃÏĢÎµ Î¾
ĠÎ·Î¾ ÏħÎµÏĦÎ½ÎŃÎ½ÏħÎ£
ĠÏĤÎ·ÏĦ ÎŃÎ³Î·
ĠÎµ Î½Î±ÏĦ
no t
Ġy al
ĠÎ½Ïİ Î½ÎµÎ¸ÏĥÎ±
ĠÏī Î¶Î¯ÏģÏīÎ½Î³
Î²Î¹ÏģÎº Îĳ
Î·ÏĢ ÏĮÎº
ÏĤÎŃ Î³Î·ÏĢ
ĠÏĤÎ·ÏĥÏī Î¯ÎµÎ¼
ÏģÎ¿ Î§
ĠÏĤÎ¿ Î³ÏħÎ¶ÏįÏĥ
Î¹Î±ÏĦÎ½Î¿ Î¶Î¯
ĠÎµÎ½Î¹Î±Î³ Î®ÏĢ
Î» Î·ÏĦ
ĠÎ¹ÏĥÏħ ÏģÎŃÏĢ
ĠÎ¿Î»Î± Î´Î½Î¬ÎºÏĥ
ÏĤÎŃ Î¹
Î¹ Î±Î½Î±
ĠÏĤÎŃ ÎºÎ±Î¹Ïĥ
Î¹ÏĥÏħÎ¿ ÏģÎ±Îł
Î»ÎµÏĥÏĦ ÏģÎ±ÏĢÎľ
ĠÏĤÎ¹ÎµÏĥÎ® Î¹Î¿ÏĢ
ÎµÏĦ Î±Ïĥ
Î½Î¹ÏĦ Î½ÎµÎ³ÏģÎĳ
ĠÏĤÎµÎº Î±Î½Î¯ÏĢ
ĠÎ¹Î±ÏĦÎ½Î¿ Î´Î¯Î´
ĠÏĮ Î¹ÏĢ
Î³ÏĮ Î´
ĠÎ¿ÏĦ Î¹ÎµÎº
ĠÏĤÏĮÎ¼ ÏĥÎ±ÏħÎ´Î½ÏħÏĥ
Î® ÏĥÎ¹ÏĢÎµ
Î»Î¬ Î¹ÏĨÎµ
ĠÎ£Î© Îł
Î±Î¹ Ïĩ
ĠÏĤÎ¹ÎµÏĥÎ® Î¼Î¹ÏĦÎºÎµ
ÏĤÎµ Î½Î¯
Î®Î» Î¿ÏĦÎ±Î½Îĳ
ÏģÎ±ÏĢ Î¼
Î¿ÏĢÎ¼ Îķ
Î¶Î¬ Î»Î±Î³
ÏĤÎµ ÎºÎ³Î¬Î½Î±
ĠÎ·ÏĥÏħÎµÏģ ÏģÎ¬ÏĦÎ±Îº
Î·ÏĦ Î¹Î±ÏĢÎ±
2 7
ÏħÎ¿Î¼ Î®ÎĶ
Î®Î´ Î±Î»Î·ÎĶ
Î»ÎµÏĦ Î½Î±ÏĢ
ĠÎ±Î¯Î¼ ÏĥÎµÎ¸Î¿ÏģÏĢ
ĠÏĤÎ®ÏĦ Î½ÏħÎ¸ÏħÎµÎ¹ÎĶ
Î±Î¯Îµ Î³Î¥
ĠÎµÏĥ Î·Î¶ÎŃ
Î¿ÏģÎŃ ÎĴ
ĠÏįÎ¿ÎºÏĬ Î±Î½Î·Î¸Î±Î½Î±Îł
ĠÎ±Î¯Îµ ÏĩÎ¿Î´Î¿Î½ÎµÎŀ
ÏħÎ¿ÏĦ Î¬Î½Î±Î¸
Î¹ÏĪ ÎµÎºÏĥÎ¹ÏĢÎµ
Ïį ÏĨÎ¼Îµ
Ïĩ Î³ÎµÎ»Îµ
ĠÎ½ÏİÎºÎ¹ ÏĥÏħÏĨ
ĠÏĮÎºÎ¹ Î½ÎµÎ³
X X
Î³Î±ÏĦ Î½ÏħÎ£
ÎŃÏĢ Îķ
ĠÏĤÎŃÎºÎ¹ÏĦ ÏĢÎ¿Î¿ÏģÏĢ
ĠÎ½Î±Î½Î¹ÎµÎ¼ ÎŃ
ÏĨ Î¥
âĨ Ĵ
ÎŃÎ³Î³Î± ÎĴ
ĠÏĮÎ¼ÏĥÎ¹ Î³Î¿Î»Î¿ÏĢÏĭÎ¿ÏģÏĢ
Î¦ ÎĿÎķ
ĠÎ±Î½ ÎŃÎ¸Î±Îº
Î½Ïī Î³ÏģÎŃ
ÏĢÎ¿ÏģÏĦ Î¿Î¿Î½
ĠÎ¯Î¿ÎºÎ¹ Î´
ĠÏĦ ÎµÏĥ
ÏĢÎ± ÏģÎµÎĺ
ĠÎ®ÎºÎ¹ÏĦ Î·Î½ÏģÎµÎ²ÏħÎº
ĠÎ·ÏĪ ÏĮ
Î½Î¿ Î»Î»Î¬Î²Î¹ÏģÎµÎł
ĠÏĤÎ¿ÏĦ Î½ÏĮÏĬÎ¿ÏģÏĢ
ĠÏĮ Î´
ĠÏĤÏĮÎ¼ÏĥÎ¹ Î½Î±Î³ÏģÎŁ
ÎºÎ¹ Î±Î½ÏħÎĵ
ĠâĢĻ âĢĻ
Î¿Î½ ÏĢÎ±Î½Î±
y ro
ÏĥÏĥÎ¯ Î»ÎµÎ¾Îµ
Î¼ Î·Î´
R P
ÎµÎ½ Î¹Ïĥ
ĠÏĤÎ¯Îµ ÏĥÎķ
ĠÏĤÎŃ Î»Î¹ÎµÏĢÎ±
O B
: )
ÏģÏĮÏĨ ÏĦÎ±Î»ÏĢ
ĠÎ¹Î±ÏĦÎµÎ¶ Î¬Î¼Î¹Î¿ÏĦÎµ
Î½Î± ÏĪ
Î½ÏīÏģ Î¹Îµ
ĠÏĤÎŃ ÏĩÎ¿ÏģÎ²
ÏĦÎ¹ÏĦ ÏĮÏĢÏħ
ĠÎµÏĦ Î¬ÏĦ
ĠÎ¹Î¿ÏĢ Î¹Î¿Î»ÏĮÏĢÏħ
ÏĤ ÏĦÎ±Î¼
Ïĩ Î¬Î»Îµ
ĠÏĤÎ®ÎºÎ¹ ÎºÏģÏħÎ¿ÏĦ
ĠÎ®ÎºÎ¹ÏĦ ÎºÎ±Î»Î»Î±Î½Îµ
Î¿ÏģÎ´ ÎºÎµ
ĠÎ±Î¯Ïģ Î·ÏĦÏīÏĥ
ĠÎ¿Î»Î»ÎµÏĢ ÏįÎļ
Îļ Îĵ
ĠÎ·ÏĥÏīÏģÎ®Î» ÏĢÎ¼ÏħÏĥ
ĠÏĤÎ·ÏĥÎ¿Î´ ÎºÎŃ
Î·Î» Î¹Î¼Î¿
ĠÎ£ ÎĳÎł
Ġten retnI
ĠÏĤÎµÎ¯Î» ÏħÎ¿Î²Î¿ÏĦÏīÏģÏĢ
Î½Ïİ Î³Îĳ
ĠÎµÏĦ Î½
4 7
Î¿ÏĦÏĥÎ¹ Îł
Î¤ Îĳ
ĠÎ¿Î¹Î»ÏįÎ¿ ÎĻ
Î½Î¿Î³ ÎŃÎ»
ĠÎ±Î¯ Î»ÎµÎ³Î³Î±ÏģÎ±ÏĢ
ÏĥÏİÎ½ Î³Î±Î½Î±
ĠÎ½Ïİ ÎºÏĬ
ÎµÏģÎ¯Î± Î¸ÏħÎ±
ĠÎ½Î±Ïĥ ÎµÎ»Î¬Îº
ĠÏĤÏħÎ¿ÏĦ ÏİÏģÏĢ
ĠÏĤÏĮÏĦ Î±ÏģÏĦÏĥ
ĠÎ±Î¼ ÏįÎº
ÎµÎ» Îº
v A
ĠÎ½ÏħÎ¿ ÎºÏĥÎ¯ÏģÎ²
ÎµÎ´ Î½ÏħÎ£
Î½Ïī ÎĻ
Î®Î² ÏĥÎ¹ÏĨÎ¼
ĠÏĤÎ¹ÎµÏĥÏĮÎ´ ÎºÎķ
Ġa L
Î®ÎºÎ¹ÏĦ ÏĦÎĳ
ĠÎ½Î± Î³
ÏįÎºÎ»Îµ ÏĥÎ¿ÏģÏĢ
ÏĤÎ· ÎºÎ¬ÏĦÎ¿ÏĥÏĦÎ·Îľ
ĠÎ¿ ÎµÏĦÎ½Î¯ÎĴ
ĠÏĤÎŃÎºÎ¹ Î½ÎµÎ³
ĠÎ¬ÎºÎ¹ÏĦÎ±Î¼ ÏĥÎµÎ»ÎµÏĦÎ¿ÏĢÎ±
ĠÎķÎ¤ÎĻÎķ ÎĶ
ĠÏħÎ¿ Î´Î¯
ĠÎ¹Î±ÏĦ Î½ÏİÏĦ
ĠÏĤÎ·Ïĥ Î¹Î¼Î¸ÏįÏģ
ĠÏĤÏħÎ¿ Î¸ÎŃÎ³ÎµÎ¼
ÏĤÏī Î¯ÏģÏħÎº
ĠÏĤÎµÏģ Î®Î»ÏĢ
ÏĤÎ±Î¯ Î³ÏģÏħÎ¿ÏĦÎ¹ÎµÎ»
Ġ2 5
ĠÎ¯ÎµÎ¸Ïĩ ÏħÎµÏĦÎ¹ÏĢÎµ
ĠÎ±Î½ÎŃÎ¼ ÏĥÎ¹Ïģ
Î¹Ïģ ÎŃÎ¼Î·ÏĥÎµÎ¼
ĠÎ±Î¯ ÏĢÎ¿ÏģÏģÎ¿ÏĥÎ¹
ĠÎ·ÏĥÎ·ÏģÏİÏĩ Î¿ÏĢÎ±
ĠÎ¿Î½ÎŃÎ¼ ÏĥÎ¹Ïģ
ĠÎµÏĦÏĥ Î¯
Î±Î¹ Î½Îķ
ret tel
ĠÏī Î»Î¬Î²
ĠÏģÎŃÏĦ Î½Î±Î¼Î¹ÎºÎ¿ÏĦÎ½
Î¹ÎµÏĢ Î¬
Î½Î¬Ïģ ÎĻ
Î¼ Î¹Î»
2 8
ĠÎµÎ¼ ÏįÎ¿Î½
ĠÎ¹Îµ Î»Î»Î¬Î²Î¹ÏĢÎµ
ĠÎ·ÏĥÏħÎ»Î¬ Î¹Î´
Î±Î¹Î´ ÏĮÏĢ
Î¬Î½ Î¼ÏħÎĵ
Î¿ÏĨÎ±Î¹Î´ Î±
ĠÎ¿ ÏįÏģÎº
ĠÏĤÎŃÏĦ ÏħÎ´Î½ÎµÏĢÎµ
Î¼ ÎµÎ»Î¿ÏĢ
ĠÎ¹ÎµÎ¾ Î¬Î¹ÏĦÏĨ
Î±Î¯Ïģ Î¹Î±ÎºÏħÎµ
ÏĤ ÏįÎ¿ÏĦ
Î¼ÏħÎ¸Î½Îµ ÏĢÏħ
Î¹Î½ Î½ÎµÎ³
Î³Î³Îµ ÏĨ
ĠÏįÎ¿ÏĦ Î¿ÏģÏĢ
ĠÏĤÎ·Ïĥ Î·Î»ÏĮÏĩÏĥÎ±ÏĢÎ±
yal p
ĠÎ½Ïī Î»Î¯ÏĨ
Î±Î½ÎŃÎ¼ Î¹ÏģÎºÎµÎºÎ³ÏħÏĥ
Î¹Î»Î· Î±ÏģÏĥÎ¹
ĠÏĤÏįÎ¿Î¼ ÏĥÎ±Î¹ÏģÎ±Î³Î¿Î»
Î±Î¼ ÏīÎ£
ĠÎ·ÏĥÏħÎµ ÏģÏĮÎ³Î±ÏĢÎ±
ĠÎ±Î¹ ÏģÎŃ
Î¹Î»Î· Î±ÏģÏĥÎĻ
ĠÏĤÏħÎ¿ Î¼ÏĮÎ½
Î®Î½ ÏħÎº
Î»Îº ÏįÎº
ĠÎ·ÏĦ ÏħÎ±
ÏģÎ¿Î¼ Î¹Î±
ĠÏĤÏħÎ¿Î» Î®Î»Î»Î±ÏĢÏħ
ĠÎ®ÎºÎ¹ÏĦÏĥ Î±ÎºÎ¹Î´
Î·Î¼ Î¿Î´
ĠÏĤÎµ Î»ÏĢ
ĠÎ¹Î±ÏĦÎµ Î²ÏįÏģÎº
tne mu
s na
Î¿Ïģ Î¹Î±ÏĨÏĥÏĮÎ´Î¿ÏĢ
Î¯ ÎŁ
e k
Î½Ïİ Î³Î¿Î»ÎºÎµ
Î¬ÏĢ Ïĥ
Î³Î¿Î»Î¿Î¼ Î¿ÏģÎ´
ĠÏĤÎŃÏĦ ÏīÎ»Î±Î½Î±ÏĦÎ±Îº
ĠÎ·Ïĥ Î¹ÏĨÎ®ÏĪ
ĠÎ½ÏīÎ¯ Î³Îĳ
ĠÏĤÎŃÎºÎ¹ ÏĨÎ±ÏģÎ³
ÎµÏĥ ÎµÎ¸ÏĥÏĮÏģÏĢ
Ïį Î¾Î±ÏĦÎµÎ¼
ÏĤ Î¿ÏĨÎ±Î´ÎŃ
Î®Î» Î¹ÏĦÏħÎľ
ĠÎ½ÏİÎºÎ¹ Î»Ïħ
Î®Î² ÏĥÎ¹ÏĨÎ¼Î±
ĠÏĮÎ¼ÏĥÎ¹ Î»ÏĢÎ¿Î¾Îµ
ĠÎ¿Î¹Î¿ÏĢ ÏĮ
ĠÎ·ÏĥÎ¹ÏģÎº ÏĮÏģÏĢ
Î³Î³ ÎĨ
Î¸ÏħÏģ Îķ
ÏīÎ´Î¹ÎµÎ¾Î¿ Î¹ÏĦÎ½Î±
ĠÏĤÎŃ Îº
ĠÏįÎ¿ÎºÎ± Î¹Ïĥ
Î¿Î¹Îµ Î³Ïħ
Î¹Î±Ïĥ Î¯Îµ
ĠÎ·ÏĦÏĥÎ¹ Î³ÎŃÎ¼
Ġ Î¥Î£
ÏĦÏĥÎ±Ïģ Î¿Î³Î±
ÏħÏĦ Î½
ÎµÎ» ÏħÏĨ
Î»Î» Î±ÏĦÎ½Î±
Î¹Î³ Î¹ÎºÎ±Î¼
ÏģÎ± Î¾ÎµÎ½Î±
Ġy ro
ĠÎ¹Î±ÏĦÎ½ÏįÎ¿Î» Î¿ÏĩÏĥÎ±
ĠÎ¬ Î½ÎµÎ¸ÏħÎ¿ÏĢ
Î±Ïģ ÎºÎ³ÏħÏĥ
Î¿Îº Î¿ÏĦ
Î±Î¼ Î®Î²
ĠÏĤÏİÎ¹ Î±ÏģÎ¹ÎµÎł
ĠÏĤÏįÎ¿ÎºÎ¹ÏĦ ÏħÎµÎ´Î¹Î±ÏĢÎºÎµ
ĠÎ¯ÎµÏĦ ÏĩÎµÎ´
Î± ÏİÎ¶
ÏĢ ÏĥÎ±
ĠÏĤÎ±Î¯Ïģ Î¿ÏĦÏĥÎĻ
ÎĻÎķ Î§
ĠÎ½ÏīÏģ ÏİÏĩ
ĠÎ±Î¯ÎµÏĦ Î±Î»Îł
Î±Î½ÎŃÎ¼ Îµ
Îĺ Îĳ
ÏĮÏģ Îº
Î¹Ïģ Î±Î¼
ĠÎ±ÏĥÎµÎ¼Î¬ Î½Îĳ
ĠÎ¯Î¼ ÏīÏĪ
ĠÎ·ÏĥÎ· ÏģÏĦÎŃÎ¼
ĠÎ½ÏīÏĦÎ®ÏĦ Î¿Î¹ÏģÎ·ÏĦÏĥÎ±ÏģÎ´
ĠÏĤÎµÏĦ Î½ÎŃÎ¸
ĠÏī Î´Îµ
ĠÎ½ÏįÎ¿Î¸ÏħÎ¿Î»Î¿ÎºÎ± Î¾Îµ
Î½ÏİÎ¼ Î¿
ĠÎ¿Î» Î±ÏĢÎ¯ÏĦÎ½Î±
ÏħÎ¿Î» ÏĢÎ¼
ÏīÏģÎ¹ÎµÏĢ Î·
ĠÎ±Î¯Îµ Îĺ
ĠÎ®ÏĨÎ±ÏģÎ³ Î¹ÏģÎµÏĢ
ĠÎµÏĦÎµÎ¸ Î¬Î¼
ĠÏĤÏħÎ¿ ÏģÏĮÏĢ
ĠÏĤÏĮ Î´
Î±Î»Î¿ Î²Î¼ÏħÏĥ
ĠÎµÎ¼ÏħÎ¿ Î½Î®ÏĨÎ±
ĠÏĤÎ±Î¹Îµ ÏģÏĮÎĴ
Î±Î¯Ïĥ Î·Î»ÎºÎºÎķ
ĠÏĤÎ¹ÎµÏĥ ÏįÎµ
ĠÎ½ÏīÎµÏĥ Î¬ÏģÎ´
Ïį Î½Î±Î¹Î´
ÎºÎ±Î¼ ÏģÎ¬ÏĨ
no M
ĠÎ½Î±Î» Î¹Îµ
ĠÎµÏĦÎµÏĥÎ¬ Î²Î±Î¹Î´
ÎµÏģÎ¹Î± Î¾Îķ
ĠÎ¹Îµ ÏģÎ¿ÏĢÎ¼
Î·ÏĥÎµÎ¸ Î¬Î¹Î´
ÏĤ ÏĮÎºÎ±Î¹ÏĢÎ¼ÏħÎ»ÎŁ
ĠÏĮ ÏģÎµÎ¹
Î¹Î´ Î±ÏģÎ²
Î¹ÏĦ Î½ÏħÎ¿Îľ
Î»ÎŃ Î²
ÏĥÎ± Î²ÎµÎ£
Î£ Îĵ
ĠÎ¿Î¹ Î½Î¬ÏĢÎ¼
Ġenil nO
ĠÎ¿ Î³Î¿Î»Î»ÏįÎ£
ĠÏīÎ¶Î¯ ÏĢÎ»Îµ
ÏħÎµ Î¹ÏĥÎ¿Î¼Î·Î´
ĠÎ½ÏħÎ¿Ïĥ Î¬ÏĦÏĨ
ĠÎµÎ¶ Î¹
ĠÏĤÎ¿ÏĦÎ±Î¼ Î®Î½Î¹Îº
ĠÏĤÎ®ÎºÎ¹ ÏĥÏħÏĨ
ĠÎ· ÏģÎµÏĦÏĮÏģÎºÎ¹Î¼
ĠÏĤÎ¿ÏģÎ´ÎµÏĮÏģÏĢ Î¹ÏĦÎ½Î±
Î¿ÏĢ ÏĮÏĦ
ÎļÎĻ ÎĶ
ĠÎ±Î¼Î·Ïĩ ÏįÏĦÎ±
Î¿ÏģÎ´ Î±Î½Î±
Î±Î½ Î¬
Î½Î® Îľ
ĠÎ½ÏīÏĦÎ½ÏĮ ÏģÎµÏĨÎ¼ÏħÏĥ
ÎºÎµ ÏĥÏĦ
Î·Î» Î¹ÏĦÎ½Î±
ĠÏĤÎŃÎºÎ¹ ÏģÎµÎľ
vre S
Î±Î¼ ÏħÎº
ĠÎ±Î¹ Î½Î¬
ÏģÎµ ÎºÎ±
ĠÏĮÎºÎ¹ Î³Î±ÏģÏĦ
ĠÎ½ÏħÎ¿ÏĦ ÎŃÎ¸
Î±Î» Î·
Î±Î½ ÏģÎ¬
ĠÎ¬ÎºÎ¹ÏĦÎ±Î¼ Î»ÎµÎ³Î³Î±ÏĢÎµ
ĠÏĤÏħÎ¿ ÎºÏģÏįÎ¿Î¤
ĠÎ·ÏĦ ÎºÎ¯Î±ÏĢ
ĠÎ·Ïĥ ÎµÎ½Î¬
ĠÎ± ÏħÏĦÎºÎ¯Î´
ÏĥÏĦ Î¹ÏģÎ¿Îº
ÎµÎ¸ Î¿Î¼
Ġe buT
ĠÎ±Î¯ Î»ÎµÎ³Î³Î±ÏĦÎ±Îº
ÏįÎµÏĦÏĥÎ¹ÏĢ Î¼Îµ
ÏĤÎµ Î¯Î¼
ĠÎ®ÏĨÎ±ÏģÎ³ Î±ÏĦÎ±Îº
Ġa l
Î±ÏĦ ÎµÏĦÎºÎµ
z o
ĠÎ¿Î»Î± ÏĨÎŃ
Î½Ïī Î¦
Î±Ïĩ ÏĥÏĮÎľ
Î½Ïī ÎŃ
ĠÎ¯ÎµÏĦ Ïĩ
Î·Îº ÏģÏĮÎ¥
-- _
Î¯ÏĦ Î£
ĠÎµÎºÎ·ÏĦÏĥÎ¬ Î¹ÏĥÏħÎ¿ÏģÎ±ÏĢ
Î¬ÏĢ ÏĢÎ±Îł
ÏĬ Î±ÏģÎ±Îļ
Î¾ ÏĮÏĦ
Î¿ÏĨ Ïĥ
ĠÎµÏĥÎ·ÏĦ ÎºÎŃÏĢÎ±
ÏĤÎ¹ÎµÎ¾ Î¯Î»ÎµÎ¾Îµ
ÎµÏĦ ÎµÎ½
ÏģÎŃ ÏĢÎ¼
Î¹ÏģÏĦ Î®Î¼Î·ÎĶ
ĠÎ¿Î¯Îµ ÏĩÎ¿Î´Î¿Î½ÎµÎŀ
I T
Î±Î» ÏĢÎ±Î»Î»Î¿ÏĢ
ĠÏĤÎ±Î¯Îµ ÏģÎ¿ÏĢ
ĠÎ® ÏĦÏĥÎ±
Î¯Îµ ÎºÎ¹ÏĢÎµ
Î¥Îķ ÎĽÎķ
ĠÎ½Î¿Î»Î»Î¬ Îľ
ĠÎ±Î¯Î¼ Î±Îļ
m s
Ïİ ÏĦÏĥÎ¹ÏģÎ±ÏĩÏħÎµ
ĠÏĤÎ¹ÎµÏĥÎ® Î»
ĠÏĤÎ¹ÎµÏĥÎ® Î¾ÏħÎ±
ĠÎŁ Îľ
ĠÏĮÎ¼ ÏĥÎ¹ÏĦÎ¹Î»Î¿ÏĢ
ĠÎ¹Î¿ ÏĩÏįÎ¿
Î³Î·Î² ÏģÎ¿ÎĿ
Î½Î± ÎµÎ½
ĠÎ¿Î½ÎµÎ¼ÏĮ ÏĩÏģÎµ
Î© ÎĿÎĵ
ÏįÎ¿Î» Îł
Ïī ÏĥÎ¬
ĠÏįÎ¿ÎºÎ¹ Î¼Î¿Î½Î¿ÎºÎ¹Î¿
Ġ, '
Î¯ ÏĪ
ĠÎ½ÏīÎ¯Îµ Î½Î±Î´
ĠÏħ ÏĦ
Ġ Î»ÏħÎ¿
sa B
na P
ÏĤÎµÏĦÎ·ÏĦÏĮ Î¹ÏģÎ·ÏĦÏĥÎ±ÏģÎ´
ÎºÎµÎ» ÎºÎµ
ĠÎ±Î¯ ÏĩÏģÎ±
ĠÎµÎ¼ÏħÎ¿ÏĥÎ¯ ÏĩÎµÎ½ÏħÏĥ
ĠÎ¯ÎµÎ¸ ÏħÎ¿Î»Î¿ÎºÎ±ÏģÎ±ÏĢ
Ġ000 1
ÏĦÏĥ ÏħÎµÏģ
Ġ6 0
Î¸ Î¹Î»
Î¹ÏĦÎ½Î± ÏĩÎ¹
Î± ÎŃÎ´Î¹
ĠÎ±Ïģ ÎĨ
ĠÏĤÎ¿Î¯ Î±ÏĦÏħÎµÎ»ÎµÏĦ
ĠÎ½ÏīÎ½ Î¯ÎµÎºÎµ
1 6
ĠÏĤÎ·ÏĥÎ·Ïģ ÏİÏĩ
Î¹ÏĢ Î±ÏĦÎ±Îº
ĠÎ¹ÏĥÏĦ Îķ
ni M
ĠÏĤÎŃ ÎºÏĬ
ĠÎ·Î½ ÏįÏĥÎ¿Î¼
ĠÏĤÎµ ÏīÏģÎ®
ÏĤÎ·ÏĥÎ· ÎºÎ¯Î¿Î¹Î´
Î¯Î´ ÏħÎ¿Î³Î±ÏģÏĦ
Î¹Î» Î±Îļ
ĠÎĻ Îļ
ĠÎ¿Î¹ÏģÎ®ÏĦÏĥ Î±ÎºÎ¹ÎĶ
ĠÏįÎ¿Ïĥ Î·ÎĻ
ÎĹ Îĵ
Ïħ Î½ÏİÎ¼Î¿
ĠÎ®Î¼ Î¿Î½Î±Î¹Î´
ĠÎ½Ïİ ÏĩÎ¿Î¹ÏģÎµÏĢ
ĠÎĿÎŁ Î¤Î£
te m
ÎºÎ±Î½ Î¹ÏĢ
b ol
Î³ÏīÎ³Î±Î¹ÏĢ Î·Î½
Îĳ Îĳ
ÏĥÎµ ÏĢÎµ
ĠÏĤÎ±Î»ÏĮ Î¹Îº
Î½ÎŃÎ¼ ÏħÎ¿Îº
ĠÎ½á½ ¸ÏĦ
ĠÎ®ÎºÎ¹ÏĦ Î¿Î¼Î·Î´
Î¹Î½ ÏĢ
Î±Î¯ Î¼Î¿Î½ÏħÏĦÏĥÎ±
ĠÏĤÎ±ÏĦÎ½Î¿ÏĢ ÎŃÎ»Î²
Î¹Ïģ Î±Ïĩ
ÏĢÎ·Î» Î¿ÏģÏĢ
ĠÏħÎ¿Î¯Î¼ ÏĥÎ¿ÎºÎ³Î±Îł
Î½Î¬ ÏĦÏĥÎ¹
ÎŃ Îĵ
ĠÎ½ÏħÎ¿ÏĦÏĢ ÏįÎ»Î±Îº
ĠÎ±Î¹Îµ ÏģÎŃÏĨÎ¹ÏģÎµÏĢ
ĠÎ¿ Î½Î±Î³ÏģÏĮ
Ġ Ã
Îĸ Î¤
2 002
Î½Î¿Î¼ Î·Î½Îľ
ĠÎ¿ÏģÏĦ ÎµÎ¼
ÏĩÎ¹ Î»ÎµÎ¾Îµ
ÏĨÏģÎ¿Î¼ Î¿
Î² Î±
ĠÎ±Ïĥ ÏįÎ¿
h pa
ĠÏħÎ¿Î¯ Î±ÎºÎ¹Î´
ĠÎ®ÎºÎ¿Î» ÏĢÎ¼Îµ
ĠÎ±Î¯ÎµÏĦ Î±ÏģÏĦÏĥÎºÎµ
ĠÎ·ÏĥÎ·ÏģÎ®ÏĦ Î½ÏħÏĥ
ÏĤÎ¹Îµ Î»ÏĮÏĢ
7 8
ĠÎµÎ½Î±Î¸ ÎŃÎł
ĠÏįÎ¿Î½ ÎµÎ¼
ÏĥÎ¹Ïģ ÏĦ
ĠÎ¹Îµ Î¯Î±ÏĦÏĨ
ĠÎ¿Î» ÏįÎ¾
Ġro vivruS
ĠÎ®Î³ÏħÏĨ Î¿ÏĢÎ±
ĠÎ±ÏĦÎ·ÏĦÏĮ Î½Îķ
Î¬Î¼ Î¿Î½
ĠÏĤÎ· ÎºÎ¹
ĠÎ½ÏīÏĦ Î½ÎŃÎ¸
Ġ6 4
ĠÏħÎ¿ÏĦ Î¬Î²Î²Î±Î£
ĠÎ±Î¹Î»Î¬ Î½Î±Îº
ĠÏĤÎ®ÎºÎ¹ Î»Î¿Î½ÏħÏĥ
ĠÎ¿ ÏĥÏĦ
ĠÎ¯ Î¿ÏģÎµ
Î±ÏĦ ÏīÏģÎŃ
ĠÎĻ ÎķÎł
ĠÏĤÏħÎ¿Î½ ÏįÎ´Î½Î¹Îº
Ġ3 5
ĠÎ¹Îµ ÏįÎ½ÎºÎ¹ÎµÎ´Î¿ÏĢÎ±
ÏģÎ¬ ÏĢÎ¼
ĠÏĮ Î½Î¹ÏĦÎµÏĨ
Ġ7 4
ĠÏĤÎµ Î¹ÏĦÏĥÎ¬ÏģÎµÏĦ
ĠÏĤÎ±Î¹Îµ Î»Î¬ÏĨÏĥÎĳ
ĠÏĤÏħÎ¿Î¯ Î±ÏĦÏħÎµÎ»ÎµÏĦ
Î½Î±Î³ ÏĨÎĳ
ÏħÎ¿Î»ÏĮ Î¸Î±Îº
ĠÎµÎ¼ÏħÎ¿ Î½Î¯Î³
ÏħÎµÏĨ ÏĮÏĢÎ±Î½Î±
ĠÎ±Î¼Î· ÏĨÎ¬ÏģÎ³
ĠÎ¿Î¹ÏģÎ®ÏĦ Î·Î»Î±Î»Î»ÏħÏĥ
Îľ Îĳ
ĠÎ±Î¯Î³Î¿Î»Î¿Î¼ Î¸Î±Î²
Î¯Î» Î¿ÏĢÎ¼ÏħÏĥ
ĠÎ½ÏİÏģ Î´Î½Î±
ĠÎ¿Î¼ Î¹Î¿ÏĦÎŃ
tne C
ĠÏĤÎµÏģ ÏĦÏĥ
l O
Î½Î±Î¸ Î¯ÏĢÎ±
ĠÎĳ ÎĽ
ÏħÏĦÎºÎ¹Î´ Î±Î¹ÎĶ
ĠÎ®Î½Î¹ Î¸Î·Î»Î±
ĠÎ±Î¯ Î¼Î¿Î½
Î· ÏģÏĦÎµÎ¼
Î¹Îº Î¿ÎĶ
ĠÎµÏĥ Î·Î½Î¯ÎºÎµÎŀ
Î¿ÏĦÎº Î¬ÏģÏĢ
ÏĥÎ¹ Î¼Î¿Î½
ĠÎ¿ ÏģÎµÏĦÏį
Î±Îº ÏģÎĳ
ĠÏĤÎ· ÎºÎ³Î¬Î½Î±
Î³Î¿ ÏĪÎ¬
ĠÎ¹Îµ Î¬Ïģ
Î¼Î±ÏģÎ³ÎµÎ³ Î³Îµ
Î±Ïģ Î²Îµ
ÏĪ Î¼Î¿Îº
ĠÎ¿ÏĦ ÏģÎ±ÏĦÎŃÏĦ
ĠÎ±Î¯Îµ ÏĩÎ¹Î¿ÏĦÎ£
ĠÎ¿Î¹Ïģ Î²Î¼ÎŃÎºÎµÎĶ
Î½Ïī Î¯Î»
ĠÎ½ÏħÎ¿ Î³ÏįÏĨ
Î±Î¹Î´ Î½Îķ
ĠÎ½ÏħÎ¿ÏĥÎ® ÏĦÎºÎ¿ÏĢÎ±
ÏĤÎ¿ÏĦÎ±Î¼ Î®Î»Î²Î¿ÏģÏĢ
ĠÏĤÎ®Ïģ ÎºÎ¹Î¼
ÏĥÎ¹ Îľ
ĠÎ¿ ÏĨÎ®ÏĪ
ĠÎ¬ÎºÎ¹ ÏĦÏĥÎ¹ÏģÎ¿
ĠÏĤ Î¼
Ġma rgatsnI
ĠÏĤÎ¹ÎµÏĥÎ¬ Î¹ÏĥÏħÎ¿ÏģÎ±ÏĢ
ĠÏĤÎ¿ÏĨ Î¬ÎºÏĥ
ĠÎ¹ÎµÏĦ ÏĦ
ĠÎ¹Îµ Î²ÏįÏģÎº
ÎµÏĨ Î±Îº
ÏĢÎŃÏģÏĢ Î¿Î¹Î¾Î±
ÏĨÏħÎ¿ ÏģÎ±ÎĴ
ĠÎ¿Î¹ÏĥÎ¬ÏĦÏĥ Î¿Î³ÏģÎµ
ÏĢÎ¼ Î±ÏĢÎ¼
ĠÎ¤ ÎļÎķ
ĠÎ¿Ïģ Ïī
Ġ2 0
Î½Ïİ Î½Î·Î¼
Ġ5 002
Î®Î» ÏīÏĥ
ĠÏĤÎµÏĦ Î±ÏĨÏĥÏĮÏģÏĢ
ÎŃÏģ Î¿Î¦
ÏĮÎ³Î·Ïģ Îĵ
ĠÎ®ÎºÎ± Î¹ÏĨÎ·ÏĪ
Î½Î¿Î´Îµ ÎºÎ±Î¼
Ïģ ÏįÎ¿ÏĦ
Ġh ca
ĠÏĤÎ·ÏĥÎµÎ¸ Î¯ÏĢÎµ
ĠÎ¹Îµ Î»Î»Î¬Î²
ĠÎ® Î³ÏģÎ¿
ĠÏįÎ¿ÎºÎ¹ÏĦ Î·ÎºÎ¹Î¿Î¹ÎĶ
ĠÎ® Î³Î±Î»Î»Î±ÏĦÎ½Î±
ÏĮÎ¼ ÏħÎ¸
Îķ Î§Î£
ĠÎ½Ïİ ÎºÎ±Î¹Ïģ
ĠÏįÎ¿ÎºÎ¹ÏĦ Î¿Î¼Î·Î´
ĠÎ¿Î¹Ïģ Î²Î¼ÎŃÎ¿ÎĿ
ĠÏĤÎ¿Î² ÏĮÏĨ
ÏīÏģÎ¸ÏģÎ¬Î¹Î´ Î±Î½Î±
Î¹ÏĦÏĥ Î¹ÏģÎ§
Î» Î¬Îº
Î¹ÏĦ Î¿ÏĢÏħ
Î½Î±Î¼ÏīÎ¸ ÎŁ
ĠÎ·ÏĥÎ·Î¯Î¿ÏĢ Î¿Î½Î±ÎºÎ¹
ĠÎµÏĥÎµÎ¸ ÎŃ
Î¿Ïģ Î±Ïĩ
ĠÎ®Ïĥ Î·Î¯Î¿ÏĢ
ĠÏħÎ¿ Î¬Î»Î¿ÎºÎ¹ÎĿ
Î·ÏĦÏĥ Î¹ÏģÎ±ÏĩÏħÎµ
ĠÎµÎ¼ÏįÎ¿Ïģ ÏīÎµÎ¸
ÏģÎµÏĥ ÏĥÎŃÎ¤
ÏģÎ¿Îº Î£
ÏīÏĦÏĥÎ¹ÏĢ Î¿ÏĦÎ±Î¼Î·ÏģÏĩ
Î¯Î» Î¿ÏģÎµÎĴ
Î¹ÎµÎ» ÎŃÎ¼
ĠÎ¹ÏĦ Î¬Î»Î±
Î½Î±Î¼ Î±Î¹ÎĶ
ĠÎ®ÎºÎ¹ ÏĩÏħÏĪ
ĠÏĮÎºÎ¹ Î´Î¹Î±ÏĢ
ĠÏĤÎµ Î²
Î¬Î» ÏħÎ¿ÏĢ
ĠÏĤÎ¿ÏģÏĦ ÎŃÎł
ĠÎ¬ Î½ÎµÏĦÏĥ
Î±Î¼ Î¹Ïĥ
ÏħÏĢ Î£
ĠÎ®ÎºÎ¹ÏĦ ÏĢÎ¿
ĠÏĤ Î¬Î½
ĠÎ±Î¯Îµ Î¸
Ġ9 4
ÏĤÏīÏĦ Î½Î¬Îł
Î·Ïģ Îº
ĠÎ±Î¯Îµ ÎºÎ¹Î±Î½ÏħÎ³
Î½Î¿ Î¸
o V
ÏįÎ¸ ÏħÎķ
ĠÎ¬ÎºÎ¹ Î´Î¹Î±ÏĢ
Î·Ïĥ Î·ÏĦÎ®Î¶ÏħÏĥ
ĠÏĤÏįÎ¿Î¼ ÏĥÎ¹ÏĦÎ±Î¼
ÏİÏģ Î¸Î½Îĳ
ÏĥÎ¯Î¼ ÏħÎ¸
ÏĤÎ¿ÏĦ Î½Î¿Î»Î»Î¬Î²Î¹ÏģÎµÏĢ
Î½Î¹ Î¼Îµ
Îĺ ÎĳÎļ
ĠÏĤÎ·Î» Î¬Î³ÎµÎľ
Î® Î³Ïī
ÏĤÏħÎ¿ Îº
ĠÎ±Ïģ Î®ÏĢ
ĠÎ®ÎºÎ¹ Î¶Î±Î¼
Î³Î¿Î»Î¿Î½ Î¿ÏģÏĩ
ĠÎµÏĪÎ±ÏģÎ³ ÎŃÏĢÏħ
0 52
Î¬ÏĦÏĥ Î¿ÏģÏĢÎ¼
Î½ ÏįÎ¿Î¼
ĠÎ¬Î¼ ÏģÎµÎ¸
V D
O T
Î¹Î» ÎŃ
ĠÏĤÎ®ÎºÎ¹ÏĦ Î¿Î¼Î·ÎĶ
Îľ ÎĶÎĵÎł
ÏħÎ¿ Î¶Îµ
ĠÏĤÎŃÏģÎ¿ÏĨ ÏĥÎ¹Îµ
ĠÎ½Î±Îº Î®ÏĢÎ¼
Î¹ÏĦ ÏħÎ±ÎĿ
Î±Î¯ Î¾Î±
ĠÎ½ÏİÎºÎ¹ Î½ÏĩÎµÏĦ
ĠÏĮ ÎºÎ±Î¹ÏĥÎ¿Î´Î±ÏģÎ±ÏĢ
ĠÎ®Î¼Î¿ÏģÎ´ Î½ÏħÏĥ
ĠÏĤá½ ¸
ĠÎ¹Îµ ÏįÎµÎ»ÏħÎ¿Î´
ÏĦ Î½Î¿
ĠÎ·ÏĥÎ·Î³ Î®Î´
ĠÎ¿ Î½Î¹
ÏħÏĨ ÏĥÎ±
ÏĮÎ½ ÏħÎ£
ĠÎ® Î³ÏħÎĳ
Î½Ïİ ÏĦÎ·
ĠÎ¿ÏģÏĦ Î½ÎŃÎ´
Î»Î± Îľ
Î½Î± ÏĢÎ±Îł
Î¹Î¾ Î·Î»
ĠÏĤÎ±Î¹Îµ Î´Î¬
ÏīÎ´ Î¯Îµ
ÏĥÏĦ Î±Îļ
ÎºÎ¹ Î¿Î½ÏħÏĥ
Î¬Î» Î¹Îº
Î±Î¼ Î¿Î´Î²Îµ
ÏĮÎ½ Î½ÎµÎ½ÏħÏĥ
ÏįÎµÏģÎµ Î¹Î´
ĠÏĤÎ¹ÎµÏĥÏĮÎ´ Î¹ÏĢÎµ
ĠÎŁ ÎĿÎŁÎľ
ĠÎ± Î»Î±Î³ÎµÎ¼
ĠÎķÎ¤ Îķ
ĠÎµ Î¹ÏģÏįÎļ
ĠÎ¬Ïģ Î·ÏĦÏĥÏħÎ±
ĠÏĤÎµÎ¯ Î»ÎµÎ³Î³Î±ÏĦÎ±Îº
ĠÎ¹ÎµÏĥ Î¯ÏĦ
Î¿Ïģ Î¿Îº
ĠÎ½Ïİ Î¹ÏĦ
ĠÎ·Ïĥ ÏħÎµÏĦÎ¯Î»Î¿ÏĢÎ¹ÏĦÎ½Î±
ÏįÎ± ÎĿ
ĠÎ±Î¹ Î½Î¯Î±Îº
ĠÏĤÎ¿ ÏĥÎŃÎ¼
ĠÎ·ÏĥÏī Î¯Î²
m c
ĠÎ¬Î½ ÏģÎµÏĢÎµÎ¾
ĠÎ· ÎºÎ¯ÎĿ
ÎºÏĥ ÏħÎ¿ÏĨ
Î® Î»Î»ÏħÏĥ
ÏģÏĮ Îł
Ġe c
Î¬Î»ÏħÎ¿ÏĦ Î½
ĠÏįÎ¿Î¼ÏĥÎ¹ Î½ÏīÎ³Î±ÏĦÎ½Î±
ÏĮÏģ ÏĨ
ĠÏģ ÎŃ
Î±Ïģ ÏįÎ¿Îº
ÏĮÎ» ÏħÎ±Îł
ÏģÎµÎ¼Î· ÏħÎµ
d nuo
Î¿ÏĨ Î¿Î»Î¿Î´
Î¿Î¹ Î¾Îĳ
Î·ÏĦ Ïİ
ĠÎ·ÏĥÎ±ÏĦ ÏĥÎ¬Î¹Î´
ÏĢÏĮÎºÎ¹ Î»Îµ
ĠÎ¿Î¼ Î·Ïĥ
Î·Ïģ Î¿ÏĨ
ĠÎ¿Î¹Ïģ ÏĮÏĢÎ¼Îµ
ĠÎ½ÏħÎ¿ ÏĩÏĥÎ¬ÏĦÎµÎ¼Î¼ÏħÏĥ
Î± Î¾Îµ
ĠÎ¹ÎµÏĥ Î¬ÏģÎ¿Î³Î±
ÏīÎ» ÎµÎ¼
Î½ÏīÎµÏĥ ÎŃÎ¸
ĠÏĤÎ±Î½ ÏĮÎºÎ¹Îµ
so tohp
Î½Î¿ÏĦÏĥÎ¹Ïĩ Î¬Î»ÏħÎ¿ÏĦ
ĠÏĤÎ® ÎºÏĬÎ±ÏĢÏīÏģÏħÎµ
ÏģÏĦÎ½Îµ ÎºÎ¹ÏĢÎµ
Î±ÏĦ Î½Îĳ
Ġs thgi
ÏħÎµÏĦÏĥ Î¬Î½Î±ÏĦÎµÎ¼
ĠÏĤÎ¿Îº ÏģÏįÎ¿Î¤
ĠÎ¬ÏģÎ¿ Î¸ÏĨ
ĠÏĤÎ¿Ïģ ÏħÎ¿Î³Î¯Ïĥ
Î·Î» ÎŃÎ¸
ÏĤ Î¿ÏģÏĢÏįÎļ
bmob sweN
Î±Î¼ ÏħÎ½Î®Î¼
ĠÏĤÎ® Î³Î±Î»Î»Î±
ikoo C
ĠÎ¹ÎµÎ¶Î¯ ÏĥÎ±ÏĨÎ¿ÏĢÎ±
ĠÏĤÎµÏĦ Î¬Î²Î¹ÏĢÎµ
ĠÏħÎ¿Î½ÎŃÎ¼ Î¹ÏģÎºÎµÎºÎ³ÏħÏĥ
Ġ) Â»
ÎµÏģ ÏħÎµ
ĠÎ±ÏĦ ÏİÏĨ
A L
Ġm oo
ĠÎ½ÏİÎºÎ¹ ÏĦÏĥÎ¹Î»Î±ÏĨÏĥÎ±
ĠÎ·ÏĥÏīÎ½Î³ Î¬Î¹Î´
ÏĮÎº ÏħÎ»Î³
ĠÎ¬ÏĦ ÎºÎ¿ÏĢÎ±
ĠÏįÎ¿ Î¹Î´
ĠÎ·ÏĦ ÏħÎµÏĦÏĥÎ¯ÏĢÎ±
ĠÎ¶ Î¿Ïģ
ĠÏĤ Î¿Î¼Î¹Ïĥ
Î¿Ïģ ÎŃÏĢÏħ
ĠÏĤÎ±Ïģ ÎŃÏĢ
ĠÎ¬ÏħÎ¿Î½Ïģ ÏħÎ¿ÏĦ
ĠÎ½Ïī ÏİÎ¶
Ġ Î¶ÏĦ
p my
Î¯Îµ Ïģ
ĠÎ·Î¼Î¹Ïĥ ÎŃÎ¸Î±Î¹Î´
ÏĤÏĮ ÎµÎĺ
ĠÎ½ÏħÎ¿Î¶Î¬ ÎµÏģÎ·ÏĢÎµ
Î¹Î» Îļ
Î®ÎºÎ¹ Î³Î¿Î»
Î¯Ïģ ÏħÎļ
ĠÏħÎ¿Î´ÏĮ Î¾Îµ
Î¿ÏĦ ÎµÏĦ
Î¹Î³ Î±ÏĢ
âĢ Ķ
Ġda eR
ĠÎ¬ ÎºÎ±Î¹Ïģ
Î±Î¯Î» Î±ÏģÎ±ÏĢ
Î·ÏĪ ÎŃÎºÏĥ
Î¿Î½ Î¿ÏĢ
ĠÏĤÎ·Ïĥ ÏħÎµÏĦÎ¯Î»Î¿ÏĢÎ¹ÏĦÎ½Î±
ÏĤÎµÎ¹Îµ Î³ÏģÎŃÎ½Îµ
Î® Î³Î±Î»Î»Î±
ÏĤ Î±ÏģÏĦ
ĠÎ½ÏħÎ¿Î½Î¯ÎµÎ¼ Î±ÏģÎ±ÏĢ
ĠÎ¿ÏĦÏĥ ÏīÎ½Î³Î¬
Î¹Î¼ Î±
ĠÎ½á¿¶ ÏĦ
ĠÎ¯Îµ ÏģÎ¹ÎµÏĩÎ¹ÏĢÎµ
ÏįÏĦ Î½
ÏħÎ¿ Î¯Î±
ĠÏĤÎ¿ÏĨ Ïį
Ġ7 0
Î½ÏİÎºÎ¹ Î±Î½ÏħÎ³
ÏĩÏĥ ÎŃÎĽ
ĠÎµ ÏģÎ²
ĠÎ·Î» Ïį
Î·ÏĦ Î¯Î»Î¿ÏĢ
ĠÏĤÎµ ÏĩÎ¬Î¼
ÏĦ ÏīÏģ
ĠÏĤÎ±ÏģÎŃÏĦ Î·Î¼
Î·Î½ Î½ÎµÎĵ
Î·Î¸ÏįÎ¿Î»Î¿Îº Îĳ
ĠÎ·ÏĥÎ· ÏĨÎ¬ÏģÎ³
ĠÏĤÎ¿ÏĦÎ±Î¼ ÏįÎµÏģ
Î¿Î¹Î» ÏįÎ¿Î²Î¼ÏħÎ£
ĠÎ¬ Î²
Î¹Î±ÏĦÎµ Î¶
ĠÏĤÎ±Î¯ÏĥÎ±Î³ÏģÎµ Î¾ÎµÏĢÎµ
Î®ÏĨÎ¿ÏģÏĦÏĥ Î±ÏĦÎ±Îº
Î±ÏģÏĢ Î¿Î¼Î·Î´
ĠÎ¿Î¯ Î±ÏĩÎ¿ÏģÏĦ
Î® ÏĨÎµ
ĠÎµ Î¹ÏģÏįÎº
ĠÎ±Î¼ ÎµÎ¸
Ġe di
Î¹Î»Î¬ ÏĨÏĥÎĳ
ĠÎ®Î½Î¿Î¼ Î¿ÏĢÏħ
ĠÎ·Ïĥ ÏħÎµÏĦÎ¬Î¼Î³Î±ÏģÏĢÎ±Î¹Î´
re puS
ÏįÎµÎ» Î¿ÎºÏĥÏħÎ´
ÏĤ Î±ÏĢ
ÏĤÎ· Î¾Î¬ÏĦ
ĠÎ½Î±Ïĥ Î·Ïģ
ĠÎ±Î¼ Î¬ÏĢÎ¼ÎŁ
ÏĤÎ·Ïĥ Î¹Ïģ
ĠÎ±Î¼ Î¼Î¬ÏģÎ³
Î£ ÎŁÎ¤
te M
ÏģÎµ ÏĢÎ±
ĠÎ± ÎºÎŃ
ÏħÏĩ Î±ÏĢ
ĠÏĤÎ¹ÎµÏĥÎ® Î¹Î¿ÏĢÎ¿Î´Î¹Îµ
ÏĤ Î¿Ïĥ
Î£ÎŁ ÎĶ
Ïį Îĺ
ĠÎ±ÏĦ ÎµÎ½Î¬
á½ ħ
ÏĮÎ» Î¿Ïģ
ĠÏĤÎµÏĦ ÏģÏĮÏĢ
Î¿Î´Î¿ÏĦÎ±Î¼ Î·Ïĥ
ĠÎµÏĪ ÏĮÏĢÎ±
ĠÎ¹ÎµÏĥÎ® Î¹Î¿ÏĢ
ĠÎ·ÎºÎ®Î¸ ÏĥÎ¿ÏģÏĢ
ĠÏĤÎµÏĦ Î¬ÏģÎº
Î¹ÏģÏĦ ÎµÎ¼
Î·Ïĥ ÏīÎ¯
la G
ĠÏįÎ¿ÎºÎ¹ Î½Î¸Îµ
ĠÎ½ Î±ÏĢÎ¼
Î¬Î¹ Î¾ÎµÎ´
ĠÎ¿ Î¹ÎµÏĦÎŃÏĢÎµ
ĠÏĤÎ®ÎºÎ¹ Î³Î·ÏĦÎ±ÏģÏĦÏĥ
Î±Îº Î±Î¼ÏģÎ¬ÏĨ
ĠÎ±Ïģ Î®ÏĦÎ·Î½Î¹Îº
ĠÏĮ ÏĦÏĥÎ¹ÏģÏīÏĩÎµÎ¾
Î¯ÏģÎº ÏħÎµÎ¹Î´
o tuA
ĠÎ¬ÎºÎ¹ÏĦ Î±ÏĦÏĥÎ¹ÏģÎµÏĢ
ĠÏĤÎ¿Î¼ Î®Î´
ĠÎ·Î½ ÏįÏĥÎ¿Î¹Î±ÎºÎ¹Î´
ĠÎ±Î¼ ÏīÎ¯
ĠÏĤÎŃ Î»Î·Î¼Î±Ïĩ
) ;
ĠÎµÎ¼ÏħÎ¿ Î½Î¯Î´
ĠÏħÎ¿Î» Î¯Î¼ÎŁ
ĠÎ·ÏĥÎ¹ ÏĩÎŃÎ½ÏħÏĥ
ĠÎ½Î±ÏĦÏĥÎ±Î¼ Î®
ÏħÎ¿Î¼ ÏĮÏģÎ´
Î¹Î» ÏĨ
Î¿Î½Î± ÏģÎ±ÏĢ
ĠÎ½ÏįÎ¿ÏĦ Î·Î¶Î±Î½Î±
Î¿Î¹Ïĥ Î¯Î±Î»ÏĢ
le s
ĠÏĤÎµÎ½Ïİ Î³Îĳ
Î³Ïģ ÏįÎ¿ÏĦ
Ġ3 0
Î¬Î¼ ÏħÎĺ
Î·ÏĢ Ïĥ
Ġtse T
ÏİÏģ Î´
ĠD C
Î¹ Î¶ÏĦ
ĠÎ·Î½ÎŃÎ¼ Î·ÏĦ
ĠÎ·ÏĥÎ· ÏįÎ³Î³Îµ
ÏħÎ¿Î¶Îµ Î½ÎµÎĴ
ĠÎ¿ÏĦ Î½
ĠÏĤÎ·Ïĥ Î·ÏĦÏĮÎ´Î¿ÏĦÎ±Î¼Î·ÏģÏĩ
ĠÏĮÏĦ Î±ÎºÎµ
ĠÏħÎ¿Î» Î¯Î¼Î¿
ÏĤÎ·Ïĥ ÏħÎµÎ´Î¯Î±ÏĢÎºÎķ
Î±Î¸ ÏĨÎŃ
ÎºÎ¹ Î¿Î¹ÎĶ
ĠÎ±Î¯ÎµÏĦ Î·Î¸
Î¹Î¼Î¿Î½ Î¿ÏģÎ·Î»Îº
m rof
ÏįÎ¿Î½ ÏģÎ±
ĠÎ¹ÏģÎ®ÏĦ Î¿ÏĢ
ĠÏĤÎ¹ÎµÏĪÎ®Î» ÏĥÎ¿ÏģÏĢ
Î¹Ïĥ ÏįÎ¿Î»ÏĢ
ĠÎ¿Î¹Ïģ ÏĮÏĦÎ±Î¹ÏĦÏĥÎµ
Î·Ïĥ ÏīÏĦ
Î½Î¹Î¿ÎºÎ¹ ÏĢÎµ
ĠÏĤÎµÎ½Ïİ Î¹Î±
ĠÎµÏĥ Î·Î¼
Ġni a
ĠÏĤÏħÎ¿Ïģ ÎĮ
ĠÎ¹Î±ÏĦÎ½ Î±ÏĦÏĥÎ¯
ĠÎ½ÏīÎ¯Îµ Î»Î¿ÏĩÏĥ
ÏİÏģ Îķ
ĠÎ· ÏĢÎ¹Î¿Î»ÏĮÏĢÏħ
Î¿ÎºÏĥÎ¯ÏĢÎµ Î¹ÏĩÏģÎĳ
Î½ÏĩÎµÏĦ Î¿Î³Î¿ÎĽ
ĠÎ¹ Î±
Î±Î´ ÏįÎ¿ÏĢ
Ġa r
ĠÎ±ÏĦ Î½Î¿ÏģÎŃÏĨÎ±Î¹Î´Î½Îµ
Î¿ Î¹ÏĦÎ¬Î¼ÏīÎ´
ĠÏĤÏįÎ¿ÎºÎ¹ ÏģÎµÎ¼
ĠÎ±Î¯Î» Î¿ÎºÏĥÏħÎ´
ĠÎ±Î» ÏįÎ¿
m E
Î±Î» Îĳ
ĠÎ±ÏĥÎ¬ Î½Î±
Î»ÏĮ ÏĦ
ÏĤÏİÏĩÏħÏĦÏĥ ÏħÎĶ
ÎĳÎ¤ ÎĿÎĳ
ĠÏĮÎºÎ¹ Î½Î¿Î¼Î·ÏĦÏĥÎ¹ÏĢÎµ
ĠÎ½ÏİÏĦ Î±Î»ÎµÏĢ
Î½Î± Î¾ÎŃÎ»Îĳ
Î²Ïĥ ÎŃÏģÏĢ
ĠÎ¹Îµ Î½Ïĩ
ĠÎµÏĥ Î±
ÏĤÎ¬ ÏģÎµÏĦÏĥÎ¹ÏģÎĳ
ĠÎ¹Î±ÏĦÎµÎ¶ ÏĮÎ¼ÏģÎ±ÏĨÎµ
ĠÎ±Î¼Î·Î¸ Î½ÏįÏĥ
ÏĦ Î¯Î§
Ġs pi
ĠÏĤÎ¿Î» ÎµÎ³Î³Î¬
Î½Î¹Îº Î±ÏĦÎµÎ¼
ĠÎ¹Î±ÏĦÎ¯Îµ Î³ÏģÏħÎ¿Î¹Î¼Î·Î´
D P
ÏħÏĩ Î¿ÏĦÎ±Îº
ÎĽ ÎĻ
á¼ ¶
ĠÎ¹Î±ÏĦÎµ ÏįÎ½ÎºÎ¹ÎµÎ´Î¿ÏĢÎ±
ÏĬ Î±Î¼
Î¯Ïģ Î±Î³
ÏįÎ¿Î¼ ÏĥÎ¹ÏĦÎ¹Î»Î¿ÏĢ
ĠÎ½ Î±Î½Î±
ĠÏĤÎ¿Î¹Ïģ ÏįÎļ
ĠÏĤÎ¹ÎµÏĥÎ® ÏģÏĦÎµÎ¼
ÏģÎ¬ÏĢ Îľ
ĠÏĤÎ±ÏĦÎ½Î¿ Î¶Î¬Î²
ÎµÎ¼ÏħÎ¿ ÏĩÎŃ
Î¿Î¼Î¿Î½ Î¿ÎºÎ¹Î¿
ĠÏĤÎ® Î³ÏħÎĳ
Î±Ïģ Î¿Î³Î±
ÎŃÏĦÎ±Îº Î³Îµ
Î³Ïģ ÎĨ
ĠÏįÎ¿ÎºÎ¹ÏĦ ÏħÎµÎ´Î¹Î±ÏĢÎºÎµ
ĠÏĮÎºÏĬ Î±Î½Î·Î¸Î±Î½Î±Îł
ĠÏĮ Î³ÏģÎµÎ½Îµ
ĠÏĮÎºÎ¹ ÏģÎ¿ÏĢÎ¼Îµ
Î¿Ïĩ Î³ÎµÎ»ÎŃ
i D
.) .
ĠÎ¹Îµ ÏİÏģÏĦ
ÏĥÎ¹ÏĢ ÏĮÎ¹Î¾Î±
ĠÎ±Î¯Î±Î´ ÏħÎ¿ÏĢÏĥ
ĠÎ½ÏİÏĦÏĥ Î·ÏģÏĩ
ĠÎ½Î±Ïĥ ÏįÎ¿Î½
Î® ÏĩÏħÏĪ
ÏĮÎºÎ¹ÏĦ Î½Î±Î¼Î·Ïĥ
ĠÏįÎ¿Î¼ÏĥÎ¹ Î½Î±Î³ÏģÎ¿
ĠÎ¹ Î²
ĠÏĤ Î±ÏĢÎ¼
ĠÏĤÎ·Ïĥ Î±Î¯
ĠÏĤÎ® Î»Î±Îº
ĠÎ·ÏĥÎ·Î¯Î¿ÏĢÎ¿ÏĦ Î·Î½Î¹Îº
ĠÎ® Î³ÏīÎ³Î±ÏĦÎ±Îº
Î¿ÏģÎµÏĦ ÏħÎµÎĶ
Î±Î½ Î½ÎµÎ³
ĠÏĤÎ·ÏĥÎ±ÏĦ ÎºÎŃ
ÏĤÎ® ÎºÎ±Î¹ÏģÏħÎļ
Ġ4 0
ĠÏĤÎ±Î¯ Î¼Î¿Î½ÏħÏĦÏĥÎĳ
Î»ÎµÏĦ ÏħÎµ
ĠÎ¼ ÏħÎ¿ÏĢÎ¼Î»Î¬
ÏİÏģ ÏħÎºÎ±
ÏįÎ¿ÏĢ Îľ
ĠÏĮ Î±Î½
ÏĤÎ±ÏĦÎ·ÏĦÏĮ ÎºÎ¹
ĠÏĤÏĮÎ½Îµ ÏĨÎ±
6 8
ĠÎ½ÏħÎ¿Î¸ Î¬Î¼
Î±Î¸ Î±Îļ
ĠÎ¿ ÎºÎ±Î¹ÏģÏįÎºÎ¿ÏĦÎ±Î²Î²Î±Î£
ĠÎ½á½´ ÏĦ
Ġra tS
ĠÎ¹ÎµÏĥÎ® ÏģÎ¿ÏĨÎ¿Î»ÎºÏħÎº
Î¬ ÏģÎµÎ½
Î»Î· Î»Î»Î¬
ĠÏĤÎ¿ÏĦÎ±Î¼ Ïİ
ĠÎµÎ¼ÏħÎ¿ ÏįÎµÏĦÏĥÎ¹ÏĢ
ĠÎ½ÏħÎ¿ÏĥÎ® Î³Î·Î´Î¿
Î±ÏĦ ÎµÏĢ
ĠÎ±Î¼ÏīÏģÎŃ Î¹ÏĨÎ±
ÏģÎµÏĨ Î¬ÏĦÎ±Îº
ĠÎ±Î¼ Î·Î½
ÎºÎ± Î£
Î²Îµ ÎĽ
Î® Î¿Î³Î¿ÏĢÎ±
Î±Î½ Î½ÎµÎ³ÏįÎ¿ÏĦÏĥÎ¹ÏģÎ§
ĠÎ½Ïī Î»ÏĢ
ĠÏĤÎ± ÎŃÏģÎº
ĠÏĤÎ¿Î¸ Î®ÏĦÏĥ
Î¹Îµ ÏģÎŃÏĨÎ±Î½Î±
ĠÎ·ÏĦÏĥ Î¹ÏģÎ¬ÏĩÏħÎµ
ĠÏĮ Î³ÏħÎ¶ÏįÏĥ
ÏħÎ¼ Îĳ
ĠÏĤÎµÎ´Î¯ ÏģÎµÎ¼Î·ÏĨÎµ
Î±Î¹Î´ ÎŃÏĩÏĥ
Ġb nbriA
ĠÎ±Î¯ÎµÎ¼ Î±ÏĦ
ÏĤÎ¹ÎµÏĥ ÏįÎ»
ÎµÎ¼ÏħÎ¿ Î¶Î¯
Î¯ Î¿ÏĦÏħÎ±
ĠÎ±ÏĦÎ±Î¼Î³Î¯ÎµÎ´ Î±ÏģÎ±ÏĢ
ĠÏĤÎ±ÏĦÎ½ÏİÎ»Î±Îº Î¿ÏģÏĢ
Î¹ Î³Î³ÎŃÏĥÎ¿ÏģÏĢ
ĠÏħÎ¿ÏģÏĦ Î½ÎŃÎº
sser P
ma G
Î¹ÏģÎºÎ± Î½Î±
Î½Î±ÏĢ ÏįÏģ
Î·ÏĢ ÏĮÎºÎ¹
ĠÎ®ÎºÎ¹ ÏģÎ¿ÏĢÎ¼Îµ
ÎµÏĦÏĥ Î¿ÏģÏĢ
ĠÎ± ÏģÎ±Î¸Î¬ÎºÎµÎ¾
ĠÎ·ÎºÎ®Î¸ Î¿Î¹Î»Î²Î¹ÎĴ
Î¹Î±ÏĦÎµ Î½ÏħÏĥ
á½ ĳ
ĠÏĤÏħÎ¿ Î²
Î»ÎµÎ´ Î¬Î½ÏħÏĥ
Î¿Î½ ÎµÎ¾
ĠÏĤÎ±ÏĦÎ½Î¿ ÏĩÎĪ
ĠÎµÏĦ Î»Î¯ÎµÏĦÎ£
Î½ÏīÎ´Î¯ ÏģÎµÎ¼Î·ÏĨÎµ
ĠÏĤÎµ Î»Î»ÎŃÎ¾ÏħÏģÎĴ
ĠÎ±Î¯ Î³Î±Î½Î±Îł
Î¹Ïģ Î·Î¼ÎºÎµÏĦ
Î¹Î» Î¹Î¿Îº
ÏĢÏħ Î»Î±ÎºÎ¿ÏĢÎ±
Î¹ Î¿Î½Î±
ĠÏĤÏħÎ¿ Î½ÏĮÏĦ
ĠÎµÎºÎ·ÏĦ ÏįÎµÎ¹ÏĥÎ¿Î¼Î·Î´
Ïĥ ÏīÎ»
Ïĥ ÎµÎ»Î±Îº
ÏģÏīÏĩ Î±ÏģÎ±ÏĢ
ĠÏĤÏĮ ÎºÎ¹Î¼
ÏĤÎ· Î½ÏİÎ¶
ĠÏĤÎ·Î½ ÏįÏĥÎ¿Î¹Î±ÎºÎ¹ÎĶ
ĠÎ±ÏĦÎ±Î¼Ïİ ÏģÎµÎ¼Î·Î¾
Î±Î½ Î±ÏĦÎ½Î±
ÏħÎ¿ÏĦ Î½
Ġs weN
Î³ÏģÏįÎ¿ Î²Î¼
Ġ lo
Î½Î¿Î»Î»Î±Î² Î¹ÏģÎµÎł
ÎķÎ¡ Îł
Î¹Î±ÏĢ Îĳ
ĠÏĤÎµÎ¹Î¿ÏĢ ÏĮ
ĠÎ±Î¯ Î¼Î¿Î½ÏħÏĦÏĥÎĳ
Î¹Î¿Î½ ÎµÎ¼ÏĮ
ÏħÎ¿ Î½Î¯ÏĦ
ÏĤÎ¹Îµ ÏĥÎŃ
ĠÏĤÎ±ÏĦÎ½Ïİ Î¸Î±ÏĢÏĥÎ¿ÏģÏĢ
ÎºÎ±Î¼ Î¿ÏģÏĦ
ĠÎ·ÏĥÎ·ÏģÏİÎµÎ¸ Î±Î½Î±
t rA
ĠÎ½ÏīÎµÎ¾ Î¬ÏĦÎ½ÏħÏĥ
ĠÎµ Î»Î¯ÏĨ
Î¯ÎµÎº ÏħÎĽ
Î¹Î¿ Î¦
Î¯ÏĦ Î½Î¿ÏĢ
a ne
ĠÎ·ÏĥÎ·Î¾ ÏįÎĳ
ÏİÏģÏĩ Î¿ÏĢÎ±
Ġs al
Î¸Î±Î² Î±Î½Î±
ĠÏįÎ¿Î¼ Î¿Î½
ĠÏĤÎ·Ïĥ Î·Î»ÏİÏĢ
Î¿Î½ Î·Î¼
ĠÎ¹Î±ÏĦÎµÏįÎµÏģ Î¿Î³Î±ÏĢÎĳ
Î¶Îµ Î½Î¹Îº
ĠÎ¿ ÏģÎ¬
ÏĢ Î¯
ĠÎ¿Î¯ Î±ÏĩÏħÏĦ
Ġsse nisu
Îµ ÏĥÎ±
Î¹ Î¶Î¤
ĠÎ¬Î¹ ÏģÎµÎ¼
ÏĥÎ¬ Î½Î±
ÎĽÎķ Îĵ
ĠÏĤÎµÏĦ Î¬ÏĦÎ±ÏĢ
ĠÏħÎ¿Î¼ Î¬Î³
ÏĮÏĦ ÏĢÎµÎ»
ĠÎ¹Îµ ÏįÏĩÏĥÎ¹Î½Îµ
ÏĤ Î¿ÏĦÏĥ
ÏĨÎµÎ½ Î½ÏįÏĥ
ĠÏħÎ¿Î´ Î¬Î»Îº
ĠÎĳ ÎĽÎĽÎĳ
ÏħÎ¼Î¼ Î·Î»ÏĢ
ÏĤÎ¿ Î¹Ïģ
ĠÎ¿Î½ÎŃÎ¼ ÏīÎ½ÎĹ
ĠÎµÏĥÎ· ÎºÎ¯Î½
ĠÏĤÎŃ ÏĢÎ¼Î¿ÏĢÎºÎµ
ÏĮÏģ ÏĢÎµ
Î½ÏįÎ¿ Î¸Î·
ĠÏĤÏīÏĥÎŃÎ¼ Îĳ
Î±Ïĩ Î¯Îµ
Î½Î±ÏĨÎ® ÏģÎµÏĢ
ĠÎ·ÏĥÎ±ÏĨ ÏĮÏĢÎĳ
Î¬ ÎºÎ¹Î¼
ÏĤÎµÎ¹Îµ ÏģÎŃÎ¼Î¿ÏĦÏĢÎµÎ»
Î¿Ïĥ ÏħÏģÎ§
Î½Ïī ÎºÎ±ÎĽ
Î¿Î½ ÏīÏĨÎŃÎ»Î·ÏĦ
Î¿ÏĦ ÎŃÎ¼
ĠÎµÏĦÎµ Î½Ïİ
Î½Ïİ Î¶ÎµÏĢÎ±ÏģÏĦ
Î¹ÏĦ Î£
Î±Îº ÏĥÎ±Î´Î¹Î´
Î¬ Î¨
ĠÏĤÎµÏĦ Î¬Î³ÏģÎµ
ĠÏĤÎ¬ÏģÎ¿ÏĨ Î±Î½Î±
Î·Î»Î¸ Î¬
Î·Î¼ ÏħÎ¸Î¹ÏĢÎµ
Î¯Îµ Î³Îµ
ÏĤÎµÏĦ Î½Î¿
ĠÎµÎ¼ÏħÎ¿ Î½Î¬Î²Î¼Î±Î»
Ïİ Îĸ
ÏĤÏĮ Î³ÏģÏħÎ¿ÏĢÏħÎ¸ÏīÏģÏĢ
ÎµÏĥ ÏīÎ»Î®Î´
ÎµÏĥ ÏĦÎ½Î¬
Î· Î½Ïİ
ÏĮÏĦ Î±
Î¯Î»Î¿ Î³ÏģÎĳ
ĠÎ½Ïī Î¯Î»Î²Î¹Î²
ĠÎ±Î½ Î¬Î»ÏĢ
Î¯Î» ÏħÏĦ
ĠÎ½Ïİ Î½Î±ÏĢÎ±Î´
ĠÎ± Î³Î¯ÎĽ
ĠÏħÎ¿ Î¯ÎµÏĩÎ¿Î´Î¿Î½ÎµÎ¾
ĠÎ½ ÏħÏĥ
ÏħÎ¿ Î¼ÏĮÎ½
ÏĥÎ±ÏĨ ÏĮÏĢÎ±
ĠÏĤÏĮÎºÎ¹ ÏĥÎ±Î²
ĠÎµÏĦÏĥÎ±Î¼ÏĮ ÎºÏĥÎ¹ÏģÎ²
Î¹Î» Î®
ĠÎ¹ÎµÏĥÎ® Î¹Î¿ÏĢÎ¿ÏĦÎ±Î¼Î³Î±ÏģÏĢ
ĠÎ½ ÏħÎ½
ĠÏĤÎ¹ÎµÏĥÎ® Î¹Î¿ÏĢÎ¿ÏĦÎ·Î½Î¹Îº
ĠÎ¹Î±ÏĦÎ½Î¿ ÏĩÎŃ
ÎµÎ¼ Î¬Î½ÏħÎĶ
ĠÎ®Î»Î¿Î² ÏĥÎ¹Îµ
ĠÎ· Î³Î¿Î»Î¬Î½Î±
Î® ÎºÎ±Î»ÏħÏĨ
Î¦ ÎŁÎ¡
ĠÏħÎ¿Î¯Îµ ÏģÎ¿ÎĴ
Ïĥ Î¿Îł
ÎµÎ¹Î² Î¿Î£
Î¹Î¶ ÎŃÏĢÎ±ÏģÏĦ
ĠÏĤÎ·Ïĥ Î·Î¾ÏįÎ±
Î¬Î¹ Î³ÏģÏīÎµÎĵ
Î® ÏĦÏĥÎ¹Î³Î¿Î»Î¿ÏĢÏħ
Î³ Î±Î½
ĠÏĤÎ·Î¾ ÏģÎ±Î½ÎŃ
ĠÏĮÏĦ Î±ÏģÏĦÏĥ
Î½Î±ÏĦÏĥÎ½Ïī ÎºÎ±ÏĢÎ±Îł
ĠÎ¹ Î½ÏĮÎ¼
ĠÎ·Î»Î¬ ÏĩÎ¹Îľ
ĠÎ±Ïĥ Î¹ÏģÎ¬ÎĽ
ĠÎ¬ÎºÎ¹ Î½Î±ÏĩÎ±Î»
3 7
ÏİÏģ ÏģÎ±
Î®Î»Î² Î¿ÏģÎł
Î·Ïĥ Î¬ÏĨ
Î¶Î¹ Î¡
ĠÎ±Î¯ÎµÏĦ Î¹Î»Î¿ÏĢ
ĠÏĤÎ· ÏģÎ¬
ÏģÎµÏĨÎ±Î½Î± Î¿ÏģÏĢ
ĠÎ±Î¼ ÏįÎ±Î¸
ĠÏĤÎŃ Î½Î·ÎºÏĥ
Î¬Î» Î±ÏĢ
ĠÎ±ÏĦÎ±Î¼ÏĥÎ¬ ÏģÎµÏĢÎ¼ÏħÏĥ
ÎºÎ³ÎµÎ» ÎŃÎ¾Îµ
ĠÎ·ÏĦ ÎºÎ¯ÎµÎ´
Î¡ ÎĳÎļ
Ġte k
ĠÎ¹ÎµÏĥÏİ Ïĥ
tiw t
ÏĨ ÏģÎµÎ´Î±
Î¯Ïģ Î¿ÏĦÎ½Î±Î£
ÏģÎµÏĢÎ¼ Î±Î»
Î·Ïĥ Î±Î²
Î·Ïĥ Î·ÏĦÎ®Î¶Î±Î½Î±
ĠÏĤÏħÎ¿Î´ÏĮ Î¸ÎµÎ¼
ÏĮÏģ Î¸ÏħÏģÎµ
ĠÎ±Î¯Ïĥ Î·ÏĦÎºÎ¿Î¹Î´Î¹
Î±Î½ÏĮ ÎµÎ»ÏĢ
ĠÎµÏĥÎ¹Ïģ ÏİÎ½Î³
ÏĤÎµÎ´ Î¬Î½Î¿Î¼
o R
ĠÎ·ÏĥÎ¹ÏģÎº Î¬Î¹Î´
ĠÎ¿ÏĦ ÏİÏģÎł
3 8
ÏĮ Î½Î±ÏģÏħÎ¿
ĠÎ¿Î» ÎĮ
Î¹Î±Îº Î¯ÏĢÎµ
Î®Î»Î¸ Î±ÏĦÏīÏģÎł
ĠÎĹ ÎĿ
ĠÏĤÎ±Î¯Ïĥ ÎµÏģÎ·ÏĢÎ¥
ĠÏīÏĥÎ¯ Îł
ĠÎ½ÏīÎ½ÎŃÎ¼ Î¹ÏģÎºÎµÎºÎ³ÏħÏĥ
ĠÎ½ÏİÎºÎ¹ Î³Î¿Î»
ÎºÎ±Î» Î±Î³
ĠÏĤÎ¹ÎµÎ¾Î¯ÎµÎ´ Î½Îµ
ÏĥÎ¬ Î½Îĳ
Î±Î½ Î½Î±Î¹Îĵ
ÏĥÎµ Î»ÎµÏĦ
s ol
ÏĦÏĥ Î·Î½
ĠÏĤÎ¹ÎµÏĥ Î¯Ïģ
Ïį Î»ÏĢ
ĠÏĤÎµÎ¯Î» Î¹Î¼Î¿Î½ÏħÏĥ
Î»Î· Î¤
Î½Î¹Î¼Îµ Î£
Î´ ÎµÎ¼Î·
ĠA F
ĠÎ½Î±Ïĥ ÎµÎ¸
Ġsne htA
Î´Î±Î» ÏĮ
ÏħÎ» Î¿Î¼
ĠÏĤÎ±ÏĦÎ·ÏĦÏĮ Î½Î¹Î¿Îº
.. âĢ¦
ĠÏĤÎ¿ÏĦÎ±Î¼ Î³
so R
Î±Î½Î¯ Î¶ÏħÎ¿Îº
ĠÏĤÎ® ÎºÎ±Î¹ÎµÏģÎµÏĨÎ¹ÏģÎµÎł
ĠÎ¿Î½ÎŃÎ¼ ÏĥÎ¹ÏĦ
ĠÎ¹Î» ÎŃÎ¼
ĠÎ±ÏĦÎ·ÏĦÏĮÎºÎ¹ ÏĦÏĥ
Î¹Î» Îĳ
Ïİ Î²
ĠÏĤÎ¿ÏĦÎ±Î¼ Î®Î»Î²Î¿ÏģÏĢ
Î¹Î¿Î¼ ÏĮÏģÎ±ÏĢ
ĠÏĤÎ®ÎºÎ¹ ÏģÏĦÎ±Î¹
ĠÏĤÎ¿ÏĦÎ±Î¼ ÏįÏģÎ´ÎĻ
Î± Î¹ÏĦÎ¬Î¼ÏīÎ´
Î±Î¹Ïģ ÏĮ
ĠÎ¯Î¿ÎºÎ¹ ÏģÎµÎ¼
ĠÎ¹Î¿Î½ ÏħÎ¸ÏįÎµÏĢÏħ
vitse F
ĠÎ±Î¹ Î±Î»Î¬ÏĨÎµÎº
ĠÎ®ÎºÎ¹ ÏĦÏĥÎ¹ÏģÎ¿
ÏĤÏĮ Î±Î»
ÏħÎ¿ Î¬
Î¿Î» ÏīÎº
Î± Î¯ÏĦÎµ
Î½Î± Î»ÏĢ
Ïħ Î»Î±
Î¯Ïĥ Î·ÏĦÎµ
ĠÎ© ÎĶÎķ
ĠÎ¹Î±ÏĦÎµÎ¸Î¯ÏĦ Î±Î¹Î´
ĠÎ½Ïī Î¯ÏĨÎ·ÏĪÎ¿ÏĢÏħ
ĠÏĤÎŃ ÎºÎ±Î»ÏħÏĨ
ÏĤÎ±Î¯ ÎºÎ¹Î»Î·
ĠÏħÎ¿Î´ÏĮ ÏĥÎ¹Îµ
ĠÎ½ ÏĮÏģ
ÏĤÎŃ Î³Î¿Î»Î¹ÏĢÎµ
ÎµÏĦÏĥÏī Î»Î»Î¬
ĠÎ·Î½ Î¼Î¯Î»
Î¼ÏĮÏĦ Î¿Î½Î¹Î±Îº
ĠÎ½ÏīÏĦÎ®ÏĦ Î¿Î¹
Î½ÏĢ Î¬Îº
Î±Î» Îķ
ÎµÏĦ Î±Îļ
tra voN
ĠÎµÎ¼ÏįÎ¿Î»Î±Îº Î±ÏģÎ±Îł
ĠÎ¹ÎµÎ¾Î¯ÎµÎ´ Î¿ÏĢÎ±
ÎĵÎ¡ Î¥ÎŁ
ĠÂ» !
ĠÎ¹Î±ÏĦÎµ Î¯ÎµÎ»ÎºÎ¿ÏĢÎ±
ĠÎ® Î²Î¹ÏģÎºÎ±
Î¾Î¿ÏĦ ÎºÎµ
ĠÏĤÎµÏĦ ÏģÎ¬Îº
Î¯Ïģ Î±
Ïĥ Î¿
Î·Ïĥ ÏīÎ»Î®Î´
RE T
ĠÎ±Î»ÎŃ Î½Î±ÏĨ
ĠÏĤÎ® ÏĨÎ¿ÏģÏĦÏĥÎ¹ÏĢÎµ
ĠÏĤÎ±Î¯ Î¼Î¿Î½ÏħÏĦÏĥÎ±
ĠÎ®ÎºÎ¹ ÏģÏĦÎ±ÎµÎ¸
ÏĥÎ± Î¹ÎĶ
Î¹Î¼ ÏĥÎ±Î²ÎµÎ£
Î´Îµ ÎºÎ±Îľ
Î¯Î¼ Î·Î£
Î¿ÎºÏĥ Î¹Î´
Î·Î¼ ÏĮÏģÏĦ
ĠÏĤÏīÎµ ÏĥÏİ
ĠÏĤÏĮÎ¼ÏĥÎ¹ Î½Î±Î³ÏģÎ¿
ÎµÎºÏĥ Î¯ÏģÎĴ
ÏħÎ¿ Î¦
Î¹Îµ Î´Î¯ÏĢÎµ
Î¿ÏĦ Î±ÏģÏĦÏĥ
Î¹Ïģ Î³Î±
ĠÎĻÎŁ ÎĽÎŁ
ĠÏĤÎ®ÎºÎ¹ Î½Î¿ÏģÏĦÎºÎµÎ»Î·
Î¿ÏĥÎ¹Îµ ÏĢÎµ
Î·Ïĥ Î±Î¯ÏĥÏħÎ¿ÏģÎ±ÏĢ
ĠÏĮÎºÎ¹ Î¶ÎµÏĢÎ±ÏģÏĦ
ĠÎ±Î½ÎŃ ÏĥÎµ
ÎµÏģ ÏħÏĢ
ĠÎ½ÏİÎºÎ¹ÏĦ ÏīÎ¹ÏĦÎ±ÏģÏĦÏĥ
ĠÎµÏĥÎ·ÏĦ Î¬Î¼Î±ÏĦÏĥ
ĠÎ½Î±Ïĥ Î¹Ïģ
l lu
ĠÎ½ÏħÎ¿ÏĥÎ® Î¸ÏħÎ¿Î»Î¿ÎºÎ±
ÏĤÎ·Î¾ ÏħÏĦÏĢÎ¬Î½Îĳ
ÏİÎ½ Î³Î³ÏħÏĥ
ĠÎ½Ïī ÏĦÏĥ
Î±Î½Ïİ Î¼Î¹ÎµÏĩ
ĠÎµÎ¾ Î¹ÎµÎ´
ĠÎ¹Î¿ Î³Î¯Î»
ÏĮÏģ Î±ÏĥÏĦÎ±Îº
ĠÏĤÎ¿Î» ÏħÎ¿Î²Î¼ÏįÎ£
ĠÎ·ÏĥÎµÎ¼ ÎĨ
ĠÎ½ÏħÎ¿Î½ ÏģÎŃÏĨ
ĠÎ· ÏģÎµÏĦÏĮÏģÎ¹ÎµÏĩ
ĠÏħÎ¿Î¯Îµ Î»Î¿ÏĩÎ£
ÏīÎ¸ Î·Î»ÏĢ
Î¹Î¾ Î¬
ĠÏĮÎºÎ±Î¹Îµ Î½ÎµÎ³Î¿ÎºÎ¹Î¿
ĠÎ¯Î¿ÎºÎ¹ÏĦ ÏħÎµÎ´Î¹Î±ÏĢÎºÎµ
ĠÎ½Ïİ ÎºÏĬÎ±ÏĢÏīÏģÏħÎµ
ÏĤÎ¿ÏĦÎ±Î¼ Î®
A S
Î±Î´Î¯Î»ÎµÏĥ Î¿ÏĦÏĥÎ¹
6 9
ÏĮ Î¹ÏģÏīÏĩ
Î½Î¬Î¹Î³Î¿Îº Î±ÏĢÎľ
Î¶ Î±Îľ
ĠÏĤÎµÎ¯ Î½ÏīÎ½Î¹Î¿Îº
ÏĤÎµÏģ Î´Î½Î¬
ĠÏĤÎ±ÏĦÎ½Î¿Î½ Ïĩ
Ġai dem
ÏįÎµÎ´ Î¿
ĠÎ±Î¹ÏĦ Î½ÏĮÎ´
ÎĲ Î±ÏĩÎĳ
ĠÎµÏĥ Î·Î¸Î®Î¿Î²
ĠÏĤÏīÏĦ ÏįÎ¿
ĠÎ·ÏĦ Î¯
ĠÎ±ÏģÎµÏĦÏĮ Î³Î¹Î»
ĠÎ®ÎºÎ¹ÏĦ Î·Î½ÏģÎ±
ĠÎ·ÏĥÏīÎ½Î³ Î¬Î½Î±
ÎµÏĦ Î½Î¬
Îĺ Î¡Îĳ
rre F
ÏĤÎ¿ÏĦÎ±Î¼ Î¯Î±
ĠÎ·Î½ÎŃÎ¼ ÏīÏģÎ·Î»ÎºÎ¿Î»Î¿
Î¬Î¹Ïĥ Î±ÏĦÏĥÎ±Î½Îĳ
ĠÏĤÎ¹Îµ Î»Î¬Î²
ĠÎ± Î»Î»ÎĨ
ĠÎ¿Î½ÎŃÎ¼ Î·Î¹Î¿ÏĢ
ĠÎ±Î¼Î¼ Î¹ÎµÎ»Î»ÎŃ
Î¬Î¼ Î±Î¼
ÏħÎ¿Î»Î¿Îº Î±ÏģÎ±Îł
Î½Î¿ÏĢ Î¿ÏģÏĢ
Ġre g
Î¿Î» ÏħÎ¿ÏĢÏĮ
sma S
Î¹ Î±ÏģÎ±ÏĢ
ÏĤÎ·Ïĥ Î¿Î´
ĠÎµÎ¼Î±Ïģ ÎŃÏĨ
ÏģÎ¿ Îľ
ĠÎ±ÏĥÏħÎ¿ ÏģÎŃÏĨÎ±Î¹Î´Î½Îµ
ĠÏĤÎµ Î¹Î»
ĠÏĤÎ¹ÎµÏĥÏİ Î½Î¹Î¿ÎºÎ±Î½Î±
Î¹Î´Î¯ Î¾Î±ÏĦ
ĠÎ·Î½ Î®ÏģÎ¹Îķ
Î¹Î»Î¬ ÏĨÏĥÎ±Î¹Î´
Î» ÎĴ
sser p
ÏĪ Î·Î»
3 9
ĠÏĤÏī Î½ÏĮÏģÏĩ
ÎŃÏģÎ¹Î± Î¾Îµ
Îµ Î³ÏģÎµÏħÎµ
ĠÎ±Ïģ ÏįÎ±Î¼
ti r
ĠÏĤÎŃÏĦ ÏģÎ¿Î¹Î³
ĠÏĤÎ±Î¯ ÎºÎ¹Î¿ÏĦÎ±Îº
ĠÎ¿ÏĢ ÏĮÎº
ĠÏįÎ¿ÎºÎ¹Î´ Î¿Î¹ÏģÎµÏĢ
ĠÎ¿ÏĦ Î±ÏĨÏĥÏĮÏģÏĢ
Î¾ ÎµÏģÎ±ÏĢ
Ġo c
ĠÎ½Î±ÏĥÎ· Î³ÏģÏįÎ¿Î¹Î¼Î·Î´
ÎµÎ²Ïĥ Î¿ÏģÏħÏĢ
Ïī Î¾
ĠÎ¬ÎºÎ¹ Î½ÏĩÎµÏĦ
ÎŃ ÎĴ
ĠÏĤÏĮÎºÎ¹ Î½Î·Î»Î»Îķ
ĠÎ± Î¶Î¹Ïģ
ĠÎ®Î¼ Î¿ÏĦ
Î±Î½ Î¹Î¼
ÏģÏįÎ¿ Î±Î¹Î³
ÏįÎ¿Îº Î±Ïĥ
Î·Î»Î² Î¹ÏĢÎµ
ÎµÎ³Î³ ÎĨ
ÏīÎ¸ ÏģÎ¿
ĠÎ±Ïģ Î®ÏĦ
ĠÎµÎ½ Î¹ÎµÏĦÏĮÏģÏĢ
ĠÎ±ÏĦÎ·ÏĦÏĮ Î¹Î´Î¹
ĠÎ¹Îµ ÏįÎ¿ÎºÎ±
Î»Î± Îĵ
ÏĮÎ½Î¿ ÎºÎ¹Î¿Î¾Îµ
Îº ÏħÏĪ
Î¡ÎŁ Îľ
ĠÎ± Âµ
ĠÎ¹Î±Î¼ Î¹Îµ
Î±ÏĢÏĥ Î¿Î¶Î¹Ïģ
ÏĥÎ±Î½Î±Î¸ Îĳ
ĠÎ¿ ÎºÎ±Î¼ÏģÎ¬ÏĨ
ĠÎ±ÏĦÎ±Î¼Î®ÏĦ Î¹Î±
Î½Ïİ Î¹Î´
ĠÎ½ÏİÎºÎ¹ÏĦ ÏħÎµ
ÏįÎ² Î¹ÎĽ
Î½Î¬ÎºÎ¹ ÏģÎµÎ¼Î±
ĠÎ¿ÎºÏĥ Î¯Î´
Î½ÏĮ Îļ
ĠÎ± ÏĩÎ¿ÏģÎŃÏĢÏħ
ĠÎ±Î¼ Î·Ïĥ
ĠÏĤÎŃÏĩ Î¿ÏĢÎµ
ÏĮ ÎºÎ¹ÏĦÎ±Î¼
yal P
ĠÎ®ÎºÎ¹ÏĦ ÏĢÎ¿ÎµÎ»Î·ÏĦ
Î³Î¿Î»Î¿Î¹ ÎĴ
Î½Ïĩ Î¹Î½Î±
ÏĤÎ® ÏĨÎ¿ÏģÏĦÎ±Î¹Î´
N U
ĠÎ®ÏĦ Î½ÏħÎ¸ÏħÎµÎ¹Î´
ĠÎ½ÏİÏĦ ÏħÎµÎ»ÏħÎ¿Î²
Î·Î¼ ÏİÎ½Î³
Îµ ÏĢÎ¼
ĠÎ±Î¹ÏĢ ÏĮÎºÎ£
ÎŃÏĨ Ïī
ĠÎ¬Î¹Î³ Î±ÎºÏģÏħÏĢ
Î³ÏĮÎ»Î¿Î¹ Î¾Îĳ
Î¥ÎŁ Îĵ
ĠÎ¹ÎµÎ½Ïİ Î¹ÎµÎ»ÎµÏĦ
ĠÏĤÎµ Ïĩ
Ġ koobecaf
Î¬ÎºÎ¹ ÏĥÏħÎ¦
ĠÎ£ÎĻÎķ Î£ÎĹ
ĠÏĤÏħÎ¿ÏģÎŃÎ¼ Î¹ÏĢÎµ
ĠÎ½ÏįÎ¿ÏĦÏĥ Î¹Ïģ
ĠÏĤÎµ Î¯ÏĦÎ¹Î±
ĠÎ¬Î³ ÏħÎ±
ÎŃÎ½ ÏĢ
Ġ4 5
Î¿ÏģÎµ ÏĢÏħ
ĠÏĤÎŃ Î³Î±Î»Î»Î±Î½ÏħÏĥ
ĠÎ¯ Î¿ÏĨ
Î¬ Î»Î»Îĳ
Î³Î¹Î» Î¿
Îº Î®Î»ÏĢ
Ġ6 5
ĠÎ®Î¿Ïģ ÏģÎ¹ÏĢÎµ
Îµ Î»ÎµÏĦ
ĠÏĤÎ±ÏĦÎ½Î¿ÏĨ Î¬ÏģÎ³
Î¿Î² Î¿ÏģÏĢ
Î¹Î¿Î» Î¯ÏĨ
si D
ĠÎ¹Î±ÏĦÎ¬Î¼ Î¹ÏĦÎºÎµ
ĠÏģ ÎµÎº
ĠÎ±Î¹Ïģ ÏİÎ¸Î¹ÏģÎµÏĢ
N C
Î¿ Î¹ÎµÎ»ÎºÎ¬ÏģÎĹ
ÎºÎ±Î»Î» Î±Î½Îķ
Î±ÏĦ ÏģÎ¿Îµ
Î·ÏĥÎ¿Î´ Î¬ÏģÎ±ÏĢ
Ïį Î±ÏģÏĦ
ÏįÏģ Î¸
ĠÏĤÎ·ÏĥÎ·ÏĦ Î½Î¬Î½ÏħÏĥ
ĠÏħÎ¿ Î¸
ÏĮÎºÎ¹ ÏĢÏīÏĥÎ¿ÏģÏĢ
Î¹Î¿ Î»Î»Î±
ĠÎ½ÏīÎº Î¬Î¼ÏģÎ±ÏĨ
Î· Î³ÏģÎµÎ½Îµ
ÏĤÎ±ÏĦÎ·ÏĦÏĮ Î¼
ÏĤÎµÏĦÏĥ ÏİÎ½Î³Î±Î½Î±
ĠÎ½ ÎµÏĥ
ĠÎ®ÎºÎ¹ÏĦ ÏĦÎĳ
Î»Î±Î¸ ÏĨÎ¿
ÏĢÏīÏģÎ¸Î½Î± Î»Î¹ÏĨ
ĠÎ±Î¹ Î¸
Î· Îŀ
ÏĤÎ±Î¹Îµ Î½ÎŃÎ³Î¿ÎºÎ¹Î¿
Î·ÏģÎ±Ïĩ Î¬Î¶
Î¾Î¿Î´ÏĮÎ¹ ÏĥÎ¹Î±
ĠÎ·Î½ÎŃÎ¼ Î¿Î´ÎµÎ´
Î±ÏģÎ² Îĳ
ĠÏĤÎŃ Î½Î¹ÏģÎµÎ¼Î·Î¸Î±Îº
te P
ÏħÎ¿Î³ÏĮÎ» Î±Î¹Î´
ĠÎ¿ÎºÎ³ Î¬ÏĢ
Î® ÎºÎ¹Î´
ĠÎ· Î»Î»ÎĨ
ĠÎ¬ÎºÎ¹ Î½Î¿Î¼Î·ÏĦÏĥÎ¹ÏĢÎµ
ĠÎ½ÏİÎ¹Ïĥ ÎµÏģÎ·ÏĢÎ¥
Î¶Î¬ Îĵ
Î¿Î¯ÎµÎ¼ Î¿ÎºÎ¿ÏĥÎ¿Î½
Î¯Îµ ÏģÎ¿ÏĢÎ¼
Î½Î¬ ÏĥÏĦ
ĠÏĤÎ¿Ïģ ÎµÎ¸ÏįÎµÎ»Îµ
ĠÏħÎ¿Î½ Î¹ÏĢÏİÏģÎ¸Î½Î±
ĠÎ½ÏħÎ¿ÏĥÎ® Î½Î¹ÎºÎµÎ¾
Î¹Ïģ ÎºÎ³
ĠÎ½ÏīÎ¯ÏģÎ·ÏĦ Î¹ÏĥÎ¹Îµ
ÎŁÎ¤ Î¥Îĳ
Î³ Î±ÏĦÏĥ
Î¬Î³ Î¹Ïĥ
ÏĤÎ®ÏĢÎ¿ÏģÏĦ Î¹ÏĢÎķ
ĠÎ¬ÎºÎ¹ÏĦÎºÎµ ÏĥÎ¿ÏģÏĢ
ÏħÎ¿ Î§
Ïģ Î´Î½Î¬Î¾ÎµÎ»Îĳ
ÏīÏģ Î²
ĠÎ® Î´
ret u
Î¹Î±Îº Î³Î±Î½Î±
Î¹Î¼ Î·ÏĦÏĥÎ¹ÏĢÎµÎ½Î±ÏĢ
ĠÏĮÎºÎ¹ Î»Î¿ÏĩÏĥ
ĠÎµÏĦÎµ Î½Î¯Î³
ĠÏĤÎ® ÏĨÏģÎ¿Î¼
ĠÎµÏģÎµÏĨ ÎŃÏĦÎµÎ¼
Îº Î±ÏĢ
ĠÏĤÎ±Î¯Î» Î±ÏĥÏĥÎµÎĺ
02 1
Ġ! Â»
ÎĽÎķ Îľ
ÏĨ ÎŁ
ÎĻÎķ Îł
ĠÎ±Î¹ÏĦ Î¯Î±
ĠÎ¿ Î³ÏģÎµÎ¯ÏģÎµÏĢ
ÏĤÏįÎ¿Î¼ Î¸Î±Î²
ĠÏĤÎ¿ Î±Î»ÏĮÎºÎ¹ÎĿ
ĠÎµÏĥÏįÎ¿Î» ÎµÏĦÎ¿ÏĢÎ±
Î»Î¬ ÎºÎ¹ÏģÎ¤
ĠÎ±Î¹Î´Î¯ Î½ÏĩÎ¹Î±Îł
Î½Ïī Î´Î¬
Î½ÏīÏĦÎ¬Î¼ ÏīÎ¹Î±ÎºÎ¹Î´
ĠÏĮÎºÎ¹ÏĦÏĥ Î±ÏĦÎ½Î±Î¦
ÏħÎ¿ÏĦ ÏįÎ¿ÏĦ
Î¯Ïģ Îł
ĠÏĮÎ¼ÏĥÎ¹ Î½Î±ÏĩÎ·Î¼
ĠÎ¿ Î½ÏīÎ³
ĠÎ¯ÎµÎ¸ ÏģÎµÏĨÎ±Î½Î±
ĠÎ±Ïģ Îı
ĠÎ®Î³ÏīÎ³Î± ÏĥÎ¹Îķ
ĠÎ¹Î±ÏĦÎµÎ½Î¬Î²Î¼Î±Î» Î¹ÏģÎµÏĢ
Ïī Î»Î¬
Î£ÎŁ ÎľÎĹÎĶ
Î¿Î´ÎµÏĢ Î®Î³
ĠÎ¹ÎµÏĪÎ¬ÏģÎ³ Î¿ÏĢÏħ
Î¿Î¼ ÏĮÎ½
Î·ÏĦ ÏĢ
ĠÏĤÎ·Ïĥ ÏįÏĨ
Î¹ÎµÎ´ Î±Î²
Î½Î¹ÎµÏĦ Î¿ÏģÏĢ
ÏĤÎµÎ¯Îµ ÏģÎ¹Î±ÏĦÎµ
ĠÏīÎ¸ ÏİÎ¹Î½
ÏģÏĮÏĨ Î¹Î»Î±Îļ
ĠÏĤÏī Î¸Î®Î½ÏħÎ£
ĠÎ±Î¹ Î½
ÏĦÏĥÎ¹Î»Î±ÏĨ ÏĥÎĳ
ĠÏĤÎµÎ¯ ÏĨÎ±ÏģÎ³Î¿ÏĦÏīÎ¦
Î® ÏģÎµÎ¼Î·
Î¸Î· Î¿ÎĴ
ĠÎµÏĥÎ·ÏĦÎº ÎŃÏĦÎ±Îº
Î¬ÏĦÏĨ ÎµÎ»
Î½ÏħÎ¿ Î¶Î¯Ïģ
ĠÎ·Ïĥ Î®ÏĦÏĢ
l s
ÏĨ Î»ÎŃ
tce j
ÏĤÎŃÎ¼ Î³Î¹ÏĦÏĥ
ĠÏĤÎ¹Îµ ÏĥÎ¯Î¼
ĠÎ¹Î±ÏĦÎ½ÏįÎ¿ÏĦ Î¹Î±ÏĢÎ±
ĠÎ±Î¯ÏģÎ¿ÏĨ Î¿ÏĨÎ·ÏĪ
ĠÏĤÎ¹ÎµÏĥÎ¯Î¼Î¸ÏħÏģ ÏģÎ±ÏĦÎµÎ¼
Î» Î¿ÎºÏħÎµ
Î¿Î³Î·Ïģ Îĵ
ĠÏĤÎŃ Î»Î¿ÏĦÎ½Îµ
Î¬Î½Î±Î¸ Îĳ
ĠÏĤÎ·Ïĥ Î¹ÏĢÏİÏĦÎµÎ¼Î¹ÏĦÎ½Î±
Ġ nu
ĠÎ¯ÎµÎ¸Ïĩ Î¹ÎµÎ´Î¿ÏĢÎ±
ra b
ÏĤÎ¿ÏĦÎ±Î¼ ÏİÎ¹Î±ÎºÎ¹Î´
ĠÎµÏĥ ÏįÎ¿Î¼
va D
Î¬Î» Îļ
Î¿ÏģÎ´ Î¿ÏģÎ·Î´Î¹Ïĥ
Î¬ÏĦ Î¹ÏĢÎµ
bo R
Î²ÎŃ Î¿ÏģÏĢ
Î»ÏħÎ¿ Ïĥ
Î¿Î½Î¿ Îľ
Î½ÏħÎ¸ÏħÎµ ÏĦÎ±Îº
Î³Î± Î´
Î¬ÎºÎ¹ Î½Î·Î»Î»Îķ
Î±ÏĦÏĥ Î¯Î»
ÏĢ ÏħÎ¿ÎºÏĥ
ĠÎ¬Îº ÏħÎ»Î³
Ïĩ Î¿Î»
Î·Î¼Î¯ÏĦ Î¿ÏģÏĢ
Î³Î¯ ÏĦÏĥ
ĠÏĤÎ±ÏĦÎ½Î¿ÏĦ ÎŃÎ¸ÏĥÎ¿ÏģÏĢ
K O
ÏĩÎŃ Î½ÏħÎ£
Î³ÏĮÎ»Î¿ ÏĩÏħÏĪ
ÏĦÏĥÎ±ÏģÏĨ ÎºÎµ
ĠÏĤÎ±ÏĦÎ½Ïİ Î¹Î¿ÏĢÎ¿Î¼Î¹ÏĥÎ·ÏģÎ§
ĠÎ¹ÎµÎ¸ ÏİÎ¹Î½
01 2
u S
Î±Î¼ Î±
ÏĢ ÏįÎ»Î±ÎºÎ¿ÏĢÎ±
ĠÎ½Î± Î¯ÎµÎ¸ÏħÎµ
ĠÎµ ÏģÎµÎ¾Î®
Ïĥ Î¯Îµ
Î¿ÏĦÎ±ÏģÎº Î¿ÏĦÏħÎĳ
ĠÎ» Î¿ÏĢÎ¼
ĠÏĤÎ·Ïĥ ÏīÏĦ
Îĸ ÎĻ
ĠÏĤÎµ Î½ÏĮÎ¼
ĠÏĤÎ·ÏĪ ÎŃÎºÏĥ
Îŀ ÎķÎłÎ¥
Î¥ÎŁ Î£
ÏģÏĦÎ± ÎµÎĺ
ĠÏĤÏİ ÏĩÏħÏĦÏħÎķ
ĠÎµÏĥ Î·Î½
ĠÏĤÏįÎ¿ÏĢ Î¿ÎºÏĥ
Î»Î± ÏĪ
ĠÎ±Î¼ÏĥÎ¬ ÏĨ
ĠÏĤÎµ ÏĩÎ¹Î¿ÏĦÏĥÎ¯ÏĦÎ½Î±
ĠÎ¹Î±ÏĦÎµ Î»Î»Î¬Î²Î¹ÏĢÎµ
ĠÎ¹Î±ÏĦÎµ Îº
ÏħÎ¿ Î´Î¯
do m
Ġ, -
re h
ÏģÎ¬Î² Î¹ÏĢÎµ
Î¹ Î±Î½Î±Îł
Î¬Î» Î·ÏĪ
Ïī Î½Î¯
ĠÎ½Ïİ Î»Î¹ÎµÏĨÎ¿
ÏģÎ±ÏĢÏį Î½Î±
ĠÎ±ÏĦÎ±Î¼ ÏĥÎŃÎ»ÎµÏĦÎ¿ÏĢÎĳ
ĠÎĳÎł Î£Îķ
Ïģ ÏįÏĥÎ±
ĠÎ® Î½Î±
ĠÏĤÎ± Î¹Î¿Î½
Î¹Î³ Îĳ
Ġ8 5
ÏįÏģ Î±Îº
ÎºÎ± Îļ
Ġre nnacsykS
Ïī Î¹Ïĥ
Î¹Ïĥ Î±Î»ÏĢ
Î¾ Î±Î½Î¿Î¼
ĠÎ±Î¼ Î·ÏĢÏįÏĦÏĩ
Î¼ Î¸Î¹ÏģÎ±
Î¯Îº Î»Î¹Îļ
ĠÎ±Î¯ Î³ÏģÏħÎ¿ÏĦÎ¹ÎµÎĽ
ĠÎ½Î±ÏĦ Î½ÏįÎ¿
Î¿Î¼Ïī Î½ÏħÏĥ
ĠÎ¹Î±ÏĦÎµ ÏĩÎŃ
ĠÎ±ÏĦÎ±Î¼ ÏįÎµÎ¹ÏĥÎ¿Î¼Î·Î´
ÏĮÎ¼ Î¸Î±Î²
Î½Î¿ Î¡
ÏħÎ¿Î¯Î»ÏħÎ¿ Î²Î¼ÏħÎ£
ĠÏįÎ¿ Î¹ÏĦ
ĠÎ·ÏĥÏħÎµÎ»ÎŃ Î½ÏħÏĥ
ĠÏĤÎ®ÎºÎ¹ ÏĨÎ±ÏģÎ³
Ïĩ Î±ÏģÎ²
ĠÎ¿Î¹Î» Î¯ÏģÏĢÎĳ
Î¬Î»Îº ÏħÎļ
Î¯ÏĨ Î¿ÏģÎ¤
Î±Î¹ Î¶ÏħÎ²
ĠÎ¹Î±ÏĦÎµ ÏįÎµÎ´Î¿Î½ÏħÏĥ
ĠÎ±Î» Îº
ĠÎ½ÏħÎ¿ Î³ÏįÎµÏĨ
ĠÎµÏĥ ÏīÏģÎŃÎ¼Î·Î½Îµ
Î½ÎŃÎ¼ÏħÎ¿Îº Î¿ÏĦÎ½
ĠÎ½ÏĮ Î´ÎµÏĩÎ£
ĠÎ¹ÎµÎ¾ Î®Î»Î±ÏĦÎ±Îº
Î·Î¼ Î®ÎĶ
Ġt uo
Î¹Îµ Î£
ĠÏĤÎ¿Ïģ ÏįÏĢÎ£
ĠÏĤÏĮ Î½Î±Î¼ÏģÎµÎĵ
ta r
ÎŁ ÎĻ
ĠÎµÏĦÎµÏĥÎ¯ ÏĩÎµÎ½ÏħÏĥ
ĠÎ· ÏįÎ³Î³ÎµÎ»Î·Î»Î»Î±
Î¬Ïģ Ïī
ĠÎ½ÏħÎ¿ÏĦ ÏĨÎŃÏĢ
Î¯Î» Îĳ
Î¬ Îĵ
ĠÎ¹ÏĦ ÏģÎ¬ÏĢ
ÏĤÎµÎ´Î¯ Î»ÎµÏĥ
ĠÎ½Î±Ïĥ Î·ÏĨÎ¬
ĠÎ¹Î±ÏĦÎ¯Îµ Î½ÏģÎ±
Î¹Î±Ïĥ Î¬Î¼ÏħÎ¸
ĠÎ½ÏħÎ¿Î½Î¯ Î±Î³Î·ÏĢ
ĠÏĤÎ¿Î½ÎŃÎ¼ Î¼Î±Îļ
ÏĨ ÏħÎ»Îĵ
ĠÏĤÎ·ÏĥÎ· Î¯Î¿ÏĢÎ¿
ĠÎ®ÎºÎ¹ Î³Î¿Î»ÎºÎµ
Ïī ÏĢÎ±
Î½ÏīÏĨÎ¼ ÏįÏĥ
Î±Î³ ÏħÎ¸
Î²Î¼ Î±Î²
Î½Î±Î½ ÏħÎ±
ÏħÏĥ Î®
ĠÎ®ÏĢÎ¿ÏģÏĦ Î±ÏĦÎµÎ¼
ĠÎ¿Î¹Î¼ Î®ÏĦÏĥÎ¹ÏĢÎµÎ½Î±ÏĢ
Î¼ Î¬Îº
ÏįÎ¿Îº ÏģÎ±
ÎºÎ¹Î´ ÎºÎµ
ĠÎ¹Î±ÏĦÎµÎ¶Î¯ Î½ÏīÎ³Î±
ĠÎ® ÏĢ
Î±ÏĥÎµÎ¼ Î¿ÏģÎºÎ¹Î¼
ĠÏĤÏħÎ¿ Î½ÎŃÎ¾
ĠÎ±Î¼ Î·Î½Î¯ÎºÎµÎ¾
ĠÎ¯Îµ Î»Î¿ÏĩÏĥÎ±ÏĢÎ±
Î½Î¿ Î»Î»Î¬
ÎµÏĦÎ¿ÏĢ Î®Î´
ĠÎ½ÏħÎ¿ÏĥÎ¯ ÏĩÏģÎ±
ÏħÎ»Î¬ Î¹Î´
ĠÎ±Î¼Ïĥ Î¹Î´Î¬Î²
ĠÎĶ Îķ
ÏįÎµÏĪ Î±Î¹Î´
Î·ÏĦ ÎŃÎ»ÎµÎ¼
ÎŃÏģ Î·
ĠÎ·ÏĥÎ·Î½ ÏģÎ¬
ĠÎ·Î¾ Î¹Î¿Î½Î¬
Î±Î¼ Î·Ïģ
ĠÎ½ÏħÎ¿ Îº
ĠÏĤÎµÎ¹Îµ Î´Î¬
ĠÏĤÎ¹ÎµÏĥÎŃÎ¸ Î±ÏĦÎ±Îº
ÎµÏģ Îļ
ĠÎ½ÏİÏĦ Î·ÏĦÎ¹Î¿ÏĨ
ĠÎ±Î¹ Î»ÎŃ
ĠÏĤÎŃÎºÎ¹ ÏĥÏħÏĨ
me t
va J
o C
ĠÏĤÎµÎ´Î¯ ÏĢÎ»Îµ
Î·Î» Î¬Î³ÎµÎ¼
Î¿Î» Î·Î»Î»Î±
ÏīÎ¶ Î±Î½Î±
ĠÎ¿Î¹Î³ Î¬
ĠÎ½ Î¬Î²
ÎŃÏĦ Î±Îļ
ÏİÏĦ ÎµÎ¼
ÏįÎ¿Îº Î±Î½Î±
ĠÏĤÏħÎ¿ÏĢ Î¹Î¿Î»ÏĮÏĢÏħ
Î½ÏħÎ¿ Î¾
ĠÎ¹ÎµÎ½Î¯Î±Î² ÏģÎµÏĢÏħ
ĠÏĤÎµÎ¯ÏĦÎ±Î¼ Î·ÏģÎ¹ÎµÏĩÎ¹ÏĢÎµ
ĠÎµÎºÎ·Î¸ ÏģÎŃÏĨÎ±ÏĦÎµÎ¼
de creM
ĠÎ±ÏĦÎ±Î¼ ÎŃÏĪ
Î½ÏİÎ¹ Î½Î±Îł
ĠÎ¹Îµ Î½ÏĩÎ¬ÏĪ
i B
ÎµÏĦ ÏĨÎŃÎºÏĥ
Î³Î±ÏģÏĦ ÎµÏĦ
Î¡ ÎĴ
ĠÏĤÎ·Î» ÎŃÎ³Î³Î±ÎĴ
Î²Î±Î½ Î½Î¬Îº
ĠÎ¯ Î¿Î½Î±ÎºÎ¹ÏģÎµÎ¼Îĳ
ĠÎ¿Î¹ÏģÎ®ÏĦ Î¹ÏģÎº
ÏĦ Î½ÏħÎ¿
ÏģÎµÎ³ Î±Î½ÏħÏĥ
ĠÎ¿Î¯Îµ ÏģÎ¿ÏĦÎºÎ±ÏģÏĢ
ĠÎ¹Î±ÏĦÎµÎ¸Î¯ÏĦ Î¿ÏĢÏħ
ĠÎ·Î¸ÏĨÎ®Î»Îµ Î½ÏħÎ£
ÏİÎ»Î±Îº Î±ÏĥÎ¤
ÏĤÎ¹ÎµÏĪ ÏĮÏĢÎ±
ĠÎ±ÏĦ ÏĢÎµÎ»ÏĮÏģÎµÏĦÏħÎµÎ´
ĠÏħÎ¿ ÏĥÎ®
Î· ÏģÏĦÎŃÎ¼
Ġn roP
ĠÎ® ÏģÎµÏĦÏĥÎ¹ÏģÎ±
ĠÎ¬ÎºÎ¹ÏĦÎ±Î¼ ÏħÎµÎ½ÏĢ
ĠÎ®ÎºÎ¹ Î´Î¹Îķ
ĠÏĤÏĮÎ¼ ÏĥÎ¹ÏģÎ¿
ĠÎ¹ Î»ÏĮ
b ma
s t
ĠÎ¥ÎŁ Î£
ĠÎ¿ ÏģÎ¿Î³Î®ÏģÎ³
Î½Î±Î¸ Î¹Îł
ĠÎ½ÏħÎ¿ Î³Î²
ĠÎ·ÏĥÎ½ ÏħÎ»ÏĮ
ĠÏĤÎµ Î½Î·Î»Î»
ĠÏħÎ¿Î¯ÎµÎ» ÎºÎ±ÏģÎĹ
ĠÎ¹Îµ Î»Î»ÎŃÎ³Î³Î±ÏĦÎ±Îº
ĠÏĤÏįÎ¿Ïģ ÎºÎµÎ½
ĠÏįÎ¿ÏĦ Î±ÏģÏĦÏĥ
ÎĽ Îł
Î¯ Î¿Îļ
Î³Î· ÎºÎ¹ÎĶ
ĠÎµÎ¸ ÏģÎī
. ]
6 991
ĠÎ¹ Îĵ
ĠÏĤÎµÎ¯ ÎºÎ¿Î´ÏĥÎ¿ÏģÏĢ
ÏĤÎ¹ÎµÏĥÎ¬ ÏĨÎ¿ÏĢÎ±
Î· ÏĮÎ½Î±
ra W
Îķ ÎĹÎŁ
ece erG
Î±ÏĦ Î½ÏħÏĥ
Î¯ÏĦÎ±Î¼ Î±ÏģÎ´Î±Î¹Î´
ĠÎ¿Ïĥ ÎµÎ¼Î¬
Î¿Î´ Î¿Î¹Î¾Î±ÏĦÎ½ÏħÏĥ
Ïĥ Î±ÏĢ
ĠÎ¯ÎµÎ¸ Î·Î»Î¿ÏĩÏĥÎ±
Î³ÎµÎ» ÎĪ
Î®Î¼ ÏĥÎ¿Îº
ĠÏĤÎ±ÎŃÏĦ Î±Î¼Î¼Î±ÏģÎĵ
Ġ tsu
ÏĮÏģ Î±Î²Î¿Ïĥ
ĠÎ¹ÎµÎ¾ ÏįÏĦÏĢÎ±Î½Î±
Ġdi ordnA
Î½Î± ÏģÎ®
Ġgol B
SA N
ĠÏĤÎ±ÎŃÏĦ Î±Î¼Î¼Î±ÏģÎ³
ĠÎ¬ ÏĥÎµÎ¼
Î½ÏİÏĦ Î·Î¸Î±Î¼
Îµ Âµ
Î¹ Î¾Î±Î¤
ĠÎ½ÏįÎ¿Î¸ Î¿Î´
Î¹ÏģÎº Î¿ÏĢÏħ
Î¿Î½ Î¿ÎºÎ¹Îµ
ĠÎ½ÏİÎºÎ¹ÏĦ ÏīÎ¹Î´Î¹
ĠÎ±Î¹ÏģÏĦ Î®Î³
ĠÎ±Î¹ ÏĥÎ¬
ÏĩÏģÎ±Î¼ Î·ÎĶ
ĠÏħÎ¿ ÎºÎ¹
Î±Î¹ Î¿Î¼
ĠÎ±Î¼ ÏģÏĮÎ¦
ĠÏħÎ¿Î¯Ïĥ Î±Î½Î¼ÏħÎĵ
Î±ÏĦÎ±Î¼ Î¼ÏĮÎº
im xi
Î±ÏĦÎ±Îº Î¿ÏģÏĢ
Ïī Î½Î±Î³ÏģÎ¿Î¹Î´
ĠÎ· ÏĢÏħÏĦ
Ġ Î»Î±
Ġ9 5
ĠÎ± ÏģÎµÏĦÎ¯Î±Î¹Î´ÎĻ
ĠÎ¹Îµ Î¬ÏĨ
ÏĤÎµÎ´ Î¬
Î¹ÏĦÎ±Î¼ Î·ÏģÎ§
Ġï ĥ
ĠÎµÏĦ ÎŃÎ»
ĠÎ½Ïī ÏĩÏįÎ¿
ĠÎ½Î± ÏħÎµ
Î¸ Î·Î»
Î· ÏĨÎ±
Ïį Î½Ïī
Î±Î½ ÎŃÎ¼Î·
ÎĽÎķ ÎĿÎĳ
ĠÏĤÏĮÎºÎ¹ Î½ÎµÎ³
Î±ÏĦ ÎµÏĦ
1 7
Î¿ ÎµÏģ
Î±Î´Î¯ ÏģÎµÎ¼Î·ÏĨÎµ
ĠÏĤÎµÎ¯ Î´
ĠÎ¯ Î¾ÎµÎ´
ĠÎµÏĦÎ¯Îµ Î¸Î·
ĠÎ¯ÎµÎ¸Ïī Î¿ÏģÏĢ
ÏīÏĨ Î±Î¹Î´
ĠÎ·Î½ ÏħÎ´Î½Î¯ÎºÎ¹ÏĢÎµ
ÎŃÏģ ÎºÎ³
Î¹ÎµÎ½Î¯ Î±Î²Î¼ÏħÏĥ
ĠÎ¬Î¹Îº ÏħÎ»Î³
Î½ÎŃ Îľ
ĠÎ¹ ÏģÏĮÎ³Î±
ĠÏĤÎ± Î´Î¬Î¼Î¿Î´Î²Îµ
ĠÎ¿ÏĦÎ¹ÎµÎº ÏĮÏģÏĢÎµ
Î¯Ïĥ Î±ÏģÎº
ĠÎ½ÏīÎµÏĥÏİ Î»Î·Î´
ĠÏĤÎ® ÎºÏĬÎ±Î»
Î½Îµ Î»
ĠÏĤÏĮÎ³ÏģÏħÎ¿ÏĢÏħ Î¸ÏīÏģÎł
ĠÎ½ÏĮÎ¹ ÏĥÎ¹Î¼Î¿Îļ
ĠÎ® ÎºÎ±Î¹ÏĥÎ¿Î´Î±ÏģÎ±ÏĢ
ĠÎ½ÏİÎºÎ¹ ÏĦÏĥÎ¹
Î·Î» ÏĩÎ¿Î½Îµ
ÏħÎ¿ Î¼ÏĮ
ĠÏį ÏģÏħÎµ
ĠÏĤÎŃÎºÎ¹ÏĦ ÎµÎ¸
Î±Î»ÏĢ ÏĮ
ĠÏĤÎ·Ïĥ ÏħÏĩÏĥÎ¯Î½Îµ
Î½Îµ ÏĨÎ±Îº
ĠÏĤÎ®ÏĦ ÏīÏģÎ·Î»ÏĢÎ±Î½Î±
Î¹Î± Î´ÏħÎ¿ÏĢÏĥ
Ġm c
ĠÏĤÏĮ ÏĦÏĥ
ĠÎ½ÏİÎºÎ·Î¸ Î½ÏħÏĥ
ÏĢÎµ ÎĽ
ÏĤÏī Î¯Î¼ÏĥÎ¿ÎºÎ³Î±ÏĢ
ĠÏĤÎ¿Î» ÎŃÎ¶Î¹Î½ÎµÎĴ
ĠÏĤÎ®ÏĦ Î·Î¸Î±Î¼
ÏīÏĦ ÏģÎ¿ÏĨ
ĠÎ±ÏĦÎ¹ÎµÏĢ ÎĪ
ĠÏĤÎµÎ¯ ÏĩÏħÏĦÎ¹ÏĢÎµ
Î±Î² Î¹Î¿Î¼Î±
tis revi
ÏĤÎ·Î¼ ÏİÎ½Î³
ÏģÎ±Îº Ïĥ
ĠÎ±ÏĦ Î½ÎŃÎ²ÏħÎ¿Îº
ĠÏĤÎ¹Îµ ÏĩÎµ
ĠÏĤÎµ Î´Î¯Î»ÎµÏĥÎ¿ÏĦÏĥÎ¹
Î¹ÏĦÎ½Î±ÏĩÎ¹ Î¶ÏĦ
ĠÎ±Ïģ ÏħÏĨÎŃÎ³
ĠÎ±Î¯ ÏĥÎ±ÏħÎµÎºÏĥÏħÏĥ
ĠÏĮÎ¼ ÏĥÏħÎ¸Î·Î»ÏĢ
ĠÎ½Ïī Î¯Î¼
ĠÎ® ÏĥÎ±ÏĨÏĮÏĢÎ±
Ġy el
Ġ1 5
I V
ÏħÎ¿ Î»Î¬
ÎºÎ¯ ÎĴ
Ġ01 2
ĠÏĤÎ¬ ÎµÏģÎµÏĦÎ£
Î½ÏģÎµÏĦ Î½Î¯
ĠÎ±Î½ Î¹ÎºÎºÏĮÎº
ÏĤÏĮÎ¼ ÏĥÎ¹Ïģ
Î©Î¡ ÎĺÎĿÎĳ
ĠÎ¯ÎµÏĢÎ±ÏģÏĦ Î±ÏĦÎµÎ¼
ĠÏħÎ¿Ïģ Î¯Î±ÏĨÏĥÎ¿Î´Î¿ÏĢ
Î¹Î» Î¿ÏĩÎ£
Î´ Î¹ÏĢÎµ
ĠÎ¯ÎµÏĦÏĥÎ¹ ÏĩÎµÎ½ÏħÏĥ
ĠÎ½ÏħÎ¿ Ïģ
ĠÎ¿Î¹ÏģÎ¬ Î½Î¹Î¼ÎµÏĥ
Î¿ÏĦÎ±Î¼ Î³Î±ÏģÎł
ĠÎ½Î±Ïĥ ÏīÎ»Î®Î´
ĠÏĤÎ·ÏĥÎ¿Î´ ÏĮÏĢÎ±
po hs
Î±Î¼ Î¿ÏĦÎ½ÏįÏĥ
ĠÏĤÎ±ÏģÎŃÏĦ ÏħÎµÎĶ
l lA
ÎŃÎ¼ ÎµÎ¸
Î»Î·ÏĪ Î¥
ĠÎ½Ïİ Î¹Î¼
Î³ÏģÏħÎ¿ÏĢÏħ Î¸ÏīÏģÎł
Î¾Îµ Î»Î¬Î¹Î´
ĠÎ¯Î¿Î´ Î±ÏĢÎ¿
ĠÏĤÎ±Î¯Ïģ Î¿ÏĨ
Ġ tsop
Î½Î¬ Î¾ÎµÎ»Îĳ
ÏģÎ¬ÏĦ ÏħÎ¿ÏĢÎľ
Î¯Î¿ÏĦ Îµ
Î¿ÏģÎ´ Î¿ÏģÎµÎ±
Î½Î¬ÏĨ Î·
ĠÎ®Î» Î¹ÏĨÎ¿Î¼Î·Î´
ĠÏĤÎ±Î¯ÏĥÏħÎ¿ Î¹ÏģÎµÏĢ
ĠÎ±Î¯Î» ÎĹ
ĠÏĤÏİ ÏĢÎµÎ½ÏħÏĥ
ÏĦÏĥÎ¹ Î¸Î±Îº
ÏīÏģ ÏģÎ¬
ĠÎ¯Îµ ÎºÏĥÎ±
Î£ ÎĻÎ¤
ĠÏĤÎ¹ÎµÏĥ ÏįÎµÎ¹ÏĥÎ¿Î¼Î·Î´
ĠÎ®Î¼Î¿Î½ Î±ÏĦÎ±Îº
Ġt xeN
ĠÎ¬Î¹ Î³Î±Î¹Î³
ÏİÏĩ Î³Îµ
ĠÎ½Î±Î½ Î¹Î±
ĠÎµÎ¶ Î¹Ïģ
Ġg m
ÏĤÎ± Î´Î¬Î¼Î¿Î´Î²Îµ
ÎºÏģÎ± Îļ
ĠÏĤÎ±ÏĦÎ½Ïİ Î¸ÏħÎ¿Î»Î¿ÎºÎ±
ÎµÏģ Î®
ĠÎµ ÏĨÎ±ÏģÎ³ÎŃ
ĠÏĤÎ®ÎºÎ¹ ÏĦÏĥÎ±
ci re
Î½ÏĮ Î¹
ÏĥÎµ ÏĢ
ĠÎ¿ ÏħÎĶ
Î¬ÏģÏĦ Î»Î¹ÏĨ
ĠÎ¿ Î¹ÎµÎ»ÎºÎ¬ÏģÎĹ
ĠÏĤÎ·Î¼ Î±Î½ÏįÎ´
ÏĩÎ¯ÎµÎ´ Î±Î½Î±
ĠÏĤÏĮÎ¼ÏĥÎ± Î¹Î»Î¿ÏĩÏĥ
Î³ Î±Î»
ĠÏĮ ÏģÏĦÎµÎ¼
ÏĤÎ·ÏĦ Ïİ
Î®ÎºÎ¹Ïģ ÏĨÎĳ
Î® Î³ÏīÎ³Î±ÏģÎ±ÏĢ
Î¤ Îķ
ĠÎµÏĥ ÎµÎ»ÎŃÏĦ
ĠÎ½ÏħÎ¿ ÏĥÎ¯ÏĢÏīÏĦÎµÎ¼Î¹ÏĦÎ½Î±
ĠÏĤÎ±Î¯ Î»Î»Î±Îĵ
Î½Î¬ Î¸ÎµÏĢ
Îľ ÎĳÎ¡Îĵ
Î¶ÏĦÎ½Î± Î¶Î±Îļ
Î¯Îµ ÏĢÎ±
Î¾Î± ÏĢÎ±
ÏĤÎµ ÎŃÎ´Î¹
ÎĹ Îļ
ĠÎ¹ Î¸ÏįÎ¼Î±ÏģÎ±ÏĢ
ĠÎ¹Î±ÏĦÎµ Î³
Ġ v
ÏħÎ¸ Î¬ÏģÎ±Îł
ĠÎ±ÏĦ Î·Î½Î¯ÎºÎ±
Î¬ Î¹Î¼
ĠÏĤÎŃÏģ ÏħÏĩÏĥÎ¹
Î¿Î¼ Î¿Îļ
Î½Î± Î¶
imxi A
ĠÎ¿ ÏħÏĦÎºÎ¯ÎĶ
ĠÏĤÎµ Î½ÎŃÎ¾
ÎķÎł Îľ
ĠÎ±Îº Î¬Î»ÏĢ
ĠÎ½ ÎŃ
ÎµÏģÎ¹Î± Î¿ÏģÏĢ
ĠÎ¿Î¼Î¹Ïĥ Î®ÏģÏĩ
ĠÎ½Ïİ Îµ
Î»Îµ Î¶ÏĦ
ĠÏĤÎ®ÏĦÎ· Î³Î·Î¸Î±Îļ
ĠÎ®ÎºÎ¹ÏĦ ÏīÏģÎµ
ĠÎ¬ÎºÎ¹ ÏĦÏĥÎ¹ÏĦÎ±ÏĦÏĥ
ĠÎ±Î½ Î¿Î¾Î¬
ÏģÎŃÎ² Î±ÏĦ
ÎºÎ³ÎµÎ»ÎŃÎ¾Îµ Î½Î±
Îº Î±ÏģÎ±ÏĢ
ÏĤÎ¹ÎµÏĥ Î¬ÏĦÎ¿ÏģÏĢ
ĠÏĤÎ¬Î¹Î» Î¹ÏĥÎ±Î²
Î¾ ÏħÎĳ
ĠÎ·Î» Î®ÏĦÏĥ
ÏĩÎ¬Î¼ Î¿ÏĦÏĥ
dlo G
Ġla ci
ĠÎ¯Îµ ÎºÏģÎ±Î¹Î´
ĠÎ¬Î¹ ÎºÏĥ
Î·ÏĦ ÎµÏĨÎ±
Î¿Ïģ Î¿Ïĩ
ĠÎ½ÏīÏĦÎ¬Î¼ ÏħÎ½Î·Î¼
ĠÎ½ÏİÏģ ÏģÎµÎ£
ĠÏĤÎ®ÎºÎ¹ Î¶Î±Î¼
Î¹Î±Î¼ Î¿
ĠÎĻÎķ Î§Îķ
Î¥ ÎĽ
ĠÏĮÎºÎ¹ Î½Î±ÎºÎ¹ÏģÎµÎ¼Î±
ÎµÏĦÎµÎ» ÎŃÎ¸
Î»Îµ ÎºÎ³
ÏĨÏģÎ¿Î¼ Î±ÏĦÎµÎ¼
Î½Î¿ ÎĻ
ĠÏĤÏħÎ¿Î´ÏĮ Î¹ÏģÎµÏĢ
ĠÏĤÎ±ÏĦ Î½Î¿Ïģ
m ra
Î±ÏĦ ÎŃÎ¼
Î¬ Î¹Î»Î±ÏĢ
ĠÎ·Î» Î¯ÎµÏĩ
ÏĢÎ¹Î» Î¹Î¦
ÏĤÎµ Î¯ÎµÏĦ
H P
ĠÏĤÏįÎ¿ ÎºÎ¹Î´Î¹Îµ
Ġï ģ
ĠÎ½ÏİÏĦÏĥ ÏīÎ½Î³Î±Î½Î±
Î³ÏīÎ³Î±Î¹ÏĢ Î·ÎĿ
ĠÎµÏĥ Î·ÏĢÏįÏĦÏĩ
Î½ÏīÎµ ÎĽ
ÏĤ ÎŃÏĢ
Î½Ïī Î´Î¬Î¼Î¿
ĠÏħÎ¿ÏģÎŃÏĦ ÎµÏĨÎ±
ĠÎĽÎķ Îĳ
ÏĤÎ® Î³ÏħÎĳ
ĠÏħÎ¿Î»ÏĮ ÎĴ
ĠÎ½ÏħÎ¿ÏģÎŃÏĨ Î±ÏĦÎµÎ¼
ĠÎµÎ½Î±Î¼Î® ÏĥÎ¹ÏĢÎµ
Î·Î´ Î¿ÏĥÎ¹Îµ
ĠÏĤÎ· ÏĩÎ¬Î¼
ĠÎ· Î»Î»
ĠÎ¿ÎºÎ³ ÏĮ
ĠÎ®ÎºÎ¹ ÏģÎ¿ÏĨ
Î± Î¯ÎµÎ¼Î·Ïĥ
ĠÎ±Î¹Ïģ Î¯ÏĦÎº
Ġ)! (
Î· Î§
Î± Î³Î¿Î»
ÏħÎ¸ ÏħÎµ
Î½ÏįÎ¿ Ïĩ
Î·Ïĥ Î½ÏħÎ¸ÏįÎµÎ¹Î´
ĠÏĤÎŃ ÎºÎ¹ÏĦÎ±Î¼Î³Î±ÏģÏĢ
ĠÏħÎ¿Ïĥ ÎŃÎ¼
ĠÎ®Î» Î¿ÏĦÎ±Î½Îĳ
ĠÏĤÎ·ÏĥÎ·ÏĦ Î¯Î±
ÏħÎµ ÏģÎ¿ÏĢÎ¼Îµ
ÎµÏĥÎ¹ Î½ÏĮÏĦ
ÏĤÎ¿Î» ÎŃÎ¼
Î·ÏĦÎ¹ Î±ÏģÎ±ÏĢ
ĠÎ¯Î¶ Î±Î³Î±Î¼
Î±ÏĦ ÎºÎµÏĢÎµ
Î´ ÏħÎ¿
ÏĤÎµÏĦ ÎºÎ¯Î±ÏĢ
Î¾Îµ ÏĢÎķ
Î±ÏĢ Î¥
ĠÏįÎ¿Î¼ÏĥÎ¹ Î½ÏīÎ³Î±Î¹Î´
Î½ÏİÎºÎ¹ ÏģÎµÏĦÏīÎ¾Îķ
ĠÏĤÎ± Î´Î¬Î¼ÎŁ
Î½Î± ÏĨÎ±
Î¬ÏĦÏĥÎ¹ ÏĨÏħ
Î½Îµ ÏĢÏħ
i F
Î½ÏİÏĦ ÏģÎ¿ÏĨ
ĠÏĤÎ·Ïĥ Î·ÏĦÏĮÎ´
ĠÏĤÎ® Î½ÎµÎ¸ÏĥÎ±
E U
i a
ĠÎ±Î¹Î´ ÏįÎ¿Î»ÏħÎ¿Î»
ÏĦÏĥÎ¹Ïģ Î¹ÎµÏĩ
ĠÏĤÎµ Î½Î¹ÏĢÏİÏģÎ¸Î½Î±
ĠÎ½ÏīÏĦÎ¬Î¼ Î·Î¼ÏĦ
ĠÎ±ÏĦÎ·ÏĦÏĮ Î¹Î±Î²ÎµÎ²
ĠÏĤÏĮÎºÎ¹Î´ Î±Î½Î¿Î¼
ĠÏįÎ¿ÎºÏĬ Î±ÏĢÏīÏģÏħÎµ
Î¿ÏģÏĦ Î±Î¹
... !
ĠÎ½ Î¹ÏĪ
Î·ÏĢ Î¬ÏģÏĦ
ĠÎ¹ÎµÏĪ ÎŃÏģÏĦÎ¹ÏĢÎµ
ĠÎ½ÏİÎºÎ¹ÏĦ Î±ÏģÎº
ĠÎ½Î±Ïĥ Î·ÏĦÎ®Î¶
Î» Î¿ÏĢÎ±
ÎµÎºÎ·Î¸ Î®
Ïħ Î»Î¿
Ġm m
ĠÏįÎ¿ÎºÎ¹ Î´Î¹Îµ
ĠÎ·ÏĪÎµÎ»Î² ÏĮÏģÏĢ
ÎµÏĥÏĦÎ½Î¬ Îľ
ĠÎ¹Îµ ÏįÎµÎ½ÏħÎ´Î½Î¹Îº
ĠÎ¬ÏĥÎµÎ¼ Î¬Î½Î±
ĠÎ±ÏĥÏĦ Î¯
ÏĦÏĥÎ¹ Î½ÏħÏĥ
Î½Î¿ÏĢ Î¯ÏģÏĦ
Î¬Î½Î± ÏĢ
Ïī Î¹Î±ÎºÎ¹ÎĶ
ĠÎ¹Î¿Î½ÎµÎ¼ÏĮ ÏģÎµÏĨÎ±Î¹Î´Î½Îµ
ĠÎ·ÏĥÎ¹Î¼ Î®ÏĨÎ±Î¹Î´
ÎĹ Î¨
Ïĥ ÏĥÎ¬
ĠÎ¹ÎµÎ¶Î¯ Î»Î±ÏĨÏĥÎ±Î¾Îµ
Î·ÏĢÏĮÎºÎ¹ Î¾Î±ÏģÏĢ
ÏħÎ¿Ïģ ÎºÎ³
ĠÏĤÎ·Î¾ ÏģÎ±ÏĢÏį
ĠÏĤÏī ÏĦÏĥ
ĠÎµÎ¼ÏħÎ¿ÏĥÎ® Î»Î¹Î¼
Ġi ra
ĠÎ½ÏİÎ¹ ÎºÎ¹Î¿ÏĦÎ±Îº
ĠÎ¹ ÏĢ
ÏĮÎº Î±Î¹Î´
ss A
ĠÎµÎ¼ Î±Î¸
ÎµÎ³ ÏħÏĨ
ÎµÎ¼ ÎŃÎ»
ĠÏĤÎµÎ¯ÏĦÎ±Î¼ ÏħÎ±ÏģÏĦ
ĠÏĤÎ·ÏĥÎ±Î²Î¼ ÏįÏĥ
ÏĦÏĥÎ¹ ÏĢÎ±
ĠÎµÎ½Î¹ÎµÎ¼ ÎŃÏģÎ±ÏĢ
Î±ÏĢ Î¿ÏĥÎ¹
ĠÏĤÎ±Ïģ ÎŃÎ¼
ĠÎ¬ÏģÎ±ÏĢ Î¹Î»
Î½Î±Î½ÎŃ Î½Î±Îº
ĠÎ¿Î¹ÏģÎ®ÏĦÏĥ ÏħÎ¼
Î·ÏĦÎº Î±ÏĦÎ±Îº
Ġ7 5
ÏĤÎ±ÏĦ Î½Î¿Î½
ĠÎ·Î¾ÏħÏģÎ®Îº Î¿ÏģÏĢ
ĠÎ® ÏĦÏĢÎ±ÏģÎ³
Î¯Î¿ÏĨ Î¿ÏĢÎ±
ĠÎµÏĥÏħÎµ Î¯ÏĥÎ¿Î¼Î·Î´
ĠÎ½ÏħÎ¿Ïĥ ÎŃÏģÎ¿ÏĢÎ¼
ĠÎ·ÏĥÏī Î¸ÏģÏĮ
ĠÎ¹Î¿Ïģ ÏİÏĩ
Ġevi L
Ġá¿ ·
ÏħÎµÎ» ÏĮÏģÎ¸ÏħÏģÎµ
Î¬Î² Î¿ÏĢÏħ
ÏįÎµÏĦ Î·
ĠÎ½Ïī Î½Î¬Î³ÏģÎ¿
; Â»
Î·ÏĦ Î¹Î¿Î¦
ÏħÏģÏĮ Î¸
Î´Î±Î»ÏĮ Î¹Î±Î»Îµ
Î¼ Î¬Î½ÏħÎĶ
ÏĮÏģ ÏģÎ¿ÏĢÎ±
ĠÎ±Î¼ ÏįÎµÎ³
Î½Î± ÏĢÎ¼ÏįÏĥ
Î½Î± ÏĨÎ¼Îķ
Î² Î¬ÏģÎ²
ĠÎ½ÏįÎ¿Î¸Î· Î¹Î¿ÏĢÎ¿ÏĦÎ±Î¼Î³Î±ÏģÏĢ
Î½Î¹ÏĦ Îµ
ĠÎ¹Î±ÏĦÎ±ÏĦÏĥÎ¯ Î¸Î±Îº
Î½Î¹Ïģ Î³Îĳ
ĠÎ¿Îº ÏģÎ¬ÏĢ
ĠÎ½ÏİÎºÎ¹ Î½Î·Î»Î»Îķ
ĠÎ¿Î² Î¬ÏģÏĢÎľ
ĠÏĤÎ·Ïĥ Î¹Î»Î¬ÏĨÏĥÎ±
4 8
n ruo
ĠÎ®ÎºÎ¹ÏĦ Î·Î¸ÏĥÎ¹Î±
ÏĤÎµ Î¯ÏĦÎµÎ±ÎºÎµÎ´
ÏĩÎ¿Î´ Î±Î¹Î´
Î·Î½ ÏħÎµÏģÎķ
ĠÏĤÏĮÏģ ÎºÎµÎ½
ĠÎ¬Î¹ Î½Î¿ÏĦÎ¹ÎµÎ³
ĠÎµÎºÎ·Î¸Î®Î½ ÏģÎ±
ĠÏĤÎ¿ÏĢ ÏįÎ¤
ĠÎ¿Î½Î·Î¼ Î¬Î¾Îµ
ĠÎ¿Î¼ Î¹Î¾
ĠÎ¹Î±ÏĦÎ½Î¿Î¶Î¯Ïģ Î¿
ÏĩÏĥ Î¿Î¼
â Ī
Î·ÏģÏĩ Î¬
ÏĮÏģ Î±Îº
Î¾ ÏĮÎ´Î¿
Ġe ka
Î¿Î½ Î¬ÏģÎ±ÏĢ
ÏįÎ¿ÏĢÎ¼ Î¹ÏĥÏĦ
Î¿Î» Î£
Î±Î½ Î¬Îº
ÏįÎ¼Î¼ Î·Î»ÏĢ
ĠÎ¿Î¼ Î¿ÏĦÎ½ÏįÏĥ
Î¶ÏĦ Î¹Î»ÏĨ
Î¿Î»Ïħ Î¾
ĠÎ±ÏĦÎ·ÏĦÏĮÎ¼ Î¹ÏĥÎµÎ¸Î±Î¹Î´
ÏİÏģ ÏħÎķ
ĠÏĤÎµÏĦ Î·ÏĦ
Î½Ïī Î¯Î´
ÏįÎµÎ» Î±ÏĢ
Î»Îµ Ïĩ
ĠÎ¬Î¹Î¼ Î·Î¶
ÏģÏĦ Î½Î±ÏĢ
d p
ĠÏĤÎ±ÏĦÎ½Î¿Î½ Î¯Î±
Î³Î± Î¹ÎĶ
Î¾Î¿Î´ÏĮ Î¸ÏģÎŁ
Ġe si
ĠÏĤÎ¿ÏĦ Î¬ÏģÎļ
ÏĮÎ» ÎŁ
ĠÎ½ÏİÎºÎ¹ÏĦ ÏīÎºÏģÎ±Î½
ĠÎ· ÎºÎ¬ÏĦ
Î·Î» Îļ
ĠÎ±Î¯Ïĥ ÎµÎ¸Î¿Î½Î·ÎºÏĥ
ĠÎ·ÏĥÎ·Î¯Î¿ÏĢ Î¿ÏĢÎ¿ÏģÏĦ
Î©Î¡ Î¥Îķ
Î·Ïĥ ÏħÎµÎ´Î¯Î±ÏĢÎºÎķ
Î® Î³ÏħÎĳ
ĠÏī Î¬ÏĦ
ĠÎŁ ÎĻÎ¤
t orp
Î¿ ÎµÏĦÎ½Î¹Î²
ĠÏĤÎ±Î´ Î¹ÏĦ
ĠÎµÏĦÎµÏĥ Î¯Ïģ
P A
Î¹ÎµÎº Î¿ÏģÏĢ
P i
ĠÏĤÎ¹Îµ Î½Ïİ
ĠÏħÎ¿Î» Î¬ÏĨÎµ
ĠÎ± ÏĨÎ±ÏģÎ³
te g
ĠÏħÎ¿Î» ÏįÎ±Îł
Î±ÏĦÎ±Î¼Î®ÏĦ Î·Î¶
Î½ÏĮ Î¶Î¹ÏģÎ¿
ĠÏĤÎ·ÏĦ Î¬ÏģÎº
ÏģÎ± Î¸Î¬Îº
ÏĤÎµ Î³ÏħÏĨÏĥÏĮÏģÏĢ
Î±ÏĦ Î½Î¬ÏĨ
Î½ÎµÏģ ÏĨ
Î½Î¹ Îľ
ÏģÎ¿ Îķ
ĠÏĤÎ¯Îµ ÏĩÎµÎ½ÏħÏĥ
ĠÎµÎ¼Î±Ïĥ Ïİ
Î¤Î£ Îĳ
Îĵ ÎĳÎł
Îµ Î¹Î´
Î³ÎŃ Î»Î»ÏħÏĥ
Ġt ra
ÏħÎ¿ÏįÏĦÎºÎ¹Î´ Î±Î¹Î´
ĠÎ¿Î¼Î¿ÏģÎ´ Î½ÏįÏĥ
Î·Î³ Î·Î¸Î±Îº
Î³Ïħ Î¾Î¿
ĠÎ¿Î» ÏħÎ¿ÏĢÏĮ
Î¿Î½ ÏīÏĨ
ÏįÎ¿Î¼ÏĥÎ¹ÏĦ Î¹Î»Î¿Îł
d li
Ġ0 81
Î±Î³Î³ ÏħÎŁ
ÏĤÎµ Î»Î»ÎŃÎ¾ÏħÏģÎĴ
ĠÏĤÎµ Î¹Î´ÏĮÎ¼ÏģÎ±
ÎĻÎ¡ Îĳ
Î½Ïī ÎµÎ¼Î¬Î½ÏħÎ´
Î±Î¹Î´ ÏįÎ¿Î³Î±ÏģÏĦ
ĠÎ¯ Î¿Ïĩ
ĠÎµÏĥÏī ÏĦÏĮÎºÏĥ
Î¿ÏģÏĩ Î±Î»ÎµÎ¼
ÎµÎ² ÎŃÏģÎł
ĠÎ·ÏĦ ÏģÎ±ÏĦÎŃÏĦ
ÎķÎľÎĹ Î£
ĠÎ±Î¯ÎµÎ¼Î¿Îº Î¿ÏĥÎ¿Î½
Î¬ ÎµÎĺ
Î½Î±ÏĢ Î£
ĠÎ±Î» ÏĮÏģÎ±Îł
ĠÎ±Î¯ ÏĩÏħÏĦÎ¿ÏĢÎ±
Î² ÎĪ
ĠÎ½Î±Ïĥ ÎµÏĢÎŃ
ÏĮÏģ Î´Î¿
ĠÎ±Î¯ Î½ÏīÎ³
ĠÎ¹Î±ÏĦÎ½Î¿ Î³ÎŃÎ»
ĠÎ® ÏģÎ±ÎµÎ½
ÏīÏĥ ÎŃ
t ci
ÎĳÎ¡ ÎļÎŁ
ĠÎ½ÏħÎ¿Î¶Î¯ÏĦ ÏģÎ±ÏĢÎ±
ĠÎ¹Î¿Ïģ ÏĮÏĢ
ĠÏĤÎ±Î½ÎŃ Î½Î±Îļ
ĠÎ¿Î´Î¿ ÏĮÏģÏĢ
ĠÎ½ÏħÎ¿ ÏįÎµÎ»ÏħÎ¿Î´
a ti
Ïī Î¯ÎµÎ¼Î·Ïĥ
ĠÎ¬ ÎºÏĬÎ±ÏĢÏīÏģÏħÎµ
ĠÎ½ÏħÎ¿ Î³Î¬ÏģÎ±ÏĢ
ÏĤ Î±Î»ÏĮ
ĠÎ¿Î½Î¿ÏģÏĩ Î¯Î¼Î·
Ġo r
ĠÏĤÎ·Ïĥ Î·ÏĦÎ®Î¶ÏħÏĥ
ĠÏĤÏįÎ¿ Î´Î±ÏĢÎ¿
ĠÎ¬ÎºÎ¹ ÏĦÏĥÎ¹Î»Î±ÏĨÏĥÎ±
ÏĮÎ¼ ÏĥÎ¹ÏĦÎ±Î¼
ĠÏĮÎºÎ¹ Î¼Î¿Î½Î¿ÎºÎ¹ÎŁ
ĠÎ® ÏĢÏīÎ¹Ïĥ
ĠÎµÎ¼ÏħÎ¿ Î¸Î¬Î¼
ĠÎ¹Î±ÏĦÎ±ÏĦÏĥÎ¯ ÏĨÏħ
ÏĦÎ· Î¿Î³Î¿ÏĢÎ±
Î¬ÏĦÎ½Îµ ÏĢ
Î±Î¹Î´ ÏģÎ±Îº
Ġe m
ÏĤÎ® ÏĩÏħÏĪ
ĠÏĤÎ®ÎºÎ¹ ÏģÏĦÎºÎµÎ»Î·
ÏĦÎ± Î»Îµ
ĠÏĤÎŃÏĩ Î¿ÏĦÎµÎ¼
ĠÎµÎ¼ÏħÎ¿ÏĥÎ® ÏĦ
ai dem
Î¿ÎºÎ¹ Î½ÏīÎ½Î¹Î¿Îº
ÏĤÏħÎ¿ÏĢ ÏĮÏģÏĦ
ÏħÎ¿ Î¯Î»Î²Î¹Î²
Î±Î¼ ÏĮÏĦÏĥ
ĠÏĤÎ® Î¿Ïģ
ĠÎ±Î´Î¯ ÏģÎµÎ¼
ĠÎ½ÏįÎ¿ÏĦÏĥÎ¹ Î¸Î±Îº
ÏįÎ¿ Î¹Î»
ĠÎ¿ Î½Î¹Îº
ÏħÎ¿ Î¯Î´
ĠÎ½ÏīÎµÎ¾ Î¬ÏĦÎ±Î¹Î´
s ti
o v
Ġi a
ĠÎ¹Î±ÏĦÎ½Î¿Î½ Î¯ÏģÎº
ĠÎ½ÏħÎ¿ Î»Î¯ÎµÏĨÎ¿
ÏĤÎµÎ¯ Î½Î¹Î±ÏĦ
ĠÎµÏĥÎµÏģ ÏĮÏĢÎ¼
ÏĤÎ± Î¯ÏĦÎ±ÏģÎºÎ¿Î¼Î·Î´
Î¶ ÎŃÏĢÎ±ÏģÏĦ
ĠÎ±Î¯Î» Î³Î³Îĳ
ĠÎ¹Î±ÏĦÎ½ÏįÎ¿ Î¹Î¿ÏĢÎ¿ÏĦÎ±Î¼Î³Î±ÏģÏĢ
ĠÎ±ÏĦ Î±ÎŃÎ¸Î¿Î¹Î¾Î±
ĠÎ¹Î±ÏĦÎ½Î¿Î½Ïİ Î¹ÎµÎ¼Î·Ïĥ
ĠÏĤÎ·Î½ ÏĩÎŃÎ¤
Î±Î²ÎµÎ² Î±Î¹Î´
ÎµÎ´ Î·Îº
ÎµÎ¸ ÏįÎµÎ»Îķ
ĠÏĤÏīÏĦÎ®ÏĦ ÏģÎ±Î¾ÎµÎ½Î±
ĠÎ¯Îµ ÏĩÎ¹Î¿ÏĦÏĥÎ¹ÏĦÎ½Î±
ĠÎµÏĦ Î±Îº
ÎĽ Î¥
ĠÎ±Î¯Îµ ÎºÏĥÎ·ÏģÎ¸
ĠÏĤÎ¿Î» Î·Î»Î»Î¬ÏĢÏħ
ÎºÎ¬Ïģ ÎĻ
ĠÎ¹Î±ÏĦÎ¯Îµ ÏģÎ¿Î³Î·ÏĦÎ±Îº
ĠÎ±Î¹Îµ Îĵ
ĠÎ·ÏĥÏī ÎŃÎ½Î±Î½Î±
Î±Î¹Îµ Î´Î¬
ÏĥÎŃ ÎĶ
ĠÏĤÎ±ÏĦÎ½Ïİ Î»Î¹Îľ
Î½Îµ Î£
I A
ÏħÎ¿ÏĦ Î®Î½Î¹ÎºÎ¿ÏĦÏħÎ±
ĠÏĤÏħÎ¿ ÏĨÎ¬ÏģÎ³Î¿Î¹ÏĥÎ¿Î¼Î·Î´
ÏĥÎ¿Ïģ ÏĢÎ±Î½Î±
ĠÎ½ÏİÎºÎ¹ ÏĨÎ±ÏģÎ³
Ġl li
ĠÎ®ÎºÎ¹ Î¼Î¿Î½Î¿ÎºÎ¹ÎŁ
ĠÏĤÏİ ÏĩÏħÏĦÏħÎµ
ÏĤÎ¹ÎµÏĥÏİ Î»Î·Î´ÎºÎµ
Î£Îķ Î¡
Î¹ÏģÎµÏĢ Î¹ÏĢ
ÏįÏģ ÏģÎ±Î¸Î½Îµ
ÏĢÎ¬ Ïĩ
ĠÎµÏĦ Î¬ÏĢ
Î®ÏĢÎ¿ÏģÏĦ Î¹ÏĢÎķ
ÎºÎ¹ Î¿Î½Îĳ
Î½Î±Î´ ÎĻ
ĠÎ¿ Î³Î¿Î»Î¬Î½Î±
ĠÎ½Ïī ÏģÎµÏĦÏĮÏĥÏĥÎ¹ÏģÎµÏĢ
[...]
