#version: 0.2
Ġ s
Ġ t
Ã ©
e d
n e
n o
e l
e r
u o
Ġ r
Ġ ed
n a
Ġ ,
i a
e t
i t
u q
Ġ a
e n
Ġ el
e s
Ġ er
â Ģ
e c
âĢ Ļ
a p
u a
Ġ no
e uq
Ġa l
n i
Ġt e
Ġ en
Ġ Ã
i r
s e
ĠÃ ł
Ġs el
i s
i l
e m
Ġ .
i o
e v
Ġt ne
Ġ n
h c
Ġ ne
r p
r o
Ġ u
m o
Ġ l
Ġ Ã©
Ġ et
Ġ euq
e p
u s
Ġs ed
Ã ¨
it a
Ġs uo
Ġn u
uo p
i d
r t
Ġt se
Ġ ec
Ġ i
r a
no c
t ne
i v
Ġtne m
u l
Ã© d
Ġen u
Ġ es
Ġr uop
i c
Ġ em
Ġer t
Ã© r
Ġs na
e g
Ġu d
Ġ x
mo c
Ġt na
e j
r u
Ġs e
i m
o rp
Ġ ua
Ġs ia
a t
a r
Ã ª
ĠÃ© t
Ġsna d
Ġs ap
Ġs no
Ã© t
v a
uo t
' d
. .
r ap
Ġt ia
Ġt no
Ġl i
o p
r e
Ġi uq
u t
Ġ c
Ġsuo v
Ġr us
Ġ z
l a
Ġno ita
i f
c a
i u
ul p
r uo
Ġel l
s er
i b
p m
a c
o v
Ġs t
Ġr e
Ġr u
Ġs er
ev a
Ġ ej
i n
e Ã©
el l
o c
Ġs et
Ġno it
tne m
d ne
Ġs ulp
a l
s s
r ep
is s
Ġr ap
a m
o l
e hc
Ġ :
x e
Ġ eg
Ġc eva
Ġ uo
Ġx u
Ġer ia
Ġs Ã¨
u c
ro f
Ġx ua
Ã© rp
ev uo
na r
r et
o m
Ġ eÃ©
r es
o n
f f
i g
Ġ ia
p a
t s
Ġ d
en no
ir p
Ġs ru
na m
Ġr et
Ġsia m
Ġs ec
Ġs es
Ġr io
Ġ ni
0 2
Ġet t
Ã© n
Ġ Â
Ġno s
Ã §
Ã© m
uo c
e u
Ġtno s
il a
b m
ne t
Ġ y
Ã© p
i p
e L
n ia
b a
Ġs l
es s
t a
Ġsuo n
i us
Ã© s
o s
Ġ eL
Ġt uot
ruo j
Ġer Ã¨
Ġ 0
Ġ is
Ã© l
ro p
o t
Ġs io
Ġs euq
e J
o r
Ġs em
Ġert ov
no ita
Ġert Ãª
u e
r ev
Ġr uo
h p
.. .
u ep
uo s
t Ã©
Ġ )
Ġa L
u m
Ġ eJ
e b
Ġl I
ne v
ne r
no m
Ġne ib
Ġett ec
it c
a g
it rap
Ã ´
Ġse L
Ġeria f
t ua
na l
d a
Ġ io
no d
it s
e ir
Ãª m
Ġ !
a s
Ġtnem el
a n
ra m
ĠÂ «
1 02
Ġtia f
a f
Ġsel l
il b
Ġell e
ia m
Ġt io
ia r
u j
Ġ p
ia l
ĠÃ©t Ã©
t na
Ġsno ita
iu p
e C
âĢ ¦
Ġem moc
Ġru el
Ġ ehc
Ġr es
s id
u p
s i
a hc
ĠsÃ¨ rt
pm et
s rep
Ġ eu
ni m
Ġ -
Ġr er
ne s
Ã© g
i uq
u b
Ġem Ãªm
Ġs en
Ġi c
r ec
s et
no p
h t
Ġel b
u d
Ġa s
p moc
Ã ¢
ir c
Ġrio va
n ed
Ġs ro
ia f
s a
iss ua
ruo c
Ġ ep
Ġ ?
Ġ 2
Ġ 5
al p
Ġec na
nar g
t em
e iv
Ġs ni
if f
ar g
Ġs Ã©t
Ġu t
it u
Ã© v
l l
Ġnoit c
ne m
Ġno is
ĠsÃ¨ rp
Ġes s
ia t
evuo n
no f
i h
r uop
dne rp
Ġruo P
Ġt uep
mo n
it ep
Ġtna t
r em
er p
Ġn E
' s
Ġs tnem
Ġ ev
Ġsl i
Ġrio v
Ġru et
Ġ f
ni f
Ġa Ã§
Ġ issua
uo r
r ed
Â »
s na
Ġer ut
Ġsuo t
s el
ret ni
Ġtne v
pm i
io v
iu d
s ni
ir t
Ã ®
ro c
Ġst na
Ġer tne
Ġs ius
u g
l euq
m rof
Ġno m
evuo rt
Ġ m
Ġsna s
Ġs iup
a rt
a v
Ġs ruoj
Ġ. ..
s il
s op
m i
Ġ 3
Ġni f
Ġem Ã¨
b o
ne p
Ġert on
c o
va rt
Ġr i
Ġu e
no l
Ġs ov
ir o
Ġsno it
Ġ 1
Ġa r
ra g
n na
Ġtnem et
Ġs ne
s t
r us
it ra
Ġtia tÃ©
r c
Ġr eg
a b
en g
Ã© c
Ġs eg
ua f
se m
pm e
Ġs pmet
Ġi ul
Ġen no
Ġr el
Ġ g
i hc
im erp
Ġxu e
Ġ 4
Ġu ep
Ġer d
re hc
no it
na hc
ra c
Ã©r c
Ġ âĢ
Ġt E
er tne
er Ã¨
enno srep
Ġs Ã©
l i
a h
Ġxu ed
Ġsuo V
o hc
Ġs re
s euq
s uj
uo j
a d
s ir
o d
o rt
Ã©t ni
ĠÂ »
Ã© f
oc ne
y s
t e
Ġs tne
ia vart
s noc
Ġr ed
Ã »
9 1
ell i
Ġsio f
Ġa m
Ġsru et
Ġ 8
uo b
Ġl a
! !
Ġ A
Ã¨ l
r evuo
Ġd na
Ġec ne
il ib
ilb up
io m
il p
a P
r d
Ġer v
mo C
Ġp uoc
Ġsuo N
Ġ0 0
Ġsru el
Ġ 6
Ġ eiv
is op
g a
Ġz er
u es
Ġn U
r f
Ġser tua
ff e
Ġ E
Ġ o
Ġc nod
u n
Ġs on
in u
Ġer ocne
f ne
Ġet is
uo v
ĠÃ ¹
ro s
Ġ id
Ġ "
iv res
e f
Ġsia M
se f
ia rt
nam ed
il c
Ġ eC
Ġer bm
in red
el b
u h
Ġnoita c
Ġi S
s ila
ic os
ĠÃ¹ o
at Ã©
bm es
l uc
Ġser ia
dne p
ua eb
iuq Ã©
ff id
e D
e is
Ġ 7
n g
iud orp
uo d
er t
Ġer b
s ed
Ġer dnerp
ue h
iar v
s ru
Ġen U
Ġsni om
Ġer io
ig ol
er ut
nia m
er b
Ġt uaf
il l
na g
r g
p o
Ġ eir
Ġse Ã©n
Ġen g
Ġtia r
e Ã©r
it ca
ser p
Ġz et
n noc
m a
i x
nar F
Ġert tem
Ġz ev
Ġel a
y ap
iss op
Ġsruoj uot
s Ã©rp
ita m
Ġel ba
. )
Ġa res
Ġseuq leuq
ir Ã©p
e i
Ġte j
Ġsiup ed
Ġ S
Ġtna va
no C
Ġruo j
na s
ĠsÃ¨rp a
Ã© h
Ġtia va
ir ra
Ġ h
Ġs d
u f
p ar
mrof ni
ec na
l us
Ġr ess
ra hc
ff o
n no
Ġdna uq
Ġs im
u Q
Ġset uot
Ġtne ia
Ġtio s
la s
v ed
Ġeg a
Ãª r
Ġs ruoc
Ġ, )
p ec
io hc
Ġser Ã¨
o ru
o hp
n I
Ġet uot
Ġ âĢ¦
se g
u rt
il itu
l p
ro pmi
Ã© ffid
Ġa v
Ġn O
ni op
ag Ã©
ss ap
um moc
io s
Ã© b
ir v
mo m
' m
Ġert noc
Ġte m
u ej
u r
Ġio uq
Ġert ua
Ġz e
o g
Ġis nia
Ġr ac
y ov
nop Ã©r
Ġz eva
Ġtno d
it ne
irp ertne
sna rt
Ã©n Ã©g
ĠÃ©t ila
dne t
ot ohp
ell e
Ġ %
ĠÃł l
nag ro
mo h
er id
Ġs rev
Ġpuoc uaeb
nar f
se b
s no
Ġr ep
Ġno b
j Ã©d
Ġt rop
ĠâĢ ĵ
Ġtne t
Ġsna D
la m
Ġal ec
Ġel c
el Ã©
Ġsro l
na c
pm is
Ġsro la
c Ã©d
Ġs r
Ġt id
Ġs ev
op orp
Ġno n
s ap
am i
Ġz ehc
Ã©d i
Ġsel b
s ro
Ġr uot
c ep
s ia
Ġtnemel agÃ©
Ġs ac
b orp
noita n
re f
p ol
Ã ī
a j
o seb
Ã ł
pol ev
sef orp
Ġs nia
o b
0 02
Ġsuo s
Ġer id
ĠÃł jÃ©d
nes Ã©rp
h C
iv ne
Ġsno va
Ġp ort
Ġs f
x ua
ss a
uo T
al c
Ġr em
Ġed nom
t se
mo d
tne sÃ©rp
n E
Ġt rap
ic Ã©rp
ap moc
Å ĵ
Ġre hc
l e
Ġio m
Ġt itep
it na
s io
Ġt ned
ia h
Ġell E
mo s
ut is
Ġel bmes
Ġsru eis
id Ã©m
hc et
Ã©p s
Ġ na
uo rt
s ec
ts ih
r uot
Ġno t
id ni
el p
ut Ã©
enno is
Ġr ev
Ġs ennosrep
Ġeuq ahc
nal p
Ġem m
il op
ss ia
ro m
o N
Ġse Ã©
i es
i nam
Ġr en
Ġ 9
ib ah
im af
polev Ã©d
l la
ni rp
u A
v ius
Ġtnem m
Ġtna dnep
Ġzev uop
s en
iah uos
Ġett eC
Ġue il
c at
ic o
sil itu
Ġeuq it
uq suj
Ġd narg
Ġr ec
Ġs a
e Ã©t
ic Ã©ps
Ġnif a
Ġtnem eg
ig a
s tna
ĠÃ©t ilib
Ġenno b
Ġl e
Ġec alp
rehc er
Ġne ir
ĠÃ© v
Ã©m a
Ġr euq
iam es
Ġsrueis ulp
Ġz ess
ap ic
Ġri nev
iu c
Ġser t
Ġnoita t
Ġs irp
Ġtio d
Ġt ec
Ġtnem iarv
iv itca
Ġen ia
ep pa
rt noc
Ġes im
elli em
el a
e itrap
ua h
ra l
Ġen ne
Ġet Ãª
e uc
Ġr evuort
Ã© D
er ia
x ue
se v
Ġer u
Ġ eÃ©r
s es
Ġt Ã´
Ġno iss
o j
is iv
ul os
at s
Ġ ;
uor g
0 1
oru e
Ġtnem en
erb mon
l u
Ġet na
Ġsell e
r en
Ġ k
ut c
Ġse hc
Ġsia v
Ġ eD
d ra
nam moc
rec noc
if noc
Ġ ei
us sa
r ivne
ua s
Ġeu g
la c
Ġ0 1
Ġr enno
ig Ã©r
i L
ne g
Ġtne iv
ne c
e no
irc Ã©
io t
ic na
Ġet ius
ennois seforp
u er
d ro
Ġs u
Ġr is
ul c
e R
ĠeÃ© nna
uc itrap
Ġtem rep
y om
Ġsio m
Ã©l Ã©t
nem moc
ĠÃ©t ir
Ġtnev uep
ial p
ne ib
uoc Ã©d
ic af
Ġs ep
iv a
Ġsiam aj
l er
ev in
s ser
ic Ã©d
ua hc
Ġl iavart
Ġ eitrap
no s
ff a
nop ser
dne r
c ua
Ġset Ãª
ar Ã©nÃ©g
Ã© R
ĠeÃ© n
Ġsec na
iat rec
re M
p us
Ġ evuort
Ġet pmoc
ĠÃ© l
it nes
ut its
i ni
ĠerÃ¨ imerp
Ã§ narf
i D
itc nof
Ġnoit isop
Ġ. )
it noc
y t
al l
ilp pa
ro b
ic iff
ĠÃ© d
ita rp
Ġ0 3
Ġtne mom
Ġre imerp
ar ap
Ġriova s
iu h
il ucitrap
si nagro
Ġsia s
pme xe
Ġu v
Ġt ub
Ġ, Â»
na b
Ġnoita r
ne rp
iv Ã©
s pmet
Ġ â
ss ec
ol b
ell ia
e ffe
tem rep
Ã´ c
l if
r i
es noc
in g
net ta
ip ar
or c
Ġ eÃ©t
Ġtne n
Ġri net
Ġed narg
s noita
hc orp
Ã© ht
Ġsia va
ill im
mo noc
sro l
Ġxue im
Ġem rof
Ġxu ec
Ġell evuon
Ĥ ¬
Ġx irp
y a
cat noc
Ġru e
Ġst iudorp
e ig
re b
ruoj ua
ru et
Ġl am
o f
na rt
s ulp
Ġu A
Ġs Ã©s
it ros
i ul
uc Ã©s
ĠÃ© hc
Ġr itrap
dnet ta
ut ca
c erid
ĠÃ© n
hp arg
ĠÃ© g
w w
Ġia r
Ġr irv
ej bo
is Ã©r
irÃ©p xe
Ġua evuon
ra P
its euq
g ni
e w
ul ov
l o
ic s
ir a
Ġn ia
ĠÃ© r
Ġeuq i
oc Ã©
ro n
monoc Ã©
ts ys
ico ssa
Ġtnem ell
l es
ell oc
Ġtnem er
ner Ã©ffid
Ġl euq
Ãł l
Ġic i
ot ua
eu g
c ir
Ġtnem ess
Ġelb issop
n u
si nim
Ġtnem erÃ¨
rag er
Ġsnia t
no b
Ã§ af
l um
Ġet ser
x et
io p
Ġstna fne
Ġ T
ĠsÃ¨ c
at sni
u nim
Ġec ivres
id Ã©
r A
Ġua e
Ġet suj
Ġ 02
s re
Ġenno srep
in hcet
n A
Ġelb at
i B
Ġet itep
Ġtej orp
irc sni
Ġelc itra
arg orp
Ġt niop
ĠÃ© uq
Ġes ohc
ssia nnoc
ej orp
el ba
net niam
r eg
Ġsio rt
s u
c elÃ©
Ġeg at
ni c
ĠÃ©t ic
Ġ00 0
no r
Ġes nep
ruo f
Ġriov uop
Ġs us
ia s
Ġua evin
euc ca
Ġeu v
er c
lus Ã©r
id noc
enno it
eu Q
N O
it ned
io rd
Ġec Ã¢
if orp
Ġtnem moc
i nop
Ġni oseb
rem moc
s Ã©t
or g
Ġeg as
ila Ã©r
Ġress ap
e x
Ġs yap
t ropmi
Ġic reM
ts i
Ġse D
in ummoc
Ġio l
Ġtuot rus
t en
im a
s ac
or P
Ġtna v
ic itrap
Ġsem mos
Ġed named
na va
Ġno les
Ġtio rd
Ã¨ r
Ġtnem ep
s ell
roc ca
Ġtnev uos
eir Ã©t
Ġtno r
Ã©p o
eg a
Ġerb mon
Ġ eno
Ġser bm
ua c
na p
8 1
ner Ã©f
Ġi n
inop sid
Ã©l Ã©
t uep
no M
Ġem ia
ilp xe
ss ed
ĠÃ© m
Ġen i
Ġd ra
s uov
Ġa t
p se
is noc
Ġ5 1
Ã» s
Ġi uh
ĠseÃ©n nod
ell iu
pa da
ĠtÃ´ t
ĠÃ©tila uq
Ġt en
Ã´ h
Ġsnoita mrofni
Ġsl I
ic i
Ġelbmes ne
Ġtne r
Ġ b
im il
io V
Ġl et
at lusÃ©r
Ġec rap
Ġec narF
Ã©n Ã©b
Ġell iv
ĠseÃ©n na
p uoc
tnem el
s uo
ra M
Ġtnem ev
s Ã©
Ġrel la
Ġzess a
s Ã¨
Ġse Ã©s
ap se
ta b
iu n
Ġtno res
t el
mo rp
in U
Ġsia r
Ġes op
tnem et
Ġeng il
pm er
ir Ã©t
Ġr eng
Ġu T
Ġrenno d
Ġnoit seuq
Ġ eig
Ã¨ d
io d
ac co
0 0
ir Ã©v
res Ã©r
Ġre if
i M
m ef
no nna
iss ec
Ġet s
Ġec af
net noc
.. ..
Ġxu ep
Ġtnem euq
ir b
ru d
at on
iff a
sio f
Ġel Ã´
ser ia
Ġes irp
erut an
Ġes ser
ic if
p es
s l
Ġsniat rec
ilb atÃ©
Ġed o
sila Ã©r
ssec Ã©n
Ġerio tsih
u ev
i nif
Ġn iam
Ġehc rehcer
Ġtnem enno
ehc a
it uo
ĠÃ© c
s tne
i ut
Ġnoiss im
Â «
e ip
en ne
Ġerd ac
dne v
N E
' t
i V
irp orp
Ġeuq leuq
Ġ eb
Ġnoita mrof
Ã©d iv
ec ne
no n
mo t
ĠÃ© s
Ġtia res
Ġep iuqÃ©
Ãªr ra
Ġ dnerp
no is
Ġr ir
o h
apic nirp
Ã©m un
iu g
v il
ca v
ap ac
âĢ ľ
Ġruet c
Ġtna s
Ġert Ã®
Ġet rop
uoj a
el la
Ġsel a
iff us
cep ser
Ġxu ev
Ġsec ivres
Ġes oporp
ev A
Ġ0 5
g nol
apmoc ca
Ã¨ ip
Ġr aP
Ġell euq
e Ã©di
Ġt Ã»
Ġnoit ca
l uov
id a
ilb uo
e h
iss u
itc ejbo
Ġed ia
Ġtrop par
Ġu ej
Ġt uoT
es Ã©r
ud orp
ĠsÃ¨rp A
Ġtna r
ren Ã©
Ġx iohc
ĠemÃ¨ tsys
rap pa
ni g
at ot
rof noc
y h
e S
Ġtna n
sru et
Ġes irpertne
Ġ, "
Ã¨ m
eva rt
s iup
no itc
ia p
r Ã©ffid
la v
ial c
l up
er ap
Ġtnemm aton
ag ne
at rap
Ġg ni
Ġ R
Ġnos iam
Ġu p
u O
ĠÃ Ģ
Ġtia s
Ġrirv uocÃ©d
ap m
Ã©p moc
Ġsno is
Ġs c
a M
Ġell eb
Ġt iga
ec Ã©d
ir am
ĠecÃ¢ rg
a uq
c te
Ġem moC
ila uq
Ġem moh
t uot
Ġ C
Ġ mon
Ġsno itc
Ġno Ã§af
s ne
g na
Ġess ap
ra b
ni et
Ġep uorg
iss a
u Åĵ
g Ã¨r
tne v
is um
Ġâ Ĥ¬
ilb o
ub irt
t ser
Ġtnem es
elb at
Ġres op
io rc
Ġiul ec
Ġer ffo
noc es
iut arg
Ġi m
Ġeg ap
ĠsÃ¨ d
Ã© hc
ah C
Ġxu erbmon
Ġr ell
Ġse C
e igol
if ing
t iaf
lus noc
Ġes ia
is Ã©h
s us
ĠeÃ© v
l oc
uo l
Ġtno f
Ġnu cua
Ġen nod
e il
ec er
s tnem
iv ni
as se
sel b
it sev
t t
Ġtnemel ues
Ġset na
s ruoj
Ġell i
Ġre iv
Ġc evA
Ġeg ar
ac iff
Ġtub Ã©d
e N
Ġs ir
ul P
se Ã©n
no B
Ġer re
a Ã§
la b
sop orp
Ġs id
ed nom
Ġtnemep polevÃ©d
Ġm u
c itra
it o
Ġz es
Ġl ues
Ġre inred
y asse
ĠtÃ´t ulp
et ius
c us
Ġsne g
Ġsel ba
Ã¨l borp
s iar
it ap
is rev
u S
Ġiouq ruop
p orp
Ġ I
Ġel las
y l
Ġris ialp
Ġset t
U O
Ġtnem moC
Ġsnoita c
Ġtnem ec
Ġses u
Ġtna tua
et na
issu Ã©r
Ġev ita
Ġret rop
Ġeiv ne
Ġsec ne
et ni
Ġar ua
aciff e
Ġtne g
id om
is Ã©rp
Ġ /
Ã ¯
mi na
ec narF
in ruof
it se
el f
eÃ© nna
Ġeria t
Ġres ilitu
p roc
Ġtneia tÃ©
uc od
na j
revuo g
Ġne il
rt s
Ġses ohc
Ġerut c
ies ne
Ġet si
2 1
il Ã©ma
Ġ eÃ©di
mo snoc
Ġel pmis
o da
l os
o P
et pes
i k
rt ne
an noc
utits noc
ir ret
Ġsell evuon
8 102
N A
z ed
Ã¨d om
ĠerÃ¨ inam
id utÃ©
Ġr ia
Ġ2 1
f Ã©d
Ġg nol
na d
Ġruot ua
ca hc
Ġst itep
Ġs nes
uc co
ac ol
u ed
a C
i uo
g ua
Ġell ec
Ġet nesÃ©rp
Ġnoitc nof
s noit
n ummoc
ulov Ã©
nia S
Ġs otohp
noitan retni
euq it
Ġen iames
io l
Ġic rem
mo tua
ni s
o C
ot co
ed ipar
mo r
utc effe
Ġep yt
Ã¨l Ã©
Ġser ueh
Ġenu ej
ĠsÃ¨c ca
Ġstne rÃ©ffid
ĠÃ© rg
Ġnois acco
Ġne it
net rap
ar f
Ġiar v
Ġio t
Ġtna netniam
5 1
its ed
y ot
y la
ev on
Ġer dner
l c
s rev
Ġecne irÃ©pxe
na t
e k
Ġal eC
er bm
Ġ ex
ar b
d ruojua
Ġte ffe
nal b
itsev ni
Ġtna ved
ĠemÃ¨ l
ĠeÃ©n ruoj
Â Ń
Ġtna ya
Ġsrol A
uo m
Ġtiar ruop
o V
ĠÃ©tÃ© icos
Ġet sil
iciff id
er re
r ic
bm e
Ã©p orue
Ġni elp
Ġs Ã©n
nahc Ã©
ret nI
s iom
iu rt
Ġsnoit idnoc
ĠS E
ut it
at ip
Ġt iudorp
Ãª rp
ĠÃ©tir ucÃ©s
ts id
ĠemÃ¨l borp
Ġser ut
Ġes ab
Ġsno t
Ġsia f
iat Ã©d
tne c
Ġer il
Ġnoit seg
em Ãªm
Ġnoita v
Ã¨ is
Ãªr Ã©tni
ni oj
ruo P
uoc Ã©
itned i
!! !
4 1
ĠÃ©t Ã´c
Ġell imaf
Ġnoita m
i S
n it
an no
v uop
Ġ D
Ġs Ã©l
Ġred ia
sinim da
Ġtiar ua
is iuc
Ġs Ã©r
n ruoj
ĠÃ© ssap
ep par
g is
ua e
Ġtnem elle
o M
y ol
va s
ug Ã©r
ĠsÃ©t ivitca
Ġtna uq
Ã¨ ht
il li
0 3
e uoj
Ġsen uej
ll atsni
Ġen Ã¨
ĠÃ©t ivitca
7 1
Ġt atÃ©
c s
Ġ '
ĠÃ©hc ram
r io
Ġser u
Ġsen ia
ut ibah
en noc
. Â»
el Ã©s
tnem moc
noc ner
Ġtna tÃ©
Ġnoita silitu
Ġf it
y c
oru E
urt s
urt snoc
Ã©r ga
Ġeu Q
at ta
ts ni
Ġertne c
Ġserbm em
Ġse Ã©t
et Ãª
Ġtne ss
ir ba
yov ne
hp Ã©lÃ©t
tnesÃ©rp er
I T
pec ca
nart Ã©
o R
at E
Ġtnev iod
te ffe
x E
Ġxu er
Ġt uev
Ġnos iar
r dne
euq i
ram Ã©d
Ġre Ã©rc
re xe
i nim
Ġses irpertne
Ġeru sem
g Ã©r
ua tser
Ġsno itseuq
Ġemm ef
Ġtnen ne
s f
tne t
ia b
dne tne
Ġseuq it
ser pmi
Ġerv il
r T
Ġnoita utis
Ġel ues
er iaf
ir av
Ġsnoita t
dnep Ã©d
ĠÃ©t nas
ĠeÃ© l
Ġeuq srol
niet ta
sa b
elliu j
ð Ł
ser tua
Ġet ne
ca rac
Ġs iva
Ġnoitac if
Ġerbm ecÃ©d
icif Ã©nÃ©b
itna rag
ĠerÃ¨ inred
er io
Ġsne iv
ir va
ww w
Ġtej us
Ġrel rap
ruo s
Ġt el
Ġemm argorp
s nep
ni dro
ts ud
Ġxua evuon
Ġ5 2
id ito
il g
y hp
Ġert it
se hc
bm ess
Ġrer t
Ġf ita
Ġehc orp
s uos
/ :
Ã§ er
ro ba
ru t
iss im
Ġno rivne
Ġer ueh
Ġsr evart
Ġu nev
Ġtna ss
Ġenu cua
Ġnoit p
ĠetÃª t
Ġsno illim
^ ^
i nagro
Ġsru ellia
Ġreiv naj
Ġs enno
rop s
Ġ8 1
ru c
Ġsem mef
Ġnoit ulos
yla na
idito uq
Ġ L
ĠÃ©v uort
noita c
ĠerÃ¨ pse
l iavart
Ġ nalp
Ġ8 102
uer ueh
tnem ila
Ġse u
Ġesser da
R E
Ġ eigol
ll ec
Ġetsi xe
ilib om
6 1
et orp
on hcet
o ht
Ġru eir
Ġre il
Ġru S
Åĵ c
Ã©v Ã©
Ã© uq
Ġ P
el os
Ã «
N I
Ġxu ej
Ġdna uQ
Ġeuqit ilop
tt h
rt sinimda
ua m
sÃ¨ rp
Ġeg rahc
nim ret
Ġet rac
p tth
Ġni uj
icna nif
ro h
Ġsen iatrec
it ini
t id
revuo cÃ©d
Ġeuq ir
l A
9 91
Ã©t Ã©
Ġtnat ropmi
Ġert oN
Ġet xet
Ã©c orp
u en
ac id
s ita
Ġua eb
/ /:
s iam
Ġsesu erbmon
Ġzet isÃ©h
g ilbo
Ġress ial
Ġt a
rep us
Ġset nerÃ©ffid
ĠâĢ ¢
pm ahc
t rap
Ã¨l pmoc
Ġsno r
itnes se
inu Ã©r
ro t
art s
irp se
m u
Ġsia tÃ©
Ġsiof rap
ser Ã¨
Ã©d isnoc
Ġt rof
o o
Ġ hc
itc elloc
Ġerbm etpes
un itnoc
it Ã¢
et a
et t
Ġerv ius
ig Ã©l
irt celÃ©
Ġec apse
Ġsiup eD
Ġnoit nev
cep s
Ġerd nopÃ©r
tsud ni
a S
ĠÃ© p
ff uahc
iciff o
Ġ4 1
Ġt Ã®
Ġic ioV
Ġs ram
ec alp
erap pa
u ap
Ġel pmexe
il os
art noc
Ġse ug
7 102
Ġ or
oc s
ĠsÃ¨rp ua
im ul
Ġnois rev
ĠÃ©n nod
v uo
Ġerb otco
it lum
ic remmoc
at Ãī
k c
s d
Ġni ol
Ġerbm evon
Ġtnemel pmis
is Ã©d
Ġs proc
Ġxua t
lup op
ib ma
Ġerv iv
Ġnoit pec
? ?
S E
u erp
Ġt uah
id nac
Ġru elliem
icÃ©rp pa
Ġnoita Ã©rc
Ġnoita mrofni
Ġet ad
ca f
tnem Ã©l
u em
Ġtno v
Ġer neg
Ġerio t
Ġsro h
Ġtna fne
Ġtnemel a
dra j
ig er
Ġd rocca
b us
isop sid
ĠE D
ir at
Ġset unim
Ġz ed
er tua
Ġt ahc
ig iro
sser Ã©tni
Ġeuq sir
p A
Ġne yom
Ġ otohp
s nopser
t ia
Ġrinet bo
as ilitu
il im
is yhp
Ġset is
Ġc ilbup
em as
iud Ã©r
âĢ Ŀ
erut luc
Ã©t orp
Ġeuq ram
ip Ã©
Ġset s
er dnev
r el
Ġia m
R A
Ġst ejorp
il Ã©d
ral cÃ©d
Ġ1 1
3 1
ni l
Ġsnoit ca
m moc
nammoc er
tne mom
zed ner
e ew
er v
ir Ã©
Ġruot er
Ġ. Â»
Ġm um
Ġsia Ã§narf
Ġ eil
suo n
Ġsia rf
i P
Ġtna d
Ġec nerÃ©f
et is
Ġz euq
Ġst niop
es noC
its uj
Ġtnem eng
Ġev irra
Ġ6 1
uq Ã©s
s E
Ġz el
m argorp
Ġ4 2
Ġs iv
stna fne
Ġes uac
Ġs aP
Ġ (
ic rem
i R
uc ih
Ġeuq its
rep xe
iss od
iaf rap
Ġsd narg
ff uos
Ġxua vart
inif Ã©d
in um
ir g
Ġtne s
llec xe
Ġec nar
Ġedo irÃ©p
Ġer porp
f ni
ĠerÃ¨ itam
Ġsev ita
el pmexe
nam id
id nom
av Ã©
iv idni
rt xe
net Ã©pmoc
Ġua et
Ġd nof
Ġstne ilc
Ġer iL
Ġs o
tsi xe
no rt
iud noc
na C
Ġst atlusÃ©r
Ġet nev
Ġni m
g Ã©l
Ġxue y
irv Ã©f
cir Ã©ma
ila v
us s
Ġtne iar
Ġeuq itarp
c Ã©
ej us
lp xe
Ġnois serp
ucih Ã©v
Ġtnemet cerid
Ã® art
va f
Ġne iB
Ġs ulP
Ã§ narF
ed Ã©m
Ġ ]
ĠÂ °
eg as
Ġret ivÃ©
ar d
Ġu net
at snoc
Ġed om
ll i
y ts
nno srep
ser t
0 5
Ġl iam
Ġt uob
a F
il pmoc
c er
o a
Ġsio rc
ĠeÃ© m
Ġtnan recnoc
all oc
ert noc
ida lam
Ġs org
Ġtiar ved
Ġnois iv
ĠemÃ¨ ix
Ġet iv
Ġet uod
Ġl irva
Ġt elliuj
ud Ã©
nol ov
Ġenia mod
r b
ro F
Ġtio v
Ġst iord
Ġ3 1
Ġerdnerp moc
sru ellia
Ġs orue
tnem enno
Ġerut an
eirÃ©t am
no D
uq leuq
Ġnu cahc
Ġ7 1
Ġeg ami
Ġet iahuos
uc sid
il o
Ġu D
Ġsio v
re C
nopser roc
sila icÃ©ps
e Ã©d
n ul
Ġelleuq al
Ġel icaf
ĠÃ© ng
Ġstna t
anno srep
ihc ra
Ġet ropmi
d na
Ġnif ne
Ġm lif
Ġerttem rep
ĠÃ©t il
il ugÃ©r
c ilbup
t niaS
uo f
l at
Ġsni oseb
o ob
Ġli f
Ġsem moh
ell iv
sel a
Ġf itcejbo
iurt snoc
n itnoc
Ġsecna cav
res noc
seÃ©n na
io rf
Ġecna ss
Â °
Ġseuq i
y d
Ġni es
ad idnac
er ub
Ġsir aP
nig iro
r ifnoc
r iov
m e
Ġl eppa
Ġeu nev
6 102
all iv
it Ã©m
ix am
ĠÃ© sop
ed ac
ag am
ue o
Ġtna rud
Ġa rt
Ġsirp moc
Ġg olb
ruot er
Ġert auq
Ġruel av
ĠÃ©tilib issop
Ġerut revuo
elli ev
Ã¨ ll
Ġtnemet iart
ac idÃ©m
sia s
Ġ eN
Ġs Ã©g
Ã©t arts
Ġnoitac ilppa
ne l
ĠerÃ¨ ir
ĠÃ© ss
et s
Ġem Ãª
Ġses s
Ġtne c
ip ap
Ġsus sed
eng il
yol pme
e P
Ġl an
res bo
ĠertÃ® annoc
ĠeÃ© g
Ġt ra
Ġsl e
Ġsia l
ub Ã©d
Ġres ilaÃ©r
Ġtne ios
Ġru Åĵc
ser Ã©tni
ar Ã©
ĠsÃ©t ila
nar G
no igÃ©r
Ġstnem eg
1 1
Ġua esÃ©r
ruoj uA
r O
id art
sita s
n ys
Ġnoitc udorp
Ã©c Ã©rp
ifing am
Ġnoita icossa
Ġs ar
â Ĥ¬
Ġo Ã©div
itÃ¢ b
Ġertnoc ner
Ã©f Ã©rp
Ġet Ã¨
Ġeuq ita
Ġel ocÃ©
Ġre uoj
ff ihc
Ġruetc es
sop a
ib om
Ġt ua
Ġris iohc
. "
Ġzer ruop
in Ã©g
sÃ¨rp a
S I
uc Ã©
er d
Ġ dne
uqÃ©s noc
evuo m
Ġsed narg
Ġnoita s
Ġerbm ahc
Ġerb il
on ni
Ġser iat
b mot
Ġno igÃ©r
elb issop
net ni
Ġnos ias
u L
Ġtej bo
Ġecne g
Ġeir Ã©s
Ġret t
Ġstnem Ã©lÃ©
Ġsuo T
Ġtneia va
uor Ã©d
Ġsel citra
Ġsen g
c A
Ġ M
ic nirp
Ġzet iahuos
Ġseuq its
s ruoc
Ġtnem e
i xe
Ġli esnoC
o ilÃ©ma
Ġreg atrap
Ġrevuort er
s yap
Ġtnem edipar
nem a
Ġnoitisop sid
Ġset itep
Ġrer ussa
Ġel rap
Ġrep us
Ġsim rep
y r
Ġsli esnoc
Ġ q
r er
Ġell if
Ġret iforp
ir ap
Ġerut luc
Ġsruet c
Ġru ep
nof orp
im it
Ġetius ne
Ġsem Ã¨lborp
Ġtnemell et
Ġid emas
Ġtnemen revuog
Ġes nopÃ©r
Ġred named
ra t
Ġnoitc etorp
Ġtnenne iv
ue ir
Ġr Ã»s
Ġsen ne
iu S
e itros
Ġnos ia
Ġed utÃ©
k eew
Ġeria ssecÃ©n
ruo b
Ġel iciffid
Ġst rop
ĠeÃ©r ud
Ġt uf
na v
ss op
Ġ0 4
Ġstne rap
rof rep
x es
en ia
ra C
Ġno M
e iov
Ġtned isÃ©rp
Ġeuq nam
it om
na h
ĠtnemerÃ¨ ilucitrap
Ġim rap
ies ner
r Ã©po
Ġecna ssiannoc
ul l
iger ne
Ġeuq serp
Ġtne it
ubirt noc
Ġtne sÃ©rp
et rop
Ġnoita sil
Ġar ruop
Ġt ÃªrÃ©tni
hc a
apm ac
Ġen isiuc
Ã©c ca
Ġ F
nev er
5 102
Ġreg nahc
Ġzer evuort
op Ã©
ruo sser
ul avÃ©
ni v
ic snoc
Ġec rof
Ġed a
uo g
Ġsenno b
iu O
er B
x u
ap Ã©rp
t am
Ġu nnoc
ĠemÃ¨ix ued
Ã®art ne
Ì ģ
x if
e M
Ġsl ennoisseforp
Ġerv uÅĵ
Ġset iaf
iss ap
Ġsell ec
Ġt om
ir id
tna t
Ġecna hc
s ecna
ts E
il er
Ġs ab
Ġueil im
noita t
Ġa ret
Ġ00 1
lo iv
dra t
Ġtrap ulp
sir aP
u J
er ial
sef inam
ub ir
Ġt iun
if icÃ©ps
Ġ1 2
uq srol
Ġeru elliem
if idom
u rc
ira las
Ã» oc
la M
ir f
ne va
Ã©t ac
s o
Ġse Ã©r
Ġeuq ilbup
ĠelÃ´ r
nam rofrep
y orc
Ġ U
rap Ã©rp
Ġ ot
ĠserÃ¨ inred
Ġelb inopsid
Ġsnoit ulos
Ġs Ã©v
Ġeg am
ni ep
Ġeuq igol
no t
iv ic
Ġser ial
Ġrio s
Ġnoita sinagro
rp pa
Ġre irvÃ©f
f e
Ġdra t
luc iff
Ġi uo
il pmer
po da
Ġel Ã¨dom
d ub
rob alloc
O C
Ġzev ed
io lpxe
ros Ã©d
rap Ã©d
Ġua ep
ro d
is nes
i na
Ġiouq ruoP
Ġli esnoc
iu rf
Ġtia l
irba f
er u
ic igol
Ġt irpse
i N
luciff id
Ġ7 102
Ġsev Ã¨lÃ©
uf er
Ġtna l
Ġed oc
ep iuqÃ©
Ġtne l
Ġi vius
Ġn iar
Ġ 91
Ġru ed
el c
Ġseuq inhcet
Ġid erdnev
s ial
Ġa iv
es irpertne
ĠE L
ĠâĢ Ŀ
Ġser io
Ġegas sem
im ret
lla f
nos iam
E R
ĠsÃ© hc
issec ca
p icitrap
Ġerd ro
is ni
Ġtnat temrep
Ġega yov
Ġst om
no rf
ca l
o ib
mo p
Ġec ned
Ġ! !
Ġsuo ssed
ĠeÃ© rtne
Ġ w
Ġsl euq
Ġa c
Ã©r f
e z
Ġsl et
i w
Ġess ial
4 2
Ġt revuo
Ġnois serpmi
Ġl arÃ©nÃ©g
Ã ĩ
ne ir
se Ã©
ol g
e io
ys p
Ġeg Ã¢
Ġer ud
Ġte C
Ġse ir
reb il
tnem en
am rof
ua nummoc
Ġt iffus
Ġ eÃ©d
Ġn iart
ĠeÃ© s
itra uq
ihc if
Ġstnem en
sec orp
Ġ *
z et
Ã©r P
Ġ >
Ġ2 2
Ġmu rof
re S
g orp
Ġeuq inhcet
Ġret catnoc
ram er
Ġno S
ua g
Ã©t ir
Ġehc namid
atip ac
Ġnoit netta
al oc
ĠeÃ© c
m lif
Ġruoj Ã©s
id ua
Ġl ennosrep
j am
Ġnoitc ud
Ġ! !!
Ġor Ã©mun
tne ib
Ġrell iavart
Ġret ser
Ã® am
Ġleuq el
Ġiol pme
p pus
Ġsne yom
Ġec nesÃ©rp
Ġret nesÃ©rp
ir ga
as nopser
c ol
Ġegat nava
Ġic iov
ĠÃ© ll
ihc am
an Ã©m
Ġsem Ãªm
Ġtna hc
r ios
ĠÃ©t im
Ġu l
Ġ eiov
Ġs dnerp
Ġem ret
er g
ĠsÃ¨ rT
t A
Ġzer v
Ġsed utÃ©
Ġetis iv
ar c
ix elf
Ġsl ituo
Ġstnem ess
sro L
Ġ NO
Ġtio rdne
Ġret ehca
icrem er
Ġrinev ed
Ġeig renÃ©
ĠÃ©t iro
io uq
Ã©t ilauq
Ġec nemmoc
el bmes
ell imaf
Ġres nep
Ġt catnoc
Ġsio d
Ġ. .
Ġ +
ĠÃ©d icÃ©d
ic rexe
ĠetÃª uq
âĢ¦ [
Ġl eu
al ec
il oj
Ġspmet gnol
iro vaf
Ġs niam
ĠÃ©t isrev
Ġsre imerp
uo C
eirÃ©t xe
is iohc
Ġt ab
Ġr itros
Ġli eucca
Ġsno b
ru el
Ġruo ma
Ġtnemel ba
Ġ ol
tne va
c ap
Ã¨ v
Ãª pme
t rop
ca lp
rem ia
Ġten retni
Ġecna ts
Ġd roba
es ohc
Ġec nal
ĠerÃ¨ p
Ġsim a
Ġruel uoc
tnem eg
Ġrueir Ã©tni
Ġar d
Ġid nul
Ġsec Ã¨ip
Ġnoit idÃ©
tÃ© irporp
t ned
s uot
Ġnoitc urtsnoc
n its
Ġ nal
g olb
ĠÃ©rg lam
issec Ã©n
Ġtnet temrep
dne iv
ruo bm
Ġre ir
Ġell iat
Ġ eitros
Ġn iatrec
Ġa Ãĩ
o S
ru e
ip sni
Ġert oV
s nia
ies noc
Ġse Ã©di
4 102
Ġt il
Ġed nammoc
b il
Ġt ircÃ©
ilibom mi
ia v
Ġs Ã©m
Ġsd ra
ir uos
en i
Ġer oda
Ġsio b
Ġsell euq
Ġse no
nar cÃ©
on g
am a
r Ã©
Ġsiar ua
nal Ã©m
Ġrue oc
le S
8 91
enno d
Ġer ret
ne tne
Ġsre inred
iro tsih
ĠelÃ´ rtnoc
Ġeuq siup
Ġzel uov
Ġses im
ne R
Ġses irp
tne r
Ġres oporp
Ġrer oilÃ©ma
Ġtnemenno rivne
il Ã©
ir otua
Ġz ella
Ġt rom
if itne
ir ta
Ġsell eb
t il
Ġsru elliem
Ġell et
pec xe
un noc
ĠerÃ¨ m
se p
Ġeuq isum
Ġlet Ã´h
Ġnoitac inummoc
Ġ O
Ġelbat irÃ©v
Ġ0 6
Ġerdnerp pa
Ġtneg ra
Ġed rag
Ġseg a
A R
Ġ3 2
ca s
Ġen igiro
ĠemÃª M
tsi nim
o rap
ĠÃ©t iv
erc rem
U Q
Ġeuq im
om Ã©d
Ġsert Ã¨m
ecna nif
Ġq nic
yot ic
utits ni
iul ec
Ġserbm ahc
n itam
is io
il C
tnem m
Ġseg as
ulc xe
Ġret s
ĠÃ©t i
Ã« oN
ruo n
Ġerut iov
id ir
iv an
at nava
Ġl av
c ennoc
et alp
il imaf
) ...
pa hc
co ts
iss alc
ics ip
tnem gua
Ġno B
Ġes u
Ġert sinim
ifing is
Ġser v
Ġed Ã¨
s Ã©s
0 01
Ġsiam rosÃ©d
en iames
e na
Ġeni ep
Ġrir ffo
H C
itc iv
el pmoc
Ġf uas
A P
y m
A M
s ennosrep
iu P
Ġsruel uoc
Ġega ss
Ġeno z
Ġt atlusÃ©r
ĠÃ© utis
Ġeuq ahC
Ġrem rof
ĠâĢ Ķ
Ġno leS
ubir tsid
Ġecna ifnoc
ehc Ã©
Ġsel gÃ¨r
Ġsen iames
pm ac
Ġ eis
Ġd eip
ulc ni
Ġsus secorp
iuq ca
Ġet uor
io b
Ġnoita ler
ul li
Ġtne uq
nno itcnof
rahc Ã©lÃ©t
ifitne ics
iuq ni
id ar
Ġre ilucitrap
Ġrer it
irp xe
Ġtahc a
nia v
e W
Ġtna vius
at ceps
Ġel p
ser gorp
er ocne
ĠtÃ» oa
Ã´ rtnoc
Ġess iup
Ġem s
tnemenno rivne
Ġ V
es ia
Ġ6 102
Ġt artnoc
Ġ8 2
oob ec
Ġenu mmoc
Ġseria ffa
ĠÃ©tic apac
o oc
ur b
rt nom
e id
Ġu netnoc
ĠE R
t carac
Ã©p se
il pmi
ĠÃ© silitu
ra h
Ã¨ll oc
ing apmoc
lu da
o L
Ġse Ã©l
a hp
Ġxua esÃ©r
pec noc
Ġtrap Ã©d
roc Ã©d
Ġtne ilc
an Ã©ma
Ġerutc el
Ġ B
Ġn itam
arÃ© pmet
e idalam
er iat
set na
Ġeuq ig
ne f
ĠsÃ©t Ã©
e im
y ar
Ġ moc
Ġseg ami
ell A
Ġli elos
Ġt cepser
Ġruet a
Ġre yasse
Ġ6 2
da rt
Ġev uerp
id Ã©r
5 2
Ġtnas iaf
tnev Ã©
ro C
rop pa
r iffa
eg ar
Ġnoitar Ã©po
or Ã©
Ġeuqi monocÃ©
iam uh
Ã©t ila
tnem es
ue P
sel ba
eir tsudni
Ġela noitan
ert Ãª
re inred
hparg otohp
eÃ© nruoj
irt ap
of ni
Ġ. "
A C
d no
Ã¨ tsys
Ġeuq inu
Ã©l pmoc
Ġa ref
apic itrap
Ġtua v
Ġru es
I V
us iv
Ġsell E
Ã©l f
it net
o J
s elle
Ġred rag
tnemÃ©l ppus
Ġerre ug
ser da
Ġet iaf
Ġed ipar
Ġtnat ruop
Ġsre it
Ġel iuh
noc ar
ix orp
Ã© nic
Ã©t nas
Ġzer ua
Ġla noitan
Ġen recnoc
Ġrep icitrap
Ġ1 3
itc effe
Ġtnemeg nahc
Ġeg ral
Ġrec nemmoc
in na
Ġseru sem
ug Ã©l
nev retni
y S
3 102
ua n
Ġrep polevÃ©d
Ġs oN
Ġtnemeuq inu
Ġtnemel b
uc Ã©r
nem gua
z er
urt sni
Ġes set
Ġ7 2
Ġtnemel icaf
Ġri nif
ol p
sia Ã§narf
ih C
Ġtnat nom
Ġselb inopsid
ĠemÃ¨ ht
c edÃ©m
Ġd rob
illi eucca
Ġnois icÃ©d
Ġec nonna
Ġf ehc
iv noc
Ã© G
] âĢ¦[
" .
n ruot
Ġsne il
Ã¢ g
Ġelba snopser
tne ilc
um rof
Ã» og
Ã© uQ
Ġes ue
Ġel yts
ir ot
A S
Ġru eug
ess ap
Ġniar ret
Ġret uoja
Ġsf ita
Ġerio ta
tna va
E T
om Ã©
an yd
Ġsd iop
Ġec Ã¨ip
um a
rob al
Ġert nom
ut s
Ġer dnetta
Ġeno hpÃ©lÃ©t
Ġ G
tna dnep
o la
E L
e uo
nif nE
ell ib
Ġio M
f ita
ro ilÃ©ma
ia nnoc
Ġu Ã§
Ġsruet ca
N U
sir otua
iart er
mu rof
Ġemm ag
t ra
Ġriov ecer
Ġnoita sila
Ã© rt
s Ã©d
dnepÃ©d ni
at nom
Ġeg al
ĠA L
Ġtneiv ed
rev id
a B
ell ec
eu d
ĠeÃ©v irra
Ġsec ruosser
o morp
Ã© hp
Ġsre il
2 102
Ġu Ã§er
il icaf
uej Ã©d
Ġreng ag
Ġega ssap
mo no
ut ats
ca snoc
Ġre issod
ig iler
sop moc
Ġet ros
Ġeu r
Ġl eirÃ©tam
Ġev it
pm ys
tnem ess
Ġehc ram
Ġtia rt
Ġ5 102
Ġsruoc noc
idÃ©m mi
i T
ĠÃ »
Ġsep yt
Ġst ned
se Ã©s
Ġecnar ussa
ulos ba
7 91
ri nev
p ac
iu ef
t ejorp
rio vas
elli esnoc
t o
ici mod
ðŁ ĺ
Ġ itrap
ne h
b moc
Ġeu net
Ġretrop pa
lum rof
s orue
Ġst iaf
if it
Ġnoit ulovÃ©
l iam
Ġre yovne
Ġsia nnoc
z e
snep sid
g Ã©
c el
Ġeni elp
Ġnim ehc
itna uq
Ġnoitc erid
Ġsf it
ni r
ic uos
Ġtia t
Ġehc rehc
ĠeÃ© uq
g Ã©tni
al pmer
Ã©c rof
igol onhcet
cap mi
ron Ã©
Ġet sop
ĠeÃ©r ios
id Ã©d
Ã® ahc
ucÃ© xe
Ġt ol
Ġb ew
u G
ca xe
iarv il
Ġseuq sir
er o
ennoit idart
Ġevuort er
Ġeug nol
Ġsem rof
iart noc
Ġd rager
Ã©t ic
i F
Ġruet ua
Ġes ylana
i hp
Ġrert nom
Ġerd rep
ami na
Ã©b il
Ġl ituo
Ġenia hcorp
Ġ &
Ġsec netÃ©pmoc
Ġa C
Ġell eppa
u ffid
ell iavart
im er
Ġr o
li ev
Ã© M
Ġtnemenno itcnof
Ġnoitc elÃ©s
ub la
Ġxue il
Ġl euQ
ar ret
or b
ulc noc
cep sa
ne fÃ©d
ir Ã©m
Ã¢ p
ssia n
Ġret lusnoc
es io
erio tsih
Ġsno siar
Ġseg ap
Ġnoitac ol
Ġi uO
ialc Ã©
ĠÃ© it
red om
Ġsno ss
itne g
rt ner
Ġt res
id im
rt nec
Ġsne it
Ġze y
eb Ã©uQ
Ġid uej
ro N
Ġse itrap
I C
r is
s am
ca b
ua evuon
Ġseuq itarp
I L
r Ã»s
Ġ9 2
g dub
Ġm k
Ġtnemelle utca
Ġesop sid
ĠÃ» d
Ġtia vuop
Ġl ennoisseforp
0 4
l euQ
itc ep
Ã©t ilib
ĠÃłl iov
Ġ nam
x irp
ir P
Ġnoita lupop
Ġsap er
Ġec nes
noita r
Ġret pmoc
Ġrev el
Ġard uaf
it eP
Ġneit uos
sni om
Ġenne yom
apm ys
oht Ã©m
Ġsni os
ĠsÃ¨c cus
ixelf Ã©r
ed a
evuo ner
Ġs oporp
iom Ã©m
Ġes ilitu
ic ca
Ġelba Ã©rga
uq Ã©rf
Ġz eir
p irc
Ġer iov
s nes
Ġc noD
E S
Ġstnem ucod
ra hC
Ġx iov
Ġart temrep
itne rppa
lp id
Ġsruoc rap
ru em
Ġ eio
Ġsno vuop
Ġstnem et
irÃ©t am
s if
Ġid ercrem
Ã¨ pse
Ġt iu
Ġsna S
no itseuq
Ã©p ucÃ©r
Ġtnem ed
ser ueh
Ġeuq ilpxe
Ġud ner
Ġtnemess ilbatÃ©
Ġsno issim
Ġec ruos
Ġne icna
Ġs Ã©d
Ġre ih
ruobm er
Ġtna nerp
Ã© S
snepsid ni
Ġtnemel atot
pm a
Ġet uah
ĠtÃ´ tneib
ro pmet
Ġec raP
rof ner
al f
e ffa
1 2
Ġse Ã©g
Ġess alc
v iv
ng is
uc ca
Ġsell i
na eJ
a da
Ġnoita llatsni
nioj er
Ġtnemet iafrap
re P
Ġten retnI
re ffo
tne iro
Ġel g
Ġselb at
srev inna
Ġret nom
Ġesia Ã§narf
Ã¢ t
Ġed utit
em ia
Ġneit ertne
or d
Ġ0 02
Ġeuq sroL
Ãª p
Ġ _
Ġsep uorg
k cots
nam rep
ĠserÃ¨ imerp
Ġel itu
I R
rop moc
Ġrehc rehc
nort celÃ©
r G
Ġeria l
Ġtias iaf
Ġsnoit isop
ig ami
la S
Ġt Ãªrp
orc im
v Ã©rp
Ġrue h
Ġeng apmac
m k
0 6
Ġi uQ
Ġreg nam
Ġset uoT
itnet op
Ġeuq itam
ĠerÃ¨ imul
Ġseria ssecÃ©n
Ġue f
set unim
suo ssed
ĠeÃ©l bmess
Ġred rager
ĠsÃ© uq
it Ã©pmoc
Ġnoita l
Ġes serp
Ġeug nal
Ġst effe
Ġnoita silaÃ©r
Ġser b
Ġid ram
an g
n nod
s iaf
Ġ ez
ega yov
na M
n itsed
ruc noc
Ġt ros
Ġ00 5
idir uj
em Ã¨lborp
Ġrec nal
ecna va
Ã©l c
Ġno ss
tne s
ennoit pecxe
e T
eÃ© v
Ġelb apac
tne g
Ġm c
ĠÃłl ed
Ġse b
er ret
ĠetÃª f
c es
neh Ã©rp
Ġ dner
Ġtnem ehc
uoc Ã©D
ro P
Ġniam ed
is u
Ġnoita tnesÃ©rp
ni S
Ġsru euoj
nerÃ©f Ã©r
Ġi nif
Ġstna idutÃ©
Ġa S
Ã¨ rc
sa v
ita motua
Ġni draj
apic inum
Ġettec er
c et
el citra
i monocÃ©
s agam
Ġsru e
Ġegas u
Ġ0 8
t irc
2 2
isni A
Ġrer Ã©g
ĠerÃ¨ir red
oobec aF
Ġtia rd
iom Ã©t
Ġno las
Ġehcorp pa
e ingapmoc
Ġ âĢĻ
Ġmum ixam
yot ten
no h
Ġl at
Ġela icos
sir uot
n ret
O R
Ġa M
cer roc
en ret
d ac
et pmoc
em rof
ruo l
at ac
ir ruon
Ġeria lumrof
sus sed
s it
u hc
ĠÃ© silaÃ©r
ht Ã©m
net Ã©d
mo rt
Ġsnoita ler
Ġser vil
d ruojuA
art nec
ðŁ Ļ
Ġei monocÃ©
Ġel oc
Ġis iohc
Ġseuqit ilop
Ġ. ...
ic a
t ejus
ĠÃ© nno
up pa
ĠÃ©c nemmoc
irt Ã®am
Ġ X
Ġeg alliv
E C
Ġud netne
ĠÃ©t is
f Ã©rp
su J
ts noc
Ġep oruE
evuo N
imit po
al g
Ġtnem Ã©m
ĠeÃ© p
ht yr
t Ã´
a D
Ġla icos
Ġtnemet rappa
no N
Ġst em
Ġtna ruoc
Ġerbm em
ĠÃ©tila Ã©r
nar b
ĠsÃ©t ilib
Ġ narcÃ©
!! !!
Ġre unitnoc
nac Ã©m
ĠÃ©t in
t iun
Ġ oc
ed named
stne ilc
imer P
ruoj noB
Ġre yap
Ġem igÃ©r
et iv
Ġla Ã©di
Ġnia b
ut rop
Ġrer apÃ©rp
e ff
noit ca
ip oc
l ov
ĠenÃ¨ cs
Ġser porp
si D
etÃª t
tnadnep eC
Ġet revuocÃ©d
i pmahc
Ġtna net
Ġsd nof
Ġa d
Ġnoitam mosnoc
Ġre y
Ġep icnirp
set t
oo G
Ġet rof
Ã©r C
r ret
Ġ4 102
Ġecna ibma
eng iesner
Ġre utceffe
Ġz evuort
Ġnia hcorp
og Ã©tac
uo S
Ġsio l
lu ev
ĠÃ©tilib asnopser
3 2
ar Ã©n
Ġet rep
ĠÃ© b
s Ã©r
Ġtne hc
xue im
d A
ug if
Ġsl if
ĠÃ©t uanummoc
Ġet revuo
Ġrev irra
u el
euq its
Ġsf itcejbo
Ġni os
rtnoc ner
I S
Ã©h da
al P
Ġsruet a
ĠtnemerÃ¨ ilugÃ©r
ad nof
Ġxua mina
Ġt er
sÃ¨ c
h ta
Ġrirv uo
Ġtnen nerp
1 102
i C
Ġeu nitnoc
ohc ysp
ĠecÃ¢ rG
Ġb ulc
A T
rof fe
reb Ã©h
ul fni
re B
Ġeuq ifingam
x iohc
iv reS
Ġehc uot
Ġli erappa
ĠÃ©tiro jam
Ġst ejbo
u P
ne V
dro ba
Ġer ircÃ©
Ã® ob
nim ehc
ir pmi
ĠÃ©d named
tna fne
ĠÃ©tim ixorp
ðŁĻ Ĥ
r iv
Ġer dne
id uj
ng iesne
ĠtnemerÃ¨ itne
Ġnoitp irc
se R
Ġsno lla
Ġeriot irret
ill etni
Ġep atÃ©
Ġerd nietta
Ġt rofnoc
s ima
Ġxua icos
Ġnoita ts
ĠemÃ¨ isio
Ġer iudÃ©r
iv irp
Ġsep iuqÃ©
Ġtnem evuom
os ipÃ©
it sef
Ġrinev er
utc urts
R O
urc er
Ġt atE
nig ami
Ġl evuon
olp xe
Ġecnass iorc
ar T
Ġecna dnet
ov orp
eu tnevÃ©
el pmis
Ġl eb
ic ni
Ġl os
Ġsel Ã¨dom
Ġnoitisop xe
noc ni
erc es
Ġdnerp moc
Ġedo htÃ©m
Ġru ess
Ġegat rap
ru r
b ew
enno ita
Ġmum inim
d nof
E D
Ġec remmoc
Ġstnat ibah
ss A
irÃ©t carac
ov Ã©
erb il
I D
Ġtrop s
seuq it
Ġt ruoc
Ã©lf Ã©r
Ġtnav A
s otohp
ico S
Ġxuer ueh
Ġua erub
Ġstne mom
ĠÃłl ioV
s I
Ġc rap
e ht
Ġsia luov
Ġsno d
Ġnoitp ircsni
Ġ eidalam
s im
i z
Ġre itrauq
s iv
tnem ell
r evart
en im
Ãª v
ed ivÃ©
Ġ Y
am ron
Ġsdra illim
Ġid im
) :
tna netniam
acid nah
ic og
Ġue iD
am mosnoc
)... (
re h
Ã©tir ucÃ©s
Ġrueh nob
il la
ol ip
re V
nem id
Ġtne luev
ad Ã©p
ru g
Ġtnemel arÃ©nÃ©g
Ġed noces
Ġetna tropmi
Ġel arÃ©nÃ©g
uo B
ni om
ra ll
ĠerÃ¨ tcarac
ita ts
Ġud rep
Ġtna eg
nits id
s irp
itc elÃ©s
Ġred Ã©cca
Ġxuev ehc
Ġruoj noB
Ġo g
o B
eg nad
on Ã©r
Ġecna va
f noc
nimret Ã©d
Ã©p us
Ġre it
eud ividni
Ġre ipap
Ġtneme iap
Ġtrop snart
gni v
Ġet imil
Ġno N
Ġett ul
Ġset rac
Ġsrev inu
ra B
Ġse Ã©v
or retni
Ġuv Ã©rp
uc lac
f it
Ġtnem Ã©crof
o T
irc Ã©d
Ġec aciffe
Ġsno soporp
ira netrap
Ġser ffo
Ġeuq opÃ©
Ġseria netrap
l et
Ġtna dne
0 8
Ġtnemes uerueh
rep a
aloc ohc
alp Ã©d
f A
Ġres ila
Ġre icifÃ©nÃ©b
Ġsnoita mrof
a L
o ilb
Ġru eis
0 102
Ġtner Ã¨
Ġtnemet Ã¨lpmoc
Ġre nem
ol c
Ġ issuÃ©r
uoc ne
Ġsruel av
ĠemÃ¨isio rt
Ġia l
ssec ca
Ġertne C
en Ã¨
ĠedÃ¨ ssop
Ġeria ffa
xue y
Ġel ac
Ġsia remia
Ġec irt
Ġnoitac udÃ©
Ġtuot rap
no sias
Ġtnemen Ã©vÃ©
Ġx is
a idÃ©mmi
x ued
nia M
ts igerne
g iod
Ġ eim
ser bm
iom irtap
Ġsruet asilitu
uo ma
Ġtnemeng iesne
Ġri neva
y L
Ġell euQ
ni ol
Ġsem Ã¨tsys
Ġtnem em
Ġeig Ã©tarts
Ã§ rag
Ġecna tropmi
rc omÃ©d
ta d
tnem ucod
ĠÃ©t rebil
ĠtÃ» og
Ġse ig
Ġsel p
Ġ H
em moh
Ġzer es
io tÃ©
Ġt ac
Ġ5 4
Ġerutc urts
ip s
Ġnoitcud Ã©r
Ġsro L
Ã©d Ã©f
Ġz elliu
i A
Ġeuq isyhp
ni F
ĠT E
Ġzerv uocÃ©D
nit ek
Ġrert nocner
Ġtnor ruop
z id
Ġni oc
if ilauq
Ġelb uod
u D
ab olg
ĠÃ© Ã©rc
Ġell ennoisseforp
e V
irp pus
Ġert tel
I I
nor hc
h s
ru eir
ni p
Ġnoit net
Ġnoit apicitrap
le B
Ġri hc
ic Ã©r
luc ric
Ġet iord
ic sid
sre P
is ulcxe
en uej
ĠtÃ» oc
Ġec nerÃ©ffid
icog Ã©n
Ã¨v Ã©
noita v
Ġen icsip
Ġxua eb
uae B
eu xes
Ġx id
uo h
no pa
ua j
ruo J
ag Ã©l
Ã©m A
Ġseuq itam
z z
ue irÃ©t
s c
Ġr aC
rall od
v uam
Ġecne ga
a G
Ġseria tnemmoc
Ġerv ueo
Ã©t til
nam ella
ed ni
ev ita
Ã©v Ã©r
sru el
red ia
ĠetnesÃ©rp er
Ġc nalb
e B
Ġl Ã«oN
Ġte gdub
orc ca
er dnerp
Ġesset iv
Ġnoit is
ll iavart
il at
Ġtnem ulosba
io r
Ġ3 102
Ġstnemen Ã©vÃ©
t ueP
ĠtÃ® arap
Ġsru ess
Ġtnemela nif
g no
Ġes irc
uo R
Ġer ircsni
Ġruet uah
Ġ0 7
if Ã©d
Ġu O
io rdne
Ġren imret
g Ã©n
sen iames
nno is
ehc rehc
nep Ã©d
Ġeg nahc
se ug
enno h
iro irp
Ãª rof
ĠÃ© ilbup
Ġelli ev
d narg
Ġsell if
... [
Ġnoitnev retni
Ġse x
ro da
Ġno nis
ĠÃ©t nolov
Ġerio rc
ira M
Ġ Ġ
Ġev resÃ©r
Ġreg Ã©torp
Ġtna tsni
isÃ©r P
ul la
Ġrio n
Ġial Ã©d
noita mrof
i en
elbmes ne
Ġesim er
Ġnoita rtsinimda
itra P
s ess
Ġruet om
it ta
ser ial
Ġxu eiv
Ġset rop
orp pa
ten retni
Ġt ius
h g
o Ã©g
re iv
ris ialp
ĠecnerÃ©f Ã©r
eg ap
e itnarag
Ã©hc ram
Ġehc ramÃ©d
og adÃ©p
niav noc
tnemel gÃ©r
ser ut
Ġses nopÃ©r
x uer
er iot
Ã¨ mo
Ġet ivni
et uot
Ġsell iv
ses ohc
k s
en u
iol pme
Ġtnadnep ec
Ġret isiv
Ã©d a
z es
ib ac
ĠÃ©m ia
Ġen iatrec
Ġ2 102
if Ã©nÃ©b
c elloc
ul Ã©
ĠÃ©tÃ© irporp
ia F
Ġst iurf
Ġz eg
m ad
st atE
ec uod
r euq
re ht
ol f
Ġu c
uq siup
p Ã©d
Ġnif A
Ġs inU
Ġed iug
Ġenno B
Ġ euoj
Ġec icrexe
Ġc urt
m c
uort er
Ġsem ret
noit isop
Ġecna Ã©s
er f
Ġl ac
iuq nart
ĠsÃ©t ic
Ġr ivres
Ġtna Ã§
Ġtnemen iatrec
Ġet on
Ġem si
Ġno inU
nret la
i W
Ġret set
Ġre ilbuo
Ġnoita rg
ĠÃ© tnesÃ©rp
ra G
Ġr itnes
Ġxua col
Ġt capmi
Ġle icigol
iro g
ur B
Ġet uocÃ©
us Ã©r
Ġne iditouq
Ġsell imaf
ĠetÃªuq ne
na f
Ġtnar uatser
Ã©r Ã©c
ne iditouq
ap s
ni hc
Ġsniat reC
Ġeuqit uob
Ġr iga
Ġnos iarvil
noita N
srol A
Ġxu eir
V T
ec rom
Ġr illieucca
Ã©t s
Ãª rtxe
Ġua edac
ix ennoc
Ġsl iatÃ©d
irb ur
Ġnoita rapÃ©rp
sia M
c nab
ort ni
ifit rec
Ġzeuq ilc
Ġec ner
Ġunev ed
tna tsni
Ġseno z
9 3
o va
Ġet Ã¨lpmoc
a N
bmess ar
Ã´ lpid
uo hc
sno itseuq
Ã¢ hc
Ġel ucihÃ©v
Ġem lac
ĠsÃ¨ rg
ir Ã©mun
Ġni v
Ġtia ved
Ġz en
tab moc
Ġs i
Ġehc uag
Ġell ia
tua h
Ġtel pmoc
ep polevÃ©d
ar hp
Ġenno itcnof
elc Ã¨is
eria ssecÃ©n
ev res
Ġu luov
iar g
Ġreil eta
sila nruoj
Ġecnes ba
Ġ eingapmoc
a id
Ġtna sserÃ©tni
o irÃ©p
Ġegatnava d
Ġreif irÃ©v
Ġer iurtsnoc
Ġst ejus
Ġgni k
Ġsecna ssiannoc
Ġriov ed
utrop po
s proc
Ġd narG
s le
f ac
ull ec
Ġsd eip
tnemÃ©l pmoc
Ġeg uor
Ġsrev id
Ġtia llaf
x uev
Ġsiav uam
Ġecne icsnoc
Ġi ma
euq ilbup
Ġr inruof
erg er
Ġecaf rus
A L
o Ã©div
Ġrell atsni
Ġsc ilbup
S U
im ed
euq ig
s iva
Ġl atot
nerp ertne
nia rtnoc
Ġet uoT
Ġtneiar ruop
ĠÃ©c nonna
puoc uaeb
us si
s igÃ©l
Ġenne Ã©porue
Ã¢ Ã©ht
rus sa
s inU
na S
m m
it rA
Ġes ruoc
it Ã©p
Ġtnor ua
ĠE C
Ġ5 3
res Ã©rp
Ġec ilop
Ġsu nev
st atÃī
Ġtnadne P
Ã© ni
nar uatser
o D
ĠsÃ©t luciffid
Ġtnemel apicnirp
r ia
spmet gnol
er ueh
r ella
i pm
se D
Ġnosia M
Ġne ic
Ġs or
o H
Ġerttem er
Ġtnav uop
ap sE
Ġtiaf rap
Ġxue D
Ġs av
orÃ© a
Ġset xet
Ã¨ t
Ġseg atnava
Ġh A
âĢ ĺ
Ġn gis
Ġt amrof
sio b
Ġrio luov
Ġsert nocner
Ġno d
st iudorp
ruoj Ã©s
Ġ ov
Ġseru elliem
Ġeir ogÃ©tac
A F
ib o
Ġer oc
Ġtnemev ita
li k
ĠE T
Ġs od
Ġngis ed
Ġtnemeg agne
ni oseb
ni uq
Ġtnem ucod
0 7
l is
Ã©t Ã´c
it U
Ġreng apmocca
i nom
ue irÃ©p
a H
Ġruet cerid
ep uorg
s iov
seÃ©n nod
isrev inu
ĠÃ©it iom
ep oruE
Ġt iutarg
ĠsÃ© il
ĠeÃ© utis
la V
es rev
mo lp
nitek ram
Ġs mlif
ĠÃ© ralcÃ©d
Ġtna nev
euq ita
il pmis
Ġerut arÃ©pmet
euq igol
Ġsed named
Ġecnass iup
sno is
Ġren uejÃ©d
Ġen ihcam
Ġreuq ilpxe
enno itcnof
Ġres inagro
ico ssA
9 002
Ġ od
_ _
Ġ0 9
e iarv
ue S
ss iup
Ġsnoitat serp
la Ã©rp
ðŁĺ ī
ser iat
Ġsroh ed
tnem ev
el g
sa h
Ġerud Ã©corp
ĠeÃ© ss
Ġtia lla
Ġeil oj
z ess
er vil
Ġ eid
ses irpertne
f a
Ġeigol onhcet
Ġd noces
Ġneib moc
Ġso Ã©div
Ġsno iss
ca J
Ġseg annosrep
em ref
p y
e o
Ġret net
z eva
Ġes ilg
ic iduj
ba f
Ġeria srevinna
Ġsed a
Ġesia vuam
u B
Ġsell et
no rp
Ġnoita g
sem mef
oilb ib
Ġsno iva
Ġt ircsni
Ġt iv
ec ivres
ĠeÃ©n nod
Ġell iavart
ias se
Ġs arb
Ã©g renÃ©
Ġnu mmoc
ruo ma
ĠÃ©t id
Ġsne ic
if itnedi
elliev rem
y aP
Ġtneiv noc
ĠsÃ¨ D
Ġen iat
Ġc as
ita f
Ġseng il
ar B
nol oc
Ġâ Ĩ
Ġes uer
6 91
g us
Ġsec rof
Ġtnemelba borp
Ġrer tne
Ġtna ssap
Ġtnat rop
Ġret nemgua
Ġ NE
ua S
niam ed
ul f
Ġru eirÃ©txe
Ġstnemess ilbatÃ©
Ġt atÃī
Ġtna m
on ga
Ġno inuÃ©r
Ġre ihcif
ih s
Ġetxet noc
Ġeg alp
ib us
t ej
no F
Ġet ca
Ġsia Ã§narF
Ġel puoc
t ios
s Ã©n
Ġelb iaf
Ġer ip
Ġehc ir
eva l
i H
hp s
Ġeria F
rev ih
0 9
Ġnoit idnoc
ue il
acid nys
unim id
Ġua elbat
Ġst el
e ia
Ġer rev
ubirt ta
Ġelb issecca
ed iv
Ġega iram
c iv
Ġeir tsudni
ĠÂ ²
Ġtiard uaf
Ġle ic
Ġsenia mod
Ġre itÃ©m
Ġtnem ecnanif
ĠÃ©l c
nehÃ©rp moc
Ġeng is
Ġsem margorp
c uA
Ġne ihc
Ġsial gna
ulov Ã©r
xua icos
ueirÃ©p us
u H
ĠSE L
Ġnoitc elloc
Ġ iloj
li elos
Ġstna picitrap
mon Ã©hp
ca rt
ertne c
Ġell eppar
eg irid
Ġret cepser
Ġtnemeg ol
Ġeg annosrep
arf ni
Ġnoita d
stne rap
s um
Ġeg nahcÃ©
Ã© ssap
eu nna
e in
g ne
et ne
Ġt cerid
Ġegas iv
oc Ã©d
Ġsnoita icossa
Ġtne sop
Ġs p
Ġreif idom
Ġrev ih
tnem ela
ĠÃ© soporp
f erB
Ġeroc nE
arÃ©n Ã©G
ĠeÃ© ng
Ġruet asilitu
Ã¨l Ã©c
Ã¨ hc
ĠerÃ¨ tsinim
o ir
Ġsa idÃ©m
ehc Ã©d
c nod
nev noc
5 4
ua et
Ġtnemess itsevni
rap sid
em mef
ua ep
Ġni cedÃ©m
no g
Ġ00 3
Ġsnoita rÃ©po
t ircÃ©
Ġer dnetne
bm ys
stna t
Ġerv uo
Ġsre illim
li eucca
Ġec itsuj
Ġnoitc es
Ġsehc rehcer
ts op
ehc rehcer
ĠeÃ© hc
y x
Ġk c
ĠÃ©b Ã©b
Ã® arf
R U
Ġeug ol
Ġtnemet rapÃ©d
Ġsec apse
Ġre bmot
Ġelbissop mi
Ġer iomÃ©m
uo tne
ĠerÃ¨ irra
ru S
ec Ã©r
l arÃ©nÃ©g
Ġtia v
Ġle itnesse
ĠtÃ® annoc
Ġr f
Ġsnoit isopsid
iuq il
a el
Ġeuqi hparg
ĠserÃ¨ tirc
Ġes icÃ©rp
Ġtne llecxe
a nem
en nap
ĠNO IT
Ġru er
Ġes ahp
ĠecnerÃ©f noc
Ã©c s
Ġela noitanretni
ar Ã©po
id retni
art xe
Ġsel ucihÃ©v
na ba
Ġses revid
Ġer ffihc
E P
Ġret Ãªrra
li esnoc
Ġne iR
Ġru eva
mo D
Ġeir et
s niam
Ġm ubla
Ġnoitpec noc
ud om
Ġes iv
Ã©tÃ© icos
Ġ eitnarag
Ġs Ã©p
Ġia res
Ġetrop pa
rap moc
Ġerd niom
igÃ©l ivirp
Ġel Ã®
ĠÃ©t uaeb
ĠertÃ® arap
Ġsec alp
Ġev Ãªr
id narg
t nos
e utitsnoc
irporp pa
inam uh
erbm etpes
t ram
Ġst ahc
ua y
Ġett el
o k
e ita
Ġstnem epiuqÃ©
Ġ ena
Ġret on
Ġsec neg
al pme
Ġtnemet caxe
Ġnoita ulavÃ©
ned Ã©cÃ©rp
Ġ) ...
Ġt revuocÃ©d
em mos
e hC
Ġnois net
Ġsep atÃ©
ĠsÃ©tÃ© icos
Ġ ir
iarv ed
euc er
Ã¨mo lik
Ġsets itra
Ġsia res
robal Ã©
it repxe
Ġtnemel gÃ¨r
Ġ $
Ġla noitanretni
Ġnoita tnemila
Ġrio V
ĠeÃ©t rop
Ã¢ l
mad noc
Ġse Ã©m
ĠÃ©t rop
Ġet net
snoita mrofni
Ġstna vius
Ġeru tneva
Ġzeva s
Ġl apicnirp
Ġess iab
Ġ eiarv
it rev
Ġeg ats
Ġsdnerp moc
Ġu s
Ġtne ng
t no
Ġser utcurts
ĠsÃ©l c
it pec
p ur
Ġnoita tnemgua
5 3
en isiuc
ibo motua
m al
ser ts
8 002
Ġnoissim moC
Ġtnemeg ral
Ġser iot
NE M
dna ts
Ġen iomirtap
Ġeria m
nav er
o ts
id Ã©p
Ġer dnev
Ġelg ooG
ĠsÃ©t irotua
E M
Ġsiof etuot
Ġl erutan
Ġren ruot
Ġru erre
Ã©ht se
d nal
Ġs ud
ne it
t rom
if itsuj
Ġhc tam
Ġev Ã¨l
Ġel at
rts igerne
ht apmys
r if
ĠÃ©ss ial
Ġerdnerp er
euqit ilop
Ġru d
Ġsetna vius
ĠÃ©tic aciffe
ĠÃ©t itnedi
S P
ĠÃ© fac
ed nammoc
Ġets isnoc
z ev
Ġsec ruos
Ġecna ssian
n noit
secna cav
- -
ua L
Ġnoita rap
ic ar
ĠsÃ© iralas
Ġsett ecer
Ġze nerp
e ifingis
co d
Ġecna tsid
Ġet nas
Ġr ialc
Ġelc atceps
Ġeuqir Ã©mun
Ġsegas sem
b ulc
Ġ dnetta
Ġel orap
nol p
Ġsen Ã¨
Ġtnemeng apmocca
Ġeg ag
e icremer
Ġ eutitsnoc
D P
Ġxu apicnirp
d Ã©r
e hp
Ġseuq leuQ
Ġt Ãªrra
c effa
eu v
c id
Ġseuq ram
t nal
euo va
rtnec noc
Ġs il
Ġstnem etÃª
Ġt set
ruo tne
d noces
Ġel icimod
Ġl ov
Ġecne c
t itep
Ġt rev
ĠÃ©s nep
rd uov
i pahc
Ġnoitat iolpxe
ar etni
t rof
ne pmoc
ne iB
revuo c
ir hC
ĠsÃ©hc ram
s w
Ġtna silitu
ĠemÃ¨ rc
Ġz ag
egas sem
se Ã©t
Ġsel c
Ġeria tnemmoc
6 2
Ġrir uoc
a w
onga id
ell if
ĠÃ©t itnauq
Ġerd niojer
Ġess arret
erp orp
iv ivnoc
Ġret ilicaf
am mod
Ġert s
Ġsed ohtÃ©m
Ã© F
nahc ram
Ġ eh
ni draj
Ġseg nahcÃ©
tnem irÃ©pxe
el er
Ġar ved
nos iar
en na
p ircsni
Ġel o
up op
Ġ ek
Ġtab Ã©d
tnem adnof
noita mrofni
el ocÃ©
Ġt pecnoc
b O
Ġ1 102
Ġsert Ãª
* *
id Ã©rc
Ġelb ar
i pa
7 2
t iudorp
et Ã¨
Ġnoisserp xe
sial gna
iuc ric
ĠerÃ¨ it
Ġic ec
Ġsreil eta
ru b
Ġeria loc
Ġa pmys
ap Ã©s
Ġsno itcnof
iu f
bm aj
ua P
Ġsnoitac ilppa
yl op
ĠÃ©v irra
Ġl eÃ©r
Ġu ss
Ġret pada
Ġtna ng
Ġsnoita r
mono tua
inÃ©g ni
Ġa g
up Ã©r
Ġze nev
Ġses ia
Ġseuq igol
Ġst adidnac
Ġsf irat
Ġtnet tem
na B
nia lp
Ġsr eg
Ġsno siam
ĠstnemetÃª v
euq im
z iro
Ġnoiss ap
op yh
sni oseb
sel oda
Ġ pmahc
Ġer iudorp
Ġstnemeg nahc
ĠÃ©t pada
Ġeria tÃ©irporp
ra hp
Ġsel las
P M
Ġse igolonhcet
al er
Ã§ noc
Ġse S
et uoT
s ta
ull op
Ġsecne uqÃ©snoc
ut ir
tua f
ort Ã©m
ug Ã©d
tneg ra
e ima
Ġy r
Ġs iuP
Ã©t ivitca
uoj A
ut iS
na iv
uc xe
par f
ta gilbo
Ġer iruos
Ġd uahc
Ġtid Ã©rc
esia Ã§narf
ruo g
Ġsirp pa
Ġtnem Ã©s
Ã©t Ã©m
Ġstnem engiesner
z el
ni d
Ġ eifingis
ut uf
Ġsru es
Ġsel ocÃ©
if irÃ©v
Ã©l Ã©c
Ġed utibah
Ġstne sÃ©rp
arg Ã©tni
ĠsÃ©t iv
ten retnI
Ġem htyr
tnem erÃ¨
Ġt euq
ĠÃ©rg laM
k a
] ...[
c sed
Ġst repxe
sen ne
no issim
Ġ N
Ġsen ummoc
Ġsne ib
Ġfit isopsid
Ġrueta nidro
ev it
ĠerÃ¨ ts
Ġegass itnerppa
Ġsleuq sel
uel ahc
Ġtne itnoc
Ġk oobecaF
ir uot
Ġeuq irotsih
Ġerre iP
8 2
em ret
ĠÃ©c nal
Ġs w
Ġp ot
ec af
Ġeuqilbup Ã©R
Ġno ixelfÃ©r
Ġtnemell eÃ©r
euq isum
ug ra
Ġta iranetrap
Ġs nu
iro lav
ĠeÃ©lbmess A
Ġeu nnoc
er iD
Ġtrop pus
Ġer ussa
ĠÃ©uq idni
nu rp
Ã¨ s
ropmet noc
ut sa
et xet
il if
rts ulli
rab Ã©d
ar ip
hp tram
Â ´
Ġr elliesnoc
sec ivres
no norp
Ġs itrap
U A
Ġa re
Ġsruoc er
ĠseÃ© uq
Ġt niaS
9 102
at Ã©m
set Ãª
ĠÃ©t Ãªrra
Ġtneiv er
Ġr ilpmer
im da
euq opÃ©
sem moh
ser ga
irv uo
Ġnoit irap
Ġenne icna
ola id
Ġsrev ne
Ġd nopserroc
Ġelba snepsidni
ul as
I M
Ġtnemm edivÃ©
ru eh
ej am
Ã©h oc
tsi H
ro oc
v res
reg nartÃ©
Ġsehc orp
euq itarp
Ġ) âĢ¦
Ã©f ni
Ġnoissim moc
Ġnoita roballoc
Ġt nietta
set s
ua l
bm a
uor G
rueir Ã©tni
s ptth
Ġnoitac irbaf
Ġeg nalÃ©m
Ġen Ã®ahc
Ġehc if
Ã© J
Ġni l
Ġno ixennoc
ret t
op sid
m uh
Ã©rp retni
Ġl ooc
Ġtnemer ialc
idÃ©r gni
Ġru ennoh
Ġruel ahc
erut iov
no issap
itcep srep
eg Ã¢
Ġstne itap
uop Ã©
ni mod
Ġ ht
ilb uP
pahc Ã©
Ġselba snopser
uss uahc
Ġnoit po
e Ã©rc
Ġed rager
Ġzeuq ilC
sehc ir
Ġeuqir fA
tna v
Ġnal ib
Ġnot uob
ru eb
ov Ã©nÃ©b
Ġet ov
no hpÃ©lÃ©t
an Ã©cs
Ġd iorf
Ġt cepsa
Ġnoitpec Ã©r
Ġemrof etalp
Ġem ref
Ġsli erappa
Ġetna vius
Ġsna lp
Ġess ec
uc orp
nurp me
Ġelp uep
Ġtneia res
euq inu
Ġegar uoc
t ar
Ġ dnepÃ©d
d rocca
Ġsr iov
Ġerialoc s
Ġtnem itÃ¢b
ueir Ã©s
Ġess uah
Ġa da
alc Ã©r
Ġtnet ser
ue H
et ta
ĠÃ© sinagro
yorc ni
Ġses ue
c O
o moh
Ġei nom
Ġze ilbuo
Ġ0 102
Ġt o
Ġset pmoc
la g
Ġtnem Ã©lÃ©
rac Ã©
er iartnoc
Ġt sE
Ġeb mot
liev rus
ro g
et uob
nerÃ©f noc
nar ussa
erÃ¨ m
Ġrueis noM
Ġeg ahc
Ġt alp
ini po
Ġem it
ĠerÃ¨ fÃ©rp
sno itc
erb otco
Ġnoita ralcÃ©d
sro la
Ġzes nep
ort s
ang iomÃ©t
eg ami
Ġelc Ã¨is
9 2
tnemen revuog
dne it
ĠeÃ© lla
ĠsetÃª f
e iap
p oc
Ġre ug
Ġrue uoj
Ġess org
rio n
os ol
siam aj
Ġs puoc
Ġr utuf
iart ne
Ġeuq irbur
Ġes Ã¨ht
Ġnoita nitsed
Ġic eC
U S
se ir
Ã©d om
Ġxua evin
erbm ecÃ©d
ĠÃ©t ehca
itam ilc
Ġreg rahcÃ©lÃ©t
Ġt utats
Ġxue ic
Ã¨ht oilbib
Ġegar vuo
Ġnoita roilÃ©ma
ih P
ne morp
Ġtnemeuq itamotua
e ba
alc Ã©
es ue
Ġsruet isiv
re T
Ġtnem itnes
Ġsne icna
Ġre ilibommi
Ġsem ra
ĠsÃ©s ilitu
l ennoisseforp
Ġf uen
ni uj
. âĢ¦
Ã©l l
Ġtnemet suj
Ġtia ss
snoita c
Ġse Ã©p
Ġa p
ini M
sec ne
Ġel uc
Ġtna uQ
to of
Ġno ng
Ġel atot
e y
lli ev
Ġet issuÃ©r
.. ...
dne lac
ia c
ro l
Ġeuq irtcelÃ©
uem mi
Ġtnev uort
ob or
iu G
nar T
ev uas
Ġnoita sirotua
its ongaid
ref snart
as iffus
Ġela idnom
Ġser ffihc
g nartÃ©
Ġt am
Ġar dneiv
rt ta
Ġsnoitc elÃ©
Ã´ C
Ġset iaF
I F
iov Ã©d
Ġtnen nod
d us
s iuP
ra z
ziro h
et uor
Ġsiar ruop
ni M
es irp
c ar
te M
Ġtnauq ilc
Ġne ma
Ġsem itciv
la C
is sergorp
Ġtnemev itceffe
sila nnosrep
Ġr elliev
â Ĩ
Ã©v irp
Ġg nas
uss ar
yx o
Ã´ hc
or ret
cet ihcra
Ġtned isÃ©rP
tnem elle
erbm evon
tnemet rapÃ©d
Ġst roffe
Ġse M
Ġsr uot
e hparg
l ennosrep
Ġer cus
O L
uf rap
l eb
oh s
Ġsre ihcif
ir ne
Ġell iesnoc
p moC
Ġet Ã®ob
Ġs ofni
Ġna mor
Ġzey os
up Ã©d
Ġsia rduov
Ġeuq in
ev rec
ol oc
seuq i
Ã©t iv
Ġ eS
Ġm m
Ġsem ron
Ġsnoita v
Ġtne iarved
Ġ v
irog Ã©tac
Ġst ÃªrÃ©tni
se ga
Ġsne yotic
Ġeio j
ĠeÃ©m ra
Ġ eip
Ã©rt noM
Ġeuq idni
iurt Ã©d
ap ucco
Ġs ub
Ġxua irÃ©tam
Ġeg Ã¨is
Ġem mos
Ġecned isÃ©r
seg as
Ġen im
ruo C
at iv
i nas
Ġ mo
ĠsÃ©tilib issop
it ro
Ġei hparg
Ġtnat tem
Ġen ir
o ol
Ġesirp rus
e ussi
ru m
Ġsnoita utis
t iar
Ġrinet niam
e H
ia L
Ġruo f
ĠÃ©sop moc
Ġio s
lu v
Ġec namrofrep
ip ac
Ġl eir
tnem edipar
Ġrueva f
l ar
u v
Ã¢ h
7 002
Ġd us
eng iesne
mo H
noita utis
ĠseÃ© il
ec aciffe
m arg
Ġsecne irÃ©pxe
Ġd nopÃ©r
Ġed nab
Ġtneiar ua
Ġtnemet ropmoc
it po
os i
C A
I P
ĠÃ© yasse
Ġnoit omorp
Ġed ut
hptram s
i elp
ruo B
ig Ã©R
Ġnoitisop orp
siof etuoT
Ġse Ã©d
) .
iuq er
ela icos
iol Ã©
er ts
Ġm a
Ġsell ennosrep
d om
Ġc ebÃ©uQ
ĠeÃ© rtner
sir orret
E V
l ues
Ġio v
Ġser tnec
ec nal
Ġni sagam
ĠÃ©ti moc
Ġtia luov
Ġrueir Ã©pus
Ġs m
Ġem sinagro
ĠÃ©l rap
nem mi
nia hcorp
osol ihp
io n
ĠsÃ©s op
st om
Ġsiv ed
evuo rp
Ġsel pmis
S A
Ġtna y
4 91
Ġeb repus
Ġet Ã¢p
ĠerÃ¨ir rac
) -
ni bmoc
t noM
il uos
ila icÃ©ps
ert nocner
ehc iM
ro B
Ġ euova
Ã¨ tneilc
Ġret uocÃ©
Ġsl ues
euq ram
Ġset ne
ĠÃ©v irp
ro pme
ruet a
Ġr ecna
t Ã»
Ġset nev
Ġert nE
is a
Ã©lÃ© T
Ġsrueis ulP
cir ts
Ġselleuq sel
Ì Ģ
re ilucitrap
ĠE M
Ġtnemem Ãªrtxe
es nopÃ©r
iss uA
ne P
tua nummoc
Ġset nalp
âĨ Ĵ
Ġse Ã©c
ni ssed
uq ne
iv id
a J
itpec sus
niv orp
Ġseg ar
Ġsl euQ
5 7
i K
cir baf
Ġsu never
Ã´ H
s ar
am ellA
Ġtnemm asiffus
c nalb
nas itra
Ġevita itini
no ss
p il
Ġess af
Ġreuq inummoc
Ġuc Ã©v
Ġt alocohc
Ġeuqita mrofni
a R
ida nac
Ã©uq ca
Ã© N
uos Ã©r
Ġegam mod
Ġnoita icossA
u dart
eig renÃ©
ilpmoc ca
Ġt iteP
Ã©l borp
Ġtna sop
r eva
Ġs rallod
im is
ecne irÃ©pxe
. ]
Ġsno ir
s ram
Ġseuqits irÃ©tcarac
ĠÃ©g nahc
Ġsid nat
norf noc
NO C
Ġnema xe
il itU
Ġno ll
Ġtna dnetta
eg rahc
Ġec iff
Ġx iap
Ġen ic
Ġselp itlum
trap Ã©d
Ġer dnet
Ġtnemet rof
ĠÃ©tisrev id
iv ed
r ela
tna tropmi
Ġtab moc
Ġnoita si
al b
Ã©n g
3 3
utc ell
ir roc
Ġtnel bmes
Ã©g Ã©v
ne G
as ivne
I O
Ġ eussi
erÃ¨ p
ess org
Ġs mon
c ebÃ©uQ
Ġnoissim Ã©
seuq its
nom er
tnemes uerueh
es u
Ġeria rtnoc
Ġrer gÃ©tni
Ġrinet uos
noit nem
Ġtna ts
Ġsno l
Ġreg a
Ġseuq im
eg nahc
Ġetne llecxe
Ġu nem
utits nI
sem irt
uoj ar
ic ilop
ĠeÃ© sop
uan retni
Ġstne ga
an gis
Ġ eÃ©rc
ilp itlum
Ġre f
Ġniam uh
Ġeria netrap
serp xe
s oh
ĠsÃ© ss
sio rc
re F
eg uor
Ġxua e
t niop
ig am
Ġrep ucco
Ġev Ã¨lÃ©
Ġnoita gilbo
Ġet uaf
am rahp
Ġtnemeg anÃ©ma
Ġam Ã©nic
Ġr itnarag
ir B
ess iav
it er
Ġl iatÃ©d
5 91
e G
u rp
ne il
e ut
Ġxuej ne
Ġret iart
ic reM
Ġnoitac ilbup
Ġem itse
cir fa
ĠÃ© yovne
Ġim raP
ec nahc
Ġno rt
ar Ã©ttil
d uS
h tua
eÃ© m
Ġtnemet aidÃ©mmi
ro loc
Ġb eW
Ġseuqi monocÃ©
Ġecneg ru
Ġnif nE
nag rO
Ġf irat
Ġiar ua
Ġruo C
Ġes nefÃ©d
Ġtnemm ecÃ©r
Ġtnemesuerueh lam
Ġeg an
Ġru em
Ġerb mo
Ġst il
Ġada naC
Ġtuaf Ã©d
m edni
Ġ eia
cat ceps
ut riv
sna d
si xe
Ã´ r
Ġecne tsixe
enno b
sirp moc
sruoj uot
Ġse idalam
rap snart
ed om
t ol
Ġes irtÃ®am
Ġer c
eno hpÃ©lÃ©t
Ġreuq ilppa
Ġt pes
Ġelba rud
Ġell iuef
it apmoc
Ġet netnoc
Ã©lc un
nom Ã©d
Ġg nitekram
ic il
Ġ, âĢĿ
Ġtner ffo
Ġst nal
ĠSE D
Ã» rb
Ġsert it
noit netta
Ġ05 1
nois acco
rag Ã©
no Ã§af
re il
oc narf
euqi monocÃ©
nia b
Ġsenia tnec
Ġep uoc
Ġsruel f
sl ennoisseforp
Ġet netta
Ġlan ruoj
Ã©rc es
ipar Ã©ht
nia rc
euqit Ã©
Ġsev it
Ġerb Ã¨lÃ©c
Ġeg all
s Ã©m
er dne
Ġ eht
Ġec ivreS
Ġseuq ita
la icos
Ġ os
Ġsno ll
L A
6 3
Ġel apicnirp
ru eirÃ©txe
Ġrehc Ãªpme
nit rep
Ã© ssop
Ġx irP
Ġets itra
Ġl acol
ar uocne
Ġsno ng
Ã¨d if
Ġset nesÃ©rp
Ã¢ c
t elliuj
re ih
ib Ã©d
euc cA
Ġenu cahc
rev irra
irt un
m um
Ġes itrepxe
Ġer iud
ell ennoisseforp
Ġeuqim anyd
em lac
rep Ã©r
Ġedo C
ert uo
Ġstrop par
Ġstna tropmi
Ġell ehcÃ©
Ã©t ilaÃ©r
Ġ9 002
Ġet ni
et iord
snoita t
a k
Ġel ibom
Ġerbil iuqÃ©
utcell etni
elba Ã©rga
erÃ¨ inred
sev ita
ehc uag
is auq
nopa j
Ġ eicremer
Ġtnan nod
o y
Ġtna sid
Ġl uc
it nem
Ġehc iffa
ĠÃ©tisrev inU
ĠS UO
ca M
E N
Ġr ilbatÃ©
Ġtna lla
Ġtnemet iutarg
Ġt nioj
Ġsem ugÃ©l
t iuq
Ġeuq issalc
ĠserÃ¨ itam
ĠS P
et nev
nec Ã©r
mo rf
Ġxua et
Ġeh T
Ġt iuh
at S
tnev uos
Ġt ellib
u sem
Ġtne ial
ru D
rur ihc
Ġsem sinagro
Ġrer tner
atip Ã´h
nev uos
Ġnoit ubirtsid
Ġevita ler
Ġrec rofner
rem Ã©
Ġem ulov
Ġnois uffid
cat noC
Ġrev resnoc
Ġed icÃ©d
Ġne Ã©porue
Ġes iM
Ġeg av
e ic
hc tam
Ġeuq atta
Ġep ucco
ig id
Ġs ol
Ġsnois icÃ©d
al Ã©
ru ep
Ġlam ron
Ġesser Ã©tni
Ġsnoita sinagro
Ġen il
ue iD
Ġol Ã©v
Ġrinev uos
id uts
Ġrel eppar
Ġrer Ã©pucÃ©r
Ġeg atÃ©
Ġeuv Ã©rp
Ġev itc
Ġelc yc
Ġsre itÃ©m
ĠerÃ¨ rf
Ġnoitnev Ã©rp
Ġsecna Ã©s
Ġset luda
ĠÃ© ilbuo
ra S
Ġ00 4
eru sem
Ġed osipÃ©
Ã© B
Ġset sil
na ro
Ġet iafrap
Ġsruoc sid
Ġc ab
et ser
Ġserio ssecca
Ġriov uo
Ġnoitc elÃ©
Ġsep icnirp
Ãª g
Ġnoita mina
s r
Ġel gÃ¨r
Ġunev er
Ġeuqi nortcelÃ©
is irap
ng i
Ġtnas iv
io c
u N
eÃ© l
Ġeg agne
1 0
Ġla nif
os Ã©d
Ġem ra
Ġsno Ã§
Ġet iudnoc
ad ilos
uor b
Ġerut ircÃ©
Ġnia cirÃ©ma
ĠÃ©g rahc
Ġw eN
iss am
Ġev arg
idÃ©p xe
ĠeÃ© silitu
ĠÃ© rtnom
Ġs Ã©c
ra bme
Ġser ud
ĠÃ©tila utca
D A
ad nam
im rod
Ġerutrevuo c
Ġpuoc uaeB
itne htua
Ġtne sid
P A
Ġt irp
ell eb
ir ucÃ©s
d nopserroc
Ġna eJ
etius nE
Ġsecneg ixe
nec il
Ġs dnetta
Ġsre ilucitrap
Ġstne c
Ġeb or
Ġf itc
Ã Ĭ
nor ffa
s oc
Ġsell euQ
Ġsruet ua
Ġres irovaf
ix ot
Ġrinif Ã©d
nno siar
Ġs uj
Ġre imerP
Ġert e
sna hc
Ġsno igÃ©r
irv uocÃ©d
erbm ahc
Ġruet ca
Ã© L
Ġtne p
ĠÃ©l eppa
Ġst ra
Ġsruetc es
r ir
et uod
noita m
dro N
sre it
Ġsel itu
Ġriov ec
Ġnoitarg Ã©tni
um Ã©r
u nna
Ġeuq nab
Ġret pecca
atip soh
ert Ã®
ut um
Ġet iarter
ir O
s Ã©l
Ġt sop
nruot nocni
Ġnam am
Ġsel apicnirp
Ġeg uj
Ġtne vas
ĠS T
Ġet Ã¢h
l Ã«oN
Ġsiava s
na L
Ġreif itnedi
Ġl amina
ro vaf
Ġlav itsef
O M
ela noitan
Ġsen u
itned isÃ©rp
ĠeÃ©v irp
Ġrett ul
nar Ã©d
ra H
rap Ã©
eug nol
Ġna f
ĠerÃ¨ icnanif
) ;
Ġstnem ila
Ġtnemep iuqÃ©
Ġlif orp
l irva
nia rret
Ġelle iciffo
Ġrem irpxe
I B
la P
ni W
ĠÃ©t luciffid
ilp icsid
Ġseg rahc
ĠsÃ©tic apac
ong apse
k ro
ser v
eg ral
if art
nac s
no isiv
Ġecnats issa
ert nE
m A
net bo
Ġrueug iv
ua H
ef ni
Ã©r g
ua erub
euq inhcet
Ã©r hc
ar G
Ġsevita ler
Ġrel eppa
erv iv
s se
Ġnoita lucric
Ġtnet iahuos
Ġset ca
ĠsÃ©s oporp
Ġunet bo
Ã©m ac
nam ruog
ĠU D
o iv
sen uej
nal B
Ġsnoit po
Ġxua edac
el ag
lav iuqÃ©
Ġerut niep
Ġ, .
itrap pa
Ġsert Ã¨molik
Ġses nepÃ©d
ada naC
euq isyhp
b irt
e ib
anÃ©m Ã©d
Ġreir ruoc
Ġzevuort eR
eÃ©r ios
Ġst ehcÃ©d
oh P
Ġr issuÃ©r
nir P
Ġst alp
Ġs icuos
Ġl ia
lus um
sruel uoc
Ġemrof Ã©r
itra M
Ġtno ret
Ġremrof ni
Ġsni f
et nas
Ġelc itrA
u M
Ġell iV
xu ec
Ġ) !
loc Ã©r
el arÃ©nÃ©g
Ġseria roh
non Ã©d
at naf
Ġd roN
st ejorp
va l
Ġsio Ã§narF
t rops
Ġtrop pa
Ġset netta
Ġdrat er
el A
Ġze neV
eÃ© c
z ag
v ehc
Ġet silaicÃ©ps
Ġriov er
Ġsem Ã´
Ġli eo
ĠtnemerÃ¨ gÃ©l
t atÃ©
ue f
Ġeriota gilbo
ini lc
Ġerre ip
uo va
Ġre utitsnoc
Ġli Åĵ
Ġnoit netni
nia s
en igiro
ro pmer
ĠuÃ§ noc
el icaf
Ã©hc Ã©
Ġsnoitisop orp
el rap
tnat ruoP
Ġela nif
Ġnoita rocÃ©d
Ġsru ed
Ġsed nammoc
am Ã©nic
rut c
o Ã©ht
Ġ5 7
t iord
Ġic uos
Ġelli eucca
s tnemet
Ġsim uos
ed rag
Ġsec Ã¨pse
b A
Ġstne r
Ġsno v
âĢ ī
Ġst ab
ĠÃ©tilib a
Ġel umrof
Ġzelliu ev
ĠÃ© idÃ©d
Ġet iS
ill oc
Ġset isiv
ac sif
Ġserut iov
Ġspmet nirp
Ġsev uerp
Ġeria tnemila
ur res
Ġsial Ã©d
uq suJ
Ġen Ã¨m
Ġsert tel
Ġet irÃ©m
Ġet issecÃ©n
Ġev Ã¨
Ġrenimret Ã©d
ats nI
c eva
se M
ac ilppa
t ubÃ©d
Ġet sav
ila nnosrep
6 0
Ġst a
rel rap
Ã¨ c
Ġelba s
ĠÃ©ti moC
Ġsen iat
tnem er
Ġu elb
ĠÃ©t inu
Ġse i
ĠR UO
or T
Ġer g
ĠÃ©tir al
ne B
Ġsecne ics
Ġst Ã»oc
Ġsela icos
vil Ã©d
ill os
ĠsÃ©tila dom
Ġrev resÃ©r
Ã©n umÃ©r
Ġet Ãªrra
Ġy t
io j
ĠE UQ
Ġen redom
Ġret ej
Ġei ulp
Ġsc urt
Ġet niop
sap er
ni A
eÃ© g
sser da
ro M
Ġsniom na
Ġreuq ilc
Ãł jÃ©d
er il
Ġsell iuef
Ġtned icca
Ġtia nev
ĠsÃ©t ivni
âĢ¦ âĢ¦
Ġze yov
ed ia
em Ã¨
irot irret
ĠÃ©v elÃ©
) !
Ġst iart
eng i
Ġ eita
ca m
Ġserv uÅĵ
Ġst Ãªrp
Ġleuq ua
Ġem Ã¢
om ta
ĠeÃ© silaÃ©r
ĠÃ© icÃ©rppa
no niS
ru ed
Ġsnia b
es ab
Ġeg ien
Ġl ar
Ġ itros
Ġes inagro
Ġev itca
noitc udorp
Ġervius ruop
Ġtnemela icÃ©ps
Ġru eL
Ġnoit inifÃ©d
ort Ã©p
eu r
ĠÃ© uoj
noitac inummoc
ĠseÃ©n ruoj
n nom
ul C
ĠeÃ© su
Ġset sop
itned ifnoc
noita silitu
hp osolihp
idÃ©m retni
Ġt re
Ġt iforp
eg at
Ġ Z
Ġt iud
ĠÃ© calp
Ġ dnetne
ud noc
ega ssap
Ġseuq ifitneics
polev Ã©D
i nap
re ug
Ġf o
Ġs in
Ġnoitar Ã©nÃ©g
Ġnoita sir
Ġrel gÃ©r
uorg er
Ġh E
Ġren ruoter
Ġ =
Ġsec nahc
Ġsias nep
Ġ8 002
ĠeÃ©s um
Ġses ab
uep ar
Ġle iciffo
O T
no ba
Ġrett iuq
Ġtnemer Ã»s
reiv naj
isrev id
Ġret nem
la h
Ġgnik rap
6 002
Ġseria tÃ©irporp
Ġsetna tropmi
r eng
lus noC
Ġrinev Ã©rp
Ġehc Ãªpme
Ġs g
ac se
nif ne
Ġed nammocer
ta hc
ecna ifnoc
em m
Ġ2 3
Ġtnemec alpme
Ġd ron
em ed
b Ã©lÃ©c
ik ooc
la bme
Ġh a
erÃ¨ irra
Ġtne ssap
erre ug
ĠsÃ© yolpme
e iparÃ©ht
Ġrueug nol
t Ã®
ir Ã©d
e utis
Ã©p oruE
Ġelb isiv
Ġru m
ĠS I
Ġtnenne it
Ġer rab
uo M
Ġtrof fe
ĠÃ©tÃ© icoS
Ġeuqit irc
Ġset tel
sÃ© hc
at I
uss A
us nem
Ġsre issod
ff oc
Ġrues seforp
Ġ iram
nepmoc Ã©r
s p
4 3
Ġehc uob
Ġer ugif
Ġl iat
Ġ ^^
Ġstne idÃ©rgni
nno tÃ©
Ġ K
iap Ã©
Ġze hC
ada M
ĠerÃ¨ hps
Ã©l Ã©cca
Ġt adidnac
em aS
Ġnoitat lusnoc
ser io
ita Ã©rc
Ġerv uocÃ©d
Ġtne ssiannoc
Ġs unnoc
Ġseuq ificÃ©ps
ĠÃ© il
U L
rot celÃ©
Ġsf itca
nec ni
ĠÃ©t s
Ġtne soporp
Ġ) .
iuq am
ueirÃ©t xe
ĠÃ© utceffe
Ġselb uort
Ġn it
Ġnoit se
Ġess am
m I
t ial
?? ?
Ġx uod
o idar
Ġs oV
if orP
e iasse
ec neg
ecalp Ã©d
Ġr uoc
Ġtnemess alc
nal pmi
Ġ ehp
Ġd a
Ġsu netnoc
Ġt erces
luc lac
ĠÃ©t issecÃ©n
Ġtial bmes
g nas
Ġst set
Ġla idnom
tnem eppolevÃ©d
Ġer ar
Ġtnemec nal
Ġsru ehcrehc
Ġsnoita llatsni
rop pus
Ġsenia hcorp
tÃ» oa
tuot rus
Ġsno s
R P
ueir Ã©tni
Ġi fÃ©d
Ġtno rt
Ġet iuS
eg dub
. %
Ġelbmes ser
Ġret ucsid
Ġel atipac
Ġh O
Ġl atipac
as Ã©d
Ġl lab
Ġnoitav onni
ta M
Ġtnemevita ler
T A
Ġf itca
Ġ eima
Ġerd uosÃ©r
Ġtnav iv
bil iuqÃ©
Ġel am
al cÃ©d
Ġst Ã´
Ġeuq ifitneics
Ġle itnetop
ĠÃ©p icitrap
Ġsr i
s Ã©g
al si
Ġs ulÃ©
p ort
Ã©f ac
Ġtnemev it
Ġsno ved
Ġert iannoc
Ġsniam uh
Ġer ir
ĠeÃ©t pada
ihc Ã©lfÃ©r
8 4
Ġr elli
t catnoc
ĠeÃ© snep
Ġnia p
ilg Ã©n
Ġud nopÃ©r
Ġsno hc
t ruoc
Ġno iva
re it
Ġseuq ig
i G
Ġs serts
lla b
siar f
Ġst iordne
9 0
ig arf
t irpse
u elf
ts et
Ġ on
uepar Ã©ht
Ġ eutis
Ġ ehparg
Ġxueir Ã©s
Ġis niA
raz ib
ua M
Ġd uS
ĠÃ¹ O
Ġrio pse
tÃ´ t
iw T
Ġes uerueh
Ġsec namrofrep
i nalp
ta hca
Ġeng apmocca
y g
Ġne b
ennois iv
rop er
tne rap
Ġst artnoc
xue ir
Ġex at
ĠseÃ© hc
N C
Ġret imil
Ġet iutarg
Ġtne iat
Ġtness iup
uap Ã©
Ġrec alp
enia hcorp
Ġet iforp
uo Y
ur iv
ic S
la nif
l ap
Ġno r
00 0
iv ir
Ġserio tsih
Ġ9 102
Ġtiu rb
ss im
Ġehc nam
Ġtnemeg rebÃ©h
Ġehc Ãªp
ĠR E
Ġnoitav resÃ©r
t iutarg
ef rep
Ġecne loiv
idÃ© M
Ġrec alpmer
a T
uo D
nidro artxe
enret am
ir Ã©h
Ġet uoja
ia M
hc eT
Ġeuv er
no las
ni oc
enia mod
Ġ J
ss iorc
Ġenia zid
itse F
Ġreir dnelac
Ġeg ad
Ġnoitca f
Ġt if
ĠertÃ® am
Ġno c
I X
Ġert tab
ĠÃ©n itsed
Ġer ueirÃ©pus
Ġt iudnoc
ĠenÃ¨ monÃ©hp
Ġsle icigol
re D
Ġsno res
t pmys
ot orp
Ã¨ ma
s od
Ġnoitam rifnoc
op er
d eip
ser d
ri neva
seg ap
Ġreg nahcÃ©
e ila
Ġega ffuahc
ec ned
Ġ ein
el iciffid
8 3
ir anÃ©cs
h P
Ġstrop snart
uo rp
m E
Ġeu d
ehc naver
io rt
ĠseÃ©s op
utir ips
Ġert Ã¢Ã©ht
rop orp
Ġes or
Ġst cepsa
Ãª f
o na
Ġt f
Ġli euccA
Ġt utitsnI
ituo ba
Ġin ruof
Ġa y
eiv retni
Ġ eiasse
es nep
ĠÃ© rtnocner
noitc elÃ©s
Ġeru emed
c udÃ©
rec noC
eg atnava
ilat i
Ã® d
Åĵ s
ĠerÃ¨ g
na D
Ġecnal lievrus
O S
Ġsehc Ã¢t
s neg
Ġsri nevuos
er ud
Ġruet as
Ġer us
Ġeuq id
Ġst rom
Ġelle utca
Ġseu v
Ġliam e
Ġell im
Ġerio b
r ialc
serbm ahc
Ġret atsnoc
it Ã©
o z
rop snart
rug ifnoc
ĠÃ©tic irtcelÃ©
Ã© co
ics us
ĠerÃ¨ in
Ġsem Ã¨ht
Ġem itciv
Ġ00 02
ic noc
Ġselb issop
Ġseug nol
Ġret ne
erut cel
Ġsru elliavart
itc er
Ġsim er
8 0
ac ilÃ©d
Ġen ruot
Ġsia ib
Ġuo c
se u
Ã©ts ys
ĠÃ©r Ã©disnoc
p Ã©
Ġr itsevni
seg ami
Ġtnar ffo
e ul
Ġsiol pme
Ġset on
t uf
Ġset ad
o no
Ġre itne
Ġeunev ed
ell iat
Ġnoiss ucsid
nim a
Ġem siruot
il A
Ġer iuc
Ġtnanet niaM
Ġ3 3
Ġstnemeg ol
Ã©f Ã©r
Ġel artnec
Ġter cÃ©d
Ġsruet caf
ta n
uoj ib
utca f
a y
tsnoc ric
ac ova
Ġrep uoc
ĠÃ©tir Ã©v
Ġs ut
Ġt reffo
Ġten ibac
NO IT
e F
selb at
re itne
Ġseuq ilbup
n O
Ġtne ll
s cilbup
ĠÃ©t set
Ġem rahc
ard yh
eg alliv
x uej
arg Ã©d
Ġt op
Ġl Ã«
Ġt recnoc
rue oc
Ã¨v Ã©r
sd iop
i i
Ġnoisiv Ã©lÃ©t
Ġecnassiannoc er
Ġu rc
Ġsets ip
Ġfita ler
ret s
Ġtid retni
nno h
Ġnos nahc
uej am
R T
Ġtnemen ielp
Ġec irta
Ġet uhc
Ġer iudnoc
Ġec uod
ehc ram
Ġtna p
Ġreg Ã©l
Ġex elpmoc
rec nemmoc
ag Ã©d
l sigÃ©l
Ġstnem evuom
Ġes arhp
Ġsr is
ul aS
Ġecnats isÃ©r
Ġtnem Ã©r
serbm em
Ġs sen
Ġem ronÃ©
rueh nob
enno sreP
eng atnom
Ġsec icrexe
Ġs ip
ua evin
Ġl es
seria ffa
es serp
Ġiov ne
Ġsnoit Ã©
o G
Ġer rueb
Â ²
ĠenÃ¨ g
Ġsruet ama
mo l
ess alc
Ġesirp er
Ġs al
sa P
Ġnoit ucÃ©xe
nim irc
ru Åĵc
s Ã©v
ĠertÃª nef
e icÃ©rppa
Ġt iurtsnoc
Ġtna tnesÃ©rper
iouq ruop
ĠsÃ©t pada
Ã©b Ã©b
Ġsel pmexe
g ro
Ġ it
sÃ¨c cus
ser b
u C
io M
Ġnoitacif idom
se Ã©r
p O
el uob
Ġz eiv
ĠsÃ©t Ã´c
oc irga
Ġxuer uoma
Ġreg nartÃ©
F A
ruet ua
Ġsno isiv
u eug
Ġesilg Ã©
itnes ser
ĠÃ© ht
ĠÃ©t oc
9 9
Ġsriov uop
Ġnoitpec xe
ihc narf
iro Ã©ht
u T
elba rud
ĠÃ©tir otua
ed utibah
Ġerbm ahC
tuot rap
y no
ĠerÃ¨ ilucitrap
Ġnoiss es
Ġstna egirid
Ġle utca
ĠeÃ©lbmess a
Ġsruoj uoT
Ġ8 4
Ġsen i
em s
Ġ, %
ĠÃ© llatsni
Ġres icÃ©rp
sf it
Ġerutc et
ĠetÃª rp
Ġren igami
ĠsÃ©tiv itcelloc
1 3
Ġres rev
Ġreg nad
Ġeriot civ
srev noc
em margorp
id da
Ġsniomna Ã©n
Ġse irogÃ©tac
Ãłl iov
Ġsruet ammosnoc
Ġ1 0
Ġtne itap
Ġal l
Ġ6 3
nel cÃ©d
Ġre uol
pil ihP
ip ser
dro n
Ġreg agne
et uaf
ĠeÃ© silaicÃ©ps
Ġsec nonna
Ġrio llaf
Ã©l ot
O P
Ġs rehc
es uac
Ã¨ p
rug if
Ġel an
Ġt refsnart
ĠsÃ©t ilauq
Ġze ya
Ġsni v
u nom
Ġed narG
nol orp
R UO
Ġep icitrap
Ġunnoc er
e issu
Ġsne ihc
r P
ig yh
x iov
s reg
ĠseÃ©nnod rooc
Ġnoitar uatser
el icimod
Ġt Ãªrof
Ġstnem acidÃ©m
zed neR
ĠâĨ ĳ
D C
ĠT NEM
Ġrecna c
erÃ¨ ir
Ġei monotua
Ġreg rahc
Ġla icremmoc
Ġtnev iv
ni mon
Ġnoitnet tA
Ġret Ã©lpmoc
Ġni ssed
Ġehc uod
uf Ã©r
ĠÃ©ng apmocca
Ġnois nep
nor ra
s nI
lu C
nnois serpmi
Ġenia cirÃ©ma
RA P
Ġsen ihcam
Ġtam ilc
Ġre in
c yc
Ġeuq ificÃ©ps
v onni
Ġet nocar
Ġex es
noit ulos
Ġseria tnemÃ©lppus
ruo T
Ġstna tnesÃ©rper
Ġen iamuh
Ġtnahc as
ses irp
ĠtÃ´ pmi
Ġslet Ã´h
lo C
los i
t uob
ĠÃ©ll iesnoc
Ġet nal
lu nna
c noD
if ir
Ġed nal
Ġre ulovÃ©
ert it
7 3
Ã©p Ã©r
u R
Ġa n
Ġrir Ã©uqca
Ġselb issecca
Ġs pmahc
ega iram
ita l
Ġtne ga
x urB
Ġtnemet rap
t rec
Ġtner Ã©ffid
Ġem sil
at erB
eu nitnoc
ss ab
Ġecne ulfni
bmess a
xuev ehc
Ġnois nehÃ©rpmoc
Ġep uorG
eriot irret
ul g
Ġset id
Ġid emaS
o id
ar sI
rif ni
Ġset imil
se Ã©di
Ġar rev
Ġelba laÃ©rp
ĠÃ©p polevÃ©d
5 002
o icos
Ġeria tnemÃ©lppus
Ġen imret
ela idnom
Ġru evres
ro v
Ġsenia zid
nar ra
0 002
Ġt ni
Ġega yotten
utit ni
Ġrehc uot
er neg
y lo
Ġt at
um moC
uq sroL
Ġnoit on
uq ramer
inum moC
Ġem M
ĠÃ©r Ã©fÃ©rp
eissu R
ic ilbup
Ã©d ni
Ġstnem itÃ¢b
bo R
Ġno Ã§rag
Ġtnem ia
ag ivan
Ġeug olaid
Ġes nemmi
Ġt iudÃ©r
Ġtne iov
Ġnoitat serp
Ġruetc el
Ġres serda
Ġstahc a
Ã©t im
ser P
z agam
s bo
Ġeip oc
nim Ã©f
im mi
orts atac
Ġs icÃ©rp
ĠtnemÃ©m rofnoc
sÃ©t ivitca
Ġr id
ĠtnemÃ©m ronÃ©
a z
ni L
Ġc al
Ġen igami
Ġsess alc
ĠeÃ© ll
Ġsehc ramÃ©d
Ġtia d
let Ã´h
Ġnoitis iuqca
Ġerttem snart
Ġsl ennosrep
Ġeria luc
OR P
Ġr ab
Ġseniat reC
ĠÃ©ll iavart
Ġzelliu eV
Ġno niS
ius ruop
Ġre ulavÃ©
ĠÃ©tilib om
Ġetis Ã©h
ĠeÃ© ssap
Ġeuq il
et S
Ġel gna
Ġnoitisop po
Ġriovuo morp
Ġr ecnava
eu nam
Ġtol uob
Ġred Ã©corp
noforp pa
roc er
k oobecaF
e ilbuo
noita icossa
sert Ã¨m
Ġzess iannoc
Ġtne ssia
ĠÃ© utiS
lo oc
mo b
e icifÃ©nÃ©b
eg atrap
lp Ã©d
Ġtnemes uer
Ġret sop
ĠeÃ© sinagro
Ã©p er
Ġstna ngiesne
Ġrerit er
Ġse ur
Ġtned ivÃ©
ur T
Ġed noM
ev arg
Ġsni cedÃ©m
Ġnoitac ov
irÃ© a
Ġell erutan
sev Ã¨lÃ©
reg nam
Ġar dnerp
euq irÃ©mun
re ip
d iorf
Ġuaet ab
Â Ĵ
Ġtnor ved
iuo L
tna net
Ġio L
Ġrec rexe
nu cahc
Ġert Ã¨m
L E
O N
Ġnoiss ec
Ġrev itca
ts issa
elb iaf
r evuort
Ġeuq ilppa
uo L
ĠÃ©ng is
Ġse imonocÃ©
riov uop
luc s
net tA
no iss
ne cÃ©d
stnat ibah
Ġseug nal
Ġets ip
ner P
Ġtia nnoc
ĠÃ©tin utroppo
ĠseÃ©s ilitu
Ġela Ã©di
M A
u elp
Ġrihc Ã©lfÃ©r
sf ita
n Ã©p
Ġeuq idiruj
es uer
p eS
... ,
Ġtno ref
Â» .
Ġert ipahc
Ġsru erre
Ġtnemelle itnesse
et sil
Ġsiav uop
a va
Ġelli eiv
Ġet Ã»oc
Ġemm arg
Ġnoita rt
cal pmer
Ġsru m
Ã©h T
ic co
Ġs at
ĠtÃ®arap pa
Ġsia t
is ne
eff E
noita sil
t om
Ġerutluc irga
Ġem em
Ġrets issa
ĠnoitarÃ©po oc
la noitan
Ġeir iam
Ġsuo S
Ġst giod
Ġruel uod
iav uam
Ġecner rucnoc
Ġeria nno
l iu
Ġsed om
ennoita rÃ©po
Ġeuqit Ã©grenÃ©
Ġeuq sid
Ġer ag
Ġrem irppus
nat irb
rep yh
ĠsÃ¨rg orp
ca hC
ĠÃ©tila gÃ©
Ġz ep
Ġresop Ã©d
Ġen is
el at
Ġst ellib
ĠER T
xua mina
I A
Ġtnemes ruobmer
Ġuss it
Ġnoitamrof snart
ell ub
tnem iarv
iu dart
re irvÃ©f
sen ia
Ġnoitisop moc
Ġser ussuahc
Ġes io
Ġerut irruon
ĠseÃ©s oporp
Ġeuqir Ã©mA
Ġrec alpÃ©d
Ġen retni
s ib
ne lla
tnev ni
ts isÃ©r
d uahc
U E
gni l
tÃ© b
Ġsnoita gilbo
5 0
Ġar el
ss am
Ġserb ra
Ġnu cuA
Ġsen gis
Ġtnemelb at
er ag
Ġtne tnesÃ©rper
Ġne B
Ġnoitat pada
Ġx ob
l ol
xua vart
Ġerio tsiH
Ġ6 0
Ġse itros
s elli
ehc namid
Ã§ Ã©d
y b
R C
ss E
l iatÃ©d
nol la
nos irp
erut c
Ġnoitarap Ã©r
Ġerutcet ihcra
Ġess ahc
h A
Ġet suJ
Ġsnoit utitsni
Ġtia ret
Ã¢ m
r ihs
ĠI C
iar f
x at
ru j
Ġsi morp
utc A
ĠÃ©vuort er
tnemel agÃ©
engi eS
ĠerÃ¨ts iniM
no j
Ġerdne fÃ©d
Ġnoitirap pa
Ġres imitpo
Ġres ilib
7 0
dno L
S C
em af
4 0
ll iuc
l og
d nammocer
Ġsel iotÃ©
Ġia ret
Ġ7 002
c idni
Ġrinev retni
Ġevuerp Ã©
Ġsed noces
Ġl ennoit
iup pa
Ġzes ilitu
Ã©d Ã©F
Ġelle Ã©r
Ġeriat ilim
Ġneit niam
Ġress uop
Ġset silaicÃ©ps
Ġnoitca dÃ©r
Ġerut adidnac
Ġtnemess it
c ifingis
ĠÃ© sir
op roc
se Ã©g
l m
en ummoc
Ġnoitnev noc
Ġl ehciM
Ġreuq idni
ehc Ãªp
Ã¨ll arap
Ġleu nam
c nis
sruet a
Ġ00 6
ff O
Ġleu nna
Ġniamed nel
Ġi ks
Ġed iv
icil Ã©f
Ã©t in
Ġ j
Ġxua f
ĠetÃ¨ nalp
Ġed naiv
x im
b eW
Ġsus si
Ġtrop orÃ©a
mo R
uc ol
Ġtse uo
u dnetne
Ġ NU
4 4
snoit idnoc
m ah
rut rep
Ġtna netnoc
ot om
ed roB
al C
y or
nes noc
Ġl uclac
Ġz enno
xua col
Ġnoitca Ã©r
Ġeria lupop
ĠÃ©uq ram
Ġte hc
sa is
Ġx ulf
Ġeriaf sitas
et te
Ġzehc rehc
ec remmoc
ba id
se morp
Ã© ss
Ġsnoitac ifidom
uoh tne
ev irra
niam uh
tna sserÃ©tni
Ġuo f
ĠÃ©t uoja
Ġre icnanif
ĠÃ©v resÃ©r
U T
Ġre icremer
G A
Ġeunev neiB
Ġ00 01
Ã´ lc
pec Ã©r
ĠÃ© sil
Ġsf ehc
nno issap
Ġetrop moc
ĠÃ© lla
no hp
eg alp
Ġa h
Ġz ec
Ġehc uoc
ta ba
ĠerÃ¨ d
ĠsÃ©s ilaÃ©r
Ġecne itap
is nia
sell ec
Ġnoitulos Ã©r
Ġes uap
Ġnoitav onÃ©r
ĠtÃ® alp
ĠÃ©uq inummoc
ga M
Ġla nigiro
Ġess enuej
iu r
Ġxua c
Ġrec nonna
enne Ã©porue
nev Ã©rp
5 5
Ġdra sah
tna c
Ġsec utsa
st niop
Ġnoita tneiro
sa C
eÃ© p
Ġseuq nab
im ac
ĠRUO P
Ġes rev
Ġeg art
egas iv
ih tÃ©
euq itam
la noitanretni
Ġel uorÃ©d
Ġert uo
seuq inhcet
Ġtiov Ã©rp
Ġsre icnanif
Ġtiava s
od niW
Ġsneiv uos
ad los
O V
nema xe
Ġov arB
Ġel Ã¨tneilc
Ġf itcelloc
z evA
ĠÃ©til atot
Ġtia sid
Ġen ihC
ĠsÃ©t in
ĠsÃ©tÃ© irporp
Ġre icÃ©rppa
Ġenic edÃ©m
Ġselb apac
Ġrev uas
Ġno Ã§
r Ã©nÃ©g
Ġet ruoc
b uod
illi eiv
uay oR
Ġeuq noc
Ġrem ia
Ġlav itseF
urt sed
ĠÃ©tic ilbup
erdne V
ib ra
) âĢ¦
Ġtna ll
tna hc
Ġegat nom
ra f
Ġre ubirtnoc
i uoj
uq a
# &
t S
Ġno inu
Ġrinev rap
t E
Ġerb ra
Ġet iob
Ġelb al
l erutan
Ġep uoC
ĠÃ© tnet
lum is
Ġ05 2
Ġst rops
Ġtnem isauq
Ġsruetc el
Ġsno siaf
Ġnoitcaf sitas
Ġel ivic
Ġdnerp pa
Ġsem mop
am A
Ã©t is
Ġel acol
Ġerutan gis
Ġremrof snart
Ġg k
Ġsed ia
ĠÃ©uq ilpxe
dac ne
Ġet id
tÃ´ tneib
Ġuaet Ã¢hc
ĠÃ©tisrev inu
Ġret cennoc
a a
Ã©t il
selb inopsid
Ġt iucric
egas u
Ġstnemet iart
tiaf rap
Ġelbat rofnoc
el itu
z eir
ruel uoc
Ġer Ã»s
Ġt erc
nop s
Ġehc ac
Ġf uaS
Ġeria las
Ġred nammoc
oht ro
Ġet sila
ĠeÃ© il
Ġsna f
ĠsÃ©n g
sais uohtne
Ġrehc uoc
s ub
Ġc itsongaid
Ġtnass ial
ca j
Ġla icÃ©ps
sell if
re ir
cav Ã©
sem Ãªm
tia res
stnem en
rueta nidro
3 0
egar uoc
Ġtnemer ar
Ġserud Ã©corp
gni k
ff ioc
ffuahc Ã©r
et Ã´h
Ġs iuqca
er F
ĠertÃ®annoc er
Ġtna ruD
Ġed ats
Ġruet al
ng ag
og ir
l ua
ra ts
iv ar
Ġtne utitsnoc
ĠÃ© nem
ĠsÃ©tila nnoitcnof
arap ua
Ġio f
ru es
Ġlan ubirt
ten ul
Ġerd nioj
ĠuÃ§ repa
Ġret ic
sw en
4 002
Ġre b
Ġru f
Ġua evrec
Ġtnemer iartnoc
Ġerre T
tna s
Ġseu vÃ©rp
illi eucer
ilb at
Ġen motua
euq ifingam
2 3
ĠtÃ´ pÃ©d
Ġr it
y k
erial ocs
tnemel ues
Ã© va
net er
b ic
Ã©n it
it norf
x a
Ġtne ru
Ġtnar Ã©pse
Ġep uos
Ġzess ial
ĠtnemÃ©s icÃ©rp
rof ni
Ġxua ecrom
st atlusÃ©r
imil Ã©
noita Ã©rc
Ġet pecca
ĠÃ© silaicÃ©ps
dne tÃ©
âĢ ĵ
euq irtcelÃ©
Ġex if
Ġ eff
sa M
Ġl atipÃ´h
h S
ff A
Ġecneg A
ĠÃ©m mon
Ġsnoitat sefinam
Ġrel Ã´rtnoc
Ã¨l f
ong i
Ġsirp er
ĠsÃ¨ cÃ©d
Ġnois nemid
tnem ehc
pm I
Ġtnet noc
Ġtned Ã©cÃ©rp
lam ron
Ļ ¥
ser vil
Ġz emia
Ġsel acol
Ġ5 5
nev ni
Ġ5 6
Ġegag nal
ta uq
Ġriov Ã©rp
Ġrerit ta
ĠU A
Ġ eilbuo
se Ã©l
nam eD
d im
Ġia sse
ĠÃ©tir adilos
eÃ© rtne
aloc iN
Ġ4 3
Ġec netÃ©pmoc
Ġeria tuanummoc
noitc urtsnoc
Ġsni sagam
pa C
Ġtne silitu
Ġet a
Ġ eut
Ġ pm
Ġrer ap
Ġc ifart
s lif
Ġsio rT
Ġlet Ã´H
Ġrev resbo
t ias
Ġt iurf
uo n
er vius
tne uqÃ©rf
icif Ã©d
its el
Ġsnoita Ã©rc
eir Ã©s
Ġnoitas nes
ol Ã©v
Ġsega yov
Ġret poda
Ġtia uq
Ġc em
nec sa
idÃ© moc
Ġt repxe
tab Ã©d
Ġet Ã´c
s al
ĠÃ©r casnoc
t nom
Ġtnanerp moc
2 0
t rofnoc
ĠÃ©d nammocer
Ġsnot ivni
v uoc
erdnerp moc
ner rucnoc
Ġtnan recnoC
Ġett euo
Ġsno m
sa B
Ġio r
ro ngi
Ġnoita robalÃ©
Ġser ar
Ġeriaf er
Ġell ennosrep
al uos
Ġnoitat sefinam
Ġseug Ã¨lloc
ĠÃ©g ilbo
Ġsruet om
nar ret
Ġxu A
ihc ysp
ig ufÃ©r
Ġecneg illetni
Ġa k
nec sed
Ġerut emref
u cavÃ©
pa nac
cs um
ĠÃ©tiro irp
y p
Ġet celloc
Ġnoitasil ib
ral Ã©
Ġsnia hcorp
Ġrel uc
Ġs rag
Ġu llaf
Ġel ar
Ġtnad nopserroc
Ġseuqi hparg
ĠÃł L
Ġ. âĢ¦
Ġsel arÃ©nÃ©g
Ġtia ref
ud rep
re itÃ©m
s arb
Ġtna yov
Ġnoit itÃ©pmoc
la B
Ġtnemer tsigerne
ĠeÃ© sopmoc
re H
Ġio uQ
id nahcram
Ġt inif
ĠseÃ©t pada
Ġeria r
inred om
Ġsnoissim Ã©
Ġem Ã´
Ġred icÃ©d
Ġtna soporp
Ġes nad
pme T
Ġnoitav itom
em si
ic itna
tel pmoc
iv er
Ġp u
ĠeÃ©p iuqÃ©
ir T
Ġsnoita mina
t atE
Ġecna fne
Ġl erutluc
y oV
S S
Ã§ repa
Ġ NI
ono tua
en il
Ġeigol o
em ra
Ġi k
nu L
Ġrev resÃ©rp
Ġec Ã¨pse
tnat ruop
el ac
ĠÃ©t naS
nam a
eria ffa
Ġk ro
Ã© op
Ġo Ã©tÃ©m
Ã©d I
nec er
h oJ
t h
Ġeiret tab
tne ia
Ġecne ics
sruoc noc
Ġehc Ã¢t
ar im
et isiv
en iamuh
a nam
erÃ¨ imul
tnanet niaM
Ġl uaP
âĢĿ .
eng apmac
s liesnoc
Ġsnot tem
Ãłl ioV
ret catnoc
Ġecna netniam
Ġsnoit omÃ©
sre il
Ġerut caf
Ġegas yap
noit isopsid
Ġeng atnom
Ġsru tuf
Ġre k
en icsip
euq nam
Ġelba lav
Ġno illim
Ġno inipo
Ġecnec il
nim Ã©s
Ġrirv uoc
euqita mrofni
ej er
Ġ00 8
Ġes ilaÃ©r
ec Ã¨ip
li V
sru e
ul a
Ġtem mos
ĠÃ©ng ag
Ġnoit idart
Ġnoissim snart
tnemess ilbatÃ©
itc udorp
ihc irne
Ġs ifÃ©d
Ġnoitis nart
5 9
ros ba
rÃ© pmi
noita sinagro
Ġeria cnab
dro b
Ġneib moC
Ġelb is
ec apse
il oP
Ġr O
Ġtnort temrep
sed utÃ©
Ã¢g Ã©d
irt ni
stne rÃ©ffid
Ġes o
p lucs
st ned
Ġtnemen Ã¨vÃ©
Ġsiar ved
Ġtac ifitrec
Ġruet ar
ar Ã©disnoc
Ġset niartnoc
Ġnoitpirc sed
sro h
euq issalc
Ġlav ehc
enÃ¨ cs
Ġega kcots
et rac
Ġ irba
Ġenu cuA
at Ã©d
lu caf
Ġell ennoit
ucÃ© S
Ã©nit i
Ġret nocar
na hC
Ġeiov ne
Ġrehc iffa
ro lpxe
ret xe
ĠerÃ¨d isnoc
Ġd ragÃ©
revuo G
ic I
Ġ ÌĢ
Ã¢ hC
sd narg
tne n
Ġtnemet cerroc
Ġeuqits alp
iort Ã©
Ġris Ã©d
V A
Ġar dneit
ed utÃ©
F C
Ġtac ova
ĠemÃ¨ irta
Ġnoit ubirtnoc
Ġnoss iuc
Ġrued o
r im
Ġre ilbup
Ġtne rtnom
Ġel abolg
ĠserÃ¨ rf
Ġim ed
Ġsnoit nevretni
ehc uob
ĠÃ© russa
Ġsehc ir
in Ã©
Ġi hc
rop par
Ġsrueta roballoc
seuqit ilop
re if
li erappa
ru eug
ĠÃ©uq ilpmoc
Ġett e
Ġseg ammod
Ġtnemev isulcxe
ĠeÃ© Ã©rc
Ġt adnam
euqi hparg
g Ã©lÃ©
Ġb ulC
t nar
Ġsru em
Ġ8 3
pa b
Ġem sila
Ġo ib
Ġrue yolpme
u eJ
Ġecaf retni
ĠsertÃ¨m arap
Ġeni zagam
yc er
re ipap
Ġlooc la
tnemel rap
im rifni
Ġtnemell eutnevÃ©
ru T
ĠÃ© nimret
Ġst naruatser
Ġreuq itarp
R F
Ġert teM
Ġsor Ã©h
Ġsegas yap
Ġstnemess itsevni
oht ac
Ġess iuS
sser ts
Ã©da ca
Ġse ikooc
Ġenne it
8 7
Ġeuq ip
iu rb
it on
ĠA VT
Ġno laS
Ġxu emaf
Ġrep uS
Ġset si
Ġris ias
Ġue P
sniom na
suj a
Ġnois icÃ©rp
ĠÃ©tilib inopsid
Ġâ ĸ
Ġnois uf
Ã© la
o ni
t Ã»og
Ġesop mi
res sap
Ġtiar id
" !
Ġtio rc
res ni
s ulP
seria tnemmoc
Ġett ed
itne lar
Ã©c yl
o K
Ġsnoita lupop
Ġret uojA
erv uap
Ġseuqitam Ã©ht
Ġtna idutÃ©
Ġnoita n
Ġsed oirÃ©p
Ġtnev irra
ĠerÃ¨ itne
ell evuon
Ġess uop
Ġtnemell erutan
set iaf
Ġnoit itrap
eir aM
Ġsec irt
sd eip
Ġi vres
icif itra
Ġnoisnet xe
rac ni
ĠE N
Ġnos irp
Ġred ael
id norra
s orp
Ġeuq alp
ill et
Ġsnoit id
Ã© a
ip Ã©d
Ġnoitc et
srev da
ĠC P
Ġseg al
ĠÃ©t ivni
Ġseria tnemila
Ġtia m
eÃ© uq
Ġesop er
Ġecne lis
ts bus
Ġnoitam margorp
Ġ4 0
ĠeÃ©t nom
av uas
Ġre idutÃ©
o F
nap Ã©
Ġse iov
Ġr os
Ã¢ b
Ġsl erutan
Ġsel ullec
Ġo fni
iva D
Ġeuqits itra
Ġel iot
ua esÃ©r
tnet ta
Ġfit isop
iul eC
Ãª op
Ġruo muh
ser ret
dne g
i j
Ġsiar id
L I
Ġeir aM
o nom
Ã ¹
ill iaf
Ġed uahc
Ġeuq Ã¨htoilbib
orp par
Ġc raP
euq sir
y oM
sl iatÃ©d
ra uq
itcep ser
ĠÃ©p iuqÃ©
iu C
net uos
Ġseig renÃ©
in Ã©v
Ġet iart
Ġsegar vuo
ĠÃ© mrof
r ell
Ã§ rep
Ġaret ser
na J
t iordne
Ġser ts
Ġno l
Ġseuqits itats
Ġett euq
eria tnemmoc
ss ac
Ġegar ialcÃ©
Ġsia ssiannoc
Ġen it
Ġnoita tnesÃ©rper
eg am
um its
âĢ ĭ
nim ilÃ©
ĠÃ©d Ã©corp
Ġtnem Ã©d
Ġtne snep
Ġen irt
Ġeinom Ã©rÃ©c
ruotne la
te N
ĠerÃ¨hps omta
idim uh
Ġet set
Ġtnemec alpÃ©d
Ġre ut
ud ividni
la Ã©rtnoM
Ã©g lA
re fne
Ġia ref
Ġsl eppa
Ġru ejam
dno F
ĠÃ© sila
Ġla noitaN
ĠÃ© xif
is rep
Ġem riffa
ĠÃ© bmot
Ġes sehcir
Ġelle B
Ġr ig
Ġy b
M S
Ġsio s
Ġtne lliavart
ĠĠ ĠĠ
Ġtnemet urcer
Ġl acidÃ©m
Ġru ecuod
Ġ eicifÃ©nÃ©b
Ġec anem
Ġer apÃ©rp
sef orP
Ġ eicÃ©rppa
Ġses ruoc
.... ..
Ġem Ã´lpid
Ġ op
Ġt anno
Ġserial ocs
er G
ner g
snoit ca
Ġsna m
Ġ eiparÃ©ht
Ġeig am
re uoj
Ġt gniv
Ġr imrod
Ġeriat Ã©rces
Ġela icremmoc
Ġem rifnoc
Ġ W
Ġtno p
Ġegam moh
t uo
Ġesop pus
Ġ ey
ir al
Ġxua erub
Ã Ī
ĠL I
Ġtil fnoc
Ã¨ma id
Ġret ov
y C
et sop
ro noh
Ġar uas
tia tÃ©
ĠÃ©t imil
ĠsemÃ´ tpmys
Ġeria lc
h T
en redom
5 6
Ġtio Ã§er
Ġu V
j Ã©D
ĠÂ ·
ĠE U
sÃ¨c ca
ord yh
Ã©hc s
n uf
Ġtnem Ã©lpmoc
Ġses iavuam
ĠÃ©t pecca
ren uejÃ©d
el ues
ĠseÃ©s ilaÃ©r
Ġr iuc
Ġsreg nartÃ©
elli V
Ġi uppa
Ġeno hp
Ġid erdneV
Ġresop sid
I G
irÃ©t s
Ãªr rA
Ã¨rc noc
erv uÅĵ
elb inopsid
Ġic I
pirc sed
ec narussa
Ġsnoitac ilpxe
uo P
xue ic
Ġar ennod
Ġset rof
9 4
Ġet ned
Ġtnemenno ba
apucco Ã©rp
Ġselb itpecsus
ĠevÃ¨l er
iorf er
Ġnoit ulovÃ©r
rep uS
ĠeÃ©su M
Ġex ul
Ġsud ividni
is ias
iul f
at serp
nnod ro
Ã© P
ĠeÃ© sab
Ġrevel ne
ne yom
Ġeria p
Ġsnova s
tua fÃ©d
no rivne
pm E
Ġem irp
ĠÃ© sab
rinev uos
Ġl un
ĠÃ© iralas
Ġsno Ã§af
Ã© z
Ġserut arÃ©pmet
le H
polev ne
Ġtnenneiv ed
Ġua ed
cet Ã©d
icif repus
Ã©g irf
ĠÃ©t cennoc
uoc ca
Ġt rA
Ġem ad
ĠÃ©uq ramer
Ġruo T
Ġerre uG
Ġse iloj
Ġem ot
no ng
Ġ eM
Ġehcnam iD
at c
Ġzet iforP
Ġelb uemmi
is nart
Ġeu birt
art sinimda
ses ia
Ġses serda
Ġt c
riv nE
Ġela icÃ©ps
Ġsnois nemid
sno ss
Ġtne tnesÃ©rp
Ġela nigiro
Ġet nietta
ega ss
nopa J
iv orp
Ġnoitar Ã©dÃ©F
Ġ pmac
el ibom
Ġstnemen Ã¨vÃ©
Ġtia rtxe
C P
Ġf erb
Ġ2 4
d ilos
ac idni
Ġsruetc udorp
ĠeÃ©n ruoJ
e K
t rev
Ġel Ã¨vÃ©r
eÃ©v irra
Ġ02 1
Ġen uaj
x aler
ĠemÃ¨irta uq
Ġseg alp
Ġegam Ã´hc
Ġses uac
Ġtuot ruS
Ġehc nalb
irÃ© V
Ġreng iesner
Ġtna sil
ĠÃ ī
Ġs ret
Ġi f
Ġsnoit pircsni
Ġtna tnesÃ©rp
utc nop
Ġst iun
Ġerd uop
Ġer irc
st iaf
A D
id erdnev
" ?
Ġud netta
oir uc
Ġets irt
Ġela ilimaf
ev Ãªr
iss ed
ĠeÃ© gnol
c na
Ã¯ or
noit nettA
sed a
set nerÃ©ffid
p ot
seuq igol
ues p
po hs
st itep
et A
Ġo idar
Ġsecne ga
u F
Ġeuq ilpmi
Ġren Ã®artne
Ġet nemgua
Ġli emmos
nal P
ser iot
ecna ssiannoc
Ġr ecnanif
evuo rT
Ġstrop pus
ip ot
no ner
e if
Ġstnem el
ĠÃ©t iart
u E
Ġsre itrauq
y M
Ġk ool
Ġeuqram er
Ġtia Ã§
N S
Ġt ue
ĠeÃ© nem
it luc
ri nif
sia Ã§narF
Ġnoitat ibah
em it
tna f
Ġset rec
ec itsuj
ne D
tnemeg ol
Ã©t al
Ã© V
Ġeunev neib
Ġsecna dnet
Ġsfit isopsid
Ġnois sergorp
Ġreng is
Ġert semirt
Ġs uriv
Ġsesia Ã§narf
Ġl l
nois serp
Ġsno inuÃ©r
Ġet Ã´C
Ġsnot iahuos
Ġuaet alp
Ġsel orap
UO T
ni k
ar bme
elle utca
Ġze iss
itc A
Ġ2 0
Ġno hc
ĠÃ© sserÃ©tni
Ġnoisserp pus
9 5
ĠÃ©t poda
Ġgni pmac
Ġet netÃ©d
nella hc
Ġsell ennoisseforp
ik s
Ġenia tna
Ġset uanretni
sel citra
iro jam
ell oC
Ġnu cahC
Ġeuqita motua
d d
Ġseuq isyhp
Ġzerv uocÃ©d
dim rof
Ġsel ovÃ©nÃ©b
en iat
em Ã¨tsys
ip sa
na mor
Ġ) %
Ġrer apmoc
Ġet ic
Ġtnemev iv
ela noitanretni
seria netrap
Ġsed utibah
nol b
im uh
Ġressap Ã©d
Ġs yaP
ar si
nes ba
Ġsel iciffid
Ġsel iuh
t ap
e yasse
Ġes od
Ġnoitc eriD
sem Ã¨lborp
res Ã©R
Ġred roba
uq nic
Ġreit nahc
ess op
id rom
yno na
no z
Ġsnois rev
Ġo iduts
Ġeir oÃ©ht
ĠsÃ©n itsed
ĠÃ©tÃ© irav
d rager
Ġeuq naB
if ic
Ġsnoita m
drat er
ua bme
elp uoc
Ġem sir
Ġseir Ã©s
Ġeug iL
Ġnoita tnemelgÃ©r
ses u
ĠseÃ©s nep
Ã©s ni
Ġset ros
lup inam
er iruos
Ġset nas
sru ess
ucol retni
le ic
Ġelli etuob
Ġxua ennap
iss uop
Ġres ylana
Ã©c Ã©d
Ġert si
Ġemrof noc
Ġec aF
euq in
ĠÃ© roda
ro H
ort Ã©r
sell evuon
Ġs ot
Ġnoitc udart
or B
lac ol
Ġecned ivÃ©
Ġeugol atac
RE T
d p
ev oN
its uJ
Ġ! !!!
et tel
Ġsru er
Ġsev Ãªr
Ġeria roh
Ġs alociN
ar ra
t rA
e utceffe
eÃ©v irp
esirp rus
Ġsec nerÃ©fÃ©r
Ġtnemen Ã®artne
Ġtne tsixe
oht ap
Ġnoss iop
f erb
Ġtnev ius
ĠedÃ¨ c
red ael
in Ã©p
it nev
Ġnoitag ivan
, )
Ġedutit ta
se hcorp
ĠerÃ¨ imerP
ru ess
tnemen Ã©vÃ©
Ġtnemer tua
ĠeÃ© idÃ©d
Ġelba yorcni
set netta
at noc
Ġ il
Ġ5 0
Ġ eib
Ġtia lp
Ġ ilbatÃ©
Ġnoita ll
Ġsen iamuh
Ġesop moc
Ġeg Ã¨lloc
ĠsÃ©l l
Ġsni ssed
Ġeita rcomÃ©d
Ġep polevÃ©d
ĠÃ©tilib isiv
Ġertne r
ecna fne
Ġnoitp ur
Ġxuer egnad
M M
Ã©t Ã©v
Ġs iuoL
Ġ) :
Ġruem uh
Ġs arg
Ġst rof
Ġsnoita dnammocer
Ġeg nam
lo H
Ġ7 3
is ub
Ġrued noforp
Ġset uor
Ġtnemec alpmer
Ġze nerP
Ġresop mi
nnois seforp
Ã¹ o
Ġrehc ram
Ġet seg
Ġeria tÃ©
Ġenno sreP
Ġrer Ã©disnoc
hP i
ugÃ©l Ã©d
Ġ6 002
Ġsell ia
Ġell eunna
Ġsleuq xua
noita lupop
Ã©girf Ã©r
la H
Ġtnemer us
s dra
Ġep pilihP
s icÃ©rp
ert nom
imit ni
Ġtne itrappa
Ġet nalp
V D
Ġseuq irtcelÃ©
stnem ess
Ġes sab
ig iv
snia b
ĠstÃ´ pmi
sre ilucitrap
seuq ita
Ġf is
lli eucca
)- ;
ed utit
Ġsia lla
noit idÃ©
Ġet iteP
erd nopÃ©r
Ġelbat rop
Ġed iuqil
ol B
Ġov arb
res ilitu
py rc
ehc op
orc iM
Ġsel at
nev orp
Ġeniat gniv
i ht
esrev inu
Ġet ibah
iu j
ĠÃ©m ref
Ġrem rifnoc
er ir
re issod
B M
ĠeÃ©n itsed
Ġsne Ã©porue
ami nim
Ġsnor ffo
Ġett iuq
ĠeÃ©c yl
its irhC
iss A
er iam
iffus ni
el ucihÃ©v
Ġett en
es op
Ġ ff
Ã© ug
Ġtnemer iat
Ġtiass iga
ot cO
Ġsias se
etna vius
Ġs uc
Ã© it
ĠeÃ©n ruot
Ġrenno itcelÃ©s
t egdub
itrev noc
io f
Ġerv uap
Ġsirp rus
et peS
ro tua
ĠT SE
Ã© C
so Ã©div
o idua
6 4
Ġet nerÃ©ffid
Ġet unim
ĠÃ©t lusnoc
noit pircsni
Ġtnemel raP
et suj
na nif
et ad
sinim dA
Ġed ic
Ġtel ov
Ġsc nalb
Ġelba nruotnocni
Ġset revuo
no ll
Ġno yL
ĠÃ©tila nnosrep
Ġsnoita ts
ud Ã©r
F F
dnerp moc
s ius
et uocÃ©
ro nap
ĠerÃ¨ gÃ©l
Ġseriat ilim
Ġsruet as
ni lp
noit seg
uo vas
ej ni
at pmoc
er iomÃ©m
noitac ilppa
Ġo ni
Ġerut pur
Ġeria idÃ©mretni
sna s
ac ov
Ġrem ref
Ġer up
Ġst ol
os noc
Ġseuq caJ
Ġerd nof
Ġed ilos
mo lpid
enne yom
il O
Ġtnemel amron
tna ss
E U
Ġselb uem
Ġev itcelloc
Ġnoitar ipsni
P C
Ġ eyasse
Ġsno nerp
T T
erc us
euq ip
eria srevinna
et iarter
y H
Ġsess org
art ta
Ġd rep
nimirc sid
Ġtnec nemmoc
ec nar
ot uA
Ġ ef
ilÃ©d if
elbat rofnoc
in itsel
at iug
Ġec alg
Ġseuq ifingam
ua rf
Ġnoitse G
noitac udÃ©
Ġst catnoc
Ġs k
sev it
s narT
n Ã©g
ed oirÃ©p
er roc
mono rts
g k
eir et
nab ru
l eÃ©r
ĠemÃª rtxe
Ġtnat ser
s A
tnemm edivÃ©
l atot
ĠsÃ©t uaevuon
Ġgni n
aid rac
Ġeng amellA
nop Ã©R
rap Ã©r
Ãª b
Ġeia nnom
Ġxua m
in A
Ġseig Ã©tarts
tnem evuom
ig rurihc
Ġerio n
rep icitrap
Ã©t irÃ©v
noita sila
idrom irp
Ġsru eir
Ġy l
ell eC
Ġrega yov
ĠseÃ©n g
Ġsris iol
u elb
Ġud nev
Ġnal P
Ġtia hc
Ġelb ic
Ġres im
Ġtse uO
Ġxu eC
Ġser bil
Ġsec art
sell imaf
Ġul Ã©
nia rt
Ġ nag
etna tropmi
Ġset Ã´h
res sed
Ġre xif
Ã©f snart
ilbat Ã©r
Ġen isu
Ġtna T
uac Ã©rp
Ġ9 3
7 7
Ġsir uos
ĠE S
re ilibommi
Ġzer ved
Ã¨t orp
Ġg n
Ġxua ep
Ġre un
kc oc
ep retni
Ġsil oc
Ã® g
ned icco
eg al
a K
av ne
res sac
ilb us
Ġelb isnes
Ġrer tnec
ta rtnoc
Ġsnoitac ol
id emas
Ġert uA
seuq leuq
v irp
en ir
Ġec uas
Ġtne lat
Ġeg ac
Ġr evuorp
sniam uh
ĠerÃ¨ hc
R I
tnemesuerueh laM
H P
sniomna Ã©N
Ġi v
Ġel laS
ĠÃ©tim rofnoc
ret ne
e X
Ġia remia
tna tua
rc Ã©
ed nal
Ġenia z
Ġet cerid
Ġsem si
Ã©b Ã©uq
ro dne
Ġeria nnoit
Ġz eng
neg Ã©l
tnemet iart
ap o
Ġt it
nap Ã©d
Ġrevel er
3 002
Ġset silanruoj
Ã© bo
Ġs oper
mum ixam
Ġst revuo
p uos
Ġtius ruop
Ġ eutceffe
Ġec art
Ġo iranÃ©cs
it nahcÃ©
Ġtia rap
Ġt s
Ã©t rebil
siof rap
Ġegahc iffa
Ġtnemehc narf
Ġxue icÃ©rp
Ġsno luov
sruet asilitu
Ġetni ecne
or ra
Ġsevita itini
sop mi
ilbuo ni
ip icÃ©rp
nic s
yol pÃ©d
Ġsec af
Ġela noitaN
Ġetna t
ssim moc
ĠelÃ´ rd
Ġ eic
Ġrer ob
Ġseuqit irc
en ihC
s m
Ġxua esio
Ġec ifÃ©nÃ©b
etrop moc
id rag
rov id
Ġzet lusnoc
Ġev is
Ġr a
Ġla noigÃ©r
Ġres il
ni V
ĠsÃ© ssap
Ġ" .
Ġses uer
ĠÃ©v el
Ġua ecrom
e hpargotohp
er dro
ta C
t f
etÃ¨ nalp
Ã©n nod
el uc
tna ruoc
Ġzet tem
nor b
Ġre ica
t atlusÃ©r
Ġhc a
Ġuaet Ã¢g
Ġsnoita N
Ġnoita dnoF
it serp
Ã§ remmoc
g ed
lus Ã©R
g Ã©v
" ...
irt am
sela icos
Ã¨t ni
Ġellia tab
xueir Ã©s
auq Ã©da
er oda
Ġett em
Ã©t uaeb
rub rac
xue il
ĠsÃ©t il
eva s
ro eG
Ġ nar
red named
Ġsruess inruof
Ġnoitasil ibom
ĠseÃ©r ios
er ip
irf A
k o
sÃ©t ila
A B
x iap
Ġsni elp
ucÃ©s noc
Ġr elloc
ĠserÃ¨ icnanif
y ll
Ġxu eJ
Ġev itcepsrep
uol uoT
uq er
ĠertÃ®arap pa
ar cÃ©
Ġtnemeg uj
inu T
Ġsu vÃ©rp
Ġel op
Ġsiar v
Ġsela noitan
Ġelle itnesse
sÃ© iralas
Ġtnemev Ã¨l
Ġ4 4
Ġre ic
tÃ© mo
ec nonna
ne M
Ġis auq
Ġno yar
ĠÃ©tir ucÃ©S
Ġl m
nerÃ©f Ã©rp
ĠE NU
Ġset tenul
Ġd nal
Ġllab toof
ilo bmys
Ġeda lab
Ġtnass iup
ar rabÃ©d
Ġeciff o
un ne
ĠÃ©m usÃ©r
Ġtnesop sid
us selb
7 4
Ġsnoss iop
2 002
ĠsÃ© rt
Ġnia g
Ġtned netta
fita cidni
art ni
ir d
ĠenÃ¨ igyh
Ġnoit nem
Ġr ocÃ©d
uen imul
Ġetna tsnoc
er ffo
mor P
gni pmac
r D
ĠV T
Ġem adaM
ĠÃ©rg ed
es serda
Ġsec aciffe
Ġnort ap
Ġ. %
Ġrer usem
Ġtned ner
Ġsehc if
Ġesue ic
Ġre nema
ecneg ru
Ġsw odniW
ses ue
Ġt uo
Ġi h
Ġsed oc
i pme
et iaf
ueir Ã©fni
nilp icsid
tnemel icaf
uts oc
e ffuahc
Ġruel f
s rallod
t iart
Ġet olip
Ġselle itnesse
Ġem moH
ĠÃ© luclac
os Ã©D
zes nep
il Ã©c
itÃ¢ p
Ġesu et
sed noces
na tÃ©
ĠS NA
ess iuS
Ġen ial
monorts ag
Ġell erutluc
Ġt icÃ©r
Ġno T
ehc uod
Ġre ilibom
euqi nortcelÃ©
et si
iav arT
neit ertne
Ġeciff O
Ġsruel uod
ut cepser
Ġeb ut
it il
x uerueh
Ġet nam
sa rt
io P
Ġretnom er
inim ula
ĠeÃ© ilbup
la j
Ġsec ivreS
E G
ev uerp
oobec af
tne rÃ©ffid
ĠÃ© ifidom
Ġses ylana
utits noC
Ã¨ R
Ġt ulaS
Ġfit om
Ġecne uqÃ©snoc
snoit isop
Ġt im
r enno
Ġs raM
M C
ec iv
Ġsno sia
Ġst ircsni
Ġ3 0
tÃ© gÃ©v
nam am
lo G
Ġruet caf
eru tneva
Ġruot eR
ngis ed
z en
ual C
rec nac
iu Q
Ġsec nerÃ©fnoc
v ircÃ©
Ġnoitnet bo
ne ihc
eg atÃ©
ra n
Ġsio nihc
Ġli erap
Ġsenno t
nev neib
set luda
ilg Ã©
erre T
ill ep
nehÃ©rp pa
nia cirÃ©ma
5 8
Ġia M
itc effE
sÃ©t ilib
Ġtnemevit inifÃ©d
6 6
nev orP
Ġenne rp
Ã©v elÃ©
Ġseg ats
Ġet sir
eng amellA
Ġtned named
tnemm aton
Ġegass am
pa J
ĠsÃ©t inu
ep pA
sni os
rts nomÃ©d
noita s
ĠÃ©t tiuq
Ġre unimid
Ġsf itom
l irb
atc eh
eru B
t ÃªrÃ©tni
ex es
Ġeuq Ã¨hc
luc irga
eria tnemila
Ġog ol
Ġ Q
Ġtnemep polevÃ©D
y of
eiv ne
ecna ssian
erc reM
Ã©tim ixorp
Ġs bulc
y P
Ġnoitat upÃ©r
Ġt ueP
Ã´ rd
Ġrueis nom
Ġsre ir
ca rtnoc
Ġsru egayov
Ġnoita rugifnoc
ec rof
Ġre yotten
Ġnoitam roF
Ġt inruof
sne it
ces ni
i no
Ġtneiv retni
ĠeÃ© soporp
Ġenne iditouq
sru euoj
Ġeg nartÃ©
Ġeim Ã©d
r irvuocÃ©d
Ã©r ri
o nos
Ġeuqig ogadÃ©p
Ġ NA
id ut
Ġse bmaj
Ġt ircÃ©d
ruel av
ruet c
Ġzey oS
Ġst adlos
es ruoc
Ġet ircÃ©
co L
Ġtnet rop
Ġsno snahc
et nesÃ©rp
Ġsni oc
Ġruet idÃ©
Ġelbar Ã©fÃ©rp
Ġlanoitan retnI
Ġar en
ef Ã©rp
p p
Ġrer tsigerne
Ġ, âĤ¬
g nA
it nA
Ġtnemev issergorp
Ġertne v
Ġtnel rap
Ġegar it
Ġess essorg
enim irc
Ġl ag
Ġseria tnemÃ©lpmoc
Ġega morf
ssa ssa
Ġriov A
elg nA
erial uc
id noM
sed om
Ġsec remmoc
ruet ces
Ġseuq atta
tna vius
ĠÃ©it ima
ĠsÃ© icossa
Ġet atsnoc
Ġsen iarg
Ġn ial
spmet nirp
Ġeng ag
Ġet nom
. âĤ¬
Ġsnoiss ucsid
Ġrey uppa
l iug
Ġsecne loiv
Ġk eew
Ġsnia rret
Ġsar ua
itÃ©p Ã©r
irv A
Ġengil uos
Ġzess isiohc
Ġ dnet
sop er
ĠerÃ¨ P
Ġren imilÃ©
gÃ©l Ã©d
Ġzer isÃ©d
Ġ eX
Ġ. ]
Ġtne laviuqÃ©
eg ien
itne c
tel swen
tol uob
Ġtnat uA
Ġstnem itnes
Ã© iuqni
eg nA
Ġ eva
ei ulp
ĠS AP
bmes ser
ior C
Ġseriot irret
Ġtnemec aciffe
stna picitrap
en p
Ġse iv
ohc Ã©
ĠÃ©t iforp
ru B
Ġrem mosnoc
Ġsecna nif
Ġtiart er
Ãªv er
G C
stna idutÃ©
em uayoR
Ġerut arÃ©ttil
a Ã©rc
Ġliat rop
Ã´c i
nal tA
eg nil
Ġselli ero
Ġsenne icna
Ġreg asivne
reg nahc
re k
nap Ã©r
euqig leB
tej ussa
Ġstnem etropmoc
Ġuej ne
eg nam
Ġsnoss iob
t er
it noC
nioj noc
el acol
Ġ eila
hca oc
Ġnoita il
Ġel ffuos
elliu ef
Ġsec nerÃ©ffid
ssa bma
Ġet silanruoj
l eirÃ©tam
ĠeÃ© bmot
ta P
set is
ĠeÃ© rt
ess arret
Ġet luda
Ġiul eC
ap orp
et iutarg
Ġsruoc es
Ġemmarg orP
seuq im
Ġnoitasi nagrO
tne uqÃ©snoc
Ġser ret
erutc urts
Ġecne namrep
Ġzet iforp
ĠÃ© icossa
ec irt
nidro oc
se B
inÃ©v nocni
itc at
Ġsus Ã©J
Ġtnemen ia
A N
ram ac
uol uod
y oR
ral c
ss id
ĠÃ©s icÃ©rp
rio va
Ġ otua
la G
ua hC
ig ats
Ġel ibomotua
Ġrer olpxe
ĠÃ©t inamuh
ĠeÃ©t imil
Ġleir ruoc
ipm ahC
ma S
P S
Ġz ellA
erÃ¨ inam
M O
ĠecnerÃ©f Ã©rp
Ġevita nretla
or C
2 4
Ġzeir ruop
Ġsnas itra
is ab
f itca
ua tsni
ĠSUO V
yov ner
Ġtneru f
iar bil
Ġtnemelle iciffo
Ġtnemeuq itarp
Ġlan ruoJ
Ġresop er
b rac
Ġert uO
Ġi nim
e inÃ©g
id nI
se mrof
Ġs cas
Ġ5 002
seuq itarp
ĠÃ© utitsnoc
Ġeria los
tnes Ã©rP
Ġt pirc
id never
Ġelle itnedisÃ©rp
Ġall iv
d Ã©m
Ã©b ilÃ©d
trop snart
Ġerv uoc
tnem ec
Ġnoitac ud
ĠÃ© rapÃ©rp
1 002
ib molp
Ġtnanev orp
ĠsÃ© tnesÃ©rp
ĠsÃ©t uanummoc
Ġt irc
Ġell ennoitidart
irÃ© ug
Ġecne uqÃ©rf
niamed nel
Ġa j
ĠÃ©t roppa
Ġsia ret
s yd
ĠetÃ¨ iuqni
seuq itam
Ġsip at
t naruatser
Ġsia ref
Ġsia dnetta
ff ar
Ġud ividni
ĠÃ© yap
Ġa ss
ruo S
ĠÃ©t ser
Ġdnerp er
Ġd ruol
Ġru ehc
Ġsneiv er
ehc orp
! ?
tnemel gÃ¨r
Ġsnoitca Ã©r
Ġsnia cirÃ©ma
Ġua es
Ġreg aruocne
Ġzess ap
sio l
ni luc
Ġer uc
Ġrir uom
Ġnoit resni
selb issop
el o
Ġla Ã©rtnoM
Ġenia tnec
Ġoc Ã©d
Ġtnem ennoit
Ġz em
Ġsel ues
re G
nois icÃ©d
d uos
yla nA
m er
irÃ©t cab
Ġel udom
Ġrer ucorp
Ġserv Ã¨l
b eh
ĠÃ© if
Ġ00 7
Ġeng id
s ag
Ġ itraP
noita rÃ©po
Ġni uJ
Ġli ev
elliu J
Ġel acidÃ©m
Ġ euc
Ġs ib
Ġeubirt noc
su ffid
Ġtiaf sitas
ses nopÃ©r
mo S
ess a
ĠseÃ©g Ã¢
ca nem
eb rab
. âĢĿ
Ġsed osipÃ©
iug ia
la d
la ngis
Ġt ik
Ġse ivne
Ġnois Ã©hda
ni eh
Ġreih ac
Ġeg ram
Ġess iga
iss oP
Ġtnec ca
ĠÃ©t ilitu
narg im
Ġelp pA
u netnoc
Ġ ilpmer
i moc
Ġsnois net
ĠerÃ¨ loc
isu M
Ġnoital sigÃ©l
Ġrets ugÃ©d
Ġsfita ler
Ġfit rops
Ġnoita Ã©rC
Ġseria ffA
ĠÃ©til argÃ©tni
et am
Ġrued nev
Ġnoit ullop
Ġser dac
ĠÃ©g atrap
sell ennosrep
x elA
u eva
Ġrinet er
Ġy d
Ã© na
rem mi
Ġsd rocca
Ġs dner
ĠÃ©rg Ã©tni
Ġc ehcÃ©
eug nal
sÃ© uq
ar D
er rac
rev ne
A VT
Ġep mop
s org
Ġsen im
00 5
Ġru p
ba s
Ġg ruob
il f
Ã©ng am
Ã© nat
irt ser
Ġeuqig am
res Ã©d
Ġset Ã¨
zel uov
Ġeriota robal
Ġreg nalÃ©m
Ġsia ved
uan ummoC
D R
up inam
Ã¨ ssop
Ġ9 9
Ġset seg
ĠÃ© mrofni
Ġl apicinum
dra sah
Ġsevuerp Ã©
Ġtiu dart
/ âĤ¬
Ġerut uf
Ġl artnec
Ġedutit lum
Ġeria iciduj
Ġsr elliesnoc
Ġt an
Ġ ðŁĻĤ
ihc rA
Ġt itnarag
Ġerc niavnoc
Ġnoit poda
Ġu lc
Ġecnes se
rem moC
eÃ© s
eng apmocca
in necÃ©d
ill atÃ©m
Ġtio t
sit oc
Ġtnev res
Ġd rocer
er pme
Ġre ffuahc
Ġeg nil
mol g
Ġseg angiomÃ©t
Ġeuqnoc leuq
Ġeno hptrams
Ġeuq suj
p ucco
eÃ© nnod
Ġx e
Ġstnem ed
rop xe
Ġega rag
iop se
Ġreuq nam
.) âĢ¦
ec Ã©D
lc se
es or
Ġnoitac ilpxe
Ġstab Ã©d
tab ilÃ©c
ĠsÃ©v irp
Ġnoitc idretni
Ã©rg asÃ©d
Ġes ufer
Ġsnoit ulovÃ©
' '
Ġot om
ecna tsid
stnem eg
it oc
ĠÃ© silannosrep
Ã©ni la
ĠeÃ©c nal
\ \
Ã©p S
Ġg nar
Ġre uova
erag ic
Ġres serÃ©tni
Ġeiv ar
Ġno igiler
acid ar
v arT
Ġnois seforp
Ġsecna tsnocric
ia ssa
Ġsl eirÃ©tam
ĠÃ©til icaf
Ġem ron
llec xE
S O
sa idÃ©m
Ġl ei
Ġd ivaD
Ġni ssab
iar T
a tne
los Ã©d
a na
Ġsell erutan
t atÃī
ell itneg
Ġst atE
itap s
Ġsrues seforp
Ġs ircÃ©
ne ulfni
Ġd l
Ġtnad rager
Ġeuqit Ã©htse
en nA
o ro
iud Ã©s
Ã©n Ã©p
sel acol
ruel ahc
ĠsÃ¨c orp
cir Ã©mA
euq il
la f
Ġsni draj
t alp
ut am
Ġell evuoN
itna mor
Ġstnemet rappa
et Ã¨lpmoc
Ġsesirp er
Ġs gnol
al evuoner
b ru
Ġrel angis
Ġret Ãªf
se Ã©m
Ã©tic irtcelÃ©
Ġnoita tnem
ĠE G
n revuog
Ġuo rt
ei hparg
Ġeuqigol ocÃ©
Ġrenno itcnof
Ġser reip
snad ed
Ġett erger
Ġ1 4
ĠsÃ©t upÃ©d
Ġetnas serÃ©tni
ap uoc
eiv res
tna dnetta
ut uoc
euq ilpxe
em uj
sf itcejbo
Ġnoitat Ã©rpretni
Ġreuq ovorp
Ġid ueJ
eg an
niet Ã©
Ġo na
Ġsem Ã¨
hcorp pa
Ġert ÃĬ
Ġsnoitac inummoc
Ġid nuL
Ġs nimehc
ĠsÃ©tin utroppo
Ġec idni
Ġselleuq xua
ac A
c iV
Ġp acidnah
or cÃ©d
euq irotsih
iun ne
Ġst atÃī
Ġa na
Ġzehc as
Ġa hc
Ġsel icaf
es iom
enne iditouq
Ġtnemer iart
Ġtej art
h a
Ġkro Y
Ġret uojar
sÃ¨rp A
illet as
tnec ruop
sno t
Ġtra uq
Ġtf os
Ġzet catnoc
Ġsnor Ã©pse
)- :
ru erre
Ġess iac
Ã©l op
r E
serial ocs
io gna
Ã© T
Ġehc op
Ġeuqi htapmys
Ġd namella
sru eis
Ġstnem enno
Ġtrevuo c
ert tem
no yL
ev Ã¨
Ġc a
i mo
Ġres uma
t Ãªrp
oc oc
ĠevÃ¨ rg
erio tagilbo
su rf
Ġrinet ertne
Ã¯ a
Ġruetc eriD
Ġ Ìģ
RA M
Ġeg anÃ©m
H T
Ġtne ilC
Ã©r Ã©s
id nul
Ġh s
r itrap
iss id
isio hC
ĠT I
ima xe
dne csed
Ġn iat
Ã© no
Ġset siruot
Ġleu d
iro lac
Ġrel ov
Ġt niojer
Ġeuqig leB
tnemet rappa
Ġl ab
ua F
Ġst erces
eba ra
ĠsÃ©n recnoc
Ġsfit rops
Ġetna ss
Ġeir elag
Ġnoitat ivni
ĠÃ©l utitni
Ġtneia vuop
Ġc o
Ġst Ã»og
Ġst Ã¢gÃ©d
Ġno g
Ġsia sid
Ġeug av
ĠÃ©d rager
dne ga
ini s
Ġzed netta
rom Ã©m
nam lusum
Ġx uojib
8 6
Ġxu ellievrem
Ġrer Ã©pse
Ġeria Ã©lcun
Ġli u
9 6
srev inu
tnemerÃ¨ ilugÃ©r
enÃ¨ g
Ġmu roF
Ġems it
Ġse ingapmoc
Ġsno y
ial gna
ar A
nev bus
ĠerÃ¨ va
ĠsenÃ¨ cs
Ġtnemet cirts
Ġetne rt
euq irfA
nal Ã©M
er rev
re imerp
Ġessap Ã©d
Ã©l ppus
it bus
iup Ã©
Ġet pada
Ġset te
Ġst rA
Ġ3 4
ir uaM
Ġen nap
RE M
lav itsef
D E
art tar
Ġeng iesne
Ãī D
Ġnoitav resnoc
tnemel pmis
Ġei hposolihp
Ġselba snepsidni
Ġem e
Ġs ulcni
sec netÃ©pmoc
elf er
Ġg nit
sser d
Ġeuqitam Ã©ht
Ġserutcurts arfni
erre iP
et nal
Ġret iahuos
iu gnil
Ġn m
Ġtne uoj
Ġseuqit uob
Ġtnemec uod
t ip
noita l
uah xe
Ġt racÃ©
la cÃ©d
Ġstnem urtsni
en motua
Ġ] âĢ¦[
Ġsus sit
Ġtnemes ue
da mod
seuq imonocÃ©
Ġer uejam
el las
Ġ bo
us rep
Ġtnennerp moc
Ġxu en
eni ep
Ġet necÃ©r
S T
ni b
u vÃ©rp
set ne
Ġl eppar
Ġse itnarag
ruo F
Ġseng apmac
Ġsnoitar Ã©nÃ©g
Ġerial utit
Ġtiav uort
Ġrehc rehcer
uob Ã©d
Ġred iug
e iuppa
Ġeuqig Ã©tarts
Ġsruet arÃ©po
nic edÃ©m
Ġres ufer
ĠseÃ© ss
Ġl itneg
Ġnoit utitsnoc
ĠeÃ© nno
if idÃ©
rap Ã©s
va n
ĠÃ©tin ret
NE T
RO F
Ġsl ov
__ __
Ġut rev
ĠÃ© rtsigerne
Ġecna dnepÃ©dni
uo rppa
elb is
eng is
noita llatsni
h O
ec ilop
n reB
Ġnoitav resbo
elb isiv
uj noc
erd ac
Ġer it
Ġruess inruof
Ġ orp
Ġrertnec noc
Ġsec ifÃ©nÃ©b
Ġni p
kro Y
Ġred Ã©c
ni ec
Ġseug ol
ĠeÃ©g rahc
Ġtnemetrap pA
Ġse unnoc
in medni
um uc
ng iab
Ġsir g
Ġred a
ua lc
set xet
ru gua
ima F
ne ic
lus ni
sec Ã¨ip
ĠÃ©t iahuos
Ġu rap
ua rt
up sid
Ġserut luc
â Ļ¥
Ġc ohc
ĠI I
Ġar er
Ġserio ta
B A
Ġes ac
Ġs s
Ġs hctam
ĠerÃ¨it norf
Ġess ur
Ġeir ess
Ġserv ueo
elg ooG
Ġret Ã»og
damod beh
Ġtnemel uorÃ©d
ug itaf
Ġreif itsuj
erÃ¨ itam
Ġtnemeriart noC
Ġ5 8
Ġeuqits iruot
7 6
en ic
Ġrel uor
Ġ om
Ġerdner P
iss org
p mor
eÃ© ss
Ġ9 0
Ġseru tneva
sert nocner
Ġehc naver
nir Ã©tÃ©v
Ġseuq issalc
ĠÃ©m rifnoc
Ã©t id
Ġehparg arap
Ġi F
set tel
Ġenir af
Ġx ion
Ġelba borp
ĠÃ©t od
tnem euq
Ġtne icifÃ©nÃ©b
irg A
seg gus
Ġsett euq
gÃ© ni
f nE
ĠeÃ© tnesÃ©rp
ehc Ã¨s
ic xe
v el
Ãł L
ru er
Ġtnemet ten
Ġnoitirap sid
g ruob
Ġtanno ipmahc
ot ut
Ġt giod
Ġet aD
Ġte v
Ġarel uorÃ©d
Ġua ec
ĠsÃ© utis
ĠT NA
Ġen Ã®artne
Ġseg alliv
Ġeloc irga
erÃ¨ir rac
Ġs ufer
v Ã©s
.... ....
Ã İ
Ġelc rec
Ġreuq atta
Ġrue os
uog ir
Ã©p rep
Ġst idÃ©rc
AR T
ĠeÃ©r Ã©disnoc
Ġre inap
its uahxe
Ġio nruot
Ġ issuA
t alocohc
Ġtnehc rehc
x uod
Ġseuq irÃ©mun
Ġrenno it
ĠeÃ©nnod nar
Ġsela noitanretni
uo rotua
ill A
Ġxueir uc
Ġsno rt
uo y
Ġress iab
ĠretnesÃ©rp er
ĠerÃ¨ ivir
Ġsu nob
ot S
Ġelba rovaf
Ġec alP
Ġno paJ
Ġnoita luc
Ġnoitcud ortni
Ġs dnetne
et rof
Ġtiar uas
R G
Ġsre in
s k
t ub
Ġk cots
it ilop
Ġevita tnet
elb uod
Ġar Ã©mac
Ġ eissuR
Ġsor Ã©mun
ĠÃ©g agne
f itcejbo
ca c
egas ivne
Ġtno re
Ġsnoll iesnoc
Ġt rihs
Ġ? ??
Ġseg uor
Ġsruess itsevni
ĠerÃ¨ ug
Ġred ilav
nis agam
eÃ© n
Ġruet agivan
e nol
Ã©l p
tnem itÃ¢b
ruet asilitu
Ġp orT
l ats
tned isÃ©rp
Ġstne lat
st iurf
iut ni
Ġel Ã¨dif
Ġ! ?
ilp pA
enret Ã©
Ġstnem ecalpÃ©d
Ġz z
Ġtnat cepser
I N
no nis
z ellA
ir ri
eg ammod
inom rah
Ġ9 4
ĠsÃ© b
Ġelo bmys
Ġ6 4
e it
el yts
Ġec nivorp
ĠsertÃª nef
ĠÃ©tiv itaÃ©rc
rts uA
uoc es
ĠÃ©r it
IV X
dneiv er
Ġsel puoc
ne Ã©porue
Ġzes opsid
Ġtna picitrap
Ġb up
Ġl abolg
ir C
g Ã¨R
Ġriovec noc
Ġl ennoitpecxe
Ġnoititrap Ã©r
Ġsenne Ã©porue
Ġsno eg
ne ts
l Ã«
Ġr ibus
ell erutan
Ġec apsE
r itros
erÃ¨ gÃ©l
im es
Ġstil fnoc
Ġez niuq
Ġsruot er
noitam mosnoc
ih avne
ulos Ã©r
ĠÃł jÃ©D
a ffe
ertÃ® annoc
erÃ¨ rf
Ġ eul
ell ennosrep
el Ã¨dom
Ġset revuocÃ©d
dnep sus
Ġnoitar Ã©numÃ©r
Ġrer Ã©nÃ©g
s ret
sne ic
Ġetius nE
ner G
ruobm ex
Ġid ercreM
Ġna b
Ġsrue nerpertne
idÃ© ni
st nal
Ġrehc ac
a mot
ĠÃ©l osÃ©d
Ġmon Ã©rp
Ġstner Ã©hda
A V
Ġeriam irp
euqilbup Ã©R
Ġeg angiomÃ©t
Ġsnoita icogÃ©n
Ġru engieS
Ġru en
Ġtnev uorter
Ġertsi niM
Ġar i
U D
Ġst obor
Ġzet lusnoC
ĠeÃ© sil
arÃ©n luv
Ġtnad nopÃ©r
Ġnosia rapmoc
Ġell er
Ġsl iam
Ġzes op
Ġt ibÃ©d
ruoc rap
no ziroh
Ġar evuort
Ã© rtxe
elp uos
iuq oc
er Ã»s
ĠsÃ©s ilaicÃ©ps
Ġ5 9
Ġtnem acidÃ©m
sem es
Ġsno Ã§rag
Ġ4 6
ĠÃ©m itse
ĠÃ© tnemgua
ra L
mo tse
ic Ã©pS
ilib ah
Ġerbm evoN
Ġsed utit
Ġw eivretni
v ecer
Ġ eiuppa
Ġsev ihcra
e icifrepus
set reC
l E
Ġell ennoitpecxe
Ġm ufrap
Ġl ob
noitac ol
Ġre irav
sial Ã©d
Ġsnoitid noC
y ba
uot a
ess enuej
is Ã©R
i hpargotohp
Ġl eg
ira T
Ġecne rappa
Ġtnemec nerÃ©fÃ©r
Ġstned icca
nos nem
Ġno ziroh
Ġrer ramÃ©d
Ġserial uc
Ġret norffa
Ġrey of
Ġzer rev
Ġrer imda
ip mop
Ġap ap
Ġ eif
Ġnoitacif itnedi
mo dne
ĠS O
Ġzer t
bm ert
Ġseuqim ihc
ne T
Ġ2 7
Ġtnemen revuoG
Ġselb isiv
Ġelb itpecsus
u xes
Ġxua icremmoc
ta B
Ġsev itcepsrep
tnem moC
Ġnoita losi
Ġrett iwT
sem ugÃ©l
Ġren Ã®d
Ġerb otcO
Ġzed ner
Ġnoit ibma
Ġet cepser
Ġnoitad ilav
Ġtnemed ner
Ġ7 4
lli uob
se itrap
tne rt
ed rob
Ġel if
s g
da M
ĠetÃª b
Ġxua elbat
seuq ilbup
cat sbo
Ġstna sopmoc
uer c
stne r
Ġehcrehc eR
ne lp
ĠÃ© ni
ĠÂ ®
Ġres uffid
ĠÃ© ut
ĠeÃ©r casnoc
n noitca
Ġtua F
nos iarvil
Ġr idnarg
Ġnois ulcnoc
snia trec
Ġsel catceps
isÃ©r B
X E
Ġxue ilim
Ġsex at
Ã® a
Ġt hg
tnemenno itcnof
ua G
u tneva
Ġevit isop
Ġstnemeg agne
eÃ© hc
Ġle usiv
Ġ)... (
en iar
sel itu
dra J
tned Ã©cÃ©rp
g nitekram
Ġrir ruon
Ġdnof orp
ĠerÃ¨ ib
el as
seria ssecÃ©n
Ġnoit utitsni
Ġei hpargotohp
Ġsel ac
Ġserv uap
sÃ©t Ã©
Ġ nac
emm ag
se Ã©d
ina nu
ehc A
nahc ne
ev Ã¨l
issec cus
Ġreuq ramer
Ġla rom
noita tnemila
pa s
ilc Ã©d
iord nA
ra T
Ġes irovaf
h sa
Ġnoitas irolav
esiom ed
Ġres sergorp
irta P
Ġzed named
E B
Ġser utc
se x
Ġtnemes rev
ert uA
Ġeir av
3 4
g orretni
inu M
t oc
Ġeria tnemÃ©lpmoc
st rom
erio ta
ett ecer
Ġert Ã¢
Ġelb itapmoc
Ġst uah
moh T
Ġerbm etpeS
seg annosrep
nar O
ĠerÃ¨ lliuc
Ġt atsnoc
l ia
Ġset sila
Ġtnemell ennosrep
Ġreuq irbaf
ĠetÃª F
ert ser
ennoisiv orppa
euq serp
ĠseÃ© tnesÃ©rp
li emmos
Ġset rep
Ġia re
Ã©t uanummoc
Ġred rocca
it ibma
Ġ, ]
ecna ssiorc
Ġsl eirtsudni
Ġsev arg
ĠerÃ¨ ilif
ĠsÃ©n nod
or Ã©t
ĠesÃ¨ht nys
o A
Ġtnat ruoP
Ġeug itaf
Ġet iuf
sel ocÃ©
ix elpmoc
ĠÃ©t atsnoc
eÃ©r ud
Ġretrop pus
er dnetta
Ġtia nerp
nia p
t cerid
Ġt S
tnemelle utca
Ġrer vil
Ġdra dnats
Ġsni siov
etius ne
Ġnoita rtnecnoc
re itrauq
el an
Ġeno hPi
tnemela nif
ĠÃ©t sop
Ġ evuorp
Ġri A
Ġs n
Ġxua vehc
Ġsela icremmoc
ĠÃ© rd
em Ã¢
ro T
Ġid raM
ris iol
Ġtio S
ĠtnemÃ©d noforp
ĠÃ© nema
Ã©uq ilpmoc
ĠÃ©sop Ã©d
euqit uob
es serÃ©tni
Ġres irtÃ®am
Ġess uom
Ġla inÃ©g
r elliavart
Ġsed ic
z A
6 5
Ġzeir ved
Ġnoitc ep
Ġo rue
Ġtnemell evuoner
Ġen if
ĠÃ©hc uot
noitav resÃ©r
Ġepuorg er
net na
inif ni
Ġet ivÃ©
Ġreg uj
xu erbmon
im issa
ĠseÃ©n itsed
ĠsÃ©n noissap
Ġsre icilop
Ġetteuo hc
t at
Ġselb ar
00 3
Ġ4 002
no L
Ġi bus
ssiannoc er
elf Ã©r
cal B
ib aH
tne l
tne lat
U C
reb iL
noisiv Ã©lÃ©t
Ġser d
x eni
Ġeria nidroartxe
Ġuss i
zeva s
ipa C
t gniv
Ġtnauq idni
ĠR US
rÃ© ih
hc ne
7 5
Ġta irat
Ġ? ?
eg nahcÃ©
Ġet oN
tej uS
Ġrep pahcÃ©
hp la
m ubla
Ġrep yh
y alp
nef Ã©D
Ġtnat iahuos
nim ul
ol G
Ġst en
Ġtnemeg anam
tad idnac
Ġei V
alc ycer
Ġen ilpicsid
ĠÃ©tilib issoP
Ġtroppa R
ubir T
la nigiro
ĠA C
erb mo
Ġtnal rap
Ġeda lam
Ġel uof
Ġsu dner
Ġnoit omÃ©
er ar
Ġruoj nob
noita ts
ĠÃł Ã§
Ġell irg
Ġsel uc
Ġx uo
Ġeg rog
issec xe
nob er
t iod
Ġam a
at op
ĠÃ©m riffa
ic necil
ĠetÃ¨ rc
ed noM
cep sus
tnem eiap
Ġsno ixelfÃ©r
Ġseuq irotsih
Ġreg irroc
erÃ¨ imerp
Ġelitu ni
Ġo k
v uocÃ©d
Ġua eruB
ĠÃ©l Ã©t
Ġsed no
Ġtno rf
Ġs issa
RE P
ruet uah
Ġer ueirÃ©tni
co hc
ĠeÃ© sir
Ġstnem engiesne
Ġtej orP
Ġnoitas imitpo
Ġsia laP
Ġy ll
rueug iv
ed ut
Ġtnadnep eC
uot at
Ġsno yar
tnet noc
dna ba
ec ruos
ef noc
Ġerdne csed
Ġeuqi nacÃ©m
sne yom
sru elf
nics af
si h
tnemes uer
Ġst reffo
Ġdnof alp
ifir cas
ad nacs
Ã©t itnedi
Ġa rehc
reb ua
Ġert lif
ser pmoc
Ġriga Ã©r
Ġten rac
Ġsr egasu
Ġeunnoc er
Ġeng aterB
ruot Ã©d
Ġlat Ã©m
Ġ. âĢĿ
Ġtnem rof
Ã ¼
tem orp
Ġnoitasilib isnes
Ġtne unitnoc
f ehc
Ġsuos ib
Ġell oc
Ġni eh
s or
Ġreg uob
er tsinim
Ġc te
Ġtnemec rofner
Ġa redia
ĠeÃ©ss uahc
st iord
rof noC
at tar
Ġtnemes u
mum inim
tne irO
ei monocÃ©
Ġse igol
Ġzess isiohC
Ġtnem eriassecÃ©n
Ġstiaf neib
na T
Ġtnemeg rahcÃ©lÃ©t
ĠÃ©t uanummoC
Ġl ennoitidart
ĠsÃ©tilib asnopser
Ġtned nopÃ©r
Ġteuq ap
Ġnoita lum
Ġet rahc
el orap
od ohtÃ©m
Ġnosia nibmoc
ir Ã©f
Ġsnoitisop xe
eir ogÃ©tac
Ġ ehpargotohp
ir Ã©g
Ġtness ial
Ġluc er
ser of
Ġet nialp
am modne
Ġrer Ã©bil
Ġen noloc
setna vius
erut niep
Ġreiv naJ
Ġsell erutluc
el Ã®
Ġxueic ilÃ©d
uay or
d uov
el B
reg atrap
el catceps
s in
ida R
or Ã©d
Ġi nu
li F
Ġc olb
ĠsenÃ¨ g
8 5
Ġ2 5
Ġtnadnep Ã©dni
Ġsnot uob
mo ner
Ġreg nolp
t Ãªrof
inum mi
nam Ã©
Ġelam ixam
Ġsecne icS
Ġdna ts
ert Ã¢Ã©ht
sruoc rap
o og
im A
n yS
Ġrueir Ã©fni
reil eta
ila b
selle xurB
s nol
ess essorg
Ġst atÃ©
Ġegad nos
Ġeria tnemucod
Ġeuq inilc
it irc
Ġr ot
nort ap
ĠÃ©d ia
Ġs isiohc
e ulovÃ©
tne itap
Ġzeiss iup
es irc
Ġsel ibom
Ġelli ero
Ġtio rD
noita rtsinimda
ri A
Ġelac sif
res op
Ġem y
Ġsehc uot
ec arb
Ġt reb
Ġruetc udnoc
Ġen ruoter
zet catnoC
s Ã©p
Ġs ruotnela
Ġnoita nigami
Ġseuqitam Ã©lborp
sir hC
eg ixe
er es
RE V
sel iotÃ©
u u
Ġtne icsnoc
itu rc
se Ã©p
ĠÃ©n madnoc
Ġ) ?
ua b
Ġtiaf rof
Ġne yotic
ĠÃ©s rev
Ġua ennap
ec nerÃ©ffid
Ġzeiv a
Ġs up
Ġni uq
Ġnoit inif
Ġset ni
Ġ7 0
tse uO
L P
Ġselb isnes
ro W
itse mod
nois serpmi
Ġeuqit po
ilÃ© arsi
eug ol
at i
Ġert a
Ġruel pma
Ġnoisiv Ã©r
ell evuoN
Ġtnem urtsni
Ġst recnoc
et itep
ess ac
1 4
ej bO
ĠseÃ©s inagro
us ni
Ġ eicifrepus
Ġsia d
Ġnot oc
Ġno igÃ©R
Ġert Ã¨maid
la W
Ġrem riffa
Ġtnessia rappa
zet iahuos
Ġstna nevretni
Ġst iutarg
om Ã©m
Ġseuq in
Ġtner uaL
ĠÃ©p ucco
y on
Ġess ia
Ġell ep
nom roh
stna vius
ol F
ol loc
Ġed ica
Ġart lu
erÃ¨ ilucitrap
ior D
ht e
Ã©hc ra
ner Ã©p
ip orp
seuq sir
li erap
lo V
Ġreun itnoC
Ġer itta
noc Ã©rp
Ġet rev
Ġeiv ius
Ġsu dnev
Ġtnemeuq itam
snoita icossa
ĠÃ©t ov
Ġrerap Ã©r
Ġl arÃ©nÃ©G
enia cirÃ©ma
ï »
k e
Ġsnoit idÃ©
Ġtnemm erappa
el Ã´rtnoc
etÃª f
Ġa b
Ġl irvA
Ġseuqits iruot
er ircÃ©
ot ohP
g re
Ġriruoc rap
Ġzes neP
Ġsnoitc elloc
lliev Ã©r
Ġtia net
ts yS
s icuos
Ġretne iro
ï» ¿
al bmes
Ġed ualC
ecne itap
Ġsnoisiv Ã©rp
iturc s
l eir
Ġeg aP
Ġecne idua
nag Ã©lÃ©
tse R
eil atI
x ob
as u
02 02
or f
ĠÃ©g Ã¢
il pma
Ġseuq alp
Ġco raM
Ġxuer uelahc
sell iv
sne yotic
u nam
co ram
og ol
Ġell un
snoit omÃ©
ĠSE T
Ġehc narb
Ġsev itc
ĠÃ© sirotua
Ġs ra
ĠÃ© ilbuP
8 8
NO M
NE V
Ġelb irret
ĠserÃ¨ gnartÃ©
e erf
F DP
Ġeuqitam Ã©lborp
Ġzev ius
p er
Ġrio lav
ĠeÃ© utceffe
Ġrem irpmi
Ġ ortÃ©m
neit uos
Ġell atsni
euqim anyd
sne pmoc
Ġnit ellub
Ġst rap
Ġetne namrep
Ġa z
Ġnoita srevnoc
rg Ã©tni
ĠecnerÃ©f noC
ĠÃ©ss alc
Ġtnemer io
ĠeÃ©l eppa
Ġtna mrof
sel c
es nad
Ġeuq sam
Ġnort ic
ĠÃ©l b
ej art
Ġl ueS
ĠeÃ©lla v
Ġselp uep
Ġ8 0
le utca
Ġl o
Ġtned nopserroc
Ã¯ ah
Ġer alcÃ©d
Ġsruet atceps
Ã© H
re hC
la icremmoc
d yxo
y oj
Ġed noforp
nic cav
Ġxua noitanretni
sen iamuh
Ġc raM
ĠÃ©tic ilpmis
io hC
Ġstel ov
Ġtel gno
Ġeinom rah
en ihcam
hc Ã©
ĠerÃ¨ ilugÃ©r
Ġruet arÃ©po
rugua ni
n ubirt
.) ...
Ġsnoitc urtsni
Ġsle itnesse
tnav arapua
s mlif
euq id
Ġreil etA
ed oc
Ġtnemm atsnoc
Ã©rc noc
Ġa red
6 7
Ġett elbat
oc E
Ġr eval
ĠeÃ©d nof
ecne icsnoc
ul av
Ġsex a
apm e
na ts
Ġseu nev
ĠsÃ© ilbup
Ġsnad ed
en if
Ġeloc Ãī
sart S
f uen
lav ylop
Ã¯ al
es ser
noitc erid
noit pecÃ©r
Ġeid necni
ita r
ĠsÃ©v irra
utits bus
Ġtros ser
Ġerbm ecÃ©D
Ġes uem
Ġnoita lunna
res nep
Ġell eudividni
oid rac
Ã¨l hta
Ġret uas
Ġtna dner
Ġela rom
molg ga
0 51
uq leuQ
Ġy ruj
Ġlar Ã©dÃ©f
ĠeÃ© sila
ĠetÃ¨ hca
Ġenia tnert
r I
et luda
tad nam
Ġsim moc
Ġz ir
nel is
Ġ] ...[
ĠsÃ© calp
Ġer ug
erut ircÃ©
noita tnesÃ©rp
Ġs golb
tnem Ã©lÃ©
i eh
x ios
Ġsunev ed
ĠsÃ©g Ã¢
Ġega tnecruop
t c
seria tnemÃ©lppus
Ġtia tser
po ts
Ġ... ..
egar uocne
Ġi uL
kc ap
s ulcni
Ġsehc uoc
ruet ar
co raM
ĠsÃ©s serÃ©tni
Ġnoita nidrooc
nim atnoc
Ġet rela
Ġsre ipap
Ġseriat inas
Ġl agÃ©l
od c
ia niv
r it
Ġsia ler
ed Ã©cÃ©rp
ĠseÃ© ssap
erÃ¨ it
ĠlÃ« arsI
Ġtiart rop
Ġserial upop
Ġsecna tsbus
Ġecne rapsnart
Ġes ir
art lu
euq ifitneics
eio j
sir g
eb molp
Ġy c
t uev
Ġetsi L
ĠÃ©r vil
noss iuc
Ġer ocs
ĠÃ©d nof
Ġser tsinim
Ġrep m
a W
sa rtnoc
Ġes i
Ġseng atnom
Ã©t nI
Ġs ul
ir aP
Ġrer casnoc
Ã©ht nys
ĠserÃ¨ itnorf
Ġli ues
Ġos rep
tse uo
r U
va c
Ġegal labme
t nor
Ġerttem uos
zet catnoc
Ġela noigÃ©r
eng apsE
ra K
Ġenne iv
ĠÃ©tilib ats
stnemet Ãªv
Ġsl ennoit
ĠenÃ¨ ma
rÃ©po oc
euq Ã©rf
Ġse uor
Ġeuq ihtÃ©
mal fni
eg annosrep
Ġsf uÅĵ
Ġfita rtsinimda
looc la
Ã´ v
Ġsias iaf
Ġell ies
9 8
Ġs nemaxe
x id
el u
xua et
Ġress arrabÃ©d
el am
lm th
Ġsno icremer
or ga
ev ehc
tnemela niF
Ġel iov
Ġsen Ã®ahc
siup ed
ĠÃ©hc rehc
il Ã©h
sruet c
io lpÃ©d
Ġnoitacif it
tid Ã©rc
Ġsega ssap
ihcra rÃ©ih
noit nevretni
Ġel uob
t euq
utit ser
ir rA
Ġla Ã©dI
x uaf
l ennoit
p eda
e iuq
Ġstnem ugra
ed nab
sop sid
Ġart tem
no Ã§
pm aC
ruem ed
Ġgni p
ul b
Ġsr io
Ġsnoita silaÃ©r
ĠÃ©tis netni
Ġevit rops
uc ua
Ġsel Ã´rtnoc
Ã© k
ĠerÃ¨ il
Ġnoitcudorp er
Ġsnor ua
Ġnoitc urtsed
ĠÃ©tila itnedifnoc
Ġeuqi norhc
Ġevita rtsinimda
ĠÃ©t nom
ĠÃ© yolpme
uq ram
Ġm iaf
s ellia
Ġecne llecxe
ĠÃ©ss uop
Ġrev Ãªr
iun itnoc
enno t
no igÃ©R
Ġl ivic
Ġtna lliavart
elp uep
nil cÃ©d
Ġa ni
Ġssen isub
en retni
te k
Ġs rap
ro va
Ġeriat inas
isop moc
ĠÃ©d rag
em ef
Ġc es
Ġsl iforp
t revuo
Ġres iv
na H
Ġseg at
Ġleunam mE
erut aN
Ġed iuG
tra ts
erut revuo
ĠÃ©tid ilav
Ġer ircÃ©d
hc t
Ġtned Ã¨ssop
ru eis
es Ã©d
ba L
Ġtna ulcni
Ã©m soc
y ut
is netni
ecne ics
Ġesia Ã§narF
ir ac
Ġt elliuJ
Ġtnet roppa
Ġes Ã¨
Ġreuq olb
ix na
Ġeuqim reht
ots irhC
ip ort
noit idnoc
Ġtnad named
id uahc
egass itnerppa
Ġehc nart
Ġruet ammosnoc
ĠF DP
Ġtnen recnoc
ĠÃ©r Ã©g
Ġeu dner
sets itra
in iassa
id ercrem
nep sus
rut uf
em siruot
ort celÃ©
itro ssa
inop siD
ag ab
elba snopser
Ġc ilc
irba F
l eppa
sruet isiv
uh r
g n
iar V
Ġ irt
Ġses nep
uq nam
Ġre M
Ġeuq sac
Ġet pmoC
dne gne
oru en
t op
ra D
ic nof
Ġei nif
Ġem ord
Ġru Åĵs
irc snI
Ã©g nahc
in Ã©d
nam roN
Ġl eirtsudni
sÃ¨ rg
ne H
Ġselb acilppa
Ġrer ud
Ġsnoitac ilbup
ĠeÃ©g Ã©torp
Ġsen igiro
res ilaÃ©r
- :
elbissop mi
ĠeÃ©c nava
Ġxua noitan
Ġel ic
sel pmis
el uor
Ġp oT
et sixe
nets ba
Ġsel o
ev itca
Ġtnemesuer ueH
Ã©g noc
ar Ã©bil
Ġeuq ovÃ©
ĠÃ©s ucca
Ġel Ãªop
Ġeuqin natirb
et netta
nia r
Ġk o
Ġla ilimaf
Ġtnemessit tejussa
Ġselbat irÃ©v
el oS
t iga
Ġua ev
Ġsd noF
y n
Ġs noc
nop seR
ĠÃ©d nammoc
?? ??
Ġer ffuos
Ġtneit bo
uo H
Ġzerv ecer
ru en
ita rg
tnemeg nahc
Ġtna Ã©rc
ut sop
Ġses sia
erv ueo
Ġex a
reg nad
im ehc
enne icna
Ġer razib
Ġtne picitrap
Ġh ab
Ġer ueirÃ©fni
na V
Ġsec ned
ruem uh
Ġert tabmoc
tnem ed
Ġel ortÃ©p
Ġt u
Ġseria las
ĠE P
Ġnoit unimid
ug nis
bm i
it Ã©rcnoc
Ġxue f
Ġret po
initsel ap
Ġei ht
ĠS U
Ġet nomer
Ã¢ P
Ġreng ios
ĠÃ© rt
x ul
e ilbup
Ġla nac
Ġesser t
Ġtnev io
Ġsel Ã®
ĠE J
Ġtnemelb arÃ©disnoc
ic illos
Ġze icifÃ©nÃ©b
nois rev
eu nnoc
stnemen Ã©vÃ©
ue N
eÃ©p iuqÃ©
i ne
odc ena
Ġred rat
no iva
Ġsegas u
noitc etorp
non Ã©
Ġerts iger
ssia b
pmi S
Ġnoita gÃ©lÃ©d
Ġnoitar Ã©pucÃ©r
Ġruess iapÃ©
Ġstnec seloda
ei V
Ġtiart temrep
gnik rap
Ġsel agÃ©l
seuq ificÃ©ps
IC I
âĢ ¯
Ġf erB
Ġsneic inhcet
id ram
ĠsÃ¨c xe
Ġrets isÃ©r
Ġst op
sno ng
trop par
Ġegall iuqam
Ġsemsi nacÃ©m
Ġtni oP
Ġres imonocÃ©
ehc nalb
Ġes ucxe
Ġel arÃ©nÃ©G
tna Ã©hcÃ©
ap luc
Ġsf ueo
ets irt
ĠsÃ© utceffe
ecaf rus
et revuo
Ġress ilg
Ġreuq ram
Ġeriatuanummoc artni
Ġez uod
Ġnoita tnesÃ©rP
Ġela tnem
ru E
ell essiav
Ġtna rtnom
Ãª uqne
et issuÃ©r
f nog
Ġeda nemorp
eria tÃ©irporp
Ġselb iaf
T S
Ġsim snart
ess etiv
Ġte morp
sio d
ĠÃ©sop xe
rutc on
Ġsev resÃ©r
iar c
ial la
Ġr inuÃ©r
a rac
Ġegav elÃ©
nelp s
Ã©tila utca
Ġ4 5
op m
Ġst iud
Ġrel Ã©vÃ©r
rut caf
gni p
Ġsnoita ralcÃ©d
enne it
eg d
Ġsu ba
Ġsec narussa
r iga
Ã¢ r
Ġnoitac ilpmi
Ġtnemeuqitam Ã©tsys
rol f
sus Ã©J
Ã©t inamuh
Ãī R
i noloc
Ġerdnet Ã©d
net ertne
Ġerbmo N
Ã Ĥ
Ġsesirp rus
Ġsem ral
Ġa idÃ©m
Ġeuq Ã¨ht
tna n
ĠÃ© mina
ĠeÃ©v el
ĠA S
itne laV
na P
!! !!!
ra k
Ġsl os
Ġsevit rops
ĠP M
Ġtne uqÃ©snoc
Ġsed ipar
iduj Ã©rp
noc eS
Ġsia nopaj
Ġegat roper
Ġselli etuob
ecne tsixe
mono gre
i nes
Ġc ir
Ġseni Ã©torp
roc car
Ġeria dnoces
Ġess ac
Ġell euxes
Ġinif Ã©d
Ġ itnesser
el ivic
Ġet seR
Ġeil atI
Ġiar ruop
Ġel as
ĠÃ©nno itcelÃ©s
Ġtnemelle utibah
stne itap
Ġeuqitam ilc
Ġ6 5
Ġedrag evuas
Ġerg Ã¨tni
eria cnab
ĠserÃ¨ tcarac
eg all
ap moC
Ġtnem erbil
tna viv
Ġreg irid
er iorc
Ġ. âĤ¬
Ġsel ocirga
Ġni F
Ġnoiss essop
Ġdra illim
Ġsen redom
ĠeÃ©gnol p
ot am
Ġrenem ar
ro S
cer iD
Ġs it
ill iuqnart
Ġselle xurB
ff ub
Ġel agÃ©l
ecne uqÃ©snoc
e uor
et unim
pm yl
ĠÃ©l eppar
ihc Ã©d
Ġtnas iffus
no ixelfÃ©r
Ġf ehC
lli uorb
Ġp ac
Ġseuq idiruj
tnadnep ec
nerp rus
ĠÃ©g noc
Ġnor caM
Ġnoitacif ilauq
Ġsettel iot
ru ennoh
sehc rehcer
Ġk cir
et niaS
ĠseÃ© nem
v uort
no H
Ġnoitpirc seD
f itc
ex elpmoc
Ġes id
itÃ©p pa
irtam mi
Ġelba dimrof
Ġeng apsE
hc S
xua evin
Ġsnoit on
Ġsed ut
Ġtnenne itnoc
iv Ã©lÃ©t
Ġelba if
la mina
Ã© nimret
Ġ,) âĢ¦
seuq ig
ar es
Ġegar ramÃ©d
Ġesrev ni
ela ilimaf
ilÃ© F
s yaP
Ġsen uaj
set nas
Ġeriot repÃ©r
t ros
ne b
Ġzed rag
ĠD C
tnemet ropmoc
Ġsid arap
Ġselle utca
Ġre Ã©rC
Ġa rem
Ã©s op
ic urc
Ġet noh
um ucca
ro D
eng aterB
c rap
mon Ã©rp
m ys
Ġtnay uppa
noitisop xe
Ġsnois acco
.) !
co D
evuo s
eb ut
Ġtnet ros
Ġsel udom
Ġsert il
Ġtnay A
py g
iv ius
Ġseria dnoces
Ġleuq ud
Ġev iv
Ġs iuqer
Ġet ner
ĠÃ©n ruot
Ã©v irra
Ġeug nitsid
Ġre is
Ġsl eutnevÃ©
itc efrep
sno siar
Ġer ueirÃ©txe
ĠseÃ©v irp
Ġems im
c cav
Ġsruoj Ã©s
sec ruosser
ceps orp
ecne ga
Ġeg naro
Ã©t S
Ġor Ã©z
elli ero
c M
nima xe
Ġellies raM
y T
ĠsÃ¨ rP
Ġes uopÃ©
ĠeÃ©ng apmocca
et Ã»oc
ĠR U
es raM
Ġsle utca
Ġrer bÃ©lÃ©c
e irp
tua H
ue D
Ġseda lam
nof noc
Ġsel umrof
ĠI S
Ġeu dnetÃ©
Ġtneit uos
zz ip
ĠerÃ¨ if
Ġm arg
se T
ĠserÃ¨ m
Ġares sap
t erger
c Ã©bÃ©uq
Ġnoit idÃ©pxe
en iomirtap
AR G
ep atÃ©
Ġtnemenia hcorp
Ġo idua
Ġua irÃ©tam
pa n
euq nab
Ġsu Ã§noc
Ġell iuqnart
tne ss
Ã©l om
Ġtnemes ueirÃ©s
ru p
etxet noc
Ġnoita uq
Ġulc noc
Ġru egral
Ġ3 5
ilo S
Ġo morp
no itcnof
Ġsna rcÃ©
Ġel lab
is iorc
Ã©tÃ© irporp
Ġeu Ã§noc
erÃ¨ icnanif
ida naC
Ġst ircÃ©
ua tseR
Ġerut xet
Ġs murof
ĠsÃ©t iart
Ġrelliev rus
Ġess at
euqit irc
9 991
xua c
Ġa Ã©nila
RE S
e iab
Ġnoit ulov
Ġnoita tnemucod
Ġse ussi
Ġtneia ved
Ġritnes ser
suos ib
Ġam Ã©hcs
la va
nem moC
Ġress ac
Ġua evuoN
Ġtiar elbmes
Ġleud ividni
Ġsecaf rus
sel gÃ¨r
Ġtnemess idnorra
Ġt lua
ss en
Ġst acova
Ġret ivni
or is
Ã¨lf er
Ġst nar
Ġer e
ik iW
ig itserp
sep uorg
Ġeriat isrevinu
Ġedutit la
Ġsex elpmoc
Ġrinet noc
Ġel ueug
ĠerÃ¨ irp
Ġell enretam
Ġtia ssap
Ġtnass iga
Ġnoitar Ã©bil
Ġeloc otorp
re yasse
Ġsre itnes
uem ed
Ġ ðŁĺī
Ġett ehc
liev neib
Ã¨c rah
Ġser iam
Ġtned ia
ĠÃ©t idimuh
Ġu rapsid
ne C
Ġno lat
sen ummoc
id uej
Ġetrevuo c
ff iD
Ã¢ ler
o Ã©n
Ġal iov
Ġes ruob
Ġsia dnal
Ġsemrof etalp
Ġxue igiler
Ġk a
Ġst acidnys
noit ulovÃ©
C C
sev Ãªr
Ġsar es
si uq
Ġed rocca
ilos noc
esrev ni
oo B
Ġr at
Ã¨m er
eppa R
Ã©r F
ĠÃ©r cas
ĠsÃ©tila nnosrep
Ġess iarg
y z
Ġ,) !
Ġell eirtsudni
Ġtna Ã©g
itned isÃ©r
tnemess itsevni
Ġpm urT
ĠeÃ©v elÃ©
Ġsem marg
Ġsnoitac idni
Ġeniaz niuq
eg naro
ir G
Ġsc rap
Ġemrof ni
Ġxua edroB
Ġev ilo
noit itÃ©pmoc
Ġreg nar
a V
eng ios
ĠÃ©ng iluos
Ġecna nevorp
Ġsett uog
ĠsÃ¨rg noc
Ġ einÃ©g
Ġ1 5
nam moC
0 991
ruo muh
ed nI
c urt
noitav onni
Ġr ilpmocca
unnoc ni
ĠâĢ ľ
Ġsel rahC
Ġtnemec alp
nim id
tnen ne
Ġecner Ã©hoc
st naruatser
Ġres irolav
uo J
Ġsnoita sitoc
le itnesse
Ġser o
Ġset sir
Ġtneia siaf
Ġs inuÃ©r
ela nif
ĠeÃ© calp
no S
dro W
Ġresilib isnes
sel p
Ġecna nnodro
rom er
ra s
ĠertÃ® an
Ġeiv rus
Ġecnar ffuos
red rager
Ġsell iat
7 9
irt iam
erÃ¨ itne
Ġstab moc
Ġem irpxe
Ġsnoitc nas
d namella
Ġzehc aS
ĠÃ©g uj
Ġnoitar Ã©dÃ©f
Ġerb if
Ġuc niavnoc
Ġdne tÃ©
iff A
Ġses ahp
Ġsel csum
k O
Ġzehc rehcer
Ã´h R
.) .
Ġn itsed
Ġseuqig ogadÃ©p
tsud nI
sno b
Ġerb mos
Ġemsi nacÃ©m
Ġeg Ã¨torp
ic ros
Ġna S
ĠÃ©tilib isnes
Ġel Ã¨llarap
ĠÃ©v eler
ĠsÃ© igufÃ©r
ĠseÃ© rtne
iuq nic
Ġed isÃ©r
ed narg
Ġsial ap
Ġseb repus
Ġsr egassap
+ (
euq ificÃ©ps
Ġna Ã©co
Ġzet uojA
irv Ã©F
s regnartÃ©
eng iv
xe T
Ġset olip
Ġla ro
Ġl iop
ht ym
Ġunet er
ĠÃ© panac
Ġet raC
Ġem irc
p acidnah
co R
Ġst uota
p yh
Ġsre V
Ġt obor
ĠsÃ©m rof
Ġres revart
Ġt inuÃ©r
T H
ila M
Ġtna nnotÃ©
Ġtnemeng iesner
oh S
Ġnoitasil acol
av itse
Ġl oc
Ġrue nerpertne
Ġem mop
issec noc
Ġerial imis
Ġtno m
Ġesilg Ãī
Ġsru evas
Ġegar uotne
Ġsnoita snes
s engil
ruet om
Ġess ius
Ġnoit apucco
etÃª uqne
ĠemÃ¨ it
ĠsÃ©t itnauq
arg ga
Ġue id
x am
Ġa id
Ġeig rurihc
l yS
t eL
nam ellA
Ġsrueta Ã©rc
ipm av
Ġsem igÃ©r
stne c
tÃ® alp
Ġseir et
Ġzet uoja
es icÃ©rp
ni C
Ġsevita rtsinimda
Ġehc nalp
u bma
sÃ©t Ã´c
Ġecna s
ĠerÃ¨ t
ĠÃ©tis oiruc
Ġsen retni
Ġ eilbup
Ġsno sias
e ix
Ã©t so
eb repus
ruo m
o iB
ol gna
Ġtia yov
stna tropmi
Ġrep at
Ġni lc
en it
e ulosba
eÃ© rtner
Ġn hoJ
tnem ertua
SE R
ov noc
Ġs nit
Ġnoitat pecca
Ġsno ret
Ġre ibmolp
ĠÃ©r ipsni
ĠÃ©t upÃ©d
ort noc
Ġsruet acidni
O B
Ġet ubÃ©d
Ġnoitc urtsni
ilp Ã©r
Ġim enne
ol s
et revuocÃ©d
Ġ6 6
Ġn ed
st giod
Ġnot rac
uc Ã©v
Ġnoitacif irÃ©v
p u
Ġtnen itnoc
ya M
sehc ro
Ġs am
Ġstnemet rapÃ©d
Ġses arhp
Ġtem er
no ri
o Ã©di
el iuh
Ġtia dnetta
Ġsar ruop
r ennod
Ġet aidÃ©mmi
2 9
Ġseuqita mrofni
euqit Ã©grenÃ©
ĠÃ© ubirtnoc
irp moc
2 5
uaet ab
Ġes iorc
evuo P
Ġruet adnof
Ã¨r G
ĠV C
Ġen iar
os rep
secna ssiannoc
Ġed iA
ĠÃ©s ufer
Ġetius ruop
ahc iM
Ġ9 5
elos ne
Ġxuac idÃ©m
Ġser dnoL
em sil
tnemesuer ueH
Ġst id
euqi htapmys
ru elliem
neg illetni
setÃª f
ĠÃ© suffid
Ġtna russa
Ġnoisrev noc
ser dnoL
Ġnoita ro
n ut
Ġsruet celÃ©
Ġertnoc ne
ic cO
s rinevuos
ov ne
Ġeuq leuQ
Ġtnemelbat irÃ©v
f c
Ġet iurtsnoc
b up
Ġ illieucca
seuq ram
ĠsÃ©g agne
ĠÃ ¯
e erF
Ġnoita sita
stnem ucod
- .
Ġmu inimula
et Ã©d
U P
4 5
etÃª nnoh
Ã´ n
n w
zev uop
Ġetna dnepÃ©dni
t ed
nit noC
Ġev resnoc
Ġess uaf
sen Ã¨
rett iwT
Ġnoisiv id
Ġsno lliavart
set rec
Ġst at
ĠsÃ©b Ã©b
Ġnong apmoc
Ġsno rivne
ĠSNA D
sno issim
tnec ca
x edni
p Ã©r
ĠeimÃ©d acA
ĠseÃ©c nava
io S
Ġse ia
ĠtÃ®annoc er
Ġelb acilppa
Ġni siov
t ejbo
sell ennoisseforp
Ġeu euq
Ġst ub
Ġs y
Ġelbapac ni
in mo
n up
Ġer iurtÃ©d
er C
Ġeria nidro
eni eS
ua edac
ĠÃ© ifilauq
Ġre icossa
ia P
Ġs iloj
el Ã¨tneilc
Ġstiart xe
Ġrer o
Ġseuq ramer
reb mot
dne c
Ġnoc lab
Ġruetc urtsnoc
sf itca
narret idÃ©M
Ġy m
sre icnanif
ĠÃ©l Ã©vÃ©r
seria tnemila
Ġno tÃ©b
eu rc
Ġt inifÃ©d
ĠeÃ© xif
Ġzess iaL
ĠeÃ©ng iop
or Ã©mun
sem ra
cilbup Ã©r
Ġsed nab
uo ca
s Ã©lc
Ġsnod nammocer
Ġeng rapÃ©
nof ne
hp Ã©tS
h h
eigol onhcet
sep iuqÃ©
Ġt uoja
Ġtnemerio tagilbo
Ġerut Ã´lc
ĠeÃ©g agne
UL P
noita g
ecna Ã©s
el P
ega ffuahc
1 5
Ġes netni
Ġedutit rec
Ġel amron
ĠÃ©t Ã´C
ioj er
Ġd la
8 9
l ed
serv Ã¨l
Ġtne rap
ed noces
Ġtneme iolpÃ©d
ĠÃī T
ruel uod
egar vuo
ĠeÃ©v resÃ©r
Ġleb al
Ġreng iluos
ĠtnemÃ©m rofnoC
Ġsnam lusum
il Ã©mA
Ġ8 6
Ã©tic aciffe
Ġno llab
Ġtnemet nesnoc
Ġecna illa
Ġnoitpec rep
cep sni
Ġa T
nis iov
ĠsÃ©s inagro
Ã¨ hca
ĠsetÃª t
Ġze if
bm ac
d E
) =
Ġeg Ã¨
Ġet ircsni
em Ã¨ht
C O
eg ilgÃ©n
tnemev itceffE
Ġze yasse
ad nos
Ġruet ehca
Ġetrop par
Ġeng Ã¨r
Ġsiv A
l apicnirp
Ġet Ã®g
s ofni
Ġsno nev
Ġeng isÃ©d
r erap
Ġstnemen revuog
Ġeuqihparg oÃ©g
eÃ©c yl
inim Ã©f
Ġsert Ã®am
ĠesÃ¨ht opyh
Ġsno silitu
no sia
et ned
Ġt roF
Ġnoinu Ã©R
nia trec
s ut
Ġr ats
ĠsÃ¨rg noC
erut irruon
Ġzes ilitU
ets itra
Ġsnor ruop
l eppar
va S
Ġy n
Ġtia trop
Ġtiard uov
hp ortsatac
Ã´ rt
Ġemrof snart
Ġrer Ã©lÃ©cca
eirÃ©t nI
Ġnoitc if
mo P
Ã©p O
ei monotua
Ġserial pmexe
Ġruetc udorp
ta w
Ġstned isÃ©r
Ġeuqita rcomÃ©d
Ġh aB
Ġsnois ulcnoc
Ġnial A
Ġelle utcelletni
set rac
Ġseu net
Ġnoitcet orP
Ġesuem af
Ġeloc E
iuoj Ã©r
Ã¨l ivirp
A A
illep tnoM
rc ul
tnemet iutarg
Ġelb Ã¢c
Ãī T
Ġsru evres
m moC
Ġ0 81
euqig am
Ì Ĥ
Ġec remmoC
Ġresila nnosrep
Ġen iam
lac se
sne Ã©porue
Ġtres sed
Ġxuen imul
Ġni om
o Y
ĠsÃ©ng apmocca
Ġeg ixe
Ġstne t
stna ngiesne
Ġseuqi nortcelÃ©
ila nruoj
Ġua er
ru h
tned icca
mo T
Ġstnem unom
Ġeuq ovorp
snoit ulos
Ġtel uop
Ġunet uos
se igolonhcet
Ġzer et
ĠÃ© puoc
Ġtnemenno itats
ĠÃ© igÃ©livirp
Ġtat ibah
it xet
p uS
Ġ iroirp
dnet Ã©d
ĠSE C
kc or
ĠÃ© calpmer
ok raS
Ġlan ubirT
rev uO
Ġseria nnoitcnof
li eo
Ġsol ik
Ġxuaet ab
Ġenim ativ
et uaH
Ġtnat uoja
ec narf
Ã©t carac
ia pa
sio rt
Ġed iorf
Ġ orcim
Ġ2 6
Ġses idnahcram
ĠseÃ© utceffe
se ivne
Ġt isiohc
Ġeg ilbo
Ġsro s
Ġtnem ugra
d n
Ġre ifnoc
Ġset uah
Ġtne namrep
el atipac
Ġelba nnosiar
Ġy k
Ġelac isum
se L
Ġy en
tnemell ennosreP
la inÃ©g
eno hp
Ġst iucric
ua v
Ġeg nellahc
Ġtnan ruot
e issuÃ©r
t ialp
Ġtnor dneiv
Ġle im
Ġeuqi nohpÃ©lÃ©t
liam e
ic itraP
erre ip
noitac if
rp retni
il E
ĠsÃ©v elÃ©
Ġuoc uoC
uaf Ã©d
ir u
Ġret ropme
Ġelb uort
er dnetne
Ġet nedÃ©cÃ©rp
Ġet ilicaf
Ġr im
ĠÃ©nno issap
ne yoM
s risiol
Ġeriat acol
Ġret iolpxe
ruc xe
rÃ© nim
Ġnoita nimon
el ibomotua
am ar
Ġesim uos
Ġ8 5
Ġegam moD
tne iv
Ġtnemm euqÃ©rf
ĠsÃ¨c cA
sroh ed
Ġse nagro
ĠÃ©t isiv
NA M
Ġsem it
ep uoc
ies nE
arip ser
Ġy el
segas sem
ĠsÃ©t rebil
Ġt icifÃ©d
Ġ3 002
eg ats
esio n
Ġnoit apic
Ġerv iL
Ġev resbo
iar Ã©ttil
tnemm ediv
ruobmex uL
Ġrenem me
Ã©ll im
elba s
sl ituo
erio n
Ġseuq igolonhcet
Ġs ruoC
pme xE
ep yt
Ġno z
idÃ©m er
Ã®arf ar
Ġre iss
ya B
Ġ2 002
Ġtneuq nam
em ah
rueir Ã©pus
Ġ: )
ep icnirp
Ġs is
Ġlac sif
o uq
Ġegan napÃ©d
ĠsÃ©ll atsni
4 6
Ġ7 5
rol F
sruet ammosnoc
ĠelÃ´ p
Ġst nargim
rat S
ila C
Ġxua nruoj
Ġeriat nolov
Ġnoss iob
Ġ eulovÃ©
Ġecna dnepÃ©d
st Ã´
ifit on
sop xe
Ġsel yts
Ġer ulcnoc
la idnom
en uaj
t iat
euq idni
Ã©rc eS
mo g
o Ã©hcra
a xe
tia va
Ġrehc orppar
ro ts
Ġed nor
ecne lis
Ġtna cirbaf
od A
uo F
Ġ- -
Ġzevuort er
sÃ© ss
si B
Ġeda las
la Ã©di
is serga
Ġem aD
Ġsno yov
Ã©rc sid
Ġsell eutnevÃ©
is bus
Ġd n
E UQ
ĠsÃ©r ged
Ġneic inhcet
tÃ© ip
in I
Ġen ul
ah S
Ġreg idÃ©r
dno ba
Ġesia hc
2 7
ĠI D
erc noc
Ġecna tsni
Ġed roc
Ġne im
s ip
Ġsc narf
Ġto of
Ġtne sil
Ġtne sser
ĠÃ©r rac
Ġelb uem
Ġno ipmahc
Ġerut luC
tnemeg agne
P R
lac idÃ©m
Ġst ruoc
Ġses Ã¨ht
is uf
Ġsuo rt
rot cod
ĠsÃ©r Ã©disnoc
Ġeuqid ul
Ġru eg
is iov
ĠÃ©t iunitnoc
Ġsnoitca snart
Ġruet av
Ã®ahc ne
ĠâĨ Ĳ
Ġnoita nimretÃ©d
Ġsem ia
lu M
Ġr am
Ġzet nes
Ġud net
Ġem onotua
sno r
nap xe
ba hpla
ir roh
rop roc
itam uart
Ġsrue inÃ©gni
Ġsu v
nal uob
ca ssam
t ib
Ġretrop snart
Ġtnemela Ã©di
Ġs pmeT
Ã©s ilitu
ia ffa
ela icremmoc
y ht
8 991
Ã©ps esÃ©d
Ġrer ts
Ġecneitap mi
em ic
m iaf
em sila
Ġsitrap Ã©r
sruet ua
et iafrap
Ġxua tnemadnof
ret ehca
uod er
sen i
Ġep polevne
iom ra
es oJ
tne nitnoc
Ġerd rO
tnemesuerueh lam
nort sa
Ġnoitarap Ã©s
ro L
Ġtnec Ã©r
Ġnoitacif inalp
g A
Ġsep uort
eiuq ruT
Ġrertnom Ã©d
is iV
Ġnoita icogÃ©n
Ġl iavarT
Ġer ram
Ġerdne tÃ©
ĠemÃ¨ iuqnic
Ġseriat nolov
Ġen iraM
isne ffo
m am
Ġel agÃ©
eria tnemÃ©lppus
ĠÃ©t ropmer
Ġstna tsni
Ġse ud
Ġtnemel gÃ¨R
nec seloda
Ġenia hc
noitat ibah
em sinagro
Ã©m ia
Ġs inruof
Ġeug Ã¨lloc
eda lam
Ġsru ednamed
Ġtuot a
id iorfer
Ġrec rof
E F
Ġsin rev
sl erutan
Ġnoitse uQ
iro va
Ġ05 3
Ġ0 41
seuq irtcelÃ©
sert Ãª
iuc sib
Ġtnet issecÃ©n
b ar
pm at
Ġecned urp
ĠtnemÃ©r rac
Ġsu net
Ġsl erutluc
Ġua esio
Ġtrev uO
Ġtnemeg anÃ©mÃ©d
el amron
na R
Ġnoita coL
xuer egnad
ih S
ing id
ned i
itu ec
set rop
ecna tropmi
e e
ĠA M
io rap
Ġre ff
Ġstna viv
Ġsna mor
Ġuo j
Ġtnal ov
Ġl agÃ©
tnemet cerroc
ub acov
Åĵ v
euqits itra
mo loC
ĠÃ©g nam
Ġresop xe
em ag
mrof nI
nois net
et nedÃ©cÃ©rp
et nerÃ©ffid
Ġst euoj
re icnanif
id rat
ĠÃ© y
Ġsruetas inagro
elbat rop
Ġtne nnoitcnof
Ã©uq inummoc
Ġsel Ã¨dif
eriat ilim
ro w
Ġhca oc
ĠÃ© sser
Ġtnemev itca
ib or
Ġtnemer up
eg ruob
res ila
rd nopÃ©r
ba G
Ġec rexe
ĠÃ©l osÃ©D
C S
le R
Ġdra nreB
ab orp
Ġes semorp
Ġen ib
e yap
Ġel osnoc
ed ir
ĠertÃ®arap sid
eug olb
Ġuaet Ã¢hC
Ġlan gis
F T
Ġeil of
Ġs olc
oo w
Ġdne keew
Ġser dro
elli eucca
re ilbuo
sed no
Ã® ba
Ġel iotÃ©
Ġtnal uor
ueir uc
Ġsno ref
Ġf issam
Ġliu etuaf
id Ã©rp
l ennoitpecxe
Ġ7 6
Ġstna ss
Ġettel ap
mo ta
Ġeio f
Ġ> =
p irg
Ġseria cnab
ĠÃ©tilib issecca
Ġsiv ar
Ġen uaf
Ġetxet Ã©rp
ni elp
Ġn itraM
ruc Ã©r
2 6
ĠÃ©uq nam
Ġnoitacifit rec
Ġeria ropmet
Ġrihc irne
Ġet nep
nis Ã©d
Ġenia s
l eD
rec nal
Ġu los
Ġsei hpargotohp
ecna ibma
Ġeg leb
Ġst uafÃ©d
idom moc
Ġt sirhC
evuort er
ts a
ĠÃ©t ubÃ©d
Ġsed iug
Ã¯ am
tua F
Ġstna cirbaf
ĠÃ©t ixelpmoc
set nalp
Ã©d is
se ig
Ġsrueta nidro
si M
Ġtna nno
el Ã´r
ol roh
Ġehc Ã¨s
m yg
Ġ OC
Ġla tnem
ĠsÃ©n noitcelÃ©s
ĠÃ© ssec
3 9
ec nerrucnoc
ell iuqnart
iuo napÃ©
sÃ¨c orp
im uL
Ġsneic isum
Ã©n Ã©B
ĠÃ©til at
Ġrel evuoner
ĠsÃ©l la
Ã©tin ret
ic ius
ev itc
Ġtnemer dacne
eng ag
Ġtre boR
Ã©rp mi
s Ã©c
ru ecuod
3 5
eirÃ©t sinim
Ġf orp
hp ort
ex ul
Ġnoitart sinimdA
Ġsle iciffo
r ialcÃ©
Ġ7 7
st ehcÃ©d
Ġr D
Ġ,) ...
Ã©l la
ut roP
Ġeb reh
Ġeuqigol onhcet
Ġnoitnev noC
Ġ uq
Ġsnoitc udorp
Ã©t nolov
sem mos
ennois seforP
ĠsÃ©p iuqÃ©
z ella
Ġ UO
uo laj
eg av
A G
Ġ dnev
itro S
NO S
Ġ) Â»
Ġset Ã®ob
it pab
ĠeÃ©t uoja
enno C
ig ir
Ġsuo f
erut luC
Ġser utcaf
Ġtnemetrap Ã©D
or G
ĠertÃ® aM
erio L
Ġsnoit seggus
Ġzerevuort er
Ã©t luciffid
Ġr in
Ġsru ejam
Ġtial rap
Ġtnanet rappa
ÂŃ ÂŃ
eva n
r ivres
Ġecirt cerid
Ġserb if
Ġsnoitat ic
Ã©tilib a
ĠÃ©uq ovÃ©
elli esraM
ĠserÃ¨ inam
ig ilÃ©
Ġsf itc
set pmoc
d e
iv or
Ġst rev
Ġerut inruof
ĠÃ©m us
ec nerÃ©fÃ©r
fit isop
yar ffe
siof raP
Ġ itnes
Ġuaet uoc
Ġeuqigol oib
ec raB
r r
ec namrofrep
ecne loiv
sÃ©hc ram
Ġset uaf
ĠsÃ©g rahc
Ġrue inÃ©gni
Ã©r yP
ic narF
pm ylo
Ġep mal
Ġem saisuohtne
Ġnoit roporp
ed nor
Ġserut uf
edutit la
nab ac
ert S
Ġtnemeg rahc
seuq ifitneics
et sila
Ġx iorc
Ġelbat pmoc
Ġtnat rap
er ircsni
serb ra
ĠertÃ¢ Ã©hT
serial uc
Ġl li
es nefÃ©d
Ġtna ngiesne
Ã©rc us
sec alp
ehc ar
t nam
Ġsru eL
ek c
ĠsÃ©hc ilc
Ġelc uob
Ġtnemelb isiv
Ġstna hc
erial upop
Ġer va
Ġrer Ã©per
Ġeiv nE
ĠeÃ© llatsni
Ġrer Ã©va
Ġeu R
c ifitsuj
ĠÃ© ug
Ġeno brac
Ġnoitar Ã©disnoc
Ġseuq isum
Ġreiv ilO
Ġnoitat recnoc
ed uahc
L L
uT uoY
Ġseno hp
ev erb
Ġtnioj noc
on hceT
s li
Ġrer ut
rehc rehc
g inÃ©
Ġreg orretni
narret idÃ©m
l atipÃ´h
cel E
lu pmi
Ġer res
Ġses icÃ©rp
Ġst Ãªrof
mort celÃ©
Ġelle itrap
snoc ric
Ġsnoiss es
Ġsed ica
Ġnoita dnof
issim da
M OC
Ġf itceffe
apic inuM
Ġreif ir
Ã© roc
noitan itsed
Ġsre ilibommi
Ġen iah
nal c
ertÃª nef
Ġu lp
ĠÃ©uq irbaf
Ġnoisnep sus
Ġ03 1
Ġrel unna
Ġnoita ng
t erces
ed iug
Ġet iudÃ©r
Ġerio ssecca
ag a
Ġeis ias
Ġeir Ã©glA
Ġsm ubla
ĠÃ©tis o
Ġeuqit nedi
Ġerianno itseuq
dnet Ã©rp
noitar Ã©nÃ©g
euqits alp
r C
O D
Ġelb ats
Ġtne tnes
Ġnosia il
Ġen ipoc
st repxe
Ã©t ta
Ġser usselb
ol uc
et netÃ©d
Ġrennod naba
ub or
Ġsnoitav onni
euq ir
oo F
Ġseuq inu
P P
Ġnois olpxe
el ffuos
Ġstne llecxe
Ġnoitas itoc
ĠeÃ© if
monoc E
Ġreil ugÃ©r
Ġniab ru
rt tem
ua evrec
zess ial
elli eM
le iciffo
t iu
itne l
Ġelba irav
sruet ca
Ġinu Ã©r
Ġxue iM
noitat iolpxe
Ġl en
elba snepsidni
noit pecxe
Ġsruet rop
Ġtneme ffuahcÃ©r
ev ilo
ĠE NI
si morp
sem itciv
Ġtna tad
Ġselc Ã¨is
Ġy alp
Ġnoitar Ã©
Ġed nema
noita rapÃ©rp
ser ffihc
b rutrep
Ġt acidnys
Ġsec anem
Ġrueug ir
Ġnoita lupinam
iug Ã©d
ca F
Ġnoitarg immi
stnem Ã©lÃ©
âĢ ¢
Ġset ius
el ne
Ġer oilÃ©ma
z t
ir F
Ġeuq if
se Ã©hc
reg Ã©l
Ġenu mmoC
Ġert ia
Ġiar id
Ġtnasop sid
seuqi hparg
uohc Ã©
sop po
Ġsru enim
Ġruep av
lif orp
ni ssassa
sne il
hcorp par
ilim uh
ser g
Ġtnahc rehc
ituec amrahp
00 4
c nitsid
euq itamilc
Ġ0 61
Ġst pecnoc
Ġtnemennoit isop
en irt
ĠertÃ® orcca
ri C
dner Ã©fÃ©r
ĠerÃ¨ tirc
Ġ.) âĢ¦
isÃ©d ni
sec remmoc
Ġsemrof Ã©r
f dp
ni w
Ġnoitats etta
sel iciffid
sruel av
set uot
Ġrio rim
Ġst euq
Ġenne Ã©poruE
uc oD
ips ag
er us
es Ã¨ht
roc cA
Ã©t naS
on pyh
rehc uoc
âĢ Ķ
Ġsu enp
ĠÃ©tiv it
elb ar
Ġen retxe
Ġ3 6
s irt
Ġy z
Ġert E
Ġtev erb
mo ra
ot no
ni n
Ġsruet av
Ġt al
op a
e ilbatÃ©
Ġtnemed narg
tnem engiesne
uor rev
Ġuaes Ã©R
stnem engiesner
srueta roballoc
Ġtne russa
u nev
Ġesuer uoma
Ġniom Ã©t
Ġecned isÃ©rp
g es
Ġle it
ro na
Ġritrap er
Ġex enna
irb yh
ĠS NOIT
Ã©t isrevid
Ġeg irid
u z
ac ic
oilb iB
ts irhC
cer g
Ġtneg atrap
ohp rom
Ġzev ecer
X X
Ġ eiab
ela nigiro
Ġsl iop
Ġk ca
luc er
Ġnoitam itse
c oc
ad ua
l f
Ġrer alcÃ©d
arap pa
Ġen iram
Ġeda Ã§af
ila s
Ġsem irc
Ġecna nrevuog
iciff e
Ġet uaH
ĠÃ©ll iatÃ©d
serd er
ĠER I
oc Ã©rp
Ġnoita itini
et ua
em htyr
Ġsim enne
ivor ref
Ġsell ennoit
Ã¨l la
Ġstnem eiap
Ġreg aluos
Ġtnor F
ĠÃ©tid ipar
Ġelam itpo
seug Ã¨lloc
Ġsell eudividni
Ġet cetihcra
Ġstna Ã§remmoc
li Åĵ
Ã¨r b
Ġsnoit apuccoÃ©rp
Ġem usÃ©r
Ġstnemel gÃ¨r
t hg
ĠÃ©tila nnoitcnof
Ġetned isÃ©rp
si L
Ġtfos orciM
ec alg
sela noitanretni
Ġze itÃ©
ing oc
eÃ© ssap
Ġsniom Ã©t
... "
3 6
lav ehc
Ġenia bru
Ġtnang ag
Ġc ipot
Ġet reffo
Ġeis A
Ġed rat
ĠEM P
Ġnoitc A
Ġsnoitamrof nI
rut cetihcra
R D
ĠÃ© si
oc irt
Ġsia yorc
Ġeg narÃ©d
sel at
Ġresila usiv
ĠÂ« (
senia mod
ĠÃ©tiliba if
Ġeria lp
Ġer iudart
Ġetne V
ruet al
revuort er
ĠnoÃ§ el
Ġel ip
iudorp er
ac cep
ĠÃ©g idÃ©r
ĠT NE
sl ennosrep
ir ah
ĠeÃ© utiS
seug nal
dnerp pa
ros Ã©D
ir ue
ĠeÃ©t ser
erdnerp pa
Ġnoita rtsnomÃ©d
Ġet nahc
Ġruer roh
ipm E
Ġer ul
ĠÃ©tila nigiro
n Ã©
el iot
d o
ĠserÃ¨ ilucitrap
Ġsetnas serÃ©tni
d l
ĠsÃ©tila icÃ©ps
ĠÃ©d rocca
Ġreug nitsid
Ġstnat ilim
Ġsu nem
d narG
ĠÃ©g irid
Ã©tiv itaÃ©rc
Ġehc as
te iV
Ġst irpse
zev ircsnI
dna uq
Ġsfit isop
ip yt
etnas serÃ©tni
Ġerta uQ
xua edroB
ini moD
f itcelloc
xe M
ĠÃ© ifnoc
ca L
sesia Ã§narf
Ġseg Ã¨is
g i
ip se
Ġs iuq
ĠÃ©sir ucÃ©s
Ġetna idutÃ©
o seB
set sil
o ta
ĠÃ©ti C
ehc oR
ĠÃ© ru
sre V
Ġrennod er
Ġeuv eR
st ejbo
t if
oro Ã©tÃ©m
ĠsnoÃ§ el
inu Ã©R
ss uoc
ruoc car
ĠuÃ§ Ã©d
ert oN
id oM
Ġred Ã©ssop
i nar
Ġreiv alc
9 7
Ġset necÃ©r
Ġ1 002
Ġserut adidnac
ĠsÃ©n noba
Ġell eutnevÃ©
Ġxua r
ĠÃ©n noitnem
Ġrel uclac
Ġtia tsixe
E J
Ġreil acse
Ġstna ruoc
Ã¯ an
da b
ah ah
ĠÃ©t ÃªrrA
Ġs nummoc
ĠeÃ©uq ram
kro w
ses uer
ĠsÃ©t iroirp
s ym
el Ã´rd
Ġa dnega
Ġet luc
Ġtnemed nema
Ġtneuq sir
Ġelle usiv
Ġnoit ubirtta
Ġze net
art neC
Ġsta iranetrap
Ġress iaL
em sit
Ġsruet lucirga
Ġ,) %
ĠsÃ©t isrevinu
Ġt ipÃ©d
Ġegar uocne
sega yov
Ġr atS
ĠeÃ© icossa
gni hsa
Ġset nietta
sio nihc
t iurb
I NU
ertne v
Ã©r ual
Ġemit lu
ĠsÃ©l eppa
at cid
ar Ã©c
zess iaL
Ġsen icar
Ġsel an
Ġetrop pus
Ã» d
om reht
k ca
Ġst utats
Ġrehc Ã¢l
Ġsno sid
Ġsel Ã´r
elba laÃ©rp
liam g
Ġeriud ortni
Ã» m
eg Ã¨lloc
Ġseg anÃ©m
its oh
ep se
Ġst ubÃ©d
Ã¯or Ã©h
sinim Ã©f
c narf
Ġec ar
Ġsc em
et iahuos
Ġes Ã¨p
tnev uep
Ġsneit Ã©rhc
Ġren issed
setna tropmi
er tauq
Ġser atceh
ĠelÃ´ P
Ġeir er
Ġtnaeg irid
ĠÃ©t ilÃ©dif
Ġega ni
iuq E
r iopse
et rom
C W
Ġsia hc
l erutluc
ima ronap
Ġâ Ĺ
) ?
non ys
Ġni g
Ġnoitat nalpmi
Ãª rc
ĠÃ©t on
Ġl iab
seg id
Ã©ht ac
ir A
Ġruet ac
uol c
Ġtner Ã¨d
euq idiruj
Ġsol Ã©v
sel Ã¨dom
Ġa ts
Ġelliuef etrop
Ġ6 7
set id
Ġren imaxe
ĠsetÃª uqne
bm A
ruc co
Ġsa mohT
xuer uelahc
od arap
Ġruet cod
ĠeÃ©ll iatÃ©d
selc Ã¨is
Ġse id
Ġtne ts
Ġsr en
Ġrerob alÃ©
ff us
Ġed rem
Ġsd rob
Ġt uas
Ġtel if
Ġsnoita n
Ġzeir ua
Ġs Ã©rp
Ġseuq sid
sreil eta
Ġsnoit pirc
Ġtias nep
Ġsel pma
ell ennoit
ir ffo
Ġen Ã´ci
en ruot
Ġsnohc rehcer
Ġtnav arapua
Ã©t la
enne yotic
lov Ã©r
Ġst iorD
h r
it Ãªb
Ġsem m
Ġsela icÃ©ps
inis iuc
Ġret telswen
Ġtne ubirtnoc
N P
eil er
sne ihc
lat Ã©m
Ġevitc erid
Ġep parf
eno hptrams
Ġtnat ros
Ġec iporp
Ġeg na
Ġsr ion
sruet cel
Ġseuq id
mah s
Ġsehc narb
rob Ã©d
Ġset ner
ðŁĺ Ģ
Ġeriota vres
ehc uac
pa P
non nA
ivÃ© ni
ĠeÃ©n itam
nom rah
Ġtnat ibah
ĠÃ©r itta
Ġzes il
Ġstne g
Ġlei naD
ĠÃ©m irpxe
Ġegav uas
Ġses irc
Ġ euor
erÃ¨ loc
hp oS
Ġeuqits igol
bmoc ne
sert tel
Ġre irvÃ©F
r isiohc
ĠeÃ©r Ã©fÃ©rp
Ġed namella
icif icÃ©ps
Ġel uop
Ġ hp
Ġres iorc
ĠÃ©t ervuap
Ġtnad rag
G R
Ġsir ap
ĠS S
ecna ssiup
Ġet nof
itse p
Ġnia poc
Ġsnoitav resbo
noitc elloc
st ÃªrÃ©tni
Ġsevita nretla
Ġtnas icÃ©rp
Ġelba uqramer
Ġeria nimÃ©s
tnemet cerid
Ġsem ulov
Ġehp ortsatac
er ffoc
k cab
Ġred nehÃ©rppa
Ġsel catsbo
elba nnosiar
Ġrem ussa
nes se
na N
g m
gnihsa W
apmoc cA
sÃ¨ rt
Ġre ill
ĠÃ©ts issa
me F
Ġtnav uort
ĠsÃ©uq irbaf
Ġeria srevda
nort ic
Ġu nitnoc
Ġresop moc
Ġkcir taP
ec icrexe
siup eD
Ã©tilib asnopser
Ġela itini
l ob
Ġ8 7
ua ll
eria ropmet
Ã©v uort
Ġnoitac idni
el apicnirp
an teiV
no inuÃ©r
ĠÃ©hc ac
Ġ9 6
ĠeÃ©g Ã¢
Ġset amot
borp pa
Ġ2 9
ĠerÃ¨ts ym
Ġtol liam
Â ·
lup xe
Ġel ullec
ra W
itned I
dno ni
Ġer ulcni
ĠtnemÃ©s ia
la gÃ©n
Ġ00 9
aloc irb
eria nidro
Ġu eJ
Ġeriud Ã©s
h tna
Ġsnod named
Ġ nasitra
Ġria hc
luc itra
er Ã©ffid
Ġo b
irot on
uorb Ã©d
ava J
ir ulp
Ġegat olip
ac of
ĠÃ© ruotne
serio ssecca
sno iss
Ã©t i
Ġn w
Ġegart Ã©m
accep mi
it inI
ni os
Ġrel bmoc
ĠserÃ¨ g
Ġec ruosser
ort Ã©M
Ġz ennod
Ġecna nif
lats on
ne is
Ġeniam eS
sru ed
Ġsli esnoC
ĠÃ©til apicinum
Ġtnar vuo
Ġstna sserÃ©tni
ec nesÃ©rp
Ġev ac
Ġstna dnepÃ©dni
Ġret ubÃ©d
s n
ag Ã©r
v resbo
er T
sell erutan
Ġseno hpÃ©lÃ©t
r ertnocner
xuer uoma
Ġl lah
Ġette issa
ĠsenÃ¨ monÃ©hp
Ġeg uoR
ĠeÃ© mrof
Ġnoital ugÃ©r
iciff iD
o ba
s ol
ĠsÃ© irav
Ġelliev rem
ylo P
Ġes nepmocÃ©r
ueirÃ©t lu
uot Ã©
âĢ¦âĢ¦ âĢ¦âĢ¦
Ġnia ropmetnoc
sru m
ĠeÃ© srev
Ġtnemelba laÃ©rp
nob rac
as lA
ri V
Ġnia vircÃ©
ro hc
7 991
Ġrir ffuos
s rehc
Ġsnois serp
y arc
Ġset uod
sru es
Ġer ipsni
ul ip
Ġresnep Ã©d
ih T
Ġert semes
Ġt utitsni
nav Ã©
ertne r
nog at
Ġes revart
e nagro
ip uts
arÃ© nim
Ġretnem ila
ina M
etna ss
cs if
ta nitsed
ĠÃ ¨
uo rem
eÃ© nimret
Ġret isÃ©h
Ġkc or
ga xe
e bmaj
ng ios
ĠserÃ¨ imul
Ġeriudorp er
Ġrihc narf
Ġ" ?
Ġtne sserÃ©tni
se no
Ġrel bmessar
er oproc
Ġeig ren
Ġtneuq ilppa
t pab
uoj Ã©r
Ġres ilibom
ip xe
nerp moc
Ġsim da
Ġtne nno
ennois acco
xue iv
Ġsenne yom
ed iorf
li S
Ġtirp sE
ĠÃ©tiral ucitrap
noita silaÃ©r
euq niav
Ġetis iV
siv orp
Ġer ongi
ĠtÃ» oA
ep m
ev elÃ©
uol b
arts igam
Ġres ruobmer
Ġsehc nart
k oobecaf
erÃ¨ pse
le icigol
ev itcelloc
i etta
Ġsett ap
Ġio R
Ġl ongapse
euqit Ã©htse
Ġo G
Ġet necsed
s arg
tÃ© gdub
ĠeÃ© losÃ©d
Ġed ilav
ret la
its ab
ex if
Ġt niet
iw t
Ġal ioV
mi x
Ġrueta Ã©rc
ĠâĨ Ĵ
enol ecraB
iom irtaP
Ġer onos
ilibah Ã©r
Ġsela noigÃ©r
Ġtid ua
Ġsrue yolpme
irt Ã©d
Ġeni er
lo h
n U
nia t
Ġruet ama
Ġset Ã¢p
Ġehc atta
Ġsle itnetop
Ġettel iot
se Ã©uq
ic Ã©D
Ġreg nolorp
Ġtia ssiannoc
Ġep mort
na n
elu baf
ĠÃ©hc raM
Ġeuqit iloP
Ġeir ell
ht irog
serut iov
Ġsed rag
Ġecnar Ã©lot
Ġerd na
F I
xua noitanretni
set noc
eir iam
Ġreuq ovÃ©
Ġt nias
ĠÃ©tin medni
ehc ac
set si
Ġsno dnetta
Ġtnet rap
Ġeu neva
Ġtia h
ue ilim
Ã©l bme
noit po
ennoita ler
ueirÃ©t na
Ġtne iorc
Ġnoitc ejorp
D D
r F
Ġnoitamrof nI
8 81
st el
Ġzed rager
Ġtnemeg nar
Ġtnemesuerueh laM
Ġot ohP
tne sser
Ġ eiap
tnemet suj
Ġfita gÃ©n
Ġtnas nep
Ã©r ua
evuerp Ã©
ed naiv
selli ero
Ġtnemell iuqnart
em rahc
Ġod uesp
reng ag
Ġlet oH
elba yorcni
Ġsel rap
Ġet op
Ġecna lab
Ġsnoita nitsed
ĠÃ© rtne
Ġ1 6
Ġz evuorT
net rappa
Ġnoitc id
ruoj nob
Ġet sefinam
ĠÃ©g Ã©torp
Ġas iv
Ġeis Ã©op
Ġ4 7
iv A
Ġsnoitc urtsnoc
l ec
Ġelb inopsiD
an ra
Ġne is
ess ur
re unitnoc
ĠsÃ©ss alc
urc s
Ġua en
Ġsta tnetta
Ġret icni
Ġsno las
sir pme
erv iop
Ġ eit
re in
sno sias
Ġseuq il
ĠEL L
Ġes uoluoT
er razib
Ġtno ma
secne irÃ©pxe
ĠD VD
pmet noc
Ġret nevni
os Ã©rt
Ġeriar Ã©niti
Ġeu rc
Ġerut niec
Ġet rat
ĠEC NA
Ġsal etam
nop Ã©
4 9
ĠemÃ¨ tsyS
eug ab
Ġsiof raP
Ã©t uoja
es ylana
Ġer isÃ©d
Ġrue net
Ġret nahc
ret nesÃ©rp
Ġeuqigol ohcysp
Ġsec nar
Ġsl ennoitidart
no hc
st Ã»og
Ġret cetÃ©d
t O
ĠseÃ©n recnoc
uorp Ã©
Ġsnoita roilÃ©ma
noiss ucsid
Ġoc oc
Ġrets am
ep mort
e idÃ©moc
Ġnia s
Ġec idujÃ©rp
Ġ, '
ĠseÃ© utis
ap Ã©
ne icna
Ġtnemel iciffid
Ġeuq itnehtua
nois seforp
ov ni
Ġtnep ucco
Ġtnemel bmessar
Ġeir egassem
Ġess ellitneg
gni d
Ġs redael
euqigol ocÃ©
Ġy a
Ġegal gÃ©r
Ġecna yov
es ilgÃ©
1 9
ega nam
Ġres uac
Ġte g
Ġeniat ipac
Ġselli eiv
r imrod
Ġze yorc
Ġxua rÃ©nÃ©g
Ġehp otsirhC
it ref
Ġselb uemmi
ar F
Ġerial pmexe
sÃ© yolpme
Ġsel uop
htirog la
Ġeriannoit seg
Ġsnoit omorp
s tnesÃ©rp
Ġeng iomÃ©t
Ġsre ipmop
Ġet nar
et ten
Ġ) ;
Ġtna rugif
Ġni oseB
sus secorp
s ba
eria iciduj
Ġecneg ixe
ĠÃ©nnod naba
Ã©ht am
nil b
ĠetÃ¨ baid
Ġemra la
Ġes ila
Ġecirt ca
ut ipac
nois serpxe
ts ym
ehc ramÃ©d
Ġtuob ed
Ġeria M
Ġet niartnoc
Ġruo J
urt ni
Ġec ruoS
selb iaf
Ġeuq siuP
in gaM
Ġneil ati
iaf Ã©d
Ġsel oc
iga M
Ġt es
Ġre yol
w eN
ug nas
Ġmarg atsnI
Ġrer apÃ©s
Ġseuqits itra
ĠeX IX
RA C
Ġsr egnad
NE R
Ġtahc ar
S D
ard Ã©htac
02 1
ega rag
Ã¢ rc
kc it
snoita mrof
Ġt niep
ro ma
xua edac
Ġsreit nahc
Ġed liug
Ġsnois icÃ©rp
Ã© narretidÃ©m
l ongapse
Ġeug irtni
l C
sÃ© rt
O H
noit ubirtsid
Ġritros ser
Ġsruet idÃ©
et noh
sell eb
s golb
Ġsnoit idart
Ġtia te
re w
ec nemmoc
Ġegan ruot
p hp
ĠsÃ©v resÃ©r
ipa hC
Ġa rev
Ã©t imil
ic nivorp
Ġtneg agne
Ġtia nnod
irot idÃ©
Ġte k
Ġet niarc
ic alg
se uQ
Ġa ta
sÃ©t luciffid
Ã ¶
no Ã§rag
Ġar id
sru em
Ġenne ived
Ġselb is
l g
sir uos
ralc Ã©D
Ġlia tnevÃ©
Ġter vil
an nac
t roffe
Ġress ec
o Z
erc sid
et ov
ĠÃ©tila noitan
Ġtnem itse
Ġseg uj
Ġsimorp moc
Ġes irotua
Ġecalp Ã©d
or Ã©nÃ©g
Ġeil pmer
z evuoP
noitar uatser
eria netrap
Ġruet nahc
ĠeÃ©r ussa
Ġseria nno
Ġnoit utitsnoC
Ġst capmi
ilp er
Ġ,) .
ĠsÃ© ifilauq
Ġtnat iart
Ġt rot
iot nA
Ġsiav uort
ĠseÃ©t iart
5 991
Ġsel artnec
Ġevit inifÃ©d
esue ic
nits ni
stnem acidÃ©m
Ġnois ulcxe
E HC
ĠsÃ© Ã©rc
Ġsehc nam
Ġregrahc Ã©lÃ©T
Ġnoitc efni
ĠseÃ©l l
e inÃ©gni
Ġa ir
irÃ© pmi
Ġ orP
Ġno imac
Ġel ig
sett ecer
Ġcab at
Ġnoitcet Ã©d
Ġnoitats ugÃ©d
sesirp rus
ĠseÃ©m ra
eg uj
t recnoc
erd rep
Ġegas ivne
Ġtnemet nel
ĠeÃ© silannosrep
Ġrer ipsni
sÃ©n recnoc
ĠA T
Ã©it ima
Ġzer irvuocÃ©d
Ġh e
Ġre nemorp
Ġyr raH
Ġesilg E
sir uj
Ġsf erb
ĠU NO
rt uen
o rac
z ehc
Ġ" !
ze yov
elÃ© S
irÃ© pa
Ġdla noD
Ġt urb
ĠÃ©d Ã©cÃ©d
Ġse inruof
Ġeni eS
ĠÃ©ssap Ã©d
Ġtned net
sec aciffe
ĠeÃ© utitsnoc
Ġer pmor
ĠÃ©uq ilppa
Ġstiud orP
Ġet nem
Ġett ej
y en
Ġst amrof
Ġet sev
ics af
Ġol leH
rutc urts
Ġtnet pmoc
noss iop
tna idutÃ©
ht ra
ĠsÃ©g noc
Ġep m
er ialc
sed named
Ġsut rev
no P
ĠÃ©t catnoc
ed narG
v uÅĵ
it t
irue nerpertne
Ġ ebara
Ġd rahc
siv ed
Ġrep icitna
em sir
SE C
Ġtid nopÃ©r
Ġruet rop
Ġeir eg
xue C
Ġerut aN
seg ar
Ġev il
Ã© Z
Ġf iv
u rf
Ġel iciffiD
Ġerts ulli
Ġes issa
Ġla idromirp
iol uoc
id nelps
ĠeÃ©r uD
ret Ãªrra
ret rop
Ġrir Ã©uq
Ġtnem ma
Ġrid noforppa
Ġ)âĢ¦ (
Ġertnom Ã©d
d nor
ru engieS
uor c
Ġserial imis
Ġrer Ã©sni
Ġl em
t ellib
Ġeg ufer
ĠÃ© ulovÃ©
Ġtiah uos
ĠtnerÃ¨ fÃ©rp
dne fÃ©d
Ġtna luov
Ġser rev
noita mina
rep ucco
Ġr ic
vuoc er
Ġt niv
ren imret
RA S
iro nim
ï ¿
ill e
i nat
Ġp oh
ehc ir
Ġrer ialcÃ©
ĠR ET
ĠD B
tnemm ecÃ©r
Ġes iug
reit nahc
er rueb
u rapsid
Ġeg anno
Ġtneg nahc
eita rcomÃ©d
Ġxua icÃ©ps
reb yc
Ġl E
Ġs ruo
Ġsriov ed
Ġta ira
erial os
ific ap
ĠC W
euq ramer
Ġl ol
Ġre igÃ©livirp
Ġseria nnoit
el oc
Ġeir ed
uov Ã©d
Ġr M
Ġemit igÃ©l
Ġserutc el
Ġd nor
ilo Ã©
Ġli eucer
Ġin U
Ġoni sac
Ġtned icni
se is
ĠseÃ©p iuqÃ©
ĠÃ© idutÃ©
Ġsf itceffe
Ġ01 1
noit pecnoc
yk S
A H
Ġsevita lsigÃ©l
Ġed noceS
pmet ni
Ã¨rc sid
Ġemsir uoT
Ġsno uq
es i
Ġstne v
erutluc irga
ĠsÃ©ss elb
ĠseÃ© ilbup
Ġsnoit ubirtnoc
Ġel bmessar
Ġstna d
tt il
K O
sec nerÃ©fnoc
ĠÃ©uq ovorp
Ġal liV
Ġst cerid
Ġuaep ahc
Ġstnem ec
6 991
Ġc uL
tnemev itceffe
ert tel
eg art
seg uor
Ġenne idanac
rahc a
rir uom
t cepser
utits orp
ilos ni
gni n
ĠÃ©t lucaf
V I
Ġsel uob
Ġf log
ĠeÃ© roC
Ġtiaf er
Ġtnemelle itnetop
Ġenne ic
ob atÃ©m
Ġfita t
Ġardneiv ed
0 891
nil yc
Ġl ed
noita rocÃ©d
Ġelle utriv
Ġsno rdne
Ġre id
Ġess al
Ġsen ilpicsid
ĠsÃ© yovne
Ġtnemen neiditouq
Ġeuq olloc
Ġeuqip yt
Ġsno snep
Ġm ad
cart Ã©r
iud ortni
ial Ã©d
Ġre iH
seg atnava
l ivic
Ġerdnerp ertne
Ġnoit ul
Ġ @
o norhc
s up
Ġgnin nalp
D x
sd nof
Ġâ Ļ
sec neg
Ġret ropmer
ĠtÃ» f
Ġnoita nimilÃ©
x uep
Ġemsim anyd
ta W
mot uA
Ġ.) !
Ġsl euxes
Ġsela nigiro
at raP
uom Ã©
ĠtnemevÃ¨l Ã©rp
Ġsell euxes
Ġeriar Ã©ttil
sÃ©t ivni
s Ã©virp
Ġ000 3
l of
tne p
ec nesba
Ġtiar dneiv
euq Ã¨htoilbib
emra dneg
ĠS ULP
egam Ã´hc
igam I
Ġselli ev
ag nal
Ġtne rugif
Ã§ puos
sta hc
Ġsesim uos
seg nahcÃ©
su never
Ġtnemel Ã¨crah
Ġem ina
Ġtiam ia
ru ta
s uoc
Ġsre irvuo
seria tÃ©irporp
Ġsesue ic
Ġi xat
Ġeu elb
es uap
Ġst nietta
no igiler
Ġstner rucnoc
Ġet iortÃ©
am malfni
irat nO
sno igÃ©r
Ġsor G
Ġnoit itÃ©p
Ġelle utum
arap sid
o hC
Ġ nas
Ġrio essa
Ã©b iL
ĠÃ©rtnom Ã©d
ni N
Ġp uol
ĠÃ©sop mi
Ġtnem Ã©lppus
erial umrof
ec ner
Ġem ulp
Ġsecna tsni
Ġtnev Ã¨l
Ġtner vuo
Ġsni p
rus ba
Ġruet ucolretni
la ilimaf
Ġzet pecca
Ġzet oN
Ġset iutarg
no snahc
Ġtnemess illieiv
Ġecneg remÃ©
Ġed roba
Ġtnemet uah
Ġr evuorT
erret elgnA
enir af
Ġed ac
ĠserÃ¨ in
Ġtnenneiv orp
Ġemsila nnoisseforp
Ġset Ã´c
Ġed los
pa rt
ep s
Ġc ihc
li uob
Ġtnas irovaf
eg nartÃ©
n hoJ
nois icÃ©rp
Ġsnoitat lusnoc
ĠeÃ© nimehc
Ġad named
Ã¨ll oC
il is
Ġed negÃ©l
Ġnoita rolpxe
Ġsunnoc er
Ġet lusÃ©r
em igÃ©r
Ġtnemel abolg
eno z
Ġsio B
Ġsl eir
0 81
stne mom
Ġr illieucer
noitac ilbup
Ġes ueirÃ©s
Ġruot Ã©d
nam uh
uc rep
n m
Ġ3 7
Ġt i
y ta
la nruoj
Ġtnemeuq ificÃ©ps
Ġag oy
sru erre
riov er
noitav itom
Ġseria icifÃ©nÃ©b
Ġ ohcÃ©
Ġerdnet Ã©rp
Ġetni erpme
Ġset cesni
rued noforp
Ġsiam aJ
Ã® aM
Ġsim Ã©
M I
ĠtÃ´t ulP
all A
elb ic
en nac
ru dne
Ġrec nonorp
ĠeÃ©l uorÃ©d
ĠT UOT
Ġmu id
erut arÃ©pmet
Ġsdra dnats
li W
Ġseuqig Ã©tarts
Ġer atiug
Ġtnem ennoisivorppa
s issa
eria dnoces
ĠetÃªuq er
Ġtrop essap
Ġetset Ã©d
Ġstnemeg anÃ©ma
t ni
Ġi p
se Ã©v
Ġtna if
Ġtneial la
Ã©cyl g
Ġem uayor
Ġ4 8
sep lA
ĠL A
Ġis ias
Ġtneiv rap
Ġtnav eler
Ġnolat nap
its ub
ec nevorP
Ġenit uor
Ġet noc
Ġell essiav
sel ucihÃ©v
sÃ©t iv
ni hC
Ġselba Ã©rga
UO C
po h
et on
Ġh o
Ġeu nimid
Ġeir iaM
Ġsiam ia
Ġleu xes
Ġsnoita rtsulli
irra b
Ġtid Ã©rC
Ġsep lA
et ros
U G
Ġsnoitc udÃ©r
Ġd iordnA
trop pus
Ġtnem ecnava
eg ahc
ĠÃ©tis ned
Ġerc ne
Ġ1 7
an myg
Ġeg uob
Ġtnam rahc
Ġem mon
io T
Ã©tila nnosrep
Ġstnem er
Ġec up
s serp
tnem ecnanif
Ġgni d
ĠX UA
Ġnoit id
Ġzet catnoC
Ġnoit netÃ©d
serÃ¨ gnartÃ©
ec nerÃ©fnoc
Ġtia remia
e ifnoc
i hparg
ï¿ ½
Ġhc t
Ġeuq irbaf
sni siov
senne Ã©porue
Ġt ulas
rep polevÃ©d
liev Ã©r
1 7
Ġtnemeriat nolov
Ġk cap
pm ahC
Ġa rec
Ġrio t
Ġst nioj
ivorp mi
hs alf
Ġseuqitam ilc
ec ipÃ©
Ġtnem unom
Ġsnia g
Ġerid retni
AS U
Ġnoitc urts
euq itamotua
Ġy xes
Ã©tic ilbup
Ġruet artsinimda
Ġno dnaba
ih taM
Ġtnec niV
lÃ« arsI
Ġtna uoj
Ã¯ at
ĠeÃ©m mon
Ġret sixe
calp Ã©d
olc yc
Ġnoita ucavÃ©
ĠeÃ©m ref
Ġar ivres
ĠerÃ¨in reD
Ġec uop
Ġrig ralÃ©
Ġ itsevni
Ġrel if
1 6
Ġeis iohc
eÃ© snep
ĠÃ©l uorÃ©d
Ġni nimÃ©f
serp orp
Ġruetas ilaÃ©r
i not
Ġev isulcxe
Ġni draJ
sruoc es
Ġzev iuS
Ġle ahciM
Ġsnoit nevbus
reg a
ses ruoc
on nI
Ġrue ffuahc
Ġrel umits
noit pirc
Ġt iurtÃ©d
Ġsruet ehca
ĠÃ© rtnecnoc
Ġec itsuJ
ĠÃ©s iv
NI M
ĠÃ©tila ivivnoc
ennoita r
Ġerut uoc
uc repÃ©r
Ġetnas iffus
ĠSI AM
Ġnoitc er
Ġne idanac
Ġsni ram
k u
Ġeria dilos
Ġtnemel ueS
eng ies
4 7
Ãªv Ã©
Ġsnois serpmi
Ġnoitav resÃ©rp
Ġemord nys
ilb iaffa
Ġrenno ba
Ġtna tsixe
Ġris iohC
eria nidroartxe
Ġtnemesu engios
rev Ãªr
b uem
Ġtnevio Ã§er
ic on
Ġ irap
ew ol
ic ruos
Ġsem rofnoc
ib oM
ĠÃ© rc
nat S
Ġno vas
ruet as
unnoc er
Ġeuqim ihc
Ġsru eppolevÃ©d
Ġreif ilpmis
ll A
Ġets oP
al F
Ġa w
erbil iuqÃ©
Ġla ivivnoc
ĠerÃ¨g gus
Ġtnas uma
mo na
set imil
nil Ã©d
Ġret Ãªrp
va lcse
Ġtnem Ã©nat
p ih
ruetar Ã©girfÃ©r
Ġed nI
llab toof
itro ma
Ġso L
> >
Ġet locÃ©r
Ġsre iv
Ġseriat atserp
ip moc
en recnoc
us maS
G I
ĠsÃ© idÃ©d
s O
Ġsno ssiannoc
Ġp ilc
Ġnoiss iM
âĢ º
V P
luv id
Ġsenim ativ
Ġa uq
Ġsel ucitrap
Ġxue ov
Ġseuq ir
Ġsnoita tnesÃ©rper
Ġuo d
Ġeria lucric
Ġ #
seuq issalc
ilop ortÃ©m
lup oP
Ġlac isum
Ġtno M
itc nas
uo as
pm ert
euqi norhc
mix orppa
ita M
Ġsneit ertne
niar rap
Ġrem ina
Ġelle C
ĠeÃ©t od
noita cirbaf
Ġf uÅĵ
ap S
Ġen ibac
Ġtiud ortni
Ġt ot
Ġerio ngiab
ip S
elb issecca
ĠÃ©s nec
Ġsetna N
Ġsd rager
Ġeria ssimmoc
Ġseb reh
Ġrer Ã©po
ca V
Ġ9 8
r ihcÃ©lfÃ©r
is iuqca
ĠÃ©n recnoc
ĠÃ©ts oP
Ġruetas ilitU
Ġtnav irra
Ġs kcots
Ġell iaf
Ġel uor
Ġxu Åĵv
Ġsenia cirÃ©ma
Ġsed ilos
Ġsel ia
xua t
uol C
Ġxuey oj
er up
itros ser
Ġtnav eD
noc neR
Ġset ser
g ia
itc elÃ©S
Ã©b mot
Ġrehc orppa
ĠeÃ©d rocca
ĠseÃ©s um
Ġret Ã©pÃ©r
Ġ eval
Ġsnoita tneiro
ĠsÃ©s irotua
sen redom
s om
noit caf
elba if
Ġeria unna
seuq isyhp
Ġtna rubrac
uf noc
Ġett euqitÃ©
Ġeuq Ã¨
II I
tna dnepÃ©dni
arb Ã©rÃ©c
ĠÃ©t po
v A
ell erutluc
Ġrec nonÃ©d
Ġtneiv orp
Ġtnem iarV
Ġen Ãªg
ĠÃ©t reif
ĠÃ©c nonorp
ĠsÃ©tila utca
ir reT
isu B
Ġsr ios
05 2
el artnec
Ġsnoitav resÃ©r
idut S
im i
Ġtnemelle itrap
ĠÃ©tiv arg
evÃ¨ neG
Ġunnoc ni
sep atÃ©
Ġnoitc erroc
Ġsnoitc es
Ġna itsirhC
ĠÃ©tiv itcudorp
Ġsnoita irav
Ġtnemet Ãªv
Ġeir ebmolp
ruc orp
Ġtnemess iniassa
P E
Ġtnem erporp
Ġret netnoc
S M
Ã©r T
x uaeb
l ud
ĠÃ©c nava
Ġret ucÃ©xe
ĠÃ©ss elb
Ġnoita xif
eÃ©m ra
euq atta
av ni
s rag
ehc Ã®arf
Ġsl ueS
ix at
settel iot
Ġst anno
Ġset nedÃ©cÃ©rp
es uoluoT
ĠtÃ´t issua
rof ilaC
e iolpme
u tnecca
Ġsio Ã§er
Ġt ulcni
eÃ©ss uahc
Ġel iovÃ©d
apm ahc
ehc orppa
xua esio
Ġecne uqÃ©s
Ġse iarv
ca S
Ġselc uob
Ġert ipahC
ĠÃ©hc iffa
ni rg
io uQ
ĠÃ©tiv itcelloc
Ġtnemen iartne
iuq Ãī
Ġeuqits atnaf
y alP
Ġsin net
Ġtnes iudorp
si nif
Ã©s ilannosrep
ĠeÃ©d nammocer
Ġxue utcepser
sta hca
Ġelo ressac
Ġtnemela itini
Ġre kcots
Ġot ut
igÃ©l loc
st ropsnart
Ġnoissim da
Ġegac olb
S avaJ
Ġsnoit uacÃ©rp
um er
Ã¨ if
sev uerp
b orP
Ġed ruol
se ikooc
ĠeÃ©r gÃ©tni
Ġsec idni
s nod
ro pa
Ġenne im
.) %
Ġet irba
ek co
Ġ8 8
Ġret saM
ic ilpxe
Ġseuq ito
L C
Ġsle usiv
ess ab
ĠÂ ©
ecned ivÃ©
Ġegat irÃ©h
Ġen nA
Ġec utsa
uen p
se bmaj
da uq
Ġte ffub
it rep
3 8
T NE
Ġer ivan
Ġsev Y
Ġsw en
ĠÃ© nimretÃ©d
siol pme
ĠÃ©t uaevuon
Ġk calB
ess am
Ġsem Ã¢
Ġrecnal er
ser bil
Ġsnoissim moc
Ġsl eudividni
Ġsno iv
Ġuaed ir
ig ralÃ©
ess uahc
a ss
Ã©ni C
Ġerutcurts arfni
Ġsega un
Ġre yovner
Ġstem rep
isrev inU
Ġtne lav
ert Ã®am
ela G
egar uotne
Ġtna yasse
Ġenis iuC
ĠeÃ©su ffid
seÃ©s nep
Ġsetni ecne
al ocs
Ġr iuf
rehc uot
Ã©rua lac
ĠsÃ©t cennoc
un nA
Ġr illi
ĠA SU
ĠÃ©hc atta
Ġx am
a la
ĠÃ©rd nA
Ġserial utit
T C
Ġtnemevita rÃ©pmi
tiar ruop
Ġse ima
selb ar
ell eppa
nal f
u ba
an Ã©s
xua icremmoc
Ġstrop pa
et uah
ĠÃ©tila uxes
Ġstnem es
Ġnoitat idÃ©m
Ġren isiuc
c ne
tned ivÃ©
noita ler
il isÃ©r
Ġtnat roppa
3 7
re Ã©rc
Ġliev Ã©r
rue yolpme
stÃ´ pmi
ret uocÃ©
Ġtnat lusnoc
Ġtner ffuos
Ġsruetc urtsnoc
Ġret ar
Ġt ser
rap Ã©D
uo V
Ġerut revuO
Ġ.) ...
ihp os
iat kcoc
set nev
Ġ illiaf
Ġnoitasila icremmoc
Ġem ard
x uo
Ġsris ialp
noitc ud
cal g
sni v
âĢ¦ ,
P I
icnoc Ã©r
Ġsl iu
ĠeÃ©rt nE
Ġes nefÃ©D
ĠÃ© sserda
Ġruo mA
Ġsehc orppa
Ġsiad named
Ġerirc suos
eug itaf
op xe
Ġseug av
st ejus
n noC
trop orÃ©a
Ġgni hcaoc
Ġstned Ã©cÃ©rp
Ġtel ahc
sed nammoc
O F
ruo ay
Ġxue id
ellia p
Ã©di V
Ġresop po
Ġses semorp
ihc nalb
Ġsre if
Ġsno sopsid
eh taC
sno itcnof
lc ni
o las
Ã©tin Ã©rÃ©s
Ġes ihcnarf
Ġseng isnoc
et noc
Ġtan Ã©S
Ġsnoita sil
ra V
ĠsÃ©s ila
Ġerret elgnA
Ġevita cifingis
f is
sel ibom
tnemeg rebÃ©h
Ġec iN
ua elbat
Ġiv ar
ser ar
Ġell esiomed
eriam irp
Ġtnat E
sno rivne
d r
es im
ic lac
fit rops
Ġeniatna uqnic
Ġse innecÃ©d
uo ssa
ĠsÃ©sop xe
ĠÃ©p parf
el ab
Ġnoitat ic
z eiv
Ġelp uos
em A
Ġsf itcelloc
Ġre w
Ġteuq rap
Ġp oris
Ġsnoit nevnoc
Ġsnia poc
Ġnoitpur roc
Ġnoitc nitsid
Ġserio tagilbo
Ġrev elÃ©
Ġser ueirÃ©pus
im ar
Ġnoissec cus
Ġerg ianiv
Ġseriat icilbup
i nerg
IO V
Ġnoz amA
rd yh
Ġr atsni
el atot
Ġl ec
Ġtne tnet
alc orp
hta N
illi W
ĠÃ©m irpmi
Ġset sirorret
eg atnom
Ġs pmac
na F
snia cirÃ©ma
Ġerio L
B B
ar I
g ur
reih T
Ġecne nitrep
Ġre icogÃ©n
Ġno ts
Ġetne tne
ser ussuahc
ug nitsid
ecned isÃ©r
irret ta
l U
bm alf
s neib
Ã©l osÃ©d
Ġtnar ffuos
Ġsia yov
Ġertnoc neR
Ġeuq aidrac
zer ussa
ĠG NO
T I
ra j
Ġni ram
iu H
Ġeria c
es oporp
EV A
Ġre ipoc
Ġ eyap
ra d
tnemelle utcA
b molp
Ġsl ivic
ed Ã©M
Ġl eppA
Ġser reug
no tnac
es arhp
iuq Ã©s
ela tnem
set Ã´h
- (
egatnava d
Ġk e
Ġednal loH
Ġnoitacud Ãī
a Y
Ġ2 8
Ġert Ã¨
no ip
Ã©s rep
hc s
ĠerÃ¨ gnartÃ©
Ġet ir
Ġnong im
Ġre itnes
Ãłl ed
Ġelb apuoc
ya w
Ġer ulla
Ġehc Ã®arf
00 01
t ulaS
Ġec nirp
uaet Ã¢hc
ru evres
d id
Ġtne rtne
eg nolp
seria tnemÃ©lpmoc
Ġem sirorret
iv ap
ren ruoter
Ġrel iovÃ©d
ĠS MS
Ãªrp us
4 991
Ġtnem irtÃ©d
Ġelbar Ã©disnoc
eb or
ĠsÃ©sop moc
Ġseda ramac
Ġet narg
eng iop
if itra
Ġreng isÃ©d
Ġeunet er
Ġsu netbo
er ussa
Ġle usnem
ev is
Ġk oobecaf
Ġela rotcelÃ©
irÃ©t Ã©d
idnarg a
ib a
secna tsnocric
Ġet rom
ĠseÃ©nnod nar
m art
Ġellia dÃ©m
sex elpmoc
t lua
ĠsÃ© yap
n uj
Ġecnats bus
Ġniar g
Ġenne ilati
Ġett uog
le h
Ġnoitacud E
Ġevita t
Ġtres Ã©d
na w
tnem euqinu
iz agam
ia tnaf
ĠeÃ©uq idni
noit pec
Ã¯ oc
Ġre itini
us pac
Ġ eilbatÃ©
sÃ¨ cÃ©d
erut adidnac
Ġ3 8
Ġsesia hc
Ġtnemel arÃ©ttil
Ġett olf
Ġeriat atserp
Ġeuqil ohtac
Ġfit ucÃ©xe
t acova
tf os
sell erutluc
hc ra
Ġset ov
noz amA
e inruof
Ġsevita tnet
uog ne
Ġrerts ulli
Ġnoitac ifingis
ong iv
l iafÃ©d
Ġsu Ã§er
eria Ã©lcun
Ġnoitasil ivic
ĠseuqitamÃ©ht am
irÃ© P
Ġeg narO
Ġ enagro
sne icna
Ġsel gno
Ġ05 4
Ġerial ubacov
et iudÃ©r
ru euoj
t cerroc
Ġel Ã¨
Ġsru eirÃ©txe
Ġes irÃ©tcarac
Ġr itÃ¢b
Ġes il
Ġtua H
enu eJ
Ġt cerroc
Ġsi neD
ira uqa
ec nip
ia S
er ueirÃ©tni
us noc
Ġnoitat imil
luc sam
hp ua
Ġuo hc
Ġsni oM
D S
Ġsnoita rapÃ©r
Ġnoita borppa
Ġrennoit isop
cir fA
Ġesnep Ã©d
Ġstna uq
et rev
Ġnoitisop mi
Ġred nammocer
Ġbo j
Ġnoita loiv
sila nac
seÃ©g Ã¢
ĠerÃ¨ iduahc
SI L
Ġseg atÃ©
ĠÃ©mus Ã©R
Ġes irP
Ġruehc Ã®arf
Ġsehc at
Ġsen ir
Ġel uom
se innecÃ©d
rÃ© G
Ġsert lif
Ġset uhc
M P
ĠeÃ© ni
um is
set nedÃ©cÃ©rp
Ġg iB
in ut
ĠÃ©t ar
Ġseriota robal
noc lab
snoitac ilppa
Ġsc olb
Ġ* **
Ã©s icÃ©rp
Ġ [
Ġer ffO
Ġerd niep
Ġtna sopmoc
+ +
ov Ã©d
e ifitsuj
Ġs ag
Ġeuq ifÃ©nÃ©b
om Ã©b
ĠeÃ©uq ilppa
Ġec iv
ĠÃ©mrof snart
ĠenÃ¨m me
Ġen ilcÃ©d
p ilc
sesirp er
seuq irÃ©mun
Ġse irÃ©tcab
st il
Ġo ud
rat er
Ġse T
t Ã»oc
Ġet uorotua
ret set
Ġrelliev Ã©r
Ġtia tnes
Ġses sehcir
Ġes ialgna
noita nigami
el ocirga
Ġros Ã©rt
b ol
Ã©m uN
ed rem
Ġsno viv
Ġecna gÃ©lÃ©
Ġrio l
ib ro
Ġr ellia
Ġ00 51
Ġenne irÃ©a
sno s
ĠeÃ©m uf
iuqÃ©s Ã©d
stnem epiuqÃ©
Ġs iM
Ġerviv rus
ĠÃ©tilib aborp
ĠX U
Ġsess uaf
Ġnoitisop xE
ell ennoitpecxe
EL L
Ġd ua
sim rep
ed ilos
erÃ¨ tcarac
Ġell of
ĠÃ©tiliba tner
dnetta ni
eb mot
Ġsne is
Ġetna ssiup
Ġ3 9
Ġed nameD
ĠsÃ©tÃ© irav
Ġsre yof
Ġeril er
Ġseg na
of nI
Ġtnenneiv er
emm aps
Ġrer ocÃ©d
Ġeb mob
romÃ©m moc
ehc if
Ġsnois serpxe
Ġseiret tab
Ġuv ruop
evuo M
Ġset nal
ol Ã©
Ġtnav res
s atnaf
Ġserut niep
ĠF C
ses Ã©d
Ġeiov ner
ĠÃ©tir otuA
Ã© iralas
ba sI
Ġi ga
sÃ©t ic
ug ifnoc
Ġres ilitU
Ġerutc efÃ©rp
ĠerÃ¨irra b
ul ffa
Ġona ip
Ġec rovid
iuo f
Ġrer ussA
Ġtnem ertuA
v o
Ġenu trof
z a
irt ruem
Ġnoitca snart
ilav ehc
er rab
Ġses io
Ġeria tnevni
Ġst ehc
Ġ, -
it reva
Ġsnia rt
Ã©c xe
Ġ eirp
Ġselba rovaf
iu L
Ġeim ihc
Ġer ucorp
Ġseir tsudni
eÃ© ll
ĠÃ©t ej
em moH
Ġsert uA
Ġsnois seforp
Ġg ro
ĠeÃ© iram
Ġsnoy os
n uoc
Ġep ap
Ġres i
Ġnoita ralcÃ©D
Ġk cab
Ġseriat acol
Ġeria damodbeh
Ġeriat icilbup
Ġeniatna rauq
ĠsÃ©g uj
serÃ¨ icnanif
s nalp
nim ag
ĠÃ© icifÃ©nÃ©b
ort sa
Ãªr P
Ã©d named
Ġse inifÃ©d
va b
Ġliat kcoc
eg anÃ©m
Ġnoitauq Ã©da
Ġnoita rtsulli
s is
Ġet Ã¨lfer
Ġecna nretla
ab O
Ġs inifÃ©d
- ;
st iutarg
ac ne
Ġesirp ertnE
rob ra
Ġreluc ric
Ġy aw
hc orb
Ã©dis noC
Ġed no
tnemet aidÃ©mmi
in up
bm ab
Ġr ilbatÃ©r
Ġsrueir Ã©pus
Ġtnel uorÃ©d
par d
Ġxua noigÃ©r
et nahc
Ġesop xe
b olg
ar uoc
ot rac
Ġt ilbatÃ©
Ġtna lliev
g g
sÃ©tÃ© icos
0 791
ĠÃ©tisrevid oib
elle utcelletni
Ġrer ussar
itc id
Ġnoitacif iton
re yap
sne iv
uc sbo
Ġset Ã¨rcnoc
Ġterc Ã©D
tÃ©mo Ã©g
sfit rops
Ã©no xe
el acidÃ©m
ĠsÃ© xif
ert ov
ĠsÃ©t ser
Ġren rec
Ġer ffoc
snoss iop
E W
av ar
Ġa revirra
Ġia ri
ĠerÃ¨ ilibommi
Ã©r Ã©fÃ©rp
ĠÃ©tila icÃ©ps
Ġtiauq nam
uo lla
Ã©m usÃ©r
ig oL
hcorp Ã©rri
evit isop
Ġxuat ip
nem iD
sno siam
Ġnois Ã©hoc
zess a
ĠÃ©uq olb
avÃ© idÃ©m
ĠeÃ©p polevÃ©d
sni cedÃ©m
icsnoc ni
Ġ8 9
ĠE V
ba ra
re y
ĠseÃ©n noD
ĠuÃ§ rep
Ġaret roppa
Ġfita rÃ©pmi
Ġad rager
Ġer olf
a is
A HC
Ġeuqita mrofnI
Ġf iraT
noitc if
ess ahc
ya R
Ġnoitad argÃ©d
its ihpos
etna t
na Ã©co
Ġc nalB
Ġetna uqnic
Ġz eu
ne z
Ġnoisserp Ã©d
Ġreir urres
erut caf
sia dnal
sela icremmoc
ĠserÃ¨ lliuc
sia v
noita rt
Ġzel rap
ida las
T O
Ġet iudorp
ser ffo
uol f
Ġruet pmoc
Ġecnar ussA
ĠtnemerÃ¨ cnis
Ġ paC
eng ol
r ig
sef noc
Ġsar Ã©mac
Ãª hc
lo S
Ġeg alcycer
Ġelc arim
pur retni
ĠÃ©v resbo
Ġuaep ard
ecna dnet
il fni
Ġrehc nalp
Ġtneia ret
Ġze it
Ġeg orretni
ĠevÃ¨ neG
Ġselc yc
Ġg niop
et imil
Ġg m
suo S
Ġerdnerp pA
ht am
Ġrem uf
ĠsÃ©uq idni
Ġtneit Ã©d
art S
Ã© panac
Ġsnoita l
Ġse na
mu H
IL C
ĠnoitarÃ© molgga
et iS
nia ropmetnoc
Ġze yovne
Ġnoit u
ĠeÃ©t poda
ess ec
E H
serio tsih
Ġtness iga
sia uO
Ġne idrag
c ip
Ġtnell eppa
Ġ eiolpme
Ġecrof ner
u k
tiar ua
Ġtna ifidom
el I
V C
Ġrell ibah
Ġtneng apmocca
c e
ĠÃ©tilib atpmoc
em itciv
Ġeig ogadÃ©p
ĠÃ© nigami
la icÃ©ps
as yap
Ġsessia c
Ġsela ilimaf
o isyhp
Ġer casnoc
d ruol
t i
Ġtne irav
Ġtnemenno rivnE
6 8
Ġserut aÃ©rc
a cac
sem Ã´
Ġt ibus
seuq irotsih
Ġeg d
ĠÃ© rud
Ġes ualc
Ġset ruoc
ĠerÃ¨ nÃ©g
Ġ9 7
Ġi N
seriat ilim
2 991
Ġert niep
Ġni erf
ĠsÃ©t icificÃ©ps
sru emmaps
ehc nam
Ġzet isiv
Ġseda lab
ĠsÃ©r Ã©fÃ©rp
rue os
ila vac
nag ig
d nas
Ġzet rap
oir bmac
pmyl O
et ca
Ġset reffo
erb ra
Ġ6 8
P O
sia vuam
Ġxua nac
Ġen id
Ġev uelf
Ġcir E
iuq nab
ĠsÃ©m rofni
ĠeÃ© nimretÃ©d
hc otua
ĠsÃ©tila gÃ©ni
Ġ... "
ix aM
Ġsell ennoitidart
t pecnoc
ĠsÃ©m Ã´lpid
Ġeu V
Ã©v Ã©srep
g nit
noita lucric
ec irta
Ġem utsoc
Ġre illoc
Ġeria tnemelrap
Ġtpirc SavaJ
Ġer ahp
sno B
ne im
k caJ
y R
Ġuaev iN
sÃ©s oporp
Ġed al
Ġelbissop mI
Ġsreit nolov
iar Ã©niti
Ġrem itse
Ġec nevorP
uall iuG
ĠÃ©t norfnoc
sert it
ev Ã¨lÃ©
snoita utis
Ġseuq inilc
Ġsial rap
ir daM
tna d
tnemet urcer
ĠÃ©t isÃ©h
eil nab
Ġtel ecarb
ĠerÃ¨ issuop
ir Ã©tni
Ġtned icÃ©d
Ġen Ã¨l
sem it
elb orp
Ġtno S
c ra
ĠÃ©tir gÃ©tni
Ġse irolac
Ġenirt iv
Ġetna ruoc
ert semirt
Ġtness af
Ġt ir
ĠÃ©ticapac ni
Ġsd nopÃ©r
Ġesirp moc
eir ess
Ġet Ã´h
Ġt issuÃ©r
ĠÃ© da
Ġses ucxe
Ġser neg
Ġtnal bmes
ĠtnerÃ¨d isnoc
: )
Ġruet pac
Ġret nurpme
Ġres nad
Ġreng iesne
ĠÃ©s uac
emÃ¨ ix
Ġsnoitc aretni
dno ffe
Ġsnoiss iup
rec nava
Ġm ed
Ġretic illos
seg rahc
Ġser ialc
se Ã©c
re ut
tnemehc narf
ĠseÃ©p acidnah
ĠÃ© rtner
Ġess orb
Ġx uopÃ©
Ġc ra
Ġo da
Ġfit netta
elb isnes
Ġev ir
) )
s ulÃ©
sel ac
Ġstnec Ã©r
ĠetÃªuq noc
ĠÃ©ng isÃ©d
Ġsem aJ
ĠeÃ©v uort
Ġsnol rap
Ġtne irO
Ġsev itca
Ġtnelbmes ser
va L
t ius
ic ec
Ġag as
rus ni
Ġsel rep
sia nopaj
ihc Ã®arfar
Ġeriat ned
e et
nerp pa
ĠÃ©t itne
rev noc
Ġtnat ivÃ©
Ġstel ig
el gÃ¨r
ed iuqil
nois ulcnoc
Ġtnen Ã¨m
acid nyS
Ġeinif Ã©d
eu nev
Ġeuqits irÃ©tcarac
Ġ itna
rom mi
ĠseÃ©n ruoJ
F S
Ġtnemet Ãªver
noit irap
Ġes uma
Ġrehc nep
Ġap s
Ġs oda
Ġ000 5
Ġne t
Ġ1 8
Ġes ylanA
Ġeria nilpicsid
e noc
l ub
su nam
ih art
Ġtna nnoisserpmi
sl eirtsudni
erv uoc
Ġsl eÃ©r
ĠeÃ© ngis
Ġtne bmot
Ġzet teM
es ilg
h uE
Ġtnat Ãī
IR P
Ġelbal bmes
ei hpargotohp
ne hc
Ġtairat Ã©rces
Ġs rab
Ġseria igats
Ġ4 9
Ġsehc nalb
am I
sÃ© irav
Ġst iurb
Ġriova S
Ġret sefinam
Ġsnoit netni
n urb
Ġsehc op
se iv
eria nno
.. âĢ¦
ĠI UQ
ewol laH
sem ret
rac se
Ġnoll itnahcÃ©
Ġrer uelp
ĠsÃ©tic ilbup
ni ram
Ġnoitacol la
rab mob
Ġsnoita tnesÃ©rp
nag aporp
Ġs itros
srueis ulp
Ġsnoitc efni
Ġ5 21
d ua
Ġtness uop
itsub moc
Ġtnes iv
Ġâ Ļ¥
Ġtej er
Ġse inU
en ial
rts noC
Ġsec irta
Ġsert ipahc
ei nam
o ocs
ar P
ĠÃ©t illiuqnart
Ġess ilg
Ã©ll atsni
ios ivorp
Ġetiaf Ã©d
Ġer ramÃ©d
iu J
ell euxes
Ġessia C
Ġet idretni
Ġtnioj da
e neG
ĠsÃ©r rac
Ġfita cudÃ©
Ġuoj ib
Ġrep polevÃ©D
Ġem al
Ġtness inif
coc noc
ĠI II
ĠÃ© siorc
ac ifitrec
Ġreif ilauq
ĠertÃ¨m irÃ©p
ret iforp
Ġei na
Ġ1 9
Ġrep mort
sec irt
Ġy ad
Ġzeuq nam
noita rg
Ġ6 9
Ġna v
ser utcurts
sor Ã©h
Ġriovec repa
uo napÃ©
Ġeud rep
ĠsÃ©t norfnoc
Ġen O
ĠÃ© unitnoc
ta ihcysp
el op
ru J
ned noc
Ġtne Ã©rc
euqigol oib
4 8
... )
Ġt roP
ett euq
tned isÃ©rP
Ġeic amrahp
Ġed uarf
Ġsel acsif
Ġtia ng
am ia
Ã©s serÃ©tni
Ġxua nigiro
norhc nys
Ġsno inipo
ĠeriatÃ© nom
ar Ã©tal
ĠP I
Ġa il
Ġsetna vonni
Ġtub Ã©D
Ġid narg
; )
il pme
euqi nap
sed ic
arc omÃ©d
Ġelc ats
Ġs dne
Ġedutit pa
Ġemy nonys
eÃ©t imil
e ya
erb mos
Ġsno il
it revid
st rev
D B
nat uc
Ġsruoc noC
i E
ĠÃ© tnesÃ©rper
Ã©tic ilpmis
og Ã©
ap ap
ĠÃ©d ilav
Ġxua nubirt
ĠeÃ© ifidom
eh T
Ġtnats isÃ©r
ed ohtÃ©m
6 9
Ġselbat rofnoc
ua t
Ġstat lusÃ©R
Ġtnat lusÃ©r
egas yap
itu nim
irp orP
rus sar
Ġf dp
ets ip
Ġtned Ã¨c
Ġxu eu
sec ruos
ia d
tne ivnoc
ĠeX X
erio tsiH
lli elosne
Ġred iv
noit apicitrap
y ob
sel ovÃ©nÃ©b
PM OC
Ġnoita nimircsid
2 8
Ġstnat nom
Ġel pmexE
Ġsrued nev
Ġtna icifÃ©nÃ©b
Ġla V
e ios
ĠeÃ© nimret
Ġzer Ã©fÃ©rp
Ġxuaet Ã¢g
O G
p op
Ġeug ord
Ġset Ã¨lhta
ua nor
L U
Ġla tnemetrapÃ©d
Ġno hta
Ġtnat ropmoc
Ġerbm eM
Ġter ffoc
Ġrep arttar
ĠÃ© robalÃ©
g utrop
y D
rel Ã¨p
g uA
ot amÃ©nic
Ġseg roeG
Ġemit ni
Ġstnat ubÃ©d
Ġ eidÃ©moc
Ġnoitc aretni
es uerueh
ehc Ã©s
s tadidnac
Ġet Ã»
v s
ola na
hps omta
Ġsir oloc
v iop
Ġres irucÃ©s
af Ã©n
Ġep at
e ihcrarÃ©ih
t repxe
Ġrer uatser
Ġrio snoB
Ġelcats bo
Ġell iL
Ġetsila icos
at noM
Ġsd ruol
t ehc
ĠtnaÃ§ nemmoc
Ã©hp irÃ©p
Ġrep iuqÃ©
Ġer urres
Ġenia ropmetnoc
b at
06 3
l itneg
ill eb
it Ã©r
Ġsel uapÃ©
Ġtne llecxE
ĠÃ©t Ã©lpmoc
Ġst revuoc
Ġell eir
Ġet silaÃ©r
Ġess elpuos
Ġt ruem
Ġnois napxe
Ġriov resÃ©r
e ilp
bm aC
enne isirap
Ġert teL
Ġsec ipÃ©
ap aC
gnol orp
noj noc
Ġseuq irbur
Ġnoita icÃ©rppa
icif Ã©nÃ©B
Ġret nalp
nois nehÃ©rpmoc
Ġenia cirfa
ĠÃ©sop po
Ġsett ed
Ġeria nigiro
Ã© ip
Ġsel acidÃ©m
ip uos
Ġseg avuas
Ġsem ronÃ©
âĢĿ ...
et ropmi
mu id
ing apmoC
Ġel pmet
rer Ã©g
ell eirtsudni
Ġel apicinum
noit omÃ©
ĠsÃ©s ilannosrep
srev id
Ġruet at
ĠÃ©v itom
ut Ã©prep
tnemet rapÃ©D
RUO J
uol ep
bo j
x x
arip sa
Ġsruetc udnoc
Ġnoita idÃ©m
Ġres iab
Ġemm eF
Ġtnemeriat irojam
Ġleu tnevÃ©
D I
ĠserÃ¨ it
Ġreg agÃ©d
uog Ã©
tnemen Ã¨vÃ©
Ġtnass iorc
not oc
xue igiler
Ġec roF
Ġenne is
em oR
Ġr ituoba
Ġret icsus
Ġnoitcep sni
Ġesio nihc
Ã©tir adilos
ang iab
sle icigol
Ã¢ f
Ġsen if
Ġunev Ã©rp
enno s
Ġerus selb
ific aP
ĠÃ©v Ãªr
itneg rA
Ġma et
Ġelbas nopseR
reg Ã©torp
ĠtiaÃ§ nemmoc
ĠsÃ©n gis
Ġris iol
Ġsno ilbuo
snoitat serp
seg al
Ġnoit ila
Ġeuq iouq
Ġelanoitan retnI
sela noitan
Ġsell eÃ©r
Ġreiv el
Ġzet Ã©iuqni
Ġq niC
ĠsÃ©g ilbo
Ġse ipoc
ĠÃ©tilib as
reir ruoc
set nagig
etni ecne
ĠP R
Ġreug ivan
Ġruetar Ã©girfÃ©r
ec orp
vius ruop
i nac
Ġrec noner
Ġsel lab
EV UO
Ġt cirts
Ġtneg illetni
Ġert ruem
Ġsehc ram
Ġtnat ubÃ©d
ma tne
ved er
Ã©t isrevinu
ĠÃ ´
ĠÃ© rapmoc
u pmi
ĠÃ©tin Ã©rÃ©s
Ġsia tnes
ed ats
cal b
ella b
b iv
Ġc ip
Ġs ama
t iov
ĠÃ© irporppa
Ġeir iarbil
ill ub
Ġre iciffo
* (
Ġtiat tem
ĠedutÃ© iuqni
sruoc sid
Ã©tilib inopsid
Ã¯at lov
Ġtiat temrep
8 791
em moc
Ġli eloS
Ã©l C
tnemel amron
urt ser
iv iC
marg atsnI
Ġeria nirÃ©tÃ©v
Ġ7 8
il of
in Ã©dni
e utats
Ġenia moD
eg na
cab at
red rag
ne tnec
Ġle T
p pa
st recnoc
no J
at aC
setna N
Ġset Ã¨lpmoc
ell ep
Ġrer Ã©fsnart
ot Ã©
Ġel gni
ĠÃ©tÃ© iroton
ac udÃ©
Ġp ohs
Ġseuqit Ã©msoc
bm em
Ġ9 991
ĠseÃ© xif
Ġs irovaf
noitac ifidom
T E
T R
Ġesu ellievrem
noitav onÃ©r
snoita Ã©rc
Ġtiad named
Ġnoita unitnoc
Ġriruoc er
Ġeigol ohcysp
py lac
ĠÂ» .
Ġec alpmer
sert Ã¨molik
Ġsl uclac
ip icÃ©r
ĠÃ©l iovÃ©d
Ġk caJ
Ġnoitalum ucca
Ġta tnetta
Ġrueva s
Ġrenno dro
Ġemsi nabru
ess uop
erÃ¨ir red
Ġseu Ã§er
it ram
Ġsett elbat
Ã©htse na
ĠIC REM
eig am
la rom
eiret tab
Ġeigol odohtÃ©m
bm uh
Ġsnong ipmahc
ĠsÃ©d Ã©corp
eir Ã©glA
ib ih
ĠeÃ©d iug
e nava
ej orP
ĠeÃ©g atrap
Ġel uapÃ©
Ġteuq uob
Ġen iomirtaP
t nof
Ġivius ruop
ehc uot
Ġsesim snart
ua B
Ġerttem da
Ġesue igiler
Ġsecruos seR
l atipac
ats irc
Ġ opsid
v irra
s eng
nerp mi
Ġrehc orcca
irÃ© hp
Ġtrop S
iut arG
iu nem
mo N
Ġn iturcs
' \\
Ġet uanretni
utipac Ã©r
apac se
tnem ecuod
Ġenirt iop
Ġrued narg
rel C
Ġt elfer
et sir
Ġtnemeuq igol
tnemen Ã®artne
Ġtnehc uot
nuf Ã©d
eg avuas
Ġel isa
te uof
Ġtness inruof
rell atsni
Ġserial umrof
a ir
Ġtia lav
noitar ipsni
illub Ã©
c ejni
rehc ram
Ġretrop er
ĠÃ©v uorppa
Ġelle icifitra
Ġres al
Ġserb mon
Ġeuq oc
Ġeng ol
et nam
euq s
Ġz ei
Ġ eulosba
eÃ© sum
Ġsnoitca rtta
Ġselliev rem
riov ed
Ġret suja
Ġsro cÃ©d
tnem eniahcorp
Ã©t iroirp
Ġerdnerp moC
Ġsnoit itÃ©pmoc
iciff O
rir ffo
Ġertnec noc
Ġruet isiv
Ġiol pmE
sno illim
Ġseria nnoitca
ne ilati
Ġt iuc
Ġs illieucca
Ġess il
ru eugnol
Ġeuqit Ã©
Ġseuqit Ã©grenÃ©
re inap
Ġtne sopmoc
Ġsel bmes
ĠÃ©t idÃ©
Ġtna yap
Ġta idÃ©mmi
Ġnoitnev bus
Ġnoitarg im
Ġeuq ilobmys
Ġseno hptrams
Ġenno it
Ġret nemmoc
Ġetnam irpmi
Ġnoitac inummoC
ri G
Ġtnem Ã©rga
ed Ã¨
Ġtna gÃ©lÃ©
ĠSUO T
y A
Ġtnahc uot
vuo g
c w
sc nalb
itsev nI
Ġna d
Ġd e
Ġ ort
t re
t iot
sesu erbmon
Ã©c O
Ġla itini
ĠeÃ© yovne
Ġeni nimÃ©f
arap Ã©rp
oc irb
Ġzev irra
Ġstnem Ã©lpmoc
u never
Ġnob rahc
erbm em
Ġu ruocrap
cep seR
em ulov
sni sagam
Ġseb or
e icossa
Ġnoitasil itU
Ġsegal gÃ©r
Ġtnor uas
ua rdyh
iarv iL
Ã©n Ã©G
Ã©hp Ã©
Ġesuer uelahc
Ġ... ,
resila usiv
Ġtna nem
Ġes segas
er ueirÃ©pus
ega morf
Ġtiud Ã©s
se uv
Ġâĸ º
ĠsÃ©t iral
Ġnoita ic
tnem ugra
Ġnoitas itamilc
Ġsni oj
na tnatsni
re Ã©n
Ġneil uJ
Ġecned icni
Ġno rivnE
ĠÃ©s o
Ġl evuoN
ssia rappa
em Ãªrtxe
.... ...
monoc Ãī
Ã©n uf
euqi nacÃ©m
iab ru
ĠSUO N
ĠsÃ©n noitnem
st rops
ĠsÃ© rtnocner
Ġre idÃ©mer
s at
c ehcÃ©
Ġsela irotirret
Ġxu erc
Ġselb alevuoner
re ihcif
tam ilc
Ãª bme
eu net
Ġyz okraS
ĠeÃ©ss uop
Ġni oL
eg Ã¨
ĠÃ©r iter
Ġc narf
Ġeuq iroÃ©ht
xua irÃ©tam
si R
evit rops
f aC
Ġtnauq ilpxe
Ġtiav irra
Ġst o
x iorC
Ġhp esoJ
Ġnoitas inmedni
Ġc nab
ec nim
Ġelar Ã©dÃ©f
Ġut tab
roh s
ĠerÃ¨ isiorc
e II
Ġen netna
Ġtna rgÃ©tni
Ġega val
poc ilÃ©h
s unim
eÃ© nimehc
Ã©na tnatsni
Ġtneiv uos
si P
Ġer ipmE
set isiv
ĠÃ© ifitnedi
snoita mina
noitisop po
eriot civ
xua vehc
es netni
ĠeriatÃ© gdub
rop S
ĠS NO
Ġseria tnemmoC
o W
its ir
rep sid
la gÃ©r
Ġstne inÃ©vnocni
L D
ĠÃ©til acsif
le im
sevit rops
Ġeuqit o
ĠsÃ©t Ãªrra
ff uob
Ġ eix
iff o
Ġtia n
ni P
A J
Ġel ueS
xua ecrom
se Ã©virp
Ġtiat pmoc
irc serp
elli eiv
Ġeuqit Ã©nÃ©g
nima erts
Ġgnip pohs
et net
ed osipÃ©
sen im
ĠseÃ©t celloc
Ġssen isuB
Ġretnom rus
ĠetÃª pmet
Ġsro sÃ©rt
im enne
Ġzedrag eR
t Ãªrra
Ġes ruoB
en nam
Ġets isni
Ġdl roW
y el
xueir uc
eg ac
Ġio T
sne iT
ĠÃ©t erporp
Ġ.) .
... !
evita itini
nim il
Ġem oh
Ġeria nigami
Ġ eifitsuj
Ġgn usmaS
Ã¯atlov otohp
Ġxua rÃ©nim
Ġuaet nam
Ġselb itapmoc
Ġsnol eppaR
ib moc
ĠsÃ©t rop
Ġtnar Ã©g
Ġsela Ã©rÃ©c
Ġerio lg
ĠemÃ¨ix ueD
Ġs inif
im ihc
st roffe
senÃ¨ g
la tnem
Ġtneuq idni
Ġerio sivorp
rahc Ã©lÃ©T
7 8
Ġlat igid
s engatnom
rts ua
w ohs
Ġett eragic
Ġzet ehca
ĠsÃ©g Ã©torp
Ġla yoR
Ġle itrap
Ġsnoir ua
dna S
og ruoB
ru M
en ul
Ġre fne
Ġnam aM
Ġar itros
set iaF
Ġu rappa
Ġtnet cepser
ul uov
Ġmu dnerÃ©fÃ©r
Ġenohp ocnarf
ell eÃ©r
" (
ĠeÃ© sserÃ©tni
Ġm aS
Ġsruet al
Ġess elbiaf
ĠÃ©v uorp
Ġeuq illatÃ©m
la T
Ġterc sid
ol Ã©m
Ġser ivan
rof snart
3 991
Ġserbm ahC
sel ohc
Ġtia eg
Ġetnam rahc
Ġtnats issa
MM OC
AL P
em onotua
Ġzec nemmoc
l eirtsudni
Ġsehc iffa
sel orap
SE NU
elc yc
p ertne
Ã¨ n
Ġerv iV
rel c
Ġni pas
M B
Ġeg Ã¨lloC
seriot irret
orp icÃ©r
sre itÃ©m
its etni
or rac
Ġw ohs
Ġesuet nahc
Ġtnemm e
er iurtsnoc
ertne C
Ġst nam
Ġtnet irÃ©m
Ġi b
w ol
elle om
Ġsnoita s
em Ã´
em Ã¨rc
sre inred
Ġelba ilbuoni
Ġxua varT
um issid
Ã©c nemmoc
ĠERT OV
erÃ¨ ilugÃ©r
Ã ¡
ri never
nitek raM
Ġelat sop
Ġar iffus
Ġessec nirp
ab rab
b iL
S F
Ġem rif
Ġtnass isiohc
Ġed arg
ĠB SU
lif ni
Ġhs alf
Ġser rab
sir ucÃ©s
Ġzenno itcelÃ©s
Ġenne isirap
Ġtna llieucca
ĠeÃ©c nonna
Ġrem atne
00 6
Ġsnia cirÃ©mA
Ġed nolb
t roP
Ġsruet cerid
eis A
Ġnois serga
Ġerts nom
Ġecnal igiv
c b
etÃª b
Ġsnit ellub
los Ã©D
00 8
Ġstna g
Ġsnoit nem
Ġ eifnoc
ssa M
Ġelbat op
oc narF
selle utca
Ġses sap
Ġserial os
Ġruer ucorp
Ġnia v
re yof
Ġla tnemadnof
ĠeÃ©s iv
Ġa jÃ©d
Ġess iogna
Ã©t inu
Ġno tnac
Ġm alsi
Ġehparg ohtro
ĠÃ©tila uQ
sru eir
Ġet niaS
Ġemit iram
e nabac
eg rahcÃ©lÃ©t
Ġses or
Ġecna dnopserroc
Ġn gi
Ġed iulf
Ġsia n
Ġst egdub
sec namrofrep
x uojib
Ġeu Ã§Ã©d
tnem Ã©d
Ġtat lusÃ©R
Ġsno nnod
Ġnoitc arfni
Ġze netbo
ĠevÃ¨l ne
Ġtia re
eu nevneib
erut revuoc
ell uB
tiaf rof
N G
tnem ecalpÃ©d
g ueva
Ġnoitar ipser
Ġserb Ã¨lÃ©c
e ingapmoC
Ġg olB
oc la
Ġsecned isÃ©r
Ġtneia nev
tnan recnoc
Ġsus ruc
Ġeuqit ueparÃ©ht
siam rosÃ©D
Ġedic ius
er uc
Ġtnat issecÃ©n
Ġet oc
evuo rppa
stnem ila
Ġsiof ertua
Ġt sil
e iunne
ĠsÃ©til amrof
siar g
Ã¯ah T
it iv
apm ahC
Ġes nopÃ©R
Ġn I
noissim Ã©
Ã© us
Ġre im
Ġtnemeng iesnE
ĠeÃ© sirotua
Ġelba T
Ġeir einÃ©gni
Ġecnar Ã©pse
ĠemÃ¨ix is
Ġc aM
nor re
Ġs rats
Ġni d
Ġstna ssiup
Ġert il
Ġreif inalp
Ġseriat isrevinu
Ġs res
irÃ© pmetni
erut cetihcra
s ruot
Ġsruet artsinimda
Ġer aw
Ġsed los
Ġtnen ruot
Ġeb rev
Ã©t pada
Ġtneial uov
ĠÃ©tiv itc
Ã© ilbuo
sen uaj
Ã©l rap
Ġnoitc ivnoc
Ġsia nno
Ġeb repuS
Ã©hc natÃ©
oc idÃ©m
ĠetÃª nnoh
ne S
Ġreuq ilpmi
Ġerd niarc
tna ssiup
noitcaf sitas
nah g
uohc tuo
Ġsno net
Ġsem ad
yba b
ĠÃ©v resnoc
sru ehcrehc
Ġt alcÃ©
Ġru elliavart
Ġeriat Ã©rceS
Ġes sem
Ġtna xif
Ġsess ur
ĠsÃ©r vil
Ġ02 02
id orp
ma C
Ġ hcet
05 7
iss of
Ġsruer uoc
eil oj
Ġsro H
ell eppar
ĠsÃ©p polevÃ©d
Ġseg ral
Ġtnesop mi
tne uq
Ġela ilif
Ġna t
Ġtnem evuoM
ĠNOIT A
Ġsehc nalp
euqig ogadÃ©p
ĠÃ© ubirtta
eniar evuos
euq leuq
en Ã´hR
Ġg no
Ġega lacÃ©d
Ġre icilop
Ġag nam
Ġsruem ur
opm et
nar B
ĠÃ© ugÃ©lÃ©d
eÃ© lla
Ġrel Ã»rb
pyg E
Ġegap iuqÃ©
ĠÃ©t ingid
in rag
ef Ã©d
Ġesim ehc
ĠeÃ©s revart
Ã©m ref
Ġeg nolp
elle B
Ġelba roda
Ġtno redia
seuq ifingam
Ġte kcit
um ra
ĠE SI
Ġtnemeuq isyhp
Ã©rualac cab
Ġnoita tnemirÃ©pxe
Ġsesim er
al B
Ġ itnarag
Ġtnep polevÃ©d
ĠÃ©r Ã©pucÃ©r
ca n
stnem itnes
Ġena hpÃ©tS
Ġ eicossa
ej bus
ut rof
z ir
ĠserÃ¨ ilif
Ġnoita lumis
eÃ© nitam
Ġehcorp par
Ġsruet ar
Ġeuq itnamor
Ġeru ffioc
Ġeim Ã©daca
ĠeÃ©r up
Ġeigol ocÃ©
ecne llecxe
eÃ© ng
Ġes oR
Ġrer Ã©fÃ©r
er iov
eriat nolov
sno Ã§rag
n Ã©llim
Ġseg agab
set te
Ġst refsnart
ĠsÃ©r ussa
ĠSP G
ga w
Ġsial gnA
sl etÃ´h
06 91
Ġtiu N
ru elf
Ġs irc
Ġr of
uo G
Ġsfita rtsinimda
Ġst ar
em ad
id nys
uorem aC
iw dnas
ra F
ĠS D
Ġtnamrof rep
Ġse ut
Ġrer ugif
nogat orp
Ġstnem evÃ¨l
Ġrega nam
elba T
Ġreg anÃ©ma
d ragÃ©
cid artnoc
ell ennoitidart
Ġres nepmoc
U B
Ġeuq ilc
eÃ©nnod nar
Ġetnarg Ã©tni
niab ru
elam itpo
Ġet xim
Ġeuqi nap
Ġem oR
il orp
Ġerug revne
E I
L M
erÃ¨ ivir
Ġsio p
Ġart Ã®
Ġl ep
Ġrel bmes
ir ec
Ġares oporp
Ġstnat sefinam
Ġep pahcÃ©
eppa hcÃ©
Ġf elc
ĠÃ©v onÃ©r
Ġet sartnoc
Ġg reb
Ġrep parf
Ġ ba
Ġec iruaM
rueis noM
Ġsevitc erid
el amina
SE D
orÃ©t selohc
Ġetne itap
i J
Ġseuqits alp
ca B
Ġselba irav
Ġk oob
Ã©c nac
at ap
if Ã©m
ĠsÃ© illa
D VD
Ġselba nruotnocni
Ġretrop moc
ĠsÃ©t ilaÃ©r
Ġtej uS
Ġ eII
Ġgni l
Ġl uN
tnemess alc
Ġsett eivres
Ġsar evuort
ĠetÃª rppa
hp Ã©lÃ©
stnem itÃ¢b
Ã©l od
eirÃ©t ra
Ġxuatip Ã´h
tÃ© iuqni
emrof ni
Ġelan Ã©p
Ġnohc uob
Ġed yxo
tnemell ennosrep
Ġret locÃ©r
ĠD EL
ue R
t io
Ġecna Ã©hcÃ©
stna viv
Ġeuq imaronap
Ġs evuort
Ġerdnerp rus
ni z
ĠĠĠĠ ĠĠĠĠ
iorc ca
Ġxuat Ã©m
ii ii
ĠsÃ©v uorter
ĠeuqÃ¨ht oilbiB
Ġstna ngag
ren Ã®d
us Ã©rp
Ġ ebmaj
Ġses ruob
Ġrem alcÃ©r
v on
ihs redael
ĠsÃ©m ref
id i
uc sam
Ġk O
Ġso iranÃ©cs
Ġsen retxe
ĠseÃ© rtsigerne
Ġeriotavres bO
r elliesnoc
ned icca
sni ssed
Ġsnoir ruop
Ġnoitulov Ã©R
ret ucsid
rt noC
noita ulavÃ©
Ġne m
Ġeir am
eu elb
ĠsÃ© ut
ĠE HC
Ġses siarg
ieh z
Ġruet amina
enno Ã§
T V
Ġnoit irtun
uohctuo ac
Ġp uoC
Ġsed uahc
Ġsnor rev
ke eW
Ġsruet ubirtsid
Ġzev resÃ©R
e es
Ġs gni
Ġnoitc effa
Ġtne rtnocner
Ġstnal uor
Ġsem irp
Ġtnet Ã©pmoc
Ġtnanerp rus
s uriv
no inipo
ilpme R
Ġerut pac
sel ocirga
si uoL
Ġne yoM
Ġer epse
Ġfitc ejbO
Ġreng iolÃ©
ik iw
Ġesset sirt
T B
Ġru Åĵ
res s
sruess inruof
ell enretam
Ġnoisuf noc
ar C
la rtnec
Ġmo T
Ġet niet
iger nE
Ġeg Ã¨ip
Ġela irotirret
ĠeÃ©g anÃ©ma
Ġ effuahc
etna dnepÃ©dni
Ġsevit isop
erÃ¨ in
1 991
t ort
ra N
Ġdrahc iR
irÃ©p xE
da C
Ġselb ic
Ġsio cÃ©bÃ©uq
Ġtnemer iv
euq orc
a idÃ©m
Ġev uen
sÃ©ss elb
ĠsÃ©tin medni
irÃ©hp irÃ©p
ĠÃ©s revart
r B
ecnal lievrus
v arg
Ġte fÃ©rp
tnem Ã©rga
le itnetop
Ã©t ervuap
noit nevÃ©rp
ĠÃ©t imitni
an Ã©
Ġtne ruemed
uanor Ã©a
Ġsett euqitÃ©
Ġseuv er
Ġtnemev itcepser
Ġtnev uoS
Ġre ilpitlum
Ġzet ser
Ġnoitat or
Ġemad am
Ġyr reihT
Ġsno lat
Ġsel gna
Ġrert Ã©nÃ©p
Ġo f
Ġâ ĺ
Ġrued a
ĠeÃ©d named
ĠA P
Ġnoitas inredom
enret xe
iat rop
t olf
o ot
Ġriovec rep
Ġsenu eJ
Ġ pa
ĠseÃ©s ilaicÃ©ps
erut arÃ©ttil
Ġy ng
er ueirÃ©txe
Ġr ennoisiv
Ã©tila itnedifnoc
Ġet Ã®
eid necni
Ġtiud orP
ĠÃ©g anÃ©ma
ĠseÃ© icossa
Ġseuqim anyd
r iuc
lu caF
ĠÃ©tilibissop mi
Ġlac saP
ut p
ec Ã¨pse
inom irtap
ell atsni
Ġle nap
Ġeuqi ht
ru Åĵs
Ġ8 991
Ġett ol
orÃ© z
Ġerb iL
Ġseu Ã§noc
ut rats
Ã© nil
Ġsenno loc
tiu nim
Ġh g
ĠÃ©tir utam
Ġsiv ius
Ġnos iarviL
sre ihcif
ar i
Ġsnong apmoc
eir ed
inar i
Ġnois remmi
lc ne
Ġsev ihcrA
u Y
ac Ã©rp
Ġeuqits itats
ar uocÃ©d
Ġeg itil
Ġec iton
NET TA
ĠsÃ© nem
ĠerÃ¨ f
Ġru eirÃ©tnI
Ġ0 991
ecna netniam
ĠÃ©t uocÃ©
Ġu n
ri B
ĠeÃ© sserda
Ġetteuo h
en iram
Ã© uoj
Ġecnas iffusni
Ġses sef
selb isnes
yl E
set nocni
Ġell ub
ett elbat
el ueug
reuq ilpxe
Ġets issa
Ġsni uq
Ġruet ubirtsid
ĠÃ©l ifÃ©d
Ġtiaf raP
Ġenno tÃ©
Ġnoitacif itcer
Ġtneg ru
el ah
Ġrel upinam
Ġle utibah
ec iN
Ã©s im
ĠeÃ©p ucco
nat irB
Ġret urcer
iug nas
irÃ©m A
-- --
ĠO SI
Ġeis inuT
Ġtnemm edÃ©cÃ©rp
ses revid
Ã©r Ã©ts
Ġg na
am roN
Ġreg ixe
IR T
tna uq
serÃ¨ rf
Ã©ps E
ret se
em Ãª
Ġtna nevretni
Ġela tnemennorivne
Ġelbar apmoc
as iv
Ġdra v
w eivretni
Ġsec uop
Ġep uj
Ġnoitat um
om a
el Ãİ
ep me
ĠÃ© rut
b ulC
tuob ed
eig Ã©tarts
ĠstÃ´ pÃ©d
ĠetÃ¨ pÃ©r
Ġtnemenno yar
nim ulli
ĠseÃ© irav
tne iB
rt iv
Ġsep mop
Ġ irc
Ġon urB
nat nops
Ġsen isu
sen ihcam
Ġu b
Ġs ilbatÃ©
Ġerud rob
ĠÃ©l gÃ©r
9 891
nno rivne
elle itnedisÃ©rp
l ei
Ã¢ rg
uo da
NA L
Ġgruob sartS
Ġtnet iforp
ima C
sÃ©s ilitu
siam rosÃ©d
Ã´ p
l isÃ©rB
ua C
Ã©p uts
Ġseria tnemelgÃ©r
u nem
Ġsg nar
snoita rÃ©nÃ©g
noitcudorp er
tnenne iv
dra dnats
D X
s nom
im E
mo nortsa
Ġ7 9
stna sserÃ©tni
Ġtneia ss
Ã´ rp
Ġsre is
Ġsnoitat icilÃ©f
ĠR UE
D M
ni h
st iun
Ġset peda
ell ehcÃ©
tua s
ĠV DR
itc efnoc
Ġtre iuqer
se ur
Ġes roC
ela rom
imit igÃ©l
Ġsetne llecxe
isu ba
eila rtsuA
ĠsÃ©uq ilpmi
Ġsa B
Ġtnat iforp
Ġsnam am
Ġsrein nosirp
mor retni
ĠÂ §
tne llecxe
orp er
e idutÃ©
Ġet c
Ġnoitca rtxe
!!!! !!!!
rir uoc
k U
apo Ã©tso
Ġenu eJ
irt Ã®aM
ec eR
Ġzet rop
Ġtia F
Ġsf uen
euq Ã¨hc
Ġehc uabme
Ġreg nalÃ©M
Ġei hpoS
itcer roc
Ġx aM
ir ys
eria dilos
Ġseria tnemelrap
le usiv
erÃ¨ il
Ġsni gne
Ġet sirorret
ir ep
Ġ06 3
seuq nab
ĠÃ©t icsus
sru ep
ehc Ã¢t
ret isiv
Ġas op
Ġrem lac
Ġsnoita rb
Ġses sil
ĠS C
at tO
Ġt niartnoc
Ġet rahC
Ġel I
nit xe
Ġstnemec alpme
euqits iruot
Ġtnemevit netta
Ġega Ã§
Ġngi seD
Ġser ugif
no T
Ġsre icna
ĠeÃ©r ipsni
isne ts
Ġseuq Ã¨htoilbib
snoitc elÃ©
ssia rap
ĠÃ© tnevni
Ġtne sinagro
Ġeg it
Ġrel uoc
Ġst oc
s ud
Ġsal Ã©h
sial gnA
Ġren ruojÃ©s
es o
Ġeuq inimoD
Ġg ub
Ġsru ep
Ġo ruE
ĠIC I
e nop
Ġeuqita idÃ©m
Ġec ifidÃ©
mo z
iv os
Ġtna ma
sin net
Ġid ro
Ġst Ãªrra
ĠÃ©r vilÃ©d
Ġnoitpirc serp
Ġrehc Ã©s
ilo ba
Ġff ats
Ġet roP
Ġteg d
el ed
Ġ- .
lav retni
U J
Ġseb ut
Ġsia ss
Ã¯ as
Ġs iss
el abolg
Ġaret nesÃ©rp
Ġes sa
Ġet caxe
snoitisop xe
Ġet ar
Ġsruet pac
G D
Ġtna yovne
hp ro
Ġelat igid
uaet Ã¢g
Ġar ialp
Ġuoc uoc
irÃ©g la
ellia tab
Ġert serret
Ġrec affe
seuqita mrofni
Ġsiannoc er
set Ã¨
z norb
erÃ¨ ib
Ġsnia cirfa
ell eudividni
ess uom
ĠseÃ©s rev
M F
Ġert uof
Ġnoitca rtta
Ġellep ahc
ne ll
Ġell esrevinu
Ġsia bar
Ġel adnacs
ul id
er iudnoc
Ġmo N
Ġt adlos
Ġnoitnev ni
tnem elba
a usrep
Ã¯ aH
tnemm edÃ©cÃ©rp
isÃ©h da
ya k
serv uap
Ġse ff
sec Ã¨pse
ĠseÃ©t roppa
sel uapÃ©
y sa
ĠeÃ©m moner
Ġama ronap
ĠseÃ©t rop
c nalB
ei D
seuqim ihc
Ġetna rauq
serut luc
elba ilbuoni
elo ressac
sl et
elb uemmi
Ġtna tnemgua
Ġlet oh
Ġsnoitc irtser
zer ussA
irt Ã©m
Ġem mosnoc
Ġ) "
la gÃ©l
Ġtot ulp
Ġsenne R
n Ã¯oc
secne ics
Ġs rem
Ġsnia rg
Ġnois ulli
Ġstna tsixe
ĠÃ©m irppus
Ġetiaf sitas
et iudnoc
Ġua E
ys P
ĠerÃ¨it emic
Ġt ulcnoc
ua evuoN
ira ilimaf
tna siaf
ess ial
ĠâĹ ı
s udividni
ar et
snoita r
st ruoc
Ã©tis oiruc
orÃ©t Ã©h
ĠÃ©tivit itÃ©pmoc
seÃ©s oporp
Ġecnal er
Ġru ehcrehc
Ã©m rep
Ġsnoita gorretni
Ġd o
Ġnal c
Ġar dner
itra t
Ġr all
ĠÃ©tiral ocs
ila rtsua
Ġtnem ecna
yl arap
Ġeuc ebrab
Ġsia uq
sertÃª nef
Ġsdnerp pa
ĠÃ©trop par
ĠsÃ©t itne
Ġruet tem
stner Ã©hda
Ġre ubirtta
Ġtnenne itrappa
Ġes uenimul
Ã© if
Ġes irb
Ġeb ua
ĠÃ© tneiro
Ġets it
ev resÃ©r
enne ilati
ilp xE
e uob
rep xE
enne im
Ġros se
Ġseria srevda
Ġseni ep
mon ni
Ġenimret Ã©d
et Ã´c
Ġre ubirtsid
Ġei monortsag
iehz lA
noitas itamilc
rem irpxe
Ġeuqif ingaM
Ġecna illA
Ġzeya ssE
Ġla idnoM
sil oc
e neg
es oR
Ġzed Ã©ssop
r iot
Ġseuqi nacÃ©m
Ġenno t
rer oilÃ©ma
no R
Ġnu f
noita d
x uenimul
em ronÃ©
um roF
o Ã©tÃ©m
sl iam
Ã©n recnoc
Ġst nop
N F
Ġst sop
Ġsep uoc
Ġna ej
Ġt uof
Ġec nim
Ġsert nom
e igÃ©r
rues necsa
na tsi
erap pA
Ġsim A
se idalam
Ġerdna xelA
Ġeg Ã¨livirp
Ġenir ehtaC
set on
Ġt cid
Ġsia net
enic edÃ©m
ĠeÃ©r uotne
Ġegal bmessa
Ġres ep
sl ennoit
Ġela ivivnoc
Ġesser d
Ġnoita ruguani
Ġsem Ã´lpid
ennoita sinagro
lp pa
Ġog irf
Ġeriat inamuh
Ġrecnemmoc er
v resnoc
Ġrel buod
Ġselo bmys
ĠsÃ©tiv itcA
Ġo Ã©diV
Ġetteuoh lis
Ġseria ronoh
Ġren i
Ġserio n
Ã©s nep
xua e
ev il
Ġsu netÃ©d
ic aF
Ġst er
elli L
Ġreuq arc
ĠÃ© droba
Ġed imuh
ng im
ar Ã©dÃ©f
il ix
Ġruer ussa
ĠÃ©tic ilpmoc
ĠsÃ© rtsigerne
ĠsÃ©s uac
seda lam
ĠserÃ¨ ir
Ġsnoll itnahcÃ©
D H
secne uqÃ©snoc
elitu ni
euqigol ohcysp
set nav
1 8
Ġesue icÃ©rp
Ġerts igerne
ĠsÃ©t imoc
uoc s
sÃ©t uaevuon
Ġir neH
Ġela ro
Ġst icÃ©r
Ġnoitav itca
t ul
nu S
Ġsnes ser
Ġrem usÃ©r
Ġsni l
noiss es
t nop
Ġse illieucer
sc narf
Ġa f
Ġt ilpmer
ĠÃ©d Ã©c
ei nif
irot repÃ©r
noitat lusnoc
Ġnoitpirc suos
Ã©s irucÃ©s
ĠÃ© illa
Ġ eissuÃ©r
or htna
net raP
Ġset noc
RET NI
Ġne pO
c ejart
Ã» ej
Ġeru etua
Ġsf is
ĠÃ©tim inanu
g arf
st nedÃ©cÃ©rp
ĠsetÃª b
cartnoc Ã©d
elle iciffo
set silanruoj
xue icÃ©rp
Ġegats ipÃ©d
Ġsenohp ocnarf
i Z
ilo ocla
im Ã©s
ruet cel
z enno
Ġ eutats
ĠeÃ©ss ial
Ġec Ã¨rG
Ġ* *
ĠÃ©tilib ixelf
Ġd in
Ġsed ruol
Ġres ir
Ġtnad nammoc
e itraP
Ġett ehcop
Ġser ip
ini draj
sruet atceps
od uesp
suo N
Ġseg Ã¢
Ġsnois serga
Ġnal Ã©
sert Ã®am
Ġsc ilc
x as
tnem epiuqÃ©
Ġsim roh
Ġets isÃ©r
u Ã§er
R B
ekco h
ht rA
iu pmi
Ġed Ã¨mer
ĠlÃ« on
Ġrues necsa
Ġser pa
Ġen iotnA
ĠeÃ©v uorter
gruob sartS
Ġxue iciduj
yh P
irat Ã©gÃ©v
im Ã©rtxe
Ġtna ifitnedi
etna tsnoc
Ġo idutS
Ġelic aF
Ã©r apÃ©s
c ilc
Ġfita Ã©rc
mo irt
Ġerialuc sum
Ġsr isÃ©d
z eng
Ġrep artta
t reb
Ġser ueirÃ©txe
Ġnoitpirc snI
d i
em irp
0 41
Ġnoitasila nnosrep
uc er
Ġtneit niam
RE C
g reb
Ġ0 891
sia nnoc
iv arg
ĠC F
Ġtnem ila
Ġt iruos
na if
ilÃ© C
Ġer ob
Ġrer res
Ġselba if
id roc
Ġo idaR
Ġrets oob
y od
Ã©g la
n itraM
Ġnip al
em aD
Ġsrued o
Ġs ur
Ġnoita tneuqÃ©rf
Ġenu L
ug ua
in Ã©b
Ġl isÃ©rB
NA C
ĠÃ©uq itarp
Ġsenne irÃ©a
Ġset rela
ser ac
Ġeuqit naltA
ĠserÃ¨ hc
iv iR
sÃ©tilib issop
noitag ivan
s ruotnela
Ġret ibah
Ġf isulcxe
no inuÃ©R
Ã©l osÃ©D
erÃ¨ hc
Ġsre ilugÃ©r
bm arf
alc yc
Ġsed nom
Ġes ilav
l ehciM
Ãī N
Ġruen Ã®artne
Ġsre iciffo
c eb
Ġsli F
01 1
Ġst iup
tnas iffus
Ġruet acidni
Ġl ap
Ġrenno itnem
eul B
Ġ eilp
Ġesop po
Ġret celloc
Ġnoitat ilibahÃ©r
cs bo
xueic ilÃ©d
s raM
Ġela tnemadnof
utc efÃ©d
rios noB
sell eC
Ġxue itibma
Ġen icar
Ġ <
xua evuon
ib itna
set uanretni
s tem
Ġeg rebua
Ġxua es
Ġsecna tsid
Ġsecna yorc
selb isiv
Ġ ï
set ca
Ġnoisserp Ã©r
k ool
dneit bo
ec rep
ig iD
eg uoR
itse D
tnemes ueirÃ©s
Ġret uod
h da
hta idÃ©m
s urb
Ġres irotua
Ġsruet amina
nig ram
erud Ã©corp
ne K
Ġse hparg
54 91
Ġtnad Ã©ssop
u ca
Ġrid iorfer
Ġtia rappa
k oob
Ġseria Ã©lcun
Ġerut iot
sni draj
Ġzenno itcelÃ©S
Ġtneuq ilpxe
Ġst elpmoc
M G
l ituo
lum its
Ġsei ulp
es id
sem margorp
pa R
Ġsd narG
mor hc
ec rap
Ġseitrap Ã©r
ig Ã©L
ille bme
ĠeÃ© mina
Ġre irc
f log
Ġi j
Ġtnemep uorg
its alp
l em
irtap xe
Ġsnoitulos Ã©r
Ġnoitam alcÃ©r
eÃ©v elÃ©
a ra
Ġes ueiruc
EM P
enne is
c efni
no ht
Ġnoit apuccoÃ©rp
Ã©k oP
rutc urtser
Ġreda lab
u Ã§Ã©d
Ġzed nameD
er raC
Ġr g
Ġtne loiv
Ġem ilbus
pa B
ER C
ĠÃ© faC
setnas serÃ©tni
Ġses iuqer
es itrepxe
ort co
Ġtnenneiv retni
IL B
xua m
stne g
tne hc
set revuocÃ©d
ini v
Ġzer ef
itna raG
Ġxua ngis
RA G
Ġ eingapmoC
seug ol
ĠA D
s uob
ehc iffa
y hc
Ġerd nopserroc
Ġetna tsissa
emrof etalp
py gÃ©
Ġla rur
Ġ euo
Ġl esrevinu
l euxes
Ġrev itom
Ġerut sop
roppus ni
Ġet sedom
et nar
Ġar eg
Ġel Ã¢m
Ġnoitar bÃ©lÃ©c
Ġtnap uorger
ĠÃ©hc rehcer
ioc Ã©bÃ©uq
ĠseÃ©l liatÃ©d
Ġec narf
Ġ einruof
l ennoitidart
ĠseÃ©v elÃ©
Ġsno ssap
Ġecna ssia
no ixennoc
Ġsnoitatic ilÃ©F
ni nimÃ©f
Ġserd niom
eg ruoc
reuq nam
ua V
Ġres irb
om uh
ĠerÃ¨it uor
et uhc
ehc or
Ġtnemell ennosreP
sia uo
Ġelc os
ca ffe
Ġseg art
Ġtneme icnecil
Ġridnarg a
Ġ05 7
Ġel igarf
fita t
Ġno nac
Ġses ilgÃ©
rec alpÃ©d
Ġ eiuqruT
ah ij
et noM
Ġet icsus
Ġxueic aps
ĠÃ© cart
im alsi
Ġet illetas
ĠemÃ¨tsys ocÃ©
il ac
Ġer ipme
Ã©t irojam
it pac
Ġxuo neg
Ġzeuq sir
ĠÃ©tiv itcA
elb irret
Ġsnia rc
h ue
ca noM
ĠÃ©c nanif
er P
Ġsen rob
Ġl uo
ĠserÃ¨ hcne
Â ©
Ġert uen
Ġlan ummoc
Ġsno igiler
Ã©s oporp
el ortÃ©p
Ġf ueo
Ġtned netne
e nac
Ġerd uoc
ecna dnepÃ©dni
et idretni
Ġl ennoitarÃ©po
al sI
y ng
Ã©ll iatÃ©d
ita s
ipa R
Ġnoitc nas
uor T
r elli
it netnoc
Ġi g
Ġelbmes nE
ĠÃ©tiral upop
it luM
auq a
Ġres serd
ap Ã©d
sell iuef
Ġer iun
Ġstiart rop
Ġstnem ecnanif
Ġsc es
ĠÃ©ss ac
elb ats
Ġtnemel argÃ©tni
Ġev itceffe
ĠsÃ©s ab
Ġtnar ram
Ġtnat pmoc
Ġle utir
Ã©tila ivivnoc
sf irat
ei ht
s murof
el iov
oc Ãī
Ġ> >
stna dnepÃ©dni
erd uop
Ã©t idimuh
sÃ©r ged
Ã©t artS
Ġtna sserda
o ss
ga rp
ert Ã¨m
C F
ĠeÃ© gilbo
Ġs serp
ua J
SI D
Ã©r ussa
Ġen na
ut se
eug av
Ġstna fnE
Ġle utriv
Ġre iram
el Ã¨llarap
Ġsu elb
Ġt caxe
Ġez no
noitisop orp
Ġset ircsni
Ġsfita gÃ©n
se irogÃ©tac
res uma
uÅĵ n
Ġseuqigol oib
ĠA F
Ġrues seforP
Ġnoitpur retni
Ġsu pmac
Ġriol uoc
la n
nal g
Ġel aminim
ela icÃ©ps
Ġ iro
in ruoF
NO B
tÃ© M
ĠÃ© utibah
Ġert sehcro
Ġre ihc
Ġleu naM
snoit po
Ġsenno d
sel catceps
sruet as
Ġrued named
sle utca
rued nev
Ġt irruon
Ġserts nom
Ġed ag
y urb
sev ihcra
Ġehc orcca
xua erub
Ġsec nerÃ©fÃ©rp
Ġtnehc rehcer
Ġtnec seloda
Ġega yoV
Ġell iu
Ġniart ne
d op
euq aidrac
a lag
ser usem
selb uem
Ġaj ed
Ġrell A
ĠsÃ©r gÃ©tni
em sirorret
Ġz elliev
Ġa ic
sag adaM
Ġeb ruoc
Ġnar I
ĠÃ© H
mu inimula
Ġehc Ã¢l
rio rim
Ġnoitc ejni
s unnoc
Ġeug alb
nois uffid
noitc efrep
Ġtned rep
sw eN
Ġz t
set revuo
Ġtnad ia
Ġtna rtne
euq ilppa
its aB
Ġet nioj
ec nesse
Ġeunet uos
e iot
Ġsel am
ess ius
Ġelliev Ã©r
Ġeria icifÃ©nÃ©b
ĠFC NS
et Ã¢p
Ġecna netrappa
irova F
Ġret Ã©rpretni
y uG
el gna
sÃ© irÃ©f
Ġet uoc
Ġst rapÃ©d
Ġrer ongi
Ã¯ ogÃ©
ya lab
id arap
Ġre utis
Ã©t oc
Ġd nom
enno itc
Ġs mk
Ġtnet uoja
ol C
Ġeno Z
urt ua
not hcotua
Ġ, âĢĻ
Ġ eidutÃ©
h tnerap
Ġegag Ã©d
Ġsni es
tnem urtsni
ca raC
sre issod
arb monni
ruet agivan
ta ngis
tnem Ã©crof
t norf
e ifidom
Ġx iorC
til fnoc
Ġnoitu rap
Ġzeg rahcÃ©lÃ©T
noita sir
Ġreg ol
0 61
ĠenÃ¨g yxo
Ġ0 71
ĠeÃ©l utitni
seuqit irc
Ġstnat tabmoc
re ulovÃ©
xua esÃ©r
Ġlab rev
en ias
ar reT
ip Ã©p
Ġrer Ã©hda
Ġtnass ilpmer
ret ivÃ©
Ġes ial
Ġne po
Ġtne iam
Ġess ob
id E
Ġer ussar
Ġrehc nelcÃ©d
Ġa V
set siruot
ĠtnerÃ¨ g
Ġtne llieucca
uq nilÃ©d
ĠÃ© N
Ġrat ava
siof etuot
ren i
Ġel Ã¨d
Ġsm ufrap
Ġeila rtsuA
s ul
z eg
ebut uoy
nik ruB
Ġsecna niF
re K
Ġr ag
Ġetna ssiorc
snoitac ilpxe
el acsif
Ġse hpargotohp
ul ep
tna ved
on Ã©g
Ġren iffa
ecne namrep
Ġtem reP
ĠÃ©t upÃ©r
io B
Ġelbat pecca
ĠC EVA
Ġrinev noc
tat ibah
o oC
er ialp
Ġtnem Ã©n
ssa C
euqit naltA
Ġsno i
Ġep pirg
Ġs serP
Ġstiaf sitas
Ġretne itap
Ġrueh lam
Ġset reC
Ġd roccA
Ġelbis iap
Ġsc nab
Ġz eis
o irb
sno va
nimil Ã©rp
ĠÃ©t nocar
NA RG
noit ulovÃ©r
Ġsf elc
Ġsno siD
Ġeru vel
Ġsib annac
Ġem uayoR
Ġzet pmoc
ĠÃ©c rof
initsel aP
el C
art noC
ei nom
Ġedut ilos
Ġnoitac ilpitlum
ned ivid
Ġsiar uas
et ruoc
Ġsnort ap
Ġsia uO
ss itnerppa
st alp
enno itcelloc
Ġzeir emia
ul B
) ^^
nÃ© rod
ĠsÃ© nema
Â ®
set sila
Ġol os
Ġre icna
Ġeb rab
Ġert iT
itnem en
Ġxua csif
l eudividni
Ġstned icni
sna f
ĠB N
eis Ã©op
Ġev issergorp
Ġseuqigol ocÃ©
Ġs red
ĠsÃ©s rev
ĠÃ© sia
ra ta
ĠÃ©tic itnehtua
o norp
st ra
Ġr itrevnoc
ĠerÃ¨ ll
Ġsec uod
Ã©s ila
up urcs
in iar
Ġsru eg
Ġ8 791
ral C
Ġses od
Ã¨rc es
Ġtnas iudÃ©r
Ġrep icitraP
tnas uma
Ġ ilpmocca
Ã© mo
Ġem ualliuG
Ġeuqnoc iuq
Ġelba nerpmi
re ipoc
ĠEL LE
Ġre illeptnoM
up pA
Ġd nahcram
og irf
Ġsu dnetta
ĠeÃ© nnoissap
er res
ĠÃ©l ov
la noigÃ©r
Ġselb Ã¢c
Ġsnoita g
ĠetÃ¨ rpretni
Ġsnoita silanac
ser Ã¨m
Ġsar rev
Ġet ilÃ©
Ġsen icsip
suos iB
Ġtio rt
um mi
Ġli eiv
Ġst uob
Ġert noC
ĠeÃ©n recnoc
ĠseÃ©r Ã©disnoc
se z
ell et
â ĸ
Ġm ah
ĠeÃ©t iart
ser ias
noit omorp
Ġst iucsib
bm E
ĠÃ©tis orÃ©nÃ©g
iuq se
Ġsiaret iahuos
op yt
Ġzet po
Ġed am
RUO C
Ġserut inruof
Ġseria roH
o dne
arg im
Ġtnemel at
Â ł
noita tneiro
noita si
sÃ©v elÃ©
ĠÃ©n Ã®artne
nimod ba
ĠsÃ©m ina
Ġca motse
ren E
Ġelop ortÃ©m
seuqi nortcelÃ©
Ġtnemev itceffE
ĠÃ©tilib itapmoc
itsab Ã©S
Ġenno s
ĠserÃ¨ p
segas yap
Ġecnar vilÃ©d
euqihparg oÃ©g
m ac
ff is
tner uaL
Ġni ccav
reg uob
sess alc
Ġc ar
ulla h
Ġsnoita rtsinimda
ĠEL B
Ġret lusnoC
Ġre yolpÃ©d
Ġc aL
Ġeb uTuoY
et silaÃ©r
Ġsesue igiler
sev arg
ru ejam
Ġzeif irÃ©V
noitc es
Ã©t ilibom
Ġsre ih
riov ecer
Ġtnemev Ã¨
snois icÃ©d
Ġs eva
xuac idÃ©m
Ġr oj
u caj
Ã©l rO
Ġses set
us nes
ilo raC
stnemet rappa
Ġesia nopaj
eir eg
acid Ã©d
Ġsed ir
snoita llatsni
Ġdne csed
st rof
l uaP
Ġsru ehcÃªp
Ġsno ya
sl up
Ġsno tnesÃ©rp
lp iD
Ġseuqi norhc
Ġei nohpÃ©lÃ©t
Ġsruet amrof
Ġeir yS
se itros
Ġelbat iuqÃ©
Ġnot gnihsaW
Ġetna viv
Ġes irg
Ġret ehcA
Ġenno ruoc
ecne ulfni
ĠÃ©tilat rom
sed utibah
U NO
iaf sitas
nes Ã©d
kc in
ĠR AP
Ġerialuc atceps
Ġâ ľ
eg nev
Ġar egnahc
Ġia rttem
se imonocÃ©
stner rucnoc
ts ix
Ġtnenneiv noc
Ġel ardÃ©htac
st Ã»oc
Ġedo M
sre ir
Ġy g
Ġsell itnel
sec narussa
o ip
Ġtnahc Ã©m
ĠseÃ©n noitnem
Ġeuqitam Ã©tsys
ĠÃ©da usrep
Ġnoital fni
noit idart
Ã©tÃ© id
olp Ã©d
Ġsnoit ibma
Ġleir otut
sÃ©tiv itcelloc
et cerid
ser utc
Ġsnom ia
Ġrer vilÃ©d
Ġtnen itrep
Ġsnoitac idnever
Ġsr it
Ġdne fÃ©d
ĠeÃ© nissed
ĠÃ©v uas
Ġla nimret
Ġres reV
erb moc
Ġnoita irav
Ġxu eirÃ©t
Ġtnem riffa
Ġliev Ã©
Ġtnem elli
o morP
sÃ©tilib asnopser
Ġerut aÃ©rc
Ġtnahc aS
03 1
er ugif
ac irac
pec s
eg rog
ĠS RU
selbat rofnoc
ir ts
Ġtnennerp pa
Ġset op
rt surf
en id
Ġnoitc idiruj
Ġsnol eppar
Ġseuq itnedi
Ġsnoitc arfni
Ġx edni
Ġsnois nep
egall iuqam
eir yS
Ġsno issap
sno Ã§af
Ġnoitpec Ã©d
om s
euqin natirb
Ġtpirc s
Ġeuq isuM
nim Ã©
Ġem ag
Ġstna s
Ġ eitraP
nol op
Ġecrof fe
Ġsegas iv
tne it
Ġc its
Ã©ht opyh
euqit po
Ġerviv er
Ã© utis
Ġsetna ss
s pmahc
Ġreuq ilC
Ġetne uqÃ©rf
Ġdra rÃ©G
ot yhp
ted ne
Ġtner isÃ©d
Ġtio Ã§repa
Ġeu eilnab
Ġert Ã¨mo
ess iur
ong apsE
sw odniW
Ġw ol
Ġsec nal
Ġelba id
erd niojer
Ġtac ilÃ©d
f rus
ĠÃ©n ruoter
enia ropmetnoc
iv Ãī
Ġem alcÃ©r
Ġxu apicinum
Ġx iS
Ġsus nesnoc
nor hC
ĠsÃ© bmot
selb alevuoner
ĠÃ©tiso nimul
Ġsnoitav itom
Ġt ram
Ġsetna sopmoc
Ġno j
Ġard nopÃ©r
Ġf ios
set uor
Ã©t itnauq
Ġxua tÃ©gÃ©v
Ġs iD
Ġrel umrof
ĠÃ©tilib at
Ġif iw
eg noc
hp os
cir tsid
Ġess arbme
Ġg nits
Ġtna ssiannoc
Ġtnass itnarag
li M
Ġc irÃ©d
nal ib
seÃ©n recnoc
Ġtnemel agÃ©l
iurt ua
Ġsen ielp
rueug ir
Ġessert Ã®am
noit irtun
sevita rtsinimda
er iF
sed ipar
isio L
Ġtnehc iffa
j aM
Ġtnemep uorger
oo z
snoitisop orp
Ġnos irÃ©ug
uss it
evit inifÃ©d
Ã§ nemmoc
y K
sno snahc
Ġua essiav
Ġt t
set ÃĬ
ep S
eria las
Ġneir Ã©a
Ġrein reD
Ġeir emradneg
ĠE I
Ġreng iomÃ©t
ue id
Ġsen il
id nober
tnemeg uj
noita srevnoc
Ġeria rtxe
Ġer iter
ĠaÃ§ nemmoc
Ġ itÃ¢b
Ġrem mon
set ad
Ġt uog
Ġtnav iuS
tne tsixe
Ġerv iop
zet tem
no ga
la ro
Ġseria iciduj
Ġey ab
nohp ocnarf
Ġega un
re iH
rev ir
ne J
eg leb
tne C
su ba
ov arB
Ġec ilA
Ġret eP
ĠsÃ© iram
l ev
Ġs ad
Ġt up
etne namrep
Ġeug ab
ec nivorp
ruet ca
sl erutluc
Ġen ihc
ĠL RU
Ã©ng ag
ĠxueirÃ©t sym
co id
Ġesueic ilÃ©d
sir ap
seÃ©p acidnah
Ġet ropme
ib aC
ll iac
sÃ©t ilauq
Ġtne tnemgua
Ġnia cirfa
Ġni rb
Ġtne iart
Ġp op
Ġett evan
Ġerdnof noc
Ġelli nav
et niop
t rot
Ãªrp pa
Ġnoitall eppa
Ġst iteP
seÃ© irav
y ks
Ġsess arret
Ġ' '
uo bme
sl ues
Ġnoitcurtsnoc er
serÃ¨ ilucitrap
Ġre hC
Ġsecne uqÃ©s
Ġrepm irg
tnemet iafrap
os reP
Ġerus u
d iordnA
Ġecirt c
tne ilC
Ġsno ipmahc
pa dA
Ġh allA
Ġsnos iarvil
Ġem oH
oo oo
Ġt acidnyS
Ġs irpertne
Ġt erger
Ġtnemed nof
ert Ã¨maid
Ġrio N
selp itlum
Ġsiahc rehc
Ġt nurpme
nis iuc
ĠÃ©uq arc
U H
Ġtial eppa
u K
UT ARG
Ġno ht
un Ã©p
ĠerÃ¨ sim
Ġr inum
es roC
t irp
eia nnom
Ġeluc idir
Ġesueic aps
il omÃ©d
sl os
Ġnoitc efrep
ĠP C
Ġnoitar Ã©lÃ©cca
Ġtnemess iuonapÃ©
s tuaH
Ġsia nev
Ġtnessia rap
er D
rahc Ã©
Ġre ilp
g ip
Ġres uerc
Ġsen ipoc
ef ac
Ġla ir
Ġset Ã®
Ġnoit itÃ©pÃ©r
Ġep uort
p uol
uaet Ã¢hC
Ġtnor el
Ġset nialp
Ġress ahc
Ġeu dnetta
Ġardneiv er
Ġc ilbuP
is il
Ġnia duos
Ġsd roba
Ġsl eunna
Ġseriannoit seg
z an
o re
Ġav el
Ġtnemet Ã¨rcnoc
sets ip
rtne cÃ©d
Ġnong io
l en
ĠeÃ©ss alc
Ġst ejart
Ġem ussa
Ġrellia varT
ĠsÃ©r apÃ©rp
Ġselli eba
dnet niN
e ifirÃ©v
no tÃ©b
cat ni
Ġrer uovas
( .
Ġseg Ã¨lloc
ega kcots
il uoc
selba snopser
s tset
Ġtnemec rof
on rop
Ġell emef
ser f
Ġel ia
Ġsnoeg agne
ĠseÃ©g agne
Ġse k
ĠerÃ¨ imrifni
NE C
Ġno cal
Ġseuqigol oroÃ©tÃ©m
Ã©d ipÃ©
Ġl er
tnemell erutan
iro tsiH
Ġtnor dnerp
Ġrer ipser
Ġstnemenno rivne
Ġsel ibomotua
eno brac
NA S
Ġett ev
ba B
re iV
ol omoh
Ġnom uas
ĠÃ©t cepser
Ġtnemm erÃ©ffid
en ilpicsid
st nar
ĠR I
ĠÃ©t ucsid
ĠerÃ¨ir reD
ĠsÃ© ugÃ©lÃ©d
Ġelitu nI
Ġem aG
Ġtne ulovÃ©
Ġtnemehc uocca
Ġrel bmesser
Ġnoita tÃ©gÃ©v
Ġnoita lupoP
noita rapÃ©r
Ġtnal eppar
rueis nom
Ġar irvuo
Ġtned nepÃ©d
Ġs ilpmer
Ġsetna t
Ġnet ulg
Ġre yolpme
ĠsÃ© utibah
Ġruet atceps
euqita rcomÃ©d
s tabÃ©d
Ġtnar vuoc
Ġtem snart
Ġ/ /
serÃ¨ tirc
Ġsert nocneR
Ġev issam
Ġzess aP
us sid
snoitac inummoc
ega yotten
ff uotÃ©
Ġxuer isÃ©d
irÃ©ts ym
Ġeid noforppa
Ġyt iC
oow yll
eil of
ef nisÃ©d
om Ã©D
Ġneic nA
ssim moC
ser u
ĠS A
a naM
ĠÃ©s ivid
ĠeÃ©n nA
Ġs cohc
Ã©g art
Ġtnet ivni
Ġsd namella
Ġ) âĤ¬
Ġs un
ne ga
Ġredrag evuas
ar ep
Ġsem meF
lp uep
rett iwt
Ġseig uob
le hpro
Ġes ued
s y
sf uÅĵ
ecna tsisÃ©r
ĠseÃ©s ab
Ġru ev
Ġtnemelba Ã©rga
Ġretnem irÃ©pxe
seuq in
serp Ã©d
en is
Ġret ceffa
apic nirP
irp ac
Ġno yarc
Ġtnemehc atta
Ġsuo siB
ĠstnemevÃ¨l Ã©rp
serÃ¨ itnorf
Ġtnor evuort
ĠÃ©tila nif
ia B
ut S
rah P
ru k
ĠÃ©tivitca Ã©r
Ġstna sopxe
rec Ã©d
Ã©s ilaÃ©r
ĠerÃ¨ fnoc
sÃ¨rg orp
Ġnoisiv Ã©rp
es ialgna
Ġse iroÃ©ht
Ġtnemes necer
ĠedÃ¨c orp
Ġrenno D
Ġeniaz uod
Ġets in
ĠÃ©l buod
Ġtne sserda
Ġd ral
n ur
oj im
Ġet it
ev ac
Ġnil uom
ubirt noC
RE B
Ġreit uor
Ġstnet Ã©pmoc
otno Ã©d
p on
Ġeu Ã§er
Ġl lup
itu O
ig eR
ilix ua
Ġell ennoitarÃ©po
Ġerttem Ã©
Ġtua ssa
ug ia
Ġuv er
ĠemÃ¨ op
Ġec nirP
Ġtnet pecca
Ġsnas itrap
tne iar
ub Ã©n
noit inifÃ©d
noitat sefinam
ats Ã©d
Ġia uq
Ġzel eppa
Ġxu et
ser ud
Ġse iab
Ġ ðŁ
Ġne isirap
ita mrofni
a inim
Ġseigol ohtap
ba C
noitat serp
ĠeÃ©m itse
ĠseÃ© Ã©rc
elb on
Ġrehc orcÃ©d
Ġtneng iomÃ©t
ess iab
Ġet nes
em es
yov nE
rev uA
serias rev
ĠsÃ©p ucco
tnem engapmocca
Ġeug nid
ial ov
ĠeÃ©g irid
Ġ!!! !!
eÃ© sil
Ġet cap
Ġset iuf
/ [
eip oc
er om
Ġsro ines
Ġy xa
ue M
itrap moc
o Ã©rÃ©ts
ni lcni
luc irtammi
ip snart
e namlusum
Ġsnoitc erid
isnets u
Ġeu nitnoC
Ġretrop par
Ã©g gus
t ressed
ĠsÃ©s iv
Ġt itÃ©ppa
ĠÃ©uq inummoC
Ġsrueir Ã©tni
Ġyen siD
Ġsell er
Ġtnav ircsni
eug ord
ĠÃ©uq atta
Ġzert nocner
ĠK O
Ġni elP
Ġtnem eugnol
erut uoc
its id
Ġsre yol
e Z
Ã©t Ãªrra
Ġsru en
Ġruet amrof
Ġnoit uac
gno L
Ġem Ãªrpus
ĠsÃ©d roba
rt ni
Ġar iga
w on
euqits atnaf
ut xet
Ġsegal labme
ne yotic
Ġev itsuahxe
Ġtnauq ilpmi
eng a
Ġtnemelle utcA
Ġseuq Ã¢P
g iam
Ġz eunitnoc
t nioj
le M
Ġli ued
Ġse ioj
Ġelb iB
Ġtnar uatseR
t resÃ©d
tnemeg anÃ©mÃ©d
Ġta nasitra
elp pA
Ġsnoitacol la
o iduts
stnemeg ol
Ġet uojar
Ġsno tser
Ġselba rud
Ġerd nialp
Ġn itnelaV
itrap Ã©r
uh C
sno isiv
Ġnod rap
ĠcirÃ©d Ã©rF
ekc it
s rion
ba g
Ġega uq
ip iuqÃ©
at ic
Ã©n yg
Ġegal liV
uc xE
elli uod
Ġdnet Ã©rp
ecne rapsnart
rt co
Ġ enabac
Ġruet coD
ssen isub
iar Ã©nuf
c em
stnemess ilbatÃ©
Ġstnem eppolevÃ©d
secna nif
eriat inas
Ġsell iugia
noisserp Ã©d
tnemenno ba
Ġrir Ã©ug
Ġp cb
Ġrec neulfni
Ġren ived
P V
sf ueo
snois nemid
Ġlen nut
Ġess uort
Ġseuq Ã¨hc
ĠD H
leir ruoc
Ġel argÃ©tni
erÃ¨ gnartÃ©
ĠB IP
Ã©t ilat
x iA
U M
dd uob
im S
Ġsed roc
ta idÃ©mmi
Ġed nagaporp
t oh
anÃ©m A
Ġtiu nim
Ġrer oproc
nits etni
ek ar
ih ih
Ġy uG
selle itnesse
tna ngiesne
Ġeuqim alsi
Ã©n lab
tnemev it
ĠsÃ©t iarter
Ġec a
ĠeÃ©sop Ã©d
... ?
Ġstnem esrev
Ġnoitan madnoc
s lierappa
Ġa tad
ĠseÃ©sop xe
Ġsia F
Ġnoita rutcaf
ĠsÃ©hc uot
Ã©it iom
Ġer aG
Ġsruess ahc
Ġsel apicinum
Ġehcorp er
st catnoc
Ġtna tsnoc
Ġsd nahcram
ne L
Ġtiart xE
ĠeÃ©sir ucÃ©s
Ġnoitila oc
sav Ã©d
ĠerÃ¨ icnof
Ġsetna tsixe
ru A
iuq A
elas ur
ser atceh
ei P
Ġre irporppa
Ġfita rcul
Ġnoitcurts noC
Ã©b Ã©uQ
Ġt ilÃ©d
Ġseuq itsemod
Ġxua yut
stna hc
Ġares sial
Ġt rod
Ġ eifidom
seÃ©n Ã©ryP
Ġregrahc er
h aB
Ġzenno D
Ġsnong io
tnemess idnorra
ĠÃ© langis
rerap Ã©rp
ĠtnemevÃ¨l ne
Ġemrof inu
enirt iop
eria tnemÃ©lpmoc
ĠelÃ´ rtnoC
Ġtnanev ed
Ġelba silitu
sio B
as rev
er vuo
Ġselb uod
ba S
Ġs ivres
Ġeuqi nagro
Ġ7 991
Ġsc ehcÃ©
Ġnoital itnev
Ġb molp
Ġs siM
Ġrev itluc
Ġsen izagam
Ġset niet
Ġerd ni
Ġet cerroc
Ġsno imac
Ġse ib
Ġnoitad nammocer
issim Ã©d
gÃ©l la
Ġsia pÃ©
ni es
et Ã®ob
seria dnoces
Ġt niarc
nal ta
uc itraP
ruet ammosnoc
Ġerttab Ã©d
Ġsela tnemadnof
sta rtnoc
ic Ã©rP
set nesÃ©rp
t orf
so H
Ġtneuq Ã©rf
Ġsnoita srevnoc
Ġsec necil
Ġres o
Ġl ennoitcnof
ecnar ffuos
Ġnoitam riffa
y orb
sav oidrac
Ġstra uq
t al
erio ngiab
Ġc aB
ĠserÃ¨ ib
Ã© icÃ©rppa
Ġset iob
Ġtnemehc orppar
Ġxuer Ã©nÃ©g
ru sem
ĠtnevÃ¨l er
elasur Ã©J
Ġsel arÃ©nÃ©G
enne Ã©poruE
ĠST B
Ã» b
ed namella
Ã¨lÃ© H
ell er
t ircsni
Ġsia uo
iv Ã©d
Ġsehc namid
Ġue iL
Ġsenne iditouq
Ġseng iesne
Ġerio f
Ġsru Åĵs
Ġegat rop
Ġet ueparÃ©ht
iv E
Ġnab ur
albmes iarv
Ġelbat irÃ©V
ilc uob
Ġseir elag
Ġnoita niccav
Ġnoita xaler
ĠeÃ©m rA
AT S
lup orp
dne gÃ©l
ona ip
Ġnit elluB
ita lov
Ġesop Ã©d
d nopÃ©r
ĠseÃ©t imil
suo f
ĠÃ©t lucaF
Ġa nruot
ĠertÃª rp
t iB
ue on
G T
sel an
Ġua enna
sru elliavart
Ġzet ivÃ©
Ġno lliuob
ĠeÃ©p Ã©
Ġsnoita sirotua
snart er
Ġtnemenno siar
anÃ© mortcelÃ©
tam rof
Ġtned urp
Ġep ocs
d argÃ©d
iu rtsnoC
Ġerial C
Ġtned isÃ©r
ĠÃ© tnemirÃ©pxe
Ġstna vonni
ilo J
Ġesiv ed
Ġset iusruop
Ġten ibor
Ġsreil acse
pirc s
ĠeÃ© icÃ©rppa
cep S
sÃ©s op
Ġstnemeg rebÃ©h
Ġeria tnemelgÃ©r
Ã©mun Ã©
u dner
no ffe
aa aa
ĠeÃ©sop mi
ĠÃ©tic apaC
ĠsÃ©m ra
Ġzer uas
su M
Ġso iduts
Ġeriannoit ulovÃ©r
ĠsÃ©s il
Ã©tir al
s puoc
Ġin um
hcorp er
ss uop
er ra
Ġad icÃ©d
f uot
Ġs irb
Ġsel ip
Ġst iahuos
Ġfit inifÃ©d
Ġnoit om
ics o
Ġ" ...
Ġel uoc
Ġsnoit inif
iov noc
O J
ba b
Ġegrahc er
t icÃ©r
Ġsnoita ll
seuq inu
Ġnoita snepmoc
e em
oir anÃ©cs
Ġselbat pmoc
Ġehc av
Ġtned nev
Ġeuqits iugnil
Ġ5 991
rot c
ĠÃ©t ejer
stnec seloda
iw S
Ġsrio vas
Ġeuq olb
ru tan
ed rager
ĠserÃ¨ per
Ġec nonÃ©d
Ġsela tnemennorivne
Ġeg roeG
Ġre ucavÃ©
Ġtia yorc
er uemed
et iuf
Ġrep uorger
olp xE
eÃ©t rop
Ġstanno ipmahc
ed roc
s enno
E NI
os nes
ĠÃ©t erÃ»s
Ġeurc ca
Ġseria tabilÃ©c
Ġtem Ã©
Ġet uas
tna ssap
eÃ© narretidÃ©M
Ġstiaf rof
sehc Ã¢t
P FA
Ġsiva Ã©rp
ar ua
Ġrio rret
l eg
l apicinum
Ġelle basI
Ġni k
Ġsnot rap
Ġsed noforp
Ġm liF
ĠerÃ¨in nab
tnemer tsigerne
Ġsev iv
o irt
Ġsell evuoN
AR V
Ġsell eirtsudni
ett ed
ĠsÃ©r casnoc
ĠsemÃ´ ra
ĠsetÃª rp
Ġret Ã©iuqni
tnemmediv E
Ġsiar F
Ġrevitca sÃ©d
Ġsev itcelloc
ĠNOIT C
ret cepser
sid ahij
Ġrev irp
Ġniuq uob
Ġel iuH
ĠsÃ©uq inummoc
AM ROF
srue nerpertne
snoita rÃ©po
id roC
Ġsna l
Ġtrap Ã©D
Ġseunev ed
set nat
s nummoc
seuqitam Ã©htam
Ġenne yotic
Ġret pac
A I
seria roh
itÃ¢ B
Ġsup o
not rac
Ġru euqniav
ots ip
Ġxua tnemennorivne
seuq id
Ã©lod noc
ĠeÃ©lla V
g ruobmexuL
Ã©h ni
NA RF
Ã© nod
secna Ã©s
Ġseu netnoc
ol ep
ĠtnemÃ©s serpxe
ĠÃ©tinret am
6 891
yot teN
Ġnoitail isÃ©r
Ġ000 4
dnof alp
re is
Ġsne idanaC
Ġenis iov
seuqits itats
Ġselb arbmonni
Ġlag Ã©r
ĠÃ©ll oc
tnemes ruobmer
Ġeir t
euqid ul
em adaM
Ã©l b
Ġnoit Ã©rcsid
Ġeug il
Ġsap mys
eug ro
Ġxuev ren
Ġer uotne
Ġ ffo
Ġtnel Ã¨vÃ©r
Ġer apÃ©s
alc xe
se uor
Ġtnes irovaf
ni sac
kc its
ed imuh
ecne idua
sÃ© icossa
Ã©t orP
ro lpÃ©d
os bo
Ġtnes iffus
ta N
Ġres ucxe
nor caM
nar Ã©v
eÃ©t pada
Ġtanno ipmahC
ĠÃ© iram
OR T
ei hposolihp
ĠtnemerÃ¨ icnanif
Ġstned isÃ©rp
Ġtna nimod
ell euq
irÃ©tam Ã©d
Ġir Ã©hc
n y
Ġf eiler
Ġtneme uogne
ess iac
ĠsÃ©p acidnah
euq ito
ĠsÃ©t od
et i
yla nahc
op A
Ġtnes ufer
erd nA
si nocÃ©rp
fita rtsinimda
Ġret icilÃ©f
euq a
Ġet uoR
ĠeÃ©d icÃ©d
Ġdra ll
Ġselli G
d uop
elba uqramer
g immi
Ġsirp Ã©m
tnemmediv Ãī
ec nec
ĠÃ©nno tÃ©
Ġed raG
Ġxuerueh lam
ĠÃ©vel ne
Ġze ifirÃ©v
sno ll
Ġtid narg
sem ral
Ġnoitat ceffa
sen neR
xua noitan
Ġtnemev arg
reh S
su B
Ġrerob alloc
sec ipÃ©
iss alC
lagÃ©n Ã©S
8 891
Ġeu dnev
Ġela yor
Ġrer uatsni
ad iloS
Ġsesset iv
tnemel raP
Ġsud rep
h k
la w
ov arb
Ġdrav eluob
PM I
zes neP
iva X
Ġelp irt
ĠsÃ©t ehca
euq sid
ĠerÃ¨ vÃ©s
Ġop xe
s olc
irt iv
ĠenÃ¨m ar
euqim reht
o nac
itneg ra
Ġres itÃ©rcnoc
ir ab
Ġrero ilÃ©mA
Ġnoitat S
Ġ eigÃ©r
ooc la
ni ru
Ġehc at
ĠÃ© ifirÃ©v
Ġstrop S
erbmo N
e nat
Ġeib arA
Ġnoitat ardyh
euqig Ã©tarts
Ġsa L
Ġsr ia
Ã©s inagro
Ġc p
sÃ©m ref
sÃ©n g
erio b
Ġ02 2
seg alp
Ġtnemet acilÃ©d
ec necil
Ġ ilppa
Ġsio nruot
ĠeÃ© rtsigerne
tnev A
z em
Ġsedic itsep
Ġseg adnos
Ġselle iciffo
Ġed atS
Ġrer ugifnoc
Ãª roF
Ġt sa
ĠsertÃ¨m itnec
ia rp
Ġerutluc irgA
Ġsteuq ap
Ġda eR
Ġsehc rehc
sreg asu
Ġet acilÃ©d
elliev Ã©r
Ġ eihcrarÃ©ih
Ġsno silaÃ©r
Ġsret roppus
Ġruetas inagro
al G
Ġxue icuos
Ġxue igitserp
Ġehc nalB
Ġnoitar Ã©dom
Ġressap er
rut iov
Ġsett ob
alÃ© H
it seb
eria c
if isrevid
nong im
al A
Ġselba lav
noitisop moc
ekar raM
Ġsid naT
Ġ uot
etÃ¨ baid
tek sab
sÃ©r Ã©fÃ©rp
Ġar inif
Ã¨lla raP
sita motua
sel agÃ©l
Ġse Ã©bmot
Ġzert nE
Ġtre ffuos
ic uas
ec netÃ©pmoc
l eunna
seÃ©s op
dyxo ni
rer uelp
Ġreuq itirc
Ġsruet adnof
elbmes ser
ts isrep
Ġ6 991
Ġset ircÃ©
noita tnesÃ©rper
Ġtnoret ser
Ġ) Â°
inum Ã©d
ĠÃ©t ceffa
Ġseria tuanummoc
Ã©t rev
Ġz ertne
Ġsno ziroh
eg ilbo
ec nas
Ġell es
Ġtnemm aruoc
Ġtnal eppa
Ġua yon
ER P
Ġren im
ĠrirÃ©uq noc
Ã© moh
Ġsno russa
itca sÃ©d
Ġnohta ram
Ġtna tnet
hpua d
ĠsÃ©r it
Ġam abO
Ġsep mal
n ub
gnip pohs
l utipacÃ©r
Ġyxa laG
yen siD
el agÃ©l
ix el
Ġl c
Ġsell ub
Ġnoitapic itraP
Ġ, ...
eg agnal
Ġsre im
Ġsett ecaf
irc opyh
Ġtne icÃ©rppa
Ġetnof er
hp orp
ert ipahc
el uos
eriat isrevinu
eg nig
Ġsio r
Ġar ellieucca
Ġrehc atta
Ġrehc narb
euq noc
Ġes irtiam
Ãł jÃ©D
ĠÃ©tim Ã©rtxe
Ġet ceffa
ell irg
Ġem o
Ġl le
Ġua yut
ĠeÃ©hc uot
eis iohc
Ġsnoita ulavÃ©
Ġs lavitsef
Ġsnot rac
ĠÃ©hc orcca
es iunem
z euq
ma j
eÃ© ni
Ġset cetihcra
Ġtne rud
ib A
erÃ¨ P
Ġt l
Ġtnenneit uos
** **
ret lusnoc
Ġrec art
ĠÃ© ssiab
ĠÃ©r Ã©nÃ©g
rod o
h W
Ġsecna ssiup
red rat
Ġres irailimaf
Ġrek op
s mon
eir oÃ©ht
noit ullop
Ãª R
rep s
Ġeb olg
seuq itamilc
b rosba
Ġtnas rev
stnem ecalpÃ©d
Ġtne ruoc
s namlusum
ros Ã©rt
Ġru ellia
C IT
stne idÃ©rgni
Ġsd rep
ec iV
Y S
euq ihtÃ©
ettel iot
elac isum
rio N
pa rtta
Ġsecna caV
ei na
o mo
Ã ¤
Ġr od
Ã©n Ã©S
Ġtiat iahuos
Ġelb moc
tnemerÃ¨ ilucitrap
euq itnehtua
ĠeÃ©r cas
ĠER BM
Ġelat Ã©gÃ©v
Ġ enoc
seg atÃ©
Ġet negilletni
Ġtnem ulosÃ©r
T SE
Ã©m arap
Ġehc Ã¨lf
Ġecna d
Ġiar dneiver
ruet av
fit isopsid
Ġsnov irra
eria tuanummoc
ecÃ©d Ã©rp
Ġseu dnev
es ueirÃ©s
ropa id
net ulg
rue nerpertne
Ġeuqim Ã©lop
rinev rap
ic ruoccar
Ġsnois nemiD
ad Ã©rp
Ġsem ref
Ġehc nep
snas itra
Ġnoissim Ã©d
ne uq
re ifidom
Ġerv Ã¨if
Ã©lf er
Ġstnem irtun
Ġl ev
Ġxuat ipac
ĠeÃ© irporppa
ĠÃ©ti Ã©hcnatÃ©
Ġ eifirÃ©v
Ġen rutcon
ela noitaN
imar yp
Ġses ualc
Ġser uejam
Ġniam eD
b al
Ġeta nobrac
Ġsd nats
iss aP
noit ucÃ©xe
Ġxu el
Ġela icoS
Ġtne silaÃ©r
la ivivnoc
Ġert ibra
ort a
ĠemÃ¨it pes
Ġtna dnet
enÃ¨ monÃ©hp
seg Ã¢
Ġnoit rop
en O
Ġ002 1
r issuÃ©r
Ġzen igamI
Ġep uocÃ©d
ĠF DE
Ġtnet ropmoc
t iffus
sela ilimaf
Ġre itra
Ġes onpyh
Ġseriot civ
ĠÃ©tÃ©irporp oc
B C
Ġseriam irp
Ġre ulas
Ġse xif
se J
Ġsnoir es
Ġen ital
iurt sni
Ġelbisiv ni
uo N
Ã© ralcÃ©d
Ġes iuqca
Ġtnadnep Ã©d
serial upop
stnemen Ã¨vÃ©
D V
Ġet icni
Ġeht ym
tnem Ã©m
or roc
uol eda
Ġtness isiohc
rem a
seuqits iruot
ell es
Ġselba ubirtnoc
Ġsel iot
ruet idÃ©
Ġare unitnoc
sruoc er
Ġtnem Ã»d
imÃ©s itna
em o
oid i
Ġtnemelb isnes
zz up
Ġnocal f
Ã Ĺ
t ooF
ĠÃ©uq ilpmi
EVUO N
tneg illetni
Ġnoitat on
Ġselbmes ne
ĠseÃ©s u
ĠÃ©sser gorp
Ġsnioj er
euc ebrab
Ġeriat on
Ġel angis
noit nevnoc
Ġ eerF
ega un
Ġress aP
sne is
Ġses suo
Ġemm alf
x ip
eid namroN
etna xios
serv uÅĵ
ĠÃ©tiv isulcxe
Ġsid emas
er dner
xua eB
Ġer ussuahc
Ġet poda
ĠÃ©t imitigÃ©l
Ġev itcep
su nob
Ġse inu
ĠeÃ© ifilauq
Ã©g nol
Ġla icoS
H D
ĠetÃ¨rc noc
euq igolonhcet
Ġecne icS
Ġeio rp
Ġnoita nimod
r ennoitcnof
no ts
Ġser uss
Ġnoll ivap
Ġelba egilgÃ©n
noit pur
ĠÃ©t nalp
at ad
Ġsedutit pa
uoc uoC
rova fÃ©d
uen im
set nal
Ġsecna un
n iturcs
Ġes ialp
Ġa zzip
si V
Ġulos Ã©r
Ġuae B
Ġsem al
Ġres olpxe
Ġtnemet sefinam
¸ ı
Ġtnaeg atrap
Ġtnemma dnepÃ©dni
id arÃ©
Ġst ercnoc
li esnoC
NE G
Ġtnall irb
Ġset nam
Ġsot ohP
Ġsreg Ã©l
si w
Ġnoitp rosba
Ġettem rep
el et
itrap mi
Ġel amina
ssa bmA
Ġett er
na lab
ĠerÃ¨ lag
Ġsed iuqil
Ġet ropmer
so B
Ġstnet noc
ini ffa
t iucric
NI F
eg ad
ro pmI
uop Ã©d
seni Ã©torp
Ġnoitarap Ã©rP
ro jam
Ġtner vuocÃ©d
ra w
Ġruot uA
la F
atÃ© icos
euqi xeM
Ġstnemer tsigerne
ĠÃ©l bmes
Ġsne iditouq
Ġtnem inifni
Ġni gne
Ġnoita ssac
Ġserut revuo
rem rofni
seug nol
Ġeunet bo
Ġsu neter
Ġtnor ennod
SI V
ĠÃ©t eniarevuos
ert uO
Ġehc raM
re ica
Ġseuq iroÃ©ht
Ġeriov I
05 91
Ġrue nerp
Ġstne icsnoc
Ġnoitasir ucÃ©s
Ġreuq sir
ruess iapÃ©
Ġel rep
Ġren ibmoc
Ġet peda
Ġtnap ucco
ess iarg
Ġtnemela niF
eug olaid
iah uoS
Ġtnav resnoc
Ġems icar
Ġos reP
Ġess enueJ
ĠT C
noita rtnecnoc
tnemet nel
Ġg nimaerts
Ġerd nietÃ©
net xe
Ġl atip
Ġsten ibac
Ġa ssap
Ġset iarter
Ġar irffo
y artta
ola Ã©nÃ©g
im iL
ĠsÃ©hc iffa
Ġegass in
it im
sel uc
g nI
x odarap
Ġnoital Ã©vÃ©r
ĠemÃª tpab
mos noC
itca xe
Ġzev iv
ĠsÃ©v uort
Ġnoita ulav
Ġzess ilpmer
serÃ¨ g
Ġtnev ircsni
ĠL M
rues seforp
Ġerttem moc
Ġla tnemennorivne
Ġell itneg
Ã©c nis
Ġsru d
ĠU T
N T
Ġtne ssec
Ġ eiot
Ġsno nevretni
rÃ© J
l iavarT
ĠN DA
sim enne
Ã©p iuqÃ©
Ġte uoj
fita gÃ©n
ic nerÃ©ffid
serial pmexe
eÃ© losÃ©d
Ġer ic
euq irÃ©mA
ĠÃ©r Ã©per
noitc udart
Ġsen naC
seuq ito
5 891
stne lat
stnem evuom
ess il
a ni
it nerrucnoc
Ġs recnac
ocs icnarF
s dnerpmoc
Ġellec rap
Ġt ar
Ġemmoh nob
ĠtnemÃ©nat lumis
euqitam Ã©lborp
Ġelba tner
Ġed apacse
Ġihc narf
res noC
el igarf
Ġru enim
ĠsÃ©ss ial
ut uM
Ġesuer egnad
iom Ã©M
ĠÃ©g nolp
Ġr ennois
Ġtnemelb irret
Ġeigol oib
stna egirid
Ġ HC
itna tsbus
utam Ã©rp
Ġs cab
snoit utitsni
Ġsega iram
ruo G
Ġeigolo Ã©di
ert noM
u narg
c narF
Ġ) -;
elle usiv
tan Ã©S
Ġats oC
Ġseluc Ã©lom
ĠserÃ¨ irrab
Ġet icilÃ©f
iv ulp
Ġg nitekraM
ĠseÃ©s serÃ©tni
eic amrahp
Ġet pa
Ġg ruobmexuL
Ġtnava nÃ©rod
ĠseÃ© rtnocner
Ġessap mi
Ġegal li
ĠNO N
Ã©tisrevid oib
nu D
Ã© rohc
Ġeria igats
stnem egnahc
IX X
seuqits itra
41 91
st iart
Ġelg ueva
Ġre irp
Ġre ffuahcÃ©r
Ġrall od
Ġseunnoc er
Ġsnoisnet xe
ita lp
Ġer dnepsus
re illeptnoM
et id
Ġsreil ip
tnemet Ã¨lpmoc
Ġf rus
Ġeir elaG
tnemenno rivnE
ĠseÃ©uq idni
Ġeda lacse
Ġsnoitam itse
Ġsemm ag
Ġc od
Ġet netÃ©pmoc
seuq idiruj
Ġnoitasila Ã©R
ĠseÃ©v resÃ©r
sru egayov
ette uohc
Ġemsil atipac
ita ler
Ġsetne nitrep
Ġl apicinuM
Ġela itaps
Ġnoitasil atipsoh
Ġtna unitnoc
Ġulos ba
Ġess enif
Ġsem ot
Ġruoj Ã©S
eria srevda
uf ni
Ġnoissim uos
Ġselbat rop
Ġtiass ial
ita tS
Ġl irÃ©p
sru eirÃ©txe
Ã©d icÃ©d
nar ffa
Ġlam itpo
ia ra
ser utneva
Ġnal iB
utp mos
Ġp ots
Ġerc niav
arap Ã©r
Ġla noigÃ©R
st iordne
Ġst acifitrec
ic ul
Ġetna vonni
Ġrel uorÃ©d
k calB
Ġsren uejÃ©d
st ol
ĠrirvuocÃ©d er
sre ipap
ĠÃ©t inU
ses icÃ©rp
tnemehc narF
esu et
ser ir
ah s
Ġtnemelbat rofnoc
Ġsf iuj
Ġdra nac
t ercsid
Ħ ¢
Ġrem margorp
Ġeug nil
Ġrep uocÃ©d
Ġx elA
eriat ned
ih W
00 9
d noforp
ĠseÃ©s ila
Ġ> -
Ġselbar isÃ©dni
yl g
tnemet caxe
Ã¨ iP
Ġress ob
NO D
ĠsserP droW
7 891
ĠER D
Ã¨rc noC
evita rtsinimda
erd nietta
Ġseuq ixot
erÃ¨ g
Ġsnoit roporp
Ġxua etalp
Ġeuqram eR
imit pO
Ġne iL
or ba
ĠÃ©hc Ãªpme
Ġela idnoM
ĠC C
s ennot
Ġel ovÃ©nÃ©b
Ġeuqilbup Ã©r
res oporp
ap Ã©r
Ġsnoita rocÃ©d
Ġsnohc rehc
iss el
Ġzey uppa
eria nnoit
Ã©t na
Ġert ceps
rg im
Ġrer g
bm ahC
ua etalp
Ġterc noc
Ġzev resÃ©r
irc suos
ĠserÃ¨ cnis
en iatrec
Ġ eiunne
x aM
ĠeÃ© y
o oh
ut as
evart ne
serial imis
Ġsno ixennoc
Ã© pa
Ġre ib
sem ron
Ġetne l
eud rep
Ġsecneg ru
dyxo itna
inam uH
hp etS
ĠserÃ¨ t
Ġud nepsus
Ġetne rappa
zev ircsni
Ġ+ (
Ġl omÃ©b
Ġtnan neyom
roproc ni
Ġek ac
ir Ã©hc
ehc uoc
ĠseÃ©r ned
gÃ©r g
seria cnab
sus sit
NE S
ylanahc ysp
Ġsru ennod
Ġesser P
er aP
erutan gis
Ġerv iuc
rag iF
eis inuT
tad los
euqits igol
Ġtness ibus
Ġeria ivorref
s ces
sl ennoitidart
ett ec
er uotne
Ġnois necsa
ra la
se G
Ġuo l
Ġret idÃ©
la nac
r irvuo
Ã©t cennoc
Ġst iurtsnoc
Ġtreb lA
Ġna h
Ġreit ruoc
ze y
uf lus
enÃ¨g omoh
Ġnoitc eS
Ġrett erger
ĠsÃ©hc ac
ĠsÃ©r apÃ©s
Ġr al
erap Ã©rp
set silaicÃ©ps
sell ennoit
Ġzed rep
Ġzz aj
Ġer uj
Ġseria p
tÃ® annoc
t iudÃ©r
Ã© roda
Ġsem utsoc
Ġrem rofnoc
noit netni
ĠeÃ© Ã©rC
Ġse uoj
ĠeÃ©t upÃ©r
ĠeÃ© narretidÃ©M
t niojnoc
Ġesu ffid
e Ã¯
nig irO
seriat inas
Ġellia T
ia D
Ġtnem itneg
ĠsÃ©sop Ã©d
po hS
sec af
Ġzenerp moc
ĠsÃ© tnemirÃ©pxe
noitam margorp
en Ã®ahc
sno hc
Ġeib ohp
d rep
Ġet neg
roc Ã©
Ġsta Ã©rual
eu m
s uc
is Ã©ngam
Ã©ni k
nim mi
Ġev Ã¨rb
UO S
Ġelle utibah
Ġal la
bm ahc
Ġelb irroh
Ġze Ã©rc
ir ruop
if noC
ĠÃ© Ã©rC
Ġlennoit utitsnoc
sno Ã§
Ġressuop er
Ġtneia vuort
Ġreg ilbo
Ġsega morf
ifit reC
Ġnoitats etnoc
l I
o idaR
etne rt
Ġetna v
ĠseÃ©ll atsni
S R
nava l
Ãī M
ĠÃ «
og noc
ĠÃ©r ramÃ©d
reir dnelac
ert tab
ina uod
Ġsetna ruoc
Ġzeg nalÃ©m
not uob
en isu
olcyc ne
seg avuas
Ġsnoitc ejorp
tnav A
Ġkro w
na irf
Ġtnanerp er
el uapÃ©
nep sid
Ġex elfÃ©r
Ã©t u
tid retni
Ã© laV
Ġsne Ã©cyl
ir tsudni
Ġtnessap Ã©d
Ġreiss oD
tÃ´ pmi
ĠNO IS
erialuc sum
c itsongaid
ro G
re ilugÃ©r
Ġc erg
sel pmexe
ĠÃ© ubirtsid
cel e
su rc
Ġress alc
Ġeff erg
Ġeru hcorb
noitat pada
Ġp ar
ĠÃ© itini
ĠO ES
Ġsneit uos
us se
ts etorp
em a
o neB
ohc S
Ġsru evelÃ©
Ã©l ivirp
noitca dÃ©r
Ġnois ulc
lum ucca
Ġses id
ela ivivnoc
Ġselat Ã©gÃ©v
Ġtnemell un
bm al
Ġp ihsredael
Ġet nagÃ©lÃ©
Ġseria nimÃ©s
Ġecnedurp siruj
Ġseg ac
Ġsd uahc
nat ob
b Ã©d
esop mi
Ġeir tsudnI
Ã© Ã©rc
Ġr ad
Ġeuqim Ã©daca
Ġtnav onni
Ġte ertS
tÃ© D
tnem Ã©sicÃ©rp
ff uahC
ic nÃ¯oc
l un
Ġta Ã©rualaccab
Ġeid namroN
Ġel ulip
Ġz elliavart
Ġrel bic
Ġtness itnarag
Ġec iloP
Ġtehc as
ac oL
ix em
selb issecca
Ġrep pots
Ġreil atipsoh
kc olb
Ġriov ruop
U N
d nA
Ã©uq idni
Ġtnemessit reva
lielos ne
tne ios
ret telswen
Ġsruet uah
Ġem ynona
Ã©c nal
ela Ã©di
Ġnoitaluc irtammi
elli nav
Ġei nam
ĠSE UQ
su netnoc
ed noforp
ĠÃ© lliev
h pa
ahc Ã©
UO B
uob at
niam reG
Ġs oruE
yr ca
ru f
dne keew
t es
Ġtned rocca
Ġse bara
Ġstna Ã©g
Ġtne rapÃ©rp
Ġtnar Ã©disnoc
iu fne
Ġel pmiS
Ġle B
Ġtne inÃ©vnocni
Ġen raM
ĠserÃ¨ ilugÃ©r
eva f
ri net
Ġstna dnopserroc
Ġnoitc el
Ġez i
g od
Ġ, Â°
Ġerut ifnoc
EL LI
Ġehc Ã¨rc
io va
Ã Ń
â ĺ
. ^^
Ã©lot ni
Ġren iartne
Ġeugol ohcysp
Ġlag Ã©nÃ©S
ĠÃ© roilÃ©ma
ab at
Ġsnong apmocca
N B
ĠT U
Ġtnec nal
Ġsnosia nibmoc
dro w
Ġno lla
Ġtnat iolpxe
Ġd uolC
Ġsnoita rapÃ©rp
nia rtne
Ġetrevuoc Ã©D
sa G
mi nim
ng apmocca
ecna ts
Ġxu egatnava
in uj
Ġtnemeg anaM
Ġses ueirÃ©s
, ]
set amot
Ġelba droba
Ġtna rtner
Ġeng apmahc
Ġeni eR
Ġc w
Ġeniat nof
Ġrem ulla
4 891
Ġela tnemetrapÃ©d
ĠerÃ¨ po
Ġrer Ã©G
erial imis
irt uA
tnal ov
ses nep
Ġerup uoc
re idalas
Ġeriud Ã©d
sÃ©tic apac
ĠseÃ©ss alc
engis ed
Ġseuqi nohpÃ©lÃ©t
Ġt itros
Ġtnenneiv rap
Ġsel uom
Ġse hportsatac
sÃ©s ilaicÃ©ps
tiaf sitas
zeva S
liu b
tnem eganam
ot u
Ġecnats issA
Ġeil rahC
yr bme
Ġett eivres
Ġeuqitam Ã©lbme
nom iS
Ġt og
Ġm anteiV
ser ot
te B
Ġeunev er
ĠÃ©m irpmoc
en iabru
Ġeria nnoitcnof
rts ba
ĠseÃ©ng apmocca
il uJ
ih sa
ret nom
Ġreg narra
Ġnois avÃ©
sni p
Ġtnehc Ãªpme
Ġsno siaM
ug uA
ig rus
sruet ama
nil reB
ĠeÃ©t ivni
ĠÃ©t Ã»oc
ec noc
etna ruoc
sru enim
Ġelb on
ue ob
Ġsr Ã»s
et ircÃ©
r id
ĠseÃ© calp
Ġsnoitac ilpmoc
ĠÃ©n ruojÃ©s
Ġri uoj
Ġc eb
Ġne z
Ġsl eunam
t semirt
Ġresim inim
Ġre icuos
Ġre ihpargotohp
Ġxuey oJ
secneg ixe
sett euq
G L
nim reT
rehc ac
Ġtnemel osi
Ġtnav ircÃ©
Ġeuq itc
elbat pmoc
ĠÃ© rocÃ©d
Ġses ac
Ġa rtxe
ort nI
ĠL E
Ġ, $
Ġtnet isÃ©h
Ġeda ssabma
ĠseÃ©v irra
Ġed iartne
st irpse
T EC
Ġsne iT
rofnoc Ã©r
ĠseÃ©c yl
Ġsert serret
Ã©d nop
ecneg illetni
Ġnoitat ropmi
Ġerut plucs
da lam
Ġeuq ric
is yhP
sf itc
Ġdra w
ĠeÃ©hc ac
Ġ04 2
euq inilc
Ġtnemen imehc
ĠertÃ®an noC
Ġtno P
up its
at set
ĠseÃ©s iv
utc urf
nic ullah
Ġser onos
Ġelba Ã©rgasÃ©d
Ġreil er
Ã©h ta
ed liug
Ġsl itneg
gna B
ĠeÃ© ffuahc
ĠsÃ©t imil
sÃ©t pada
Ġ2 991
Ġfit irÃ©pa
er ussar
ess o
uay ut
y ad
oz a
enÃ¨ igyh
tnemel ueS
Ġevita Ã©rc
Ġtrevuo cer
ug ibma
ĠÃ©c rofner
Ġtnemel rap
si hc
Ġeria tabilÃ©c
Ġten ibaC
us t
x al
esio nihc
es uopÃ©
iciffe oc
Ġr ol
pyrc Ã©d
Ġs uf
n itnelaV
so ik
ĠsÃ©v eler
ĠÃ©t ralc
Ġnois lupmi
Ġsem htyr
ĠsesÃ¨ht opyh
Ġems in
ret sam
T NEM
ĠerÃ¨ M
ida laM
ĠeÃ© tneiro
ĠÃ©tin nerÃ©p
Ġg at
Ġeigol ohtap
Ġelleb uop
et nep
Ġelc revuoc
i Ã©bo
Ġen issed
serio ta
Ġxob X
ĠSE RT
Ġsfita Ã©rc
Ġseuqihparg oÃ©g
er uejam
Ġel ov
ĠSE R
Ġsec nivorp
Ġsett essuahc
reiv alc
ner F
Ġsnoitas ucca
st revuo
ĠsÃ©tilib inopsid
Ġt artnoC
elbmes nE
Ġtnemeuq ipyt
noitar Ã©dom
Å Ĵ
idnoc ni
io R
er iarÃ©ttil
a et
Ġtnell eppar
ĠsÃ©m irpmi
Ġ ðŁĺ
Ġtna nimretÃ©d
in hceT
eriota robal
yl f
eew t
Ġsehc av
reg rahcÃ©lÃ©t
Ġettehc ruof
ĠsÃ© fac
Ġtnet pada
Ġrueda ssabma
i eres
o bmys
Ġzen igami
Ġrerap Ã©rP
tne vius
Ġell eunam
âĢ¦ Â»
ng iartnoc
itap Ã©h
Ġsnoit pecxe
no y
Ġ ilbuo
res oper
eg narÃ©d
ennoitcnof syd
em oh
Ġu netniam
ro tauq
er dnetÃ©d
Ġseg all
Ġnoitnet Ã©r
Ġ ohc
moc ca
4 491
ĠeimÃ©d ipÃ©
Ġs cal
Ġtna silaÃ©r
Ġruet ropsnart
Ġsehc tam
Ġxua essiav
Ġev isneffo
Ġtia dner
Ġle itnedisÃ©r
is iuq
Ġu elB
nim da
sre in
Ġret ehcar
ev erc
Ġtne utis
Ġtnemessit revid
seir Ã©s
Ġlat sop
Ġtnap polevÃ©d
v ne
Ġset iudorp
noit pircsed
ĠsÃ©tiral ucitrap
em irc
od Ã©p
b rev
Ġtnor id
g its
Ġed nof
senia cirÃ©ma
Ġa nikruB
emÃ¨ix ued
st erces
Ġnoitc efnoc
Ġets inummoc
ret sixe
ev itcepsrep
IL A
Ġlan Ã©p
nahg fA
Ġelb ixelf
ruo mA
ff iE
Ġni b
un Ã©d
Ġs nitam
Ġrues nefÃ©d
uc rahc
Ġl A
c Ã©bÃ©uQ
Ġxuer uoluod
sser P
RU S
et uoja
Ġtnec rexe
ette issa
i se
il s
seÃ©s um
sc urt
stna tsixe
Ġsno sinagro
nella hC
Ġeng apmoc
igol ocÃ©
Ġsnov uort
Ġtnemetsuj a
ĠeÃ© ug
set ni
ĠÃ©l osi
ĠÃ©m ra
Ġell imaF
pil f
Ġna V
ir olF
eÃ© sila
Ġreit Ã®ob
RO P
c if
s gnol
sio Ã§narF
Ġesser dnet
Ġne igrurihc
Ġeir em
. '
se mod
Ġsecnar ffuos
rev o
er atiug
sio pme
Ġeuqir Ã©nÃ©g
ilb atÃī
serot tip
Ġt ip
Ġeuqi htym
og noC
itsir hc
Ġetne nitrep
Ġtnor rev
nno ipmahc
ref er
Ġtna sser
Ġsno p
ĠseÃ© yovne
y o
Ã©g rahc
Ġyb gur
Ġsne im
Ġudnet Ã©
rot S
dra calp
ang apmocca
ir emA
ĠÃ©c rexe
Ġsr ior
egar ialcÃ©
ira K
s Ã©bÃ©b
ĠsÃ¨rp xe
Ġzeg atrap
Ġsrued icÃ©d
ĠÃ©tilib idÃ©rc
nav A
T P
Ġr itnelar
Ġ ila
et necÃ©r
Ġst iudÃ©r
ac Ã©d
Ġdra calp
Ġs hc
mo loc
Ġsnia p
ĠsÃ©g atrap
id oc
l iv
ren im
a ssap
Ġt ix
Ġel ongapse
seuq Ã¢P
ini F
ecneitap mi
sela irotirret
, ,
Ġtnemesue ic
sec nonna
Ġett ahc
E E
et rep
Ġar vecer
Ġec ocÃ©rp
Ġtia viv
iouq ruoP
Ġg nim
Ġx oB
Ġzes iL
ert Ã¢
Ġsei hparg
ni uQ
Ġnoita nimatnoc
yt S
Ġevita gÃ©n
irp Ã©d
Ġnoitpec noC
e ics
sec rof
ĠerÃ¨ cnis
sec nar
s nif
tna ngag
Ġtnemm ediv
Ġua eluor
eb reh
Ġnog ard
ruep av
Ġesia dnal
Ġspmet nirP
Ġret Ã»oc
Ġsev is
tnemes ue
nop er
o ssid
Ġen Ã´hR
O O
et Ãªrra
ĠseÃ©v resnoc
e nar
ub rac
Ġsessil uoc
snia poc
ET I
Ġenne ihc
Ġen itsirhC
rega yov
Ġlli B
Ġset iahuos
Ġy M
Ġ enolecraB
sec apse
Ġseg Ã¨ip
Ġelan ummoc
Ġresil acol
Ġelbal evuoner
ĠÃ© uod
sem marg
Ġxue iV
Ġx iD
Ã©c nonna
Ġxu elubaf
Ġsr iot
set alp
Ġeriat irucÃ©s
Ã©r roc
ellievrem Ã©
Ġ... ...
nois nep
luc co
Ġeuqit semod
sÃ©t il
ĠP AC
si uqer
Ġsell irg
Ġrer biliuqÃ©
Ġardneiv noc
Ġnu rb
Ġesir pme
ar Ã©mac
el bo
Ġla rotcelÃ©
lab olg
Ġren nacs
ilb ib
ĠH R
irot ciV
Ġenneit Ã©rhc
sa Ã©nic
Ġrues ruc
Ġst idretni
ret uoja
Ġsuc niavnoc
ta iranetrap
itnet er
ĠÃ© rapÃ©s
Ġeuq inummoc
Ġsruet ucolretni
e xe
no sir
ĠemÃ¨ iz
Ġ4 991
ĠÃ©rc us
sal Ã©h
Ġen iloraC
re ilibom
Ġst ni
Ġsesirp ertnE
Ġtna nnoissap
Ġl ennosreP
Ġses sab
Ġsni erf
el ig
Ġ: :
sett ap
xu ellievrem
Ġreid iD
Ġeria niluc
s b
Ġselbis iun
i eR
Ġelc at
xua icÃ©ps
ra el
Ġen nac
ĠemÃ¨ i
ses io
ert serret
er urres
Ġseir ess
Ġnil reB
ĠÃ©tiro nim
Ġeiress itÃ¢p
Ġsr iopse
Ġreg anÃ©m
ga kcap
Ġnoitcud Ã©d
Ġsell ennoitpecxe
ĠÃ©t uas
Ġne itsabÃ©S
Ġsno yasse
iral ocs
ĠÃ©s ruobmer
res sergorp
Ã© bmi
ĠP H
ip il
Ġnoitc irtser
Ġtnet ibah
Ãī RP
seuqig ogadÃ©p
Ġset arip
Ġtel ig
r ertnom
ĠÃ© matne
seuq igolonhcet
ba R
ic rialcÃ©
Ġs um
el ibah
Ġsnoitat ropxe
ĠseÃ© idÃ©d
ba F
t iteP
Ã©g axe
Ġ.) %
Ġell iugia
ru elp
Ġecna yorc
Ġr iap
Ġeil uJ
Ġnoissec noc
euqi nohpÃ©lÃ©t
Ġruet cepsni
Ġsnoir ved
rov Ã©d
Ġed idnelps
y al
op av
Ġse ilbatÃ©
Ġtnemem ref
elba nruotnocni
Ġsesue icÃ©rp
ĠÃ©g asivne
Ġseria idÃ©mretni
an t
Ġlam ixam
ela noigÃ©r
Ġeig Ã©livirp
ĠÃ©ng iolÃ©
ĠÃ©t enneyotic
ĠÃ©nno is
Ġo ediv
sÃ©tila nnoitcnof
Ġne v
stne t
ug na
ba h
Ġnoit utitser
Ġrert noc
rol hc
oo W
Ġtna g
eriov I
Ġst iafrap
st effe
Ġv dr
t iv
Ġrio p
Ġsid ercrem
Ġst ekcit
04 91
Ġseg nartÃ©
ol leH
snois acco
em mop
tna yap
et ic
Ġserb mos
tnev uoS
Ġset iudnoc
Ġtnasop er
erdne fÃ©d
eÃ©r C
Ġnoitca rt
F E
sia pa
ĠeÃ©v onÃ©r
Ġsed naiv
ĠsÃ©t idommoc
Ġsetne uqÃ©rf
st ellib
Ġebut uoY
evin Ã©d
sell iat
noitat upÃ©r
irova fÃ©d
sehc nalb
id uA
Ġla naC
ĠseÃ©sop mi
Ġegat evuas
nod Ã©
Ġ ~
Ġtneia hc
ĠÃ©t inredom
Ġ ï»¿
Ġec nonnA
sruetc udorp
set iD
Ġoni saC
Ġtnemess ilpmocca
Ġrer Ã©f
Ġeria tnem
Ġehc orP
Ġsel Ã´p
ĠÃ©hc uoc
Ã©tila gÃ©
noitamrof snart
Ġnoita tnet
Ġsec iv
rÃ© molgga
icrem moC
siuq ca
Ġset ten
le if
Ġs inu
ua er
Ġset a
Ã©r rac
ennoisiv Ã©rp
eg uob
h tsa
at oN
luc ni
Ġser ahp
Ġserb mo
el eT
na K
iff ar
Ġot ser
Ġecirta Ã©rc
ĠÃ©p pahcÃ©
Ġrel osi
ĠA V
tna nnoisserpmi
ruer roh
tnemel arÃ©nÃ©g
Ġeuqi xeM
noissim moc
Ġtnemed nammoc
re ifirÃ©v
ert uen
Ġtnasop mi
od i
Ġnoita iva
Ġtnem irpxe
ĠA I
ĠsÃ©hc atta
tnom relC
Ġrec rep
Ġ> --
ses nepÃ©d
Ġs pard
vuo rp
Ġtneng ag
un Ã©tta
Ġnoitall atsnI
Ġso ahc
Ġeuqit uoB
ĠeÃ©t roppa
irÃ©p sorp
elle utriv
tne vas
inom Ã©rÃ©c
Ġzet isiV
ĠseÃ©p polevÃ©d
Ġsnoitat ibah
Ġsia rg
el Ãªop
O K
Ġrehc inÃ©d
Ġsevita gÃ©n
ĠâĢ¦ Â»
ra v
Ġst it
eÃ© silitu
Ġd namruog
ituo P
ell im
Ġevita rÃ©pooc
pm urT
Ġ0 91
Ġtneiar duov
ĠeÃ© losÃ©D
Ġer ol
Ġsec nas
Ġtnauq atta
tÃ´t ulp
mota na
Ġtnanerp pa
Ġseda nemorp
C E
Ġtnassap Ã©d
emsila nnoisseforp
bmess A
sl euxes
Ġa paP
ec Ã¢rg
v Ã©
tnemehc uocca
Ġresila nif
ĠÃ© unimid
eiv rus
reuq inummoc
nu J
Ġsnoita silitu
t giod
eÃ© silannosrep
ilav ehC
Ġ, ?
Ġep atÃī
Ġsf iraT
Ġtahc A
Ġle utirips
Ġeg reiv
ec s
Ġst ircÃ©d
Ġreuq ip
ĠtnaÃ§ rexe
Ġ0 791
ec ruoS
rec ni
Ġecnats isnoc
ag oy
Ġ enava
Ġsnoiss ucrepÃ©r
Ġtneit er
Ġc it
ĠeÃ©r biliuqÃ©
Ġnia hc
snoita m
Ġ... !
Ġni maj
t nietta
ĠeÃ©r vil
tnemec alpme
Ġsam Ã©hcs
ĠÂ« âĢĻ
se id
Ġxua en
op orhtna
esue igiler
ĠseÃ©n Ã©ryP
Ġsnoitat um
ucÃ©s rep
io lp
euqil ohtac
Ġel umroF
Ġett eugab
li G
Ġsnob nob
IV RES
!!!! !!
elos noc
Ġeuqitam ard
Ġtner Ã©hoc
Ġtnar vuocÃ©d
Ġeirer osÃ©rt
xuo neg
sias se
a oc
Ġtnan Ã®artne
ĠsÃ©n madnoc
Ġs Ã¯am
ĠeÃ©sop xe
noll ar
Ġstem mos
il am
Ã ³
Ġnoit idua
in Ã©m
y niv
Ġd aP
g iS
Ġtnes ba
Ġnim ag
Ġtnes ialp
Ġnom iS
Ġk raM
snoita v
erÃ¨ fÃ©rp
Ã©tilib issop
elloc Ã©d
et nom
Ġer ur
uo hC
nas uaL
Ġunev noc
Ġeitrap ertnoc
Ġtneit ertne
Ġihc Ã©lfÃ©r
Ġni lucsam
set tenul
elb al
Ġstnemen Ã®artne
rep mort
Ġes idnahcram
se na
Ġeria netnec
Ġseloc otorp
s irovaf
Ġret ejorp
Ãª nnoh
ia g
Ġht eba
Ġresim ixam
ilav ni
ĠsetÃª uqer
Ġsne ir
Ġo dnetniN
en raM
ĠÃ©r biliuqÃ©
sem Ã¨tsys
uort ap
Ã© yasse
eÃ© nimretÃ©d
Ġsed nama
Ġtnass inruof
euqim ihc
xua nigiro
ser usselb
tna iruos
cyc er
Ġem or
Ġeu n
sruess itsevni
utc effE
e ne
Ġtia ssiarap
Ġecna tiart
ĠS NI
ĠeÃ©v itom
Ġerio F
ec necseloda
el t
Ġuaec nip
Ġiga Ã©r
Ġses sio
Ġsreil etA
ĠerÃ¨p er
Ġtnam riffa
Ġtnemelba rud
sru elliem
itca did
uoleda uG
ĠÃ© h
Ġi urtua
ts oc
Ġtnemem it
ret saM
Ġelle utirips
tnemÃ©m ronÃ©
Ġg nig
inÃ©g nI
et acilÃ©d
selitu ni
noita roballoc
g ulp
Ġsnoitc ivnoc
IC OS
Ġz elli
idÃ©r gnI
Ġtnemel uor
et seg
Ġer iomra
ĠS M
ze yorc
nar reF
tna S
Ġdra ob
H S
utc ulf
ĠÃ© rtsulli
u Z
ĠÃ© uol
Ġega uotat
Ġelbis nehÃ©rpmoc
Ġni lam
st ircsni
Ġor Ã©pa
irg iam
eirÃ©t na
ĠseÃ©g Ã©torp
eic necil
Ġeuq setnagig
ĠsÃ© irÃ©f
noitc udÃ©r
el uof
ren ruot
evit ucÃ©snoc
Ġt catnoC
Ġfit pircsed
Ġzer dneitbo
Ġsni ccav
elba droba
seria las
red icÃ©d
Ġtne ralcÃ©d
ĠÃ©tÃ© ixna
Ġtiad rager
snoita silaÃ©r
Ġess of
nois nemid
Ġtne utceffe
Ġd rac
co idÃ©m
Ã¯a raC
yl O
Ġseg av
ser iam
ot pyrc
sem ad
Ġeuqin hceT
da P
ĠseÃ©l la
Ġte uof
NO P
Ġen illoc
Ã» q
nit Ã©
Ġed namruog
ĠÃ© ulavÃ©
set Ã©d
Ġzer vuo
eno hPi
ten ibac
Ġse nomroh
Ġset rev
Ã©n ga
z ep
iac ne
Ġelle usnem
Ġser up
ĠerÃ¨ l
Ġsess ius
Ġer apmoc
Ġevita cudÃ©
tno v
sell eudividni
ev uen
Ġtiga Ã©r
tna tsixe
Ġel itcat
uan rA
Ġsnoitamrof snart
Ġze il
serÃ¨ itam
at Ã©gÃ©v
Ġertsi nis
Ġtrop er
ec rovid
erÃ¨ irp
ri netbo
ehparg ohtro
Ġni ssuoc
Ġst adnam
y xes
eÃ© sop
Ġegar iv
â Ļ
illi M
nem es
ita rcomÃ©d
uts A
e ulas
Ġeiret il
Ġtnemel ag
Ġsett ul
Ã©rg ed
tnem acidÃ©m
ts en
Ġnoitat nalp
ert on
et silanruoj
Ã©t ilÃ©dif
ruob Ã©d
ud nopÃ©r
ĠsÃ© ifitnedi
ecne rappa
Ġed nama
es Ã¨
nac lov
Ġruot noc
Ġet e
Ġesia lam
seir et
sÃ©s serÃ©tni
Ġei monogre
gno H
z evuort
or cam
Ã¨r is
Ġetne loiv
noitarg immi
eim ihc
2 891
xua nruoj
eda ssabma
Ġselleb er
B I
Ġtuo a
ĠsertÃª cna
ĠL RAS
sno inuÃ©r
sirp rus
ram lap
Ġerdne gne
Ġit reva
ib isnes
Ġxua idnom
Ġsela rom
Ġegrog er
Ġer iD
s rab
elb accepmi
Ġuo lf
gnol p
Ġnois rucxe
[ ,]
mi eR
egav elÃ©
uem Ã©
Ġsdnerp er
rett iuq
ir uelf
elbat pecca
tnem engiesner
arb mo
si neD
Ġeuqits uoca
Ġtneia d
SE L
rac sam
ilat I
sen retni
Ġla van
Ġselitu ni
Ġsrues nefÃ©d
srues seforp
snoita ler
Ġst namrofrep
en inimÃ©f
sret ueR
siva Ã©rp
Ġnoitar ipxe
Ġelc no
Ġf c
iga Ã©r
Ġseuqid ul
pyg Ãī
set uod
NI AS
Ġre irap
ĠetÃ¨ op
ia nnoC
Ġse inuÃ©r
Ġegat S
em al
iv oma
Ġ... )
noitat idÃ©m
elb moc
Ã©tila uxes
et pmoC
ĠP FA
Ġnoitat ropxe
Ġtnemer dnoffe
Ġs itnarag
ni T
Ġsf orp
us u
Ŀ ¤
Ġsniab ru
nolla W
seÃ©t imil
* .
se ud
ira bag
Ġsellia sreV
Ġeg nosnem
ul oS
Ġsio rap
c ixem
Ġar dnepÃ©d
Ġstnemengiesne R
Ġserut revuoc
Ġeria mm
eta idÃ©mmi
im s
Ġ eya
xue id
ca motse
Ġsneic itarp
ek sab
Ġell ennoitcnof
f orp
g nar
v ir
Ã©t aC
Ġen rob
snoita sinagro
ra id
Ġla yor
Ġtnauq itarp
s riovuop
00 7
ĠÃ© rp
Ġrer dnegne
Ġst racÃ©
ru eirÃ©tnI
xe N
an uas
Ġei k
Ġsem Ãªrtxe
il oc
Ġma illiW
Ġses iuqca
seuqit uob
o ssa
c ennoC
ĠseÃ©r Ã©fÃ©rp
Ġset ircÃ©d
Ġselc itrA
Ġseng iv
eir ebmolp
Ġegar rab
tne namrep
Ġsiarg ne
Ġsnas yap
ret pecca
id icÃ©r
Ġsega ssam
iop s
Ġsex enna
riga Ã©r
Ġser iarÃ©niti
noita rgÃ©tni
Ġseg itsev
Ġs mu
S AP
Ġed ur
Ġenu cahC
Ġerb os
noitac ilpxe
Ġsell iav
Ã©l li
Ġtneuq itarp
ed no
Ġsno yorc
ant eiv
Ġesim snart
sif Ã©d
Ġset niam
Ġiar ennod
Ġn nam
Ġst ros
sellia sreV
Ġze icifÃ©nÃ©B
ra sÃ©d
Ġsel acidnys
ess ia
âĢĻ âĢĺ
ĠÃ© neR
ĠÃ©r Ã©bil
eÃ©r Ã©fÃ©rp
Ġem art
les rev
Ġsem Ã¨rc
Ġred nof
ecna tsissa
elc arim
ĠÃ©r res
ud Ã©d
Ġtnet Ãªrra
eria tÃ©
ila V
Ġne Ã©poruE
tnes ba
.) Â»
Ġar erud
Ġei noloc
Ġ irovaf
s nu
Ġstnass itrosser
ag luv
Ġsen isiuc
NO F
Ġeuq a
ĠtÃ´ tneiB
Ġrirv uocÃ©D
Ġtirc serp
Ġes ilib
Ġreun Ã©tta
Ġor Ã©muN
Ġzed icÃ©d
ĠertÃ¨m arap
Ġt nietÃ©
Ġso nisac
Ġst iudnoc
Ġsruet at
Ġaret rop
evita t
ĠÃ© ifitrec
Ġselba silitu
eugol atac
Ġeig uob
1 891
Ġunev rus
s ov
Ġte ew
ehc nalB
e oJ
tsix eni
p irt
xua r
ĠeÃ©v irrA
Ġres u
ilf teN
Ġsud isÃ©r
ĠeÃ©t cennoc
Ġa H
Ġnoitc noF
Ã©t illiuqnart
Ġre ivaX
SE RP
Ġsnordne iver
Ġroj am
ilim is
la D
sel arÃ©nÃ©g
Ġlaro ttil
ĠeII IVX
B N
Ġzep icitrap
w s
Ġt itsevni
ts iD
Ġtne idÃ©rgni
yap Ã©d
Ġsno re
Ã Ķ
Ġreg atraP
Ġs la
Ġer o
s tuafÃ©d
Ġeir ecipÃ©
r itnes
sem mop
t uog
srueis sem
Ġz eÃ©rC
serio tagilbo
Ġeg narra
tnemeuq itamotua
Ġp irt
Ġseriat ned
Ġed imit
Ġnoitang isÃ©d
Ġeg alocirb
t namrofrep
ĠÃ© irav
V O
nol oiv
Ġtned rager
isÃ©r b
Ġc uohctuoac
ĠsÃ©tiv itsef
Ġy noS
Ġred ilosnoc
Ġfit apicitrap
snoitat sefinam
Ġseuqil ohtac
st acova
Ġreg ilgÃ©n
uolb Ã©
oc sid
ua en
Ġsiof etuoT
Ġseng id
t nias
la rur
Ġnoitcid artnoc
et cerroc
5 791
Ġresila Ã©R
Ġseg leb
eu vÃ©rp
eg Ã¨is
Ġrig aretni
Ġel avitse
Ġert Ã´v
Ġtne roda
Ġtnemess iorcca
Ã»q ip
Ġtnemer vuocer
Ġecner rucco
ret ov
ecned urp
set cesni
Ġsdnof alp
Ġtneg ixe
ne isirap
ĠÃ©c nof
ĠseÃ©uq inummoc
n Ã©r
c ilpxe
Ġstnemet suja
uo ner
erg ianiv
" '
Ġl argÃ©tni
snoss iob
moc ni
Ġeria tiafrof
li eloS
Ġnoit uacÃ©rp
Ġtneg nam
eriat acol
Ġeh tnem
erÃ¨ issuop
F NE
Ġzess ilpmeR
eh S
ell eunna
la hc
sruet ces
ĠÃ©nem ar
Ġegas od
Ġ eios
sid arap
ennoÃ§ am
eÃ© nno
l ennoitcnof
sed osipÃ©
Ġt uelp
Ã© pmet
Ġnoitpirc snocric
Ġeg olroh
Ġtni ertser
Ġela tnerap
Ã© rtnom
Ġresiv Ã©r
ol os
Ġeriat inummi
ĠD P
er it
elba irav
ĠseÃ©s uffid
po C
Ġdra uod
ĠÃ©lb uem
Ġstnat lusnoc
ĠeÃ©uq ilpmoc
Ã©tilib isiv
Ġiv iuS
Ġseria tÃ©gdub
le utibah
yot iC
ser reip
el avitse
Ġsel as
Ã©h r
eluc idir
selba Ã©rga
serÃ¨ imerp
sÃ©t irotua
ioj eR
Ġsenno B
ita b
Ġnoitar Ã©bilÃ©d
Ġeir ett
Ġnoitc noj
c ipot
ĠÂ º
Ã©mrep mi
d ar
sen retxe
Ġetna nnoisserpmi
ĠsÃ©c nal
Ġtnem eriaropmet
Ġtna utitsnoc
nam ron
ĠÃ©t erÃ¨gÃ©l
Ġep yT
set rof
Ġelp irÃ©p
Ġec aslA
io nruot
T SI
ruot ua
Ġselbapac ni
Ãª rt
Ġegall ipsag
enno iram
sreg assap
Ġtnemet ialla
et illetas
Ġrel utsop
egal labme
iniar ku
Ġzed raG
ol l
Ġtnemess idiorfer
imo v
sni ram
bo b
Ġtiav res
Ġecne irÃ©pxE
nod naba
Ġnag ols
Ã¨v roN
et netnoc
idua lppa
Ġst ressed
Ġass ial
sev itc
Ġreif itnedI
Ġtnemennoitcnof syd
re uova
ed nammocer
ret Ã»og
Ġruep polevÃ©d
ela itini
T NA
em sim
Ġr aB
Ġru egayov
ĠC R
Ġelb ac
o nid
Ġsed iv
tna gÃ©lÃ©
sert il
Ġtnemet iortÃ©
einom Ã©rÃ©c
Ġseug ord
b uort
o Ã©G
Ġnoit sub
lu B
ser neg
Ġessert Ã©d
ser ion
Ġres iapa
tej art
Ġo N
Ġemsi hparg
Ġu lav
ĠÃ© rtnec
Ġeg alloc
cilbup Ã©R
Ġtia uoj
itnemen Ã©vÃ©
edut ilos
ruetal Ã©gnoc
Ġrero noh
liev lam
se ima
Ġeila htaN
Ġsnov uorter
Ġtnemet iarT
Ġ,) Â»
ret ser
' ^^
irb A
Ġett ap
F O
Ġer iuC
re z
ĠÃ©g rahcÃ©lÃ©t
Ġxu egaruoc
ips nI
rets mA
Ġzec nemmoC
ĠerÃ¨p ucÃ©r
Ġetna nimod
ec repa
âĢĭ âĢĭ
Ġsett orac
ĠÃ©c nonÃ©d
Ġseuq sam
x ed
reh T
Ġeuqita rP
g luv
no nac
oir ahc
Ġu ruoc
Ġtnemet niojnoc
tna rubrac
Ġtnehc ac
Ã¨n Ã©t
IT RAP
em ot
em or
Ġx iaP
Ġelb o
u rg
ĠSE M
irc Ãī
Ġtnemeuq ilbup
Ġreg remÃ©
nep O
Ã©tila nigiro
oirt apmoc
enno tÃ©
Ġsunev neib
Ġsnoitpirc serp
Ġtnemess apÃ©d
ĠÃ© Ã©rga
Ġsetsil cyc
Ġ eT
Ġnimaj neB
ĠsÃ©m mon
ed i
tnemet Ã¨rcnoC
Ġeg reS
Ġess iapÃ©
ĠseÃ©s ilannosrep
w en
al id
ec Ã©R
ĠseÃ©uq ilppa
Ġresop pus
seg at
Ġd eR
dra ll
ret uos
Ġednal rI
ĠeÃ©r it
Ġlat iv
T U
Ġla icurc
noitpur roc
ifir up
elba rovaf
Ġap S
sela nigiro
Ã» S
Ġselb al
Ġeuq serP
Ã© irporppa
ru C
hp o
âĢĿ !
seÃ©n ruoj
rem bus
Ġruet aripsa
ed nahc
sle itnetop
Ġtnar Ã©disnoC
et irÃ©m
e Y
lac sif
ĠI V
if ilpmis
ess uah
Ġtnats isnoc
si F
Ġtnat uocÃ©
sec icrexe
Ġert Ã¨molik
ĠeÃ©c nonorp
im mam
ID E
Ġruen revuog
Ġrev onÃ©r
ĠseÃ©l bmessa
Ġer imda
ĠseÃ©hc uot
nod rap
Ġeuc niavnoc
Ġsen isiov
tt iL
Ġsp uol
o nap
ed nema
ĠsÃ©t ceffa
en iah
Ġenno itnem
Ġnoitacif issalc
ma H
ĠÃ© roloc
Ġsecne uqÃ©rf
ĠÃ© lli
ĠsÃ©v itom
Ã©n gis
elb arÃ©disnoc
et ner
euq oc
05 3
Ġerva h
Ġednammoc Ã©lÃ©t
ĠÃ© iler
Ġes aB
ĠâĻ ¦
Ġnois avni
zz aj
ren igami
Ġsno rdnopÃ©r
ĠÃ©hc ilc
Ġses ilav
Ġses nepmocÃ©r
Ġecned isÃ©R
Ġsemra dneg
eÃ©n recnoc
Ġsia ri
Ġiar rev
Ġl eirÃ©tsinim
Ġt sac
Ġet ucsid
Ġma eT
ub ra
Ġeuqi pmylo
Ġsel uJ
Ġsel ivic
Ġsnois Ã©l
Ġeis Ã©n
noitc elÃ©
roba L
Ġsnoita tnemelgÃ©r
sela noigÃ©r
ĠeÃ©g uj
segar vuo
Ġenu rb
seuq ir
Ġst rihs
eru elliem
ĠS AS
up ac
Ġnam lusum
pa M
ser gÃ©r
a raP
Ġel acidnys
enno itca
Ã©p uS
. $
esia Ã§narF
ec cus
Ġerut am
rio rret
ĠsedutÃ© iuqni
Ġes iocÃ©bÃ©uq
alf nog
ir y
dne laC
ĠC D
Ġsru Åĵc
ut rev
e ulÃ©
li B
Ġtehc orc
ĠO G
Ġ, !
euq om
eÃ©c nal
elli etuob
Ġrot ciV
res serÃ©tni
3 891
kc otS
Ġtnemennoit idnoc
Ġreil icnoc
Ġed nos
t im
euq irbur
Ã¨ va
Ġnoitag aporp
ert Ã´v
Ġesue utcepser
Ġelli eucer
Ġr inu
ertÃ® arapsid
Ġnoitasila idnom
ĠeÃ©gnol orp
Ġtnec nonna
Ġed angiab
noita sirotua
Ġstna pucco
Ġseg ram
noit Ã©rcsid
Ġelliu ev
rep pahcÃ©
Ġet auqÃ©da
Ġsesuer egnad
oht ym
81 91
Ġsel Ã¢m
of eriF
Ġeng iolÃ©
ĠsetÃª F
ĠÃ©tic ificÃ©ps
no sni
Ġtna illa
SI AM
ela rotcelÃ©
Ġt ats
ugua ni
Ġtlua neR
suo l
Ġtnemess ilbatÃ©r
Ġeria rt
snong ipmahc
Ġelar Ã©tal
Ġsec ar
Ġtias iffus
r illieucca
Ġ3 991
Ġstnemed nof
Ġsnoss ial
ni erf
[...]
