{"<|endoftext|>":0,"!":1,"\"":2,"#":3,"$":4,"%":5,"&":6,"'":7,"(":8,")":9,"*":10,"+":11,",":12,"-":13,".":14,"/":15,"0":16,"1":17,"2":18,"3":19,"4":20,"5":21,"6":22,"7":23,"8":24,"9":25,":":26,";":27,"<":28,"=":29,">":30,"?":31,"@":32,"A":33,"B":34,"C":35,"D":36,"E":37,"F":38,"G":39,"H":40,"I":41,"J":42,"K":43,"L":44,"M":45,"N":46,"O":47,"P":48,"Q":49,"R":50,"S":51,"T":52,"U":53,"V":54,"W":55,"X":56,"Y":57,"Z":58,"[":59,"\\":60,"]":61,"^":62,"_":63,"`":64,"a":65,"b":66,"c":67,"d":68,"e":69,"f":70,"g":71,"h":72,"i":73,"j":74,"k":75,"l":76,"m":77,"n":78,"o":79,"p":80,"q":81,"r":82,"s":83,"t":84,"u":85,"v":86,"w":87,"x":88,"y":89,"z":90,"{":91,"|":92,"}":93,"~":94,"¡":95,"¢":96,"£":97,"¤":98,"¥":99,"¦":100,"§":101,"¨":102,"©":103,"ª":104,"«":105,"¬":106,"®":107,"¯":108,"°":109,"±":110,"²":111,"³":112,"´":113,"µ":114,"¶":115,"·":116,"¸":117,"¹":118,"º":119,"»":120,"¼":121,"½":122,"¾":123,"¿":124,"À":125,"Á":126,"Â":127,"Ã":128,"Ä":129,"Å":130,"Æ":131,"Ç":132,"È":133,"É":134,"Ê":135,"Ë":136,"Ì":137,"Í":138,"Î":139,"Ï":140,"Ð":141,"Ñ":142,"Ò":143,"Ó":144,"Ô":145,"Õ":146,"Ö":147,"×":148,"Ø":149,"Ù":150,"Ú":151,"Û":152,"Ü":153,"Ý":154,"Þ":155,"ß":156,"à":157,"á":158,"â":159,"ã":160,"ä":161,"å":162,"æ":163,"ç":164,"è":165,"é":166,"ê":167,"ë":168,"ì":169,"í":170,"î":171,"ï":172,"ð":173,"ñ":174,"ò":175,"ó":176,"ô":177,"õ":178,"ö":179,"÷":180,"ø":181,"ù":182,"ú":183,"û":184,"ü":185,"ý":186,"þ":187,"ÿ":188,"Ā":189,"ā":190,"Ă":191,"ă":192,"Ą":193,"ą":194,"Ć":195,"ć":196,"Ĉ":197,"ĉ":198,"Ċ":199,"ċ":200,"Č":201,"č":202,"Ď":203,"ď":204,"Đ":205,"đ":206,"Ē":207,"ē":208,"Ĕ":209,"ĕ":210,"Ė":211,"ė":212,"Ę":213,"ę":214,"Ě":215,"ě":216,"Ĝ":217,"ĝ":218,"Ğ":219,"ğ":220,"Ġ":221,"ġ":222,"Ģ":223,"ģ":224,"Ĥ":225,"ĥ":226,"Ħ":227,"ħ":228,"Ĩ":229,"ĩ":230,"Ī":231,"ī":232,"Ĭ":233,"ĭ":234,"Į":235,"į":236,"İ":237,"ı":238,"Ĳ":239,"ĳ":240,"Ĵ":241,"ĵ":242,"Ķ":243,"ķ":244,"ĸ":245,"Ĺ":246,"ĺ":247,"Ļ":248,"ļ":249,"Ľ":250,"ľ":251,"Ŀ":252,"ŀ":253,"Ł":254,"ł":255,"Ń":256,"Ġs":257,"Ġt":258,"Ã©":259,"ed":260,"ne":261,"no":262,"el":263,"er":264,"uo":265,"Ġr":266,"Ġed":267,"na":268,"Ġ,":269,"ia":270,"et":271,"it":272,"uq":273,"Ġa":274,"en":275,"Ġel":276,"es":277,"Ġer":278,"âĢ":279,"ec":280,"âĢĻ":281,"ap":282,"ua":283,"Ġno":284,"euq":285,"Ġal":286,"ni":287,"Ġte":288,"Ġen":289,"ĠÃ":290,"ir":291,"se":292,"ĠÃł":293,"Ġsel":294,"is":295,"il":296,"em":297,"Ġ.":298,"io":299,"ev":300,"Ġtne":301,"Ġn":302,"hc":303,"Ġne":304,"rp":305,"ro":306,"Ġu":307,"mo":308,"Ġl":309,"ĠÃ©":310,"Ġet":311,"Ġeuq":312,"ep":313,"us":314,"Ġsed":315,"Ã¨":316,"ita":317,"Ġsuo":318,"Ġnu":319,"uop":320,"id":321,"rt":322,"Ġtse":323,"Ġec":324,"Ġi":325,"ra":326,"noc":327,"tne":328,"iv":329,"Ġtnem":330,"ul":331,"Ã©d":332,"Ġenu":333,"Ġes":334,"Ġruop":335,"ic":336,"Ġem":337,"Ġert":338,"Ã©r":339,"Ġsna":340,"eg":341,"Ġud":342,"Ġx":343,"moc":344,"Ġtna":345,"ej":346,"ru":347,"Ġse":348,"im":349,"orp":350,"Ġua":351,"Ġsia":352,"at":353,"ar":354,"Ãª":355,"ĠÃ©t":356,"Ġsnad":357,"Ġsap":358,"Ġsno":359,"Ã©t":360,"va":361,"uot":362,"'d":363,"..":364,"rap":365,"Ġtia":366,"Ġtno":367,"Ġli":368,"op":369,"re":370,"Ġiuq":371,"ut":372,"Ġc":373,"Ġsuov":374,"Ġrus":375,"Ġz":376,"la":377,"Ġnoita":378,"if":379,"ca":380,"iu":381,"ulp":382,"ruo":383,"Ġell":384,"ser":385,"ib":386,"pm":387,"ac":388,"ov":389,"Ġst":390,"Ġre":391,"Ġru":392,"Ġser":393,"eva":394,"Ġej":395,"in":396,"eÃ©":397,"ell":398,"oc":399,"Ġset":400,"Ġnoit":401,"tnem":402,"dne":403,"Ġsulp":404,"al":405,"ss":406,"rep":407,"iss":408,"Ġrap":409,"am":410,"ol":411,"ehc":412,"Ġ:":413,"xe":414,"Ġeg":415,"Ġceva":416,"Ġuo":417,"Ġxu":418,"Ġeria":419,"ĠsÃ¨":420,"uc":421,"rof":422,"Ġxua":423,"Ã©rp":424,"evuo":425,"nar":426,"ret":427,"om":428,"ĠeÃ©":429,"res":430,"on":431,"ff":432,"ig":433,"Ġia":434,"pa":435,"ts":436,"Ġd":437,"enno":438,"irp":439,"Ġsru":440,"nam":441,"Ġret":442,"Ġsiam":443,"Ġsec":444,"Ġses":445,"Ġrio":446,"Ġni":447,"02":448,"Ġett":449,"Ã©n":450,"ĠÂ":451,"Ġnos":452,"Ã§":453,"Ã©m":454,"uoc":455,"eu":456,"Ġtnos":457,"ila":458,"bm":459,"net":460,"Ġy":461,"Ã©p":462,"ip":463,"eL":464,"nia":465,"ba":466,"Ġsl":467,"ess":468,"ta":469,"Ġsuon":470,"ius":471,"Ã©s":472,"os":473,"ĠeL":474,"Ġtuot":475,"ruoj":476,"ĠerÃ¨":477,"Ġ0":478,"Ġis":479,"Ã©l":480,"rop":481,"ot":482,"Ġsio":483,"Ġseuq":484,"eJ":485,"or":486,"Ġsem":487,"Ġertov":488,"noita":489,"ĠertÃª":490,"ue":491,"rev":492,"Ġruo":493,"hp":494,"...":495,"uep":496,"uos":497,"tÃ©":498,"Ġ)":499,"ĠaL":500,"um":501,"ĠeJ":502,"eb":503,"ĠlI":504,"nev":505,"ner":506,"nom":507,"Ġneib":508,"Ġettec":509,"itc":510,"ag":511,"itrap":512,"Ã´":513,"ĠseL":514,"Ġeriaf":515,"tua":516,"nal":517,"da":518,"Ġio":519,"nod":520,"its":521,"eir":522,"Ãªm":523,"Ġ!":524,"as":525,"Ġtnemel":526,"an":527,"ram":528,"ĠÂ«":529,"102":530,"Ġtiaf":531,"af":532,"Ġsell":533,"ilb":534,"Ġelle":535,"iam":536,"Ġtio":537,"iar":538,"uj":539,"Ġp":540,"ial":541,"ĠÃ©tÃ©":542,"tna":543,"Ġsnoita":544,"iup":545,"eC":546,"âĢ¦":547,"Ġemmoc":548,"Ġruel":549,"Ġehc":550,"Ġres":551,"sid":552,"up":553,"si":554,"ahc":555,"ĠsÃ¨rt":556,"pmet":557,"srep":558,"Ġeu":559,"nim":560,"Ġ-":561,"Ġrer":562,"nes":563,"Ã©g":564,"iuq":565,"ub":566,"ĠemÃªm":567,"Ġsen":568,"Ġic":569,"rec":570,"set":571,"nop":572,"ht":573,"Ġelb":574,"ud":575,"Ġas":576,"pmoc":577,"Ã¢":578,"irc":579,"Ġriova":580,"ned":581,"Ġsro":582,"iaf":583,"sa":584,"issua":585,"ruoc":586,"Ġep":587,"Ġ?":588,"Ġ2":589,"Ġ5":590,"alp":591,"Ġecna":592,"narg":593,"tem":594,"eiv":595,"Ġsni":596,"iff":597,"arg":598,"ĠsÃ©t":599,"Ġut":600,"itu":601,"Ã©v":602,"ll":603,"Ġnoitc":604,"nem":605,"Ġnois":606,"ĠsÃ¨rp":607,"Ġess":608,"iat":609,"evuon":610,"nof":611,"ih":612,"ruop":613,"dnerp":614,"ĠruoP":615,"Ġtuep":616,"mon":617,"itep":618,"Ġtnat":619,"rem":620,"erp":621,"ĠnE":622,"'s":623,"Ġstnem":624,"Ġev":625,"Ġsli":626,"Ġriov":627,"Ġruet":628,"Ġf":629,"nif":630,"ĠaÃ§":631,"Ġissua":632,"uor":633,"red":634,"Â»":635,"sna":636,"Ġerut":637,"Ġsuot":638,"sel":639,"retni":640,"Ġtnev":641,"pmi":642,"iov":643,"iud":644,"sni":645,"irt":646,"Ã®":647,"roc":648,"Ġstna":649,"Ġertne":650,"Ġsius":651,"ug":652,"leuq":653,"mrof":654,"Ġnom":655,"evuort":656,"Ġm":657,"Ġsnas":658,"Ġsiup":659,"art":660,"av":661,"Ġsruoj":662,"Ġ...":663,"sil":664,"sop":665,"mi":666,"Ġ3":667,"Ġnif":668,"ĠemÃ¨":669,"bo":670,"nep":671,"Ġerton":672,"co":673,"vart":674,"Ġri":675,"Ġue":676,"nol":677,"Ġsov":678,"iro":679,"Ġsnoit":680,"Ġ1":681,"Ġar":682,"rag":683,"nna":684,"Ġtnemet":685,"Ġsne":686,"st":687,"rus":688,"itra":689,"ĠtiatÃ©":690,"rc":691,"Ġreg":692,"ab":693,"eng":694,"Ã©c":695,"Ġseg":696,"uaf":697,"sem":698,"pme":699,"Ġspmet":700,"Ġiul":701,"Ġenno":702,"Ġrel":703,"Ġg":704,"ihc":705,"imerp":706,"Ġxue":707,"Ġ4":708,"Ġuep":709,"Ġerd":710,"rehc":711,"noit":712,"nahc":713,"rac":714,"Ã©rc":715,"ĠâĢ":716,"ĠtE":717,"ertne":718,"erÃ¨":719,"ennosrep":720,"ĠsÃ©":721,"li":722,"ah":723,"Ġxued":724,"ĠsuoV":725,"ohc":726,"Ġsre":727,"seuq":728,"suj":729,"uoj":730,"ad":731,"sir":732,"od":733,"ort":734,"Ã©tni":735,"ĠÂ»":736,"Ã©f":737,"ocne":738,"ys":739,"te":740,"Ġstne":741,"iavart":742,"snoc":743,"Ġred":744,"Ã»":745,"91":746,"elli":747,"Ġsiof":748,"Ġam":749,"Ġsruet":750,"Ġ8":751,"uob":752,"Ġla":753,"!!":754,"ĠA":755,"Ã¨l":756,"revuo":757,"Ġdna":758,"Ġecne":759,"ilib":760,"ilbup":761,"iom":762,"ilp":763,"aP":764,"rd":765,"Ġerv":766,"moC":767,"Ġpuoc":768,"ĠsuoN":769,"Ġ00":770,"Ġsruel":771,"Ġ6":772,"Ġeiv":773,"isop":774,"ga":775,"Ġzer":776,"ues":777,"ĠnU":778,"rf":779,"Ġsertua":780,"ffe":781,"ĠE":782,"Ġo":783,"Ġcnod":784,"un":785,"Ġson":786,"inu":787,"Ġerocne":788,"fne":789,"Ġetis":790,"uov":791,"ĠÃ¹":792,"ros":793,"Ġid":794,"Ġ\"":795,"ivres":796,"ef":797,"ĠsiaM":798,"sef":799,"iart":800,"named":801,"ilc":802,"ĠeC":803,"Ġerbm":804,"inred":805,"elb":806,"uh":807,"Ġnoitac":808,"ĠiS":809,"sila":810,"icos":811,"ĠÃ¹o":812,"atÃ©":813,"bmes":814,"luc":815,"Ġseria":816,"dnep":817,"uaeb":818,"iuqÃ©":819,"ffid":820,"eD":821,"eis":822,"Ġ7":823,"ng":824,"iudorp":825,"uod":826,"ert":827,"Ġerb":828,"sed":829,"Ġerdnerp":830,"ueh":831,"iarv":832,"sru":833,"ĠenU":834,"Ġsniom":835,"Ġerio":836,"igol":837,"erut":838,"niam":839,"erb":840,"Ġtuaf":841,"ill":842,"nag":843,"rg":844,"po":845,"Ġeir":846,"ĠseÃ©n":847,"Ġeng":848,"Ġtiar":849,"eÃ©r":850,"itca":851,"serp":852,"Ġzet":853,"nnoc":854,"ma":855,"ix":856,"narF":857,"Ġerttem":858,"Ġzev":859,"Ġela":860,"yap":861,"issop":862,"Ġsruojuot":863,"sÃ©rp":864,"itam":865,"Ġelba":866,".)":867,"Ġares":868,"Ġseuqleuq":869,"irÃ©p":870,"ei":871,"Ġtej":872,"Ġsiuped":873,"ĠS":874,"Ġtnava":875,"noC":876,"Ġruoj":877,"nas":878,"ĠsÃ¨rpa":879,"Ã©h":880,"Ġtiava":881,"irra":882,"Ġh":883,"Ġsd":884,"uf":885,"par":886,"mrofni":887,"ecna":888,"lus":889,"Ġress":890,"rahc":891,"ffo":892,"nno":893,"Ġdnauq":894,"Ġsim":895,"uQ":896,"Ġsetuot":897,"Ġtneia":898,"Ġtios":899,"las":900,"ved":901,"Ġega":902,"Ãªr":903,"Ġsruoc":904,"Ġ,)":905,"pec":906,"iohc":907,"ĠserÃ¨":908,"oru":909,"ohp":910,"nI":911,"Ġetuot":912,"ĠâĢ¦":913,"seg":914,"urt":915,"ilitu":916,"lp":917,"ropmi":918,"Ã©ffid":919,"Ġav":920,"ĠnO":921,"niop":922,"agÃ©":923,"ssap":924,"ummoc":925,"ios":926,"Ã©b":927,"irv":928,"mom":929,"'m":930,"Ġertnoc":931,"Ġtem":932,"uej":933,"ur":934,"Ġiouq":935,"Ġertua":936,"Ġze":937,"og":938,"Ġisnia":939,"Ġrac":940,"yov":941,"nopÃ©r":942,"Ġzeva":943,"Ġtnod":944,"itne":945,"irpertne":946,"snart":947,"Ã©nÃ©g":948,"ĠÃ©tila":949,"dnet":950,"otohp":951,"elle":952,"Ġ%":953,"ĠÃłl":954,"nagro":955,"moh":956,"erid":957,"Ġsrev":958,"Ġpuocuaeb":959,"narf":960,"seb":961,"sno":962,"Ġrep":963,"Ġnob":964,"jÃ©d":965,"Ġtrop":966,"ĠâĢĵ":967,"Ġtnet":968,"ĠsnaD":969,"lam":970,"Ġalec":971,"Ġelc":972,"elÃ©":973,"Ġsrol":974,"nac":975,"pmis":976,"Ġsrola":977,"cÃ©d":978,"Ġsr":979,"Ġtid":980,"Ġsev":981,"oporp":982,"Ġnon":983,"sap":984,"ami":985,"Ġzehc":986,"Ã©di":987,"Ġselb":988,"sro":989,"Ġruot":990,"cep":991,"sia":992,"ĠtnemelagÃ©":993,"Ġsac":994,"borp":995,"noitan":996,"ref":997,"pol":998,"Ãī":999,"aj":1000,"oseb":1001,"Ãł":1002,"polev":1003,"seforp":1004,"Ġsnia":1005,"ob":1006,"002":1007,"Ġsuos":1008,"Ġerid":1009,"ĠÃłjÃ©d":1010,"nesÃ©rp":1011,"hC":1012,"ivne":1013,"Ġsnova":1014,"Ġport":1015,"Ġsf":1016,"xua":1017,"ssa":1018,"uoT":1019,"alc":1020,"Ġrem":1021,"Ġednom":1022,"tse":1023,"mod":1024,"tnesÃ©rp":1025,"nE":1026,"Ġtrap":1027,"icÃ©rp":1028,"apmoc":1029,"Åĵ":1030,"Ġrehc":1031,"le":1032,"Ġiom":1033,"Ġtitep":1034,"itna":1035,"sio":1036,"Ġtned":1037,"iah":1038,"ĠellE":1039,"mos":1040,"utis":1041,"Ġelbmes":1042,"Ġsrueis":1043,"idÃ©m":1044,"hcet":1045,"Ã©ps":1046,"Ġna":1047,"uort":1048,"sec":1049,"tsih":1050,"ruot":1051,"Ġnot":1052,"idni":1053,"elp":1054,"utÃ©":1055,"ennois":1056,"Ġrev":1057,"Ġsennosrep":1058,"Ġeuqahc":1059,"nalp":1060,"Ġemm":1061,"ilop":1062,"ssia":1063,"rom":1064,"oN":1065,"ĠseÃ©":1066,"ies":1067,"inam":1068,"Ġren":1069,"Ġ9":1070,"ibah":1071,"imaf":1072,"polevÃ©d":1073,"lla":1074,"nirp":1075,"uA":1076,"vius":1077,"Ġtnemm":1078,"Ġtnadnep":1079,"Ġzevuop":1080,"sen":1081,"iahuos":1082,"ĠetteC":1083,"Ġueil":1084,"cat":1085,"ico":1086,"silitu":1087,"Ġeuqit":1088,"uqsuj":1089,"Ġdnarg":1090,"Ġrec":1091,"Ġsa":1092,"eÃ©t":1093,"icÃ©ps":1094,"Ġnifa":1095,"Ġtnemeg":1096,"iga":1097,"stna":1098,"ĠÃ©tilib":1099,"Ġennob":1100,"Ġle":1101,"Ġecalp":1102,"rehcer":1103,"Ġneir":1104,"ĠÃ©v":1105,"Ã©ma":1106,"Ġreuq":1107,"iames":1108,"Ġsrueisulp":1109,"Ġzess":1110,"apic":1111,"Ġrinev":1112,"iuc":1113,"Ġsert":1114,"Ġnoitat":1115,"Ġsirp":1116,"Ġtiod":1117,"Ġtec":1118,"Ġtnemiarv":1119,"ivitca":1120,"Ġenia":1121,"eppa":1122,"rtnoc":1123,"Ġesim":1124,"elliem":1125,"ela":1126,"eitrap":1127,"uah":1128,"ral":1129,"Ġenne":1130,"ĠetÃª":1131,"euc":1132,"Ġrevuort":1133,"Ã©D":1134,"eria":1135,"xue":1136,"sev":1137,"Ġeru":1138,"ĠeÃ©r":1139,"ses":1140,"ĠtÃ´":1141,"Ġnoiss":1142,"oj":1143,"isiv":1144,"ulos":1145,"ats":1146,"Ġ;":1147,"uorg":1148,"01":1149,"orue":1150,"Ġtnemen":1151,"erbmon":1152,"lu":1153,"Ġetna":1154,"Ġselle":1155,"ren":1156,"Ġk":1157,"utc":1158,"Ġsehc":1159,"Ġsiav":1160,"ĠeD":1161,"dra":1162,"nammoc":1163,"recnoc":1164,"ifnoc":1165,"Ġei":1166,"ussa":1167,"rivne":1168,"uas":1169,"Ġeug":1170,"lac":1171,"Ġ01":1172,"Ġrenno":1173,"igÃ©r":1174,"iL":1175,"neg":1176,"Ġtneiv":1177,"nec":1178,"eno":1179,"ircÃ©":1180,"iot":1181,"icna":1182,"Ġetius":1183,"ennoisseforp":1184,"uer":1185,"dro":1186,"Ġsu":1187,"Ġris":1188,"ulc":1189,"eR":1190,"ĠeÃ©nna":1191,"ucitrap":1192,"Ġtemrep":1193,"yom":1194,"Ġsiom":1195,"Ã©lÃ©t":1196,"nemmoc":1197,"ĠÃ©tir":1198,"Ġtnevuep":1199,"ialp":1200,"neib":1201,"uocÃ©d":1202,"icaf":1203,"Ġsep":1204,"iva":1205,"Ġsiamaj":1206,"ler":1207,"evin":1208,"sser":1209,"icÃ©d":1210,"uahc":1211,"Ġliavart":1212,"Ġeitrap":1213,"nos":1214,"ffa":1215,"nopser":1216,"dner":1217,"cua":1218,"ĠsetÃª":1219,"arÃ©nÃ©g":1220,"Ã©R":1221,"ĠeÃ©n":1222,"Ġsecna":1223,"iatrec":1224,"reM":1225,"pus":1226,"Ġevuort":1227,"Ġetpmoc":1228,"ĠÃ©l":1229,"itnes":1230,"utits":1231,"ini":1232,"ĠerÃ¨imerp":1233,"Ã§narf":1234,"iD":1235,"itcnof":1236,"Ġnoitisop":1237,"Ġ.)":1238,"itnoc":1239,"yt":1240,"all":1241,"ilppa":1242,"rob":1243,"iciff":1244,"ĠÃ©d":1245,"itarp":1246,"Ġ03":1247,"Ġtnemom":1248,"Ġreimerp":1249,"arap":1250,"Ġriovas":1251,"iuh":1252,"ilucitrap":1253,"sinagro":1254,"Ġsias":1255,"pmexe":1256,"Ġuv":1257,"Ġtub":1258,"Ġ,Â»":1259,"nab":1260,"Ġnoitar":1261,"nerp":1262,"ivÃ©":1263,"spmet":1264,"Ġâ":1265,"ssec":1266,"olb":1267,"ellia":1268,"effe":1269,"temrep":1270,"Ã´c":1271,"lif":1272,"ri":1273,"esnoc":1274,"ing":1275,"netta":1276,"ipar":1277,"orc":1278,"ĠeÃ©t":1279,"Ġtnen":1280,"Ġrinet":1281,"Ġednarg":1282,"snoita":1283,"hcorp":1284,"Ã©ht":1285,"Ġsiava":1286,"illim":1287,"monoc":1288,"srol":1289,"Ġxueim":1290,"Ġemrof":1291,"Ġxuec":1292,"Ġellevuon":1293,"Ĥ¬":1294,"Ġxirp":1295,"ya":1296,"catnoc":1297,"Ġrue":1298,"Ġstiudorp":1299,"eig":1300,"reb":1301,"ruojua":1302,"ruet":1303,"Ġlam":1304,"of":1305,"nart":1306,"sulp":1307,"ĠuA":1308,"ĠsÃ©s":1309,"itros":1310,"iul":1311,"ucÃ©s":1312,"ĠÃ©hc":1313,"Ġritrap":1314,"dnetta":1315,"utca":1316,"cerid":1317,"ĠÃ©n":1318,"hparg":1319,"ĠÃ©g":1320,"ww":1321,"Ġiar":1322,"Ġrirv":1323,"ejbo":1324,"isÃ©r":1325,"irÃ©pxe":1326,"Ġuaevuon":1327,"raP":1328,"itseuq":1329,"gni":1330,"ew":1331,"ulov":1332,"lo":1333,"ics":1334,"ira":1335,"Ġnia":1336,"ĠÃ©r":1337,"Ġeuqi":1338,"ocÃ©":1339,"ron":1340,"monocÃ©":1341,"tsys":1342,"icossa":1343,"Ġtnemell":1344,"les":1345,"elloc":1346,"Ġtnemer":1347,"nerÃ©ffid":1348,"Ġleuq":1349,"Ãłl":1350,"Ġici":1351,"otua":1352,"eug":1353,"cir":1354,"Ġtnemess":1355,"Ġelbissop":1356,"nu":1357,"sinim":1358,"ĠtnemerÃ¨":1359,"rager":1360,"Ġsniat":1361,"nob":1362,"Ã§af":1363,"lum":1364,"Ġetser":1365,"xet":1366,"iop":1367,"Ġstnafne":1368,"ĠT":1369,"ĠsÃ¨c":1370,"atsni":1371,"unim":1372,"Ġecivres":1373,"idÃ©":1374,"rA":1375,"Ġuae":1376,"Ġetsuj":1377,"Ġ02":1378,"sre":1379,"Ġennosrep":1380,"inhcet":1381,"nA":1382,"Ġelbat":1383,"iB":1384,"Ġetitep":1385,"Ġtejorp":1386,"ircsni":1387,"Ġelcitra":1388,"argorp":1389,"Ġtniop":1390,"ĠÃ©uq":1391,"Ġesohc":1392,"ssiannoc":1393,"ejorp":1394,"elba":1395,"netniam":1396,"reg":1397,"Ġsiort":1398,"su":1399,"celÃ©":1400,"Ġegat":1401,"nic":1402,"ĠÃ©tic":1403,"Ġ000":1404,"nor":1405,"Ġesnep":1406,"ruof":1407,"Ġriovuop":1408,"Ġsus":1409,"ias":1410,"Ġuaevin":1411,"eucca":1412,"Ġeuv":1413,"erc":1414,"lusÃ©r":1415,"idnoc":1416,"ennoit":1417,"euQ":1418,"NO":1419,"itned":1420,"iord":1421,"ĠecÃ¢":1422,"iforp":1423,"Ġtnemmoc":1424,"inop":1425,"Ġnioseb":1426,"remmoc":1427,"sÃ©t":1428,"org":1429,"Ġegas":1430,"ilaÃ©r":1431,"Ġressap":1432,"ex":1433,"Ġsyap":1434,"tropmi":1435,"ĠicreM":1436,"tsi":1437,"ĠseD":1438,"inummoc":1439,"Ġiol":1440,"Ġtuotrus":1441,"ten":1442,"ima":1443,"sac":1444,"orP":1445,"Ġtnav":1446,"icitrap":1447,"Ġsemmos":1448,"Ġednamed":1449,"nava":1450,"Ġnoles":1451,"Ġtiord":1452,"Ã¨r":1453,"Ġtnemep":1454,"sell":1455,"rocca":1456,"Ġtnevuos":1457,"eirÃ©t":1458,"Ġtnor":1459,"Ã©po":1460,"ega":1461,"Ġerbmon":1462,"Ġeno":1463,"Ġserbm":1464,"uac":1465,"nap":1466,"81":1467,"nerÃ©f":1468,"Ġin":1469,"inopsid":1470,"Ã©lÃ©":1471,"tuep":1472,"noM":1473,"Ġemia":1474,"ilpxe":1475,"ssed":1476,"ĠÃ©m":1477,"Ġeni":1478,"Ġdra":1479,"suov":1480,"Ġat":1481,"pse":1482,"isnoc":1483,"Ġ51":1484,"Ã»s":1485,"Ġiuh":1486,"ĠseÃ©nnod":1487,"elliu":1488,"pada":1489,"ĠtÃ´t":1490,"ĠÃ©tilauq":1491,"Ġten":1492,"Ã´h":1493,"Ġsnoitamrofni":1494,"ĠslI":1495,"ici":1496,"Ġelbmesne":1497,"Ġtner":1498,"Ġb":1499,"imil":1500,"ioV":1501,"Ġlet":1502,"atlusÃ©r":1503,"Ġecrap":1504,"ĠecnarF":1505,"Ã©nÃ©b":1506,"Ġelliv":1507,"ĠseÃ©nna":1508,"puoc":1509,"tnemel":1510,"suo":1511,"raM":1512,"Ġtnemev":1513,"sÃ©":1514,"Ġrella":1515,"Ġzessa":1516,"sÃ¨":1517,"ĠseÃ©s":1518,"apse":1519,"tab":1520,"iun":1521,"Ġtnores":1522,"tel":1523,"morp":1524,"inU":1525,"Ġsiar":1526,"Ġesop":1527,"tnemet":1528,"Ġengil":1529,"pmer":1530,"irÃ©t":1531,"Ġreng":1532,"ĠuT":1533,"Ġrennod":1534,"Ġnoitseuq":1535,"Ġeig":1536,"Ã¨d":1537,"iod":1538,"acco":1539,"00":1540,"irÃ©v":1541,"resÃ©r":1542,"Ġreif":1543,"iM":1544,"mef":1545,"nonna":1546,"issec":1547,"Ġets":1548,"Ġecaf":1549,"netnoc":1550,"....":1551,"Ġxuep":1552,"Ġtnemeuq":1553,"irb":1554,"rud":1555,"aton":1556,"iffa":1557,"siof":1558,"ĠelÃ´":1559,"seria":1560,"Ġesirp":1561,"erutan":1562,"Ġesser":1563,"icif":1564,"pes":1565,"sl":1566,"Ġsniatrec":1567,"ilbatÃ©":1568,"Ġedo":1569,"silaÃ©r":1570,"ssecÃ©n":1571,"Ġeriotsih":1572,"uev":1573,"inif":1574,"Ġniam":1575,"Ġehcrehcer":1576,"Ġtnemenno":1577,"ehca":1578,"ituo":1579,"ĠÃ©c":1580,"stne":1581,"iut":1582,"Ġnoissim":1583,"Â«":1584,"eip":1585,"enne":1586,"Ġerdac":1587,"dnev":1588,"NE":1589,"'t":1590,"iV":1591,"irporp":1592,"Ġeuqleuq":1593,"Ġeb":1594,"Ġnoitamrof":1595,"Ã©div":1596,"ecne":1597,"non":1598,"mot":1599,"ĠÃ©s":1600,"Ġtiares":1601,"ĠepiuqÃ©":1602,"Ãªrra":1603,"Ġdnerp":1604,"nois":1605,"Ġrir":1606,"oh":1607,"apicnirp":1608,"Ã©mun":1609,"iug":1610,"vil":1611,"cav":1612,"apac":1613,"âĢľ":1614,"Ġruetc":1615,"Ġtnas":1616,"ĠertÃ®":1617,"Ġetrop":1618,"uoja":1619,"ella":1620,"Ġsela":1621,"iffus":1622,"cepser":1623,"Ġxuev":1624,"Ġsecivres":1625,"Ġesoporp":1626,"evA":1627,"Ġ05":1628,"gnol":1629,"apmocca":1630,"Ã¨ip":1631,"ĠraP":1632,"Ġelleuq":1633,"eÃ©di":1634,"ĠtÃ»":1635,"Ġnoitca":1636,"luov":1637,"ida":1638,"ilbuo":1639,"eh":1640,"issu":1641,"itcejbo":1642,"Ġedia":1643,"Ġtroppar":1644,"Ġuej":1645,"ĠtuoT":1646,"esÃ©r":1647,"udorp":1648,"ĠsÃ¨rpA":1649,"Ġtnar":1650,"renÃ©":1651,"Ġxiohc":1652,"ĠemÃ¨tsys":1653,"rappa":1654,"nig":1655,"atot":1656,"rofnoc":1657,"yh":1658,"eS":1659,"Ġtnan":1660,"sruet":1661,"Ġesirpertne":1662,"Ġ,\"":1663,"Ã¨m":1664,"evart":1665,"siup":1666,"noitc":1667,"iap":1668,"rÃ©ffid":1669,"lav":1670,"ialc":1671,"lup":1672,"erap":1673,"Ġtnemmaton":1674,"agne":1675,"atrap":1676,"Ġgni":1677,"ĠR":1678,"Ġnosiam":1679,"Ġup":1680,"uO":1681,"ĠÃĢ":1682,"Ġtias":1683,"ĠrirvuocÃ©d":1684,"apm":1685,"Ã©pmoc":1686,"Ġsnois":1687,"Ġsc":1688,"aM":1689,"Ġelleb":1690,"Ġtiga":1691,"ecÃ©d":1692,"iram":1693,"ĠecÃ¢rg":1694,"auq":1695,"cte":1696,"ĠemmoC":1697,"ilauq":1698,"Ġemmoh":1699,"tuot":1700,"ĠC":1701,"Ġmon":1702,"Ġsnoitc":1703,"ĠnoÃ§af":1704,"sne":1705,"gna":1706,"Ġessap":1707,"rab":1708,"niet":1709,"Ġepuorg":1710,"issa":1711,"uÅĵ":1712,"gÃ¨r":1713,"tnev":1714,"isum":1715,"ĠâĤ¬":1716,"ilbo":1717,"ubirt":1718,"tser":1719,"Ġtnemes":1720,"elbat":1721,"Ġresop":1722,"iorc":1723,"Ġiulec":1724,"Ġerffo":1725,"noces":1726,"iutarg":1727,"Ġim":1728,"Ġegap":1729,"ĠsÃ¨d":1730,"Ã©hc":1731,"ahC":1732,"Ġxuerbmon":1733,"Ġrell":1734,"ĠseC":1735,"eigol":1736,"ifing":1737,"tiaf":1738,"lusnoc":1739,"Ġesia":1740,"isÃ©h":1741,"sus":1742,"ĠeÃ©v":1743,"loc":1744,"uol":1745,"Ġtnof":1746,"Ġnucua":1747,"Ġennod":1748,"eil":1749,"ecer":1750,"stnem":1751,"ivni":1752,"asse":1753,"selb":1754,"itsev":1755,"tt":1756,"Ġtnemelues":1757,"Ġsetna":1758,"sruoj":1759,"Ġelli":1760,"Ġreiv":1761,"ĠcevA":1762,"Ġegar":1763,"aciff":1764,"ĠtubÃ©d":1765,"eN":1766,"Ġsir":1767,"ulP":1768,"seÃ©n":1769,"noB":1770,"Ġerre":1771,"aÃ§":1772,"lab":1773,"soporp":1774,"Ġsid":1775,"ednom":1776,"ĠtnemeppolevÃ©d":1777,"Ġmu":1778,"citra":1779,"ito":1780,"Ġzes":1781,"Ġlues":1782,"Ġreinred":1783,"yasse":1784,"ĠtÃ´tulp":1785,"etius":1786,"cus":1787,"Ġsneg":1788,"Ġselba":1789,"Ã¨lborp":1790,"siar":1791,"itap":1792,"isrev":1793,"uS":1794,"Ġiouqruop":1795,"porp":1796,"ĠI":1797,"Ġellas":1798,"yl":1799,"Ġrisialp":1800,"Ġsett":1801,"UO":1802,"ĠtnemmoC":1803,"Ġsnoitac":1804,"Ġtnemec":1805,"Ġsesu":1806,"Ġtnatua":1807,"etna":1808,"issuÃ©r":1809,"Ġevita":1810,"Ġretrop":1811,"Ġeivne":1812,"Ġsecne":1813,"etni":1814,"Ġarua":1815,"aciffe":1816,"Ġtneg":1817,"idom":1818,"isÃ©rp":1819,"Ġ/":1820,"Ã¯":1821,"mina":1822,"ecnarF":1823,"inruof":1824,"itse":1825,"elf":1826,"eÃ©nna":1827,"Ġeriat":1828,"Ġresilitu":1829,"proc":1830,"ĠtneiatÃ©":1831,"ucod":1832,"naj":1833,"revuog":1834,"Ġneil":1835,"rts":1836,"Ġsesohc":1837,"Ġerutc":1838,"iesne":1839,"Ġetsi":1840,"21":1841,"ilÃ©ma":1842,"ĠeÃ©di":1843,"mosnoc":1844,"Ġelpmis":1845,"oda":1846,"los":1847,"oP":1848,"etpes":1849,"ik":1850,"rtne":1851,"annoc":1852,"utitsnoc":1853,"irret":1854,"Ġsellevuon":1855,"8102":1856,"NA":1857,"zed":1858,"Ã¨dom":1859,"ĠerÃ¨inam":1860,"idutÃ©":1861,"Ġria":1862,"Ġ21":1863,"fÃ©d":1864,"Ġgnol":1865,"nad":1866,"Ġruotua":1867,"cahc":1868,"Ġstitep":1869,"Ġsnes":1870,"ucco":1871,"acol":1872,"ued":1873,"aC":1874,"iuo":1875,"gua":1876,"Ġellec":1877,"ĠetnesÃ©rp":1878,"Ġnoitcnof":1879,"snoit":1880,"nummoc":1881,"ulovÃ©":1882,"niaS":1883,"Ġsotohp":1884,"noitanretni":1885,"euqit":1886,"Ġeniames":1887,"iol":1888,"Ġicrem":1889,"motua":1890,"nis":1891,"oC":1892,"otco":1893,"edipar":1894,"mor":1895,"utceffe":1896,"Ġepyt":1897,"Ã¨lÃ©":1898,"Ġserueh":1899,"Ġenuej":1900,"ĠsÃ¨cca":1901,"ĠstnerÃ©ffid":1902,"ĠÃ©rg":1903,"Ġnoisacco":1904,"Ġneit":1905,"netrap":1906,"arf":1907,"Ġiarv":1908,"Ġiot":1909,"Ġtnanetniam":1910,"51":1911,"itsed":1912,"yot":1913,"yla":1914,"evon":1915,"Ġerdner":1916,"lc":1917,"srev":1918,"ĠecneirÃ©pxe":1919,"nat":1920,"ek":1921,"ĠaleC":1922,"erbm":1923,"Ġex":1924,"arb":1925,"druojua":1926,"Ġteffe":1927,"nalb":1928,"itsevni":1929,"Ġtnaved":1930,"ĠemÃ¨l":1931,"ĠeÃ©nruoj":1932,"ÂŃ":1933,"Ġtnaya":1934,"ĠsrolA":1935,"uom":1936,"Ġtiarruop":1937,"oV":1938,"ĠÃ©tÃ©icos":1939,"Ġetsil":1940,"iciffid":1941,"erre":1942,"ric":1943,"bme":1944,"Ã©porue":1945,"Ġnielp":1946,"ĠsÃ©n":1947,"nahcÃ©":1948,"retnI":1949,"siom":1950,"iurt":1951,"Ġsnoitidnoc":1952,"ĠSE":1953,"utit":1954,"atip":1955,"Ġtiudorp":1956,"Ãªrp":1957,"ĠÃ©tirucÃ©s":1958,"tsid":1959,"ĠemÃ¨lborp":1960,"Ġserut":1961,"Ġesab":1962,"Ġsnot":1963,"Ġsiaf":1964,"iatÃ©d":1965,"tnec":1966,"Ġeril":1967,"Ġnoitseg":1968,"emÃªm":1969,"Ġnoitav":1970,"Ã¨is":1971,"ÃªrÃ©tni":1972,"nioj":1973,"ruoP":1974,"uocÃ©":1975,"itnedi":1976,"!!!":1977,"41":1978,"ĠÃ©tÃ´c":1979,"Ġellimaf":1980,"Ġnoitam":1981,"iS":1982,"nit":1983,"anno":1984,"vuop":1985,"ĠD":1986,"ĠsÃ©l":1987,"Ġredia":1988,"sinimda":1989,"Ġtiarua":1990,"isiuc":1991,"ĠsÃ©r":1992,"nruoj":1993,"ĠÃ©ssap":1994,"eppar":1995,"gis":1996,"uae":1997,"Ġtnemelle":1998,"oM":1999,"yol":2000,"vas":2001,"ugÃ©r":2002,"ĠsÃ©tivitca":2003,"Ġtnauq":2004,"Ã¨ht":2005,"illi":2006,"03":2007,"euoj":2008,"Ġsenuej":2009,"llatsni":2010,"ĠenÃ¨":2011,"ĠÃ©tivitca":2012,"71":2013,"ĠtatÃ©":2014,"cs":2015,"Ġ'":2016,"ĠÃ©hcram":2017,"rio":2018,"Ġseru":2019,"Ġsenia":2020,"utibah":2021,"ennoc":2022,".Â»":2023,"elÃ©s":2024,"tnemmoc":2025,"nocner":2026,"ĠtnatÃ©":2027,"Ġnoitasilitu":2028,"Ġfit":2029,"yc":2030,"oruE":2031,"urts":2032,"urtsnoc":2033,"Ã©rga":2034,"ĠeuQ":2035,"atta":2036,"tsni":2037,"Ġertnec":2038,"Ġserbmem":2039,"ĠseÃ©t":2040,"etÃª":2041,"Ġtness":2042,"irba":2043,"yovne":2044,"hpÃ©lÃ©t":2045,"tnesÃ©rper":2046,"IT":2047,"pecca":2048,"nartÃ©":2049,"oR":2050,"atE":2051,"Ġtneviod":2052,"teffe":2053,"xE":2054,"Ġxuer":2055,"Ġtuev":2056,"Ġnosiar":2057,"rdne":2058,"euqi":2059,"ramÃ©d":2060,"ĠreÃ©rc":2061,"rexe":2062,"inim":2063,"Ġsesirpertne":2064,"Ġerusem":2065,"gÃ©r":2066,"uatser":2067,"Ġsnoitseuq":2068,"Ġemmef":2069,"Ġtnenne":2070,"sf":2071,"tnet":2072,"iab":2073,"dnetne":2074,"Ġseuqit":2075,"serpmi":2076,"Ġervil":2077,"rT":2078,"Ġnoitautis":2079,"Ġelues":2080,"eriaf":2081,"irav":2082,"Ġsnoitat":2083,"dnepÃ©d":2084,"ĠÃ©tnas":2085,"ĠeÃ©l":2086,"Ġeuqsrol":2087,"nietta":2088,"sab":2089,"elliuj":2090,"ðŁ":2091,"sertua":2092,"Ġetne":2093,"carac":2094,"Ġsiva":2095,"Ġnoitacif":2096,"ĠerbmecÃ©d":2097,"icifÃ©nÃ©b":2098,"itnarag":2099,"ĠerÃ¨inred":2100,"erio":2101,"Ġsneiv":2102,"irva":2103,"www":2104,"Ġtejus":2105,"Ġrelrap":2106,"ruos":2107,"Ġtel":2108,"Ġemmargorp":2109,"snep":2110,"nidro":2111,"tsud":2112,"Ġxuaevuon":2113,"Ġ52":2114,"idito":2115,"ilg":2116,"yhp":2117,"Ġertit":2118,"sehc":2119,"bmess":2120,"Ġrert":2121,"Ġfita":2122,"Ġehcorp":2123,"suos":2124,"/:":2125,"Ã§er":2126,"roba":2127,"rut":2128,"issim":2129,"Ġnorivne":2130,"Ġerueh":2131,"Ġsrevart":2132,"Ġunev":2133,"Ġtnass":2134,"Ġenucua":2135,"Ġnoitp":2136,"ĠetÃªt":2137,"Ġsnoillim":2138,"^^":2139,"inagro":2140,"Ġsruellia":2141,"Ġreivnaj":2142,"Ġsenno":2143,"rops":2144,"Ġ81":2145,"ruc":2146,"Ġsemmef":2147,"Ġnoitulos":2148,"ylana":2149,"iditouq":2150,"ĠL":2151,"ĠÃ©vuort":2152,"noitac":2153,"ĠerÃ¨pse":2154,"liavart":2155,"Ġnalp":2156,"Ġ8102":2157,"uerueh":2158,"tnemila":2159,"Ġseu":2160,"Ġesserda":2161,"RE":2162,"Ġeigol":2163,"llec":2164,"Ġetsixe":2165,"ilibom":2166,"61":2167,"etorp":2168,"onhcet":2169,"oht":2170,"Ġrueir":2171,"Ġreil":2172,"ĠruS":2173,"Åĵc":2174,"Ã©vÃ©":2175,"Ã©uq":2176,"ĠP":2177,"elos":2178,"Ã«":2179,"NI":2180,"Ġxuej":2181,"ĠdnauQ":2182,"Ġeuqitilop":2183,"tth":2184,"rtsinimda":2185,"uam":2186,"sÃ¨rp":2187,"Ġegrahc":2188,"nimret":2189,"Ġetrac":2190,"ptth":2191,"Ġniuj":2192,"icnanif":2193,"roh":2194,"Ġseniatrec":2195,"itini":2196,"tid":2197,"revuocÃ©d":2198,"Ġeuqir":2199,"lA":2200,"991":2201,"Ã©tÃ©":2202,"Ġtnatropmi":2203,"ĠertoN":2204,"Ġetxet":2205,"Ã©corp":2206,"uen":2207,"acid":2208,"sita":2209,"Ġuaeb":2210,"//:":2211,"siam":2212,"Ġsesuerbmon":2213,"ĠzetisÃ©h":2214,"gilbo":2215,"Ġressial":2216,"Ġta":2217,"repus":2218,"ĠsetnerÃ©ffid":2219,"ĠâĢ¢":2220,"pmahc":2221,"trap":2222,"Ã¨lpmoc":2223,"Ġsnor":2224,"itnesse":2225,"inuÃ©r":2226,"rot":2227,"arts":2228,"irpse":2229,"mu":2230,"ĠsiatÃ©":2231,"Ġsiofrap":2232,"serÃ¨":2233,"Ã©disnoc":2234,"Ġtrof":2235,"oo":2236,"Ġhc":2237,"itcelloc":2238,"Ġerbmetpes":2239,"unitnoc":2240,"itÃ¢":2241,"eta":2242,"ett":2243,"Ġervius":2244,"igÃ©l":2245,"irtcelÃ©":2246,"Ġecapse":2247,"ĠsiupeD":2248,"Ġnoitnev":2249,"ceps":2250,"ĠerdnopÃ©r":2251,"tsudni":2252,"aS":2253,"ĠÃ©p":2254,"ffuahc":2255,"iciffo":2256,"Ġ41":2257,"ĠtÃ®":2258,"ĠicioV":2259,"Ġsram":2260,"ecalp":2261,"erappa":2262,"uap":2263,"Ġelpmexe":2264,"ilos":2265,"artnoc":2266,"Ġseug":2267,"7102":2268,"Ġor":2269,"ocs":2270,"ĠsÃ¨rpua":2271,"imul":2272,"Ġnoisrev":2273,"ĠÃ©nnod":2274,"vuo":2275,"Ġerbotco":2276,"itlum":2277,"icremmoc":2278,"atÃī":2279,"kc":2280,"sd":2281,"Ġniol":2282,"Ġerbmevon":2283,"Ġtnemelpmis":2284,"isÃ©d":2285,"Ġsproc":2286,"Ġxuat":2287,"lupop":2288,"ibma":2289,"Ġerviv":2290,"Ġnoitpec":2291,"??":2292,"SE":2293,"uerp":2294,"Ġtuah":2295,"idnac":2296,"Ġruelliem":2297,"icÃ©rppa":2298,"ĠnoitaÃ©rc":2299,"Ġnoitamrofni":2300,"Ġetad":2301,"caf":2302,"tnemÃ©l":2303,"uem":2304,"Ġtnov":2305,"Ġerneg":2306,"Ġeriot":2307,"Ġsroh":2308,"Ġtnafne":2309,"Ġtnemela":2310,"draj":2311,"iger":2312,"Ġdrocca":2313,"bus":2314,"isopsid":2315,"ĠED":2316,"irat":2317,"Ġsetunim":2318,"Ġzed":2319,"ertua":2320,"Ġtahc":2321,"igiro":2322,"sserÃ©tni":2323,"Ġeuqsir":2324,"pA":2325,"Ġneyom":2326,"Ġotohp":2327,"snopser":2328,"tia":2329,"Ġrinetbo":2330,"asilitu":2331,"ilim":2332,"isyhp":2333,"Ġsetis":2334,"Ġcilbup":2335,"emas":2336,"iudÃ©r":2337,"âĢĿ":2338,"erutluc":2339,"Ã©torp":2340,"Ġeuqram":2341,"ipÃ©":2342,"Ġsets":2343,"erdnev":2344,"rel":2345,"Ġiam":2346,"RA":2347,"Ġstejorp":2348,"ilÃ©d":2349,"ralcÃ©d":2350,"Ġ11":2351,"31":2352,"nil":2353,"Ġsnoitca":2354,"mmoc":2355,"nammocer":2356,"tnemom":2357,"zedner":2358,"eew":2359,"erv":2360,"irÃ©":2361,"Ġruoter":2362,"Ġ.Â»":2363,"Ġmum":2364,"ĠsiaÃ§narf":2365,"Ġeil":2366,"suon":2367,"Ġsiarf":2368,"iP":2369,"Ġtnad":2370,"ĠecnerÃ©f":2371,"etis":2372,"Ġzeuq":2373,"Ġstniop":2374,"esnoC":2375,"itsuj":2376,"Ġtnemeng":2377,"Ġevirra":2378,"Ġ61":2379,"uqÃ©s":2380,"sE":2381,"Ġzel":2382,"margorp":2383,"Ġ42":2384,"Ġsiv":2385,"stnafne":2386,"Ġesuac":2387,"ĠsaP":2388,"Ġ(":2389,"icrem":2390,"iR":2391,"ucih":2392,"Ġeuqits":2393,"repxe":2394,"issod":2395,"iafrap":2396,"Ġsdnarg":2397,"ffuos":2398,"Ġxuavart":2399,"inifÃ©d":2400,"inum":2401,"irg":2402,"Ġtnes":2403,"llecxe":2404,"Ġecnar":2405,"ĠedoirÃ©p":2406,"Ġerporp":2407,"fni":2408,"ĠerÃ¨itam":2409,"Ġsevita":2410,"elpmexe":2411,"namid":2412,"idnom":2413,"avÃ©":2414,"ividni":2415,"rtxe":2416,"netÃ©pmoc":2417,"Ġuaet":2418,"Ġdnof":2419,"Ġstneilc":2420,"ĠeriL":2421,"Ġso":2422,"tsixe":2423,"nort":2424,"iudnoc":2425,"naC":2426,"ĠstatlusÃ©r":2427,"Ġetnev":2428,"Ġnim":2429,"gÃ©l":2430,"Ġxuey":2431,"irvÃ©f":2432,"cirÃ©ma":2433,"ilav":2434,"uss":2435,"Ġtneiar":2436,"Ġeuqitarp":2437,"cÃ©":2438,"ejus":2439,"lpxe":2440,"Ġnoisserp":2441,"ucihÃ©v":2442,"Ġtnemetcerid":2443,"Ã®art":2444,"vaf":2445,"ĠneiB":2446,"ĠsulP":2447,"Ã§narF":2448,"edÃ©m":2449,"Ġ]":2450,"ĠÂ°":2451,"egas":2452,"ĠretivÃ©":2453,"ard":2454,"Ġunet":2455,"atsnoc":2456,"Ġedom":2457,"lli":2458,"yts":2459,"nnosrep":2460,"sert":2461,"05":2462,"Ġliam":2463,"Ġtuob":2464,"aF":2465,"ilpmoc":2466,"cer":2467,"oa":2468,"Ġsiorc":2469,"ĠeÃ©m":2470,"Ġtnanrecnoc":2471,"alloc":2472,"ertnoc":2473,"idalam":2474,"Ġsorg":2475,"Ġtiarved":2476,"Ġnoisiv":2477,"ĠemÃ¨ix":2478,"Ġetiv":2479,"Ġetuod":2480,"Ġlirva":2481,"Ġtelliuj":2482,"udÃ©":2483,"nolov":2484,"Ġeniamod":2485,"rb":2486,"roF":2487,"Ġtiov":2488,"Ġstiord":2489,"Ġ31":2490,"Ġerdnerpmoc":2491,"sruellia":2492,"Ġsorue":2493,"tnemenno":2494,"Ġerutan":2495,"eirÃ©tam":2496,"noD":2497,"uqleuq":2498,"Ġnucahc":2499,"Ġ71":2500,"Ġegami":2501,"Ġetiahuos":2502,"ucsid":2503,"ilo":2504,"ĠuD":2505,"Ġsiov":2506,"reC":2507,"nopserroc":2508,"silaicÃ©ps":2509,"eÃ©d":2510,"nul":2511,"Ġelleuqal":2512,"Ġelicaf":2513,"ĠÃ©ng":2514,"Ġstnat":2515,"annosrep":2516,"ihcra":2517,"Ġetropmi":2518,"dna":2519,"Ġnifne":2520,"Ġmlif":2521,"Ġerttemrep":2522,"ĠÃ©til":2523,"ilugÃ©r":2524,"cilbup":2525,"tniaS":2526,"uof":2527,"lat":2528,"Ġsnioseb":2529,"oob":2530,"Ġlif":2531,"Ġsemmoh":2532,"elliv":2533,"sela":2534,"Ġfitcejbo":2535,"iurtsnoc":2536,"nitnoc":2537,"Ġsecnacav":2538,"resnoc":2539,"seÃ©nna":2540,"iorf":2541,"Ġecnass":2542,"Â°":2543,"Ġseuqi":2544,"yd":2545,"Ġnies":2546,"adidnac":2547,"erub":2548,"ĠsiraP":2549,"nigiro":2550,"rifnoc":2551,"riov":2552,"me":2553,"Ġleppa":2554,"Ġeunev":2555,"6102":2556,"alliv":2557,"itÃ©m":2558,"ixam":2559,"ĠÃ©sop":2560,"edac":2561,"agam":2562,"ueo":2563,"Ġtnarud":2564,"Ġart":2565,"Ġsirpmoc":2566,"Ġgolb":2567,"ruoter":2568,"Ġertauq":2569,"Ġruelav":2570,"ĠÃ©tilibissop":2571,"Ġerutrevuo":2572,"elliev":2573,"Ã¨ll":2574,"Ġtnemetiart":2575,"acidÃ©m":2576,"sias":2577,"ĠeN":2578,"ĠsÃ©g":2579,"Ã©tarts":2580,"Ġnoitacilppa":2581,"nel":2582,"ĠerÃ¨ir":2583,"ĠÃ©ss":2584,"ets":2585,"ĠemÃª":2586,"Ġsess":2587,"Ġtnec":2588,"ipap":2589,"Ġsussed":2590,"engil":2591,"yolpme":2592,"eP":2593,"Ġlan":2594,"resbo":2595,"ĠertÃ®annoc":2596,"ĠeÃ©g":2597,"Ġtra":2598,"Ġsle":2599,"Ġsial":2600,"ubÃ©d":2601,"ĠresilaÃ©r":2602,"Ġtneios":2603,"ĠruÅĵc":2604,"serÃ©tni":2605,"arÃ©":2606,"ĠsÃ©tila":2607,"narG":2608,"noigÃ©r":2609,"Ġstnemeg":2610,"11":2611,"ĠuaesÃ©r":2612,"ruojuA":2613,"rO":2614,"idart":2615,"sitas":2616,"nys":2617,"Ġnoitcudorp":2618,"Ã©cÃ©rp":2619,"ifingam":2620,"Ġnoitaicossa":2621,"Ġsar":2622,"âĤ¬":2623,"ĠoÃ©div":2624,"itÃ¢b":2625,"Ġertnocner":2626,"Ã©fÃ©rp":2627,"ĠetÃ¨":2628,"Ġeuqita":2629,"ĠelocÃ©":2630,"Ġreuoj":2631,"ffihc":2632,"Ġruetces":2633,"sopa":2634,"ibom":2635,"Ġtua":2636,"Ġrisiohc":2637,".\"":2638,"Ġzerruop":2639,"inÃ©g":2640,"sÃ¨rpa":2641,"SI":2642,"ucÃ©":2643,"erd":2644,"Ġdne":2645,"uqÃ©snoc":2646,"evuom":2647,"Ġsednarg":2648,"Ġnoitas":2649,"Ġerbmahc":2650,"Ġerbil":2651,"onni":2652,"Ġseriat":2653,"bmot":2654,"ĠnoigÃ©r":2655,"elbissop":2656,"netni":2657,"Ġnosias":2658,"uL":2659,"Ġtejbo":2660,"Ġecneg":2661,"ĠeirÃ©s":2662,"Ġrett":2663,"ĠstnemÃ©lÃ©":2664,"ĠsuoT":2665,"Ġtneiava":2666,"uorÃ©d":2667,"Ġselcitra":2668,"Ġseng":2669,"cA":2670,"ĠM":2671,"icnirp":2672,"Ġzetiahuos":2673,"Ġseuqits":2674,"sruoc":2675,"Ġtneme":2676,"ixe":2677,"ĠliesnoC":2678,"oilÃ©ma":2679,"Ġregatrap":2680,"Ġrevuorter":2681,"syap":2682,"Ġtnemedipar":2683,"nema":2684,"Ġnoitisopsid":2685,"Ġsetitep":2686,"Ġrerussa":2687,"Ġelrap":2688,"Ġrepus":2689,"Ġsimrep":2690,"yr":2691,"Ġsliesnoc":2692,"Ġq":2693,"rer":2694,"Ġellif":2695,"Ġretiforp":2696,"irap":2697,"Ġerutluc":2698,"Ġsruetc":2699,"Ġruep":2700,"noforp":2701,"imit":2702,"Ġetiusne":2703,"ĠsemÃ¨lborp":2704,"Ġtnemellet":2705,"Ġidemas":2706,"Ġtnemenrevuog":2707,"ĠesnopÃ©r":2708,"Ġrednamed":2709,"rat":2710,"Ġnoitcetorp":2711,"Ġtnenneiv":2712,"ueir":2713,"ĠrÃ»s":2714,"Ġsenne":2715,"iuS":2716,"eitros":2717,"Ġnosia":2718,"ĠedutÃ©":2719,"keew":2720,"ĠeriassecÃ©n":2721,"ruob":2722,"Ġeliciffid":2723,"Ġstrop":2724,"ĠeÃ©rud":2725,"Ġtuf":2726,"nav":2727,"ssop":2728,"Ġ04":2729,"Ġstnerap":2730,"rofrep":2731,"xes":2732,"enia":2733,"raC":2734,"ĠnoM":2735,"eiov":2736,"ĠtnedisÃ©rp":2737,"Ġeuqnam":2738,"itom":2739,"nah":2740,"ĠtnemerÃ¨ilucitrap":2741,"Ġimrap":2742,"iesner":2743,"rÃ©po":2744,"Ġecnassiannoc":2745,"ull":2746,"igerne":2747,"Ġeuqserp":2748,"Ġtneit":2749,"ubirtnoc":2750,"ĠtnesÃ©rp":2751,"etrop":2752,"Ġnoitasil":2753,"Ġarruop":2754,"ĠtÃªrÃ©tni":2755,"hca":2756,"apmac":2757,"Ġenisiuc":2758,"Ã©cca":2759,"ĠF":2760,"never":2761,"5102":2762,"Ġregnahc":2763,"Ġzerevuort":2764,"opÃ©":2765,"ruosser":2766,"ulavÃ©":2767,"niv":2768,"icsnoc":2769,"Ġecrof":2770,"Ġeda":2771,"uog":2772,"Ġsennob":2773,"iuO":2774,"erB":2775,"xu":2776,"apÃ©rp":2777,"tam":2778,"Ġunnoc":2779,"ĠemÃ¨ixued":2780,"Ã®artne":2781,"Ìģ":2782,"xif":2783,"eM":2784,"Ġslennoisseforp":2785,"ĠervuÅĵ":2786,"Ġsetiaf":2787,"issap":2788,"Ġsellec":2789,"Ġtom":2790,"irid":2791,"tnat":2792,"Ġecnahc":2793,"secna":2794,"tsE":2795,"iler":2796,"Ġsab":2797,"Ġueilim":2798,"noitat":2799,"Ġaret":2800,"Ġ001":2801,"loiv":2802,"drat":2803,"Ġtrapulp":2804,"siraP":2805,"uJ":2806,"erial":2807,"sefinam":2808,"ubir":2809,"Ġtiun":2810,"ificÃ©ps":2811,"Ġ12":2812,"uqsrol":2813,"Ġeruelliem":2814,"ifidom":2815,"urc":2816,"iralas":2817,"Ã»oc":2818,"laM":2819,"irf":2820,"neva":2821,"Ã©tac":2822,"so":2823,"ĠseÃ©r":2824,"Ġeuqilbup":2825,"ĠelÃ´r":2826,"namrofrep":2827,"yorc":2828,"ĠU":2829,"rapÃ©rp":2830,"Ġot":2831,"ĠserÃ¨inred":2832,"Ġelbinopsid":2833,"Ġsnoitulos":2834,"ĠsÃ©v":2835,"Ġegam":2836,"niep":2837,"Ġeuqigol":2838,"not":2839,"ivic":2840,"Ġserial":2841,"Ġrios":2842,"Ġnoitasinagro":2843,"rppa":2844,"ĠreirvÃ©f":2845,"fe":2846,"Ġdrat":2847,"luciff":2848,"Ġiuo":2849,"ilpmer":2850,"poda":2851,"ĠelÃ¨dom":2852,"dub":2853,"roballoc":2854,"OC":2855,"Ġzeved":2856,"iolpxe":2857,"rosÃ©d":2858,"rapÃ©d":2859,"Ġuaep":2860,"rod":2861,"isnes":2862,"ina":2863,"ĠiouqruoP":2864,"Ġliesnoc":2865,"iurf":2866,"Ġtial":2867,"irbaf":2868,"eru":2869,"icigol":2870,"Ġtirpse":2871,"iN":2872,"luciffid":2873,"Ġ7102":2874,"ĠsevÃ¨lÃ©":2875,"ufer":2876,"Ġtnal":2877,"Ġedoc":2878,"epiuqÃ©":2879,"Ġtnel":2880,"Ġivius":2881,"Ġniar":2882,"Ġ91":2883,"Ġrued":2884,"elc":2885,"Ġseuqinhcet":2886,"Ġiderdnev":2887,"sial":2888,"Ġaiv":2889,"esirpertne":2890,"ĠEL":2891,"ĠâĢĿ":2892,"Ġserio":2893,"Ġegassem":2894,"imret":2895,"llaf":2896,"nosiam":2897,"ER":2898,"ĠsÃ©hc":2899,"issecca":2900,"picitrap":2901,"Ġerdro":2902,"isni":2903,"Ġtnattemrep":2904,"Ġegayov":2905,"Ġstom":2906,"norf":2907,"cal":2908,"oib":2909,"mop":2910,"Ġecned":2911,"Ġ!!":2912,"Ġsuossed":2913,"ĠeÃ©rtne":2914,"Ġw":2915,"Ġsleuq":2916,"Ġac":2917,"Ã©rf":2918,"ez":2919,"Ġslet":2920,"iw":2921,"Ġessial":2922,"42":2923,"Ġtrevuo":2924,"Ġnoisserpmi":2925,"ĠlarÃ©nÃ©g":2926,"Ãĩ":2927,"neir":2928,"seÃ©":2929,"olg":2930,"eio":2931,"ysp":2932,"ĠegÃ¢":2933,"Ġerud":2934,"ĠteC":2935,"Ġseir":2936,"rebil":2937,"tnemen":2938,"amrof":2939,"uanummoc":2940,"Ġtiffus":2941,"ĠeÃ©d":2942,"Ġniart":2943,"ĠeÃ©s":2944,"itrauq":2945,"ihcif":2946,"Ġstnemen":2947,"secorp":2948,"Ġ*":2949,"zet":2950,"Ã©rP":2951,"Ġ>":2952,"Ġ22":2953,"Ġmurof":2954,"reS":2955,"gorp":2956,"Ġeuqinhcet":2957,"Ġretcatnoc":2958,"ramer":2959,"ĠnoS":2960,"uag":2961,"Ã©tir":2962,"Ġehcnamid":2963,"atipac":2964,"Ġnoitnetta":2965,"aloc":2966,"ĠeÃ©c":2967,"mlif":2968,"ĠruojÃ©s":2969,"idua":2970,"Ġlennosrep":2971,"jam":2972,"Ġnoitcud":2973,"Ġ!!!":2974,"ĠorÃ©mun":2975,"tneib":2976,"Ġrelliavart":2977,"Ġretser":2978,"Ã®am":2979,"Ġleuqel":2980,"Ġiolpme":2981,"ppus":2982,"Ġsneyom":2983,"ĠecnesÃ©rp":2984,"ĠretnesÃ©rp":2985,"irga":2986,"asnopser":2987,"col":2988,"Ġegatnava":2989,"Ġiciov":2990,"ĠÃ©ll":2991,"ihcam":2992,"anÃ©m":2993,"ĠsemÃªm":2994,"Ġtnahc":2995,"rios":2996,"ĠÃ©tim":2997,"Ġul":2998,"Ġeiov":2999,"Ġsdnerp":3000,"Ġemret":3001,"erg":3002,"ĠsÃ¨rT":3003,"tA":3004,"Ġzerv":3005,"ĠsedutÃ©":3006,"Ġetisiv":3007,"arc":3008,"ixelf":3009,"Ġslituo":3010,"Ġstnemess":3011,"sroL":3012,"ĠNO":3013,"Ġtiordne":3014,"Ġretehca":3015,"icremer":3016,"Ġrineved":3017,"ĠeigrenÃ©":3018,"ĠÃ©tiro":3019,"iouq":3020,"Ã©tilauq":3021,"Ġecnemmoc":3022,"elbmes":3023,"ellimaf":3024,"Ġresnep":3025,"Ġtcatnoc":3026,"Ġsiod":3027,"Ġ..":3028,"Ġ+":3029,"ĠÃ©dicÃ©d":3030,"icrexe":3031,"ĠetÃªuq":3032,"âĢ¦[":3033,"Ġleu":3034,"alec":3035,"iloj":3036,"Ġspmetgnol":3037,"irovaf":3038,"Ġsniam":3039,"ĠÃ©tisrev":3040,"Ġsreimerp":3041,"uoC":3042,"eirÃ©txe":3043,"isiohc":3044,"Ġtab":3045,"Ġritros":3046,"Ġlieucca":3047,"Ġsnob":3048,"ruel":3049,"Ġruoma":3050,"Ġtnemelba":3051,"Ġol":3052,"tneva":3053,"cap":3054,"Ã¨v":3055,"Ãªpme":3056,"trop":3057,"calp":3058,"remia":3059,"Ġtenretni":3060,"Ġecnats":3061,"Ġdroba":3062,"esohc":3063,"Ġecnal":3064,"ĠerÃ¨p":3065,"Ġsima":3066,"Ġrueluoc":3067,"tnemeg":3068,"ĠrueirÃ©tni":3069,"Ġard":3070,"Ġidnul":3071,"ĠsecÃ¨ip":3072,"ĠnoitidÃ©":3073,"tÃ©irporp":3074,"tned":3075,"suot":3076,"Ġnoitcurtsnoc":3077,"nits":3078,"Ġnal":3079,"golb":3080,"ĠÃ©rglam":3081,"issecÃ©n":3082,"Ġtnettemrep":3083,"dneiv":3084,"ruobm":3085,"Ġreir":3086,"Ġelliat":3087,"Ġeitros":3088,"Ġniatrec":3089,"ĠaÃĩ":3090,"oS":3091,"rue":3092,"ipsni":3093,"ĠertoV":3094,"snia":3095,"iesnoc":3096,"ĠseÃ©di":3097,"4102":3098,"Ġtil":3099,"Ġednammoc":3100,"bil":3101,"ĠtircÃ©":3102,"ilibommi":3103,"iav":3104,"ĠsÃ©m":3105,"Ġsdra":3106,"iruos":3107,"eni":3108,"Ġeroda":3109,"Ġsiob":3110,"Ġselleuq":3111,"Ġseno":3112,"narcÃ©":3113,"ong":3114,"ama":3115,"rÃ©":3116,"Ġsiarua":3117,"nalÃ©m":3118,"Ġrueoc":3119,"leS":3120,"891":3121,"ennod":3122,"Ġerret":3123,"netne":3124,"Ġsreinred":3125,"irotsih":3126,"ĠelÃ´rtnoc":3127,"Ġeuqsiup":3128,"Ġzeluov":3129,"Ġsesim":3130,"neR":3131,"Ġsesirp":3132,"tner":3133,"Ġresoporp":3134,"ĠreroilÃ©ma":3135,"Ġtnemennorivne":3136,"ilÃ©":3137,"irotua":3138,"Ġzella":3139,"Ġtrom":3140,"ifitne":3141,"irta":3142,"Ġselleb":3143,"til":3144,"Ġsruelliem":3145,"Ġellet":3146,"pecxe":3147,"unnoc":3148,"ĠerÃ¨m":3149,"sep":3150,"Ġeuqisum":3151,"ĠletÃ´h":3152,"Ġnoitacinummoc":3153,"ĠO":3154,"ĠelbatirÃ©v":3155,"Ġ06":3156,"Ġerdnerppa":3157,"Ġtnegra":3158,"Ġedrag":3159,"Ġsega":3160,"AR":3161,"Ġ32":3162,"cas":3163,"Ġenigiro":3164,"ĠemÃªM":3165,"tsinim":3166,"orap":3167,"ĠÃ©tiv":3168,"ercrem":3169,"UQ":3170,"Ġeuqim":3171,"omÃ©d":3172,"ĠsertÃ¨m":3173,"ecnanif":3174,"Ġqnic":3175,"yotic":3176,"utitsni":3177,"iulec":3178,"Ġserbmahc":3179,"nitam":3180,"isio":3181,"ilC":3182,"tnemm":3183,"Ġsegas":3184,"ulcxe":3185,"Ġrets":3186,"ĠÃ©ti":3187,"Ã«oN":3188,"ruon":3189,"Ġerutiov":3190,"idir":3191,"ivan":3192,"atnava":3193,"Ġlav":3194,"cennoc":3195,"etalp":3196,"ilimaf":3197,")...":3198,"pahc":3199,"cots":3200,"issalc":3201,"icsip":3202,"tnemgua":3203,"ĠnoB":3204,"Ġesu":3205,"Ġertsinim":3206,"ifingis":3207,"Ġserv":3208,"ĠedÃ¨":3209,"sÃ©s":3210,"001":3211,"ĠsiamrosÃ©d":3212,"eniames":3213,"ena":3214,"Ġeniep":3215,"Ġrirffo":3216,"HC":3217,"itciv":3218,"elpmoc":3219,"Ġfuas":3220,"AP":3221,"ym":3222,"AM":3223,"sennosrep":3224,"iuP":3225,"Ġsrueluoc":3226,"Ġegass":3227,"Ġenoz":3228,"ĠtatlusÃ©r":3229,"ĠÃ©utis":3230,"ĠeuqahC":3231,"Ġremrof":3232,"ĠâĢĶ":3233,"ĠnoleS":3234,"ubirtsid":3235,"Ġecnaifnoc":3236,"ehcÃ©":3237,"ĠselgÃ¨r":3238,"Ġseniames":3239,"pmac":3240,"Ġeis":3241,"Ġdeip":3242,"ulcni":3243,"Ġsussecorp":3244,"iuqca":3245,"Ġetuor":3246,"iob":3247,"Ġnoitaler":3248,"ulli":3249,"Ġtneuq":3250,"nnoitcnof":3251,"rahcÃ©lÃ©t":3252,"ifitneics":3253,"iuqni":3254,"idar":3255,"Ġreilucitrap":3256,"Ġrerit":3257,"irpxe":3258,"Ġtahca":3259,"niav":3260,"eW":3261,"Ġtnavius":3262,"atceps":3263,"Ġelp":3264,"sergorp":3265,"erocne":3266,"ĠtÃ»oa":3267,"Ã´rtnoc":3268,"Ġessiup":3269,"Ġems":3270,"tnemennorivne":3271,"ĠV":3272,"esia":3273,"Ġ6102":3274,"Ġtartnoc":3275,"Ġ82":3276,"oobec":3277,"Ġenummoc":3278,"Ġseriaffa":3279,"ĠÃ©ticapac":3280,"ooc":3281,"urb":3282,"rtnom":3283,"eid":3284,"Ġunetnoc":3285,"ĠER":3286,"tcarac":3287,"Ã©pse":3288,"ilpmi":3289,"ĠÃ©silitu":3290,"rah":3291,"Ã¨lloc":3292,"ingapmoc":3293,"luda":3294,"oL":3295,"ĠseÃ©l":3296,"ahp":3297,"ĠxuaesÃ©r":3298,"pecnoc":3299,"ĠtrapÃ©d":3300,"rocÃ©d":3301,"Ġtneilc":3302,"anÃ©ma":3303,"Ġerutcel":3304,"ĠB":3305,"Ġnitam":3306,"arÃ©pmet":3307,"eidalam":3308,"eriat":3309,"setna":3310,"Ġeuqig":3311,"nef":3312,"ĠsÃ©tÃ©":3313,"eim":3314,"yar":3315,"Ġmoc":3316,"Ġsegami":3317,"ellA":3318,"Ġlielos":3319,"Ġtcepser":3320,"Ġrueta":3321,"Ġreyasse":3322,"Ġ62":3323,"dart":3324,"Ġevuerp":3325,"idÃ©r":3326,"52":3327,"Ġtnasiaf":3328,"tnevÃ©":3329,"roC":3330,"roppa":3331,"riffa":3332,"egar":3333,"ĠnoitarÃ©po":3334,"orÃ©":3335,"ĠeuqimonocÃ©":3336,"iamuh":3337,"Ã©tila":3338,"tnemes":3339,"ueP":3340,"selba":3341,"eirtsudni":3342,"Ġelanoitan":3343,"ertÃª":3344,"reinred":3345,"hpargotohp":3346,"eÃ©nruoj":3347,"irtap":3348,"ofni":3349,"Ġ.\"":3350,"AC":3351,"dno":3352,"Ã¨tsys":3353,"Ġeuqinu":3354,"Ã©lpmoc":3355,"Ġaref":3356,"apicitrap":3357,"Ġtuav":3358,"Ġrues":3359,"IV":3360,"usiv":3361,"ĠsellE":3362,"Ã©lf":3363,"itnet":3364,"oJ":3365,"selle":3366,"Ġredrag":3367,"tnemÃ©lppus":3368,"Ġerreug":3369,"serda":3370,"Ġetiaf":3371,"Ġedipar":3372,"Ġtnatruop":3373,"Ġsreit":3374,"Ġeliuh":3375,"nocar":3376,"ixorp":3377,"Ã©nic":3378,"Ã©tnas":3379,"Ġzerua":3380,"Ġlanoitan":3381,"Ġenrecnoc":3382,"Ġrepicitrap":3383,"Ġ13":3384,"itceffe":3385,"Ġtnemegnahc":3386,"Ġegral":3387,"Ġrecnemmoc":3388,"inna":3389,"Ġserusem":3390,"ugÃ©l":3391,"nevretni":3392,"yS":3393,"3102":3394,"uan":3395,"ĠreppolevÃ©d":3396,"ĠsoN":3397,"Ġtnemeuqinu":3398,"Ġtnemelb":3399,"ucÃ©r":3400,"nemgua":3401,"zer":3402,"urtsni":3403,"Ġesset":3404,"Ġ72":3405,"Ġtnemelicaf":3406,"Ġrinif":3407,"olp":3408,"siaÃ§narf":3409,"ihC":3410,"Ġtnatnom":3411,"Ġselbinopsid":3412,"ĠemÃ¨ht":3413,"cedÃ©m":3414,"Ġdrob":3415,"illieucca":3416,"ĠnoisicÃ©d":3417,"Ġecnonna":3418,"Ġfehc":3419,"ivnoc":3420,"Ã©G":3421,"]âĢ¦[":3422,"\".":3423,"nruot":3424,"Ġsneil":3425,"Ã¢g":3426,"Ġelbasnopser":3427,"tneilc":3428,"umrof":3429,"Ã»og":3430,"Ã©uQ":3431,"Ġesue":3432,"Ġelyts":3433,"irot":3434,"AS":3435,"Ġrueug":3436,"essap":3437,"Ġniarret":3438,"Ġretuoja":3439,"Ġsfita":3440,"Ġeriota":3441,"tnava":3442,"ET":3443,"omÃ©":3444,"anyd":3445,"Ġsdiop":3446,"ĠecÃ¨ip":3447,"uma":3448,"robal":3449,"Ġertnom":3450,"uts":3451,"Ġerdnetta":3452,"ĠenohpÃ©lÃ©t":3453,"ĠG":3454,"tnadnep":3455,"ola":3456,"EL":3457,"euo":3458,"nifnE":3459,"ellib":3460,"ĠioM":3461,"fita":3462,"roilÃ©ma":3463,"iannoc":3464,"ĠuÃ§":3465,"Ġsruetca":3466,"NU":3467,"sirotua":3468,"iarter":3469,"murof":3470,"Ġemmag":3471,"tra":3472,"Ġriovecer":3473,"Ġnoitasila":3474,"Ã©rt":3475,"sÃ©d":3476,"dnepÃ©dni":3477,"atnom":3478,"Ġegal":3479,"ĠAL":3480,"Ġtneived":3481,"revid":3482,"aB":3483,"ellec":3484,"eud":3485,"ĠeÃ©virra":3486,"Ġsecruosser":3487,"omorp":3488,"Ã©hp":3489,"Ġsreil":3490,"2102":3491,"ĠuÃ§er":3492,"ilicaf":3493,"uejÃ©d":3494,"Ġrengag":3495,"Ġegassap":3496,"mono":3497,"utats":3498,"casnoc":3499,"Ġreissod":3500,"igiler":3501,"sopmoc":3502,"Ġetros":3503,"Ġeur":3504,"ĠleirÃ©tam":3505,"Ġevit":3506,"pmys":3507,"tnemess":3508,"Ġehcram":3509,"Ġtiart":3510,"Ġ5102":3511,"Ġsruocnoc":3512,"idÃ©mmi":3513,"iT":3514,"ĠÃ»":3515,"Ġsepyt":3516,"Ġstned":3517,"seÃ©s":3518,"Ġecnarussa":3519,"ulosba":3520,"791":3521,"rinev":3522,"pac":3523,"iuef":3524,"tejorp":3525,"riovas":3526,"elliesnoc":3527,"to":3528,"icimod":3529,"ðŁĺ":3530,"Ġitrap":3531,"neh":3532,"bmoc":3533,"Ġeunet":3534,"Ġretroppa":3535,"lumrof":3536,"sorue":3537,"Ġstiaf":3538,"ifit":3539,"ĠnoitulovÃ©":3540,"liam":3541,"Ġreyovne":3542,"Ġsiannoc":3543,"ze":3544,"snepsid":3545,"gÃ©":3546,"cel":3547,"Ġenielp":3548,"Ġnimehc":3549,"itnauq":3550,"Ġnoitcerid":3551,"Ġsfit":3552,"nir":3553,"icuos":3554,"Ġtiat":3555,"Ġehcrehc":3556,"ĠeÃ©uq":3557,"gÃ©tni":3558,"alpmer":3559,"Ã©crof":3560,"igolonhcet":3561,"capmi":3562,"ronÃ©":3563,"Ġetsop":3564,"ĠeÃ©rios":3565,"idÃ©d":3566,"Ã®ahc":3567,"ucÃ©xe":3568,"Ġtol":3569,"Ġbew":3570,"uG":3571,"caxe":3572,"iarvil":3573,"Ġseuqsir":3574,"ero":3575,"ennoitidart":3576,"Ġevuorter":3577,"Ġeugnol":3578,"Ġsemrof":3579,"iartnoc":3580,"Ġdrager":3581,"Ã©tic":3582,"iF":3583,"Ġruetua":3584,"Ġesylana":3585,"ihp":3586,"Ġrertnom":3587,"Ġerdrep":3588,"amina":3589,"Ã©bil":3590,"Ġlituo":3591,"Ġeniahcorp":3592,"Ġ&":3593,"ĠsecnetÃ©pmoc":3594,"ĠaC":3595,"Ġelleppa":3596,"uffid":3597,"elliavart":3598,"imer":3599,"Ġro":3600,"liev":3601,"Ã©M":3602,"Ġtnemennoitcnof":3603,"ĠnoitcelÃ©s":3604,"ubla":3605,"Ġxueil":3606,"ĠleuQ":3607,"arret":3608,"orb":3609,"ulcnoc":3610,"cepsa":3611,"nefÃ©d":3612,"irÃ©m":3613,"Ã¢p":3614,"ssian":3615,"Ġretlusnoc":3616,"esio":3617,"eriotsih":3618,"Ġsnosiar":3619,"Ġsegap":3620,"Ġnoitacol":3621,"ĠiuO":3622,"ialcÃ©":3623,"ĠÃ©it":3624,"redom":3625,"Ġsnoss":3626,"itneg":3627,"rtner":3628,"Ġtres":3629,"idim":3630,"rtnec":3631,"Ġsneit":3632,"Ġzey":3633,"ebÃ©uQ":3634,"Ġiduej":3635,"roN":3636,"Ġseitrap":3637,"IC":3638,"ris":3639,"sam":3640,"cab":3641,"uaevuon":3642,"Ġseuqitarp":3643,"IL":3644,"rÃ»s":3645,"Ġ92":3646,"gdub":3647,"Ġmk":3648,"Ġtnemelleutca":3649,"Ġesopsid":3650,"ĠÃ»d":3651,"Ġtiavuop":3652,"Ġlennoisseforp":3653,"04":3654,"leuQ":3655,"itcep":3656,"Ã©tilib":3657,"ĠÃłliov":3658,"Ġnam":3659,"xirp":3660,"irP":3661,"Ġnoitalupop":3662,"Ġsaper":3663,"Ġecnes":3664,"noitar":3665,"Ġretpmoc":3666,"Ġrevel":3667,"Ġarduaf":3668,"iteP":3669,"Ġneituos":3670,"sniom":3671,"Ġenneyom":3672,"apmys":3673,"ohtÃ©m":3674,"Ġsnios":3675,"ĠsÃ¨ccus":3676,"ixelfÃ©r":3677,"eda":3678,"evuoner":3679,"Ġsoporp":3680,"iomÃ©m":3681,"Ġesilitu":3682,"icca":3683,"ĠelbaÃ©rga":3684,"uqÃ©rf":3685,"Ġzeir":3686,"pirc":3687,"Ġeriov":3688,"snes":3689,"ĠcnoD":3690,"ES":3691,"Ġstnemucod":3692,"rahC":3693,"Ġxiov":3694,"Ġarttemrep":3695,"itnerppa":3696,"lpid":3697,"Ġsruocrap":3698,"ruem":3699,"Ġeio":3700,"Ġsnovuop":3701,"Ġstnemet":3702,"irÃ©tam":3703,"sif":3704,"Ġidercrem":3705,"Ã¨pse":3706,"Ġtiu":3707,"ĠsnaS":3708,"noitseuq":3709,"Ã©pucÃ©r":3710,"Ġtnemed":3711,"serueh":3712,"Ġeuqilpxe":3713,"Ġudner":3714,"ĠtnemessilbatÃ©":3715,"Ġsnoissim":3716,"Ġecruos":3717,"Ġneicna":3718,"ĠsÃ©d":3719,"Ġreih":3720,"ruobmer":3721,"Ġtnanerp":3722,"Ã©S":3723,"snepsidni":3724,"Ġtnemelatot":3725,"pma":3726,"Ġetuah":3727,"ĠtÃ´tneib":3728,"ropmet":3729,"ĠecraP":3730,"rofner":3731,"alf":3732,"effa":3733,"12":3734,"ĠseÃ©g":3735,"Ġessalc":3736,"viv":3737,"ngis":3738,"ucca":3739,"Ġselli":3740,"naeJ":3741,"ada":3742,"Ġnoitallatsni":3743,"niojer":3744,"Ġtnemetiafrap":3745,"reP":3746,"ĠtenretnI":3747,"reffo":3748,"tneiro":3749,"Ġelg":3750,"Ġselbat":3751,"srevinna":3752,"Ġretnom":3753,"ĠesiaÃ§narf":3754,"Ã¢t":3755,"Ġedutit":3756,"emia":3757,"Ġneitertne":3758,"ord":3759,"Ġ002":3760,"ĠeuqsroL":3761,"Ãªp":3762,"Ġ_":3763,"Ġsepuorg":3764,"kcots":3765,"namrep":3766,"ĠserÃ¨imerp":3767,"Ġelitu":3768,"IR":3769,"ropmoc":3770,"Ġrehcrehc":3771,"nortcelÃ©":3772,"rG":3773,"Ġerial":3774,"Ġtiasiaf":3775,"Ġsnoitisop":3776,"igami":3777,"laS":3778,"ĠtÃªrp":3779,"orcim":3780,"vÃ©rp":3781,"Ġrueh":3782,"Ġengapmac":3783,"mk":3784,"06":3785,"ĠiuQ":3786,"Ġregnam":3787,"ĠsetuoT":3788,"itnetop":3789,"Ġeuqitam":3790,"ĠerÃ¨imul":3791,"ĠseriassecÃ©n":3792,"Ġuef":3793,"setunim":3794,"suossed":3795,"ĠeÃ©lbmess":3796,"Ġredrager":3797,"ĠsÃ©uq":3798,"itÃ©pmoc":3799,"Ġnoital":3800,"Ġesserp":3801,"Ġeugnal":3802,"Ġsteffe":3803,"ĠnoitasilaÃ©r":3804,"Ġserb":3805,"Ġidram":3806,"ang":3807,"nnod":3808,"siaf":3809,"Ġez":3810,"egayov":3811,"naM":3812,"nitsed":3813,"rucnoc":3814,"Ġtros":3815,"Ġ005":3816,"idiruj":3817,"emÃ¨lborp":3818,"Ġrecnal":3819,"ecnava":3820,"Ã©lc":3821,"Ġnoss":3822,"tnes":3823,"ennoitpecxe":3824,"eT":3825,"eÃ©v":3826,"Ġelbapac":3827,"tneg":3828,"Ġmc":3829,"ĠÃłled":3830,"Ġseb":3831,"erret":3832,"ĠetÃªf":3833,"ces":3834,"nehÃ©rp":3835,"Ġdner":3836,"Ġtnemehc":3837,"uocÃ©D":3838,"roP":3839,"Ġniamed":3840,"isu":3841,"ĠnoitatnesÃ©rp":3842,"niS":3843,"Ġsrueuoj":3844,"nerÃ©fÃ©r":3845,"Ġinif":3846,"ĠstnaidutÃ©":3847,"ĠaS":3848,"Ã¨rc":3849,"sav":3850,"itamotua":3851,"Ġnidraj":3852,"apicinum":3853,"Ġettecer":3854,"cet":3855,"elcitra":3856,"imonocÃ©":3857,"sagam":3858,"Ġsrue":3859,"Ġegasu":3860,"Ġ08":3861,"tirc":3862,"22":3863,"isniA":3864,"ĠrerÃ©g":3865,"ĠerÃ¨irred":3866,"oobecaF":3867,"Ġtiard":3868,"iomÃ©t":3869,"Ġnolas":3870,"Ġehcorppa":3871,"eingapmoc":3872,"ĠâĢĻ":3873,"Ġmumixam":3874,"yotten":3875,"noh":3876,"Ġlat":3877,"Ġelaicos":3878,"siruot":3879,"nret":3880,"OR":3881,"ĠaM":3882,"cerroc":3883,"enret":3884,"dac":3885,"etpmoc":3886,"emrof":3887,"ruol":3888,"atac":3889,"irruon":3890,"Ġerialumrof":3891,"sussed":3892,"sit":3893,"uhc":3894,"ĠÃ©silaÃ©r":3895,"htÃ©m":3896,"netÃ©d":3897,"mort":3898,"Ġsnoitaler":3899,"Ġservil":3900,"druojuA":3901,"artnec":3902,"ðŁĻ":3903,"ĠeimonocÃ©":3904,"Ġeloc":3905,"Ġisiohc":3906,"Ġseuqitilop":3907,"Ġ....":3908,"ica":3909,"tejus":3910,"ĠÃ©nno":3911,"uppa":3912,"ĠÃ©cnemmoc":3913,"irtÃ®am":3914,"ĠX":3915,"Ġegalliv":3916,"EC":3917,"Ġudnetne":3918,"ĠÃ©tis":3919,"fÃ©rp":3920,"suJ":3921,"tsnoc":3922,"ĠeporuE":3923,"evuoN":3924,"imitpo":3925,"alg":3926,"ĠtnemÃ©m":3927,"ĠeÃ©p":3928,"htyr":3929,"tÃ´":3930,"aD":3931,"Ġlaicos":3932,"Ġtnemetrappa":3933,"noN":3934,"Ġstem":3935,"Ġtnaruoc":3936,"Ġerbmem":3937,"ĠÃ©tilaÃ©r":3938,"narb":3939,"ĠsÃ©tilib":3940,"ĠnarcÃ©":3941,"!!!!":3942,"Ġreunitnoc":3943,"nacÃ©m":3944,"ĠÃ©tin":3945,"tiun":3946,"Ġoc":3947,"ednamed":3948,"stneilc":3949,"imerP":3950,"ruojnoB":3951,"Ġreyap":3952,"ĠemigÃ©r":3953,"etiv":3954,"ĠlaÃ©di":3955,"Ġniab":3956,"utrop":3957,"ĠrerapÃ©rp":3958,"eff":3959,"noitca":3960,"ipoc":3961,"lov":3962,"ĠenÃ¨cs":3963,"Ġserporp":3964,"siD":3965,"etÃªt":3966,"tnadnepeC":3967,"ĠetrevuocÃ©d":3968,"ipmahc":3969,"Ġtnanet":3970,"Ġsdnof":3971,"Ġad":3972,"Ġnoitammosnoc":3973,"Ġrey":3974,"Ġepicnirp":3975,"sett":3976,"ooG":3977,"Ġetrof":3978,"Ã©rC":3979,"rret":3980,"Ġ4102":3981,"Ġecnaibma":3982,"engiesner":3983,"Ġreutceffe":3984,"Ġzevuort":3985,"Ġniahcorp":3986,"ogÃ©tac":3987,"uoS":3988,"Ġsiol":3989,"luev":3990,"ĠÃ©tilibasnopser":3991,"32":3992,"arÃ©n":3993,"Ġetrep":3994,"ĠÃ©b":3995,"sÃ©r":3996,"Ġtnehc":3997,"xueim":3998,"dA":3999,"ugif":4000,"Ġslif":4001,"ĠÃ©tuanummoc":4002,"Ġetrevuo":4003,"Ġrevirra":4004,"uel":4005,"euqits":4006,"Ġsfitcejbo":4007,"Ġnios":4008,"rtnocner":4009,"IS":4010,"Ã©hda":4011,"alP":4012,"Ġsrueta":4013,"ĠtnemerÃ¨ilugÃ©r":4014,"adnof":4015,"Ġxuamina":4016,"Ġter":4017,"sÃ¨c":4018,"hta":4019,"Ġrirvuo":4020,"Ġtnennerp":4021,"1102":4022,"iC":4023,"Ġeunitnoc":4024,"ohcysp":4025,"ĠecÃ¢rG":4026,"Ġbulc":4027,"AT":4028,"roffe":4029,"rebÃ©h":4030,"ulfni":4031,"reB":4032,"Ġeuqifingam":4033,"xiohc":4034,"ivreS":4035,"Ġehcuot":4036,"Ġlierappa":4037,"ĠÃ©tirojam":4038,"Ġstejbo":4039,"uP":4040,"neV":4041,"droba":4042,"ĠerircÃ©":4043,"Ã®ob":4044,"nimehc":4045,"irpmi":4046,"ĠÃ©dnamed":4047,"tnafne":4048,"ĠÃ©timixorp":4049,"ðŁĻĤ":4050,"riv":4051,"Ġerdne":4052,"iduj":4053,"ngiesne":4054,"ĠtnemerÃ¨itne":4055,"Ġnoitpirc":4056,"seR":4057,"Ġsnolla":4058,"Ġeriotirret":4059,"illetni":4060,"ĠepatÃ©":4061,"Ġerdnietta":4062,"Ġtrofnoc":4063,"sima":4064,"Ġxuaicos":4065,"Ġnoitats":4066,"ĠemÃ¨isio":4067,"ĠeriudÃ©r":4068,"ivirp":4069,"ĠsepiuqÃ©":4070,"Ġtnemevuom":4071,"osipÃ©":4072,"itsef":4073,"Ġrinever":4074,"utcurts":4075,"RO":4076,"urcer":4077,"ĠtatE":4078,"nigami":4079,"Ġlevuon":4080,"olpxe":4081,"Ġecnassiorc":4082,"arT":4083,"Ġecnadnet":4084,"ovorp":4085,"eutnevÃ©":4086,"elpmis":4087,"Ġleb":4088,"icni":4089,"Ġlos":4090,"ĠselÃ¨dom":4091,"Ġnoitisopxe":4092,"nocni":4093,"erces":4094,"Ġdnerpmoc":4095,"ĠedohtÃ©m":4096,"Ġruess":4097,"Ġegatrap":4098,"rur":4099,"bew":4100,"ennoita":4101,"Ġmuminim":4102,"dnof":4103,"ED":4104,"Ġecremmoc":4105,"Ġstnatibah":4106,"ssA":4107,"irÃ©tcarac":4108,"ovÃ©":4109,"erbil":4110,"ID":4111,"Ġtrops":4112,"seuqit":4113,"Ġtruoc":4114,"Ã©lfÃ©r":4115,"ĠtnavA":4116,"sotohp":4117,"icoS":4118,"Ġxuerueh":4119,"Ġuaerub":4120,"Ġstnemom":4121,"ĠÃłlioV":4122,"sI":4123,"Ġcrap":4124,"eht":4125,"Ġsialuov":4126,"Ġsnod":4127,"Ġnoitpircsni":4128,"Ġeidalam":4129,"sim":4130,"iz":4131,"Ġreitrauq":4132,"siv":4133,"tnemell":4134,"revart":4135,"enim":4136,"Ãªv":4137,"edivÃ©":4138,"ĠY":4139,"amron":4140,"Ġsdraillim":4141,"Ġidim":4142,"):":4143,"tnanetniam":4144,"acidnah":4145,"icog":4146,"ĠueiD":4147,"ammosnoc":4148,")...(":4149,"reh":4150,"Ã©tirucÃ©s":4151,"Ġruehnob":4152,"illa":4153,"olip":4154,"reV":4155,"nemid":4156,"Ġtneluev":4157,"adÃ©p":4158,"rug":4159,"ĠtnemelarÃ©nÃ©g":4160,"Ġednoces":4161,"Ġetnatropmi":4162,"ĠelarÃ©nÃ©g":4163,"uoB":4164,"niom":4165,"rall":4166,"ĠerÃ¨tcarac":4167,"itats":4168,"Ġudrep":4169,"Ġtnaeg":4170,"nitsid":4171,"sirp":4172,"itcelÃ©s":4173,"ĠredÃ©cca":4174,"Ġxuevehc":4175,"ĠruojnoB":4176,"Ġog":4177,"oB":4178,"egnad":4179,"onÃ©r":4180,"Ġecnava":4181,"fnoc":4182,"nimretÃ©d":4183,"Ã©pus":4184,"Ġreit":4185,"eudividni":4186,"Ġreipap":4187,"Ġtnemeiap":4188,"Ġtropsnart":4189,"gniv":4190,"Ġetimil":4191,"ĠnoN":4192,"Ġettul":4193,"Ġsetrac":4194,"Ġsrevinu":4195,"raB":4196,"ĠseÃ©v":4197,"orretni":4198,"ĠuvÃ©rp":4199,"uclac":4200,"fit":4201,"ĠtnemÃ©crof":4202,"oT":4203,"ircÃ©d":4204,"Ġecaciffe":4205,"Ġsnosoporp":4206,"iranetrap":4207,"Ġserffo":4208,"ĠeuqopÃ©":4209,"Ġserianetrap":4210,"let":4211,"Ġtnadne":4212,"08":4213,"Ġtnemesuerueh":4214,"repa":4215,"alocohc":4216,"alpÃ©d":4217,"fA":4218,"Ġresila":4219,"ĠreicifÃ©nÃ©b":4220,"Ġsnoitamrof":4221,"aL":4222,"oilb":4223,"Ġrueis":4224,"0102":4225,"ĠtnerÃ¨":4226,"ĠtnemetÃ¨lpmoc":4227,"Ġrenem":4228,"olc":4229,"ĠissuÃ©r":4230,"uocne":4231,"Ġsruelav":4232,"ĠemÃ¨isiort":4233,"Ġial":4234,"ssecca":4235,"ĠertneC":4236,"enÃ¨":4237,"ĠedÃ¨ssop":4238,"Ġeriaffa":4239,"xuey":4240,"Ġelac":4241,"Ġsiaremia":4242,"Ġecirt":4243,"ĠnoitacudÃ©":4244,"Ġtuotrap":4245,"nosias":4246,"ĠtnemenÃ©vÃ©":4247,"Ġxis":4248,"aidÃ©mmi":4249,"xued":4250,"niaM":4251,"tsigerne":4252,"giod":4253,"Ġeim":4254,"serbm":4255,"iomirtap":4256,"Ġsruetasilitu":4257,"uoma":4258,"Ġtnemengiesne":4259,"Ġrineva":4260,"yL":4261,"ĠelleuQ":4262,"niol":4263,"ĠsemÃ¨tsys":4264,"Ġtnemem":4265,"ĠeigÃ©tarts":4266,"Ã§rag":4267,"Ġecnatropmi":4268,"rcomÃ©d":4269,"tad":4270,"tnemucod":4271,"ĠÃ©trebil":4272,"ĠtÃ»og":4273,"Ġseig":4274,"Ġselp":4275,"ĠH":4276,"emmoh":4277,"Ġzeres":4278,"iotÃ©":4279,"Ġtac":4280,"Ġ54":4281,"Ġerutcurts":4282,"ips":4283,"ĠnoitcudÃ©r":4284,"ĠsroL":4285,"Ã©dÃ©f":4286,"Ġzelliu":4287,"iA":4288,"Ġeuqisyhp":4289,"niF":4290,"ĠTE":4291,"ĠzervuocÃ©D":4292,"nitek":4293,"Ġrertnocner":4294,"Ġtnorruop":4295,"zid":4296,"Ġnioc":4297,"ifilauq":4298,"Ġelbuod":4299,"uD":4300,"abolg":4301,"ĠÃ©Ã©rc":4302,"Ġellennoisseforp":4303,"eV":4304,"irppus":4305,"Ġerttel":4306,"II":4307,"norhc":4308,"hs":4309,"rueir":4310,"nip":4311,"Ġnoitnet":4312,"Ġnoitapicitrap":4313,"leB":4314,"Ġrihc":4315,"icÃ©r":4316,"lucric":4317,"Ġetiord":4318,"icsid":4319,"sreP":4320,"isulcxe":4321,"enuej":4322,"ĠtÃ»oc":4323,"ĠecnerÃ©ffid":4324,"icogÃ©n":4325,"Ã¨vÃ©":4326,"noitav":4327,"Ġenicsip":4328,"Ġxuaeb":4329,"uaeB":4330,"euxes":4331,"Ġxid":4332,"uoh":4333,"nopa":4334,"uaj":4335,"ruoJ":4336,"agÃ©l":4337,"Ã©mA":4338,"Ġseuqitam":4339,"zz":4340,"ueirÃ©t":4341,"sc":4342,"ĠraC":4343,"rallod":4344,"vuam":4345,"Ġecnega":4346,"aG":4347,"Ġseriatnemmoc":4348,"Ġervueo":4349,"Ã©ttil":4350,"namella":4351,"edni":4352,"evita":4353,"Ã©vÃ©r":4354,"sruel":4355,"redia":4356,"ĠetnesÃ©rper":4357,"Ġcnalb":4358,"eB":4359,"ĠlÃ«oN":4360,"Ġtegdub":4361,"orcca":4362,"erdnerp":4363,"Ġessetiv":4364,"Ġnoitis":4365,"lliavart":4366,"ilat":4367,"Ġtnemulosba":4368,"ior":4369,"Ġ3102":4370,"ĠstnemenÃ©vÃ©":4371,"tueP":4372,"ĠtÃ®arap":4373,"Ġsruess":4374,"Ġtnemelanif":4375,"gno":4376,"Ġesirc":4377,"uoR":4378,"Ġerircsni":4379,"Ġruetuah":4380,"Ġ07":4381,"ifÃ©d":4382,"ĠuO":4383,"iordne":4384,"Ġrenimret":4385,"gÃ©n":4386,"seniames":4387,"nnois":4388,"ehcrehc":4389,"nepÃ©d":4390,"Ġegnahc":4391,"seug":4392,"ennoh":4393,"iroirp":4394,"Ãªrof":4395,"ĠÃ©ilbup":4396,"Ġelliev":4397,"dnarg":4398,"Ġsellif":4399,"...[":4400,"Ġnoitnevretni":4401,"Ġsex":4402,"roda":4403,"Ġnonis":4404,"ĠÃ©tnolov":4405,"Ġeriorc":4406,"iraM":4407,"ĠĠ":4408,"ĠevresÃ©r":4409,"ĠregÃ©torp":4410,"Ġtnatsni":4411,"isÃ©rP":4412,"ulla":4413,"Ġrion":4414,"ĠialÃ©d":4415,"noitamrof":4416,"ien":4417,"elbmesne":4418,"Ġesimer":4419,"Ġnoitartsinimda":4420,"itraP":4421,"sess":4422,"Ġruetom":4423,"itta":4424,"serial":4425,"Ġxueiv":4426,"Ġsetrop":4427,"orppa":4428,"tenretni":4429,"Ġtius":4430,"hg":4431,"oÃ©g":4432,"reiv":4433,"risialp":4434,"ĠecnerÃ©fÃ©r":4435,"egap":4436,"eitnarag":4437,"Ã©hcram":4438,"ĠehcramÃ©d":4439,"ogadÃ©p":4440,"niavnoc":4441,"tnemelgÃ©r":4442,"serut":4443,"ĠsesnopÃ©r":4444,"xuer":4445,"eriot":4446,"Ã¨mo":4447,"Ġetivni":4448,"etuot":4449,"Ġselliv":4450,"sesohc":4451,"ks":4452,"enu":4453,"iolpme":4454,"Ġtnadnepec":4455,"Ġretisiv":4456,"Ã©da":4457,"zes":4458,"ibac":4459,"ĠÃ©mia":4460,"Ġeniatrec":4461,"Ġ2102":4462,"ifÃ©nÃ©b":4463,"celloc":4464,"ulÃ©":4465,"ĠÃ©tÃ©irporp":4466,"iaF":4467,"Ġstiurf":4468,"Ġzeg":4469,"mad":4470,"statE":4471,"ecuod":4472,"reuq":4473,"reht":4474,"olf":4475,"Ġuc":4476,"uqsiup":4477,"pÃ©d":4478,"ĠnifA":4479,"ĠsinU":4480,"Ġediug":4481,"ĠennoB":4482,"Ġeuoj":4483,"Ġecicrexe":4484,"Ġcurt":4485,"mc":4486,"uorter":4487,"Ġsemret":4488,"noitisop":4489,"ĠecnaÃ©s":4490,"erf":4491,"Ġlac":4492,"iuqnart":4493,"ĠsÃ©tic":4494,"Ġrivres":4495,"ĠtnaÃ§":4496,"Ġtnemeniatrec":4497,"Ġeton":4498,"Ġemsi":4499,"ĠnoinU":4500,"nretla":4501,"iW":4502,"Ġretset":4503,"Ġreilbuo":4504,"Ġnoitarg":4505,"ĠÃ©tnesÃ©rp":4506,"raG":4507,"Ġritnes":4508,"Ġxuacol":4509,"Ġtcapmi":4510,"Ġleicigol":4511,"irog":4512,"urB":4513,"ĠetuocÃ©":4514,"usÃ©r":4515,"Ġneiditouq":4516,"Ġsellimaf":4517,"ĠetÃªuqne":4518,"naf":4519,"Ġtnaruatser":4520,"Ã©rÃ©c":4521,"neiditouq":4522,"aps":4523,"nihc":4524,"ĠsniatreC":4525,"Ġeuqituob":4526,"Ġriga":4527,"Ġnosiarvil":4528,"noitaN":4529,"srolA":4530,"Ġxueir":4531,"VT":4532,"ecrom":4533,"Ġrillieucca":4534,"Ã©ts":4535,"Ãªrtxe":4536,"Ġuaedac":4537,"ixennoc":4538,"ĠsliatÃ©d":4539,"irbur":4540,"ĠnoitarapÃ©rp":4541,"siaM":4542,"cnab":4543,"ortni":4544,"ifitrec":4545,"Ġzeuqilc":4546,"Ġecner":4547,"Ġuneved":4548,"tnatsni":4549,"Ġsenoz":4550,"93":4551,"ova":4552,"ĠetÃ¨lpmoc":4553,"aN":4554,"bmessar":4555,"Ã´lpid":4556,"uohc":4557,"snoitseuq":4558,"Ã¢hc":4559,"ĠelucihÃ©v":4560,"Ġemlac":4561,"ĠsÃ¨rg":4562,"irÃ©mun":4563,"Ġniv":4564,"Ġtiaved":4565,"Ġzen":4566,"tabmoc":4567,"Ġsi":4568,"Ġehcuag":4569,"Ġellia":4570,"tuah":4571,"Ġtelpmoc":4572,"eppolevÃ©d":4573,"arhp":4574,"Ġennoitcnof":4575,"elcÃ¨is":4576,"eriassecÃ©n":4577,"evres":4578,"Ġuluov":4579,"iarg":4580,"Ġreileta":4581,"silanruoj":4582,"Ġecnesba":4583,"Ġeingapmoc":4584,"aid":4585,"ĠtnasserÃ©tni":4586,"oirÃ©p":4587,"Ġegatnavad":4588,"ĠreifirÃ©v":4589,"Ġeriurtsnoc":4590,"Ġstejus":4591,"Ġgnik":4592,"Ġsecnassiannoc":4593,"Ġrioved":4594,"utroppo":4595,"sproc":4596,"ĠdnarG":4597,"sle":4598,"fac":4599,"ullec":4600,"Ġsdeip":4601,"tnemÃ©lpmoc":4602,"Ġeguor":4603,"Ġsrevid":4604,"Ġtiallaf":4605,"xuev":4606,"Ġsiavuam":4607,"Ġecneicsnoc":4608,"Ġima":4609,"euqilbup":4610,"Ġrinruof":4611,"erger":4612,"Ġecafrus":4613,"AL":4614,"oÃ©div":4615,"Ġrellatsni":4616,"Ġscilbup":4617,"SU":4618,"imed":4619,"euqig":4620,"siva":4621,"Ġlatot":4622,"nerpertne":4623,"niartnoc":4624,"ĠetuoT":4625,"Ġtneiarruop":4626,"ĠÃ©cnonna":4627,"puocuaeb":4628,"ussi":4629,"sigÃ©l":4630,"ĠenneÃ©porue":4631,"Ã¢Ã©ht":4632,"russa":4633,"sinU":4634,"naS":4635,"mm":4636,"itrA":4637,"Ġesruoc":4638,"itÃ©p":4639,"Ġtnorua":4640,"ĠEC":4641,"Ġ53":4642,"resÃ©rp":4643,"Ġecilop":4644,"Ġsunev":4645,"statÃī":4646,"ĠtnadneP":4647,"Ã©ni":4648,"naruatser":4649,"oD":4650,"ĠsÃ©tluciffid":4651,"Ġtnemelapicnirp":4652,"ria":4653,"spmetgnol":4654,"erueh":4655,"rella":4656,"ipm":4657,"seD":4658,"ĠnosiaM":4659,"Ġneic":4660,"Ġsor":4661,"oH":4662,"Ġerttemer":4663,"Ġtnavuop":4664,"apsE":4665,"Ġtiafrap":4666,"ĠxueD":4667,"Ġsav":4668,"orÃ©a":4669,"Ġsetxet":4670,"Ã¨t":4671,"Ġsegatnava":4672,"ĠhA":4673,"âĢĺ":4674,"Ġngis":4675,"Ġtamrof":4676,"siob":4677,"Ġrioluov":4678,"Ġsertnocner":4679,"Ġnod":4680,"stiudorp":4681,"ruojÃ©s":4682,"Ġov":4683,"Ġseruelliem":4684,"ĠeirogÃ©tac":4685,"AF":4686,"ibo":4687,"Ġeroc":4688,"Ġtnemevita":4689,"lik":4690,"ĠET":4691,"Ġsod":4692,"Ġngised":4693,"Ġtnemegagne":4694,"nioseb":4695,"niuq":4696,"Ġtnemucod":4697,"07":4698,"lis":4699,"Ã©tÃ´c":4700,"itU":4701,"Ġrengapmocca":4702,"inom":4703,"ueirÃ©p":4704,"aH":4705,"Ġruetcerid":4706,"epuorg":4707,"siov":4708,"seÃ©nnod":4709,"isrevinu":4710,"ĠÃ©itiom":4711,"eporuE":4712,"Ġtiutarg":4713,"ĠsÃ©il":4714,"ĠeÃ©utis":4715,"laV":4716,"esrev":4717,"molp":4718,"nitekram":4719,"Ġsmlif":4720,"ĠÃ©ralcÃ©d":4721,"Ġtnanev":4722,"euqita":4723,"ilpmis":4724,"ĠerutarÃ©pmet":4725,"euqigol":4726,"Ġsednamed":4727,"Ġecnassiup":4728,"snois":4729,"ĠrenuejÃ©d":4730,"Ġenihcam":4731,"Ġreuqilpxe":4732,"ennoitcnof":4733,"Ġresinagro":4734,"icossA":4735,"9002":4736,"Ġod":4737,"__":4738,"Ġ09":4739,"eiarv":4740,"ueS":4741,"ssiup":4742,"Ġsnoitatserp":4743,"laÃ©rp":4744,"ðŁĺī":4745,"seriat":4746,"Ġsrohed":4747,"tnemev":4748,"elg":4749,"sah":4750,"ĠerudÃ©corp":4751,"ĠeÃ©ss":4752,"Ġtialla":4753,"Ġeiloj":4754,"zess":4755,"ervil":4756,"Ġeid":4757,"sesirpertne":4758,"fa":4759,"Ġeigolonhcet":4760,"Ġdnoces":4761,"Ġneibmoc":4762,"ĠsoÃ©div":4763,"Ġsnoiss":4764,"caJ":4765,"Ġsegannosrep":4766,"emref":4767,"py":4768,"eo":4769,"Ġretnet":4770,"zeva":4771,"Ġesilg":4772,"iciduj":4773,"baf":4774,"Ġeriasrevinna":4775,"Ġseda":4776,"Ġesiavuam":4777,"uB":4778,"Ġsellet":4779,"norp":4780,"Ġnoitag":4781,"semmef":4782,"oilbib":4783,"Ġsnoiva":4784,"Ġtircsni":4785,"Ġtiv":4786,"ecivres":4787,"ĠeÃ©nnod":4788,"Ġelliavart":4789,"iasse":4790,"Ġsarb":4791,"Ã©grenÃ©":4792,"Ġnummoc":4793,"ruoma":4794,"ĠÃ©tid":4795,"Ġsneic":4796,"ifitnedi":4797,"ellievrem":4798,"yaP":4799,"Ġtneivnoc":4800,"ĠsÃ¨D":4801,"Ġeniat":4802,"Ġcas":4803,"itaf":4804,"Ġsengil":4805,"arB":4806,"noloc":4807,"ĠâĨ":4808,"Ġesuer":4809,"691":4810,"gus":4811,"Ġsecrof":4812,"Ġtnemelbaborp":4813,"Ġrertne":4814,"Ġtnassap":4815,"Ġtnatrop":4816,"Ġretnemgua":4817,"ĠNE":4818,"uaS":4819,"niamed":4820,"ulf":4821,"ĠrueirÃ©txe":4822,"ĠstnemessilbatÃ©":4823,"ĠtatÃī":4824,"Ġtnam":4825,"onga":4826,"ĠnoinuÃ©r":4827,"Ġreihcif":4828,"ihs":4829,"Ġetxetnoc":4830,"Ġegalp":4831,"ibus":4832,"tej":4833,"noF":4834,"Ġetca":4835,"ĠsiaÃ§narF":4836,"Ġelpuoc":4837,"tios":4838,"sÃ©n":4839,"Ġelbiaf":4840,"Ġerip":4841,"Ġehcir":4842,"eval":4843,"iH":4844,"hps":4845,"ĠeriaF":4846,"revih":4847,"09":4848,"Ġnoitidnoc":4849,"ueil":4850,"acidnys":4851,"unimid":4852,"Ġuaelbat":4853,"Ġstel":4854,"eia":4855,"Ġerrev":4856,"ubirtta":4857,"Ġelbissecca":4858,"ediv":4859,"Ġegairam":4860,"civ":4861,"Ġeirtsudni":4862,"ĠÂ²":4863,"Ġtiarduaf":4864,"Ġleic":4865,"Ġseniamod":4866,"ĠreitÃ©m":4867,"Ġtnemecnanif":4868,"ĠÃ©lc":4869,"nehÃ©rpmoc":4870,"Ġengis":4871,"Ġsemmargorp":4872,"cuA":4873,"Ġneihc":4874,"Ġsialgna":4875,"ulovÃ©r":4876,"xuaicos":4877,"ueirÃ©pus":4878,"uH":4879,"ĠSEL":4880,"Ġnoitcelloc":4881,"Ġiloj":4882,"lielos":4883,"Ġstnapicitrap":4884,"monÃ©hp":4885,"cart":4886,"ertnec":4887,"Ġelleppar":4888,"egirid":4889,"Ġretcepser":4890,"Ġtnemegol":4891,"Ġegannosrep":4892,"arfni":4893,"Ġnoitad":4894,"stnerap":4895,"sum":4896,"ĠegnahcÃ©":4897,"Ã©ssap":4898,"eunna":4899,"ein":4900,"gne":4901,"etne":4902,"Ġtcerid":4903,"Ġegasiv":4904,"ocÃ©d":4905,"Ġsnoitaicossa":4906,"Ġtnesop":4907,"Ġsp":4908,"Ġreifidom":4909,"Ġrevih":4910,"tnemela":4911,"ĠÃ©soporp":4912,"ferB":4913,"ĠerocnE":4914,"arÃ©nÃ©G":4915,"ĠeÃ©ng":4916,"Ġruetasilitu":4917,"Ã¨lÃ©c":4918,"Ã¨hc":4919,"ĠerÃ¨tsinim":4920,"oir":4921,"ĠsaidÃ©m":4922,"ehcÃ©d":4923,"cnod":4924,"nevnoc":4925,"54":4926,"uaet":4927,"Ġtnemessitsevni":4928,"rapsid":4929,"emmef":4930,"uaep":4931,"ĠnicedÃ©m":4932,"nog":4933,"Ġ003":4934,"ĠsnoitarÃ©po":4935,"tircÃ©":4936,"Ġerdnetne":4937,"bmys":4938,"stnat":4939,"Ġervuo":4940,"Ġsreillim":4941,"lieucca":4942,"Ġecitsuj":4943,"Ġnoitces":4944,"Ġsehcrehcer":4945,"tsop":4946,"ehcrehcer":4947,"ĠeÃ©hc":4948,"yx":4949,"Ġkc":4950,"ĠÃ©bÃ©b":4951,"Ã®arf":4952,"RU":4953,"Ġeugol":4954,"ĠtnemetrapÃ©d":4955,"Ġsecapse":4956,"Ġrebmot":4957,"Ġelbissopmi":4958,"ĠeriomÃ©m":4959,"uotne":4960,"ĠerÃ¨irra":4961,"ruS":4962,"ecÃ©r":4963,"larÃ©nÃ©g":4964,"Ġtiav":4965,"Ġleitnesse":4966,"ĠtÃ®annoc":4967,"Ġrf":4968,"Ġsnoitisopsid":4969,"iuqil":4970,"ael":4971,"Ġeuqihparg":4972,"ĠserÃ¨tirc":4973,"ĠesicÃ©rp":4974,"Ġtnellecxe":4975,"anem":4976,"ennap":4977,"ĠNOIT":4978,"Ġruer":4979,"Ġesahp":4980,"ĠecnerÃ©fnoc":4981,"Ã©cs":4982,"Ġelanoitanretni":4983,"arÃ©po":4984,"idretni":4985,"artxe":4986,"ĠselucihÃ©v":4987,"naba":4988,"Ġsesrevid":4989,"Ġerffihc":4990,"EP":4991,"ĠretÃªrra":4992,"liesnoc":4993,"ĠneiR":4994,"Ġrueva":4995,"moD":4996,"Ġeiret":4997,"sniam":4998,"Ġmubla":4999,"Ġnoitpecnoc":5000,"udom":5001,"Ġesiv":5002,"Ã©tÃ©icos":5003,"Ġeitnarag":5004,"ĠsÃ©p":5005,"Ġiares":5006,"Ġetroppa":5007,"rapmoc":5008,"Ġerdniom":5009,"igÃ©livirp":5010,"ĠelÃ®":5011,"ĠÃ©tuaeb":5012,"ĠertÃ®arap":5013,"Ġsecalp":5014,"ĠevÃªr":5015,"idnarg":5016,"tnos":5017,"eutitsnoc":5018,"irporppa":5019,"inamuh":5020,"erbmetpes":5021,"tram":5022,"Ġstahc":5023,"uay":5024,"Ġettel":5025,"ok":5026,"eita":5027,"ĠstnemepiuqÃ©":5028,"Ġena":5029,"Ġreton":5030,"Ġsecneg":5031,"alpme":5032,"Ġtnemetcaxe":5033,"ĠnoitaulavÃ©":5034,"nedÃ©cÃ©rp":5035,"Ġ)...":5036,"ĠtrevuocÃ©d":5037,"emmos":5038,"ehC":5039,"Ġnoisnet":5040,"ĠsepatÃ©":5041,"ĠsÃ©tÃ©icos":5042,"Ġir":5043,"iarved":5044,"eucer":5045,"Ã¨molik":5046,"Ġsetsitra":5047,"Ġsiares":5048,"robalÃ©":5049,"itrepxe":5050,"ĠtnemelgÃ¨r":5051,"Ġ$":5052,"Ġlanoitanretni":5053,"Ġnoitatnemila":5054,"ĠrioV":5055,"ĠeÃ©trop":5056,"Ã¢l":5057,"madnoc":5058,"ĠseÃ©m":5059,"ĠÃ©trop":5060,"Ġetnet":5061,"snoitamrofni":5062,"Ġstnavius":5063,"Ġerutneva":5064,"Ġzevas":5065,"Ġlapicnirp":5066,"Ġessiab":5067,"Ġeiarv":5068,"itrev":5069,"Ġegats":5070,"Ġsdnerpmoc":5071,"Ġus":5072,"Ġtneng":5073,"tno":5074,"Ġserutcurts":5075,"ĠsÃ©lc":5076,"itpec":5077,"pur":5078,"Ġnoitatnemgua":5079,"53":5080,"enisiuc":5081,"ibomotua":5082,"mal":5083,"serts":5084,"8002":5085,"ĠnoissimmoC":5086,"Ġtnemegral":5087,"Ġseriot":5088,"NEM":5089,"dnats":5090,"Ġeniomirtap":5091,"Ġeriam":5092,"naver":5093,"ots":5094,"idÃ©p":5095,"Ġerdnev":5096,"ĠelgooG":5097,"ĠsÃ©tirotua":5098,"EM":5099,"Ġsiofetuot":5100,"Ġlerutan":5101,"Ġrenruot":5102,"Ġruerre":5103,"Ã©htse":5104,"dnal":5105,"Ġsud":5106,"neit":5107,"trom":5108,"ifitsuj":5109,"Ġhctam":5110,"ĠevÃ¨l":5111,"Ġelat":5112,"rtsigerne":5113,"htapmys":5114,"rif":5115,"ĠÃ©ssial":5116,"Ġerdnerper":5117,"euqitilop":5118,"Ġrud":5119,"Ġsetnavius":5120,"ĠÃ©ticaciffe":5121,"ĠÃ©titnedi":5122,"SP":5123,"ĠÃ©fac":5124,"ednammoc":5125,"Ġetsisnoc":5126,"zev":5127,"Ġsecruos":5128,"Ġecnassian":5129,"nnoit":5130,"secnacav":5131,"--":5132,"uaL":5133,"Ġnoitarap":5134,"icar":5135,"ĠsÃ©iralas":5136,"Ġsettecer":5137,"Ġzenerp":5138,"eifingis":5139,"cod":5140,"Ġecnatsid":5141,"Ġetnas":5142,"Ġrialc":5143,"Ġelcatceps":5144,"ĠeuqirÃ©mun":5145,"Ġsegassem":5146,"bulc":5147,"Ġdnetta":5148,"Ġelorap":5149,"nolp":5150,"ĠsenÃ¨":5151,"Ġtnemengapmocca":5152,"Ġegag":5153,"eicremer":5154,"Ġeutitsnoc":5155,"DP":5156,"Ġxuapicnirp":5157,"dÃ©r":5158,"ehp":5159,"ĠseuqleuQ":5160,"ĠtÃªrra":5161,"ceffa":5162,"euv":5163,"cid":5164,"Ġseuqram":5165,"tnal":5166,"euova":5167,"rtnecnoc":5168,"Ġsil":5169,"ĠstnemetÃª":5170,"Ġtset":5171,"ruotne":5172,"dnoces":5173,"Ġelicimod":5174,"Ġlov":5175,"Ġecnec":5176,"titep":5177,"Ġtrev":5178,"ĠÃ©snep":5179,"rduov":5180,"ipahc":5181,"Ġnoitatiolpxe":5182,"aretni":5183,"trof":5184,"nepmoc":5185,"neiB":5186,"revuoc":5187,"irhC":5188,"ĠsÃ©hcram":5189,"sw":5190,"Ġtnasilitu":5191,"ĠemÃ¨rc":5192,"Ġzag":5193,"egassem":5194,"seÃ©t":5195,"Ġselc":5196,"Ġeriatnemmoc":5197,"62":5198,"Ġriruoc":5199,"aw":5200,"ongaid":5201,"ellif":5202,"ĠÃ©titnauq":5203,"Ġerdniojer":5204,"Ġessarret":5205,"erporp":5206,"ivivnoc":5207,"Ġretilicaf":5208,"ammod":5209,"Ġerts":5210,"ĠsedohtÃ©m":5211,"Ã©F":5212,"nahcram":5213,"Ġeh":5214,"nidraj":5215,"ĠsegnahcÃ©":5216,"tnemirÃ©pxe":5217,"eler":5218,"Ġarved":5219,"nosiar":5220,"enna":5221,"pircsni":5222,"Ġelo":5223,"upop":5224,"Ġek":5225,"ĠtabÃ©d":5226,"tnemadnof":5227,"noitamrofni":5228,"elocÃ©":5229,"Ġtpecnoc":5230,"bO":5231,"Ġ1102":5232,"ĠsertÃª":5233,"**":5234,"idÃ©rc":5235,"Ġelbar":5236,"ipa":5237,"72":5238,"tiudorp":5239,"etÃ¨":5240,"Ġnoisserpxe":5241,"sialgna":5242,"iucric":5243,"ĠerÃ¨it":5244,"Ġicec":5245,"Ġsreileta":5246,"rub":5247,"Ġerialoc":5248,"Ġapmys":5249,"apÃ©s":5250,"Ġsnoitcnof":5251,"iuf":5252,"bmaj":5253,"uaP":5254,"Ġsnoitacilppa":5255,"ylop":5256,"ĠÃ©virra":5257,"ĠleÃ©r":5258,"Ġuss":5259,"Ġretpada":5260,"Ġtnang":5261,"Ġsnoitar":5262,"monotua":5263,"inÃ©gni":5264,"Ġag":5265,"upÃ©r":5266,"Ġzenev":5267,"Ġsesia":5268,"Ġseuqigol":5269,"Ġstadidnac":5270,"Ġsfirat":5271,"Ġtnettem":5272,"naB":5273,"nialp":5274,"Ġsreg":5275,"Ġsnosiam":5276,"ĠstnemetÃªv":5277,"euqim":5278,"ziro":5279,"Ġnoissap":5280,"opyh":5281,"snioseb":5282,"seloda":5283,"Ġpmahc":5284,"Ġeriudorp":5285,"Ġstnemegnahc":5286,"ĠÃ©tpada":5287,"ĠeriatÃ©irporp":5288,"rahp":5289,"Ġsellas":5290,"PM":5291,"Ġseigolonhcet":5292,"aler":5293,"Ã§noc":5294,"ĠseS":5295,"etuoT":5296,"sta":5297,"ullop":5298,"ĠsecneuqÃ©snoc":5299,"utir":5300,"tuaf":5301,"ortÃ©m":5302,"ugÃ©d":5303,"tnegra":5304,"eima":5305,"Ġyr":5306,"ĠsiuP":5307,"Ã©tivitca":5308,"uojA":5309,"utiS":5310,"naiv":5311,"ucxe":5312,"parf":5313,"tagilbo":5314,"Ġeriruos":5315,"Ġduahc":5316,"ĠtidÃ©rc":5317,"esiaÃ§narf":5318,"ruog":5319,"Ġsirppa":5320,"ĠtnemÃ©s":5321,"Ã©tÃ©m":5322,"Ġstnemengiesner":5323,"zel":5324,"nid":5325,"Ġeifingis":5326,"utuf":5327,"Ġsrues":5328,"ĠselocÃ©":5329,"ifirÃ©v":5330,"Ã©lÃ©c":5331,"Ġedutibah":5332,"ĠstnesÃ©rp":5333,"argÃ©tni":5334,"ĠsÃ©tiv":5335,"tenretnI":5336,"Ġemhtyr":5337,"tnemerÃ¨":5338,"Ġteuq":5339,"ĠÃ©rglaM":5340,"ka":5341,"]...[":5342,"csed":5343,"Ġstrepxe":5344,"senne":5345,"noissim":5346,"ĠN":5347,"Ġsenummoc":5348,"Ġsneib":5349,"Ġfitisopsid":5350,"Ġruetanidro":5351,"evit":5352,"ĠerÃ¨ts":5353,"Ġegassitnerppa":5354,"Ġsleuqsel":5355,"uelahc":5356,"Ġtneitnoc":5357,"ĠkoobecaF":5358,"iruot":5359,"Ġeuqirotsih":5360,"ĠerreiP":5361,"82":5362,"emret":5363,"ĠÃ©cnal":5364,"Ġsw":5365,"Ġpot":5366,"ecaf":5367,"ĠeuqilbupÃ©R":5368,"ĠnoixelfÃ©r":5369,"ĠtnemelleÃ©r":5370,"euqisum":5371,"ugra":5372,"Ġtairanetrap":5373,"Ġsnu":5374,"irolav":5375,"ĠeÃ©lbmessA":5376,"Ġeunnoc":5377,"eriD":5378,"Ġtroppus":5379,"Ġerussa":5380,"ĠÃ©uqidni":5381,"nurp":5382,"Ã¨s":5383,"ropmetnoc":5384,"utsa":5385,"etxet":5386,"ilif":5387,"rtsulli":5388,"rabÃ©d":5389,"arip":5390,"hptram":5391,"Â´":5392,"Ġrelliesnoc":5393,"secivres":5394,"nonorp":5395,"Ġsitrap":5396,"UA":5397,"Ġare":5398,"Ġsruocer":5399,"ĠseÃ©uq":5400,"ĠtniaS":5401,"9102":5402,"atÃ©m":5403,"setÃª":5404,"ĠÃ©tÃªrra":5405,"Ġtneiver":5406,"Ġrilpmer":5407,"imda":5408,"euqopÃ©":5409,"semmoh":5410,"serga":5411,"irvuo":5412,"Ġnoitirap":5413,"Ġenneicna":5414,"olaid":5415,"Ġsrevne":5416,"Ġdnopserroc":5417,"Ġelbasnepsidni":5418,"ulas":5419,"IM":5420,"ĠtnemmedivÃ©":5421,"rueh":5422,"ejam":5423,"Ã©hoc":5424,"tsiH":5425,"rooc":5426,"vres":5427,"regnartÃ©":5428,"Ġsehcorp":5429,"euqitarp":5430,"Ġ)âĢ¦":5431,"Ã©fni":5432,"Ġnoissimmoc":5433,"Ġnoitaroballoc":5434,"Ġtnietta":5435,"sets":5436,"ual":5437,"bma":5438,"uorG":5439,"rueirÃ©tni":5440,"sptth":5441,"Ġnoitacirbaf":5442,"ĠegnalÃ©m":5443,"ĠenÃ®ahc":5444,"Ġehcif":5445,"Ã©J":5446,"Ġnil":5447,"Ġnoixennoc":5448,"rett":5449,"opsid":5450,"muh":5451,"Ã©rpretni":5452,"Ġlooc":5453,"Ġtnemerialc":5454,"idÃ©rgni":5455,"Ġruennoh":5456,"Ġruelahc":5457,"erutiov":5458,"noissap":5459,"itcepsrep":5460,"egÃ¢":5461,"Ġstneitap":5462,"uopÃ©":5463,"nimod":5464,"Ġht":5465,"ilbuP":5466,"pahcÃ©":5467,"Ġselbasnopser":5468,"ussuahc":5469,"Ġnoitpo":5470,"eÃ©rc":5471,"Ġedrager":5472,"ĠzeuqilC":5473,"sehcir":5474,"ĠeuqirfA":5475,"tnav":5476,"Ġnalib":5477,"Ġnotuob":5478,"rueb":5479,"ovÃ©nÃ©b":5480,"Ġetov":5481,"nohpÃ©lÃ©t":5482,"anÃ©cs":5483,"Ġdiorf":5484,"Ġtcepsa":5485,"ĠnoitpecÃ©r":5486,"Ġemrofetalp":5487,"Ġemref":5488,"Ġslierappa":5489,"Ġetnavius":5490,"Ġsnalp":5491,"Ġessec":5492,"ucorp":5493,"nurpme":5494,"Ġelpuep":5495,"Ġtneiares":5496,"euqinu":5497,"Ġegaruoc":5498,"tar":5499,"ĠdnepÃ©d":5500,"drocca":5501,"Ġsriov":5502,"Ġerialocs":5503,"ĠtnemitÃ¢b":5504,"ueirÃ©s":5505,"Ġessuah":5506,"Ġada":5507,"alcÃ©r":5508,"Ġtnetser":5509,"ueH":5510,"etta":5511,"ĠÃ©sinagro":5512,"yorcni":5513,"Ġsesue":5514,"cO":5515,"omoh":5516,"Ġeinom":5517,"Ġzeilbuo":5518,"Ġ0102":5519,"Ġto":5520,"Ġsetpmoc":5521,"lag":5522,"ĠtnemÃ©lÃ©":5523,"racÃ©":5524,"eriartnoc":5525,"ĠtsE":5526,"Ġebmot":5527,"lievrus":5528,"rog":5529,"etuob":5530,"nerÃ©fnoc":5531,"narussa":5532,"erÃ¨m":5533,"ĠrueisnoM":5534,"Ġegahc":5535,"Ġtalp":5536,"inipo":5537,"Ġemit":5538,"ĠerÃ¨fÃ©rp":5539,"snoitc":5540,"erbotco":5541,"ĠnoitaralcÃ©d":5542,"srola":5543,"Ġzesnep":5544,"orts":5545,"angiomÃ©t":5546,"egami":5547,"ĠelcÃ¨is":5548,"92":5549,"tnemenrevuog":5550,"dneit":5551,"ĠeÃ©lla":5552,"ĠsetÃªf":5553,"eiap":5554,"poc":5555,"Ġreug":5556,"Ġrueuoj":5557,"Ġessorg":5558,"rion":5559,"osol":5560,"siamaj":5561,"Ġspuoc":5562,"Ġrutuf":5563,"iartne":5564,"Ġeuqirbur":5565,"ĠesÃ¨ht":5566,"Ġnoitanitsed":5567,"ĠiceC":5568,"US":5569,"seir":5570,"Ã©dom":5571,"Ġxuaevin":5572,"erbmecÃ©d":5573,"ĠÃ©tehca":5574,"itamilc":5575,"ĠregrahcÃ©lÃ©t":5576,"Ġtutats":5577,"Ġxueic":5578,"Ã¨htoilbib":5579,"Ġegarvuo":5580,"ĠnoitaroilÃ©ma":5581,"ihP":5582,"nemorp":5583,"Ġtnemeuqitamotua":5584,"eba":5585,"alcÃ©":5586,"esue":5587,"Ġsruetisiv":5588,"reT":5589,"Ġtnemitnes":5590,"Ġsneicna":5591,"Ġreilibommi":5592,"Ġsemra":5593,"ĠsÃ©silitu":5594,"lennoisseforp":5595,"Ġfuen":5596,"niuj":5597,".âĢ¦":5598,"Ã©ll":5599,"Ġtnemetsuj":5600,"Ġtiass":5601,"snoitac":5602,"ĠseÃ©p":5603,"Ġap":5604,"iniM":5605,"secne":5606,"Ġeluc":5607,"ĠtnauQ":5608,"toof":5609,"Ġnong":5610,"Ġelatot":5611,"ey":5612,"lliev":5613,"ĠetissuÃ©r":5614,".....":5615,"dnelac":5616,"iac":5617,"rol":5618,"ĠeuqirtcelÃ©":5619,"uemmi":5620,"Ġtnevuort":5621,"obor":5622,"iuG":5623,"narT":5624,"evuas":5625,"Ġnoitasirotua":5626,"itsongaid":5627,"refsnart":5628,"asiffus":5629,"Ġelaidnom":5630,"Ġserffihc":5631,"gnartÃ©":5632,"Ġtam":5633,"Ġardneiv":5634,"rtta":5635,"ĠsnoitcelÃ©":5636,"Ã´C":5637,"ĠsetiaF":5638,"IF":5639,"iovÃ©d":5640,"Ġtnennod":5641,"dus":5642,"siuP":5643,"raz":5644,"ziroh":5645,"etuor":5646,"Ġsiarruop":5647,"niM":5648,"esirp":5649,"car":5650,"teM":5651,"Ġtnauqilc":5652,"Ġnema":5653,"Ġsemitciv":5654,"laC":5655,"issergorp":5656,"Ġtnemevitceffe":5657,"silannosrep":5658,"Ġrelliev":5659,"âĨ":5660,"Ã©virp":5661,"Ġgnas":5662,"ussar":5663,"yxo":5664,"Ã´hc":5665,"orret":5666,"cetihcra":5667,"ĠtnedisÃ©rP":5668,"tnemelle":5669,"erbmevon":5670,"tnemetrapÃ©d":5671,"Ġstroffe":5672,"ĠseM":5673,"Ġsruot":5674,"ehparg":5675,"lennosrep":5676,"Ġercus":5677,"OL":5678,"ufrap":5679,"leb":5680,"ohs":5681,"Ġsreihcif":5682,"irne":5683,"Ġelliesnoc":5684,"pmoC":5685,"ĠetÃ®ob":5686,"Ġsofni":5687,"Ġnamor":5688,"Ġzeyos":5689,"upÃ©d":5690,"Ġsiarduov":5691,"Ġeuqin":5692,"evrec":5693,"oloc":5694,"seuqi":5695,"Ã©tiv":5696,"ĠeS":5697,"Ġmm":5698,"Ġsemron":5699,"Ġsnoitav":5700,"Ġtneiarved":5701,"Ġv":5702,"irogÃ©tac":5703,"ĠstÃªrÃ©tni":5704,"sega":5705,"Ġsneyotic":5706,"Ġeioj":5707,"ĠeÃ©mra":5708,"Ġeip":5709,"Ã©rtnoM":5710,"Ġeuqidni":5711,"iurtÃ©d":5712,"apucco":5713,"Ġsub":5714,"ĠxuairÃ©tam":5715,"ĠegÃ¨is":5716,"Ġemmos":5717,"ĠecnedisÃ©r":5718,"segas":5719,"Ġenim":5720,"ruoC":5721,"ativ":5722,"inas":5723,"Ġmo":5724,"ĠsÃ©tilibissop":5725,"itro":5726,"Ġeihparg":5727,"Ġtnattem":5728,"Ġenir":5729,"ool":5730,"Ġesirprus":5731,"eussi":5732,"rum":5733,"Ġsnoitautis":5734,"tiar":5735,"Ġrinetniam":5736,"eH":5737,"iaL":5738,"Ġruof":5739,"ĠÃ©sopmoc":5740,"Ġios":5741,"luv":5742,"Ġecnamrofrep":5743,"ipac":5744,"Ġleir":5745,"tnemedipar":5746,"Ġruevaf":5747,"lar":5748,"uv":5749,"Ã¢h":5750,"7002":5751,"Ġdus":5752,"engiesne":5753,"moH":5754,"noitautis":5755,"ĠseÃ©il":5756,"ecaciffe":5757,"marg":5758,"ĠsecneirÃ©pxe":5759,"ĠdnopÃ©r":5760,"Ġednab":5761,"Ġtneiarua":5762,"Ġtnemetropmoc":5763,"itpo":5764,"osi":5765,"CA":5766,"IP":5767,"ĠÃ©yasse":5768,"Ġnoitomorp":5769,"Ġedut":5770,"hptrams":5771,"ielp":5772,"ruoB":5773,"igÃ©R":5774,"Ġnoitisoporp":5775,"siofetuoT":5776,"ĠseÃ©d":5777,").":5778,"iuqer":5779,"elaicos":5780,"iolÃ©":5781,"erts":5782,"Ġma":5783,"Ġsellennosrep":5784,"dom":5785,"ĠcebÃ©uQ":5786,"ĠeÃ©rtner":5787,"sirorret":5788,"EV":5789,"lues":5790,"Ġiov":5791,"Ġsertnec":5792,"ecnal":5793,"Ġnisagam":5794,"ĠÃ©timoc":5795,"Ġtialuov":5796,"ĠrueirÃ©pus":5797,"Ġsm":5798,"Ġemsinagro":5799,"ĠÃ©lrap":5800,"nemmi":5801,"niahcorp":5802,"osolihp":5803,"ion":5804,"ĠsÃ©sop":5805,"stom":5806,"Ġsived":5807,"evuorp":5808,"Ġselpmis":5809,"SA":5810,"Ġtnay":5811,"491":5812,"Ġebrepus":5813,"ĠetÃ¢p":5814,"ĠerÃ¨irrac":5815,")-":5816,"nibmoc":5817,"tnoM":5818,"iluos":5819,"ilaicÃ©ps":5820,"ertnocner":5821,"ehciM":5822,"roB":5823,"Ġeuova":5824,"Ã¨tneilc":5825,"ĠretuocÃ©":5826,"Ġslues":5827,"euqram":5828,"Ġsetne":5829,"ĠÃ©virp":5830,"ropme":5831,"rueta":5832,"Ġrecna":5833,"tÃ»":5834,"Ġsetnev":5835,"ĠertnE":5836,"isa":5837,"Ã©lÃ©T":5838,"ĠsrueisulP":5839,"cirts":5840,"Ġselleuqsel":5841,"ÌĢ":5842,"reilucitrap":5843,"ĠEM":5844,"ĠtnememÃªrtxe":5845,"esnopÃ©r":5846,"issuA":5847,"neP":5848,"tuanummoc":5849,"Ġsetnalp":5850,"âĨĴ":5851,"ĠseÃ©c":5852,"nissed":5853,"uqne":5854,"ivid":5855,"aJ":5856,"itpecsus":5857,"nivorp":5858,"Ġsegar":5859,"ĠsleuQ":5860,"57":5861,"iK":5862,"cirbaf":5863,"Ġsunever":5864,"Ã´H":5865,"sar":5866,"amellA":5867,"Ġtnemmasiffus":5868,"cnalb":5869,"nasitra":5870,"Ġevitaitini":5871,"noss":5872,"pil":5873,"Ġessaf":5874,"Ġreuqinummoc":5875,"ĠucÃ©v":5876,"Ġtalocohc":5877,"Ġeuqitamrofni":5878,"aR":5879,"idanac":5880,"Ã©uqca":5881,"Ã©N":5882,"uosÃ©r":5883,"Ġegammod":5884,"ĠnoitaicossA":5885,"udart":5886,"eigrenÃ©":5887,"ilpmocca":5888,"ĠtiteP":5889,"Ã©lborp":5890,"Ġtnasop":5891,"reva":5892,"Ġsrallod":5893,"imis":5894,"ecneirÃ©pxe":5895,".]":5896,"Ġsnoir":5897,"sram":5898,"ĠseuqitsirÃ©tcarac":5899,"ĠÃ©gnahc":5900,"Ġsidnat":5901,"norfnoc":5902,"NOC":5903,"Ġnemaxe":5904,"ilitU":5905,"Ġnoll":5906,"Ġtnadnetta":5907,"egrahc":5908,"Ġeciff":5909,"Ġxiap":5910,"Ġenic":5911,"Ġselpitlum":5912,"trapÃ©d":5913,"Ġerdnet":5914,"Ġtnemetrof":5915,"ĠÃ©tisrevid":5916,"ived":5917,"rela":5918,"tnatropmi":5919,"Ġtabmoc":5920,"Ġnoitasi":5921,"alb":5922,"Ã©ng":5923,"33":5924,"utcell":5925,"irroc":5926,"Ġtnelbmes":5927,"Ã©gÃ©v":5928,"neG":5929,"asivne":5930,"IO":5931,"Ġeussi":5932,"erÃ¨p":5933,"essorg":5934,"Ġsmon":5935,"cebÃ©uQ":5936,"ĠnoissimÃ©":5937,"seuqits":5938,"nomer":5939,"tnemesuerueh":5940,"esu":5941,"Ġeriartnoc":5942,"ĠrergÃ©tni":5943,"Ġrinetuos":5944,"noitnem":5945,"Ġtnats":5946,"Ġsnol":5947,"Ġrega":5948,"Ġseuqim":5949,"egnahc":5950,"Ġetnellecxe":5951,"Ġunem":5952,"utitsnI":5953,"semirt":5954,"uojar":5955,"icilop":5956,"ĠeÃ©sop":5957,"uanretni":5958,"Ġstnega":5959,"angis":5960,"ĠeÃ©rc":5961,"ilpitlum":5962,"Ġref":5963,"Ġniamuh":5964,"Ġerianetrap":5965,"serpxe":5966,"soh":5967,"ĠsÃ©ss":5968,"siorc":5969,"reF":5970,"eguor":5971,"Ġxuae":5972,"tniop":5973,"igam":5974,"Ġrepucco":5975,"ĠevÃ¨lÃ©":5976,"Ġnoitagilbo":5977,"Ġetuaf":5978,"amrahp":5979,"ĠtnemeganÃ©ma":5980,"ĠamÃ©nic":5981,"Ġritnarag":5982,"irB":5983,"essiav":5984,"iter":5985,"ĠliatÃ©d":5986,"591":5987,"eG":5988,"urp":5989,"neil":5990,"eut":5991,"Ġxuejne":5992,"Ġretiart":5993,"icreM":5994,"Ġnoitacilbup":5995,"Ġemitse":5996,"cirfa":5997,"ĠÃ©yovne":5998,"ĠimraP":5999,"ecnahc":6000,"Ġnort":6001,"arÃ©ttil":6002,"duS":6003,"htua":6004,"eÃ©m":6005,"ĠtnemetaidÃ©mmi":6006,"roloc":6007,"ĠbeW":6008,"ĠseuqimonocÃ©":6009,"Ġecnegru":6010,"ĠnifnE":6011,"nagrO":6012,"Ġfirat":6013,"Ġiarua":6014,"ĠruoC":6015,"ĠesnefÃ©d":6016,"ĠtnemmecÃ©r":6017,"Ġtnemesueruehlam":6018,"Ġegan":6019,"Ġruem":6020,"Ġerbmo":6021,"Ġstil":6022,"ĠadanaC":6023,"ĠtuafÃ©d":6024,"medni":6025,"Ġeia":6026,"catceps":6027,"utriv":6028,"snad":6029,"sixe":6030,"Ã´r":6031,"Ġecnetsixe":6032,"ennob":6033,"sirpmoc":6034,"sruojuot":6035,"Ġseidalam":6036,"rapsnart":6037,"edom":6038,"tol":6039,"ĠesirtÃ®am":6040,"Ġerc":6041,"enohpÃ©lÃ©t":6042,"Ġreuqilppa":6043,"Ġtpes":6044,"Ġelbarud":6045,"Ġelliuef":6046,"itapmoc":6047,"Ġetnetnoc":6048,"Ã©lcun":6049,"nomÃ©d":6050,"Ġgnitekram":6051,"icil":6052,"Ġ,âĢĿ":6053,"Ġtnerffo":6054,"Ġstnal":6055,"ĠSED":6056,"Ã»rb":6057,"Ġsertit":6058,"noitnetta":6059,"Ġ051":6060,"noisacco":6061,"ragÃ©":6062,"noÃ§af":6063,"reil":6064,"ocnarf":6065,"euqimonocÃ©":6066,"niab":6067,"Ġseniatnec":6068,"Ġepuoc":6069,"Ġsruelf":6070,"slennoisseforp":6071,"Ġetnetta":6072,"Ġlanruoj":6073,"Ã©rces":6074,"iparÃ©ht":6075,"niarc":6076,"euqitÃ©":6077,"Ġsevit":6078,"ĠerbÃ¨lÃ©c":6079,"Ġegall":6080,"sÃ©m":6081,"erdne":6082,"Ġeht":6083,"ĠecivreS":6084,"Ġseuqita":6085,"laicos":6086,"Ġos":6087,"Ġsnoll":6088,"LA":6089,"63":6090,"Ġelapicnirp":6091,"rueirÃ©txe":6092,"ĠrehcÃªpme":6093,"nitrep":6094,"Ã©ssop":6095,"ĠxirP":6096,"Ġetsitra":6097,"Ġlacol":6098,"aruocne":6099,"Ġsnong":6100,"Ã¨dif":6101,"ĠsetnesÃ©rp":6102,"Ã¢c":6103,"telliuj":6104,"reih":6105,"ibÃ©d":6106,"euccA":6107,"Ġenucahc":6108,"revirra":6109,"irtun":6110,"mum":6111,"Ġesitrepxe":6112,"Ġeriud":6113,"ellennoisseforp":6114,"Ġeuqimanyd":6115,"emlac":6116,"repÃ©r":6117,"ĠedoC":6118,"ertuo":6119,"Ġstroppar":6120,"Ġstnatropmi":6121,"ĠellehcÃ©":6122,"Ã©tilaÃ©r":6123,"Ġ9002":6124,"Ġetni":6125,"etiord":6126,"snoitat":6127,"ak":6128,"Ġelibom":6129,"ĠerbiliuqÃ©":6130,"utcelletni":6131,"elbaÃ©rga":6132,"erÃ¨inred":6133,"sevita":6134,"ehcuag":6135,"isauq":6136,"nopaj":6137,"Ġeicremer":6138,"Ġtnannod":6139,"oy":6140,"Ġtnasid":6141,"Ġluc":6142,"itnem":6143,"Ġehciffa":6144,"ĠÃ©tisrevinU":6145,"ĠSUO":6146,"caM":6147,"EN":6148,"ĠrilbatÃ©":6149,"Ġtnalla":6150,"Ġtnemetiutarg":6151,"Ġtnioj":6152,"ĠsemugÃ©l":6153,"tiuq":6154,"Ġeuqissalc":6155,"ĠserÃ¨itam":6156,"ĠSP":6157,"etnev":6158,"necÃ©r":6159,"morf":6160,"Ġxuaet":6161,"ĠehT":6162,"Ġtiuh":6163,"atS":6164,"tnevuos":6165,"Ġtellib":6166,"usem":6167,"Ġtneial":6168,"ruD":6169,"rurihc":6170,"Ġsemsinagro":6171,"Ġrertner":6172,"atipÃ´h":6173,"nevuos":6174,"Ġnoitubirtsid":6175,"Ġevitaler":6176,"Ġrecrofner":6177,"remÃ©":6178,"Ġemulov":6179,"Ġnoisuffid":6180,"catnoC":6181,"Ġrevresnoc":6182,"ĠedicÃ©d":6183,"ĠneÃ©porue":6184,"ĠesiM":6185,"Ġegav":6186,"eic":6187,"hctam":6188,"Ġeuqatta":6189,"Ġepucco":6190,"igid":6191,"Ġsol":6192,"ĠsnoisicÃ©d":6193,"alÃ©":6194,"ruep":6195,"Ġlamron":6196,"ĠesserÃ©tni":6197,"Ġsnoitasinagro":6198,"Ġenil":6199,"ueiD":6200,"ĠolÃ©v":6201,"Ġrinevuos":6202,"iduts":6203,"Ġreleppar":6204,"ĠrerÃ©pucÃ©r":6205,"ĠegatÃ©":6206,"ĠeuvÃ©rp":6207,"Ġevitc":6208,"Ġelcyc":6209,"ĠsreitÃ©m":6210,"ĠerÃ¨rf":6211,"ĠnoitnevÃ©rp":6212,"ĠsecnaÃ©s":6213,"Ġsetluda":6214,"ĠÃ©ilbuo":6215,"raS":6216,"Ġ004":6217,"erusem":6218,"ĠedosipÃ©":6219,"Ã©B":6220,"Ġsetsil":6221,"naro":6222,"Ġetiafrap":6223,"Ġsruocsid":6224,"Ġcab":6225,"etser":6226,"Ġseriossecca":6227,"Ġriovuo":6228,"ĠnoitcelÃ©":6229,"Ġsepicnirp":6230,"Ãªg":6231,"Ġnoitamina":6232,"sr":6233,"ĠelgÃ¨r":6234,"Ġunever":6235,"ĠeuqinortcelÃ©":6236,"isirap":6237,"ngi":6238,"Ġtnasiv":6239,"ioc":6240,"uN":6241,"eÃ©l":6242,"Ġegagne":6243,"10":6244,"Ġlanif":6245,"osÃ©d":6246,"Ġemra":6247,"ĠsnoÃ§":6248,"Ġetiudnoc":6249,"adilos":6250,"uorb":6251,"ĠerutircÃ©":6252,"ĠniacirÃ©ma":6253,"ĠÃ©grahc":6254,"ĠweN":6255,"issam":6256,"Ġevarg":6257,"idÃ©pxe":6258,"ĠeÃ©silitu":6259,"ĠÃ©rtnom":6260,"ĠsÃ©c":6261,"rabme":6262,"Ġserud":6263,"ĠÃ©tilautca":6264,"DA":6265,"adnam":6266,"imrod":6267,"Ġerutrevuoc":6268,"ĠpuocuaeB":6269,"itnehtua":6270,"Ġtnesid":6271,"PA":6272,"Ġtirp":6273,"elleb":6274,"irucÃ©s":6275,"dnopserroc":6276,"ĠnaeJ":6277,"etiusnE":6278,"Ġsecnegixe":6279,"necil":6280,"Ġsdnetta":6281,"Ġsreilucitrap":6282,"Ġstnec":6283,"Ġebor":6284,"Ġfitc":6285,"ÃĬ":6286,"norffa":6287,"soc":6288,"ĠselleuQ":6289,"Ġsruetua":6290,"Ġresirovaf":6291,"ixot":6292,"ĠrinifÃ©d":6293,"nnosiar":6294,"Ġsuj":6295,"ĠreimerP":6296,"Ġerte":6297,"snahc":6298,"ĠsnoigÃ©r":6299,"irvuocÃ©d":6300,"erbmahc":6301,"Ġruetca":6302,"Ã©L":6303,"Ġtnep":6304,"ĠÃ©leppa":6305,"Ġstra":6306,"Ġsruetces":6307,"rir":6308,"etuod":6309,"noitam":6310,"droN":6311,"sreit":6312,"Ġselitu":6313,"Ġriovec":6314,"ĠnoitargÃ©tni":6315,"umÃ©r":6316,"unna":6317,"Ġeuqnab":6318,"Ġretpecca":6319,"atipsoh":6320,"ertÃ®":6321,"utum":6322,"Ġetiarter":6323,"irO":6324,"sÃ©l":6325,"Ġtsop":6326,"nruotnocni":6327,"Ġnamam":6328,"Ġselapicnirp":6329,"Ġeguj":6330,"Ġtnevas":6331,"ĠST":6332,"ĠetÃ¢h":6333,"lÃ«oN":6334,"Ġsiavas":6335,"naL":6336,"Ġreifitnedi":6337,"Ġlamina":6338,"rovaf":6339,"Ġlavitsef":6340,"OM":6341,"elanoitan":6342,"Ġsenu":6343,"itnedisÃ©rp":6344,"ĠeÃ©virp":6345,"Ġrettul":6346,"narÃ©d":6347,"raH":6348,"rapÃ©":6349,"eugnol":6350,"Ġnaf":6351,"ĠerÃ¨icnanif":6352,");":6353,"Ġstnemila":6354,"ĠtnemepiuqÃ©":6355,"Ġliforp":6356,"lirva":6357,"niarret":6358,"Ġelleiciffo":6359,"Ġremirpxe":6360,"IB":6361,"laP":6362,"niW":6363,"ĠÃ©tluciffid":6364,"ilpicsid":6365,"Ġsegrahc":6366,"ĠsÃ©ticapac":6367,"ongapse":6368,"kro":6369,"serv":6370,"egral":6371,"ifart":6372,"nacs":6373,"noisiv":6374,"Ġecnatsissa":6375,"ertnE":6376,"mA":6377,"netbo":6378,"Ġrueugiv":6379,"uaH":6380,"efni":6381,"Ã©rg":6382,"uaerub":6383,"euqinhcet":6384,"Ã©rhc":6385,"arG":6386,"Ġsevitaler":6387,"Ġreleppa":6388,"erviv":6389,"sse":6390,"Ġnoitalucric":6391,"Ġtnetiahuos":6392,"Ġsetca":6393,"ĠsÃ©soporp":6394,"Ġunetbo":6395,"Ã©mac":6396,"namruog":6397,"ĠUD":6398,"oiv":6399,"senuej":6400,"nalB":6401,"Ġsnoitpo":6402,"Ġxuaedac":6403,"elag":6404,"laviuqÃ©":6405,"Ġerutniep":6406,"Ġ,.":6407,"itrappa":6408,"ĠsertÃ¨molik":6409,"ĠsesnepÃ©d":6410,"adanaC":6411,"euqisyhp":6412,"birt":6413,"eib":6414,"anÃ©mÃ©d":6415,"Ġreirruoc":6416,"ĠzevuorteR":6417,"eÃ©rios":6418,"ĠstehcÃ©d":6419,"ohP":6420,"ĠrissuÃ©r":6421,"nirP":6422,"Ġstalp":6423,"Ġsicuos":6424,"Ġlia":6425,"lusum":6426,"srueluoc":6427,"ĠemrofÃ©r":6428,"itraM":6429,"Ġtnoret":6430,"Ġremrofni":6431,"Ġsnif":6432,"etnas":6433,"ĠelcitrA":6434,"uM":6435,"ĠelliV":6436,"xuec":6437,"Ġ)!":6438,"locÃ©r":6439,"elarÃ©nÃ©g":6440,"Ġseriaroh":6441,"nonÃ©d":6442,"atnaf":6443,"ĠdroN":6444,"stejorp":6445,"val":6446,"ĠsioÃ§narF":6447,"trops":6448,"Ġtroppa":6449,"Ġsetnetta":6450,"Ġdrater":6451,"elA":6452,"ĠzeneV":6453,"eÃ©c":6454,"zag":6455,"vehc":6456,"ĠetsilaicÃ©ps":6457,"Ġriover":6458,"ĠsemÃ´":6459,"Ġlieo":6460,"ĠtnemerÃ¨gÃ©l":6461,"tatÃ©":6462,"uef":6463,"Ġeriotagilbo":6464,"inilc":6465,"Ġerreip":6466,"uova":6467,"Ġreutitsnoc":6468,"ĠliÅĵ":6469,"Ġnoitnetni":6470,"nias":6471,"enigiro":6472,"ropmer":6473,"ĠuÃ§noc":6474,"elicaf":6475,"Ã©hcÃ©":6476,"Ġsnoitisoporp":6477,"elrap":6478,"tnatruoP":6479,"Ġelanif":6480,"ĠnoitarocÃ©d":6481,"Ġsrued":6482,"Ġsednammoc":6483,"amÃ©nic":6484,"rutc":6485,"oÃ©ht":6486,"Ġ57":6487,"tiord":6488,"Ġicuos":6489,"Ġellieucca":6490,"stnemet":6491,"Ġsimuos":6492,"edrag":6493,"ĠsecÃ¨pse":6494,"bA":6495,"Ġstner":6496,"Ġsnov":6497,"âĢī":6498,"Ġstab":6499,"ĠÃ©tiliba":6500,"Ġelumrof":6501,"Ġzelliuev":6502,"ĠÃ©idÃ©d":6503,"ĠetiS":6504,"illoc":6505,"Ġsetisiv":6506,"acsif":6507,"Ġserutiov":6508,"Ġspmetnirp":6509,"Ġsevuerp":6510,"Ġeriatnemila":6511,"urres":6512,"ĠsialÃ©d":6513,"uqsuJ":6514,"ĠenÃ¨m":6515,"Ġserttel":6516,"ĠetirÃ©m":6517,"ĠetissecÃ©n":6518,"ĠevÃ¨":6519,"ĠrenimretÃ©d":6520,"atsnI":6521,"ceva":6522,"seM":6523,"acilppa":6524,"tubÃ©d":6525,"Ġetsav":6526,"ilannosrep":6527,"60":6528,"Ġsta":6529,"relrap":6530,"Ã¨c":6531,"Ġelbas":6532,"ĠÃ©timoC":6533,"Ġseniat":6534,"tnemer":6535,"Ġuelb":6536,"ĠÃ©tinu":6537,"Ġsei":6538,"ĠRUO":6539,"orT":6540,"Ġerg":6541,"ĠÃ©tiral":6542,"neB":6543,"Ġsecneics":6544,"ĠstÃ»oc":6545,"Ġselaicos":6546,"vilÃ©d":6547,"illos":6548,"ĠsÃ©tiladom":6549,"ĠrevresÃ©r":6550,"Ã©numÃ©r":6551,"ĠetÃªrra":6552,"Ġyt":6553,"ioj":6554,"ĠEUQ":6555,"Ġenredom":6556,"Ġretej":6557,"Ġeiulp":6558,"Ġscurt":6559,"Ġetniop":6560,"saper":6561,"niA":6562,"eÃ©g":6563,"sserda":6564,"roM":6565,"Ġsniomna":6566,"Ġreuqilc":6567,"ÃłjÃ©d":6568,"eril":6569,"Ġselliuef":6570,"Ġtnedicca":6571,"Ġtianev":6572,"ĠsÃ©tivni":6573,"âĢ¦âĢ¦":6574,"Ġzeyov":6575,"edia":6576,"emÃ¨":6577,"irotirret":6578,"ĠÃ©velÃ©":6579,")!":6580,"Ġstiart":6581,"engi":6582,"Ġeita":6583,"cam":6584,"ĠservuÅĵ":6585,"ĠstÃªrp":6586,"Ġleuqua":6587,"ĠemÃ¢":6588,"omta":6589,"ĠeÃ©silaÃ©r":6590,"ĠÃ©icÃ©rppa":6591,"noniS":6592,"rued":6593,"Ġsniab":6594,"esab":6595,"Ġegien":6596,"Ġlar":6597,"Ġitros":6598,"Ġesinagro":6599,"Ġevitca":6600,"noitcudorp":6601,"Ġerviusruop":6602,"ĠtnemelaicÃ©ps":6603,"ĠrueL":6604,"ĠnoitinifÃ©d":6605,"ortÃ©p":6606,"eur":6607,"ĠÃ©uoj":6608,"noitacinummoc":6609,"ĠseÃ©nruoj":6610,"nnom":6611,"ulC":6612,"ĠeÃ©su":6613,"Ġsetsop":6614,"itnedifnoc":6615,"noitasilitu":6616,"hposolihp":6617,"idÃ©mretni":6618,"Ġtre":6619,"Ġtiforp":6620,"egat":6621,"ĠZ":6622,"Ġtiud":6623,"ĠÃ©calp":6624,"Ġdnetne":6625,"udnoc":6626,"egassap":6627,"Ġseuqifitneics":6628,"polevÃ©D":6629,"inap":6630,"reug":6631,"Ġfo":6632,"Ġsin":6633,"ĠnoitarÃ©nÃ©g":6634,"Ġnoitasir":6635,"ĠrelgÃ©r":6636,"uorger":6637,"ĠhE":6638,"Ġrenruoter":6639,"Ġ=":6640,"Ġsecnahc":6641,"Ġsiasnep":6642,"Ġ8002":6643,"ĠeÃ©sum":6644,"Ġsesab":6645,"uepar":6646,"Ġleiciffo":6647,"OT":6648,"noba":6649,"Ġrettiuq":6650,"ĠtnemerÃ»s":6651,"reivnaj":6652,"isrevid":6653,"Ġretnem":6654,"lah":6655,"Ġgnikrap":6656,"6002":6657,"ĠseriatÃ©irporp":6658,"Ġsetnatropmi":6659,"reng":6660,"lusnoC":6661,"ĠrinevÃ©rp":6662,"ĠehcÃªpme":6663,"Ġsg":6664,"acse":6665,"nifne":6666,"Ġednammocer":6667,"tahc":6668,"ecnaifnoc":6669,"emm":6670,"Ġ23":6671,"Ġtnemecalpme":6672,"Ġdron":6673,"emed":6674,"bÃ©lÃ©c":6675,"ikooc":6676,"labme":6677,"Ġha":6678,"erÃ¨irra":6679,"Ġtnessap":6680,"erreug":6681,"ĠsÃ©yolpme":6682,"eiparÃ©ht":6683,"Ġrueugnol":6684,"tÃ®":6685,"irÃ©d":6686,"eutis":6687,"Ã©poruE":6688,"Ġelbisiv":6689,"Ġrum":6690,"ĠSI":6691,"Ġtnenneit":6692,"Ġerrab":6693,"uoM":6694,"Ġtroffe":6695,"ĠÃ©tÃ©icoS":6696,"Ġeuqitirc":6697,"Ġsettel":6698,"sÃ©hc":6699,"atI":6700,"ussA":6701,"usnem":6702,"Ġsreissod":6703,"ffoc":6704,"Ġruesseforp":6705,"Ġiram":6706,"nepmocÃ©r":6707,"sp":6708,"43":6709,"Ġehcuob":6710,"Ġerugif":6711,"Ġliat":6712,"Ġ^^":6713,"ĠstneidÃ©rgni":6714,"nnotÃ©":6715,"ĠK":6716,"iapÃ©":6717,"ĠzehC":6718,"adaM":6719,"ĠerÃ¨hps":6720,"Ã©lÃ©cca":6721,"Ġtadidnac":6722,"emaS":6723,"Ġnoitatlusnoc":6724,"serio":6725,"itaÃ©rc":6726,"ĠervuocÃ©d":6727,"Ġtnessiannoc":6728,"Ġsunnoc":6729,"ĠseuqificÃ©ps":6730,"ĠÃ©il":6731,"UL":6732,"rotcelÃ©":6733,"Ġsfitca":6734,"necni":6735,"ĠÃ©ts":6736,"Ġtnesoporp":6737,"Ġ).":6738,"iuqam":6739,"ueirÃ©txe":6740,"ĠÃ©utceffe":6741,"Ġselbuort":6742,"Ġnit":6743,"Ġnoitse":6744,"Ġessam":6745,"mI":6746,"tial":6747,"???":6748,"Ġxuod":6749,"oidar":6750,"ĠsoV":6751,"iforP":6752,"eiasse":6753,"ecneg":6754,"ecalpÃ©d":6755,"Ġruoc":6756,"Ġtnemessalc":6757,"nalpmi":6758,"Ġehp":6759,"Ġda":6760,"Ġsunetnoc":6761,"Ġterces":6762,"luclac":6763,"ĠÃ©tissecÃ©n":6764,"Ġtialbmes":6765,"gnas":6766,"Ġstset":6767,"Ġlaidnom":6768,"tnemeppolevÃ©d":6769,"Ġerar":6770,"Ġtnemecnal":6771,"Ġsruehcrehc":6772,"Ġsnoitallatsni":6773,"roppus":6774,"Ġseniahcorp":6775,"tÃ»oa":6776,"tuotrus":6777,"Ġsnos":6778,"RP":6779,"ueirÃ©tni":6780,"ĠifÃ©d":6781,"Ġtnort":6782,"ĠetiuS":6783,"egdub":6784,".%":6785,"Ġelbmesser":6786,"Ġretucsid":6787,"Ġelatipac":6788,"ĠhO":6789,"Ġlatipac":6790,"asÃ©d":6791,"Ġllab":6792,"Ġnoitavonni":6793,"taM":6794,"Ġtnemevitaler":6795,"TA":6796,"Ġfitca":6797,"Ġeima":6798,"ĠerduosÃ©r":6799,"Ġtnaviv":6800,"biliuqÃ©":6801,"Ġelam":6802,"alcÃ©d":6803,"ĠstÃ´":6804,"Ġeuqifitneics":6805,"Ġleitnetop":6806,"ĠÃ©picitrap":6807,"Ġsri":6808,"sÃ©g":6809,"alsi":6810,"ĠsulÃ©":6811,"port":6812,"Ã©fac":6813,"Ġtnemevit":6814,"Ġsnoved":6815,"Ġertiannoc":6816,"Ġsniamuh":6817,"Ġerir":6818,"ĠeÃ©tpada":6819,"ihcÃ©lfÃ©r":6820,"84":6821,"Ġrelli":6822,"tcatnoc":6823,"ĠeÃ©snep":6824,"Ġniap":6825,"ilgÃ©n":6826,"ĠudnopÃ©r":6827,"Ġsnohc":6828,"truoc":6829,"Ġnoiva":6830,"reit":6831,"Ġseuqig":6832,"iG":6833,"Ġsserts":6834,"llab":6835,"siarf":6836,"Ġstiordne":6837,"90":6838,"igarf":6839,"tirpse":6840,"uelf":6841,"tset":6842,"Ġon":6843,"ueparÃ©ht":6844,"Ġeutis":6845,"Ġehparg":6846,"ĠxueirÃ©s":6847,"ĠisniA":6848,"razib":6849,"uaM":6850,"ĠduS":6851,"ĠÃ¹O":6852,"Ġriopse":6853,"tÃ´t":6854,"iwT":6855,"Ġesuerueh":6856,"Ġsecnamrofrep":6857,"inalp":6858,"tahca":6859,"Ġengapmocca":6860,"yg":6861,"Ġneb":6862,"ennoisiv":6863,"roper":6864,"tnerap":6865,"Ġstartnoc":6866,"xueir":6867,"Ġexat":6868,"ĠseÃ©hc":6869,"NC":6870,"Ġretimil":6871,"Ġetiutarg":6872,"Ġtneiat":6873,"Ġtnessiup":6874,"uapÃ©":6875,"Ġrecalp":6876,"eniahcorp":6877,"Ġetiforp":6878,"uoY":6879,"uriv":6880,"icS":6881,"lanif":6882,"lap":6883,"Ġnor":6884,"000":6885,"ivir":6886,"Ġseriotsih":6887,"Ġ9102":6888,"Ġtiurb":6889,"ssim":6890,"Ġehcnam":6891,"ĠtnemegrebÃ©h":6892,"ĠehcÃªp":6893,"ĠRE":6894,"ĠnoitavresÃ©r":6895,"tiutarg":6896,"efrep":6897,"Ġecneloiv":6898,"idÃ©M":6899,"Ġrecalpmer":6900,"aT":6901,"uoD":6902,"nidroartxe":6903,"enretam":6904,"irÃ©h":6905,"Ġetuoja":6906,"iaM":6907,"hceT":6908,"Ġeuver":6909,"nolas":6910,"nioc":6911,"eniamod":6912,"ĠJ":6913,"ssiorc":6914,"Ġeniazid":6915,"itseF":6916,"Ġreirdnelac":6917,"Ġegad":6918,"Ġnoitcaf":6919,"Ġtif":6920,"ĠertÃ®am":6921,"Ġnoc":6922,"IX":6923,"Ġerttab":6924,"ĠÃ©nitsed":6925,"ĠerueirÃ©pus":6926,"Ġtiudnoc":6927,"ĠenÃ¨monÃ©hp":6928,"Ġsleicigol":6929,"reD":6930,"Ġsnores":6931,"tpmys":6932,"otorp":6933,"Ã¨ma":6934,"sod":6935,"Ġnoitamrifnoc":6936,"oper":6937,"deip":6938,"serd":6939,"rineva":6940,"segap":6941,"ĠregnahcÃ©":6942,"eila":6943,"Ġegaffuahc":6944,"ecned":6945,"Ġein":6946,"eliciffid":6947,"83":6948,"iranÃ©cs":6949,"hP":6950,"Ġstropsnart":6951,"uorp":6952,"mE":6953,"Ġeud":6954,"ehcnaver":6955,"iort":6956,"ĠseÃ©sop":6957,"utirips":6958,"ĠertÃ¢Ã©ht":6959,"roporp":6960,"Ġesor":6961,"Ġstcepsa":6962,"Ãªf":6963,"ona":6964,"Ġtf":6965,"ĠlieuccA":6966,"ĠtutitsnI":6967,"ituoba":6968,"Ġinruof":6969,"Ġay":6970,"eivretni":6971,"Ġeiasse":6972,"esnep":6973,"ĠÃ©rtnocner":6974,"noitcelÃ©s":6975,"Ġeruemed":6976,"cudÃ©":6977,"recnoC":6978,"egatnava":6979,"ilati":6980,"Ã®d":6981,"Åĵs":6982,"ĠerÃ¨g":6983,"naD":6984,"Ġecnallievrus":6985,"OS":6986,"ĠsehcÃ¢t":6987,"sneg":6988,"Ġsrinevuos":6989,"erud":6990,"Ġruetas":6991,"Ġerus":6992,"Ġeuqid":6993,"Ġstrom":6994,"Ġelleutca":6995,"Ġseuv":6996,"Ġliame":6997,"Ġellim":6998,"Ġeriob":6999,"rialc":7000,"serbmahc":7001,"Ġretatsnoc":7002,"itÃ©":7003,"oz":7004,"ropsnart":7005,"rugifnoc":7006,"ĠÃ©ticirtcelÃ©":7007,"Ã©co":7008,"icsus":7009,"ĠerÃ¨in":7010,"ĠsemÃ¨ht":7011,"Ġemitciv":7012,"Ġ0002":7013,"icnoc":7014,"Ġselbissop":7015,"Ġseugnol":7016,"Ġretne":7017,"erutcel":7018,"Ġsruelliavart":7019,"itcer":7020,"Ġsimer":7021,"80":7022,"acilÃ©d":7023,"Ġenruot":7024,"Ġsiaib":7025,"Ġuoc":7026,"seu":7027,"Ã©tsys":7028,"ĠÃ©rÃ©disnoc":7029,"pÃ©":7030,"Ġritsevni":7031,"segami":7032,"Ġtnarffo":7033,"eul":7034,"Ġsiolpme":7035,"Ġseton":7036,"tuf":7037,"Ġsetad":7038,"ono":7039,"Ġreitne":7040,"Ġeuneved":7041,"elliat":7042,"Ġnoissucsid":7043,"nima":7044,"Ġemsiruot":7045,"ilA":7046,"Ġeriuc":7047,"ĠtnanetniaM":7048,"Ġ33":7049,"Ġstnemegol":7050,"Ã©fÃ©r":7051,"Ġelartnec":7052,"ĠtercÃ©d":7053,"Ġsruetcaf":7054,"tan":7055,"uojib":7056,"utcaf":7057,"ay":7058,"tsnocric":7059,"acova":7060,"Ġrepuoc":7061,"ĠÃ©tirÃ©v":7062,"Ġsut":7063,"Ġtreffo":7064,"Ġtenibac":7065,"NOIT":7066,"eF":7067,"selbat":7068,"reitne":7069,"Ġseuqilbup":7070,"nO":7071,"Ġtnell":7072,"scilbup":7073,"ĠÃ©tset":7074,"Ġemrahc":7075,"ardyh":7076,"egalliv":7077,"xuej":7078,"argÃ©d":7079,"Ġtop":7080,"ĠlÃ«":7081,"Ġtrecnoc":7082,"rueoc":7083,"Ã¨vÃ©r":7084,"sdiop":7085,"ii":7086,"ĠnoisivÃ©lÃ©t":7087,"Ġecnassiannocer":7088,"Ġurc":7089,"Ġsetsip":7090,"Ġfitaler":7091,"rets":7092,"Ġtidretni":7093,"nnoh":7094,"Ġnosnahc":7095,"uejam":7096,"RT":7097,"Ġtnemenielp":7098,"Ġecirta":7099,"Ġetuhc":7100,"Ġeriudnoc":7101,"Ġecuod":7102,"ehcram":7103,"Ġtnap":7104,"ĠregÃ©l":7105,"Ġexelpmoc":7106,"recnemmoc":7107,"agÃ©d":7108,"lsigÃ©l":7109,"Ġstnemevuom":7110,"Ġesarhp":7111,"Ġsris":7112,"ulaS":7113,"ĠecnatsisÃ©r":7114,"ĠtnemÃ©r":7115,"serbmem":7116,"Ġssen":7117,"ĠemronÃ©":7118,"ruehnob":7119,"ennosreP":7120,"engatnom":7121,"Ġsecicrexe":7122,"Ġsip":7123,"uaevin":7124,"Ġles":7125,"seriaffa":7126,"esserp":7127,"Ġiovne":7128,"ĠsnoitÃ©":7129,"oG":7130,"Ġerrueb":7131,"Â²":7132,"ĠenÃ¨g":7133,"Ġsruetama":7134,"mol":7135,"essalc":7136,"Ġesirper":7137,"Ġsal":7138,"saP":7139,"ĠnoitucÃ©xe":7140,"nimirc":7141,"ruÅĵc":7142,"sÃ©v":7143,"ĠertÃªnef":7144,"eicÃ©rppa":7145,"Ġtiurtsnoc":7146,"ĠtnatnesÃ©rper":7147,"iouqruop":7148,"ĠsÃ©tpada":7149,"Ã©bÃ©b":7150,"Ġselpmexe":7151,"gro":7152,"Ġit":7153,"sÃ¨ccus":7154,"serb":7155,"uC":7156,"ioM":7157,"Ġnoitacifidom":7158,"seÃ©r":7159,"pO":7160,"eluob":7161,"Ġzeiv":7162,"ĠsÃ©tÃ´c":7163,"ocirga":7164,"Ġxueruoma":7165,"ĠregnartÃ©":7166,"FA":7167,"ruetua":7168,"Ġsnoisiv":7169,"ueug":7170,"ĠesilgÃ©":7171,"itnesser":7172,"ĠÃ©ht":7173,"ĠÃ©toc":7174,"99":7175,"Ġsriovuop":7176,"Ġnoitpecxe":7177,"ihcnarf":7178,"iroÃ©ht":7179,"uT":7180,"elbarud":7181,"ĠÃ©tirotua":7182,"edutibah":7183,"ĠerbmahC":7184,"tuotrap":7185,"yno":7186,"ĠerÃ¨ilucitrap":7187,"Ġnoisses":7188,"Ġstnaegirid":7189,"Ġleutca":7190,"ĠeÃ©lbmessa":7191,"ĠsruojuoT":7192,"Ġ84":7193,"Ġseni":7194,"ems":7195,"Ġ,%":7196,"ĠÃ©llatsni":7197,"ĠresicÃ©rp":7198,"sfit":7199,"Ġerutcet":7200,"ĠetÃªrp":7201,"Ġrenigami":7202,"ĠsÃ©tivitcelloc":7203,"13":7204,"Ġresrev":7205,"Ġregnad":7206,"Ġeriotciv":7207,"srevnoc":7208,"emmargorp":7209,"idda":7210,"ĠsniomnaÃ©n":7211,"ĠseirogÃ©tac":7212,"Ãłliov":7213,"Ġsruetammosnoc":7214,"Ġ10":7215,"Ġtneitap":7216,"Ġall":7217,"Ġ63":7218,"nelcÃ©d":7219,"Ġreuol":7220,"pilihP":7221,"ipser":7222,"dron":7223,"Ġregagne":7224,"etuaf":7225,"ĠeÃ©silaicÃ©ps":7226,"Ġsecnonna":7227,"Ġriollaf":7228,"Ã©lot":7229,"OP":7230,"Ġsrehc":7231,"esuac":7232,"Ã¨p":7233,"rugif":7234,"Ġelan":7235,"Ġtrefsnart":7236,"ĠsÃ©tilauq":7237,"Ġzeya":7238,"Ġsniv":7239,"unom":7240,"ĠednarG":7241,"nolorp":7242,"RUO":7243,"Ġepicitrap":7244,"Ġunnocer":7245,"eissu":7246,"Ġsneihc":7247,"rP":7248,"igyh":7249,"xiov":7250,"sreg":7251,"ĠseÃ©nnodrooc":7252,"Ġnoitaruatser":7253,"elicimod":7254,"ĠtÃªrof":7255,"ĠstnemacidÃ©m":7256,"zedneR":7257,"ĠâĨĳ":7258,"DC":7259,"ĠTNEM":7260,"Ġrecnac":7261,"erÃ¨ir":7262,"Ġeimonotua":7263,"Ġregrahc":7264,"Ġlaicremmoc":7265,"Ġtneviv":7266,"nimon":7267,"ĠnoitnettA":7268,"ĠretÃ©lpmoc":7269,"Ġnissed":7270,"Ġehcuod":7271,"ufÃ©r":7272,"ĠÃ©ngapmocca":7273,"Ġnoisnep":7274,"norra":7275,"snI":7276,"luC":7277,"nnoisserpmi":7278,"ĠeniacirÃ©ma":7279,"RAP":7280,"Ġsenihcam":7281,"Ġtamilc":7282,"Ġrein":7283,"cyc":7284,"ĠeuqificÃ©ps":7285,"vonni":7286,"Ġetnocar":7287,"Ġexes":7288,"noitulos":7289,"ĠseriatnemÃ©lppus":7290,"ruoT":7291,"ĠstnatnesÃ©rper":7292,"Ġeniamuh":7293,"Ġtnahcas":7294,"sesirp":7295,"ĠtÃ´pmi":7296,"ĠsletÃ´h":7297,"loC":7298,"losi":7299,"tuob":7300,"ĠÃ©lliesnoc":7301,"Ġetnal":7302,"lunna":7303,"cnoD":7304,"ifir":7305,"Ġednal":7306,"ĠreulovÃ©":7307,"ertit":7308,"73":7309,"Ã©pÃ©r":7310,"uR":7311,"Ġan":7312,"ĠrirÃ©uqca":7313,"Ġselbissecca":7314,"Ġspmahc":7315,"egairam":7316,"ital":7317,"Ġtnega":7318,"xurB":7319,"Ġtnemetrap":7320,"trec":7321,"ĠtnerÃ©ffid":7322,"Ġemsil":7323,"aterB":7324,"eunitnoc":7325,"ssab":7326,"Ġecneulfni":7327,"bmessa":7328,"xuevehc":7329,"ĠnoisnehÃ©rpmoc":7330,"ĠepuorG":7331,"eriotirret":7332,"ulg":7333,"Ġsetid":7334,"ĠidemaS":7335,"oid":7336,"arsI":7337,"rifni":7338,"Ġsetimil":7339,"seÃ©di":7340,"Ġarrev":7341,"ĠelbalaÃ©rp":7342,"ĠÃ©ppolevÃ©d":7343,"5002":7344,"oicos":7345,"ĠeriatnemÃ©lppus":7346,"Ġenimret":7347,"elaidnom":7348,"Ġruevres":7349,"rov":7350,"Ġseniazid":7351,"narra":7352,"0002":7353,"Ġtni":7354,"Ġegayotten":7355,"utitni":7356,"Ġrehcuot":7357,"erneg":7358,"ylo":7359,"Ġtat":7360,"ummoC":7361,"uqsroL":7362,"Ġnoiton":7363,"uqramer":7364,"inummoC":7365,"ĠemM":7366,"ĠÃ©rÃ©fÃ©rp":7367,"eissuR":7368,"icilbup":7369,"Ã©dni":7370,"ĠstnemitÃ¢b":7371,"boR":7372,"ĠnoÃ§rag":7373,"Ġtnemia":7374,"agivan":7375,"Ġeugolaid":7376,"Ġesnemmi":7377,"ĠtiudÃ©r":7378,"Ġtneiov":7379,"Ġnoitatserp":7380,"Ġruetcel":7381,"Ġresserda":7382,"Ġstahca":7383,"Ã©tim":7384,"serP":7385,"zagam":7386,"sbo":7387,"Ġeipoc":7388,"nimÃ©f":7389,"immi":7390,"ortsatac":7391,"ĠsicÃ©rp":7392,"ĠtnemÃ©mrofnoc":7393,"sÃ©tivitca":7394,"Ġrid":7395,"ĠtnemÃ©mronÃ©":7396,"az":7397,"niL":7398,"Ġcal":7399,"Ġenigami":7400,"Ġsessalc":7401,"ĠeÃ©ll":7402,"ĠsehcramÃ©d":7403,"Ġtiad":7404,"letÃ´h":7405,"Ġnoitisiuqca":7406,"Ġerttemsnart":7407,"Ġslennosrep":7408,"Ġerialuc":7409,"ORP":7410,"Ġrab":7411,"ĠseniatreC":7412,"ĠÃ©lliavart":7413,"ĠzelliueV":7414,"ĠnoniS":7415,"iusruop":7416,"ĠreulavÃ©":7417,"ĠÃ©tilibom":7418,"ĠetisÃ©h":7419,"ĠeÃ©ssap":7420,"Ġeuqil":7421,"etS":7422,"Ġelgna":7423,"Ġnoitisoppo":7424,"Ġriovuomorp":7425,"Ġrecnava":7426,"eunam":7427,"Ġtoluob":7428,"ĠredÃ©corp":7429,"noforppa":7430,"rocer":7431,"koobecaF":7432,"eilbuo":7433,"noitaicossa":7434,"sertÃ¨m":7435,"Ġzessiannoc":7436,"Ġtnessia":7437,"ĠÃ©utiS":7438,"looc":7439,"mob":7440,"eicifÃ©nÃ©b":7441,"egatrap":7442,"lpÃ©d":7443,"Ġtnemesuer":7444,"Ġretsop":7445,"ĠeÃ©sinagro":7446,"Ã©per":7447,"Ġstnangiesne":7448,"Ġreriter":7449,"Ġseur":7450,"ĠtnedivÃ©":7451,"urT":7452,"ĠednoM":7453,"evarg":7454,"ĠsnicedÃ©m":7455,"Ġnoitacov":7456,"irÃ©a":7457,"Ġellerutan":7458,"sevÃ¨lÃ©":7459,"regnam":7460,"Ġardnerp":7461,"euqirÃ©mun":7462,"reip":7463,"diorf":7464,"Ġuaetab":7465,"ÂĴ":7466,"Ġtnorved":7467,"iuoL":7468,"tnanet":7469,"ĠioL":7470,"Ġrecrexe":7471,"nucahc":7472,"ĠertÃ¨m":7473,"LE":7474,"ON":7475,"Ġnoissec":7476,"Ġrevitca":7477,"tsissa":7478,"elbiaf":7479,"revuort":7480,"Ġeuqilppa":7481,"uoL":7482,"ĠÃ©ngis":7483,"ĠseimonocÃ©":7484,"riovuop":7485,"lucs":7486,"nettA":7487,"noiss":7488,"necÃ©d":7489,"stnatibah":7490,"Ġseugnal":7491,"Ġetsip":7492,"nerP":7493,"Ġtiannoc":7494,"ĠÃ©tinutroppo":7495,"ĠseÃ©silitu":7496,"ĠelaÃ©di":7497,"MA":7498,"uelp":7499,"ĠrihcÃ©lfÃ©r":7500,"sfita":7501,"nÃ©p":7502,"Ġeuqidiruj":7503,"esuer":7504,"peS":7505,"...,":7506,"Ġtnoref":7507,"Â».":7508,"Ġertipahc":7509,"Ġsruerre":7510,"Ġtnemelleitnesse":7511,"etsil":7512,"Ġsiavuop":7513,"ava":7514,"Ġellieiv":7515,"ĠetÃ»oc":7516,"Ġemmarg":7517,"Ġnoitart":7518,"calpmer":7519,"Ġsrum":7520,"Ã©hT":7521,"icco":7522,"Ġsat":7523,"ĠtÃ®arappa":7524,"Ġsiat":7525,"isne":7526,"effE":7527,"noitasil":7528,"tom":7529,"Ġerutlucirga":7530,"Ġemem":7531,"Ġretsissa":7532,"ĠnoitarÃ©pooc":7533,"lanoitan":7534,"Ġeiriam":7535,"ĠsuoS":7536,"Ġstgiod":7537,"Ġrueluod":7538,"iavuam":7539,"Ġecnerrucnoc":7540,"Ġerianno":7541,"liu":7542,"Ġsedom":7543,"ennoitarÃ©po":7544,"ĠeuqitÃ©grenÃ©":7545,"Ġeuqsid":7546,"Ġerag":7547,"Ġremirppus":7548,"natirb":7549,"repyh":7550,"ĠsÃ¨rgorp":7551,"cahC":7552,"ĠÃ©tilagÃ©":7553,"Ġzep":7554,"ĠresopÃ©d":7555,"Ġenis":7556,"elat":7557,"Ġstellib":7558,"ĠERT":7559,"xuamina":7560,"IA":7561,"Ġtnemesruobmer":7562,"Ġussit":7563,"Ġnoitamrofsnart":7564,"ellub":7565,"tnemiarv":7566,"iudart":7567,"reirvÃ©f":7568,"senia":7569,"Ġnoitisopmoc":7570,"Ġserussuahc":7571,"Ġesio":7572,"Ġerutirruon":7573,"ĠseÃ©soporp":7574,"ĠeuqirÃ©mA":7575,"ĠrecalpÃ©d":7576,"Ġenretni":7577,"sib":7578,"nella":7579,"tnevni":7580,"tsisÃ©r":7581,"duahc":7582,"UE":7583,"gnil":7584,"tÃ©b":7585,"Ġsnoitagilbo":7586,"50":7587,"Ġarel":7588,"ssam":7589,"Ġserbra":7590,"ĠnucuA":7591,"Ġsengis":7592,"Ġtnemelbat":7593,"erag":7594,"ĠtnetnesÃ©rper":7595,"ĠneB":7596,"Ġnoitatpada":7597,"Ġxob":7598,"lol":7599,"xuavart":7600,"ĠeriotsiH":7601,"Ġ60":7602,"Ġseitros":7603,"selli":7604,"ehcnamid":7605,"Ã§Ã©d":7606,"yb":7607,"RC":7608,"ssE":7609,"liatÃ©d":7610,"nolla":7611,"nosirp":7612,"erutc":7613,"ĠnoitarapÃ©r":7614,"Ġerutcetihcra":7615,"Ġessahc":7616,"hA":7617,"ĠetsuJ":7618,"Ġsnoitutitsni":7619,"Ġtiaret":7620,"Ã¢m":7621,"rihs":7622,"ĠIC":7623,"iarf":7624,"xat":7625,"ruj":7626,"Ġsimorp":7627,"utcA":7628,"ĠÃ©vuorter":7629,"tnemelagÃ©":7630,"engieS":7631,"ĠerÃ¨tsiniM":7632,"noj":7633,"ĠerdnefÃ©d":7634,"Ġnoitirappa":7635,"Ġresimitpo":7636,"Ġresilib":7637,"70":7638,"dnoL":7639,"SC":7640,"emaf":7641,"40":7642,"lliuc":7643,"log":7644,"dnammocer":7645,"ĠseliotÃ©":7646,"Ġiaret":7647,"Ġ7002":7648,"cidni":7649,"Ġrinevretni":7650,"ĠevuerpÃ©":7651,"Ġsednoces":7652,"Ġlennoit":7653,"iuppa":7654,"Ġzesilitu":7655,"Ã©dÃ©F":7656,"ĠelleÃ©r":7657,"Ġeriatilim":7658,"Ġneitniam":7659,"Ġressuop":7660,"ĠsetsilaicÃ©ps":7661,"ĠnoitcadÃ©r":7662,"Ġerutadidnac":7663,"Ġtnemessit":7664,"cifingis":7665,"ĠÃ©sir":7666,"oproc":7667,"seÃ©g":7668,"lm":7669,"enummoc":7670,"Ġnoitnevnoc":7671,"ĠlehciM":7672,"Ġreuqidni":7673,"ehcÃªp":7674,"Ã¨llarap":7675,"Ġleunam":7676,"cnis":7677,"srueta":7678,"Ġ006":7679,"ffO":7680,"Ġleunna":7681,"Ġniamednel":7682,"Ġiks":7683,"Ġediv":7684,"icilÃ©f":7685,"Ã©tin":7686,"Ġj":7687,"Ġxuaf":7688,"ĠetÃ¨nalp":7689,"Ġednaiv":7690,"xim":7691,"beW":7692,"Ġsussi":7693,"ĠtroporÃ©a":7694,"moR":7695,"ucol":7696,"Ġtseuo":7697,"udnetne":7698,"ĠNU":7699,"44":7700,"snoitidnoc":7701,"mah":7702,"rutrep":7703,"Ġtnanetnoc":7704,"otom":7705,"edroB":7706,"alC":7707,"yor":7708,"nesnoc":7709,"Ġluclac":7710,"Ġzenno":7711,"xuacol":7712,"ĠnoitcaÃ©r":7713,"Ġerialupop":7714,"ĠÃ©uqram":7715,"Ġtehc":7716,"sais":7717,"Ġxulf":7718,"Ġeriafsitas":7719,"ette":7720,"Ġzehcrehc":7721,"ecremmoc":7722,"baid":7723,"semorp":7724,"Ã©ss":7725,"Ġsnoitacifidom":7726,"uohtne":7727,"evirra":7728,"niamuh":7729,"tnasserÃ©tni":7730,"Ġuof":7731,"ĠÃ©tuoja":7732,"Ġreicnanif":7733,"ĠÃ©vresÃ©r":7734,"UT":7735,"Ġreicremer":7736,"GA":7737,"ĠeunevneiB":7738,"Ġ0001":7739,"Ã´lc":7740,"pecÃ©r":7741,"ĠÃ©sil":7742,"Ġsfehc":7743,"nnoissap":7744,"Ġetropmoc":7745,"ĠÃ©lla":7746,"nohp":7747,"egalp":7748,"Ġah":7749,"Ġzec":7750,"Ġehcuoc":7751,"taba":7752,"ĠerÃ¨d":7753,"ĠsÃ©silaÃ©r":7754,"Ġecneitap":7755,"isnia":7756,"sellec":7757,"ĠnoitulosÃ©r":7758,"Ġesuap":7759,"ĠnoitavonÃ©r":7760,"ĠtÃ®alp":7761,"ĠÃ©uqinummoc":7762,"gaM":7763,"Ġlanigiro":7764,"Ġessenuej":7765,"iur":7766,"Ġxuac":7767,"Ġrecnonna":7768,"enneÃ©porue":7769,"nevÃ©rp":7770,"55":7771,"Ġdrasah":7772,"tnac":7773,"Ġsecutsa":7774,"stniop":7775,"Ġnoitatneiro":7776,"saC":7777,"eÃ©p":7778,"Ġseuqnab":7779,"imac":7780,"ĠRUOP":7781,"Ġesrev":7782,"Ġegart":7783,"egasiv":7784,"ihtÃ©":7785,"euqitam":7786,"lanoitanretni":7787,"ĠeluorÃ©d":7788,"Ġertuo":7789,"seuqinhcet":7790,"ĠtiovÃ©rp":7791,"Ġsreicnanif":7792,"Ġtiavas":7793,"odniW":7794,"Ġsneivuos":7795,"adlos":7796,"OV":7797,"nemaxe":7798,"ĠovarB":7799,"ĠelÃ¨tneilc":7800,"Ġfitcelloc":7801,"zevA":7802,"ĠÃ©tilatot":7803,"Ġtiasid":7804,"ĠenihC":7805,"ĠsÃ©tin":7806,"ĠsÃ©tÃ©irporp":7807,"ĠreicÃ©rppa":7808,"ĠenicedÃ©m":7809,"Ġselbapac":7810,"Ġrevuas":7811,"ĠnoÃ§":7812,"rÃ©nÃ©g":7813,"Ġetruoc":7814,"buod":7815,"illieiv":7816,"uayoR":7817,"Ġeuqnoc":7818,"Ġremia":7819,"ĠlavitseF":7820,"urtsed":7821,"ĠÃ©ticilbup":7822,"erdneV":7823,"ibra":7824,")âĢ¦":7825,"Ġtnall":7826,"tnahc":7827,"Ġegatnom":7828,"raf":7829,"Ġreubirtnoc":7830,"iuoj":7831,"uqa":7832,"#&":7833,"tS":7834,"Ġnoinu":7835,"Ġrinevrap":7836,"tE":7837,"Ġerbra":7838,"Ġetiob":7839,"Ġelbal":7840,"lerutan":7841,"ĠepuoC":7842,"ĠÃ©tnet":7843,"lumis":7844,"Ġ052":7845,"Ġstrops":7846,"Ġtnemisauq":7847,"Ġsruetcel":7848,"Ġsnosiaf":7849,"Ġnoitcafsitas":7850,"Ġelivic":7851,"Ġdnerppa":7852,"Ġsemmop":7853,"amA":7854,"Ã©tis":7855,"Ġelacol":7856,"Ġerutangis":7857,"Ġremrofsnart":7858,"Ġgk":7859,"Ġsedia":7860,"ĠÃ©uqilpxe":7861,"dacne":7862,"Ġetid":7863,"tÃ´tneib":7864,"ĠuaetÃ¢hc":7865,"ĠÃ©tisrevinu":7866,"Ġretcennoc":7867,"aa":7868,"Ã©til":7869,"selbinopsid":7870,"Ġtiucric":7871,"egasu":7872,"Ġstnemetiart":7873,"tiafrap":7874,"Ġelbatrofnoc":7875,"elitu":7876,"zeir":7877,"rueluoc":7878,"ĠerÃ»s":7879,"Ġterc":7880,"nops":7881,"Ġehcac":7882,"ĠfuaS":7883,"Ġerialas":7884,"Ġrednammoc":7885,"ohtro":7886,"Ġetsila":7887,"ĠeÃ©il":7888,"Ġsnaf":7889,"ĠsÃ©ng":7890,"saisuohtne":7891,"Ġrehcuoc":7892,"sub":7893,"Ġcitsongaid":7894,"Ġtnassial":7895,"caj":7896,"ĠlaicÃ©ps":7897,"sellif":7898,"reir":7899,"cavÃ©":7900,"semÃªm":7901,"tiares":7902,"stnemen":7903,"ruetanidro":7904,"30":7905,"egaruoc":7906,"Ġtnemerar":7907,"ĠserudÃ©corp":7908,"gnik":7909,"ffioc":7910,"ffuahcÃ©r":7911,"etÃ´h":7912,"Ġsiuqca":7913,"erF":7914,"ĠertÃ®annocer":7915,"ĠtnaruD":7916,"Ġedats":7917,"Ġruetal":7918,"ngag":7919,"ogir":7920,"lua":7921,"rats":7922,"ivar":7923,"Ġtneutitsnoc":7924,"ĠÃ©nem":7925,"ĠsÃ©tilannoitcnof":7926,"arapua":7927,"Ġiof":7928,"rues":7929,"Ġlanubirt":7930,"tenul":7931,"Ġerdnioj":7932,"ĠuÃ§repa":7933,"Ġretic":7934,"swen":7935,"4002":7936,"Ġreb":7937,"Ġruf":7938,"Ġuaevrec":7939,"Ġtnemeriartnoc":7940,"ĠerreT":7941,"tnas":7942,"ĠseuvÃ©rp":7943,"illieucer":7944,"ilbat":7945,"Ġenmotua":7946,"euqifingam":7947,"23":7948,"ĠtÃ´pÃ©d":7949,"Ġrit":7950,"yk":7951,"erialocs":7952,"tnemelues":7953,"Ã©va":7954,"neter":7955,"bic":7956,"Ã©nit":7957,"itnorf":7958,"xa":7959,"Ġtneru":7960,"ĠtnarÃ©pse":7961,"Ġepuos":7962,"Ġzessial":7963,"ĠtnemÃ©sicÃ©rp":7964,"rofni":7965,"Ġxuaecrom":7966,"statlusÃ©r":7967,"imilÃ©":7968,"noitaÃ©rc":7969,"Ġetpecca":7970,"ĠÃ©silaicÃ©ps":7971,"dnetÃ©":7972,"âĢĵ":7973,"euqirtcelÃ©":7974,"Ġexif":7975,"Ġeff":7976,"saM":7977,"ĠlatipÃ´h":7978,"hS":7979,"ffA":7980,"ĠecnegA":7981,"ĠÃ©mmon":7982,"Ġsnoitatsefinam":7983,"ĠrelÃ´rtnoc":7984,"Ã¨lf":7985,"ongi":7986,"Ġsirper":7987,"ĠsÃ¨cÃ©d":7988,"Ġnoisnemid":7989,"tnemehc":7990,"pmI":7991,"Ġtnetnoc":7992,"ĠtnedÃ©cÃ©rp":7993,"lamron":7994,"Ļ¥":7995,"servil":7996,"Ġzemia":7997,"Ġselacol":7998,"Ġ55":7999,"nevni":8000,"Ġ56":8001,"Ġegagnal":8002,"tauq":8003,"ĠriovÃ©rp":8004,"Ġreritta":8005,"ĠUA":8006,"Ġeilbuo":8007,"seÃ©l":8008,"nameD":8009,"dim":8010,"Ġiasse":8011,"ĠÃ©tiradilos":8012,"eÃ©rtne":8013,"alociN":8014,"Ġ43":8015,"ĠecnetÃ©pmoc":8016,"Ġeriatuanummoc":8017,"noitcurtsnoc":8018,"Ġsnisagam":8019,"paC":8020,"Ġtnesilitu":8021,"Ġeta":8022,"Ġeut":8023,"Ġpm":8024,"Ġrerap":8025,"Ġcifart":8026,"slif":8027,"ĠsiorT":8028,"ĠletÃ´H":8029,"Ġrevresbo":8030,"tias":8031,"Ġtiurf":8032,"uon":8033,"ervius":8034,"tneuqÃ©rf":8035,"icifÃ©d":8036,"itsel":8037,"ĠsnoitaÃ©rc":8038,"eirÃ©s":8039,"Ġnoitasnes":8040,"olÃ©v":8041,"Ġsegayov":8042,"Ġretpoda":8043,"Ġtiauq":8044,"Ġcem":8045,"necsa":8046,"idÃ©moc":8047,"Ġtrepxe":8048,"tabÃ©d":8049,"ĠetÃ´c":8050,"sal":8051,"ĠÃ©rcasnoc":8052,"tnom":8053,"Ġtnanerpmoc":8054,"20":8055,"trofnoc":8056,"ĠÃ©dnammocer":8057,"Ġsnotivni":8058,"vuoc":8059,"erdnerpmoc":8060,"nerrucnoc":8061,"ĠtnanrecnoC":8062,"Ġetteuo":8063,"Ġsnom":8064,"saB":8065,"Ġior":8066,"rongi":8067,"ĠnoitarobalÃ©":8068,"Ġserar":8069,"Ġeriafer":8070,"Ġellennosrep":8071,"aluos":8072,"Ġnoitatsefinam":8073,"ĠseugÃ¨lloc":8074,"ĠÃ©gilbo":8075,"Ġsruetom":8076,"narret":8077,"ĠxuA":8078,"ihcysp":8079,"igufÃ©r":8080,"Ġecnegilletni":8081,"Ġak":8082,"necsed":8083,"Ġerutemref":8084,"ucavÃ©":8085,"panac":8086,"csum":8087,"ĠÃ©tiroirp":8088,"yp":8089,"Ġetcelloc":8090,"Ġnoitasilib":8091,"ralÃ©":8092,"Ġsniahcorp":8093,"Ġreluc":8094,"Ġsrag":8095,"Ġullaf":8096,"Ġelar":8097,"Ġtnadnopserroc":8098,"Ġseuqihparg":8099,"ĠÃłL":8100,"Ġ.âĢ¦":8101,"ĠselarÃ©nÃ©g":8102,"Ġtiaref":8103,"udrep":8104,"reitÃ©m":8105,"sarb":8106,"Ġtnayov":8107,"ĠnoititÃ©pmoc":8108,"laB":8109,"Ġtnemertsigerne":8110,"ĠeÃ©sopmoc":8111,"reH":8112,"ĠiouQ":8113,"idnahcram":8114,"Ġtinif":8115,"ĠseÃ©tpada":8116,"Ġeriar":8117,"inredom":8118,"ĠsnoissimÃ©":8119,"ĠemÃ´":8120,"ĠredicÃ©d":8121,"Ġtnasoporp":8122,"Ġesnad":8123,"pmeT":8124,"Ġnoitavitom":8125,"emsi":8126,"icitna":8127,"telpmoc":8128,"iver":8129,"Ġpu":8130,"ĠeÃ©piuqÃ©":8131,"irT":8132,"Ġsnoitamina":8133,"tatE":8134,"Ġecnafne":8135,"Ġlerutluc":8136,"yoV":8137,"SS":8138,"Ã§repa":8139,"ĠNI":8140,"onotua":8141,"enil":8142,"Ġeigolo":8143,"emra":8144,"Ġik":8145,"nuL":8146,"ĠrevresÃ©rp":8147,"ĠecÃ¨pse":8148,"tnatruop":8149,"elac":8150,"ĠÃ©tnaS":8151,"nama":8152,"eriaffa":8153,"Ġkro":8154,"Ã©op":8155,"ĠoÃ©tÃ©m":8156,"Ã©dI":8157,"necer":8158,"hoJ":8159,"th":8160,"Ġeirettab":8161,"tneia":8162,"Ġecneics":8163,"sruocnoc":8164,"ĠehcÃ¢t":8165,"arim":8166,"etisiv":8167,"eniamuh":8168,"anam":8169,"erÃ¨imul":8170,"tnanetniaM":8171,"ĠluaP":8172,"âĢĿ.":8173,"engapmac":8174,"sliesnoc":8175,"Ġsnottem":8176,"ÃłlioV":8177,"retcatnoc":8178,"Ġecnanetniam":8179,"ĠsnoitomÃ©":8180,"sreil":8181,"Ġerutcaf":8182,"Ġegasyap":8183,"noitisopsid":8184,"Ġengatnom":8185,"Ġsrutuf":8186,"Ġrek":8187,"enicsip":8188,"euqnam":8189,"Ġelbalav":8190,"Ġnoillim":8191,"Ġnoinipo":8192,"Ġecnecil":8193,"nimÃ©s":8194,"Ġrirvuoc":8195,"euqitamrofni":8196,"ejer":8197,"Ġ008":8198,"ĠesilaÃ©r":8199,"ecÃ¨ip":8200,"liV":8201,"srue":8202,"ula":8203,"Ġtemmos":8204,"ĠÃ©ngag":8205,"Ġnoitidart":8206,"Ġnoissimsnart":8207,"tnemessilbatÃ©":8208,"itcudorp":8209,"ihcirne":8210,"ĠsifÃ©d":8211,"Ġnoitisnart":8212,"59":8213,"rosba":8214,"rÃ©pmi":8215,"noitasinagro":8216,"Ġeriacnab":8217,"drob":8218,"ĠneibmoC":8219,"Ġelbis":8220,"ecapse":8221,"iloP":8222,"ĠrO":8223,"Ġtnorttemrep":8224,"sedutÃ©":8225,"Ã¢gÃ©d":8226,"irtni":8227,"stnerÃ©ffid":8228,"Ġeso":8229,"plucs":8230,"stned":8231,"ĠtnemenÃ¨vÃ©":8232,"Ġsiarved":8233,"Ġtacifitrec":8234,"Ġruetar":8235,"arÃ©disnoc":8236,"Ġsetniartnoc":8237,"Ġnoitpircsed":8238,"sroh":8239,"euqissalc":8240,"Ġlavehc":8241,"enÃ¨cs":8242,"Ġegakcots":8243,"etrac":8244,"Ġirba":8245,"ĠenucuA":8246,"atÃ©d":8247,"lucaf":8248,"Ġellennoit":8249,"ucÃ©S":8250,"Ã©niti":8251,"Ġretnocar":8252,"nahC":8253,"Ġeiovne":8254,"Ġrehciffa":8255,"rolpxe":8256,"retxe":8257,"ĠerÃ¨disnoc":8258,"ĠdragÃ©":8259,"revuoG":8260,"icI":8261,"ĠÌĢ":8262,"Ã¢hC":8263,"sdnarg":8264,"tnen":8265,"Ġtnemetcerroc":8266,"Ġeuqitsalp":8267,"iortÃ©":8268,"ĠrisÃ©d":8269,"VA":8270,"Ġardneit":8271,"edutÃ©":8272,"FC":8273,"Ġtacova":8274,"ĠemÃ¨irta":8275,"Ġnoitubirtnoc":8276,"Ġnossiuc":8277,"Ġruedo":8278,"rim":8279,"Ġreilbup":8280,"Ġtnertnom":8281,"Ġelabolg":8282,"ĠserÃ¨rf":8283,"Ġimed":8284,"Ġsnoitnevretni":8285,"ehcuob":8286,"ĠÃ©russa":8287,"Ġsehcir":8288,"inÃ©":8289,"Ġihc":8290,"roppar":8291,"Ġsruetaroballoc":8292,"seuqitilop":8293,"reif":8294,"lierappa":8295,"rueug":8296,"ĠÃ©uqilpmoc":8297,"Ġette":8298,"Ġsegammod":8299,"Ġtnemevisulcxe":8300,"ĠeÃ©Ã©rc":8301,"Ġtadnam":8302,"euqihparg":8303,"gÃ©lÃ©":8304,"ĠbulC":8305,"tnar":8306,"Ġsruem":8307,"Ġ83":8308,"pab":8309,"Ġemsila":8310,"Ġoib":8311,"Ġrueyolpme":8312,"ueJ":8313,"Ġecafretni":8314,"ĠsertÃ¨marap":8315,"Ġenizagam":8316,"ycer":8317,"reipap":8318,"Ġloocla":8319,"tnemelrap":8320,"imrifni":8321,"ĠtnemelleutnevÃ©":8322,"ruT":8323,"ĠÃ©nimret":8324,"Ġstnaruatser":8325,"Ġreuqitarp":8326,"RF":8327,"ĠertteM":8328,"ĠsorÃ©h":8329,"Ġsegasyap":8330,"Ġstnemessitsevni":8331,"ohtac":8332,"ĠessiuS":8333,"sserts":8334,"Ã©daca":8335,"Ġseikooc":8336,"Ġenneit":8337,"87":8338,"Ġeuqip":8339,"iurb":8340,"iton":8341,"ĠAVT":8342,"ĠnolaS":8343,"Ġxuemaf":8344,"ĠrepuS":8345,"Ġsetsi":8346,"Ġrisias":8347,"ĠueP":8348,"sniomna":8349,"suja":8350,"ĠnoisicÃ©rp":8351,"ĠÃ©tilibinopsid":8352,"Ġâĸ":8353,"Ġnoisuf":8354,"Ã©la":8355,"oni":8356,"tÃ»og":8357,"Ġesopmi":8358,"ressap":8359,"Ġtiarid":8360,"\"!":8361,"Ġtiorc":8362,"resni":8363,"sulP":8364,"seriatnemmoc":8365,"Ġetted":8366,"itnelar":8367,"Ã©cyl":8368,"oK":8369,"Ġsnoitalupop":8370,"ĠretuojA":8371,"ervuap":8372,"ĠseuqitamÃ©ht":8373,"ĠtnaidutÃ©":8374,"Ġnoitan":8375,"ĠsedoirÃ©p":8376,"Ġtnevirra":8377,"ĠerÃ¨itne":8378,"ellevuon":8379,"Ġessuop":8380,"Ġtnemellerutan":8381,"setiaf":8382,"Ġnoititrap":8383,"eiraM":8384,"Ġsecirt":8385,"sdeip":8386,"Ġivres":8387,"icifitra":8388,"Ġnoisnetxe":8389,"racni":8390,"ĠEN":8391,"Ġnosirp":8392,"Ġredael":8393,"idnorra":8394,"sorp":8395,"Ġeuqalp":8396,"illet":8397,"Ġsnoitid":8398,"Ã©a":8399,"ipÃ©d":8400,"Ġnoitcet":8401,"srevda":8402,"ĠCP":8403,"Ġsegal":8404,"ĠÃ©tivni":8405,"Ġseriatnemila":8406,"Ġtiam":8407,"eÃ©uq":8408,"Ġesoper":8409,"Ġecnelis":8410,"tsbus":8411,"Ġnoitammargorp":8412,"Ġ40":8413,"ĠeÃ©tnom":8414,"avuas":8415,"ĠreidutÃ©":8416,"oF":8417,"napÃ©":8418,"Ġseiov":8419,"Ġros":8420,"Ã¢b":8421,"Ġslerutan":8422,"Ġselullec":8423,"Ġofni":8424,"ivaD":8425,"Ġeuqitsitra":8426,"Ġeliot":8427,"uaesÃ©r":8428,"tnetta":8429,"Ġfitisop":8430,"iuleC":8431,"Ãªop":8432,"Ġruomuh":8433,"serret":8434,"dneg":8435,"ij":8436,"Ġsiarid":8437,"LI":8438,"ĠeiraM":8439,"onom":8440,"Ã¹":8441,"illiaf":8442,"Ġeduahc":8443,"ĠeuqÃ¨htoilbib":8444,"orppar":8445,"ĠcraP":8446,"euqsir":8447,"yoM":8448,"sliatÃ©d":8449,"rauq":8450,"itcepser":8451,"ĠÃ©piuqÃ©":8452,"iuC":8453,"netuos":8454,"ĠseigrenÃ©":8455,"inÃ©v":8456,"Ġetiart":8457,"Ġsegarvuo":8458,"ĠÃ©mrof":8459,"rell":8460,"Ã§rep":8461,"Ġaretser":8462,"naJ":8463,"tiordne":8464,"Ġserts":8465,"Ġnol":8466,"Ġseuqitsitats":8467,"Ġetteuq":8468,"eriatnemmoc":8469,"ssac":8470,"ĠegarialcÃ©":8471,"Ġsiassiannoc":8472,"Ġenit":8473,"ĠnoitatnesÃ©rper":8474,"egam":8475,"umits":8476,"âĢĭ":8477,"nimilÃ©":8478,"ĠÃ©dÃ©corp":8479,"ĠtnemÃ©d":8480,"Ġtnesnep":8481,"Ġenirt":8482,"ĠeinomÃ©rÃ©c":8483,"ruotnela":8484,"teN":8485,"ĠerÃ¨hpsomta":8486,"idimuh":8487,"Ġetset":8488,"ĠtnemecalpÃ©d":8489,"Ġreut":8490,"udividni":8491,"laÃ©rtnoM":8492,"Ã©glA":8493,"refne":8494,"Ġiaref":8495,"Ġsleppa":8496,"Ġruejam":8497,"dnoF":8498,"ĠÃ©sila":8499,"ĠlanoitaN":8500,"ĠÃ©xif":8501,"isrep":8502,"Ġemriffa":8503,"ĠÃ©bmot":8504,"Ġessehcir":8505,"ĠelleB":8506,"Ġrig":8507,"Ġyb":8508,"MS":8509,"Ġsios":8510,"Ġtnelliavart":8511,"ĠĠĠĠ":8512,"Ġtnemeturcer":8513,"ĠlacidÃ©m":8514,"Ġruecuod":8515,"ĠeicifÃ©nÃ©b":8516,"Ġecanem":8517,"ĠerapÃ©rp":8518,"seforP":8519,"ĠeicÃ©rppa":8520,"Ġsesruoc":8521,"......":8522,"ĠemÃ´lpid":8523,"Ġop":8524,"Ġtanno":8525,"Ġserialocs":8526,"erG":8527,"nerg":8528,"snoitca":8529,"Ġsnam":8530,"ĠeiparÃ©ht":8531,"Ġeigam":8532,"reuoj":8533,"Ġtgniv":8534,"Ġrimrod":8535,"ĠeriatÃ©rces":8536,"Ġelaicremmoc":8537,"Ġemrifnoc":8538,"ĠW":8539,"Ġtnop":8540,"Ġegammoh":8541,"tuo":8542,"Ġesoppus":8543,"Ġey":8544,"iral":8545,"Ġxuaerub":8546,"ÃĪ":8547,"ĠLI":8548,"Ġtilfnoc":8549,"Ã¨maid":8550,"Ġretov":8551,"yC":8552,"etsop":8553,"ronoh":8554,"Ġaruas":8555,"tiatÃ©":8556,"ĠÃ©timil":8557,"ĠsemÃ´tpmys":8558,"Ġerialc":8559,"hT":8560,"enredom":8561,"56":8562,"ĠtioÃ§er":8563,"ĠuV":8564,"jÃ©D":8565,"ĠÂ·":8566,"ĠEU":8567,"sÃ¨cca":8568,"ordyh":8569,"Ã©hcs":8570,"nuf":8571,"ĠtnemÃ©lpmoc":8572,"Ġsesiavuam":8573,"ĠÃ©tpecca":8574,"renuejÃ©d":8575,"elues":8576,"ĠseÃ©silaÃ©r":8577,"Ġriuc":8578,"ĠsregnartÃ©":8579,"elliV":8580,"Ġiuppa":8581,"Ġenohp":8582,"ĠiderdneV":8583,"Ġresopsid":8584,"IG":8585,"irÃ©ts":8586,"ÃªrrA":8587,"Ã¨rcnoc":8588,"ervuÅĵ":8589,"elbinopsid":8590,"ĠicI":8591,"pircsed":8592,"ecnarussa":8593,"Ġsnoitacilpxe":8594,"uoP":8595,"xueic":8596,"Ġarennod":8597,"Ġsetrof":8598,"94":8599,"Ġetned":8600,"Ġtnemennoba":8601,"apuccoÃ©rp":8602,"Ġselbitpecsus":8603,"ĠevÃ¨ler":8604,"iorfer":8605,"ĠnoitulovÃ©r":8606,"repuS":8607,"ĠeÃ©suM":8608,"Ġexul":8609,"Ġsudividni":8610,"isias":8611,"iulf":8612,"atserp":8613,"nnodro":8614,"Ã©P":8615,"ĠeÃ©sab":8616,"Ġrevelne":8617,"neyom":8618,"Ġeriap":8619,"Ġsnovas":8620,"tuafÃ©d":8621,"norivne":8622,"pmE":8623,"Ġemirp":8624,"ĠÃ©sab":8625,"rinevuos":8626,"Ġlun":8627,"ĠÃ©iralas":8628,"ĠsnoÃ§af":8629,"Ã©z":8630,"ĠserutarÃ©pmet":8631,"leH":8632,"polevne":8633,"Ġtnenneived":8634,"Ġuaed":8635,"cetÃ©d":8636,"icifrepus":8637,"Ã©girf":8638,"ĠÃ©tcennoc":8639,"uocca":8640,"ĠtrA":8641,"Ġemad":8642,"ĠÃ©uqramer":8643,"ĠruoT":8644,"ĠerreuG":8645,"Ġseiloj":8646,"Ġemot":8647,"nong":8648,"ĠeM":8649,"ĠehcnamiD":8650,"atc":8651,"ĠzetiforP":8652,"Ġelbuemmi":8653,"isnart":8654,"Ġeubirt":8655,"artsinimda":8656,"sesia":8657,"Ġsesserda":8658,"Ġtc":8659,"rivnE":8660,"ĠelaicÃ©ps":8661,"Ġsnoisnemid":8662,"snoss":8663,"ĠtnetnesÃ©rp":8664,"Ġelanigiro":8665,"Ġetnietta":8666,"egass":8667,"nopaJ":8668,"ivorp":8669,"ĠnoitarÃ©dÃ©F":8670,"Ġpmac":8671,"elibom":8672,"ĠstnemenÃ¨vÃ©":8673,"Ġtiartxe":8674,"CP":8675,"Ġferb":8676,"Ġ24":8677,"dilos":8678,"acidni":8679,"Ġsruetcudorp":8680,"ĠeÃ©nruoJ":8681,"eK":8682,"trev":8683,"ĠelÃ¨vÃ©r":8684,"eÃ©virra":8685,"Ġ021":8686,"Ġenuaj":8687,"xaler":8688,"ĠemÃ¨irtauq":8689,"Ġsegalp":8690,"ĠegamÃ´hc":8691,"Ġsesuac":8692,"ĠtuotruS":8693,"Ġehcnalb":8694,"irÃ©V":8695,"Ġrengiesner":8696,"Ġtnasil":8697,"ĠÃī":8698,"Ġsret":8699,"Ġif":8700,"Ġsnoitpircsni":8701,"ĠtnatnesÃ©rp":8702,"utcnop":8703,"Ġstiun":8704,"Ġerduop":8705,"Ġerirc":8706,"stiaf":8707,"AD":8708,"iderdnev":8709,"\"?":8710,"Ġudnetta":8711,"oiruc":8712,"Ġetsirt":8713,"Ġelailimaf":8714,"evÃªr":8715,"issed":8716,"ĠeÃ©gnol":8717,"cna":8718,"Ã¯or":8719,"noitnettA":8720,"seda":8721,"setnerÃ©ffid":8722,"pot":8723,"seuqigol":8724,"uesp":8725,"pohs":8726,"stitep":8727,"etA":8728,"Ġoidar":8729,"Ġsecnega":8730,"uF":8731,"Ġeuqilpmi":8732,"ĠrenÃ®artne":8733,"Ġetnemgua":8734,"Ġliemmos":8735,"nalP":8736,"seriot":8737,"ecnassiannoc":8738,"Ġrecnanif":8739,"evuorT":8740,"Ġstroppus":8741,"ipot":8742,"noner":8743,"eif":8744,"Ġstnemel":8745,"ĠÃ©tiart":8746,"uE":8747,"Ġsreitrauq":8748,"yM":8749,"Ġkool":8750,"Ġeuqramer":8751,"ĠtiaÃ§":8752,"NS":8753,"Ġtue":8754,"ĠeÃ©nem":8755,"itluc":8756,"rinif":8757,"siaÃ§narF":8758,"Ġnoitatibah":8759,"emit":8760,"tnaf":8761,"Ġsetrec":8762,"ecitsuj":8763,"neD":8764,"tnemegol":8765,"Ã©tal":8766,"Ã©V":8767,"Ġeunevneib":8768,"Ġsecnadnet":8769,"Ġsfitisopsid":8770,"Ġnoissergorp":8771,"Ġrengis":8772,"Ġertsemirt":8773,"Ġsuriv":8774,"ĠsesiaÃ§narf":8775,"Ġll":8776,"noisserp":8777,"ĠsnoinuÃ©r":8778,"ĠetÃ´C":8779,"Ġsnotiahuos":8780,"Ġuaetalp":8781,"Ġselorap":8782,"UOT":8783,"nik":8784,"arbme":8785,"elleutca":8786,"Ġzeiss":8787,"itcA":8788,"Ġ20":8789,"Ġnohc":8790,"ĠÃ©sserÃ©tni":8791,"Ġnoisserppus":8792,"95":8793,"ĠÃ©tpoda":8794,"Ġgnipmac":8795,"ĠetnetÃ©d":8796,"nellahc":8797,"Ġsellennoisseforp":8798,"iks":8799,"Ġeniatna":8800,"Ġsetuanretni":8801,"selcitra":8802,"irojam":8803,"elloC":8804,"ĠnucahC":8805,"Ġeuqitamotua":8806,"dd":8807,"Ġseuqisyhp":8808,"ĠzervuocÃ©d":8809,"dimrof":8810,"ĠselovÃ©nÃ©b":8811,"eniat":8812,"emÃ¨tsys":8813,"ipsa":8814,"namor":8815,"Ġ)%":8816,"Ġrerapmoc":8817,"Ġetic":8818,"Ġtnemeviv":8819,"elanoitanretni":8820,"serianetrap":8821,"Ġsedutibah":8822,"nolb":8823,"imuh":8824,"ĠressapÃ©d":8825,"ĠsyaP":8826,"arsi":8827,"nesba":8828,"Ġseliciffid":8829,"Ġseliuh":8830,"tap":8831,"eyasse":8832,"Ġesod":8833,"ĠnoitceriD":8834,"semÃ¨lborp":8835,"resÃ©R":8836,"Ġredroba":8837,"uqnic":8838,"Ġreitnahc":8839,"essop":8840,"idrom":8841,"ynona":8842,"noz":8843,"Ġsnoisrev":8844,"Ġoiduts":8845,"ĠeiroÃ©ht":8846,"ĠsÃ©nitsed":8847,"ĠÃ©tÃ©irav":8848,"drager":8849,"ĠeuqnaB":8850,"ific":8851,"Ġsnoitam":8852,"drater":8853,"uabme":8854,"elpuoc":8855,"Ġemsir":8856,"ĠseirÃ©s":8857,"ĠeugiL":8858,"ĠnoitatnemelgÃ©r":8859,"sesu":8860,"ĠseÃ©snep":8861,"Ã©sni":8862,"Ġsetros":8863,"lupinam":8864,"eriruos":8865,"Ġsetnas":8866,"sruess":8867,"ucolretni":8868,"leic":8869,"Ġellietuob":8870,"Ġxuaennap":8871,"issuop":8872,"Ġresylana":8873,"Ã©cÃ©d":8874,"Ġertsi":8875,"Ġemrofnoc":8876,"ĠecaF":8877,"euqin":8878,"ĠÃ©roda":8879,"roH":8880,"ortÃ©r":8881,"sellevuon":8882,"Ġsot":8883,"Ġnoitcudart":8884,"orB":8885,"lacol":8886,"ĠecnedivÃ©":8887,"Ġeugolatac":8888,"RET":8889,"dp":8890,"evoN":8891,"itsuJ":8892,"Ġ!!!!":8893,"ettel":8894,"Ġsruer":8895,"ĠsevÃªr":8896,"Ġeriaroh":8897,"ĠsalociN":8898,"arra":8899,"trA":8900,"eutceffe":8901,"eÃ©virp":8902,"esirprus":8903,"ĠsecnerÃ©fÃ©r":8904,"ĠtnemenÃ®artne":8905,"Ġtnetsixe":8906,"ohtap":8907,"Ġnossiop":8908,"ferb":8909,"Ġtnevius":8910,"ĠedÃ¨c":8911,"redael":8912,"inÃ©p":8913,"itnev":8914,"Ġnoitagivan":8915,",)":8916,"Ġedutitta":8917,"sehcorp":8918,"ĠerÃ¨imerP":8919,"ruess":8920,"tnemenÃ©vÃ©":8921,"Ġtnemertua":8922,"ĠeÃ©idÃ©d":8923,"Ġelbayorcni":8924,"setnetta":8925,"atnoc":8926,"Ġil":8927,"Ġ50":8928,"Ġeib":8929,"Ġtialp":8930,"ĠilbatÃ©":8931,"Ġnoitall":8932,"Ġseniamuh":8933,"Ġesopmoc":8934,"ĠegÃ¨lloc":8935,"ĠsÃ©ll":8936,"Ġsnissed":8937,"ĠeitarcomÃ©d":8938,"ĠeppolevÃ©d":8939,"ĠÃ©tilibisiv":8940,"Ġertner":8941,"ecnafne":8942,"Ġnoitpur":8943,"Ġxueregnad":8944,"MM":8945,"Ã©tÃ©v":8946,"ĠsiuoL":8947,"Ġ):":8948,"Ġruemuh":8949,"Ġsarg":8950,"Ġstrof":8951,"Ġsnoitadnammocer":8952,"Ġegnam":8953,"loH":8954,"Ġ73":8955,"isub":8956,"Ġruednoforp":8957,"Ġsetuor":8958,"Ġtnemecalpmer":8959,"ĠzenerP":8960,"Ġresopmi":8961,"nnoisseforp":8962,"Ã¹o":8963,"Ġrehcram":8964,"Ġetseg":8965,"ĠeriatÃ©":8966,"ĠennosreP":8967,"ĠrerÃ©disnoc":8968,"hPi":8969,"ugÃ©lÃ©d":8970,"Ġ6002":8971,"Ġsellia":8972,"Ġelleunna":8973,"Ġsleuqxua":8974,"noitalupop":8975,"Ã©girfÃ©r":8976,"laH":8977,"Ġtnemerus":8978,"sdra":8979,"ĠeppilihP":8980,"sicÃ©rp":8981,"ertnom":8982,"imitni":8983,"Ġtneitrappa":8984,"Ġetnalp":8985,"VD":8986,"ĠseuqirtcelÃ©":8987,"stnemess":8988,"Ġessab":8989,"igiv":8990,"sniab":8991,"ĠstÃ´pmi":8992,"sreilucitrap":8993,"seuqita":8994,"Ġfis":8995,"llieucca":8996,")-;":8997,"edutit":8998,"Ġsialla":8999,"noitidÃ©":9000,"ĠetiteP":9001,"erdnopÃ©r":9002,"Ġelbatrop":9003,"Ġediuqil":9004,"olB":9005,"Ġovarb":9006,"resilitu":9007,"pyrc":9008,"ehcop":9009,"orciM":9010,"Ġselat":9011,"nevorp":9012,"Ġeniatgniv":9013,"iht":9014,"esrevinu":9015,"Ġetibah":9016,"iuj":9017,"ĠÃ©mref":9018,"Ġremrifnoc":9019,"erir":9020,"reissod":9021,"BM":9022,"ĠeÃ©nitsed":9023,"ĠsneÃ©porue":9024,"aminim":9025,"Ġsnorffo":9026,"Ġettiuq":9027,"ĠeÃ©cyl":9028,"itsirhC":9029,"issA":9030,"eriam":9031,"iffusni":9032,"elucihÃ©v":9033,"Ġetten":9034,"esop":9035,"Ġff":9036,"Ã©ug":9037,"Ġtnemeriat":9038,"Ġtiassiga":9039,"otcO":9040,"Ġsiasse":9041,"etnavius":9042,"Ġsuc":9043,"Ã©it":9044,"ĠeÃ©nruot":9045,"ĠrennoitcelÃ©s":9046,"tegdub":9047,"itrevnoc":9048,"iof":9049,"Ġervuap":9050,"Ġsirprus":9051,"etpeS":9052,"rotua":9053,"ĠTSE":9054,"Ã©C":9055,"soÃ©div":9056,"oidua":9057,"64":9058,"ĠetnerÃ©ffid":9059,"Ġetunim":9060,"ĠÃ©tlusnoc":9061,"noitpircsni":9062,"ĠtnemelraP":9063,"etsuj":9064,"nanif":9065,"etad":9066,"sinimdA":9067,"Ġedic":9068,"Ġtelov":9069,"Ġscnalb":9070,"Ġelbanruotnocni":9071,"Ġsetrevuo":9072,"noll":9073,"ĠnoyL":9074,"ĠÃ©tilannosrep":9075,"Ġsnoitats":9076,"udÃ©r":9077,"FF":9078,"dnerpmoc":9079,"sius":9080,"etuocÃ©":9081,"ronap":9082,"ĠerÃ¨gÃ©l":9083,"Ġseriatilim":9084,"Ġsruetas":9085,"nilp":9086,"noitseg":9087,"uovas":9088,"ejni":9089,"atpmoc":9090,"eriomÃ©m":9091,"noitacilppa":9092,"Ġoni":9093,"Ġerutpur":9094,"ĠeriaidÃ©mretni":9095,"snas":9096,"acov":9097,"Ġremref":9098,"Ġerup":9099,"Ġstol":9100,"osnoc":9101,"ĠseuqcaJ":9102,"Ġerdnof":9103,"Ġedilos":9104,"molpid":9105,"enneyom":9106,"ilO":9107,"Ġtnemelamron":9108,"tnass":9109,"EU":9110,"Ġselbuem":9111,"Ġevitcelloc":9112,"Ġnoitaripsni":9113,"PC":9114,"Ġeyasse":9115,"Ġsnonerp":9116,"TT":9117,"ercus":9118,"euqip":9119,"eriasrevinna":9120,"etiarter":9121,"yH":9122,"Ġsessorg":9123,"artta":9124,"Ġdrep":9125,"nimircsid":9126,"Ġtnecnemmoc":9127,"ecnar":9128,"otuA":9129,"Ġef":9130,"ilÃ©dif":9131,"elbatrofnoc":9132,"initsel":9133,"atiug":9134,"Ġecalg":9135,"Ġseuqifingam":9136,"uarf":9137,"ĠnoitseG":9138,"noitacudÃ©":9139,"Ġstcatnoc":9140,"Ġsk":9141,"sevit":9142,"snarT":9143,"nÃ©g":9144,"edoirÃ©p":9145,"erroc":9146,"monorts":9147,"gk":9148,"eiret":9149,"nabru":9150,"leÃ©r":9151,"ĠemÃªrtxe":9152,"Ġtnatser":9153,"sA":9154,"tnemmedivÃ©":9155,"latot":9156,"ĠsÃ©tuaevuon":9157,"Ġgnin":9158,"aidrac":9159,"ĠengamellA":9160,"nopÃ©R":9161,"rapÃ©r":9162,"Ãªb":9163,"Ġeiannom":9164,"Ġxuam":9165,"inA":9166,"ĠseigÃ©tarts":9167,"tnemevuom":9168,"igrurihc":9169,"Ġerion":9170,"repicitrap":9171,"Ã©tirÃ©v":9172,"noitasila":9173,"idromirp":9174,"Ġsrueir":9175,"Ġyl":9176,"elleC":9177,"Ġregayov":9178,"ĠseÃ©ng":9179,"Ġsrisiol":9180,"uelb":9181,"Ġudnev":9182,"ĠnalP":9183,"Ġtiahc":9184,"Ġelbic":9185,"Ġresim":9186,"ĠtseuO":9187,"ĠxueC":9188,"Ġserbil":9189,"Ġsecart":9190,"sellimaf":9191,"ĠulÃ©":9192,"niart":9193,"Ġnag":9194,"etnatropmi":9195,"ĠsetÃ´h":9196,"ressed":9197,"Ġrexif":9198,"Ã©fsnart":9199,"ilbatÃ©r":9200,"Ġenisu":9201,"ĠtnaT":9202,"uacÃ©rp":9203,"Ġ93":9204,"77":9205,"Ġsiruos":9206,"ĠES":9207,"reilibommi":9208,"Ġzerved":9209,"Ã¨torp":9210,"Ġgn":9211,"Ġxuaep":9212,"Ġreun":9213,"kcoc":9214,"epretni":9215,"Ġsiloc":9216,"Ã®g":9217,"nedicco":9218,"egal":9219,"aK":9220,"avne":9221,"ressac":9222,"ilbus":9223,"Ġelbisnes":9224,"Ġrertnec":9225,"tartnoc":9226,"Ġsnoitacol":9227,"idemas":9228,"ĠertuA":9229,"seuqleuq":9230,"virp":9231,"enir":9232,"Ġecuas":9233,"Ġtnelat":9234,"Ġegac":9235,"Ġrevuorp":9236,"sniamuh":9237,"ĠerÃ¨hc":9238,"RI":9239,"tnemesueruehlaM":9240,"HP":9241,"sniomnaÃ©N":9242,"Ġiv":9243,"ĠellaS":9244,"ĠÃ©timrofnoc":9245,"retne":9246,"eX":9247,"Ġiaremia":9248,"tnatua":9249,"rcÃ©":9250,"ednal":9251,"Ġeniaz":9252,"Ġetcerid":9253,"Ġsemsi":9254,"Ã©bÃ©uq":9255,"rodne":9256,"Ġeriannoit":9257,"Ġzeng":9258,"negÃ©l":9259,"tnemetiart":9260,"apo":9261,"Ġtit":9262,"napÃ©d":9263,"Ġreveler":9264,"3002":9265,"Ġsetsilanruoj":9266,"Ã©bo":9267,"Ġsoper":9268,"mumixam":9269,"Ġstrevuo":9270,"puos":9271,"Ġtiusruop":9272,"Ġeutceffe":9273,"Ġecart":9274,"ĠoiranÃ©cs":9275,"itnahcÃ©":9276,"Ġtiarap":9277,"Ġts":9278,"Ã©trebil":9279,"siofrap":9280,"Ġegahciffa":9281,"Ġtnemehcnarf":9282,"ĠxueicÃ©rp":9283,"Ġsnoluov":9284,"sruetasilitu":9285,"Ġetniecne":9286,"orra":9287,"Ġsevitaitini":9288,"sopmi":9289,"ilbuoni":9290,"ipicÃ©rp":9291,"nics":9292,"yolpÃ©d":9293,"Ġsecaf":9294,"ĠelanoitaN":9295,"Ġetnat":9296,"ssimmoc":9297,"ĠelÃ´rd":9298,"Ġeic":9299,"Ġrerob":9300,"Ġseuqitirc":9301,"enihC":9302,"sm":9303,"Ġxuaesio":9304,"ĠecifÃ©nÃ©b":9305,"etropmoc":9306,"idrag":9307,"rovid":9308,"Ġzetlusnoc":9309,"Ġevis":9310,"Ġra":9311,"ĠlanoigÃ©r":9312,"Ġresil":9313,"niV":9314,"ĠsÃ©ssap":9315,"Ġ\".":9316,"Ġsesuer":9317,"ĠÃ©vel":9318,"Ġuaecrom":9319,"ehpargotohp":9320,"erdro":9321,"taC":9322,"tf":9323,"etÃ¨nalp":9324,"Ã©nnod":9325,"eluc":9326,"tnaruoc":9327,"Ġzettem":9328,"norb":9329,"Ġreica":9330,"tatlusÃ©r":9331,"Ġhca":9332,"ĠuaetÃ¢g":9333,"ĠsnoitaN":9334,"ĠnoitadnoF":9335,"itserp":9336,"Ã§remmoc":9337,"ged":9338,"lusÃ©R":9339,"gÃ©v":9340,"\"...":9341,"irtam":9342,"selaicos":9343,"Ã¨tni":9344,"Ġelliatab":9345,"xueirÃ©s":9346,"auqÃ©da":9347,"eroda":9348,"Ġettem":9349,"Ã©tuaeb":9350,"rubrac":9351,"xueil":9352,"ĠsÃ©til":9353,"evas":9354,"roeG":9355,"Ġnar":9356,"rednamed":9357,"Ġsruessinruof":9358,"Ġnoitasilibom":9359,"ĠseÃ©rios":9360,"erip":9361,"irfA":9362,"ko":9363,"sÃ©tila":9364,"AB":9365,"xiap":9366,"Ġsnielp":9367,"ucÃ©snoc":9368,"Ġrelloc":9369,"ĠserÃ¨icnanif":9370,"yll":9371,"ĠxueJ":9372,"Ġevitcepsrep":9373,"uoluoT":9374,"uqer":9375,"ĠertÃ®arappa":9376,"arcÃ©":9377,"Ġtnemeguj":9378,"inuT":9379,"ĠsuvÃ©rp":9380,"Ġelop":9381,"Ġsiarv":9382,"Ġselanoitan":9383,"Ġelleitnesse":9384,"sÃ©iralas":9385,"ĠtnemevÃ¨l":9386,"Ġ44":9387,"Ġreic":9388,"tÃ©mo":9389,"ecnonna":9390,"neM":9391,"Ġisauq":9392,"Ġnoyar":9393,"ĠÃ©tirucÃ©S":9394,"Ġlm":9395,"nerÃ©fÃ©rp":9396,"ĠENU":9397,"Ġsettenul":9398,"Ġdnal":9399,"Ġllabtoof":9400,"ilobmys":9401,"Ġedalab":9402,"Ġtnassiup":9403,"arrabÃ©d":9404,"Ġeciffo":9405,"unne":9406,"ĠÃ©musÃ©r":9407,"Ġtnesopsid":9408,"usselb":9409,"74":9410,"Ġsnossiop":9411,"2002":9412,"ĠsÃ©rt":9413,"Ġniag":9414,"Ġtnednetta":9415,"fitacidni":9416,"artni":9417,"ird":9418,"ĠenÃ¨igyh":9419,"Ġnoitnem":9420,"ĠrocÃ©d":9421,"uenimul":9422,"Ġetnatsnoc":9423,"erffo":9424,"morP":9425,"gnipmac":9426,"rD":9427,"ĠVT":9428,"ĠemadaM":9429,"ĠÃ©rged":9430,"esserda":9431,"Ġsecaciffe":9432,"Ġnortap":9433,"Ġ.%":9434,"Ġrerusem":9435,"Ġtnedner":9436,"Ġsehcif":9437,"Ġesueic":9438,"Ġrenema":9439,"ecnegru":9440,"ĠswodniW":9441,"sesue":9442,"Ġtuo":9443,"Ġih":9444,"Ġsedoc":9445,"ipme":9446,"etiaf":9447,"ueirÃ©fni":9448,"nilpicsid":9449,"tnemelicaf":9450,"utsoc":9451,"effuahc":9452,"Ġruelf":9453,"srallod":9454,"tiart":9455,"Ġetolip":9456,"Ġselleitnesse":9457,"ĠemmoH":9458,"ĠÃ©luclac":9459,"osÃ©D":9460,"zesnep":9461,"ilÃ©c":9462,"itÃ¢p":9463,"Ġesuet":9464,"sednoces":9465,"natÃ©":9466,"ĠSNA":9467,"essiuS":9468,"Ġenial":9469,"monortsag":9470,"Ġellerutluc":9471,"ĠticÃ©r":9472,"ĠnoT":9473,"ehcuod":9474,"Ġreilibom":9475,"euqinortcelÃ©":9476,"etsi":9477,"iavarT":9478,"neitertne":9479,"ĠeciffO":9480,"Ġsrueluod":9481,"utcepser":9482,"Ġebut":9483,"itil":9484,"xuerueh":9485,"Ġetnam":9486,"sart":9487,"ioP":9488,"Ġretnomer":9489,"inimula":9490,"ĠeÃ©ilbup":9491,"laj":9492,"ĠsecivreS":9493,"EG":9494,"evuerp":9495,"oobecaf":9496,"tnerÃ©ffid":9497,"ĠÃ©ifidom":9498,"Ġsesylana":9499,"utitsnoC":9500,"Ã¨R":9501,"ĠtulaS":9502,"Ġfitom":9503,"ĠecneuqÃ©snoc":9504,"snoitisop":9505,"Ġtim":9506,"renno":9507,"ĠsraM":9508,"MC":9509,"eciv":9510,"Ġsnosia":9511,"Ġstircsni":9512,"Ġ30":9513,"tÃ©gÃ©v":9514,"namam":9515,"loG":9516,"Ġruetcaf":9517,"erutneva":9518,"ĠruoteR":9519,"ngised":9520,"zen":9521,"ualC":9522,"recnac":9523,"iuQ":9524,"ĠsecnerÃ©fnoc":9525,"vircÃ©":9526,"Ġnoitnetbo":9527,"neihc":9528,"egatÃ©":9529,"ran":9530,"Ġsionihc":9531,"Ġlierap":9532,"Ġsennot":9533,"nevneib":9534,"setluda":9535,"ilgÃ©":9536,"erreT":9537,"illep":9538,"nehÃ©rppa":9539,"niacirÃ©ma":9540,"58":9541,"ĠiaM":9542,"itceffE":9543,"sÃ©tilib":9544,"ĠtnemevitinifÃ©d":9545,"66":9546,"nevorP":9547,"Ġennerp":9548,"Ã©velÃ©":9549,"Ġsegats":9550,"Ġetsir":9551,"engamellA":9552,"Ġtnednamed":9553,"tnemmaton":9554,"Ġegassam":9555,"paJ":9556,"ĠsÃ©tinu":9557,"eppA":9558,"snios":9559,"rtsnomÃ©d":9560,"noitas":9561,"ĠÃ©ttiuq":9562,"Ġreunimid":9563,"Ġsfitom":9564,"lirb":9565,"atceh":9566,"eruB":9567,"tÃªrÃ©tni":9568,"exes":9569,"ĠeuqÃ¨hc":9570,"lucirga":9571,"eriatnemila":9572,"Ġogol":9573,"ĠQ":9574,"ĠtnemeppolevÃ©D":9575,"yof":9576,"eivne":9577,"ecnassian":9578,"ercreM":9579,"Ã©timixorp":9580,"Ġsbulc":9581,"yP":9582,"ĠnoitatupÃ©r":9583,"ĠtueP":9584,"Ã´rd":9585,"Ġrueisnom":9586,"Ġsreir":9587,"cartnoc":9588,"Ġsruegayov":9589,"Ġnoitarugifnoc":9590,"ecrof":9591,"Ġreyotten":9592,"ĠnoitamroF":9593,"Ġtinruof":9594,"sneit":9595,"cesni":9596,"ino":9597,"Ġtneivretni":9598,"ĠeÃ©soporp":9599,"Ġenneiditouq":9600,"srueuoj":9601,"ĠegnartÃ©":9602,"ĠeimÃ©d":9603,"rirvuocÃ©d":9604,"Ã©rri":9605,"onos":9606,"ĠeuqigogadÃ©p":9607,"ĠNA":9608,"idut":9609,"Ġsebmaj":9610,"ĠtircÃ©d":9611,"ruelav":9612,"ruetc":9613,"ĠzeyoS":9614,"Ġstadlos":9615,"esruoc":9616,"ĠetircÃ©":9617,"coL":9618,"Ġtnetrop":9619,"Ġsnosnahc":9620,"etnesÃ©rp":9621,"Ġsnioc":9622,"ĠruetidÃ©":9623,"ĠelbarÃ©fÃ©rp":9624,"ĠlanoitanretnI":9625,"Ġaren":9626,"efÃ©rp":9627,"pp":9628,"Ġrertsigerne":9629,"Ġ,âĤ¬":9630,"gnA":9631,"itnA":9632,"Ġtnemevissergorp":9633,"Ġertnev":9634,"Ġtnelrap":9635,"Ġegarit":9636,"Ġessessorg":9637,"enimirc":9638,"Ġlag":9639,"ĠseriatnemÃ©lpmoc":9640,"Ġegamorf":9641,"ssassa":9642,"ĠriovA":9643,"elgnA":9644,"erialuc":9645,"idnoM":9646,"sedom":9647,"Ġsecremmoc":9648,"ruetces":9649,"Ġseuqatta":9650,"tnavius":9651,"ĠÃ©itima":9652,"ĠsÃ©icossa":9653,"Ġetatsnoc":9654,"Ġseniarg":9655,"Ġnial":9656,"spmetnirp":9657,"Ġengag":9658,"Ġetnom":9659,".âĤ¬":9660,"Ġsnoissucsid":9661,"Ġreyuppa":9662,"liug":9663,"Ġsecneloiv":9664,"Ġkeew":9665,"Ġsniarret":9666,"Ġsarua":9667,"itÃ©pÃ©r":9668,"irvA":9669,"Ġengiluos":9670,"Ġzessisiohc":9671,"Ġdnet":9672,"soper":9673,"ĠerÃ¨P":9674,"ĠrenimilÃ©":9675,"gÃ©lÃ©d":9676,"ĠzerisÃ©d":9677,"ĠeX":9678,"Ġ.]":9679,"ĠtnelaviuqÃ©":9680,"egien":9681,"itnec":9682,"telswen":9683,"toluob":9684,"ĠtnatuA":9685,"Ġstnemitnes":9686,"Ã©iuqni":9687,"egnA":9688,"Ġeva":9689,"eiulp":9690,"ĠSAP":9691,"bmesser":9692,"iorC":9693,"Ġseriotirret":9694,"Ġtnemecaciffe":9695,"stnapicitrap":9696,"enp":9697,"Ġseiv":9698,"ohcÃ©":9699,"ĠÃ©tiforp":9700,"ruB":9701,"Ġremmosnoc":9702,"Ġsecnanif":9703,"Ġtiarter":9704,"Ãªver":9705,"GC":9706,"stnaidutÃ©":9707,"emuayoR":9708,"ĠerutarÃ©ttil":9709,"aÃ©rc":9710,"Ġliatrop":9711,"Ã´ci":9712,"naltA":9713,"egnil":9714,"Ġselliero":9715,"Ġsenneicna":9716,"Ġregasivne":9717,"regnahc":9718,"rek":9719,"napÃ©r":9720,"euqigleB":9721,"tejussa":9722,"Ġstnemetropmoc":9723,"Ġuejne":9724,"egnam":9725,"Ġsnossiob":9726,"ter":9727,"itnoC":9728,"niojnoc":9729,"elacol":9730,"Ġeila":9731,"hcaoc":9732,"Ġnoitail":9733,"Ġelffuos":9734,"elliuef":9735,"ĠsecnerÃ©ffid":9736,"ssabma":9737,"Ġetsilanruoj":9738,"leirÃ©tam":9739,"ĠeÃ©bmot":9740,"taP":9741,"setis":9742,"ĠeÃ©rt":9743,"essarret":9744,"Ġetluda":9745,"ĠiuleC":9746,"aporp":9747,"etiutarg":9748,"Ġsruoces":9749,"ĠemmargorP":9750,"seuqim":9751,"ĠnoitasinagrO":9752,"tneuqÃ©snoc":9753,"Ġserret":9754,"erutcurts":9755,"Ġecnenamrep":9756,"Ġzetiforp":9757,"ĠÃ©icossa":9758,"ecirt":9759,"nidrooc":9760,"seB":9761,"inÃ©vnocni":9762,"itcat":9763,"ĠsusÃ©J":9764,"Ġtnemenia":9765,"AN":9766,"ramac":9767,"uoluod":9768,"yoR":9769,"ralc":9770,"ssid":9771,"ĠÃ©sicÃ©rp":9772,"riova":9773,"Ġotua":9774,"laG":9775,"uahC":9776,"igats":9777,"Ġelibomotua":9778,"Ġrerolpxe":9779,"ĠÃ©tinamuh":9780,"ĠeÃ©timil":9781,"Ġleirruoc":9782,"ipmahC":9783,"maS":9784,"PS":9785,"ĠzellA":9786,"erÃ¨inam":9787,"MO":9788,"ĠecnerÃ©fÃ©rp":9789,"Ġevitanretla":9790,"orC":9791,"24":9792,"Ġzeirruop":9793,"Ġsnasitra":9794,"isab":9795,"fitca":9796,"uatsni":9797,"ĠSUOV":9798,"yovner":9799,"Ġtneruf":9800,"iarbil":9801,"Ġtnemelleiciffo":9802,"Ġtnemeuqitarp":9803,"ĠlanruoJ":9804,"Ġresoper":9805,"brac":9806,"ĠertuO":9807,"Ġinim":9808,"einÃ©g":9809,"idnI":9810,"semrof":9811,"Ġscas":9812,"Ġ5002":9813,"seuqitarp":9814,"ĠÃ©utitsnoc":9815,"Ġerialos":9816,"tnesÃ©rP":9817,"Ġtpirc":9818,"idnever":9819,"ĠelleitnedisÃ©rp":9820,"Ġalliv":9821,"dÃ©m":9822,"Ã©bilÃ©d":9823,"tropsnart":9824,"Ġervuoc":9825,"tnemec":9826,"Ġnoitacud":9827,"ĠÃ©rapÃ©rp":9828,"1002":9829,"ibmolp":9830,"Ġtnanevorp":9831,"ĠsÃ©tnesÃ©rp":9832,"ĠsÃ©tuanummoc":9833,"Ġtirc":9834,"Ġellennoitidart":9835,"irÃ©ug":9836,"ĠecneuqÃ©rf":9837,"niamednel":9838,"Ġaj":9839,"ĠÃ©troppa":9840,"Ġsiaret":9841,"syd":9842,"ĠetÃ¨iuqni":9843,"seuqitam":9844,"Ġsipat":9845,"tnaruatser":9846,"Ġsiaref":9847,"Ġsiadnetta":9848,"ffar":9849,"Ġudividni":9850,"ĠÃ©yap":9851,"Ġass":9852,"ruoS":9853,"ĠÃ©tser":9854,"Ġdnerper":9855,"Ġdruol":9856,"Ġruehc":9857,"Ġsneiver":9858,"ehcorp":9859,"!?":9860,"tnemelgÃ¨r":9861,"ĠsnoitcaÃ©r":9862,"ĠsniacirÃ©ma":9863,"Ġuaes":9864,"Ġregaruocne":9865,"Ġzessap":9866,"siol":9867,"niluc":9868,"Ġeruc":9869,"Ġriruom":9870,"Ġnoitresni":9871,"selbissop":9872,"elo":9873,"ĠlaÃ©rtnoM":9874,"Ġeniatnec":9875,"ĠocÃ©d":9876,"Ġtnemennoit":9877,"Ġzem":9878,"Ġselues":9879,"reG":9880,"noisicÃ©d":9881,"duos":9882,"ylanA":9883,"mer":9884,"irÃ©tcab":9885,"Ġeludom":9886,"Ġrerucorp":9887,"ĠservÃ¨l":9888,"beh":9889,"ĠÃ©if":9890,"Ġ007":9891,"Ġengid":9892,"sag":9893,"ĠitraP":9894,"noitarÃ©po":9895,"ĠniuJ":9896,"Ġliev":9897,"elliuJ":9898,"ĠelacidÃ©m":9899,"Ġeuc":9900,"Ġsib":9901,"Ġeubirtnoc":9902,"suffid":9903,"Ġtiafsitas":9904,"sesnopÃ©r":9905,"moS":9906,"essa":9907,"ĠseÃ©gÃ¢":9908,"canem":9909,"ebrab":9910,".âĢĿ":9911,"ĠsedosipÃ©":9912,"iugia":9913,"lad":9914,"langis":9915,"Ġtik":9916,"Ġseivne":9917,"ĠnoisÃ©hda":9918,"nieh":9919,"Ġreihac":9920,"Ġegram":9921,"Ġessiga":9922,"issoP":9923,"Ġtnecca":9924,"ĠÃ©tilitu":9925,"nargim":9926,"ĠelppA":9927,"unetnoc":9928,"Ġilpmer":9929,"imoc":9930,"Ġsnoisnet":9931,"ĠerÃ¨loc":9932,"isuM":9933,"ĠnoitalsigÃ©l":9934,"ĠretsugÃ©d":9935,"Ġsfitaler":9936,"Ġfitrops":9937,"ĠnoitaÃ©rC":9938,"ĠseriaffA":9939,"ĠÃ©tilargÃ©tni":9940,"etam":9941,"Ġruednev":9942,"Ġnoitullop":9943,"Ġserdac":9944,"ĠÃ©gatrap":9945,"sellennosrep":9946,"xelA":9947,"ueva":9948,"Ġrineter":9949,"Ġyd":9950,"Ã©na":9951,"remmi":9952,"Ġsdrocca":9953,"Ġsdner":9954,"ĠÃ©rgÃ©tni":9955,"ĠcehcÃ©":9956,"eugnal":9957,"sÃ©uq":9958,"arD":9959,"errac":9960,"revne":9961,"AVT":9962,"Ġepmop":9963,"sorg":9964,"Ġsenim":9965,"005":9966,"Ġrup":9967,"bas":9968,"Ġgruob":9969,"ilf":9970,"Ã©ngam":9971,"Ã©nat":9972,"irtser":9973,"Ġeuqigam":9974,"resÃ©d":9975,"ĠsetÃ¨":9976,"zeluov":9977,"Ġeriotarobal":9978,"ĠregnalÃ©m":9979,"Ġsiaved":9980,"uanummoC":9981,"DR":9982,"upinam":9983,"Ã¨ssop":9984,"Ġ99":9985,"Ġsetseg":9986,"ĠÃ©mrofni":9987,"Ġlapicinum":9988,"drasah":9989,"ĠsevuerpÃ©":9990,"Ġtiudart":9991,"/âĤ¬":9992,"Ġerutuf":9993,"Ġlartnec":9994,"Ġedutitlum":9995,"Ġeriaiciduj":9996,"Ġsrelliesnoc":9997,"Ġtan":9998,"ĠðŁĻĤ":9999,"ihcrA":10000,"Ġtitnarag":10001,"Ġercniavnoc":10002,"Ġnoitpoda":10003,"Ġulc":10004,"Ġecnesse":10005,"remmoC":10006,"eÃ©s":10007,"engapmocca":10008,"innecÃ©d":10009,"illatÃ©m":10010,"Ġtiot":10011,"sitoc":10012,"Ġtnevres":10013,"Ġdrocer":10014,"erpme":10015,"Ġreffuahc":10016,"Ġegnil":10017,"molg":10018,"ĠsegangiomÃ©t":10019,"Ġeuqnocleuq":10020,"Ġenohptrams":10021,"Ġeuqsuj":10022,"pucco":10023,"eÃ©nnod":10024,"Ġxe":10025,"Ġstnemed":10026,"ropxe":10027,"Ġegarag":10028,"iopse":10029,"Ġreuqnam":10030,".)âĢ¦":10031,"ecÃ©D":10032,"lcse":10033,"esor":10034,"Ġnoitacilpxe":10035,"ĠstabÃ©d":10036,"tabilÃ©c":10037,"ĠsÃ©virp":10038,"Ġnoitcidretni":10039,"Ã©rgasÃ©d":10040,"Ġesufer":10041,"ĠsnoitulovÃ©":10042,"''":10043,"Ġotom":10044,"ecnatsid":10045,"stnemeg":10046,"itoc":10047,"ĠÃ©silannosrep":10048,"Ã©nila":10049,"ĠeÃ©cnal":10050,"\\\\":10051,"Ã©pS":10052,"Ġgnar":10053,"Ġreuova":10054,"eragic":10055,"ĠresserÃ©tni":10056,"Ġeivar":10057,"Ġnoigiler":10058,"acidar":10059,"varT":10060,"Ġnoisseforp":10061,"Ġsecnatsnocric":10062,"iassa":10063,"ĠsleirÃ©tam":10064,"ĠÃ©tilicaf":10065,"Ġemron":10066,"llecxE":10067,"SO":10068,"saidÃ©m":10069,"Ġlei":10070,"ĠdivaD":10071,"Ġnissab":10072,"iarT":10073,"atne":10074,"losÃ©d":10075,"ana":10076,"Ġsellerutan":10077,"tatÃī":10078,"ellitneg":10079,"ĠstatE":10080,"itaps":10081,"Ġsruesseforp":10082,"ĠsircÃ©":10083,"neulfni":10084,"Ġdl":10085,"Ġtnadrager":10086,"ĠeuqitÃ©htse":10087,"ennA":10088,"oro":10089,"iudÃ©s":10090,"Ã©nÃ©p":10091,"selacol":10092,"ruelahc":10093,"ĠsÃ¨corp":10094,"cirÃ©mA":10095,"euqil":10096,"laf":10097,"Ġsnidraj":10098,"talp":10099,"utam":10100,"ĠellevuoN":10101,"itnamor":10102,"Ġstnemetrappa":10103,"etÃ¨lpmoc":10104,"Ġsesirper":10105,"Ġsgnol":10106,"alevuoner":10107,"bru":10108,"Ġrelangis":10109,"ĠretÃªf":10110,"seÃ©m":10111,"Ã©ticirtcelÃ©":10112,"Ġnoitatnem":10113,"ĠEG":10114,"nrevuog":10115,"Ġuort":10116,"eihparg":10117,"ĠeuqigolocÃ©":10118,"Ġrennoitcnof":10119,"Ġserreip":10120,"snaded":10121,"Ġetterger":10122,"Ġ14":10123,"ĠsÃ©tupÃ©d":10124,"ĠetnasserÃ©tni":10125,"apuoc":10126,"eivres":10127,"tnadnetta":10128,"utuoc":10129,"euqilpxe":10130,"emuj":10131,"sfitcejbo":10132,"ĠnoitatÃ©rpretni":10133,"Ġreuqovorp":10134,"ĠidueJ":10135,"egan":10136,"nietÃ©":10137,"Ġona":10138,"ĠsemÃ¨":10139,"hcorppa":10140,"ĠertÃĬ":10141,"Ġsnoitacinummoc":10142,"ĠidnuL":10143,"Ġsnimehc":10144,"ĠsÃ©tinutroppo":10145,"Ġecidni":10146,"Ġselleuqxua":10147,"acA":10148,"ciV":10149,"Ġpacidnah":10150,"orcÃ©d":10151,"euqirotsih":10152,"iunne":10153,"ĠstatÃī":10154,"Ġana":10155,"Ġzehcas":10156,"Ġahc":10157,"Ġselicaf":10158,"esiom":10159,"enneiditouq":10160,"Ġtnemeriart":10161,"Ġtejart":10162,"ha":10163,"ĠkroY":10164,"Ġretuojar":10165,"sÃ¨rpA":10166,"illetas":10167,"tnecruop":10168,"snot":10169,"Ġtrauq":10170,"Ġtfos":10171,"Ġzetcatnoc":10172,"ĠsnorÃ©pse":10173,")-:":10174,"ruerre":10175,"Ġessiac":10176,"Ã©lop":10177,"rE":10178,"serialocs":10179,"iogna":10180,"Ã©T":10181,"Ġehcop":10182,"Ġeuqihtapmys":10183,"Ġdnamella":10184,"srueis":10185,"Ġstnemenno":10186,"Ġtrevuoc":10187,"erttem":10188,"noyL":10189,"evÃ¨":10190,"Ġca":10191,"imo":10192,"Ġresuma":10193,"tÃªrp":10194,"ococ":10195,"ĠevÃ¨rg":10196,"eriotagilbo":10197,"surf":10198,"Ġrinetertne":10199,"Ã¯a":10200,"ĠruetceriD":10201,"ĠÌģ":10202,"RAM":10203,"ĠeganÃ©m":10204,"HT":10205,"ĠtneilC":10206,"Ã©rÃ©s":10207,"idnul":10208,"Ġhs":10209,"ritrap":10210,"issid":10211,"isiohC":10212,"ĠTI":10213,"imaxe":10214,"dnecsed":10215,"Ġniat":10216,"Ã©no":10217,"Ġsetsiruot":10218,"Ġleud":10219,"irolac":10220,"Ġrelov":10221,"Ġtniojer":10222,"ĠeuqigleB":10223,"tnemetrappa":10224,"Ġlab":10225,"uaF":10226,"Ġsterces":10227,"ebara":10228,"ĠsÃ©nrecnoc":10229,"Ġsfitrops":10230,"Ġetnass":10231,"Ġeirelag":10232,"Ġnoitativni":10233,"ĠÃ©lutitni":10234,"Ġtneiavuop":10235,"Ġco":10236,"ĠstÃ»og":10237,"ĠstÃ¢gÃ©d":10238,"Ġnog":10239,"Ġsiasid":10240,"Ġeugav":10241,"ĠÃ©drager":10242,"dnega":10243,"inis":10244,"Ġzednetta":10245,"romÃ©m":10246,"namlusum":10247,"Ġxuojib":10248,"86":10249,"Ġxuellievrem":10250,"ĠrerÃ©pse":10251,"ĠeriaÃ©lcun":10252,"Ġliu":10253,"96":10254,"srevinu":10255,"tnemerÃ¨ilugÃ©r":10256,"enÃ¨g":10257,"ĠmuroF":10258,"Ġemsit":10259,"Ġseingapmoc":10260,"Ġsnoy":10261,"ialgna":10262,"arA":10263,"nevbus":10264,"ĠerÃ¨va":10265,"ĠsenÃ¨cs":10266,"Ġtnemetcirts":10267,"Ġetnert":10268,"euqirfA":10269,"nalÃ©M":10270,"errev":10271,"reimerp":10272,"ĠessapÃ©d":10273,"Ã©lppus":10274,"itbus":10275,"iupÃ©":10276,"Ġetpada":10277,"Ġsette":10278,"ĠstrA":10279,"Ġ34":10280,"iruaM":10281,"Ġennap":10282,"REM":10283,"lavitsef":10284,"DE":10285,"arttar":10286,"Ġengiesne":10287,"ÃīD":10288,"Ġnoitavresnoc":10289,"tnemelpmis":10290,"Ġeihposolihp":10291,"Ġselbasnepsidni":10292,"Ġeme":10293,"Ġsulcni":10294,"secnetÃ©pmoc":10295,"elfer":10296,"Ġgnit":10297,"sserd":10298,"ĠeuqitamÃ©ht":10299,"Ġserutcurtsarfni":10300,"erreiP":10301,"etnal":10302,"Ġretiahuos":10303,"iugnil":10304,"Ġnm":10305,"Ġtneuoj":10306,"Ġseuqituob":10307,"Ġtnemecuod":10308,"tip":10309,"noital":10310,"uahxe":10311,"ĠtracÃ©":10312,"lacÃ©d":10313,"Ġstnemurtsni":10314,"enmotua":10315,"Ġ]âĢ¦[":10316,"Ġsussit":10317,"Ġtnemesue":10318,"damod":10319,"seuqimonocÃ©":10320,"Ġeruejam":10321,"ellas":10322,"Ġbo":10323,"usrep":10324,"Ġtnennerpmoc":10325,"Ġxuen":10326,"eniep":10327,"ĠetnecÃ©r":10328,"ST":10329,"nib":10330,"uvÃ©rp":10331,"setne":10332,"Ġleppar":10333,"Ġseitnarag":10334,"ruoF":10335,"Ġsengapmac":10336,"ĠsnoitarÃ©nÃ©g":10337,"Ġerialutit":10338,"Ġtiavuort":10339,"Ġrehcrehcer":10340,"uobÃ©d":10341,"Ġrediug":10342,"eiuppa":10343,"ĠeuqigÃ©tarts":10344,"ĠsruetarÃ©po":10345,"nicedÃ©m":10346,"Ġresufer":10347,"ĠseÃ©ss":10348,"Ġlitneg":10349,"Ġnoitutitsnoc":10350,"ĠeÃ©nno":10351,"ifidÃ©":10352,"rapÃ©s":10353,"van":10354,"ĠÃ©tinret":10355,"NET":10356,"ROF":10357,"Ġslov":10358,"____":10359,"Ġutrev":10360,"ĠÃ©rtsigerne":10361,"ĠecnadnepÃ©dni":10362,"uorppa":10363,"elbis":10364,"engis":10365,"noitallatsni":10366,"hO":10367,"ecilop":10368,"nreB":10369,"Ġnoitavresbo":10370,"elbisiv":10371,"ujnoc":10372,"erdac":10373,"Ġerit":10374,"Ġruessinruof":10375,"Ġorp":10376,"Ġrertnecnoc":10377,"ĠsecifÃ©nÃ©b":10378,"Ġnip":10379,"kroY":10380,"ĠredÃ©c":10381,"niec":10382,"Ġseugol":10383,"ĠeÃ©grahc":10384,"ĠtnemetrappA":10385,"Ġseunnoc":10386,"inmedni":10387,"umuc":10388,"ngiab":10389,"Ġsirg":10390,"Ġreda":10391,"ualc":10392,"setxet":10393,"rugua":10394,"imaF":10395,"neic":10396,"lusni":10397,"secÃ¨ip":10398,"ĠÃ©tiahuos":10399,"Ġurap":10400,"uart":10401,"upsid":10402,"Ġserutluc":10403,"âĻ¥":10404,"Ġcohc":10405,"ĠII":10406,"Ġarer":10407,"Ġseriota":10408,"BA":10409,"Ġesac":10410,"Ġss":10411,"Ġshctam":10412,"ĠerÃ¨itnorf":10413,"Ġessur":10414,"Ġeiress":10415,"Ġservueo":10416,"elgooG":10417,"ĠretÃ»og":10418,"damodbeh":10419,"ĠtnemeluorÃ©d":10420,"ugitaf":10421,"Ġreifitsuj":10422,"erÃ¨itam":10423,"ĠtnemeriartnoC":10424,"Ġ58":10425,"Ġeuqitsiruot":10426,"76":10427,"enic":10428,"Ġreluor":10429,"Ġom":10430,"ĠerdnerP":10431,"issorg":10432,"pmor":10433,"eÃ©ss":10434,"Ġ90":10435,"Ġserutneva":10436,"sertnocner":10437,"Ġehcnaver":10438,"nirÃ©tÃ©v":10439,"Ġseuqissalc":10440,"ĠÃ©mrifnoc":10441,"Ã©tid":10442,"Ġehpargarap":10443,"ĠiF":10444,"settel":10445,"Ġeniraf":10446,"Ġxion":10447,"Ġelbaborp":10448,"ĠÃ©tod":10449,"tnemeuq":10450,"ĠtneicifÃ©nÃ©b":10451,"irgA":10452,"seggus":10453,"Ġsetteuq":10454,"gÃ©ni":10455,"fnE":10456,"ĠeÃ©tnesÃ©rp":10457,"ehcÃ¨s":10458,"icxe":10459,"vel":10460,"ÃłL":10461,"ruer":10462,"Ġtnemetten":10463,"Ġnoitirapsid":10464,"gruob":10465,"Ġtannoipmahc":10466,"otut":10467,"Ġtgiod":10468,"ĠetaD":10469,"Ġtev":10470,"ĠareluorÃ©d":10471,"Ġuaec":10472,"ĠsÃ©utis":10473,"ĠTNA":10474,"ĠenÃ®artne":10475,"Ġsegalliv":10476,"Ġelocirga":10477,"erÃ¨irrac":10478,"Ġsufer":10479,"vÃ©s":10480,"........":10481,"Ãİ":10482,"Ġelcrec":10483,"Ġreuqatta":10484,"Ġrueos":10485,"uogir":10486,"Ã©prep":10487,"ĠstidÃ©rc":10488,"ART":10489,"ĠeÃ©rÃ©disnoc":10490,"Ġreinap":10491,"itsuahxe":10492,"Ġionruot":10493,"ĠissuA":10494,"talocohc":10495,"Ġtnehcrehc":10496,"xuod":10497,"ĠseuqirÃ©mun":10498,"Ġrennoit":10499,"ĠeÃ©nnodnar":10500,"Ġselanoitanretni":10501,"uorotua":10502,"illA":10503,"Ġxueiruc":10504,"Ġsnort":10505,"uoy":10506,"Ġressiab":10507,"ĠretnesÃ©rper":10508,"ĠerÃ¨ivir":10509,"Ġsunob":10510,"otS":10511,"Ġelbarovaf":10512,"ĠecalP":10513,"ĠnopaJ":10514,"Ġnoitaluc":10515,"Ġnoitcudortni":10516,"Ġsdnetne":10517,"etrof":10518,"Ġtiaruas":10519,"RG":10520,"Ġsrein":10521,"sk":10522,"tub":10523,"Ġkcots":10524,"itilop":10525,"Ġevitatnet":10526,"elbuod":10527,"ĠarÃ©mac":10528,"ĠeissuR":10529,"ĠsorÃ©mun":10530,"ĠÃ©gagne":10531,"fitcejbo":10532,"cac":10533,"egasivne":10534,"Ġtnore":10535,"Ġsnolliesnoc":10536,"Ġtrihs":10537,"Ġ???":10538,"Ġseguor":10539,"Ġsruessitsevni":10540,"ĠerÃ¨ug":10541,"Ġredilav":10542,"nisagam":10543,"eÃ©n":10544,"Ġruetagivan":10545,"enol":10546,"Ã©lp":10547,"tnemitÃ¢b":10548,"ruetasilitu":10549,"ĠporT":10550,"lats":10551,"tnedisÃ©rp":10552,"Ġstnelat":10553,"stiurf":10554,"iutni":10555,"ĠelÃ¨dif":10556,"Ġ!?":10557,"ilppA":10558,"enretÃ©":10559,"ĠstnemecalpÃ©d":10560,"Ġzz":10561,"Ġtnatcepser":10562,"IN":10563,"nonis":10564,"zellA":10565,"irri":10566,"egammod":10567,"inomrah":10568,"Ġ94":10569,"ĠsÃ©b":10570,"Ġelobmys":10571,"Ġ64":10572,"eit":10573,"elyts":10574,"Ġecnivorp":10575,"ĠsertÃªnef":10576,"ĠÃ©tivitaÃ©rc":10577,"rtsuA":10578,"uoces":10579,"ĠÃ©rit":10580,"IVX":10581,"dneiver":10582,"Ġselpuoc":10583,"neÃ©porue":10584,"Ġzesopsid":10585,"Ġtnapicitrap":10586,"Ġbup":10587,"Ġlabolg":10588,"irC":10589,"gÃ¨R":10590,"Ġriovecnoc":10591,"Ġlennoitpecxe":10592,"ĠnoititrapÃ©r":10593,"ĠsenneÃ©porue":10594,"Ġsnoeg":10595,"nets":10596,"lÃ«":10597,"Ġribus":10598,"ellerutan":10599,"ĠecapsE":10600,"ritros":10601,"erÃ¨gÃ©l":10602,"imes":10603,"Ġstilfnoc":10604,"Ġezniuq":10605,"Ġsruoter":10606,"noitammosnoc":10607,"ihavne":10608,"ulosÃ©r":10609,"ĠÃłjÃ©D":10610,"affe":10611,"ertÃ®annoc":10612,"erÃ¨rf":10613,"Ġeul":10614,"ellennosrep":10615,"elÃ¨dom":10616,"ĠsetrevuocÃ©d":10617,"dnepsus":10618,"ĠnoitarÃ©numÃ©r":10619,"ĠrerÃ©nÃ©g":10620,"sret":10621,"sneic":10622,"ĠetiusnE":10623,"nerG":10624,"ruobmex":10625,"ĠidercreM":10626,"Ġnab":10627,"Ġsruenerpertne":10628,"idÃ©ni":10629,"stnal":10630,"Ġrehcac":10631,"amot":10632,"ĠÃ©losÃ©d":10633,"ĠmonÃ©rp":10634,"ĠstnerÃ©hda":10635,"AV":10636,"Ġeriamirp":10637,"euqilbupÃ©R":10638,"ĠegangiomÃ©t":10639,"ĠsnoitaicogÃ©n":10640,"ĠruengieS":10641,"Ġruen":10642,"Ġtnevuorter":10643,"ĠertsiniM":10644,"Ġari":10645,"UD":10646,"Ġstobor":10647,"ĠzetlusnoC":10648,"ĠeÃ©sil":10649,"arÃ©nluv":10650,"ĠtnadnopÃ©r":10651,"Ġnosiarapmoc":10652,"Ġeller":10653,"Ġsliam":10654,"Ġzesop":10655,"ĠtibÃ©d":10656,"ruocrap":10657,"noziroh":10658,"Ġarevuort":10659,"Ã©rtxe":10660,"elpuos":10661,"iuqoc":10662,"erÃ»s":10663,"ĠsÃ©silaicÃ©ps":10664,"Ġ59":10665,"ĠtnemacidÃ©m":10666,"semes":10667,"ĠsnoÃ§rag":10668,"Ġ46":10669,"ĠÃ©mitse":10670,"ĠÃ©tnemgua":10671,"raL":10672,"motse":10673,"icÃ©pS":10674,"ilibah":10675,"ĠerbmevoN":10676,"Ġsedutit":10677,"Ġweivretni":10678,"vecer":10679,"Ġeiuppa":10680,"Ġsevihcra":10681,"eicifrepus":10682,"setreC":10683,"lE":10684,"Ġellennoitpecxe":10685,"Ġmufrap":10686,"Ġlob":10687,"noitacol":10688,"Ġreirav":10689,"sialÃ©d":10690,"ĠsnoitidnoC":10691,"yba":10692,"uota":10693,"essenuej":10694,"isÃ©R":10695,"ihpargotohp":10696,"Ġleg":10697,"iraT":10698,"Ġecnerappa":10699,"ĠtnemecnerÃ©fÃ©r":10700,"Ġstnedicca":10701,"nosnem":10702,"Ġnoziroh":10703,"ĠrerramÃ©d":10704,"Ġserialuc":10705,"Ġretnorffa":10706,"Ġreyof":10707,"Ġzerrev":10708,"Ġrerimda":10709,"ipmop":10710,"Ġapap":10711,"Ġeif":10712,"Ġnoitacifitnedi":10713,"modne":10714,"ĠSO":10715,"Ġzert":10716,"bmert":10717,"Ġseuqimihc":10718,"neT":10719,"Ġ27":10720,"ĠtnemenrevuoG":10721,"Ġselbisiv":10722,"Ġelbitpecsus":10723,"uxes":10724,"Ġxuaicremmoc":10725,"taB":10726,"Ġsevitcepsrep":10727,"tnemmoC":10728,"Ġnoitalosi":10729,"ĠrettiwT":10730,"semugÃ©l":10731,"ĠrenÃ®d":10732,"ĠerbotcO":10733,"Ġzedner":10734,"Ġnoitibma":10735,"Ġetcepser":10736,"Ġnoitadilav":10737,"Ġtnemedner":10738,"Ġ74":10739,"lliuob":10740,"seitrap":10741,"tnert":10742,"edrob":10743,"Ġelif":10744,"sg":10745,"daM":10746,"ĠetÃªb":10747,"Ġxuaelbat":10748,"seuqilbup":10749,"catsbo":10750,"Ġstnasopmoc":10751,"uerc":10752,"stner":10753,"ĠehcrehceR":10754,"nelp":10755,"ĠÃ©ni":10756,"ĠÂ®":10757,"Ġresuffid":10758,"ĠÃ©ut":10759,"ĠeÃ©rcasnoc":10760,"nnoitca":10761,"ĠtuaF":10762,"nosiarvil":10763,"Ġridnarg":10764,"Ġnoisulcnoc":10765,"sniatrec":10766,"Ġselcatceps":10767,"isÃ©rB":10768,"XE":10769,"Ġxueilim":10770,"Ġsexat":10771,"Ã®a":10772,"Ġthg":10773,"tnemennoitcnof":10774,"uaG":10775,"utneva":10776,"Ġevitisop":10777,"Ġstnemegagne":10778,"eÃ©hc":10779,"Ġleusiv":10780,"Ġ)...(":10781,"eniar":10782,"selitu":10783,"draJ":10784,"tnedÃ©cÃ©rp":10785,"gnitekram":10786,"Ġrirruon":10787,"Ġdnoforp":10788,"ĠerÃ¨ib":10789,"elas":10790,"seriassecÃ©n":10791,"Ġnoitutitsni":10792,"Ġeihpargotohp":10793,"Ġselac":10794,"Ġservuap":10795,"sÃ©tÃ©":10796,"Ġnac":10797,"emmag":10798,"seÃ©d":10799,"inanu":10800,"ehcA":10801,"nahcne":10802,"evÃ¨l":10803,"isseccus":10804,"Ġreuqramer":10805,"Ġlarom":10806,"noitatnemila":10807,"pas":10808,"ilcÃ©d":10809,"iordnA":10810,"raT":10811,"Ġesirovaf":10812,"hsa":10813,"Ġnoitasirolav":10814,"esiomed":10815,"Ġressergorp":10816,"irtaP":10817,"Ġzednamed":10818,"EB":10819,"Ġserutc":10820,"sex":10821,"Ġtnemesrev":10822,"ertuA":10823,"Ġeirav":10824,"34":10825,"gorretni":10826,"inuM":10827,"toc":10828,"ĠeriatnemÃ©lpmoc":10829,"strom":10830,"eriota":10831,"ettecer":10832,"ĠertÃ¢":10833,"Ġelbitapmoc":10834,"Ġstuah":10835,"mohT":10836,"ĠerbmetpeS":10837,"segannosrep":10838,"narO":10839,"ĠerÃ¨lliuc":10840,"Ġtatsnoc":10841,"lia":10842,"Ġsetsila":10843,"Ġtnemellennosrep":10844,"Ġreuqirbaf":10845,"ĠetÃªF":10846,"ertser":10847,"ennoisivorppa":10848,"euqserp":10849,"ĠseÃ©tnesÃ©rp":10850,"liemmos":10851,"Ġsetrep":10852,"Ġiare":10853,"Ã©tuanummoc":10854,"Ġredrocca":10855,"itibma":10856,"Ġ,]":10857,"ecnassiorc":10858,"Ġsleirtsudni":10859,"Ġsevarg":10860,"ĠerÃ¨ilif":10861,"ĠsÃ©nnod":10862,"orÃ©t":10863,"ĠesÃ¨htnys":10864,"oA":10865,"ĠtnatruoP":10866,"Ġeugitaf":10867,"Ġetiuf":10868,"selocÃ©":10869,"ixelpmoc":10870,"ĠÃ©tatsnoc":10871,"eÃ©rud":10872,"Ġretroppus":10873,"erdnetta":10874,"Ġtianerp":10875,"niap":10876,"tcerid":10877,"ĠtS":10878,"tnemelleutca":10879,"Ġrervil":10880,"Ġdradnats":10881,"Ġsnisiov":10882,"etiusne":10883,"Ġnoitartnecnoc":10884,"reitrauq":10885,"elan":10886,"ĠenohPi":10887,"tnemelanif":10888,"ĠÃ©tsop":10889,"Ġevuorp":10890,"ĠriA":10891,"Ġsn":10892,"Ġxuavehc":10893,"Ġselaicremmoc":10894,"ĠÃ©rd":10895,"emÃ¢":10896,"roT":10897,"ĠidraM":10898,"risiol":10899,"ĠtioS":10900,"ĠtnemÃ©dnoforp":10901,"ĠÃ©nema":10902,"Ã©uqilpmoc":10903,"ĠÃ©sopÃ©d":10904,"euqituob":10905,"esserÃ©tni":10906,"ĠresirtÃ®am":10907,"Ġessuom":10908,"ĠlainÃ©g":10909,"relliavart":10910,"Ġsedic":10911,"zA":10912,"65":10913,"Ġzeirved":10914,"Ġnoitcep":10915,"Ġorue":10916,"Ġtnemellevuoner":10917,"Ġenif":10918,"ĠÃ©hcuot":10919,"noitavresÃ©r":10920,"Ġepuorger":10921,"netna":10922,"inifni":10923,"ĠetivÃ©":10924,"Ġreguj":10925,"xuerbmon":10926,"imissa":10927,"ĠseÃ©nitsed":10928,"ĠsÃ©nnoissap":10929,"Ġsreicilop":10930,"Ġetteuohc":10931,"tat":10932,"Ġselbar":10933,"003":10934,"Ġ4002":10935,"noL":10936,"Ġibus":10937,"ssiannocer":10938,"elfÃ©r":10939,"calB":10940,"ibaH":10941,"tnel":10942,"tnelat":10943,"UC":10944,"rebiL":10945,"noisivÃ©lÃ©t":10946,"Ġserd":10947,"xeni":10948,"Ġerianidroartxe":10949,"Ġussi":10950,"zevas":10951,"ipaC":10952,"tgniv":10953,"Ġtnauqidni":10954,"ĠRUS":10955,"rÃ©ih":10956,"hcne":10957,"75":10958,"Ġtairat":10959,"Ġ??":10960,"egnahcÃ©":10961,"ĠetoN":10962,"tejuS":10963,"ĠreppahcÃ©":10964,"hpla":10965,"mubla":10966,"Ġrepyh":10967,"yalp":10968,"nefÃ©D":10969,"Ġtnatiahuos":10970,"nimul":10971,"olG":10972,"Ġsten":10973,"Ġtnemeganam":10974,"tadidnac":10975,"ĠeiV":10976,"alcycer":10977,"Ġenilpicsid":10978,"ĠÃ©tilibissoP":10979,"ĠtroppaR":10980,"ubirT":10981,"lanigiro":10982,"ĠAC":10983,"erbmo":10984,"Ġtnalrap":10985,"Ġedalam":10986,"Ġeluof":10987,"Ġsudner":10988,"ĠnoitomÃ©":10989,"erar":10990,"Ġruojnob":10991,"noitats":10992,"ĠÃłÃ§":10993,"Ġellirg":10994,"Ġseluc":10995,"Ġxuo":10996,"Ġegrog":10997,"issecxe":10998,"nober":10999,"tiod":11000,"Ġama":11001,"atop":11002,"ĠÃ©mriffa":11003,"icnecil":11004,"ĠetÃ¨rc":11005,"ednoM":11006,"cepsus":11007,"tnemeiap":11008,"ĠsnoixelfÃ©r":11009,"Ġseuqirotsih":11010,"Ġregirroc":11011,"erÃ¨imerp":11012,"Ġelituni":11013,"Ġok":11014,"vuocÃ©d":11015,"ĠuaeruB":11016,"ĠÃ©lÃ©t":11017,"Ġsedno":11018,"Ġtnorf":11019,"Ġsissa":11020,"REP":11021,"ruetuah":11022,"ĠerueirÃ©tni":11023,"cohc":11024,"ĠeÃ©sir":11025,"Ġstnemengiesne":11026,"ĠtejorP":11027,"Ġnoitasimitpo":11028,"ĠsialaP":11029,"Ġyll":11030,"rueugiv":11031,"edut":11032,"ĠtnadnepeC":11033,"uotat":11034,"Ġsnoyar":11035,"tnetnoc":11036,"dnaba":11037,"ecruos":11038,"efnoc":11039,"Ġerdnecsed":11040,"ĠeuqinacÃ©m":11041,"sneyom":11042,"sruelf":11043,"nicsaf":11044,"sih":11045,"tnemesuer":11046,"Ġstreffo":11047,"Ġdnofalp":11048,"ifircas":11049,"adnacs":11050,"Ã©titnedi":11051,"Ġarehc":11052,"rebua":11053,"Ġertlif":11054,"serpmoc":11055,"ĠrigaÃ©r":11056,"Ġtenrac":11057,"Ġsregasu":11058,"Ġeunnocer":11059,"ĠengaterB":11060,"ruotÃ©d":11061,"ĠlatÃ©m":11062,"Ġ.âĢĿ":11063,"Ġtnemrof":11064,"Ã¼":11065,"temorp":11066,"Ġnoitasilibisnes":11067,"Ġtneunitnoc":11068,"fehc":11069,"Ġsuosib":11070,"Ġelloc":11071,"Ġnieh":11072,"sor":11073,"Ġreguob":11074,"ertsinim":11075,"Ġcte":11076,"Ġtnemecrofner":11077,"Ġaredia":11078,"ĠeÃ©ssuahc":11079,"stiord":11080,"rofnoC":11081,"attar":11082,"Ġtnemesu":11083,"muminim":11084,"tneirO":11085,"eimonocÃ©":11086,"Ġseigol":11087,"ĠzessisiohC":11088,"ĠtnemeriassecÃ©n":11089,"Ġstiafneib":11090,"naT":11091,"ĠtnemegrahcÃ©lÃ©t":11092,"ĠÃ©tuanummoC":11093,"Ġlennoitidart":11094,"ĠsÃ©tilibasnopser":11095,"ĠtnednopÃ©r":11096,"Ġteuqap":11097,"Ġnoitalum":11098,"Ġetrahc":11099,"elorap":11100,"odohtÃ©m":11101,"Ġnosianibmoc":11102,"irÃ©f":11103,"Ġsnoitisopxe":11104,"eirogÃ©tac":11105,"Ġehpargotohp":11106,"irÃ©g":11107,"Ġtnessial":11108,"Ġlucer":11109,"serof":11110,"Ġetnialp":11111,"ammodne":11112,"ĠrerÃ©bil":11113,"Ġennoloc":11114,"setnavius":11115,"erutniep":11116,"ĠreivnaJ":11117,"Ġsellerutluc":11118,"elÃ®":11119,"ĠxueicilÃ©d":11120,"uayor":11121,"duov":11122,"elB":11123,"regatrap":11124,"elcatceps":11125,"sin":11126,"idaR":11127,"orÃ©d":11128,"Ġinu":11129,"liF":11130,"Ġcolb":11131,"ĠsenÃ¨g":11132,"85":11133,"Ġ25":11134,"ĠtnadnepÃ©dni":11135,"Ġsnotuob":11136,"moner":11137,"Ġregnolp":11138,"tÃªrof":11139,"inummi":11140,"namÃ©":11141,"Ġelamixam":11142,"ĠsecneicS":11143,"Ġdnats":11144,"ertÃ¢Ã©ht":11145,"sruocrap":11146,"oog":11147,"imA":11148,"nyS":11149,"ĠrueirÃ©fni":11150,"reileta":11151,"ilab":11152,"sellexurB":11153,"snol":11154,"essessorg":11155,"ĠstatÃ©":11156,"Ġegadnos":11157,"Ġeriatnemucod":11158,"Ġeuqinilc":11159,"itirc":11160,"Ġrot":11161,"nortap":11162,"ĠÃ©dia":11163,"Ġsisiohc":11164,"eulovÃ©":11165,"tneitap":11166,"Ġzeissiup":11167,"esirc":11168,"Ġselibom":11169,"Ġelliero":11170,"ĠtiorD":11171,"noitartsinimda":11172,"riA":11173,"Ġelacsif":11174,"resop":11175,"Ġemy":11176,"Ġsehcuot":11177,"ecarb":11178,"Ġtreb":11179,"Ġruetcudnoc":11180,"Ġenruoter":11181,"zetcatnoC":11182,"sÃ©p":11183,"Ġsruotnela":11184,"Ġnoitanigami":11185,"ĠseuqitamÃ©lborp":11186,"sirhC":11187,"egixe":11188,"eres":11189,"REV":11190,"seliotÃ©":11191,"uu":11192,"Ġtneicsnoc":11193,"iturc":11194,"seÃ©p":11195,"ĠÃ©nmadnoc":11196,"Ġ)?":11197,"uab":11198,"Ġtiafrof":11199,"Ġneyotic":11200,"ĠÃ©srev":11201,"Ġuaennap":11202,"ecnerÃ©ffid":11203,"Ġzeiva":11204,"Ġsup":11205,"Ġniuq":11206,"Ġnoitinif":11207,"Ġsetni":11208,"Ġ70":11209,"tseuO":11210,"LP":11211,"Ġselbisnes":11212,"roW":11213,"itsemod":11214,"noisserpmi":11215,"Ġeuqitpo":11216,"ilÃ©arsi":11217,"eugol":11218,"ati":11219,"Ġerta":11220,"Ġruelpma":11221,"ĠnoisivÃ©r":11222,"ellevuoN":11223,"Ġtnemurtsni":11224,"Ġstrecnoc":11225,"etitep":11226,"essac":11227,"14":11228,"ejbO":11229,"ĠseÃ©sinagro":11230,"usni":11231,"Ġeicifrepus":11232,"Ġsiad":11233,"Ġnotoc":11234,"ĠnoigÃ©R":11235,"ĠertÃ¨maid":11236,"laW":11237,"Ġremriffa":11238,"Ġtnessiarappa":11239,"zetiahuos":11240,"Ġstnanevretni":11241,"Ġstiutarg":11242,"omÃ©m":11243,"Ġseuqin":11244,"ĠtneruaL":11245,"ĠÃ©pucco":11246,"yon":11247,"Ġessia":11248,"Ġellep":11249,"nomroh":11250,"stnavius":11251,"olF":11252,"olloc":11253,"Ġedica":11254,"Ġartlu":11255,"erÃ¨ilucitrap":11256,"iorD":11257,"hte":11258,"Ã©hcra":11259,"nerÃ©p":11260,"iporp":11261,"seuqsir":11262,"lierap":11263,"loV":11264,"ĠreunitnoC":11265,"Ġeritta":11266,"nocÃ©rp":11267,"Ġetrev":11268,"Ġeivius":11269,"Ġsudnev":11270,"Ġtnemeuqitam":11271,"snoitaicossa":11272,"ĠÃ©tov":11273,"ĠrerapÃ©r":11274,"ĠlarÃ©nÃ©G":11275,"eniacirÃ©ma":11276,"ï»":11277,"ke":11278,"ĠsnoitidÃ©":11279,"Ġtnemmerappa":11280,"elÃ´rtnoc":11281,"etÃªf":11282,"Ġab":11283,"ĠlirvA":11284,"Ġseuqitsiruot":11285,"erircÃ©":11286,"otohP":11287,"gre":11288,"Ġriruocrap":11289,"ĠzesneP":11290,"Ġsnoitcelloc":11291,"llievÃ©r":11292,"Ġtianet":11293,"tsyS":11294,"sicuos":11295,"Ġretneiro":11296,"ï»¿":11297,"albmes":11298,"ĠedualC":11299,"ecneitap":11300,"ĠsnoisivÃ©rp":11301,"iturcs":11302,"leir":11303,"ĠegaP":11304,"Ġecneidua":11305,"nagÃ©lÃ©":11306,"tseR":11307,"eilatI":11308,"xob":11309,"asu":11310,"0202":11311,"orf":11312,"ĠÃ©gÃ¢":11313,"ilpma":11314,"Ġseuqalp":11315,"ĠcoraM":11316,"Ġxueruelahc":11317,"selliv":11318,"sneyotic":11319,"unam":11320,"coram":11321,"ogol":11322,"Ġellun":11323,"snoitomÃ©":11324,"ĠSET":11325,"Ġehcnarb":11326,"Ġsevitc":11327,"ĠÃ©sirotua":11328,"Ġsra":11329,"ĠÃ©ilbuP":11330,"88":11331,"NOM":11332,"NEV":11333,"Ġelbirret":11334,"ĠserÃ¨gnartÃ©":11335,"eerf":11336,"FDP":11337,"ĠeuqitamÃ©lborp":11338,"Ġzevius":11339,"per":11340,"Ġriolav":11341,"ĠeÃ©utceffe":11342,"Ġremirpmi":11343,"ĠortÃ©m":11344,"neituos":11345,"Ġellatsni":11346,"euqimanyd":11347,"snepmoc":11348,"Ġnitellub":11349,"Ġstrap":11350,"Ġetnenamrep":11351,"Ġaz":11352,"Ġnoitasrevnoc":11353,"rgÃ©tni":11354,"ĠecnerÃ©fnoC":11355,"ĠÃ©ssalc":11356,"Ġtnemerio":11357,"ĠeÃ©leppa":11358,"Ġtnamrof":11359,"selc":11360,"esnad":11361,"Ġeuqsam":11362,"Ġnortic":11363,"ĠÃ©lb":11364,"ejart":11365,"ĠlueS":11366,"ĠeÃ©llav":11367,"Ġselpuep":11368,"Ġ80":11369,"leutca":11370,"Ġlo":11371,"Ġtnednopserroc":11372,"Ã¯ah":11373,"ĠeralcÃ©d":11374,"Ġsruetatceps":11375,"Ã©H":11376,"rehC":11377,"laicremmoc":11378,"dyxo":11379,"yoj":11380,"Ġednoforp":11381,"niccav":11382,"Ġxuanoitanretni":11383,"seniamuh":11384,"ĠcraM":11385,"ĠÃ©ticilpmis":11386,"iohC":11387,"Ġstelov":11388,"Ġtelgno":11389,"Ġeinomrah":11390,"enihcam":11391,"hcÃ©":11392,"ĠerÃ¨ilugÃ©r":11393,"ĠruetarÃ©po":11394,"ruguani":11395,"nubirt":11396,".)...":11397,"Ġsnoitcurtsni":11398,"Ġsleitnesse":11399,"tnavarapua":11400,"smlif":11401,"euqid":11402,"ĠreiletA":11403,"edoc":11404,"Ġtnemmatsnoc":11405,"Ã©rcnoc":11406,"Ġared":11407,"67":11408,"Ġettelbat":11409,"ocE":11410,"Ġreval":11411,"ĠeÃ©dnof":11412,"ecneicsnoc":11413,"ulav":11414,"Ġsexa":11415,"apme":11416,"nats":11417,"Ġseunev":11418,"ĠsÃ©ilbup":11419,"Ġsnaded":11420,"enif":11421,"ĠelocÃī":11422,"sartS":11423,"fuen":11424,"lavylop":11425,"Ã¯al":11426,"esser":11427,"noitcerid":11428,"noitpecÃ©r":11429,"Ġeidnecni":11430,"itar":11431,"ĠsÃ©virra":11432,"utitsbus":11433,"Ġtrosser":11434,"ĠerbmecÃ©D":11435,"Ġesuem":11436,"Ġnoitalunna":11437,"resnep":11438,"Ġelleudividni":11439,"oidrac":11440,"Ã¨lhta":11441,"Ġretuas":11442,"Ġtnadner":11443,"Ġelarom":11444,"molgga":11445,"051":11446,"uqleuQ":11447,"Ġyruj":11448,"ĠlarÃ©dÃ©f":11449,"ĠeÃ©sila":11450,"ĠetÃ¨hca":11451,"Ġeniatnert":11452,"rI":11453,"etluda":11454,"tadnam":11455,"Ġsimmoc":11456,"Ġzir":11457,"nelis":11458,"Ġ]...[":11459,"ĠsÃ©calp":11460,"Ġerug":11461,"erutircÃ©":11462,"noitatnesÃ©rp":11463,"Ġsgolb":11464,"tnemÃ©lÃ©":11465,"ieh":11466,"xios":11467,"Ġsuneved":11468,"ĠsÃ©gÃ¢":11469,"Ġegatnecruop":11470,"tc":11471,"seriatnemÃ©lppus":11472,"Ġtiatser":11473,"pots":11474,"Ġ.....":11475,"egaruocne":11476,"ĠiuL":11477,"kcap":11478,"sulcni":11479,"Ġsehcuoc":11480,"ruetar":11481,"coraM":11482,"ĠsÃ©sserÃ©tni":11483,"Ġnoitanidrooc":11484,"nimatnoc":11485,"Ġetrela":11486,"Ġsreipap":11487,"Ġseriatinas":11488,"ĠlagÃ©l":11489,"odc":11490,"ianiv":11491,"rit":11492,"Ġsialer":11493,"edÃ©cÃ©rp":11494,"ĠseÃ©ssap":11495,"erÃ¨it":11496,"ĠlÃ«arsI":11497,"Ġtiartrop":11498,"Ġserialupop":11499,"Ġsecnatsbus":11500,"Ġecnerapsnart":11501,"Ġesir":11502,"artlu":11503,"euqifitneics":11504,"eioj":11505,"sirg":11506,"ebmolp":11507,"Ġyc":11508,"tuev":11509,"ĠetsiL":11510,"ĠÃ©rvil":11511,"nossiuc":11512,"Ġerocs":11513,"ĠÃ©dnof":11514,"Ġsertsinim":11515,"Ġrepm":11516,"aW":11517,"sartnoc":11518,"Ġesi":11519,"Ġsengatnom":11520,"Ã©tnI":11521,"Ġsul":11522,"iraP":11523,"Ġrercasnoc":11524,"Ã©htnys":11525,"ĠserÃ¨itnorf":11526,"Ġliues":11527,"Ġosrep":11528,"tseuo":11529,"rU":11530,"vac":11531,"Ġegallabme":11532,"tnor":11533,"Ġerttemuos":11534,"zetcatnoc":11535,"ĠelanoigÃ©r":11536,"engapsE":11537,"raK":11538,"Ġenneiv":11539,"ĠÃ©tilibats":11540,"stnemetÃªv":11541,"Ġslennoit":11542,"ĠenÃ¨ma":11543,"rÃ©pooc":11544,"euqÃ©rf":11545,"Ġseuor":11546,"ĠeuqihtÃ©":11547,"malfni":11548,"egannosrep":11549,"ĠsfuÅĵ":11550,"Ġfitartsinimda":11551,"loocla":11552,"Ã´v":11553,"Ġsiasiaf":11554,"Ġellies":11555,"98":11556,"Ġsnemaxe":11557,"xid":11558,"elu":11559,"xuaet":11560,"ĠressarrabÃ©d":11561,"elam":11562,"lmth":11563,"Ġsnoicremer":11564,"orga":11565,"evehc":11566,"tnemelaniF":11567,"Ġeliov":11568,"ĠsenÃ®ahc":11569,"siuped":11570,"ĠÃ©hcrehc":11571,"ilÃ©h":11572,"sruetc":11573,"iolpÃ©d":11574,"Ġnoitacifit":11575,"tidÃ©rc":11576,"Ġsegassap":11577,"ihcrarÃ©ih":11578,"noitnevretni":11579,"Ġeluob":11580,"teuq":11581,"utitser":11582,"irrA":11583,"ĠlaÃ©dI":11584,"xuaf":11585,"lennoit":11586,"peda":11587,"eiuq":11588,"Ġstnemugra":11589,"ednab":11590,"sopsid":11591,"Ġarttem":11592,"noÃ§":11593,"pmaC":11594,"ruemed":11595,"Ġgnip":11596,"ulb":11597,"Ġsrio":11598,"ĠsnoitasilaÃ©r":11599,"ĠÃ©tisnetni":11600,"Ġevitrops":11601,"ucua":11602,"ĠselÃ´rtnoc":11603,"Ã©k":11604,"ĠerÃ¨il":11605,"Ġnoitcudorper":11606,"Ġsnorua":11607,"Ġnoitcurtsed":11608,"ĠÃ©tilaitnedifnoc":11609,"Ġeuqinorhc":11610,"Ġevitartsinimda":11611,"ĠÃ©tnom":11612,"ĠÃ©yolpme":11613,"uqram":11614,"Ġmiaf":11615,"sellia":11616,"Ġecnellecxe":11617,"ĠÃ©ssuop":11618,"ĠrevÃªr":11619,"iunitnoc":11620,"ennot":11621,"noigÃ©R":11622,"Ġlivic":11623,"Ġtnalliavart":11624,"elpuep":11625,"nilcÃ©d":11626,"Ġani":11627,"Ġssenisub":11628,"enretni":11629,"tek":11630,"Ġsrap":11631,"rova":11632,"Ġeriatinas":11633,"isopmoc":11634,"ĠÃ©drag":11635,"emef":11636,"Ġces":11637,"Ġsliforp":11638,"trevuo":11639,"Ġresiv":11640,"naH":11641,"Ġsegat":11642,"ĠleunammE":11643,"erutaN":11644,"ĠediuG":11645,"trats":11646,"erutrevuo":11647,"ĠÃ©tidilav":11648,"ĠerircÃ©d":11649,"hct":11650,"ĠtnedÃ¨ssop":11651,"rueis":11652,"esÃ©d":11653,"baL":11654,"Ġtnaulcni":11655,"Ã©msoc":11656,"yut":11657,"isnetni":11658,"ecneics":11659,"ĠesiaÃ§narF":11660,"irac":11661,"ĠtelliuJ":11662,"Ġtnetroppa":11663,"ĠesÃ¨":11664,"Ġreuqolb":11665,"ixna":11666,"Ġeuqimreht":11667,"otsirhC":11668,"iport":11669,"noitidnoc":11670,"Ġtnadnamed":11671,"iduahc":11672,"egassitnerppa":11673,"Ġehcnart":11674,"Ġruetammosnoc":11675,"ĠFDP":11676,"Ġtnenrecnoc":11677,"ĠÃ©rÃ©g":11678,"Ġeudner":11679,"setsitra":11680,"iniassa":11681,"idercrem":11682,"nepsus":11683,"rutuf":11684,"emsiruot":11685,"ortcelÃ©":11686,"itrossa":11687,"inopsiD":11688,"agab":11689,"elbasnopser":11690,"Ġcilc":11691,"irbaF":11692,"leppa":11693,"sruetisiv":11694,"uhr":11695,"gn":11696,"iarV":11697,"Ġirt":11698,"Ġsesnep":11699,"uqnam":11700,"ĠreM":11701,"Ġeuqsac":11702,"ĠetpmoC":11703,"dnegne":11704,"oruen":11705,"top":11706,"raD":11707,"icnof":11708,"Ġeinif":11709,"Ġemord":11710,"ĠruÅĵs":11711,"ircsnI":11712,"Ã©gnahc":11713,"inÃ©d":11714,"namroN":11715,"Ġleirtsudni":11716,"sÃ¨rg":11717,"neH":11718,"Ġselbacilppa":11719,"Ġrerud":11720,"Ġsnoitacilbup":11721,"ĠeÃ©gÃ©torp":11722,"Ġsenigiro":11723,"resilaÃ©r":11724,"-:":11725,"elbissopmi":11726,"ĠeÃ©cnava":11727,"Ġxuanoitan":11728,"Ġelic":11729,"selpmis":11730,"eluor":11731,"ĠpoT":11732,"etsixe":11733,"netsba":11734,"Ġselo":11735,"evitca":11736,"ĠtnemesuerueH":11737,"Ã©gnoc":11738,"arÃ©bil":11739,"ĠeuqovÃ©":11740,"ĠÃ©succa":11741,"ĠelÃªop":11742,"Ġeuqinnatirb":11743,"etnetta":11744,"niar":11745,"Ġko":11746,"Ġlailimaf":11747,"Ġtnemessittejussa":11748,"ĠselbatirÃ©v":11749,"eloS":11750,"tiga":11751,"Ġuaev":11752,"ĠsdnoF":11753,"yn":11754,"Ġsnoc":11755,"nopseR":11756,"ĠÃ©dnammoc":11757,"????":11758,"Ġerffuos":11759,"Ġtneitbo":11760,"uoH":11761,"Ġzervecer":11762,"ruen":11763,"itarg":11764,"tnemegnahc":11765,"ĠtnaÃ©rc":11766,"utsop":11767,"Ġsessia":11768,"ervueo":11769,"Ġexa":11770,"regnad":11771,"imehc":11772,"enneicna":11773,"Ġerrazib":11774,"Ġtnepicitrap":11775,"Ġhab":11776,"ĠerueirÃ©fni":11777,"naV":11778,"Ġsecned":11779,"ruemuh":11780,"Ġerttabmoc":11781,"tnemed":11782,"ĠelortÃ©p":11783,"Ġtu":11784,"Ġserialas":11785,"ĠEP":11786,"Ġnoitunimid":11787,"ugnis":11788,"bmi":11789,"itÃ©rcnoc":11790,"Ġxuef":11791,"Ġretpo":11792,"initselap":11793,"Ġeiht":11794,"ĠSU":11795,"Ġetnomer":11796,"Ã¢P":11797,"Ġrengios":11798,"ĠÃ©rt":11799,"xul":11800,"eilbup":11801,"Ġlanac":11802,"Ġessert":11803,"Ġtnevio":11804,"ĠselÃ®":11805,"ĠEJ":11806,"ĠtnemelbarÃ©disnoc":11807,"icillos":11808,"ĠzeicifÃ©nÃ©b":11809,"noisrev":11810,"eunnoc":11811,"stnemenÃ©vÃ©":11812,"ueN":11813,"eÃ©piuqÃ©":11814,"ine":11815,"odcena":11816,"Ġredrat":11817,"noiva":11818,"Ġsegasu":11819,"noitcetorp":11820,"nonÃ©":11821,"Ġertsiger":11822,"ssiab":11823,"pmiS":11824,"ĠnoitagÃ©lÃ©d":11825,"ĠnoitarÃ©pucÃ©r":11826,"ĠruessiapÃ©":11827,"Ġstnecseloda":11828,"eiV":11829,"Ġtiarttemrep":11830,"gnikrap":11831,"ĠselagÃ©l":11832,"seuqificÃ©ps":11833,"ICI":11834,"âĢ¯":11835,"ĠferB":11836,"Ġsneicinhcet":11837,"idram":11838,"ĠsÃ¨cxe":11839,"ĠretsisÃ©r":11840,"Ġstop":11841,"snong":11842,"troppar":11843,"Ġegalliuqam":11844,"ĠsemsinacÃ©m":11845,"ĠtnioP":11846,"ĠresimonocÃ©":11847,"ehcnalb":11848,"Ġesucxe":11849,"ĠelarÃ©nÃ©G":11850,"tnaÃ©hcÃ©":11851,"apluc":11852,"Ġsfueo":11853,"etsirt":11854,"ĠsÃ©utceffe":11855,"ecafrus":11856,"etrevuo":11857,"Ġressilg":11858,"Ġreuqram":11859,"Ġeriatuanummocartni":11860,"Ġezuod":11861,"ĠnoitatnesÃ©rP":11862,"Ġelatnem":11863,"ruE":11864,"ellessiav":11865,"Ġtnartnom":11866,"Ãªuqne":11867,"etissuÃ©r":11868,"fnog":11869,"Ġedanemorp":11870,"eriatÃ©irporp":11871,"Ġselbiaf":11872,"TS":11873,"Ġsimsnart":11874,"essetiv":11875,"Ġtemorp":11876,"siod":11877,"ĠÃ©sopxe":11878,"rutcon":11879,"ĠsevresÃ©r":11880,"iarc":11881,"ialla":11882,"ĠrinuÃ©r":11883,"arac":11884,"ĠegavelÃ©":11885,"nelps":11886,"Ã©tilautca":11887,"Ġ45":11888,"opm":11889,"Ġstiud":11890,"ĠrelÃ©vÃ©r":11891,"rutcaf":11892,"gnip":11893,"ĠsnoitaralcÃ©d":11894,"enneit":11895,"egd":11896,"Ġsuba":11897,"Ġsecnarussa":11898,"riga":11899,"Ã¢r":11900,"Ġnoitacilpmi":11901,"ĠtnemeuqitamÃ©tsys":11902,"rolf":11903,"susÃ©J":11904,"Ã©tinamuh":11905,"ÃīR":11906,"inoloc":11907,"ĠerdnetÃ©d":11908,"netertne":11909,"ĠerbmoN":11910,"ÃĤ":11911,"Ġsesirprus":11912,"Ġsemral":11913,"ĠaidÃ©m":11914,"ĠeuqÃ¨ht":11915,"tnan":11916,"ĠÃ©mina":11917,"ĠeÃ©vel":11918,"ĠAS":11919,"itnelaV":11920,"naP":11921,"!!!!!":11922,"rak":11923,"Ġslos":11924,"Ġsevitrops":11925,"ĠPM":11926,"ĠtneuqÃ©snoc":11927,"Ġsedipar":11928,"idujÃ©rp":11929,"noceS":11930,"Ġsianopaj":11931,"Ġegatroper":11932,"Ġsellietuob":11933,"ecnetsixe":11934,"monogre":11935,"ines":11936,"Ġcir":11937,"ĠseniÃ©torp":11938,"roccar":11939,"Ġeriadnoces":11940,"Ġessac":11941,"Ġelleuxes":11942,"ĠinifÃ©d":11943,"Ġitnesser":11944,"elivic":11945,"ĠetseR":11946,"ĠeilatI":11947,"Ġiarruop":11948,"Ġelas":11949,"ĠÃ©nnoitcelÃ©s":11950,"Ġtnemelleutibah":11951,"stneitap":11952,"Ġeuqitamilc":11953,"Ġ65":11954,"Ġedragevuas":11955,"ĠergÃ¨tni":11956,"eriacnab":11957,"ĠserÃ¨tcarac":11958,"egall":11959,"apmoC":11960,"Ġtnemerbil":11961,"tnaviv":11962,"Ġregirid":11963,"eriorc":11964,"Ġ.âĤ¬":11965,"Ġselocirga":11966,"ĠniF":11967,"Ġnoissessop":11968,"Ġdraillim":11969,"Ġsenredom":11970,"ĠeÃ©gnolp":11971,"otam":11972,"Ġrenemar":11973,"roS":11974,"ceriD":11975,"Ġsit":11976,"illiuqnart":11977,"ĠsellexurB":11978,"ffub":11979,"ĠelagÃ©l":11980,"ecneuqÃ©snoc":11981,"euor":11982,"etunim":11983,"pmyl":11984,"ĠÃ©leppar":11985,"ihcÃ©d":11986,"Ġtnasiffus":11987,"noixelfÃ©r":11988,"ĠfehC":11989,"lliuorb":11990,"Ġpac":11991,"Ġseuqidiruj":11992,"tnadnepec":11993,"nerprus":11994,"ĠÃ©gnoc":11995,"ĠnorcaM":11996,"Ġnoitacifilauq":11997,"Ġsetteliot":11998,"ruennoh":11999,"sehcrehcer":12000,"Ġkcir":12001,"etniaS":12002,"ĠseÃ©nem":12003,"vuort":12004,"noH":12005,"ĠnoitpircseD":12006,"fitc":12007,"exelpmoc":12008,"Ġesid":12009,"itÃ©ppa":12010,"irtammi":12011,"Ġelbadimrof":12012,"ĠengapsE":12013,"hcS":12014,"xuaevin":12015,"Ġsnoiton":12016,"Ġsedut":12017,"Ġtnenneitnoc":12018,"ivÃ©lÃ©t":12019,"Ġelbaif":12020,"lamina":12021,"Ã©nimret":12022,"Ġ,)âĢ¦":12023,"seuqig":12024,"ares":12025,"ĠegarramÃ©d":12026,"Ġesrevni":12027,"elailimaf":12028,"ilÃ©F":12029,"syaP":12030,"Ġsenuaj":12031,"setnas":12032,"ĠeriotrepÃ©r":12033,"tros":12034,"neb":12035,"Ġzedrag":12036,"ĠDC":12037,"tnemetropmoc":12038,"Ġsidarap":12039,"Ġselleutca":12040,"ĠreÃ©rC":12041,"Ġarem":12042,"Ã©sop":12043,"icurc":12044,"Ġetnoh":12045,"umucca":12046,"roD":12047,"engaterB":12048,"crap":12049,"monÃ©rp":12050,"mys":12051,"Ġtnayuppa":12052,"noitisopxe":12053,"Ġsnoisacco":12054,".)!":12055,"coD":12056,"evuos":12057,"ebut":12058,"Ġtnetros":12059,"Ġseludom":12060,"Ġsertil":12061,"ĠtnayA":12062,"pyg":12063,"ivius":12064,"Ġseriadnoces":12065,"Ġleuqud":12066,"Ġeviv":12067,"Ġsiuqer":12068,"Ġetner":12069,"ĠÃ©nruot":12070,"Ã©virra":12071,"Ġeugnitsid":12072,"Ġreis":12073,"ĠsleutnevÃ©":12074,"itcefrep":12075,"snosiar":12076,"ĠerueirÃ©txe":12077,"ĠseÃ©virp":12078,"Ġemsim":12079,"ccav":12080,"ĠsruojÃ©s":12081,"secruosser":12082,"cepsorp":12083,"ecnega":12084,"Ġegnaro":12085,"Ã©tS":12086,"ĠorÃ©z":12087,"elliero":12088,"cM":12089,"nimaxe":12090,"ĠelliesraM":12091,"yT":12092,"ĠsÃ¨rP":12093,"ĠesuopÃ©":12094,"ĠeÃ©ngapmocca":12095,"etÃ»oc":12096,"ĠRU":12097,"esraM":12098,"Ġsleutca":12099,"ĠrerbÃ©lÃ©c":12100,"eirp":12101,"tuaH":12102,"ueD":12103,"Ġsedalam":12104,"nofnoc":12105,"Ġselumrof":12106,"ĠIS":12107,"ĠeudnetÃ©":12108,"Ġtneituos":12109,"zzip":12110,"ĠerÃ¨if":12111,"Ġmarg":12112,"seT":12113,"ĠserÃ¨m":12114,"Ġaressap":12115,"terger":12116,"cÃ©bÃ©uq":12117,"ĠnoitidÃ©pxe":12118,"eniomirtap":12119,"ARG":12120,"epatÃ©":12121,"Ġtnemeniahcorp":12122,"Ġoidua":12123,"ĠuairÃ©tam":12124,"pan":12125,"euqnab":12126,"ĠsuÃ§noc":12127,"Ġelliuqnart":12128,"tness":12129,"Ã©lom":12130,"ĠtnemesueirÃ©s":12131,"rup":12132,"etxetnoc":12133,"Ġnoitauq":12134,"Ġulcnoc":12135,"Ġruegral":12136,"Ġ35":12137,"iloS":12138,"Ġomorp":12139,"noitcnof":12140,"ĠsnarcÃ©":12141,"Ġellab":12142,"isiorc":12143,"Ã©tÃ©irporp":12144,"ĠeuÃ§noc":12145,"erÃ¨icnanif":12146,"idanaC":12147,"ĠstircÃ©":12148,"uatseR":12149,"Ġerutxet":12150,"Ġsmurof":12151,"ĠsÃ©tiart":12152,"Ġrellievrus":12153,"Ġessat":12154,"euqitirc":12155,"9991":12156,"xuac":12157,"ĠaÃ©nila":12158,"RES":12159,"eiab":12160,"Ġnoitulov":12161,"Ġnoitatnemucod":12162,"Ġseussi":12163,"Ġtneiaved":12164,"Ġritnesser":12165,"suosib":12166,"ĠamÃ©hcs":12167,"lava":12168,"nemmoC":12169,"Ġressac":12170,"ĠuaevuoN":12171,"Ġtiarelbmes":12172,"Ġleudividni":12173,"Ġsecafrus":12174,"selgÃ¨r":12175,"Ġtnemessidnorra":12176,"Ġtlua":12177,"ssen":12178,"Ġstacova":12179,"Ġretivni":12180,"oris":12181,"Ã¨lfer":12182,"Ġstnar":12183,"Ġere":12184,"ikiW":12185,"igitserp":12186,"sepuorg":12187,"Ġeriatisrevinu":12188,"Ġedutitla":12189,"Ġsexelpmoc":12190,"Ġrinetnoc":12191,"Ġelueug":12192,"ĠerÃ¨irp":12193,"Ġellenretam":12194,"Ġtiassap":12195,"Ġtnassiga":12196,"ĠnoitarÃ©bil":12197,"Ġelocotorp":12198,"reyasse":12199,"Ġsreitnes":12200,"uemed":12201,"ĠðŁĺī":12202,"Ġettehc":12203,"lievneib":12204,"Ã¨crah":12205,"Ġseriam":12206,"Ġtnedia":12207,"ĠÃ©tidimuh":12208,"Ġurapsid":12209,"neC":12210,"Ġnolat":12211,"senummoc":12212,"iduej":12213,"Ġetrevuoc":12214,"ffiD":12215,"Ã¢ler":12216,"oÃ©n":12217,"Ġaliov":12218,"Ġesruob":12219,"Ġsiadnal":12220,"Ġsemrofetalp":12221,"Ġxueigiler":12222,"Ġka":12223,"Ġstacidnys":12224,"noitulovÃ©":12225,"CC":12226,"sevÃªr":12227,"Ġsares":12228,"siuq":12229,"Ġedrocca":12230,"ilosnoc":12231,"esrevni":12232,"ooB":12233,"Ġrat":12234,"Ã¨mer":12235,"eppaR":12236,"Ã©rF":12237,"ĠÃ©rcas":12238,"ĠsÃ©tilannosrep":12239,"Ġessiarg":12240,"yz":12241,"Ġ,)!":12242,"Ġelleirtsudni":12243,"ĠtnaÃ©g":12244,"itnedisÃ©r":12245,"tnemessitsevni":12246,"ĠpmurT":12247,"ĠeÃ©velÃ©":12248,"Ġsemmarg":12249,"Ġsnoitacidni":12250,"Ġeniazniuq":12251,"egnaro":12252,"irG":12253,"Ġscrap":12254,"Ġemrofni":12255,"ĠxuaedroB":12256,"Ġevilo":12257,"noititÃ©pmoc":12258,"Ġregnar":12259,"aV":12260,"engios":12261,"ĠÃ©ngiluos":12262,"Ġecnanevorp":12263,"Ġsettuog":12264,"ĠsÃ¨rgnoc":12265,"ĠeinÃ©g":12266,"Ġ15":12267,"nammoC":12268,"0991":12269,"ruomuh":12270,"ednI":12271,"curt":12272,"noitavonni":12273,"Ġrilpmocca":12274,"unnocni":12275,"ĠâĢľ":12276,"ĠselrahC":12277,"Ġtnemecalp":12278,"nimid":12279,"tnenne":12280,"ĠecnerÃ©hoc":12281,"stnaruatser":12282,"Ġresirolav":12283,"uoJ":12284,"Ġsnoitasitoc":12285,"leitnesse":12286,"Ġsero":12287,"Ġsetsir":12288,"Ġtneiasiaf":12289,"ĠsinuÃ©r":12290,"elanif":12291,"ĠeÃ©calp":12292,"noS":12293,"droW":12294,"Ġresilibisnes":12295,"selp":12296,"Ġecnannodro":12297,"romer":12298,"ras":12299,"ĠertÃ®an":12300,"Ġeivrus":12301,"Ġecnarffuos":12302,"redrager":12303,"Ġselliat":12304,"79":12305,"irtiam":12306,"erÃ¨itne":12307,"Ġstabmoc":12308,"Ġemirpxe":12309,"Ġsnoitcnas":12310,"dnamella":12311,"ĠzehcaS":12312,"ĠÃ©guj":12313,"ĠnoitarÃ©dÃ©f":12314,"Ġerbif":12315,"Ġucniavnoc":12316,"ĠdnetÃ©":12317,"iffA":12318,"Ġsesahp":12319,"Ġselcsum":12320,"kO":12321,"Ġzehcrehcer":12322,"Ã´hR":12323,".).":12324,"Ġnitsed":12325,"ĠseuqigogadÃ©p":12326,"tsudnI":12327,"snob":12328,"Ġerbmos":12329,"ĠemsinacÃ©m":12330,"ĠegÃ¨torp":12331,"icros":12332,"ĠnaS":12333,"ĠÃ©tilibisnes":12334,"ĠelÃ¨llarap":12335,"ĠÃ©veler":12336,"ĠsÃ©igufÃ©r":12337,"ĠseÃ©rtne":12338,"iuqnic":12339,"ĠedisÃ©r":12340,"ednarg":12341,"Ġsialap":12342,"Ġsebrepus":12343,"Ġsregassap":12344,"+(":12345,"euqificÃ©ps":12346,"ĠnaÃ©co":12347,"ĠzetuojA":12348,"irvÃ©F":12349,"sregnartÃ©":12350,"engiv":12351,"xeT":12352,"Ġsetolip":12353,"Ġlaro":12354,"Ġliop":12355,"htym":12356,"Ġuneter":12357,"ĠÃ©panac":12358,"ĠetraC":12359,"Ġemirc":12360,"pacidnah":12361,"coR":12362,"Ġstuota":12363,"pyh":12364,"ĠsreV":12365,"Ġtobor":12366,"ĠsÃ©mrof":12367,"Ġresrevart":12368,"ĠtinuÃ©r":12369,"TH":12370,"ilaM":12371,"ĠtnannotÃ©":12372,"Ġtnemengiesner":12373,"ohS":12374,"Ġnoitasilacol":12375,"avitse":12376,"Ġloc":12377,"Ġruenerpertne":12378,"Ġemmop":12379,"issecnoc":12380,"Ġerialimis":12381,"Ġtnom":12382,"ĠesilgÃī":12383,"Ġsruevas":12384,"Ġegaruotne":12385,"Ġsnoitasnes":12386,"sengil":12387,"ruetom":12388,"Ġessius":12389,"Ġnoitapucco":12390,"etÃªuqne":12391,"ĠemÃ¨it":12392,"ĠsÃ©titnauq":12393,"argga":12394,"Ġueid":12395,"xam":12396,"Ġaid":12397,"Ġeigrurihc":12398,"lyS":12399,"teL":12400,"namellA":12401,"ĠsruetaÃ©rc":12402,"ipmav":12403,"ĠsemigÃ©r":12404,"stnec":12405,"tÃ®alp":12406,"Ġseiret":12407,"Ġzetuoja":12408,"esicÃ©rp":12409,"niC":12410,"Ġsevitartsinimda":12411,"Ġehcnalp":12412,"ubma":12413,"sÃ©tÃ´c":12414,"Ġecnas":12415,"ĠerÃ¨t":12416,"ĠÃ©tisoiruc":12417,"Ġsenretni":12418,"Ġeilbup":12419,"Ġsnosias":12420,"eix":12421,"Ã©tso":12422,"ebrepus":12423,"ruom":12424,"oiB":12425,"olgna":12426,"Ġtiayov":12427,"stnatropmi":12428,"Ġrepat":12429,"Ġnilc":12430,"enit":12431,"eulosba":12432,"eÃ©rtner":12433,"ĠnhoJ":12434,"tnemertua":12435,"SER":12436,"ovnoc":12437,"Ġsnit":12438,"Ġnoitatpecca":12439,"Ġsnoret":12440,"Ġreibmolp":12441,"ĠÃ©ripsni":12442,"ĠÃ©tupÃ©d":12443,"ortnoc":12444,"Ġsruetacidni":12445,"OB":12446,"ĠetubÃ©d":12447,"Ġnoitcurtsni":12448,"ilpÃ©r":12449,"Ġimenne":12450,"ols":12451,"etrevuocÃ©d":12452,"Ġ66":12453,"Ġned":12454,"stgiod":12455,"Ġnotrac":12456,"ucÃ©v":12457,"ĠnoitacifirÃ©v":12458,"pu":12459,"Ġtnenitnoc":12460,"yaM":12461,"sehcro":12462,"Ġsam":12463,"ĠstnemetrapÃ©d":12464,"Ġsesarhp":12465,"Ġtemer":12466,"nori":12467,"oÃ©di":12468,"eliuh":12469,"Ġtiadnetta":12470,"Ġsarruop":12471,"rennod":12472,"ĠetaidÃ©mmi":12473,"29":12474,"Ġseuqitamrofni":12475,"euqitÃ©grenÃ©":12476,"ĠÃ©ubirtnoc":12477,"irpmoc":12478,"25":12479,"uaetab":12480,"Ġesiorc":12481,"evuoP":12482,"Ġruetadnof":12483,"Ã¨rG":12484,"ĠVC":12485,"Ġeniar":12486,"osrep":12487,"secnassiannoc":12488,"ĠediA":12489,"ĠÃ©sufer":12490,"Ġetiusruop":12491,"ahciM":12492,"Ġ95":12493,"elosne":12494,"ĠxuacidÃ©m":12495,"ĠserdnoL":12496,"emsil":12497,"tnemesuerueH":12498,"Ġstid":12499,"euqihtapmys":12500,"ruelliem":12501,"negilletni":12502,"setÃªf":12503,"ĠÃ©suffid":12504,"Ġtnarussa":12505,"Ġnoisrevnoc":12506,"serdnoL":12507,"Ġnoitaro":12508,"nut":12509,"ĠsruetcelÃ©":12510,"Ġertnocne":12511,"iccO":12512,"srinevuos":12513,"ovne":12514,"ĠeuqleuQ":12515,"ĠtnemelbatirÃ©v":12516,"fc":12517,"Ġetiurtsnoc":12518,"bup":12519,"Ġillieucca":12520,"seuqram":12521,"ĠsÃ©gagne":12522,"ĠÃ¯":12523,"eerF":12524,"Ġnoitasita":12525,"stnemucod":12526,"-.":12527,"Ġmuinimula":12528,"etÃ©d":12529,"UP":12530,"45":12531,"etÃªnnoh":12532,"Ã´n":12533,"nw":12534,"zevuop":12535,"ĠetnadnepÃ©dni":12536,"ted":12537,"nitnoC":12538,"Ġevresnoc":12539,"Ġessuaf":12540,"senÃ¨":12541,"rettiwT":12542,"Ġnoisivid":12543,"Ġsnolliavart":12544,"setrec":12545,"Ġstat":12546,"ĠsÃ©bÃ©b":12547,"Ġnongapmoc":12548,"Ġsnorivne":12549,"ĠSNAD":12550,"snoissim":12551,"tnecca":12552,"xedni":12553,"pÃ©r":12554,"ĠeimÃ©dacA":12555,"ĠseÃ©cnava":12556,"ioS":12557,"Ġseia":12558,"ĠtÃ®annocer":12559,"Ġelbacilppa":12560,"Ġnisiov":12561,"tejbo":12562,"sellennoisseforp":12563,"Ġeueuq":12564,"Ġstub":12565,"Ġsy":12566,"Ġelbapacni":12567,"inmo":12568,"nup":12569,"ĠeriurtÃ©d":12570,"erC":12571,"Ġerianidro":12572,"enieS":12573,"uaedac":12574,"ĠÃ©ifilauq":12575,"Ġreicossa":12576,"iaP":12577,"Ġsiloj":12578,"elÃ¨tneilc":12579,"Ġstiartxe":12580,"Ġrero":12581,"Ġseuqramer":12582,"rebmot":12583,"dnec":12584,"Ġnoclab":12585,"Ġruetcurtsnoc":12586,"sfitca":12587,"narretidÃ©M":12588,"Ġym":12589,"sreicnanif":12590,"ĠÃ©lÃ©vÃ©r":12591,"seriatnemila":12592,"ĠnotÃ©b":12593,"eurc":12594,"ĠtinifÃ©d":12595,"ĠeÃ©xif":12596,"ĠzessiaL":12597,"ĠeÃ©ngiop":12598,"orÃ©mun":12599,"semra":12600,"cilbupÃ©r":12601,"Ġsednab":12602,"uoca":12603,"sÃ©lc":12604,"Ġsnodnammocer":12605,"ĠengrapÃ©":12606,"nofne":12607,"hpÃ©tS":12608,"hh":12609,"eigolonhcet":12610,"sepiuqÃ©":12611,"Ġtuoja":12612,"Ġtnemeriotagilbo":12613,"ĠerutÃ´lc":12614,"ĠeÃ©gagne":12615,"ULP":12616,"noitag":12617,"ecnaÃ©s":12618,"elP":12619,"egaffuahc":12620,"15":12621,"Ġesnetni":12622,"Ġedutitrec":12623,"Ġelamron":12624,"ĠÃ©tÃ´C":12625,"iojer":12626,"Ġdla":12627,"89":12628,"led":12629,"servÃ¨l":12630,"Ġtnerap":12631,"ednoces":12632,"ĠtnemeiolpÃ©d":12633,"ĠÃīT":12634,"rueluod":12635,"egarvuo":12636,"ĠeÃ©vresÃ©r":12637,"Ġlebal":12638,"Ġrengiluos":12639,"ĠtnemÃ©mrofnoC":12640,"Ġsnamlusum":12641,"ilÃ©mA":12642,"Ġ86":12643,"Ã©ticaciffe":12644,"Ġnollab":12645,"Ġtnemetnesnoc":12646,"Ġecnailla":12647,"Ġnoitpecrep":12648,"cepsni":12649,"ĠaT":12650,"nisiov":12651,"ĠsÃ©sinagro":12652,"Ã¨hca":12653,"ĠsetÃªt":12654,"Ġzeif":12655,"bmac":12656,"dE":12657,")=":12658,"ĠegÃ¨":12659,"Ġetircsni":12660,"emÃ¨ht":12661,"CO":12662,"egilgÃ©n":12663,"tnemevitceffE":12664,"Ġzeyasse":12665,"adnos":12666,"Ġruetehca":12667,"Ġetroppar":12668,"ĠengÃ¨r":12669,"ĠsivA":12670,"lapicnirp":12671,"ĠetÃ®g":12672,"sofni":12673,"Ġsnonev":12674,"ĠengisÃ©d":12675,"rerap":12676,"Ġstnemenrevuog":12677,"ĠeuqihpargoÃ©g":12678,"eÃ©cyl":12679,"inimÃ©f":12680,"ĠsertÃ®am":12681,"ĠesÃ¨htopyh":12682,"Ġsnosilitu":12683,"nosia":12684,"etned":12685,"ĠtroF":12686,"ĠnoinuÃ©R":12687,"niatrec":12688,"sut":12689,"Ġrats":12690,"ĠsÃ¨rgnoC":12691,"erutirruon":12692,"ĠzesilitU":12693,"etsitra":12694,"Ġsnorruop":12695,"leppar":12696,"vaS":12697,"Ġyn":12698,"Ġtiatrop":12699,"Ġtiarduov":12700,"hportsatac":12701,"Ã´rt":12702,"Ġemrofsnart":12703,"ĠrerÃ©lÃ©cca":12704,"eirÃ©tnI":12705,"Ġnoitcif":12706,"moP":12707,"Ã©pO":12708,"eimonotua":12709,"Ġserialpmexe":12710,"Ġruetcudorp":12711,"taw":12712,"ĠstnedisÃ©r":12713,"ĠeuqitarcomÃ©d":12714,"ĠhaB":12715,"Ġsnoisulcnoc":12716,"ĠnialA":12717,"Ġelleutcelletni":12718,"setrac":12719,"Ġseunet":12720,"ĠnoitcetorP":12721,"Ġesuemaf":12722,"ĠelocE":12723,"iuojÃ©r":12724,"Ã¨livirp":12725,"AA":12726,"illeptnoM":12727,"rcul":12728,"tnemetiutarg":12729,"ĠelbÃ¢c":12730,"ÃīT":12731,"Ġsruevres":12732,"mmoC":12733,"Ġ081":12734,"euqigam":12735,"ÌĤ":12736,"ĠecremmoC":12737,"Ġresilannosrep":12738,"Ġeniam":12739,"lacse":12740,"sneÃ©porue":12741,"Ġtressed":12742,"Ġxuenimul":12743,"Ġniom":12744,"oY":12745,"ĠsÃ©ngapmocca":12746,"Ġegixe":12747,"Ġstnet":12748,"stnangiesne":12749,"ĠseuqinortcelÃ©":12750,"ilanruoj":12751,"Ġuaer":12752,"ruh":12753,"tnedicca":12754,"moT":12755,"Ġstnemunom":12756,"Ġeuqovorp":12757,"snoitulos":12758,"Ġteluop":12759,"Ġunetuos":12760,"seigolonhcet":12761,"Ġzeret":12762,"ĠÃ©puoc":12763,"Ġtnemennoitats":12764,"ĠÃ©igÃ©livirp":12765,"Ġtatibah":12766,"itxet":12767,"puS":12768,"Ġiroirp":12769,"dnetÃ©d":12770,"ĠSEC":12771,"kcor":12772,"ĠÃ©calpmer":12773,"okraS":12774,"ĠlanubirT":12775,"revuO":12776,"Ġseriannoitcnof":12777,"lieo":12778,"Ġsolik":12779,"Ġxuaetab":12780,"Ġenimativ":12781,"etuaH":12782,"Ġtnatuoja":12783,"ecnarf":12784,"Ã©tcarac":12785,"iapa":12786,"siort":12787,"Ġediorf":12788,"Ġorcim":12789,"Ġ26":12790,"Ġsesidnahcram":12791,"ĠseÃ©utceffe":12792,"seivne":12793,"Ġtisiohc":12794,"Ġegilbo":12795,"Ġsros":12796,"Ġtnemugra":12797,"dn":12798,"Ġreifnoc":12799,"Ġsetuah":12800,"Ġtnenamrep":12801,"elatipac":12802,"Ġelbannosiar":12803,"Ġyk":12804,"Ġelacisum":12805,"seL":12806,"Ġyen":12807,"tnemellennosreP":12808,"lainÃ©g":12809,"enohp":12810,"Ġstiucric":12811,"uav":12812,"Ġegnellahc":12813,"Ġtnanruot":12814,"eissuÃ©r":12815,"tialp":12816,"Ġtnordneiv":12817,"Ġleim":12818,"ĠeuqinohpÃ©lÃ©t":12819,"liame":12820,"icitraP":12821,"erreip":12822,"noitacif":12823,"rpretni":12824,"ilE":12825,"ĠsÃ©velÃ©":12826,"ĠuocuoC":12827,"uafÃ©d":12828,"iru":12829,"Ġretropme":12830,"Ġelbuort":12831,"erdnetne":12832,"ĠetnedÃ©cÃ©rp":12833,"Ġetilicaf":12834,"Ġrim":12835,"ĠÃ©nnoissap":12836,"neyoM":12837,"srisiol":12838,"Ġeriatacol":12839,"Ġretiolpxe":12840,"rucxe":12841,"rÃ©nim":12842,"Ġnoitanimon":12843,"elibomotua":12844,"amar":12845,"Ġesimuos":12846,"Ġ85":12847,"ĠegammoD":12848,"tneiv":12849,"ĠtnemmeuqÃ©rf":12850,"ĠsÃ¨ccA":12851,"srohed":12852,"Ġsenagro":12853,"ĠÃ©tisiv":12854,"NAM":12855,"Ġsemit":12856,"epuoc":12857,"iesnE":12858,"aripser":12859,"Ġyel":12860,"segassem":12861,"ĠsÃ©trebil":12862,"ĠticifÃ©d":12863,"Ġ3002":12864,"egats":12865,"esion":12866,"Ġnoitapic":12867,"ĠerviL":12868,"Ġevresbo":12869,"iarÃ©ttil":12870,"tnemmediv":12871,"ruobmexuL":12872,"Ġrenemme":12873,"Ã©llim":12874,"elbas":12875,"slituo":12876,"erion":12877,"Ġseuqigolonhcet":12878,"ĠsruoC":12879,"pmexE":12880,"epyt":12881,"Ġnoz":12882,"idÃ©mer":12883,"Ã®arfar":12884,"Ġreiss":12885,"yaB":12886,"Ġ2002":12887,"Ġtneuqnam":12888,"emah":12889,"rueirÃ©pus":12890,"Ġ:)":12891,"epicnirp":12892,"Ġsis":12893,"Ġlacsif":12894,"ouq":12895,"ĠegannapÃ©d":12896,"ĠsÃ©llatsni":12897,"46":12898,"Ġ75":12899,"rolF":12900,"sruetammosnoc":12901,"ĠelÃ´p":12902,"Ġstnargim":12903,"ratS":12904,"ilaC":12905,"Ġxuanruoj":12906,"Ġeriatnolov":12907,"Ġnossiob":12908,"ĠeulovÃ©":12909,"ĠecnadnepÃ©d":12910,"stÃ´":12911,"ifiton":12912,"sopxe":12913,"Ġselyts":12914,"Ġerulcnoc":12915,"laidnom":12916,"enuaj":12917,"tiat":12918,"euqidni":12919,"Ã©rceS":12920,"mog":12921,"oÃ©hcra":12922,"axe":12923,"tiava":12924,"Ġrehcorppar":12925,"rots":12926,"Ġednor":12927,"ecnelis":12928,"Ġtnacirbaf":12929,"odA":12930,"uoF":12931,"Ġ--":12932,"Ġzevuorter":12933,"sÃ©ss":12934,"siB":12935,"Ġedalas":12936,"laÃ©di":12937,"isserga":12938,"ĠemaD":12939,"Ġsnoyov":12940,"Ã©rcsid":12941,"ĠselleutnevÃ©":12942,"isbus":12943,"Ġdn":12944,"EUQ":12945,"ĠsÃ©rged":12946,"Ġneicinhcet":12947,"tÃ©ip":12948,"inI":12949,"Ġenul":12950,"ahS":12951,"ĠregidÃ©r":12952,"dnoba":12953,"Ġesiahc":12954,"27":12955,"ĠID":12956,"ercnoc":12957,"Ġecnatsni":12958,"Ġedroc":12959,"Ġneim":12960,"sip":12961,"Ġscnarf":12962,"Ġtoof":12963,"Ġtnesil":12964,"Ġtnesser":12965,"ĠÃ©rrac":12966,"Ġelbuem":12967,"Ġnoipmahc":12968,"ĠerutluC":12969,"tnemegagne":12970,"PR":12971,"lacidÃ©m":12972,"Ġstruoc":12973,"ĠsesÃ¨ht":12974,"isuf":12975,"Ġsuort":12976,"rotcod":12977,"ĠsÃ©rÃ©disnoc":12978,"Ġeuqidul":12979,"Ġrueg":12980,"isiov":12981,"ĠÃ©tiunitnoc":12982,"Ġsnoitcasnart":12983,"Ġruetav":12984,"Ã®ahcne":12985,"ĠâĨĲ":12986,"ĠnoitanimretÃ©d":12987,"Ġsemia":12988,"luM":12989,"Ġram":12990,"Ġzetnes":12991,"Ġudnet":12992,"Ġemonotua":12993,"snor":12994,"napxe":12995,"bahpla":12996,"irroh":12997,"roproc":12998,"itamuart":12999,"ĠsrueinÃ©gni":13000,"Ġsuv":13001,"naluob":13002,"cassam":13003,"tib":13004,"Ġretropsnart":13005,"ĠtnemelaÃ©di":13006,"ĠspmeT":13007,"Ã©silitu":13008,"iaffa":13009,"elaicremmoc":13010,"yht":13011,"8991":13012,"Ã©psesÃ©d":13013,"Ġrerts":13014,"Ġecneitapmi":13015,"emic":13016,"miaf":13017,"emsila":13018,"ĠsitrapÃ©r":13019,"sruetua":13020,"etiafrap":13021,"Ġxuatnemadnof":13022,"retehca":13023,"uoder":13024,"seni":13025,"Ġeppolevne":13026,"iomra":13027,"esoJ":13028,"tnenitnoc":13029,"ĠerdrO":13030,"tnemesueruehlam":13031,"nortsa":13032,"ĠnoitarapÃ©s":13033,"roL":13034,"ĠtnecÃ©r":13035,"Ġnoitacifinalp":13036,"gA":13037,"Ġsepuort":13038,"eiuqruT":13039,"ĠrertnomÃ©d":13040,"isiV":13041,"ĠnoitaicogÃ©n":13042,"ĠliavarT":13043,"Ġerram":13044,"ĠerdnetÃ©":13045,"ĠemÃ¨iuqnic":13046,"Ġseriatnolov":13047,"ĠeniraM":13048,"isneffo":13049,"mam":13050,"ĠelagÃ©":13051,"eriatnemÃ©lppus":13052,"ĠÃ©tropmer":13053,"Ġstnatsni":13054,"Ġseud":13055,"ĠtnemelgÃ¨R":13056,"necseloda":13057,"Ġeniahc":13058,"noitatibah":13059,"emsinagro":13060,"Ã©mia":13061,"Ġsinruof":13062,"ĠeugÃ¨lloc":13063,"edalam":13064,"Ġsruednamed":13065,"Ġtuota":13066,"idiorfer":13067,"Ġrecrof":13068,"EF":13069,"Ġsinrev":13070,"slerutan":13071,"ĠnoitseuQ":13072,"irova":13073,"Ġ053":13074,"Ġ041":13075,"seuqirtcelÃ©":13076,"sertÃª":13077,"iucsib":13078,"ĠtnetissecÃ©n":13079,"bar":13080,"pmat":13081,"Ġecnedurp":13082,"ĠtnemÃ©rrac":13083,"Ġsunet":13084,"Ġslerutluc":13085,"Ġuaesio":13086,"ĠtrevuO":13087,"ĠtnemeganÃ©mÃ©d":13088,"elamron":13089,"naR":13090,"ĠnoitacoL":13091,"xueregnad":13092,"ihS":13093,"ingid":13094,"nedi":13095,"ituec":13096,"setrop":13097,"ecnatropmi":13098,"ee":13099,"ĠAM":13100,"iorap":13101,"Ġreff":13102,"Ġstnaviv":13103,"Ġsnamor":13104,"Ġuoj":13105,"Ġtnalov":13106,"ĠlagÃ©":13107,"tnemetcerroc":13108,"ubacov":13109,"Åĵv":13110,"euqitsitra":13111,"moloC":13112,"ĠÃ©gnam":13113,"Ġresopxe":13114,"emag":13115,"mrofnI":13116,"noisnet":13117,"etnedÃ©cÃ©rp":13118,"etnerÃ©ffid":13119,"Ġsteuoj":13120,"reicnanif":13121,"idrat":13122,"ĠÃ©y":13123,"Ġsruetasinagro":13124,"elbatrop":13125,"Ġtnennoitcnof":13126,"Ã©uqinummoc":13127,"ĠselÃ¨dif":13128,"eriatilim":13129,"row":13130,"Ġhcaoc":13131,"ĠÃ©sser":13132,"Ġtnemevitca":13133,"ibor":13134,"Ġtnemerup":13135,"egruob":13136,"resila":13137,"rdnopÃ©r":13138,"baG":13139,"Ġecrexe":13140,"ĠÃ©losÃ©D":13141,"CS":13142,"leR":13143,"ĠdranreB":13144,"aborp":13145,"Ġessemorp":13146,"Ġenib":13147,"eyap":13148,"Ġelosnoc":13149,"edir":13150,"ĠertÃ®arapsid":13151,"eugolb":13152,"ĠuaetÃ¢hC":13153,"Ġlangis":13154,"FT":13155,"Ġeilof":13156,"Ġsolc":13157,"oow":13158,"Ġdnekeew":13159,"Ġserdro":13160,"ellieucca":13161,"reilbuo":13162,"sedno":13163,"Ã®ba":13164,"ĠeliotÃ©":13165,"Ġtnaluor":13166,"ueiruc":13167,"Ġsnoref":13168,"Ġfissam":13169,"Ġliuetuaf":13170,"idÃ©rp":13171,"lennoitpecxe":13172,"Ġ76":13173,"Ġstnass":13174,"Ġettelap":13175,"mota":13176,"Ġeiof":13177,"Ġ>=":13178,"pirg":13179,"Ġseriacnab":13180,"ĠÃ©tilibissecca":13181,"Ġsivar":13182,"Ġenuaf":13183,"ĠetxetÃ©rp":13184,"nielp":13185,"ĠnitraM":13186,"rucÃ©r":13187,"26":13188,"ĠÃ©uqnam":13189,"Ġnoitacifitrec":13190,"Ġeriaropmet":13191,"Ġrihcirne":13192,"Ġetnep":13193,"nisÃ©d":13194,"Ġenias":13195,"leD":13196,"recnal":13197,"Ġulos":13198,"Ġseihpargotohp":13199,"ecnaibma":13200,"Ġegleb":13201,"ĠstuafÃ©d":13202,"idommoc":13203,"ĠtsirhC":13204,"evuorter":13205,"tsa":13206,"ĠÃ©tubÃ©d":13207,"Ġsediug":13208,"Ã¯am":13209,"tuaF":13210,"Ġstnacirbaf":13211,"ĠÃ©tixelpmoc":13212,"setnalp":13213,"Ã©dis":13214,"seig":13215,"Ġsruetanidro":13216,"siM":13217,"Ġtnanno":13218,"elÃ´r":13219,"olroh":13220,"ĠehcÃ¨s":13221,"myg":13222,"ĠOC":13223,"Ġlatnem":13224,"ĠsÃ©nnoitcelÃ©s":13225,"ĠÃ©ssec":13226,"39":13227,"ecnerrucnoc":13228,"elliuqnart":13229,"iuonapÃ©":13230,"sÃ¨corp":13231,"imuL":13232,"Ġsneicisum":13233,"Ã©nÃ©B":13234,"ĠÃ©tilat":13235,"Ġrelevuoner":13236,"ĠsÃ©lla":13237,"Ã©tinret":13238,"icius":13239,"evitc":13240,"Ġtnemerdacne":13241,"engag":13242,"ĠtreboR":13243,"Ã©rpmi":13244,"sÃ©c":13245,"ruecuod":13246,"35":13247,"eirÃ©tsinim":13248,"Ġforp":13249,"hport":13250,"exul":13251,"ĠnoitartsinimdA":13252,"Ġsleiciffo":13253,"rialcÃ©":13254,"Ġ77":13255,"stehcÃ©d":13256,"ĠrD":13257,"Ġ,)...":13258,"Ã©lla":13259,"utroP":13260,"Ġebreh":13261,"Ġeuqigolonhcet":13262,"ĠnoitnevnoC":13263,"Ġuq":13264,"Ġsnoitcudorp":13265,"Ã©tnolov":13266,"semmos":13267,"ennoisseforP":13268,"ĠsÃ©piuqÃ©":13269,"zella":13270,"ĠUO":13271,"uolaj":13272,"egav":13273,"AG":13274,"Ġdnev":13275,"itroS":13276,"NOS":13277,"Ġ)Â»":13278,"ĠsetÃ®ob":13279,"itpab":13280,"ĠeÃ©tuoja":13281,"ennoC":13282,"igir":13283,"Ġsuof":13284,"erutluC":13285,"Ġserutcaf":13286,"ĠtnemetrapÃ©D":13287,"orG":13288,"ĠertÃ®aM":13289,"erioL":13290,"Ġsnoitseggus":13291,"Ġzerevuorter":13292,"Ã©tluciffid":13293,"Ġrin":13294,"Ġsruejam":13295,"Ġtialrap":13296,"Ġtnanetrappa":13297,"ÂŃÂŃ":13298,"evan":13299,"rivres":13300,"Ġecirtcerid":13301,"Ġserbif":13302,"Ġsnoitatic":13303,"Ã©tiliba":13304,"ĠÃ©uqovÃ©":13305,"elliesraM":13306,"ĠserÃ¨inam":13307,"igilÃ©":13308,"Ġsfitc":13309,"setpmoc":13310,"de":13311,"ivor":13312,"Ġstrev":13313,"Ġerutinruof":13314,"ĠÃ©mus":13315,"ecnerÃ©fÃ©r":13316,"fitisop":13317,"yarffe":13318,"siofraP":13319,"Ġitnes":13320,"Ġuaetuoc":13321,"Ġeuqigoloib":13322,"ecraB":13323,"rr":13324,"ecnamrofrep":13325,"ecneloiv":13326,"sÃ©hcram":13327,"Ġsetuaf":13328,"ĠsÃ©grahc":13329,"ĠrueinÃ©gni":13330,"Ã©ryP":13331,"icnarF":13332,"pmylo":13333,"Ġepmal":13334,"Ġemsaisuohtne":13335,"Ġnoitroporp":13336,"ednor":13337,"Ġserutuf":13338,"edutitla":13339,"nabac":13340,"ertS":13341,"Ġtnemegrahc":13342,"seuqifitneics":13343,"etsila":13344,"Ġxiorc":13345,"Ġelbatpmoc":13346,"Ġtnatrap":13347,"erircsni":13348,"serbra":13349,"ĠertÃ¢Ã©hT":13350,"serialuc":13351,"Ġlli":13352,"esnefÃ©d":13353,"Ġtnangiesne":13354,"Ã©rcus":13355,"secalp":13356,"ehcar":13357,"tnam":13358,"ĠsrueL":13359,"ekc":13360,"ĠsÃ©hcilc":13361,"Ġelcuob":13362,"Ġtnemelbisiv":13363,"Ġstnahc":13364,"erialupop":13365,"Ġerva":13366,"ĠrerÃ©per":13367,"ĠeivnE":13368,"ĠeÃ©llatsni":13369,"ĠrerÃ©va":13370,"ĠeuR":13371,"cifitsuj":13372,"ĠÃ©ug":13373,"Ġenobrac":13374,"ĠnoitarÃ©disnoc":13375,"Ġseuqisum":13376,"ĠreivilO":13377,"Ġnoitatrecnoc":13378,"eduahc":13379,"LL":13380,"uTuoY":13381,"Ġsenohp":13382,"everb":13383,"Ġtniojnoc":13384,"onhceT":13385,"sli":13386,"Ġrerut":13387,"rehcrehc":13388,"ginÃ©":13389,"Ġregorretni":13390,"narretidÃ©m":13391,"latipÃ´h":13392,"celE":13393,"lupmi":13394,"Ġerres":13395,"ĠsesicÃ©rp":13396,"ĠstÃªrof":13397,"mortcelÃ©":13398,"Ġelleitrap":13399,"snocric":13400,"Ġsnoisses":13401,"Ġsedica":13402,"Ġnoitadnof":13403,"issimda":13404,"MOC":13405,"Ġfitceffe":13406,"apicinuM":13407,"Ġreifir":13408,"Ã©roc":13409,"noitanitsed":13410,"Ġsreilibommi":13411,"Ġeniah":13412,"nalc":13413,"ertÃªnef":13414,"Ġulp":13415,"ĠÃ©uqirbaf":13416,"Ġnoisnepsus":13417,"Ġ031":13418,"Ġrelunna":13419,"Ġnoitang":13420,"terces":13421,"ediug":13422,"ĠetiudÃ©r":13423,"Ġeriossecca":13424,"aga":13425,"Ġeisias":13426,"ĠeirÃ©glA":13427,"Ġsmubla":13428,"ĠÃ©tiso":13429,"Ġeuqitnedi":13430,"Ġeriannoitseuq":13431,"dnetÃ©rp":13432,"noitarÃ©nÃ©g":13433,"euqitsalp":13434,"rC":13435,"OD":13436,"Ġelbats":13437,"Ġtnetnes":13438,"Ġnosiail":13439,"Ġenipoc":13440,"strepxe":13441,"Ã©tta":13442,"Ġserusselb":13443,"oluc":13444,"etnetÃ©d":13445,"Ġrennodnaba":13446,"ubor":13447,"Ġsnoitavonni":13448,"euqir":13449,"ooF":13450,"Ġseuqinu":13451,"PP":13452,"Ġnoisolpxe":13453,"elffuos":13454,"Ġstnellecxe":13455,"Ġnoitasitoc":13456,"ĠeÃ©if":13457,"monocE":13458,"ĠreilugÃ©r":13459,"Ġniabru":13460,"rttem":13461,"uaevrec":13462,"zessial":13463,"ellieM":13464,"leiciffo":13465,"tiu":13466,"itnel":13467,"Ġelbairav":13468,"sruetca":13469,"ĠinuÃ©r":13470,"ĠxueiM":13471,"noitatiolpxe":13472,"Ġlen":13473,"elbasnepsidni":13474,"noitpecxe":13475,"Ġsruetrop":13476,"ĠtnemeffuahcÃ©r":13477,"evilo":13478,"ĠENI":13479,"simorp":13480,"semitciv":13481,"Ġtnatad":13482,"ĠselcÃ¨is":13483,"Ġyalp":13484,"ĠnoitarÃ©":13485,"Ġednema":13486,"noitarapÃ©rp":13487,"serffihc":13488,"brutrep":13489,"Ġtacidnys":13490,"Ġsecanem":13491,"Ġrueugir":13492,"Ġnoitalupinam":13493,"iugÃ©d":13494,"caF":13495,"Ġnoitargimmi":13496,"stnemÃ©lÃ©":13497,"âĢ¢":13498,"Ġsetius":13499,"elne":13500,"ĠeroilÃ©ma":13501,"zt":13502,"irF":13503,"Ġeuqif":13504,"seÃ©hc":13505,"regÃ©l":13506,"ĠenummoC":13507,"Ġertia":13508,"Ġiarid":13509,"Ġtnasopsid":13510,"seuqihparg":13511,"uohcÃ©":13512,"soppo":13513,"Ġsruenim":13514,"Ġruepav":13515,"liforp":13516,"nissassa":13517,"sneil":13518,"hcorppar":13519,"ilimuh":13520,"serg":13521,"Ġtnahcrehc":13522,"ituecamrahp":13523,"004":13524,"cnitsid":13525,"euqitamilc":13526,"Ġ061":13527,"Ġstpecnoc":13528,"Ġtnemennoitisop":13529,"enirt":13530,"ĠertÃ®orcca":13531,"riC":13532,"dnerÃ©fÃ©r":13533,"ĠerÃ¨tirc":13534,"Ġ.)âĢ¦":13535,"isÃ©dni":13536,"secremmoc":13537,"ĠsemrofÃ©r":13538,"fdp":13539,"niw":13540,"Ġnoitatsetta":13541,"seliciffid":13542,"sruelav":13543,"setuot":13544,"Ġriorim":13545,"Ġsteuq":13546,"ĠenneÃ©poruE":13547,"ucoD":13548,"ipsag":13549,"erus":13550,"esÃ¨ht":13551,"roccA":13552,"Ã©tnaS":13553,"onpyh":13554,"rehcuoc":13555,"âĢĶ":13556,"Ġsuenp":13557,"ĠÃ©tivit":13558,"elbar":13559,"Ġenretxe":13560,"Ġ36":13561,"sirt":13562,"Ġyz":13563,"ĠertE":13564,"Ġteverb":13565,"mora":13566,"otno":13567,"nin":13568,"Ġsruetav":13569,"Ġtal":13570,"opa":13571,"eilbatÃ©":13572,"Ġtnemednarg":13573,"tnemengiesne":13574,"uorrev":13575,"ĠuaesÃ©R":13576,"stnemengiesner":13577,"sruetaroballoc":13578,"Ġtnerussa":13579,"unev":13580,"Ġesueruoma":13581,"ĠniomÃ©t":13582,"ĠecnedisÃ©rp":13583,"ges":13584,"Ġleit":13585,"rona":13586,"Ġritraper":13587,"Ġexenna":13588,"irbyh":13589,"ĠSNOIT":13590,"Ã©tisrevid":13591,"Ġegirid":13592,"uz":13593,"acic":13594,"oilbiB":13595,"tsirhC":13596,"cerg":13597,"Ġtnegatrap":13598,"ohprom":13599,"Ġzevecer":13600,"XX":13601,"Ġeiab":13602,"elanigiro":13603,"Ġsliop":13604,"Ġkca":13605,"lucer":13606,"Ġnoitamitse":13607,"coc":13608,"adua":13609,"lf":13610,"ĠreralcÃ©d":13611,"arappa":13612,"Ġeniram":13613,"ĠedaÃ§af":13614,"ilas":13615,"Ġsemirc":13616,"Ġecnanrevuog":13617,"iciffe":13618,"ĠetuaH":13619,"ĠÃ©lliatÃ©d":13620,"serder":13621,"ĠERI":13622,"ocÃ©rp":13623,"Ġnoitaitini":13624,"etua":13625,"emhtyr":13626,"Ġsimenne":13627,"ivorref":13628,"Ġsellennoit":13629,"Ã¨lla":13630,"Ġstnemeiap":13631,"Ġregaluos":13632,"ĠtnorF":13633,"ĠÃ©tidipar":13634,"Ġelamitpo":13635,"seugÃ¨lloc":13636,"Ġselleudividni":13637,"Ġetcetihcra":13638,"ĠstnaÃ§remmoc":13639,"liÅĵ":13640,"Ã¨rb":13641,"ĠsnoitapuccoÃ©rp":13642,"ĠemusÃ©r":13643,"ĠstnemelgÃ¨r":13644,"thg":13645,"ĠÃ©tilannoitcnof":13646,"ĠetnedisÃ©rp":13647,"siL":13648,"ĠtfosorciM":13649,"ecalg":13650,"selanoitanretni":13651,"ĠzeitÃ©":13652,"ingoc":13653,"eÃ©ssap":13654,"ĠsniomÃ©t":13655,"...\"":13656,"36":13657,"lavehc":13658,"Ġeniabru":13659,"Ġtnangag":13660,"Ġcipot":13661,"Ġetreffo":13662,"ĠeisA":13663,"Ġedrat":13664,"ĠEMP":13665,"ĠnoitcA":13666,"ĠsnoitamrofnI":13667,"rutcetihcra":13668,"RD":13669,"ĠÃ©si":13670,"ocirt":13671,"Ġsiayorc":13672,"ĠegnarÃ©d":13673,"selat":13674,"Ġresilausiv":13675,"ĠÂ«(":13676,"seniamod":13677,"ĠÃ©tilibaif":13678,"Ġerialp":13679,"Ġeriudart":13680,"ĠetneV":13681,"ruetal":13682,"revuorter":13683,"ĠnoÃ§el":13684,"Ġelip":13685,"iudorper":13686,"accep":13687,"ĠÃ©gidÃ©r":13688,"ĠTNE":13689,"slennosrep":13690,"irah":13691,"ĠeÃ©utiS":13692,"seugnal":13693,"dnerppa":13694,"rosÃ©D":13695,"irue":13696,"ĠeÃ©tser":13697,"erdnerppa":13698,"ĠnoitartsnomÃ©d":13699,"Ġetnahc":13700,"Ġruerroh":13701,"ipmE":13702,"Ġerul":13703,"ĠÃ©tilanigiro":13704,"nÃ©":13705,"eliot":13706,"do":13707,"ĠserÃ¨ilucitrap":13708,"ĠsetnasserÃ©tni":13709,"dl":13710,"ĠsÃ©tilaicÃ©ps":13711,"ĠÃ©drocca":13712,"Ġreugnitsid":13713,"Ġstnatilim":13714,"Ġsunem":13715,"dnarG":13716,"ĠÃ©girid":13717,"Ã©tivitaÃ©rc":13718,"Ġehcas":13719,"teiV":13720,"Ġstirpse":13721,"zevircsnI":13722,"dnauq":13723,"Ġsfitisop":13724,"ipyt":13725,"etnasserÃ©tni":13726,"ĠertauQ":13727,"xuaedroB":13728,"inimoD":13729,"fitcelloc":13730,"xeM":13731,"ĠÃ©ifnoc":13732,"caL":13733,"sesiaÃ§narf":13734,"ĠsegÃ¨is":13735,"gi":13736,"ipse":13737,"Ġsiuq":13738,"ĠÃ©sirucÃ©s":13739,"ĠetnaidutÃ©":13740,"oseB":13741,"setsil":13742,"ota":13743,"ĠÃ©tiC":13744,"ehcoR":13745,"ĠÃ©ru":13746,"sreV":13747,"Ġrennoder":13748,"ĠeuveR":13749,"stejbo":13750,"tif":13751,"oroÃ©tÃ©m":13752,"ĠsnoÃ§el":13753,"inuÃ©R":13754,"ssuoc":13755,"ruoccar":13756,"ĠuÃ§Ã©d":13757,"ertoN":13758,"idoM":13759,"ĠredÃ©ssop":13760,"inar":13761,"Ġreivalc":13762,"97":13763,"ĠsetnecÃ©r":13764,"Ġ1002":13765,"Ġserutadidnac":13766,"ĠsÃ©nnoba":13767,"ĠelleutnevÃ©":13768,"Ġxuar":13769,"ĠÃ©nnoitnem":13770,"Ġreluclac":13771,"Ġtiatsixe":13772,"EJ":13773,"Ġreilacse":13774,"Ġstnaruoc":13775,"Ã¯an":13776,"dab":13777,"ahah":13778,"ĠÃ©tÃªrrA":13779,"Ġsnummoc":13780,"ĠeÃ©uqram":13781,"krow":13782,"sesuer":13783,"ĠsÃ©tiroirp":13784,"sym":13785,"elÃ´rd":13786,"Ġadnega":13787,"Ġetluc":13788,"Ġtnemednema":13789,"Ġtneuqsir":13790,"Ġelleusiv":13791,"Ġnoitubirtta":13792,"Ġzenet":13793,"artneC":13794,"Ġstairanetrap":13795,"ĠressiaL":13796,"emsit":13797,"Ġsruetlucirga":13798,"Ġ,)%":13799,"ĠsÃ©tisrevinu":13800,"ĠtipÃ©d":13801,"Ġegaruocne":13802,"segayov":13803,"ĠratS":13804,"ĠeÃ©icossa":13805,"gnihsa":13806,"Ġsetnietta":13807,"sionihc":13808,"tiurb":13809,"INU":13810,"ertnev":13811,"Ã©rual":13812,"Ġemitlu":13813,"ĠsÃ©leppa":13814,"atcid":13815,"arÃ©c":13816,"zessiaL":13817,"Ġsenicar":13818,"Ġselan":13819,"Ġetroppus":13820,"Ã»d":13821,"omreht":13822,"kca":13823,"Ġstutats":13824,"ĠrehcÃ¢l":13825,"Ġsnosid":13826,"ĠselÃ´r":13827,"elbalaÃ©rp":13828,"liamg":13829,"Ġeriudortni":13830,"Ã»m":13831,"egÃ¨lloc":13832,"ĠseganÃ©m":13833,"itsoh":13834,"epse":13835,"ĠstubÃ©d":13836,"Ã¯orÃ©h":13837,"sinimÃ©f":13838,"cnarf":13839,"Ġecar":13840,"Ġscem":13841,"etiahuos":13842,"ĠesÃ¨p":13843,"tnevuep":13844,"ĠsneitÃ©rhc":13845,"Ġrenissed":13846,"setnatropmi":13847,"ertauq":13848,"Ġseratceh":13849,"ĠelÃ´P":13850,"Ġeirer":13851,"Ġtnaegirid":13852,"ĠÃ©tilÃ©dif":13853,"Ġegani":13854,"iuqE":13855,
[...]
