#version: 0.2
n g
a ng
Ġ s
n a
Ġ m
Ġ p
a n
Ġs a
Ġ na
l a
Ġ k
Ġp a
Ġ ng
a t
g a
i n
a y
i t
Ġ ang
Ġ b
Ġm a
Ġ t
r a
l i
Ġm ga
a k
i ng
Ġ i
a s
o n
a la
Ġ n
Ġ d
a g
Ġ h
o ng
Ġpa g
e r
a m
u ng
a l
Ġ at
a h
a b
a r
a p
u m
e s
i l
Ġpa ra
a w
d i
y a
i na
i s
â Ģ
o r
u s
Ġ P
Ġ l
Ġ ay
Ġ M
Ġn i
Ġ A
e n
Ġk o
u n
Ġs i
r e
Ġ S
Ġ ak
. .
o t
o s
Ġi s
u la
it o
an o
u h
u l
u k
Ġ la
i g
Ġ w
i b
i m
Ġ g
o k
u t
u p
Ġk ung
Ġma g
Ġ N
in di
Ġ K
a li
r o
Ġ B
a ra
Ġis ang
t o
y o
a d
Ġ c
Ġm ay
i li
Ġna g
Ġak o
Ġk an
Ġ T
Ġl ang
ala m
i k
Ġ o
at a
Ġ D
Ġk a
Ġna m
b ang
Ġ f
Ġ ga
Ġm o
y ang
Ġma s
Ġ I
l e
ab a
Ġt a
an d
Ġh indi
Ġb uh
a na
o l
u r
y on
e d
i d
Ġ H
i p
Ġ L
Ġ ito
Ġ C
il ang
Ġt im
Ġ up
t e
o d
Ġna k
Ġ e
u b
t a
Ġup ang
Ġpa ano
Ġpag k
Ġ r
Ġtim bang
Ġ re
Ġk ay
i c
e l
s a
Ġ G
Ġbuh ok
o m
y an
s ing
Ġ (
l o
Ġnam an
Ġ âĢ
it a
a ga
alam ang
u w
.. .
a c
Ġma k
sing aw
h e
Ġni ya
Ġ 2
Ġ in
Ġ R
e t
Ġ 1
en t
Ġm ula
Ġk as
i h
Ġ y
u na
Ġh alamang
Ġpa m
or m
âĢ Ŀ
i r
u g
p ap
Ġp ang
i la
K ung
Ġn ang
di b
Ġp o
uk o
Ġsi ya
ib dib
m ot
t i
ah il
Ġp ina
y ong
w a
Ġpara s
A ng
Ġpag b
us o
Ġd ibdib
k i
er o
li m
Ġk am
h at
Ġ E
Ġk at
Ġb a
i e
h a
ĠA ng
ap os
ar i
Ġ li
âĢ Ļ
Ġm ata
o b
in o
Ġr in
Ġd ahil
Ġ W
b i
Ġkan yang
Ġk uko
e k
Ġ J
Ġmas k
e m
Ġ it
Ġ F
ala ga
al an
Ġ -
Ġi b
Ġta o
Ġd i
al ang
at i
ul o
Ġna t
s t
Ġw orm
Ġk ap
Ġm at
A N
Ġma la
âĢ ľ
ak a
r es
d ag
Ġ ano
Ġma w
n o
am a
and a
an t
ra m
Ġ O
v ie
Ġpag ga
l ang
k a
it an
er s
aw a
Ġb ag
Ġpag pap
Ġd in
Ġla hat
in e
Ġs uso
h o
uk ha
Ġma h
r i
Ġp ro
Ġng a
ili p
d o
vie w
ay a
Ġb ula
li ng
ak it
Ġni la
ali s
Ġy ung
Ġ2 0
Ġpam am
t er
Ġma b
Ġpagb aba
e c
v e
Ġma li
Ġt o
Ġm ukha
Ġb ata
i w
ay o
ara w
ĠâĢ ľ
ĠP ag
Ġi la
m p
i y
o on
ah an
at ing
m it
Ġre view
Ġ an
Ġ um
ap at
Ġpagga mot
Ġbula te
Ġi yong
Ġma a
Ġma p
la m
us to
Ġkay a
ĠS a
Ġpa la
l es
Ġparas ito
h i
âĢ ¦
Ġk ah
Ġ a
uh a
ay an
Ġn ito
Ġpa na
Ġb ah
ga y
Ġkas i
as a
ung k
m a
at apos
es t
Ġsi la
aw ala
Ġ U
ul ong
Ġw alang
Ġng ay
Ġl o
g ang
an s
Ġk um
Ġak ing
Ġo f
w in
Ġparas it
k o
ali k
Ġila lim
Ġk ong
Ġpa a
Ġt he
Ġk ab
M ga
I N
ina s
Ġp ero
lo g
c e
o g
in t
aba e
aw an
m ent
Ġla b
Ġak ong
Ġpa r
ala t
ra p
i al
h an
Ġ araw
g o
Ġ v
s yon
ib ig
u ra
ara p
c k
Ġm an
un t
ra w
ar ing
ab i
e p
Ġta on
P ag
Ġla m
Ġ V
Ġ 3
ala ki
t or
Ġpag s
Ġ20 1
Ġmag k
Ġg ina
Ġib a
Ġ am
Ġngay on
Ġt um
c h
Ġt alaga
ar t
a in
Ġb abae
Ġw ala
Ġna p
Ġi p
ilang an
ĠâĢ ĺ
Ġb um
S a
at ang
Ġmali it
Ġd ito
ab ang
Ġ "
Ġsa an
w ang
is t
Ġkam i
Ġkan ilang
Ġ as
us t
Ġpag t
o y
ati on
Ġak in
Ġl um
ana k
Ġmaw alan
Ġf ac
Ġparasit es
ungk ol
ga l
s i
or t
Ġkat awan
at e
dag an
h t
na n
k as
u li
m ing
Ġis a
on e
Ġ and
y e
Ġ alis
k ing
Ġ alam
in s
ĠH indi
Ġpagk atapos
ih in
l y
ih an
. âĢĿ
Ġg um
u ro
k am
Ġn o
e b
o p
ag itan
u d
Ġkan ya
Ġnam in
o c
Ġla la
Ġbuh ay
Ġlang is
Ġpamam agitan
ĠK ung
Ġp os
id e
di a
Ġs p
Ġsa k
Ġpagk awala
Ġs um
en d
un d
Ġpa t
us ay
as k
Ġbah ay
Ġpagpap alaki
! !
e ra
Ġlam ang
0 0
ot o
Ġp um
Ġe h
Ġnat in
ula t
ĠM ga
ul ang
Ġ Y
as t
Ġm ong
Ġt ungkol
Ġp res
Ġsa b
ĠA t
ra s
Ġs ina
it i
Ġs in
A L
Ġta ong
ap ag
Ġd ala
ga wa
Ġh ang
ut i
ana n
an ong
Ġm ang
Ġg usto
ar e
en to
as an
u an
Ġb ilang
d am
r y
ur i
Ġga mot
Ġmaa aring
e x
es s
ula d
ĠA n
v er
ili s
Ġmaw ala
Ġb alat
ali ng
ara l
Ġalis in
Ġf or
na l
Ġ yo
m an
Ġt i
d a
Ġkah it
Ġmag ing
it y
Ġb it
a ano
Ġg an
Ġd apat
A G
ik a
re am
i ya
t h
Ġb aw
AN G
Ġi k
Ġ on
o w
en s
Ġ al
as yon
N G
Ġlo ob
ĠP ang
Ġt ayo
ĠM ay
r in
s ang
Ġkap ag
Ġna sa
p as
ul it
q u
h on
Ġsa r
ti on
Ġma ram
Ġt h
Ġn ya
Ġp an
Ġpina kam
Ġs t
c om
b ah
A T
una s
Ġi bang
Ġ 5
e g
us ap
Ġ un
Ġh e
u ga
p at
Ġsar ili
Ġi na
Ġ anak
ed e
Ġnag s
Ġpara an
Ġmak ak
H indi
is ip
ĠP ilip
m b
Ġti yan
Ġni yang
ag o
ab le
Ġy un
ĠI n
Ġ j
Ġk ina
Ġbag o
ulo y
Ġh a
li g
ar oon
ig ing
er y
Ġlab an
p ek
s e
h ah
d e
Ġpag la
Ġ 0
Ġi lang
Ġsi yang
b o
Ġ 4
f f
Ġkay o
ag i
uh ay
ur g
uh an
r is
li k
Ġga ga
Ġpana hon
and ang
Ġb aga
ar d
ila la
Ġat ing
at ay
Ġb an
Ġ '
ide o
Ġd ag
A no
Ġb in
ĠM ag
Ġ ac
Ġpagk ak
p it
Ġpina g
i a
at o
ic e
Ġkam ay
' t
un od
un ta
Ġm e
u re
ĠN a
or e
Ġga win
Ġ _
h in
Ġk ang
Ġna b
am p
Ġmag s
Ġno ong
A Y
Ġi mp
Ġsa bi
i z
raw an
Ġb u
Ġnak ak
ib le
Ġpa s
Ġd aw
ĠS A
i gay
in d
. "
Ġpres yo
Ġpa p
ĠD i
on t
ug an
una n
it e
b as
Ġp r
Ġhang gang
Ġh abang
e w
Ġt ra
ĠN ag
i ar
Ġka ilangan
i rap
N ag
Ġb akit
u e
m as
ana y
p ag
Ġna s
Ġfac ial
e ar
Ġd um
l an
Ġt aba
lim ming
un it
r an
ĠN g
iar dia
ah usay
a a
Ġd am
ana p
Ġmaa ari
ut in
Ġ :
uk sa
ĠA no
h ang
Ġ u
in is
Ġsi g
Ġpar ang
Ġ yan
m am
Ġb ig
m o
am ina
Ġmap up
is a
ĠP ero
ĠâĢ ĵ
Ġt ina
Ġ or
Ġc ream
Ġk ala
Ġe x
ĠR e
Ġsa na
Ġsab ihin
ulo g
Ġo p
b a
Ġbaga y
ĠN G
Ġga mit
al ita
os t
Ġt r
Ġ ap
ah a
ar k
Ġi yon
Ġb ang
ip ag
ĠC h
t ib
al o
Ġmapup uksa
Ġb uw
la y
Ġlala ki
Ġs ya
Ġb atang
able t
Ġ #
Ġna w
Ġ ed
Ġc om
Ġgaga win
Ġmat apos
ĠN A
la k
Ġk ara
il ya
Ġla rawan
Ġp in
Ġr es
li s
Ġl unas
Ġsp ot
Ġnag ing
o nal
at as
w ede
ĠM ask
ed yo
ga p
Ġma d
Ġt in
it ong
Ġmab ilis
A R
t at
iw ala
Ġkas ama
Ġli ng
Ġsak it
bah o
Ġt ulad
e e
o od
ala gang
Ġd e
iy os
Ġ1 0
Ġma ga
uw ag
um p
l ong
Ġre m
ug o
Ġgum awa
ula y
li c
Ġs limming
b le
am ang
A S
M ag
Ġpos ible
ala s
em b
Ġs an
Ġb e
Ġp uw
h er
Ġli b
ĠP ara
ĠS t
il an
Ġban sa
ik o
Ġdag dagan
ĠA l
c o
Ġpa lig
ibig an
r ang
Ġpagk ain
ĠD iyos
on s
A M
Ġv ideo
is yo
Ġik aw
ut an
rin k
Ġbuw an
Ġo ras
ar ang
ut o
Ġit ong
ah al
uk a
ing in
dag dagan
ar an
na p
Ġnag k
ak ita
aw ag
Ġyo u
Ġbaw at
Ġpinakam ahusay
Ġt ablet
, âĢĿ
Ġ ad
Ġb as
n e
Ġsina bi
l ine
I T
ad o
l it
Ġs c
ik ita
ĠPilip inas
c t
Ġt at
N a
ip e
Ġt e
Ġkay sa
el l
ig ht
Ġpa k
Ġpalig id
or d
ang g
v a
Ġbag ong
ay ag
Ġbu ong
Ġ 6
P ara
en te
? âĢĿ
Ġs ho
Ġnag b
unt is
i yang
k s
i ra
ur ing
ĠM ar
I L
Ġna n
Ġling go
s an
Ġdala wang
ib igay
Ġu od
Ġbit amina
Ġc o
a aral
Ġs urg
ram dam
ins an
Ġsa g
ĠK a
ay at
res s
rink les
g an
ig it
Ġga m
ec t
ub ong
Ġkan ila
ro on
Ġc h
ag e
un do
Ġn in
er b
Ġma l
Ġnak a
ilip ino
aga d
Ġs o
Ġga ano
Ġmaram ing
Ġi yo
ala k
ili ng
Ġsurg ery
I sang
d uk
uh in
ar y
in om
Ġn ung
Ġpamam aga
Ġe pek
Ġh um
Ġnang y
A K
Ġs us
Ġ ab
al l
at ak
una y
uga r
Ġam ing
er on
M ay
Ġk ita
la la
ul an
Ġs h
il l
ung an
o ok
P aano
h ing
Ġfac e
Ġpagb ab
Ġp wede
ĠI to
u ya
a an
Ġ ...
Ġk al
Ġip ina
Ġun ang
ye ta
Ġit log
Ġs ob
Ġf ung
Ġw rinkles
ib a
y s
Ġ .
Ġbum ili
uh ok
u ling
ĠA NG
p a
aba ihan
la s
ĠN ak
Ġt anong
Ġ 7
O N
ul ugan
ĠM as
ga s
Ġla lo
ri end
k at
b an
s er
g ram
Ġm is
ay s
ĠM o
Ġb re
Ġk ak
ala la
aw alan
tib ong
alam at
Ġli k
Ġs inas
Ġb ab
at id
Ġkab abaihan
Ġk w
Ġkum ain
Ġpina ka
Ġnag pap
Ġma dagdagan
Ġl ugar
Ġd ugo
p er
ap on
ĠA ko
A H
i on
Ġ ,
os e
t ing
Ġp e
it s
p an
Ġo ut
Ġmah al
la t
ĠK aya
Ġma m
Ġka ibigan
Ġpa ti
Ġmala king
un o
A P
Ġh in
Ġm una
ga mot
s o
ah it
um ang
ĠP h
.. ..
g i
Ġgina wa
ak as
d ad
Ġs ilang
Ġt ang
Ġkan iyang
Ġng unit
A n
e na
Ġk un
Ġta ga
it h
ah in
Ġsan hi
Ġsa s
Ġp uso
p h
in ig
ut ing
Ġl e
up a
ing nan
Ġt ub
Ġ ro
r ato
Ġb aka
Ġh ina
Ġpags as
lam an
) .
i an
Ġ raw
w w
Ġb ina
i o
Ġdi yeta
I S
i es
Ġma r
Ġd oon
Ġis ip
ĠD oc
p e
Ġpro ble
Ġna na
or k
la st
Ġk g
ĠP ina
iy ak
t p
he he
il li
Ġpagla go
Ġc on
/ /
E R
Ġmag b
ï ¿
Ġ ulo
ï¿ ½
ul t
Ġed ad
y al
am b
Ġpa h
Ġ uri
ga ling
ĠM a
Ġdahil an
Ġd ating
Ġmagk ano
oto o
at an
ag ong
Ġpro duk
h ih
om e
A t
ĠG iardia
u c
Ġn yo
im ula
or n
ino y
ĠK as
Ġpang alan
y ar
ans in
Ġnang ang
w an
IN G
Ġkat ut
r ic
Ġb ayan
Ġs ino
Ġha ir
ĠM an
Ġni yo
o v
Ġt ak
g e
Ġp h
m er
Ġnak ita
ara an
na k
ah e
Ġpam ilya
Ġn oon
a ir
: //
w n
al it
d er
Ġmag p
ĠI s
Ġmah usay
Ġ1 9
ana g
p ort
lo ad
ol o
Ġmaram i
as ok
Ġpro gram
ga mit
up o
bi gay
Ġ art
Ġbah agi
Ġb uk
ilip p
Ġ 9
Ġtim e
ð Ł
Ġla ro
Ġgina gawa
ay ari
Ġs up
l d
p le
m e
Ġ agad
y ung
ut er
ĠU n
Ġnam ang
ang k
it rato
t im
Ġtra baho
Ġ ulit
Ġ [
p o
' s
1 0
Ġkatut ubong
Ġ 8
Ġga bi
Ġm undo
Ġtub ig
Ġas awa
o o
is yon
one y
p re
Ġd ali
uw a
is ang
s k
Ġ Q
to mas
Ġ1 2
Ġsho w
is ta
A B
os o
Ġin ter
ĠH e
Ġre c
A W
Ġnin yo
? "
ah aha
Ġka ga
M ask
Ġib ig
Ġt ulong
Ġy ear
ara m
Ġproble ma
y er
Ġan ong
ĠS o
Ġt unay
ĠA r
A y
ah ala
al os
ab ing
ĠC ity
iw an
ay os
G A
Ġpa b
uw i
Ġma na
Ġdala wa
Ġsa l
Ġgam utin
Ġin yong
Ġbre ast
ah ulugan
Ġk ulay
Ġn ilang
l ant
alam an
d ong
Ġam in
Ġt ag
e y
ay ang
ig il
id ad
ht tp
Ġmag anda
E S
il it
f e
Ġb log
2 0
Ġmakak uha
Ġpa re
ak an
Ġ /
Ġk in
ab aw
Ġproduk to
Ġmak ita
Ġmag andang
us e
Ġ ok
um b
ĠG am
re at
Ġt alagang
ĠP ro
Ġnak at
ub ok
iz a
! âĢĿ
Ġk ali
ĠI sang
ew s
g ing
u ck
m m
ir l
Ġe k
Ġp er
Ġkam ing
il e
anda an
Ġw e
Ġ ut
Ġmag iging
iw as
ĠJ o
ac k
uk an
Ġon line
ĠAn d
B akit
Ġdali ri
Ġkum uha
Ġnag p
Ġpana na
ug na
Ġsag ot
Ġsig uro
u y
t ong
e la
Ġt apos
ak o
Ġpang ang
y un
h ong
ĠW ala
Ġ1 5
Ġh arap
? ?
s p
Ġtina t
s ik
ĠM ak
ip s
i ga
Ġpag d
Ġgamit in
ap p
Ġm y
N ak
angg ol
Ġpos t
Ġpag li
es to
Ġla ki
ar ating
ĠS an
Ġw ika
Ġf re
Ġd un
, "
Ġb y
b ay
O R
ĠR am
Ġpar t
ab ay
Ġb ak
u al
ĠP aano
ir c
ad a
Ġ aw
Ġnag t
Ġ est
Â Ń
Ġpagb ub
ak i
d ay
r il
Ġpag p
Ġnangy ari
Ġnat ing
er e
Ġ20 0
un og
Ġr ing
Ġm in
ho ol
Ġ ah
ĠE n
r u
Ġrem edyo
last ic
Ġbit uka
ĠPilip ino
hi yon
Ġsob rang
ab as
I to
int ay
ik ipag
ĠL iza
Ġbum aba
ot el
Ġd ok
Ġin yo
Ġ es
Ġsin tomas
Ġl itrato
Ġpag hah
ura l
ali pas
i v
ag ot
ay ong
ata gal
ĠW illi
as ama
Ġpe lik
k aw
Ġnap ak
P ero
Ġh o
ol k
ĠT he
ers isyo
Ġt otoo
f t
Ġb at
ex t
t an
Ġga wa
m in
Ġgum aga
us in
ĠPang ino
Ġmagk aroon
Ġn itong
i isip
ac e
M A
Ġbag s
ĠPh ilipp
w anag
ina l
p ang
Ġ ðŁ
Ġh oney
ub uhay
b ig
Ġkun di
Ġd is
u o
ĠB akit
h h
U L
Ġay aw
Ġh ali
ac h
Ġlib re
ap ang
ĠA y
ig h
ok o
ili g
Ġw ith
O NG
O S
Ġfung us
ur ang
Ġkap atid
at ulong
Ġsa id
Ġs is
s h
ĠO ng
am an
uw ang
ĠM GA
ĠWilli e
Ġt hat
Ġpagt at
Ġs er
Ġit uring
en ce
in it
Ġpagga mit
i re
Ġ ung
ut as
Ġmat at
Ġpagt it
aa ari
ul ungan
D I
ĠC om
A lam
Ġk uw
Ġ201 8
ra l
ah at
u di
Ġk ar
Ġm eron
ol d
Ġmag t
ang gap
Ġna is
Ġan umang
Ġpags us
Ġlo ve
ĠA T
Ġp era
A ko
k in
s y
Ġsa lam
ro l
Ġsi m
ga yon
Ġga ling
as e
ĠP a
1 2
u ot
usap an
is s
ĠT a
Ġkas al
Ġ201 7
ĠA lam
m ang
ramdam an
Ġ ar
Ġp ig
Ġ3 0
Ġepek to
v el
ï¿½ ï¿½
Ġh igit
en e
em ent
!! !
em pre
Ġna ra
us yon
o u
ak e
Ġsinas abi
Ġpa galing
mb awa
ĠT im
Ġnaw awala
Ġb es
Ġsa yo
Ġbin ti
ula r
Ġp us
is e
Ġpagaling in
ic h
Ġpa ki
Ġs ing
Ġnaw ala
Ġmala man
Ġpag itan
Ġum aga
Ġ Â
ay ayat
a v
Ġh uwag
Ġs anggol
Ġpagkak ata
Ġpr ot
Ġof f
Ġay on
w e
ap an
es us
ul ot
ĠS i
) ,
Ġs ub
er m
ip is
Ġpam b
H alamang
em a
Ġnangang ahulugan
us an
ĠN ang
1 9
Ġc irc
Ġl in
Ġo il
k e
Ġmas aya
ab ot
ĠP as
ĠT s
ĠD r
e ed
Ġp lastic
Ġmang y
ang at
ala wang
ala king
r at
Ġnam ing
uter te
Ġlab as
Ġpag iging
I G
it ang
in ang
U S
r us
Ġnab ubuhay
re t
Ġs ex
os es
Ġg iardia
ilang ang
E N
Ġd ark
ĠB uhok
ing a
ent al
Ġrec ipe
Ġm insan
Ġg r
Ġgan un
Ġmala pit
Ġt ingin
Ġk ont
ĠF ilipino
ĠW ik
M as
ib ang
is ing
Ġkina ka
b ing
ĠK ris
ĠPangino on
Ġfor um
Ġ201 6
Ġmay roon
p ak
re k
S i
ina n
c er
w ag
ĠN at
Ġ en
ĠD e
Ġmang ayayat
Ġb ar
em on
f riend
ĠC o
Ġ1 1
I n
u in
Ġm uli
Ġk ag
n ess
Ġbes es
ĠT aga
ĠM at
Ġn ot
ĠPag k
Ġpagbub untis
Ġh alos
ĠG usto
Ġ Z
Ġ una
n er
ĠI t
Ġk on
la d
Ġ: )
Ġat in
P ina
Ġt ut
ĠM ab
Ġth is
en si
ĠD ahil
Ġre hiyon
ic k
lant s
Ġt iti
Ġ1 3
ra baho
Ġpala k
T O
ans ang
ĠN o
K a
Ġna lang
Ġt ama
b e
b urg
t ili
Ġt al
Ġngay ong
ah id
U N
Ġb il
ow n
Ġkas o
as abi
Ġi ka
la se
ĠP et
ag s
Ġtat long
ara ming
ĠA s
on d
Ġcirc les
am it
h im
ano od
Ġpat ay
1 3
ir st
aling a
ur t
Ġt ayong
Ġ1 8
Ġ &
ĠB ib
in es
Ġg ulang
uli s
Ġmas ya
ali it
ar to
h n
Ġk ad
ĠN ap
ĠK o
ata an
? !
ah agi
ut e
ĠK ap
Ġna ga
Ġpamam araan
mp le
Ġp l
Ġmak a
uk hang
t y
ĠK at
s ite
ĠD uterte
Ġ1 4
ist is
Ġk ilala
Ġtr ans
Ġ us
Ġpalak ihin
ĠH air
in iwala
o ut
_ _
Ġpa l
al th
O L
Ġdum ating
ina t
Ġdam i
ĠK ahit
A D
ah ang
Ġsalam at
Ġnak alipas
uko y
na s
yan te
t as
ĠP inoy
O ng
ĠT V
Ġm edyo
j ect
Ġlik od
Ġg u
Ġl upa
Ġmak apag
Ġpum unta
ta as
ic al
Ġw eb
Ġw h
Ġb o
e a
Ġpuw esto
un ang
Ġdok tor
Ġ lim
Ġc an
Ġt it
Ġ Ġ
s c
Ġpelik ula
Ġtum ut
Ġd o
Ġpagsas anay
ata as
ay sa
aka in
Ġko m
l in
ĠRam oso
Ġalis an
g it
Ġn eg
Ġb ibig
Ġd ay
A yon
Ġk alinga
ub o
Ġprogram a
as ak
Ġm ore
ck les
Ġp ers
Ġrem ed
Ġb al
ĠN ews
Ġd ati
Ġpag mam
Ġpagtit istis
emb er
1 1
Ġsa rap
is h
di c
b er
od er
ari an
am am
Ġg anda
ag p
ek to
Ġr ito
ic s
ust ong
ug on
ens ya
Ġg o
Ġsab ay
ina bang
g in
Ġremed yong
Ġg atas
r im
s od
aw ang
uk u
Ġmata as
00 0
ug at
D ahil
id ente
es a
z on
Ġman ipis
um an
ga w
ab ihin
B S
n et
an ib
ĠA p
w er
W ala
ung o
Ġbaw al
Ġk arap
ran k
Ġmag ulang
Ġn ina
ĠMan ila
Ġre la
Ġap p
Ġit im
Ġpat uloy
ĠS h
ul ta
Ġ ama
Ġop is
aw ak
i f
ro m
Ġpags ubok
ĠA b
Ġt amang
Ġsus unod
ĠDi os
Ġnak ikita
Ġimp lants
Ġis da
y ak
ar m
en ta
1 8
ili d
y os
h anan
tion s
es e
Ġlibre ng
Ġpagkakata on
Ġd es
I Y
Ġt uw
Ġal l
Ġnak aka
Ġ are
r it
D i
ĠL o
Ġgan ito
na w
ĠS abi
Ġ ant
Ġc ell
ĠP AG
ig n
Ġmala ki
aram i
Ġe le
Ġh its
ig an
U T
ĠA g
Ġsarili ng
ĠF or
li it
h anap
Ġdam it
Ġsal ita
r ip
ro ong
ur an
w ak
us ugan
Ġp up
tor y
Ġnak ara
Ġfre ckles
os s
hi ya
Ġb ik
Ġpig ment
Ġt ah
Ġbula ting
l l
a alis
ĠK an
ugna y
n y
Ġsak in
na san
Ġhits ura
Ġsc hool
Ġh el
Ġp ulis
Ġp uk
w ay
! "
g y
Ġkay ong
ĠW alang
Ġmab uti
it es
Ġt uloy
Ġnag tat
Ġp re
- -
U M
ep ek
p es
G am
Ġmad aling
li a
Ġpina k
âĢ Ķ
Ġum inom
Ġt awag
ap it
st os
il o
Ġnag iging
li b
Ġw ag
ĠE x
I B
er c
orm asyon
y at
Ġt reat
Ġf olk
k ala
oto hanan
w it
od a
Ġlum abas
ali g
Ġma mam
Ġgina gamit
f ter
Ġ ag
e ng
Ġsa pat
Ġmah irap
Ġ1 6
ĠP res
K aya
Ġtablet as
Ġmala kas
Ġp ant
r ot
Ġb ut
era syon
Ġpagpap al
Ġh ah
Ġkara ming
Ġpagkak aroon
ungk ot
un in
int indi
Ġsi lic
Ġmata gal
Ġeh ersisyo
Ġpagd ating
il os
ĠT o
Ġkw ento
ir it
Ġyear s
a alaga
Ġb ur
Ġc ont
re en
ipe dia
1 4
Ġsilic one
Ġgan itong
ĠM e
Ġe ye
epek tibong
un ong
yo nal
m ag
la w
Ġga ya
K aysa
m ga
Ġpam p
Ġ qu
re e
eb ook
Ġpina p
r ib
Ġma ayos
R E
Ġl up
Ġla gi
Ġib in
od e
Ġ2 5
h indi
h el
C B
Ġpagpapal uwang
ap a
Ġs and
ar o
la r
rin ig
Ġpang arap
ĠS in
ol usyon
M ula
ala nan
y empre
ing i
di s
Ġbig la
ĠP at
K uko
Ġ0 5
1 5
Ġkap ang
Ġsa ka
ĠS c
oder il
g et
aya an
Ġli p
Ġp is
Ġf riend
ĠP o
b ag
Ġna pap
Ġnag la
Ġk lase
Ġg ilid
Ġla kas
ĠS am
i ve
ww w
ma il
yer no
ers burg
z oderil
lis h
ali m
Ġg irl
Ġm on
Ġg ra
ĠL e
c y
o na
ilip inas
ut h
Ġb ay
Ġc ar
r ist
ad ala
Ġg ob
ak at
Ġt s
ara h
ĠG MA
B uhok
N ang
k an
r on
im ik
aga wa
Ġ X
lo w
ĠPet ersburg
ol og
ĠM ala
ic a
Ġmali liit
Ġmak ipag
Ġh im
m y
ĠS iya
ud yante
ig yan
ĠA d
Ġnat ut
ir an
K apag
no w
ment s
qu ino
Ġpam ahala
N g
na g
ent er
Ġk ila
Ġsa pag
iw asan
Ġm en
uk as
I P
ump ay
1 6
ek t
Ġmay roong
ĠTim bang
ĠF ac
or ya
Ġc al
Ġlala ke
Ġnak as
f orm
ĠR o
ung sod
ĠJ esus
Ġna h
una wa
IN DI
Ġkasal uku
aw as
ĠB a
y u
Ġmag ka
Ġd a
Pag gamot
Ġna r
an te
CB N
ĠA BS
G usto
si on
Ġnagb ibigay
Ġhe hehe
un i
3 0
Ġt ek
h y
Ġin i
Ġb atas
m itan
pas ok
il y
ig uro
ĠN gayon
b ab
na t
Ġg ustong
Ġum ano
Ġ1 7
Ġd ry
z a
ik al
ĠV ideo
id a
Ġh otel
Ġkab ataan
p ed
Ġt am
ĠP arang
Ġh uling
Ġna i
y ano
ib o
Ġpum asok
Ġ ra
Ġkat ulad
orm al
or ry
Ġsum us
S A
v en
Ġyo ur
emb re
id ent
m at
ala bas
li p
K as
k t
O T
Ġsim ula
atang gap
co unt
Ġka ilan
Ġmas s
Ġhali mbawa
im e
ĠS ana
Ġbas ta
up ad
ang gal
ip on
lak ad
w al
am i
ina bi
Ġm us
Ġmap ag
do wn
* *
Ġnags is
Ġhe he
ik ang
ĠRe ad
ĠWik ipedia
ti ve
d y
Ġka ilangang
Ġnak apag
ris to
Ġsas ak
ad ong
Ġbuk as
Ġpagk a
Ġ5 0
Ġparasit e
ĠB ayan
1 7
tim a
Ġd ina
ĠL ang
Ġd aan
T ingnan
M ab
y embre
v ent
Ġm uling
or y
Ġmab aba
ĠÂ »
Ġkab ilang
Ġga lit
in ut
at er
Ġla ser
ĠA quino
ĠC ar
Ġnana y
ĠL ahat
iti on
ĠH uwag
Ġs e
si yon
Ġmad alas
E L
arang ay
alo ob
Ġkinaka ilangan
Ġs he
Ġb alita
Ġb oy
Ġnag d
an ce
Ġspot s
Ġpagk aka
Ġd al
Ġip ag
Pag k
im p
ala g
it ing
art ment
I K
aral an
Ġmag pap
ig o
Ġpwede ng
ĠT h
Ġc at
l inis
iwala y
ĠPhilipp ine
Ġh er
ĠR ed
il d
an i
y m
ĠI sa
Ġweb site
ab asa
ĠB o
Ġb us
Ġtuw ing
Ġre p
m on
Ġk aka
Ġf irst
is ita
yar ihan
Ġmagk ak
Ġn un
Ġcom p
Ġd ro
Ġh irap
aw ay
Ġpagbab ago
il m
Ġgan yan
Ġb untis
z e
Ġla bi
Ġsa m
Ġnakara ang
ĠE d
Ġga stos
Ġkan ina
Ġek zoderil
Ġgr upo
ti v
agp uan
âĢ¦ .
Ġpaghah anda
ĠS up
Ġpam ahid
b asa
u x
Ġh uli
or s
Ġres ulta
Ġgob yerno
Ġpala t
Ġt ip
et ro
Ġest udyante
Ġnagk aroon
Ġnak ap
ĠM O
to p
ati onal
Ġsob ra
ĠN i
Ġkan iya
Ġc he
Ġmasya dong
Ġb r
Ġpah ayag
Ġmak ikita
ub os
ang a
K ahit
Ġb i
os yo
Ġkay ang
ĠI N
oc ial
il la
ĠM ah
ĠQ ue
Ġpag taas
Ġko mp
un e
Ġkara m
ta in
Ġkat otohanan
w ala
s on
Ġpak ikipag
ĠO n
ul u
Ġk uting
Ġparasit iko
Ġbig yan
ĠGam ot
intindi han
Ġmak ap
ĠK apag
Ġk uya
ic t
le b
Ġepek tibong
ek syon
ĠB as
Ġp uno
Ġf rom
Ġpaki ramdam
uk uha
t ra
Ġkaga mitan
ĠNg unit
Ġg ano
ĠA mer
ĠG u
Ġb ro
ĠKas i
it amina
on do
s ites
own load
Ġpamahala an
im b
N ap
ĠPang ulong
Ġ one
ĠPag s
Ġmala yang
p ina
um in
M awalan
Ġli st
is mo
iw ang
Ġbabae ng
o ur
n ang
I D
Ġnara ramdaman
ag ang
iv ers
H ow
araw an
g en
Ġla t
k ay
I C
Ġb alik
d or
Ġbil og
ĠTaga log
Ġc ol
Ġsi mple
una hing
od y
p on
P ang
udi o
down load
Ġh erb
Ġs ite
Ġin ila
M a
Ġi yan
n ila
Ġs erb
ot e
Ġ2 4
emb ro
Ġmis mo
Ġtreat ment
Ġnat ural
inis in
Ġipina g
Ġp ub
era l
Ġn et
ee ling
Ġd ep
am ant
ak uha
b ong
un lad
al ong
U NG
ĠI na
Ġp ong
ĠM aaari
ut y
Ġmak ab
ays ayan
ĠY ou
ib ili
ĠK uya
g les
Ġpalat andaan
el o
t on
qu e
ĠI kaw
Ġw as
Ġnags as
Ġre g
Ġmag bigay
w ork
un ti
ah ayag
Ġin s
Ġok ay
Ġt ila
2 4
ko p
Ġme dia
p ara
Ġm il
Ġ apat
et al
ĠS ec
Ġkam a
ĠW e
Ġd ing
Ġw ork
Ġtablet s
di k
Ġ201 5
ay on
Ġnas abing
Ġs oda
app y
Ġi m
ĠâĢ ¦
Ġh alaga
ti onal
ĠR es
Ġi d
Ġma pap
Ġlab is
Ġbig lang
la ck
unt ing
Ġb ir
ik lo
ub ad
ĠðŁ ĺ
ig e
Ġum alis
ĠT um
ĠM awalan
te m
or ta
Ġkuw ento
Ġ ari
c os
ik an
al in
d ala
g dag
Ġrela syon
ot her
Ġmo vie
et s
ĠG o
aw i
lak ihan
ĠD a
Ġbik tima
Ġwe ek
Ġt han
I R
ĠJ an
pan ya
Ġi lan
Ġs ec
Ġpal itan
ĠN ov
ĠR em
Ġd ad
Ġdi rek
N o
Ġt ula
Gam ot
ho w
a ilangan
p is
ĠM ari
ĠE le
ent s
Ġtumut ulong
p p
Ġab out
Ġmags anay
Ġnam am
f ul
iy embro
C h
Ġla st
Ġmas ama
os c
Ġad d
ĠO F
s ay
Ġpum ayat
Ġpagsus uri
Ġmag h
int uan
Ġpers onal
ĠB ar
li ko
ug h
ĠP an
Ġ4 0
Ġ ens
li d
ĠB r
m et
Ġmak at
O o
on om
Ġpam um
Ġg in
I sa
Ġma ra
Ġbum alik
as awa
ac y
Ġkw arto
Ġ2 1
Ġmon th
Ġpare hong
d ate
bi z
Ġd r
c ess
Ġk ur
Ġimp ormasyon
or ld
Ġk now
la te
ana l
Ġan ti
Ġpus a
Ġl ok
uk ol
Ġs uka
p lay
Ġpuw ede
Ġt ap
Ġsi r
Ġla long
Ġma i
si an
id o
Ġsis te
Ġak ala
Ġum i
ĠS p
di lim
Ġac count
Ġmass age
Ġl inisin
Ġum a
Ġat ay
ul es
M aaari
R O
pit al
ĠIn ter
ita as
n ing
I M
Ġy ata
Ġb est
ina m
ĠA K
ar in
ins ala
j oy
it ed
Ġpat ak
le t
in k
ĠS ena
ĠD ep
uga s
Ġpang y
Ġpagla la
Ġis ina
am in
Ġp ilipinas
ver y
ĠK A
ĠP ayo
Ġbag uhin
ĠM ad
Ġh ahaha
Ġha ve
Ġdi yan
r en
Ġlat est
ang gang
ĠD apat
ĠR us
ĠP am
Ġc as
una yan
Ġop erasyon
Ã ±
ĠB uhay
ĠY ung
ut ang
Ġ2 2
c i
Ġens iklo
ped ya
r ate
il s
Ġmat ut
ĠPhilipp ines
Ġkas ing
Ġpang unahing
W alang
l and
ĠU S
Ġkala lakihan
Ġs it
Ġkap wa
Ġnag hah
ating in
er v
ali w
Ġnangy ayari
Ġensiklo pedya
ust uhan
ak ap
Ġlala king
Ġtinat awag
ak bo
Ġc l
Ġs w
ĠC an
Ġla ging
M at
S in
Ġm iyembro
um ili
as on
Ġnap ag
ig ilan
E P
ĠTs ina
irap an
re d
li ce
Ġkat ang
Ġopis yal
Ġl emon
Ġnak ik
aran iwang
Ġsas abihin
u yo
Ġg ood
Ġh aha
Ġkas alanan
Ġsasak yan
n ong
las s
Ġmala la
Ġ ing
Ġh igh
ĠU m
Ġpap el
Ġg it
el f
Ġtak ot
Ġkarap atan
ul d
ok e
os pital
Ġb uto
uh ang
Ġut ak
ka in
lit ang
Ġa fter
pak inabang
Ġlam an
ano k
L um
ĠL a
Ġp orn
ala kas
Ġdro ga
Ġ ala
ort s
S abi
I t
ĠN ational
y as
lam o
ation s
, ,
Ġpuw it
ĠS um
Ġna gawa
ind ing
d u
y d
y ente
ĠP uso
Ġdum i
b ot
R e
ut om
Ġma ik
Ġ2 3
Ġpag h
ag an
c es
Ġkal usugan
ĠC on
v in
Ġg ro
2 2
ĠðŁ Ļ
ap o
f a
l or
Ġbaw ang
p ay
T he
Ġna il
ĠK ab
ĠD ibdib
P A
Ġm ukhang
Ġre ad
Ġmap ang
ĠM al
e ver
as er
y ric
ip in
ras o
Ġd ri
Ġpah ina
Ġhin ih
ĠM AG
Ġb ack
Ġd yan
ear ch
S o
gin ip
Ġna isip
la p
Ġo li
ĠL um
ĠE st
lo ob
un s
ar te
e ta
ak ing
le ase
ĠC ream
ura do
atak ot
ĠO r
T aga
Ġor gan
r ans
Ġmin uto
p y
ĠQue zon
ĠR eg
Ġsi kat
Ġprot ina
Ġsa litang
y n
Ġ itaas
Ġib abaw
Ġnagk ak
m ay
I kaw
Ġk aw
ĠP uw
Ġma it
AL A
Ġj ust
Ġnap aka
ĠK om
P h
ĠA c
Ġre al
ĠKa ilangan
ir ang
uso g
B ilang
z o
Ġs und
ĠG ra
Ġart ista
ĠK am
Ġina as
Ġpagmam ahal
h al
alat aya
ort ahan
amp oo
ux ine
b ins
Ġh alaman
im o
in i
ĠS ino
b y
Ġpuk e
Ġs tory
ĠðŁĻ Ĥ
Ġtin ut
ĠL unas
Ġmen u
ĠA le
Ġmamam ayan
Ġd alaga
io us
g er
N at
is i
uk at
ĠSt ar
Ġw ill
iz al
ard s
Ġb ub
ugna yan
u ang
T um
W orm
Ġtah anan
Ġlik e
S ana
Ġfacial s
Ġo ld
Ġm anok
Ġmatat anda
ĠB ab
Ġb alak
Ġmangy ayari
Ġnan d
Ġd on
Ġna rinig
Ġma init
ĠK um
ens ahe
ĠJo hn
Ġ ent
m int
Ġe ks
Ġ uli
unt ahan
ual ly
Ġart ik
tib o
ĠCom m
ĠA N
bah ay
Ġnag mam
Ġkapang yarihan
Ġkah apon
k ad
Ġna dagdagan
ub e
Ġis in
di d
Ġt abi
Ġis yu
und er
U pang
Ġte a
ati ra
es is
Ġd arating
Ġli g
Ġt ur
Ġcal or
ab ata
uga li
Ġi f
ĠM art
oto ong
ik e
Ġd ila
Ġl ungsod
uk od
Ġb ili
Ġan u
d ang
a it
ah alagang
yric s
Ġex p
O O
Ġak lat
la bas
ĠB aka
Ġmad ali
Ġs yang
ul y
h am
ĠL ib
rus h
ak bang
ĠT e
ent ong
ing s
ĠJ e
Ġkap e
Ġp or
alim utan
Ġma iwasan
ig la
Ġpo p
ĠT apos
re ad
Ġe ff
ayo p
c le
Ġw ikang
ĠR ob
k ita
im ple
l ul
Ġbat ayan
ĠB ula
ĠL ot
umb er
osc ow
Ġn yang
Ġp ek
Ġmang ga
k ung
si a
Ġp ict
re c
Ġf eeling
t se
P ro
aga ling
in ing
ĠE s
An ong
ut ris
ĠM us
Ġk atagal
tat alik
ĠD is
D A
Ġnag m
2 5
b aba
ih ang
do ck
x t
uw ento
we et
Ġkab ila
Ġlang it
ig di
dag dag
ib ong
unawa an
ĠL ing
ug to
pat uloy
p ro
ĠR os
Ġpab or
Ġto ena
ah alaga
Ġnak ah
f er
Ġi de
Ġpagpap at
Ġpro y
Ġserb isyo
ata o
ĠAn ong
w ento
ĠM ahal
Ġin umin
ant ay
ab ayan
ut ong
u ch
Ġex c
Ġpagga wa
Ġt an
ĠRed uxine
ĠB e
ĠP AR
Ġt atay
Ġin t
on es
Ġ ess
ĠP ana
Ġnam atay
Ġp w
F ace
Ġ yon
v es
at ed
I big
Ġpak ik
Ġtang gap
ab alik
Ġpl ano
Ġlist ahan
ub ukan
el le
Ġre k
lis in
O M
ĠB agong
Ġmas arap
ags ak
Ġit ina
Ġko tse
la g
ĠS alamat
ĠO ff
K ap
ali wanag
Ġkad alas
ĠM ang
Ġmah alaga
Ġp ul
ala pit
Ġ â
ar ito
I A
Ġpar in
Ġgawa in
c he
Ġd ulo
ĠS uso
Ġpina t
Ġmangy ari
b al
j a
ĠM ark
Ġsiste ma
Ġg ym
ĠP art
ĠR ep
Ġpangy ayari
H uwag
k od
Ġto es
r ay
Ġd etal
Ġm ust
Ġkaram ihan
ala wa
Ġph arm
ĠM oscow
hih intay
m l
ga wang
Ġsin us
ĠTa o
atak bo
yar yo
ul in
r ong
Ġmala wak
Ġt em
ik ong
ĠMay nila
ak ay
Ġ0 6
anap in
AN O
ĠN ew
lang in
Ġlib ro
Ġh ost
Ġ1 00
uw al
Ġf ec
ya an
!! !!
c on
ra syon
ĠA Y
Ġ2 8
or o
ĠHe alth
ï¿½ï¿½ ï¿½ï¿½
P amam
li li
und am
or te
ĠC risto
Ġmakak akuha
uk in
utris yon
il in
L ahat
Ġc are
Ġsa y
Ġtam od
D ag
s in
M ak
ĠH o
ab et
Ġneg osyo
Ġp et
U R
ph one
aram dam
Ġs ocial
us ta
Ġh op
Ġp ula
Ġng iti
Ġh awak
ati ve
Ġmak atulong
al e
Ġb ul
Ġm ot
ib ay
h ersisyo
ĠB oy
Ġb l
Ġk aba
Ġk alam
Ġpagk ah
Ġsapag kat
iy er
Ġit inut
ĠP A
ĠAng el
undam ental
Ġw hat
w ing
d en
ys tem
Ġgit na
Ġdag at
âĢ¦ âĢĿ
ĠP e
Ġat a
Ġgumaga mit
Ġibin igay
Ġmat anda
ĠI ng
ĠAl l
Ġh apon
ĠL u
Ġnag lala
ik ot
vel op
Ġkasaluku yang
Ġkatang ian
m i
oses o
p s
ĠFac ebook
I lang
ie f
ĠT ips
Ġl uya
Ġt ingnan
Ġbir th
d an
di na
ĠâĢ Ļ
ul e
ĠG od
Ġ2 6
Ġ ..
Ġkap aki
Ġac t
ensi ya
it or
as alamat
ut uro
Ġhel mint
ob rang
Ġst ar
li e
is m
Ġi mb
Ġpangang anak
erc ise
E T
ung in
Ġan im
p ost
Ġnak atira
p in
Ġpres s
ĠGam it
Ġpigment ation
ra el
Ġac id
Ġp uting
ĠB log
en n
c a
u el
i yan
Ġ aga
Ġak t
Ġin d
Ġin iisip
Ġ end
ĠM r
ĠPina y
les s
Ġpala kas
Ġf ilipino
ĠJ ess
ĠR od
Ġb ad
i ence
ĠI S
ce p
Ġka alaman
ala w
Ġpin to
aga l
Ġsi b
Pag s
Ġbab y
2 6
Ġf orm
on ood
hang a
ag umpay
Ġfung i
Ġmag la
os is
ĠMay roon
ĠH otel
aka ilan
ec ial
Ġh is
ulit e
ĠJ uan
Ġyo g
' m
Ġpa lang
Ġo b
li na
ur es
Ġbe a
Ġm ensahe
Ġ201 2
in ta
alik asan
ĠN I
Ġpina s
d ing
v ice
ĠB ag
at her
Ġt ala
amant ala
uk san
Ġla yun
ng lish
j o
ĠA raw
Ġ aral
G ood
Ġli fe
da an
ut ok
li ya
Ġmat ukoy
Ġ ugat
Y O
Ġt erm
E D
y es
Ġt ugon
Ġdal hin
Ġpana ginip
ta o
k syon
iga w
S alamat
Ġmak ilala
ol it
ĠW orm
Ġlab anan
5 0
ali mbawa
Ġmak as
Ġnak uha
Ġkara nasan
tain ment
Ġ alaga
ĠOn line
2 3
ĠH apon
Ġb iy
Ġsa ya
Ġmas asabi
Ġp uro
Ġyog urt
Ġf e
Ġsumus unod
Ġin st
Ġun ti
it t
ga r
k ab
it aw
Ġro om
mp alataya
r ation
Ġb ansang
olo hiya
T V
t ang
Ġs ang
Ġl uha
ĠIs rael
Ġs ure
at h
at ch
or r
Ġla g
ĠL ab
ĠOF W
Ġmo d
Ġt otoong
ra c
w orm
Ġb oses
Ġin ih
ung a
ĠS ab
Ġat e
ĠR om
Ġdr ug
Ġma ip
Ġpare ho
Ġlum ip
2 9
st ar
er t
i in
Ġt iyak
Ġno w
an ya
Ġpap unta
ak tan
Ġs ek
ĠR ich
er at
ver n
el s
Ġkak ay
ĠN asa
Ġ2 7
N gayon
Ġnak ab
te l
I V
Ġ201 3
ĠS arah
A C
Ġf ans
Ġt ext
Ġf am
Ġmaga gawa
p os
id er
lic ation
Ġam ag
Ġsi mb
di syon
Ġto p
Ġlim ang
Ġkas aysayan
Ġo o
Ġila gay
or in
ur s
ag at
Ġc ap
Ġac ne
ĠK O
Ġs olusyon
D ibdib
ate g
Ġmust asa
at long
Ġb ook
ĠK ong
ĠJ os
Ġg uro
Ġgano on
ik ha
os met
ak yat
Ġpagk uha
Ġnas us
Ġ indi
k ak
Ġmak e
w are
ĠV al
Ġp ri
at ayan
Ġi pap
p ero
Ġp lay
an u
Ġmah ilig
ing g
L unas
Ġp ano
U H
ĠM ula
ord s
la b
. ,
b on
in ira
Ġg et
Ġp ip
Ġmaga ling
Ġsimple ng
Ġpa aralan
Ġp la
Ġniyo g
Ġ under
z z
Ġkin uha
up ortahan
Ġk el
S ub
al s
ig pit
Ġh anda
li ck
Ġ usap
Ġs et
ĠLing go
ya do
ĠM araming
Ġb ra
n es
ĠP ost
Ġoli ba
Ġk ulang
al on
en ing
er gy
Ġc am
ĠH ome
aaral an
Ġpalakas in
U m
ult ura
Ġmakak atulong
Ġn umber
lak bay
Y ung
lik sik
Ġin it
at aw
are ho
Ġpin ang
ĠC ol
Ġn ext
ĠG irl
p ot
Ng unit
ant ot
k w
ur se
r ing
Ġ =
ili in
B itamina
Ġkina b
Ġmah ulog
5 9
aw in
Ġlup on
ĠG an
Ġmag m
Ġtang ing
ĠM y
ana o
Ġv ery
alaga yan
uti on
hin ese
min ist
Ġt est
ar yo
Ġ2 9
T ungkol
app ly
Ġgum amit
Ġp lan
N P
z an
Ġpro ject
Ġf o
Ġlo la
ĠN AG
A lisin
e ep
Ġshow biz
ser il
Ġta gal
t s
ĠU k
Ġnap ansin
/ )
Ġkah ulugan
ĠB re
ĠM on
gal it
ĠB u
aw asan
Ġboy friend
tim e
Ġpharm acy
Ġhang in
Ġ >
M ar
alik an
c an
ic o
ĠF ran
ĠĠ ĠĠ
ĠPres ident
ga d
P art
Ġ0 1
ĠâĢ Ķ
Ġta asan
ali an
ing at
Ġf ilm
ĠO o
aa aring
Ġsit w
on y
Ġas s
Ġb en
âĢĿ .
ĠUn ivers
ĠI lang
usin ess
Ġbas ahin
Ġ alak
am o
Ġko le
Ġnags imula
Ġh akbang
p l
f o
Ġimp ort
ĠK AY
ĠR a
ne y
ĠA nak
Ġsup er
2 8
Ġip akita
le ge
f ac
Ġsig e
i isa
es ti
am is
ĠT ra
ug ust
Ġ alas
ed yer
Ġs m
Ġkan ta
Ġp ondo
Ġres p
ri wang
Ġle eg
Ġnat urang
Ġmapang anib
Ġmah igit
us a
ah imik
is it
Ġs angk
ĠF er
Ġe mail
um i
Ġcell ulite
Ġt el
Ġc lass
Ġb arangay
2 7
ĠK ore
op le
C ream
er ye
ingg il
Ġka usap
b ayan
Ġ z
ĠRe view
Ġ yang
Ġt ar
ĠA yon
T ulad
ul l
b og
im ulan
ay aw
F ac
uk asyon
aga y
Ġte am
ĠH INDI
No ong
Ġpana hong
ĠB en
ĠS e
Ġf uck
se na
it ness
Ġbig at
ight s
. )
Ġb aba
amp ok
Ġcalor ies
ga nap
am ilya
c ial
Ġmab isang
Ġsum as
ula te
di o
Ġmas as
Ġmana na
ab lo
Ġn ormal
Ġpamb utas
Ġum uwi
Ġt ulu
ud e
s u
al ok
S ino
ir inig
2 1
H e
Ġlayun in
Ġisip in
Ġdetal ye
Ġnan iniwala
ĠM arami
Ġli ve
ĠA king
ĠA m
Ġdag dag
ĠA te
b id
Para sites
Ġmala lim
S inabi
U P
Ġna laman
ĠM ore
Ġpag od
Ġe to
im ulang
Ġkap it
Ġfre e
c tion
ul ub
Ġmak uha
Ġnila laman
Ġpagkah ulog
li day
Ġla hi
Ġmaik ling
ens e
Ġpinag s
ĠDep artment
Ġkat eg
ĠJ ose
la x
âĢ Ĥ
ĠE l
Ġ ana
ram a
Ġdri ver
Ġna a
K um
Ġes p
dam in
Ġsi yempre
ra ine
Taga log
lo ck
ĠBib liya
alig iran
Ġh ayop
IN O
Ġpum asa
ĠE sp
Ġs uot
Ġproy ekto
Ġte le
Ġc ard
Ġp ansin
Ġga yon
http s
w ood
Ġbina ta
ak ot
al itan
Ġ201 1
ih i
di es
Ġh and
Ġl ub
sh ip
Ġs ulat
Ġt its
H E
Ġpang k
Ġnakak at
Ġk alagayan
ĠJ am
ĠS limming
Ġna ramdaman
bang git
m s
ĠG ina
ib ers
b oy
Ġtoena ils
ĠJ er
Ġk alikasan
apat id
na tional
ĠB ro
wag an
ĠKris ti
ĠP ala
Ġmab uting
ĠB ata
g usto
Ġk aloob
ili k
Ġga nap
Ġmala yo
Ġh ari
ec ember
ĠB abae
Ġmal inis
Ġmas amang
Ġka agad
ĠBib lia
Ġma dilim
S S
Ġ201 0
Ġsh ampoo
Ġlin ya
uh od
ru z
I ba
Ġm urang
Ġpala bas
irit u
ang an
ĠD ay
ut a
Ġmar unong
Ġhina h
Ġgam e
g atas
ik it
ĠS akit
A p
ĠPo lice
u on
ĠQ u
ins k
Ġpagli linis
Ġp un
Ġmas akit
ind utin
3 5
ang is
ag ing
Ġsitw asyon
U nang
ĠB el
ira l
ĠP EP
ĠI ka
Ġg ulay
Ġpags is
gles ia
ng i
ĠS iguro
ĠP O
ht ml
ĠKan yang
at es
Ġp insala
Ġh anay
ĠCh ina
Ġb atay
Ġ201 4
Ġh appy
Ġsw im
Fac ial
v est
ĠPas ko
am atay
Ġme dic
Ġmags as
i fe
ah iya
d ness
Ġlok al
Ġb er
Ġh orm
aw al
iy ahan
la ban
Ġs tor
v is
um a
ul uhan
ĠEn ter
Ġkom un
Ġpangang ailangan
Ġd ak
Ġ ukol
ah ah
Ġib ina
ind anao
p or
int ment
ar on
w igan
0 5
Ġp ans
eron imo
c to
Ġb ato
Ġhali p
Ġd ownload
AW A
Ġsand ali
Ġng ang
oc o
v ers
Ġf eed
Ġpro pes
Ġharap an
ic ial
isip an
" .
ys ay
Ġw ant
Ġtek n
Ġi bigay
ĠI ba
d uc
Kas i
u ff
Ġal m
Ġk ons
uy as
Ġna d
L E
am ahan
Ġpis ngi
M aliit
Ġma ma
Ġph oto
Ġd iba
is an
B as
I ON
__ __
S um
Ġta as
ĠM etro
Ġm ati
ĠR izal
Ġ ?
lo od
Ġmah abang
Ġpup py
Ġtr ip
li wanag
Ġcom ment
iti es
Ġpagb ibigay
Ġfung al
Ġdes isyon
ĠE h
ra ct
S h
ĠG eronimo
Ġgina mit
ak in
oto x
y ag
Ġas in
ut s
ĠK ar
lig ht
ĠK uko
os to
ĠS al
Ġl and
Ġlum ala
H INDI
Ġkum panya
Ġh ug
igdi g
ĠH abang
Ġex per
Ġtr at
Ġc han
âĢ ĺ
el y
ĠI I
Ġc ute
p itan
w o
Ġs ukat
Ġre ak
Ġinter es
ĠT al
ig nan
ara s
Ġgumaga wa
Ġre b
Ġ ali
ĠS ant
Ġl et
ĠPagk atapos
Ġkan ser
Ġpan ig
ĠRod r
ĠP um
ĠS en
Ġban yo
Ġakt res
b uhay
r ina
ĠNak ak
Ġth en
Ġcell phone
li st
ĠPina g
ur b
ĠSc hool
ĠPag tatalik
kas yon
ĠLot seril
Ġinter net
ĠUk raine
Ġlip unan
en syon
ilit ar
alaga y
b log
eb ru
era ld
lala ki
Pamam aga
as al
ebru ary
Ġpum ili
Ġn ews
Ġpap a
ĠM insan
ah i
Ġph one
ĠP ort
Ġlum aki
b all
ĠMay or
and ahan
Ġm ina
Ġnin yong
T a
ĠV ic
hat i
Ġkab abayan
ĠT ag
Ġmonth s
ĠLo ve
h il
Ġam oy
Ġn utrisyon
end a
4 0
ĠI mp
Ġho liday
ah inga
ĠEnter tainment
Ġh am
us ang
ap ekto
ĠM ic
Ġfam ily
Ġ usapan
Ġrek lamo
ĠPang ulo
Ġw ay
Ġma dam
Ġtrat uhin
w akan
bag uhin
Ka ilangan
en o
lan in
aw akan
Ġla yo
ĠA k
ĠS ub
ĠH a
ĠPAR A
ff ee
g anda
ĠA ma
Ġc ho
Ġkun in
gdag ang
ĠH anggang
Ġna hih
Ġt ind
at ig
Ġbirth day
Ġdam damin
am ba
Ġt er
Ġpan in
Ġkar ne
Ġ x
ĠD on
Ġmah ih
un es
ĠB ea
pat ay
ĠS ir
uw id
Ġb id
olog y
... "
up it
Ġnagsis imula
mas ya
Pagk atapos
Ġsum unod
Ġt apat
hah anda
ĠJ apan
ik at
Ġm er
ĠNat ural
ang e
Ġk araniwang
Ġit s
ĠCh rist
Pina kam
Ġnag bigay
IY A
Ġlum ang
f ore
M ah
Ġs ur
Ġpelik ulang
Ġb lack
ĠG en
u ento
u ice
Ġc y
ot h
Ġma gawa
Ġbea uty
Ġitinut uring
h as
Ġtaga log
Â »
ĠM ali
Ġek onom
eb u
ĠM iss
Ġkas angk
Ġc lay
g andang
ĠAK O
Ġapp lication
Ġd ays
y le
M araming
S iya
Ġsa mp
Ġprogram ang
ah on
es erye
di la
Ġbal dness
ub re
bang hel
et ing
o us
Ġsus pek
ĠMar cos
Ġp ulang
lig tas
k aya
li pat
Ġl ng
ĠP op
inas yon
t asan
an e
Ġpa der
ver t
Ġib alik
Ġk il
u a
Ġpict ure
ad ura
Ġ6 0
Ġw or
p akita
pis ode
Ġfriend s
Ġpang ulo
ur ong
Ġpina n
ula k
ĠV ice
ust ri
Ġh ere
st er
I na
Ġmam atay
I s
Ġmasya do
iy empre
Ġe very
Ġtum at
Ġk itang
Ġtaga pag
Ġisip an
ĠAr t
Ġh ugas
Ġac tor
uk asan
ek siyon
k ap
IL A
Ġth ink
Ġnag h
?? ?
Ġant as
us h
el ya
ĠJ ust
ĠM ap
Ġpro f
Ġmis is
Ġh ips
ĠK im
it in
Ġng ipin
ir m
P am
Ġ ulat
ort h
in st
end e
ik ap
ĠT han
Ġb et
ala y
B ulate
Ġnat at
Ġpagpap abata
ĠNo ong
Ġa aral
Ġpar masya
Ġmali naw
ĠP ANG
Ġi w
Ġi long
C H
ga syon
ay ad
l ot
ĠG um
Ġan yo
Ġh ard
aling sing
ĠOff ice
banghel yo
a angat
Ġt unog
Ġmat inding
L angis
dis yonal
Ġsa mb
ad ali
Ġnam e
Ġr ate
d ating
Ġlum itaw
Ġmab abang
us al
Ġnagpap akita
Ġpart y
Ġkalam nan
uri in
ĠP in
ĠD ito
lik ha
Ġs kin
Ġkap aligiran
ĠC ruz
Ġj o
Ġpang ung
abaw asan
Ġlin k
Ġl eb
ĠB atang
Ġnak araan
ĠB est
Ġn ew
g g
an ta
L O
al k
ĠL im
N asa
bo ok
Ġbur dock
Ġpuk i
Ġb ust
4 5
H abang
ĠC enter
ir t
ec tion
ĠAle x
Ġb raso
Ġ0 7
ed y
id s
Ġre d
n el
ĠP ad
Ġbin igyan
Pag baba
Ġpo int
Ġma ari
Ġp undamental
Y A
T h
ro w
ĠP wede
Ġib aba
C P
Ġkab ilis
ĠJ uli
Ġmala mang
ĠB ook
ĠU pang
ri es
Ġkara gdagang
ab uti
ĠS inabi
om a
ery oso
ĠF ace
Ġek sena
er na
Ġas o
U K
ak s
ĠL ANG
ud a
ut ol
Ġnagb ab
ĠI big
Ġfec es
s is
Ġhina hanap
und in
Ġed ukasyon
Ġ ya
Ġt uk
v an
ril yo
Ġopis ina
ĠMari a
t it
Ġbab oy
Ġka ugnay
at s
P arang
Ġtel eserye
ot a
te ng
ĠB an
Ġma is
ĠP apa
y am
Ġsi de
r id
Ġpagk ab
H ome
Ġma unawaan
ĠPag gamot
Ġpas ok
ĠJam es
ĠT O
Ġex ercise
ĠT om
ĠL itrato
H i
Ġess ay
2 00
und an
ĠP ak
Ġma aga
Ġsimb ahan
or g
Ġp m
ĠC hinese
Ġsa ma
abet es
ĠP ac
Ġh ih
hi yo
Ġherb s
lik ong
Ġnet work
AL AM
Ġkila lang
Ġpag hing
Ġpr oseso
Ġcomp uter
Ġmar k
com e
F olk
Ġpagtat alik
Ġben ep
Ġtut a
Ġmag d
ĠK al
m ig
Ġmagkak aroon
lin ika
P as
u usapan
ist ro
Ġs eg
p ad
Ġnab asa
Ġp ulit
ub uo
ap i
ĠIn st
in ner
Ġs ystem
pe to
ĠA L
Ġcas tor
Ġmab uhay
Ġpa yo
ĠC la
Ġs ena
A r
Ġm ess
Ġb ib
ĠSec ret
ill s
ak ilala
Ġsapag ka
ta gal
Ġ200 9
ĠG ab
en yo
un la
ig at
ĠS ing
Ġpala gi
Ġg en
s to
le y
ang iti
ĠG awa
Ġlala wigan
ro id
Ġ ospital
na is
ec tive
ĠA S
ĠT in
n d
mb er
Ġn ob
ft ware
en joy
Ġt ho
Ġcon cer
Ġd oc
Ġkasaluku yan
r os
Ġbub elya
Ġpas s
ina g
ĠM en
Ġnaghah anap
ĠSant os
b ack
D O
Ġlum apit
Ġak tor
ĠM ukha
ĠL aro
ulub ot
Ġsa d
na ta
Ġma intindihan
Ġkam atayan
la tion
Ġw akas
Ġ 00
Ġ ulan
ĠCh ar
Ġnag pa
f ic
ĠD IY
Ġd ek
Ġo ver
ĠH un
ibig yan
ig ma
b in
g ement
Ġsub alit
Ġartik ulo
Ġc ons
a as
Ġta x
l os
Ġnak ilala
Ġst ud
ula man
ĠRem ate
s unod
er ation
Ġkab u
ĠW eb
Ġkum akain
alit ang
Ġr ating
Ġli wanag
t ot
Ġpup unta
ĠB ig
Ġtin edyer
ĠB ut
A s
f or
Ġk awalan
ĠB ilang
ĠKristi yano
us uportahan
E C
Ġh ala
ĠB in
Ġb ilis
Ġkateg orya
Ġo ur
Ġbro wn
ab ol
EN T
am ali
ani el
Ġbas e
Ġpamp ub
cto ber
3 3
Ġal in
Ġpatay in
ro om
H O
las h
Ġin f
pon o
Ġmap a
op y
Ġp inoy
me al
ap ter
Ġkom ento
m os
Ġp ilipino
Ġsup orta
dam an
la syon
Ġsex y
B umili
alaga han
ĠFor um
Ġle ad
pp les
ter n
D ark
ga ya
Ġposible ng
Ġsp orts
ĠRich ard
T ablet
Ġj uice
ac t
Ġ3 5
ĠBas ta
ĠB A
Ġ0 2
at meal
Ġni pples
Ġla lam
ĠN ob
Ġkont ra
le ng
te xt
wit ter
osmet ic
Ġp i
Ġsa h
P inoy
Ġad minist
Ġgirl friend
Ġser ye
r er
na m
Ġbum ab
Ġf ile
Ġbuk od
Ġnand ito
ers on
k al
Ġum abot
Ġb utas
ĠS er
Ġnap ili
s ana
G an
ulang an
Ġd em
O K
ar s
Ġop in
os ible
ĠW ika
Ġpamb ansang
le d
Ġkasangk apan
Ġg ulaman
va o
) :
0 9
Ġes pes
ĠC R
ĠH aha
Ġd ulot
Ġut ang
ĠA ra
ĠH in
ibili dad
Ġtat lo
angg i
as uso
Ġna banggit
i ro
la h
Ġl ubos
Ġb usiness
Ġmis s
li kasyon
Ġp ilit
a use
Ġsi ra
Ġkum p
ĠD o
Ġbalik at
Ġp es
ow er
Ġro le
ug atan
Ġkuw arto
s alamat
ĠG erald
Ġta uhan
3 4
ĠS te
Ġsib uyas
ĠT ingnan
ĠPag pap
Ġmah ahalagang
Ġt ulog
Ġherb al
Ġoff ice
ik i
x ide
Ġpa y
ay ap
Ph ilipp
Ġbah ala
.. ...
Ġmangga gawa
ir d
Ġmagk asama
ic le
Ġtum ingin
0 1
U B
P at
m ong
W ag
Ġk rim
Ġleb adura
Ġh en
ĠPag big
c ed
ĠWe ight
it is
is sion
Ġma aring
p ose
ĠL ar
3 8
Ġna u
ĠP inas
nak it
Ġy ugto
Ġs orry
iw atig
Ġpat ungo
Ġ19 9
Ġpuwede ng
ĠH esus
ab ilis
Ġch ara
Ġtind ahan
Ġ ago
ep te
ĠM ac
om et
ĠS he
3 9
asak tan
Ġmat ulog
ĠRus sian
Ġsing it
B ago
ec h
ĠA ct
ĠMab isang
ĠPina kam
Ġbre ak
pan y
ĠI yong
al ya
Ġpr utas
M e
Ġh ome
ĠHo use
Ġbus y
Ġb andang
Ġser ies
v ing
ĠE uro
R T
o ff
Ġbak la
epte mber
AT AW
und ok
Ġan y
ĠW orld
re w
ĠB arangay
Ġe t
Ġpas alingsing
ĠK ay
el lo
ana tili
ĠU P
Ġr ental
Ġh ita
Ġdam o
ab og
Ġma rinig
Ġmak aka
ho p
inira han
r ero
Ġimport ante
um ento
unt unin
Ġtum ulong
ro p
ĠW ag
Ġpag w
Ġdis k
la ki
arap in
3 6
ĠH ina
ĠM om
A l
Ġc usto
vern ment
ĠH igh
ro gen
ĠIng les
Mab ilis
um iti
ula syon
ling kod
ag anda
Ġpub liko
ab o
u ong
b ub
m um
ateg orya
u usap
ĠS ila
Ġb ud
ana na
S t
ĠN et
Ġnas abi
Ġgro up
di riwang
Ġay os
Ġc rush
ĠH ahaha
Sub ject
Ġcare er
up ang
Ġin n
ĠP i
ĠS how
Ġs te
ĠY un
us ina
ung aling
Ġni yan
ĠI B
Ġn eed
ĠRodr igo
ĠP ap
Ġbid yo
Ġthe y
Ġpam inta
Ġto e
e leb
Ġtak ip
Ġmags is
Ġh ot
alak ay
Ġb is
Ġs ong
ĠV i
Ġmala gas
Ġpanana mpalataya
u yong
Ġh ubad
Ġle ast
Ġsig urado
M AN
Ġmagk as
ĠPagbig kas
and y
p ress
Ġmags alita
Ġk esa
Ġgu est
Ġlalam unan
ug ht
Ġm et
Ġkila lanin
Ġni g
Ġf ood
Ġpa anan
re g
Ġi h
Ġna la
Ġpar te
L aro
Ġmatat agpuan
Ġmask ara
ĠP ar
Ġlam b
Ġ *
z h
b re
IT O
Ġed ema
Ġnak ikipag
Ġmala mig
w ord
Ġbay ad
hi rap
I H
ayap aan
Ġh inggil
T A
Ġtum ayo
Ġhang ga
ah ina
ĠAn ti
ak ip
Ġt ong
ul ok
Ġmaw awala
Ġtina nong
Ġlib og
Ġkal s
Ġhe alth
Ġis t
ĠG ar
. âĢĻ
Ġgina gamot
M alaking
ala ran
Ġmalala king
Ġin iwan
ĠD av
ĠJess ica
ĠW ith
ĠK ras
ar inig
amp a
Ġs ent
aw ad
ĠG anda
ĠAy aw
Ġst at
Ġtekn olohiya
Ġk linika
i wa
c is
al es
c lick
up unta
Ġlup ain
v ious
Ġma mb
Ġkat an
Ġta inga
Ġa ir
h ana
ĠS ex
Ġas ul
ĠT anong
E pek
Ġcap s
ak da
Ġkina laman
at ura
Ġresp ons
Ġt awa
l us
ĠT rans
a alala
Ġcom m
Ġnag ulat
Ġc le
n i
Ġmot or
Ġkakay ahan
S akit
Ġh ila
z ing
Ġl ol
w ays
Ġsum agot
Ġtin it
ula s
Ġtag umpay
ĠM arian
Ġ0 3
ĠAmer ika
ĠE nglish
S ing
Ġb ody
up orta
d es
ga lo
and al
Ġpag hih
Ġmo mm
Ġd ahan
Ġmah aba
y pe
ĠC al
Ġe ng
ta ct
una han
Ġho use
ug in
ĠDIY OS
Ġmala laman
ĠT ang
in ong
ĠA kala
Ġpabor ito
et ime
M arami
Ġtah imik
Ġmab awasan
m utan
ĠT A
rip t
ent uhan
ant alang
U G
com m
Ġnaga nap
Ġgaga mit
l on
Ġsapat os
Ġmags unog
P um
ĠM alaking
ĠM AY
Ġth ere
Ġs to
uth or
Ġnaw alan
Ġla r
Ġs el
ĠUn ang
Ġnig ht
Ġnags abi
Ġp olit
ys he
un ter
ina b
Ġka in
Ġh uk
alag ita
Ġ view
Ġd el
Ġw rit
Ġp uti
Ġsi k
A h
Ġreal ly
Ġad ult
ch ed
ur ity
ur n
O D
Ġpa ga
Ġmas uri
c ia
Ġk awan
Ġin sp
IT A
ĠI glesia
ep e
Ġl ot
ĠM edyo
Ġinaas ahan
ob ra
ĠN akita
Ġpampub likong
Ġpagpap uti
ĠH alos
Ġre port
Ġ @
Ġto ol
Ġsa la
Ġmali ban
Ġga wing
Ġbenep isyo
ĠP NP
Ġga y
ĠMart in
ub lic
Ġact ress
Ġre qu
Ġl it
w apo
Ġg reen
de z
G aano
Ġme an
ob o
her e
uh it
Ġib at
Ġhug is
ab ihan
Ġh t
rec tor
Ġre li
Ġmomm y
ĠB alita
Ġpag e
Ġsan ang
Ġmag pa
ĠM am
ok ong
or i
ĠT ungkol
w ers
ĠM indanao
ah anap
m aya
iz e
Ġhel p
ĠMic ha
Ġay oko
Ġpana tili
Ġhum ingi
Ġm ilitar
en cy
ik ip
Ġmagb awas
Pag kain
ho va
Ġmak arating
r d
ay un
0 8
M an
Ġpos isyon
Ġs em
Ġtina pay
re ng
Ġtum akbo
Ġi g
mp lo
uns ad
ip ili
ĠM aaaring
Ġsum ulat
Ġsi gaw
Ġekonom iya
0 6
la gay
Ġam o
b ie
S ige
Ġkals ada
Ġnam um
Ġh alik
l u
Ġkah irapan
M ali
Ġt ungk
ĠDi et
ĠP er
illi on
ĠW h
ĠP amp
ĠE m
Ġlig tas
Ġinter view
ĠM ama
si ya
Ġbit uin
ec tions
Ġit inat
ĠI pina
Ġpan ingin
Ġtele pono
I pina
s ama
Ġd at
tor ya
Ġpanana w
ĠIn d
Ġw ho
ah ay
Ġdam ing
ap asok
w ard
) ...
c ent
ut ulong
Ġr ight
AP AT
ĠM in
Ġib ahagi
t he
le gal
Ġ0 9
ĠS ak
ĠSup er
ĠB otox
al ino
Ġbur at
ad or
Ġtum igil
Ġs unod
ĠC or
3 1
Ġs yempre
ĠH erb
Ġ4 5
AH AH
Ġma ib
Ġ0 4
ga wan
Ġnag hihintay
f i
ara gdag
ana s
ĠF ilm
ĠW ord
ik ano
Ġmay aman
Ġg utom
ĠD ag
Ġpagt uturo
ĠN arito
Ġas k
May roon
akas al
hh hh
Ġhin lalaki
AL ANG
Ġsim ulan
y p
t ag
ekt ahan
Ġp ut
ul uwa
Ġnagsas alita
Ġm ura
Ġna ip
rap at
og le
Philipp ine
Ġpinakam alaking
c al
Ġo atmeal
Ġn on
5 8
O Y
g ot
ĠFer nan
Ġmal usog
g rap
Ġmah alagang
Ġkak ulangan
t alik
ĠC am
Ġl ong
Ġ3 1
Ġl yrics
ĠP re
sa a
um ero
3 7
ia o
at iba
ĠBre ast
ĠP aa
ĠC ebu
aba an
Ġpanana liksik
aw at
M ad
Ġp intuan
c hi
Ġbo x
Ġpagbab agong
Ġa udio
rac ay
ĠM ayo
ensi on
ĠB um
ĠE li
di an
L ib
Ġb ot
ant ayan
Ġin j
Ġno o
Ġpero xide
T E
Ġip inang
Ġart ist
Ġh usto
Ġtek sto
Ġnakak apag
gal in
Ġthe m
ĠP AN
Ġhe ad
Ġk ultura
Ġlo ok
ĠDav id
Ġkan ang
Ġnat apos
g ro
R I
ĠUnivers ity
ĠDa vao
m ate
ĠH alamang
Ġ roon
at ag
ĠL alo
ord er
D apat
Ġh anapin
S amantala
Ġj an
ĠS alita
Ġnan inirahan
ĠJ en
ĠM insk
lib ot
ĠL unes
M atapos
ala yan
Ġpatak aran
ast os
ĠS im
ĠD aniel
Ġpagt anggal
Ġ200 8
Ġ $
Y ON
an yos
lo ve
Ġpamum uhay
ĠO f
Ġh yd
Ġth esis
Ġpa ri
F P
sp ot
Ġs un
AY AN
Ġnags asabi
ĠMak ati
Â ©
I mp
Ġut os
Y ou
b um
ĠKris to
ĠMag ing
per atura
h ok
Ġmah igpit
Ġd ec
ĠD ating
ol ly
Pag pap
ĠP orn
Ġb ec
ug od
Ġthan k
ĠS un
Ġadd ed
ĠMal yshe
st r
Ġla te
Ġtanggap in
ab ilang
Ġnar irinig
ra nas
ut os
Ġlum alabas
ĠS obrang
ĠB itamina
ĠS y
in intuan
ris ti
anu ary
ub og
ask et
0 7
Ġc er
Ġlum alaki
Ġnags alita
O h
as ang
t uloy
ĠE r
to o
c ter
Mag andang
Ġepek tibo
Ġip a
p i
ĠC at
Ġdirek syon
lis ta
Ġg el
ut uring
ĠH um
Ġe vent
Ġpa d
s ue
Ġp insan
ĠChrist mas
Ġkaga bi
uh os
â Ĩ
lat ed
Ġpropes yonal
d om
Ġl eg
Ġkon disyon
Ġmam aya
ĠN aka
ot s
at or
u es
Ġbe fore
Ġkala p
Ġpan iniwala
Ġind ustri
Ġf itness
Ġt od
h ad
Ġt ry
ar il
Ġwh en
il ity
Ġ )
ĠJe hova
Ġcan cer
la ro
Ġsp ecial
âĢ ĵ
Ġpa pasok
ĠL ag
Ġan iya
Ġmal l
Ġf ol
anak an
e ye
Ġmag pas
nak aw
Ġila w
Ġmaga gandang
Ġent ry
Â ł
Ġsin ce
Ġkah oy
Ġ ugali
ĠPro bins
ĠSab ado
Ġw ar
Ġs ta
Ġnat atang
Ġmab ait
Ġsi lid
ĠFac ial
AS A
Ġla w
ĠD ad
ĠM il
et te
ro ad
et an
Ġw ell
us uri
Ġsak aling
H anggang
âĢĿ ,
E x
o f
U W
Ġs uriin
Ġare a
ĠDi rek
Ġy ong
Ġpagkakata ong
Ġc enter
ĠB ago
Ġnak atingin
k lak
ĠB ina
K at
ant ika
Ġmak ik
Ġpet sa
Ġgin to
ah ahaha
Ġmaga gamit
Ġt ema
ĠD alagita
An d
Ġbab alik
ers yon
i or
Ġpr ins
B ag
as o
b alik
is ter
as is
ĠP amb
ĠB ang
ĠD um
Ġkaloob an
b akit
Ġb isita
sc rib
ili c
ud y
Ġs top
T apos
ĠPort al
is o
aga mot
Ġpag pasok
bah agi
ĠG awin
Ġnangang ailangan
Ġkam ag
ĠC H
Ġt wo
0 2
i x
Ġn il
Ġs ugat
b it
Ġna it
c el
ĠPara sites
Ġj eep
AT A
Ġb ala
Ġim ahe
ment ary
Ġw in
P ress
Ġest ado
ĠM aya
Ġnakak atulong
Ġkali g
Ġhah arapin
Ġpagtat ayo
IL ANG
ĠIs lam
eb rero
awas to
ĠG r
Ġsc reen
ĠL aser
Ġv ir
Ġit in
Kap uso
ub a
Ġb unga
Ġp lease
Ġpa ulit
Ġkinab ukasan
Ġli him
v al
Ġik alawang
ĠS M
Ġkali mutan
j i
ĠJ ac
O kay
on o
ha ir
Ġnana na
ĠP ed
k aroon
ĠG e
ES T
ĠT ama
int ana
Ġnap at
Ġman un
u od
ng a
B um
Ġkarap atang
ay anan
L ab
th ala
ĠC ont
un c
ĠN an
ut usan
un ic
Ġs en
Ġt ulungan
j ust
s abi
Ġs k
Ġk ilo
Ġpinap anood
ilic one
Ġpagk atao
re et
ĠS ta
Ġap ekt
Ġh aba
Ġp unong
ĠH ar
ĠB ela
ble ma
Ġk ada
L arawan
op e
Ġo h
ĠKap uso
Ġmagsas aka
p res
ĠEsp iritu
rap y
Ġnat agpuan
m ak
Ġpr ib
Ġeff ect
Ġ0 8
O G
0 4
ĠC as
Ġpaghah anap
t apos
Ġkala k
g ra
abang an
ĠK AN
Ġadd ress
ik asyon
ĠV il
o ga
B y
J anuary
m iss
s ap
âĢ¦ âĢ¦
ĠM aga
Ġmis mong
Ġs y
Ġas no
ub ay
Ġli der
kt ubre
ĠK ah
Ġchara cter
Pinakam ahusay
ĠNob yembre
una l
Ġli kas
s akit
ĠR ec
ĠO p
Ġche ck
iga rilyo
Ġs weet
Ġ19 8
ĠA M
Ġt ips
itt en
Ġpagt ulog
Ġtum it
Ġkatan ungan
Ġlamb lia
3 2
int ahan
Ġtum awag
ex p
imple ng
Ġd ist
IL IP
Ġkala basa
un ch
ĠSo ho
Ġimp eksiyon
ĠF e
Ġla rang
Ġkal uluwa
ana w
iyer nes
T ube
Ġr est
Ġpe ople
ĠAs s
Ġh ap
ĠL alaki
Ġsus p
Ġis sue
g yan
r yo
Ġpap er
Ġhe art
ĠBo racay
Ġ ubo
Ġl u
ĠHe art
Ġ ^
Ġpagbab alik
end er
Ġ other
N A
Ġcol lege
Ġth read
ĠO h
up ong
ĠS I
Ġpagkak as
Ġpop ular
Ġt amb
Ġ !
Ġkas abay
UH AY
Ġnag pas
Ġpala gay
Ġpap aano
Ġkon ti
Ġt saa
Ġb undok
ĠDis yembre
Ġtina wag
Ġpanatili hin
s imula
Ġtem peratura
ĠM AK
al bo
ĠEn ero
dik al
Ġt ab
Ġnak ipag
ĠGirl s
ump ati
alaga an
G um
Dag dagan
ĠN iya
ĠPat rol
Ġbaw iin
r ating
ur ant
ĠI TO
lik an
ik ular
Ġsig ura
el la
ic es
Ġhum ih
P inas
Ġmagb ibigay
uyo d
âĢ¦ ]
Ġ- -
ĠG ood
IB IG
d apat
Ġm ed
ĠS et
ir ma
Ġ ub
ĠP amam
ĠMag anda
aw it
ĠPag t
S T
ĠG et
S iguro
ĠH ow
ĠM ata
Ġpa sa
oc i
ĠM D
Ġreak syon
ĠT r
ung us
ĠN ab
Ġexper ience
Ġpek pek
E O
un ot
dad ala
ĠO ras
do w
Ġco ffee
di e
pe ta
Ġsh ort
ik s
Ġpan uk
Ġsam ahan
al ubong
ĠAn n
v ed
Ġpin ili
Ġst ress
Ġna li
in to
sa gawa
Ġg e
Ġpang anib
unt ong
t l
Ġpub lic
Ġcam era
Ġlig ht
Ġlin ta
ĠHun yo
m ad
r yong
ĠM ukhang
Ġmag tat
Ġbina b
Ġide ya
Ġka unti
ĠAn ne
Ġp int
Ġb oss
es tiv
0 3
ĠS agot
Ġtulu yan
t ad
Ġor der
ag ram
G iardia
j ob
Ġit em
Ġmedic ine
em o
l uto
as yong
Ġkan did
gles ya
Ġnak u
ain it
ĠInter national
Ġpin uno
Ġkawan i
Ġga bay
Ġpun to
Ġkag andahan
imp les
velop ment
ĠNap ak
Ġbar il
h asa
Ġum u
Ġc all
ĠS ur
Ġ +
Ġht tp
Ġib ibigay
ĠM ig
os lim
kala hat
Ġe mple
Y un
ĠPad illa
Ġda igdig
Ġt l
Ġbat h
Ġh ow
ar ato
Ġnap a
M insan
r or
ta urant
Ġkum b
Ġpak sa
Ġits ura
Ġmal ungkot
hin to
s ito
ro b
Ġtang galin
Ap ril
Ġkaka ibang
Ġcl ose
Ġa alis
ve ra
Ġnaka upo
Ġlim it
Ġf an
ĠP R
Ġgina wang
Ġung uento
Ġkina k
Ġmags uot
.. "
ĠS ige
ga yong
Ġmara hil
Ġay un
Ġopin yon
Ġyo ung
Ġs ens
Ġg us
ĠM AR
ol es
s s
z ar
Ġres idente
Sing aw
Ġreg ular
ana lo
Ġum akyat
Ġbi gas
Ġm uch
Pag hahanda
i ipon
ĠM s
ĠP M
ĠK in
Ġe wan
Ġh ad
Ġc hat
ĠJ un
Ġt iwala
wer te
ĠL aw
ĠT ulad
us ulat
at in
angk in
ĠA ir
Ġpo wer
ri an
Ġexc ited
ĠNag ing
Ġsum ali
ĠRe v
Ġcat s
an y
" ,
Ġaw iting
Ġmess age
P H
ĠD O
ĠSan to
Ġna alala
ĠP IN
ĠU p
Ġsund alo
Ġpagli pas
ha in
ure d
abay ad
Ġb asa
Ġap artment
ĠMan ny
ĠK ita
ĠAg osto
P a
4 8
Ġup uan
am oy
ĠðŁĺ Ģ
Ġpa liwanag
Ġo intment
og rap
Ġi l
eb enta
ðŁ ĺ
E hersisyo
hah anap
Ġnagtat rabaho
Ġpang ako
as anay
ĠF o
it ikan
Ġkala ban
Ġc eleb
ra d
Ġpagkaka iba
um e
hih ina
Ġso ftware
Ġw orld
aw alang
qu iao
Ġt able
a u
Ġespes yal
Ġf lax
Ġkaga ya
ala ya
hehe he
Ġnana lo
ĠJ ake
ark ada
Ġpaki alam
ĠB uti
ĠLo la
ĠS apag
ĠSa an
ĠW in
is es
lam ig
ĠKas ama
Ġgagamit in
Ġs il
ga lang
in ungaling
ĠN anay
uw an
Ġb el
ih ing
ĠR E
Ġkole hiyo
Ġco urse
aw anan
Ġkas e
Ġi log
Ġb ida
estiv al
ide os
Ġpagk at
ĠC he
Ġd rama
ĠH alimbawa
ĠI k
ĠAlam in
Ġbag yo
la kas
Ġkala yaan
Ġmis ter
r ata
s alita
Ġkap alit
Ġsinas abing
mm m
Ġf lo
Ġfe el
Ġn e
Ġp ot
ĠS T
ĠN eg
i el
ĠA ugust
ah ero
no grap
olog ist
Ġm inam
hah aha
ay aring
ĠL ose
Ġcon f
Ġc ode
Ġdum aan
Ġka akit
ven ue
v on
Ġtrans p
l ol
4 7
ĠNA K
Ġinj ections
ĠB us
Ġmana lo
aa aa
Ġna lala
su it
ya ga
Ġdum ad
Ġtak bo
ĠO ktubre
Ġnatatang ing
Ġtum atakbo
Ġsam antalang
Ġlok asyon
Ġk itten
ĠWord Press
yar ihang
Ġp and
Ġbas ura
Ġpagw awasto
ug unan
leb isyon
Ġpab alik
Ġn umero
ĠI D
mp anan
Ġdi yos
o le
Ġsec ond
Ġsa me
ĠF ree
Ġd own
Ġmakap al
blog spot
Ġw a
Ġartik ulong
Ġc osmetic
und ong
ĠB alat
ĠKore a
ĠP ebrero
ih is
ĠC oco
ple x
Ġpro bins
form ation
fer ence
Ġkapang anakan
I W
ip id
Ġs ine
Ġ[ âĢ¦]
b ibigay
Ġs ee
Ġt ik
Ġnatut unan
ly n
er ek
Ġnagd aragdag
Ġp u
Ġpw et
Ġimp eksyon
to l
Ġhin inga
ĠFran cis
Ġpag na
Ġnak ukuha
zo le
uw eb
ĠMar so
Ġnagla lakad
Ġtra ining
ali dad
Ġsana ysay
ĠKap amilya
Ġkan i
ĠB anal
no y
amp o
ro yo
ist uri
ent ral
ĠB it
ĠY our
Ġn ene
Ġap oy
Ġpo ol
lat in
Ġpagli li
ĠB on
ula yan
ĠSo uth
ep h
li ka
um ent
Ġsana y
ul yo
Ġbu o
am e
Ġmala mb
Ġen joy
w ear
urb oslim
Ġkin ik
Ġmak asama
d ahil
lis mo
ĠK ina
sa an
C om
Ġi glesya
Ġk ulubot
ag andang
ĠAng e
ĠSecret ary
w i
B atang
Ġpart ikular
Ġpan tao
Ġd om
Ġn yan
B A
l uw
Ġbula klak
iko zan
Ġgam es
Ġgu ys
Ġcaps ules
Ġka away
ĠM aliit
Ġsum ama
Ġkalap ating
ĠD om
Ġtungk ulin
ĠAp p
Ġtal ent
Ġmait im
ĠT unay
ĠH ay
ĠA R
Ġlip ad
r ont
uk ang
Ġd ata
ĠP AM
Ġpam il
Ġkah alagahan
4 4
Ġm ans
ild ing
Ġtit ulo
Ġkur yente
ac her
Ġph ot
F F
Ġp iliin
Ġmat agumpay
Ġh ab
p ing
v o
Ġak tib
Ġsand aling
ĠH er
Ġindustri ya
ana t
ĠP ahina
ĠProbins yano
ah irap
P aa
ug tong
es bi
Ġma ling
E h
w or
or ial
an im
is yong
Ġkah ih
Ġac tiv
Ġlarang an
Ġkalig tasan
S ex
Nap ak
r ight
la in
Ġang kop
H air
Ġpagk as
ĠM eron
is asyon
Ġsangk ap
is k
ĠP H
ĠNov ember
ĠPang arap
ff ic
Ġkap ayapaan
Pina g
ĠM ike
ub ilin
Ġsub ukan
Ġw al
m ata
âĨ Ĳ
ab ago
Ġtrans port
Ġmas ayang
k aka
l er
Ġ ras
Ġgan on
v as
Ġma ila
Ġmahal in
Ġt ro
Ġbec ause
ĠK ala
Ġch ar
ĠB iyernes
Ġkas ong
Ġpagsus ulit
ĠJ une
Ġmil yong
uli ran
isit ahin
Ġmam antika
ek s
Ġtra disyonal
Ġconcer t
Ġbud get
Ġkomun idad
g u
ĠK UNG
Ġ er
Ġb anal
h en
mot e
ĠK AS
Ġum upo
om an
Ġin c
p ut
Ġb uti
Ġre galo
ast ong
un ity
Ġcream s
Ġser vice
Ġtak e
L aser
il yo
Ġtin ig
ri a
es o
Ġaw ay
9 9
Ġmod elo
vent ion
um ano
Ġemple yado
Ġkum ple
Ġgra be
Ġco unter
in ess
Ġnasus unog
Sa an
lik e
w at
Ġpala ging
l ano
orm a
Lum ikha
Ġah ente
ĠAp ril
Ġla kad
Ġmah ina
Ġpagk ilos
olly wood
ga yang
ar iling
W e
ĠT at
** **
Ġmus ic
Ġs ome
ĠD an
ĠRe yes
ĠT R
Ġkam akailan
ĠRus sia
ĠSena do
ĠPa ul
Ġk usina
Ġcont rol
Ġh anap
Ġv ers
ĠA kin
Ġe ver
Ġtan ungin
Ġpagpap agamot
ĠMom my
ing an
Ġpa w
ĠT witter
ĠR ights
lit aw
Ġpala d
ĠHe he
Ġpa yat
el come
Ġmagt rabaho
ud ulot
Ġnang ung
Ġtin anggap
Ġp itong
ĠA w
Ġd ate
Ġlala bas
ĠP rin
er to
ĠO k
Ġmagka ibang
r s
ik ayat
ro wn
ĠC in
g or
la ga
Ġnags imulang
4 6
H ot
Ġna l
ĠB ong
H ello
ala yo
Ġk id
lic a
Ġis torya
Ġro und
ĠPangino ong
Ġsa yang
Ġg wapo
ad e
ĠM AL
ĠAnd roid
b asan
ĠL ungsod
k ta
5 5
Ġkat ap
ĠTs ino
il es
Ġmat ulungan
ĠE D
ĠMala y
Ġh ag
lala ro
ra da
Ġt ampok
Ġh as
Epek tibong
ĠBela rus
Ġpa st
ur uan
O C
K am
Ġga gawa
ĠM AS
Ġna iisip
Ġbayan i
Ġbi ro
pek to
F ebruary
ĠL yrics
ic an
v it
Ġn ever
UL A
ĠF ast
T I
ig urado
D e
ĠY ork
ĠK ato
Ġpagtat asa
ĠK ing
ĠB ur
Ġmahih irap
Ġpas yente
ĠT HE
ad os
Ġhinih intay
ec hn
ĠT op
Ġpro duc
Ġkali dad
Ġkas iyahan
Ġcusto mer
Ġgina ga
K in
ug g
ĠPac quiao
Ġbin igay
Ġg uy
oc us
ĠPed ro
Ġsin is
h ali
ĠT ito
ĠPang alan
ĠA P
Ġmo der
OR E
Ġmil yon
f ect
Ġmab igyan
ĠT ina
Ġs u
alat ang
AH AN
Ġthan ks
Ġsho p
Ġbak wit
ĠK e
ĠN ila
atak aran
Ġs eryoso
Ġdina la
ve y
ĠV ol
ĠEle na
ĠAb ril
k ahit
Ġnag kas
Ġmanun ulat
Ġkat as
ĠJ uly
Ġpri v
Ġre f
Ġnag ka
vis ion
c ar
Ġla gay
Ġan uman
AH AT
Ġklase ng
AY O
ĠP r
orn ing
in ip
unt ang
de ng
Mar ch
p ly
ĠII I
os a
Ġka ugnayan
Ġnar ito
ĠAn ton
H um
k it
Ġm id
ĠN AT
Ġaw tor
Ġkailan man
Ġk uk
Ġland as
ul to
nap an
Ġpina y
hah a
Ġchan ce
ĠKas o
Ġnag ustuhan
D alawang
Ġe l
ant ong
ibers idad
ala d
Ġex am
ĠD ing
ĠF irst
Ġmana ger
id os
et h
sa ve
Ġsup port
re a
ur ch
T ama
Ġ ula
h istro
ĠP indutin
mo ranas
ĠD I
w alang
up load
W ow
B ukod
ra do
ĠO ne
ĠK ategorya
Ġtinut ukoy
ĠB ukod
ĠA udio
Ġnagb ago
Ġb anda
ĠP C
ĠD ok
M ahal
Ġbah ag
Ġmas abi
sik an
ĠMas akit
indi gan
Ġsad yang
da anan
i it
ĠS m
in ter
t os
asket ball
P wede
d ahan
4 9
T in
if ic
et y
ĠIS ANG
Ġlum ago
Ġalam in
re do
ata uhan
Ġt anda
ĠT urboslim
Ġy akap
ing er
Ġt alam
Ġh uh
ag n
ĠE v
Ġsalam in
res o
M ap
A ging
Ġdi abetes
p areho
Ġneg os
Ġop en
ph p
ew orm
Ġtum atagal
s how
ĠIn c
T han
hy d
Ġsena dor
F A
p op
ĠE ye
Ġse ason
Ka ugnay
a ay
Ġst r
Ġp iling
p r
Ġf un
N an
Ġpag g
Ġd ahon
Ġna tional
ĠMar ch
Ġno h
M ang
alik od
Ġsina bing
aga na
Ġsing le
ire d
al hin
h id
U n
ric k
Ġkum ita
ĠMalyshe va
ĠAnd erson
M M
ĠT ril
Ġkas amahan
Ġc ur
Ġi li
ĠP ablo
Ġut ong
al ungkot
uh ayan
oto han
B ig
AY A
ang ahulugan
Ġy aman
Ġng alan
pap uti
b b
Ġpro per
Ã ¡
Ġpulis ya
Ġw rap
ĠD ecember
aw id
Ġsig lo
ant ala
ad s
und uan
ĠMas aya
T ER
G ra
Ġmagla ro
Ġin is
Ġnagmam ahal
ol yo
âĢ ¢
Ġe pisode
ĠN ung
ak la
w ow
y ari
Ġth inner
art h
A A
ĠL OL
g mail
Ġan i
Ġnagla laman
Gam utin
E X
ĠE c
Ġga bing
ĠB ir
Ġnat atakot
rat es
Ġnagsas abing
ra ry
Ġp ila
ĠV e
ĠL uc
Ġumi iyak
t ed
Ġpaghing i
lo yd
Ġk atao
Ġap ple
lim utan
Ġup date
AL AG
h ip
Ġit ago
sy ano
P AG
lin ic
ĠB at
ĠPang ako
Ġnatut ulog
W hat
Ġpant y
ĠI m
Ġmus ika
P ana
Ġcom pany
Ġpagt atang
ĠW hat
m ar
ĠMag andang
ĠT ugon
ub ig
ĠBula can
Ġy um
T R
Ġkali wang
ĠH ulyo
gro und
Ġip unla
ĠComm ission
Ġmab igat
ĠNet work
g at
Ġf lash
iy eta
Ġkapit bahay
D ito
ĠS ocial
Ã ©
ĠG ro
unas an
AM A
Ġpag diriwang
. '
enn is
U ri
Ġres taurant
ĠB al
Ġs uliran
Ġmakak apag
ĠO ctober
ĠMus lim
Ġk ilos
Ġd id
ist ahan
es tion
as y
du ct
Ġpang it
ue va
ili dad
pl ano
Ġbe er
Ġdad dy
Ġ3 7
ad y
N aka
yo na
raw ang
B I
ob s
Ġmay a
ĠI b
Ġst art
ĠLu is
li ft
uh unan
Ġprobins ya
Ġpin ip
ur idad
Ġpana nakit
Ġst ill
Ġswim suit
Ġe mplo
Ġla p
Ġla gas
ĠL oc
ar na
Ġk or
Nak ak
k y
t han
igh s
av ite
Ġis k
Ġle vel
t ry
Ġs elf
ĠN as
Ġm ant
Ġsi y
s ub
ĠAl den
ĠAg u
Ġs omet
r um
ĠPro gram
ĠJ ay
ĠC ast
N ab
Ġimb esti
m ahal
e dies
Ġmat amis
Ġsum bong
ĠSub alit
Ġlumip at
Ġma le
E K
Ġka arawan
Ġkel angan
ur sing
ek a
Ġgumaga na
Ġpano orin
D um
ĠT ayo
Ġart icle
Ġuma asa
v ies
c ion
Ġay usin
Ġpang alawang
Ġkat unayan
Ġnakat ayo
ot to
ĠC ap
Ġall ergy
Ġfuck ed
uk al
Ġb intana
ila lim
Ġtag ubilin
ĠT ila
ĠA venue
ra ight
va ila
ira syon
M GA
up date
ĠA ga
Ġnara rapat
Ġtho ught
ĠP ati
AT E
ali ze
Ġd ress
Ġsp lit
Ġpres idente
Ġfo ot
ĠJ r
Ġgina nap
as ahan
P IN
h ab
lan es
Ġreli hiyon
Ġpag patay
Ġmags ulat
Ġcy st
res h
c am
Ġbak asyon
b ihan
.. âĢĿ
and er
ĠCh ief
Ġpas asalamat
ens ity
Ġsamp ung
ĠR yan
ĠUn idos
si ra
es ta
ĠT ita
! )
Ġsum akay
h ost
ĠO kay
Ġmak itang
Ġs ulok
a ari
ĠK wento
ĠP RO
Ġpagp up
er hiya
ee banghelyo
aga w
Ġgina gawang
ĠGam e
P ig
ag uyod
p m
Ġsag lit
Ġpart ner
Ġthe ir
co in
Ġmadam i
ko v
ol l
in burg
Ġrela tion
Ġkara g
em p
Ġnas aktan
IV E
Ġkina t
uga san
hh h
Ġins idente
ik os
ĠS us
Ġhinah arap
Ġnamam aga
un uan
Ġw along
ĠPag kain
Ġpang kalahat
uld ok
Ġs es
5 7
ĠBook ing
Ġf ull
ĠI lo
Ġte nga
ap ore
ĠTa on
ĠT atay
Ġsing er
igma an
Ġaw it
Pam ahid
ĠâĢ Ŀ
ĠYou Tube
Ġpab aba
ĠInst agram
O k
Ġal bum
erv ed
ah alan
b and
ĠFernan dez
Ġkel an
Ġma in
s ong
AN D
ĠMab ilis
S P
ol us
Ġkaba nata
E A
ab agong
lar gement
Ġkam panya
Ġpagbab asa
V ideo
Ġid ol
Ġ ;
Ġtit le
Ġib on
m ulan
Ġb ih
Ġi isang
Mag anda
Ġindi bid
ib er
ĠN ah
comm od
ĠD ist
ĠBib ilya
Ġbe ach
ĠA sian
Ġbum uo
4 3
Ġcom ments
rib ution
ĠT ha
ila lang
Ġle gal
ĠJ a
Ġ ramdam
il bing
Ġt ype
Ġmala y
Ġmati gas
d al
ĠM atapos
Ġdi umano
Ġpap untang
p akan
Ġr un
pag anda
Ġbuk al
Ġpa alis
h ol
al ot
end ing
ĠJos h
Ġpana yam
ĠJo ey
AK IT
Ġm g
Ġpana langin
Ġbu y
P ak
ĠAl lah
ab u
el do
Ġh ayaan
Ġinaas ahang
G ina
Ġoff icial
as hi
Ġla rawang
ĠE wan
A nak
uweb es
A raw
ĠM asa
Ġpagpap a
Ġkum para
Ġan n
it im
E W
Ġpagt atapos
ĠP ark
ĠF uck
ĠB l
ĠMicha el
ong rat
lili gaw
ĠPana hon
M P
Ġang hel
ĠP la
Ġmat uto
IG H
ĠL arawan
Ġco unt
Ġlab atiba
inan ong
ĠG old
ĠM atagal
inat nan
p et
Ġf a
ES S
ĠG aga
Ġis la
ĠPres yo
Ġd eb
ĠT iyan
Ġpagsas ama
Ġum iyak
ik aw
Ġbo ard
Ġpes os
Ġtat too
Ġpas ahero
Ġmagk akas
ana yan
o e
Ġsho ot
Ġth ighs
ch en
Ġbo la
Ġma agang
ĠAn na
Ġhorm ones
i as
Ġhyd rogen
Ġc um
Ġen largement
Ġe ven
Ġkrim en
Ġhop e
m ab
Ġm em
are hong
Ġab ot
Ġal ways
ĠL AHAT
Ġt uldok
gay ahan
Ġpum uti
ĠM IL
Ġpuw et
P re
s ex
Ġpan ib
ĠEle mentary
ĠK AM
red it
ol y
F or
Ġ ero
Ġnakas ulat
ĠL ou
Ġka una
Ġma inam
Ġlum ikha
ĠIn t
ĠA h
or es
Ġg ulo
5 6
ĠB ay
Ġl olo
M y
Dag dag
Ġf air
intay in
Ġharap in
Ġto ur
as ya
lul uto
hirap an
h agi
ĠV er
y y
Ġminam ahal
Ġnala laman
Ġmaram daman
ĠLang it
Ġsp ec
ak ala
ac io
Ġkw entong
l um
Ġc ase
ya dong
Ġkat abi
ĠA gad
ĠMah irap
uc tion
on i
Ġte lebisyon
ug ang
Ġb un
Ġnagp unta
Ġkur so
B ags
Ġana log
Ġprib adong
Ġeks per
ĠN orth
ch ar
re ative
Imp ormasyon
up er
ĠS ilicone
ag es
ĠW E
k ot
ĠEst ados
ĠL ord
Ġpagkak albo
Ġ200 7
Ġkab ut
AB A
T ra
Ġmo m
Ġsh are
ib ok
AR I
Ġb lood
ĠPuw er
Ġpla ce
t le
ĠU N
iti ra
res sion
Y an
ti fic
ĠW ell
kw ela
Ġst and
Ġterm ino
Ġaw ard
Ġpanana uli
ph y
4 2
Ġhum ah
ak ol
th ing
B in
ĠMe dic
uk la
ĠâĢ İ
ĠR id
ĠC ana
Ġm ikozan
AK A
O B
Ġkaga napan
ĠAy oko
ĠA ust
ing ay
v ol
ak asyon
Ġpagp unta
il og
ĠCo urt
ĠMad alas
ĠF ungus
Ġpos it
ĠS eptember
Ġac commod
Ġch ild
os isyon
i i
Ġnapak aliit
Ġmalamb ot
S arah
p aman
Ġi hinto
Ġc ider
ĠW ater
k ter
Ġlik uran
Ġn u
Ġkak ilala
Ġkont ing
ĠInter net
Ġs op
Ġl ess
1 00
li linis
Ġpaglala rawan
Ġt uhod
Ġtip ong
ĠTs upa
inst all
to v
Ġkas unod
Ġmakab agong
ĠS erv
Ġe mos
ĠTh is
Ġrec ord
ĠN awala
Ġmo b
k uk
t ok
Ġres earch
on de
Ġt sk
ub le
um ite
ĠK AP
ut es
pas yo
O n
Ġpinat ay
Ġc ost
T e
Ġnana man
Ġw ater
ulat an
i ft
ĠK C
Ġc ity
ĠM is
Ġnah uli
ĠWik ang
Ġnila lang
Ġcon tact
ĠL upang
4 1
c tions
Ġkaka iba
Ġpul utong
D ecember
Ġbin ili
Ġl uck
Ġmo isturi
Pag lala
Ġbiy ahe
ĠT reat
Ġsag utin
m ento
do on
Ġak s
ĠCan cer
Ġpas ko
rim etime
Ġta gap
Ġhang gan
S iyempre
yak ap
ĠL loyd
R IS
ĠA la
Ġpis o
ad em
ih inal
Ġkak lase
ĠU na
Ġ= )
Ġkain in
k ano
ĠSet yembre
Ġpinag b
ĠM AN
Ġlu ad
Ġk uha
x x
Ġk ey
Ġpang kat
M en
Ġt ig
Ġl ungkot
N akita
ĠE ric
Ġpalig uan
Ġtum aas
it ig
ĠS und
apang yarihang
ĠB aga
Ġh ar
Ġpag did
lo e
Ġmak ukuha
Ġmag hanap
ti al
Ġnak atak
Ġnat anggap
Ġcar bo
uc ation
Ġkinaka in
iti ve
Ġal so
S an
ant s
Ġkas intahan
no yar
apang yarihan
Ġnab ab
noyar sk
u ary
pa alam
A ll
Ġl ine
Ġla son
ric t
Ġhina wakan
un ian
Ġinila bas
ch es
ĠB ahay
Ġmer ong
O V
Ġti ra
av or
Ġh app
vaila ble
Ġtal umpati
ĠW ar
ipili an
ala an
p arang
Ġmah anap
Ġpagb isita
Ġala ala
ap ekt
Ġeye lid
as s
h uh
r ik
ĠF estival
I p
ĠS em
Ġpamam ahagi
ala st
od ine
ĠG abi
Ġkont rata
ĠLe on
el ang
ĠM erc
Ġaccommod ation
no od
ur ce
ĠMa ine
ay aran
g ong
Ġka na
C o
Ġab s
aba it
lap i
Ġpict ures
iyer k
Ġmak apan
p aano
ali li
ĠMart es
Ġs ugatan
ĠDing dong
Ġdi et
Ġma u
Ġsig n
Ġpagdid yeta
Ġpr ay
Ġp ic
umb alik
al leng
D ownload
ĠN e
Ġtulu yang
I ka
Ġadminist rasyon
Ġpala g
apat ay
Ġkap ak
B aka
f ting
F ilipino
ĠPag bab
Ġpamum ula
Ġhum an
Ġmap uti
ind ol
na sa
Ġpers on
ched ule
hyd rates
Ġkatap usan
Ġmana tili
Ã± o
g ie
ĠMa is
Ġj ack
Ġt v
N oy
Ġbibig yan
Ġlumip as
fac ing
at ic
Ġm unang
ĠK on
Ġmags imula
Ġres ur
S CP
Ġt ungo
bo ard
H ina
Ġm esa
. [
ur y
r ub
Ġbu ck
Ġmag pat
Ġs uw
Ġna rin
Ġto o
Ġw o
Ġday uhan
Ġpagla lakbay
Ġgan yang
ĠR ay
Ġfac ebook
una hang
ga han
risti an
Ġw ww
Ġpagpap akain
Ġsta ff
ri ed
Ġh om
K A
g ol
Ġnakak ita
Ġs uk
ĠMag s
Ġkara kter
Ġkah ina
rist ine
ĠB lack
scrib e
Ġmat andang
il le
Ġga s
Ġpags ulat
Ġad v
Ġb ulong
Ġit at
Ġm anood
i isang
Ġpagk uk
Ġma ch
ĠJen ny
Ġb awa
erb isyo
w ari
P M
AY ON
Ġng umiti
P uw
Ġkal ye
Ġi isip
ĠS and
Ġi di
Ġpop ulasyon
ĠM A
us ahan
up an
ĠH igit
-- --
ĠI T
b at
Ġresur facing
ĠGen eral
che ck
Ġnasa an
Ġmagk aka
as iwa
b is
Ġs unog
IS A
ĠK AT
ĠGo ogle
ĠA sia
h ay
Ġtr ue
ih im
Bas ta
ata ang
h old
Ġtop ic
9 6
ĠReg ine
Ġd ensity
Ġi wan
ĠEst rada
rink le
5 3
ĠK ayo
ĠPag b
ĠThan ks
ra g
Ġper form
Ġsa ad
Ġnas asaktan
ente ng
Ġibin ibigay
ĠD alawang
ĠKras noyarsk
n ie
] ,
t ama
Ġpagpap asuso
Ġg ising
H in
ĠBab e
ĠRo x
una w
aran iwan
ĠY an
Ġbab aba
Ġmagb asa
t anong
Ġpag l
Ġc in
ak er
Ġbuw is
ĠBab y
Ġpar ents
ĠM M
Ġla sing
bang an
lor ia
ĠPost ed
ĠT am
Ġst age
Ġgus ali
Ġb ill
ĠSup re
Ġsomet hing
Ġrelation ship
M aga
Ġ ur
P an
Ġling kod
Ġlo cal
ĠTa ong
Ġnan onood
ĠI yon
Ġt ita
abaw al
Ġnagpap at
Ġpres ident
ar ungan
Ġinsp irasyon
up aran
es si
lang an
Ġpw esto
z ine
re to
Ġsag ing
que z
ina r
Ġh al
ter na
ĠSin usuportahan
Ġc ast
Ġh ig
Ġsina got
on z
Ġin vest
ĠK ami
Ġde al
arah il
m ark
Ġh ilig
Ġindibid wal
ump a
a alok
N ext
ub hang
ĠAr royo
B agong
ĠG er
Ch ar
Ġkas amang
s ino
Ġar m
Ġr os
ayag an
th orn
Ġcarbo hydrates
Ġp imples
ati wala
Ġis as
Ġread ing
Ġkat apat
ĠG inintuan
Ġsin ing
Ġv ol
Ġnak alimutan
Ġb less
Ġh iling
ata on
s abay
Ġsp e
Ġsc ript
ĠA fter
Ġka unting
Ġsin ubok
Ġant ib
li dad
Ġh ay
mo us
M al
ĠBr gy
uk e
Ġdep ende
Ġmagt anong
ĠPart y
S obrang
ut ure
ĠT amang
iy as
Ġkons ep
i ver
Ġw ish
Ġkab ayo
ĠSh aron
im ili
mam ahal
ĠH ard
ĠGar cia
up on
s et
ĠN oon
Ġpanib agong
i ot
ĠS ol
AH IL
Ġdisk arte
it ening
Ġka isipan
ĠH uwebes
y cle
ar ya
Ġdak ong
Ġt uwa
c ho
Ġb alang
Ġpangang alaga
lo bal
apekt uhan
galing an
ĠN abawasan
Ġpulit ika
Ġh on
Ġab ala
Ġ3 6
5 4
Th is
Ġpagk amatay
ung ang
Ġpro ud
U na
Ġun it
l ub
ĠT ak
Ġna sira
ect ed
Ġik atlong
as ter
Ġh iwalay
_ ^
r ito
ab aba
ad hana
Ġtransp lant
Ġeyelid s
Ġmagp aka
Ġon ly
d s
Ġbang ko
Ġmat ery
Ġtang a
N ung
Ġya on
Tablet s
ĠB y
ĠT hat
Ġmob ile
ban sa
ĠS iyempre
Ġpan loob
Ġgo vernment
Ġt om
Ġi ce
T H
Ġn ursing
ĠTA O
Ġmak ulayan
opy right
h ina
c ha
Ġ9 0
ug ma
ukla san
ĠNak aka
Ġalaga d
âĢ¦ ..
amp i
r oss
Ġawtor idad
na mon
na win
Ġf inal
ure au
ip an
Ġpagt ingin
A kala
Ġpagla bas
il itan
M atagal
w as
Ġe gg
Ġnaglala ro
int ulot
I yon
ĠSak si
Ġkag at
Ġnakat ulong
do c
ag utan
last y
Ġb ersyon
' re
nag dag
Ġbin uksan
ar ed
Ġpanin igarilyo
Ġpum ayag
Ġsigura dong
Ġnak angiti
t in
port s
Ġs ol
Ġpaw is
ony mous
h ers
ung al
ĠG reen
Ġgra du
Ġaktib idad
Ġb le
Ġo wn
Ġmaga mit
le ta
ER S
Ġkah arian
ont rol
Ġfec al
ah am
t anggol
Ġham on
ed it
ĠY ear
Ġero plano
W ell
Ġpis ikal
Ġbay wang
ĠRob in
B B
te e
Ġtransport asyon
Ġfol low
last ikan
Ġsah ig
Ġin u
Ġet c
Ġpagt anggap
Ġkali wa
worm s
Ġpat atas
Ġman onood
Ġpat ungkol
ĠPi olo
Ġpagb ili
b p
ĠNak at
Ġmas us
ĠO il
ĠSan ta
ĠRes erved
ff er
ili w
ĠSt ation
Ġkabu uan
ï »
ĠMus ic
ĠC hi
ungk ahi
Ġh i
ili m
I I
ĠB AG
Ġpalag uin
ï» ¿
Ġstud ent
res et
Ġnagm ula
Pag t
Ġbik e
Ġs eed
ili b
hang e
IT Y
Ġd ako
L o
T akip
angg unian
ob ook
ĠM el
p wede
ĠJust ice
ĠDe velopment
N arito
uk so
ĠGra be
Ġkan t
Ġ( âĨĲ
u io
ĠJ es
y way
ĠS oda
Ġex t
Ġcom e
li fe
Ġna una
p art
ah arap
ĠIs ab
ra z
aram ihan
ĠP D
ĠT er
Ġst ay
Ġnag ug
sh are
Ġkomp anya
Ġina gaw
Ġge latin
Ġp ep
ek la
st it
t en
king gan
t v
C C
i onal
Ġg ulat
Ġrep olyo
ĠJos eph
m ura
Ġr izal
Ġmin utes
Ġtap ing
Ġmatat ag
ĠED SA
ĠJan uary
ĠJuli a
tor s
udi obook
la hat
Ġd alang
Ġsc ene
H alimbawa
Ġaga in
Ġpagla ban
H a
N AG
A ct
Ġmab asa
ĠC avite
B re
Ġpagkak amali
Ġtap eworm
ate o
Ġmagm ahal
Ġm undong
Ġpagp ili
ĠM or
sh irt
er ya
ans i
ĠAs awa
ĠD oon
Ġ19 7
j or
ĠAs ya
Ġkan ino
Ġr id
Ġj oke
T S
Ġi isa
Ġsuliran in
Ġkali gayahan
ĠAnton io
ab uso
i er
Nak u
b ol
Ġa ff
Ġ aling
ĠAmer ikano
Ġop eration
Ġin il
Ġt rap
ĠM iyerk
Ġaral in
Ġj ob
Ġpos ibilidad
Ġeff ective
v sk
ĠB atas
sy unal
Ġts aka
ĠThan k
ta il
ont ra
Ġan it
Ġbut ter
Ġb ong
Ġpagbab awas
ĠP rot
di yan
ĠS AN
Ġma alala
ĠBea uty
ĠL oss
ĠB ody
ĠS abihin
Ġapekt ado
Ġp y
ap al
Ġpinak abagong
ĠN ad
ANG G
m insan
Y es
Ġkabu uang
kan ilang
Ġst raight
Ġ ve
Ġi hi
Ġpagb ib
Ġg ate
ug ot
AN S
Ġok ey
Ġtax i
Ġbina go
ĠBatang as
] .
Ġpamam ahala
Ġmagka ibigan
velop er
AD O
Mas aya
Ġgaga nap
f ast
ĠNA MAN
ĠI G
ĠTril lanes
ĠT an
ĠBag uhan
Ġor ihinal
T ang
ĠC han
ĠPagk awala
ĠI r
ĠSin tomas
Ġtem p
Re ad
Ġak da
g ic
rol l
s he
ĠPop s
ĠH uling
Ġs earch
Ġnakaka apekto
Ġ ult
Ġbah a
Ġro ll
UT I
bo x
Ġbuk ol
Ġna lul
da ang
Ġkasama an
Ġkinaka ilangang
Ġproduk tong
AL IK
ap e
ik ain
ad ya
ip it
ĠPina p
le x
g ina
Ġpum apasok
PA ANO
ed ding
ari o
Ġsh orts
abaw i
Ġ ul
ĠMig uel
amp ung
lip unan
Ġm illion
Ġusap in
ĠSena tor
ĠKan ya
Ġmak inig
ĠLag una
? ...
Ġnap anood
ber t
Ġdi rector
ĠGan un
le c
oko han
Ġas ukal
Ġneg at
8 8
ĠU fa
ump isa
N ING
k ong
Sex y
ĠG onz
h ayag
ĠD es
ĠI p
Ġsab aw
Ġm l
Ġsira in
ab it
Ġpam agat
ur on
ant utan
ĠY O
Ġback ground
K an
Ġnak ad
ĠT ay
ok es
Ġ alala
Ġt upa
Ġnaga gawa
Ġma isip
ĠSing apore
E AN
Ġmag luto
and og
Ġte acher
Ġ enter
Ġsum mer
ar ili
ema il
Ġshow s
Ġhap unan
Ġnak arating
t ay
Ġm ost
ĠAnge lica
Ġrep ly
ĠPe ople
ud ad
ig i
Ġna iwan
Ġnag kam
Ġnara nasan
am anan
asak ay
Ġpana lo
Ġkap lastikan
r ig
Ġk c
Ġnah ulog
T ila
ĠN orte
Ġinila pat
ayan in
ĠMab uti
Ġkandid ato
ugto g
ina do
yal es
Ġqu e
ĠPres idente
Para sito
Ġface lift
ig ure
e h
ra kt
ĠGro up
Pag dating
Ġbin ubuo
Ġ5 00
Ġap arato
Ġk rit
u age
ĠA min
Ġp ork
Ġkila y
Men u
ata e
ĠS otto
k uw
Ġ200 6
Ġpinag mulan
E M
Ġcom plex
b il
ulu yan
lik ula
is in
h ar
Ġb om
Ġik ina
Ġan ime
Ġe v
ĠD alawa
ras ya
ĠPuwer ta
ĠF ebruary
P S
ahal in
ĠS aka
Ġk uto
ĠP ower
ĠB ureau
Ġmat anggap
ĠĠĠĠ ĠĠĠĠ
Ġnak alagay
Pag tatalik
Ġs lim
ĠL ik
AT AY
j u
ene f
Ġkont rol
ag dag
ĠF ood
Ġsin umang
Ġana ly
Ġth ings
ist ang
Ġkum ilos
awa an
ĠB er
ulat ing
ĠF lor
Ġkas api
erat in
ĠSena dor
hah aras
.... ..
ĠP UM
Ġka nan
e ah
Ġipinag b
an in
Ġdek ada
ĠL amang
m ed
IT E
M aya
inas abi
ĠD ownload
Ġpagb asa
ĠÂ ·
if acio
ĠP or
we en
ĠD yaryo
sc on
el os
M aaaring
Ġnagkak aroon
Ġpa uwi
Nag ing
ashi on
E to
Ġnagtat anong
Ġnet iz
Ġnasus ulat
P atakaran
ĠA na
ĠS IN
z er
dam i
Ġvir us
ust y
u yan
Ġprot eksyon
ĠPuw ede
do za
Ġvers ion
ĠS abay
ĠKal usugan
ĠP aki
Ġbe en
Ġhala lan
Ġi odine
U ng
Ġpip ino
Ġc la
Ġkahina an
W AR
ĠM anag
ĠSapag ka
Sin usuportahan
gor od
H alos
G amit
Ġele ct
Ġide a
Ġbuck thorn
araw i
ĠA uthor
Ġkan inang
P ap
in h
ĠE to
Ġmaka usap
Ġipinang anak
itt le
ĠK y
ik man
ĠK ali
Ġwo uld
5 2
Ġwh y
usal em
ĠK ara
Ġist asyon
Ġ alang
Ġes kwela
P orn
Ġpagka ing
Ġpan un
z en
Ġme dikal
Ġtum agal
p ya
R ec
ri ga
Ġk akain
Ġplay er
Ġd y
Ġpagla bag
ton ight
to m
ĠL agi
Ġmagp ak
ĠEx pose
Ġi mm
inig yan
om en
Ġpum atay
aay uno
Ġrem ate
Ġhim ukin
ablo id
ĠAN D
atak e
Ġcyst s
Ġsamb it
Ġsum pay
Ġv it
ĠKat h
Ġmamb abasa
rap e
b s
ad yang
Ġstor e
Ġat bp
Pina y
Nak at
ĠPang haharas
ĠA i
ib aka
M eron
Ġtrans lation
? )
Ġm p
Ġt andaan
Ġb asketball
unt ik
Ġimbesti gasyon
li x
ĠM AT
mas dan
Ġsek tor
ig ura
char ge
iw alang
Ġg ub
Ġorgan ismo
ara ma
n it
Ġali pin
ĠLab or
ĠJ oy
Âł Âł
ĠP ILIP
ĠJ ud
ĠN am
ob ile
ĠK ak
f ort
Ġm ic
la do
Ġila pat
Ġw ait
un ita
Ġk orte
Ġga na
Ġnan doon
amb ay
Act ually
Ġc amp
Ġsund in
dik it
Ġmag dam
ĠD ennis
Ġtawag in
Ġaks idente
la lo
AN DA
al sik
Ġni likha
ĠDad dy
Ġsah od
Y ONG
ĠLu zon
ĠMo vie
ĠU s
ins eed
uy at
Ġv al
o ung
J o
5 1
ĠM alak
nat iling
pek tong
ĠH en
ab ayaan
Ġb alitang
ĠL ife
ĠS is
ĠâĢ ¢
Ġna wa
S he
tat ag
ĠB UHAY
fac ebook
Ġper man
n ed
ĠT ula
er re
op lasty
ĠC a
Ġh ugasan
Ġex tra
Ġsin uman
rip isyo
Ġmagk at
Ġpi raso
ĠT or
Ġmach ine
Ġb arkada
Ġwh ite
ĠS u
t rina
ĠL et
ive ra
ĠM P
ch ange
ar is
Ġlar uan
Ġpres scon
hat ing
OO D
Ġre t
mp as
Ġmam m
ar es
ĠE X
Ġdirek tor
Ġpa wang
Ġan s
erm at
ĠMIL F
ole kta
Ġbag yong
res t
Ġkum ak
Ġina bot
Ġnas as
Ġ awa
Ġpor nograp
di ya
Ġcont est
ant es
im um
ec ia
ĠM AB
hat id
Ġnakak ap
p la
H ay
e on
ara nas
ak ali
P I
ay aman
P res
Ġpagla lakad
Ġmai iwasan
ĠB uwan
ir in
Ġm ine
ent ro
ĠP ant
Ġp untahan
ib ir
al ity
le ep
Ġtra ffic
O W
o ver
ĠM alaki
Ġdis enyo
ab an
Ġflo or
Ġde f
Ġmak amit
Ġf light
is da
ĠCin ema
ĠKato liko
Ġprof ile
Ġpan labas
s as
e as
k ili
Ġmab ub
Ġin to
ĠGawa in
b agay
Ġm etro
ana hong
ĠB ible
uw ing
rot her
Ġum p
ĠM undo
Ġman iwala
ĠSa udi
um bas
Ġtanggap an
Ġdala g
en z
ĠM arawi
Ġpagp ipilian
uff iness
lin k
Ġnagk ita
Ġeks ak
Ġorgan isasyon
Ġste p
Ġbab e
Ġmat alino
ĠBro wn
s ho
an na
ah iwatig
z ema
Ġal oe
oc on
Ġpress ure
unc il
ĠH appy
Ġed itor
ĠPara an
k um
Ġing ay
ĠG loria
ĠS arap
P C
Ġkan ela
ila w
ĠB B
ig ong
ĠN oy
ĠKom ento
Ġ ot
us ot
Ġhop s
ti ago
Ġab road
Ġpang m
Ġt atanggap
c c
Ay aw
Ġmala ya
Ġpagt ulong
ub ak
k om
ala lang
edy ul
say t
Ġwh ich
M AG
Ġpagkak at
Ġl indol
Ġmap abuti
Ġmamam atay
Char ice
6 0
ie v
Ġipina kita
ĠMen doza
AL AN
Ġ7 0
Ġbuk san
I F
Ġpro m
Ġmak ati
ĠKong reso
Ġsa loob
Ġp lat
ans er
is ahan
uck s
amb ing
Ġv ac
H ollywood
ĠGra de
ĠKAY O
Ġis yung
ĠSA K
Ġpah id
Ġin ang
Ġsag ging
tific ate
Ġpint ura
Ġm orning
y per
Ġor dina
il er
ĠPro vin
ĠP ress
Ġprot ektahan
S O
Ġhina likan
ĠCan vas
ot t
od es
ĠRos tov
Ġkab ataang
ON A
une ta
ut ukan
s age
Ġsin ong
Ġpat tern
Ġen erhiya
n ers
ĠW ALANG
un ok
ĠN iz
ip unan
Ġsum is
ĠH ATAW
uc cess
Ġisin ulat
Ġp ur
ĠS ea
kab ahan
t rabaho
Ġis ama
pan yo
Paglala rawan
ĠK or
k ado
Ġk arang
he k
Ġg ive
is ay
: )
ri v
ĠMo ises
Ã± a
ut ista
Ġmas a
ek ater
Ġga anong
ab ala
AL AK
Ġdi wa
ĠNag pap
Ġalm usal
ik im
Ġkala hati
and o
Ġin ilala
w atan
Ġt ignan
t ip
Ġrequ est
Ġnagk aka
Ġnaga ganap
E n
B aga
al og
Ġd igmaan
Ġm other
Ġti gas
ĠPak ikipag
ĠV illa
ĠGan ito
Ġkay amanan
UNG K
Ġpagpapat ibay
IN E
k ilala
ĠS ina
Ġcont ract
ĠPh il
di sk
Na is
Ġkonsep to
ĠY ekater
Ġpaghah atid
P AR
s ign
ano orin
ĠH D
pp ing
ĠHe hehe
Ġ ug
ĠSund ay
ĠA ling
Ġc a
Ġb on
Y AN
C OM
P rimetime
Ġimp osible
ĠF ilip
Ġgano ong
ĠPagk ak
ret so
B abae
Ġshow er
ĠR SS
Ta ong
Ġ8 0
ck s
Ġ: -
Ġng uni
um ula
ĠB ad
asa ad
Ġsek s
Ġbar ko
A gad
Ġnegos yante
Ġar est
T s
le as
AL ING
avor ite
Ġdok umento
ris is
irit uwal
Ġbiy aya
Ġad vert
ĠW est
und s
Ġdak ilang
Ġtra in
Ġmagla gay
Ġman lalaro
Ġsaloob in
and ar
Ġbu ilding
Ġbl onde
sik lo
Sh are
Ġ age
ibers aryo
ĠT i
Ġk is
19 9
Pat uloy
uw ad
aramdam an
ĠYekater inburg
Ġsho uld
ic ks
ĠJer usalem
ĠNa is
ĠMa x
Ġbr ief
ĠN ot
re ct
Ġcho ice
L ES
pap er
kas ama
Ġlam ig
el low
Ġmab isa
Ġmagp akailan
ri el
bi a
po int
ick y
ical ly
AT CH
Ġmo vies
ĠN aga
Ġlap top
ah ila
ĠV in
ĠP ek
ĠB il
Ġnat awa
Ġkum ik
Ġho urs
Ġmina hal
Ġnahih irapan
ah oo
al uku
Ġtod o
Ġ <
sap alaran
Ġpab ata
Ġinter est
imb ahan
Ġdum alo
Ġap o
Ġac cess
er ong
Ġna roon
Ġpagt ut
US T
Ġpang alang
Ġmab untis
duk to
ing on
ĠA st
Ġmagsis imula
ĠRe y
Ġpahayag an
Ġla sa
Ġk rus
S ir
ina tion
ĠE pisode
Ġsal on
Ġng ayo
Ġlab asan
hair man
ĠK en
Ġnak o
c ore
ingin ig
Ġpabor itong
es h
P lay
Ġpo lice
Ġb igay
lib utan
ĠR ivera
Ġpan itikan
Ġproble m
Ġw ord
Ġmoisturi zing
alat andaan
g es
n od
ap lay
ĠP AS
di syunal
ĠK aysa
Ġkapak anan
Ġm ember
or ge
Ġpans ariling
art s
O ff
et er
Ġpangkalahat ang
ĠS ugat
alita an
M edyo
v y
ec uti
ĠT otoo
E d
Pang alan
ĠBur dock
Ġw atch
ik ling
Ġpigment ed
A m
Ġc redit
ans wers
Ġpagsus ulat
la di
ĠKa ibigan
Ġni li
ĠS at
ĠCh ristian
ĠKore an
bas ta
d f
Ġmod el
ĠS as
Ġhand og
Ġt uyong
Ġ3 2
Ġh ospital
Ġdoc tor
Ġpaalis in
T o
k il
ru it
Ka ilan
ĠA f
Ġnat it
ĠL ihim
uro l
Ġpina b
ĠA udiobook
R ed
Ġkabut ihan
Ġhah ahaha
Ġpre vention
Ġpaghing a
N ov
ĠL ay
Ġrespons ibilidad
Ġmakapan iwala
Ġphot os
ĠAt ty
ĠMat anda
di nan
ĠB igla
ĠT ablet
st and
IN AG
amp u
pre ci
Ġb ed
Ġ uh
re y
Ġmakap asok
Ġsa ri
Ġk epe
Ġst ation
Ġsub ject
Ġpam angkin
Ġnakak as
ĠT H
Ġit uturing
Ġnag hih
RE AD
Ġmang ang
ĠI bang
Ġb alan
ĠCon cep
Ġibina hagi
atang gal
Ġh andang
ov it
Ġkausap in
Ġs chedule
ĠRo ad
Ġmag ic
ĠA B
ĠBar bie
ap uwa
Ġv isa
angg it
T otoo
ĠPam ilya
ĠRem edies
Ġdila w
um ing
ĠIs land
m ula
ĠCana da
essi onal
ay akap
ens yang
s am
mit tee
Ġinila gay
os ibir
Ġg ift
ĠL IB
as h
osibir sk
Ġgawa ing
Mag hanap
ac hing
Ġv ideos
Ġnatut uwa
ĠP ub
Ġth ing
ah ag
ĠG AM
Ġ3 3
Ġmakat ulog
Ġst yle
ĠNag ulat
emb ers
ĠBula ga
Ġbak ing
Ġd est
un ungan
Ġkin uk
Ġceleb r
Ġhe to
Ġr ice
Ġp uffiness
Ġina lis
Ġipa alam
Ġm ik
unt unan
Bas ahin
otohan ang
Ġpanuk ala
Ġgr upong
ane ho
Ġbang kay
ĠSt reet
ab or
Ġd emon
I bahagi
ap ak
uh at
han in
Ġpabata in
Ġmagh anda
uy in
aba nata
er te
ĠGina wa
en ed
Ġnak itang
ig inal
ĠR oy
Ġab oga
c us
Ġkarap at
Ġd ream
es tions
ivers ary
Ġga r
Ġyo do
Ġtim es
com ment
Ġproper ty
ĠT ri
Ġip inas
ot es
Ġpagli pat
ek tong
et nam
u ugali
ra nasan
ĠHerb al
ĠRox as
ĠL ast
ĠN ueva
ĠL or
G MA
us ong
Ġpant al
Ġtal k
Ġbr and
IL L
Ġtra vel
13 5
ĠT ar
ers onal
ho ugh
e to
Ġkas agutan
Ġhig pitan
Ġas p
Ġsin imulan
ĠP al
ĠL ov
Ġk inas
Ġb akas
ĠPag tat
Ġnagpap a
Ġip at
Ġni yakap
Ġc or
Ġsur vey
Ġda ang
ĠNov osibirsk
ĠCol lege
Ġas awang
vera ge
t ak
ĠPag ka
Ġtinat rato
is ya
Ġmas ikip
P ati
Ġest ilo
Ġkaram daman
Ġli bo
Ġu uwi
Ġam er
iling an
ĠQue en
Ġchan nel
Ġp ormal
Ġit igil
Ġmas aktan
Ġsum uko
Ġtam ad
ĠUn ited
igdi gang
Ġpangung usap
K asama
Ġme eting
J une
en sa
Ġbad ing
Ġlib ong
ab watan
h ed
Ġâ Ĩ
ĠP ER
ĠTaga pag
Ġinst it
Ġp anda
Ġtin anggal
Ġpr im
Ġele ksyon
ump ara
ĠDe f
Ġli litaw
Ġhuk bo
Ġma galit
ĠD am
Ġh ud
kas i
Ġmas is
AS AN
Ġsc ore
Ġ:) )
Ġkahih inatnan
k us
ĠH ot
Ġus ba
C E
Ġpangang ati
Ġess ays
Ġpost ed
M ukhang
Ġinter national
ĠD ugo
ga gawa
Ġ uwi
Ġt ick
ĠB ob
Ġread y
Ġb ote
na nakaw
an yang
ĠS ayang
ĠS orry
Ġpas ensya
Ġpam paganda
Ġact ually
Ġk ulot
ĠW ords
Ġnai intindihan
ï¿½ï¿½ï¿½ï¿½ ï¿½ï¿½ï¿½ï¿½
Ġus er
Ġter or
Ġga st
Ġmo ve
k ang
u gal
Ġf uture
Ġsin ulat
m al
Ġmap ula
Ġump isa
ĠNang angahulugan
ĠReg ion
Ġtum anggap
ĠI f
amant alang
Ġpa kinggan
Ġb ran
Ġe ar
ĠK iko
Ġprins ip
ĠH ang
Ġtro pa
iwas ang
ĠKa ilan
d le
im ag
Ġbul sa
us ok
ĠLim a
ulit in
Gra be
Ġung ol
Ġnakaka alam
Ġcalor ie
Mad alas
Ġtr en
ĠM alaman
Ġik in
ĠKa zan
Ġinst r
ĠO b
Ġdok trina
ĠA ral
b ago
il and
Ġp last
Ġpa ck
Ġko pya
ĠSec urity
Ġan yos
Ġbum ang
Ġnag ising
l uran
el ine
Ġmark et
ĠS ystem
hat ian
Ġiw asan
Ġmali wanag
ĠO ut
Ġc ut
ab in
Ġta gas
te am
ĠIn ang
ĠD ol
Ġnand un
ĠG ayun
Ġpro duct
ib abaw
Ġip asa
ino on
k er
he alth
ĠE ci
Ġum anong
yak ol
Ġpo lish
Ġso urce
Ġp unta
ell s
Ġka utusan
g irl
ula an
Ġtaga hanga
ag utin
he rapy
ĠW il
Ġcar bon
Ġmat aba
ump le
pre t
Ġsop as
Ġkakay ahang
Ġco urt
Ġtag lay
Gan ito
z ed
di da
m il
ĠK ag
Ġmap igilan
Ġlub id
Ġwin dow
Ġbuw ang
Ġsa lad
Ġsh abu
Ġsak ay
b ok
Ġsi yam
ing git
Ġcin namon
pas te
Ġeksper to
Ġsa p
usto m
abas e
ĠS olusyon
ĠC entral
P O
Ġnahih iya
ab atas
ĠM ont
ĠG reat
Ġlab ing
ĠH el
ĠBag uio
5 00
M urang
ĠC reative
Ġnapap ansin
Ġfeed back
amb al
Ġnag dad
Ġmagk ita
Ġnagb abasa
P atay
ala ta
ĠVic tor
Ġe p
Ġd ik
Ġmal ubhang
ĠM uli
ĠAust ra
Ġpah iwatig
ĠB lood
ĠD ati
S apag
ti es
Ġsus i
hing a
Ġnakapag pap
ĠServ ice
Ġm ind
Ġg ram
Kum uha
Ġbal e
di in
Ġpakikipag talik
i j
p ris
ĠS tory
Ġcon d
ill er
van ced
IL I
Ġth ro
ĠG it
Ġac tion
Ġ `
ĠNat in
Y ANG
ĠK AL
i ram
ĠV it
ĠP en
ĠT ut
lik ado
Ġm unting
K ami
ram e
Ġseg uridad
Ġfor ever
Ġsa ys
Ġpa taas
Ġhen na
v ir
Ġsec urity
por no
Ġw on
Ġnak ang
Ġ^ _^
Ġpamil yang
Nat ural
ans ya
Ġlag yan
panyo l
Ġpant alon
ĠComm ons
7 7
y aring
ĠAN O
ĠEuro pe
ĠH ong
Ġarest ado
t rip
Ġbas o
Ġmak ahanap
ĠB is
ĠPag e
Ġpinakam at
alleng e
Ġr uta
Ġpaglala ro
Ġkole ksyon
ĠP lay
Ġkag ustuhan
Ġkan in
ĠKam ay
ĠK w
d raw
ple ments
Ġbina basa
Ġbur ning
ka ilangan
Ġkaw ing
or yang
Ġres ult
w ser
Ġco ok
ĠK uwento
b uti
Ġta nawin
ĠF ull
Ġesp iritu
Ġmak is
ĠEuro pa
ĠSh ampoo
Ġmo de
Ġ: (
go y
Ġstat ement
Ġna hah
Ġmat ure
ĠKat otohanan
Ġgra de
kan yang
c ement
Ġk eratin
Ġre him
Re lated
Ġmoder nong
AH AL
ĠK aka
ak es
Ġimp lant
ing isda
Ġipina dala
Ġnakik inig
Ġtoena il
8 0
Ġb ati
and ine
Ġgan ung
Ġpres ent
Ġlead ing
Ġmad ulas
T AT
Ġpro peta
Ġtap usin
ĠDr ug
li an
ĠPamb ansang
ep t
Ġres peto
Ġsel andine
ul uhang
K ina
Ġpl us
Ġe nglish
Ġinteres ado
S orry
Ġkah abaan
mo ve
Ġ aba
Ġnak asama
ĠJac ob
bay ad
os ong
Ġbet ter
Ġh alo
im a
ĠT alagang
Ġhen erasyon
up s
a ve
ala p
ĠL is
Ġoff er
Ġumi iral
ko ut
AB I
ip o
Ġt echn
Ġreg la
S p
S us
Ġd ol
log y
Ġpagla ki
b u
ind er
Ġh ub
Ġdala w
Ġ5 5
Ġbay aran
ĠB ukas
A d
ĠL as
ĠW ALA
ES US
N gayong
Ġnagt anong
Pum unta
Ġmagb ayad
Ġmans anas
Ġh us
el an
ĠAnd rew
Ġw it
ĠDist rict
b ik
S I
Ġtat ak
ism is
re alize
Ġbum agsak
ĠE ng
mer cial
ĠA wit
ĠConcep cion
ĠM ORE
Ġtar get
ĠT ur
os h
ĠN and
B T
Ġnagpap asalamat
ĠS impleng
Ġb ug
Ġdalag ita
uk las
Ġso fa
Ġgu ard
Ġt ito
er ial
Ma amoy
ĠG aling
anag inip
Ġb ayang
Ġmakak ita
Ġber deng
un sod
ĠKas aysayan
Ġi iwan
ĠUnivers e
la wan
Ġts upa
6 6
Ġd ance
Ġth ree
illi an
Ġmat ibay
co ver
Ġf lat
ind ot
Ġpang h
Ġnak unan
sub scribe
ac tion
ula g
Ġy es
ĠM ir
ĠS tat
Ġmat uwid
ye ar
Ġd isip
Ġproject s
rot ektahan
Ġsp ort
as m
Ġip asok
Ġipina p
An umang
Pig sa
P AP
Ġt ol
Ġkap al
Ġpamahala ang
la lakbay
Ġtit ik
Ġdum uk
Ġout put
ĠB erna
us isa
IN A
ĠPo e
Ġlo ad
Ġ3 4
Ġmal ul
Ġtira han
ĠBon ifacio
B a
Ġh it
akat uwa
ano on
ĠIN C
Ġtut u
Ġkam po
Ġper pektong
u ation
ĠD ec
Ġmal upit
Ġpe ace
Ġna unang
ĠBa utista
ĠV ladi
Ġbl ue
ĠNov gorod
y unan
ĠWh ite
Ġnang galing
Ġanaly sis
Ka akit
D S
Ġpant ay
Ġho us
k ul
ĠS imbahan
Ġcont ra
Ġkomp osisyon
Ġres ort
ĠPro f
Ġaboga do
D iyeta
ĠK AH
Ġweek s
Ġac ting
ĠL in
ĠCom mon
ĠS yempre
go od
nod ar
Ġmali go
Ġak syon
Ġkat umbas
ĠD aan
ĠâĨ Ĵ
ĠAl moranas
Sin tomas
ĠOr gan
Ġdem ok
Ġpin up
Mag s
Ġweek end
ĠG R
AP OS
Ġma alis
just porno
ĠP are
Ġnags us
Ġpana y
Ġimp luw
Ġper mit
ĠGra ce
y um
ala gi
li ve
uh o
Ġnap unta
ing gan
I tim
Ġpagpapat upad
und ation
ic ycle
Ġmay or
ari a
Ġpor es
ĠMe dia
ĠIn n
ick en
J uly
Ġsec ret
? âĢĻ
ĠNoy noy
Ġg ot
Ġga yong
S agot
gen cy
ĠN ga
ĠTim e
s ak
Ġ uso
US O
c ual
.... ....
K ili
Ġun ibersidad
onal d
Ġah ensya
ri o
N AK
er sa
Ġmakak asama
ĠS ong
ira han
ĠB rit
as aya
ĠM ich
Ġma abot
alam in
ibig ang
Ġair port
t ers
Mag ing
Ġma x
ĠH ari
ĠL ee
Ġe bid
co late
ĠAle man
Ġras on
Ġil legal
ocon ut
Ġre ason
abang on
ahalaga han
z ol
ĠBu ong
ĠS pe
Ġsa riwang
N T
Ġbak al
Ġmah uli
B usty
Ġnakat ulog
AN T
b aka
i ang
di wang
Ġsent ro
Ġpagli libot
t ulungan
ĠPag gamit
Ġni yong
ĠL ive
ment ation
Pre vious
Ġpinakam aliit
lib ong
ĠPas ay
Ġpagbub ukas
Ġst y
** *
ory asis
Ġf ar
ĠNG A
Ġv is
Ġde ad
ĠTe le
uk l
ĠSam ara
K ay
hel lo
Ġla thala
L a
Ġkap alaran
c ast
Ġpakik ibaka
Ġa vailable
aga yan
Ġpost s
ad yo
ĠB ahagi
Ġni ce
ĠMak e
ĠKras nodar
e ho
ĠAt t
Ġgirl s
Ġnag pat
Ġkomun ikasyon
ry n
Ġa abot
Ġra dio
Ġs werte
Ġw ords
Ġsak anya
Ġproble mang
ist s
Ġmamm oplasty
Bag uhin
ĠWorm s
Ġmak inis
ump irma
Ġili gal
Ġmap anatili
ĠR on
ĠB awal
amp le
Ġnagpap asuso
I E
ran tel
Ġna ib
adala w
ĠT inat
HO W
P umili
Ġkan tang
Ġk ili
Ġmap ansin
ut uwa
ensi ve
ĠT untunin
ĠD AHIL
oc an
Ġsh ot
Ġnat uwa
ent ion
i ingat
ĠRep ublic
v oy
ĠMas arap
ila k
c ut
Ġb lock
Ġh awakan
rob ers
ĠGo vernment
' ll
ĠH IV
Ġit anong
Ġbalak ubak
f ia
lim a
Ġpagpap ala
ĠEci ja
il lo
Ġcl ub
An ti
ĠBr yan
Ġmang arap
Ġat ensyon
Ġpak inabang
at uloy
Gum awa
Ġtutu usin
Ġnab igyan
ĠS il
ĠKab ataan
Ġpaghih irap
Ġmag lakad
Ġpus h
or ies
ĠD at
Ġgumaga nap
res ent
m en
ĠB ac
Ġb oto
alas an
Ġsi ze
Ġid in
Ġpagpap ap
Ġmana gement
ĠV or
Ġpagb agsak
Ġeng ine
Ġfac t
ecuti ve
iz ation
ĠMag ic
ĠG aano
Ġpart ido
ic ol
ila r
c re
ali st
or b
ĠB aking
e te
Ġp unt
An iya
Ġs anggunian
ik as
imb ak
u do
ub lika
h ibo
ĠMo ovit
t iling
ak ad
angk ilik
fi ed
K unin
unt ok
ĠA re
Ġpang anay
P undamental
en ical
ki e
ĠP lease
inan cial
Ġstar s
+ )
il do
ĠS ho
Ġiisip in
ah iwalay
le ction
alk ula
ĠA las
Ġproy ektong
b ata
ansang an
enef its
Ġpin worms
Bre ast
G awin
h alamang
c ited
Ġt old
ĠE ast
Nag ulat
Ġco ach
iw anan
ict ure
K ris
ĠS imula
WAR NING
ar n
Ġi yak
Ġco ck
P NP
Ġmag dala
A syano
or ed
AS T
ara ang
Ġnab uo
N O
p ok
c ing
ĠCh apter
rim e
ĠRe lasyon
ung ong
Ġnagp akita
Ġhumih ingi
Ġi legal
ĠC le
ab utan
Ġl esbi
ahala an
Ġm embers
Ġas t
Ġwh itening
Ġpinak ah
ust ry
Ġpo w
angg uni
Ġm and
Ġg old
k aloob
ur ation
ĠB agay
ĠJan e
at ar
d in
ik ulo
Ġpa ko
ĠN TV
K om
v i
ongrat s
hin ang
B est
im pek
Ġg reat
ug ustuhan
ig ation
AT ION
ila g
Ġal terna
I ng
Ġdes k
aka ilang
o h
Ġis tra
8 6
k zoderil
Ġview s
ah ing
cep t
er ve
Ġf ee
ĠC ong
AM ANG
Ġdo es
ĠPamp anga
Ġkas unduan
U D
Ġmag dagdag
Ġkum anta
t es
ĠG ay
worm ing
ĠRos a
ĠE at
ĠF ore
l ump
ip to
Ġlet ter
Ġnegat ibong
Ġhum arap
Ġistra kt
âĢ ĭ
IS ANG
Than k
N awala
te o
L A
Ġmam ahalin
ĠN IYA
ie go
ĠNo ra
S limming
Ġya ong
umple to
ĠD Z
Ġkam bing
Mat at
Ġsina l
Ġipina t
Ġw all
ĠPala wan
Ġnag w
ga bi
ugali an
Ġmagh intay
Ġpr ice
Ġn yong
it ahan
wor king
i gas
Ġdad alhin
ĠP ok
ĠIn f
Ġcas h
Ġtala ta
Ġsine han
Ġbel t
Ġt untunin
ĠB umili
Ġmagb ago
Ġh old
Ġsin ubukan
â ĸ
U l
ung ga
ine b
Ġco ver
Ġk it
t end
ALAG A
Ġw astong
alo ocan
him ik
Ġn man
a ayos
ĠPh oto
bub untis
Ġkah anga
ĠIt alya
Ġmer kado
Ġl inseed
Ġing at
en i
ĠBo ard
Ġmab awi
Ph one
ĠC ho
ĠSan tiago
Ġpers ona
Ġemos yon
Ġpriv ate
Ġpos s
T anong
ta on
ĠC C
Ġg uw
ie w
ĠPag d
O p
t so
Ġisk edyul
Ġpup untahan
Ġpam antayan
Ġhum into
Ġtumut ukoy
od ka
AB S
ĠP ublic
ĠTim og
ĠNiz hn
u um
ri ve
Ġs os
Ġnagkam ali
ir ing
Ġrequ ire
m araming
ĠD im
ĠSe ason
Ġend ing
Ġpa anong
Ġmak agawa
Ġpagb uo
Ġs eksyon
ensi yon
ĠNag p
Ġtinat anong
ak una
as ahe
Ġoli ve
t abloid
Ġ ~
A g
D on
Ġnapak araming
Ġp rin
Ġb isa
ĠJ im
Ġp una
Ġstat us
! âĢĻ
ĠD el
IN AS
ar at
Ġpagkaka isa
Ġb ung
ĠN O
Ġrating s
Ġmo ment
lo y
Ġkab uhayan
Ġsab ihing
Ġnab abasa
Ġkas t
AK O
ĠA FP
ĠAct ually
ĠInd ones
ta ga
Ġtawag an
alag lag
i ons
ti ra
ĠAk lat
ĠK ast
Ġc hange
Ġi re
er gic
Ġpagk ilala
Rec ipe
ad aling
o und
p ana
Ġnalala pit
ud ine
Ġpam paputi
Ġs ea
ĠB L
ungk utan
ĠKAM I
al ly
ĠK arap
ĠMr s
O ctober
Ġbest friend
Ġk ilig
Ġkon yak
ĠG il
ĠNG AYON
Ġnan in
Ġistrakt ura
Ġkal okohan
t ap
aga mit
ayan ang
Ġt uro
ĠO N
Ġco ol
ĠM ong
Ġnag re
Ġkad ala
Ġsup ortahan
indi g
Ġc ry
Ġmed yas
Ġma ipag
ond on
ĠM RT
Nov ember
Ġpinag p
ero b
ok en
Ġpam insan
ĠU l
r ant
ekla ra
an umbalik
Ġh all
iy am
ag po
ug ong
Ġan ibersaryo
umang o
ab ili
Ġhangga nan
ob le
Ġdum arating
m n
y mp
ĠD ela
Ġpag m
ahila nan
her n
ĠE banghelyo
ĠL os
Ġnakakat awa
Ġnakak atakot
Pro blema
Ġf all
uman hin
Ġs oryasis
Ġch ief
Ġkala hating
ka ibigan
er ry
Ġso ap
ĠM uling
Ġbag uhan
Ġgum uhit
r ug
re l
ĠN PA
Ġpin k
ik ipedia
Ġnakak ah
ĠK orte
Ġmake up
Ġkat ulong
l ene
Ġa dik
Mah irap
tim ate
Ġtr icycle
Ġula m
ract ice
na st
Ġfor e
ĠNa i
Ġdri ve
Ġtakip mata
umb aga
Ġtak ong
Ġin te
Ġh ataw
ĠS IYA
s orry
Ġth ird
Ġkarang alan
ul uy
Ġpus ong
il bi
Ġro m
Ġmedic al
Ġit uloy
Ġpep per
ĠAT ING
Ġtur ista
K uya
la v
ĠH al
Ġun ivers
ĠMiyerk ules
Ġsa kop
Ġnaisip an
Ġpagbab ayad
U C
ĠP atay
ĠPas ig
Ġpagsis ikap
Ġv s
Ġsak ali
Ġpangy ayaring
Ġbalik an
P alitan
Ġeksak tong
Ġmal uwag
apang iti
aga s
ĠW ow
M o
Ġf ather
ff ective
Ġw edding
h ot
Ġb ac
ĠN ico
rib usyon
g ed
ĠPro dukto
w iran
Ġra d
Ġpri ze
Ġkala hok
as inan
ag usto
ĠKar en
ĠPas cual
ĠF B
h anda
m ir
Ġman ila
Ġkam ukha
umb ong
Ġb f
____ ____
P in
ĠCo uncil
ur in
Ġkur song
Ġal ok
Ġon ce
mam alaki
B ut
uw iran
preci ate
Ġli ft
B uti
ĠPag dating
ĠPuw it
alig tas
Ġmotor siklo
ĠH ayop
S eptember
ma an
ram i
Ġmap abilis
Ġt ulang
ĠDi rector
Ġtek a
c ol
Ġperform ance
Ġmagk aga
inungaling an
Ġnas is
Ġp ine
erre z
w ith
Ġbo obs
,, ,
Ġordina ryong
t hough
ĠAtt ribution
uck y
Pags asanay
ahimik an
at lo
ĠPat uloy
ag os
ĠPana na
x y
angg ihan
ib ilang
ho use
b utan
Ġar mas
Ġte en
bang o
A like
ul utan
ĠM analo
ĠAl j
ĠAS EAN
Ġmagk apatid
Ġ anal
Ġma de
ĠF olk
ak syon
Ġpaglili him
un idad
Ġla y
am ing
i od
Ġnag tagal
inis ter
us sy
Ġtut orial
am bo
uti errez
ent ine
ust isya
Ġmaga zine
Ġt ot
I k
Ġpagga gatas
Ġina min
at ure
ĠT atlong
... âĢĿ
ib it
Ġs on
it al
Ġp indutin
Ġpum ap
Ġsa fe
ĠN ANG
ĠMil f
ol ution
lam e
y ahan
ra k
ĠD ina
Ġg f
E E
A ugust
Ġwe ight
Ġkont robers
ĠM UN
ĠBayan i
h room
A i
ĠB ill
Ġtag lamig
Ġnaa alala
ĠN ar
ĠF OR
Ġmas ira
Ġsp ray
D ep
ori ano
Ġproduk syon
Mas akit
Ġh at
Off icial
Ġ3 00
ĠLik od
ab utin
Ġs ense
Ġsab ik
les sing
pro mote
he t
Ġinil unsad
Ġmat apang
ungk ulan
Ġs ites
umb ayan
Ġkadalas an
Ġba it
um al
Ġworm ing
kuk unan
ĠA von
ĠS ang
ĠPa olo
Ġs uccess
Ġk eso
ĠAd minist
Ġbe ing
ï¿½ï¿½ ï¿½
B ab
ĠC linic
ĠU ri
Ġtum awa
ĠMar y
Ġoff ic
igit al
Ġh alikan
Ġantib iot
S AN
p ansin
ĠM E
tat aka
ĠRob redo
rid ge
Ġpap ayag
Ġo va
ip igil
ĠAir port
L upon
ĠNizhn y
in ue
Ġay an
Ġkina n
la gen
at is
Ġc os
ĠKum uha
ĠGer man
ĠA ff
B il
Ġsa lapi
anda ang
?? ??
ĠAl f
Ġstor ies
un yag
ĠS ign
ĠJenny lyn
B e
B AB
ĠD en
Ung uento
h is
ĠS erbisyo
ĠRam on
Ġe qu
Ġbin ibigyan
Ġpinag daanan
Ġpag mum
, .
W D
ter ol
er i
Ġik ot
Ġblog ger
un di
am ad
ig ang
Ġth ese
lala ban
ĠJ ason
Ġn urse
Ġmak ah
lie ve
Ġh alagang
l ut
as awang
Ġpa li
Ġbin hi
K ab
Ġget ting
T inat
Ġnagk uk
ĠN gayong
ahang a
Ġhum antong
Ġkad ahilanan
ĠTo ur
Ġs qu
ĠAw ards
ag is
ĠA D
ĠL umang
Ġpy rantel
low job
ĠSal v
ĠH A
M ainit
ra in
Ġgum aan
uti ful
Ġkar unungan
as ahin
Ġpan lipunan
op ecia
ĠAb ra
Ġin ir
Ġpinakam ataas
Ġmine ral
Ġum asa
Ġma ri
es isyon
yal uron
ind ex
Ġkalak alan
di ang
Ġal opecia
air s
ubay bay
ek ta
uly ap
T ina
unt ento
ĠN ormal
ĠL ac
Ġnap akas
UNGK OL
Ġay okong
ip a
Ġsi pon
Ġqu estion
ini gas
o ice
ĠL and
Ġnga un
ĠS ay
Ġnagtat aka
Ġkinat awan
Ġt w
Ġcom mercial
Ġli s
rip tion
Ġmagkak apatid
L Y
ay ahan
ar esto
C R
ig yang
Ġposit ibong
Ġak tibong
ĠT oni
oc ha
me to
AL I
p ol
ĠH on
Ġsen yales
ya d
Ġga law
Ġkumb inasyon
E wan
T ips
ĠB AN
ĠO ri
Ġnakik itang
ĠGaga win
ĠC ali
ak ong
Ġbumab agsak
Ġpa hinang
Ġsi ga
Ġmakap unta
ĠMedic al
aya ang
Ġper fect
H A
H igit
Ġiw anan
Ġm oney
ĠL una
A fter
T unay
Ġmangy aring
bi es
erat or
ĠPum unta
im as
ĠMak ikita
Ġkal ungkutan
vers eas
Ġnakat uro
iel d
Nag pap
ult ure
Ġnagt atapos
Ġidi nagdag
Ġk iss
Ġop er
Ġpamum uno
Ġm um
Ġwh ile
H erb
iss ue
Ġpangung una
Ch apter
Ġalam at
Ġpina laki
ow s
Ġmag ising
ĠO gie
Ġv er
alak al
ĠMar ic
Ġla way
Ġmag dadala
Ġa uthor
Ġspec ies
la an
unic ation
T atlong
ĠKam ara
Ġnak al
Ġpagtit ipon
Ġn uong
ĠM other
B awal
T M
Ġkalam idad
ĠH all
aba gay
b ugan
Ġsangk ot
Ġpagt atae
Ġl ansangan
Ġmas ak
Ġsina unang
Ġpulit iko
Ġnob ela
W rinkles
Nan iniwala
ĠTa iwan
ĠD APAT
ĠY es
b ar
ili o
Ġ3 8
AT AN
Ġmagp adala
Ġnad arama
ĠPags usuri
Ġ ï¿½
d ote
ĠLib reng
t ayo
el t
Ġpap alapit
ĠSt ate
Ġpagh uh
ent ial
ĠW or
ĠG utierrez
ĠM arahil
Ġlik ido
Ġwor king
Ġhataw tabloid
U E
ek n
Ġpina kas
ĠS P
ĠC lub
Ġli ham
D a
Ġpagb alik
G o
m ali
r r
t ar
Ġpass port
ĠJ udy
Ġnagb ub
ĠAn s
ĠS tor
Ġmar ks
ri age
Ġt ulay
ĠP ia
ĠI yo
Ġna nood
f ungal
Ġpanuk alang
Lib reng
S ila
ĠM c
Ġpang anak
Ġhin de
Ġmati yak
um ba
H ATAW
ri x
Ġday uhang
imp la
Ġakala in
Ġlub hang
ĠT IN
Ġlab or
ĠF riend
ĠT iti
Ġhar ina
Ġnakak uha
A b
d ali
lie f
h alian
Ġi Phone
Ġwor ks
ilos op
Maga gamit
en ang
Ġmo od
Ġnag lakad
ang al
hang ang
ampa ign
c hat
AS YON
Ġis ulat
ist ry
Ta o
Ġnagpa alam
yaluron ic
ĠC aloocan
Ġprinsip yo
al oy
Ġe c
arap an
duk asyon
ĠSp ecial
Ġreb el
Ġby ahe
Ġmat akot
Ġreak siyon
G irl
ĠT erm
Ġpagk am
Ġt ono
ĠD AY
Ġpagpap ahalaga
Ġnakakat uwa
h ap
Ġpal da
Ġworm wood
ĠF a
Ġkat ahimikan
ĠWik ipe
ĠGum awa
angk ad
ang ad
Ġy uma
Ġw ere
Ġmap at
bah ayan
e hersisyo
ĠÂ ©
c io
im iss
ĠK AB
ĠBabae ng
Ġla dy
R A
Ġbun so
Ġpagpap as
li ver
en ces
ĠNa il
Ġi hah
Ġbumang on
lang oy
r oseso
ĠGam es
ĠBina y
Ġf igure
Ġbas ang
ĠB i
Ġpat ungong
OS T
ĠTak dang
Ġd ilim
ĠC are
Ġd aga
Ġipag patuloy
ĠPuw etan
Ġpres yon
ĠRam os
An onymous
Ġpinag t
20 18
Ġkam ang
ĠKast ila
B ina
na tion
Ġsa mple
Ġp il
ĠNa alala
Ġb aliw
pag pap
ĠTal sikan
Ġw elcome
od o
ang kop
ĠB AYAN
Ġlum aban
Ġmaila pat
Ġsto ck
ĠH oney
he ads
fe ed
Ġhorm onal
p are
Ġf avorite
Ġplast ik
Ġdrug s
on ia
ay in
Ġko py
N abawasan
ĠK apatid
Ġbuwan ang
f ree
Ġkan to
Ġin isip
M ukha
ĠBoy s
ĠK ad
9 0
ĠAss oci
Ġdat os
Ġb all
Ġkom iks
X X
es pasyo
ĠEd ucation
Ġdumuk wang
Ġip in
p ar
Ġshoot ing
S abihin
Ġpagkas ira
Ġm ins
es ar
C ar
U AN
Ġcon n
era s
ĠT AYO
Ġdi in
Ġtod ay
Ġpunt os
om end
OR D
Ġp untong
ĠAmer ica
Ġkum alat
ing o
Ġpow der
Ġcon ference
amb ag
Ġthe rapy
Ġh alatang
ĠR adyo
bre ak
AH A
7 6
Ġc iti
Ġkuk unin
ĠD ITO
ĠI d
Ġmak ikipag
ib ahagi
Ġad vice
M O
ect rum
Ġdress es
up uksa
iy al
lik adong
Ġhang gat
Ġ use
ir ot
ĠBas ahin
ch ing
Ġkadala sang
Ġb and
ĠG el
ip ot
Ġpana nal
ĠBel t
ala lay
C O
Ġbot ika
ĠW atch
ĠWikipe diang
aham ak
ĠB et
ĠFrancis co
Ġkumple to
Ġgaganap in
Ġi dagdag
ĠA li
Ġmar ka
dad a
Ġnakah iga
Ġw he
osmet ics
Ġban k
Ġpinakam alapit
ĠMala pit
Ġwrit ing
Ġap likasyon
Ġkum ukuha
Ġk uts
ĠC OM
Ġkas anayan
ĠCom pany
d uhin
Ġt ell
Ġgro und
Ġand ito
Ġpang alawa
ra ft
Ġr um
li fting
mat es
Ġpags unod
Ġpinan sin
ĠBula te
Ġj ud
Ġmis yon
an ang
ĠM obile
orr ent
Ġkopy ahin
s al
isay as
Ġnapat unayan
Ġ q
Ġpangm ukha
le na
orn y
z ation
Ġmah inang
Ġesp irituwal
Ġnagbab ago
ĠP Noy
ire tso
j akol
Ġm ult
ĠE hersisyo
K ah
Ay oko
Ġserb isyong
ib ilangan
Ġj our
ĠSena te
oko late
ĠF ed
Ġjack pot
ĠS ali
Ġka ib
f y
Ġmag re
ĠPilip inong
Ġmab abasa
ĠC amp
Ġsm art
ip al
Ġre action
el ly
Mab isang
k ah
Ġb ibili
Ġpagpap ak
ĠVi etnam
ĠC yp
Ġnapak alaking
ĠLot to
ĠK anser
we h
ĠR ose
Ġt igil
n ut
le ct
ti ya
ĠLIB RE
t uwa
Ġam p
Ġnatat awa
O ne
Ġmagk abilang
S imula
ĠK ur
mo x
Ġad vanced
Ġre lease
Ġmagk antot
v ar
ga m
ilip at
9 8
ala r
Ġmait uturing
H apon
Ġp ino
Ġmat indi
kam ay
Ġcond ition
M alaki
Ġmadam ing
Ġsun ud
Ġnag li
alakay in
LES IA
Ġkah ilingan
M IN
e ast
ĠC agayan
m ond
Ġipinagb abawal
ery osong
ĠP u
Ġtat awag
ala ala
ub usan
ĠP lan
ĠD ar
ĠD em
ĠC ITY
Ġmagb abago
ar do
are z
Ġpas ilidad
Ġmat alik
Ġpus on
Ġgo ji
orr up
ĠH irap
Ġmal utong
Ġb lo
AN AN
Ġpagbab alat
or ter
ro ve
w ad
ĠDi abetes
ĠLoc sin
ĠSa int
ĠP L
mer gency
Ġbon us
apag od
ays ayang
Ġmus hroom
Ġtuk tok
v ator
ĠAL AM
at awa
Ġmat atapos
ĠAr my
ĠS kin
Ġma ingat
Ġpat ch
are lasyon
ĠNag k
uran ce
Ġsto ol
ip es
Ġpina h
Ġlo c
ĠV ir
IS O
ĠD erek
N ah
Ġcon do
Ġhala ta
ĠAn ime
Ġko s
Ġpor sy
ĠPag p
Ġele mento
rid ay
N as
Ġpap ers
s ahan
bin siya
Ġf b
Ġbum isita
ek lamo
ĠMari el
Ġbina sa
exp ect
Ġ201 9
Ġmet abo
Ġb lessing
or idad
Ġrad yo
Ġmap akali
Ġam po
Ġipina pakita
ĠAmer ican
ĠS AL
ĠM ateo
ala in
ĠB AT
Ġreb olus
N ews
li o
âĢĻ .
meto logy
Ġmap an
DI RI
D o
ĠT it
V A
r do
ĠKum ain
Ġim ah
s ige
Ġpala y
c ript
As awa
ĠNap ansin
ĠKah arian
Ġb ow
Ġor iginal
m alaki
Ġipap akita
w iki
Ġila bas
Ġque en
ĠP era
Ġkap amilya
n ot
ig in
as im
ĠMa e
Mab uti
Ġnakap asok
ĠRev illa
ĠI K
ĠLo ob
ĠCar la
la sa
H appy
di ct
ĠCla udine
h igh
Ã ¢
id es
amp alataya
Ġsa min
Mas arap
ga ga
Ġpig ilan
Ġmab agal
ul ugang
ad aan
Ġga ll
Ġsup ply
Ġi lipat
ib at
Ġf il
Ġmasas amang
lis er
Ġpagli lingkod
Ġche ap
Ġla king
Ġpagsas alita
D uterte
Ġi mag
Pag b
ĠB awat
Ġpagga nap
Ġsw eldo
ateg ory
Ġnab ub
inabang an
P ussy
Ã ³
G inintuan
i ent
Ġp ort
ĠLis ensyang
hi a
Ġtin ingnan
ut ulog
Ġbin anggit
ĠLib re
ĠðŁĺ ī
ĠP rans
ĠD eb
mox um
Ġdi ffer
int ments
Ġban ta
W hy
ĠKab ilang
Â ¬
ï¿½ï¿½ï¿½ï¿½ï¿½ï¿½ï¿½ï¿½ ï¿½ï¿½ï¿½
as id
ĠK RIS
ĠD A
ti wala
Ġv an
ĠA ba
Ġmamb abatas
sh ine
iw anag
B ook
re m
Ġdal oy
ul ti
Ġgan ang
ome lec
u u
ho ut
ut unan
ila an
Ġsina bihan
Ġw et
Ġpam unuan
Ġsp ectrum
Ġswim ming
aran ce
ĠN ext
ik aso
an ne
ur is
bi an
ĠE arth
Ġt atang
he a
son val
te ad
ir ming
Ġunder wear
Ġnat itira
p am
ca Ã±
Ġs leep
Ġb isitahin
L e
Ġup d
B ata
Ġd ip
alis ta
Ġh ula
Ġmak i
Ġeskwela han
ĠNa isip
AL O
ec k
Ġmagdam ag
ĠR ico
Ġj ose
Ġkw enta
ĠMus ika
Ġsing aw
f ocus
Ġpagpap atakbo
-- -
chi ve
ĠWe ek
ĠHar ry
ig ising
Ġqu ality
Ġsa akin
Ġsiste mang
Ġkumple tong
Ġka ibigang
ĠH ospital
ng ayon
ul ly
ĠMar co
re f
ist ration
un to
ĠAustra lia
Ġt alo
one zh
ĠPat rick
Ġworm s
ĠR ome
ĠK AR
ĠIlo cos
ig lang
Ġtatanggap in
Ġan us
Ġmag nanakaw
Ġkina kabahan
Ġbig yang
Ġpass word
Ġk risis
ĠAb u
B l
Ġf ashion
ĠGab by
ust ung
UL OY
ĠAp r
B ea
ĠSalv ador
h iko
Ġpa libot
er ie
Ġcol or
M ala
ĠB or
Ġdes ign
ilan lan
ik ina
alak ad
it ungo
Ġpro cess
Ġts okolate
b ida
Ġtra bah
ro me
anggal in
Ġt adhana
lab asan
ĠH uman
Ġdro p
ĠS ilangan
wer sa
ĠK aw
ĠTal sik
F uck
ah aba
Ġsinas alita
Ġas peto
on ment
Ġkinab ibilangan
Bum alik
ĠC y
ĠKat awan
ĠC usto
lol oko
ab ag
Ġa qu
mer ce
ID EO
Ġser v
rim a
Ġ unt
Ġmak ina
ĠY out
P alatandaan
ab insk
Ġtang hali
Ġpap ano
Ġber ries
ĠC ay
Ġcer tificate
Ġper ang
Ġub as
ĠMari o
Ġbag kus
ult ural
ibo dies
Ġkat arungan
Ġher ring
Ġnang ing
Ġing git
Ġann iversary
n osis
Ġh along
Ch s
itor yo
ĠNag t
Ġper cent
y aya
op h
Ġant ibodies
k ey
s elf
Ġmas ter
Ġ3 9
Ġbas ag
sc hool
Ġseg undo
Ġnah uh
Ġk ut
Ġgay undin
E ye
ĠH AHAH
Ġcl os
Ġwork er
ĠA ug
ĠPresident ial
Ġbula g
ĠTha iland
ĠO P
land es
Ġvir gin
Ġalm ond
Ġdi agn
b os
Ġnaka usap
Ġnan diyan
bab ago
Ġmala g
Ġh iya
Ġlum ayo
ata nas
bah ang
OO K
Ġdisip lina
Ġkah on
ĠCh ris
sp ang
ue z
Ġkas inungalingan
iy ahe
ik tima
c ies
an ungin
Ġpat unay
f ile
All ergy
Ġthro ugh
Ġt as
us k
Ġi dina
t ulad
ĠL emon
B igla
ĠDag dagan
Ġans wer
y de
us ter
inab ukasan
inis an
Ġp ulong
Ġkas abihan
ĠF at
ĠTang ing
Ġt uyo
Ġe m
ĠPro peta
Ġnapap anood
Ġf ish
ĠTreat ment
ĠIG LESIA
Ġs ulit
Ġcer emon
Ġgr and
T eka
Ġmatut unan
ĠM em
ĠE mp
Ġp ill
Ġnap upunta
oo oo
ro at
ĠAn u
Ġitina k
Ġins ekto
Ġgo ing
Ġt iy
Ġc lo
Ġele ctions
Ġand un
ĠCh ely
ĠChely abinsk
Ġkama o
ub uti
ĠNag s
M alakas
w im
20 12
reset ang
W ATCH
ho lar
ĠN EW
Ġpagk ap
ask il
atiwala an
ĠManag ement
Ġy aya
Ġpinan s
Ġth y
Ġ200 5
Ġuma abot
ĠD ra
ĠO R
abang git
Ġmak alipas
Ġsasak yang
Ġho op
a away
ati gas
P lastic
Â ·
ov al
Ã Ń
ĠL upa
ik syon
ĠBan sa
Ġmat uloy
B IN
Ġin formation
ĠTh en
Ġpinas ok
Ġsamb ayanan
i di
Ġamin in
m el
ĠVor onezh
UN AY
ĠK aga
Ġnap igilan
Ġfair ness
en di
or oon
read y
Ġkrim inal
Ġd ar
Ġmam imili
H anda
Ġnagd udulot
p her
ĠSA R
l ito
Ġpin ilit
Ġnap atay
Ġtut ulong
ĠRo que
ĠPrin cess
Ġpa hinga
ĠM ataas
om etro
Ġmakak ap
ig ration
or ity
Ġpag luluto
Ġthought s
et ano
Ġsak en
ĠMa ja
r ent
ĠSupre ma
ila s
ĠG uy
Ġmak ulay
uff a
at awan
Gan un
vir onment
Ġisina gawa
ik ilya
ene o
IGH T
7 0
Ġsumus ubok
ĠBe ach
Ġisin us
ĠP S
ed a
or dina
Ġkab uluhan
Ġpar ati
Ġses sion
Ġip adala
let s
Ġlumip ad
an ing
il ling
lak ay
Ġtick et
C on
sy ch
Ġta umbayan
ĠPang asinan
us ga
H H
Ġsis ter
Ġpro g
con f
P ost
ĠS ha
Ġt orrent
ĠA mb
ĠO K
ho lic
Ġpek lat
ALAM AN
h iwalay
lay say
Ġmamam ayang
Ġmo na
Ġkat abaan
ĠPAG K
ĠJapan ese
ĠAt ing
ĠL i
Ġdirek tang
ian ca
ĠM id
ĠI lan
Ġmar umi
K ategorya
Ġtina g
Ġkarag atan
Ġpum apatay
Ġsa t
ach ine
vern or
ï ¼
Ġnamam agang
Ġsig urong
Ġpip iliin
p inoy
t ake
ĠMak ak
ĠTe am
Ġsay aw
el d
Ġf ocus
ut r
Ġsa w
Ġh ustisya
ĠH im
Ġk ulit
Ġmat it
Ġpuw ersa
D ATE
Ļ ¥
Ġpagpap alakas
Ġpan onood
ĠAuthor ity
Ġsum igaw
Ġcount ry
Ġsak tan
Ġmant ikilya
ĠSo ftware
ig no
Ġgast usin
rek lamo
F irst
Ġnagp ak
Ġb urol
ĠIn dian
Ġnaga wang
Ġporsy ento
e ach
v ia
ĠM ocha
Ġpa alala
ĠT est
, âĢĻ
ĠS to
n ew
Ġd an
Ġnakak ab
Ġtrap iko
Ġla rong
Ġpagli pad
Sub alit
h ak
ĠB ul
Ġdin ner
ĠCar lo
Ġnag na
ĠC irc
ĠTom as
Ġt u
Ġc ake
ĠGit nang
Ġk eep
Ġma ly
un ci
Ġmapap anood
b ust
ĠL ady
Ġpagkak ak
ip as
Ġapekt adong
ĠS iber
ĠC O
nan ce
im port
Ġh atid
Ġc abin
po intment
Ġgumaga law
ĠI yan
Ġah as
ĠKin uha
Ġkina usap
AY AT
ĠK ili
h es
t rans
Ġmag sagawa
str uction
Ġga d
ĠC ristine
Ġnag rer
Ġnam a
Mag p
Ġwork ers
Ġsp a
uba i
ĠC ook
Ġpare has
s um
ap ong
ah weh
Ġmaly she
P P
Ġsumus uporta
ĠKath ryn
ĠS atanas
Ġde ath
M AY
Ġmalyshe voy
Ġma ingay
ĠM ed
ok er
ĠCR IS
ari um
Ġsusp ensyon
Ġhard in
P ahayag
orn ia
iv il
Ġkuw entong
Ġmar irinig
ĠMich elle
Ġd ula
Ġd uring
ĠCo ffee
Ġwrap s
und a
ab ak
uri ous
ib ol
ĠLab an
Ġprom ise
Ġnap as
J uan
ĠM ainit
al ub
Ġlove life
ĠKom un
ala b
iw aga
om enda
ĠL at
Ġisina gawang
Ġbuh at
Ġpagt akbo
Ġpagkaka ibigan
I pakita
qu ir
ĠKAY A
lim ang
Ġwrit er
ĠK iev
Ġa udi
Ġsa u
ab uhay
Ġhin ila
Ġpagsus uka
Ġl oses
Ġd uon
ĠD E
ral ly
Ġbin uo
pop ular
An u
ĠNasa an
Ġl ear
Ġipina hayag
Ġstud ents
S pot
Ġma jor
ep end
Ġrespons able
os it
ĠEc zema
Ġs oon
Ġpagkak ah
Ġf ast
ĠC uneta
Ġlim a
Ġat ake
ĠGr and
A ba
T op
Ġa utom
imb esti
Ġmatery al
ĠGu ards
Ġeff ort
Ġf ire
unci ation
ĠK ilala
ud s
Ġ4 8
unla ran
Ġla lim
Ġbili hin
Ġhal f
Ġis us
ĠPinakam ahusay
Ġst ate
Ġnangy aring
it ute
ĠO m
ĠAlj ur
es ter
Ġde la
Ġkast ila
ĠB F
po lis
B uhay
id ence
Ġdi retso
ĠMicha els
ĠNAT IN
ĠF eeling
ĠWeb site
G ayun
ather ine
! ?
B ulating
W atch
gan yak
ĠShow time
tan im
ĠMab uhay
Ġnan un
et isyon
Ġ20 00
Ġam b
Ġbin ub
uwal hatian
Ġsa li
Ġc ampaign
Ġkas ali
ino ong
Ġmaga ganda
st ant
Ġt uwang
ĠP ron
Ġac c
Ġmasas abing
Ġsa ser
Ġpr os
ex c
ĠF red
Ġkos met
ib ility
Ġas ong
urg ery
Ġko po
alam ig
ik on
Ġset ting
Ġlathala ing
ĠAR AW
Ġpana wagan
ĠNak u
B alat
ĠAnd rea
Ġp ics
kal usugan
Dum ating
Ġsh all
Ġde vice
ĠAnd res
ĠL y
ung ol
ĠG lo
ĠS ep
est ic
Ġbang ka
hana yan
ĠM all
y ahoo
Ġmagkaga yo
if i
Lib re
ĠPek pek
ĠD ark
ĠV iew
Ġhag dan
ĠC rush
Ġcho colate
Ġgub at
Ġkat otohanang
H ahaha
p uno
Ġdo uble
ĠKA DIRI
P amp
rag on
Ġkon eksyon
Ġemplo yer
Ġn emo
Ġp late
Ġmang olekta
Ġm i
Para an
al usugan
ĠFilm s
Ġkag uluhan
Ġy rs
Ġkam e
Ġkil ometro
per ience
ĠH om
Ġdi y
Nag simula
Ġc re
ab s
nap u
dada anan
un ette
Ġpagla lam
Ġpina pat
ĠNad ine
Ġmag lala
iwala an
caÃ± ang
en es
alaga nap
T ayo
Ġpam asahe
Ġnagkak ahalaga
ĠMis is
AT ING
Ġele vator
orr or
ĠD ali
B inigyan
Ġproduc tion
Ġila lagay
Ġar ound
ĠIndones ia
Ġkat agang
ĠPinakam alalang
ana h
ĠP unong
Ġtinit ingnan
ĠS aktan
ĠPags as
O F
B P
Ġ; )
? '
Ġginaga mpanan
Ġnagk akas
a ah
ĠS ite
ĠO ct
iti is
Ġsec tion
Ġkont ribusyon
ĠKum apal
ĠAN AK
Man ila
Ġnetiz ens
p to
S uper
Ġpa res
are histro
Ġpang inoon
Ġmap anood
Ġph ilipp
Nasa an
Ġkumb aga
i um
Ġb anana
Kum ain
G U
Ġg liser
Ġbu od
Ġan other
iz ed
Ġnangy ayaring
art ista
aw awala
Nag iging
Ġhinih ingi
Ġkas am
ck et
ster yo
un isip
ĠKat rina
ĠVer moxum
ĠS oriano
Ġsup ort
Ġbil hin
Ġnam alayan
ĠCC TV
ĠT IM
ol f
rot e
Ġnag daang
ĠAssoci ation
Ġtalam ak
Ġmak uk
rat ed
b awal
re ta
Ġg ulong
ali ka
M uling
ĠL ap
Ġmagkakas ama
Ġmak akain
Ġkab ab
ond ing
urt is
st an
Ġano mang
Ġmin us
Ġf it
Ġm ist
Ġpamil yar
Ġnab uhay
Ġpananal ita
ng ang
ĠE sc
ĠV isayas
ĠPe likula
Ġround worm
ĠK id
gal an
Ġah ensiya
qu est
Ġme et
Ġf our
ĠNap a
Ġread ers
Ġass ist
ĠU ma
Ġnagb ebenta
ĠN ILA
Ġnakat itig
Ġag ent
k g
Ġindi e
Ġmagp ahinga
ĠP erm
ĠH ayaan
mag anda
mat ikong
Ġnamam atay
c l
ĠF r
h along
ĠRom a
er ing
Ġmat ugunan
yn zar
Ġint indi
OL O
show biz
ĠK ulay
inan te
Ġform ula
Ġbum ubuo
ali p
INO Y
ty pe
pris e
rima zole
Ġnak atanggap
Ġpangk ulay
Ġpa leng
ĠI g
Ġimb es
un k
Ġpang alagaan
at ok
v id
Ġmaga ganap
g utan
Ġmakak aya
ll en
Ġk li
ĠK ids
lam ang
f ornia
ĠR oc
o ot
Ġpagpapap uti
p ub
Ġenter tainment
Ġpag likha
um er
Ġi glesia
ut u
Ġbin it
Ġlup ang
anay am
H oney
or ation
Ġso ft
A k
ĠT eka
ĠK aramihan
Ġpar king
apang in
l s
er n
aw is
Ġin uman
Ġch apter
st ay
k ar
ĠTha i
Ġmag patuloy
ĠC hat
AC T
em at
Ġnatit irang
Ġc osmetics
Ġorgan ic
T ag
ĠW rinkles
Ġmah iya
Ġmetabo lismo
u it
Ġmat anggal
Ġpro vin
ihin to
Ġtr ich
u z
Ġag ham
Ġsty ling
Ġlo an
ĠT AG
ĠCyp rus
ĠG F
ĠJo ur
Ġkaw awa
Pres yo
H oy
Ġhorm one
S arap
Ġko op
Ġmaw awalan
if y
Ġpara ang
ĠAng elo
ph en
B lack
Ġpar usa
Ġpans amantala
B log
ch er
a abuso
ĠL ol
Ġpinakam agandang
Ġext ension
Ġh inding
B alik
ĠS imple
ĠReg ional
Ġpagb awi
alok a
Ġd asal
Ġplan eta
ĠP ay
Ġbina t
ĠBu zz
Ġkopo nan
una hin
get her
ek onom
B ahagi
ĠE g
ĠIbig in
ĠYO U
ĠM ind
Nag p
Ġsin undan
Ġula p
Ġsaser dote
aw ig
ĠR ating
ĠCh urch
ĠRa dio
ĠJosh ua
as ar
ĠT ubig
Ġv isit
ya lista
hi an
th day
Ġk ulungan
at itis
Ġkina in
v ost
Ġ ara
Ġnakak akuha
ĠJo el
Ġbalak ang
ĠWin dow
Ġtim og
Ġsir k
ĠShow biz
Ġdina dala
Ġnakak ahiya
ĠPron unciation
Ġ unan
al sa
im ang
Ġf at
An yway
at ory
als al
ĠKo le
Mab uhay
ĠL ondon
Ġnangung unang
Ġk ids
git na
ĠUn ion
P L
AN ONG
am ahal
6 8
ung at
ic les
ĠMalak anyang
Ġpl anong
ĠS ports
lis an
t ura
Ġipinas ok
ec tor
ĠF ire
Ġob li
O r
c ons
âĢ İ
G apangin
I AL
Ġh yaluronic
d ito
Ġnar ating
zz le
ĠP ynzar
Ġe mot
Ġnang ga
Ġal yas
Ġak tibo
W H
Ġb ara
Ġg iv
apang anib
ĠX enical
Ġampo ules
P are
ol low
ĠC esar
Ġli gaya
Ġlag nat
du ate
K aka
ila y
ĠF am
ena il
wa in
Ġis inas
ĠH es
Ġt up
Ġhang arin
as in
ĠB IB
ab ato
do g
Ġumi inom
Ġnakat uon
Ġmah uh
Ġsa law
ĠD IN
ĠY ahweh
ĠGamit in
ĠAbra ham
Ġpat ok
ĠMah ilig
ilis an
Ġyo ga
dilim an
Ġtit ig
ras yong
Ġtuw alya
Ġpinakam ab
Ġok asyon
Ġk em
ĠT alaga
ĠW i
Ġmanana tili
Ġpes te
Ġk ukuha
In ih
ĠD ays
Ġbin ibigay
lak an
Ġma ih
Ġv ib
am ay
M uli
Ġc oco
ĠDO H
Ġw orth
Ġartist ang
P arehong
Ġgum aling
erob ics
Ġsa ang
iti onal
ĠEs say
Ġc ured
ĠB usiness
ĠN ow
Ġli gaw
T amang
Ġ- --
ĠC ode
Ġkosmet iko
ĠB b
l upa
ĠG aya
Ġsina k
zz i
Ġtat anungin
ĠGe orge
ĠVe las
Ġk ore
na y
ch ina
Ġl ul
og ging
ĠDag dag
g ers
ĠS C
cos is
ataw ad
he m
b uhin
Ġc lick
Ġd u
ĠCo unt
OV E
alast iko
N apag
d ep
Ġpagsas abwatan
IC E
Ġtra disyunal
ors iy
IF E
vost ok
Ġpan untunan
ĠProvin cial
Ġt ite
K ar
US TO
Ġpinak ama
Ġcomm unity
ĠJ uda
Ġmat angkad
ĠAl bay
ĠPILIP INAS
in da
Ġv odka
or gan
ĠI P
UT ER
nas yonal
Ġgad get
ang o
ret to
Ġag ree
Ġmakab uluhang
ĠL ope
up uan
Ġmat upad
Ġprim etime
Ul tra
Ġra bb
Ġnagb abayad
oo nan
y ayari
Ġpro binsiya
I dagdag
w asan
ing atan
Ġh iwa
ng ue
ĠR ub
Ġaudi ence
Ġpah intulot
Ġsen ior
no on
Ġhang ang
Ġbalan se
H anapin
Ġl oss
Ġw orry
gin iit
Ġsib il
Ġkarag dagan
Ġpagk alastiko
B oy
W A
Ġexp lain
mm mm
ĠJe ff
Ġkap ansin
Ġnara ranasan
Ġfuck s
ind u
inal do
uh ing
K abilang
Ġka ugalian
Ġbe lieve
EN S
Ġd osis
ĠP ig
h ikal
Ġele ction
Ġpagtatang hal
ĠG a
ĠGan yan
uk ay
Ġpagmam aneho
Than ks
v iv
ar ov
ĠS inasabi
th er
Ġpin untahan
oci ety
UL ONG
Ġsiga rilyo
K uwento
p ie
Ġi yun
ĠV an
ĠBl ue
ĠVil ma
Ġga lak
ama an
la c
ĠM ara
p li
Ġd et
Ġcos metology
Ġrabb its
w ell
to ms
Ġr en
uli san
ĠS igurado
\ \
Ġnangang ati
ĠW ork
ĠPet er
ug i
ID S
res yon
ĠAn iya
Ġpagt impla
ord an
ĠMab uting
Ġnas asak
alig id
ar ter
Ġpar k
Ġpat unayan
ĠMak at
Ġsis iw
ĠCRIS TO
Ġnakang iting
ĠI tem
ĠJ illian
Ġma igi
ta ong
Ġthe me
ĠK antutan
M B
ak ibat
Ġcon dom
Ġal on
Ġpaleng ke
Ġf resh
P IA
Ġmar riage
Ġkaw alang
Ġpa in
Ġma iwasang
Ġnak aramdam
Ġalm ost
Ġbuk id
ĠNo el
Ġbahag yang
ag lit
ĠC urtis
G awa
Ġka inan
Ġi kas
Ġg ang
Ġang at
Ġthank ful
nak ak
ple ment
Ġnot e
Na alala
N ili
Ġpags asa
ĠBit coin
ins p
Ġ200 4
Ġf lu
ĠAra bia
Ġitinat ag
amam atay
ĠM uh
Ġ4 2
ĠEd gar
cep tion
ĠKah apon
D ad
Ġpa unang
Ġtum ataas
ĠMak ipag
Ġm ig
Ġnat uklasan
Ġkal uwalhatian
Ġp wersa
Ġbro wser
Ġw arts
inan tot
wor ks
olog ical
ĠK itang
ĠMag basa
Ġab o
ĠR uffa
ĠE L
ret ty
Ġl unch
Ġbaga mat
F ree
ap aw
Ġkat iw
Ġp en
Ġbr andy
g ulo
ĠNg uni
Ġlum a
ALAM AT
pret asyon
hi yong
Ġl ymp
ĠA ri
Ġte la
Pags usuri
N AN
O ras
Ġros as
ĠP uro
U RE
Ġnags abing
Bag uhan
Ġp orsiy
am ot
W h
rik ultura
Ġmean ing
Ġnang ag
k is
u i
19 8
Ġy elo
Ġevery thing
big yan
ĠPags ubok
Ġpagk ikita
Ġ ugnayan
Ġmala s
ĠF re
Ġparang al
Ġim age
H inggil
l om
Ġb ali
aw arin
Ġkina u
ona ry
Ġman i
Ġpres ensya
ind ak
Ġsinas adya
Ġplan ta
On line
Ġnat akot
Ġstraight ening
p al
ĠN ight
ĠNeg osyo
Ġmag ulo
Ġle ave
Ġp ills
ĠM apag
ĠH uk
Ġk im
Ġin ili
ĠM achine
Ġf ront
Ġf ield
ĠP lastic
Ġg andang
ĠB AL
20 17
as dan
Ġnaw awalan
Ġpum utok
c ription
iyan sa
Ġt ibok
V ER
s ya
Ġput ik
na da
ĠF eb
on ya
tiv ate
ala l
ex as
IH IN
Ġk m
ip at
ĠBen igno
6 9
em ale
EN D
z ano
ĠR IN
ĠW ed
Ġtal ento
Ġpa pat
Ġnat atanggap
Ġtala hanayan
Ġask ed
om y
Ġmagp unta
Ġp it
ĠL ahi
ilit ary
Ġb ok
20 13
F i
hang gang
Ġ asa
ult urang
ĠPaki ramdam
apit al
Ġmag ustuhan
Ġcle arance
Ġla wa
7 5
Ġb ol
Ġe yes
ĠI pag
Ġgaga wing
ĠEx press
than ks
Ġd ermat
ĠP ol
Ġkum in
Ġik inas
Ġkli yente
Ġbang git
u ig
c les
ang in
Ġh ep
ĠA lisin
h intay
Ġpag dad
int ong
Ġsab on
rap h
Ġf ind
ĠKat ulad
Ġnat uloy
ĠLang is
Ġf ine
Ġs ugg
Ġd igital
Ġf ew
ĠK ang
Ġniya on
di di
M AR
Ġpap uri
Ġper pekto
ĠSc ience
Tra disyonal
ap t
) )
ĠA ran
ut ube
ĠNag simula
Ġsulat ron
Ġs eryosong
ĠPara sito
uot an
ĠPang anib
Ġsum ikat
Ġkam alayan
erna dor
ĠWE BS
aras al
al y
A pp
angk ot
Ġpat ut
Ġantibiot ics
er ra
ĠV en
aliit in
ĠB AKIT
Ġalala hanin
im bang
ila bas
Ġtra disyon
Ġda anan
ap agal
Ġsong s
Ġk ul
Ġin timate
Ġnap insala
ila yan
Ġmali bog
ff y
Ġpre mi
Ġt ugunan
ĠBig lang
ĠTrans port
Ġnagt uturo
E B
Ġakt wal
oles terol
ĠCay etano
ĠMag p
Ġrequire ments
Ġcelebr ity
Ġpinakam ahalagang
ĠIn dia
Ġhina yaan
ugh ter
Ġt ri
ap preciate
D iyos
Ġall ergic
ho v
ĠS ara
Ġpang ulong
cle ar
Mali gayang
V E
Ġh ip
AM P
K ala
lus ive
Ġsik mura
L alaki
c ell
I b
ĠX D
Ġpinap ansin
Ġtemp lo
ia z
ĠL ea
U RO
13 4
ĠT inanong
p uter
ĠH irit
Ġsak si
ĠS earch
ĠK abanata
E AR
ber ry
Nak aka
Sum ulat
Ġass et
or se
Ġpagbab akuna
Ġpans amantalang
ilit aw
N oon
ĠT ara
ĠVladi vostok
ĠP areho
ĠD un
ĠC ons
Ġbi ology
each ment
Ġm untik
Ġpinip ilit
Ġtrich ologist
Ġk araniwan
ut uloy
ĠBar retto
Ġmak atanggap
ambo anga
Ġ Ð
int say
pes yonal
Ġop ort
ĠIpina g
Ġch urch
ĠTam od
ĠMalay sia
Ġab utin
h asan
p amp
ĠB ianca
Ġpum anaw
B isitahin
Ġhim ala
Ġcy cle
ĠS ib
Ġto gether
uwa it
Ġh iga
ĠD in
Ġkak ayanin
un wari
ot ing
ĠMala caÃ±ang
as ahang
Ġpangk araniwang
ĠHard core
on na
ĠT ipan
Ġpina la
Ġnagpas ya
ĠEv ange
Ġd raw
alas yo
i yo
Ġkab is
ĠB oss
Ġp und
ing it
s en
Ġpos itive
ay uan
Ġmas elang
ĠM IS
ha i
int s
Ġalin mang
UL I
Ġc r
job a
Ġk alang
Ġcomp et
Ġkrit iko
ĠTum ayo
ĠTs aka
ĠKarap atan
Ġmas ki
Ġkil usan
Ġkas arian
ĠE pek
ĠAl v
Ġsig nal
o la
Ay os
c ur
ak ilang
Ġsa ga
AB AN
= =
Ġtum atanggap
ĠCast ro
k apag
Ġ4 4
Ġhis tory
ih ira
Ġnagna nais
h ari
Ġmagpap a
Ġbaba ing
Ġpas kil
ĠS ING
Ġmakak at
ĠN aman
ĠJ C
il ty
amin in
Ġkara hasan
ili nan
... ]
ĠR icky
dinan d
Ġsm ile
Ġbase han
Ġf lan
ĠEs panyol
n s
Ġtub e
Ġbil yon
ĠPag hahanda
qu id
ĠKAN YANG
Ġelect ric
ĠM ina
Ġco up
ĠK har
ĠW OR
Ġna galit
n on
Ġd og
20 16
ĠInst itute
A wit
O po
akat uparan
Ġsal in
ĠBan k
l uhan
Ġper iod
Ġr ights
ĠNag karoon
ĠS eg
Ġinst ant
Ġk ind
ee nag
Ġb or
mas aya
Ġop port
Ġco uld
UP DATE
35 7
Ġpagpap anumbalik
uk ot
ĠRob ert
Ġdemon yo
ĠNan iniwala
M am
and ahang
Ġb astos
Ġtina maan
ĠEx ercise
Ġnas awi
ĠFo undation
ĠSapag kat
awag an
ĠT andaan
ĠAnd re
Ġnakatak dang
P ilipinas
Ġalaga an
ĠP osible
Ġw ow
p t
ins unod
Ġbahag ya
z i
Ġtip o
Ġna lili
OO B
Ġpags amba
Ġpinag tat
al t
ĠA C
Ġmak alimutan
Ġrehim eng
uh anan
ĠI van
Ġar gan
In ter
Ġpa alam
amb it
ĠS obra
Ġnet working
ĠA syano
po und
ĠT ony
nit ine
ĠSer eno
ĠPags asanay
Ġtub o
ĠKala yaan
ag od
Ġbab ala
Ġin fo
Ġnila gay
g est
ra h
ĠP aliitin
Ġtum alon
rate hiya
Ġpina l
D is
P aki
T alagang
id ong
ĠH is
ĠG ob
are ha
ahala ang
li de
Ġt apang
mag andang
Ġpaki usap
W orld
uri ang
Ġtinat anggap
Ġlip s
Ġnakak akita
Ġhehehe he
C opyright
Ġnap atingin
ar ines
Ġmagb ub
S AS
Ġform at
ecial ly
Ġlimit asyon
ĠL olo
co na
kak aroon
Ġsens it
ys elf
Ġmara ramdaman
Ġpakik itungo
ĠAf ric
Ġkem ikal
ĠPor nograp
ĠH ER
Ġmag hah
ĠP and
AH AY
Ġkatiw alian
ĠP AK
!! !!!
V D
ĠIB A
ĠPart ido
Ġanalog ues
Ġna intindihan
iyas at
n x
alamang an
ĠVal entine
j ay
di um
hi yang
Ġdo ing
mat y
int ulutan
Ġt issue
ala ysay
Ġsangk atauhan
ott age
ĠRep ublika
ĠR eb
Ġpagb ati
Ġdum ami
ach el
Ġt indi
Ġsand ata
y uter
omend asyon
av en
sc reen
T alaga
m uni
N D
ĠIn vest
ĠI V
Ġche ese
Ġpagna nasa
M alapit
ĠKa ilangang
ĠMala kas
L alo
Ġm u
na sang
ĠFran ce
Ġpam bansa
va e
Ġnai inis
Ġpro mo
ĠJ ob
hi re
imag ine
d rop
Ġf inancial
? !âĢĿ
ur day
Ġm unisip
ur usa
ĠC er
ĠR iver
ĠPina t
Ġd eg
Ġch icken
L oc
L istahan
un te
Ġw rong
at ro
ĠFernan do
Ġw ife
onom ic
ĠNatural ly
Ġbak uran
gitna an
alan tad
og rad
Ġnat ulog
ĠMar ikina
ĠX i
Ġnat amo
ĠAt eneo
ling on
For um
Ġf ight
te en
Ġmanana lo
Ġnatat awang
ĠL aging
ula la
Ġwal let
uk ulang
iyak an
Ġb ast
amis il
ag er
IS T
ilik ha
Ġmona steryo
Ġhina nap
ĠG l
ala ban
Ġsc am
Ġpala yo
Ġth ose
Um inom
Ġc ent
Ġmagpakailan man
I paalam
c la
UTER TE
ina lang
ĠD iaz
Ġc orrup
Ġl uto
G en
ib ak
il ed
ĠJer ic
ulit ika
S am
ĠC ory
lo hiya
Ġkab ig
ips ip
f ilipino
ĠP AT
Ġsimula tor
Ġpek eng
ĠBen j
ĠB akla
ari es
th s
Ġkateg oryang
ĠAran eta
Ġn uon
Ġnab ili
akat uwid
Ġind ustry
disk ubre
tan to
w ar
ĠCom mittee
Ġnai iba
yas h
Ġsiy udad
Ġw rote
ĠPag baba
am ento
Ġlam esa
ĠM ULA
Ġpum upunta
Q U
Ġgum ising
ĠM abait
âĸ º
ĠT ul
Ġ4 1
a asawa
Ġpin utukan
Ġ5 6
B rown
Ġun to
Ġkar era
Na i
O ld
k ut
p up
z el
Ġmang anak
ip ilit
Ġadvert ising
Ġang kan
Ġiw as
N and
S uso
d as
y agang
Ġpags abog
ĠQ uin
im ok
ĠAll en
Ġreg istration
Ġf ran
ĠC atherine
R us
Ġn mn
ĠS EX
ĠF P
Taga l
op er
ĠAff airs
ĠC ot
19 05
hihina yang
m eron
ĠSam antala
ort able
Ġpo gi
al usog
Ġbit coin
Ġkomp yuter
os ter
ĠY oung
Ġtuw id
Ġunt il
ĠB alik
ĠF ather
aking gan
ĠP ano
Tang ing
Ġgram o
T C
Ġasp irin
Ġus ok
ĠLope z
Ġmagpas alamat
ans anan
le te
IL G
I lan
Ġant ok
bi ro
ĠAc adem
Ġmen or
ĠL ucky
Ġag ency
ĠR in
ih isan
ĠLar ong
Ġspe ech
B an
Ġmah awakan
lump u
ok a
ac tivate
eb e
es tern
Ġpa patay
Ġcom edy
ĠSo ut
int ing
ĠAc tion
Ġusap ing
T r
ĠS SS
ĠAngel es
ij ing
D oon
ĠCali fornia
Ġg lo
Ġka diliman
OL E
Ġ ÂŃ
mp toms
Ġor ange
ara os
end ar
am pas
uc ha
Ġaqu arium
c ations
ir ur
ren ch
cel ona
ĠWindow s
Ġtik et
OF W
Ġtal ino
Ġre y
iling ang
des sa
ĠD J
yas hek
alam pas
Ġba on
ey t
h ens
Ġpag daan
Ġaga inst
Ġmak am
ĠChi u
ĠD S
m ana
ed ukasyon
ĠRich ards
ĠJ ordan
20 11
Ġtala an
irm ahan
ĠSun shine
Ġpaglalam ina
ho od
ĠVil lar
lan diya
Ġrem ember
ĠB ID
ĠF ilipinas
Ġisina sa
h are
Ġmalawak ang
ĠMerc ado
Ġpagmam ay
ĠTum ingin
ðŁĺ Ĥ
ĠF orm
f ace
ĠB icol
Ġlib rong
Ġpersona lidad
or no
ĠJ ack
ĠK ahulugan
C hinese
Ġsimb olo
ĠLar uin
N alala
Ġmap ay
ig ner
ĠU SA
Ġboy s
Pak ikipag
ka iba
Ġpagt ugon
Ġporsiy ento
R IC
Ġt uluy
as yal
ag ue
ĠPress ure
UN D
Ġmas ahe
Ġob s
Ġopin ion
ĠMar tial
k ulubot
r ite
Ġh intayin
Ġpinakam as
ue la
Ġkatut ubo
ĠM alamang
ĠT ext
Ġs na
Kas aysayan
Ġnakik i
Ġkat uwiran
Ġtap e
ĠS ILA
ĠN AN
Ġap pointment
Ġinih anda
iwala yan
Ġman irahan
ĠIlo ilo
Ġpr ost
Ġfeeling s
Ġnak asakay
Ġmakas alanan
Ġdumad aan
ĠLoc al
s aw
Ġinstit usyon
Ġe mergency
Ġpagpap akita
b abae
Ġd en
OR N
ific ation
es elos
Ġkap ani
ĠIn s
b ula
un or
ik ilala
yon e
Ġpo ok
Ġkum ot
Bil bil
Ġkat am
ag dagan
Ġl yashek
Ġbong ga
Ġmab ubuhay
Ġtumat awag
AP AG
Ġtum akas
Ġmagp akita
ĠJ in
Ġpansin in
nast ics
Ġj e
He alth
Ġmala yong
alis ay
Mag kano
Ġgin ug
ABA E
am on
Ġnagm umula
Ġh usay
Ġexp ect
irur hiko
ĠS O
Ġo ral
Ġkas uotan
ĠE dukasyon
ĠAy os
ent ang
Ġnagt ungo
A king
ĠV ers
Ġ4 6
aga nap
ct ure
Ġf ake
Ġkas alan
ĠTe en
Ġ^ ^
7 9
ali mot
Ġo intments
Ġto uch
Ġhttp s
Ġp le
Ġpoint s
ĠSus unod
ĠLov i
Ġsp ace
Ġsc ars
Ġkw entuhan
Ġbay bay
ah aling
y et
Ġa verage
Ġmagh ugas
ĠB ud
s ir
Ġus ual
Sapag kat
S ina
y uan
Ġrebolus yona
T anggalin
ĠE llen
Ġnagk ikita
pas alamat
ĠT ondo
kal de
Ġmap rotektahan
j an
pap awid
Ġbaga man
Ġapp ly
Ġkid ney
ag ulat
Ġoport unidad
str uk
, '
ĠL yash
Ġd im
Ġclass room
Nag karoon
Ġnagb ib
akan ta
C L
y ay
ĠT UNAY
ant ang
ĠArt ikulo
ĠGayun paman
ons il
Ġdo na
ĠP ot
Ġg od
ĠT ol
ĠC u
Ġmak ata
ĠPang ang
Ġ:- )
Ġtrain er
ĠWeb sayt
ĠFo ot
ĠLum abas
b ak
t r
Ġ ....
Ġhila hin
7 8
Pro gram
B O
Ġnana tili
Ġan ung
ip ment
Ġter itoryo
z man
ĠMan uel
Ġpad s
ĠEn try
Ġp ed
ĠN aramdaman
c ue
anay say
B akla
ĠNap aka
Ġip am
Ġpanana gutan
Ġreal ity
Ġpamb abae
ĠEs s
Ġhad lang
Ġpag ibig
7 2
Ġlo g
ĠHina wakan
ĠIn i
ĠM ahusay
ĠB untis
ĠO dessa
Ġintindi hin
Ġmala bo
ĠKw entong
n ubay
Ġat leta
ĠSte p
es sa
ĠDom ingo
ĠH ila
Ġsc holar
ĠTay landiya
ĠT exas
ĠK ulang
Ġsing sing
Ġp lant
Ġpa bango
Ġnagmam adali
go v
esti yon
y ot
Ġlang uage
ĠKan ina
EC T
Ġpolit ical
yo u
ĠT ok
ac cess
Ġnat uto
Ġaw itin
at ras
ĠG al
ĠG ary
ĠY AN
Ġnah awaan
ig uez
Ġgradu ate
d ress
yde o
h abang
Ġk atauhan
C he
ung uhan
ĠKas ulatan
Ġterm inal
iw i
ĠU son
Ġli f
G u
ĠOr der
Ġnagkak amali
ĠC lar
Ġhina hang
Ġplat form
A IN
ĠMark et
Ġnagp up
p en
or pres
Ġang el
es are
ĠD arna
amb ayan
Ġmin utong
Ġpinan iniwala
ah anan
Ġnab awasan
ich y
Ġal p
umb ers
LO G
Ġj apan
asm ine
ĠN apag
ĠL eni
ĠAn tip
in yo
Ġmakak as
M ahusay
Ġprot esta
7 1
d ec
Ġyun it
ĠPUM AYAT
Ġsulatron iko
Ġkan dila
ĠU tos
Ġele ment
Ġk e
ala wak
ĠH anapin
ĠFilip ina
ĠLac son
ay usan
ĠSim s
ĠG alit
Ġv en
Ġt on
ĠN IN
ĠDum ating
ĠN ic
Ġnagd ala
Ġdi os
Ġip ang
Ġmaga galit
aluku yang
ip iko
te k
mil yong
Ġtar ugo
ĠF an
Ġnand yan
Ġd ah
um ents
U p
ok ya
Ġkala gitnaan
P indutin
Ġsh irt
13 1
Ġman y
ĠC B
ate ur
ĠPara site
Ġsil bi
uk it
ĠâĢ ĭ
Ġv i
Ġk ing
ig ilang
Ġtat akbo
w et
Ġb oth
ĠD iego
Di et
Pagk awala
ĠChan nel
P ondo
ung it
ĠI tim
Ġnagla bas
ĠVelas quez
Ġch allenge
ĠOm sk
Ġdis c
Ġfore ign
s up
vent ure
ĠK usina
Ġsamb ayanang
ĠAl maty
ĠMar ie
ĠLum apit
UL AT
Ġcas ino
Ġlo w
ayo g
ĠMac apagal
INAG AWA
ali a
and om
dag at
bo ut
Ġhud ey
Ġnemo zol
Ġmara nasan
Ġnagt it
Ġpamam aril
ibig in
Ġlum ul
Ġmar tial
Ġlit erat
C ute
at ong
am ins
st art
am ahin
Ġf rame
Ġal ready
S ak
is ion
ks ak
S imple
ĠC arm
Ġkum uk
Ġe ach
Ġbab asahin
ere al
Ġmakak alimutan
H aha
Ġpa umanhin
ĠI mm
ĠCar los
Ġla k
Ġip aliwanag
Mags anay
os sing
P rot
Ġlam ok
ĠL og
Ġk ik
Ġar g
Ġprof essional
ĠO l
Ġlala gyan
our ces
Ġtumit ingin
ĠH i
Ġnagt apos
Ġmic ro
Ġposs ible
ilangan in
Ġtik t
Ġm yself
M us
at agan
Ġdem and
uk id
alas akit
Ġnag patuloy
AG AN
US H
exp lain
ĠT ALAGA
Ġnana natiling
ĠTr ump
ĠD iyeta
Ġflan ks
igan ti
Big lang
is ement
Y AL
ĠSA B
Ġkar ga
Ġmatery ales
ant imp
ĠC ha
Ġma il
Ĥ ¬
dis ina
uro g
iti an
Ġmags abi
Ġmagp akasal
cep tive
t um
Ġgum ana
Ġmaga gawang
lak s
Ġgu ess
Ġnagtat ag
Ġkinik ilala
Ġnakik ilala
Pag tat
Ġmamam ahayag
Ġ4 3
Ġsup plements
ĠC ab
ĠL it
res ista
B ANG
Ġc opy
Ġlum ilip
er yo
el ling
Ġneg ative
Map upuksa
v ement
art ner
h it
h alimbawa
ĠA ve
bian ize
Ñ ĸ
ĠS UM
ĠRam dam
Ġf ats
ĠAl c
Ġmag hihintay
Ġswim wear
Ġk alamangan
Ġi ilan
Ġsurg eon
Nat awa
taga log
D ati
ĠT ro
Ġtr uck
Ġt awad
ĠK umbaga
Ġ alagang
I AN
Pags ubok
ĠJud ay
Ġd rink
Ġw agas
Ġmaga wang
ĠQ C
Ġtl ga
E s
Ġgro w
Ġpanda igdigang
Ġ15 0
Ġst ick
cona zole
g r
uli la
Ġinir erek
ĠL OVE
ko va
Ġy atang
C an
Ġmapap ansin
K O
ĠK ump
mang an
Ġnak i
ĠMas ter
di m
ĠS ONA
Ġnin uno
int ulad
Ġmin i
ed ad
Ġbat ch
K ayo
ug bog
ter ia
Ġpahayag ang
y ment
ib ayan
Ġpas ukin
Ġkomp likasyon
Ġpagb ebenta
ens o
Ġbab ayaran
Ġhand s
ĠA yun
ĠN utrisyon
Ġto x
ĠA MA
Ġmat erial
ust ans
Ġcon es
ĠI L
so lina
ĠRodr iguez
ant utin
Ġmagk ikita
Ġap reta
ĠOFW s
ro g
ĠPag lalakbay
ula tion
Ġsc enes
ĠI ran
ĠZ amboanga
Ġcol lagen
Ġrom ant
Ġb enefits
ĠR et
Ġkom ed
Ġinih ayag
ili an
Ġina alis
Ġpagpap ahayag
Ġimp eachment
20 14
Pamam araan
Ġmark eting
Puw ede
sh ot
ĠEd u
Gamit in
Ġr it
Ġtang kad
ah o
ip orm
Ġph ys
Ġkar bon
Ġs ul
ĠA unor
ĠBrit ish
P ad
boy friend
g ograd
Ġcock tail
ĠN ik
Ġsum a
Ġpagd ud
ĠF air
Ġlit eral
mb uds
Ġnapak agandang
Ġposit ibo
Ġpas alamat
Ġsc andal
ĠMat indi
Epek to
Ġpor ridge
ĠDat apuwa
U y
ĠM ilitar
ĠGonz aga
he y
ĠO s
B it
Ġtumit igil
ali d
ĠTag uig
Ġro ot
EN TO
Ġga yun
uw erte
Ġbas hers
Ġdek aris
Ġhus band
lak ihang
li gaw
ĠMas yado
Ġmab ibig
Ġpinakam abilis
N apa
up as
ĠT rin
Ġsh ine
uc risto
. ï¿½
aw asak
ĠT rabaho
ĠT rip
ĠAg ency
Ġamer ikano
Pag bab
Ġpagmam ahalan
ĠCas ino
g is
op en
ĠR ig
ee ee
Ġmak ulit
Ġtom boy
n ight
ar ga
Ġla unch
Ġbags ak
H ayaan
T F
ant ok
ĠC ent
Ġtum ira
di r
s ur
uk i
Ġbook s
Ġkontra bida
ĠAn yway
ĠPANG INO
Ġc ross
Ġre lief
me et
ĠD antes
ĠCam arines
mbuds man
Ġto oth
n n
Ġt witter
Ġas ya
B ukol
Ġi con
st ore
ex perience
ĠMap uti
Ġkasam bahay
U ma
ĠU K
E st
ig en
Ġpam anahong
Ġa erobics
A la
un ion
Ġmas asaktan
B o
Ġi yang
K S
ahah ahaha
ĠRom an
ĠS on
ĠT UM
Ġin come
Ġsu it
Ġhon est
ib al
id get
Ġs olo
ĠP anda
Ġl an
ĠK uwait
Ġhe aring
Ġga solina
AP AN
ĠH ud
Ġpar ating
Ġik ab
it iw
as ons
ĠN ITO
pan iwala
E kzoderil
ĠP askil
iz on
Ġmakik ilala
ĠTor res
Ġbum oto
Ġnagp adala
Ġ apos
im ba
Ġpas ukan
ĠEg ipto
Ġper e
Ġast ig
Ġkum akat
G R
Ġg ets
ĠH ahahaha
Ġpaglili naw
Ġi nan
se ed
Ġts ismis
Ġkomp ortable
Ġnap up
Ġfilm s
ĠB IG
ĠG reg
ĠKhar kov
y agan
Ġm ulto
er ba
ah ulugang
ens yal
Ġpaglala gay
Ġdum bb
es sion
ti e
Ġlar vae
ĠBum alik
Ġlum ingon
Ġbin igyang
M iss
Ġcar dio
om b
Ġfor ward
Ġsinas ak
Ġz one
ALAM IN
Loc ation
anah unan
[ [
ĠS ky
20 15
Ġsing il
ĠGu zman
m art
ad pad
ran ce
Ġpagtat rabaho
B uong
ĠL IFE
Ġnagk ataon
Ġd ib
to x
ĠD ream
ent ino
uk tot
Ġip akilala
ĠS undin
ĠT echn
ĠC omelec
Ġb ru
ĠVi va
D es
di dis
ĠAn ita
Ġmagpap at
ĠSex y
ĠPar is
il et
amp ion
Ġrec ipes
Ġes c
Ġmakapag p
ĠAK ING
pag k
ĠF A
C as
Ġde velopment
ĠS it
dam ing
Facial s
Ġf low
ĠG ang
inal in
Ġur ic
ula tor
Ipina g
Ġm it
ili ran
ord on
ĠDI OS
Ġik uk
Ġpre m
Ġamo unt
Gam e
ĠN YO
ob er
Ġaw ards
ĠC up
Ġmaip aliwanag
Ġmanana liksik
Ġpina pas
ĠUn ibersidad
Ġpa pas
Ġtra ck
Ġp ick
gan un
Ġs uh
Ġman ong
Ġnagpap atakbo
Ġte orya
K ulay
ĠCot abato
Ġd os
Ġkahih iyan
Tum ingin
uga d
ĠAl lan
iyak ap
ĠSc andal
ĠC D
iz za
x i
inter view
Ġna apektuhan
Ġc lip
Ġtinag uriang
ĠT ea
ĠD UTERTE
S C
it ikang
ĠAr th
ach ers
ĠY ap
ĠGay undin
esare an
up ok
Ġisin ilang
ĠN inoy
ĠW ay
Ġling gong
al ul
Ġbum abalik
Ġhin intay
Ġis at
ĠT on
Ġkap ansanan
Nalala gas
ĠD VD
ĠMay roong
Ġkinaka usap
Ġmatut ulog
Ġdeb ate
Ġk intsay
ĠJ ul
ĠSte phen
ut upad
Ġkun wari
Nab atid
Ġtak dang
osto l
b or
Ġint ro
qu are
ĠKan iyang
AR D
Ġmakat utulong
ĠS k
alaw igan
Ġ4 9
Ġtit igil
ĠD ubai
Ġpagpap aganda
Ġkan luran
ar aya
ĠB ak
Ġpu zzle
ineb enta
ĠH ello
Ġcom mit
gra de
arn ish
Ġmanana mpalataya
Ġmat ang
Ġmap ahusay
ĠCong ress
D ali
ays ay
Ġ ram
ul uan
ĠH IN
laga an
Ġforum s
Ġdat abase
id el
Ġnap angiti
re act
ĠT ry
S obra
ĠH eb
Ġde ngue
R eg
Ġb obo
rit is
ig nat
do y
Ġde ep
Ġbala hibo
angguni ang
g nan
ĠF riday
Ġdum iretso
Ġad min
ĠEpek tibong
ĠM Y
Ġespes yalista
Ġcle an
Ġma id
Ġl unsod
te mp
Ġsa laysay
ĠR onald
) ;
ĠR y
Ġy ari
Ġt yan
ĠP BA
ek e
Lum abas
ĠLuc as
N ew
Ġt ay
Ġtinat ayang
Ġunivers ity
ĠIk alawang
R R
Ġbom ba
B r
Ġsas ama
Ġhin iling
Tum ayo
Ġka akibat
Ġmagb ab
Ġmakab alik
Ġga wi
word press
to matikong
ug t
ĠPornograp ya
Ġbalang kas
al ma
Lab an
Ġgan u
Ġkala b
Ġmam ahaling
Ġitin uro
ĠB ub
B atay
] ]
Ġni yon
pan ish
ĠRos ario
ĠN ara
Ġsan libutan
ĠL RT
kas o
Ġpornograp ya
ĠS weet
OR T
Ġyo utube
w ikipedia
ĠGab riel
ug is
Ġpagsis imula
Ġnak asaad
AR O
Ġh ate
ĠJo nas
ĠGold line
um o
Ġnalul ungkot
ĠMUN DO
at ub
ud ition
h alo
ĠV IDEO
ĠLay unin
ali na
San hi
si ve
Ġproduc er
Ġb isyo
Ġhali m
ĠBil ly
ĠAlam at
Ġob vious
ĠP uno
Ġpagpapat uloy
ekt ado
Ġpornograp iya
p era
ĠRe al
Ġumi ikot
ĠVol gograd
Ġpinag dadaanan
du ce
ra an
Ġso und
lib ee
Ġfriend ship
Ġpriv acy
ĠJes ucristo
Ġ7 5
Ġlum akad
ya f
Ġpum p
alaw ig
ut al
f ood
lon de
Ġp df
Ġt asa
ĠM agaling
ir ik
ilig tas
Ġ abangan
ig kas
aka awa
Ġcoco a
Ġpig sa
ah ok
ĠR ow
T ula
ab ong
iw alat
Ġdemok rasya
Ġe mp
ĠMah alaga
ĠEn ri
Ġbat ok
Ġcla im
Ġnal ungkot
ĠPanganib an
O TO
ah intulot
re di
Ġlead er
ĠEvange lista
L agi
ĠI bin
ĠAd vert
Ġhila w
ĠMar c
Y oung
ĠB ahala
her bal
ĠBar celona
y ahe
Ġrep orma
ir ito
Ġtum anggi
us y
aling on
ĠB ra
M ENT
ĠPas ensya
op s
Ġka unlaran
Ġro ad
Ġmana ginip
Ġv ice
ĠAk ong
Ġtikt ikan
ĠS ores
ili han
m ok
Ġb io
Ġf arm
Ġkat rabaho
K UNG
b row
log an
rat or
arov sk
Ġis agawa
Ġmat atanggap
ĠDahil an
ĠFer dinand
ter ya
Ġwon der
h uli
ar ay
aks ihan
ĠP AL
ĠU r
ĠCan dida
ĠB E
Ġpagkab uhay
arato v
Ġkat hang
ĠW as
ĠFP J
Ġst udio
Ġbin ib
ĠG lobal
c ious
N am
Ġna hirapan
Ġpuw ang
Ġnanana tili
yo pat
fa el
og on
Ġnangga galing
R ep
Ġal it
Ġu ling
ĠMe ga
ĠC lass
F re
b elle
ĠT uloy
Ġho ur
he me
IT AN
l uck
ta ils
âĢĻ ,
Ġimp orm
ĠNag tat
ĠLang uage
ĠM od
ĠS K
Ġnagsis ilbing
S e
T inanong
kas an
ĠY oga
ĠLou ie
ĠAgu inaldo
Ġpagkak ap
uba o
H EL
Ġpag litaw
re ement
Ġnar oroon
Ġpanin indigan
Ġbih ira
Ġlymp h
Ġa irc
ĠPagbab ago
Ġlib u
ĠEs panya
ĠNak akat
Ġbar ya
Ġc hairman
B ukas
h ala
T umango
p asan
ret chen
alin langan
ist an
Ġpagd inig
Ġtra hed
pag e
ila lanin
Ġass ign
Ġes pasyo
Ġpolit iko
as ag
ĠDoc tor
kut sk
Ġnila laro
imp luw
itan ong
ĠBe ijing
ila bot
Ġmat ataas
Ġnaw alang
las yong
Ġbong gang
om on
Ġtina wagan
Ġs hi
Ġwe ird
Ġing les
P er
Ġk u
ĠB ABAE
Ġactiv ated
Ġproduct s
kap al
ĠG ov
ĠAp ple
M om
Ġre hab
Ġin os
Ġnagt ut
Ġpa gawa
iti ons
Y o
Ġkalang itan
ĠSt one
Ġrek omendasyon
Ġ200 1
Mas sage
ĠMat at
Ġaalis in
Ġsa una
inut ukan
d ok
Ġsol ong
Ġk ikita
re es
ĠD OT
Ġpagsas alin
L D
Ġtrans fer
Ġb rother
di vision
Ġf ive
Ġtamb ay
Ġgum alaw
AR AN
Ġhum igit
IS H
IK A
im ate
Ġcon struction
Ġanalog ue
ĠUn ti
Ġpersonal ity
A yan
p uri
ĠO mbudsman
ro ga
kan ya
Ġipag laban
t aka
ot os
ent ly
Ġnaglala yong
Ġp ede
Ġpar ing
Ġsex ual
Ġnila lam
exc ite
Ġat ta
Ġpangang atawan
y ch
' .
Ġum amin
w rap
at ik
om as
B ase
Ġw here
ĠE H
amang ha
Ġnagk at
ie ve
ĠM anong
ĠG uro
Ġkun eho
Ġestudyante ng
am mad
ar usahan
il star
ĠI l
Ġkin ikita
s aring
Ġn umbers
Ġsay ing
ful ly
Ġga wang
ĠAn th
3 000
Ġipag tanggol
Ġarm adong
Ġk lima
and em
ub li
' ve
Ġbaga ma
and ra
ĠJ udio
Ġpek as
ograp hy
ĠG re
yan ong
Ġkam atis
Ġpan inigas
ĠNag pa
sy una
Ġnakara nas
ĠAntip olo
Ġpam ayanan
ĠIr kutsk
Ġmag w
ĠF ort
Ġwant ed
C irc
Ġdi ets
ĠN arinig
ĠðŁĺ Ĥ
un y
atak as
Ġ ere
Ġpere hil
t ingin
ĠU bo
Ġpund asyon
ab ik
ko y
ĠGonz ales
Ġmar ating
ĠCar r
end aryo
Ġlum ilitaw
Ġkala kal
ĠS aratov
ĠI SA
Ġsak ripisyo
ĠCan ker
kap e
Ġsik reto
ĠGo vernor
ĠP INOY
Ġg lobal
Ġcom mon
Ġgu ide
ĠL ittle
s us
ak h
utr ition
ĠQ atar
Ġpam pa
Ġtum ama
ĠL akas
ĠGu est
ĠSay yaf
n ik
Ġk usang
Ġpro ced
Ġlook ing
AM I
uh u
ja jakol
Ġpine ped
Ġk alaki
M C
omy cosis
ĠB IR
iw agang
gra be
um ikap
Ġpagk al
ĠMag bub
ĠL ida
Ġpang et
Ġpala pag
ĠC ON
ĠQuin to
ĠT iyak
Ġdam b
w rinkle
ab at
Ġsal mon
Ġsho pping
Ġpineped alan
h awa
Ġnagb alik
Ġtan yag
Ġrep resent
ror oonan
ĠAd an
P R
ĠSam ar
Ġmagh apon
ĠPA ANO
Ġdol yar
ĠN BI
Ġsund an
He to
L ast
Ġtur uan
Ġnang inginig
ng unit
pub lish
si yo
Ġb lowjob
ito l
Ġig ina
ĠM AHAL
H I
Ġta e
as tern
Ġr an
Ġed ucation
AG O
P op
Ġsh it
ĠThe y
Ġn om
ĠL ong
Ġbil yong
indi cations
ĠP ulong
ĠCh ild
Ġweb cam
6 5
ali fe
ic ian
Ġmins ang
us ig
ĠM ana
ĠPD F
li very
Ġbah aging
ĠT sk
Ġpina pang
ur ot
Ġitina as
ĠStat es
Ġpagkuk ulang
Ġin e
Ġla ter
ĠR og
ĠWilli am
Ġmas t
T uloy
lo ween
ĠPang ilinan
IW AN
b uhan
ko lar
Ġnob yo
20 10
Ġk ata
Ġga ganda
Ġpagk anta
Ġre lated
Ġman ika
ĠD uc
rot esta
P o
Ġpagga lang
ob oto
ĠNg umiti
W N
Alam in
ĠCont inue
ĠI st
Ġmaka iwas
Ġtina in
ĠQ uot
r up
Ġsa rado
Ġla mp
Ġmaga galing
P e
Ġbit ter
f ine
bah in
r ere
Ġnat upad
Ġbum ib
on ekta
RE E
rist mas
Ġpag hihintay
Ġebid ensya
usap in
Ġcl ot
Ġnap ip
S ilicone
Ġnakaka inis
ĠHe to
Ġpaghih iwalay
ĠPet sa
than k
id ental
Ġpin ong
f ord
ĠD igong
kuw ela
G aya
Ġkap ulisan
ap usin
A c
o ugh
s arap
Ġmin imum
Ġf ing
Ġkah irap
ĠA aron
ĠB rother
ad er
Ġtin ignan
Pana hon
ĠPagtat asa
t ungkol
ĠC ris
L ay
Ġnak alaan
AK AS
Ġtum or
d ya
f it
IH AN
Ġ //
er el
il t
ĠP riv
ĠC hairman
ĠIs ipin
Ġm ental
Ġla ta
di g
st yle
akit ang
Ġnakah arap
OR IN
Ġpamb ili
ig ting
Ġg inang
ren cy
hat ol
Ġ4 00
Ġwas hing
Ġy ellow
ĠIsab ela
Ġna yon
ĠPum asok
Ġp ractice
ĠM eg
Ġmang ingisda
ĠImp ormasyon
in ic
iy era
ĠIK AW
l ud
IS TA
w ana
ĠD uration
lo wer
Ġlove team
ĠKa z
D ear
ĠT anggap
ine a
ĠEl la
Ġgum anap
Ġth umb
agp uang
z he
ik leta
Ġisina sagawa
S up
UN AWA
ĠEs tel
ĠPr ins
ĠB ato
sis imula
up ahan
Ġf ib
Ġdetal yadong
p ers
L AM
Ġes te
Â «
ent ina
Ġsak law
UT IN
Ġkab ayan
ĠG anoon
i que
A mer
Ġitinut uro
ĠMat alino
Ġbib il
b r
ĠN apat
Ġc ereal
rim inal
res ign
igma ang
ĠAl on
Ġbut ton
Ġv ic
pos isyon
ĠGAM OT
ag ulo
Ġpagk abata
ĠV era
ĠFore ign
i iwan
Ġtrabah ong
Ġr u
z ens
Ġsa ysay
ĠP alasyo
Ġ> >
ĠImp lants
ino g
Ġpl ugin
Ġpagkakak ilanlan
Ġpinag kak
ĠLe o
Ġblack heads
Ġdar sonval
Ġl ittle
ĠV ideos
ĠAy okong
Ġhinih inalang
Ġseks wal
os p
and ahin
Ġum iwas
Ġini utos
C ol
Ġf l
en ko
Kas abay
ĠCor ona
Ġperman enteng
Ġpal tos
P iliin
Ġd er
orin to
H ER
D ating
Ġz ero
A te
Ġbit bit
Ġal kalde
Ġchild ren
ĠSm art
d ed
ĠT uhod
ĠE very
ati ves
Ġal lo
Ġka u
ina ry
Ġc ra
Ġprins esa
P anoorin
la na
ĠG ard
hi ga
ĠDe ad
ula tions
Ġnakat utok
Ġkat atapos
ult an
Ġa abutin
Ġsome one
Ġpana nd
P osible
a awit
at tend
Ġu ulitin
Ġpinakah uling
Ġdep artment
Ġip inta
L yrics
kat er
Ġen ough
Ġis su
Ġin om
ĠO pin
Ġunder stand
Ġkinan tot
c ulator
ĠJ E
ĠF ront
ĠBerna rdo
z one
im bing
Ġre lo
Ġesp ecially
Ġb ent
Ġon ych
ĠT UNGKOL
Ġkali him
Ġup o
Ġnagpap ataas
Ġtang halian
Ġtur mer
8 1
Ġl oko
ĠY ar
u ugnay
ga o
as iglang
ĠPro ject
Ġbran ch
Ġp utok
Ġgin intuan
n ews
Ġrep orter
T al
ĠK IN
eno va
Ġsang ay
Ġnab igo
Ġkumak alat
im at
Ġmap unta
T andaan
man ipis
ara lang
alak ihin
alala ki
Ġw ol
ĠEd die
N i
Ġpagpap adala
k siyon
ĠA mp
eg osyo
Ġsos yal
Ġb w
ĠMag kano
Ġme disina
ila t
Ġna upo
re late
ĠMalyshe v
Ġle ng
ĠM ost
L ar
ak pan
un ud
Ġv ide
S ho
AL AW
Ġkump irm
D ay
Ġnagpap ahiwatig
ĠDol phy
Ġkab it
ri er
Ġala r
Ġimportante ng
Ġmaib alik
Ġy amang
UN T
v oc
ab lado
z y
us ayan
ĠJess y
R a
Ġrey na
un ce
Ġmali limutan
Mak alipas
ĠMon te
udy ok
i ans
Ġro ck
Ġlupa ing
c ute
ĠAss ist
, ...
ĠKom b
Ġe di
Ġnas ugatan
ĠAr ch
atay uan
el da
Ġser ver
i apo
Ġpinang galingan
nak u
ĠAr n
um s
ĠL ORD
ĠFor ces
Nang angahulugan
t aran
Ġt ulo
stit usyon
Ġina k
Ġkong resista
Rus sian
ah ol
Ġmab ab
ĠAra b
Ġdom estic
Ġb ubong
Ġkat ayuan
ĠMad aling
Ġna tira
ant ad
ce leb
Ġlo ck
Ġip ahayag
Ġsina m
Mang yaring
6 4
Ġpagh arap
iga ya
Ġbigla ang
aluku yan
Ġc li
he ad
ĠKole hiyo
j e
ed om
Ġr ub
Ġkat o
h ik
Ġs we
Ġ200 2
p ons
ih intay
N PA
pe yper
ag ip
ub atan
Ġmakab uo
Ġtr ust
ĠFam ily
Ġsuccess ful
ows ki
Ġw inner
Ġc ottage
Ġkap itan
ĠAdminist ration
art amento
ĠMM FF
Ġwit hout
ron ic
ĠAS AP
k ulay
Ġs yn
Ġnagpap ak
Ġla l
with draw
ga e
Ġka ukulang
wa an
ast urb
ear s
ĠT ON
AM AN
L esbi
I O
Ġbaw asan
ĠW ho
Ġlib rary
Ġsup pli
Ġpus od
Ġbili b
ĠBlog ger
Ġmak apangyarihan
Ġp rakt
Ġnak am
Ġoil s
ol libee
Ġserb esa
ĠS ubukan
ĠC opyright
Ġkab an
ĠT inig
bas ed
ly mp
Ġinvest ment
S olusyon
di st
ĠP AP
ali bog
h ero
ĠS H
Ġpagt awag
MAN ILA
Ġp oll
Ġk alat
ĠV ar
ĠTul fo
Gina wa
Ġum arte
ĠAn im
Ġt abing
ĠV ichy
Ġwho le
ur os
ĠW al
C al
mam asdan
p erson
Ġli c
Ġnara rating
ĠPags us
Ġexper t
Ġnila gyan
ĠS igaw
na te
ing al
it her
em ap
ĠRo ck
Ġtable ta
ĠF arm
ĠSAK IT
Ġ6 5
Ġpagd alaw
Ġse leb
e ase
ĠD rama
AG I
ung ad
Ġpagtit iwala
ac he
Ġpina pa
Ġpro b
Ġbag ets
ĠB raz
Ġkum ikita
Ġm el
Ġbut il
M ataas
ah awak
ela syon
Ġpat awarin
Ġche m
elf are
or owski
ut ya
Ġbak una
Ġmas ipag
ĠL ak
Ġv illa
dam it
alak ayan
Ġless on
ir ita
Ġit ulak
N ila
Ġman ual
Ġnila pitan
Ġkar ot
Ġser ious
ung ay
Ġkina roroonan
ĠK araniwang
ĠSam uel
ut or
int ang
int ab
Ġh abol
Ġpagb aha
Ġinter pretasyon
E G
ĠA pat
Ġnapap a
I f
ri ver
Ġal insunod
ol oko
Ġtaga gawa
P ant
Ġp uri
ĠD ahan
ĠR hian
Ġs om
lic y
Ġevent s
ra les
w el
Ġd ig
b ut
Ġb antay
Lo ve
ab oy
uk aw
Nag k
Ġmat andaan
Ġcry pto
Ġex ample
il ities
Ġli fting
ulu ang
ush ki
Ġp ie
ĠU tong
im an
Ġnagm ahal
Ġmakaka apekto
ine gar
e nan
re al
Ng umiti
Ġjo joba
' ,
a o
p antay
Ġpinags asabi
est yle
Bl ind
ĠF rom
ĠZ sa
K AT
ĠLib og
ĠJust in
Ġp ra
ĠP ers
ĠF inal
Ġmangga gamot
elle d
Kin uha
Ġo verseas
Ġmam um
Ġactiv ities
ĠC all
Ġt igilan
ula m
ĠI ce
ac i
ĠTo enail
ĠMahal in
b isa
i iba
ĠB IN
Ġkinak aharap
ĠPAR T
ĠId ol
u indanao
AM ING
S en
ling k
ĠâĢĭ âĢĭ
b n
ut la
AK AM
Ġsuport ado
v ille
Ġb ana
ew ala
Ġag rikultura
Ġde likado
c oc
Ġnags usulat
6 7
ga an
ĠIn day
St ar
id ahan
Ġgra do
ĠUm i
olo hikal
Mat anda
s it
u gay
Ġest ab
eb a
Ġnaga galit
ub by
yer nong
R es
Ġham ak
Ina min
ĠEurope an
ulas yong
Ġw illing
mang hang
ĠS entral
to g
Ġmaka uwi
Ġbik ini
h ag
Ġak us
Ġkah arap
Ġapp ro
ĠKe vin
Ġg ugust
ĠL ey
IT H
Ġusap ang
Ġpinag pap
amp al
Ġhah anapin
ĠG ulang
ang go
ho y
Ġdis play
ĠKat ipunan
Ġtuk so
Ġbot ante
ĠM er
Ġpagsas agawa
Ġkatapat an
Ġble aching
ĠNak ikita
Ġtit ingnan
ĠK it
ĠR u
Nap aka
Ġmab ibili
ĠMag iging
d em
ĠN on
alan ta
ee hersisyo
to d
alam uha
rol yo
Ġele mentary
Ġlalake ng
Nakat agong
Ġpat lang
Ġpagsis isi
Ġh orror
ĠH ollywood
ĠL an
ĠCusto ms
Ġres eta
ĠAngel ine
ĠCor por
Ġblog s
Ġnob ya
N apat
Ġ ï
Ġsan to
alig tasan
Pro pesyonal
ĠRec ipe
ĠKy lie
ĠKag andahan
n t
ĠL amisil
ĠUp date
ĠB U
Ġ: :
Ġnat alo
ors ogon
pap ayat
ĠU se
ĠSas abihin
M AM
Ġkumik ilos
ĠPrans es
Ġrest oration
ĠL UM
Ġbar rel
Ġlis ensya
Ġin vol
ok al
Ġmaga spang
F ungus
Ġf r
ĠI la
ĠPa ulo
ĠUm aga
Ġsiy ent
ĠOri ental
alak e
!! !âĢĿ
ĠP uti
ĠG ordon
Ġmagk ap
ĠS IM
Ġac tive
Ġpre gnan
ĠSha ina
uns yo
Ġl os
Ġas al
ple te
ĠGreat est
ĠAlv arez
ub aya
aliw as
Ġdumbb ells
ren ew
P ush
ita in
B awang
Ġp ilosop
mi rol
A pat
a abang
Lum apit
ĠPrin ce
f air
Ġkaga lakan
Ġp uhunan
Ġre ception
Ġsin u
S ayang
uro ra
Ġcam e
us ad
ĠV P
lad der
dim ensi
ĠI E
ob by
Ġmatut ulungan
Ġsem inar
ĠJoy ce
O H
Ġpro v
ah anda
uy ot
Ġinf ection
Ġ200 3
dic ure
u utos
im on
Ġdala gang
ĠAd arna
una yang
Ġeffect s
ĠVictor ia
Ġhum inga
Ġwol peyper
ĠI M
Ġm ulti
ĠT own
ĠL ike
ĠO ld
Ġas ahan
iling on
Ġbis wal
6 1
S AK
e ous
tib ay
Ġid ent
ĠAnth ony
Pagk uha
Ġma ulit
us bong
Ġpri ority
Ġsent im
Ġc ong
Ġc lim
Fuck ing
is ama
ran te
Ġmess ages
Ġina yos
hin inga
ĠMa ute
Ġconn ection
!!!! !!!!
Ġs mo
Ġmapag mahal
Ġkaka ilanganin
bre aking
Ġear ly
ip ad
Ġsc heme
Ġkat i
ĠMan zano
S abay
Ġka galingan
ĠG retchen
ĠPag lilinis
ĠU TI
Ġcamp us
ans ela
L S
i yon
Ġan ino
Ġsinus ulat
Ġnetiz en
Ġmabub uting
ir i
Ġbea utiful
s ide
um aga
Ġpat as
Ġle ft
ĠEv alar
Ġdona syon
G reen
Ġk ulturang
ek an
D oc
ot herapy
ĠNap ap
ĠM p
ĠA sk
Ġmast urb
Ġe arth
ĠR un
ilik ili
Ġmid dle
w ide
ĠH anda
Ġhang ad
ĠMat teo
Ġinstr umento
ĠL atin
ĠW end
Ġna id
Ġnagm um
ĠPamb ata
Ġmak ad
ĠE pekto
Ġ aliw
Ġmem ory
U AL
ct ers
Ġmangga gawang
ad just
Ġtum alikod
Ġen ergy
ĠNap atingin
Ġplay ers
inister yo
quir er
ĠP ep
apat ong
Ġtag iliran
imb itahan
ab les
are g
Ġj ogging
ome z
Ġpinak ita
Pas ensya
ĠBIB L
Ġkas ab
che z
Ġr ose
Ġautom atic
w aran
Ġpags unog
Ġsumas agot
Ġpag n
Ġgen eral
alis mo
ĠV ery
ter est
ĠS lim
Ġsi x
Ġkad ali
im ento
ĠPagd umi
ĠMind oro
Ġisa alang
Ġs f
il ong
Ġta unang
ĠR en
Ġcaps ule
Ġstor yang
ĠPag bubuntis
co very
Ġt ataas
Ġperman ente
ĠKor pan
t t
Ġint riga
Ġipat upad
Ġmat ino
ĠIn sp
n ung
Ġma rang
ĠO ro
ĠAn di
Ġmam ili
Ġg igil
Ġval ue
Ġes kuwela
Ġlik ha
Ġkag andahang
Ġk arelasyon
Ġipina k
ĠK oval
ĠSum mit
ĠDag upan
ĠS inas
uw is
Ġpas away
ahi ram
Ġm otel
Ġweb sayt
Ġ rap
Ġh ustong
am asa
Ġmat agpuan
Ġb akan
Ġteror ista
Ġbet ween
ĠKak ayanin
ĠE ug
AR A
n di
T ara
Ġmak araang
ĠMas ama
Ġhel lo
Ġemplo ye
Ġp orma
ga bay
Ġpan imula
Ġpagt uklas
Ġ10 1
Ġalin man
Ġsp ons
Ġuna han
Ġkinik ilig
Ġple ma
I pag
AM IT
ĠG OD
IY ANG
Ġga yo
Ġnagp ahayag
Kap aki
Ġtam is
Nap atingin
Ġmen op
R D
b akan
IL AN
ĠG USTO
10 2
anga ilangan
in os
Ġbumab alot
E NG
om i
nat ural
Ġren ew
ĠRes ort
Ġb ark
Ġer ror
ĠD amit
Ġpags amahin
K ak
Ġb ugtong
Ġnalili go
Ġd ed
Ġbak terya
AC E
Ġg ilingang
Ġf er
Ġnila basan
Ġde veloper
ĠInt sik
Ġitinak da
rat ikong
uk ado
Ġpina mag
Ġpart ic
Ġpa bahay
ra st
tit le
K inabukasan
ĠO per
Post ed
Ġ1 000
Ġsum ayaw
itin da
Ġs ilangan
Ġt win
Ġf irm
le e
Ġnakak asama
M ateo
hin y
Ġrela x
d asal
Ġla pit
ial s
he art
Ġsin igang
m arami
lo na
if orm
h ist
Ġt uring
ĠM ot
id ed
Ġnapak alantad
Ġsak una
Ġmaga an
Ġpak sang
**** ***
aga lit
ANO ORIN
ah ayan
P orno
T HE
Ŀ ¤
ĠH ESUS
18 7
ĠX ian
Ġstud y
F C
ĠR A
ĠKam era
G aling
u unan
ĠS op
Nap ansin
ĠLar uan
Ġany thing
Ġb otox
ult s
Ġtur n
ve na
AB ASA
fic ation
Ġhiga an
ĠIn iisip
Ġbis ig
ul pot
ĠO cc
ali pin
s aka
Ġtin ulungan
Ġreg ister
P D
p ren
Ġafter noon
ĠG ets
Ġmat ter
Ġto h
Ġx a
b l
el ess
Ġli li
Ġfollow ers
ra zon
10 3
Ġnakas alalay
al m
ap point
ĠH alik
Ġlum akas
ET A
Ġseleb rasyon
Ġp uta
Ġb enta
ĠL alaking
Ġina abangan
Bea uty
insp ire
m ission
Ġreb olusyon
ĠPAM AM
uk lam
M AS
Ġmay ayaman
port able
Ġmagt atagal
Ġibina ba
Ġceleb ration
Ġf und
Ġkam bal
s ob
Ġman liligaw
Ġlum ahok
ĠKom orowski
Nak ap
ĠE p
Kat ulad
Ġins urance
ĠCol on
b agong
ero ydeo
Ġtum ugon
Ġpab ilog
Ġsis ihin
import ante
Ġg ug
ĠFor ce
ĠWEBS ITE
Ġopport unity
d alawang
Ġi ilang
Ġ und
in fo
ilib uster
Ġpag lul
ĠT ahimik
ĠG UT
t anggap
Ġpagpap agaling
ĠL OS
Ġb ras
ĠN or
Ġnangang ahulugang
8 9
ĠF u
Ġpala pit
Ġpinang arap
Ġko lum
ff le
ĠMM DA
ĠSupre me
Ġlim on
ĠB alitang
Ġpinag hihina
anat iling
ĠB AR
T hat
ĠN ina
ĠD R
ĠF rank
Ġga go
Ġhum awak
ort al
dam ay
Ġad h
S yempre
Ġm ilitary
ol anda
Ġkas ulatan
rist an
Ġnakab ab
Ġpagpapa unlad
~ ~
Ġs ucks
Ġnags ulat
ilit ang
ĠM use
ĠE mplo
Y eah
is anan
ĠGina gawa
ĠNak apag
ost ic
Ġdirek ta
Ġe uro
Ġmak apangyarihang
ĠSam antalang
Ġf irming
ĠIsab el
Ġw oman
Ġmaip ap
Ġnakakah awa
lingk uran
Ġtut ulungan
It igil
duc tion
Ġrebolusyona ryong
ĠRig or
ĠArt ist
] [
Ġnait ala
ĠW omen
Ġ4 7
off er
Ġc esarean
ĠC ard
ĠSin ing
Ġconcer n
l olo
Ġkasama ang
Ġtang ere
E l
re tong
Ġmo ral
ĠL ight
ĠHel p
com ing
Ġd ildo
ĠI pakita
igura dong
ĠT ip
Ġnag dadala
M E
Ġtim pla
Ġman iniwala
ĠMad ali
h ayan
mb as
Ġpet rolyo
Ġc andy
end ed
AB ANG
celeb rate
Ġbreak fast
ĠF itness
ĠY as
ump is
Ġdist rito
ĠDim ex
! :
qu el
ban te
Ġeks enang
Ġapos tol
Ġkag ubatan
Ġas yano
eral co
Ġpagna nakaw
ĠAfric a
Ġven ue
S is
Ġlesbi an
uli na
atan im
ĠIt ay
Ġm s
me di
Ġbiy enan
re o
Ġgo ogle
Ġproced ure
6 3
T IN
mp a
Ġlab ag
ANG Y
Ġwar rant
Ġvac uum
? ..
ĠE rap
com p
Ġciti zen
ĠM ismo
AB AS
Ġna gamit
Ġhin uh
I st
Ġp igil
Ġro les
Gan yan
ĠWin x
Ġt y
ĠB eth
ĠVin ce
ĠK ayang
inang anak
ĠB oro
Ġc one
ĠIt ina
ar ra
ĠJer em
ĠS angk
ĠKaz akh
K aramihan
ut ubong
ah abang
umb aba
ĠH oly
Ġnapak ahusay
Sh it
Ġtina lakay
Ġinc lud
ĠFuck ed
Ġi ligtas
29 5
Ġgen re
Ġli ving
ĠSan hi
Ġent ries
H ugas
ilibuster ismo
ĠS ch
Ġto ilet
Ġpamp ahid
D AG
Ġnak ala
ĠBar b
pl ot
ĠNang yari
In i
200 8
Ġnat atapos
Ġmali li
Ġlib ingan
ĠPamam aga
Ġpags uporta
Ġhina la
. (
m od
am es
ere z
D AY
Ġb anat
ĠMag k
emon ya
ĠAc count
rec ord
alam ansi
Ġr ay
Ġpags akay
ĠEli as
Ġpapatay in
Ġkin ilala
iporm e
ĠRa fael
f il
u uri
v il
Ġp urong
Ġbreast feed
lib ugan
Ġmad la
Ġhe ight
Ġpos ition
ĠL along
Ġpak ay
Ġpag langoy
ĠM IN
ĠDa igdig
---- ----
usk usin
ĠD ick
Ġme ans
ind utan
Ġv arnish
rang e
Ġsay awan
ĠL ALAK
atang gol
S H
p ano
Ġna dad
Ġtalam pakan
Ġv ari
Ġbum ub
M AT
Ġt ran
Ġtum pak
ĠKap itan
Ap ple
ĠTin edyer
ĠEric h
Ġpro pos
Ġum ibig
ri ye
ila hok
mot herapy
ire k
Ġfuck ing
Ġserv ices
? .
Ġt awanan
ĠM ik
bab ad
ubay bayan
Ġstr oke
ĠPakikipag sapalaran
Ġnas anay
Ġpagga law
ĠIn formation
Ġi OS
ĠMedic ine
Ġnaghih irap
w entuhan
200 9
Ġphilipp ines
Ġkinab ahan
Ġp ulo
ĠS UP
le ar
sy ota
Ġf leas
ĠEle ct
Ġlayun ing
Ġpagna nais
ĠPag h
rer es
Ġbet er
unic ations
L et
M S
Jo hn
ĠJe an
Ġmam ayang
ĠSim bahang
id um
Ġmab uhok
hens ibong
Ġna ibigay
Ġma ibigay
Ġt ara
?! "
um aling
ĠS ulat
Ġnaghah anda
Kum usta
ĠDuc ane
ad es
I Z
k araniwang
ĠKad alasan
Ġc able
ĠJ ed
A sian
g uro
na h
Ġt or
ĠT UL
ĠPAG B
Ġ rally
re na
ĠSim on
b ato
Ġat t
Ġdad aan
K aw
Pag ka
OR G
ĠEs pa
Ġfo und
Ġn y
ĠS ikat
ino o
Ġmagb alik
ĠCat holic
ĠNand ito
ano d
ig op
Ġin vit
DI Y
Ġkaib ahan
H alaman
ĠN IL
Ġsum abog
Ġnag si
end or
Ġmal ugon
Ġbibil hin
ara anan
Ġdiffer ent
ĠNEW S
ĠNIN YO
ĠPagk aka
Ġpang kab
Ġclass mate
Ġh ati
uli g
Ġyakap in
ĠLe ila
ĠPILIP INO
Ġsinal ubong
ara g
Naka usap
Ing les
Ġga l
Ġmali k
AR AL
Ġsum akit
ĠAn umang
ĠS we
s iguro
ĠA rea
Ġpatak buhin
Ġorgan is
Ġdid n
z mo
Ġna hanap
la lakad
Ġk usa
ĠS angguniang
ut ihin
Ġmaga nap
Ġsa wa
Ġb atid
Ġpag dami
Ġhang o
K aga
dimensi onal
ĠNak ap
ĠMon day
gu est
lin lang
Ġadminist rasyong
A sk
Ġn er
ĠNak as
UW A
mbas sy
Ġb old
ĠMakat utulong
Ġdin i
lis sa
Ġhum iga
W ife
d on
Ġk las
Ġmana tiling
ĠN ations
N E
Ġpast or
Ġnagk alat
ung unang
D r
d ry
ĠAm en
Ġmahih irapan
ĠJ ESUS
Ġtiyak in
ĠP USO
Ġc m
Ġre gar
Ġlin es
ĠJuli e
ĠRome o
Ġnagtat aguyod
Ġlot to
T atay
ak utan
ĠM akita
Ġbr unette
od in
it log
Ġc linic
id ge
em ia
int as
Ġb ers
Ġi angat
Ġpagpap alawig
oto zo
ga do
pan yang
R AP
ha el
imbesti gahan
Ġdal ub
Ġnakap aloob
Ġupd ated
E ffective
is is
os lav
Ġmab ilang
ĠMag uindanao
ĠDi v
Pap aano
b urn
Ġb illion
Ġga la
Ġala y
erna il
Ġme jo
ĠP atakaran
S c
ĠB igyan
ĠAb unda
Ġhanap buhay
May roong
gas m
orpres a
ina te
atang i
Ġst rong
ĠGr upong
H uling
ĠB ahag
Ġv oice
Ġsak to
Ġsas agutin
Ġimpluw ensiya
Ġhih ihi
d eb
Ġh aras
Ġop syon
ĠFood s
TM L
r ika
Ġg iyera
alin ong
IT U
ĠS usan
ed es
Ġal mirol
Ġchara cters
Ġimah inasyon
st y
Ġam ateur
epend ent
ĠP ilit
ĠPam bansa
ras h
ĠUn der
ĠNah ih
un urin
ĠL alawigan
ti gas
ĠMaric el
Ġt ree
ĠW ill
uk ulan
Ġent ablado
Ġadv ance
H ey
y v
Ġcoup le
Ġkina ilangan
ĠHerb alife
ĠM AH
Ġm or
Ġfun ny
inh awa
Ġnam i
Ġ5 4
Nag s
ĠNo li
26 1
ali sa
ĠL P
ma in
illi e
ĠSum unod
Ġcook ies
Ġipina kilala
Ġmon itor
c ery
Ġhigh school
Ġbru ising
Ġr ules
ĠG ot
Ġcom fort
ĠIng at
Ġfe at
r ie
Ġus bong
ument ary
ul ungin
Ġpagt anggi
Ġsas agot
Ġgin hawa
Ġitina yo
unic ipal
Ġble ach
Ġt ugma
ref resh
ĠSat urday
ĠPER O
lala wigan
Ġdesk top
Ġmas agot
ĠAl vin
ĠA dam
Ġub od
Ġissu es
p ong
oo o
Ġkabig uan
di sp
ĠH alili
Ġv ia
ĠAns wers
ak op
Ġina ayos
ĠUm inom
Ġoffic er
m ap
Ġt one
Ġc oconut
Ġkum usta
Ġnagkas ala
antimp ala
Ġlum alakas
r ile
ĠU ng
ĠRo ots
L ot
c ont
ĠI mb
Ġpolit ika
ĠIN A
Ġpila k
Program a
Ġmar ina
It log
Ġmot ibo
N itong
ĠW estern
Ġina y
P AT
ort hern
Ġnagp agaling
h uwag
ĠD os
J ust
Ġt ansi
B ersyon
Ġw at
Ġhinih iling
Ġk ubo
Ġkin ukuha
Ġpin igilan
6 2
Ġin iksyon
Ġa angat
zmo lifting
Ġpan el
Ġina kala
Ġsinus unod
ĠKing dom
ĠA sh
ĠE U
Ġna uwi
ĠL A
ali gaya
Ġse at
vel yn
ĠCar l
ĠNi Ã±o
ĠChar les
ILANG AN
Ġconf irm
ĠB ataan
alik sik
Ġw rite
Ġkap as
Ġairc on
Ġipinang ako
Ġp c
ĠSpe aker
Ġhalim aw
Ġm ungkahi
Ġcom ing
iisip an
etal ye
ĠBoro dina
Ġd orm
st ers
Ġnana tiling
ĠQ ur
ant asy
Ġtra k
Ġpo h
Ġap ely
f ollow
AR AP
Ġnakat ago
Ġt en
Ġdom inante
Ġguw apo
S ONA
ah as
ĠNeg ros
Ġhum anap
ĠOP IS
S uka
ĠP anoorin
est s
ĠKazakh stan
R o
Ġm etal
Ġpag ganyak
tel lig
Pum asok
ĠG ustong
Ġkam usta
Cas tor
Circ les
Ġmab abawi
Ġbom b
Ġni re
Ġmap ait
ĠNA SA
ĠT ala
Ġnap ab
Com merce
Ġhin ubad
ĠPin terest
g uan
ĠS orsogon
Ġtrans aksyon
ĠS W
ine las
ĠKa akit
ĠSan chez
os ito
Ġhealth y
Ġsinak tan
pup unan
j un
Ġpagb igyan
R B
ĠKas abay
Ġar te
IB A
Ñ ĭ
Nag hahanap
Ġnais ulat
Ġnob elang
Ġkamang ha
Ġpinag kaka
Ġrem edies
uni or
ĠEss ays
reg ister
unta in
ĠL istahan
Ġpagk araan
Ġpage ant
re lasyon
ĠNag bibigay
Ġnaga gamit
ĠLib rary
G r
ung hayan
ĠSh it
ti an
Ġaw tomatikong
Mad aling
Ġprins ipe
b ye
Ġpag andahin
Ġmatut uwa
Ġp ok
ur ok
ta an
ĠN galan
di nagdag
ok asyon
ve al
AS E
G anda
it ement
ĠB ik
Ġtur ismo
kul ugo
o ras
Ġmam uhay
ĠMala yo
ĠRo om
ĠUm alis
Ġkaw al
Ġpagpup ulong
Ġcusto m
ĠP ersonal
Ġclot rimazole
Ġr ati
Ġtrahed ya
ĠR H
Ġna bi
Ġmali gaya
Ġde livery
Pang arap
ĠY UNG
ĠEx ecutive
Ġnak uk
T ayong
Ġnak uhang
Ġkum akanta
Ġlum alapit
Ġmakab ili
kum ulang
ĠRe form
b uo
ĠDimex idum
ĠM AP
imb ento
C A
Ġtina pos
arm s
ore al
ĠPAG S
Ġsit uation
Ġcont in
Ġequ ipment
ah ak
ĠP arte
Ġmag ugustuhan
Ġsala rin
Ġh ihi
ĠFe li
Ġk n
Ġno li
iyer no
uti ons
ol os
ĠPag iging
ĠDS WD
raso und
ĠStor ies
ĠS urgery
ĠâĢ º
Ġnakak alimutan
Ġimporm asyong
Ġcon to
P amb
S inasabi
ĠEst ado
Ġpa yong
ĠA bante
Ġka ayusan
ĠO S
Ġt eroydeo
Ġnagt rabaho
ĠHen ry
Ġh ero
ĠEd ward
is y
ĠB ack
Ġmo ments
ed ing
Ġliterat ura
ĠA yan
Ġnakakap insala
f lex
Ġk art
Ġh irit
Ġw ine
ĠJan ine
Ġz ip
B ar
ali b
Ġmagb abayad
Ġdak ila
cla im
Ġany way
Ġma ubos
Ġbro ad
ĠBenj amin
D ahan
ĠW hy
Ġa ut
dic al
ĠO lymp
ĠU A
pis yal
ĠOff icial
for cement
Ġele kt
ĠU lan
Ġnagh intay
M AL
ĠB ukol
ih irang
ĠB ATA
ter m
ĠMar quez
Ġqu otes
ĠTA ONG
Ġmay nila
ĠE ks
Ġkump likadong
Ġsuw eldo
Ġgradu ation
Ġbu ild
Ġex ecutive
ĠS ociety
ling s
ĠDep Ed
Ġkis ame
M ark
Ġs ement
ĠP uke
ĠT og
Ġmang ag
Nand ito
Ġpag pas
os i
Ġsal t
v ite
Ġs lot
Ġpagkaka alam
Ġbuh angin
lig an
IC K
ĠH old
Para site
ĠS ultan
IN T
scrib d
Ġpang ga
ump isahan
ĠT uwing
d ama
ik atan
aba ing
ĠB AB
Ġpang ing
ine te
s amang
Ġmags ama
ahala ta
ĠWeb cam
Ġpinab ayaan
ĠK W
ĠB ida
ih ihi
ĠE SP
f ety
ĠN ation
bah ada
Mak ikita
Ġpinagb ib
Ġka anak
urg er
le ment
Ġt eenag
ir ation
lis m
la go
ĠIs in
ĠCon tact
ĠTON ITE
N apangiti
v ant
ĠCla ra
on ti
ti is
.âĢĿ ,
Mali ban
yum en
t awa
Ġst reet
Ġmil f
ĠAnna belle
k ina
Ġum aalis
Ġ5 3
Ġloc ation
ili man
Ġpina m
Ġgugust uhin
ĠP iling
Ġqu arter
mak apangyarihang
Kan ina
ĠLor en
Ġground breaking
Mah igit
Ar t
Ġpinamag atang
Ð °
Ġpinag k
Ġsis imulan
Sum unod
Ġdi rect
Ġbac teria
Ġb ayag
Ġbina y
amant asan
ĠArth ur
Ġhina ing
ÂłÂł ÂłÂł
Ġimpluw ensya
Ġmapag kukunan
li hiyon
ĠL ip
ra bah
ĠAga fia
eb el
Ġsensit ibong
w eb
ĠM ult
Ġmik rob
d ahang
Ġc rew
Ġpa lip
ĠC l
Ġmap awi
Ġmab ibigyan
Ġ !!
ĠH ope
PAR A
ĠInvest igation
y aman
am ong
ĠI PIN
pr int
Q u
Ġw alk
Ġkala pit
Ġib ab
Ġib enta
. ?"
ra dor
Ġga b
Pina kab
ĠL ink
Ġbit in
gra duate
Ġnap ilitan
lan di
ĠC eleb
Ġcol on
ili a
ĠK ud
B ang
ay ber
ris idad
AY ONG
Ġdep ensa
ĠOff ic
ĠProgram a
Ġc arto
ĠD aw
ĠI kat
Ġmagka iba
Ġvol ume
Ġkontrol in
Ġf emale
uw ero
Ġkor ona
ĠEx cited
Ġpuw etan
Ġonych omycosis
ĠP BB
ĠS ala
Ġmap ip
Ġand yan
pe al
aling h
Ġend ors
S alita
U h
Ġsum pa
Ġap do
Ġtin ang
AK ING
agaling in
ĠPinap ayagan
at upad
ĠP amang
Ġbab es
Ġmagt ayo
ĠP ab
ĠS ya
Ġg is
Ġmat alo
lak e
ĠMat t
Ġtagap ang
Ġip ak
ess or
Ġpinal itan
Ġtum ulo
Ġtuk las
A las
ak dang
Ġnakak ulong
Ġor g
Ġpla to
ĠU T
Ġscreen ing
car is
Ġobli gasyon
Ġib ayong
Ġs end
ĠR iles
ĠAr med
ĠN ito
ĠL ito
Ġd yaryo
hing i
Ġinaas am
Ġtuk uyin
ĠDe von
ali wan
Ġpam ant
Ġnakap unta
B L
ĠJes u
Ġe b
Ġpas alubong
if er
ĠRes earch
Ġmag li
ĠV ending
ĠNat awa
ĠKam usta
ĠTra de
Ġm isa
ul um
Ġding ding
ĠK agaw
ĠH TML
ĠC N
Ġkina ya
Ġcom mittee
I yan
Ġdum alaw
ĠBre ak
le man
Ġtut al
ĠIB ANG
Ġofficial s
Ġsina pupunan
Ġ5 8
fe el
ing ning
Ġpag da
Ġas ignat
Ġnag hanap
ĠNag b
Ġsusp ect
Ġmax imum
Ġi abot
il bihan
Ġal moranas
ON E
Ġexp ression
Ġna ri
ĠA v
ĠN amin
Ġcom es
lib og
l le
ĠB inigyan
ĠF ar
tiv es
Ġmai intindihan
Ġpinay agan
ansin in
Ġt weet
ĠB all
ĠQuot es
E nglish
ĠT akot
mit ted
Ġnakas uot
Pat rol
Ġless ons
Ġrecord ing
Ġmenop os
Fre ckles
Ġl obo
ĠS ee
ic ide
Ġbab alikan
Ġpus sy
Pig mentation
h and
my box
dio la
Ġd uda
ĠAl bert
Ġget mybox
ĠH aring
ĠStar s
ĠProvin ce
em ate
ĠD ILG
Ġpamp alusog
Ġh epe
Ġkam o
Ġmara has
Ġpakik inig
Ġsena do
S earch
Ġma re
Ġmag ug
Ġtum uloy
Ġpagbab ahagi
ĠTh roat
Ġmagd ulot
Ġp indutan
Ġbum ukas
Ġs untok
ĠKAS I
Ġh y
om ang
led ge
tp ad
Ġsa le
Ġna abutan
ĠU h
ĠAr ts
L emon
ay uhan
ĠT yumen
Ġi r
Ġbin ibig
Ġg raph
Ġpam bayad
ĠPro blema
Ġgo al
ĠNakak ahiya
ĠH UM
Ġpatut unguhan
Ġnak abalik
Ġmap as
ain om
hi ram
Ġp sych
Ġpagk ad
Ġmaip akita
Ġcontra indications
s ila
an ilya
Ġpag ong
ĠB ert
Ġpinag hirapan
Ġneg ra
Ġpangkalahat an
Ġfing ernail
ĠK io
Ġbul ok
N ice
ĠVers ion
ĠT onsil
ĠBo hol
D ugo
ĠI tong
Ġv alid
Ġro man
chi ves
Ġseg ment
Ġpagkat alo
Ġag ing
ces sing
Ġko k
ĠY olanda
B AL
Ġy et
ara do
Pag lilinis
agan ang
V I
r oso
¸ ı
Ġk ilikili
Ġpagpap alabas
De veloper
Ġlag usan
ĠP uta
ĠBo x
Ġjack et
ok s
ol s
Ġbum ibili
ĠAp ostol
ĠTh esis
Ġorgan iz
Ġqu estions
Ġrebel de
ay om
Ġwall paper
amp les
Ġitina laga
ĠPIN AG
ih ingi
Ġkali bugan
ĠOPIS YAL
ĠZ a
Ġ vera
Ġh ubo
ĠA z
Ġkant utin
ĠPag tit
Ġkak any
Ġpinags ama
ĠI an
Ġsang bahayan
Ġgob ernador
UW AG
ord ing
Ġpapel es
Pana langin
orr hea
A ma
V ice
ĠK ONG
ĠM ex
AW IN
ĠKRIS TO
T aba
h awak
Ġmaik li
ĠS ALAMAT
c are
ĠS torya
ump ungan
Ġus ed
ĠMin istro
u umpisa
ĠNA IA
Ġnakat agong
k ayo
ĠH uli
ĠSali gang
ĠJE HO
Ġtin ukoy
ĠP ila
Ġmag net
L L
T it
Ġkat uparan
Ġpro polis
aaaa aaaa
Ġisas agot
Ġsirk ulasyong
ĠN D
ĠE astern
Ġop tion
ĠMali ban
Nag t
P aliwanag
Ġdo or
S aka
Ġbung anga
Ġp ista
di rek
im ina
Ġmala sakit
Ġpack age
Ġm ir
le en
tit ude
Ġflax seed
ut uin
og i
B ATAN
er os
um yv
em an
Na isip
di gan
lik uran
Ġnakak alungkot
H B
L OL
ĠT ulong
Ġnak agawa
ĠDa ve
ink y
Ġbina bay
Ġgit ara
S igurado
Ġh iwalayan
ĠG inger
ĠW all
hah ahaha
Ġsinus ubukan
U s
ï¼ ļ
oslav l
ĠSem enova
Ġ Ã
ĠJ M
Ġmar t
ĠTin ingnan
ĠCorpor ation
ĠC A
ug mang
uw ian
ĠA ksyon
lim it
ĠMang yaring
indu que
ĠS uri
ĠT ekn
Ġblog ging
P r
ĠK ont
B ur
k ayang
Ġ !!!
ih ag
lo p
ĠBre aking
Ġpagp indot
ĠView s
Ġalit untunin
t ips
ĠS iy
abor ito
at ol
ĠV hong
lib re
Ġw ent
Ġpang amba
en ess
âĢĿ ?
ĠVe gas
ĠS iyang
M arahil
Ġmags asabi
ĠMa aring
Ġkon se
e enjoy
Ġc av
ti onary
ograp iya
Ġkakany ahan
P ER
Ġumu uwi
ĠGerman y
! ...
Ġapp s
tra ct
BATAN ES
Ġexc itement
Ġtagapag salita
ĠSy ria
Ġnangung una
re me
Ġpags agot
ph ilstar
Ġlumang oy
Ġleg s
ĠMuh ammad
aw ing
Ġnagug utom
Ġceremon ial
ĠL ance
sho ot
ĠAcadem y
es yal
Ġmag lingkod
N ad
Ġh iyas
eng u
lip in
N aramdaman
bah ala
Ġcont ent
Ġactiv ity
ĠW a
Ġkundi syon
ĠLey te
ĠW rit
Pam paputi
AH ON
Ġbumab aba
B C
D ok
ĠA ward
ĠF il
Ġnapak aganda
ĠAgu ilar
ĠEng ine
ĠSING AW
Ġh apag
Ġmay amang
ĠT ub
ans o
eg in
ĠC orinto
Ġwa iting
Ġpan u
ĠNo ah
l unas
ter y
Ġv oc
ĠChar ice
enz uela
Ġst ream
Ġnas aksihan
ĠRus ya
it er
ĠJ u
Ġitinat ago
Sapag ka
L AT
ĠS hop
Ġmagk ahiwalay
akita an
K ilala
Ġp ili
ons ulta
Ġih anda
Ġpot ensyal
O f
Ġs ha
Ġli lipat
Ġper m
ĠPu erto
Ġblessing s
Ġuh aw
ĠB utas
w ika
ĠðŁĺ Ľ
Ġhealth ily
ra ble
ĠSt art
abaw as
Puw etan
Ġmag tanim
ist ent
ĠUm upo
Ġtot al
C osmetic
Ġtrans it
ĠHun k
ĠPrin c
ĠPag lala
Ġip arating
ĠAc id
ĠBir thday
mab isang
Ġmikrob yo
ĠRem ov
Ġtagapag t
er ic
Ġmat rix
Ġnin ong
IK O
Ġer ot
ĠP arehong
Ġre histro
abala han
y aw
Ġkan tot
Ġmak ing
Ġhat ol
ĠG AN
Ġdr ayber
Ġnakah anda
ĠEr ik
s obrang
Ġhina rap
ataw anan
ĠPAN AN
ĠB ude
si ons
ind y
ub ukang
ĠSAK SI
ĠP E
ĠAp ps
erat iba
Y E
Ġnan iwala
N arinig
ap er
P atak
ok ay
et sk
ĠAl ma
ĠEn joy
IR A
" ?
an ti
mot ed
ĠE kater
Ġtho ugh
ĠCat hy
ĠKara nasan
aba nan
ac tive
Ã± as
Ġbaybay in
al han
ĠOcc idental
ï ¸ı
ĠI lagay
Ġib ub
Ġwal nut
Ġel se
Ġsuw ero
ĠD y
ila gay
re as
ĠGu ide
ĠSer ies
r t
rib ado
ĠU lo
Ġkab ahayan
ĠPh ilip
Ġev ac
a ong
Ġsa plot
ĠS ore
Ġal erto
Ġam ang
ĠKomun ista
Ġip agp
Ġcompet ition
Ġbah id
i am
Ġl ent
ĠD agat
cl ose
ut ical
ĠH E
Ġmang a
Ġnab ibigyan
Ġsm all
indi k
AR AW
Ġbas ic
Ġnakat at
Ġfun ction
P et
ĠA bout
Ġpam ilihan
Lo la
na me
ĠB ala
Ġkat uwang
Ġpos te
H am
g ig
ĠL uke
Ġsho es
Ġes k
Ġche motherapy
ĠSa ul
emb ed
Ġkala yuan
ĠMa ari
ĠTa x
ĠK rist
ĠQu iapo
Ġnakapagpap asiglang
Ġnagla lakbay
ĠAlon zo
s il
Ġni lili
aa ah
Ġsa les
Ġb unt
um anggi
Ġv ess
Ġsy udad
g uwento
Ġak dang
Baga ma
dir igma
! '
ĠG in
ĠPwede ng
ĠYar oslavl
ĠI de
ĠH op
Ġmakak akita
Ġpr otozo
raw l
Ġpin ya
ĠRod el
us ing
Ġkum portable
Ġcom pan
ĠPad re
ĠS arili
Ġmag mamahal
Ġus ing
ĠTol entino
Ð ¾
ras ong
Ġâ ĸ
Ġne to
co unter
ĠCap s
Ġstand ard
G et
ĠPang alawang
Ã± ol
Ġkey word
ĠBID YO
Ġkat atagan
Ġpagbub uhos
ĠMat andang
Ġko rap
Ġa ay
Ġban yagang
Ġbay arin
ut ak
Ġkak ampi
v ot
Ġmakak arating
inis yon
Ġk uskusin
Ġpagt utol
high light
ĠK ristine
res sing
ĠPR ES
i init
Ġg l
l urang
ĠHAHAH A
mit h
ĠA my
ĠJo di
Ġnagd ulot
l usyon
r uk
AG OT
Ġdoes n
Ġnakak aranas
ĠTransport ation
ĠM ust
Ġtra iler
lala gyan
Ġnakap aligid
t ension
Ġpamb ata
L abing
ĠP anaginip
Ġan yong
An i
Ġmasas ayang
ĠL O
ĠPang alawa
Ġpay agan
alast as
Ġab or
Ġini inom
ĠYout h
ilak bot
__ _
ĠSun Porno
ĠN ars
ĠEd ition
ĠComm unication
ĠS ar
ad ers
Ġkong k
Ġkab ayaran
ump ayan
ĠL eg
Ġpags uso
ies ta
alis asyon
mp asan
Pag d
Ġbox ing
ĠGold en
ĠD ala
Ġi iyak
ĠEn rile
Ġmaka apekto
alam buhay
Ġpagawa an
Ġumu ulan
) ?
wana gan
P AN
Ġc orn
bang on
init ely
Ġus a
Ġisina ma
Ġhard ware
Ġsum asak
Ġhapp ened
unte er
Ġelement arya
ĠE mail
art ong
Ġ12 0
Ġmagkas intahan
Ġw omen
ist ics
ens yahan
Ġ25 0
Ġkant utan
ĠR ol
Ġulit in
Ġpag hanga
ĠW elfare
ant ig
ĠJEHO VA
Ġth in
ĠKab abaihan
Ġprog res
P uting
ĠG ayon
ĠPag mam
ĠRe gal
Ġpak pak
gan yan
la gas
it igan
Ġkap iling
Ġe at
wal ong
the w
r uan
Ġsal ot
r iko
Ġkat ibayan
Ġlo wer
Ġpan iwalaan
ĠDi ana
ell er
vent ures
Ġoper ations
Ġre lig
ĠO ver
Ġdin is
ĠCont ra
Ġ5 2
ĠNak akatuwa
ĠMid dle
Ġpagk alat
erb ina
ĠF eed
Mag ugustuhan
IW ALA
IS INAGAWA
amp anya
P uno
ĠKap it
Ġf estival
akailan man
erbina fine
le mento
Ġp eg
ĠC ross
ĠBaga mat
Ġpu ede
Ġipinag kaloob
ĠSen ior
ĠM ano
ĠK alikasan
id al
ĠF ri
Ġsamp u
Ġmakik inabang
ĠI bon
ĠL am
Ġpinag mamasdan
ang ga
Ġkatang iang
Ġw asak
Ġex change
Ġsing ing
Ġfa ith
: ...
Ġs eb
ali zation
ob e
amb ad
ĠTom sk
asiwa an
stant ino
Ġkap us
ĠCom puter
Ġcent ers
Ġpl ug
t w
ĠFe lix
ĠC L
Ġpan c
Ġâ Ļ¥
Ġpinakamat alik
ĠM AM
ĠO A
Ġmapup unta
ĠT ana
ĠJ et
Baga mat
Ok ey
Ħ ¢
ĠB awang
Ġag os
al and
Te en
Ġdest inasyon
a ak
Ġcon vers
uwal hati
Ġtab ak
Ġd ont
Ġul et
T at
Ġt ing
Ġand roid
ĠPam ahalaang
BIN ABASA
ĠS U
Ġsigura duhin
ĠEnri que
Ġna y
ĠGu ard
ĠWend y
Ġkrit ikal
Ġgliser in
lik ante
Ġtr ib
Am inado
ah iin
ĠDi ary
ĠJ asmine
rub ahan
Ġkakain in
ĠB ana
ĠI ris
Mak ipag
Ġh umpay
Ġka isa
Ġnagtat ago
Ġcal culator
LO AD
ĠWE IGHT
p ack
Ġto wn
iy aw
Ġkum atok
Ġdem o
Ġpagp igil
Ġlumilip ad
Pag p
Ġpan ulat
Ġch ina
Ġi yung
ĠN apangiti
lo ok
U TO
Ġg own
Ġbina ba
ĠL ily
Ġy eah
Ġtum ungo
Ġlumala ban
ĠIB IG
ĠWi Fi
Ġsuma ilalim
Ġip on
op ya
Ġimb it
Kah apon
ID E
Ġso lid
ay uko
om ar
Ġpagpap abuti
oc a
ĠAleman ya
k ol
Ġs anga
ĠT AM
e ff
in vest
lap in
ĠM t
li se
er ang
Ġka aya
ĠRev il
d rome
Ġd ram
ah od
id or
Ġli quid
ĠT here
te ch
Ġik inat
ĠPen za
ĠL yn
ĠPag od
Ġsang libutan
ay ahin
ot se
Ġipina labas
8 7
T AG
Ġpul bos
ipin ta
Ġpinakama inam
Ġkala unan
ĠZ e
Hina wakan
ĠN ote
ĠB ath
c ano
Ġh ating
rat rabaho
ĠJer ry
ĠA urora
ce na
ĠIn quirer
ĠMa ikling
Ġallo wan
Ġmat apat
ung i
tor ial
Ġpagkakas unod
Ġsinas agot
Ġnakat ali
Ġlim atik
Ġnakas anayan
Ġnili naw
Ġmagt uro
Ġnagh uh
ĠT otoong
k ip
Ġv iral
Mag bigay
el angan
ĠMak apangyarihang
Ġop ening
Ġkad ahil
ifi ed
am ak
A lex
Ġm ekan
ĠRevil lame
ĠAs caris
ĠHila gang
ĠM J
Ġtum aba
Ġdermat itis
Mat ure
Pro moted
Ġb usog
T uwing
Ġt alakayan
yan sa
Ġpagtatang gol
ĠAral in
girl friend
B ahay
Ġkap uwa
Ġnagb ukas
Ġh id
Ġac h
UL ANG
Ġin ilipat
ĠW astong
ĠHe ad
vel y
Re view
Ġblog gers
Ġmagkak ilala
ĠMen u
ĠDok tor
ĠC AR
Ġpinap ayagan
ĠOl ga
K ulang
Ġs now
Ġkat wiran
ĠPara zzi
Ġma bang
um n
Ġpina mam
Ġsin ungaling
ĠAl m
ga lak
in y
Ġpar atang
op o
D ina
ĠP ul
ĠH angg
pon se
Pags asama
ĠVal en
ĠS ilang
Ġsup lay
ĠIt anong
m ah
v ings
Ġn ong
ĠD ress
Ġnap iling
ĠMask ara
ĠHay den
ĠP ORN
ĠJ oke
Ġkah usayan
ĠUn it
ĠSAB IHIN
pap a
Ġexplain ed
ag u
ask uhan
Ġlight ening
am ag
Ġsh ared
Ġnagsis i
Ġch ampion
Ġhah anap
ĠSum mer
ĠKAH IT
K inantot
to wn
Ġkapang yarihang
Ġekzoderil om
Ġpul l
Ġyuma ong
ĠS iko
aba gal
ĠL OOB
3 00
ap s
amb uhay
ĠE P
ck ing
Ġkom isyon
ĠPorn star
at ti
ch ong
ĠIk adalaw
Ġnakatak da
b lock
kw ard
ĠTra iler
Ġtekn ikal
Ġapely ido
Ġlum ili
angk ang
Ġaccount s
P AK
ĠA lice
andal uyong
Ġdiagn ostic
Ġb onding
ĠL iwanag
ĠTIM E
' _
ad ang
ook s
ĠPh otos
ĠT awag
et so
Ġpak e
Ġs ep
ĠAng hel
ĠPla zmolifting
J W
ens k
Ġnab igla
P ilipino
am s
Ġpampa alsa
Ġtal unin
FP J
Ġnari yan
ĠHapon es
I tong
d ers
Ġpakikipag sapalaran
igura duhin
Pagtat asa
at ors
un ny
ĠR ic
Ġpina pasok
ĠNa zar
Ġpagg unita
uk lay
Ġmay abang
og n
Ġop era
x ia
ĠM es
A ired
ess age
ĠAk lan
ust ahan
Ġban yaga
ĠMar induque
ĠEst udyante
ĠPD EA
h ilakbot
Ġmay bahay
us es
t amang
Ġpana n
Ġsab ihan
eg ano
Ġ[ ...]
Ġmil k
L IB
ung ot
Ġnam en
Ġto y
ĠS pa
Ġpagt anda
Ġmakat rabaho
ex ual
ĠSp okes
p icture
Ġp retty
Ġh uw
ĠJ enn
Ġcomp la
Tum atanggap
Ġmak aga
Ġte h
âĢ »
ec ure
en ov
id hi
Ġtum ango
angk utan
ĠK aligtasan
Ġmay on
OG RAP
Ġmak alabas
Ġen vironment
Ġf ina
ĠNeg ro
as ha
Ġbe ans
dila an
Ġit uro
ahin to
Ġdis count
UL L
Ġser emonya
Ġtooth paste
ĠRemov als
? ,
Ġmo use
Ġr iyan
Ġpap utok
ĠD ami
Ġsig la
Ġjeep ney
UL O
H uh
ĠA G
agal itan
Ġm ix
ali wa
Ġaga rang
ĠTR AIN
ĠSand ali
Ġpang a
h od
ĠS ama
Ġsin unod
Ġresult s
ĠEL ISA
ĠMo vies
Ġlip unang
Ġhab ulin
Un ti
im s
ĠJ ollibee
Matat andaang
Ġnag ngang
ĠI YONG
sing an
fac t
Ġpab abayaan
ĠIt aly
Ġpinak ap
ĠRom ano
sty les
ĠD ong
ĠI wasan
aloob an
Ġg ly
Wh ite
P Y
j ah
Ġdal uyan
Ġ ark
Ġnaa ayon
ĠPro m
ĠHa ve
lant ad
Ġfa il
riye go
ĠB am
ĠSal le
na list
Ġpos ter
Nak ikita
ĠMe lissa
p ect
Ġpan di
Ġdec ision
Ex ercise
Ġb antayan
Ġc rit
ĠT init
od ing
ĠK ain
th read
ĠK yle
AC K
can ta
Ġfinal ly
Ġpang hih
ĠB and
Ġe loe
M adali
Ġ rape
Ġsi pag
ĠG IN
Ġpina hih
ura nas
Ġbast usin
x id
it as
ura hin
ĠIn yong
Ġini iwasan
ĠMam ili
s ol
AH AGI
Ġnot ebook
Ġsinam ahan
Ġinter nasyonal
Ġmat inong
Ġad s
Ġgra nada
Ġexp os
Ġclo ves
Ġdis ease
V ery
il ot
atang gi
Ġmait utulong
ĠTagapag ligtas
ĠPag basa
ĠBAN SA
ĠS apat
ad d
ĠL alake
Ġam bag
Ġtr uth
Ġpab ilis
ĠPum ayat
Ġpam pang
ir han
pas s
erc ises
ĠÂ £
ĠMAG ING
ĠPH P
ĠC os
isip ag
Ġnana wagan
Ġmagt agumpay
Ġpaglala had
ho g
Ġprem yo
ig tas
ĠL abas
ongrat ulations
b anan
I lagay
ĠT ab
Ġnat agpuang
cent rate
Ġs ugar
w h
ĠK antot
Ġ5 1
ĠEn ergy
am ent
Ġnapag od
Ġnil ul
ĠGlo be
ĠW ITH
Ġor egano
Ġkadahil anang
ib ago
ali ma
uw ay
Ġkom ers
ĠR ap
p u
ĠN ick
ĠE velyn
st ory
Ġj okes
ĠNico le
Ġrehab ilit
d umal
alag han
Ġalm uranas
uc as
Ġjo in
ĠD ub
Ġkala yo
K wento
re port
Ġg ul
ep isyo
Ġbor ing
ĠNat atakot
aas ar
Ġromant ic
ĠB ec
ĠC rist
ĠSt ud
ira an
ĠD FA
land s
res to
ĠIm elda
Ġpa dala
op ic
Ġmana langin
Ġbad yet
Ġsalaw ikain
ĠN ever
ret ch
abalik an
canta dia
Ġ {
Ġnaw awalang
ĠIna asahan
Ġnakakapag od
Ġdet erm
Ġtal ud
Ġitat anong
ĠT ampok
Ġnaka uwi
Ġvac ation
C T
.... ...
ĠBr and
Ġnag sagawa
alak pakan
Ġnagh iwalay
Ġg ig
M r
ĠT ver
Ġgum astos
Ġpan lasa
Ġmagb ihis
U sap
ern ity
ero us
Ġpamp alakas
s obra
ĠP wet
ĠJ ing
ĠO ur
L ing
ga bag
or us
ĠB EST
ĠMag t
Ġpanana mit
AL IM
pis odes
Lum ipas
ĠAndre i
ĠGum anda
b alita
ah ong
ĠS w
ĠUS T
ĠM ONG
ina ta
ĠV oice
Ġik akasal
utan eous
H o
e li
uk om
ĠF rench
Ġch ords
Ġkal inisan
Ġhila ga
Ġ6 00
Ġexc lusive
ĠBel lo
ĠWh en
Ġemos yonal
er ia
ew an
ataw at
Ġnamum uno
Ġma una
abet is
ĠBit uin
as ikaso
ĠLuc y
S lut
Ġg at
ĠC ell
Ġpagsasa ayos
ĠM S
ro blema
ĠL GU
ĠTom boy
i us
Ġstor ya
inag ot
K AS
ĠB ags
Ġkin unan
ĠAg ric
: ï¿½
ali ban
ĠG UM
kam i
Ġnapag tanto
ĠTra disyonal
ĠTar lac
Ġtagas unod
Ġr ich
ti re
udi es
Ġnau ugnay
ĠL AMANG
em ates
P ano
ana langin
Ġin form
Ġkon k
reg ular
mm on
ĠP ulis
Ġnila g
Ġtinit ignan
b ladder
Ġnag te
Ġch ant
Pags as
ĠS HOW
ting nan
Pas ukin
ĠP lus
sc ar
ala yang
Ġnag daan
ĠD yakol
Ġnak aligtas
Ġkap ana
Ġpagpap anatili
ĠU tol
is po
ĠC ubao
ug po
Ġsuw erte
Ġlub usang
ĠSin ubukan
jo e
Ġpangk ap
Ġitin anggi
s iyam
Ġb asket
Ġkis sing
ĠLyash kov
aga win
Ġnap untahan
ĠMar vin
Lab els
Ġkumakat awan
L ONG
Pina ka
Ġni o
ano va
Ġc hair
Ġta naw
. ?
lis ilik
ĠAre na
k irurhiko
ĠH as
Ġkomp re
a alay
Ġma uwi
Ġmot iv
ĠBan dila
hah alagahan
ĠPUM UTI
S how
ĠC apital
Ġnot hing
Ġhep atitis
C at
Ġman ang
Ġmunisip yo
umyv akin
Ġpinaniniwala an
Ġipina m
Ġen han
Ġmapag kak
t ulong
Ġmant sa
T APOS
ri ya
Ġmakapag salita
Ġno od
iro v
v iral
Ġna ubos
Ġnas alanta
ĠAr chives
ĠMalak hov
Ġla pad
S impleng
Ġmalala ki
Ġmap alagay
Ġmakab uluhan
C D
Ġsecret ary
ĠRon nie
xy gen
Ġg un
lit is
Ġpamum uhunan
ĠAP K
Ġsumas ang
Kam usta
alampas igan
Ġp orm
la tions
ac ies
cer t
ĠBis aya
B awat
p ati
pina g
M on
u erra
Ġnagt uro
ĠG abay
Ġbang o
P lease
Ġi hatid
ĠO c
Ġal gae
Ġbas ed
alak hak
Ġtreat s
ĠAM IN
te ka
did ato
om ento
Ġsin ta
Ġtour ist
Ġpina mum
kas unduan
Pamam ahala
Ġap likante
inang gal
ĠT emp
Ġve ins
em as
Ġsina pit
v ideo
Ġnak ed
Ġhah ayaan
ĠS ik
Ġnak akain
Ġfac tor
Ġpas ado
ra dong
ĠT ake
ĠR an
Mak ak
Ġnagpas alamat
Ġtu ition
Ġd it
ĠC ur
p df
Ġika apat
rib d
ĠM orning
Nag tat
Ġnad ama
ĠIn ih
Ġtuklas in
Ġmagpa alam
li atti
Ġpala s
Ġd one
Ġila labas
Ġimp erya
ĠNA MIN
Ġi min
re view
Ġmag tiwala
Ġpagk antot
P E
ag ising
Ġre fer
ĠMah igit
ĠAK IN
Ġc reative
Ġst raw
AL IT
ĠMas s
Ph oto
Ġ198 7
k wento
Ġlub usan
Ġp iy
ĠG omez
Ġi ron
Ġlot ion
7 3
f ish
C alamansi
Ġis tor
ec e
t sk
as ing
ro zen
Ġnag i
Ġmalala kas
ĠRa ffy
iram ay
hon es
Ġpe dicure
N et
Ġc ebu
Ġpinag d
Ġnakak araan
ĠEle kt
O intment
n iko
Ġo landes
ci ano
Ġnakak aramdam
ĠMen diola
b ili
ĠS oc
Ġmagb akasyon
Ġins ide
Ġm okong
ap di
ĠS agutin
Ġit utuloy
atagal an
Um alis
Ġpa ikot
he ng
Ġkar umal
ĠÂ «
ĠTut orial
ĠFore ver
ali go
ĠR ight
ĠA ce
Ġina alala
Ġsh ots
Ġa id
Ġag wat
Ġpant asya
d rug
ata naw
Ġe mo
te ks
per form
Ġik ap
Ġpagkak ab
ĠTrans lation
ak alawa
te p
Ġnak amit
ĠG ala
Ġpagt upad
ĠSy mptoms
Ġkut is
Ġkab ute
Ġipag pap
Ġsund along
Ġnagmam ay
Bab e
ĠTh u
sen ia
R ob
ĠF ile
Ġmagsas alita
8 5
v d
ĠDa ily
ĠEle ctions
Ġhila gang
Ġhali gi
ĠVal enzuela
v ity
ĠB urn
Ġkons ult
mp ot
Ġpilit in
Ġtip an
Ġcomm unication
ĠFeli pe
H IN
AD A
ĠIna y
ĠT ric
Ġpina nood
ĠIs ina
ĠOpin yon
Ġmaram ihang
Ex cited
aga wan
/) ...
ARI AN
ampi ons
ĠEstel le
Ġre covery
Ġnila la
AG AWA
Ġap peal
ðŁ Ĵ
Ġpangk alusugan
Ġfinal s
ĠTog liatti
b ad
p alad
Ġs int
Ġlik es
P areho
akas ama
Nak akat
Ġgar den
w igin
as am
ĠP atak
Ġipag malaki
ues day
M il
ĠP iso
Ġ= >
Ġlimit ado
Ġnasasak upan
. :
D ub
ĠS hang
atang ian
N amam
Ġnau unawaan
ĠOffic er
ĠS alon
Ġman dirigma
uga w
ĠPAG PAP
Ġpur pose
s ulat
Ġl ans
Ġst rip
ĠTat luhan
uga che
bas e
7 4
ĠM ATA
Ġpagt ukoy
redi ents
ĠF al
ANG A
Ġpinakam amahal
Nak apag
Ġpagp roseso
Ġala has
B untis
ur u
Ġre alidad
orm ental
Ġnakapag p
Ġsy ota
Ġret urn
B alita
uk ing
Ġc ub
ĠJ olo
Ġtry ing
syuna ryo
G ER
Ġmagkaka ibigan
Ġisinus ulong
Ġg imik
ug ulo
Ġum unlad
Ġgum anda
Ġli bangan
Ġpap arating
UN OD
Ġmakat uwid
ĠBum aba
ĠDi vision
Ġpagpap alit
p araan
im igay
Ġc hain
Ġpo ot
Ġkam era
Ġnan liligaw
Ġkapas idad
ins tead
ress ed
UL ING
ĠCom plex
mata galang
Ġsi mp
Ġbina tang
Ġpl s
Ġpalip aran
e z
Ġmal unasan
amb og
yd rogen
ĠCon stantino
nes day
in uman
ĠFuck ing
Ġn odes
Ġla mpas
Ġnak apatong
Ġka anib
ĠI mag
Ġsk ills
ĠHal loween
Ġg uhit
ĠVal ley
Ġsta ins
L alaking
it ar
ala hibo
Ġp olusyon
ol in
Ġkal endaryo
Ġkar ayom
up aan
ĠY aya
ĠMag d
Ġcelebr ities
! .
Ġs ugo
em s
Ġtina k
ĠBin uksan
f all
as enso
Ġprot eksiyon
aham akan
ĠD akilang
Ġmus ical
C ategory
i ences
ĠE ffective
Ġkomed yante
ĠEmplo yment
B ong
Ġpan itikang
ĠBar na
h iyos
IP S
B uod
Ġan no
Ġtat alakayin
Ġste am
ĠE B
ĠMay kapal
Ġfriend ly
Ġendors ement
N anay
Ġmag labas
ĠB alang
ent or
Ġent rance
Ġpala wigin
Ġg intong
Ġth erm
ã ĥ
ĠPh p
ĠMay on
is ina
Ġpinakam adaling
. âĢ¦
Ġpin ipili
Ġmagpas uri
Ġmakik itang
ĠK UM
Ġmak al
ĠN orthern
ĠAr g
ĠMali naw
Ġkinat atayuan
Ġma mas
Ġbir ch
Ġteleserye ng
TF RB
Ġpags ali
Mag dagdag
Ġnapak alakas
Ġgit nang
Ġimm une
Ġkoop erasyon
i ant
ĠD river
ĠMiyerk oles
ro f
Ġsp irit
Ġbina banggit
Ġn di
and ali
Ġna tion
Ġl ec
Ġg lass
ĠF und
hih iwalay
p ira
ĠME DI
E c
ĠS ine
ĠPang kalahat
Ġnagla ho
Ġmakas aysayang
Ġkinak antot
uris hing
ak ila
ah atid
ĠMad ami
Ġm es
ĠB rat
ĠTang ere
Y ong
s ibol
Ġbanggit in
aci enda
ĠM ela
Ġmak alkula
Ġw idget
isip ang
Ġkil iti
ju ana
ĠHen eral
ĠK uw
ĠB elo
ĠNag cha
h alan
Ġkump etisyon
IB O
Ġtapeworm s
Ġimm igration
ra b
im ar
ĠH am
Ġper las
Ġw el
iga wan
Ġpinak uluang
Ġ uring
ud ero
nal an
Ġsur prise
ĠEkater inburg
Ġna dala
Ġpam pas
ĠTri ad
ĠH ala
Ġyour self
or ie
Ġpinans yal
ĠPORN OGRAP
Ġs ant
Ġre ce
Ġipina liwanag
ĠF ab
Ġjo wa
aks idente
er es
ĠL U
Ġtula k
zhe vsk
Ġp ung
Ġsus undin
Ġbatay ang
Ġ198 6
Ġadh ikain
M asturb
ungk ulin
Ġmaib abalik
ĠPagka isahan
T ekn
Ġhuk uman
ĠPe ace
Ġma c
man eho
Ġbung ad
Ġs uch
ĠB AS
ĠT ristan
A tom
Ġhin irang
act ress
ĠPok wang
Ġ ubos
na na
Ġko lon
Ay un
Ġpagh alik
Ġgym nastics
ĠM eralco
EST ADO
Ġla yer
WN LOAD
Ġcompan ies
S IN
ĠL ist
ĠPam ahalaan
la yan
en ne
yer to
Ġalterna tibo
ĠTour ism
ĠI wan
ic tion
Ġe asy
Ġmab ago
Ġpagt atak
Ġmayon esa
ak ang
ĠP anay
ĠS aging
Ġkam ahal
bi yos
Ġde tails
ace utical
Ġgin usto
ĠS eb
Ġmag mam
Ġga wan
AG IN
Mag patuloy
Ġpagtat anong
Ġtr igo
Ġnapak arami
ĠFed eral
ĠPag gawa
iv es
K o
ĠI za
Ġte achers
Ġnagla gay
NAK AT
t u
ach ieve
alim uot
ĠD ata
car nitine
I sin
M ahalaga
s aya
Ġp ol
ak ripisyo
ĠY o
ĠSiber ika
g iliw
Ġd oble
Ġk ub
p orn
ĠG O
Ġbib lia
ĠPla ce
P ersonal
Ġc ivil
bab alik
qu ire
ril on
W eb
ĠK atan
Ġy osi
ĠComm unity
ĠPana langin
ikas uhin
Ġpangkab uhayan
Ġdinis enyo
Ġallowan ce
K AL
Ġc urious
Ġit anim
Pagpap uti
ĠKAN YA
Ġpaghuh ugas
T ampok
Ġinclud ing
B ayan
ĠB ran
ĠLab atiba
L aki
ĠT ingin
m ale
Ġh igan
ĠK ultura
ali pat
Ġmali ligtas
Ġnakak ak
Ġbe et
AA AA
w hat
Ġito Ang
are late
wal k
Ġtemp late
Ġf lag
imb ita
pagpap akain
Ġle on
on c
Ġpagpap aalis
Ġman hid
Ġbre ad
end s
AH ALA
Ġebid ensiya
ĠE kzoderil
ĠGu inea
Ġpagg ising
ĠSAN A
re ek
28 8
ĠIkadalaw ampu
p um
al er
ab e
ahil o
op era
Ġtamb ayan
N aa
Ġal though
amb ot
ber g
ĠPAG KA
lip ad
Ġartist s
ĠPla za
K P
n ice
p ur
Ġna lag
Ġmoder n
ay bayan
ĠB ormental
K abanata
Ġd ama
Ġpakikipag laban
Ġib abalik
oder nong
Ġfam ili
T ahimik
ĠL t
Ġ8 5
Ġitina pon
Ġdiskarte ng
Ġlic ense
te nance
Ġro bot
on da
Ġd ent
ĠN y
ĠH and
Ġpinap akita
T Y
Ġmag lakbay
ĠJour nal
s ayang
Ġla wak
ĠGard en
ĠT ambayan
ĠK ey
ĠT hin
Ġcol lection
Dad dy
S er
b ilang
ĠS her
Ġkandid ata
ĠBAG ONG
Gayun man
ĠR ES
Ġngay un
ĠSis on
Ġkon struk
Ġmag l
ĠE f
Ġper mangan
vent ive
Ġrehim en
ol od
est ation
Ġpari ra
Ġhiling in
Ġnap ahiya
atay ong
ĠI kala
yan ismo
Ġult imate
I din
ut ulungan
Ġun iform
Ġnakara rami
Ġobs erb
Ġnak alabas
de velop
Ġpak ete
Ġlet ra
m edyo
Ġlum uhod
Lab is
Ã±a que
EN R
dis maya
aba nat
Ġnas unog
ĠYout ube
H alika
T ubig
Ġtim ing
ĠAn t
Ġlate ly
S oda
ali zed
Ġy abang
Ġib inebenta
Ġab ukado
Ġnagla lakihang
Na il
alag tasan
Ġkabut ihang
t est
ĠGina gamit
Ġhom yopat
Ġg ust
ĠK alin
ĠC SS
uw as
Ġtin ta
lax is
ĠOp lan
a f
us band
ĠN FA
Ġjust ice
ĠGayun man
3 17
S E
Ġtinat amad
Ġing rown
M akat
c lo
w ap
ĠT ayong
Ġnang ako
Ġmas ang
ĠW at
UG O
ĠB ihisan
Ġsp eed
ĠIS LAM
Ġnagw agi
AN AK
Na una
rot s
Bum aba
C ER
m g
Ġc hin
Ġnak aa
Ġmali sya
Ġpan inira
Ġform er
up il
ĠMag ka
AY ANG
erm s
Ġmaib ibigay
m ahirap
Ġbun sod
Ġpremi ere
Ġpermangan eyt
Ġo l
ĠC ute
Ġmaka alis
Ġdes erve
ĠUP ANG
ĠV S
Ġserye ng
âĢĶ âĢĶ
Ġdep ression
v s
atang hal
se ng
ĠCo ast
Ġpinip igilan
Ġkam alian
Ġpangang asiwa
Ġbur n
Ġassign ment
ĠP on
Ġpap alit
Ġmin istro
Ġpork e
ĠL if
Ġmah imbing
Ġam ong
ĠTr ue
Ġ unting
Ġcom pound
ĠDep ende
abet h
agn osis
ĠE ra
Ġkum apit
Ġnab ago
Ġts inelas
Ġvit ro
Ġnak arinig
Ġnagtatag lay
Ġ5 9
Ġli gawan
ĠSp ray
Ġkas ikatan
va xia
ĠJeric ho
Ġc ards
ĠT agumpay
ermat ologist
Ġh ib
Ġl ose
Ġhum uh
pan te
Ġsibil yan
ra ce
ĠP inang
ĠMAG B
Ar royo
la use
ir ino
alam hati
nal ty
mas arap
Ġmagh iwalay
h mmm
Ġkil usang
ak asan
âĢľ âĢĻ
Ġmab uo
Ġtut ol
Ġchar ge
B igyan
r ence
ut ual
ĠPang ing
h or
ĠT ue
Ġlala k
Ġnab alitaan
Ġcirc uit
Ġgu ilty
ĠC oconut
Ġpang unahin
na ka
at nan
Ġtal uk
ĠBu ilding
op ost
OM E
ĠChe ck
ĠManag er
ĠA ming
Ġpanana kop
tap ing
ĠI zhevsk
Ġtum abi
Ġmasak lap
Ġs logan
Ġp utol
ar ta
Ġmab abaw
ĠSam ahan
Ġsupport ers
Ġpinagbib idahan
ĠP ahayag
ust in
Ġhah ah
inut uring
ĠN in
ĠR andy
Ġyo l
H im
ĠK now
om ba
in c
ik anong
hing ton
Ġhair styles
Ġk inis
ĠMag damit
ĠEd sa
ĠCount y
nak ot
Ġar rest
Ġg er
Ġre union
ĠTa as
um ilit
aw e
ungk atin
s ala
Ġl utong
ĠAL L
ĠFacial s
Ġ ulay
Ġk uno
ito lohiya
Ġf iber
G od
brow se
" ...
pan sing
Ġnapak ahalaga
yona ryo
Ġpresent ation
Ġan imo
Ham ster
ul itan
ĠE k
ĠTat too
Ġma unlad
Ġsum abay
a alinlangan
ĠSin ce
ĠUma asa
W ALA
Ġi giniit
Ġg antimpala
N ana
en na
Ġbilang guan
ĠP ov
Ġpinags as
H D
Ġad vis
M ic
Ġnak alili
Ġob ra
nit ude
Ġmang mang
man n
Ġal e
vern ight
Ġcap tion
Ġsc rub
ung go
ĠM oro
ĠSup plements
Kam akailan
ĠD TI
ĠAn y
Kap artner
Ġpat otoo
Ġyum aman
gina te
na to
Ġm inisteryo
Ġch ristmas
Ġdom ain
Ġsin oman
Ġ5 7
Red uxine
eras yong
ly ing
L uya
Ġk untento
ĠT AL
tor ian
Ġmana natiling
di ri
Ġmat ikman
Ġpr ide
ĠJess e
Ġsel os
ĠE asy
abi es
bas h
ĠN awa
ĠG ate
Pas ko
anu od
Ġgas gas
Ġpropos al
Ġpa kas
ĠP ugache
op at
ĠEug ene
i is
k et
ĠM et
ĠPAG L
Ġcur rent
Ġdik t
Ġgold en
ĠSout hern
d os
Ġib abang
Ġend s
Ġteror ismo
! ..
ab ility
Ġkab ag
Ġv es
Ġdok ument
ĠPan labas
ĠChar ity
Ġpagtut ulungan
Ġy e
ĠJin ping
Ġkap ahamakan
ĠMore na
ampo os
Ġhub by
R AT
Ġmagt atapos
w esto
Ġpa yak
Ġak adem
hab arovsk
ĠStor e
ĠDAY S
ĠP ip
Ġisina mpa
Ġwar ming
H mmm
ĠL ine
Ġmagm ula
ĠS han
Ġpagk awasak
res ulta
Ġciti zens
b ody
t otoo
ĠRep resent
on line
en ny
em po
Ġal tar
Ġkina lalagyan
ĠPagbab alik
ĠS hi
Ġus ually
ĠPAG TAT
c utaneous
B ir
ĠS ulu
ĠS INO
ĠTele babad
Bur dock
ĠG row
Ġpro mot
Ġtum atak
Ġd ud
ĠPac ific
w ian
tim ang
12 3
Ġnilalam on
Ġkata ga
ĠA loe
ĠK senia
Ġkap areha
ĠY um
Ġber ry
Ġtox ins
Ġh ayaang
ĠPina ka
Ġpamp ala
hhhh h
Ġpresident ial
ĠT y
ĠT ulungan
ir es
Ġpropes or
ĠTok yo
il yang
ĠT umango
ac ks
ĠO li
ĠAn i
Ġban lawan
ĠSh ie
Ġpakikipag tulungan
raz y
Ġbinat ilyo
it ch
Ġt amp
disp lay
Ġpa utang
B uwan
Ġpa lam
Ġat tend
ĠF ILIP
Ġmagpap akita
OTO H
Ġp utang
Ġpags apit
Ġeven ing
M in
ra q
ĠM ur
Ġdi alog
ĠD AW
res earch
ar ch
Ġla s
ĠB ey
lic ia
ĠX XX
Ġh ipag
id ro
Ġeh h
ux ury
Ġtem ang
Ġnagug uluhan
Ġd ukha
Ġli it
ĠLou ise
ĠVit amin
Ġni y
ec ret
Ġnagsas agawa
g um
ĠPakikipag talik
I bang
Ġik alawa
ĠSt udio
ĠMar ina
ĠDe veloper
Ġmit hi
B AKIT
h um
t alo
gal itan
lar ong
ĠCon ference
ĠM andaluyong
ĠK ate
Ġsab ado
und ukan
ĠMaga lona
Ġnali go
organ isa
ĠSuri gao
S ensya
ow ee
ng vaxia
Ġj a
ros kop
Ġs wak
Ġhinah abol
Ġcondition er
ĠM i
Ġkalab aw
ĠT od
Ġmakas ali
Ġp uyat
ule en
Ġlook s
Ġh ndi
Ġnakak al
sam oro
ĠLat ina
s agot
Ġkam akalawa
Ġmah iwagang
ĠCont rol
ĠJa va
ente l
h ib
ĠK habarovsk
ĠD al
Ġla ru
ce an
Ġsc rat
Ġid olo
ĠSign s
ug ol
c ot
w rit
ĠD arating
tellig ence
ga win
as ik
ĠD iliman
qu o
Ġnas agot
ĠS anggol
Ġmass ager
Mali bog
part ner
H ubad
phy laxis
p uso
IL ING
ĠArt ista
Ġt yp
ukl od
Ġh yper
ĠN BA
Ġtalam buhay
Ġpagpup uyat
al de
ew ork
Ġsh aring
ĠSh are
top ic
fa ult
Ġl ord
ĠT ube
ug uan
Ġnar s
ibay in
Ġikab ubuti
R am
ĠA iza
Ġn it
ĠB asa
ĠMark eting
urs es
Ġna hiya
ER A
Ġlo ves
H el
Ġpag pat
ANGY AR
Ġb ob
ant ed
ĠIb arra
Ġp on
ĠG U
ĠJ on
lay as
alas on
ĠKas al
Pagk ak
erel les
Ġsement eryo
itan ya
Ġpags ulong
Ġmult ip
N atapos
Ġpag rer
ĠK ons
ub liko
H on
Ġpag dila
ĠPa ulit
UR A
UH A
ĠQu estions
P ATAY
ĠSo fia
ĠPam ahid
Ġnakah awak
ukl ok
Ġkab aba
ana hon
ĠU ber
Ġaw are
Ġqu ote
Ġbih ag
ag upit
Ġpinag hah
Ġwrit ten
s m
d ulan
s weet
ĠM ika
es yon
ĠMo uth
T RO
t ical
ĠO O
Ġgay ahin
Ġd ear
ĠK irov
Ġpang akong
Ġmakapag bigay
Ġscholar ship
â Ļ¥
ĠD OLE
hin d
nak ita
Ġbat ikos
gar ten
u ed
Ġt anso
Ġpare koy
Ġkon op
b est
ĠP W
Ġmap ags
EL L
Ġh intuan
d uhing
ĠY or
Ġtra de
Ġdol lar
k uro
Ġmak it
Um upo
Ġna abot
Ġli lim
ura ge
Ġsp ring
ĠNat utulog
Ġnagkas akit
medi ate
am ond
Ġla pitan
ing rad
ir ty
alik uran
Ġres olusyon
arang gay
sy m
or ia
em e
ĠLa z
ĠE ver
im es
kw entuhan
ĠEsc udero
P ek
p alit
ĠK rus
ĠRom mel
Ġsumis igaw
Ġt ried
ĠSup t
N ot
Ġsina g
ĠDef ense
ar ilin
Ġre lasyong
IN C
Ġnab ibili
Ġ8 00
Ġtho u
ĠPER A
Ġpang itain
ĠBro wser
Ġpag iisip
Ġnam iss
lik ulang
ĠT itan
Ġst uff
G e
ĠA po
ur so
ĠRom b
an joe
ĠC indy
ĠEl mo
Ġsau ce
Ġvess els
Ġina abot
Ġat ang
ab ok
Ġkak at
inan ce
Ġcli ent
le ksyon
unt in
Ġbuhay in
a akit
ĠYO UR
ĠPara Ã±aque
Ġrec ruit
Ġitem s
Lesbi an
uw aan
Ġ6 9
Ġtang i
Ġla hing
ĠB ed
Ġka al
ĠL abing
t al
Ġo ats
ho le
Ġte as
S ite
i ibigan
mag dagdag
Ġhud yat
Ġk irot
Ġma di
Ġka nais
Ġnakap ikit
ĠNik ki
ap los
ĠAng ela
ĠP ula
ĠU M
ĠKagaw aran
I m
ĠP erez
ĠR ex
Ġnakaka usap
Ġnagd esisyon
ĠLum ipad
Ġâ Ĥ¬
h ine
ĠTekn olohiya
ĠT atak
ata ong
Ġkap areho
way way
Ġra di
Ġterm s
Ġibina lik
st al
AR ESTADO
ĠPan in
Ġm erc
ĠB ANG
ek sena
Ġnagt aka
Ġnatat andaan
umb ok
Ġist ilo
Ġtagap am
R oma
d rive
ala go
ĠK alak
ĠMas yadong
Ġdoc uments
alingh aga
Ġsa gad
ĠU L
Ġbay aw
ĠRomb lon
Ð ¸
Ġcost ume
C oco
c rib
Ġmagk ab
Ġpum irma
ĠK undi
ĠB AW
Ġmo on
ĠL ic
UG AN
Prot ina
S IS
Ġe ither
Ġy east
Ġmaib san
Ġdalub hasa
te ma
Ġpat nubay
Ġbal bas
ĠChat mate
rat ong
Tablet as
ĠB ibig
y awat
ed u
Ġmagkas akit
Ġes panyol
Ġkid lat
Ġti yaga
ĠWas hington
ga la
aw isan
ĠKAN ILANG
Ġina akala
Ġsup plement
Ġkuw ad
Ġsinus uportahan
Ġm ight
Ġi ling
ĠSc ar
UH AN
ur ihin
Ġor gasm
' '
N ara
ĠB less
ĠC el
Ġhe ard
ĠPap el
âĢ¦âĢ¦ âĢ¦âĢ¦
Ġup load
Ġnak apang
Ġlum alaking
Ġnap adpad
Ġpakik i
Tinat anggap
Ġv otes
tat long
Ġpart ners
Ġnapak ahirap
ĠBL OOD
m is
ir ong
int riga
Ġmah ahanap
Ġjud ge
Ġb rush
ĠC osmetic
ĠApp lication
Ġc up
ort ante
Ġr isk
ĠG la
Ġpinag bab
ĠPamam ahala
Ġhih intayin
W OR
Ġpum up
Ġumi ibig
Ġgood s
ĠFan pop
Ġna ik
ĠE j
duk syon
ĠPAN AHON
Ġkinas as
Ġis ara
ĠCh risto
ene z
ĠKalin ingrad
d ays
ĠEn forcement
Ġtransp ar
h appy
Ġh mmm
es yo
ĠB ali
Ġkak ap
Ġpanana lapi
ĠTina wag
Ġl us
ĠS EO
una t
ika an
angg ing
Ġnaip ap
ery enda
bo hid
G abi
T awag
s uper
Ġm ilya
ris on
h arap
ara ga
Ġnat ure
Ġyo uth
ĠMerc y
sym bianize
P s
ĠIN YONG
Ġpagh awak
Ġprin c
Ġi ha
ang kat
Ġk inder
Ġh aring
ĠMuse um
Ġma rapat
Ġni a
Ġpo licy
ĠS r
Ġkor po
Ġtalud tod
ĠL ie
ĠBir hen
ĠPala gi
ni er
Ġses yon
G O
m apanganib
I bin
Ġtechn ology
ya ang
Ġina lala
ric s
Ġsumas ayaw
up un
Ġmaa asahan
g uw
h andaan
Ġd ose
Ġmam alagi
urs day
ĠA riel
ĠMala laman
Ġmagpap atuloy
Ġing atan
utu os
Ġsi ko
ĠC ivil
Ġpagd urusa
ĠESP IR
bohid rat
P ar
Ġd uty
up in
alim aw
ĠP olit
ĠEn d
Ġsinal ita
ĠK iss
Ġtin anggihan
IP AG
Ġdamb ana
ĠPagsus ugal
Ġmak atapos
ĠSiber ian
Lot seril
â Ĺ
ĠA qu
kas undo
Ġtag po
Ġkon ektado
ĠD ante
Ġa aminin
Ġcan dida
Ġh ika
ĠM and
ĠS ER
Ġde te
Ġtum bong
Ġsum uporta
pat an
ĠKaw awa
Ġmist ulang
ags agan
ĠLo ur
T an
ar ka
is ahin
Ġmabibig at
P AS
ah erong
ĠM unicipal
ĠMali gayang
ĠD er
Nak akatuwa
untin lupa
k lus
Ġmad ad
Ġnagt itinda
Ġsinus undan
ĠEli z
ĠDan ny
Ts upa
W hen
c ode
Ġc alam
ĠD u
ĠH IGH
ĠPala u
Ġtuk lapin
ĠSing le
V P
s ung
ĠS UR
ĠH AHA
ĠIn iwan
Ġing redients
ekonom iya
APAT ID
J an
ĠE ve
hehe hehe
ĠJo lina
ĠKan ilang
Ġpinapang arap
ĠPanging itim
ĠO verseas
Ġmagp alit
bab y
list ang
road en
Ġbab uyin
ĠEm ilio
Ġsin omang
Ġpanana lig
ĠS IG
Ġprot ected
ĠK ontra
ĠC ure
ĠInter ior
h u
ĠT ed
iti o
Mang ayayat
G atas
ĠMag ulang
Ġstart ed
N alaman
u uwi
ut asyon
ĠMag pap
Gayun paman
ĠE va
Ġpagtat alo
ĠN alaman
Ġda ughter
Ġmans anilya
ĠC PA
ĠMaric ar
Ġflu conazole
ya in
ila p
Ġmap ataas
ĠIs ip
Ġbook ing
ĠOp en
Ġever yone
Ġfoot ball
ĠArn old
Ġ %
un ugin
ĠB UL
Ġpinag kukunan
Ġpinag halong
Ġmara han
ĠB AHAY
ĠT ask
Ġm emo
Ġkala ro
Ġpagm imina
T rans
Ġun its
Ġult rasound
G anoon
Ġnapak at
ĠHerb s
Ġmalamb ing
Ġmik roskop
ĠC ala
uksa in
ĠM ister
Ġmagk akat
ump ong
ĠAw st
ĠPAS C
B ER
Ġtinut ulungan
Mat andang
H M
ĠK il
Ġkat awang
ine xt
ĠV id
Ġpinags amahan
Ġtat ag
AH IN
Kab ataan
R elasyon
Ġni yaya
Ġdin ig
ĠLib eral
ĠPanana mpalataya
ont ak
ĠAr gan
ĠJo nat
ĠNe umyvakin
ĠSand ra
Ġman u
ul gol
Ġve get
r un
di agn
Ġkuts ara
ĠD AR
Ġkompre hensibong
s ip
re quest
Ġkina tat
Ġcabin et
Ġkab undukan
Ġnagpap as
ĠPASC UAL
aba on
ag sik
ĠB alak
ant ing
Ġhost ing
ĠRay ver
ĠBody flex
8 2
Ġsc ience
ĠLo ver
Ġpharm acies
UC K
ĠK L
Ġtang ke
is ia
ĠH app
Ġres olution
B ato
Ġ9 9
Ġpulit ikal
Tekn ikal
m es
Ġd angal
ĠS ayo
sa cre
va il
Ġfe et
Uma asa
Ġcav iar
Ġt ung
ĠU t
ĠPat otoo
y t
ã Ģ
un utan
Ġread er
n ormal
ĠT ap
ral ita
lip s
con vert
Ġpand inig
b w
Ġnag ha
Ib ina
ĠH ere
atub iling
is on
ĠT able
!! âĢĿ
Ġmus cles
IR AP
Ġdec ided
ograp h
Ġrid ing
Ġsa lik
Ġb uns
p ik
Ġre gi
Ġnam imiss
Ġs low
alig taran
ĠIslam ic
ĠT inut
Ġdali ring
Ġkaka unti
H esus
t akot
Ġlo go
Ġdat apuwa
C risto
Ġuna wain
z b
os yon
Ġbuk ang
ism ong
Ġgroup s
Ġpagpap lano
Ġben ch
K ita
l ng
ĠL ook
Ġparasit ic
Pag tit
Ġhang ing
M apa
ĠD rilon
Ġtin ik
var ro
Ġf inis
ĠE R
Ġmaga aral
Ġ9 11
teks to
Ġma awa
ĠA lan
no wn
Ġpresident i
Ġvit amin
Ġma ralita
Ġre ju
bas ang
Ġclass mates
B agay
Ġat titude
Ġsin k
Ġnagb ayad
ĠAr m
ĠBB C
ĠSit emap
aw saw
Ġph y
ĠX ander
ĠJac kie
m atagal
z ech
ĠPagk ap
Ġbil in
Ġnai iyak
b ath
le a
Ġibig in
Ġtinit igan
UM P
ĠRoc co
v ard
Ġtin iyak
Ġpinak awalan
Ġeskuwela han
ating inan
Ġview ers
P alagay
ĠA RT
te ral
ĠHow ard
D ermatologist
s ari
Ġd alampasigan
ĠT adhana
ĠF in
ras ol
Ġpab rika
ĠRay mond
ĠSm all
li es
Ġmin im
Ġtumat awa
Ġworks hop
K ad
Ġma limit
ĠG ray
res peto
Ġst rap
ĠPamam aril
Ġm ano
IGH TS
ĠKali him
Kala basa
Ġlala pit
UN A
Ġpl ots
ĠMap ula
ĠPand ay
ĠMagbub ukas
b uhok
Ġinvol ved
un os
ĠN amatay
ĠT E
st ick
Ġdiy abetis
Ġling id
Ġmotor ista
Ġgub yerno
ĠPriv acy
Ġturmer ik
w ahe
Ġis usulat
Ġnahah ati
ĠW he
Ġtum ahimik
ch y
Ġpot asa
p io
ĠH ANGG
et ang
Ġdad alo
N ow
ih as
Ġop erator
ĠHang in
Lay unin
Ġi nal
ĠN iyakap
ĠB C
Ġnagli lingkod
Ġnakak akilala
Ġmad ala
Ġbina ry
ES DA
th roat
Ġpanana tili
Ġfib roaden
Ð µ
ĠEn vironment
!!! "
Ġini ibig
ist ers
Ġnamam ahala
ĠPop e
ĠPlay er
ang ang
aa a
ĠPro duct
Ġluck y
ĠMir iam
ĠHes u
ĠKud arat
H om
I la
Ġt ok
Ġkala kasan
Ġsus uko
ĠMO V
ĠBAT AS
aw akas
ut ay
ĠN ice
Ġnak aga
Ġse al
UNG AN
Ġint ensyon
ĠUn ity
St r
ĠSin ong
Ts aka
Ġpasalamat an
ag hag
ĠM awawala
ĠL eb
ĠC PP
Ġkat iyakan
Ġnila bas
Ġcomm and
P angk
Ġmina buti
ĠH alika
Ġch olesterol
ale dic
mp alat
An ime
Ġg ustung
ĠKar la
Sus p
li wat
ah iga
ib ooks
ĠB ase
ĠLa ur
ĠGe org
Ġshi ft
ĠD iba
Pop ular
T ea
Ġt atagal
ĠS aglit
Ġ ahaha
ĠI log
?âĢĿ ,
Ġ9 5
an to
un siyo
ĠH ah
AY S
B ib
han i
Ġhug ot
ograp her
ĠMem orial
S erbisyo
Ġt anggihan
Ġpro phylaxis
Ġha ving
Ġyum akap
upun cture
Ġsas ali
Kas o
Ġ199 8
Ġassist ance
ĠHangg an
Ġpr int
Ġnali lito
iev ement
Masturb ation
Ġh ude
ĠS ampung
Ġmag nitude
Ġkala wakan
Ġkabab alaghan
Ġis ulong
Ġam inado
Ġlip i
ID AD
Ġlead ers
Ġf inger
Ġpagt atanim
Ġpinag kaiba
ĠPangang alaga
ĠBrat z
Ġmagb unot
Ġbik timang
show thread
Ġs ust
Ġnags ipag
Ġhim ig
Ġaktib ista
N utrisyon
g el
ĠF ANS
Ġpinag mum
ĠRec to
y unal
ĠA IDS
Ġbak bakan
Dahil an
ĠProf essional
il om
ĠG inoong
ĠThe me
ĠSuper star
Ġbinabay aran
us ed
ĠA bangan
Ang el
ĠT ac
Ġpalig sahan
Ġgen ital
Ġkap a
Ġsus ubukan
Ġgra sa
ĠNang ungunang
ĠKid ney
at ikos
Ġla pis
ĠInd ya
umb in
Ġemot ional
. âĢľ
L imang
j oke
v et
ĠT ess
Ġpat ayan
Ġbar b
ataw aran
Ġ ungkatin
Ġpagpap aliwanag
Nap ap
Ġpina lala
Ġmap ahamak
Ġprovin ce
K ara
ĠC hange
Ġsak s
W ika
Ġpanda igdig
Ġkinau upuan
Ġm uka
ĠS now
Sa ad
Ġit apon
Ġpinakam ahirap
Ġmatut uloy
Ban dila
Ġprakt ikal
o ve
ĠM B
ĠEx change
Ġmagtat anong
Ġmasak op
Ġdeg ree
ĠAssist ant
lise um
Ġmali gayang
ĠElekt risidad
t arin
Ġdes cription
oster one
B ro
ĠM amam
Ġht ml
ĠTreat ments
Ġassist ant
ng iti
Ġn utrition
ĠR achel
Ġde le
ĠThe ater
ĠMap ap
Ġlar gest
Ġcommit ment
Ġk y
ure t
T iyan
Ġsum apit
F itness
Ġt san
Ġa ug
Ġbin uhay
Ġdraw ing
Ġkabis era
ĠPANGINO ONG
ĠP ink
Ġka gamit
Ġmensahe ng
Ġadminist ration
We ight
ĠT B
lis hing
Ġphys ical
ĠFlor es
Herb s
AGIN IP
K itang
Ġb ee
ĠK otse
ic tionary
ĠPinap agana
Ġupd ates
ĠClar k
k alat
Ġp izza
in itian
st ong
Ġfor ce
Ġpas abog
L ord
lim bag
ras s
Ġdum arami
ĠSum agot
Ġnil oloko
ulig sa
us and
Ġy lang
ĠPags ubo
ĠSing aw
ĠT el
ĠR EL
Ġsum ang
Ġgob yernong
Ġknow s
Ġind ependent
AND ANG
ĠS ons
Ġmar ine
Ġnaghah angad
Ġalp ha
Ġsi ks
ĠU y
aga ganda
ĠPamam agitan
Ġt aya
Ka ibigan
ulak lak
Ġtrap ik
Nili naw
Ġkaga gawan
ĠTril lo
OTOH ANAN
ro x
ĠT ower
ĠL ani
ĠSpe ed
M ari
S OD
in ition
in love
ise o
Ġmasis isi
e an
Ġw la
ĠB RE
R ich
Ġs ug
ĠCeleb r
Ġkin ita
Ġmapag anda
ĠIsrael ita
ĠTechn ology
9 7
Ġj ump
akap al
ĠWh itening
Ġdead line
ĠJonat han
L C
ĠKa alaman
Ġnangang arap
net h
Ġgall bladder
h iy
m ore
Ġ ahe
ĠS ig
Ġmis sion
ĠMan ang
ĠZ one
T ULOY
Ġang gulo
e in
Ġpagpap arehistro
PI OLO
Ġot oridad
S as
ĠW H
Ġhina t
Ġk ills
Ġpam pan
Ġimp ro
big la
ĠAy ala
9 5
P LE
U mi
p ung
osc ope
ĠVil lan
Ġr ide
Ġli naw
ĠðŁ Ĵ
Ġmagt ungo
Ġ ??
Ġnag text
Ġnakara raan
Ġkato liko
H ard
ĠS anaysay
Ġf al
Ġbinay aran
alam bot
te ll
Ġpo wers
Ġdi eting
ans k
Ġkel p
S ama
s ary
Ġib ong
ist rado
Ġbl ind
ĠCer tificate
Ġd ugtong
ĠM ensahe
ĠK ON
Ġmagk amali
Ġnagrer eklamo
ĠI v
Ġsum ampalataya
Ġw anna
qu in
ery l
Ġlo yal
Ġsub division
Ġkat atawanan
Ġph ase
ote o
Ġhih ingi
H ala
ĠH ol
Ġnagt agumpay
Ġmari juana
ĠBraz il
! ,
ã ģ
S ib
m ukhang
ĠKar era
mad ami
roso ft
Ġbilang go
Ipina hayag
Ġpanand alian
c ine
Ġmas ahol
em alaya
Ġkalak aran
Ġmag hahanap
Ġkas agsagan
n ep
ap unan
st ress
Ġmag pasok
N ob
ra ksyon
Ġg land
ad lang
ĠL IVE
Ġina antok
ue na
ĠRo a
Ġrit wal
c ers
d rama
ĠP ALA
Ġnag l
ĠEn erhiya
IK ITA
ĠEdu ardo
et ish
ama o
Ġpum ipigil
aran ta
Ġcal endar
ĠServ ices
j en
ĠAl in
ĠNak alimutan
ĠTra ining
ĠTO TO
b yu
Ġkan d
Ġpagkak ita
Ġtinat ago
Ġdis order
Ġlal ung
Ġna iyak
Ġf ed
ĠG OOD
ant ungan
Ġboard ing
ĠBaga man
Nagpap asalamat
s lide
Ġlum alag
Ġnags ilbing
Ġgaga ling
ĠDe ngvaxia
ahah ah
Ġla ct
ĠSt and
ak inabangan
inig yang
Ġnagpapat uloy
Ġcorrup tion
areg la
Ġp unan
ĠB rian
ĠNat han
ik sik
ip ikasyon
Ġnina kaw
ĠGina mit
ĠDO J
ĠAwst riya
Ġadv ant
Ġimah en
ĠT wo
Ġhina g
ĠK ITA
ĠW oman
Ġnagb ihis
ĠPan itikan
Ġsinasak yan
Ġk ris
ub uan
ĠKas alanan
ĠCo leen
ab is
alang in
inal ita
Ġpinans iyal
aledic torian
S ant
Ġm int
ĠPa uleen
u ah
ĠK un
alik abok
." ,
IP IN
Ġcons ider
ĠHin de
alib hasa
ĠMela i
ĠIb ina
Ġnab ib
imp alak
Ġdirek siyon
ĠPan lipunan
Ġnaa angkop
uw esto
pe likula
abay aran
ĠM esa
Ġpaghah ari
ĠFran co
Ġbib liya
Ġthin king
a api
ĠKap e
Ġitina go
ĠVal dez
Ġbakan teng
E sp
H mm
Y oga
ĠS ipon
ut ihan
lam bot
Ġkap atawaran
imp rove
la re
IG T
Ġak yat
ĠK apangyarihan
Ġup on
Ġpagla ganap
IL YA
av y
Taga pag
ĠLim ang
ĠL IT
Ġpagk alalaki
ĠMang gagawa
ĠKomb ucha
ĠB I
ĠAl though
alig tad
Th en
Ġsuh estiyon
Ġ \\
Ġt aliwas
Ġkina labasan
Ġp t
ĠMas sage
Ġpagkab abae
ĠBang samoro
Ġlif estyle
t abi
ram is
Ġfol der
ĠĠĠĠĠĠĠĠ ĠĠĠĠĠĠĠĠ
Ġ6 8
Ġsi rang
Ġqu ali
C Y
ap ela
Ġis inalin
ers ang
ng aw
ĠM ain
arm acy
ĠBer nal
Ġdit to
ĠA J
and ro
Ġkap istahan
Ġpags ubo
ĠRe id
Ġsho ck
Ġkw entang
Ġdek la
Ġpinamum unuan
ĠD roga
T ags
aw aran
Ġex act
lay ag
ĠAlex a
Ġsusp ension
Ġimp lement
Ġinirerek omenda
1 000
Ã ¼
Ġmab abago
our ce
ĠMad rid
anana liksik
Ġrid es
Ġgliser ol
ĠWork ers
ĠS eryoso
Ġkay at
Ġmab ili
ĠRe hiyon
ĠEh ipto
Me dikal
ĠHum inga
p alitan
uw entuhan
Ġbul wagan
ĠI rina
Ġpak awalan
ĠT aba
ĠI pap
Ġyol ks
Ġh ays
ĠCh erry
ĠDon na
Ġpalas yo
ĠWor ks
Ġser mon
Ġpanun ungkulan
Ġsa tin
ĠB angk
Ġda ing
ĠBro ad
impek syon
Ġteenag er
Ġsa wang
Ġkagamit ang
ur ihan
ep st
ĠNA B
lo b
Ġpagpap akilala
k ada
Ġbuh aghag
uso b
Ġma ili
Ġc p
Ġdina mi
lag yan
Ġara ling
la da
is hing
ĠD igmaang
ĠSec ond
ĠN est
Ġe banghelyo
et ic
Ġmap agp
Ġmakat arungan
Ġt alakayin
Ġc ause
Ġmagt utuos
ala yas
ali mang
ĠMala ya
ĠE gg
Ġsum asa
ren ica
ar chive
inis ing
Ma dilim
Ġresp ect
P ili
Ġpaglala pat
P ANOORIN
Ġmo uth
IL ALA
Ġt ent
Ġn eck
Ġpina ga
Ġkat anggap
Ec zema
ĠB ara
ast angan
j udi
Ġma apektuhan
Ġw ari
Ġdala win
ĠPang kulay
N ga
T UNGKOL
Ġnagb abalik
Nah ih
un ing
ĠPag pasok
ĠFred die
Ġpangkap ayapaan
Ġla ganap
ub i
Ġmar ried
Ġkaka usapin
ĠBab il
ĠTal ent
Ġcle ans
Ġalterna tibong
S wim
ĠS EC
ĠL ake
Ġdi v
Ġbre ath
ĠIsa ias
Ġpad in
ĠRey na
ĠMeg an
Ġbum ati
ĠZ anjoe
Herb al
L ive
ons umo
gy m
Ġli ga
win k
Ġdila an
Ġfo undation
irt ual
ĠTur key
ĠHeb reo
w apong
Ġmagsis ilbing
Ġmapat unayan
Y S
Ġres ponse
Ġbul bol
ĠContra ceptive
b lack
Ġkap isanan
Ġpinakam urang
iz z
Ġdes erv
,, ,,
Tin ingnan
bok sary
yan mar
Ġw ild
Ġnakap asa
ĠPe likulang
ĠPerm yan
ĠF E
Ġor dinan
ACT IVE
Ġcong ress
L ag
ĠL okal
Ġart s
ĠNap akas
AL L
UN AN
Kat utubong
ĠPugache va
D P
Ġh ubog
ong e
ĠB ol
ĠAK ONG
ĠPamam araan
ĠOc ampo
g uni
di nal
Ġj oy
uc tions
fo li
B ak
um uhay
ĠB es
ĠE N
Ġig lap
ĠS quare
ins ulto
M ust
Ġw rinkle
ad ama
ex ide
av ier
ĠPAG ASA
ĠBAG AY
Ġikin uwento
dec ide
Ġnakalili pas
Ġpan liligaw
oth ers
ĠNakaka inis
cus sion
Ġmarang al
Ġmab ib
Ġv io
Ġnagpap ahintulot
Ġbalan ce
Ġl uwad
ad ing
Ġpant s
a artista
Ġmal utas
> >
ĠNak uha
Ġbul kan
ĠNAG K
Ġeksper imento
ĠDali ri
imang ot
ĠB HB
ĠL esbi
Ġin utusan
Ġhapp en
ĠP aaralan
Ġhuk om
n ic
ĠP umili
ĠZ amb
Ġbal ot
ĠRes ources
Ip adala
ustans yang
O il
k ahan
ung gay
wit ch
Man ipis
Ġenhan cement
epst akes
ĠL av
ĠIsa ac
Ġsmart phone
or row
re lease
ĠD or
Ġpig lets
ila tion
ĠMas asabi
get s
Ġbr oken
Ġsup lemento
Ġfil ter
ĠHuk bong
Ġp inggan
ĠA vailable
pre h
ĠVilla ge
4 00
ĠF ord
Ġ7 9
ĠHold ing
pa ir
Ġbak od
Ġkar atig
ĠMags anay
ĠA licia
ĠKum usta
ikip ilipinas
Ġceremon y
L G
ĠAlc asid
Ġo v
Ġbe ets
Ġc hang
el yn
ht ag
Ġpe nalty
Ġpagp asa
Ġtamb alan
ĠN ilo
ĠT en
ĠT ig
Ġnap ang
!! "
ĠR ya
AR Y
ĠðŁĺ ¦
uts enko
ĠG riyego
Ġmap igilang
Ġsina dya
Ġbig o
ĠMak apangyarihan
b ukas
ot ic
ĠG all
Pag gawa
Ġnap alitan
i dic
ĠL ugar
aya o
alang kas
ill enn
Ġcomp ression
ren burg
Ġhude esh
6 39
ing ing
ĠCream pie
Ġess ential
Ġmagdam it
ĠPangkalahat ang
ĠS ek
ator yo
Ġnagngang alang
Ġmakab ayan
Ġhab ag
viv or
Ġb ibigay
ĠRos ales
Ġbel ly
Ġna ih
ĠH ubad
r ya
ab atid
Ġch est
orr ho
H S
kom bert
Ġtw ist
umbin si
al uhan
Ġmas aganang
ĠL utsenko
ek sp
Ġbig kas
rib ute
D E
Ġk re
ump ik
Ġmus lim
pana hon
ĠAdvert isement
re lax
Ġe pisodes
Ġban dila
Ġmana himik
ĠDo ha
Dali ri
ĠB UH
do or
Ġbat erya
erc ito
ĠAlex ander
IBIG AN
L ang
ak unahan
ĠN ana
Ġkag inh
ley ball
Puw et
S ci
le ast
AP IT
Ġinila an
Philipp ines
d anan
rat s
Ġne ga
t anaw
ĠM akailang
est ro
Ġina alok
Ġfe ature
Ina asahan
Ġhinahang aan
Ġkonsult asyon
k uya
Ġst rate
ĠPro ble
Ġbal uktot
ĠRob erto
Ġmak abawi
Ġbula las
Ġuna hin
Ġpags ang
Ġmasus ing
Ġt laga
alam anan
ĠM u
Ġmag dad
Ġapp lic
ĠKore ano
b ur
ug e
Ġpamp ulitika
cto my
vena ting
Ġh ihinto
Ġdin ilaan
Mag karoon
F eeling
ĠS uwero
ĠH erm
ino p
ĠDi on
nak aka
Ġbis ikleta
Ġref rig
ĠH awak
ĠElect ric
w ater
ĠKa ugnay
Ġsil k
Ġnagpapat unay
Ġidina os
w ikipilipinas
Ġt iw
he ast
alik ha
Ġpamb ihirang
Ġins tead
Ġpropes yon
Ġspons or
G ayon
ul ma
lab elled
iga san
Ġpagpapat ayo
ĠCirc le
Ġg ov
Ġpo li
cy cle
ida zole
ĠSp ot
ĠBaga ma
UNAWA AN
Ġis asama
ub ungin
mit e
Ġnoon time
ĠMAG K
Ġtiy uhin
ĠP ari
ĠW ish
Ġpas ta
any ayahan
Ġma iisip
ĠNag iging
him as
ĠMad am
i et
ka inan
Pag gamit
Ġ_ ____
Ġnagkak ilala
Ġevery day
Ġkey board
ĠOp era
ĠD umi
ana da
ura kot
AM IN
ĠN IY
ĠD og
el lan
ĠNA M
ĠIt inat
Ġschool s
ĠRes taurant
ĠPanana liksik
w id
Ġno urishing
gi ve
Ġsas ab
ĠUn labelled
Ġbat ong
s abihin
Ġnat ikman
ho u
ðŁ ĳ
Ġmababa it
ĠChe boksary
idi do
ĠK em
im i
Ġaw kward
Ġplan ning
O b
e v
ik lab
o ral
s awa
Ġk alan
ĠCo ver
ĠJan ice
N ar
Ġ os
Ġbar ley
Mab uhok
alag tas
p ala
Ġh aka
ĠH ero
ĠNak angiti
ION S
ĠMor eno
Ġb ear
Ġpag masdan
il era
Ġnak inig
ĠUl cer
Ġin de
Ġlum ag
Ġmalala pit
Ġinilala gay
K antutin
ĠB ALIK
ĠD ragon
Ġser tip
ĠAmer ikanong
Ġkaba nalan
Sh ampoo
H alik
Ġab dom
ĠIN ACTIVE
ĠSec tion
aw ran
ĠT ahanan
Ġnagp upunta
ĠEn chong
Ġroll er
S ine
f lix
aga an
una r
ĠLe ah
b ate
â ľ
Ġs ins
Ġnag ta
Ġpinang unahan
We ek
Ġmapay apa
T ony
Ġna itanong
Ġmay sakit
le vel
Ġch alleng
Ġbina ril
Ġcle ar
ĠOb ama
Ġpagp op
Ġdad ating
Ġpaga aral
ĠAgric ulture
S et
ĠAnd y
ĠQu irino
apat napu
Ġug oy
ri ona
Ġum angat
Tum alon
Ġimport ant
sex y
Ġdemok ratikong
Ġevac uation
e u
Ġis kolar
Ġkum panyang
ĠPro duc
Ġmatut ong
ĠChi z
ĠInf ection
Ġpina pak
aa ay
Ġcom plete
Ġor ch
Ġbe wang
ĠMo rales
press ure
Op erasyon
t ina
Ġnaglala rawan
ing ala
Ġad venture
ĠTaga l
ĠIt alian
Ġresp ond
impek ta
ĠHA IR
Ġlent igo
us s
ĠD P
ĠAb renica
Ġmai iwan
Ġwhat ever
G ay
as ko
alakas in
Ġkaw ili
ĠBe fore
ĠKon stitusyon
Ġ ong
ĠA ud
ĠO renburg
Ġmap ilit
Ġpul so
V IT
uw ede
Ġh d
il iti
Ġc ya
Ġsinas adyang
z za
un yo
Ġbit ak
erm ark
ĠK ustom
ĠVladi mir
Ġgiv en
en y
Ġal intana
ular yo
S W
Ġmas igla
19 99
Ġtur ok
Ġson nik
R ose
ĠM untinlupa
t weet
Ġis land
to uch
Ġcons umer
ĠTablet s
Y ER
Ġt alatang
ĠJer ome
Ġpray oridad
Ġm antika
IN IS
amang hang
Ġnapak ab
ĠMat thew
B at
Ġad dict
kili kin
didis impekta
Ġpamant asan
ay apa
AG A
Ġsuk i
M aria
Ġna ayos
Ġmay be
te ctomy
Ġreg ulasyon
Tum igil
Ġat ensiyon
or an
Ġf ur
Ġpap alitan
Ġorgan ization
Ġpay ment
ineb ra
li ze
ĠN ene
ĠT uwang
ukas uan
ĠMart ine
W ikang
ĠD ildo
Ġwrit ers
e o
en cies
Ġli ver
Ġlum ambot
mag ang
Ġtiy ahin
di al
ĠG ym
pat upad
Ġmags us
Ġma iba
Ġpagk apagod
Ġlab el
Ġnapak alaki
Ġinih ain
inag ulat
Ġbinit awan
or io
ĠB ossing
ĠF M
ri um
Ġuh og
lim an
Ġmap alad
Pag od
ĠCo liseum
S elf
w oman
Ġpang atlong
Ġmala b
ĠDis aster
ĠInd ustry
AB OT
h ubad
ar yong
ER AL
ĠAle j
I yong
c ere
o ra
Ġd ign
ĠT ot
As ul
ĠBb w
Ġmag reklamo
Ġf elt
Y ES
etro vsk
ĠNa varro
Ġnas asabi
Ġhum iling
Ġam onya
Ġ6 4
OR Y
rest ado
ĠBey b
ar ungang
ĠR ain
Ġnab ibilang
mon ya
Ġpampub liko
emat ika
ol ba
ĠMas ayang
lili pat
ĠSab ihing
pol itan
E at
ĠD nep
Ġoras an
Ġ6 6
Ġab uga
Ġmark ang
G el
â Ħ¢
Ġini ulat
Ġsat is
pag kain
Ġhih igit
Ġbold star
ver os
Ġb ible
ĠK atas
ĠAs ki
Ġdep artamento
cur rency
ĠImm igration
Ġb uni
ory ente
Ġna realize
ĠY east
Is ina
Ġantib ody
K IN
Ġko ment
ĠT ignan
ĠAt ay
ĠMa i
Ġkaw ayan
rop etrovsk
Mali naw
Ġmum my
Ġtak ing
Ġpis ong
ĠL iz
ran tiya
S ports
b rown
Ġna awa
ul f
Ġpar lor
Ġwa x
Ġmain tenance
asal ubong
Ġnamum uhay
s un
es y
ĠB asketball
Ġpagkakas ala
gina gamot
Ġtsan sa
ĠF ashion
ĠMo na
olo hiyang
Ġar ms
ugh aw
Ġexc iting
Ġblo ating
k en
Ġp ito
um ig
Ġj uan
ĠEm man
ĠCook ing
Ġd ue
ĠP alatandaan
ĠS ilangang
mum ukha
ĠRya zan
B londe
Ġf old
ht m
w anan
ing ibabaw
ĠV is
Ġbas her
Ġnina nais
Ġmat igil
Ġdah ilang
a ap
AN A
ĠHin irang
Ġprib ado
Ġmakis ama
% .
T alsik
c hain
Ġsup por
RIC S
Ġrati o
p rotesta
â Ļ
ĠK ANG
ĠJ R
Ġsim oy
ĠCo razon
iy ot
ese ta
Ġpatak arang
ĠLab is
huh ula
Ġinos ente
M agaling
na hin
ĠB LOG
P alakihin
v ive
mp re
uc lear
ĠMon th
Ġsiyent ipiko
L ike
pl os
II I
ĠB ILANG
IL E
ay unan
Ġt ali
ĠRes ults
ĠAlf redo
ĠN E
Ġsub cutaneous
Ġpinak ad
Ġl utuin
Ġhe aven
ump u
alub ilo
K ore
li lingkod
es te
aw ngaw
em ic
Ġlam bing
Ġwa ve
Ġd inal
Ġum ani
Ġmagt ago
Ġsing ilin
Y akap
ga san
Ġtumat anda
Ġsu gal
B ahala
S al
Ġg ma
ĠB uksan
ob y
Ġint ensive
Ġtama an
Ġ199 7
Ġna diskubre
ĠN ay
ĠMa dilim
Ġmonth ly
ĠAct ress
Ġmikroskop yo
in f
Ġtup arin
8 00
ina ryo
ĠMas ahe
ĠComm unications
Ġregar ding
Ġdi ary
ict ures
ĠFA Q
ug mok
Ġj et
Ġc reat
ĠW ATCH
umang on
Ġpinang anak
at andaan
Ġpag re
Ġmagp ost
Ġkapit alista
Ġt res
Ġta os
TE M
Ġm use
Pang ulong
Pang alawa
ĠHigh way
Ġconf ident
Ġcorrup t
Ġasignat urang
Ġm ention
ĠT AT
Ġpan yo
Ġpagkaka unawaan
f irst
Ġnap uno
Ġhigh way
Ġinih arap
reng th
Ġsa ve
Ġd ulang
Ġc old
Pag kat
10 4
Ġdist ansya
ĠH anap
IR ST
ĠH mmm
Ġkin ok
ĠHang ga
Ġsmo ot
ina w
Ġmas usuri
Ġnang ags
Ġnak abase
kak aloob
Ġpanin iwalang
S inas
Ġr andom
Ġsec tor
rec tion
L aging
M G
ĠP N
Ġgro cery
G ustong
Ġmal ulub
ĠMap alad
t ro
ĠEliz abeth
ĠGr upo
any aya
ĠAR MM
, ..
K ag
c bn
iy aya
Pang unahing
Ġnakah anap
ĠChristo pher
Ġpagb ukas
Ġtum anda
op in
kat awan
fe ature
Ġi in
al unok
Ġnak ilalang
Ġmak umpleto
Ġpat impalak
UNG SOD
P ayo
ĠD izon
ĠK ul
Ġmagka isa
ĠIN YO
Ġdumad ating
Ġcom une
Ġda ig
Ġipinag mamalaki
Ġh arms
ara da
Ġkap uluan
Ġpos tp
kuw entro
al op
ir re
Ġnagtat ampok
Ġans wers
ĠS ari
ĠW along
Ġnakab ili
Ġna ipon
ĠMa aga
ĠPub liko
ĠPS N
ĠBik ol
C K
N EW
m ado
ĠH akbang
ĠG erms
Kin ilala
ple ase
Ġmatat awag
Ġcons ult
il ugan
Ġak ma
Ġkat ungkulan
Ġdina d
ĠBar on
ĠL ear
ya na
ĠC alam
el li
Ġsina mp
Ġmags isi
ĠKon se
Ġpag jajakol
Ġnang anak
ran ny
ĠSwe epstakes
t ik
ĠD ance
ĠW on
ug utan
Ġnapap agod
Ġnamam alayan
ĠKAT OTOHANAN
Ġfibroaden oma
ĠD ry
Ġme ga
ĠAski ver
L ungsod
Ġmakis ali
ĠOrgan ization
Ġpro cessing
ĠAy ur
Ġbalak id
m ary
ut ismo
art ers
Ġpip ilit
Ġsign s
Ġp olo
ih am
Ġnapa isip
b ib
ar ma
ĠMag karoon
Ġch ap
ps is
inab ihan
Dok tor
fi eld
love team
ĠCas tor
Ġbuns ong
b ucks
Ġkas agana
ec han
ĠNat atangi
ĠJan et
ibers al
Ġkorap syon
Ġn lng
ĠN OT
ĠB ili
Ġkum ulang
Ip inas
Ġsaga na
ĠEspa Ã±ol
T inig
di se
Ġinf estation
ĠEj ercito
as ki
h aba
uh aw
US AP
Ġexc ret
Ġsumas akit
ĠVir gin
Ġga ra
we alth
s ta
Ġmak araan
Ġpala isipan
ĠPub likasyon
Ġnag po
ĠPAG T
ĠRog er
vot as
Ġik ak
Ġhon or
ĠWor kout
M ensahe
Ġin uming
and alo
Ġal one
Ġnamum ula
ĠMags aysay
ala hat
ĠS panish
Ġga ve
Ġcell s
Ġbless ed
ALAW ANG
' d
na man
ab road
ĠPag kas
Ġad just
Ġnin ang
Sin ong
kap aki
Ġmahiya in
Ġpresidenti ables
ĠM ALAMAN
ĠS DA
Ġpagb utihin
asan ib
ĠIt in
ĠRes olution
Ġtran sa
J ay
Ġmak ain
ch it
PM C
ĠWOR LD
ĠMOV IE
mpalat ayang
t ula
im tim
Ġc ongrats
ĠC ond
Ġe disyon
Ġsum ubok
ala lim
ĠI raq
r ine
y awan
ĠRes ulta
ĠKom isyon
ĠTrin idad
c in
ĠN abasa
ĠRe nato
Ġbuw aya
Ġmak aramdam
Ġtr ono
ĠMar lon
Mah ilig
rakt ura
- âĢľ
K umbaga
^ ^
ĠS yn
ik li
agp i
ĠR O
Ġmat alim
ilip ina
ks on
ĠKa utusan
ĠM ico
Ġun fair
Ġkaram i
Te aser
ĠBac olod
Ġjo hn
Ġinf lation
Ġrefrig erator
b ake
Ġma inst
ĠB enefits
Ġsup ot
ĠMAR IA
Ġkorpo rasyon
Ġbah o
y ab
Ġd ragon
Ġpet ite
ĠBIBL IYA
w s
an sing
Ġsin ira
Ġde lay
Ġsuliran ing
Ġs uck
ĠR ita
Mas ayang
ĠX xx
Ġhehe h
Ġga g
Ġmatut utunan
Ġnilili gawan
Ġsab ing
ayag pag
Ġhin ingi
ĠTum igil
UK G
oper ate
f ly
uk tor
ok ing
qu er
ĠMala bon
ĠMal inis
z in
ĠR est
Ġpagbab arilin
ĠTim oteo
UT AN
ĠDnep ropetrovsk
Ġa quino
In dian
ĠSup orta
Ġpagmum uni
as lang
Nag ising
ĠJo e
ĠCom edy
ĠAd dress
Ġmagm ukhang
Es say
Ġr ule
Ġop osisyon
in ilay
am bang
Ġpagb igkas
Ġdo ub
Ġda ily
ĠVal erie
am iss
Ġbum ilis
ĠIN TER
Ġih ip
S ore
Ġmak arinig
lan ta
Ġpa aralang
Ġh ikaw
nan dez
Ġpub likasyon
ĠGla iza
A FP
es el
ĠWik i
Mat indi
Ġginaga lawan
Ġs ulyap
and um
Ġmagb abalik
impek t
ĠT ema
Ġmali g
Ġl inis
ko uts
Ġmagb enta
ĠOF F
ĠMex ico
ĠSons hine
Ġexcret ed
Ġmas tectomy
Ġman ip
mb a
ĠKaka iba
na c
Ġde las
aliw alas
It ina
Ġpinat uyong
Ġpanan im
us unod
Ġpat ong
kan ta
K arap
Ġga ming
ĠPa alala
ĠBu od
ĠAns wer
diagn ose
aski ven
m alaking
ada anan
ru ct
Ġconfirm ation
E uro
m ukha
Ġang king
ĠMali bog
Ġlans ina
ay oko
Ġkab arkada
og uang
ĠY eng
Ġkag yat
Kas alukuyang
Ġnags eselos
Ġnakabab atang
Ġâĸ ·
ĠK M
Ġnagp alit
Ġham pas
Ġmalag kit
Ġi dad
gi es
Ġbut ones
ĠP up
ĠP ri
ĠT w
Ġmagk am
Ġd ra
ĠG ng
est inal
Ġnaglala gay
ĠPac man
Ġbilis an
ĠNAK AK
B otox
w ich
ĠG ilas
ob t
ĠAl Dub
ena s
ĠGu oguang
Ġsuppli er
et ch
Ġkak ah
ĠMah ina
Ġeng ag
Ġk apos
Ġmahirap an
Ġjour nal
ĠSAR ILI
Ġi ll
Ġwith draw
Ġmagd asal
Napak ahusay
Ġextra ct
t apat
ut uran
Ġtal ks
Ġm ukang
Ġw atawat
Ġnags ama
EL EC
Ġnegat ibo
y alan
ĠC ry
Ġlib ing
ĠJo jo
asak yan
pro duce
RI END
Ġnakad amit
Ġm ikos
am en
al uha
orm on
iz ens
Ġsecond s
n ect
Ġ able
âĢ¦ .âĢĿ
Ġa q
Ġtum ambay
hah atid
ĠMal olos
Ġd alisay
al yano
up grade
Ġpang kas
ED E
Ġhen eral
8 4
b ir
Ġas wang
ĠTim es
Ġnakas agot
Ġpinat ataas
Ġpaga sa
ĠT anya
Ġkatut uran
along a
ip i
ĠC raw
ĠEn teng
Ġw ood
Ġnang hih
ĠNat utuwa
ĠCla us
ĠTut al
Ġnanin iwalang
ĠALAM IN
Mag k
vest re
Ġbleach ed
ar uga
ir ts
ek o
Ġkab abata
ĠMon ica
.. ,
ĠF HM
âĢ¦ âĢ¦.
Ġres ibo
Ġnakab ukas
Ġng iting
Ġd ie
Ġpre vious
Ġnakas alubong
ID ENT
ĠUk ol
K M
R Y
p rom
AK E
N AS
ga mmon
ĠN YA
15 0
A abutin
ĠH ep
ungk at
Ġdep osito
pro blema
ĠHud yo
ĠBUH OK
a on
ar ok
Ġako y
ĠL es
Ġmala pitan
Ġnakak alipas
jen jo
G AN
ĠM ANG
Ġc el
Ġtim er
ih alubilo
Ġpag es
ĠW elcome
ons o
Ġkaba itan
Ġsa rah
Ġd ugong
ĠE co
Ġas an
era lismo
Ġsand o
Ġtup ukin
Ġray uma
S cript
ust os
lis asyon
Ġmi rasol
ure l
ĠWed nesday
ĠF redo
Ġas ar
eksp ress
Ġtum igas
Ġnas imulan
ĠGum amit
alul ungkot
b el
at ulan
Ġmat uklasan
Ġto yo
ĠAT M
Ġni p
ĠO PM
ff et
ruk tura
Ġkay umanggi
Ġdin ing
ins ang
Ġipina sa
lot te
x ic
Ġk ino
ula hin
ĠB ale
ary lle
Ġpapas ukin
ĠB OY
Ġnat en
Ġkap anahunan
ĠDoc umentary
Ġb ihis
Ġsh ip
?" ,
ĠOk ey
K AH
og urt
ramdam ang
ga yan
Ġhim as
Lab atiba
ĠLin da
J ob
ĠR io
Ġkat ha
Ġisip ing
Pang ang
Ġec onomic
l ines
le kt
do nate
ĠU b
ĠIs idro
rig ger
Ġpres o
Ġac adem
Ġpa it
ĠD onald
Ġbar n
ĠVic ente
ĠOrgan ic
Ġdiagn osis
ĠBarna ul
Ġbaga he
Ġro ut
Ġhina y
AHAH A
p aki
ga da
Ġnab iktima
ĠKap wa
le ans
Ġwe ather
Ġele ksiyon
Ġâ Ŀ¤
ĠBang ko
Ġpak is
ĠNak ab
ĠTaga y
ĠPop ular
or andum
ĠF lo
Ġbum igay
si gaw
b lood
Ġpah alagahan
Ġub usin
T om
ĠH uh
Ġnat igilan
ung aw
k ahulugan
Ġinst all
Ġcons istent
A sin
ĠS ugo
ub at
Ġab st
ĠNak araan
Ġtom ato
Ġbar ilin
Ta as
ĠTwitter Ibahagi
la hi
Ġnabi gasyon
ĠC yn
Ġtum unog
Ġsina ksak
long apo
Ġco verage
ĠAS D
na ment
Ġbuh os
ugh s
Ġk iwi
id lan
ĠC e
ĠG ali
Blog This
Ġna v
ĠN il
Ġres cue
ĠIto BlogThis
inab ahan
ĠKato lika
M IS
Ġsus unugin
uns ulta
pos ed
Ġdy ip
Ġf ix
Ġmas alimuot
Ġpanana bik
ĠLe v
Ġtho usand
isin umite
Ġatt ention
Ġmalab naw
N akas
ĠP icture
mpas in
ime dia
Ġves n
di git
ĠMag hanap
Ġkar ma
t am
ord ero
Ġlik idong
Ġhinah ayaan
uh usan
ĠE igen
ANS EL
N ILA
ĠM alala
ul os
Ġno vel
ĠTh omas
Ġhip nosis
b ully
Ġm r
ĠP ulang
ĠN umber
alang an
Ġkon teksto
.. ?
IN IG
Ġipap adala
U MA
an inag
Ġmas iguro
Ġip is
Ġjo ints
Ġseks ual
ĠTri al
impekt ahin
f an
m ataas
ĠAt ake
dala w
ĠComm and
aks aya
ĠP rimetime
ĠS ept
Ġopisyal es
Ġchant erelles
ver ify
Ġdam ong
ĠSil vestre
Ġlab abo
Ġisina ra
Mah ahalagang
Ġd raft
ĠN ili
Ġo xygen
ĠI vy
ir ulina
ĠLa ura
ĠPAN AGINIP
ĠY awe
ĠS ANG
ĠL ipunan
ext end
Ġbinab alak
D AHIL
ut ulan
ĠW AR
Ġmaga ga
Ġsal ubungin
F at
k ilik
p us
ic ose
ĠR ac
ĠDis ney
ĠBag yong
Tra disyunal
Ġsari wa
Sib uyas
ung e
ali bot
ĠUn cle
ĠNap oles
Ġkas ya
ma el
Ġpagla kad
pa z
Bab y
Ġcra ck
uri an
May nila
Ġpant as
iting an
Ġmalulub hang
A bangan
G alit
Ġma ang
Ġnap adaan
ĠMah alagang
Ġkolum n
T ING
ĠL E
Ġup coming
Ġpagpap akasal
Ġlum ubog
ĠCh loe
ĠBAN AL
ĠMult ip
B ulag
la ang
Ġkas osyo
Ġnat anong
Ġa abangan
Ġcont inue
umaga han
F O
aw ian
ĠP ing
Ġcont ribution
Ma ari
ĠRoy al
Ġmapay apang
Ġtherm al
D aniel
ul ungang
Ġla c
Ġpagt igil
Ġpinapas ukan
c or
ye ars
Ġkore a
ĠG awad
Nak uha
OM G
x el
ĠT ANONG
ĠDo uble
K alusugan
Ġl ost
pan loob
Ġsad ya
igas ig
Ġprovin cial
Ġpab ayaan
Ġsing ko
ĠP iliin
ĠPANG IT
ti fied
Ġcan did
ĠAc tor
Ġtaluk ap
uw it
Ġrep utasyon
Ġpagsis iyasat
Ġemploye es
Ġexpos ure
al dal
and ag
Ġex amples
Ġkatap usang
ĠCraw ford
ĠAc ne
DO H
ĠChild ren
ap is
Ġnak atapos
Ġre ference
Ġhab ambuhay
- )
ĠS USO
os eph
Ġart icles
ĠA ut
Ġmak es
ĠMil by
Ġrest awran
ĠSem enov
! ).
um usta
Ġpina patay
Ġsar ing
Ġhib la
lig pit
ĠInd ustri
- "
W ALANG
Ġpa lib
os er
Ġis lam
Ġum ikot
ect ure
BI Z
ĠTinig nan
Ġma upo
ĠAs awang
wak in
Ġber de
ĠEc onomic
IWAN AG
Ġb ored
K ump
Ġh urt
Ang e
Ġfor get
Ġtin uruan
ĠKailan man
Ġbunt ot
ĠC ed
Ġkum bins
Ġal itan
Ġpunto d
ĠB ulating
yo ma
ĠProbins ya
ĠLour des
ve la
UL IT
Ġnatut uhan
pin de
Ġnahuh uli
Ġpie ce
n ia
p uan
ĠB abaing
ĠIn umin
rat ic
no ong
mp ong
Ġpagkakas unud
C ebu
T alaan
Ġga mpanan
ĠL EO
PC SO
B en
Ġm ike
ĠB w
Ġher pes
Ġkaal yado
F lax
b ati
p ilipino
ah uli
ĠEn t
Ġbigla an
tel la
ĠS mith
ĠK unin
Ġag reement
eng e
ĠSen yales
Ġnabab ahala
Ġimposible ng
Ġvilla ge
ĠDOT A
Ġprogres ibong
I giniit
Ġna e
Ġla v
ĠH alatang
Ġreport ers
ĠDZ RD
ĠVillan ueva
yos i
onde na
P ala
P apa
Ġa v
Pag pasok
Ġth reat
ĠIn di
Ġwor kout
ĠKoval kova
ĠB ulong
Ġhum or
Ġnags ip
Ġch ik
ĠEm ma
ĠBU ONG
ĠJing goy
w aring
Ġf rozen
Ġas ide
Ġum ihi
Ġpart s
iv ing
Um iling
c ond
Ġlin yang
Ġnagkas ama
na b
Ġpo cket
Ġnab untis
fo x
ĠRE AD
ĠSeg uerra
uk risto
ĠD ona
Ġman yak
ĠKur sk
A mate
I ES
Ġr anggo
ĠG as
ĠKap anahunan
ero vo
Ġnat anggal
tor ney
Ġback gammon
Ġp laks
Ġpina dala
ĠE gy
Ġtum ambad
Ġmara ranasan
Ġbook mark
Ġfood s
t il
w elcome
ĠT uesday
hi es
Ġbak lang
kan to
ĠTra vel
lot s
Ġikuk umpara
H uli
ang ka
ĠNak atingin
ĠPagk abuhay
ĠAb by
Pagd yakol
Ñ ģ
mb ag
ER O
Ġkump are
bi osis
gi ving
Ġnakat alikod
Ġdumad aloy
Ġdip lom
Ġt uyot
ĠH an
alaga yang
ĠTum awag
ĠD own
Ġmagb ukas
Ġdiet ary
ĠF ights
Ġsh ut
Ġbel ow
Ġsulat in
Ġi a
Ġmak ulong
aks ak
Ġreli hiyos
R ES
Ġlala basan
Ġnags asaad
Ġproper ties
k id
at iran
Ġkal k
akas aysayang
Ġ9 81
ĠBula klak
Ġabuga do
h one
ĠS ayaw
Ġhum alik
alin uhan
Ġtatawag in
ĠTerm inal
9 2
Ġwas to
ĠPanda igdig
A ral
is ado
te fort
yan ig
ap akan
ub an
ĠNag hahanap
Ġkin ilig
Ġtal king
29 4
Ġs l
Ġhim p
Ġnagmam aneho
ĠJuli an
ĠTer or
ĠFeed back
Ġ ï¿½ï¿½ï¿½ï¿½ï¿½ï¿½ï¿½ï¿½ï¿½ï¿½ï¿½
ĠG at
Ġmak ahinga
ĠRay mart
Ġso lar
Ġbar yo
Pina p
UT H
Ġlumalag ong
uk tok
Ġmakapag pap
ĠAb ella
ful l
Sin undan
J er
K im
Ġpa yag
ĠT ESDA
Ġch icks
Ġpinags is
K araniwang
re ply
ĠL G
Ġpak it
ric h
Ġisas agawa
Ġh ulog
ĠG PS
Ġmad re
Pa ulit
pat awad
ĠMin istry
Ġnali gaw
Ġpinakas ikat
b uwan
Ġpa liit
ĠNa vy
Ġipinag diriwang
Ġmait at
des isyon
Ġkontrobers yal
ĠValen ciano
Ġpamam alakad
Ġsab agay
ĠAgu irre
ĠS top
Ġre hist
Ġlin en
Ġlider ato
ĠStud ent
ĠEigen mann
S ubukan
Ġmagk aron
ĠMag kak
ru cture
Ġbal bon
Ġras hes
c ular
Ġsin ugo
Ġal co
ĠL isa
Ġmapap a
Ġbox er
Ġmakit id
Ġb aranggay
en roll
Ġa f
ĠIn ila
lic t
ĠH AP
ub sob
di yos
Ġsin cere
Ġ6 2
ĠEx ercises
B oso
Ġt xt
ĠW AG
Ġmagpap ak
ĠBen episyo
ĠCaps ules
ĠDrug s
L along
ĠH Z
ĠE than
Ġa uto
ko hol
Ġpagsas ara
Ka ilangang
ĠMam aya
o or
re ens
Ġpang atlo
Ġnait ulong
Ġe lastic
Ġmat ris
Ġhe ar
Ġtr ending
Ġ6 7
ĠDist rito
ĠR it
Ġtra ct
An ino
Ġbl ond
Ġregi onal
ak bay
et ry
ent y
Ġsam antala
B ody
g on
ch or
AL OG
AT I
Ġrout ine
ĠP ilar
ĠKat ty
Ġnakah ubad
Ist ratehiya
G old
ĠL J
Ġe e
om bie
Ġp ir
ĠJ as
Ġesp irit
gi o
Ġkaga wad
imbesti ga
m ind
Ġmak s
Mag b
ĠP l
ĠH il
Ġkas ukasuan
Ġno v
ĠNag la
W in
Ġtag sibol
IR L
Ġsa c
ĠS E
Ġw ire
Ġmag n
ip lina
EK S
Ġpampan itikan
I pasok
Ġ aralan
Ġh ell
ĠP lano
ila butan
alik ot
Ġmagkas ya
ĠCB N
Ġman ligaw
Ġtum atang
atas ha
Ġestab lis
ig urong
Ġpagkab igo
A loe
ĠP DA
ĠA ki
ĠA lak
up ain
ari yan
Ġnakat utulong
ĠTerm s
% )
w akas
ĠPas ilidad
ĠPant asya
Ġfail ure
Amate ur
Ġt ight
Ġnak amamatay
ta ch
Ng uni
Ġcal led
ĠIng res
Ġkana yunan
li ance
ĠT AMA
mas ok
Ġhag danan
h mm
ĠS abagay
Ġnang asa
Ġa jenjo
IS IP
D R
er nak
ĠR enz
ĠJ UST
Ġâ ĺ
ĠHina likan
Ġtechn ical
Ġpinagp ala
ĠP ow
Ġreview s
ataw arin
b alikan
Ġs ungay
ĠP amantasan
ĠM US
ĠFab er
Ġnip ple
8 3
t ic
ĠB atay
Ġ199 9
ay amang
ans iya
Ġas ikasuhin
Ġmakaka usap
ĠFILIP INO
k k
ĠM AD
Ġw ays
ĠV I
ire kta
ĠMin ist
Pagt anggal
Ġnood les
Ġna aresto
ro lado
Ġpala ka
Ġber ds
ĠHar old
Ġtas te
S weet
ĠM ati
Ġnag lili
Ġpas ensiya
Ġshow ing
UT UWA
A hh
U UNAWAAN
Ġnag di
Ġpags ama
Ġso ul
Ġcon cept
Th esis
ĠPRO P
Ġadvant age
Ġmak intab
ĠWow owee
ĠEks hiny
Ġmithi in
u usig
en za
ĠI MP
Ġpap ayagan
Ġkakay anan
y rs
ĠS alonga
Ġin tra
Ġpa akyat
in te
wa ve
ĠY ugto
Ġ others
ĠH mm
Ġtele vision
Ġhuk ay
Ġstr ike
ĠDeb ates
m alapit
Ġun iporme
Ġab iso
ensi yang
ĠTe acher
fic i
B is
W elcome
Ġs ched
Ġsa vings
ĠH UWAG
cel eration
Ġhous ing
il ey
ĠMaga gandang
Ġma iwan
ĠK ahalagahan
Ġkah ila
Ġtumut ulo
Ipina kita
Ġfol lic
ĠP epe
ĠS elf
Ġkin umpirma
Ġra ce
n ote
Ġ ugnay
ĠH ater
Ġma ong
ina ting
ep s
ĠPina laki
Ġadv oc
Ġwhe el
ĠPamang kin
ga in
UT OS
ĠMic rosoft
imag sik
ant abi
Ġkab aligtaran
iv al
ĠR ica
ĠNang ang
Ġpray er
onc illo
u ulit
uh ano
Ġga los
ĠAg ham
D at
yo wa
no unce
Ġmaa alala
ĠV inegar
ĠBon us
W rinkle
ĠC AN
ug id
Pang inoon
isi ana
" '
V ic
Ġpang him
Ġthe e
Ġina alagaan
Ġmasas arap
ĠGen esis
lot rimazole
Ġnak ataas
ep ende
Ġend or
ĠAnn iversary
ĠCin emalaya
Ġp ulot
ĠF un
Ġsimula tors
ĠDem oc
B le
al ungat
ĠL anao
Ġ( @
Ġmak atakas
ti veros
ĠLe ga
ĠSangk atauhan
Ġanno unc
Ġt andem
ĠN CR
ĠO ther
C ong
ĠPag es
Ġhapp iness
s ment
ĠC lo
K al
M ong
d r
Ġpagt uunan
Ġpare ng
Ġmaila bas
uw aryo
ĠKa arawan
kain in
Ġ199 0
ĠProt ection
ĠS urg
to ral
sh ips
ĠDum umi
ĠK i
It in
Ġrun ner
Ġgis ingin
Ġpagt ataas
. âĢĶ
Ġt ask
Ġmags aya
ĠLEO VIT
F inal
y lang
IL Y
IG ING
ĠAg ustin
Ġlayo ut
ĠPin ilit
Ġbenep is
ĠKe an
ĠPok pok
Ġclim ate
E H
ab aya
umpis ka
opin yon
ng an
Ġmat atakot
ĠMat h
ĠTro y
ĠProm ise
N N
ali ang
ect s
Ġnagh anda
Ġinc ident
ĠPrins esa
Ġh em
ĠL igaya
Ġtat apusin
di lat
ĠS anay
Ġed it
Ġnagpap adala
ĠJo lie
Ġnakab atay
Ġwit hin
Ġhinahang ad
c s
ang er
ĠS EN
alis in
Ġa ura
ĠPagkak aroon
ĠLor na
S ab
v io
Ġkara nasang
ĠTo x
Ġkapit al
Ġprob isyon
Ġi i
Ġlum iwanag
ee e
ILIP PIN
Ġpinup untahan
ĠSAL ITA
Ġglo be
M Y
ĠO scar
ĠP ut
ĠA lar
ĠBen ch
ĠBabil onia
ĠM UK
ih it
Ġdes igner
kw entro
ernak ulo
on in
Ġta u
Ġexp la
ĠJos ue
Ġpand araya
Tr ue
og o
av es
tag po
ĠMaga zine
at hon
Ġsi kap
ĠC asa
Ġin ia
Ġpinakam araming
her ry
ĠM apa
Ġmas ungit
ĠE mbassy
nan t
Ġkar bohidrat
oder n
Ġtem po
Ġpagl ubog
Lar uin
l oko
Ġpang alanan
Ġtawag ing
Ġmagd esisyon
Ġexam s
ĠF all
oc ol
and ing
Ġpro of
Ġtra ding
US YON
ber ries
Pili Pinas
Ġs oc
ĠB ersyon
Ġre asons
Ġsitw asyong
Ġimag ine
Z A
Ġg ent
alan ang
Ġtri al
L okasyon
b less
Ġi y
Ġh ik
te ra
ĠMar s
Ġtit ser
Ġpangk araniwan
Ġipinat upad
ĠNa votas
Nang ang
Ġide al
ĠMap ulang
Ġmem ories
ĠMake up
L IM
Ġt nx
Ġpara iso
Ġfo lic
alahat ang
D alawa
Nag pe
Ar te
ĠTagay tay
D ONG
Ġl obby
ĠA ly
Ġmak atingin
can ang
ĠEm il
voc ado
H al
OS E
w il
Ġag enda
ĠOn ly
Ġmem orya
opat hy
op ol
Ġfre edom
ĠRem edy
ĠOr leans
pana bik
Ġnanging ibabaw
E very
b ow
Ġmaa asahang
ĠU R
Ġung goy
Ġsamp al
h ayaan
Ġbe y
Ġtula ran
Ġum ulan
ĠCh ito
pres yon
Ġlum utang
Ġcor por
Ġpinagmum ulan
ĠM ira
ĠT ib
co al
rit ish
ĠI dagdag
Ġpab ula
ĠNat uwa
Ġpre p
Ġneed s
P inang
Ġpan loloko
Ġid ini
Baga man
) ,âĢĿ
ab unan
ĠP ansin
Ġhe aling
nap ung
ON S
Nak alimutan
ĠM untik
ĠC iti
Ġkaga waran
Ġhost s
ugg est
Bre ak
Ġpa hirapan
ĠL amb
uko fa
se arch
ĠSub ic
Bin uksan
indik ato
t aman
uk lap
ĠB R
ud lot
Ġbir hen
stand ing
wim ming
ĠM oon
Ġmat h
Ġres ident
ĠB UM
Ġown er
ĠIsland s
ĠKem erovo
k u
Ġb ye
Ġn erv
lo c
ĠCar ol
Ġakus asyon
t alaga
Ġpet isyon
K ANSEL
os an
op isina
ĠPara iso
ret s
ĠLe gal
ĠSum ulat
Ġmant ra
Ġgall ery
Ġmaterial s
Ñ Ģ
Ġn ut
Ġpara gis
ĠP rime
ĠC rame
ist le
Ġleb el
Ġitin uloy
Ġdalaw ampu
ukofa zh
F riend
Ġa alaga
ĠRu fa
ay pay
and ed
J uli
Ġt anod
ap orma
ĠA so
amina tion
lat es
epek tibo
ĠBel ly
M IL
lik om
Paki ramdam
f ire
Ġna ila
la cion
Ġang kin
Ġc ulture
Ġbina ti
Sin ubok
Ġpakik iisa
w ah
up ag
ĠI CC
ĠPang it
Ġbro w
Ġikas al
ĠR as
Ġpagsas abi
con centrate
ĠESPIR ITU
S andali
m em
Ġum agang
ĠJan ella
Ġobserb asyon
ĠZamb ales
S AL
ag ra
Ġmag si
ĠF inancial
Ġpat ag
ĠNag kat
IY AK
ĠJohn ny
Ġarg umento
s alo
la yo
Ġk endi
Ġnag ba
Ġkag anda
Ġgo es
ares erba
Ġabdom en
t ali
re ach
ĠPang unahing
Ġlesbi ans
ĠK h
ĠL ower
Ġpat ulan
Ġeks klus
Ġali ekspress
Ġatta ck
Ġpalib hasa
p ia
ĠT ek
ĠD OK
Ġra in
B ath
ĠS id
qu it
Ġnagpap ahayag
Mask ara
Ay okong
ĠS itio
Ġr ib
ily n
RO M
Ġlag pas
ĠBir ch
Ram dam
ĠAd rian
ĠTod ay
Ġs orpresa
ili gan
ĠL aking
Ġsin ipsip
Ġad obo
AW AS
ĠPAG H
ĠâĢ¦ .
Ġpal usot
ĠPrinc esa
Ġaug mentation
unt on
ace a
Ġkalak ihan
ĠM aling
Ġsak an
ĠPR ESS
Ġi Pad
ĠRoc es
E lena
Ġw itness
Ġj elly
Ġnas an
Ġtal ents
Ġimb is
t hia
Ġsa ko
ĠSa f
Ġtal ga
Ġclass ic
T anggap
u ulat
ant ya
Ġout let
e vit
ĠM ULI
Ġpina kat
IN D
Ġsin imulang
ANGG AP
dig ma
K risto
W ork
IP INAG
Ġmagkat abi
Ġkinau ukulan
ĠGob yerno
Ġw ikipedia
Ġmak aranas
ep oy
Ġsasak tan
KANSEL ADO
Ġpar ke
Ġsum ilip
Ġnagbab antay
ĠPhil Health
abis uhan
ĠK ano
ik inig
Ġmali kot
Ġpinat unayan
Ġmir ror
Ġis inis
Ġkah atulan
ĠMa ayos
Ġpi ano
ihas nan
ar ilag
Ġw iki
he el
Ġhinih imas
t urn
Ġmag linis
ĠC hin
Ġtin ungo
Ġnatut uto
ĠSta v
== ==
W astong
h om
um entong
up itan
lo ban
olog o
Ġdi yag
Ġbaga l
Ġmagb abasa
Ġpilosop iya
c ustom
Ġna iwang
Ġkuw artong
Ġacid s
Ġann ul
ðŁĺĤ ðŁĺĤ
ĠM ix
Ġip as
Ġ6 3
Ġsep ar
Ġla hok
Ġmakak abili
EX T
Ġvib es
ĠP ictures
ĠM ormon
Ġguest s
ĠH R
ĠG ent
ĠPag hatol
Ġpas o
lic op
ĠArab ic
T ala
ug s
M ER
Ġt sik
ul tiv
Nak arating
Ġding gin
er teng
inig il
Ġhali ka
Kam akailang
Ġlear n
P al
b c
ung is
ig pitan
ĠG inebra
ĠRe f
RE D
ĠSup port
Ġnagmam ahalan
ved a
Ġsugg estion
ĠS co
Ġling o
Ġus ers
ĠBab alik
Ġwar ning
ĠS ad
ĠCirc les
ĠH acienda
atang kad
ĠTit ulo
ero id
Ġpinag lala
Ġgra des
OV ER
Ġfore igner
Pagtit istis
g rasya
Ġb untong
is yu
Ġl unti
ili ft
he va
Ġpina hahalagahan
ĠV aledictorian
art um
ĠPagkak albo
Ġadvert isement
onna ise
ĠM urang
Ġla dies
Ġf iles
Ġnas abat
Ġsc ribd
ĠPina kat
Ġprost ate
ĠK ry
ĠV iral
Ġdes idido
ĠTana uan
h alikan
ĠNg ipin
Ma is
Ġisin usulat
Ġpagkap analo
Ġalar m
pira cies
Ġpin iling
B LE
Ġkong reso
Ġnags ugo
pit ong
ĠTr ust
ĠMAR AMING
Hin ih
i ah
Ġp oder
apat an
Ġbiy ayang
Ġter min
Ġmasus unod
( (
ĠE th
ort ube
ĠNag kaka
Ġpagli lipat
H ANDA
la ch
Ġnag da
Ġnak alap
mas sage
ĠEx p
Ġinila rawan
Ġmister yo
ĠLou isiana
ĠM ans
en ital
ĠS olo
Ġsir uhano
Ġa alala
AR E
Ġdiyag nosis
ĠS unod
Ġu usap
Ġbang in
LE X
A ling
ĠS om
Ġnam im
ĠJ om
Ġpap ag
ĠZ ap
ĠSum as
Ġpregnan cy
Ġb ude
Ġpab ulong
Makat ipid
ĠP sych
we ight
Ġtamb ak
Idin irekta
ul ungkot
emb ly
Ġsh ampoos
ĠNAG B
Ġc ategory
Ġpan lala
An im
Ġexc use
Ġpinags amang
Q ue
ĠS eron
Inih aw
Ġprov ider
or ce
Ġc ha
ĠG astos
ĠNag mam
Ġ7 2
Ġshe et
s el
Ġma asim
Ġma among
as tian
ĠCh rome
Ġab us
Ġnagt ratrabaho
uah ua
Ġsin unog
Ġreg ion
ĠR IC
uko b
Ġa ud
Ġal ong
ĠPAG BAB
ĠN ie
Ġmo ra
Ġhum anga
crib e
h ub
Ġsp okes
WH AT
D amo
Ġto wel
Ġpagtat apon
Ġnakik is
ungga li
fy ing
Ġesc ort
Ġkinatat akutan
ĠY UN
Ġdis h
Magp akailanman
Ġp ests
Ġb otohan
ĠM alamig
Ġko mite
Ġpap alayo
ĠMang ga
M ani
Ġlala ban
Ġmakak ahanap
Ġte oryang
AB AY
Ġse lisilik
ĠWrit ing
âĹ ı
di retso
ĠCho ice
N AT
S uriin
ag uhin
ĠK inabukasan
Ġpang aral
ly rics
Ġsp o
ĠEn zo
Ġtit ingin
Ġmapag k
Ġmakap iling
ĠN iyang
Ġtum awid
Ġprogram s
ĠEx c
UR I
ĠFilip inos
Ġf ilibusterismo
ĠAg reement
Sin ubukan
ĠChar lotte
P ANG
ik ilos
ĠR al
Ġ6 1
Ġkinder garten
a i
Ġpang ulay
ĠCh ard
Ġ9 2
Ġmara rating
ĠAlf red
ĠBurn s
ĠG io
Ġling g
alast asan
Ġdign idad
d um
y r
Ġimp act
Ġde fault
ĠHel en
Ġnanun uod
Ġgiv ing
Ġpostp artum
d aling
Ġr ates
AL AT
Ġwhe at
ĠPAGKA IN
ĠF ara
Ġsuper star
sas alita
L at
S panish
Ġnak ali
ĠY ES
yos a
IR AL
Is ipin
ĠCa fe
Ġk iller
ĠT ris
Ġnags asama
pr oseso
Ġpali him
u ages
us yong
IK E
Ġnaglala bas
Ġtagas uporta
f lame
Ġstress ed
Ġmak iki
Ġun yon
ĠSem ana
ĠMel an
Ġtravel er
cell ular
K antutan
Ġp oly
Ġpagsus ulong
oses ong
Ġkomp etisyon
Dag ta
tat anong
Ġmagp aliwanag
ĠCam ille
m alay
Ġt uli
Ġi ho
Ġmag tagal
Ġf ir
Ġpagli litis
âĨ ĳ
Ġuma asang
ĠGR N
Ġh uwad
ĠA iko
rim inasyon
kab ilang
ĠAga in
Ġadv ise
L ife
Ġg lad
Ġli pat
ress es
Ġbab agsak
Ġinter face
Ġmatat amis
Ġtagapag p
ent ed
Ġmap igil
Ġbina likan
Ġsam bahayan
let ter
esis yunan
ĠNIL ALAMAN
ĠDaw n
ab uloy
Ġmat ipid
ĠAl d
Ġgayun paman
ĠR isk
Ġa von
ĠU g
tan ce
Ġel lip
p olit
ĠP ros
Ġhair s
Ġapp ear
anna h
L umang
Ġlin ks
ĠSIN AS
loy ment
Ġt erbinafine
ir erek
ining il
alk er
Ġit uwid
oso wa
Ġcan teen
ĠIg na
Ġl ant
ĠS imulan
ib i
pek syon
ĠAg usan
ĠRec ords
D om
ĠB uena
ĠL ust
Ġmak inabang
Ġcompla int
ĠM yanmar
ĠD rew
Ġengine er
a udition
Ġb ans
Ġet its
Ġpanatili hing
ĠKul ugo
e ons
li sa
erb y
pe at
zb ach
ka ilan
Ġto ok
ist ulang
?! ?
ĠNah uli
ess ert
Ġmatut upad
bis po
Ġfr ust
P ac
Ġg unita
ĠY EAR
Ġres erv
ĠPagtit ipon
M AK
im entel
est ra
ĠMetro politan
Ġspe ak
alip ik
J apan
and als
era dor
lar uan
ĠRes pons
Nat utuwa
ĠLANG IT
Ġhigan teng
G G
In iwan
Ġrenew al
I dinagdag
b uk
Ġs indikato
ĠR ama
Ġkak as
ĠPags ulat
g ising
ĠR F
Ġsp am
Ġput ahe
Ġtab ernakulo
ĠBryan sk
ĠPANGINO ON
ĠMay be
uga ling
Ġest rogen
Ġpagp anaw
Ġsub ukang
isturi zing
ĠON E
Ġi ibigin
es ome
ĠR ice
Ġpang kamay
.... "
Um abot
ĠCommon wealth
g s
ĠL TFRB
Ġpum apat
mas id
Ġmaga lang
P uso
Ġp uksain
Ġd ys
ĠH alaman
ĠNA P
mat ure
Ġnil oko
ĠPagkaka iba
Ġsint uron
w en
Ġh ingin
Ġdi uret
Ġj am
Ġclean sing
Ġb aling
ĠK APATID
Ġmaa alis
Ġlo ver
Ġpar usahan
ĠPer fect
hina yang
T reat
an hin
al intulad
Ġkat alinuhan
uc umber
urt zbach
Ġlaw yer
Ġcub icle
m aga
um anay
Ġob ispo
ĠTrans formation
ĠKAT OL
Ġpamam ahayag
ĠCommission er
yon on
ĠSam akatuwid
osc opic
CP D
Ġnakakapag p
Ġ ]
ĠD igmaan
lam bing
Ġof w
ks hire
Ġnah awa
Ġd aya
ip ing
arin lan
Ġeksak to
ĠNazar eno
s top
uh ol
ĠB ron
ĠG iant
Ġand ami
Ġik atlo
UL AN
low s
ĠLum ikha
Ġmaki alam
t ika
Ġh urado
Ġner biyos
m alakas
Ġwait er
ap id
ĠA GA
Ġpat alim
Ġmakak amit
ĠDZ MM
ĠT ags
ĠD ek
ĠRam say
ĠCo ck
Ġnakap anood
book s
ĠBin ib
ĠBil hin
Ġhah ahah
Ġkalak ip
Ġex it
Ġdri vers
P agalingin
ĠT alaan
ĠF ULL
ĠY aong
Ġmin sa
Ġpas anin
lay er
Ġpagsas ayaw
Ġyum uko
ra ge
ĠCu yonon
Ġinvit ro
A lin
Ġd ressing
ip ped
Ġakala ing
uh i
tor bo
Ġqu ot
ĠSout heast
A udio
Ġpinag bigyan
ALAG ANG
Ġach ievement
u ce
14 1
Ġmil yun
N aga
ĠM ilan
ho on
ind alawang
Ġpin irmahan
ĠMas bate
Ġpamb ab
Ġpul gada
comm end
ĠVan essa
f r
s imple
ĠS inis
Ġc rime
lim ited
Ġnot es
Ġjo int
Ġpangh awakan
ĠN atasha
ĠV ac
ric ia
Ġprot osowa
P aalala
ram ing
uli d
ĠMag b
ĠCom ments
rop ol
ĠZe aland
Ġpipilit in
B al
Ġs ilya
Ġlam bot
Ġmags imulang
ĠPas s
ĠCla ire
Ġdim exide
NAKAT UTUWA
F oot
ĠP USH
ih uahua
AR T
Ġpint uang
Ġmab ahong
Pag taas
Ġgina mpanan
Ġlum isan
AH O
ĠMab untis
Ġvit amins
u entong
and e
Ġlum ilikha
Ġbak at
K w
N e
l via
Ġpagb atayan
Ġkah alaga
int uang
Ġbil ling
Ġp ract
aka ila
ĠPh one
Ġbal on
Ġmil itan
Ġin v
ĠW ILL
y enda
ĠK arylle
ro vers
Nag mamahal
Ġsub o
ĠSc reen
Ġnamam agitan
ĠBong bong
ĠG wapo
Ġgina ganap
Ġres to
Ġsik olohikal
Ġnag luluto
Ġmat alinong
Ġpro paganda
Ġwor kouts
ĠKen neth
Ġmangang alakal
Ġd ede
ĠT ree
ĠC um
ĠCh ad
ĠMak alipas
Ġdis impektahin
Ġnakaka aliw
Ġpamp alaglag
d rink
up ak
Ġc row
Ġpinag masdan
Ġ199 5
ĠN ame
ĠK u
Ġkat in
Ġpar usang
Ġ19 05
Ġmy embro
ym bianize
Pang ako
eff ort
Ġnilag daan
G AM
Ġila yo
Ġum ubo
ĠMa Arte
Ġcan not
ĠAnge lina
mir er
ah alang
Ġnil uto
Ġinterest ing
Ġsumasak law
y ur
ung atan
ĠT as
ĠNag lakad
ĠJo na
Ġpal pak
ĠAst ig
Ġkit chen
Ġdan cer
Ġsugg est
ĠD aria
aa aah
unti e
ĠS ILANG
Ġa udition
ĠBud get
Ġh ind
ĠP is
Ġl ane
Ġpagk alkula
ĠG ue
ers ey
ahal intulad
B u
on ic
Ġex foli
cy lic
lag daan
[...]
