{"<|endoftext|>":0,"!":1,"\"":2,"#":3,"$":4,"%":5,"&":6,"'":7,"(":8,")":9,"*":10,"+":11,",":12,"-":13,".":14,"/":15,"0":16,"1":17,"2":18,"3":19,"4":20,"5":21,"6":22,"7":23,"8":24,"9":25,":":26,";":27,"<":28,"=":29,">":30,"?":31,"@":32,"A":33,"B":34,"C":35,"D":36,"E":37,"F":38,"G":39,"H":40,"I":41,"J":42,"K":43,"L":44,"M":45,"N":46,"O":47,"P":48,"Q":49,"R":50,"S":51,"T":52,"U":53,"V":54,"W":55,"X":56,"Y":57,"Z":58,"[":59,"\\":60,"]":61,"^":62,"_":63,"`":64,"a":65,"b":66,"c":67,"d":68,"e":69,"f":70,"g":71,"h":72,"i":73,"j":74,"k":75,"l":76,"m":77,"n":78,"o":79,"p":80,"q":81,"r":82,"s":83,"t":84,"u":85,"v":86,"w":87,"x":88,"y":89,"z":90,"{":91,"|":92,"}":93,"~":94,"¡":95,"¢":96,"£":97,"¤":98,"¥":99,"¦":100,"§":101,"¨":102,"©":103,"ª":104,"«":105,"¬":106,"®":107,"¯":108,"°":109,"±":110,"²":111,"³":112,"´":113,"µ":114,"¶":115,"·":116,"¸":117,"¹":118,"º":119,"»":120,"¼":121,"½":122,"¾":123,"¿":124,"À":125,"Á":126,"Â":127,"Ã":128,"Ä":129,"Å":130,"Æ":131,"Ç":132,"È":133,"É":134,"Ê":135,"Ë":136,"Ì":137,"Í":138,"Î":139,"Ï":140,"Ð":141,"Ñ":142,"Ò":143,"Ó":144,"Ô":145,"Õ":146,"Ö":147,"×":148,"Ø":149,"Ù":150,"Ú":151,"Û":152,"Ü":153,"Ý":154,"Þ":155,"ß":156,"à":157,"á":158,"â":159,"ã":160,"ä":161,"å":162,"æ":163,"ç":164,"è":165,"é":166,"ê":167,"ë":168,"ì":169,"í":170,"î":171,"ï":172,"ð":173,"ñ":174,"ò":175,"ó":176,"ô":177,"õ":178,"ö":179,"÷":180,"ø":181,"ù":182,"ú":183,"û":184,"ü":185,"ý":186,"þ":187,"ÿ":188,"Ā":189,"ā":190,"Ă":191,"ă":192,"Ą":193,"ą":194,"Ć":195,"ć":196,"Ĉ":197,"ĉ":198,"Ċ":199,"ċ":200,"Č":201,"č":202,"Ď":203,"ď":204,"Đ":205,"đ":206,"Ē":207,"ē":208,"Ĕ":209,"ĕ":210,"Ė":211,"ė":212,"Ę":213,"ę":214,"Ě":215,"ě":216,"Ĝ":217,"ĝ":218,"Ğ":219,"ğ":220,"Ġ":221,"ġ":222,"Ģ":223,"ģ":224,"Ĥ":225,"ĥ":226,"Ħ":227,"ħ":228,"Ĩ":229,"ĩ":230,"Ī":231,"ī":232,"Ĭ":233,"ĭ":234,"Į":235,"į":236,"İ":237,"ı":238,"Ĳ":239,"ĳ":240,"Ĵ":241,"ĵ":242,"Ķ":243,"ķ":244,"ĸ":245,"Ĺ":246,"ĺ":247,"Ļ":248,"ļ":249,"Ľ":250,"ľ":251,"Ŀ":252,"ŀ":253,"Ł":254,"ł":255,"Ń":256,"ng":257,"ang":258,"Ġs":259,"na":260,"Ġm":261,"Ġp":262,"an":263,"Ġsa":264,"Ġna":265,"la":266,"Ġk":267,"Ġpa":268,"Ġng":269,"at":270,"ga":271,"in":272,"ay":273,"it":274,"Ġang":275,"Ġb":276,"Ġma":277,"Ġt":278,"ra":279,"li":280,"Ġmga":281,"ak":282,"ing":283,"Ġi":284,"as":285,"on":286,"ala":287,"Ġn":288,"Ġd":289,"ag":290,"Ġh":291,"ong":292,"Ġpag":293,"er":294,"am":295,"ung":296,"al":297,"Ġat":298,"ah":299,"ab":300,"ar":301,"ap":302,"um":303,"es":304,"il":305,"Ġpara":306,"aw":307,"di":308,"ya":309,"ina":310,"is":311,"âĢ":312,"or":313,"us":314,"ĠP":315,"Ġl":316,"Ġay":317,"ĠM":318,"Ġni":319,"ĠA":320,"en":321,"Ġko":322,"un":323,"Ġsi":324,"re":325,"ĠS":326,"Ġak":327,"..":328,"ot":329,"os":330,"Ġis":331,"ula":332,"ito":333,"ano":334,"uh":335,"ul":336,"uk":337,"Ġla":338,"ig":339,"Ġw":340,"ib":341,"im":342,"Ġg":343,"ok":344,"ut":345,"up":346,"Ġkung":347,"Ġmag":348,"ĠN":349,"indi":350,"ĠK":351,"ali":352,"ro":353,"ĠB":354,"ara":355,"Ġisang":356,"to":357,"yo":358,"ad":359,"Ġc":360,"Ġmay":361,"ili":362,"Ġnag":363,"Ġako":364,"Ġkan":365,"ĠT":366,"Ġlang":367,"alam":368,"ik":369,"Ġo":370,"ata":371,"ĠD":372,"Ġka":373,"Ġnam":374,"bang":375,"Ġf":376,"Ġga":377,"Ġmo":378,"yang":379,"Ġmas":380,"ĠI":381,"le":382,"aba":383,"Ġta":384,"and":385,"Ġhindi":386,"Ġbuh":387,"ana":388,"ol":389,"ur":390,"yon":391,"ed":392,"id":393,"ĠH":394,"ip":395,"ĠL":396,"Ġito":397,"ĠC":398,"ilang":399,"Ġtim":400,"Ġup":401,"te":402,"od":403,"Ġnak":404,"Ġe":405,"ub":406,"ta":407,"Ġupang":408,"Ġpaano":409,"Ġpagk":410,"Ġr":411,"Ġtimbang":412,"Ġre":413,"Ġkay":414,"ic":415,"el":416,"sa":417,"ĠG":418,"Ġbuhok":419,"om":420,"yan":421,"sing":422,"Ġ(":423,"lo":424,"Ġnaman":425,"ĠâĢ":426,"ita":427,"aga":428,"alamang":429,"uw":430,"...":431,"ac":432,"Ġmak":433,"singaw":434,"he":435,"Ġniya":436,"Ġ2":437,"Ġin":438,"ĠR":439,"et":440,"Ġ1":441,"ent":442,"Ġmula":443,"Ġkas":444,"ih":445,"Ġy":446,"una":447,"Ġhalamang":448,"Ġpam":449,"orm":450,"âĢĿ":451,"ir":452,"ug":453,"pap":454,"Ġpang":455,"ila":456,"Kung":457,"Ġnang":458,"dib":459,"Ġpo":460,"uko":461,"Ġsiya":462,"ibdib":463,"mot":464,"ti":465,"ahil":466,"Ġpina":467,"yong":468,"wa":469,"Ġparas":470,"Ang":471,"Ġpagb":472,"uso":473,"Ġdibdib":474,"ki":475,"ero":476,"lim":477,"Ġkam":478,"hat":479,"ĠE":480,"Ġkat":481,"Ġba":482,"ie":483,"ha":484,"ĠAng":485,"apos":486,"ari":487,"Ġli":488,"âĢĻ":489,"Ġmata":490,"ob":491,"ino":492,"Ġrin":493,"Ġdahil":494,"ĠW":495,"bi":496,"Ġkanyang":497,"Ġkuko":498,"ek":499,"ĠJ":500,"Ġmask":501,"em":502,"Ġit":503,"ĠF":504,"alaga":505,"alan":506,"Ġ-":507,"Ġib":508,"Ġtao":509,"Ġdi":510,"alang":511,"ati":512,"ulo":513,"Ġnat":514,"st":515,"Ġworm":516,"Ġkap":517,"Ġmat":518,"AN":519,"Ġmala":520,"âĢľ":521,"aka":522,"res":523,"dag":524,"Ġano":525,"Ġmaw":526,"no":527,"ama":528,"anda":529,"ant":530,"ram":531,"ĠO":532,"vie":533,"Ġpagga":534,"lang":535,"ka":536,"itan":537,"ers":538,"awa":539,"Ġbag":540,"Ġpagpap":541,"Ġdin":542,"Ġlahat":543,"ine":544,"Ġsuso":545,"ho":546,"ukha":547,"Ġmah":548,"ri":549,"Ġpro":550,"Ġnga":551,"ilip":552,"do":553,"view":554,"aya":555,"Ġbula":556,"ling":557,"akit":558,"Ġnila":559,"alis":560,"Ġyung":561,"Ġ20":562,"Ġpamam":563,"ter":564,"Ġmab":565,"Ġpagbaba":566,"ec":567,"ve":568,"Ġmali":569,"Ġto":570,"Ġmukha":571,"Ġbata":572,"iw":573,"ayo":574,"araw":575,"ĠâĢľ":576,"ĠPag":577,"Ġila":578,"mp":579,"iy":580,"oon":581,"ahan":582,"ating":583,"mit":584,"Ġreview":585,"Ġan":586,"Ġum":587,"apat":588,"Ġpaggamot":589,"Ġbulate":590,"Ġiyong":591,"Ġmaa":592,"Ġmap":593,"lam":594,"usto":595,"Ġkaya":596,"ĠSa":597,"Ġpala":598,"les":599,"Ġparasito":600,"hi":601,"âĢ¦":602,"Ġkah":603,"Ġa":604,"uha":605,"ayan":606,"Ġnito":607,"Ġpana":608,"Ġbah":609,"gay":610,"Ġkasi":611,"asa":612,"ungk":613,"ma":614,"atapos":615,"est":616,"Ġsila":617,"awala":618,"ĠU":619,"ulong":620,"Ġwalang":621,"Ġngay":622,"Ġlo":623,"gang":624,"ans":625,"Ġkum":626,"Ġaking":627,"Ġof":628,"win":629,"Ġparasit":630,"ko":631,"alik":632,"Ġilalim":633,"Ġkong":634,"Ġpaa":635,"Ġthe":636,"Ġkab":637,"Mga":638,"IN":639,"inas":640,"Ġpero":641,"log":642,"ce":643,"og":644,"int":645,"abae":646,"awan":647,"ment":648,"Ġlab":649,"Ġakong":650,"Ġpar":651,"alat":652,"rap":653,"ial":654,"han":655,"Ġaraw":656,"go":657,"Ġv":658,"syon":659,"ibig":660,"ura":661,"arap":662,"ck":663,"Ġman":664,"unt":665,"raw":666,"aring":667,"abi":668,"ep":669,"Ġtaon":670,"Pag":671,"Ġlam":672,"ĠV":673,"Ġ3":674,"alaki":675,"tor":676,"Ġpags":677,"Ġ201":678,"Ġmagk":679,"Ġgina":680,"Ġiba":681,"Ġam":682,"Ġngayon":683,"Ġtum":684,"ch":685,"Ġtalaga":686,"art":687,"ain":688,"Ġbabae":689,"Ġwala":690,"Ġnap":691,"Ġip":692,"ilangan":693,"ĠâĢĺ":694,"Ġbum":695,"Sa":696,"atang":697,"Ġmaliit":698,"Ġdito":699,"abang":700,"Ġ\"":701,"Ġsaan":702,"wang":703,"ist":704,"Ġkami":705,"Ġkanilang":706,"Ġas":707,"ust":708,"Ġpagt":709,"oy":710,"ation":711,"Ġakin":712,"Ġlum":713,"anak":714,"Ġmawalan":715,"Ġfac":716,"Ġparasites":717,"ungkol":718,"gal":719,"si":720,"ort":721,"Ġkatawan":722,"ate":723,"dagan":724,"ht":725,"nan":726,"kas":727,"uli":728,"ming":729,"Ġisa":730,"one":731,"Ġand":732,"ye":733,"Ġalis":734,"king":735,"Ġalam":736,"ins":737,"ĠHindi":738,"Ġpagkatapos":739,"ihin":740,"ly":741,"ihan":742,".âĢĿ":743,"Ġgum":744,"uro":745,"kam":746,"Ġno":747,"eb":748,"op":749,"agitan":750,"ud":751,"Ġkanya":752,"Ġnamin":753,"oc":754,"Ġlala":755,"Ġbuhay":756,"Ġlangis":757,"Ġpamamagitan":758,"ĠKung":759,"Ġpos":760,"ide":761,"dia":762,"Ġsp":763,"Ġsak":764,"Ġpagkawala":765,"Ġsum":766,"end":767,"und":768,"Ġpat":769,"usay":770,"ask":771,"Ġbahay":772,"Ġpagpapalaki":773,"!!":774,"era":775,"Ġlamang":776,"00":777,"oto":778,"Ġpum":779,"Ġeh":780,"Ġnatin":781,"ulat":782,"ĠMga":783,"ulang":784,"ĠY":785,"ast":786,"Ġmong":787,"Ġtungkol":788,"Ġpres":789,"Ġsab":790,"ĠAt":791,"ras":792,"Ġsina":793,"iti":794,"Ġsin":795,"AL":796,"Ġtaong":797,"apag":798,"Ġdala":799,"gawa":800,"Ġhang":801,"uti":802,"anan":803,"anong":804,"Ġmang":805,"Ġgusto":806,"are":807,"ento":808,"asan":809,"uan":810,"Ġbilang":811,"dam":812,"ry":813,"uri":814,"Ġgamot":815,"Ġmaaaring":816,"ex":817,"ess":818,"ulad":819,"ĠAn":820,"ver":821,"ilis":822,"Ġmawala":823,"Ġbalat":824,"aling":825,"aral":826,"Ġalisin":827,"Ġfor":828,"nal":829,"Ġyo":830,"man":831,"Ġti":832,"da":833,"Ġkahit":834,"Ġmaging":835,"ity":836,"Ġbit":837,"aano":838,"Ġgan":839,"Ġdapat":840,"AG":841,"ika":842,"ream":843,"iya":844,"th":845,"Ġbaw":846,"ANG":847,"Ġik":848,"Ġon":849,"ow":850,"ens":851,"Ġal":852,"asyon":853,"NG":854,"Ġloob":855,"ĠPang":856,"Ġtayo":857,"ĠMay":858,"rin":859,"sang":860,"Ġkapag":861,"Ġnasa":862,"pas":863,"ulit":864,"qu":865,"hon":866,"Ġsar":867,"tion":868,"Ġmaram":869,"Ġth":870,"Ġnya":871,"Ġpan":872,"Ġpinakam":873,"Ġst":874,"com":875,"bah":876,"AT":877,"unas":878,"Ġibang":879,"Ġ5":880,"eg":881,"usap":882,"Ġun":883,"Ġhe":884,"uga":885,"pat":886,"Ġsarili":887,"Ġina":888,"Ġanak":889,"ede":890,"Ġnags":891,"Ġparaan":892,"Ġmakak":893,"Hindi":894,"isip":895,"ĠPilip":896,"mb":897,"Ġtiyan":898,"Ġniyang":899,"ago":900,"able":901,"Ġyun":902,"ĠIn":903,"Ġj":904,"Ġkina":905,"Ġbago":906,"uloy":907,"Ġha":908,"lig":909,"aroon":910,"iging":911,"ery":912,"Ġlaban":913,"pek":914,"se":915,"hah":916,"de":917,"Ġpagla":918,"Ġ0":919,"Ġilang":920,"Ġsiyang":921,"bo":922,"Ġ4":923,"ff":924,"Ġkayo":925,"agi":926,"uhay":927,"urg":928,"uhan":929,"ris":930,"lik":931,"Ġgaga":932,"Ġpanahon":933,"andang":934,"Ġbaga":935,"ard":936,"ilala":937,"Ġating":938,"atay":939,"Ġban":940,"Ġ'":941,"ideo":942,"Ġdag":943,"Ano":944,"Ġbin":945,"ĠMag":946,"Ġac":947,"Ġpagkak":948,"pit":949,"Ġpinag":950,"ia":951,"ato":952,"ice":953,"Ġkamay":954,"'t":955,"unod":956,"unta":957,"Ġme":958,"ure":959,"ĠNa":960,"ore":961,"Ġgawin":962,"Ġ_":963,"hin":964,"Ġkang":965,"Ġnab":966,"amp":967,"Ġmags":968,"Ġnoong":969,"AY":970,"Ġimp":971,"Ġsabi":972,"iz":973,"rawan":974,"Ġbu":975,"Ġnakak":976,"ible":977,"Ġpas":978,"Ġdaw":979,"ĠSA":980,"igay":981,"ind":982,".\"":983,"Ġpresyo":984,"Ġpap":985,"ĠDi":986,"ont":987,"ugan":988,"unan":989,"ite":990,"bas":991,"Ġpr":992,"Ġhanggang":993,"Ġhabang":994,"ew":995,"Ġtra":996,"ĠNag":997,"iar":998,"Ġkailangan":999,"irap":1000,"Nag":1001,"Ġbakit":1002,"ue":1003,"mas":1004,"anay":1005,"pag":1006,"Ġnas":1007,"Ġfacial":1008,"ear":1009,"Ġdum":1010,"lan":1011,"Ġtaba":1012,"limming":1013,"unit":1014,"ran":1015,"ĠNg":1016,"iardia":1017,"ahusay":1018,"aa":1019,"Ġdam":1020,"anap":1021,"Ġmaaari":1022,"utin":1023,"Ġ:":1024,"uksa":1025,"ĠAno":1026,"hang":1027,"Ġu":1028,"inis":1029,"Ġsig":1030,"Ġparang":1031,"Ġyan":1032,"mam":1033,"Ġbig":1034,"mo":1035,"amina":1036,"Ġmapup":1037,"isa":1038,"ĠPero":1039,"ĠâĢĵ":1040,"Ġtina":1041,"Ġor":1042,"Ġcream":1043,"Ġkala":1044,"Ġex":1045,"ĠRe":1046,"Ġsana":1047,"Ġsabihin":1048,"ulog":1049,"Ġop":1050,"ba":1051,"Ġbagay":1052,"ĠNG":1053,"Ġgamit":1054,"alita":1055,"ost":1056,"Ġtr":1057,"Ġap":1058,"aha":1059,"ark":1060,"Ġiyon":1061,"Ġbang":1062,"ipag":1063,"ĠCh":1064,"tib":1065,"alo":1066,"Ġmapupuksa":1067,"Ġbuw":1068,"lay":1069,"Ġlalaki":1070,"Ġsya":1071,"Ġbatang":1072,"ablet":1073,"Ġ#":1074,"Ġnaw":1075,"Ġed":1076,"Ġcom":1077,"Ġgagawin":1078,"Ġmatapos":1079,"ĠNA":1080,"lak":1081,"Ġkara":1082,"ilya":1083,"Ġlarawan":1084,"Ġpin":1085,"Ġres":1086,"lis":1087,"Ġlunas":1088,"Ġspot":1089,"Ġnaging":1090,"onal":1091,"atas":1092,"wede":1093,"ĠMask":1094,"edyo":1095,"gap":1096,"Ġmad":1097,"Ġtin":1098,"itong":1099,"Ġmabilis":1100,"AR":1101,"tat":1102,"iwala":1103,"Ġkasama":1104,"Ġling":1105,"Ġsakit":1106,"baho":1107,"Ġtulad":1108,"ee":1109,"ood":1110,"alagang":1111,"Ġde":1112,"iyos":1113,"Ġ10":1114,"Ġmaga":1115,"uwag":1116,"ump":1117,"long":1118,"Ġrem":1119,"ugo":1120,"Ġgumawa":1121,"ulay":1122,"lic":1123,"Ġslimming":1124,"ble":1125,"amang":1126,"AS":1127,"Mag":1128,"Ġposible":1129,"alas":1130,"emb":1131,"Ġsan":1132,"Ġbe":1133,"Ġpuw":1134,"her":1135,"Ġlib":1136,"ĠPara":1137,"ĠSt":1138,"ilan":1139,"Ġbansa":1140,"iko":1141,"Ġdagdagan":1142,"ĠAl":1143,"co":1144,"Ġpalig":1145,"ibigan":1146,"rang":1147,"Ġpagkain":1148,"ĠDiyos":1149,"ons":1150,"AM":1151,"Ġvideo":1152,"isyo":1153,"Ġikaw":1154,"utan":1155,"rink":1156,"Ġbuwan":1157,"Ġoras":1158,"arang":1159,"uto":1160,"Ġitong":1161,"ahal":1162,"uka":1163,"ingin":1164,"dagdagan":1165,"aran":1166,"nap":1167,"Ġnagk":1168,"akita":1169,"awag":1170,"Ġyou":1171,"Ġbawat":1172,"Ġpinakamahusay":1173,"Ġtablet":1174,",âĢĿ":1175,"Ġad":1176,"Ġbas":1177,"ne":1178,"Ġsinabi":1179,"line":1180,"IT":1181,"ado":1182,"lit":1183,"Ġsc":1184,"ikita":1185,"ĠPilipinas":1186,"ct":1187,"Ġtat":1188,"Na":1189,"ipe":1190,"Ġte":1191,"Ġkaysa":1192,"ell":1193,"ight":1194,"Ġpak":1195,"Ġpaligid":1196,"ord":1197,"angg":1198,"va":1199,"Ġbagong":1200,"ayag":1201,"Ġbuong":1202,"Ġ6":1203,"Para":1204,"ente":1205,"?âĢĿ":1206,"Ġsho":1207,"Ġnagb":1208,"untis":1209,"iyang":1210,"ks":1211,"ira":1212,"uring":1213,"ĠMar":1214,"IL":1215,"Ġnan":1216,"Ġlinggo":1217,"san":1218,"Ġdalawang":1219,"ibigay":1220,"Ġuod":1221,"Ġbitamina":1222,"Ġco":1223,"aaral":1224,"Ġsurg":1225,"ramdam":1226,"insan":1227,"Ġsag":1228,"ĠKa":1229,"ayat":1230,"ress":1231,"rinkles":1232,"gan":1233,"igit":1234,"Ġgam":1235,"ect":1236,"ubong":1237,"Ġkanila":1238,"roon":1239,"Ġch":1240,"age":1241,"undo":1242,"Ġnin":1243,"erb":1244,"Ġmal":1245,"Ġnaka":1246,"ilipino":1247,"agad":1248,"Ġso":1249,"Ġgaano":1250,"Ġmaraming":1251,"Ġiyo":1252,"alak":1253,"iling":1254,"Ġsurgery":1255,"Isang":1256,"duk":1257,"uhin":1258,"ary":1259,"inom":1260,"Ġnung":1261,"Ġpamamaga":1262,"Ġepek":1263,"Ġhum":1264,"Ġnangy":1265,"AK":1266,"Ġsus":1267,"Ġab":1268,"all":1269,"atak":1270,"unay":1271,"ugar":1272,"Ġaming":1273,"eron":1274,"May":1275,"Ġkita":1276,"lala":1277,"ulan":1278,"Ġsh":1279,"ill":1280,"ungan":1281,"ook":1282,"Paano":1283,"hing":1284,"Ġface":1285,"Ġpagbab":1286,"Ġpwede":1287,"ĠIto":1288,"uya":1289,"aan":1290,"Ġ...":1291,"Ġkal":1292,"Ġipina":1293,"Ġunang":1294,"yeta":1295,"Ġitlog":1296,"Ġsob":1297,"Ġfung":1298,"Ġwrinkles":1299,"iba":1300,"ys":1301,"Ġ.":1302,"Ġbumili":1303,"uhok":1304,"uling":1305,"ĠANG":1306,"pa":1307,"abaihan":1308,"las":1309,"ĠNak":1310,"Ġtanong":1311,"Ġ7":1312,"ON":1313,"ulugan":1314,"ĠMas":1315,"gas":1316,"Ġlalo":1317,"riend":1318,"kat":1319,"ban":1320,"ser":1321,"gram":1322,"Ġmis":1323,"ays":1324,"ĠMo":1325,"Ġbre":1326,"Ġkak":1327,"alala":1328,"awalan":1329,"tibong":1330,"alamat":1331,"Ġlik":1332,"Ġsinas":1333,"Ġbab":1334,"atid":1335,"Ġkababaihan":1336,"Ġkw":1337,"Ġkumain":1338,"Ġpinaka":1339,"Ġnagpap":1340,"Ġmadagdagan":1341,"Ġlugar":1342,"Ġdugo":1343,"per":1344,"apon":1345,"ĠAko":1346,"AH":1347,"ion":1348,"Ġ,":1349,"ose":1350,"ting":1351,"Ġpe":1352,"its":1353,"pan":1354,"Ġout":1355,"Ġmahal":1356,"lat":1357,"ĠKaya":1358,"Ġmam":1359,"Ġkaibigan":1360,"Ġpati":1361,"Ġmalaking":1362,"uno":1363,"AP":1364,"Ġhin":1365,"Ġmuna":1366,"gamot":1367,"so":1368,"ahit":1369,"umang":1370,"ĠPh":1371,"....":1372,"gi":1373,"Ġginawa":1374,"akas":1375,"dad":1376,"Ġsilang":1377,"Ġtang":1378,"Ġkaniyang":1379,"Ġngunit":1380,"An":1381,"ena":1382,"Ġkun":1383,"Ġtaga":1384,"ith":1385,"ahin":1386,"Ġsanhi":1387,"Ġsas":1388,"Ġpuso":1389,"ph":1390,"inig":1391,"uting":1392,"Ġle":1393,"upa":1394,"ingnan":1395,"Ġtub":1396,"Ġro":1397,"rato":1398,"Ġbaka":1399,"Ġhina":1400,"Ġpagsas":1401,"laman":1402,").":1403,"ian":1404,"Ġraw":1405,"ww":1406,"Ġbina":1407,"io":1408,"Ġdiyeta":1409,"IS":1410,"ies":1411,"Ġmar":1412,"Ġdoon":1413,"Ġisip":1414,"ĠDoc":1415,"pe":1416,"Ġproble":1417,"Ġnana":1418,"ork":1419,"last":1420,"Ġkg":1421,"ĠPina":1422,"iyak":1423,"tp":1424,"hehe":1425,"illi":1426,"Ġpaglago":1427,"Ġcon":1428,"//":1429,"ER":1430,"Ġmagb":1431,"ï¿":1432,"Ġulo":1433,"ï¿½":1434,"ult":1435,"Ġedad":1436,"yal":1437,"amb":1438,"Ġpah":1439,"Ġuri":1440,"galing":1441,"ĠMa":1442,"Ġdahilan":1443,"Ġdating":1444,"Ġmagkano":1445,"otoo":1446,"atan":1447,"agong":1448,"Ġproduk":1449,"hih":1450,"ome":1451,"At":1452,"ĠGiardia":1453,"uc":1454,"Ġnyo":1455,"imula":1456,"orn":1457,"inoy":1458,"ĠKas":1459,"Ġpangalan":1460,"yar":1461,"ansin":1462,"Ġnangang":1463,"wan":1464,"ING":1465,"Ġkatut":1466,"ric":1467,"Ġbayan":1468,"Ġsino":1469,"Ġhair":1470,"ĠMan":1471,"Ġniyo":1472,"ov":1473,"Ġtak":1474,"ge":1475,"Ġph":1476,"mer":1477,"Ġnakita":1478,"araan":1479,"nak":1480,"ahe":1481,"Ġpamilya":1482,"Ġnoon":1483,"air":1484,"://":1485,"wn":1486,"alit":1487,"der":1488,"Ġmagp":1489,"ĠIs":1490,"Ġmahusay":1491,"Ġ19":1492,"anag":1493,"port":1494,"load":1495,"olo":1496,"Ġmarami":1497,"asok":1498,"Ġprogram":1499,"gamit":1500,"upo":1501,"bigay":1502,"Ġart":1503,"Ġbahagi":1504,"Ġbuk":1505,"ilipp":1506,"Ġ9":1507,"Ġtime":1508,"ðŁ":1509,"Ġlaro":1510,"Ġginagawa":1511,"ayari":1512,"Ġsup":1513,"ld":1514,"ple":1515,"me":1516,"Ġagad":1517,"yung":1518,"uter":1519,"ĠUn":1520,"Ġnamang":1521,"angk":1522,"itrato":1523,"tim":1524,"Ġtrabaho":1525,"Ġulit":1526,"Ġ[":1527,"po":1528,"'s":1529,"10":1530,"Ġkatutubong":1531,"Ġ8":1532,"Ġgabi":1533,"Ġmundo":1534,"Ġtubig":1535,"Ġasawa":1536,"oo":1537,"isyon":1538,"oney":1539,"pre":1540,"Ġdali":1541,"uwa":1542,"isang":1543,"sk":1544,"ĠQ":1545,"tomas":1546,"Ġ12":1547,"Ġshow":1548,"ista":1549,"AB":1550,"oso":1551,"Ġinter":1552,"ĠHe":1553,"Ġrec":1554,"AW":1555,"Ġninyo":1556,"?\"":1557,"ahaha":1558,"Ġkaga":1559,"Mask":1560,"Ġibig":1561,"Ġtulong":1562,"Ġyear":1563,"aram":1564,"Ġproblema":1565,"yer":1566,"Ġanong":1567,"ĠSo":1568,"Ġtunay":1569,"ĠAr":1570,"Ay":1571,"ahala":1572,"alos":1573,"abing":1574,"ĠCity":1575,"iwan":1576,"ayos":1577,"GA":1578,"Ġpab":1579,"uwi":1580,"Ġmana":1581,"Ġdalawa":1582,"Ġsal":1583,"Ġgamutin":1584,"Ġinyong":1585,"Ġbreast":1586,"ahulugan":1587,"Ġkulay":1588,"Ġnilang":1589,"lant":1590,"alaman":1591,"dong":1592,"Ġamin":1593,"Ġtag":1594,"ey":1595,"ayang":1596,"igil":1597,"idad":1598,"http":1599,"Ġmaganda":1600,"ES":1601,"ilit":1602,"fe":1603,"Ġblog":1604,"20":1605,"Ġmakakuha":1606,"Ġpare":1607,"akan":1608,"Ġ/":1609,"Ġkin":1610,"abaw":1611,"Ġprodukto":1612,"Ġmakita":1613,"Ġmagandang":1614,"use":1615,"Ġok":1616,"umb":1617,"ĠGam":1618,"reat":1619,"Ġtalagang":1620,"ĠPro":1621,"Ġnakat":1622,"ubok":1623,"iza":1624,"!âĢĿ":1625,"Ġkali":1626,"ĠIsang":1627,"ews":1628,"ging":1629,"uck":1630,"mm":1631,"irl":1632,"Ġek":1633,"Ġper":1634,"Ġkaming":1635,"ile":1636,"andaan":1637,"Ġwe":1638,"Ġut":1639,"Ġmagiging":1640,"iwas":1641,"ĠJo":1642,"ack":1643,"ukan":1644,"Ġonline":1645,"ĠAnd":1646,"Bakit":1647,"Ġdaliri":1648,"Ġkumuha":1649,"Ġnagp":1650,"Ġpanana":1651,"ugna":1652,"Ġsagot":1653,"Ġsiguro":1654,"uy":1655,"tong":1656,"ela":1657,"Ġtapos":1658,"ako":1659,"Ġpangang":1660,"yun":1661,"hong":1662,"ĠWala":1663,"Ġ15":1664,"Ġharap":1665,"??":1666,"sp":1667,"Ġtinat":1668,"sik":1669,"ĠMak":1670,"ips":1671,"iga":1672,"Ġpagd":1673,"Ġgamitin":1674,"app":1675,"Ġmy":1676,"Nak":1677,"anggol":1678,"Ġpost":1679,"Ġpagli":1680,"esto":1681,"Ġlaki":1682,"arating":1683,"ĠSan":1684,"Ġwika":1685,"Ġfre":1686,"Ġdun":1687,",\"":1688,"Ġby":1689,"bay":1690,"OR":1691,"ĠRam":1692,"Ġpart":1693,"abay":1694,"Ġbak":1695,"ual":1696,"ĠPaano":1697,"irc":1698,"ada":1699,"Ġaw":1700,"Ġnagt":1701,"Ġest":1702,"ÂŃ":1703,"Ġpagbub":1704,"aki":1705,"day":1706,"ril":1707,"Ġpagp":1708,"Ġnangyari":1709,"Ġnating":1710,"ere":1711,"Ġ200":1712,"unog":1713,"Ġring":1714,"Ġmin":1715,"hool":1716,"Ġah":1717,"ĠEn":1718,"ru":1719,"Ġremedyo":1720,"lastic":1721,"Ġbituka":1722,"ĠPilipino":1723,"hiyon":1724,"Ġsobrang":1725,"abas":1726,"Ito":1727,"intay":1728,"ikipag":1729,"ĠLiza":1730,"Ġbumaba":1731,"otel":1732,"Ġdok":1733,"Ġinyo":1734,"Ġes":1735,"Ġsintomas":1736,"Ġlitrato":1737,"Ġpaghah":1738,"ural":1739,"alipas":1740,"iv":1741,"agot":1742,"ayong":1743,"atagal":1744,"ĠWilli":1745,"asama":1746,"Ġpelik":1747,"kaw":1748,"Ġnapak":1749,"Pero":1750,"Ġho":1751,"olk":1752,"ĠThe":1753,"ersisyo":1754,"Ġtotoo":1755,"ft":1756,"Ġbat":1757,"ext":1758,"tan":1759,"Ġgawa":1760,"min":1761,"Ġgumaga":1762,"usin":1763,"ĠPangino":1764,"Ġmagkaroon":1765,"Ġnitong":1766,"iisip":1767,"ace":1768,"MA":1769,"Ġbags":1770,"ĠPhilipp":1771,"wanag":1772,"inal":1773,"pang":1774,"ĠðŁ":1775,"Ġhoney":1776,"ubuhay":1777,"big":1778,"Ġkundi":1779,"Ġdis":1780,"uo":1781,"ĠBakit":1782,"hh":1783,"UL":1784,"Ġayaw":1785,"Ġhali":1786,"ach":1787,"Ġlibre":1788,"apang":1789,"ĠAy":1790,"igh":1791,"oko":1792,"ilig":1793,"Ġwith":1794,"ONG":1795,"OS":1796,"Ġfungus":1797,"urang":1798,"Ġkapatid":1799,"atulong":1800,"Ġsaid":1801,"Ġsis":1802,"sh":1803,"ĠOng":1804,"aman":1805,"uwang":1806,"ĠMGA":1807,"ĠWillie":1808,"Ġthat":1809,"Ġpagtat":1810,"Ġser":1811,"Ġituring":1812,"ence":1813,"init":1814,"Ġpaggamit":1815,"ire":1816,"Ġung":1817,"utas":1818,"Ġmatat":1819,"Ġpagtit":1820,"aaari":1821,"ulungan":1822,"DI":1823,"ĠCom":1824,"Alam":1825,"Ġkuw":1826,"Ġ2018":1827,"ral":1828,"ahat":1829,"udi":1830,"Ġkar":1831,"Ġmeron":1832,"old":1833,"Ġmagt":1834,"anggap":1835,"Ġnais":1836,"Ġanumang":1837,"Ġpagsus":1838,"Ġlove":1839,"ĠAT":1840,"Ġpera":1841,"Ako":1842,"kin":1843,"sy":1844,"Ġsalam":1845,"rol":1846,"Ġsim":1847,"gayon":1848,"Ġgaling":1849,"ase":1850,"ĠPa":1851,"12":1852,"uot":1853,"usapan":1854,"iss":1855,"ĠTa":1856,"Ġkasal":1857,"Ġ2017":1858,"ĠAlam":1859,"mang":1860,"ramdaman":1861,"Ġar":1862,"Ġpig":1863,"Ġ30":1864,"Ġepekto":1865,"vel":1866,"ï¿½ï¿½":1867,"Ġhigit":1868,"ene":1869,"ement":1870,"!!!":1871,"empre":1872,"Ġnara":1873,"usyon":1874,"ou":1875,"ake":1876,"Ġsinasabi":1877,"Ġpagaling":1878,"mbawa":1879,"ĠTim":1880,"Ġnawawala":1881,"Ġbes":1882,"Ġsayo":1883,"Ġbinti":1884,"ular":1885,"Ġpus":1886,"ise":1887,"Ġpagalingin":1888,"ich":1889,"Ġpaki":1890,"Ġsing":1891,"Ġnawala":1892,"Ġmalaman":1893,"Ġpagitan":1894,"Ġumaga":1895,"ĠÂ":1896,"ayayat":1897,"av":1898,"Ġhuwag":1899,"Ġsanggol":1900,"Ġpagkakata":1901,"Ġprot":1902,"Ġoff":1903,"Ġayon":1904,"we":1905,"apan":1906,"esus":1907,"ulot":1908,"ĠSi":1909,"),":1910,"Ġsub":1911,"erm":1912,"ipis":1913,"Ġpamb":1914,"Halamang":1915,"ema":1916,"Ġnangangahulugan":1917,"usan":1918,"ĠNang":1919,"19":1920,"Ġcirc":1921,"Ġlin":1922,"Ġoil":1923,"ke":1924,"Ġmasaya":1925,"abot":1926,"ĠPas":1927,"ĠTs":1928,"ĠDr":1929,"eed":1930,"Ġplastic":1931,"Ġmangy":1932,"angat":1933,"alawang":1934,"alaking":1935,"rat":1936,"Ġnaming":1937,"uterte":1938,"Ġlabas":1939,"Ġpagiging":1940,"IG":1941,"itang":1942,"inang":1943,"US":1944,"rus":1945,"Ġnabubuhay":1946,"ret":1947,"Ġsex":1948,"oses":1949,"Ġgiardia":1950,"ilangang":1951,"EN":1952,"Ġdark":1953,"ĠBuhok":1954,"inga":1955,"ental":1956,"Ġrecipe":1957,"Ġminsan":1958,"Ġgr":1959,"Ġganun":1960,"Ġmalapit":1961,"Ġtingin":1962,"Ġkont":1963,"ĠFilipino":1964,"ĠWik":1965,"Mas":1966,"ibang":1967,"ising":1968,"Ġkinaka":1969,"bing":1970,"ĠKris":1971,"ĠPanginoon":1972,"Ġforum":1973,"Ġ2016":1974,"Ġmayroon":1975,"pak":1976,"rek":1977,"Si":1978,"inan":1979,"cer":1980,"wag":1981,"ĠNat":1982,"Ġen":1983,"ĠDe":1984,"Ġmangayayat":1985,"Ġbar":1986,"emon":1987,"friend":1988,"ĠCo":1989,"Ġ11":1990,"In":1991,"uin":1992,"Ġmuli":1993,"Ġkag":1994,"ness":1995,"Ġbeses":1996,"ĠTaga":1997,"ĠMat":1998,"Ġnot":1999,"ĠPagk":2000,"Ġpagbubuntis":2001,"Ġhalos":2002,"ĠGusto":2003,"ĠZ":2004,"Ġuna":2005,"ner":2006,"ĠIt":2007,"Ġkon":2008,"lad":2009,"Ġ:)":2010,"Ġatin":2011,"Pina":2012,"Ġtut":2013,"ĠMab":2014,"Ġthis":2015,"ensi":2016,"ĠDahil":2017,"Ġrehiyon":2018,"ick":2019,"lants":2020,"Ġtiti":2021,"Ġ13":2022,"rabaho":2023,"Ġpalak":2024,"TO":2025,"ansang":2026,"ĠNo":2027,"Ka":2028,"Ġnalang":2029,"Ġtama":2030,"be":2031,"burg":2032,"tili":2033,"Ġtal":2034,"Ġngayong":2035,"ahid":2036,"UN":2037,"Ġbil":2038,"own":2039,"Ġkaso":2040,"asabi":2041,"Ġika":2042,"lase":2043,"ĠPet":2044,"ags":2045,"Ġtatlong":2046,"araming":2047,"ĠAs":2048,"ond":2049,"Ġcircles":2050,"amit":2051,"him":2052,"anood":2053,"Ġpatay":2054,"13":2055,"irst":2056,"alinga":2057,"urt":2058,"Ġtayong":2059,"Ġ18":2060,"Ġ&":2061,"ĠBib":2062,"ines":2063,"Ġgulang":2064,"ulis":2065,"Ġmasya":2066,"aliit":2067,"arto":2068,"hn":2069,"Ġkad":2070,"ĠNap":2071,"ĠKo":2072,"ataan":2073,"?!":2074,"ahagi":2075,"ute":2076,"ĠKap":2077,"Ġnaga":2078,"Ġpamamaraan":2079,"mple":2080,"Ġpl":2081,"Ġmaka":2082,"ukhang":2083,"ty":2084,"ĠKat":2085,"site":2086,"ĠDuterte":2087,"Ġ14":2088,"istis":2089,"Ġkilala":2090,"Ġtrans":2091,"Ġus":2092,"Ġpalakihin":2093,"ĠHair":2094,"iniwala":2095,"out":2096,"__":2097,"Ġpal":2098,"alth":2099,"OL":2100,"Ġdumating":2101,"inat":2102,"Ġdami":2103,"ĠKahit":2104,"AD":2105,"ahang":2106,"Ġsalamat":2107,"Ġnakalipas":2108,"ukoy":2109,"nas":2110,"yante":2111,"tas":2112,"ĠPinoy":2113,"Ong":2114,"ĠTV":2115,"Ġmedyo":2116,"ject":2117,"Ġlikod":2118,"Ġgu":2119,"Ġlupa":2120,"Ġmakapag":2121,"Ġpumunta":2122,"taas":2123,"ical":2124,"Ġweb":2125,"Ġwh":2126,"Ġbo":2127,"ea":2128,"Ġpuwesto":2129,"unang":2130,"Ġdoktor":2131,"Ġlim":2132,"Ġcan":2133,"Ġtit":2134,"ĠĠ":2135,"sc":2136,"Ġpelikula":2137,"Ġtumut":2138,"Ġdo":2139,"Ġpagsasanay":2140,"ataas":2141,"aysa":2142,"akain":2143,"Ġkom":2144,"lin":2145,"ĠRamoso":2146,"Ġalisan":2147,"git":2148,"Ġneg":2149,"Ġbibig":2150,"Ġday":2151,"Ayon":2152,"Ġkalinga":2153,"ubo":2154,"Ġprograma":2155,"asak":2156,"Ġmore":2157,"ckles":2158,"Ġpers":2159,"Ġremed":2160,"Ġbal":2161,"ĠNews":2162,"Ġdati":2163,"Ġpagmam":2164,"Ġpagtitistis":2165,"ember":2166,"11":2167,"Ġsarap":2168,"ish":2169,"dic":2170,"ber":2171,"oder":2172,"arian":2173,"amam":2174,"Ġganda":2175,"agp":2176,"ekto":2177,"Ġrito":2178,"ics":2179,"ustong":2180,"ugon":2181,"ensya":2182,"Ġgo":2183,"Ġsabay":2184,"inabang":2185,"gin":2186,"Ġremedyong":2187,"Ġgatas":2188,"rim":2189,"sod":2190,"awang":2191,"uku":2192,"Ġmataas":2193,"000":2194,"ugat":2195,"Dahil":2196,"idente":2197,"esa":2198,"zon":2199,"Ġmanipis":2200,"uman":2201,"gaw":2202,"abihin":2203,"BS":2204,"net":2205,"anib":2206,"ĠAp":2207,"wer":2208,"Wala":2209,"ungo":2210,"Ġbawal":2211,"Ġkarap":2212,"rank":2213,"Ġmagulang":2214,"Ġnina":2215,"ĠManila":2216,"Ġrela":2217,"Ġapp":2218,"Ġitim":2219,"Ġpatuloy":2220,"ĠSh":2221,"ulta":2222,"Ġama":2223,"Ġopis":2224,"awak":2225,"if":2226,"rom":2227,"Ġpagsubok":2228,"ĠAb":2229,"Ġtamang":2230,"Ġsusunod":2231,"ĠDios":2232,"Ġnakikita":2233,"Ġimplants":2234,"Ġisda":2235,"yak":2236,"arm":2237,"enta":2238,"18":2239,"ilid":2240,"yos":2241,"hanan":2242,"tions":2243,"ese":2244,"Ġlibreng":2245,"Ġpagkakataon":2246,"Ġdes":2247,"IY":2248,"Ġtuw":2249,"Ġall":2250,"Ġnakaka":2251,"Ġare":2252,"rit":2253,"Di":2254,"ĠLo":2255,"Ġganito":2256,"naw":2257,"ĠSabi":2258,"Ġant":2259,"Ġcell":2260,"ĠPAG":2261,"ign":2262,"Ġmalaki":2263,"arami":2264,"Ġele":2265,"Ġhits":2266,"igan":2267,"UT":2268,"ĠAg":2269,"Ġsariling":2270,"ĠFor":2271,"liit":2272,"hanap":2273,"Ġdamit":2274,"Ġsalita":2275,"rip":2276,"roong":2277,"uran":2278,"wak":2279,"usugan":2280,"Ġpup":2281,"tory":2282,"Ġnakara":2283,"Ġfreckles":2284,"oss":2285,"hiya":2286,"Ġbik":2287,"Ġpigment":2288,"Ġtah":2289,"Ġbulating":2290,"ll":2291,"aalis":2292,"ĠKan":2293,"ugnay":2294,"ny":2295,"Ġsakin":2296,"nasan":2297,"Ġhitsura":2298,"Ġschool":2299,"Ġhel":2300,"Ġpulis":2301,"Ġpuk":2302,"way":2303,"!\"":2304,"gy":2305,"Ġkayong":2306,"ĠWalang":2307,"Ġmabuti":2308,"ites":2309,"Ġtuloy":2310,"Ġnagtat":2311,"Ġpre":2312,"--":2313,"UM":2314,"epek":2315,"pes":2316,"Gam":2317,"Ġmadaling":2318,"lia":2319,"Ġpinak":2320,"âĢĶ":2321,"Ġuminom":2322,"Ġtawag":2323,"apit":2324,"stos":2325,"ilo":2326,"Ġnagiging":2327,"lib":2328,"Ġwag":2329,"ĠEx":2330,"IB":2331,"erc":2332,"ormasyon":2333,"yat":2334,"Ġtreat":2335,"Ġfolk":2336,"kala":2337,"otohanan":2338,"wit":2339,"oda":2340,"Ġlumabas":2341,"alig":2342,"Ġmamam":2343,"Ġginagamit":2344,"fter":2345,"Ġag":2346,"eng":2347,"Ġsapat":2348,"Ġmahirap":2349,"Ġ16":2350,"ĠPres":2351,"Kaya":2352,"Ġtabletas":2353,"Ġmalakas":2354,"Ġpant":2355,"rot":2356,"Ġbut":2357,"erasyon":2358,"Ġpagpapal":2359,"Ġhah":2360,"Ġkaraming":2361,"Ġpagkakaroon":2362,"ungkot":2363,"unin":2364,"intindi":2365,"Ġsilic":2366,"Ġmatagal":2367,"Ġehersisyo":2368,"Ġpagdating":2369,"ilos":2370,"ĠTo":2371,"Ġkwento":2372,"irit":2373,"Ġyears":2374,"aalaga":2375,"Ġbur":2376,"Ġcont":2377,"reen":2378,"ipedia":2379,"14":2380,"Ġsilicone":2381,"Ġganitong":2382,"ĠMe":2383,"Ġeye":2384,"epektibong":2385,"unong":2386,"yonal":2387,"mag":2388,"law":2389,"Ġgaya":2390,"Kaysa":2391,"mga":2392,"Ġpamp":2393,"Ġqu":2394,"ree":2395,"ebook":2396,"Ġpinap":2397,"rib":2398,"Ġmaayos":2399,"RE":2400,"Ġlup":2401,"Ġlagi":2402,"Ġibin":2403,"ode":2404,"Ġ25":2405,"hindi":2406,"hel":2407,"CB":2408,"Ġpagpapaluwang":2409,"apa":2410,"Ġsand":2411,"aro":2412,"lar":2413,"rinig":2414,"Ġpangarap":2415,"ĠSin":2416,"olusyon":2417,"Mula":2418,"alanan":2419,"yempre":2420,"ingi":2421,"dis":2422,"Ġbigla":2423,"ĠPat":2424,"Kuko":2425,"Ġ05":2426,"15":2427,"Ġkapang":2428,"Ġsaka":2429,"ĠSc":2430,"oderil":2431,"get":2432,"ayaan":2433,"Ġlip":2434,"Ġpis":2435,"Ġfriend":2436,"ĠPo":2437,"bag":2438,"Ġnapap":2439,"Ġnagla":2440,"Ġklase":2441,"Ġgilid":2442,"Ġlakas":2443,"ĠSam":2444,"ive":2445,"www":2446,"mail":2447,"yerno":2448,"ersburg":2449,"zoderil":2450,"lish":2451,"alim":2452,"Ġgirl":2453,"Ġmon":2454,"Ġgra":2455,"ĠLe":2456,"cy":2457,"ona":2458,"ilipinas":2459,"uth":2460,"Ġbay":2461,"Ġcar":2462,"rist":2463,"adala":2464,"Ġgob":2465,"akat":2466,"Ġts":2467,"arah":2468,"ĠGMA":2469,"Buhok":2470,"Nang":2471,"kan":2472,"ron":2473,"imik":2474,"agawa":2475,"ĠX":2476,"low":2477,"ĠPetersburg":2478,"olog":2479,"ĠMala":2480,"ica":2481,"Ġmaliliit":2482,"Ġmakipag":2483,"Ġhim":2484,"my":2485,"ĠSiya":2486,"udyante":2487,"igyan":2488,"ĠAd":2489,"Ġnatut":2490,"iran":2491,"Kapag":2492,"now":2493,"ments":2494,"quino":2495,"Ġpamahala":2496,"Ng":2497,"nag":2498,"enter":2499,"Ġkila":2500,"Ġsapag":2501,"iwasan":2502,"Ġmen":2503,"ukas":2504,"IP":2505,"umpay":2506,"16":2507,"ekt":2508,"Ġmayroong":2509,"ĠTimbang":2510,"ĠFac":2511,"orya":2512,"Ġcal":2513,"Ġlalake":2514,"Ġnakas":2515,"form":2516,"ĠRo":2517,"ungsod":2518,"ĠJesus":2519,"Ġnah":2520,"unawa":2521,"INDI":2522,"Ġkasaluku":2523,"awas":2524,"ĠBa":2525,"yu":2526,"Ġmagka":2527,"Ġda":2528,"Paggamot":2529,"Ġnar":2530,"ante":2531,"CBN":2532,"ĠABS":2533,"Gusto":2534,"sion":2535,"Ġnagbibigay":2536,"Ġhehehe":2537,"uni":2538,"30":2539,"Ġtek":2540,"hy":2541,"Ġini":2542,"Ġbatas":2543,"mitan":2544,"pasok":2545,"ily":2546,"iguro":2547,"ĠNgayon":2548,"bab":2549,"nat":2550,"Ġgustong":2551,"Ġumano":2552,"Ġ17":2553,"Ġdry":2554,"za":2555,"ikal":2556,"ĠVideo":2557,"ida":2558,"Ġhotel":2559,"Ġkabataan":2560,"ped":2561,"Ġtam":2562,"ĠParang":2563,"Ġhuling":2564,"Ġnai":2565,"yano":2566,"ibo":2567,"Ġpumasok":2568,"Ġra":2569,"Ġkatulad":2570,"ormal":2571,"orry":2572,"Ġsumus":2573,"SA":2574,"ven":2575,"Ġyour":2576,"embre":2577,"ident":2578,"mat":2579,"alabas":2580,"lip":2581,"Kas":2582,"kt":2583,"OT":2584,"Ġsimula":2585,"atanggap":2586,"count":2587,"Ġkailan":2588,"Ġmass":2589,"Ġhalimbawa":2590,"ime":2591,"ĠSana":2592,"Ġbasta":2593,"upad":2594,"anggal":2595,"ipon":2596,"lakad":2597,"wal":2598,"ami":2599,"inabi":2600,"Ġmus":2601,"Ġmapag":2602,"down":2603,"**":2604,"Ġnagsis":2605,"Ġhehe":2606,"ikang":2607,"ĠRead":2608,"ĠWikipedia":2609,"tive":2610,"dy":2611,"Ġkailangang":2612,"Ġnakapag":2613,"risto":2614,"Ġsasak":2615,"adong":2616,"Ġbukas":2617,"Ġpagka":2618,"Ġ50":2619,"Ġparasite":2620,"ĠBayan":2621,"17":2622,"tima":2623,"Ġdina":2624,"ĠLang":2625,"Ġdaan":2626,"Tingnan":2627,"Mab":2628,"yembre":2629,"vent":2630,"Ġmuling":2631,"ory":2632,"Ġmababa":2633,"ĠÂ»":2634,"Ġkabilang":2635,"Ġgalit":2636,"inut":2637,"ater":2638,"Ġlaser":2639,"ĠAquino":2640,"ĠCar":2641,"Ġnanay":2642,"ĠLahat":2643,"ition":2644,"ĠHuwag":2645,"Ġse":2646,"siyon":2647,"Ġmadalas":2648,"EL":2649,"arangay":2650,"aloob":2651,"Ġkinakailangan":2652,"Ġshe":2653,"Ġbalita":2654,"Ġboy":2655,"Ġnagd":2656,"ance":2657,"Ġspots":2658,"Ġpagkaka":2659,"Ġdal":2660,"Ġipag":2661,"Pagk":2662,"imp":2663,"alag":2664,"iting":2665,"artment":2666,"IK":2667,"aralan":2668,"Ġmagpap":2669,"igo":2670,"Ġpwedeng":2671,"ĠTh":2672,"Ġcat":2673,"linis":2674,"iwalay":2675,"ĠPhilippine":2676,"Ġher":2677,"ĠRed":2678,"ild":2679,"ani":2680,"ym":2681,"ĠIsa":2682,"Ġwebsite":2683,"abasa":2684,"ĠBo":2685,"Ġbus":2686,"Ġtuwing":2687,"Ġrep":2688,"mon":2689,"Ġkaka":2690,"Ġfirst":2691,"isita":2692,"yarihan":2693,"Ġmagkak":2694,"Ġnun":2695,"Ġcomp":2696,"Ġdro":2697,"Ġhirap":2698,"away":2699,"Ġpagbabago":2700,"ilm":2701,"Ġganyan":2702,"Ġbuntis":2703,"ze":2704,"Ġlabi":2705,"Ġsam":2706,"Ġnakaraang":2707,"ĠEd":2708,"Ġgastos":2709,"Ġkanina":2710,"Ġekzoderil":2711,"Ġgrupo":2712,"tiv":2713,"agpuan":2714,"âĢ¦.":2715,"Ġpaghahanda":2716,"ĠSup":2717,"Ġpamahid":2718,"basa":2719,"ux":2720,"Ġhuli":2721,"ors":2722,"Ġresulta":2723,"Ġgobyerno":2724,"Ġpalat":2725,"Ġtip":2726,"etro":2727,"Ġestudyante":2728,"Ġnagkaroon":2729,"Ġnakap":2730,"ĠMO":2731,"top":2732,"ational":2733,"Ġsobra":2734,"ĠNi":2735,"Ġkaniya":2736,"Ġche":2737,"Ġmasyadong":2738,"Ġbr":2739,"Ġpahayag":2740,"Ġmakikita":2741,"ubos":2742,"anga":2743,"Kahit":2744,"Ġbi":2745,"osyo":2746,"Ġkayang":2747,"ĠIN":2748,"ocial":2749,"illa":2750,"ĠMah":2751,"ĠQue":2752,"Ġpagtaas":2753,"Ġkomp":2754,"une":2755,"Ġkaram":2756,"tain":2757,"Ġkatotohanan":2758,"wala":2759,"son":2760,"Ġpakikipag":2761,"ĠOn":2762,"ulu":2763,"Ġkuting":2764,"Ġparasitiko":2765,"Ġbigyan":2766,"ĠGamot":2767,"intindihan":2768,"Ġmakap":2769,"ĠKapag":2770,"Ġkuya":2771,"ict":2772,"leb":2773,"Ġepektibong":2774,"eksyon":2775,"ĠBas":2776,"Ġpuno":2777,"Ġfrom":2778,"Ġpakiramdam":2779,"ukuha":2780,"tra":2781,"Ġkagamitan":2782,"ĠNgunit":2783,"Ġgano":2784,"ĠAmer":2785,"ĠGu":2786,"Ġbro":2787,"ĠKasi":2788,"itamina":2789,"ondo":2790,"sites":2791,"ownload":2792,"Ġpamahalaan":2793,"imb":2794,"Nap":2795,"ĠPangulong":2796,"Ġone":2797,"ĠPags":2798,"Ġmalayang":2799,"pina":2800,"umin":2801,"Mawalan":2802,"Ġlist":2803,"ismo":2804,"iwang":2805,"Ġbabaeng":2806,"our":2807,"nang":2808,"ID":2809,"Ġnararamdaman":2810,"agang":2811,"ivers":2812,"How":2813,"arawan":2814,"gen":2815,"Ġlat":2816,"kay":2817,"IC":2818,"Ġbalik":2819,"dor":2820,"Ġbilog":2821,"ĠTagalog":2822,"Ġcol":2823,"Ġsimple":2824,"unahing":2825,"ody":2826,"pon":2827,"Pang":2828,"udio":2829,"download":2830,"Ġherb":2831,"Ġsite":2832,"Ġinila":2833,"Ma":2834,"Ġiyan":2835,"nila":2836,"Ġserb":2837,"ote":2838,"Ġ24":2839,"embro":2840,"Ġmismo":2841,"Ġtreatment":2842,"Ġnatural":2843,"inisin":2844,"Ġipinag":2845,"Ġpub":2846,"eral":2847,"Ġnet":2848,"eeling":2849,"Ġdep":2850,"amant":2851,"akuha":2852,"bong":2853,"unlad":2854,"along":2855,"UNG":2856,"ĠIna":2857,"Ġpong":2858,"ĠMaaari":2859,"uty":2860,"Ġmakab":2861,"aysayan":2862,"ĠYou":2863,"ibili":2864,"ĠKuya":2865,"gles":2866,"Ġpalatandaan":2867,"elo":2868,"ton":2869,"que":2870,"ĠIkaw":2871,"Ġwas":2872,"Ġnagsas":2873,"Ġreg":2874,"Ġmagbigay":2875,"work":2876,"unti":2877,"ahayag":2878,"Ġins":2879,"Ġokay":2880,"Ġtila":2881,"24":2882,"kop":2883,"Ġmedia":2884,"para":2885,"Ġmil":2886,"Ġapat":2887,"etal":2888,"ĠSec":2889,"Ġkama":2890,"ĠWe":2891,"Ġding":2892,"Ġwork":2893,"Ġtablets":2894,"dik":2895,"Ġ2015":2896,"ayon":2897,"Ġnasabing":2898,"Ġsoda":2899,"appy":2900,"Ġim":2901,"ĠâĢ¦":2902,"Ġhalaga":2903,"tional":2904,"ĠRes":2905,"Ġid":2906,"Ġmapap":2907,"Ġlabis":2908,"Ġbiglang":2909,"lack":2910,"unting":2911,"Ġbir":2912,"iklo":2913,"ubad":2914,"ĠðŁĺ":2915,"ige":2916,"Ġumalis":2917,"ĠTum":2918,"ĠMawalan":2919,"tem":2920,"orta":2921,"Ġkuwento":2922,"Ġari":2923,"cos":2924,"ikan":2925,"alin":2926,"dala":2927,"gdag":2928,"Ġrelasyon":2929,"other":2930,"Ġmovie":2931,"ets":2932,"ĠGo":2933,"awi":2934,"lakihan":2935,"ĠDa":2936,"Ġbiktima":2937,"Ġweek":2938,"Ġthan":2939,"IR":2940,"ĠJan":2941,"panya":2942,"Ġilan":2943,"Ġsec":2944,"Ġpalitan":2945,"ĠNov":2946,"ĠRem":2947,"Ġdad":2948,"Ġdirek":2949,"No":2950,"Ġtula":2951,"Gamot":2952,"how":2953,"ailangan":2954,"pis":2955,"ĠMari":2956,"ĠEle":2957,"ents":2958,"Ġtumutulong":2959,"pp":2960,"Ġabout":2961,"Ġmagsanay":2962,"Ġnamam":2963,"ful":2964,"iyembro":2965,"Ch":2966,"Ġlast":2967,"Ġmasama":2968,"osc":2969,"Ġadd":2970,"ĠOF":2971,"say":2972,"Ġpumayat":2973,"Ġpagsusuri":2974,"Ġmagh":2975,"intuan":2976,"Ġpersonal":2977,"ĠBar":2978,"liko":2979,"ugh":2980,"ĠPan":2981,"Ġ40":2982,"Ġens":2983,"lid":2984,"ĠBr":2985,"met":2986,"Ġmakat":2987,"Oo":2988,"onom":2989,"Ġpamum":2990,"Ġgin":2991,"Isa":2992,"Ġmara":2993,"Ġbumalik":2994,"asawa":2995,"acy":2996,"Ġkwarto":2997,"Ġ21":2998,"Ġmonth":2999,"Ġparehong":3000,"date":3001,"biz":3002,"Ġdr":3003,"cess":3004,"Ġkur":3005,"Ġimpormasyon":3006,"orld":3007,"Ġknow":3008,"late":3009,"anal":3010,"Ġanti":3011,"Ġpusa":3012,"Ġlok":3013,"ukol":3014,"Ġsuka":3015,"play":3016,"Ġpuwede":3017,"Ġtap":3018,"Ġsir":3019,"Ġlalong":3020,"Ġmai":3021,"sian":3022,"ido":3023,"Ġsiste":3024,"Ġakala":3025,"Ġumi":3026,"ĠSp":3027,"dilim":3028,"Ġaccount":3029,"Ġmassage":3030,"Ġlinisin":3031,"Ġuma":3032,"Ġatay":3033,"ules":3034,"Maaari":3035,"RO":3036,"pital":3037,"ĠInter":3038,"itaas":3039,"ning":3040,"IM":3041,"Ġyata":3042,"Ġbest":3043,"inam":3044,"ĠAK":3045,"arin":3046,"insala":3047,"joy":3048,"ited":3049,"Ġpatak":3050,"let":3051,"ink":3052,"ĠSena":3053,"ĠDep":3054,"ugas":3055,"Ġpangy":3056,"Ġpaglala":3057,"Ġisina":3058,"amin":3059,"Ġpilipinas":3060,"very":3061,"ĠKA":3062,"ĠPayo":3063,"Ġbaguhin":3064,"ĠMad":3065,"Ġhahaha":3066,"Ġhave":3067,"Ġdiyan":3068,"ren":3069,"Ġlatest":3070,"anggang":3071,"ĠDapat":3072,"ĠRus":3073,"ĠPam":3074,"Ġcas":3075,"unayan":3076,"Ġoperasyon":3077,"Ã±":3078,"ĠBuhay":3079,"ĠYung":3080,"utang":3081,"Ġ22":3082,"ci":3083,"Ġensiklo":3084,"pedya":3085,"rate":3086,"ils":3087,"Ġmatut":3088,"ĠPhilippines":3089,"Ġkasing":3090,"Ġpangunahing":3091,"Walang":3092,"land":3093,"ĠUS":3094,"Ġkalalakihan":3095,"Ġsit":3096,"Ġkapwa":3097,"Ġnaghah":3098,"atingin":3099,"erv":3100,"aliw":3101,"Ġnangyayari":3102,"Ġensiklopedya":3103,"ustuhan":3104,"akap":3105,"Ġlalaking":3106,"Ġtinatawag":3107,"akbo":3108,"Ġcl":3109,"Ġsw":3110,"ĠCan":3111,"Ġlaging":3112,"Mat":3113,"Sin":3114,"Ġmiyembro":3115,"umili":3116,"ason":3117,"Ġnapag":3118,"igilan":3119,"EP":3120,"ĠTsina":3121,"irapan":3122,"red":3123,"lice":3124,"Ġkatang":3125,"Ġopisyal":3126,"Ġlemon":3127,"Ġnakik":3128,"araniwang":3129,"Ġsasabihin":3130,"uyo":3131,"Ġgood":3132,"Ġhaha":3133,"Ġkasalanan":3134,"Ġsasakyan":3135,"nong":3136,"lass":3137,"Ġmalala":3138,"Ġing":3139,"Ġhigh":3140,"ĠUm":3141,"Ġpapel":3142,"Ġgit":3143,"elf":3144,"Ġtakot":3145,"Ġkarapatan":3146,"uld":3147,"oke":3148,"ospital":3149,"Ġbuto":3150,"uhang":3151,"Ġutak":3152,"kain":3153,"litang":3154,"Ġafter":3155,"pakinabang":3156,"Ġlaman":3157,"anok":3158,"Lum":3159,"ĠLa":3160,"Ġporn":3161,"alakas":3162,"Ġdroga":3163,"Ġala":3164,"orts":3165,"Sabi":3166,"It":3167,"ĠNational":3168,"yas":3169,"lamo":3170,"ations":3171,",,":3172,"Ġpuwit":3173,"ĠSum":3174,"Ġnagawa":3175,"inding":3176,"du":3177,"yd":3178,"yente":3179,"ĠPuso":3180,"Ġdumi":3181,"bot":3182,"Re":3183,"utom":3184,"Ġmaik":3185,"Ġ23":3186,"Ġpagh":3187,"agan":3188,"ces":3189,"Ġkalusugan":3190,"ĠCon":3191,"vin":3192,"Ġgro":3193,"22":3194,"ĠðŁĻ":3195,"apo":3196,"fa":3197,"lor":3198,"Ġbawang":3199,"pay":3200,"The":3201,"Ġnail":3202,"ĠKab":3203,"ĠDibdib":3204,"PA":3205,"Ġmukhang":3206,"Ġread":3207,"Ġmapang":3208,"ĠMal":3209,"ever":3210,"aser":3211,"yric":3212,"ipin":3213,"raso":3214,"Ġdri":3215,"Ġpahina":3216,"Ġhinih":3217,"ĠMAG":3218,"Ġback":3219,"Ġdyan":3220,"earch":3221,"So":3222,"ginip":3223,"Ġnaisip":3224,"lap":3225,"Ġoli":3226,"ĠLum":3227,"ĠEst":3228,"loob":3229,"uns":3230,"arte":3231,"eta":3232,"aking":3233,"lease":3234,"ĠCream":3235,"urado":3236,"atakot":3237,"ĠOr":3238,"Taga":3239,"Ġorgan":3240,"rans":3241,"Ġminuto":3242,"py":3243,"ĠQuezon":3244,"ĠReg":3245,"Ġsikat":3246,"Ġprotina":3247,"Ġsalitang":3248,"yn":3249,"Ġitaas":3250,"Ġibabaw":3251,"Ġnagkak":3252,"may":3253,"Ikaw":3254,"Ġkaw":3255,"ĠPuw":3256,"Ġmait":3257,"ALA":3258,"Ġjust":3259,"Ġnapaka":3260,"ĠKom":3261,"Ph":3262,"ĠAc":3263,"Ġreal":3264,"ĠKailangan":3265,"irang":3266,"usog":3267,"Bilang":3268,"zo":3269,"Ġsund":3270,"ĠGra":3271,"Ġartista":3272,"ĠKam":3273,"Ġinaas":3274,"Ġpagmamahal":3275,"hal":3276,"alataya":3277,"ortahan":3278,"ampoo":3279,"uxine":3280,"bins":3281,"Ġhalaman":3282,"imo":3283,"ini":3284,"ĠSino":3285,"by":3286,"Ġpuke":3287,"Ġstory":3288,"ĠðŁĻĤ":3289,"Ġtinut":3290,"ĠLunas":3291,"Ġmenu":3292,"ĠAle":3293,"Ġmamamayan":3294,"Ġdalaga":3295,"ious":3296,"ger":3297,"Nat":3298,"isi":3299,"ukat":3300,"ĠStar":3301,"Ġwill":3302,"izal":3303,"ards":3304,"Ġbub":3305,"ugnayan":3306,"uang":3307,"Tum":3308,"Worm":3309,"Ġtahanan":3310,"Ġlike":3311,"Sana":3312,"Ġfacials":3313,"Ġold":3314,"Ġmanok":3315,"Ġmatatanda":3316,"ĠBab":3317,"Ġbalak":3318,"Ġmangyayari":3319,"Ġnand":3320,"Ġdon":3321,"Ġnarinig":3322,"Ġmainit":3323,"ĠKum":3324,"ensahe":3325,"ĠJohn":3326,"Ġent":3327,"mint":3328,"Ġeks":3329,"Ġuli":3330,"untahan":3331,"ually":3332,"Ġartik":3333,"tibo":3334,"ĠComm":3335,"ĠAN":3336,"bahay":3337,"Ġnagmam":3338,"Ġkapangyarihan":3339,"Ġkahapon":3340,"kad":3341,"Ġnadagdagan":3342,"ube":3343,"Ġisin":3344,"did":3345,"Ġtabi":3346,"Ġisyu":3347,"under":3348,"Upang":3349,"Ġtea":3350,"atira":3351,"esis":3352,"Ġdarating":3353,"Ġlig":3354,"Ġtur":3355,"Ġcalor":3356,"abata":3357,"ugali":3358,"Ġif":3359,"ĠMart":3360,"otoong":3361,"ike":3362,"Ġdila":3363,"Ġlungsod":3364,"ukod":3365,"Ġbili":3366,"Ġanu":3367,"dang":3368,"ait":3369,"ahalagang":3370,"yrics":3371,"Ġexp":3372,"OO":3373,"Ġaklat":3374,"labas":3375,"ĠBaka":3376,"Ġmadali":3377,"Ġsyang":3378,"uly":3379,"ham":3380,"ĠLib":3381,"rush":3382,"akbang":3383,"ĠTe":3384,"entong":3385,"ings":3386,"ĠJe":3387,"Ġkape":3388,"Ġpor":3389,"alimutan":3390,"Ġmaiwasan":3391,"igla":3392,"Ġpop":3393,"ĠTapos":3394,"read":3395,"Ġeff":3396,"ayop":3397,"cle":3398,"Ġwikang":3399,"ĠRob":3400,"kita":3401,"imple":3402,"lul":3403,"Ġbatayan":3404,"ĠBula":3405,"ĠLot":3406,"umber":3407,"oscow":3408,"Ġnyang":3409,"Ġpek":3410,"Ġmangga":3411,"kung":3412,"sia":3413,"Ġpict":3414,"rec":3415,"Ġfeeling":3416,"tse":3417,"Pro":3418,"agaling":3419,"ining":3420,"ĠEs":3421,"Anong":3422,"utris":3423,"ĠMus":3424,"Ġkatagal":3425,"tatalik":3426,"ĠDis":3427,"DA":3428,"Ġnagm":3429,"25":3430,"baba":3431,"ihang":3432,"dock":3433,"xt":3434,"uwento":3435,"weet":3436,"Ġkabila":3437,"Ġlangit":3438,"igdi":3439,"dagdag":3440,"ibong":3441,"unawaan":3442,"ĠLing":3443,"ugto":3444,"patuloy":3445,"pro":3446,"ĠRos":3447,"Ġpabor":3448,"Ġtoena":3449,"ahalaga":3450,"Ġnakah":3451,"fer":3452,"Ġide":3453,"Ġpagpapat":3454,"Ġproy":3455,"Ġserbisyo":3456,"atao":3457,"ĠAnong":3458,"wento":3459,"ĠMahal":3460,"Ġinumin":3461,"antay":3462,"abayan":3463,"utong":3464,"uch":3465,"Ġexc":3466,"Ġpaggawa":3467,"Ġtan":3468,"ĠReduxine":3469,"ĠBe":3470,"ĠPAR":3471,"Ġtatay":3472,"Ġint":3473,"ones":3474,"Ġess":3475,"ĠPana":3476,"Ġnamatay":3477,"Ġpw":3478,"Face":3479,"Ġyon":3480,"ves":3481,"ated":3482,"Ibig":3483,"Ġpakik":3484,"Ġtanggap":3485,"abalik":3486,"Ġplano":3487,"Ġlistahan":3488,"ubukan":3489,"elle":3490,"Ġrek":3491,"lisin":3492,"OM":3493,"ĠBagong":3494,"Ġmasarap":3495,"agsak":3496,"Ġitina":3497,"Ġkotse":3498,"lag":3499,"ĠSalamat":3500,"ĠOff":3501,"Kap":3502,"aliwanag":3503,"Ġkadalas":3504,"ĠMang":3505,"Ġmahalaga":3506,"Ġpul":3507,"alapit":3508,"Ġâ":3509,"arito":3510,"IA":3511,"Ġparin":3512,"Ġgawain":3513,"che":3514,"Ġdulo":3515,"ĠSuso":3516,"Ġpinat":3517,"Ġmangyari":3518,"bal":3519,"ja":3520,"ĠMark":3521,"Ġsistema":3522,"Ġgym":3523,"ĠPart":3524,"ĠRep":3525,"Ġpangyayari":3526,"Huwag":3527,"kod":3528,"Ġtoes":3529,"ray":3530,"Ġdetal":3531,"Ġmust":3532,"Ġkaramihan":3533,"alawa":3534,"Ġpharm":3535,"ĠMoscow":3536,"hihintay":3537,"ml":3538,"gawang":3539,"Ġsinus":3540,"ĠTao":3541,"atakbo":3542,"yaryo":3543,"ulin":3544,"rong":3545,"Ġmalawak":3546,"Ġtem":3547,"ikong":3548,"ĠMaynila":3549,"akay":3550,"Ġ06":3551,"anapin":3552,"ANO":3553,"ĠNew":3554,"langin":3555,"Ġlibro":3556,"Ġhost":3557,"Ġ100":3558,"uwal":3559,"Ġfec":3560,"yaan":3561,"!!!!":3562,"con":3563,"rasyon":3564,"ĠAY":3565,"Ġ28":3566,"oro":3567,"ĠHealth":3568,"ï¿½ï¿½ï¿½ï¿½":3569,"Pamam":3570,"lili":3571,"undam":3572,"orte":3573,"ĠCristo":3574,"Ġmakakakuha":3575,"ukin":3576,"utrisyon":3577,"ilin":3578,"Lahat":3579,"Ġcare":3580,"Ġsay":3581,"Ġtamod":3582,"Dag":3583,"sin":3584,"Mak":3585,"ĠHo":3586,"abet":3587,"Ġnegosyo":3588,"Ġpet":3589,"UR":3590,"phone":3591,"aramdam":3592,"Ġsocial":3593,"usta":3594,"Ġhop":3595,"Ġpula":3596,"Ġngiti":3597,"Ġhawak":3598,"ative":3599,"Ġmakatulong":3600,"ale":3601,"Ġbul":3602,"Ġmot":3603,"ibay":3604,"hersisyo":3605,"ĠBoy":3606,"Ġbl":3607,"Ġkaba":3608,"Ġkalam":3609,"Ġpagkah":3610,"Ġsapagkat":3611,"iyer":3612,"Ġitinut":3613,"ĠPA":3614,"ĠAngel":3615,"undamental":3616,"Ġwhat":3617,"wing":3618,"den":3619,"ystem":3620,"Ġgitna":3621,"Ġdagat":3622,"âĢ¦âĢĿ":3623,"ĠPe":3624,"Ġata":3625,"Ġgumagamit":3626,"Ġibinigay":3627,"Ġmatanda":3628,"ĠIng":3629,"ĠAll":3630,"Ġhapon":3631,"ĠLu":3632,"Ġnaglala":3633,"ikot":3634,"velop":3635,"Ġkasalukuyang":3636,"Ġkatangian":3637,"mi":3638,"oseso":3639,"ps":3640,"ĠFacebook":3641,"Ilang":3642,"ief":3643,"ĠTips":3644,"Ġluya":3645,"Ġtingnan":3646,"Ġbirth":3647,"dan":3648,"dina":3649,"ĠâĢĻ":3650,"ule":3651,"ĠGod":3652,"Ġ26":3653,"Ġ..":3654,"Ġkapaki":3655,"Ġact":3656,"ensiya":3657,"itor":3658,"asalamat":3659,"uturo":3660,"Ġhelmint":3661,"obrang":3662,"Ġstar":3663,"lie":3664,"ism":3665,"Ġimb":3666,"Ġpanganganak":3667,"ercise":3668,"ET":3669,"ungin":3670,"Ġanim":3671,"post":3672,"Ġnakatira":3673,"pin":3674,"Ġpress":3675,"ĠGamit":3676,"Ġpigmentation":3677,"rael":3678,"Ġacid":3679,"Ġputing":3680,"ĠBlog":3681,"enn":3682,"ca":3683,"uel":3684,"iyan":3685,"Ġaga":3686,"Ġakt":3687,"Ġind":3688,"Ġiniisip":3689,"Ġend":3690,"ĠMr":3691,"ĠPinay":3692,"less":3693,"Ġpalakas":3694,"Ġfilipino":3695,"ĠJess":3696,"ĠRod":3697,"Ġbad":3698,"ience":3699,"ĠIS":3700,"cep":3701,"Ġkaalaman":3702,"alaw":3703,"Ġpinto":3704,"agal":3705,"Ġsib":3706,"Pags":3707,"Ġbaby":3708,"26":3709,"Ġform":3710,"onood":3711,"hanga":3712,"agumpay":3713,"Ġfungi":3714,"Ġmagla":3715,"osis":3716,"ĠMayroon":3717,"ĠHotel":3718,"akailan":3719,"ecial":3720,"Ġhis":3721,"ulite":3722,"ĠJuan":3723,"Ġyog":3724,"'m":3725,"Ġpalang":3726,"Ġob":3727,"lina":3728,"ures":3729,"Ġbea":3730,"Ġmensahe":3731,"Ġ2012":3732,"inta":3733,"alikasan":3734,"ĠNI":3735,"Ġpinas":3736,"ding":3737,"vice":3738,"ĠBag":3739,"ather":3740,"Ġtala":3741,"amantala":3742,"uksan":3743,"Ġlayun":3744,"nglish":3745,"jo":3746,"ĠAraw":3747,"Ġaral":3748,"Good":3749,"Ġlife":3750,"daan":3751,"utok":3752,"liya":3753,"Ġmatukoy":3754,"Ġugat":3755,"YO":3756,"Ġterm":3757,"ED":3758,"yes":3759,"Ġtugon":3760,"Ġdalhin":3761,"Ġpanaginip":3762,"tao":3763,"ksyon":3764,"igaw":3765,"Salamat":3766,"Ġmakilala":3767,"olit":3768,"ĠWorm":3769,"Ġlabanan":3770,"50":3771,"alimbawa":3772,"Ġmakas":3773,"Ġnakuha":3774,"Ġkaranasan":3775,"tainment":3776,"Ġalaga":3777,"ĠOnline":3778,"23":3779,"ĠHapon":3780,"Ġbiy":3781,"Ġsaya":3782,"Ġmasasabi":3783,"Ġpuro":3784,"Ġyogurt":3785,"Ġfe":3786,"Ġsumusunod":3787,"Ġinst":3788,"Ġunti":3789,"itt":3790,"gar":3791,"kab":3792,"itaw":3793,"Ġroom":3794,"mpalataya":3795,"ration":3796,"Ġbansang":3797,"olohiya":3798,"TV":3799,"tang":3800,"Ġsang":3801,"Ġluha":3802,"ĠIsrael":3803,"Ġsure":3804,"ath":3805,"atch":3806,"orr":3807,"Ġlag":3808,"ĠLab":3809,"ĠOFW":3810,"Ġmod":3811,"Ġtotoong":3812,"rac":3813,"worm":3814,"Ġboses":3815,"Ġinih":3816,"unga":3817,"ĠSab":3818,"Ġate":3819,"ĠRom":3820,"Ġdrug":3821,"Ġmaip":3822,"Ġpareho":3823,"Ġlumip":3824,"29":3825,"star":3826,"ert":3827,"iin":3828,"Ġtiyak":3829,"Ġnow":3830,"anya":3831,"Ġpapunta":3832,"aktan":3833,"Ġsek":3834,"ĠRich":3835,"erat":3836,"vern":3837,"els":3838,"Ġkakay":3839,"ĠNasa":3840,"Ġ27":3841,"Ngayon":3842,"Ġnakab":3843,"tel":3844,"IV":3845,"Ġ2013":3846,"ĠSarah":3847,"AC":3848,"Ġfans":3849,"Ġtext":3850,"Ġfam":3851,"Ġmagagawa":3852,"pos":3853,"ider":3854,"lication":3855,"Ġamag":3856,"Ġsimb":3857,"disyon":3858,"Ġtop":3859,"Ġlimang":3860,"Ġkasaysayan":3861,"Ġoo":3862,"Ġilagay":3863,"orin":3864,"urs":3865,"agat":3866,"Ġcap":3867,"Ġacne":3868,"ĠKO":3869,"Ġsolusyon":3870,"Dibdib":3871,"ateg":3872,"Ġmustasa":3873,"atlong":3874,"Ġbook":3875,"ĠKong":3876,"ĠJos":3877,"Ġguro":3878,"Ġganoon":3879,"ikha":3880,"osmet":3881,"akyat":3882,"Ġpagkuha":3883,"Ġnasus":3884,"Ġindi":3885,"kak":3886,"Ġmake":3887,"ware":3888,"ĠVal":3889,"Ġpri":3890,"atayan":3891,"Ġipap":3892,"pero":3893,"Ġplay":3894,"anu":3895,"Ġmahilig":3896,"ingg":3897,"Lunas":3898,"Ġpano":3899,"UH":3900,"ĠMula":3901,"ords":3902,"lab":3903,".,":3904,"bon":3905,"inira":3906,"Ġget":3907,"Ġpip":3908,"Ġmagaling":3909,"Ġsimpleng":3910,"Ġpaaralan":3911,"Ġpla":3912,"Ġniyog":3913,"Ġunder":3914,"zz":3915,"Ġkinuha":3916,"uportahan":3917,"Ġkel":3918,"Sub":3919,"als":3920,"igpit":3921,"Ġhanda":3922,"lick":3923,"Ġusap":3924,"Ġset":3925,"ĠLinggo":3926,"yado":3927,"ĠMaraming":3928,"Ġbra":3929,"nes":3930,"ĠPost":3931,"Ġoliba":3932,"Ġkulang":3933,"alon":3934,"ening":3935,"ergy":3936,"Ġcam":3937,"ĠHome":3938,"aaralan":3939,"Ġpalakasin":3940,"Um":3941,"ultura":3942,"Ġmakakatulong":3943,"Ġnumber":3944,"lakbay":3945,"Yung":3946,"liksik":3947,"Ġinit":3948,"ataw":3949,"areho":3950,"Ġpinang":3951,"ĠCol":3952,"Ġnext":3953,"ĠGirl":3954,"pot":3955,"Ngunit":3956,"antot":3957,"kw":3958,"urse":3959,"ring":3960,"Ġ=":3961,"iliin":3962,"Bitamina":3963,"Ġkinab":3964,"Ġmahulog":3965,"59":3966,"awin":3967,"Ġlupon":3968,"ĠGan":3969,"Ġmagm":3970,"Ġtanging":3971,"ĠMy":3972,"anao":3973,"Ġvery":3974,"alagayan":3975,"ution":3976,"hinese":3977,"minist":3978,"Ġtest":3979,"aryo":3980,"Ġ29":3981,"Tungkol":3982,"apply":3983,"Ġgumamit":3984,"Ġplan":3985,"NP":3986,"zan":3987,"Ġproject":3988,"Ġfo":3989,"Ġlola":3990,"ĠNAG":3991,"Alisin":3992,"eep":3993,"Ġshowbiz":3994,"seril":3995,"Ġtagal":3996,"ts":3997,"ĠUk":3998,"Ġnapansin":3999,"/)":4000,"Ġkahulugan":4001,"ĠBre":4002,"ĠMon":4003,"galit":4004,"ĠBu":4005,"awasan":4006,"Ġboyfriend":4007,"time":4008,"Ġpharmacy":4009,"Ġhangin":4010,"Ġ>":4011,"Mar":4012,"alikan":4013,"can":4014,"ico":4015,"ĠFran":4016,"ĠĠĠĠ":4017,"ĠPresident":4018,"gad":4019,"Part":4020,"Ġ01":4021,"ĠâĢĶ":4022,"Ġtaasan":4023,"alian":4024,"ingat":4025,"Ġfilm":4026,"ĠOo":4027,"aaaring":4028,"Ġsitw":4029,"ony":4030,"Ġass":4031,"Ġben":4032,"âĢĿ.":4033,"ĠUnivers":4034,"ĠIlang":4035,"usiness":4036,"Ġbasahin":4037,"Ġalak":4038,"amo":4039,"Ġkole":4040,"Ġnagsimula":4041,"Ġhakbang":4042,"pl":4043,"fo":4044,"Ġimport":4045,"ĠKAY":4046,"ĠRa":4047,"ney":4048,"ĠAnak":4049,"Ġsuper":4050,"28":4051,"Ġipakita":4052,"lege":4053,"fac":4054,"Ġsige":4055,"iisa":4056,"esti":4057,"amis":4058,"ĠTra":4059,"ugust":4060,"Ġalas":4061,"edyer":4062,"Ġsm":4063,"Ġkanta":4064,"Ġpondo":4065,"Ġresp":4066,"riwang":4067,"Ġleeg":4068,"Ġnaturang":4069,"Ġmapanganib":4070,"Ġmahigit":4071,"usa":4072,"ahimik":4073,"isit":4074,"Ġsangk":4075,"ĠFer":4076,"Ġemail":4077,"umi":4078,"Ġcellulite":4079,"Ġtel":4080,"Ġclass":4081,"Ġbarangay":4082,"27":4083,"ĠKore":4084,"ople":4085,"Cream":4086,"erye":4087,"inggil":4088,"Ġkausap":4089,"bayan":4090,"Ġz":4091,"ĠReview":4092,"Ġyang":4093,"Ġtar":4094,"ĠAyon":4095,"Tulad":4096,"ull":4097,"bog":4098,"imulan":4099,"ayaw":4100,"Fac":4101,"ukasyon":4102,"agay":4103,"Ġteam":4104,"ĠHINDI":4105,"Noong":4106,"Ġpanahong":4107,"ĠBen":4108,"ĠSe":4109,"Ġfuck":4110,"sena":4111,"itness":4112,"Ġbigat":4113,"ights":4114,".)":4115,"Ġbaba":4116,"ampok":4117,"Ġcalories":4118,"ganap":4119,"amilya":4120,"cial":4121,"Ġmabisang":4122,"Ġsumas":4123,"ulate":4124,"dio":4125,"Ġmasas":4126,"Ġmanana":4127,"ablo":4128,"Ġnormal":4129,"Ġpambutas":4130,"Ġumuwi":4131,"Ġtulu":4132,"ude":4133,"su":4134,"alok":4135,"Sino":4136,"irinig":4137,"21":4138,"He":4139,"Ġlayunin":4140,"Ġisipin":4141,"Ġdetalye":4142,"Ġnaniniwala":4143,"ĠMarami":4144,"Ġlive":4145,"ĠAking":4146,"ĠAm":4147,"Ġdagdag":4148,"ĠAte":4149,"bid":4150,"Parasites":4151,"Ġmalalim":4152,"Sinabi":4153,"UP":4154,"Ġnalaman":4155,"ĠMore":4156,"Ġpagod":4157,"Ġeto":4158,"imulang":4159,"Ġkapit":4160,"Ġfree":4161,"ction":4162,"ulub":4163,"Ġmakuha":4164,"Ġnilalaman":4165,"Ġpagkahulog":4166,"liday":4167,"Ġlahi":4168,"Ġmaikling":4169,"ense":4170,"Ġpinags":4171,"ĠDepartment":4172,"Ġkateg":4173,"ĠJose":4174,"lax":4175,"âĢĤ":4176,"ĠEl":4177,"Ġana":4178,"rama":4179,"Ġdriver":4180,"Ġnaa":4181,"Kum":4182,"Ġesp":4183,"damin":4184,"Ġsiyempre":4185,"raine":4186,"Tagalog":4187,"lock":4188,"ĠBibliya":4189,"aligiran":4190,"Ġhayop":4191,"INO":4192,"Ġpumasa":4193,"ĠEsp":4194,"Ġsuot":4195,"Ġproyekto":4196,"Ġtele":4197,"Ġcard":4198,"Ġpansin":4199,"Ġgayon":4200,"https":4201,"wood":4202,"Ġbinata":4203,"akot":4204,"alitan":4205,"Ġ2011":4206,"ihi":4207,"dies":4208,"Ġhand":4209,"Ġlub":4210,"ship":4211,"Ġsulat":4212,"Ġtits":4213,"HE":4214,"Ġpangk":4215,"Ġnakakat":4216,"Ġkalagayan":4217,"ĠJam":4218,"ĠSlimming":4219,"Ġnaramdaman":4220,"banggit":4221,"ms":4222,"ĠGina":4223,"ibers":4224,"boy":4225,"Ġtoenails":4226,"ĠJer":4227,"Ġkalikasan":4228,"apatid":4229,"national":4230,"ĠBro":4231,"wagan":4232,"ĠKristi":4233,"ĠPala":4234,"Ġmabuting":4235,"ĠBata":4236,"gusto":4237,"Ġkaloob":4238,"ilik":4239,"Ġganap":4240,"Ġmalayo":4241,"Ġhari":4242,"ecember":4243,"ĠBabae":4244,"Ġmalinis":4245,"Ġmasamang":4246,"Ġkaagad":4247,"ĠBiblia":4248,"Ġmadilim":4249,"SS":4250,"Ġ2010":4251,"Ġshampoo":4252,"Ġlinya":4253,"uhod":4254,"ruz":4255,"Iba":4256,"Ġmurang":4257,"Ġpalabas":4258,"iritu":4259,"angan":4260,"ĠDay":4261,"uta":4262,"Ġmarunong":4263,"Ġhinah":4264,"Ġgame":4265,"gatas":4266,"ikit":4267,"ĠSakit":4268,"Ap":4269,"ĠPolice":4270,"uon":4271,"ĠQu":4272,"insk":4273,"Ġpaglilinis":4274,"Ġpun":4275,"Ġmasakit":4276,"indutin":4277,"35":4278,"angis":4279,"aging":4280,"Ġsitwasyon":4281,"Unang":4282,"ĠBel":4283,"iral":4284,"ĠPEP":4285,"ĠIka":4286,"Ġgulay":4287,"Ġpagsis":4288,"glesia":4289,"ngi":4290,"ĠSiguro":4291,"ĠPO":4292,"html":4293,"ĠKanyang":4294,"ates":4295,"Ġpinsala":4296,"Ġhanay":4297,"ĠChina":4298,"Ġbatay":4299,"Ġ2014":4300,"Ġhappy":4301,"Ġswim":4302,"Facial":4303,"vest":4304,"ĠPasko":4305,"amatay":4306,"Ġmedic":4307,"Ġmagsas":4308,"ife":4309,"ahiya":4310,"dness":4311,"Ġlokal":4312,"Ġber":4313,"Ġhorm":4314,"awal":4315,"iyahan":4316,"laban":4317,"Ġstor":4318,"vis":4319,"uma":4320,"uluhan":4321,"ĠEnter":4322,"Ġkomun":4323,"Ġpangangailangan":4324,"Ġdak":4325,"Ġukol":4326,"ahah":4327,"Ġibina":4328,"indanao":4329,"por":4330,"intment":4331,"aron":4332,"wigan":4333,"05":4334,"Ġpans":4335,"eronimo":4336,"cto":4337,"Ġbato":4338,"Ġhalip":4339,"Ġdownload":4340,"AWA":4341,"Ġsandali":4342,"Ġngang":4343,"oco":4344,"vers":4345,"Ġfeed":4346,"Ġpropes":4347,"Ġharapan":4348,"icial":4349,"isipan":4350,"\".":4351,"ysay":4352,"Ġwant":4353,"Ġtekn":4354,"Ġibigay":4355,"ĠIba":4356,"duc":4357,"Kasi":4358,"uff":4359,"Ġalm":4360,"Ġkons":4361,"uyas":4362,"Ġnad":4363,"LE":4364,"amahan":4365,"Ġpisngi":4366,"Maliit":4367,"Ġmama":4368,"Ġphoto":4369,"Ġdiba":4370,"isan":4371,"Bas":4372,"ION":4373,"____":4374,"Sum":4375,"Ġtaas":4376,"ĠMetro":4377,"Ġmati":4378,"ĠRizal":4379,"Ġ?":4380,"lood":4381,"Ġmahabang":4382,"Ġpuppy":4383,"Ġtrip":4384,"liwanag":4385,"Ġcomment":4386,"ities":4387,"Ġpagbibigay":4388,"Ġfungal":4389,"Ġdesisyon":4390,"ĠEh":4391,"ract":4392,"Sh":4393,"ĠGeronimo":4394,"Ġginamit":4395,"akin":4396,"otox":4397,"yag":4398,"Ġasin":4399,"uts":4400,"ĠKar":4401,"light":4402,"ĠKuko":4403,"osto":4404,"ĠSal":4405,"Ġland":4406,"Ġlumala":4407,"HINDI":4408,"Ġkumpanya":4409,"Ġhug":4410,"igdig":4411,"ĠHabang":4412,"Ġexper":4413,"Ġtrat":4414,"Ġchan":4415,"âĢĺ":4416,"ely":4417,"ĠII":4418,"Ġcute":4419,"pitan":4420,"wo":4421,"Ġsukat":4422,"Ġreak":4423,"Ġinteres":4424,"ĠTal":4425,"ignan":4426,"aras":4427,"Ġgumagawa":4428,"Ġreb":4429,"Ġali":4430,"ĠSant":4431,"Ġlet":4432,"ĠPagkatapos":4433,"Ġkanser":4434,"Ġpanig":4435,"ĠRodr":4436,"ĠPum":4437,"ĠSen":4438,"Ġbanyo":4439,"Ġaktres":4440,"buhay":4441,"rina":4442,"ĠNakak":4443,"Ġthen":4444,"Ġcellphone":4445,"list":4446,"ĠPinag":4447,"urb":4448,"ĠSchool":4449,"ĠPagtatalik":4450,"kasyon":4451,"ĠLotseril":4452,"Ġinternet":4453,"ĠUkraine":4454,"Ġlipunan":4455,"ensyon":4456,"ilitar":4457,"alagay":4458,"blog":4459,"ebru":4460,"erald":4461,"lalaki":4462,"Pamamaga":4463,"asal":4464,"ebruary":4465,"Ġpumili":4466,"Ġnews":4467,"Ġpapa":4468,"ĠMinsan":4469,"ahi":4470,"Ġphone":4471,"ĠPort":4472,"Ġlumaki":4473,"ball":4474,"ĠMayor":4475,"andahan":4476,"Ġmina":4477,"Ġninyong":4478,"Ta":4479,"ĠVic":4480,"hati":4481,"Ġkababayan":4482,"ĠTag":4483,"Ġmonths":4484,"ĠLove":4485,"hil":4486,"Ġamoy":4487,"Ġnutrisyon":4488,"enda":4489,"40":4490,"ĠImp":4491,"Ġholiday":4492,"ahinga":4493,"ĠEntertainment":4494,"Ġham":4495,"usang":4496,"apekto":4497,"ĠMic":4498,"Ġfamily":4499,"Ġusapan":4500,"Ġreklamo":4501,"ĠPangulo":4502,"Ġway":4503,"Ġmadam":4504,"Ġtratuhin":4505,"wakan":4506,"baguhin":4507,"Kailangan":4508,"eno":4509,"lanin":4510,"awakan":4511,"Ġlayo":4512,"ĠAk":4513,"ĠSub":4514,"ĠHa":4515,"ĠPARA":4516,"ffee":4517,"ganda":4518,"ĠAma":4519,"Ġcho":4520,"Ġkunin":4521,"gdagang":4522,"ĠHanggang":4523,"Ġnahih":4524,"Ġtind":4525,"atig":4526,"Ġbirthday":4527,"Ġdamdamin":4528,"amba":4529,"Ġter":4530,"Ġpanin":4531,"Ġkarne":4532,"Ġx":4533,"ĠDon":4534,"Ġmahih":4535,"unes":4536,"ĠBea":4537,"patay":4538,"ĠSir":4539,"uwid":4540,"Ġbid":4541,"ology":4542,"...\"":4543,"upit":4544,"Ġnagsisimula":4545,"masya":4546,"Pagkatapos":4547,"Ġsumunod":4548,"Ġtapat":4549,"hahanda":4550,"ĠJapan":4551,"ikat":4552,"Ġmer":4553,"ĠNatural":4554,"ange":4555,"Ġkaraniwang":4556,"Ġits":4557,"ĠChrist":4558,"Pinakam":4559,"Ġnagbigay":4560,"IYA":4561,"Ġlumang":4562,"fore":4563,"Mah":4564,"Ġsur":4565,"Ġpelikulang":4566,"Ġblack":4567,"ĠGen":4568,"uento":4569,"uice":4570,"Ġcy":4571,"oth":4572,"Ġmagawa":4573,"Ġbeauty":4574,"Ġitinuturing":4575,"has":4576,"Ġtagalog":4577,"Â»":4578,"ĠMali":4579,"Ġekonom":4580,"ebu":4581,"ĠMiss":4582,"Ġkasangk":4583,"Ġclay":4584,"gandang":4585,"ĠAKO":4586,"Ġapplication":4587,"Ġdays":4588,"yle":4589,"Maraming":4590,"Siya":4591,"Ġsamp":4592,"Ġprogramang":4593,"ahon":4594,"eserye":4595,"dila":4596,"Ġbaldness":4597,"ubre":4598,"banghel":4599,"eting":4600,"ous":4601,"Ġsuspek":4602,"ĠMarcos":4603,"Ġpulang":4604,"ligtas":4605,"kaya":4606,"lipat":4607,"Ġlng":4608,"ĠPop":4609,"inasyon":4610,"tasan":4611,"ane":4612,"Ġpader":4613,"vert":4614,"Ġibalik":4615,"Ġkil":4616,"ua":4617,"Ġpicture":4618,"adura":4619,"Ġ60":4620,"Ġwor":4621,"pakita":4622,"pisode":4623,"Ġfriends":4624,"Ġpangulo":4625,"urong":4626,"Ġpinan":4627,"ulak":4628,"ĠVice":4629,"ustri":4630,"Ġhere":4631,"ster":4632,"Ina":4633,"Ġmamatay":4634,"Is":4635,"Ġmasyado":4636,"iyempre":4637,"Ġevery":4638,"Ġtumat":4639,"Ġkitang":4640,"Ġtagapag":4641,"Ġisipan":4642,"ĠArt":4643,"Ġhugas":4644,"Ġactor":4645,"ukasan":4646,"eksiyon":4647,"kap":4648,"ILA":4649,"Ġthink":4650,"Ġnagh":4651,"???":4652,"Ġantas":4653,"ush":4654,"elya":4655,"ĠJust":4656,"ĠMap":4657,"Ġprof":4658,"Ġmisis":4659,"Ġhips":4660,"ĠKim":4661,"itin":4662,"Ġngipin":4663,"irm":4664,"Pam":4665,"Ġulat":4666,"orth":4667,"inst":4668,"ende":4669,"ikap":4670,"ĠThan":4671,"Ġbet":4672,"alay":4673,"Bulate":4674,"Ġnatat":4675,"Ġpagpapabata":4676,"ĠNoong":4677,"Ġaaral":4678,"Ġparmasya":4679,"Ġmalinaw":4680,"ĠPANG":4681,"Ġiw":4682,"Ġilong":4683,"CH":4684,"gasyon":4685,"ayad":4686,"lot":4687,"ĠGum":4688,"Ġanyo":4689,"Ġhard":4690,"alingsing":4691,"ĠOffice":4692,"banghelyo":4693,"aangat":4694,"Ġtunog":4695,"Ġmatinding":4696,"Langis":4697,"disyonal":4698,"Ġsamb":4699,"adali":4700,"Ġname":4701,"Ġrate":4702,"dating":4703,"Ġlumitaw":4704,"Ġmababang":4705,"usal":4706,"Ġnagpapakita":4707,"Ġparty":4708,"Ġkalamnan":4709,"uriin":4710,"ĠPin":4711,"ĠDito":4712,"likha":4713,"Ġskin":4714,"Ġkapaligiran":4715,"ĠCruz":4716,"Ġjo":4717,"Ġpangung":4718,"abawasan":4719,"Ġlink":4720,"Ġleb":4721,"ĠBatang":4722,"Ġnakaraan":4723,"ĠBest":4724,"Ġnew":4725,"gg":4726,"anta":4727,"LO":4728,"alk":4729,"ĠLim":4730,"Nasa":4731,"book":4732,"Ġburdock":4733,"Ġpuki":4734,"Ġbust":4735,"45":4736,"Habang":4737,"ĠCenter":4738,"irt":4739,"ection":4740,"ĠAlex":4741,"Ġbraso":4742,"Ġ07":4743,"edy":4744,"ids":4745,"Ġred":4746,"nel":4747,"ĠPad":4748,"Ġbinigyan":4749,"Pagbaba":4750,"Ġpoint":4751,"Ġmaari":4752,"Ġpundamental":4753,"YA":4754,"Th":4755,"row":4756,"ĠPwede":4757,"Ġibaba":4758,"CP":4759,"Ġkabilis":4760,"ĠJuli":4761,"Ġmalamang":4762,"ĠBook":4763,"ĠUpang":4764,"ries":4765,"Ġkaragdagang":4766,"abuti":4767,"ĠSinabi":4768,"oma":4769,"eryoso":4770,"ĠFace":4771,"Ġeksena":4772,"erna":4773,"Ġaso":4774,"UK":4775,"aks":4776,"ĠLANG":4777,"uda":4778,"utol":4779,"Ġnagbab":4780,"ĠIbig":4781,"Ġfeces":4782,"sis":4783,"Ġhinahanap":4784,"undin":4785,"Ġedukasyon":4786,"Ġya":4787,"Ġtuk":4788,"van":4789,"rilyo":4790,"Ġopisina":4791,"ĠMaria":4792,"tit":4793,"Ġbaboy":4794,"Ġkaugnay":4795,"ats":4796,"Parang":4797,"Ġteleserye":4798,"ota":4799,"teng":4800,"ĠBan":4801,"Ġmais":4802,"ĠPapa":4803,"yam":4804,"Ġside":4805,"rid":4806,"Ġpagkab":4807,"Home":4808,"Ġmaunawaan":4809,"ĠPaggamot":4810,"Ġpasok":4811,"ĠJames":4812,"ĠTO":4813,"Ġexercise":4814,"ĠTom":4815,"ĠLitrato":4816,"Hi":4817,"Ġessay":4818,"200":4819,"undan":4820,"ĠPak":4821,"Ġmaaga":4822,"Ġsimbahan":4823,"org":4824,"Ġpm":4825,"ĠChinese":4826,"Ġsama":4827,"abetes":4828,"ĠPac":4829,"Ġhih":4830,"hiyo":4831,"Ġherbs":4832,"likong":4833,"Ġnetwork":4834,"ALAM":4835,"Ġkilalang":4836,"Ġpaghing":4837,"Ġproseso":4838,"Ġcomputer":4839,"Ġmark":4840,"come":4841,"Folk":4842,"Ġpagtatalik":4843,"Ġbenep":4844,"Ġtuta":4845,"Ġmagd":4846,"ĠKal":4847,"mig":4848,"Ġmagkakaroon":4849,"linika":4850,"Pas":4851,"uusapan":4852,"istro":4853,"Ġseg":4854,"pad":4855,"Ġnabasa":4856,"Ġpulit":4857,"ubuo":4858,"api":4859,"ĠInst":4860,"inner":4861,"Ġsystem":4862,"peto":4863,"ĠAL":4864,"Ġcastor":4865,"Ġmabuhay":4866,"Ġpayo":4867,"ĠCla":4868,"Ġsena":4869,"Ar":4870,"Ġmess":4871,"Ġbib":4872,"ĠSecret":4873,"ills":4874,"akilala":4875,"Ġsapagka":4876,"tagal":4877,"Ġ2009":4878,"ĠGab":4879,"enyo":4880,"unla":4881,"igat":4882,"ĠSing":4883,"Ġpalagi":4884,"Ġgen":4885,"sto":4886,"ley":4887,"angiti":4888,"ĠGawa":4889,"Ġlalawigan":4890,"roid":4891,"Ġospital":4892,"nais":4893,"ective":4894,"ĠAS":4895,"ĠTin":4896,"nd":4897,"mber":4898,"Ġnob":4899,"ftware":4900,"enjoy":4901,"Ġtho":4902,"Ġconcer":4903,"Ġdoc":4904,"Ġkasalukuyan":4905,"ros":4906,"Ġbubelya":4907,"Ġpass":4908,"inag":4909,"ĠMen":4910,"Ġnaghahanap":4911,"ĠSantos":4912,"back":4913,"DO":4914,"Ġlumapit":4915,"Ġaktor":4916,"ĠMukha":4917,"ĠLaro":4918,"ulubot":4919,"Ġsad":4920,"nata":4921,"Ġmaintindihan":4922,"Ġkamatayan":4923,"lation":4924,"Ġwakas":4925,"Ġ00":4926,"Ġulan":4927,"ĠChar":4928,"Ġnagpa":4929,"fic":4930,"ĠDIY":4931,"Ġdek":4932,"Ġover":4933,"ĠHun":4934,"ibigyan":4935,"igma":4936,"bin":4937,"gement":4938,"Ġsubalit":4939,"Ġartikulo":4940,"Ġcons":4941,"aas":4942,"Ġtax":4943,"los":4944,"Ġnakilala":4945,"Ġstud":4946,"ulaman":4947,"ĠRemate":4948,"sunod":4949,"eration":4950,"Ġkabu":4951,"ĠWeb":4952,"Ġkumakain":4953,"alitang":4954,"Ġrating":4955,"Ġliwanag":4956,"tot":4957,"Ġpupunta":4958,"ĠBig":4959,"Ġtinedyer":4960,"ĠBut":4961,"As":4962,"for":4963,"Ġkawalan":4964,"ĠBilang":4965,"ĠKristiyano":4966,"usuportahan":4967,"EC":4968,"Ġhala":4969,"ĠBin":4970,"Ġbilis":4971,"Ġkategorya":4972,"Ġour":4973,"Ġbrown":4974,"abol":4975,"ENT":4976,"amali":4977,"aniel":4978,"Ġbase":4979,"Ġpampub":4980,"ctober":4981,"33":4982,"Ġalin":4983,"Ġpatayin":4984,"room":4985,"HO":4986,"lash":4987,"Ġinf":4988,"pono":4989,"Ġmapa":4990,"opy":4991,"Ġpinoy":4992,"meal":4993,"apter":4994,"Ġkomento":4995,"mos":4996,"Ġpilipino":4997,"Ġsuporta":4998,"daman":4999,"lasyon":5000,"Ġsexy":5001,"Bumili":5002,"alagahan":5003,"ĠForum":5004,"Ġlead":5005,"pples":5006,"tern":5007,"Dark":5008,"gaya":5009,"Ġposibleng":5010,"Ġsports":5011,"ĠRichard":5012,"Tablet":5013,"Ġjuice":5014,"act":5015,"Ġ35":5016,"ĠBasta":5017,"ĠBA":5018,"Ġ02":5019,"atmeal":5020,"Ġnipples":5021,"Ġlalam":5022,"ĠNob":5023,"Ġkontra":5024,"leng":5025,"text":5026,"witter":5027,"osmetic":5028,"Ġpi":5029,"Ġsah":5030,"Pinoy":5031,"Ġadminist":5032,"Ġgirlfriend":5033,"Ġserye":5034,"rer":5035,"nam":5036,"Ġbumab":5037,"Ġfile":5038,"Ġbukod":5039,"Ġnandito":5040,"erson":5041,"kal":5042,"Ġumabot":5043,"Ġbutas":5044,"ĠSer":5045,"Ġnapili":5046,"sana":5047,"Gan":5048,"ulangan":5049,"Ġdem":5050,"OK":5051,"ars":5052,"Ġopin":5053,"osible":5054,"ĠWika":5055,"Ġpambansang":5056,"led":5057,"Ġkasangkapan":5058,"Ġgulaman":5059,"vao":5060,"):":5061,"09":5062,"Ġespes":5063,"ĠCR":5064,"ĠHaha":5065,"Ġdulot":5066,"Ġutang":5067,"ĠAra":5068,"ĠHin":5069,"ibilidad":5070,"Ġtatlo":5071,"anggi":5072,"asuso":5073,"Ġnabanggit":5074,"iro":5075,"lah":5076,"Ġlubos":5077,"Ġbusiness":5078,"Ġmiss":5079,"likasyon":5080,"Ġpilit":5081,"ause":5082,"Ġsira":5083,"Ġkump":5084,"ĠDo":5085,"Ġbalikat":5086,"Ġpes":5087,"ower":5088,"Ġrole":5089,"ugatan":5090,"Ġkuwarto":5091,"salamat":5092,"ĠGerald":5093,"Ġtauhan":5094,"34":5095,"ĠSte":5096,"Ġsibuyas":5097,"ĠTingnan":5098,"ĠPagpap":5099,"Ġmahahalagang":5100,"Ġtulog":5101,"Ġherbal":5102,"Ġoffice":5103,"iki":5104,"xide":5105,"Ġpay":5106,"ayap":5107,"Philipp":5108,"Ġbahala":5109,".....":5110,"Ġmanggagawa":5111,"ird":5112,"Ġmagkasama":5113,"icle":5114,"Ġtumingin":5115,"01":5116,"UB":5117,"Pat":5118,"mong":5119,"Wag":5120,"Ġkrim":5121,"Ġlebadura":5122,"Ġhen":5123,"ĠPagbig":5124,"ced":5125,"ĠWeight":5126,"itis":5127,"ission":5128,"Ġmaaring":5129,"pose":5130,"ĠLar":5131,"38":5132,"Ġnau":5133,"ĠPinas":5134,"nakit":5135,"Ġyugto":5136,"Ġsorry":5137,"iwatig":5138,"Ġpatungo":5139,"Ġ199":5140,"Ġpuwedeng":5141,"ĠHesus":5142,"abilis":5143,"Ġchara":5144,"Ġtindahan":5145,"Ġago":5146,"epte":5147,"ĠMac":5148,"omet":5149,"ĠShe":5150,"39":5151,"asaktan":5152,"Ġmatulog":5153,"ĠRussian":5154,"Ġsingit":5155,"Bago":5156,"ech":5157,"ĠAct":5158,"ĠMabisang":5159,"ĠPinakam":5160,"Ġbreak":5161,"pany":5162,"ĠIyong":5163,"alya":5164,"Ġprutas":5165,"Me":5166,"Ġhome":5167,"ĠHouse":5168,"Ġbusy":5169,"Ġbandang":5170,"Ġseries":5171,"ving":5172,"ĠEuro":5173,"RT":5174,"off":5175,"Ġbakla":5176,"eptember":5177,"ATAW":5178,"undok":5179,"Ġany":5180,"ĠWorld":5181,"rew":5182,"ĠBarangay":5183,"Ġet":5184,"Ġpasalingsing":5185,"ĠKay":5186,"ello":5187,"anatili":5188,"ĠUP":5189,"Ġrental":5190,"Ġhita":5191,"Ġdamo":5192,"abog":5193,"Ġmarinig":5194,"Ġmakaka":5195,"hop":5196,"inirahan":5197,"rero":5198,"Ġimportante":5199,"umento":5200,"untunin":5201,"Ġtumulong":5202,"rop":5203,"ĠWag":5204,"Ġpagw":5205,"Ġdisk":5206,"laki":5207,"arapin":5208,"36":5209,"ĠHina":5210,"ĠMom":5211,"Al":5212,"Ġcusto":5213,"vernment":5214,"ĠHigh":5215,"rogen":5216,"ĠIngles":5217,"Mabilis":5218,"umiti":5219,"ulasyon":5220,"lingkod":5221,"aganda":5222,"Ġpubliko":5223,"abo":5224,"uong":5225,"bub":5226,"mum":5227,"ategorya":5228,"uusap":5229,"ĠSila":5230,"Ġbud":5231,"anana":5232,"St":5233,"ĠNet":5234,"Ġnasabi":5235,"Ġgroup":5236,"diriwang":5237,"Ġayos":5238,"Ġcrush":5239,"ĠHahaha":5240,"Subject":5241,"Ġcareer":5242,"upang":5243,"Ġinn":5244,"ĠPi":5245,"ĠShow":5246,"Ġste":5247,"ĠYun":5248,"usina":5249,"ungaling":5250,"Ġniyan":5251,"ĠIB":5252,"Ġneed":5253,"ĠRodrigo":5254,"ĠPap":5255,"Ġbidyo":5256,"Ġthey":5257,"Ġpaminta":5258,"Ġtoe":5259,"eleb":5260,"Ġtakip":5261,"Ġmagsis":5262,"Ġhot":5263,"alakay":5264,"Ġbis":5265,"Ġsong":5266,"ĠVi":5267,"Ġmalagas":5268,"Ġpananampalataya":5269,"uyong":5270,"Ġhubad":5271,"Ġleast":5272,"Ġsigurado":5273,"MAN":5274,"Ġmagkas":5275,"ĠPagbigkas":5276,"andy":5277,"press":5278,"Ġmagsalita":5279,"Ġkesa":5280,"Ġguest":5281,"Ġlalamunan":5282,"ught":5283,"Ġmet":5284,"Ġkilalanin":5285,"Ġnig":5286,"Ġfood":5287,"Ġpaanan":5288,"reg":5289,"Ġih":5290,"Ġnala":5291,"Ġparte":5292,"Laro":5293,"Ġmatatagpuan":5294,"Ġmaskara":5295,"ĠPar":5296,"Ġlamb":5297,"Ġ*":5298,"zh":5299,"bre":5300,"ITO":5301,"Ġedema":5302,"Ġnakikipag":5303,"Ġmalamig":5304,"word":5305,"Ġbayad":5306,"hirap":5307,"IH":5308,"ayapaan":5309,"Ġhinggil":5310,"TA":5311,"Ġtumayo":5312,"Ġhangga":5313,"ahina":5314,"ĠAnti":5315,"akip":5316,"Ġtong":5317,"ulok":5318,"Ġmawawala":5319,"Ġtinanong":5320,"Ġlibog":5321,"Ġkals":5322,"Ġhealth":5323,"Ġist":5324,"ĠGar":5325,".âĢĻ":5326,"Ġginagamot":5327,"Malaking":5328,"alaran":5329,"Ġmalalaking":5330,"Ġiniwan":5331,"ĠDav":5332,"ĠJessica":5333,"ĠWith":5334,"ĠKras":5335,"arinig":5336,"ampa":5337,"Ġsent":5338,"awad":5339,"ĠGanda":5340,"ĠAyaw":5341,"Ġstat":5342,"Ġteknolohiya":5343,"Ġklinika":5344,"iwa":5345,"cis":5346,"ales":5347,"click":5348,"upunta":5349,"Ġlupain":5350,"vious":5351,"Ġmamb":5352,"Ġkatan":5353,"Ġtainga":5354,"Ġair":5355,"hana":5356,"ĠSex":5357,"Ġasul":5358,"ĠTanong":5359,"Epek":5360,"Ġcaps":5361,"akda":5362,"Ġkinalaman":5363,"atura":5364,"Ġrespons":5365,"Ġtawa":5366,"lus":5367,"ĠTrans":5368,"aalala":5369,"Ġcomm":5370,"Ġnagulat":5371,"Ġcle":5372,"ni":5373,"Ġmotor":5374,"Ġkakayahan":5375,"Sakit":5376,"Ġhila":5377,"zing":5378,"Ġlol":5379,"ways":5380,"Ġsumagot":5381,"Ġtinit":5382,"ulas":5383,"Ġtagumpay":5384,"ĠMarian":5385,"Ġ03":5386,"ĠAmerika":5387,"ĠEnglish":5388,"Sing":5389,"Ġbody":5390,"uporta":5391,"des":5392,"galo":5393,"andal":5394,"Ġpaghih":5395,"Ġmomm":5396,"Ġdahan":5397,"Ġmahaba":5398,"ype":5399,"ĠCal":5400,"Ġeng":5401,"tact":5402,"unahan":5403,"Ġhouse":5404,"ugin":5405,"ĠDIYOS":5406,"Ġmalalaman":5407,"ĠTang":5408,"inong":5409,"ĠAkala":5410,"Ġpaborito":5411,"etime":5412,"Marami":5413,"Ġtahimik":5414,"Ġmabawasan":5415,"mutan":5416,"ĠTA":5417,"ript":5418,"entuhan":5419,"antalang":5420,"UG":5421,"comm":5422,"Ġnaganap":5423,"Ġgagamit":5424,"lon":5425,"Ġsapatos":5426,"Ġmagsunog":5427,"Pum":5428,"ĠMalaking":5429,"ĠMAY":5430,"Ġthere":5431,"Ġsto":5432,"uthor":5433,"Ġnawalan":5434,"Ġlar":5435,"Ġsel":5436,"ĠUnang":5437,"Ġnight":5438,"Ġnagsabi":5439,"Ġpolit":5440,"yshe":5441,"unter":5442,"inab":5443,"Ġkain":5444,"Ġhuk":5445,"alagita":5446,"Ġview":5447,"Ġdel":5448,"Ġwrit":5449,"Ġputi":5450,"Ġsik":5451,"Ah":5452,"Ġreally":5453,"Ġadult":5454,"ched":5455,"urity":5456,"urn":5457,"OD":5458,"Ġpaga":5459,"Ġmasuri":5460,"cia":5461,"Ġkawan":5462,"Ġinsp":5463,"ITA":5464,"ĠIglesia":5465,"epe":5466,"Ġlot":5467,"ĠMedyo":5468,"Ġinaasahan":5469,"obra":5470,"ĠNakita":5471,"Ġpampublikong":5472,"Ġpagpaputi":5473,"ĠHalos":5474,"Ġreport":5475,"Ġ@":5476,"Ġtool":5477,"Ġsala":5478,"Ġmaliban":5479,"Ġgawing":5480,"Ġbenepisyo":5481,"ĠPNP":5482,"Ġgay":5483,"ĠMartin":5484,"ublic":5485,"Ġactress":5486,"Ġrequ":5487,"Ġlit":5488,"wapo":5489,"Ġgreen":5490,"dez":5491,"Gaano":5492,"Ġmean":5493,"obo":5494,"here":5495,"uhit":5496,"Ġibat":5497,"Ġhugis":5498,"abihan":5499,"Ġht":5500,"rector":5501,"Ġreli":5502,"Ġmommy":5503,"ĠBalita":5504,"Ġpage":5505,"Ġsanang":5506,"Ġmagpa":5507,"ĠMam":5508,"okong":5509,"ori":5510,"ĠTungkol":5511,"wers":5512,"ĠMindanao":5513,"ahanap":5514,"maya":5515,"ize":5516,"Ġhelp":5517,"ĠMicha":5518,"Ġayoko":5519,"Ġpanatili":5520,"Ġhumingi":5521,"Ġmilitar":5522,"ency":5523,"ikip":5524,"Ġmagbawas":5525,"Pagkain":5526,"hova":5527,"Ġmakarating":5528,"rd":5529,"ayun":5530,"08":5531,"Man":5532,"Ġposisyon":5533,"Ġsem":5534,"Ġtinapay":5535,"reng":5536,"Ġtumakbo":5537,"Ġig":5538,"mplo":5539,"unsad":5540,"ipili":5541,"ĠMaaaring":5542,"Ġsumulat":5543,"Ġsigaw":5544,"Ġekonomiya":5545,"06":5546,"lagay":5547,"Ġamo":5548,"bie":5549,"Sige":5550,"Ġkalsada":5551,"Ġnamum":5552,"Ġhalik":5553,"lu":5554,"Ġkahirapan":5555,"Mali":5556,"Ġtungk":5557,"ĠDiet":5558,"ĠPer":5559,"illion":5560,"ĠWh":5561,"ĠPamp":5562,"ĠEm":5563,"Ġligtas":5564,"Ġinterview":5565,"ĠMama":5566,"siya":5567,"Ġbituin":5568,"ections":5569,"Ġitinat":5570,"ĠIpina":5571,"Ġpaningin":5572,"Ġtelepono":5573,"Ipina":5574,"sama":5575,"Ġdat":5576,"torya":5577,"Ġpananaw":5578,"ĠInd":5579,"Ġwho":5580,"ahay":5581,"Ġdaming":5582,"apasok":5583,"ward":5584,")...":5585,"cent":5586,"utulong":5587,"Ġright":5588,"APAT":5589,"ĠMin":5590,"Ġibahagi":5591,"the":5592,"legal":5593,"Ġ09":5594,"ĠSak":5595,"ĠSuper":5596,"ĠBotox":5597,"alino":5598,"Ġburat":5599,"ador":5600,"Ġtumigil":5601,"Ġsunod":5602,"ĠCor":5603,"31":5604,"Ġsyempre":5605,"ĠHerb":5606,"Ġ45":5607,"AHAH":5608,"Ġmaib":5609,"Ġ04":5610,"gawan":5611,"Ġnaghihintay":5612,"fi":5613,"aragdag":5614,"anas":5615,"ĠFilm":5616,"ĠWord":5617,"ikano":5618,"Ġmayaman":5619,"Ġgutom":5620,"ĠDag":5621,"Ġpagtuturo":5622,"ĠNarito":5623,"Ġask":5624,"Mayroon":5625,"akasal":5626,"hhhh":5627,"Ġhinlalaki":5628,"ALANG":5629,"Ġsimulan":5630,"yp":5631,"tag":5632,"ektahan":5633,"Ġput":5634,"uluwa":5635,"Ġnagsasalita":5636,"Ġmura":5637,"Ġnaip":5638,"rapat":5639,"ogle":5640,"Philippine":5641,"Ġpinakamalaking":5642,"cal":5643,"Ġoatmeal":5644,"Ġnon":5645,"58":5646,"OY":5647,"got":5648,"ĠFernan":5649,"Ġmalusog":5650,"grap":5651,"Ġmahalagang":5652,"Ġkakulangan":5653,"talik":5654,"ĠCam":5655,"Ġlong":5656,"Ġ31":5657,"Ġlyrics":5658,"ĠPre":5659,"saa":5660,"umero":5661,"37":5662,"iao":5663,"atiba":5664,"ĠBreast":5665,"ĠPaa":5666,"ĠCebu":5667,"abaan":5668,"Ġpananaliksik":5669,"awat":5670,"Mad":5671,"Ġpintuan":5672,"chi":5673,"Ġbox":5674,"Ġpagbabagong":5675,"Ġaudio":5676,"racay":5677,"ĠMayo":5678,"ension":5679,"ĠBum":5680,"ĠEli":5681,"dian":5682,"Lib":5683,"Ġbot":5684,"antayan":5685,"Ġinj":5686,"Ġnoo":5687,"Ġperoxide":5688,"TE":5689,"Ġipinang":5690,"Ġartist":5691,"Ġhusto":5692,"Ġteksto":5693,"Ġnakakapag":5694,"galin":5695,"Ġthem":5696,"ĠPAN":5697,"Ġhead":5698,"Ġkultura":5699,"Ġlook":5700,"ĠDavid":5701,"Ġkanang":5702,"Ġnatapos":5703,"gro":5704,"RI":5705,"ĠUniversity":5706,"ĠDavao":5707,"mate":5708,"ĠHalamang":5709,"Ġroon":5710,"atag":5711,"ĠLalo":5712,"order":5713,"Dapat":5714,"Ġhanapin":5715,"Samantala":5716,"Ġjan":5717,"ĠSalita":5718,"Ġnaninirahan":5719,"ĠJen":5720,"ĠMinsk":5721,"libot":5722,"ĠLunes":5723,"Matapos":5724,"alayan":5725,"Ġpatakaran":5726,"astos":5727,"ĠSim":5728,"ĠDaniel":5729,"Ġpagtanggal":5730,"Ġ2008":5731,"Ġ$":5732,"YON":5733,"anyos":5734,"love":5735,"Ġpamumuhay":5736,"ĠOf":5737,"Ġhyd":5738,"Ġthesis":5739,"Ġpari":5740,"FP":5741,"spot":5742,"Ġsun":5743,"AYAN":5744,"Ġnagsasabi":5745,"ĠMakati":5746,"Â©":5747,"Imp":5748,"Ġutos":5749,"You":5750,"bum":5751,"ĠKristo":5752,"ĠMaging":5753,"peratura":5754,"hok":5755,"Ġmahigpit":5756,"Ġdec":5757,"ĠDating":5758,"olly":5759,"Pagpap":5760,"ĠPorn":5761,"Ġbec":5762,"ugod":5763,"Ġthank":5764,"ĠSun":5765,"Ġadded":5766,"ĠMalyshe":5767,"str":5768,"Ġlate":5769,"Ġtanggapin":5770,"abilang":5771,"Ġnaririnig":5772,"ranas":5773,"utos":5774,"Ġlumalabas":5775,"ĠSobrang":5776,"ĠBitamina":5777,"ĠSy":5778,"inintuan":5779,"risti":5780,"anuary":5781,"ubog":5782,"asket":5783,"07":5784,"Ġcer":5785,"Ġlumalaki":5786,"Ġnagsalita":5787,"Oh":5788,"asang":5789,"tuloy":5790,"ĠEr":5791,"too":5792,"cter":5793,"Magandang":5794,"Ġepektibo":5795,"Ġipa":5796,"pi":5797,"ĠCat":5798,"Ġdireksyon":5799,"lista":5800,"Ġgel":5801,"uturing":5802,"ĠHum":5803,"Ġevent":5804,"Ġpad":5805,"sue":5806,"Ġpinsan":5807,"ĠChristmas":5808,"Ġkagabi":5809,"uhos":5810,"âĨ":5811,"lated":5812,"Ġpropesyonal":5813,"dom":5814,"Ġleg":5815,"Ġkondisyon":5816,"Ġmamaya":5817,"ĠNaka":5818,"ots":5819,"ator":5820,"ues":5821,"Ġbefore":5822,"Ġkalap":5823,"Ġpaniniwala":5824,"Ġindustri":5825,"Ġfitness":5826,"Ġtod":5827,"had":5828,"Ġtry":5829,"aril":5830,"Ġwhen":5831,"ility":5832,"Ġ)":5833,"ĠJehova":5834,"Ġcancer":5835,"laro":5836,"Ġspecial":5837,"âĢĵ":5838,"Ġpapasok":5839,"ĠLag":5840,"Ġaniya":5841,"Ġmall":5842,"Ġfol":5843,"anakan":5844,"eye":5845,"Ġmagpas":5846,"nakaw":5847,"Ġilaw":5848,"Ġmagagandang":5849,"Ġentry":5850,"Âł":5851,"Ġsince":5852,"Ġkahoy":5853,"Ġugali":5854,"ĠProbins":5855,"ĠSabado":5856,"Ġwar":5857,"Ġsta":5858,"Ġnatatang":5859,"Ġmabait":5860,"Ġsilid":5861,"ĠFacial":5862,"ASA":5863,"Ġlaw":5864,"ĠDad":5865,"ĠMil":5866,"ette":5867,"road":5868,"etan":5869,"Ġwell":5870,"usuri":5871,"Ġsakaling":5872,"Hanggang":5873,"âĢĿ,":5874,"Ex":5875,"of":5876,"UW":5877,"Ġsuriin":5878,"Ġarea":5879,"ĠDirek":5880,"Ġyong":5881,"Ġpagkakataong":5882,"Ġcenter":5883,"ĠBago":5884,"Ġnakatingin":5885,"klak":5886,"ĠBina":5887,"Kat":5888,"antika":5889,"Ġmakik":5890,"Ġpetsa":5891,"Ġginto":5892,"ahahaha":5893,"Ġmagagamit":5894,"Ġtema":5895,"ĠDalagita":5896,"And":5897,"Ġbabalik":5898,"ersyon":5899,"ior":5900,"Ġprins":5901,"Bag":5902,"aso":5903,"balik":5904,"ister":5905,"asis":5906,"ĠPamb":5907,"ĠBang":5908,"ĠDum":5909,"Ġkalooban":5910,"bakit":5911,"Ġbisita":5912,"scrib":5913,"ilic":5914,"udy":5915,"Ġstop":5916,"Tapos":5917,"ĠPortal":5918,"iso":5919,"agamot":5920,"Ġpagpasok":5921,"bahagi":5922,"ĠGawin":5923,"Ġnangangailangan":5924,"Ġkamag":5925,"ĠCH":5926,"Ġtwo":5927,"02":5928,"ix":5929,"Ġnil":5930,"Ġsugat":5931,"bit":5932,"Ġnait":5933,"cel":5934,"ĠParasites":5935,"Ġjeep":5936,"ATA":5937,"Ġbala":5938,"Ġimahe":5939,"mentary":5940,"Ġwin":5941,"Press":5942,"Ġestado":5943,"ĠMaya":5944,"Ġnakakatulong":5945,"Ġkalig":5946,"Ġhaharapin":5947,"Ġpagtatayo":5948,"ILANG":5949,"ĠIslam":5950,"ebrero":5951,"awasto":5952,"ĠGr":5953,"Ġscreen":5954,"ĠLaser":5955,"Ġvir":5956,"Ġitin":5957,"Kapuso":5958,"uba":5959,"Ġbunga":5960,"Ġplease":5961,"Ġpaulit":5962,"Ġkinabukasan":5963,"Ġlihim":5964,"val":5965,"Ġikalawang":5966,"ĠSM":5967,"Ġkalimutan":5968,"ji":5969,"ĠJac":5970,"Okay":5971,"ono":5972,"hair":5973,"Ġnanana":5974,"ĠPed":5975,"karoon":5976,"ĠGe":5977,"EST":5978,"ĠTama":5979,"intana":5980,"Ġnapat":5981,"Ġmanun":5982,"uod":5983,"nga":5984,"Bum":5985,"Ġkarapatang":5986,"ayanan":5987,"Lab":5988,"thala":5989,"ĠCont":5990,"unc":5991,"ĠNan":5992,"utusan":5993,"unic":5994,"Ġsen":5995,"Ġtulungan":5996,"just":5997,"sabi":5998,"Ġsk":5999,"Ġkilo":6000,"Ġpinapanood":6001,"ilicone":6002,"Ġpagkatao":6003,"reet":6004,"ĠSta":6005,"Ġapekt":6006,"Ġhaba":6007,"Ġpunong":6008,"ĠHar":6009,"ĠBela":6010,"blema":6011,"Ġkada":6012,"Larawan":6013,"ope":6014,"Ġoh":6015,"ĠKapuso":6016,"Ġmagsasaka":6017,"pres":6018,"ĠEspiritu":6019,"rapy":6020,"Ġnatagpuan":6021,"mak":6022,"Ġprib":6023,"Ġeffect":6024,"Ġ08":6025,"OG":6026,"04":6027,"ĠCas":6028,"Ġpaghahanap":6029,"tapos":6030,"Ġkalak":6031,"gra":6032,"abangan":6033,"ĠKAN":6034,"Ġaddress":6035,"ikasyon":6036,"ĠVil":6037,"oga":6038,"By":6039,"January":6040,"miss":6041,"sap":6042,"âĢ¦âĢ¦":6043,"ĠMaga":6044,"Ġmismong":6045,"Ġsy":6046,"Ġasno":6047,"ubay":6048,"Ġlider":6049,"ktubre":6050,"ĠKah":6051,"Ġcharacter":6052,"Pinakamahusay":6053,"ĠNobyembre":6054,"unal":6055,"Ġlikas":6056,"sakit":6057,"ĠRec":6058,"ĠOp":6059,"Ġcheck":6060,"igarilyo":6061,"Ġsweet":6062,"Ġ198":6063,"ĠAM":6064,"Ġtips":6065,"itten":6066,"Ġpagtulog":6067,"Ġtumit":6068,"Ġkatanungan":6069,"Ġlamblia":6070,"32":6071,"intahan":6072,"Ġtumawag":6073,"exp":6074,"impleng":6075,"Ġdist":6076,"ILIP":6077,"Ġkalabasa":6078,"unch":6079,"ĠSoho":6080,"Ġimpeksiyon":6081,"ĠFe":6082,"Ġlarang":6083,"Ġkaluluwa":6084,"anaw":6085,"iyernes":6086,"Tube":6087,"Ġrest":6088,"Ġpeople":6089,"ĠAss":6090,"Ġhap":6091,"ĠLalaki":6092,"Ġsusp":6093,"Ġissue":6094,"gyan":6095,"ryo":6096,"Ġpaper":6097,"Ġheart":6098,"ĠBoracay":6099,"Ġubo":6100,"Ġlu":6101,"ĠHeart":6102,"Ġ^":6103,"Ġpagbabalik":6104,"ender":6105,"Ġother":6106,"NA":6107,"Ġcollege":6108,"Ġthread":6109,"ĠOh":6110,"upong":6111,"ĠSI":6112,"Ġpagkakas":6113,"Ġpopular":6114,"Ġtamb":6115,"Ġ!":6116,"Ġkasabay":6117,"UHAY":6118,"Ġnagpas":6119,"Ġpalagay":6120,"Ġpapaano":6121,"Ġkonti":6122,"Ġtsaa":6123,"Ġbundok":6124,"ĠDisyembre":6125,"Ġtinawag":6126,"Ġpanatilihin":6127,"simula":6128,"Ġtemperatura":6129,"ĠMAK":6130,"albo":6131,"ĠEnero":6132,"dikal":6133,"Ġtab":6134,"Ġnakipag":6135,"ĠGirls":6136,"umpati":6137,"alagaan":6138,"Gum":6139,"Dagdagan":6140,"ĠNiya":6141,"ĠPatrol":6142,"Ġbawiin":6143,"rating":6144,"urant":6145,"ĠITO":6146,"likan":6147,"ikular":6148,"Ġsigura":6149,"ella":6150,"ices":6151,"Ġhumih":6152,"Pinas":6153,"Ġmagbibigay":6154,"uyod":6155,"âĢ¦]":6156,"Ġ--":6157,"ĠGood":6158,"IBIG":6159,"dapat":6160,"Ġmed":6161,"ĠSet":6162,"irma":6163,"Ġub":6164,"ĠPamam":6165,"ĠMaganda":6166,"awit":6167,"ĠPagt":6168,"ST":6169,"ĠGet":6170,"Siguro":6171,"ĠHow":6172,"ĠMata":6173,"Ġpasa":6174,"oci":6175,"ĠMD":6176,"Ġreaksyon":6177,"ĠTr":6178,"ungus":6179,"ĠNab":6180,"Ġexperience":6181,"Ġpekpek":6182,"EO":6183,"unot":6184,"dadala":6185,"ĠOras":6186,"dow":6187,"Ġcoffee":6188,"die":6189,"peta":6190,"Ġshort":6191,"iks":6192,"Ġpanuk":6193,"Ġsamahan":6194,"alubong":6195,"ĠAnn":6196,"ved":6197,"Ġpinili":6198,"Ġstress":6199,"Ġnali":6200,"into":6201,"sagawa":6202,"Ġge":6203,"Ġpanganib":6204,"untong":6205,"tl":6206,"Ġpublic":6207,"Ġcamera":6208,"Ġlight":6209,"Ġlinta":6210,"ĠHunyo":6211,"mad":6212,"ryong":6213,"ĠMukhang":6214,"Ġmagtat":6215,"Ġbinab":6216,"Ġideya":6217,"Ġkaunti":6218,"ĠAnne":6219,"Ġpint":6220,"Ġboss":6221,"estiv":6222,"03":6223,"ĠSagot":6224,"Ġtuluyan":6225,"tad":6226,"Ġorder":6227,"agram":6228,"Giardia":6229,"job":6230,"Ġitem":6231,"Ġmedicine":6232,"emo":6233,"luto":6234,"asyong":6235,"Ġkandid":6236,"glesya":6237,"Ġnaku":6238,"ainit":6239,"ĠInternational":6240,"Ġpinuno":6241,"Ġkawani":6242,"Ġgabay":6243,"Ġpunto":6244,"Ġkagandahan":6245,"imples":6246,"velopment":6247,"ĠNapak":6248,"Ġbaril":6249,"hasa":6250,"Ġumu":6251,"Ġcall":6252,"ĠSur":6253,"Ġ+":6254,"Ġhttp":6255,"Ġibibigay":6256,"ĠMig":6257,"oslim":6258,"kalahat":6259,"Ġemple":6260,"Yun":6261,"ĠPadilla":6262,"Ġdaigdig":6263,"Ġtl":6264,"Ġbath":6265,"Ġhow":6266,"arato":6267,"Ġnapa":6268,"Minsan":6269,"ror":6270,"taurant":6271,"Ġkumb":6272,"Ġpaksa":6273,"Ġitsura":6274,"Ġmalungkot":6275,"hinto":6276,"sito":6277,"rob":6278,"Ġtanggalin":6279,"April":6280,"Ġkakaibang":6281,"Ġclose":6282,"Ġaalis":6283,"vera":6284,"Ġnakaupo":6285,"Ġlimit":6286,"Ġfan":6287,"ĠPR":6288,"Ġginawang":6289,"Ġunguento":6290,"Ġkinak":6291,"Ġmagsuot":6292,"..\"":6293,"ĠSige":6294,"gayong":6295,"Ġmarahil":6296,"Ġayun":6297,"Ġopinyon":6298,"Ġyoung":6299,"Ġsens":6300,"Ġgus":6301,"ĠMAR":6302,"oles":6303,"ss":6304,"zar":6305,"Ġresidente":6306,"Singaw":6307,"Ġregular":6308,"analo":6309,"Ġumakyat":6310,"Ġbigas":6311,"Ġmuch":6312,"Paghahanda":6313,"iipon":6314,"ĠMs":6315,"ĠPM":6316,"ĠKin":6317,"Ġewan":6318,"Ġhad":6319,"Ġchat":6320,"ĠJun":6321,"Ġtiwala":6322,"werte":6323,"ĠLaw":6324,"ĠTulad":6325,"usulat":6326,"atin":6327,"angkin":6328,"ĠAir":6329,"Ġpower":6330,"rian":6331,"Ġexcited":6332,"ĠNaging":6333,"Ġsumali":6334,"ĠRev":6335,"Ġcats":6336,"any":6337,"\",":6338,"Ġawiting":6339,"Ġmessage":6340,"PH":6341,"ĠDO":6342,"ĠSanto":6343,"Ġnaalala":6344,"ĠPIN":6345,"ĠUp":6346,"Ġsundalo":6347,"Ġpaglipas":6348,"hain":6349,"ured":6350,"abayad":6351,"Ġbasa":6352,"Ġapartment":6353,"ĠManny":6354,"ĠKita":6355,"ĠAgosto":6356,"Pa":6357,"48":6358,"Ġupuan":6359,"amoy":6360,"ĠðŁĺĢ":6361,"Ġpaliwanag":6362,"Ġointment":6363,"ograp":6364,"Ġil":6365,"ebenta":6366,"ðŁĺ":6367,"Ehersisyo":6368,"hahanap":6369,"Ġnagtatrabaho":6370,"Ġpangako":6371,"asanay":6372,"ĠFo":6373,"itikan":6374,"Ġkalaban":6375,"Ġceleb":6376,"rad":6377,"Ġpagkakaiba":6378,"ume":6379,"hihina":6380,"Ġsoftware":6381,"Ġworld":6382,"awalang":6383,"quiao":6384,"Ġtable":6385,"au":6386,"Ġespesyal":6387,"Ġflax":6388,"Ġkagaya":6389,"alaya":6390,"hehehe":6391,"Ġnanalo":6392,"ĠJake":6393,"arkada":6394,"Ġpakialam":6395,"ĠButi":6396,"ĠLola":6397,"ĠSapag":6398,"ĠSaan":6399,"ĠWin":6400,"ises":6401,"lamig":6402,"ĠKasama":6403,"Ġgagamitin":6404,"Ġsil":6405,"galang":6406,"inungaling":6407,"ĠNanay":6408,"uwan":6409,"Ġbel":6410,"ihing":6411,"ĠRE":6412,"Ġkolehiyo":6413,"Ġcourse":6414,"awanan":6415,"Ġkase":6416,"Ġilog":6417,"Ġbida":6418,"estival":6419,"ideos":6420,"Ġpagkat":6421,"ĠChe":6422,"Ġdrama":6423,"ĠHalimbawa":6424,"ĠIk":6425,"ĠAlamin":6426,"Ġbagyo":6427,"lakas":6428,"Ġkalayaan":6429,"Ġmister":6430,"rata":6431,"salita":6432,"Ġkapalit":6433,"Ġsinasabing":6434,"mmm":6435,"Ġflo":6436,"Ġfeel":6437,"Ġne":6438,"Ġpot":6439,"ĠST":6440,"ĠNeg":6441,"iel":6442,"ĠAugust":6443,"ahero":6444,"nograp":6445,"ologist":6446,"Ġminam":6447,"hahaha":6448,"ayaring":6449,"ĠLose":6450,"Ġconf":6451,"Ġcode":6452,"Ġdumaan":6453,"Ġkaakit":6454,"venue":6455,"von":6456,"Ġtransp":6457,"lol":6458,"47":6459,"ĠNAK":6460,"Ġinjections":6461,"ĠBus":6462,"Ġmanalo":6463,"aaaa":6464,"Ġnalala":6465,"suit":6466,"yaga":6467,"Ġdumad":6468,"Ġtakbo":6469,"ĠOktubre":6470,"Ġnatatanging":6471,"Ġtumatakbo":6472,"Ġsamantalang":6473,"Ġlokasyon":6474,"Ġkitten":6475,"ĠWordPress":6476,"yarihang":6477,"Ġpand":6478,"Ġbasura":6479,"Ġpagwawasto":6480,"ugunan":6481,"lebisyon":6482,"Ġpabalik":6483,"Ġnumero":6484,"ĠID":6485,"mpanan":6486,"Ġdiyos":6487,"ole":6488,"Ġsecond":6489,"Ġsame":6490,"ĠFree":6491,"Ġdown":6492,"Ġmakapal":6493,"blogspot":6494,"Ġwa":6495,"Ġartikulong":6496,"Ġcosmetic":6497,"undong":6498,"ĠBalat":6499,"ĠKorea":6500,"ĠPebrero":6501,"ihis":6502,"ĠCoco":6503,"plex":6504,"Ġprobins":6505,"formation":6506,"ference":6507,"Ġkapanganakan":6508,"IW":6509,"ipid":6510,"Ġsine":6511,"Ġ[âĢ¦]":6512,"bibigay":6513,"Ġsee":6514,"Ġtik":6515,"Ġnatutunan":6516,"lyn":6517,"erek":6518,"Ġnagdaragdag":6519,"Ġpu":6520,"Ġpwet":6521,"Ġimpeksyon":6522,"tol":6523,"Ġhininga":6524,"ĠFrancis":6525,"Ġpagna":6526,"Ġnakukuha":6527,"zole":6528,"uweb":6529,"ĠMarso":6530,"Ġnaglalakad":6531,"Ġtraining":6532,"alidad":6533,"Ġsanaysay":6534,"ĠKapamilya":6535,"Ġkani":6536,"ĠBanal":6537,"noy":6538,"ampo":6539,"royo":6540,"isturi":6541,"entral":6542,"ĠBit":6543,"ĠYour":6544,"Ġnene":6545,"Ġapoy":6546,"Ġpool":6547,"latin":6548,"Ġpaglili":6549,"ĠBon":6550,"ulayan":6551,"ĠSouth":6552,"eph":6553,"lika":6554,"ument":6555,"Ġsanay":6556,"ulyo":6557,"Ġbuo":6558,"ame":6559,"Ġmalamb":6560,"Ġenjoy":6561,"wear":6562,"urboslim":6563,"Ġkinik":6564,"Ġmakasama":6565,"dahil":6566,"lismo":6567,"ĠKina":6568,"saan":6569,"Com":6570,"Ġiglesya":6571,"Ġkulubot":6572,"agandang":6573,"ĠAnge":6574,"ĠSecretary":6575,"wi":6576,"Batang":6577,"Ġpartikular":6578,"Ġpantao":6579,"Ġdom":6580,"Ġnyan":6581,"BA":6582,"luw":6583,"Ġbulaklak":6584,"ikozan":6585,"Ġgames":6586,"Ġguys":6587,"Ġcapsules":6588,"Ġkaaway":6589,"ĠMaliit":6590,"Ġsumama":6591,"Ġkalapating":6592,"ĠDom":6593,"Ġtungkulin":6594,"ĠApp":6595,"Ġtalent":6596,"Ġmaitim":6597,"ĠTunay":6598,"ĠHay":6599,"ĠAR":6600,"Ġlipad":6601,"ront":6602,"ukang":6603,"Ġdata":6604,"ĠPAM":6605,"Ġpamil":6606,"Ġkahalagahan":6607,"44":6608,"Ġmans":6609,"ilding":6610,"Ġtitulo":6611,"Ġkuryente":6612,"acher":6613,"Ġphot":6614,"FF":6615,"Ġpiliin":6616,"Ġmatagumpay":6617,"Ġhab":6618,"ping":6619,"vo":6620,"Ġaktib":6621,"Ġsandaling":6622,"ĠHer":6623,"Ġindustriya":6624,"anat":6625,"ĠPahina":6626,"ĠProbinsyano":6627,"ahirap":6628,"Paa":6629,"ugtong":6630,"esbi":6631,"Ġmaling":6632,"Eh":6633,"wor":6634,"orial":6635,"anim":6636,"isyong":6637,"Ġkahih":6638,"Ġactiv":6639,"Ġlarangan":6640,"Ġkaligtasan":6641,"Sex":6642,"Napak":6643,"right":6644,"lain":6645,"Ġangkop":6646,"Hair":6647,"Ġpagkas":6648,"ĠMeron":6649,"isasyon":6650,"Ġsangkap":6651,"isk":6652,"ĠPH":6653,"ĠNovember":6654,"ĠPangarap":6655,"ffic":6656,"Ġkapayapaan":6657,"Pinag":6658,"ĠMike":6659,"ubilin":6660,"Ġsubukan":6661,"Ġwal":6662,"mata":6663,"âĨĲ":6664,"abago":6665,"Ġtransport":6666,"Ġmasayang":6667,"kaka":6668,"ler":6669,"Ġras":6670,"Ġganon":6671,"vas":6672,"Ġmaila":6673,"Ġmahalin":6674,"Ġtro":6675,"Ġbecause":6676,"ĠKala":6677,"Ġchar":6678,"ĠBiyernes":6679,"Ġkasong":6680,"Ġpagsusulit":6681,"ĠJune":6682,"Ġmilyong":6683,"uliran":6684,"isitahin":6685,"Ġmamantika":6686,"eks":6687,"Ġtradisyonal":6688,"Ġconcert":6689,"Ġbudget":6690,"Ġkomunidad":6691,"gu":6692,"ĠKUNG":6693,"Ġer":6694,"Ġbanal":6695,"hen":6696,"mote":6697,"ĠKAS":6698,"Ġumupo":6699,"oman":6700,"Ġinc":6701,"put":6702,"Ġbuti":6703,"Ġregalo":6704,"astong":6705,"unity":6706,"Ġcreams":6707,"Ġservice":6708,"Ġtake":6709,"Laser":6710,"ilyo":6711,"Ġtinig":6712,"ria":6713,"eso":6714,"Ġaway":6715,"99":6716,"Ġmodelo":6717,"vention":6718,"umano":6719,"Ġempleyado":6720,"Ġkumple":6721,"Ġgrabe":6722,"Ġcounter":6723,"iness":6724,"Ġnasusunog":6725,"Saan":6726,"like":6727,"wat":6728,"Ġpalaging":6729,"lano":6730,"orma":6731,"Lumikha":6732,"Ġahente":6733,"ĠApril":6734,"Ġlakad":6735,"Ġmahina":6736,"Ġpagkilos":6737,"ollywood":6738,"gayang":6739,"ariling":6740,"We":6741,"ĠTat":6742,"****":6743,"Ġmusic":6744,"Ġsome":6745,"ĠDan":6746,"ĠReyes":6747,"ĠTR":6748,"Ġkamakailan":6749,"ĠRussia":6750,"ĠSenado":6751,"ĠPaul":6752,"Ġkusina":6753,"Ġcontrol":6754,"Ġhanap":6755,"Ġvers":6756,"ĠAkin":6757,"Ġever":6758,"Ġtanungin":6759,"Ġpagpapagamot":6760,"ĠMommy":6761,"ingan":6762,"Ġpaw":6763,"ĠTwitter":6764,"ĠRights":6765,"litaw":6766,"Ġpalad":6767,"ĠHehe":6768,"Ġpayat":6769,"elcome":6770,"Ġmagtrabaho":6771,"udulot":6772,"Ġnangung":6773,"Ġtinanggap":6774,"Ġpitong":6775,"ĠAw":6776,"Ġdate":6777,"Ġlalabas":6778,"ĠPrin":6779,"erto":6780,"ĠOk":6781,"Ġmagkaibang":6782,"rs":6783,"ikayat":6784,"rown":6785,"ĠCin":6786,"gor":6787,"laga":6788,"Ġnagsimulang":6789,"46":6790,"Hot":6791,"Ġnal":6792,"ĠBong":6793,"Hello":6794,"alayo":6795,"Ġkid":6796,"lica":6797,"Ġistorya":6798,"Ġround":6799,"ĠPanginoong":6800,"Ġsayang":6801,"Ġgwapo":6802,"ade":6803,"ĠMAL":6804,"ĠAndroid":6805,"basan":6806,"ĠLungsod":6807,"kta":6808,"55":6809,"Ġkatap":6810,"ĠTsino":6811,"iles":6812,"Ġmatulungan":6813,"ĠED":6814,"ĠMalay":6815,"Ġhag":6816,"lalaro":6817,"rada":6818,"Ġtampok":6819,"Ġhas":6820,"Epektibong":6821,"ĠBelarus":6822,"Ġpast":6823,"uruan":6824,"OC":6825,"Kam":6826,"Ġgagawa":6827,"ĠMAS":6828,"Ġnaiisip":6829,"Ġbayani":6830,"Ġbiro":6831,"pekto":6832,"February":6833,"ĠLyrics":6834,"ican":6835,"vit":6836,"Ġnever":6837,"ULA":6838,"ĠFast":6839,"TI":6840,"igurado":6841,"De":6842,"ĠYork":6843,"ĠKato":6844,"Ġpagtatasa":6845,"ĠKing":6846,"ĠBur":6847,"Ġmahihirap":6848,"Ġpasyente":6849,"ĠTHE":6850,"ados":6851,"Ġhinihintay":6852,"echn":6853,"ĠTop":6854,"Ġproduc":6855,"Ġkalidad":6856,"Ġkasiyahan":6857,"Ġcustomer":6858,"Ġginaga":6859,"Kin":6860,"ugg":6861,"ĠPacquiao":6862,"Ġbinigay":6863,"Ġguy":6864,"ocus":6865,"ĠPedro":6866,"Ġsinis":6867,"hali":6868,"ĠTito":6869,"ĠPangalan":6870,"ĠAP":6871,"Ġmoder":6872,"ORE":6873,"Ġmilyon":6874,"fect":6875,"Ġmabigyan":6876,"ĠTina":6877,"Ġsu":6878,"alatang":6879,"AHAN":6880,"Ġthanks":6881,"Ġshop":6882,"Ġbakwit":6883,"ĠKe":6884,"ĠNila":6885,"atakaran":6886,"Ġseryoso":6887,"Ġdinala":6888,"vey":6889,"ĠVol":6890,"ĠElena":6891,"ĠAbril":6892,"kahit":6893,"Ġnagkas":6894,"Ġmanunulat":6895,"Ġkatas":6896,"ĠJuly":6897,"Ġpriv":6898,"Ġref":6899,"Ġnagka":6900,"vision":6901,"car":6902,"Ġlagay":6903,"Ġanuman":6904,"AHAT":6905,"Ġklaseng":6906,"AYO":6907,"ĠPr":6908,"orning":6909,"inip":6910,"untang":6911,"deng":6912,"March":6913,"ply":6914,"ĠIII":6915,"osa":6916,"Ġkaugnayan":6917,"Ġnarito":6918,"ĠAnton":6919,"Hum":6920,"kit":6921,"Ġmid":6922,"ĠNAT":6923,"Ġawtor":6924,"Ġkailanman":6925,"Ġkuk":6926,"Ġlandas":6927,"ulto":6928,"napan":6929,"Ġpinay":6930,"haha":6931,"Ġchance":6932,"ĠKaso":6933,"Ġnagustuhan":6934,"Dalawang":6935,"Ġel":6936,"antong":6937,"ibersidad":6938,"alad":6939,"Ġexam":6940,"ĠDing":6941,"ĠFirst":6942,"Ġmanager":6943,"idos":6944,"eth":6945,"save":6946,"Ġsupport":6947,"rea":6948,"urch":6949,"Tama":6950,"Ġula":6951,"histro":6952,"ĠPindutin":6953,"moranas":6954,"ĠDI":6955,"walang":6956,"upload":6957,"Wow":6958,"Bukod":6959,"rado":6960,"ĠOne":6961,"ĠKategorya":6962,"Ġtinutukoy":6963,"ĠBukod":6964,"ĠAudio":6965,"Ġnagbago":6966,"Ġbanda":6967,"ĠPC":6968,"ĠDok":6969,"Mahal":6970,"Ġbahag":6971,"Ġmasabi":6972,"sikan":6973,"ĠMasakit":6974,"indigan":6975,"Ġsadyang":6976,"daanan":6977,"iit":6978,"ĠSm":6979,"inter":6980,"tos":6981,"asketball":6982,"Pwede":6983,"dahan":6984,"49":6985,"Tin":6986,"ific":6987,"ety":6988,"ĠISANG":6989,"Ġlumago":6990,"Ġalamin":6991,"redo":6992,"atauhan":6993,"Ġtanda":6994,"ĠTurboslim":6995,"Ġyakap":6996,"inger":6997,"Ġtalam":6998,"Ġhuh":6999,"agn":7000,"ĠEv":7001,"Ġsalamin":7002,"reso":7003,"Map":7004,"Aging":7005,"Ġdiabetes":7006,"pareho":7007,"Ġnegos":7008,"Ġopen":7009,"php":7010,"eworm":7011,"Ġtumatagal":7012,"show":7013,"ĠInc":7014,"Than":7015,"hyd":7016,"Ġsenador":7017,"FA":7018,"pop":7019,"ĠEye":7020,"Ġseason":7021,"Kaugnay":7022,"aay":7023,"Ġstr":7024,"Ġpiling":7025,"pr":7026,"Ġfun":7027,"Nan":7028,"Ġpagg":7029,"Ġdahon":7030,"Ġnational":7031,"ĠMarch":7032,"Ġnoh":7033,"Mang":7034,"alikod":7035,"Ġsinabing":7036,"agana":7037,"Ġsingle":7038,"ired":7039,"alhin":7040,"hid":7041,"Un":7042,"rick":7043,"Ġkumita":7044,"ĠMalysheva":7045,"ĠAnderson":7046,"MM":7047,"ĠTril":7048,"Ġkasamahan":7049,"Ġcur":7050,"Ġili":7051,"ĠPablo":7052,"Ġutong":7053,"alungkot":7054,"uhayan":7055,"otohan":7056,"Big":7057,"AYA":7058,"angahulugan":7059,"Ġyaman":7060,"Ġngalan":7061,"paputi":7062,"bb":7063,"Ġproper":7064,"Ã¡":7065,"Ġpulisya":7066,"Ġwrap":7067,"ĠDecember":7068,"awid":7069,"Ġsiglo":7070,"antala":7071,"ads":7072,"unduan":7073,"ĠMasaya":7074,"TER":7075,"Gra":7076,"Ġmaglaro":7077,"Ġinis":7078,"Ġnagmamahal":7079,"olyo":7080,"âĢ¢":7081,"Ġepisode":7082,"ĠNung":7083,"akla":7084,"wow":7085,"yari":7086,"Ġthinner":7087,"arth":7088,"AA":7089,"ĠLOL":7090,"gmail":7091,"Ġani":7092,"Ġnaglalaman":7093,"Gamutin":7094,"EX":7095,"ĠEc":7096,"Ġgabing":7097,"ĠBir":7098,"Ġnatatakot":7099,"rates":7100,"Ġnagsasabing":7101,"rary":7102,"Ġpila":7103,"ĠVe":7104,"ĠLuc":7105,"Ġumiiyak":7106,"ted":7107,"Ġpaghingi":7108,"loyd":7109,"Ġkatao":7110,"Ġapple":7111,"limutan":7112,"Ġupdate":7113,"ALAG":7114,"hip":7115,"Ġitago":7116,"syano":7117,"PAG":7118,"linic":7119,"ĠBat":7120,"ĠPangako":7121,"Ġnatutulog":7122,"What":7123,"Ġpanty":7124,"ĠIm":7125,"Ġmusika":7126,"Pana":7127,"Ġcompany":7128,"Ġpagtatang":7129,"ĠWhat":7130,"mar":7131,"ĠMagandang":7132,"ĠTugon":7133,"ubig":7134,"ĠBulacan":7135,"Ġyum":7136,"TR":7137,"Ġkaliwang":7138,"ĠHulyo":7139,"ground":7140,"Ġipunla":7141,"ĠCommission":7142,"Ġmabigat":7143,"ĠNetwork":7144,"gat":7145,"Ġflash":7146,"iyeta":7147,"Ġkapitbahay":7148,"Dito":7149,"ĠSocial":7150,"Ã©":7151,"ĠGro":7152,"unasan":7153,"AMA":7154,"Ġpagdiriwang":7155,".'":7156,"ennis":7157,"Uri":7158,"Ġrestaurant":7159,"ĠBal":7160,"Ġsuliran":7161,"Ġmakakapag":7162,"ĠOctober":7163,"ĠMuslim":7164,"Ġkilos":7165,"Ġdid":7166,"istahan":7167,"estion":7168,"asy":7169,"duct":7170,"Ġpangit":7171,"ueva":7172,"ilidad":7173,"plano":7174,"Ġbeer":7175,"Ġdaddy":7176,"Ġ37":7177,"ady":7178,"Naka":7179,"yona":7180,"rawang":7181,"BI":7182,"obs":7183,"Ġmaya":7184,"ĠIb":7185,"Ġstart":7186,"ĠLuis":7187,"lift":7188,"uhunan":7189,"Ġprobinsya":7190,"Ġpinip":7191,"uridad":7192,"Ġpananakit":7193,"Ġstill":7194,"Ġswimsuit":7195,"Ġemplo":7196,"Ġlap":7197,"Ġlagas":7198,"ĠLoc":7199,"arna":7200,"Ġkor":7201,"Nakak":7202,"ky":7203,"than":7204,"ighs":7205,"avite":7206,"Ġisk":7207,"Ġlevel":7208,"try":7209,"Ġself":7210,"ĠNas":7211,"Ġmant":7212,"Ġsiy":7213,"sub":7214,"ĠAlden":7215,"ĠAgu":7216,"Ġsomet":7217,"rum":7218,"ĠProgram":7219,"ĠJay":7220,"ĠCast":7221,"Nab":7222,"Ġimbesti":7223,"mahal":7224,"edies":7225,"Ġmatamis":7226,"Ġsumbong":7227,"ĠSubalit":7228,"Ġlumipat":7229,"Ġmale":7230,"EK":7231,"Ġkaarawan":7232,"Ġkelangan":7233,"ursing":7234,"eka":7235,"Ġgumagana":7236,"Ġpanoorin":7237,"Dum":7238,"ĠTayo":7239,"Ġarticle":7240,"Ġumaasa":7241,"vies":7242,"cion":7243,"Ġayusin":7244,"Ġpangalawang":7245,"Ġkatunayan":7246,"Ġnakatayo":7247,"otto":7248,"ĠCap":7249,"Ġallergy":7250,"Ġfucked":7251,"ukal":7252,"Ġbintana":7253,"ilalim":7254,"Ġtagubilin":7255,"ĠTila":7256,"ĠAvenue":7257,"raight":7258,"vaila":7259,"irasyon":7260,"MGA":7261,"update":7262,"ĠAga":7263,"Ġnararapat":7264,"Ġthought":7265,"ĠPati":7266,"ATE":7267,"alize":7268,"Ġdress":7269,"Ġsplit":7270,"Ġpresidente":7271,"Ġfoot":7272,"ĠJr":7273,"Ġginanap":7274,"asahan":7275,"PIN":7276,"hab":7277,"lanes":7278,"Ġrelihiyon":7279,"Ġpagpatay":7280,"Ġmagsulat":7281,"Ġcyst":7282,"resh":7283,"cam":7284,"Ġbakasyon":7285,"bihan":7286,"..âĢĿ":7287,"ander":7288,"ĠChief":7289,"Ġpasasalamat":7290,"ensity":7291,"Ġsampung":7292,"ĠRyan":7293,"ĠUnidos":7294,"sira":7295,"esta":7296,"ĠTita":7297,"!)":7298,"Ġsumakay":7299,"host":7300,"ĠOkay":7301,"Ġmakitang":7302,"Ġsulok":7303,"aari":7304,"ĠKwento":7305,"ĠPRO":7306,"Ġpagpup":7307,"erhiya":7308,"eebanghelyo":7309,"agaw":7310,"Ġginagawang":7311,"ĠGame":7312,"Pig":7313,"aguyod":7314,"pm":7315,"Ġsaglit":7316,"Ġpartner":7317,"Ġtheir":7318,"coin":7319,"Ġmadami":7320,"kov":7321,"oll":7322,"inburg":7323,"Ġrelation":7324,"Ġkarag":7325,"emp":7326,"Ġnasaktan":7327,"IVE":7328,"Ġkinat":7329,"ugasan":7330,"hhh":7331,"Ġinsidente":7332,"ikos":7333,"ĠSus":7334,"Ġhinaharap":7335,"Ġnamamaga":7336,"unuan":7337,"Ġwalong":7338,"ĠPagkain":7339,"Ġpangkalahat":7340,"uldok":7341,"Ġses":7342,"57":7343,"ĠBooking":7344,"Ġfull":7345,"ĠIlo":7346,"Ġtenga":7347,"apore":7348,"ĠTaon":7349,"ĠTatay":7350,"Ġsinger":7351,"igmaan":7352,"Ġawit":7353,"Pamahid":7354,"ĠâĢĿ":7355,"ĠYouTube":7356,"Ġpababa":7357,"ĠInstagram":7358,"Ok":7359,"Ġalbum":7360,"erved":7361,"ahalan":7362,"band":7363,"ĠFernandez":7364,"Ġkelan":7365,"Ġmain":7366,"song":7367,"AND":7368,"ĠMabilis":7369,"SP":7370,"olus":7371,"Ġkabanata":7372,"EA":7373,"abagong":7374,"largement":7375,"Ġkampanya":7376,"Ġpagbabasa":7377,"Video":7378,"Ġidol":7379,"Ġ;":7380,"Ġtitle":7381,"Ġibon":7382,"mulan":7383,"Ġbih":7384,"Ġiisang":7385,"Maganda":7386,"Ġindibid":7387,"iber":7388,"ĠNah":7389,"commod":7390,"ĠDist":7391,"ĠBibilya":7392,"Ġbeach":7393,"ĠAsian":7394,"Ġbumuo":7395,"43":7396,"Ġcomments":7397,"ribution":7398,"ĠTha":7399,"ilalang":7400,"Ġlegal":7401,"ĠJa":7402,"Ġramdam":7403,"ilbing":7404,"Ġtype":7405,"Ġmalay":7406,"Ġmatigas":7407,"dal":7408,"ĠMatapos":7409,"Ġdiumano":7410,"Ġpapuntang":7411,"pakan":7412,"Ġrun":7413,"paganda":7414,"Ġbukal":7415,"Ġpaalis":7416,"hol":7417,"alot":7418,"ending":7419,"ĠJosh":7420,"Ġpanayam":7421,"ĠJoey":7422,"AKIT":7423,"Ġmg":7424,"Ġpanalangin":7425,"Ġbuy":7426,"Pak":7427,"ĠAllah":7428,"abu":7429,"eldo":7430,"Ġhayaan":7431,"Ġinaasahang":7432,"Gina":7433,"Ġofficial":7434,"ashi":7435,"Ġlarawang":7436,"ĠEwan":7437,"Anak":7438,"uwebes":7439,"Araw":7440,"ĠMasa":7441,"Ġpagpapa":7442,"Ġkumpara":7443,"Ġann":7444,"itim":7445,"EW":7446,"Ġpagtatapos":7447,"ĠPark":7448,"ĠFuck":7449,"ĠBl":7450,"ĠMichael":7451,"ongrat":7452,"liligaw":7453,"ĠPanahon":7454,"MP":7455,"Ġanghel":7456,"ĠPla":7457,"Ġmatuto":7458,"IGH":7459,"ĠLarawan":7460,"Ġcount":7461,"Ġlabatiba":7462,"inanong":7463,"ĠGold":7464,"ĠMatagal":7465,"inatnan":7466,"pet":7467,"Ġfa":7468,"ESS":7469,"ĠGaga":7470,"Ġisla":7471,"ĠPresyo":7472,"Ġdeb":7473,"ĠTiyan":7474,"Ġpagsasama":7475,"Ġumiyak":7476,"ikaw":7477,"Ġboard":7478,"Ġpesos":7479,"Ġtattoo":7480,"Ġpasahero":7481,"Ġmagkakas":7482,"anayan":7483,"oe":7484,"Ġshoot":7485,"Ġthighs":7486,"chen":7487,"Ġbola":7488,"Ġmaagang":7489,"ĠAnna":7490,"Ġhormones":7491,"ias":7492,"Ġhydrogen":7493,"Ġcum":7494,"Ġenlargement":7495,"Ġeven":7496,"Ġkrimen":7497,"Ġhope":7498,"mab":7499,"Ġmem":7500,"arehong":7501,"Ġabot":7502,"Ġalways":7503,"ĠLAHAT":7504,"Ġtuldok":7505,"gayahan":7506,"Ġpumuti":7507,"ĠMIL":7508,"Ġpuwet":7509,"Pre":7510,"sex":7511,"Ġpanib":7512,"ĠElementary":7513,"ĠKAM":7514,"redit":7515,"oly":7516,"For":7517,"Ġero":7518,"Ġnakasulat":7519,"ĠLou":7520,"Ġkauna":7521,"Ġmainam":7522,"Ġlumikha":7523,"ĠInt":7524,"ĠAh":7525,"ores":7526,"Ġgulo":7527,"56":7528,"ĠBay":7529,"Ġlolo":7530,"My":7531,"Dagdag":7532,"Ġfair":7533,"intayin":7534,"Ġharapin":7535,"Ġtour":7536,"asya":7537,"luluto":7538,"hirapan":7539,"hagi":7540,"ĠVer":7541,"yy":7542,"Ġminamahal":7543,"Ġnalalaman":7544,"Ġmaramdaman":7545,"ĠLangit":7546,"Ġspec":7547,"akala":7548,"acio":7549,"Ġkwentong":7550,"lum":7551,"Ġcase":7552,"yadong":7553,"Ġkatabi":7554,"ĠAgad":7555,"ĠMahirap":7556,"uction":7557,"oni":7558,"Ġtelebisyon":7559,"ugang":7560,"Ġbun":7561,"Ġnagpunta":7562,"Ġkurso":7563,"Bags":7564,"Ġanalog":7565,"Ġpribadong":7566,"Ġeksper":7567,"ĠNorth":7568,"char":7569,"reative":7570,"Impormasyon":7571,"uper":7572,"ĠSilicone":7573,"ages":7574,"ĠWE":7575,"kot":7576,"ĠEstados":7577,"ĠLord":7578,"Ġpagkakalbo":7579,"Ġ2007":7580,"Ġkabut":7581,"ABA":7582,"Tra":7583,"Ġmom":7584,"Ġshare":7585,"ibok":7586,"ARI":7587,"Ġblood":7588,"ĠPuwer":7589,"Ġplace":7590,"tle":7591,"ĠUN":7592,"itira":7593,"ression":7594,"Yan":7595,"tific":7596,"ĠWell":7597,"kwela":7598,"Ġstand":7599,"Ġtermino":7600,"Ġaward":7601,"Ġpananauli":7602,"phy":7603,"42":7604,"Ġhumah":7605,"akol":7606,"thing":7607,"Bin":7608,"ĠMedic":7609,"ukla":7610,"ĠâĢİ":7611,"ĠRid":7612,"ĠCana":7613,"Ġmikozan":7614,"AKA":7615,"OB":7616,"Ġkaganapan":7617,"ĠAyoko":7618,"ĠAust":7619,"ingay":7620,"vol":7621,"akasyon":7622,"Ġpagpunta":7623,"ilog":7624,"ĠCourt":7625,"ĠMadalas":7626,"ĠFungus":7627,"Ġposit":7628,"ĠSeptember":7629,"Ġaccommod":7630,"Ġchild":7631,"osisyon":7632,"ii":7633,"Ġnapakaliit":7634,"Ġmalambot":7635,"Sarah":7636,"paman":7637,"Ġihinto":7638,"Ġcider":7639,"ĠWater":7640,"kter":7641,"Ġlikuran":7642,"Ġnu":7643,"Ġkakilala":7644,"Ġkonting":7645,"ĠInternet":7646,"Ġsop":7647,"Ġless":7648,"100":7649,"lilinis":7650,"Ġpaglalarawan":7651,"Ġtuhod":7652,"Ġtipong":7653,"ĠTsupa":7654,"install":7655,"tov":7656,"Ġkasunod":7657,"Ġmakabagong":7658,"ĠServ":7659,"Ġemos":7660,"ĠThis":7661,"Ġrecord":7662,"ĠNawala":7663,"Ġmob":7664,"kuk":7665,"tok":7666,"Ġresearch":7667,"onde":7668,"Ġtsk":7669,"uble":7670,"umite":7671,"ĠKAP":7672,"utes":7673,"pasyo":7674,"On":7675,"Ġpinatay":7676,"Ġcost":7677,"Te":7678,"Ġnanaman":7679,"Ġwater":7680,"ulatan":7681,"ift":7682,"ĠKC":7683,"Ġcity":7684,"ĠMis":7685,"Ġnahuli":7686,"ĠWikang":7687,"Ġnilalang":7688,"Ġcontact":7689,"ĠLupang":7690,"41":7691,"ctions":7692,"Ġkakaiba":7693,"Ġpulutong":7694,"December":7695,"Ġbinili":7696,"Ġluck":7697,"Ġmoisturi":7698,"Paglala":7699,"Ġbiyahe":7700,"ĠTreat":7701,"Ġsagutin":7702,"mento":7703,"doon":7704,"Ġaks":7705,"ĠCancer":7706,"Ġpasko":7707,"rimetime":7708,"Ġtagap":7709,"Ġhanggan":7710,"Siyempre":7711,"yakap":7712,"ĠLloyd":7713,"RIS":7714,"ĠAla":7715,"Ġpiso":7716,"adem":7717,"ihinal":7718,"Ġkaklase":7719,"ĠUna":7720,"Ġ=)":7721,"Ġkainin":7722,"kano":7723,"ĠSetyembre":7724,"Ġpinagb":7725,"ĠMAN":7726,"Ġluad":7727,"Ġkuha":7728,"xx":7729,"Ġkey":7730,"Ġpangkat":7731,"Men":7732,"Ġtig":7733,"Ġlungkot":7734,"Nakita":7735,"ĠEric":7736,"Ġpaliguan":7737,"Ġtumaas":7738,"itig":7739,"ĠSund":7740,"apangyarihang":7741,"ĠBaga":7742,"Ġhar":7743,"Ġpagdid":7744,"loe":7745,"Ġmakukuha":7746,"Ġmaghanap":7747,"tial":7748,"Ġnakatak":7749,"Ġnatanggap":7750,"Ġcarbo":7751,"ucation":7752,"Ġkinakain":7753,"itive":7754,"Ġalso":7755,"San":7756,"ants":7757,"Ġkasintahan":7758,"noyar":7759,"apangyarihan":7760,"Ġnabab":7761,"noyarsk":7762,"uary":7763,"paalam":7764,"All":7765,"Ġline":7766,"Ġlason":7767,"rict":7768,"Ġhinawakan":7769,"unian":7770,"Ġinilabas":7771,"ches":7772,"ĠBahay":7773,"Ġmerong":7774,"OV":7775,"Ġtira":7776,"avor":7777,"Ġhapp":7778,"vailable":7779,"Ġtalumpati":7780,"ĠWar":7781,"ipilian":7782,"alaan":7783,"parang":7784,"Ġmahanap":7785,"Ġpagbisita":7786,"Ġalaala":7787,"apekt":7788,"Ġeyelid":7789,"ass":7790,"huh":7791,"rik":7792,"ĠFestival":7793,"Ip":7794,"ĠSem":7795,"Ġpamamahagi":7796,"alast":7797,"odine":7798,"ĠGabi":7799,"Ġkontrata":7800,"ĠLeon":7801,"elang":7802,"ĠMerc":7803,"Ġaccommodation":7804,"nood":7805,"urce":7806,"ĠMaine":7807,"ayaran":7808,"gong":7809,"Ġkana":7810,"Co":7811,"Ġabs":7812,"abait":7813,"lapi":7814,"Ġpictures":7815,"iyerk":7816,"Ġmakapan":7817,"paano":7818,"alili":7819,"ĠMartes":7820,"Ġsugatan":7821,"ĠDingdong":7822,"Ġdiet":7823,"Ġmau":7824,"Ġsign":7825,"Ġpagdidyeta":7826,"Ġpray":7827,"Ġpic":7828,"umbalik":7829,"alleng":7830,"Download":7831,"ĠNe":7832,"Ġtuluyang":7833,"Ika":7834,"Ġadministrasyon":7835,"Ġpalag":7836,"apatay":7837,"Ġkapak":7838,"Baka":7839,"fting":7840,"Filipino":7841,"ĠPagbab":7842,"Ġpamumula":7843,"Ġhuman":7844,"Ġmaputi":7845,"indol":7846,"nasa":7847,"Ġperson":7848,"chedule":7849,"hydrates":7850,"Ġkatapusan":7851,"Ġmanatili":7852,"Ã±o":7853,"gie":7854,"ĠMais":7855,"Ġjack":7856,"Ġtv":7857,"Noy":7858,"Ġbibigyan":7859,"Ġlumipas":7860,"facing":7861,"atic":7862,"Ġmunang":7863,"ĠKon":7864,"Ġmagsimula":7865,"Ġresur":7866,"SCP":7867,"Ġtungo":7868,"board":7869,"Hina":7870,"Ġmesa":7871,".[":7872,"ury":7873,"rub":7874,"Ġbuck":7875,"Ġmagpat":7876,"Ġsuw":7877,"Ġnarin":7878,"Ġtoo":7879,"Ġwo":7880,"Ġdayuhan":7881,"Ġpaglalakbay":7882,"Ġganyang":7883,"ĠRay":7884,"Ġfacebook":7885,"unahang":7886,"gahan":7887,"ristian":7888,"Ġwww":7889,"Ġpagpapakain":7890,"Ġstaff":7891,"ried":7892,"Ġhom":7893,"KA":7894,"gol":7895,"Ġnakakita":7896,"Ġsuk":7897,"ĠMags":7898,"Ġkarakter":7899,"Ġkahina":7900,"ristine":7901,"ĠBlack":7902,"scribe":7903,"Ġmatandang":7904,"ille":7905,"Ġgas":7906,"Ġpagsulat":7907,"Ġadv":7908,"Ġbulong":7909,"Ġitat":7910,"Ġmanood":7911,"iisang":7912,"Ġpagkuk":7913,"Ġmach":7914,"ĠJenny":7915,"Ġbawa":7916,"erbisyo":7917,"wari":7918,"PM":7919,"AYON":7920,"Ġngumiti":7921,"Puw":7922,"Ġkalye":7923,"Ġiisip":7924,"ĠSand":7925,"Ġidi":7926,"Ġpopulasyon":7927,"ĠMA":7928,"usahan":7929,"upan":7930,"ĠHigit":7931,"----":7932,"ĠIT":7933,"bat":7934,"Ġresurfacing":7935,"ĠGeneral":7936,"check":7937,"Ġnasaan":7938,"Ġmagkaka":7939,"asiwa":7940,"bis":7941,"Ġsunog":7942,"ISA":7943,"ĠKAT":7944,"ĠGoogle":7945,"ĠAsia":7946,"hay":7947,"Ġtrue":7948,"ihim":7949,"Basta":7950,"ataang":7951,"hold":7952,"Ġtopic":7953,"96":7954,"ĠRegine":7955,"Ġdensity":7956,"Ġiwan":7957,"ĠEstrada":7958,"rinkle":7959,"53":7960,"ĠKayo":7961,"ĠPagb":7962,"ĠThanks":7963,"rag":7964,"Ġperform":7965,"Ġsaad":7966,"Ġnasasaktan":7967,"enteng":7968,"Ġibinibigay":7969,"ĠDalawang":7970,"ĠKrasnoyarsk":7971,"nie":7972,"],":7973,"tama":7974,"Ġpagpapasuso":7975,"Ġgising":7976,"Hin":7977,"ĠBabe":7978,"ĠRox":7979,"unaw":7980,"araniwan":7981,"ĠYan":7982,"Ġbababa":7983,"Ġmagbasa":7984,"tanong":7985,"Ġpagl":7986,"Ġcin":7987,"aker":7988,"Ġbuwis":7989,"ĠBaby":7990,"Ġparents":7991,"ĠMM":7992,"Ġlasing":7993,"bangan":7994,"loria":7995,"ĠPosted":7996,"ĠTam":7997,"Ġstage":7998,"Ġgusali":7999,"Ġbill":8000,"ĠSupre":8001,"Ġsomething":8002,"Ġrelationship":8003,"Maga":8004,"Ġur":8005,"Pan":8006,"Ġlingkod":8007,"Ġlocal":8008,"ĠTaong":8009,"Ġnanonood":8010,"ĠIyon":8011,"Ġtita":8012,"abawal":8013,"Ġnagpapat":8014,"Ġpresident":8015,"arungan":8016,"Ġinspirasyon":8017,"uparan":8018,"essi":8019,"langan":8020,"Ġpwesto":8021,"zine":8022,"reto":8023,"Ġsaging":8024,"quez":8025,"inar":8026,"Ġhal":8027,"terna":8028,"ĠSinusuportahan":8029,"Ġcast":8030,"Ġhig":8031,"Ġsinagot":8032,"onz":8033,"Ġinvest":8034,"ĠKami":8035,"Ġdeal":8036,"arahil":8037,"mark":8038,"Ġhilig":8039,"Ġindibidwal":8040,"umpa":8041,"aalok":8042,"Next":8043,"ubhang":8044,"ĠArroyo":8045,"Bagong":8046,"ĠGer":8047,"Char":8048,"Ġkasamang":8049,"sino":8050,"Ġarm":8051,"Ġros":8052,"ayagan":8053,"thorn":8054,"Ġcarbohydrates":8055,"Ġpimples":8056,"atiwala":8057,"Ġisas":8058,"Ġreading":8059,"Ġkatapat":8060,"ĠGinintuan":8061,"Ġsining":8062,"Ġvol":8063,"Ġnakalimutan":8064,"Ġbless":8065,"Ġhiling":8066,"ataon":8067,"sabay":8068,"Ġspe":8069,"Ġscript":8070,"ĠAfter":8071,"Ġkaunting":8072,"Ġsinubok":8073,"Ġantib":8074,"lidad":8075,"Ġhay":8076,"mous":8077,"Mal":8078,"ĠBrgy":8079,"uke":8080,"Ġdepende":8081,"Ġmagtanong":8082,"ĠParty":8083,"Sobrang":8084,"uture":8085,"ĠTamang":8086,"iyas":8087,"Ġkonsep":8088,"iver":8089,"Ġwish":8090,"Ġkabayo":8091,"ĠSharon":8092,"imili":8093,"mamahal":8094,"ĠHard":8095,"ĠGarcia":8096,"upon":8097,"set":8098,"ĠNoon":8099,"Ġpanibagong":8100,"iot":8101,"ĠSol":8102,"AHIL":8103,"Ġdiskarte":8104,"itening":8105,"Ġkaisipan":8106,"ĠHuwebes":8107,"ycle":8108,"arya":8109,"Ġdakong":8110,"Ġtuwa":8111,"cho":8112,"Ġbalang":8113,"Ġpangangalaga":8114,"lobal":8115,"apektuhan":8116,"galingan":8117,"ĠNabawasan":8118,"Ġpulitika":8119,"Ġhon":8120,"Ġabala":8121,"Ġ36":8122,"54":8123,"This":8124,"Ġpagkamatay":8125,"ungang":8126,"Ġproud":8127,"Una":8128,"Ġunit":8129,"lub":8130,"ĠTak":8131,"Ġnasira":8132,"ected":8133,"Ġikatlong":8134,"aster":8135,"Ġhiwalay":8136,"_^":8137,"rito":8138,"ababa":8139,"adhana":8140,"Ġtransplant":8141,"Ġeyelids":8142,"Ġmagpaka":8143,"Ġonly":8144,"ds":8145,"Ġbangko":8146,"Ġmatery":8147,"Ġtanga":8148,"Nung":8149,"Ġyaon":8150,"Tablets":8151,"ĠBy":8152,"ĠThat":8153,"Ġmobile":8154,"bansa":8155,"ĠSiyempre":8156,"Ġpanloob":8157,"Ġgovernment":8158,"Ġtom":8159,"Ġice":8160,"TH":8161,"Ġnursing":8162,"ĠTAO":8163,"Ġmakulayan":8164,"opyright":8165,"hina":8166,"cha":8167,"Ġ90":8168,"ugma":8169,"uklasan":8170,"ĠNakaka":8171,"Ġalagad":8172,"âĢ¦..":8173,"ampi":8174,"ross":8175,"Ġawtoridad":8176,"namon":8177,"nawin":8178,"Ġfinal":8179,"ureau":8180,"ipan":8181,"Ġpagtingin":8182,"Akala":8183,"Ġpaglabas":8184,"ilitan":8185,"Matagal":8186,"was":8187,"Ġegg":8188,"Ġnaglalaro":8189,"intulot":8190,"Iyon":8191,"ĠSaksi":8192,"Ġkagat":8193,"Ġnakatulong":8194,"doc":8195,"agutan":8196,"lasty":8197,"Ġbersyon":8198,"'re":8199,"nagdag":8200,"Ġbinuksan":8201,"ared":8202,"Ġpaninigarilyo":8203,"Ġpumayag":8204,"Ġsiguradong":8205,"Ġnakangiti":8206,"tin":8207,"ports":8208,"Ġsol":8209,"Ġpawis":8210,"onymous":8211,"hers":8212,"ungal":8213,"ĠGreen":8214,"Ġgradu":8215,"Ġaktibidad":8216,"Ġble":8217,"Ġown":8218,"Ġmagamit":8219,"leta":8220,"ERS":8221,"Ġkaharian":8222,"ontrol":8223,"Ġfecal":8224,"aham":8225,"tanggol":8226,"Ġhamon":8227,"edit":8228,"ĠYear":8229,"Ġeroplano":8230,"Well":8231,"Ġpisikal":8232,"Ġbaywang":8233,"ĠRobin":8234,"BB":8235,"tee":8236,"Ġtransportasyon":8237,"Ġfollow":8238,"lastikan":8239,"Ġsahig":8240,"Ġinu":8241,"Ġetc":8242,"Ġpagtanggap":8243,"Ġkaliwa":8244,"worms":8245,"Ġpatatas":8246,"Ġmanonood":8247,"Ġpatungkol":8248,"ĠPiolo":8249,"Ġpagbili":8250,"bp":8251,"ĠNakat":8252,"Ġmasus":8253,"ĠOil":8254,"ĠSanta":8255,"ĠReserved":8256,"ffer":8257,"iliw":8258,"ĠStation":8259,"Ġkabuuan":8260,"ï»":8261,"ĠMusic":8262,"ĠChi":8263,"ungkahi":8264,"Ġhi":8265,"ilim":8266,"II":8267,"ĠBAG":8268,"Ġpalaguin":8269,"ï»¿":8270,"Ġstudent":8271,"reset":8272,"Ġnagmula":8273,"Pagt":8274,"Ġbike":8275,"Ġseed":8276,"ilib":8277,"hange":8278,"ITY":8279,"Ġdako":8280,"Lo":8281,"Takip":8282,"anggunian":8283,"obook":8284,"ĠMel":8285,"pwede":8286,"ĠJustice":8287,"ĠDevelopment":8288,"Narito":8289,"ukso":8290,"ĠGrabe":8291,"Ġkant":8292,"Ġ(âĨĲ":8293,"uio":8294,"ĠJes":8295,"yway":8296,"ĠSoda":8297,"Ġext":8298,"Ġcome":8299,"life":8300,"Ġnauna":8301,"part":8302,"aharap":8303,"ĠIsab":8304,"raz":8305,"aramihan":8306,"ĠPD":8307,"ĠTer":8308,"Ġstay":8309,"Ġnagug":8310,"share":8311,"Ġkompanya":8312,"Ġinagaw":8313,"Ġgelatin":8314,"Ġpep":8315,"ekla":8316,"stit":8317,"ten":8318,"kinggan":8319,"tv":8320,"CC":8321,"ional":8322,"Ġgulat":8323,"Ġrepolyo":8324,"ĠJoseph":8325,"mura":8326,"Ġrizal":8327,"Ġminutes":8328,"Ġtaping":8329,"Ġmatatag":8330,"ĠEDSA":8331,"ĠJanuary":8332,"ĠJulia":8333,"tors":8334,"udiobook":8335,"lahat":8336,"Ġdalang":8337,"Ġscene":8338,"Halimbawa":8339,"Ġagain":8340,"Ġpaglaban":8341,"Ha":8342,"NAG":8343,"Act":8344,"Ġmabasa":8345,"ĠCavite":8346,"Bre":8347,"Ġpagkakamali":8348,"Ġtapeworm":8349,"ateo":8350,"Ġmagmahal":8351,"Ġmundong":8352,"Ġpagpili":8353,"ĠMor":8354,"shirt":8355,"erya":8356,"ansi":8357,"ĠAsawa":8358,"ĠDoon":8359,"Ġ197":8360,"jor":8361,"ĠAsya":8362,"Ġkanino":8363,"Ġrid":8364,"Ġjoke":8365,"TS":8366,"Ġiisa":8367,"Ġsuliranin":8368,"Ġkaligayahan":8369,"ĠAntonio":8370,"abuso":8371,"ier":8372,"Naku":8373,"bol":8374,"Ġaff":8375,"Ġaling":8376,"ĠAmerikano":8377,"Ġoperation":8378,"Ġinil":8379,"Ġtrap":8380,"ĠMiyerk":8381,"Ġaralin":8382,"Ġjob":8383,"Ġposibilidad":8384,"Ġeffective":8385,"vsk":8386,"ĠBatas":8387,"syunal":8388,"Ġtsaka":8389,"ĠThank":8390,"tail":8391,"ontra":8392,"Ġanit":8393,"Ġbutter":8394,"Ġbong":8395,"Ġpagbabawas":8396,"ĠProt":8397,"diyan":8398,"ĠSAN":8399,"Ġmaalala":8400,"ĠBeauty":8401,"ĠLoss":8402,"ĠBody":8403,"ĠSabihin":8404,"Ġapektado":8405,"Ġpy":8406,"apal":8407,"Ġpinakabagong":8408,"ĠNad":8409,"ANGG":8410,"minsan":8411,"Yes":8412,"Ġkabuuang":8413,"kanilang":8414,"Ġstraight":8415,"Ġve":8416,"Ġihi":8417,"Ġpagbib":8418,"Ġgate":8419,"ugot":8420,"ANS":8421,"Ġokey":8422,"Ġtaxi":8423,"Ġbinago":8424,"ĠBatangas":8425,"].":8426,"Ġpamamahala":8427,"Ġmagkaibigan":8428,"veloper":8429,"ADO":8430,"Masaya":8431,"Ġgaganap":8432,"fast":8433,"ĠNAMAN":8434,"ĠIG":8435,"ĠTrillanes":8436,"ĠTan":8437,"ĠBaguhan":8438,"Ġorihinal":8439,"Tang":8440,"ĠChan":8441,"ĠPagkawala":8442,"ĠIr":8443,"ĠSintomas":8444,"Ġtemp":8445,"Read":8446,"Ġakda":8447,"gic":8448,"roll":8449,"she":8450,"ĠPops":8451,"ĠHuling":8452,"Ġsearch":8453,"Ġnakakaapekto":8454,"Ġult":8455,"Ġbaha":8456,"Ġroll":8457,"UTI":8458,"box":8459,"Ġbukol":8460,"Ġnalul":8461,"daang":8462,"Ġkasamaan":8463,"Ġkinakailangang":8464,"Ġproduktong":8465,"ALIK":8466,"ape":8467,"ikain":8468,"adya":8469,"ipit":8470,"ĠPinap":8471,"lex":8472,"gina":8473,"Ġpumapasok":8474,"PAANO":8475,"edding":8476,"ario":8477,"Ġshorts":8478,"abawi":8479,"Ġul":8480,"ĠMiguel":8481,"ampung":8482,"lipunan":8483,"Ġmillion":8484,"Ġusapin":8485,"ĠSenator":8486,"ĠKanya":8487,"Ġmakinig":8488,"ĠLaguna":8489,"?...":8490,"Ġnapanood":8491,"bert":8492,"Ġdirector":8493,"ĠGanun":8494,"lec":8495,"okohan":8496,"Ġasukal":8497,"Ġnegat":8498,"88":8499,"ĠUfa":8500,"umpisa":8501,"NING":8502,"kong":8503,"Sexy":8504,"ĠGonz":8505,"hayag":8506,"ĠDes":8507,"ĠIp":8508,"Ġsabaw":8509,"Ġml":8510,"Ġsirain":8511,"abit":8512,"Ġpamagat":8513,"uron":8514,"antutan":8515,"ĠYO":8516,"Ġbackground":8517,"Kan":8518,"Ġnakad":8519,"ĠTay":8520,"okes":8521,"Ġalala":8522,"Ġtupa":8523,"Ġnagagawa":8524,"Ġmaisip":8525,"ĠSingapore":8526,"EAN":8527,"Ġmagluto":8528,"andog":8529,"Ġteacher":8530,"Ġenter":8531,"Ġsummer":8532,"arili":8533,"email":8534,"Ġshows":8535,"Ġhapunan":8536,"Ġnakarating":8537,"tay":8538,"Ġmost":8539,"ĠAngelica":8540,"Ġreply":8541,"ĠPeople":8542,"udad":8543,"igi":8544,"Ġnaiwan":8545,"Ġnagkam":8546,"Ġnaranasan":8547,"amanan":8548,"asakay":8549,"Ġpanalo":8550,"Ġkaplastikan":8551,"rig":8552,"Ġkc":8553,"Ġnahulog":8554,"Tila":8555,"ĠNorte":8556,"Ġinilapat":8557,"ayanin":8558,"ĠMabuti":8559,"Ġkandidato":8560,"ugtog":8561,"inado":8562,"yales":8563,"Ġque":8564,"ĠPresidente":8565,"Parasito":8566,"Ġfacelift":8567,"igure":8568,"eh":8569,"rakt":8570,"ĠGroup":8571,"Pagdating":8572,"Ġbinubuo":8573,"Ġ500":8574,"Ġaparato":8575,"Ġkrit":8576,"uage":8577,"ĠAmin":8578,"Ġpork":8579,"Ġkilay":8580,"Menu":8581,"atae":8582,"ĠSotto":8583,"kuw":8584,"Ġ2006":8585,"Ġpinagmulan":8586,"EM":8587,"Ġcomplex":8588,"bil":8589,"uluyan":8590,"likula":8591,"isin":8592,"har":8593,"Ġbom":8594,"Ġikina":8595,"Ġanime":8596,"Ġev":8597,"ĠDalawa":8598,"rasya":8599,"ĠPuwerta":8600,"ĠFebruary":8601,"PS":8602,"ahalin":8603,"ĠSaka":8604,"Ġkuto":8605,"ĠPower":8606,"ĠBureau":8607,"Ġmatanggap":8608,"ĠĠĠĠĠĠĠĠ":8609,"Ġnakalagay":8610,"Pagtatalik":8611,"Ġslim":8612,"ĠLik":8613,"ATAY":8614,"ju":8615,"enef":8616,"Ġkontrol":8617,"agdag":8618,"ĠFood":8619,"Ġsinumang":8620,"Ġanaly":8621,"Ġthings":8622,"istang":8623,"Ġkumilos":8624,"awaan":8625,"ĠBer":8626,"ulating":8627,"ĠFlor":8628,"Ġkasapi":8629,"eratin":8630,"ĠSenador":8631,"haharas":8632,"......":8633,"ĠPUM":8634,"Ġkanan":8635,"eah":8636,"Ġipinagb":8637,"anin":8638,"Ġdekada":8639,"ĠLamang":8640,"med":8641,"ITE":8642,"Maya":8643,"inasabi":8644,"ĠDownload":8645,"Ġpagbasa":8646,"ĠÂ·":8647,"ifacio":8648,"ĠPor":8649,"ween":8650,"ĠDyaryo":8651,"scon":8652,"elos":8653,"Maaaring":8654,"Ġnagkakaroon":8655,"Ġpauwi":8656,"Naging":8657,"ashion":8658,"Eto":8659,"Ġnagtatanong":8660,"Ġnetiz":8661,"Ġnasusulat":8662,"Patakaran":8663,"ĠAna":8664,"ĠSIN":8665,"zer":8666,"dami":8667,"Ġvirus":8668,"usty":8669,"uyan":8670,"Ġproteksyon":8671,"ĠPuwede":8672,"doza":8673,"Ġversion":8674,"ĠSabay":8675,"ĠKalusugan":8676,"ĠPaki":8677,"Ġbeen":8678,"Ġhalalan":8679,"Ġiodine":8680,"Ung":8681,"Ġpipino":8682,"Ġcla":8683,"Ġkahinaan":8684,"WAR":8685,"ĠManag":8686,"ĠSapagka":8687,"Sinusuportahan":8688,"gorod":8689,"Halos":8690,"Gamit":8691,"Ġelect":8692,"Ġidea":8693,"Ġbuckthorn":8694,"arawi":8695,"ĠAuthor":8696,"Ġkaninang":8697,"Pap":8698,"inh":8699,"ĠEto":8700,"Ġmakausap":8701,"Ġipinanganak":8702,"ittle":8703,"ĠKy":8704,"ikman":8705,"ĠKali":8706,"Ġwould":8707,"52":8708,"Ġwhy":8709,"usalem":8710,"ĠKara":8711,"Ġistasyon":8712,"Ġalang":8713,"Ġeskwela":8714,"Porn":8715,"Ġpagkaing":8716,"Ġpanun":8717,"zen":8718,"Ġmedikal":8719,"Ġtumagal":8720,"pya":8721,"Rec":8722,"riga":8723,"Ġkakain":8724,"Ġplayer":8725,"Ġdy":8726,"Ġpaglabag":8727,"tonight":8728,"tom":8729,"ĠLagi":8730,"Ġmagpak":8731,"ĠExpose":8732,"Ġimm":8733,"inigyan":8734,"omen":8735,"Ġpumatay":8736,"aayuno":8737,"Ġremate":8738,"Ġhimukin":8739,"abloid":8740,"ĠAND":8741,"atake":8742,"Ġcysts":8743,"Ġsambit":8744,"Ġsumpay":8745,"Ġvit":8746,"ĠKath":8747,"Ġmambabasa":8748,"rape":8749,"bs":8750,"adyang":8751,"Ġstore":8752,"Ġatbp":8753,"Pinay":8754,"Nakat":8755,"ĠPanghaharas":8756,"ĠAi":8757,"ibaka":8758,"Meron":8759,"Ġtranslation":8760,"?)":8761,"Ġmp":8762,"Ġtandaan":8763,"Ġbasketball":8764,"untik":8765,"Ġimbestigasyon":8766,"lix":8767,"ĠMAT":8768,"masdan":8769,"Ġsektor":8770,"igura":8771,"charge":8772,"iwalang":8773,"Ġgub":8774,"Ġorganismo":8775,"arama":8776,"nit":8777,"Ġalipin":8778,"ĠLabor":8779,"ĠJoy":8780,"ÂłÂł":8781,"ĠPILIP":8782,"ĠJud":8783,"ĠNam":8784,"obile":8785,"ĠKak":8786,"fort":8787,"Ġmic":8788,"lado":8789,"Ġilapat":8790,"Ġwait":8791,"unita":8792,"Ġkorte":8793,"Ġgana":8794,"Ġnandoon":8795,"ambay":8796,"Actually":8797,"Ġcamp":8798,"Ġsundin":8799,"dikit":8800,"Ġmagdam":8801,"ĠDennis":8802,"Ġtawagin":8803,"Ġaksidente":8804,"lalo":8805,"ANDA":8806,"alsik":8807,"Ġnilikha":8808,"ĠDaddy":8809,"Ġsahod":8810,"YONG":8811,"ĠLuzon":8812,"ĠMovie":8813,"ĠUs":8814,"inseed":8815,"uyat":8816,"Ġval":8817,"oung":8818,"Jo":8819,"51":8820,"ĠMalak":8821,"natiling":8822,"pektong":8823,"ĠHen":8824,"abayaan":8825,"Ġbalitang":8826,"ĠLife":8827,"ĠSis":8828,"ĠâĢ¢":8829,"Ġnawa":8830,"She":8831,"tatag":8832,"ĠBUHAY":8833,"facebook":8834,"Ġperman":8835,"ned":8836,"ĠTula":8837,"erre":8838,"oplasty":8839,"ĠCa":8840,"Ġhugasan":8841,"Ġextra":8842,"Ġsinuman":8843,"ripisyo":8844,"Ġmagkat":8845,"Ġpiraso":8846,"ĠTor":8847,"Ġmachine":8848,"Ġbarkada":8849,"Ġwhite":8850,"ĠSu":8851,"trina":8852,"ĠLet":8853,"ivera":8854,"ĠMP":8855,"change":8856,"aris":8857,"Ġlaruan":8858,"Ġpresscon":8859,"hating":8860,"OOD":8861,"Ġret":8862,"mpas":8863,"Ġmamm":8864,"ares":8865,"ĠEX":8866,"Ġdirektor":8867,"Ġpawang":8868,"Ġans":8869,"ermat":8870,"ĠMILF":8871,"olekta":8872,"Ġbagyong":8873,"rest":8874,"Ġkumak":8875,"Ġinabot":8876,"Ġnasas":8877,"Ġawa":8878,"Ġpornograp":8879,"diya":8880,"Ġcontest":8881,"antes":8882,"imum":8883,"ecia":8884,"ĠMAB":8885,"hatid":8886,"Ġnakakap":8887,"pla":8888,"Hay":8889,"eon":8890,"aranas":8891,"akali":8892,"PI":8893,"ayaman":8894,"Pres":8895,"Ġpaglalakad":8896,"Ġmaiiwasan":8897,"ĠBuwan":8898,"irin":8899,"Ġmine":8900,"entro":8901,"ĠPant":8902,"Ġpuntahan":8903,"ibir":8904,"ality":8905,"leep":8906,"Ġtraffic":8907,"OW":8908,"over":8909,"ĠMalaki":8910,"Ġdisenyo":8911,"aban":8912,"Ġfloor":8913,"Ġdef":8914,"Ġmakamit":8915,"Ġflight":8916,"isda":8917,"ĠCinema":8918,"ĠKatoliko":8919,"Ġprofile":8920,"Ġpanlabas":8921,"sas":8922,"eas":8923,"kili":8924,"Ġmabub":8925,"Ġinto":8926,"ĠGawain":8927,"bagay":8928,"Ġmetro":8929,"anahong":8930,"ĠBible":8931,"uwing":8932,"rother":8933,"Ġump":8934,"ĠMundo":8935,"Ġmaniwala":8936,"ĠSaudi":8937,"umbas":8938,"Ġtanggapan":8939,"Ġdalag":8940,"enz":8941,"ĠMarawi":8942,"Ġpagpipilian":8943,"uffiness":8944,"link":8945,"Ġnagkita":8946,"Ġeksak":8947,"Ġorganisasyon":8948,"Ġstep":8949,"Ġbabe":8950,"Ġmatalino":8951,"ĠBrown":8952,"sho":8953,"anna":8954,"ahiwatig":8955,"zema":8956,"Ġaloe":8957,"ocon":8958,"Ġpressure":8959,"uncil":8960,"ĠHappy":8961,"Ġeditor":8962,"ĠParaan":8963,"kum":8964,"Ġingay":8965,"ĠGloria":8966,"ĠSarap":8967,"PC":8968,"Ġkanela":8969,"ilaw":8970,"ĠBB":8971,"igong":8972,"ĠNoy":8973,"ĠKomento":8974,"Ġot":8975,"usot":8976,"Ġhops":8977,"tiago":8978,"Ġabroad":8979,"Ġpangm":8980,"Ġtatanggap":8981,"cc":8982,"Ayaw":8983,"Ġmalaya":8984,"Ġpagtulong":8985,"ubak":8986,"kom":8987,"alalang":8988,"edyul":8989,"sayt":8990,"Ġwhich":8991,"MAG":8992,"Ġpagkakat":8993,"Ġlindol":8994,"Ġmapabuti":8995,"Ġmamamatay":8996,"Charice":8997,"60":8998,"iev":8999,"Ġipinakita":9000,"ĠMendoza":9001,"ALAN":9002,"Ġ70":9003,"Ġbuksan":9004,"IF":9005,"Ġprom":9006,"Ġmakati":9007,"ĠKongreso":9008,"Ġsaloob":9009,"Ġplat":9010,"anser":9011,"isahan":9012,"ucks":9013,"ambing":9014,"Ġvac":9015,"Hollywood":9016,"ĠGrade":9017,"ĠKAYO":9018,"Ġisyung":9019,"ĠSAK":9020,"Ġpahid":9021,"Ġinang":9022,"Ġsagging":9023,"tificate":9024,"Ġpintura":9025,"Ġmorning":9026,"yper":9027,"Ġordina":9028,"iler":9029,"ĠProvin":9030,"ĠPress":9031,"Ġprotektahan":9032,"SO":9033,"Ġhinalikan":9034,"ĠCanvas":9035,"ott":9036,"odes":9037,"ĠRostov":9038,"Ġkabataang":9039,"ONA":9040,"uneta":9041,"utukan":9042,"sage":9043,"Ġsinong":9044,"Ġpattern":9045,"Ġenerhiya":9046,"ners":9047,"ĠWALANG":9048,"unok":9049,"ĠNiz":9050,"ipunan":9051,"Ġsumis":9052,"ĠHATAW":9053,"uccess":9054,"Ġisinulat":9055,"Ġpur":9056,"ĠSea":9057,"kabahan":9058,"trabaho":9059,"Ġisama":9060,"panyo":9061,"Paglalarawan":9062,"ĠKor":9063,"kado":9064,"Ġkarang":9065,"hek":9066,"Ġgive":9067,"isay":9068,":)":9069,"riv":9070,"ĠMoises":9071,"Ã±a":9072,"utista":9073,"Ġmasa":9074,"ekater":9075,"Ġgaanong":9076,"abala":9077,"ALAK":9078,"Ġdiwa":9079,"ĠNagpap":9080,"Ġalmusal":9081,"ikim":9082,"Ġkalahati":9083,"ando":9084,"Ġinilala":9085,"watan":9086,"Ġtignan":9087,"tip":9088,"Ġrequest":9089,"Ġnagkaka":9090,"Ġnagaganap":9091,"En":9092,"Baga":9093,"alog":9094,"Ġdigmaan":9095,"Ġmother":9096,"Ġtigas":9097,"ĠPakikipag":9098,"ĠVilla":9099,"ĠGanito":9100,"Ġkayamanan":9101,"UNGK":9102,"Ġpagpapatibay":9103,"INE":9104,"kilala":9105,"ĠSina":9106,"Ġcontract":9107,"ĠPhil":9108,"disk":9109,"Nais":9110,"Ġkonsepto":9111,"ĠYekater":9112,"Ġpaghahatid":9113,"PAR":9114,"sign":9115,"anoorin":9116,"ĠHD":9117,"pping":9118,"ĠHehehe":9119,"Ġug":9120,"ĠSunday":9121,"ĠAling":9122,"Ġca":9123,"Ġbon":9124,"YAN":9125,"COM":9126,"Primetime":9127,"Ġimposible":9128,"ĠFilip":9129,"Ġganoong":9130,"ĠPagkak":9131,"retso":9132,"Babae":9133,"Ġshower":9134,"ĠRSS":9135,"Taong":9136,"Ġ80":9137,"cks":9138,"Ġ:-":9139,"Ġnguni":9140,"umula":9141,"ĠBad":9142,"asaad":9143,"Ġseks":9144,"Ġbarko":9145,"Agad":9146,"Ġnegosyante":9147,"Ġarest":9148,"Ts":9149,"leas":9150,"ALING":9151,"avorite":9152,"Ġdokumento":9153,"risis":9154,"irituwal":9155,"Ġbiyaya":9156,"Ġadvert":9157,"ĠWest":9158,"unds":9159,"Ġdakilang":9160,"Ġtrain":9161,"Ġmaglagay":9162,"Ġmanlalaro":9163,"Ġsaloobin":9164,"andar":9165,"Ġbuilding":9166,"Ġblonde":9167,"siklo":9168,"Share":9169,"Ġage":9170,"ibersaryo":9171,"ĠTi":9172,"Ġkis":9173,"199":9174,"Patuloy":9175,"uwad":9176,"aramdaman":9177,"ĠYekaterinburg":9178,"Ġshould":9179,"icks":9180,"ĠJerusalem":9181,"ĠNais":9182,"ĠMax":9183,"Ġbrief":9184,"ĠNot":9185,"rect":9186,"Ġchoice":9187,"LES":9188,"paper":9189,"kasama":9190,"Ġlamig":9191,"ellow":9192,"Ġmabisa":9193,"Ġmagpakailan":9194,"riel":9195,"bia":9196,"point":9197,"icky":9198,"ically":9199,"ATCH":9200,"Ġmovies":9201,"ĠNaga":9202,"Ġlaptop":9203,"ahila":9204,"ĠVin":9205,"ĠPek":9206,"ĠBil":9207,"Ġnatawa":9208,"Ġkumik":9209,"Ġhours":9210,"Ġminahal":9211,"Ġnahihirapan":9212,"ahoo":9213,"aluku":9214,"Ġtodo":9215,"Ġ<":9216,"sapalaran":9217,"Ġpabata":9218,"Ġinterest":9219,"imbahan":9220,"Ġdumalo":9221,"Ġapo":9222,"Ġaccess":9223,"erong":9224,"Ġnaroon":9225,"Ġpagtut":9226,"UST":9227,"Ġpangalang":9228,"Ġmabuntis":9229,"dukto":9230,"ingon":9231,"ĠAst":9232,"Ġmagsisimula":9233,"ĠRey":9234,"Ġpahayagan":9235,"Ġlasa":9236,"Ġkrus":9237,"Sir":9238,"ination":9239,"ĠEpisode":9240,"Ġsalon":9241,"Ġngayo":9242,"Ġlabasan":9243,"hairman":9244,"ĠKen":9245,"Ġnako":9246,"core":9247,"inginig":9248,"Ġpaboritong":9249,"esh":9250,"Play":9251,"Ġpolice":9252,"Ġbigay":9253,"libutan":9254,"ĠRivera":9255,"Ġpanitikan":9256,"Ġproblem":9257,"Ġword":9258,"Ġmoisturizing":9259,"alatandaan":9260,"ges":9261,"nod":9262,"aplay":9263,"ĠPAS":9264,"disyunal":9265,"ĠKaysa":9266,"Ġkapakanan":9267,"Ġmember":9268,"orge":9269,"Ġpansariling":9270,"arts":9271,"Off":9272,"eter":9273,"Ġpangkalahatang":9274,"ĠSugat":9275,"alitaan":9276,"Medyo":9277,"vy":9278,"ecuti":9279,"ĠTotoo":9280,"Ed":9281,"Pangalan":9282,"ĠBurdock":9283,"Ġwatch":9284,"ikling":9285,"Ġpigmented":9286,"Am":9287,"Ġcredit":9288,"answers":9289,"Ġpagsusulat":9290,"ladi":9291,"ĠKaibigan":9292,"Ġnili":9293,"ĠSat":9294,"ĠChristian":9295,"ĠKorean":9296,"basta":9297,"df":9298,"Ġmodel":9299,"ĠSas":9300,"Ġhandog":9301,"Ġtuyong":9302,"Ġ32":9303,"Ġhospital":9304,"Ġdoctor":9305,"Ġpaalisin":9306,"To":9307,"kil":9308,"ruit":9309,"Kailan":9310,"ĠAf":9311,"Ġnatit":9312,"ĠLihim":9313,"urol":9314,"Ġpinab":9315,"ĠAudiobook":9316,"Red":9317,"Ġkabutihan":9318,"Ġhahahaha":9319,"Ġprevention":9320,"Ġpaghinga":9321,"Nov":9322,"ĠLay":9323,"Ġresponsibilidad":9324,"Ġmakapaniwala":9325,"Ġphotos":9326,"ĠAtty":9327,"ĠMatanda":9328,"dinan":9329,"ĠBigla":9330,"ĠTablet":9331,"stand":9332,"INAG":9333,"ampu":9334,"preci":9335,"Ġbed":9336,"Ġuh":9337,"rey":9338,"Ġmakapasok":9339,"Ġsari":9340,"Ġkepe":9341,"Ġstation":9342,"Ġsubject":9343,"Ġpamangkin":9344,"Ġnakakas":9345,"ĠTH":9346,"Ġituturing":9347,"Ġnaghih":9348,"READ":9349,"Ġmangang":9350,"ĠIbang":9351,"Ġbalan":9352,"ĠConcep":9353,"Ġibinahagi":9354,"atanggal":9355,"Ġhandang":9356,"ovit":9357,"Ġkausapin":9358,"Ġschedule":9359,"ĠRoad":9360,"Ġmagic":9361,"ĠAB":9362,"ĠBarbie":9363,"apuwa":9364,"Ġvisa":9365,"anggit":9366,"Totoo":9367,"ĠPamilya":9368,"ĠRemedies":9369,"Ġdilaw":9370,"uming":9371,"ĠIsland":9372,"mula":9373,"ĠCanada":9374,"essional":9375,"ayakap":9376,"ensyang":9377,"sam":9378,"mittee":9379,"Ġinilagay":9380,"osibir":9381,"Ġgift":9382,"ĠLIB":9383,"ash":9384,"osibirsk":9385,"Ġgawaing":9386,"Maghanap":9387,"aching":9388,"Ġvideos":9389,"Ġnatutuwa":9390,"ĠPub":9391,"Ġthing":9392,"ahag":9393,"ĠGAM":9394,"Ġ33":9395,"Ġmakatulog":9396,"Ġstyle":9397,"ĠNagulat":9398,"embers":9399,"ĠBulaga":9400,"Ġbaking":9401,"Ġdest":9402,"unungan":9403,"Ġkinuk":9404,"Ġcelebr":9405,"Ġheto":9406,"Ġrice":9407,"Ġpuffiness":9408,"Ġinalis":9409,"Ġipaalam":9410,"Ġmik":9411,"untunan":9412,"Basahin":9413,"otohanang":9414,"Ġpanukala":9415,"Ġgrupong":9416,"aneho":9417,"Ġbangkay":9418,"ĠStreet":9419,"abor":9420,"Ġdemon":9421,"Ibahagi":9422,"apak":9423,"uhat":9424,"hanin":9425,"Ġpabatain":9426,"Ġmaghanda":9427,"uyin":9428,"abanata":9429,"erte":9430,"ĠGinawa":9431,"ened":9432,"Ġnakitang":9433,"iginal":9434,"ĠRoy":9435,"Ġaboga":9436,"cus":9437,"Ġkarapat":9438,"Ġdream":9439,"estions":9440,"iversary":9441,"Ġgar":9442,"Ġyodo":9443,"Ġtimes":9444,"comment":9445,"Ġproperty":9446,"ĠTri":9447,"Ġipinas":9448,"otes":9449,"Ġpaglipat":9450,"ektong":9451,"etnam":9452,"uugali":9453,"ranasan":9454,"ĠHerbal":9455,"ĠRoxas":9456,"ĠLast":9457,"ĠNueva":9458,"ĠLor":9459,"GMA":9460,"usong":9461,"Ġpantal":9462,"Ġtalk":9463,"Ġbrand":9464,"ILL":9465,"Ġtravel":9466,"135":9467,"ĠTar":9468,"ersonal":9469,"hough":9470,"eto":9471,"Ġkasagutan":9472,"Ġhigpitan":9473,"Ġasp":9474,"Ġsinimulan":9475,"ĠPal":9476,"ĠLov":9477,"Ġkinas":9478,"Ġbakas":9479,"ĠPagtat":9480,"Ġnagpapa":9481,"Ġipat":9482,"Ġniyakap":9483,"Ġcor":9484,"Ġsurvey":9485,"Ġdaang":9486,"ĠNovosibirsk":9487,"ĠCollege":9488,"Ġasawang":9489,"verage":9490,"tak":9491,"ĠPagka":9492,"Ġtinatrato":9493,"isya":9494,"Ġmasikip":9495,"Pati":9496,"Ġestilo":9497,"Ġkaramdaman":9498,"Ġlibo":9499,"Ġuuwi":9500,"Ġamer":9501,"ilingan":9502,"ĠQueen":9503,"Ġchannel":9504,"Ġpormal":9505,"Ġitigil":9506,"Ġmasaktan":9507,"Ġsumuko":9508,"Ġtamad":9509,"ĠUnited":9510,"igdigang":9511,"Ġpangungusap":9512,"Kasama":9513,"Ġmeeting":9514,"June":9515,"ensa":9516,"Ġbading":9517,"Ġlibong":9518,"abwatan":9519,"hed":9520,"ĠâĨ":9521,"ĠPER":9522,"ĠTagapag":9523,"Ġinstit":9524,"Ġpanda":9525,"Ġtinanggal":9526,"Ġprim":9527,"Ġeleksyon":9528,"umpara":9529,"ĠDef":9530,"Ġlilitaw":9531,"Ġhukbo":9532,"Ġmagalit":9533,"ĠDam":9534,"Ġhud":9535,"kasi":9536,"Ġmasis":9537,"ASAN":9538,"Ġscore":9539,"Ġ:))":9540,"Ġkahihinatnan":9541,"kus":9542,"ĠHot":9543,"Ġusba":9544,"CE":9545,"Ġpangangati":9546,"Ġessays":9547,"Ġposted":9548,"Mukhang":9549,"Ġinternational":9550,"ĠDugo":9551,"gagawa":9552,"Ġuwi":9553,"Ġtick":9554,"ĠBob":9555,"Ġready":9556,"Ġbote":9557,"nanakaw":9558,"anyang":9559,"ĠSayang":9560,"ĠSorry":9561,"Ġpasensya":9562,"Ġpampaganda":9563,"Ġactually":9564,"Ġkulot":9565,"ĠWords":9566,"Ġnaiintindihan":9567,"ï¿½ï¿½ï¿½ï¿½ï¿½ï¿½ï¿½ï¿½":9568,"Ġuser":9569,"Ġteror":9570,"Ġgast":9571,"Ġmove":9572,"kang":9573,"ugal":9574,"Ġfuture":9575,"Ġsinulat":9576,"mal":9577,"Ġmapula":9578,"Ġumpisa":9579,"ĠNangangahulugan":9580,"ĠRegion":9581,"Ġtumanggap":9582,"ĠIf":9583,"amantalang":9584,"Ġpakinggan":9585,"Ġbran":9586,"Ġear":9587,"ĠKiko":9588,"Ġprinsip":9589,"ĠHang":9590,"Ġtropa":9591,"iwasang":9592,"ĠKailan":9593,"dle":9594,"imag":9595,"Ġbulsa":9596,"usok":9597,"ĠLima":9598,"ulitin":9599,"Grabe":9600,"Ġungol":9601,"Ġnakakaalam":9602,"Ġcalorie":9603,"Madalas":9604,"Ġtren":9605,"ĠMalaman":9606,"Ġikin":9607,"ĠKazan":9608,"Ġinstr":9609,"ĠOb":9610,"Ġdoktrina":9611,"ĠAral":9612,"bago":9613,"iland":9614,"Ġplast":9615,"Ġpack":9616,"Ġkopya":9617,"ĠSecurity":9618,"Ġanyos":9619,"Ġbumang":9620,"Ġnagising":9621,"luran":9622,"eline":9623,"Ġmarket":9624,"ĠSystem":9625,"hatian":9626,"Ġiwasan":9627,"Ġmaliwanag":9628,"ĠOut":9629,"Ġcut":9630,"abin":9631,"Ġtagas":9632,"team":9633,"ĠInang":9634,"ĠDol":9635,"Ġnandun":9636,"ĠGayun":9637,"Ġproduct":9638,"ibabaw":9639,"Ġipasa":9640,"inoon":9641,"ker":9642,"health":9643,"ĠEci":9644,"Ġumanong":9645,"yakol":9646,"Ġpolish":9647,"Ġsource":9648,"Ġpunta":9649,"ells":9650,"Ġkautusan":9651,"girl":9652,"ulaan":9653,"Ġtagahanga":9654,"agutin":9655,"herapy":9656,"ĠWil":9657,"Ġcarbon":9658,"Ġmataba":9659,"umple":9660,"pret":9661,"Ġsopas":9662,"Ġkakayahang":9663,"Ġcourt":9664,"Ġtaglay":9665,"Ganito":9666,"zed":9667,"dida":9668,"mil":9669,"ĠKag":9670,"Ġmapigilan":9671,"Ġlubid":9672,"Ġwindow":9673,"Ġbuwang":9674,"Ġsalad":9675,"Ġshabu":9676,"Ġsakay":9677,"bok":9678,"Ġsiyam":9679,"inggit":9680,"Ġcinnamon":9681,"paste":9682,"Ġeksperto":9683,"Ġsap":9684,"ustom":9685,"abase":9686,"ĠSolusyon":9687,"ĠCentral":9688,"PO":9689,"Ġnahihiya":9690,"abatas":9691,"ĠMont":9692,"ĠGreat":9693,"Ġlabing":9694,"ĠHel":9695,"ĠBaguio":9696,"500":9697,"Murang":9698,"ĠCreative":9699,"Ġnapapansin":9700,"Ġfeedback":9701,"ambal":9702,"Ġnagdad":9703,"Ġmagkita":9704,"Ġnagbabasa":9705,"Patay":9706,"alata":9707,"ĠVictor":9708,"Ġep":9709,"Ġdik":9710,"Ġmalubhang":9711,"ĠMuli":9712,"ĠAustra":9713,"Ġpahiwatig":9714,"ĠBlood":9715,"ĠDati":9716,"Sapag":9717,"ties":9718,"Ġsusi":9719,"hinga":9720,"Ġnakapagpap":9721,"ĠService":9722,"Ġmind":9723,"Ġgram":9724,"Kumuha":9725,"Ġbale":9726,"diin":9727,"Ġpakikipagtalik":9728,"ij":9729,"pris":9730,"ĠStory":9731,"Ġcond":9732,"iller":9733,"vanced":9734,"ILI":9735,"Ġthro":9736,"ĠGit":9737,"Ġaction":9738,"Ġ`":9739,"ĠNatin":9740,"YANG":9741,"ĠKAL":9742,"iram":9743,"ĠVit":9744,"ĠPen":9745,"ĠTut":9746,"likado":9747,"Ġmunting":9748,"Kami":9749,"rame":9750,"Ġseguridad":9751,"Ġforever":9752,"Ġsays":9753,"Ġpataas":9754,"Ġhenna":9755,"vir":9756,"Ġsecurity":9757,"porno":9758,"Ġwon":9759,"Ġnakang":9760,"Ġ^_^":9761,"Ġpamilyang":9762,"Natural":9763,"ansya":9764,"Ġlagyan":9765,"panyol":9766,"Ġpantalon":9767,"ĠCommons":9768,"77":9769,"yaring":9770,"ĠANO":9771,"ĠEurope":9772,"ĠHong":9773,"Ġarestado":9774,"trip":9775,"Ġbaso":9776,"Ġmakahanap":9777,"ĠBis":9778,"ĠPage":9779,"Ġpinakamat":9780,"allenge":9781,"Ġruta":9782,"Ġpaglalaro":9783,"Ġkoleksyon":9784,"ĠPlay":9785,"Ġkagustuhan":9786,"Ġkanin":9787,"ĠKamay":9788,"ĠKw":9789,"draw":9790,"plements":9791,"Ġbinabasa":9792,"Ġburning":9793,"kailangan":9794,"Ġkawing":9795,"oryang":9796,"Ġresult":9797,"wser":9798,"Ġcook":9799,"ĠKuwento":9800,"buti":9801,"Ġtanawin":9802,"ĠFull":9803,"Ġespiritu":9804,"Ġmakis":9805,"ĠEuropa":9806,"ĠShampoo":9807,"Ġmode":9808,"Ġ:(":9809,"goy":9810,"Ġstatement":9811,"Ġnahah":9812,"Ġmature":9813,"ĠKatotohanan":9814,"Ġgrade":9815,"kanyang":9816,"cement":9817,"Ġkeratin":9818,"Ġrehim":9819,"Related":9820,"Ġmodernong":9821,"AHAL":9822,"ĠKaka":9823,"akes":9824,"Ġimplant":9825,"ingisda":9826,"Ġipinadala":9827,"Ġnakikinig":9828,"Ġtoenail":9829,"80":9830,"Ġbati":9831,"andine":9832,"Ġganung":9833,"Ġpresent":9834,"Ġleading":9835,"Ġmadulas":9836,"TAT":9837,"Ġpropeta":9838,"Ġtapusin":9839,"ĠDrug":9840,"lian":9841,"ĠPambansang":9842,"ept":9843,"Ġrespeto":9844,"Ġselandine":9845,"uluhang":9846,"Kina":9847,"Ġplus":9848,"Ġenglish":9849,"Ġinteresado":9850,"Sorry":9851,"Ġkahabaan":9852,"move":9853,"Ġaba":9854,"Ġnakasama":9855,"ĠJacob":9856,"bayad":9857,"osong":9858,"Ġbetter":9859,"Ġhalo":9860,"ima":9861,"ĠTalagang":9862,"Ġhenerasyon":9863,"ups":9864,"ave":9865,"alap":9866,"ĠLis":9867,"Ġoffer":9868,"Ġumiiral":9869,"kout":9870,"ABI":9871,"ipo":9872,"Ġtechn":9873,"Ġregla":9874,"Sp":9875,"Sus":9876,"Ġdol":9877,"logy":9878,"Ġpaglaki":9879,"bu":9880,"inder":9881,"Ġhub":9882,"Ġdalaw":9883,"Ġ55":9884,"Ġbayaran":9885,"ĠBukas":9886,"Ad":9887,"ĠLas":9888,"ĠWALA":9889,"ESUS":9890,"Ngayong":9891,"Ġnagtanong":9892,"Pumunta":9893,"Ġmagbayad":9894,"Ġmansanas":9895,"Ġhus":9896,"elan":9897,"ĠAndrew":9898,"Ġwit":9899,"ĠDistrict":9900,"bik":9901,"SI":9902,"Ġtatak":9903,"ismis":9904,"realize":9905,"Ġbumagsak":9906,"ĠEng":9907,"mercial":9908,"ĠAwit":9909,"ĠConcepcion":9910,"ĠMORE":9911,"Ġtarget":9912,"ĠTur":9913,"osh":9914,"ĠNand":9915,"BT":9916,"Ġnagpapasalamat":9917,"ĠSimpleng":9918,"Ġbug":9919,"Ġdalagita":9920,"uklas":9921,"Ġsofa":9922,"Ġguard":9923,"Ġtito":9924,"erial":9925,"Maamoy":9926,"ĠGaling":9927,"anaginip":9928,"Ġbayang":9929,"Ġmakakita":9930,"Ġberdeng":9931,"unsod":9932,"ĠKasaysayan":9933,"Ġiiwan":9934,"ĠUniverse":9935,"lawan":9936,"Ġtsupa":9937,"66":9938,"Ġdance":9939,"Ġthree":9940,"illian":9941,"Ġmatibay":9942,"cover":9943,"Ġflat":9944,"indot":9945,"Ġpangh":9946,"Ġnakunan":9947,"subscribe":9948,"action":9949,"ulag":9950,"Ġyes":9951,"ĠMir":9952,"ĠStat":9953,"Ġmatuwid":9954,"year":9955,"Ġdisip":9956,"Ġprojects":9957,"rotektahan":9958,"Ġsport":9959,"asm":9960,"Ġipasok":9961,"Ġipinap":9962,"Anumang":9963,"Pigsa":9964,"PAP":9965,"Ġtol":9966,"Ġkapal":9967,"Ġpamahalaang":9968,"lalakbay":9969,"Ġtitik":9970,"Ġdumuk":9971,"Ġoutput":9972,"ĠBerna":9973,"usisa":9974,"INA":9975,"ĠPoe":9976,"Ġload":9977,"Ġ34":9978,"Ġmalul":9979,"Ġtirahan":9980,"ĠBonifacio":9981,"Ba":9982,"Ġhit":9983,"akatuwa":9984,"anoon":9985,"ĠINC":9986,"Ġtutu":9987,"Ġkampo":9988,"Ġperpektong":9989,"uation":9990,"ĠDec":9991,"Ġmalupit":9992,"Ġpeace":9993,"Ġnaunang":9994,"ĠBautista":9995,"ĠVladi":9996,"Ġblue":9997,"ĠNovgorod":9998,"yunan":9999,"ĠWhite":10000,"Ġnanggaling":10001,"Ġanalysis":10002,"Kaakit":10003,"DS":10004,"Ġpantay":10005,"Ġhous":10006,"kul":10007,"ĠSimbahan":10008,"Ġcontra":10009,"Ġkomposisyon":10010,"Ġresort":10011,"ĠProf":10012,"Ġabogado":10013,"Diyeta":10014,"ĠKAH":10015,"Ġweeks":10016,"Ġacting":10017,"ĠLin":10018,"ĠCommon":10019,"ĠSyempre":10020,"good":10021,"nodar":10022,"Ġmaligo":10023,"Ġaksyon":10024,"Ġkatumbas":10025,"ĠDaan":10026,"ĠâĨĴ":10027,"ĠAlmoranas":10028,"Sintomas":10029,"ĠOrgan":10030,"Ġdemok":10031,"Ġpinup":10032,"Mags":10033,"Ġweekend":10034,"ĠGR":10035,"APOS":10036,"Ġmaalis":10037,"justporno":10038,"ĠPare":10039,"Ġnagsus":10040,"Ġpanay":10041,"Ġimpluw":10042,"Ġpermit":10043,"ĠGrace":10044,"yum":10045,"alagi":10046,"live":10047,"uho":10048,"Ġnapunta":10049,"inggan":10050,"Itim":10051,"Ġpagpapatupad":10052,"undation":10053,"icycle":10054,"Ġmayor":10055,"aria":10056,"Ġpores":10057,"ĠMedia":10058,"ĠInn":10059,"icken":10060,"July":10061,"Ġsecret":10062,"?âĢĻ":10063,"ĠNoynoy":10064,"Ġgot":10065,"Ġgayong":10066,"Sagot":10067,"gency":10068,"ĠNga":10069,"ĠTime":10070,"sak":10071,"Ġuso":10072,"USO":10073,"cual":10074,"........":10075,"Kili":10076,"Ġunibersidad":10077,"onald":10078,"Ġahensya":10079,"rio":10080,"NAK":10081,"ersa":10082,"Ġmakakasama":10083,"ĠSong":10084,"irahan":10085,"ĠBrit":10086,"asaya":10087,"ĠMich":10088,"Ġmaabot":10089,"alamin":10090,"ibigang":10091,"Ġairport":10092,"ters":10093,"Maging":10094,"Ġmax":10095,"ĠHari":10096,"ĠLee":10097,"Ġebid":10098,"colate":10099,"ĠAleman":10100,"Ġrason":10101,"Ġillegal":10102,"oconut":10103,"Ġreason":10104,"abangon":10105,"ahalagahan":10106,"zol":10107,"ĠBuong":10108,"ĠSpe":10109,"Ġsariwang":10110,"NT":10111,"Ġbakal":10112,"Ġmahuli":10113,"Busty":10114,"Ġnakatulog":10115,"ANT":10116,"baka":10117,"iang":10118,"diwang":10119,"Ġsentro":10120,"Ġpaglilibot":10121,"tulungan":10122,"ĠPaggamit":10123,"Ġniyong":10124,"ĠLive":10125,"mentation":10126,"Previous":10127,"Ġpinakamaliit":10128,"libong":10129,"ĠPasay":10130,"Ġpagbubukas":10131,"Ġsty":10132,"***":10133,"oryasis":10134,"Ġfar":10135,"ĠNGA":10136,"Ġvis":10137,"Ġdead":10138,"ĠTele":10139,"ukl":10140,"ĠSamara":10141,"Kay":10142,"hello":10143,"Ġlathala":10144,"La":10145,"Ġkapalaran":10146,"cast":10147,"Ġpakikibaka":10148,"Ġavailable":10149,"agayan":10150,"Ġposts":10151,"adyo":10152,"ĠBahagi":10153,"Ġnice":10154,"ĠMake":10155,"ĠKrasnodar":10156,"eho":10157,"ĠAtt":10158,"Ġgirls":10159,"Ġnagpat":10160,"Ġkomunikasyon":10161,"ryn":10162,"Ġaabot":10163,"Ġradio":10164,"Ġswerte":10165,"Ġwords":10166,"Ġsakanya":10167,"Ġproblemang":10168,"ists":10169,"Ġmammoplasty":10170,"Baguhin":10171,"ĠWorms":10172,"Ġmakinis":10173,"umpirma":10174,"Ġiligal":10175,"Ġmapanatili":10176,"ĠRon":10177,"ĠBawal":10178,"ample":10179,"Ġnagpapasuso":10180,"IE":10181,"rantel":10182,"Ġnaib":10183,"adalaw":10184,"ĠTinat":10185,"HOW":10186,"Pumili":10187,"Ġkantang":10188,"Ġkili":10189,"Ġmapansin":10190,"utuwa":10191,"ensive":10192,"ĠTuntunin":10193,"ĠDAHIL":10194,"ocan":10195,"Ġshot":10196,"Ġnatuwa":10197,"ention":10198,"iingat":10199,"ĠRepublic":10200,"voy":10201,"ĠMasarap":10202,"ilak":10203,"cut":10204,"Ġblock":10205,"Ġhawakan":10206,"robers":10207,"ĠGovernment":10208,"'ll":10209,"ĠHIV":10210,"Ġitanong":10211,"Ġbalakubak":10212,"fia":10213,"lima":10214,"Ġpagpapala":10215,"ĠEcija":10216,"illo":10217,"Ġclub":10218,"Anti":10219,"ĠBryan":10220,"Ġmangarap":10221,"Ġatensyon":10222,"Ġpakinabang":10223,"atuloy":10224,"Gumawa":10225,"Ġtutuusin":10226,"Ġnabigyan":10227,"ĠSil":10228,"ĠKabataan":10229,"Ġpaghihirap":10230,"Ġmaglakad":10231,"Ġpush":10232,"ories":10233,"ĠDat":10234,"Ġgumaganap":10235,"resent":10236,"men":10237,"ĠBac":10238,"Ġboto":10239,"alasan":10240,"Ġsize":10241,"Ġidin":10242,"Ġpagpapap":10243,"Ġmanagement":10244,"ĠVor":10245,"Ġpagbagsak":10246,"Ġengine":10247,"Ġfact":10248,"ecutive":10249,"ization":10250,"ĠMagic":10251,"ĠGaano":10252,"Ġpartido":10253,"icol":10254,"ilar":10255,"cre":10256,"alist":10257,"orb":10258,"ĠBaking":10259,"ete":10260,"Ġpunt":10261,"Aniya":10262,"Ġsanggunian":10263,"ikas":10264,"imbak":10265,"udo":10266,"ublika":10267,"hibo":10268,"ĠMoovit":10269,"tiling":10270,"akad":10271,"angkilik":10272,"fied":10273,"Kunin":10274,"untok":10275,"ĠAre":10276,"Ġpanganay":10277,"Pundamental":10278,"enical":10279,"kie":10280,"ĠPlease":10281,"inancial":10282,"Ġstars":10283,"+)":10284,"ildo":10285,"ĠSho":10286,"Ġiisipin":10287,"ahiwalay":10288,"lection":10289,"alkula":10290,"ĠAlas":10291,"Ġproyektong":10292,"bata":10293,"ansangan":10294,"enefits":10295,"Ġpinworms":10296,"Breast":10297,"Gawin":10298,"halamang":10299,"cited":10300,"Ġtold":10301,"ĠEast":10302,"Nagulat":10303,"Ġcoach":10304,"iwanan":10305,"icture":10306,"Kris":10307,"ĠSimula":10308,"WARNING":10309,"arn":10310,"Ġiyak":10311,"Ġcock":10312,"PNP":10313,"Ġmagdala":10314,"Asyano":10315,"ored":10316,"AST":10317,"araang":10318,"Ġnabuo":10319,"NO":10320,"pok":10321,"cing":10322,"ĠChapter":10323,"rime":10324,"ĠRelasyon":10325,"ungong":10326,"Ġnagpakita":10327,"Ġhumihingi":10328,"Ġilegal":10329,"ĠCle":10330,"abutan":10331,"Ġlesbi":10332,"ahalaan":10333,"Ġmembers":10334,"Ġast":10335,"Ġwhitening":10336,"Ġpinakah":10337,"ustry":10338,"Ġpow":10339,"angguni":10340,"Ġmand":10341,"Ġgold":10342,"kaloob":10343,"uration":10344,"ĠBagay":10345,"ĠJane":10346,"atar":10347,"din":10348,"ikulo":10349,"Ġpako":10350,"ĠNTV":10351,"Kom":10352,"vi":10353,"ongrats":10354,"hinang":10355,"Best":10356,"impek":10357,"Ġgreat":10358,"ugustuhan":10359,"igation":10360,"ATION":10361,"ilag":10362,"Ġalterna":10363,"Ing":10364,"Ġdesk":10365,"akailang":10366,"oh":10367,"Ġistra":10368,"86":10369,"kzoderil":10370,"Ġviews":10371,"ahing":10372,"cept":10373,"erve":10374,"Ġfee":10375,"ĠCong":10376,"AMANG":10377,"Ġdoes":10378,"ĠPampanga":10379,"Ġkasunduan":10380,"UD":10381,"Ġmagdagdag":10382,"Ġkumanta":10383,"tes":10384,"ĠGay":10385,"worming":10386,"ĠRosa":10387,"ĠEat":10388,"ĠFore":10389,"lump":10390,"ipto":10391,"Ġletter":10392,"Ġnegatibong":10393,"Ġhumarap":10394,"Ġistrakt":10395,"âĢĭ":10396,"ISANG":10397,"Thank":10398,"Nawala":10399,"teo":10400,"LA":10401,"Ġmamahalin":10402,"ĠNIYA":10403,"iego":10404,"ĠNora":10405,"Slimming":10406,"Ġyaong":10407,"umpleto":10408,"ĠDZ":10409,"Ġkambing":10410,"Matat":10411,"Ġsinal":10412,"Ġipinat":10413,"Ġwall":10414,"ĠPalawan":10415,"Ġnagw":10416,"gabi":10417,"ugalian":10418,"Ġmaghintay":10419,"Ġprice":10420,"Ġnyong":10421,"itahan":10422,"working":10423,"igas":10424,"Ġdadalhin":10425,"ĠPok":10426,"ĠInf":10427,"Ġcash":10428,"Ġtalata":10429,"Ġsinehan":10430,"Ġbelt":10431,"Ġtuntunin":10432,"ĠBumili":10433,"Ġmagbago":10434,"Ġhold":10435,"Ġsinubukan":10436,"âĸ":10437,"Ul":10438,"ungga":10439,"ineb":10440,"Ġcover":10441,"Ġkit":10442,"tend":10443,"ALAGA":10444,"Ġwastong":10445,"aloocan":10446,"himik":10447,"Ġnman":10448,"aayos":10449,"ĠPhoto":10450,"bubuntis":10451,"Ġkahanga":10452,"ĠItalya":10453,"Ġmerkado":10454,"Ġlinseed":10455,"Ġingat":10456,"eni":10457,"ĠBoard":10458,"Ġmabawi":10459,"Phone":10460,"ĠCho":10461,"ĠSantiago":10462,"Ġpersona":10463,"Ġemosyon":10464,"Ġprivate":10465,"Ġposs":10466,"Tanong":10467,"taon":10468,"ĠCC":10469,"Ġguw":10470,"iew":10471,"ĠPagd":10472,"Op":10473,"tso":10474,"Ġiskedyul":10475,"Ġpupuntahan":10476,"Ġpamantayan":10477,"Ġhuminto":10478,"Ġtumutukoy":10479,"odka":10480,"ABS":10481,"ĠPublic":10482,"ĠTimog":10483,"ĠNizhn":10484,"uum":10485,"rive":10486,"Ġsos":10487,"Ġnagkamali":10488,"iring":10489,"Ġrequire":10490,"maraming":10491,"ĠDim":10492,"ĠSeason":10493,"Ġending":10494,"Ġpaanong":10495,"Ġmakagawa":10496,"Ġpagbuo":10497,"Ġseksyon":10498,"ensiyon":10499,"ĠNagp":10500,"Ġtinatanong":10501,"akuna":10502,"asahe":10503,"Ġolive":10504,"tabloid":10505,"Ġ~":10506,"Ag":10507,"Don":10508,"Ġnapakaraming":10509,"Ġprin":10510,"Ġbisa":10511,"ĠJim":10512,"Ġpuna":10513,"Ġstatus":10514,"!âĢĻ":10515,"ĠDel":10516,"INAS":10517,"arat":10518,"Ġpagkakaisa":10519,"Ġbung":10520,"ĠNO":10521,"Ġratings":10522,"Ġmoment":10523,"loy":10524,"Ġkabuhayan":10525,"Ġsabihing":10526,"Ġnababasa":10527,"Ġkast":10528,"AKO":10529,"ĠAFP":10530,"ĠActually":10531,"ĠIndones":10532,"taga":10533,"Ġtawagan":10534,"alaglag":10535,"ions":10536,"tira":10537,"ĠAklat":10538,"ĠKast":10539,"Ġchange":10540,"Ġire":10541,"ergic":10542,"Ġpagkilala":10543,"Recipe":10544,"adaling":10545,"ound":10546,"pana":10547,"Ġnalalapit":10548,"udine":10549,"Ġpampaputi":10550,"Ġsea":10551,"ĠBL":10552,"ungkutan":10553,"ĠKAMI":10554,"ally":10555,"ĠKarap":10556,"ĠMrs":10557,"October":10558,"Ġbestfriend":10559,"Ġkilig":10560,"Ġkonyak":10561,"ĠGil":10562,"ĠNGAYON":10563,"Ġnanin":10564,"Ġistraktura":10565,"Ġkalokohan":10566,"tap":10567,"agamit":10568,"ayanang":10569,"Ġturo":10570,"ĠON":10571,"Ġcool":10572,"ĠMong":10573,"Ġnagre":10574,"Ġkadala":10575,"Ġsuportahan":10576,"indig":10577,"Ġcry":10578,"Ġmedyas":10579,"Ġmaipag":10580,"ondon":10581,"ĠMRT":10582,"November":10583,"Ġpinagp":10584,"erob":10585,"oken":10586,"Ġpaminsan":10587,"ĠUl":10588,"rant":10589,"eklara":10590,"anumbalik":10591,"Ġhall":10592,"iyam":10593,"agpo":10594,"ugong":10595,"Ġanibersaryo":10596,"umango":10597,"abili":10598,"Ġhangganan":10599,"oble":10600,"Ġdumarating":10601,"mn":10602,"ymp":10603,"ĠDela":10604,"Ġpagm":10605,"ahilanan":10606,"hern":10607,"ĠEbanghelyo":10608,"ĠLos":10609,"Ġnakakatawa":10610,"Ġnakakatakot":10611,"Problema":10612,"Ġfall":10613,"umanhin":10614,"Ġsoryasis":10615,"Ġchief":10616,"Ġkalahating":10617,"kaibigan":10618,"erry":10619,"Ġsoap":10620,"ĠMuling":10621,"Ġbaguhan":10622,"Ġgumuhit":10623,"rug":10624,"rel":10625,"ĠNPA":10626,"Ġpink":10627,"ikipedia":10628,"Ġnakakah":10629,"ĠKorte":10630,"Ġmakeup":10631,"Ġkatulong":10632,"lene":10633,"Ġadik":10634,"Mahirap":10635,"timate":10636,"Ġtricycle":10637,"Ġulam":10638,"ractice":10639,"nast":10640,"Ġfore":10641,"ĠNai":10642,"Ġdrive":10643,"Ġtakipmata":10644,"umbaga":10645,"Ġtakong":10646,"Ġinte":10647,"Ġhataw":10648,"ĠSIYA":10649,"sorry":10650,"Ġthird":10651,"Ġkarangalan":10652,"uluy":10653,"Ġpusong":10654,"ilbi":10655,"Ġrom":10656,"Ġmedical":10657,"Ġituloy":10658,"Ġpepper":10659,"ĠATING":10660,"Ġturista":10661,"Kuya":10662,"lav":10663,"ĠHal":10664,"Ġunivers":10665,"ĠMiyerkules":10666,"Ġsakop":10667,"Ġnaisipan":10668,"Ġpagbabayad":10669,"UC":10670,"ĠPatay":10671,"ĠPasig":10672,"Ġpagsisikap":10673,"Ġvs":10674,"Ġsakali":10675,"Ġpangyayaring":10676,"Ġbalikan":10677,"Palitan":10678,"Ġeksaktong":10679,"Ġmaluwag":10680,"apangiti":10681,"agas":10682,"ĠWow":10683,"Mo":10684,"Ġfather":10685,"ffective":10686,"Ġwedding":10687,"hot":10688,"Ġbac":10689,"ĠNico":10690,"ribusyon":10691,"ged":10692,"ĠProdukto":10693,"wiran":10694,"Ġrad":10695,"Ġprize":10696,"Ġkalahok":10697,"asinan":10698,"agusto":10699,"ĠKaren":10700,"ĠPascual":10701,"ĠFB":10702,"handa":10703,"mir":10704,"Ġmanila":10705,"Ġkamukha":10706,"umbong":10707,"Ġbf":10708,"________":10709,"Pin":10710,"ĠCouncil":10711,"urin":10712,"Ġkursong":10713,"Ġalok":10714,"Ġonce":10715,"mamalaki":10716,"But":10717,"uwiran":10718,"preciate":10719,"Ġlift":10720,"Buti":10721,"ĠPagdating":10722,"ĠPuwit":10723,"aligtas":10724,"Ġmotorsiklo":10725,"ĠHayop":10726,"September":10727,"maan":10728,"rami":10729,"Ġmapabilis":10730,"Ġtulang":10731,"ĠDirector":10732,"Ġteka":10733,"col":10734,"Ġperformance":10735,"Ġmagkaga":10736,"inungalingan":10737,"Ġnasis":10738,"Ġpine":10739,"errez":10740,"with":10741,"Ġboobs":10742,",,,":10743,"Ġordinaryong":10744,"though":10745,"ĠAttribution":10746,"ucky":10747,"Pagsasanay":10748,"ahimikan":10749,"atlo":10750,"ĠPatuloy":10751,"agos":10752,"ĠPanana":10753,"xy":10754,"anggihan":10755,"ibilang":10756,"house":10757,"butan":10758,"Ġarmas":10759,"Ġteen":10760,"bango":10761,"Alike":10762,"ulutan":10763,"ĠManalo":10764,"ĠAlj":10765,"ĠASEAN":10766,"Ġmagkapatid":10767,"Ġanal":10768,"Ġmade":10769,"ĠFolk":10770,"aksyon":10771,"Ġpaglilihim":10772,"unidad":10773,"Ġlay":10774,"aming":10775,"iod":10776,"Ġnagtagal":10777,"inister":10778,"ussy":10779,"Ġtutorial":10780,"ambo":10781,"utierrez":10782,"entine":10783,"ustisya":10784,"Ġmagazine":10785,"Ġtot":10786,"Ik":10787,"Ġpaggagatas":10788,"Ġinamin":10789,"ature":10790,"ĠTatlong":10791,"...âĢĿ":10792,"ibit":10793,"Ġson":10794,"ital":10795,"Ġpindutin":10796,"Ġpumap":10797,"Ġsafe":10798,"ĠNANG":10799,"ĠMilf":10800,"olution":10801,"lame":10802,"yahan":10803,"rak":10804,"ĠDina":10805,"Ġgf":10806,"EE":10807,"August":10808,"Ġweight":10809,"Ġkontrobers":10810,"ĠMUN":10811,"ĠBayani":10812,"hroom":10813,"Ai":10814,"ĠBill":10815,"Ġtaglamig":10816,"Ġnaaalala":10817,"ĠNar":10818,"ĠFOR":10819,"Ġmasira":10820,"Ġspray":10821,"Dep":10822,"oriano":10823,"Ġproduksyon":10824,"Masakit":10825,"Ġhat":10826,"Official":10827,"Ġ300":10828,"ĠLikod":10829,"abutin":10830,"Ġsense":10831,"Ġsabik":10832,"lessing":10833,"promote":10834,"het":10835,"Ġinilunsad":10836,"Ġmatapang":10837,"ungkulan":10838,"Ġsites":10839,"umbayan":10840,"Ġkadalasan":10841,"Ġbait":10842,"umal":10843,"Ġworming":10844,"kukunan":10845,"ĠAvon":10846,"ĠSang":10847,"ĠPaolo":10848,"Ġsuccess":10849,"Ġkeso":10850,"ĠAdminist":10851,"Ġbeing":10852,"ï¿½ï¿½ï¿½":10853,"Bab":10854,"ĠClinic":10855,"ĠUri":10856,"Ġtumawa":10857,"ĠMary":10858,"Ġoffic":10859,"igital":10860,"Ġhalikan":10861,"Ġantibiot":10862,"SAN":10863,"pansin":10864,"ĠME":10865,"tataka":10866,"ĠRobredo":10867,"ridge":10868,"Ġpapayag":10869,"Ġova":10870,"ipigil":10871,"ĠAirport":10872,"Lupon":10873,"ĠNizhny":10874,"inue":10875,"Ġayan":10876,"Ġkinan":10877,"lagen":10878,"atis":10879,"Ġcos":10880,"ĠKumuha":10881,"ĠGerman":10882,"ĠAff":10883,"Bil":10884,"Ġsalapi":10885,"andaang":10886,"????":10887,"ĠAlf":10888,"Ġstories":10889,"unyag":10890,"ĠSign":10891,"ĠJennylyn":10892,"Be":10893,"BAB":10894,"ĠDen":10895,"Unguento":10896,"his":10897,"ĠSerbisyo":10898,"ĠRamon":10899,"Ġequ":10900,"Ġbinibigyan":10901,"Ġpinagdaanan":10902,"Ġpagmum":10903,",.":10904,"WD":10905,"terol":10906,"eri":10907,"Ġikot":10908,"Ġblogger":10909,"undi":10910,"amad":10911,"igang":10912,"Ġthese":10913,"lalaban":10914,"ĠJason":10915,"Ġnurse":10916,"Ġmakah":10917,"lieve":10918,"Ġhalagang":10919,"lut":10920,"asawang":10921,"Ġpali":10922,"Ġbinhi":10923,"Kab":10924,"Ġgetting":10925,"Tinat":10926,"Ġnagkuk":10927,"ĠNgayong":10928,"ahanga":10929,"Ġhumantong":10930,"Ġkadahilanan":10931,"ĠTour":10932,"Ġsqu":10933,"ĠAwards":10934,"agis":10935,"ĠAD":10936,"ĠLumang":10937,"Ġpyrantel":10938,"lowjob":10939,"ĠSalv":10940,"ĠHA":10941,"Mainit":10942,"rain":10943,"Ġgumaan":10944,"utiful":10945,"Ġkarunungan":10946,"asahin":10947,"Ġpanlipunan":10948,"opecia":10949,"ĠAbra":10950,"Ġinir":10951,"Ġpinakamataas":10952,"Ġmineral":10953,"Ġumasa":10954,"Ġmari":10955,"esisyon":10956,"yaluron":10957,"index":10958,"Ġkalakalan":10959,"diang":10960,"Ġalopecia":10961,"airs":10962,"ubaybay":10963,"ekta":10964,"ulyap":10965,"Tina":10966,"untento":10967,"ĠNormal":10968,"ĠLac":10969,"Ġnapakas":10970,"UNGKOL":10971,"Ġayokong":10972,"ipa":10973,"Ġsipon":10974,"Ġquestion":10975,"inigas":10976,"oice":10977,"ĠLand":10978,"Ġngaun":10979,"ĠSay":10980,"Ġnagtataka":10981,"Ġkinatawan":10982,"Ġtw":10983,"Ġcommercial":10984,"Ġlis":10985,"ription":10986,"Ġmagkakapatid":10987,"LY":10988,"ayahan":10989,"aresto":10990,"CR":10991,"igyang":10992,"Ġpositibong":10993,"Ġaktibong":10994,"ĠToni":10995,"ocha":10996,"meto":10997,"ALI":10998,"pol":10999,"ĠHon":11000,"Ġsenyales":11001,"yad":11002,"Ġgalaw":11003,"Ġkumbinasyon":11004,"Ewan":11005,"Tips":11006,"ĠBAN":11007,"ĠOri":11008,"Ġnakikitang":11009,"ĠGagawin":11010,"ĠCali":11011,"akong":11012,"Ġbumabagsak":11013,"Ġpahinang":11014,"Ġsiga":11015,"Ġmakapunta":11016,"ĠMedical":11017,"ayaang":11018,"Ġperfect":11019,"HA":11020,"Higit":11021,"Ġiwanan":11022,"Ġmoney":11023,"ĠLuna":11024,"After":11025,"Tunay":11026,"Ġmangyaring":11027,"bies":11028,"erator":11029,"ĠPumunta":11030,"imas":11031,"ĠMakikita":11032,"Ġkalungkutan":11033,"verseas":11034,"Ġnakaturo":11035,"ield":11036,"Nagpap":11037,"ulture":11038,"Ġnagtatapos":11039,"Ġidinagdag":11040,"Ġkiss":11041,"Ġoper":11042,"Ġpamumuno":11043,"Ġmum":11044,"Ġwhile":11045,"Herb":11046,"issue":11047,"Ġpangunguna":11048,"Chapter":11049,"Ġalamat":11050,"Ġpinalaki":11051,"ows":11052,"Ġmagising":11053,"ĠOgie":11054,"Ġver":11055,"alakal":11056,"ĠMaric":11057,"Ġlaway":11058,"Ġmagdadala":11059,"Ġauthor":11060,"Ġspecies":11061,"laan":11062,"unication":11063,"Tatlong":11064,"ĠKamara":11065,"Ġnakal":11066,"Ġpagtitipon":11067,"Ġnuong":11068,"ĠMother":11069,"Bawal":11070,"TM":11071,"Ġkalamidad":11072,"ĠHall":11073,"abagay":11074,"bugan":11075,"Ġsangkot":11076,"Ġpagtatae":11077,"Ġlansangan":11078,"Ġmasak":11079,"Ġsinaunang":11080,"Ġpulitiko":11081,"Ġnobela":11082,"Wrinkles":11083,"Naniniwala":11084,"ĠTaiwan":11085,"ĠDAPAT":11086,"ĠYes":11087,"bar":11088,"ilio":11089,"Ġ38":11090,"ATAN":11091,"Ġmagpadala":11092,"Ġnadarama":11093,"ĠPagsusuri":11094,"Ġï¿½":11095,"dote":11096,"ĠLibreng":11097,"tayo":11098,"elt":11099,"Ġpapalapit":11100,"ĠState":11101,"Ġpaghuh":11102,"ential":11103,"ĠWor":11104,"ĠGutierrez":11105,"ĠMarahil":11106,"Ġlikido":11107,"Ġworking":11108,"Ġhatawtabloid":11109,"UE":11110,"ekn":11111,"Ġpinakas":11112,"ĠSP":11113,"ĠClub":11114,"Ġliham":11115,"Da":11116,"Ġpagbalik":11117,"Go":11118,"mali":11119,"rr":11120,"tar":11121,"Ġpassport":11122,"ĠJudy":11123,"Ġnagbub":11124,"ĠAns":11125,"ĠStor":11126,"Ġmarks":11127,"riage":11128,"Ġtulay":11129,"ĠPia":11130,"ĠIyo":11131,"Ġnanood":11132,"fungal":11133,"Ġpanukalang":11134,"Libreng":11135,"Sila":11136,"ĠMc":11137,"Ġpanganak":11138,"Ġhinde":11139,"Ġmatiyak":11140,"umba":11141,"HATAW":11142,"rix":11143,"Ġdayuhang":11144,"impla":11145,"Ġakalain":11146,"Ġlubhang":11147,"ĠTIN":11148,"Ġlabor":11149,"ĠFriend":11150,"ĠTiti":11151,"Ġharina":11152,"Ġnakakuha":11153,"Ab":11154,"dali":11155,"lief":11156,"halian":11157,"ĠiPhone":11158,"Ġworks":11159,"ilosop":11160,"Magagamit":11161,"enang":11162,"Ġmood":11163,"Ġnaglakad":11164,"angal":11165,"hangang":11166,"ampaign":11167,"chat":11168,"ASYON":11169,"Ġisulat":11170,"istry":11171,"Tao":11172,"Ġnagpaalam":11173,"yaluronic":11174,"ĠCaloocan":11175,"Ġprinsipyo":11176,"aloy":11177,"Ġec":11178,"arapan":11179,"dukasyon":11180,"ĠSpecial":11181,"Ġrebel":11182,"Ġbyahe":11183,"Ġmatakot":11184,"Ġreaksiyon":11185,"Girl":11186,"ĠTerm":11187,"Ġpagkam":11188,"Ġtono":11189,"ĠDAY":11190,"Ġpagpapahalaga":11191,"Ġnakakatuwa":11192,"hap":11193,"Ġpalda":11194,"Ġwormwood":11195,"ĠFa":11196,"Ġkatahimikan":11197,"ĠWikipe":11198,"ĠGumawa":11199,"angkad":11200,"angad":11201,"Ġyuma":11202,"Ġwere":11203,"Ġmapat":11204,"bahayan":11205,"ehersisyo":11206,"ĠÂ©":11207,"cio":11208,"imiss":11209,"ĠKAB":11210,"ĠBabaeng":11211,"Ġlady":11212,"RA":11213,"Ġbunso":11214,"Ġpagpapas":11215,"liver":11216,"ences":11217,"ĠNail":11218,"Ġihah":11219,"Ġbumangon":11220,"langoy":11221,"roseso":11222,"ĠGames":11223,"ĠBinay":11224,"Ġfigure":11225,"Ġbasang":11226,"ĠBi":11227,"Ġpatungong":11228,"OST":11229,"ĠTakdang":11230,"Ġdilim":11231,"ĠCare":11232,"Ġdaga":11233,"Ġipagpatuloy":11234,"ĠPuwetan":11235,"Ġpresyon":11236,"ĠRamos":11237,"Anonymous":11238,"Ġpinagt":11239,"2018":11240,"Ġkamang":11241,"ĠKastila":11242,"Bina":11243,"nation":11244,"Ġsample":11245,"Ġpil":11246,"ĠNaalala":11247,"Ġbaliw":11248,"pagpap":11249,"ĠTalsikan":11250,"Ġwelcome":11251,"odo":11252,"angkop":11253,"ĠBAYAN":11254,"Ġlumaban":11255,"Ġmailapat":11256,"Ġstock":11257,"ĠHoney":11258,"heads":11259,"feed":11260,"Ġhormonal":11261,"pare":11262,"Ġfavorite":11263,"Ġplastik":11264,"Ġdrugs":11265,"onia":11266,"ayin":11267,"Ġkopy":11268,"Nabawasan":11269,"ĠKapatid":11270,"Ġbuwanang":11271,"free":11272,"Ġkanto":11273,"Ġinisip":11274,"Mukha":11275,"ĠBoys":11276,"ĠKad":11277,"90":11278,"ĠAssoci":11279,"Ġdatos":11280,"Ġball":11281,"Ġkomiks":11282,"XX":11283,"espasyo":11284,"ĠEducation":11285,"Ġdumukwang":11286,"Ġipin":11287,"par":11288,"Ġshooting":11289,"Sabihin":11290,"Ġpagkasira":11291,"Ġmins":11292,"esar":11293,"Car":11294,"UAN":11295,"Ġconn":11296,"eras":11297,"ĠTAYO":11298,"Ġdiin":11299,"Ġtoday":11300,"Ġpuntos":11301,"omend":11302,"ORD":11303,"Ġpuntong":11304,"ĠAmerica":11305,"Ġkumalat":11306,"ingo":11307,"Ġpowder":11308,"Ġconference":11309,"ambag":11310,"Ġtherapy":11311,"Ġhalatang":11312,"ĠRadyo":11313,"break":11314,"AHA":11315,"76":11316,"Ġciti":11317,"Ġkukunin":11318,"ĠDITO":11319,"ĠId":11320,"Ġmakikipag":11321,"ibahagi":11322,"Ġadvice":11323,"MO":11324,"ectrum":11325,"Ġdresses":11326,"upuksa":11327,"iyal":11328,"likadong":11329,"Ġhanggat":11330,"Ġuse":11331,"irot":11332,"ĠBasahin":11333,"ching":11334,"Ġkadalasang":11335,"Ġband":11336,"ĠGel":11337,"ipot":11338,"Ġpananal":11339,"ĠBelt":11340,"alalay":11341,"CO":11342,"Ġbotika":11343,"ĠWatch":11344,"ĠWikipediang":11345,"ahamak":11346,"ĠBet":11347,"ĠFrancisco":11348,"Ġkumpleto":11349,"Ġgaganapin":11350,"Ġidagdag":11351,"ĠAli":11352,"Ġmarka":11353,"dada":11354,"Ġnakahiga":11355,"Ġwhe":11356,"osmetics":11357,"Ġbank":11358,"Ġpinakamalapit":11359,"ĠMalapit":11360,"Ġwriting":11361,"Ġaplikasyon":11362,"Ġkumukuha":11363,"Ġkuts":11364,"ĠCOM":11365,"Ġkasanayan":11366,"ĠCompany":11367,"duhin":11368,"Ġtell":11369,"Ġground":11370,"Ġandito":11371,"Ġpangalawa":11372,"raft":11373,"Ġrum":11374,"lifting":11375,"mates":11376,"Ġpagsunod":11377,"Ġpinansin":11378,"ĠBulate":11379,"Ġjud":11380,"Ġmisyon":11381,"anang":11382,"ĠMobile":11383,"orrent":11384,"Ġkopyahin":11385,"sal":11386,"isayas":11387,"Ġnapatunayan":11388,"Ġq":11389,"Ġpangmukha":11390,"lena":11391,"orny":11392,"zation":11393,"Ġmahinang":11394,"Ġespirituwal":11395,"Ġnagbabago":11396,"ĠPNoy":11397,"iretso":11398,"jakol":11399,"Ġmult":11400,"ĠEhersisyo":11401,"Kah":11402,"Ayoko":11403,"Ġserbisyong":11404,"ibilangan":11405,"Ġjour":11406,"ĠSenate":11407,"okolate":11408,"ĠFed":11409,"Ġjackpot":11410,"ĠSali":11411,"Ġkaib":11412,"fy":11413,"Ġmagre":11414,"ĠPilipinong":11415,"Ġmababasa":11416,"ĠCamp":11417,"Ġsmart":11418,"ipal":11419,"Ġreaction":11420,"elly":11421,"Mabisang":11422,"kah":11423,"Ġbibili":11424,"Ġpagpapak":11425,"ĠVietnam":11426,"ĠCyp":11427,"Ġnapakalaking":11428,"ĠLotto":11429,"ĠKanser":11430,"weh":11431,"ĠRose":11432,"Ġtigil":11433,"nut":11434,"lect":11435,"tiya":11436,"ĠLIBRE":11437,"tuwa":11438,"Ġamp":11439,"Ġnatatawa":11440,"One":11441,"Ġmagkabilang":11442,"Simula":11443,"ĠKur":11444,"mox":11445,"Ġadvanced":11446,"Ġrelease":11447,"Ġmagkantot":11448,"var":11449,"gam":11450,"ilipat":11451,"98":11452,"alar":11453,"Ġmaituturing":11454,"Hapon":11455,"Ġpino":11456,"Ġmatindi":11457,"kamay":11458,"Ġcondition":11459,"Malaki":11460,"Ġmadaming":11461,"Ġsunud":11462,"Ġnagli":11463,"alakayin":11464,"LESIA":11465,"Ġkahilingan":11466,"MIN":11467,"east":11468,"ĠCagayan":11469,"mond":11470,"Ġipinagbabawal":11471,"eryosong":11472,"ĠPu":11473,"Ġtatawag":11474,"alaala":11475,"ubusan":11476,"ĠPlan":11477,"ĠDar":11478,"ĠDem":11479,"ĠCITY":11480,"Ġmagbabago":11481,"ardo":11482,"arez":11483,"Ġpasilidad":11484,"Ġmatalik":11485,"Ġpuson":11486,"Ġgoji":11487,"orrup":11488,"ĠHirap":11489,"Ġmalutong":11490,"Ġblo":11491,"ANAN":11492,"Ġpagbabalat":11493,"orter":11494,"rove":11495,"wad":11496,"ĠDiabetes":11497,"ĠLocsin":11498,"ĠSaint":11499,"ĠPL":11500,"mergency":11501,"Ġbonus":11502,"apagod":11503,"aysayang":11504,"Ġmushroom":11505,"Ġtuktok":11506,"vator":11507,"ĠALAM":11508,"atawa":11509,"Ġmatatapos":11510,"ĠArmy":11511,"ĠSkin":11512,"Ġmaingat":11513,"Ġpatch":11514,"arelasyon":11515,"ĠNagk":11516,"urance":11517,"Ġstool":11518,"ipes":11519,"Ġpinah":11520,"Ġloc":11521,"ĠVir":11522,"ISO":11523,"ĠDerek":11524,"Nah":11525,"Ġcondo":11526,"Ġhalata":11527,"ĠAnime":11528,"Ġkos":11529,"Ġporsy":11530,"ĠPagp":11531,"Ġelemento":11532,"riday":11533,"Nas":11534,"Ġpapers":11535,"sahan":11536,"binsiya":11537,"Ġfb":11538,"Ġbumisita":11539,"eklamo":11540,"ĠMariel":11541,"Ġbinasa":11542,"expect":11543,"Ġ2019":11544,"Ġmetabo":11545,"Ġblessing":11546,"oridad":11547,"Ġradyo":11548,"Ġmapakali":11549,"Ġampo":11550,"Ġipinapakita":11551,"ĠAmerican":11552,"ĠSAL":11553,"ĠMateo":11554,"alain":11555,"ĠBAT":11556,"Ġrebolus":11557,"News":11558,"lio":11559,"âĢĻ.":11560,"metology":11561,"Ġmapan":11562,"DIRI":11563,"Do":11564,"ĠTit":11565,"VA":11566,"rdo":11567,"ĠKumain":11568,"Ġimah":11569,"sige":11570,"Ġpalay":11571,"cript":11572,"Asawa":11573,"ĠNapansin":11574,"ĠKaharian":11575,"Ġbow":11576,"Ġoriginal":11577,"malaki":11578,"Ġipapakita":11579,"wiki":11580,"Ġilabas":11581,"Ġqueen":11582,"ĠPera":11583,"Ġkapamilya":11584,"not":11585,"igin":11586,"asim":11587,"ĠMae":11588,"Mabuti":11589,"Ġnakapasok":11590,"ĠRevilla":11591,"ĠIK":11592,"ĠLoob":11593,"ĠCarla":11594,"lasa":11595,"Happy":11596,"dict":11597,"ĠClaudine":11598,"high":11599,"Ã¢":11600,"ides":11601,"ampalataya":11602,"Ġsamin":11603,"Masarap":11604,"gaga":11605,"Ġpigilan":11606,"Ġmabagal":11607,"ulugang":11608,"adaan":11609,"Ġgall":11610,"Ġsupply":11611,"Ġilipat":11612,"ibat":11613,"Ġfil":11614,"Ġmasasamang":11615,"liser":11616,"Ġpaglilingkod":11617,"Ġcheap":11618,"Ġlaking":11619,"Ġpagsasalita":11620,"Duterte":11621,"Ġimag":11622,"Pagb":11623,"ĠBawat":11624,"Ġpagganap":11625,"Ġsweldo":11626,"ategory":11627,"Ġnabub":11628,"inabangan":11629,"Pussy":11630,"Ã³":11631,"Ginintuan":11632,"ient":11633,"Ġport":11634,"ĠLisensyang":11635,"hia":11636,"Ġtiningnan":11637,"utulog":11638,"Ġbinanggit":11639,"ĠLibre":11640,"ĠðŁĺī":11641,"ĠPrans":11642,"ĠDeb":11643,"moxum":11644,"Ġdiffer":11645,"intments":11646,"Ġbanta":11647,"Why":11648,"ĠKabilang":11649,"Â¬":11650,"ï¿½ï¿½ï¿½ï¿½ï¿½ï¿½ï¿½ï¿½ï¿½ï¿½ï¿½":11651,"asid":11652,"ĠKRIS":11653,"ĠDA":11654,"tiwala":11655,"Ġvan":11656,"ĠAba":11657,"Ġmambabatas":11658,"shine":11659,"iwanag":11660,"Book":11661,"rem":11662,"Ġdaloy":11663,"ulti":11664,"Ġganang":11665,"omelec":11666,"uu":11667,"hout":11668,"utunan":11669,"ilaan":11670,"Ġsinabihan":11671,"Ġwet":11672,"Ġpamunuan":11673,"Ġspectrum":11674,"Ġswimming":11675,"arance":11676,"ĠNext":11677,"ikaso":11678,"anne":11679,"uris":11680,"bian":11681,"ĠEarth":11682,"Ġtatang":11683,"hea":11684,"sonval":11685,"tead":11686,"irming":11687,"Ġunderwear":11688,"Ġnatitira":11689,"pam":11690,"caÃ±":11691,"Ġsleep":11692,"Ġbisitahin":11693,"Le":11694,"Ġupd":11695,"Bata":11696,"Ġdip":11697,"alista":11698,"Ġhula":11699,"Ġmaki":11700,"Ġeskwelahan":11701,"ĠNaisip":11702,"ALO":11703,"eck":11704,"Ġmagdamag":11705,"ĠRico":11706,"Ġjose":11707,"Ġkwenta":11708,"ĠMusika":11709,"Ġsingaw":11710,"focus":11711,"Ġpagpapatakbo":11712,"---":11713,"chive":11714,"ĠWeek":11715,"ĠHarry":11716,"igising":11717,"Ġquality":11718,"Ġsaakin":11719,"Ġsistemang":11720,"Ġkumpletong":11721,"Ġkaibigang":11722,"ĠHospital":11723,"ngayon":11724,"ully":11725,"ĠMarco":11726,"ref":11727,"istration":11728,"unto":11729,"ĠAustralia":11730,"Ġtalo":11731,"onezh":11732,"ĠPatrick":11733,"Ġworms":11734,"ĠRome":11735,"ĠKAR":11736,"ĠIlocos":11737,"iglang":11738,"Ġtatanggapin":11739,"Ġanus":11740,"Ġmagnanakaw":11741,"Ġkinakabahan":11742,"Ġbigyang":11743,"Ġpassword":11744,"Ġkrisis":11745,"ĠAbu":11746,"Bl":11747,"Ġfashion":11748,"ĠGabby":11749,"ustung":11750,"ULOY":11751,"ĠApr":11752,"Bea":11753,"ĠSalvador":11754,"hiko":11755,"Ġpalibot":11756,"erie":11757,"Ġcolor":11758,"Mala":11759,"ĠBor":11760,"Ġdesign":11761,"ilanlan":11762,"ikina":11763,"alakad":11764,"itungo":11765,"Ġprocess":11766,"Ġtsokolate":11767,"bida":11768,"Ġtrabah":11769,"rome":11770,"anggalin":11771,"Ġtadhana":11772,"labasan":11773,"ĠHuman":11774,"Ġdrop":11775,"ĠSilangan":11776,"wersa":11777,"ĠKaw":11778,"ĠTalsik":11779,"Fuck":11780,"ahaba":11781,"Ġsinasalita":11782,"Ġaspeto":11783,"onment":11784,"Ġkinabibilangan":11785,"Bumalik":11786,"ĠCy":11787,"ĠKatawan":11788,"ĠCusto":11789,"loloko":11790,"abag":11791,"Ġaqu":11792,"merce":11793,"IDEO":11794,"Ġserv":11795,"rima":11796,"Ġunt":11797,"Ġmakina":11798,"ĠYout":11799,"Palatandaan":11800,"abinsk":11801,"Ġtanghali":11802,"Ġpapano":11803,"Ġberries":11804,"ĠCay":11805,"Ġcertificate":11806,"Ġperang":11807,"Ġubas":11808,"ĠMario":11809,"Ġbagkus":11810,"ultural":11811,"ibodies":11812,"Ġkatarungan":11813,"Ġherring":11814,"Ġnanging":11815,"Ġinggit":11816,"Ġanniversary":11817,"nosis":11818,"Ġhalong":11819,"Chs":11820,"itoryo":11821,"ĠNagt":11822,"Ġpercent":11823,"yaya":11824,"oph":11825,"Ġantibodies":11826,"key":11827,"self":11828,"Ġmaster":11829,"Ġ39":11830,"Ġbasag":11831,"school":11832,"Ġsegundo":11833,"Ġnahuh":11834,"Ġkut":11835,"Ġgayundin":11836,"Eye":11837,"ĠHAHAH":11838,"Ġclos":11839,"Ġworker":11840,"ĠAug":11841,"ĠPresidential":11842,"Ġbulag":11843,"ĠThailand":11844,"ĠOP":11845,"landes":11846,"Ġvirgin":11847,"Ġalmond":11848,"Ġdiagn":11849,"bos":11850,"Ġnakausap":11851,"Ġnandiyan":11852,"babago":11853,"Ġmalag":11854,"Ġhiya":11855,"Ġlumayo":11856,"atanas":11857,"bahang":11858,"OOK":11859,"Ġdisiplina":11860,"Ġkahon":11861,"ĠChris":11862,"spang":11863,"uez":11864,"Ġkasinungalingan":11865,"iyahe":11866,"iktima":11867,"cies":11868,"anungin":11869,"Ġpatunay":11870,"file":11871,"Allergy":11872,"Ġthrough":11873,"Ġtas":11874,"usk":11875,"Ġidina":11876,"tulad":11877,"ĠLemon":11878,"Bigla":11879,"ĠDagdagan":11880,"Ġanswer":11881,"yde":11882,"uster":11883,"inabukasan":11884,"inisan":11885,"Ġpulong":11886,"Ġkasabihan":11887,"ĠFat":11888,"ĠTanging":11889,"Ġtuyo":11890,"Ġem":11891,"ĠPropeta":11892,"Ġnapapanood":11893,"Ġfish":11894,"ĠTreatment":11895,"ĠIGLESIA":11896,"Ġsulit":11897,"Ġceremon":11898,"Ġgrand":11899,"Teka":11900,"Ġmatutunan":11901,"ĠMem":11902,"ĠEmp":11903,"Ġpill":11904,"Ġnapupunta":11905,"oooo":11906,"roat":11907,"ĠAnu":11908,"Ġitinak":11909,"Ġinsekto":11910,"Ġgoing":11911,"Ġtiy":11912,"Ġclo":11913,"Ġelections":11914,"Ġandun":11915,"ĠChely":11916,"ĠChelyabinsk":11917,"Ġkamao":11918,"ubuti":11919,"ĠNags":11920,"Malakas":11921,"wim":11922,"2012":11923,"resetang":11924,"WATCH":11925,"holar":11926,"ĠNEW":11927,"Ġpagkap":11928,"askil":11929,"atiwalaan":11930,"ĠManagement":11931,"Ġyaya":11932,"Ġpinans":11933,"Ġthy":11934,"Ġ2005":11935,"Ġumaabot":11936,"ĠDra":11937,"ĠOR":11938,"abanggit":11939,"Ġmakalipas":11940,"Ġsasakyang":11941,"Ġhoop":11942,"aaway":11943,"atigas":11944,"Plastic":11945,"Â·":11946,"oval":11947,"ÃŃ":11948,"ĠLupa":11949,"iksyon":11950,"ĠBansa":11951,"Ġmatuloy":11952,"BIN":11953,"Ġinformation":11954,"ĠThen":11955,"Ġpinasok":11956,"Ġsambayanan":11957,"idi":11958,"Ġaminin":11959,"mel":11960,"ĠVoronezh":11961,"UNAY":11962,"ĠKaga":11963,"Ġnapigilan":11964,"Ġfairness":11965,"endi":11966,"oroon":11967,"ready":11968,"Ġkriminal":11969,"Ġdar":11970,"Ġmamimili":11971,"Handa":11972,"Ġnagdudulot":11973,"pher":11974,"ĠSAR":11975,"lito":11976,"Ġpinilit":11977,"Ġnapatay":11978,"Ġtutulong":11979,"ĠRoque":11980,"ĠPrincess":11981,"Ġpahinga":11982,"ĠMataas":11983,"ometro":11984,"Ġmakakap":11985,"igration":11986,"ority":11987,"Ġpagluluto":11988,"Ġthoughts":11989,"etano":11990,"Ġsaken":11991,"ĠMaja":11992,"rent":11993,"ĠSuprema":11994,"ilas":11995,"ĠGuy":11996,"Ġmakulay":11997,"uffa":11998,"atawan":11999,"Ganun":12000,"vironment":12001,"Ġisinagawa":12002,"ikilya":12003,"eneo":12004,"IGHT":12005,"70":12006,"Ġsumusubok":12007,"ĠBeach":12008,"Ġisinus":12009,"ĠPS":12010,"eda":12011,"ordina":12012,"Ġkabuluhan":12013,"Ġparati":12014,"Ġsession":12015,"Ġipadala":12016,"lets":12017,"Ġlumipad":12018,"aning":12019,"illing":12020,"lakay":12021,"Ġticket":12022,"Con":12023,"sych":12024,"Ġtaumbayan":12025,"ĠPangasinan":12026,"usga":12027,"HH":12028,"Ġsister":12029,"Ġprog":12030,"conf":12031,"Post":12032,"ĠSha":12033,"Ġtorrent":12034,"ĠAmb":12035,"ĠOK":12036,"holic":12037,"Ġpeklat":12038,"ALAMAN":12039,"hiwalay":12040,"laysay":12041,"Ġmamamayang":12042,"Ġmona":12043,"Ġkatabaan":12044,"ĠPAGK":12045,"ĠJapanese":12046,"ĠAting":12047,"ĠLi":12048,"Ġdirektang":12049,"ianca":12050,"ĠMid":12051,"ĠIlan":12052,"Ġmarumi":12053,"Kategorya":12054,"Ġtinag":12055,"Ġkaragatan":12056,"Ġpumapatay":12057,"Ġsat":12058,"achine":12059,"vernor":12060,"ï¼":12061,"Ġnamamagang":12062,"Ġsigurong":12063,"Ġpipiliin":12064,"pinoy":12065,"take":12066,"ĠMakak":12067,"ĠTeam":12068,"Ġsayaw":12069,"eld":12070,"Ġfocus":12071,"utr":12072,"Ġsaw":12073,"Ġhustisya":12074,"ĠHim":12075,"Ġkulit":12076,"Ġmatit":12077,"Ġpuwersa":12078,"DATE":12079,"Ļ¥":12080,"Ġpagpapalakas":12081,"Ġpanonood":12082,"ĠAuthority":12083,"Ġsumigaw":12084,"Ġcountry":12085,"Ġsaktan":12086,"Ġmantikilya":12087,"ĠSoftware":12088,"igno":12089,"Ġgastusin":12090,"reklamo":12091,"First":12092,"Ġnagpak":12093,"Ġburol":12094,"ĠIndian":12095,"Ġnagawang":12096,"Ġporsyento":12097,"each":12098,"via":12099,"ĠMocha":12100,"Ġpaalala":12101,"ĠTest":12102,",âĢĻ":12103,"ĠSto":12104,"new":12105,"Ġdan":12106,"Ġnakakab":12107,"Ġtrapiko":12108,"Ġlarong":12109,"Ġpaglipad":12110,"Subalit":12111,"hak":12112,"ĠBul":12113,"Ġdinner":12114,"ĠCarlo":12115,"Ġnagna":12116,"ĠCirc":12117,"ĠTomas":12118,"Ġtu":12119,"Ġcake":12120,"ĠGitnang":12121,"Ġkeep":12122,"Ġmaly":12123,"unci":12124,"Ġmapapanood":12125,"bust":12126,"ĠLady":12127,"Ġpagkakak":12128,"ipas":12129,"Ġapektadong":12130,"ĠSiber":12131,"ĠCO":12132,"nance":12133,"import":12134,"Ġhatid":12135,"Ġcabin":12136,"pointment":12137,"Ġgumagalaw":12138,"ĠIyan":12139,"Ġahas":12140,"ĠKinuha":12141,"Ġkinausap":12142,"AYAT":12143,"ĠKili":12144,"hes":12145,"trans":12146,"Ġmagsagawa":12147,"struction":12148,"Ġgad":12149,"ĠCristine":12150,"Ġnagrer":12151,"Ġnama":12152,"Magp":12153,"Ġworkers":12154,"Ġspa":12155,"ubai":12156,"ĠCook":12157,"Ġparehas":12158,"sum":12159,"apong":12160,"ahweh":12161,"Ġmalyshe":12162,"PP":12163,"Ġsumusuporta":12164,"ĠKathryn":12165,"ĠSatanas":12166,"Ġdeath":12167,"MAY":12168,"Ġmalyshevoy":12169,"Ġmaingay":12170,"ĠMed":12171,"oker":12172,"ĠCRIS":12173,"arium":12174,"Ġsuspensyon":12175,"Ġhardin":12176,"Pahayag":12177,"ornia":12178,"ivil":12179,"Ġkuwentong":12180,"Ġmaririnig":12181,"ĠMichelle":12182,"Ġdula":12183,"Ġduring":12184,"ĠCoffee":12185,"Ġwraps":12186,"unda":12187,"abak":12188,"urious":12189,"ibol":12190,"ĠLaban":12191,"Ġpromise":12192,"Ġnapas":12193,"Juan":12194,"ĠMainit":12195,"alub":12196,"Ġlovelife":12197,"ĠKomun":12198,"alab":12199,"iwaga":12200,"omenda":12201,"ĠLat":12202,"Ġisinagawang":12203,"Ġbuhat":12204,"Ġpagtakbo":12205,"Ġpagkakaibigan":12206,"Ipakita":12207,"quir":12208,"ĠKAYA":12209,"limang":12210,"Ġwriter":12211,"ĠKiev":12212,"Ġaudi":12213,"Ġsau":12214,"abuhay":12215,"Ġhinila":12216,"Ġpagsusuka":12217,"Ġloses":12218,"Ġduon":12219,"ĠDE":12220,"rally":12221,"Ġbinuo":12222,"popular":12223,"Anu":12224,"ĠNasaan":12225,"Ġlear":12226,"Ġipinahayag":12227,"Ġstudents":12228,"Spot":12229,"Ġmajor":12230,"epend":12231,"Ġresponsable":12232,"osit":12233,"ĠEczema":12234,"Ġsoon":12235,"Ġpagkakah":12236,"Ġfast":12237,"ĠCuneta":12238,"Ġlima":12239,"Ġatake":12240,"ĠGrand":12241,"Aba":12242,"Top":12243,"Ġautom":12244,"imbesti":12245,"Ġmateryal":12246,"ĠGuards":12247,"Ġeffort":12248,"Ġfire":12249,"unciation":12250,"ĠKilala":12251,"uds":12252,"Ġ48":12253,"unlaran":12254,"Ġlalim":12255,"Ġbilihin":12256,"Ġhalf":12257,"Ġisus":12258,"ĠPinakamahusay":12259,"Ġstate":12260,"Ġnangyaring":12261,"itute":12262,"ĠOm":12263,"ĠAljur":12264,"ester":12265,"Ġdela":12266,"Ġkastila":12267,"ĠBF":12268,"polis":12269,"Buhay":12270,"idence":12271,"Ġdiretso":12272,"ĠMichaels":12273,"ĠNATIN":12274,"ĠFeeling":12275,"ĠWebsite":12276,"Gayun":12277,"atherine":12278,"!?":12279,"Bulating":12280,"Watch":12281,"ganyak":12282,"ĠShowtime":12283,"tanim":12284,"ĠMabuhay":12285,"Ġnanun":12286,"etisyon":12287,"Ġ2000":12288,"Ġamb":12289,"Ġbinub":12290,"uwalhatian":12291,"Ġsali":12292,"Ġcampaign":12293,"Ġkasali":12294,"inoong":12295,"Ġmagaganda":12296,"stant":12297,"Ġtuwang":12298,"ĠPron":12299,"Ġacc":12300,"Ġmasasabing":12301,"Ġsaser":12302,"Ġpros":12303,"exc":12304,"ĠFred":12305,"Ġkosmet":12306,"ibility":12307,"Ġasong":12308,"urgery":12309,"Ġkopo":12310,"alamig":12311,"ikon":12312,"Ġsetting":12313,"Ġlathalaing":12314,"ĠARAW":12315,"Ġpanawagan":12316,"ĠNaku":12317,"Balat":12318,"ĠAndrea":12319,"Ġpics":12320,"kalusugan":12321,"Dumating":12322,"Ġshall":12323,"Ġdevice":12324,"ĠAndres":12325,"ĠLy":12326,"ungol":12327,"ĠGlo":12328,"ĠSep":12329,"estic":12330,"Ġbangka":12331,"hanayan":12332,"ĠMall":12333,"yahoo":12334,"Ġmagkagayo":12335,"ifi":12336,"Libre":12337,"ĠPekpek":12338,"ĠDark":12339,"ĠView":12340,"Ġhagdan":12341,"ĠCrush":12342,"Ġchocolate":12343,"Ġgubat":12344,"Ġkatotohanang":12345,"Hahaha":12346,"puno":12347,"Ġdouble":12348,"ĠKADIRI":12349,"Pamp":12350,"ragon":12351,"Ġkoneksyon":12352,"Ġemployer":12353,"Ġnemo":12354,"Ġplate":12355,"Ġmangolekta":12356,"Ġmi":12357,"Paraan":12358,"alusugan":12359,"ĠFilms":12360,"Ġkaguluhan":12361,"Ġyrs":12362,"Ġkame":12363,"Ġkilometro":12364,"perience":12365,"ĠHom":12366,"Ġdiy":12367,"Nagsimula":12368,"Ġcre":12369,"abs":12370,"napu":12371,"dadaanan":12372,"unette":12373,"Ġpaglalam":12374,"Ġpinapat":12375,"ĠNadine":12376,"Ġmaglala":12377,"iwalaan":12378,"caÃ±ang":12379,"enes":12380,"alaganap":12381,"Tayo":12382,"Ġpamasahe":12383,"Ġnagkakahalaga":12384,"ĠMisis":12385,"ATING":12386,"Ġelevator":12387,"orror":12388,"ĠDali":12389,"Binigyan":12390,"Ġproduction":12391,"Ġilalagay":12392,"Ġaround":12393,"ĠIndonesia":12394,"Ġkatagang":12395,"ĠPinakamalalang":12396,"anah":12397,"ĠPunong":12398,"Ġtinitingnan":12399,"ĠSaktan":12400,"ĠPagsas":12401,"OF":12402,"BP":12403,"Ġ;)":12404,"?'":12405,"Ġginagampanan":12406,"Ġnagkakas":12407,"aah":12408,"ĠSite":12409,"ĠOct":12410,"itiis":12411,"Ġsection":12412,"Ġkontribusyon":12413,"ĠKumapal":12414,"ĠANAK":12415,"Manila":12416,"Ġnetizens":12417,"pto":12418,"Super":12419,"Ġpares":12420,"arehistro":12421,"Ġpanginoon":12422,"Ġmapanood":12423,"Ġphilipp":12424,"Nasaan":12425,"Ġkumbaga":12426,"ium":12427,"Ġbanana":12428,"Kumain":12429,"GU":12430,"Ġgliser":12431,"Ġbuod":12432,"Ġanother":12433,"ized":12434,"Ġnangyayaring":12435,"artista":12436,"awawala":12437,"Nagiging":12438,"Ġhinihingi":12439,"Ġkasam":12440,"cket":12441,"steryo":12442,"unisip":12443,"ĠKatrina":12444,"ĠVermoxum":12445,"ĠSoriano":12446,"Ġsuport":12447,"Ġbilhin":12448,"Ġnamalayan":12449,"ĠCCTV":12450,"ĠTIM":12451,"olf":12452,"rote":12453,"Ġnagdaang":12454,"ĠAssociation":12455,"Ġtalamak":12456,"Ġmakuk":12457,"rated":12458,"bawal":12459,"reta":12460,"Ġgulong":12461,"alika":12462,"Muling":12463,"ĠLap":12464,"Ġmagkakasama":12465,"Ġmakakain":12466,"Ġkabab":12467,"onding":12468,"urtis":12469,"stan":12470,"Ġanomang":12471,"Ġminus":12472,"Ġfit":12473,"Ġmist":12474,"Ġpamilyar":12475,"Ġnabuhay":12476,"Ġpananalita":12477,"ngang":12478,"ĠEsc":12479,"ĠVisayas":12480,"ĠPelikula":12481,"Ġroundworm":12482,"ĠKid":12483,"galan":12484,"Ġahensiya":12485,"quest":12486,"Ġmeet":12487,"Ġfour":12488,"ĠNapa":12489,"Ġreaders":12490,"Ġassist":12491,"ĠUma":12492,"Ġnagbebenta":12493,"ĠNILA":12494,"Ġnakatitig":12495,"Ġagent":12496,"kg":12497,"Ġindie":12498,"Ġmagpahinga":12499,"ĠPerm":12500,"ĠHayaan":12501,"maganda":12502,"matikong":12503,"Ġnamamatay":12504,"cl":12505,"ĠFr":12506,"halong":12507,"ĠRoma":12508,"ering":12509,"Ġmatugunan":12510,"ynzar":12511,"Ġintindi":12512,"OLO":12513,"showbiz":12514,"ĠKulay":12515,"inante":12516,"Ġformula":12517,"Ġbumubuo":12518,"alip":12519,"INOY":12520,"type":12521,"prise":12522,"rimazole":12523,"Ġnakatanggap":12524,"Ġpangkulay":12525,"Ġpaleng":12526,"ĠIg":12527,"Ġimbes":12528,"unk":12529,"Ġpangalagaan":12530,"atok":12531,"vid":12532,"Ġmagaganap":12533,"gutan":12534,"Ġmakakaya":12535,"llen":12536,"Ġkli":12537,"ĠKids":12538,"lamang":12539,"fornia":12540,"ĠRoc":12541,"oot":12542,"Ġpagpapaputi":12543,"pub":12544,"Ġentertainment":12545,"Ġpaglikha":12546,"umer":12547,"Ġiglesia":12548,"utu":12549,"Ġbinit":12550,"Ġlupang":12551,"anayam":12552,"Honey":12553,"oration":12554,"Ġsoft":12555,"Ak":12556,"ĠTeka":12557,"ĠKaramihan":12558,"Ġparking":12559,"apangin":12560,"ls":12561,"ern":12562,"awis":12563,"Ġinuman":12564,"Ġchapter":12565,"stay":12566,"kar":12567,"ĠThai":12568,"Ġmagpatuloy":12569,"ĠChat":12570,"ACT":12571,"emat":12572,"Ġnatitirang":12573,"Ġcosmetics":12574,"Ġorganic":12575,"Tag":12576,"ĠWrinkles":12577,"Ġmahiya":12578,"Ġmetabolismo":12579,"uit":12580,"Ġmatanggal":12581,"Ġprovin":12582,"ihinto":12583,"Ġtrich":12584,"uz":12585,"Ġagham":12586,"Ġstyling":12587,"Ġloan":12588,"ĠTAG":12589,"ĠCyprus":12590,"ĠGF":12591,"ĠJour":12592,"Ġkawawa":12593,"Presyo":12594,"Hoy":12595,"Ġhormone":12596,"Sarap":12597,"Ġkoop":12598,"Ġmawawalan":12599,"ify":12600,"Ġparaang":12601,"ĠAngelo":12602,"phen":12603,"Black":12604,"Ġparusa":12605,"Ġpansamantala":12606,"Blog":12607,"cher":12608,"aabuso":12609,"ĠLol":12610,"Ġpinakamagandang":12611,"Ġextension":12612,"Ġhinding":12613,"Balik":12614,"ĠSimple":12615,"ĠRegional":12616,"Ġpagbawi":12617,"aloka":12618,"Ġdasal":12619,"Ġplaneta":12620,"ĠPay":12621,"Ġbinat":12622,"ĠBuzz":12623,"Ġkoponan":12624,"unahin":12625,"gether":12626,"ekonom":12627,"Bahagi":12628,"ĠEg":12629,"ĠIbigin":12630,"ĠYOU":12631,"ĠMind":12632,"Nagp":12633,"Ġsinundan":12634,"Ġulap":12635,"Ġsaserdote":12636,"awig":12637,"ĠRating":12638,"ĠChurch":12639,"ĠRadio":12640,"ĠJoshua":12641,"asar":12642,"ĠTubig":12643,"Ġvisit":12644,"yalista":12645,"hian":12646,"thday":12647,"Ġkulungan":12648,"atitis":12649,"Ġkinain":12650,"vost":12651,"Ġara":12652,"Ġnakakakuha":12653,"ĠJoel":12654,"Ġbalakang":12655,"ĠWindow":12656,"Ġtimog":12657,"Ġsirk":12658,"ĠShowbiz":12659,"Ġdinadala":12660,"Ġnakakahiya":12661,"ĠPronunciation":12662,"Ġunan":12663,"alsa":12664,"imang":12665,"Ġfat":12666,"Anyway":12667,"atory":12668,"alsal":12669,"ĠKole":12670,"Mabuhay":12671,"ĠLondon":12672,"Ġnangungunang":12673,"Ġkids":12674,"gitna":12675,"ĠUnion":12676,"PL":12677,"ANONG":12678,"amahal":12679,"68":12680,"ungat":12681,"icles":12682,"ĠMalakanyang":12683,"Ġplanong":12684,"ĠSports":12685,"lisan":12686,"tura":12687,"Ġipinasok":12688,"ector":12689,"ĠFire":12690,"Ġobli":12691,"Or":12692,"cons":12693,"âĢİ":12694,"Gapangin":12695,"IAL":12696,"Ġhyaluronic":12697,"dito":12698,"Ġnarating":12699,"zzle":12700,"ĠPynzar":12701,"Ġemot":12702,"Ġnangga":12703,"Ġalyas":12704,"Ġaktibo":12705,"WH":12706,"Ġbara":12707,"Ġgiv":12708,"apanganib":12709,"ĠXenical":12710,"Ġampoules":12711,"Pare":12712,"ollow":12713,"ĠCesar":12714,"Ġligaya":12715,"Ġlagnat":12716,"duate":12717,"Kaka":12718,"ilay":12719,"ĠFam":12720,"enail":12721,"wain":12722,"Ġisinas":12723,"ĠHes":12724,"Ġtup":12725,"Ġhangarin":12726,"asin":12727,"ĠBIB":12728,"abato":12729,"dog":12730,"Ġumiinom":12731,"Ġnakatuon":12732,"Ġmahuh":12733,"Ġsalaw":12734,"ĠDIN":12735,"ĠYahweh":12736,"ĠGamitin":12737,"ĠAbraham":12738,"Ġpatok":12739,"ĠMahilig":12740,"ilisan":12741,"Ġyoga":12742,"diliman":12743,"Ġtitig":12744,"rasyong":12745,"Ġtuwalya":12746,"Ġpinakamab":12747,"Ġokasyon":12748,"Ġkem":12749,"ĠTalaga":12750,"ĠWi":12751,"Ġmananatili":12752,"Ġpeste":12753,"Ġkukuha":12754,"Inih":12755,"ĠDays":12756,"Ġbinibigay":12757,"lakan":12758,"Ġmaih":12759,"Ġvib":12760,"amay":12761,"Muli":12762,"Ġcoco":12763,"ĠDOH":12764,"Ġworth":12765,"Ġartistang":12766,"Parehong":12767,"Ġgumaling":12768,"erobics":12769,"Ġsaang":12770,"itional":12771,"ĠEssay":12772,"Ġcured":12773,"ĠBusiness":12774,"ĠNow":12775,"Ġligaw":12776,"Tamang":12777,"Ġ---":12778,"ĠCode":12779,"Ġkosmetiko":12780,"ĠBb":12781,"lupa":12782,"ĠGaya":12783,"Ġsinak":12784,"zzi":12785,"Ġtatanungin":12786,"ĠGeorge":12787,"ĠVelas":12788,"Ġkore":12789,"nay":12790,"china":12791,"Ġlul":12792,"ogging":12793,"ĠDagdag":12794,"gers":12795,"ĠSC":12796,"cosis":12797,"atawad":12798,"hem":12799,"buhin":12800,"Ġclick":12801,"Ġdu":12802,"ĠCount":12803,"OVE":12804,"alastiko":12805,"Napag":12806,"dep":12807,"Ġpagsasabwatan":12808,"ICE":12809,"Ġtradisyunal":12810,"orsiy":12811,"IFE":12812,"vostok":12813,"Ġpanuntunan":12814,"ĠProvincial":12815,"Ġtite":12816,"Kar":12817,"USTO":12818,"Ġpinakama":12819,"Ġcommunity":12820,"ĠJuda":12821,"Ġmatangkad":12822,"ĠAlbay":12823,"ĠPILIPINAS":12824,"inda":12825,"Ġvodka":12826,"organ":12827,"ĠIP":12828,"UTER":12829,"nasyonal":12830,"Ġgadget":12831,"ango":12832,"retto":12833,"Ġagree":12834,"Ġmakabuluhang":12835,"ĠLope":12836,"upuan":12837,"Ġmatupad":12838,"Ġprimetime":12839,"Ultra":12840,"Ġrabb":12841,"Ġnagbabayad":12842,"oonan":12843,"yayari":12844,"Ġprobinsiya":12845,"Idagdag":12846,"wasan":12847,"ingatan":12848,"Ġhiwa":12849,"ngue":12850,"ĠRub":12851,"Ġaudience":12852,"Ġpahintulot":12853,"Ġsenior":12854,"noon":12855,"Ġhangang":12856,"Ġbalanse":12857,"Hanapin":12858,"Ġloss":12859,"Ġworry":12860,"giniit":12861,"Ġsibil":12862,"Ġkaragdagan":12863,"Ġpagkalastiko":12864,"Boy":12865,"WA":12866,"Ġexplain":12867,"mmmm":12868,"ĠJeff":12869,"Ġkapansin":12870,"Ġnararanasan":12871,"Ġfucks":12872,"indu":12873,"inaldo":12874,"uhing":12875,"Kabilang":12876,"Ġkaugalian":12877,"Ġbelieve":12878,"ENS":12879,"Ġdosis":12880,"ĠPig":12881,"hikal":12882,"Ġelection":12883,"Ġpagtatanghal":12884,"ĠGa":12885,"ĠGanyan":12886,"ukay":12887,"Ġpagmamaneho":12888,"Thanks":12889,"viv":12890,"arov":12891,"ĠSinasabi":12892,"ther":12893,"Ġpinuntahan":12894,"ociety":12895,"ULONG":12896,"Ġsigarilyo":12897,"Kuwento":12898,"pie":12899,"Ġiyun":12900,"ĠVan":12901,"ĠBlue":12902,"ĠVilma":12903,"Ġgalak":12904,"amaan":12905,"lac":12906,"ĠMara":12907,"pli":12908,"Ġdet":12909,"Ġcosmetology":12910,"Ġrabbits":12911,"well":12912,"toms":12913,"Ġren":12914,"ulisan":12915,"ĠSigurado":12916,"\\\\":12917,"Ġnangangati":12918,"ĠWork":12919,"ĠPeter":12920,"ugi":12921,"IDS":12922,"resyon":12923,"ĠAniya":12924,"Ġpagtimpla":12925,"ordan":12926,"ĠMabuting":12927,"Ġnasasak":12928,"aligid":12929,"arter":12930,"Ġpark":12931,"Ġpatunayan":12932,"ĠMakat":12933,"Ġsisiw":12934,"ĠCRISTO":12935,"Ġnakangiting":12936,"ĠItem":12937,"ĠJillian":12938,"Ġmaigi":12939,"taong":12940,"Ġtheme":12941,"ĠKantutan":12942,"MB":12943,"akibat":12944,"Ġcondom":12945,"Ġalon":12946,"Ġpalengke":12947,"Ġfresh":12948,"PIA":12949,"Ġmarriage":12950,"Ġkawalang":12951,"Ġpain":12952,"Ġmaiwasang":12953,"Ġnakaramdam":12954,"Ġalmost":12955,"Ġbukid":12956,"ĠNoel":12957,"Ġbahagyang":12958,"aglit":12959,"ĠCurtis":12960,"Gawa":12961,"Ġkainan":12962,"Ġikas":12963,"Ġgang":12964,"Ġangat":12965,"Ġthankful":12966,"nakak":12967,"plement":12968,"Ġnote":12969,"Naalala":12970,"Nili":12971,"Ġpagsasa":12972,"ĠBitcoin":12973,"insp":12974,"Ġ2004":12975,"Ġflu":12976,"ĠArabia":12977,"Ġitinatag":12978,"amamatay":12979,"ĠMuh":12980,"Ġ42":12981,"ĠEdgar":12982,"ception":12983,"ĠKahapon":12984,"Dad":12985,"Ġpaunang":12986,"Ġtumataas":12987,"ĠMakipag":12988,"Ġmig":12989,"Ġnatuklasan":12990,"Ġkaluwalhatian":12991,"Ġpwersa":12992,"Ġbrowser":12993,"Ġwarts":12994,"inantot":12995,"works":12996,"ological":12997,"ĠKitang":12998,"ĠMagbasa":12999,"Ġabo":13000,"ĠRuffa":13001,"ĠEL":13002,"retty":13003,"Ġlunch":13004,"Ġbagamat":13005,"Free":13006,"apaw":13007,"Ġkatiw":13008,"Ġpen":13009,"Ġbrandy":13010,"gulo":13011,"ĠNguni":13012,"Ġluma":13013,"ALAMAT":13014,"pretasyon":13015,"hiyong":13016,"Ġlymp":13017,"ĠAri":13018,"Ġtela":13019,"Pagsusuri":13020,"NAN":13021,"Oras":13022,"Ġrosas":13023,"ĠPuro":13024,"URE":13025,"Ġnagsabing":13026,"Baguhan":13027,"Ġporsiy":13028,"amot":13029,"Wh":13030,"rikultura":13031,"Ġmeaning":13032,"Ġnangag":13033,"kis":13034,"ui":13035,"198":13036,"Ġyelo":13037,"Ġeverything":13038,"bigyan":13039,"ĠPagsubok":13040,"Ġpagkikita":13041,"Ġugnayan":13042,"Ġmalas":13043,"ĠFre":13044,"Ġparangal":13045,"Ġimage":13046,"Hinggil":13047,"lom":13048,"Ġbali":13049,"awarin":13050,"Ġkinau":13051,"onary":13052,"Ġmani":13053,"Ġpresensya":13054,"indak":13055,"Ġsinasadya":13056,"Ġplanta":13057,"Online":13058,"Ġnatakot":13059,"Ġstraightening":13060,"pal":13061,"ĠNight":13062,"ĠNegosyo":13063,"Ġmagulo":13064,"Ġleave":13065,"Ġpills":13066,"ĠMapag":13067,"ĠHuk":13068,"Ġkim":13069,"Ġinili":13070,"ĠMachine":13071,"Ġfront":13072,"Ġfield":13073,"ĠPlastic":13074,"Ġgandang":13075,"ĠBAL":13076,"2017":13077,"asdan":13078,"Ġnawawalan":13079,"Ġpumutok":13080,"cription":13081,"iyansa":13082,"Ġtibok":13083,"VER":13084,"sya":13085,"Ġputik":13086,"nada":13087,"ĠFeb":13088,"onya":13089,"tivate":13090,"alal":13091,"exas":13092,"IHIN":13093,"Ġkm":13094,"ipat":13095,"ĠBenigno":13096,"69":13097,"emale":13098,"END":13099,"zano":13100,"ĠRIN":13101,"ĠWed":13102,"Ġtalento":13103,"Ġpapat":13104,"Ġnatatanggap":13105,"Ġtalahanayan":13106,"Ġasked":13107,"omy":13108,"Ġmagpunta":13109,"Ġpit":13110,"ĠLahi":13111,"ilitary":13112,"Ġbok":13113,"2013":13114,"Fi":13115,"hanggang":13116,"Ġasa":13117,"ulturang":13118,"ĠPakiramdam":13119,"apital":13120,"Ġmagustuhan":13121,"Ġclearance":13122,"Ġlawa":13123,"75":13124,"Ġbol":13125,"Ġeyes":13126,"ĠIpag":13127,"Ġgagawing":13128,"ĠExpress":13129,"thanks":13130,"Ġdermat":13131,"ĠPol":13132,"Ġkumin":13133,"Ġikinas":13134,"Ġkliyente":13135,"Ġbanggit":13136,"uig":13137,"cles":13138,"angin":13139,"Ġhep":13140,"ĠAlisin":13141,"hintay":13142,"Ġpagdad":13143,"intong":13144,"Ġsabon":13145,"raph":13146,"Ġfind":13147,"ĠKatulad":13148,"Ġnatuloy":13149,"ĠLangis":13150,"Ġfine":13151,"Ġsugg":13152,"Ġdigital":13153,"Ġfew":13154,"ĠKang":13155,"Ġniyaon":13156,"didi":13157,"MAR":13158,"Ġpapuri":13159,"Ġperpekto":13160,"ĠScience":13161,"Tradisyonal":13162,"apt":13163,"))":13164,"ĠAran":13165,"utube":13166,"ĠNagsimula":13167,"Ġsulatron":13168,"Ġseryosong":13169,"ĠParasito":13170,"uotan":13171,"ĠPanganib":13172,"Ġsumikat":13173,"Ġkamalayan":13174,"ernador":13175,"ĠWEBS":13176,"arasal":13177,"aly":13178,"App":13179,"angkot":13180,"Ġpatut":13181,"Ġantibiotics":13182,"erra":13183,"ĠVen":13184,"aliitin":13185,"ĠBAKIT":13186,"Ġalalahanin":13187,"imbang":13188,"ilabas":13189,"Ġtradisyon":13190,"Ġdaanan":13191,"apagal":13192,"Ġsongs":13193,"Ġkul":13194,"Ġintimate":13195,"Ġnapinsala":13196,"ilayan":13197,"Ġmalibog":13198,"ffy":13199,"Ġpremi":13200,"Ġtugunan":13201,"ĠBiglang":13202,"ĠTransport":13203,"Ġnagtuturo":13204,"EB":13205,"Ġaktwal":13206,"olesterol":13207,"ĠCayetano":13208,"ĠMagp":13209,"Ġrequirements":13210,"Ġcelebrity":13211,"Ġpinakamahalagang":13212,"ĠIndia":13213,"Ġhinayaan":13214,"ughter":13215,"Ġtri":13216,"appreciate":13217,"Diyos":13218,"Ġallergic":13219,"hov":13220,"ĠSara":13221,"Ġpangulong":13222,"clear":13223,"Maligayang":13224,"VE":13225,"Ġhip":13226,"AMP":13227,"Kala":13228,"lusive":13229,"Ġsikmura":13230,"Lalaki":13231,"cell":13232,"Ib":13233,"ĠXD":13234,"Ġpinapansin":13235,"Ġtemplo":13236,"iaz":13237,"ĠLea":13238,"URO":13239,"134":13240,"ĠTinanong":13241,"puter":13242,"ĠHirit":13243,"Ġsaksi":13244,"ĠSearch":13245,"ĠKabanata":13246,"EAR":13247,"berry":13248,"Nakaka":13249,"Sumulat":13250,"Ġasset":13251,"orse":13252,"Ġpagbabakuna":13253,"Ġpansamantalang":13254,"ilitaw":13255,"Noon":13256,"ĠTara":13257,"ĠVladivostok":13258,"ĠPareho":13259,"ĠDun":13260,"ĠCons":13261,"Ġbiology":13262,"eachment":13263,"Ġmuntik":13264,"Ġpinipilit":13265,"Ġtrichologist":13266,"Ġkaraniwan":13267,"utuloy":13268,"ĠBarretto":13269,"Ġmakatanggap":13270,"amboanga":13271,"ĠÐ":13272,"intsay":13273,"pesyonal":13274,"Ġoport":13275,"ĠIpinag":13276,"Ġchurch":13277,"ĠTamod":13278,"ĠMalaysia":13279,"Ġabutin":13280,"hasan":13281,"pamp":13282,"ĠBianca":13283,"Ġpumanaw":13284,"Bisitahin":13285,"Ġhimala":13286,"Ġcycle":13287,"ĠSib":13288,"Ġtogether":13289,"uwait":13290,"Ġhiga":13291,"ĠDin":13292,"Ġkakayanin":13293,"unwari":13294,"oting":13295,"ĠMalacaÃ±ang":13296,"asahang":13297,"Ġpangkaraniwang":13298,"ĠHardcore":13299,"onna":13300,"ĠTipan":13301,"Ġpinala":13302,"Ġnagpasya":13303,"ĠEvange":13304,"Ġdraw":13305,"alasyo":13306,"iyo":13307,"Ġkabis":13308,"ĠBoss":13309,"Ġpund":13310,"ingit":13311,"sen":13312,"Ġpositive":13313,"ayuan":13314,"Ġmaselang":13315,"ĠMIS":13316,"hai":13317,"ints":13318,"Ġalinmang":13319,"ULI":13320,"Ġcr":13321,"joba":13322,"Ġkalang":13323,"Ġcompet":13324,"Ġkritiko":13325,"ĠTumayo":13326,"ĠTsaka":13327,"ĠKarapatan":13328,"Ġmaski":13329,"Ġkilusan":13330,"Ġkasarian":13331,"ĠEpek":13332,"ĠAlv":13333,"Ġsignal":13334,"ola":13335,"Ayos":13336,"cur":13337,"akilang":13338,"Ġsaga":13339,"ABAN":13340,"==":13341,"Ġtumatanggap":13342,"ĠCastro":13343,"kapag":13344,"Ġ44":13345,"Ġhistory":13346,"ihira":13347,"Ġnagnanais":13348,"hari":13349,"Ġmagpapa":13350,"Ġbabaing":13351,"Ġpaskil":13352,"ĠSING":13353,"Ġmakakat":13354,"ĠNaman":13355,"ĠJC":13356,"ilty":13357,"aminin":13358,"Ġkarahasan":13359,"ilinan":13360,"...]":13361,"ĠRicky":13362,"dinand":13363,"Ġsmile":13364,"Ġbasehan":13365,"Ġflan":13366,"ĠEspanyol":13367,"ns":13368,"Ġtube":13369,"Ġbilyon":13370,"ĠPaghahanda":13371,"quid":13372,"ĠKANYANG":13373,"Ġelectric":13374,"ĠMina":13375,"Ġcoup":13376,"ĠKhar":13377,"ĠWOR":13378,"Ġnagalit":13379,"non":13380,"Ġdog":13381,"2016":13382,"ĠInstitute":13383,"Awit":13384,"Opo":13385,"akatuparan":13386,"Ġsalin":13387,"ĠBank":13388,"luhan":13389,"Ġperiod":13390,"Ġrights":13391,"ĠNagkaroon":13392,"ĠSeg":13393,"Ġinstant":13394,"Ġkind":13395,"eenag":13396,"Ġbor":13397,"masaya":13398,"Ġopport":13399,"Ġcould":13400,"UPDATE":13401,"357":13402,"Ġpagpapanumbalik":13403,"ukot":13404,"ĠRobert":13405,"Ġdemonyo":13406,"ĠNaniniwala":13407,"Mam":13408,"andahang":13409,"Ġbastos":13410,"Ġtinamaan":13411,"ĠExercise":13412,"Ġnasawi":13413,"ĠFoundation":13414,"ĠSapagkat":13415,"awagan":13416,"ĠTandaan":13417,"ĠAndre":13418,"Ġnakatakdang":13419,"Pilipinas":13420,"Ġalagaan":13421,"ĠPosible":13422,"Ġwow":13423,"pt":13424,"insunod":13425,"Ġbahagya":13426,"zi":13427,"Ġtipo":13428,"Ġnalili":13429,"OOB":13430,"Ġpagsamba":13431,"Ġpinagtat":13432,"alt":13433,"ĠAC":13434,"Ġmakalimutan":13435,"Ġrehimeng":13436,"uhanan":13437,"ĠIvan":13438,"Ġargan":13439,"Inter":13440,"Ġpaalam":13441,"ambit":13442,"ĠSobra":13443,"Ġnetworking":13444,"ĠAsyano":13445,"pound":13446,"ĠTony":13447,"nitine":13448,"ĠSereno":13449,"ĠPagsasanay":13450,"Ġtubo":13451,"ĠKalayaan":13452,"agod":13453,"Ġbabala":13454,"Ġinfo":13455,"Ġnilagay":13456,"gest":13457,"rah":13458,"ĠPaliitin":13459,"Ġtumalon":13460,"ratehiya":13461,"Ġpinal":13462,"Dis":13463,"Paki":13464,"Talagang":13465,"idong":13466,"ĠHis":13467,"ĠGob":13468,"areha":13469,"ahalaang":13470,"lide":13471,"Ġtapang":13472,"magandang":13473,"Ġpakiusap":13474,"World":13475,"uriang":13476,"Ġtinatanggap":13477,"Ġlips":13478,"Ġnakakakita":13479,"Ġhehehehe":13480,"Copyright":13481,"Ġnapatingin":13482,"arines":13483,"Ġmagbub":13484,"SAS":13485,"Ġformat":13486,"ecially":13487,"Ġlimitasyon":13488,"ĠLolo":13489,"cona":13490,"kakaroon":13491,"Ġsensit":13492,"yself":13493,"Ġmararamdaman":13494,"Ġpakikitungo":13495,"ĠAfric":13496,"Ġkemikal":13497,"ĠPornograp":13498,"ĠHER":13499,"Ġmaghah":13500,"ĠPand":13501,"AHAY":13502,"Ġkatiwalian":13503,"ĠPAK":13504,"!!!!!":13505,"VD":13506,"ĠIBA":13507,"ĠPartido":13508,"Ġanalogues":13509,"Ġnaintindihan":13510,"iyasat":13511,"nx":13512,"alamangan":13513,"ĠValentine":13514,"jay":13515,"dium":13516,"hiyang":13517,"Ġdoing":13518,"maty":13519,"intulutan":13520,"Ġtissue":13521,"alaysay":13522,"Ġsangkatauhan":13523,"ottage":13524,"ĠRepublika":13525,"ĠReb":13526,"Ġpagbati":13527,"Ġdumami":13528,"achel":13529,"Ġtindi":13530,"Ġsandata":13531,"yuter":13532,"omendasyon":13533,"aven":13534,"screen":13535,"Talaga":13536,"muni":13537,"ND":13538,"ĠInvest":13539,"ĠIV":13540,"Ġcheese":13541,"Ġpagnanasa":13542,"Malapit":13543,"ĠKailangang":13544,"ĠMalakas":13545,"Lalo":13546,"Ġmu":13547,"nasang":13548,"ĠFrance":13549,"Ġpambansa":13550,"vae":13551,"Ġnaiinis":13552,"Ġpromo":13553,"ĠJob":13554,"hire":13555,"imagine":13556,"drop":13557,"Ġfinancial":13558,"?!âĢĿ":13559,"urday":13560,"Ġmunisip":13561,"urusa":13562,"ĠCer":13563,"ĠRiver":13564,"ĠPinat":13565,"Ġdeg":13566,"Ġchicken":13567,"Loc":13568,"Listahan":13569,"unte":13570,"Ġwrong":13571,"atro":13572,"ĠFernando":13573,"Ġwife":13574,"onomic":13575,"ĠNaturally":13576,"Ġbakuran":13577,"gitnaan":13578,"alantad":13579,"ograd":13580,"Ġnatulog":13581,"ĠMarikina":13582,"ĠXi":13583,"Ġnatamo":13584,"ĠAteneo":13585,"lingon":13586,"Forum":13587,"Ġfight":13588,"teen":13589,"Ġmananalo":13590,"Ġnatatawang":13591,"ĠLaging":13592,"ulala":13593,"Ġwallet":13594,"ukulang":13595,"iyakan":13596,"Ġbast":13597,"amisil":13598,"ager":13599,"IST":13600,"ilikha":13601,"Ġmonasteryo":13602,"Ġhinanap":13603,"ĠGl":13604,"alaban":13605,"Ġscam":13606,"Ġpalayo":13607,"Ġthose":13608,"Uminom":13609,"Ġcent":13610,"Ġmagpakailanman":13611,"Ipaalam":13612,"cla":13613,"UTERTE":13614,"inalang":13615,"ĠDiaz":13616,"Ġcorrup":13617,"Ġluto":13618,"Gen":13619,"ibak":13620,"iled":13621,"ĠJeric":13622,"ulitika":13623,"Sam":13624,"ĠCory":13625,"lohiya":13626,"Ġkabig":13627,"ipsip":13628,"filipino":13629,"ĠPAT":13630,"Ġsimulator":13631,"Ġpekeng":13632,"ĠBenj":13633,"ĠBakla":13634,"aries":13635,"ths":13636,"Ġkategoryang":13637,"ĠAraneta":13638,"Ġnuon":13639,"Ġnabili":13640,"akatuwid":13641,"Ġindustry":13642,"diskubre":13643,"tanto":13644,"war":13645,"ĠCommittee":13646,"Ġnaiiba":13647,"yash":13648,"Ġsiyudad":13649,"Ġwrote":13650,"ĠPagbaba":13651,"amento":13652,"Ġlamesa":13653,"ĠMULA":13654,"Ġpumupunta":13655,"QU":13656,"Ġgumising":13657,"ĠMabait":13658,"âĸº":13659,"ĠTul":13660,"Ġ41":13661,"aasawa":13662,"Ġpinutukan":13663,"Ġ56":13664,"Brown":13665,"Ġunto":13666,"Ġkarera":13667,"Nai":13668,"Old":13669,"kut":13670,"pup":13671,"zel":13672,"Ġmanganak":13673,"ipilit":13674,"Ġadvertising":13675,"Ġangkan":13676,"Ġiwas":13677,"Nand":13678,"Suso":13679,"das":13680,"yagang":13681,"Ġpagsabog":13682,"ĠQuin":13683,"imok":13684,"ĠAllen":13685,"Ġregistration":13686,"Ġfran":13687,"ĠCatherine":13688,"Rus":13689,"Ġnmn":13690,"ĠSEX":13691,"ĠFP":13692,"Tagal":13693,"oper":13694,"ĠAffairs":13695,"ĠCot":13696,"1905":13697,"hihinayang":13698,"meron":13699,"ĠSamantala":13700,"ortable":13701,"Ġpogi":13702,"alusog":13703,"Ġbitcoin":13704,"Ġkompyuter":13705,"oster":13706,"ĠYoung":13707,"Ġtuwid":13708,"Ġuntil":13709,"ĠBalik":13710,"ĠFather":13711,"akinggan":13712,"ĠPano":13713,"Tanging":13714,"Ġgramo":13715,"TC":13716,"Ġaspirin":13717,"Ġusok":13718,"ĠLopez":13719,"Ġmagpasalamat":13720,"ansanan":13721,"lete":13722,"ILG":13723,"Ilan":13724,"Ġantok":13725,"biro":13726,"ĠAcadem":13727,"Ġmenor":13728,"ĠLucky":13729,"Ġagency":13730,"ĠRin":13731,"ihisan":13732,"ĠLarong":13733,"Ġspeech":13734,"Ban":13735,"Ġmahawakan":13736,"lumpu":13737,"oka":13738,"activate":13739,"ebe":13740,"estern":13741,"Ġpapatay":13742,"Ġcomedy":13743,"ĠSout":13744,"inting":13745,"ĠAction":13746,"Ġusaping":13747,"Tr":13748,"ĠSSS":13749,"ĠAngeles":13750,"ijing":13751,"Doon":13752,"ĠCalifornia":13753,"Ġglo":13754,"Ġkadiliman":13755,"OLE":13756,"ĠÂŃ":13757,"mptoms":13758,"Ġorange":13759,"araos":13760,"endar":13761,"ampas":13762,"ucha":13763,"Ġaquarium":13764,"cations":13765,"irur":13766,"rench":13767,"celona":13768,"ĠWindows":13769,"Ġtiket":13770,"OFW":13771,"Ġtalino":13772,"Ġrey":13773,"ilingang":13774,"dessa":13775,"ĠDJ":13776,"yashek":13777,"alampas":13778,"Ġbaon":13779,"eyt":13780,"hens":13781,"Ġpagdaan":13782,"Ġagainst":13783,"Ġmakam":13784,"ĠChiu":13785,"ĠDS":13786,"mana":13787,"edukasyon":13788,"ĠRichards":13789,"ĠJordan":13790,"2011":13791,"Ġtalaan":13792,"irmahan":13793,"ĠSunshine":13794,"Ġpaglalamina":13795,"hood":13796,"ĠVillar":13797,"landiya":13798,"Ġremember":13799,"ĠBID":13800,"ĠFilipinas":13801,"Ġisinasa":13802,"hare":13803,"Ġmalawakang":13804,"ĠMercado":13805,"Ġpagmamay":13806,"ĠTumingin":13807,"ðŁĺĤ":13808,"ĠForm":13809,"face":13810,"ĠBicol":13811,"Ġlibrong":13812,"Ġpersonalidad":13813,"orno":13814,"ĠJack":13815,"ĠKahulugan":13816,"Chinese":13817,"Ġsimbolo":13818,"ĠLaruin":13819,"Nalala":13820,"Ġmapay":13821,"igner":13822,"ĠUSA":13823,"Ġboys":13824,"Pakikipag":13825,"kaiba":13826,"Ġpagtugon":13827,"Ġporsiyento":13828,"RIC":13829,"Ġtuluy":13830,"asyal":13831,"ague":13832,"ĠPressure":13833,"UND":13834,"Ġmasahe":13835,"Ġobs":13836,"Ġopinion":13837,"ĠMartial":13838,"kulubot":13839,"rite":13840,"Ġhintayin":13841,"Ġpinakamas":13842,"uela":13843,"Ġkatutubo":13844,"ĠMalamang":13845,"ĠText":13846,"Ġsna":13847,"Kasaysayan":13848,"Ġnakiki":13849,"Ġkatuwiran":13850,"Ġtape":13851,"ĠSILA":13852,"ĠNAN":13853,"Ġappointment":13854,"Ġinihanda":13855,"iwalayan":13856,"Ġmanirahan":13857,"ĠIloilo":13858,"Ġprost":13859,"Ġfeelings":13860,"Ġnakasakay":13861,"Ġmakasalanan":13862,"Ġdumadaan":13863,"ĠLocal":13864,"saw":13865,"Ġinstitusyon":13866,"Ġemergency":13867,"Ġpagpapakita":13868,"babae":13869,"Ġden":13870,"ORN":13871,"ification":13872,"eselos":13873,"Ġkapani":13874,"ĠIns":13875,"bula":13876,"unor":13877,"ikilala":13878,"yone":13879,"Ġpook":13880,"Ġkumot":13881,"Bilbil":13882,"Ġkatam":13883,"agdagan":13884,"Ġlyashek":13885,"Ġbongga":13886,"Ġmabubuhay":13887,"Ġtumatawag":13888,"APAG":13889,"Ġtumakas":13890,"Ġmagpakita":13891,"ĠJin":13892,"Ġpansinin":13893,"nastics":13894,"Ġje":13895,"Health":13896,"Ġmalayong":13897,"alisay":13898,"Magkano":13899,"Ġginug":13900,"ABAE":13901,"amon":13902,"Ġnagmumula":13903,"Ġhusay":13904,"Ġexpect":13905,"irurhiko":13906,"ĠSO":13907,"Ġoral":13908,"Ġkasuotan":13909,"ĠEdukasyon":13910,"ĠAyos":13911,"entang":13912,"Ġnagtungo":13913,"Aking":13914,"ĠVers":13915,"Ġ46":13916,"aganap":13917,"cture":13918,"Ġfake":13919,"Ġkasalan":13920,"ĠTeen":13921,"Ġ^^":13922,"79":13923,"alimot":13924,"Ġointments":13925,"Ġtouch":13926,"Ġhttps":13927,"Ġple":13928,"Ġpoints":13929,"ĠSusunod":13930,"ĠLovi":13931,"Ġspace":13932,"Ġscars":13933,"Ġkwentuhan":13934,"Ġbaybay":13935,"ahaling":13936,"yet":13937,"Ġaverage":13938,"Ġmaghugas":13939,"ĠBud":13940,"sir":13941,"Ġusual":13942,"Sapagkat":13943,"Sina":13944,"yuan":13945,"Ġrebolusyona":13946,"Tanggalin":13947,"ĠEllen":13948,"Ġnagkikita":13949,"pasalamat":13950,"ĠTondo":13951,"kalde":13952,"Ġmaprotektahan":13953,"jan":13954,"papawid":13955,"Ġbagaman":13956,"Ġapply":13957,"Ġkidney":13958,"agulat":13959,"Ġoportunidad":13960,"struk":13961,",'":13962,"ĠLyash":13963,"Ġdim":13964,"Ġclassroom":13965,"Nagkaroon":13966,"Ġnagbib":13967,"akanta":13968,"CL":13969,"yay":13970,"ĠTUNAY":13971,"antang":13972,"ĠArtikulo":13973,"ĠGayunpaman":13974,"onsil":13975,"Ġdona":13976,"ĠPot":13977,"Ġgod":13978,"ĠTol":13979,"ĠCu":13980,"Ġmakata":13981,"ĠPangang":13982,"Ġ:-)":13983,"Ġtrainer":13984,"ĠWebsayt":13985,"ĠFoot":13986,"ĠLumabas":13987,"bak":13988,"tr":13989,"Ġ....":13990,"Ġhilahin":13991,"78":13992,"Program":13993,"BO":13994,"Ġnanatili":13995,"Ġanung":13996,"ipment":13997,"Ġteritoryo":13998,"zman":13999,"ĠManuel":14000,"Ġpads":14001,"ĠEntry":14002,"Ġped":14003,"ĠNaramdaman":14004,"cue":14005,"anaysay":14006,"Bakla":14007,"ĠNapaka":14008,"Ġipam":14009,"Ġpananagutan":14010,"Ġreality":14011,"Ġpambabae":14012,"ĠEss":14013,"Ġhadlang":14014,"Ġpagibig":14015,"72":14016,"Ġlog":14017,"ĠHinawakan":14018,"ĠIni":14019,"ĠMahusay":14020,"ĠBuntis":14021,"ĠOdessa":14022,"Ġintindihin":14023,"Ġmalabo":14024,"ĠKwentong":14025,"nubay":14026,"Ġatleta":14027,"ĠStep":14028,"essa":14029,"ĠDomingo":14030,"ĠHila":14031,"Ġscholar":14032,"ĠTaylandiya":14033,"ĠTexas":14034,"ĠKulang":14035,"Ġsingsing":14036,"Ġplant":14037,"Ġpabango":14038,"Ġnagmamadali":14039,"gov":14040,"estiyon":14041,"yot":14042,"Ġlanguage":14043,"ĠKanina":14044,"ECT":14045,"Ġpolitical":14046,"you":14047,"ĠTok":14048,"access":14049,"Ġnatuto":14050,"Ġawitin":14051,"atras":14052,"ĠGal":14053,"ĠGary":14054,"ĠYAN":14055,"Ġnahawaan":14056,"iguez":14057,"Ġgraduate":14058,"dress":14059,"ydeo":14060,"habang":14061,"Ġkatauhan":14062,"Che":14063,"unguhan":14064,"ĠKasulatan":14065,"Ġterminal":14066,"iwi":14067,"ĠUson":14068,"Ġlif":14069,"Gu":14070,"ĠOrder":14071,"Ġnagkakamali":14072,"ĠClar":14073,"Ġhinahang":14074,"Ġplatform":14075,"AIN":14076,"ĠMarket":14077,"Ġnagpup":14078,"pen":14079,"orpres":14080,"Ġangel":14081,"esare":14082,"ĠDarna":14083,"ambayan":14084,"Ġminutong":14085,"Ġpinaniniwala":14086,"ahanan":14087,"Ġnabawasan":14088,"ichy":14089,"Ġalp":14090,"umbers":14091,"LOG":14092,"Ġjapan":14093,"asmine":14094,"ĠNapag":14095,"ĠLeni":14096,"ĠAntip":14097,"inyo":14098,"Ġmakakas":14099,"Mahusay":14100,"Ġprotesta":14101,"71":14102,"dec":14103,"Ġyunit":14104,"ĠPUMAYAT":14105,"Ġsulatroniko":14106,"Ġkandila":14107,"ĠUtos":14108,"Ġelement":14109,"Ġke":14110,"alawak":14111,"ĠHanapin":14112,"ĠFilipina":14113,"ĠLacson":14114,"ayusan":14115,"ĠSims":14116,"ĠGalit":14117,"Ġven":14118,"Ġton":14119,"ĠNIN":14120,"ĠDumating":14121,"ĠNic":14122,"Ġnagdala":14123,"Ġdios":14124,"Ġipang":14125,"Ġmagagalit":14126,"alukuyang":14127,"ipiko":14128,"tek":14129,"milyong":14130,"Ġtarugo":14131,"ĠFan":14132,"Ġnandyan":14133,"Ġdah":14134,"uments":14135,"Up":14136,"okya":14137,"Ġkalagitnaan":14138,"Pindutin":14139,"Ġshirt":14140,"131":14141,"Ġmany":14142,"ĠCB":14143,"ateur":14144,"ĠParasite":14145,"Ġsilbi":14146,"ukit":14147,"ĠâĢĭ":14148,"Ġvi":14149,"Ġking":14150,"igilang":14151,"Ġtatakbo":14152,"wet":14153,"Ġboth":14154,"ĠDiego":14155,"Diet":14156,"Pagkawala":14157,"ĠChannel":14158,"Pondo":14159,"ungit":14160,"ĠItim":14161,"Ġnaglabas":14162,"ĠVelasquez":14163,"Ġchallenge":14164,"ĠOmsk":14165,"Ġdisc":14166,"Ġforeign":14167,"sup":14168,"venture":14169,"ĠKusina":14170,"Ġsambayanang":14171,"ĠAlmaty":14172,"ĠMarie":14173,"ĠLumapit":14174,"ULAT":14175,"Ġcasino":14176,"Ġlow":14177,"ayog":14178,"ĠMacapagal":14179,"INAGAWA":14180,"alia":14181,"andom":14182,"dagat":14183,"bout":14184,"Ġhudey":14185,"Ġnemozol":14186,"Ġmaranasan":14187,"Ġnagtit":14188,"Ġpamamaril":14189,"ibigin":14190,"Ġlumul":14191,"Ġmartial":14192,"Ġliterat":14193,"Cute":14194,"atong":14195,"amins":14196,"start":14197,"amahin":14198,"Ġframe":14199,"Ġalready":14200,"Sak":14201,"ision":14202,"ksak":14203,"Simple":14204,"ĠCarm":14205,"Ġkumuk":14206,"Ġeach":14207,"Ġbabasahin":14208,"ereal":14209,"Ġmakakalimutan":14210,"Haha":14211,"Ġpaumanhin":14212,"ĠImm":14213,"ĠCarlos":14214,"Ġlak":14215,"Ġipaliwanag":14216,"Magsanay":14217,"ossing":14218,"Prot":14219,"Ġlamok":14220,"ĠLog":14221,"Ġkik":14222,"Ġarg":14223,"Ġprofessional":14224,"ĠOl":14225,"Ġlalagyan":14226,"ources":14227,"Ġtumitingin":14228,"ĠHi":14229,"Ġnagtapos":14230,"Ġmicro":14231,"Ġpossible":14232,"ilanganin":14233,"Ġtikt":14234,"Ġmyself":14235,"Mus":14236,"atagan":14237,"Ġdemand":14238,"ukid":14239,"alasakit":14240,"Ġnagpatuloy":14241,"AGAN":14242,"USH":14243,"explain":14244,"ĠTALAGA":14245,"Ġnananatiling":14246,"ĠTrump":14247,"ĠDiyeta":14248,"Ġflanks":14249,"iganti":14250,"Biglang":14251,"isement":14252,"YAL":14253,"ĠSAB":14254,"Ġkarga":14255,"Ġmateryales":14256,"antimp":14257,"ĠCha":14258,"Ġmail":14259,"Ĥ¬":14260,"disina":14261,"urog":14262,"itian":14263,"Ġmagsabi":14264,"Ġmagpakasal":14265,"ceptive":14266,"tum":14267,"Ġgumana":14268,"Ġmagagawang":14269,"laks":14270,"Ġguess":14271,"Ġnagtatag":14272,"Ġkinikilala":14273,"Ġnakikilala":14274,"Pagtat":14275,"Ġmamamahayag":14276,"Ġ43":14277,"Ġsupplements":14278,"ĠCab":14279,"ĠLit":14280,"resista":14281,"BANG":14282,"Ġcopy":14283,"Ġlumilip":14284,"eryo":14285,"elling":14286,"Ġnegative":14287,"Mapupuksa":14288,"vement":14289,"artner":14290,"hit":14291,"halimbawa":14292,"ĠAve":14293,"bianize":14294,"Ñĸ":14295,"ĠSUM":14296,"ĠRamdam":14297,"Ġfats":14298,"ĠAlc":14299,"Ġmaghihintay":14300,"Ġswimwear":14301,"Ġkalamangan":14302,"Ġiilan":14303,"Ġsurgeon":14304,"Natawa":14305,"tagalog":14306,"Dati":14307,"ĠTro":14308,"Ġtruck":14309,"Ġtawad":14310,"ĠKumbaga":14311,"Ġalagang":14312,"IAN":14313,"Pagsubok":14314,"ĠJuday":14315,"Ġdrink":14316,"Ġwagas":14317,"Ġmagawang":14318,"ĠQC":14319,"Ġtlga":14320,"Es":14321,"Ġgrow":14322,"Ġpandaigdigang":14323,"Ġ150":14324,"Ġstick":14325,"conazole":14326,"gr":14327,"ulila":14328,"Ġinirerek":14329,"ĠLOVE":14330,"kova":14331,"Ġyatang":14332,"Can":14333,"Ġmapapansin":14334,"KO":14335,"ĠKump":14336,"mangan":14337,"Ġnaki":14338,"ĠMaster":14339,"dim":14340,"ĠSONA":14341,"Ġninuno":14342,"intulad":14343,"Ġmini":14344,"edad":14345,"Ġbatch":14346,"Kayo":14347,"ugbog":14348,"teria":14349,"Ġpahayagang":14350,"yment":14351,"ibayan":14352,"Ġpasukin":14353,"Ġkomplikasyon":14354,"Ġpagbebenta":14355,"enso":14356,"Ġbabayaran":14357,"Ġhands":14358,"ĠAyun":14359,"ĠNutrisyon":14360,"Ġtox":14361,"ĠAMA":14362,"Ġmaterial":14363,"ustans":14364,"Ġcones":14365,"ĠIL":14366,"solina":14367,"ĠRodriguez":14368,"antutin":14369,"Ġmagkikita":14370,"Ġapreta":14371,"ĠOFWs":14372,"rog":14373,"ĠPaglalakbay":14374,"ulation":14375,"Ġscenes":14376,"ĠIran":14377,"ĠZamboanga":14378,"Ġcollagen":14379,"Ġromant":14380,"Ġbenefits":14381,"ĠRet":14382,"Ġkomed":14383,"Ġinihayag":14384,"ilian":14385,"Ġinaalis":14386,"Ġpagpapahayag":14387,"Ġimpeachment":14388,"2014":14389,"Pamamaraan":14390,"Ġmarketing":14391,"Puwede":14392,"shot":14393,"ĠEdu":14394,"Gamitin":14395,"Ġrit":14396,"Ġtangkad":14397,"aho":14398,"iporm":14399,"Ġphys":14400,"Ġkarbon":14401,"Ġsul":14402,"ĠAunor":14403,"ĠBritish":14404,"Pad":14405,"boyfriend":14406,"gograd":14407,"Ġcocktail":14408,"ĠNik":14409,"Ġsuma":14410,"Ġpagdud":14411,"ĠFair":14412,"Ġliteral":14413,"mbuds":14414,"Ġnapakagandang":14415,"Ġpositibo":14416,"Ġpasalamat":14417,"Ġscandal":14418,"ĠMatindi":14419,"Epekto":14420,"Ġporridge":14421,"ĠDatapuwa":14422,"Uy":14423,"ĠMilitar":14424,"ĠGonzaga":14425,"hey":14426,"ĠOs":14427,"Bit":14428,"Ġtumitigil":14429,"alid":14430,"ĠTaguig":14431,"Ġroot":14432,"ENTO":14433,"Ġgayun":14434,"uwerte":14435,"Ġbashers":14436,"Ġdekaris":14437,"Ġhusband":14438,"lakihang":14439,"ligaw":14440,"ĠMasyado":14441,"Ġmabibig":14442,"Ġpinakamabilis":14443,"Napa":14444,"upas":14445,"ĠTrin":14446,"Ġshine":14447,"ucristo":14448,".ï¿½":14449,"awasak":14450,"ĠTrabaho":14451,"ĠTrip":14452,"ĠAgency":14453,"Ġamerikano":14454,"Pagbab":14455,"Ġpagmamahalan":14456,"ĠCasino":14457,"gis":14458,"open":14459,"ĠRig":14460,"eeee":14461,"Ġmakulit":14462,"Ġtomboy":14463,"night":14464,"arga":14465,"Ġlaunch":14466,"Ġbagsak":14467,"Hayaan":14468,"TF":14469,"antok":14470,"ĠCent":14471,"Ġtumira":14472,"dir":14473,"sur":14474,"uki":14475,"Ġbooks":14476,"Ġkontrabida":14477,"ĠAnyway":14478,"ĠPANGINO":14479,"Ġcross":14480,"Ġrelief":14481,"meet":14482,"ĠDantes":14483,"ĠCamarines":14484,"mbudsman":14485,"Ġtooth":14486,"nn":14487,"Ġtwitter":14488,"Ġasya":14489,"Bukol":14490,"Ġicon":14491,"store":14492,"experience":14493,"ĠMaputi":14494,"Ġkasambahay":14495,"Uma":14496,
[...]
