#version: 0.2
Ä ±
a r
e r
Ã ¼
a n
i n
Å Ł
Ġ b
e n
i l
i r
Ä± n
Ä Ł
Ã §
Ġ k
Ġ d
Ġ s
a l
Ġ y
a k
Ġ g
e l
e k
l ar
Ã ¶
Ġ o
Ġ v
e t
a y
a m
Ġ i
Ġ t
u n
d e
a s
o r
l er
d a
a t
â Ģ
Ġv e
i y
e s
Ġ h
i z
i m
o n
Ġb ir
i k
e m
Ġ m
Ġ B
Ġo l
u r
a ÅŁ
Ä± r
e d
u l
Ä °
Ã¼ n
Ä± l
a d
Ġ A
Ġ Ã§
Ä± k
i s
Ã¼ r
a z
e y
âĢ Ļ
Ä± m
Ġ K
a h
a p
Ġ S
a b
Ġ T
i t
u m
Ä± ÅŁ
l e
i ÅŁ
Ġ il
Ġd e
Ä± z
Ġ M
Ġ Ã¶
l i
Ġ p
o l
a ÄŁ
Ġi Ã§
o k
s t
Ġ D
Ġ f
a c
Ä±n da
Ã¼ z
d an
Ġ al
Ġ Ä°
l Ä±
l an
Ġ E
Ġg Ã¶
d i
e v
Ġ ÅŁ
Ġ H
ĠiÃ§ in
Ġ Ã
in i
Ġy ap
Ġ n
d u
Ġ Y
Ġ G
e c
es i
in e
l a
Ġ 1
lar Ä±n
d en
Ġ ar
Ġ 2
u z
as Ä±
lar Ä±
u y
Ġb u
in de
. .
ler i
Ã¼ k
iy or
Ä± y
il er
Ġd a
t i
Ã¼ m
a Ã§
Ä± ÄŁ
a f
el er
Ġil e
al ar
Ġ P
Ġ z
y a
iy e
m ak
Ġ ed
Ġ O
Ġ et
Ä±n Ä±
e ÄŁ
Ġb aÅŁ
Ã¼ l
u t
o ÄŁ
Ġ r
l ik
e z
ĠgÃ¶ r
u ÅŁ
d ir
Ä± s
in iz
a v
Ġg el
il ir
Ġ (
Ġ an
Ġ âĢ
m a
e Ã§
Ġs on
u s
Ġv er
e b
u k
Ã¼ y
l am
il m
in in
c e
Ġ F
t ir
Ġg er
Ġk ar
ĠÃ¶ n
Ã¶ n
r o
Ġ c
e ÅŁ
Ġol du
Ġ C
d Ä±r
lar ak
Å ŀ
i b
Ġk on
Ġ en
Ä±n a
Ã¼ ÅŁ
Ġ in
i p
t a
l en
Ġb il
Ġo larak
o m
Ã¼r k
t e
ĠÃ§ ok
Ġt ar
Ġ ay
ÄŁ i
ac ak
ay a
Ġ2 0
t Ä±r
m ek
ah a
an Ä±
Ä±y or
Ġde ÄŁ
Ä±n dan
Ġb ul
Ġol an
Ġy er
Ġol m
l Ä±k
Ġi ÅŁ
Ġ N
âĢ Ŀ
en i
ed i
im iz
d Ä±
Ġy Ä±l
Ġk ad
t an
i h
Ġg Ã¼n
un u
l u
ĠÃ ĩ
m an
o p
Ġ -
Ġ R
ib i
s e
l em
Ġk ul
Ġd aha
Ġi st
Ġk al
ar k
is i
Ġ ad
e de
Ã¶ y
Ġh er
ay Ä±
y on
Ã¶ r
r a
ĠB u
t Ä±
Ä±ÄŁ Ä±
Ġv ar
ĠâĢ ľ
Ġ aÃ§
am an
Ġ V
il i
ĠT Ã¼rk
Ġo r
Ġkul lan
al Ä±ÅŁ
s an
Ġoldu ÄŁ
ec ek
i c
k i
' d
Ġ 3
ak i
e h
Ġs Ã¼r
Ġg ibi
Ġy aÅŁ
Ġk ur
ĠÃ ĸ
m Ä±ÅŁ
Ä±n Ä±n
am a
.. .
Ġg eÃ§
ek i
in den
Ġ uy
0 0
en d
Ġ20 1
o s
Ä±m Ä±z
ĠÃ§ alÄ±ÅŁ
a da
ĠÃ§ Ä±k
er s
ab ilir
Ġy ar
er i
c a
Ġ Åŀ
Ġ L
m e
el i
ÄŁ r
m et
Ġb el
is t
ed en
er k
g i
il en
Ġkad ar
al Ä±
ay an
s a
Ġ Ã¼z
Ä±n Ä±z
l Ã¼
ĠA n
r u
Ġbul un
c Ä±
Ġo n
Ġger ek
m asÄ±
o y
e p
Ġz aman
o t
ek t
ey e
l et
as Ä±nda
l aÅŁ
ĠÃ¶ z
Ġ el
un da
Ġs aÄŁ
iy et
e f
Ġ ek
m iÅŁ
ĠÃ¼z er
Ġyap Ä±l
Ã ľ
le ÅŁ
t er
aÅŁ k
Ġo y
Ã¶ z
Ġy az
Ã¼y Ã¼k
Ġ U
n in
Ã¶ l
y i
Ġs or
a de
Ġt ek
Ã¼ t
iy le
an s
o c
Ġp ro
lÄ± ÄŁ
i d
Ġde v
i f
ar t
ĠÃ ľ
Ġs ah
Ġd Ã¼ÅŁ
t ur
Ġ "
ler in
Ġd ur
d aki
Ġk at
Ġkar ÅŁ
lar a
uy or
Ġh al
Ġy Ã¶n
ed ir
Ġ ak
es t
Ġh ay
Ġson ra
Ã¼ c
Ġ 4
Ġ l
Ġtar af
i v
ĠA l
Ġd oÄŁ
Ġb en
im i
Ġ Ã¼r
Ġs iz
ar ak
Ġt op
ĠA r
Ã ¢
s iniz
Ġ 5
i Ã§
un un
k en
Ġy an
Ġs ay
Ġn e
Ã¼ Ã§
c ak
aÄŁ Ä±
Ġuy g
Ġy eni
ĠTÃ¼rk iye
larÄ±n Ä±
ĠÅŁ ek
ab er
Ġi se
Ġd Ã¶n
l ad
m en
ar a
E R
Ġy ak
A N
Ġs ev
m alar
ec eÄŁ
Ġk ap
s un
r am
ĠÃ¶ ÄŁr
A R
Ġ ev
ler ini
er ek
Ġal an
o d
Ġh ak
d eki
Ġy ol
ĠÃ¶z el
Ã¼ s
Ġger Ã§
l ay
ĠB ir
ar Ä±
Ġk ay
Ġk iÅŁ
ĠdeÄŁ il
t ad
Ġb Ã¼yÃ¼k
l at
Ġin san
Ġ at
k in
l ey
Ġk end
Ä±s Ä±
d Ã¼r
es inde
Ġ uz
iy at
s el
Ġil k
Ã¼z el
Ġt ak
Ġb iz
a at
as yon
Ġi yi
Ġil g
c u
eler i
ĠÃ¶n em
iz met
t r
Ġk i
Ġbel ir
il di
el ik
c i
Ġd en
ler e
âĢ ¦
Ġg ir
ĠÅŁ ey
lar da
Ġg en
Ġh em
Ġy Ã¼z
ĠaÃ§ Ä±k
ĠB aÅŁk
Ġo k
or um
un a
em iz
ÄŁ er
d Ä±m
Ġor t
Ã ĩ
Ġb ak
2 0
m as
st er
r an
n Ä±n
u Ã§
t en
Ġtaraf Ä±ndan
Ġtar ih
ar et
Ġd Ã¼z
Ġy ok
iÅŁ tir
Ġs Ã¶y
Ġf ark
Ġve ya
b ul
Ġdur um
Ġ eÄŁ
u h
Ġ I
ÄŁ u
p or
et im
Ġb Ã¶l
ac aÄŁ
Ġ Z
ĠgerÃ§ ek
Ã ĸ
al Ä±k
tad Ä±r
Ä±l an
t Ä±k
m aya
Ġ es
Ġt am
ĠÅŁek il
Ġh ar
Ġi z
iler i
ay Ä±n
t ik
ĠE r
Ä±y la
o z
Ġs an
li ÄŁi
iyor um
Ä±l Ä±
Ġ as
b ir
ĠgÃ¶r e
Ġ 6
eb ilir
Ġh izmet
ab il
an Ä±n
it im
st an
Ġ ama
ĠolduÄŁ u
ad an
ol o
Ġs eÃ§
Ġd Ã¼n
ĠÄ° n
Ġdev am
Ġy Ã¼k
en in
et ir
ĠgÃ¶ ster
oc uk
Ġ a
r af
o b
Ä±m Ä±
Ġ ul
Ġd er
l ah
Ġsah ip
Ġm il
B u
Ġy a
Ġg Ã¼zel
r e
Ġb aÄŁ
v en
erk ez
ĠÃ§ ek
ÄŁ ini
Ġ1 9
u p
Ġt Ã¼m
r Ä±
Ġ :
d ur
n Ä±
uÅŁ tur
ey i
ĠÅŁekil de
Ġs er
stan bul
ĠA y
Ġg etir
en iz
Ġi h
Ġbil g
ĠK ur
Ġ Ã¼l
Ġf az
lÄ±ÄŁ Ä±
Ġy et
ist em
Ġ #
Ġet ti
ĠÃ¶ÄŁr en
Ġn eden
Ġk az
Ġk en
o ÅŁ
Ã¼ st
em ek
Ġilg ili
ĠB el
h an
t ar
r et
ĠdÃ¼ÅŁ Ã¼n
ĠÃ¶nem li
Ġ 7
olo j
m esi
ĠgÃ¶ z
Ġhay at
ĠÄ° l
eh ir
ul u
Ġs Ä±r
as Ä±l
Ġuyg ul
Ġs un
Ġp ar
Ġal t
Ġh as
t Ã¼r
Ġd ol
ĠolduÄŁ unu
Ġol ur
Ġt er
Ġ az
i de
Ã§ e
m am
Ã¼ ven
Ġd uy
mak tadÄ±r
ĠÃ¶n ce
Ġb in
Ġ ede
us u
leÅŁ tir
s iz
Ã¶y le
ik a
az Ä±r
Ġ am
d Ä±ÄŁÄ±
s i
ler de
i ÄŁer
larÄ±n Ä±n
il ik
ĠÃ¼l k
ĠdÃ¼z en
d Ä±ÄŁ
alar Ä±
g Ã¼n
larÄ±n a
u b
iÅŁ im
az Ä±
Ġ1 0
o g
Ġi s
Ġoy un
Ġ _
d er
n e
d Ã¼
Ġk ol
y e
es ine
ĠbaÅŁ k
Ġs at
Ġbir lik
Ġar asÄ±nda
s ek
Ġd iye
Ġt ut
ĠÃĸ z
Ġb ek
Ä± p
it esi
ĠÃ¼r Ã¼n
Ġi ki
A n
Ġs Ã¶z
g ram
es in
20 1
Ġt an
Ġ 8
ĠdeÄŁ er
ĠA k
Ġh iÃ§
ĠE n
Ġfaz la
ru p
iv ers
ĠiÃ§in de
Ġt em
E N
Ġz or
ĠG en
f a
as ar
es ini
Ġs aat
Ġar k
Ġ aÄŁ
abilir siniz
Ã§ a
Ã¼n de
lik le
Ġkon uÅŁ
Ġol mak
Ã¼y or
ĠiÃ§ er
Ġh azÄ±r
et i
ler ine
i g
ade ce
Ġk Ä±s
mek t
Ġhak k
y al
Ġgel en
t u
Ġal Ä±n
Ġol acak
len dir
al an
lam a
t Ä±ÄŁÄ±
Ġs istem
ey en
lar dan
Ġ 0
lar Ä±nda
iy on
Ġo t
ĠB il
s Ä±z
ĠK ar
ĠÄ° stanbul
di ÄŁi
Ã¼ p
Ġ W
eÄŁ i
Ġb oy
Ġt aÅŁ
t Ã¼
c el
Ġbirlik te
ĠB ak
Ġet k
l edi
m az
A L
Ġd edi
Ġh at
t al
n un
ĠâĢ ĵ
Ġb as
Ä±n daki
e g
Ã¼n Ã¼
iyor uz
ler inin
Ä± cÄ±
an a
Ä° N
Ġed en
Ġb ur
m eye
Ġk im
Ġkon u
Ġkaz an
Ġ aÅŁ
Ġh af
ĠP ro
Ġul aÅŁ
ĠÃ¶ l
Ġi m
Ġd il
ĠÃ§ ocuk
Ġ /
Ġd Ä±ÅŁ
or m
E T
Ġd est
c om
Ġm es
lad Ä±
Ġay nÄ±
li ÄŁ
ĠÄ° ÅŁ
ĠK on
mekt edir
Ġd iÄŁer
A K
Ġd ik
n et
Ġ ,
Ġt es
ĠBaÅŁk anÄ±
Ġk ab
Ġ J
Ä ŀ
ĠdÃ¶n em
k Ã¼
ĠM Ã¼
Ġm ut
ic i
Ġk Ã¶
Ä±l Ä±k
Ġt el
ac Ä±
Ġfark lÄ±
h ur
ĠBel ed
k at
Ġs it
ĠgÃ¶r Ã¼n
lar la
Ġg Ã¼ven
Ġm od
Ġ 9
Ġ u
ĠÃľ n
Ġk it
t Ä±ÄŁ
ah at
ĠâĢ ĺ
g il
b et
ĠyapÄ±l an
ĠÄ° s
d ik
u v
Ġs adece
Ġ eÅŁ
Ġi f
Ġn asÄ±l
lar Ä±mÄ±z
Ġs en
ler inde
Ġtek n
Ġkat Ä±l
ĠO r
Ä±z Ä±
Ġkur ul
Ġ '
Ġken di
Ġf ilm
y la
d ar
ada ÅŁ
ĠC um
am p
l uk
Ġ201 8
Ã¼t Ã¼n
Ġy at
Ġih t
ĠA v
is inde
ĠbÃ¶l g
Ġtam am
Ġ Ã¼st
o v
Ġan lam
ĠkarÅŁ Ä±
I N
Ġg it
l ak
n a
Ġm i
aÅŁ tÄ±r
Ġpro j
Ġyar dÄ±m
un uz
Ġ Â
E L
Ġed er
ĠÃ¶n c
os yal
ĠÃ¶ r
ĠÃ§Ä±k ar
ĠdoÄŁ ru
k et
o st
ilm esi
as Ä±na
Ġk or
ekt Ã¶r
en k
iler in
ol u
ec e
in g
Ġbir i
di ÄŁ
ĠE k
Ġt Ã¼r
Ġh av
av aÅŁ
Ġbulun an
ay laÅŁ
Ġs al
ÄŁ Ã¼
iy as
E S
ĠeÄŁ itim
iniz i
Ġs Ä±k
l ayan
Ġk r
A T
ler den
an k
ĠgÃ¶r ev
Ġet m
Ġ20 0
Ġk an
Ġoldu k
ab a
oÄŁ lu
Ä° R
Ġ1 5
ĠS on
Ä° L
ĠyaÅŁ am
m i
d Ä±k
Ġb it
us unda
ok t
Ġbil e
ef on
ad Ä±ÄŁ
em e
ĠdÃ¼n y
Ġm Ã¼
at Ä±
Ġdik kat
Ġt eÅŁ
s am
ĠyÄ±l Ä±nda
ad Ä±
as Ä±nÄ±
r i
l Ã¼k
ĠG Ã¼n
Ġkar ar
Ä±r ak
Ġuyg un
Ġb un
T Ã¼rk
k an
r ak
ek et
ĠÃľn ivers
el im
Ġolm asÄ±
Ġm ak
ĠdeÄŁ iÅŁ
mÄ±ÅŁ tÄ±r
ĠT ek
ĠyÃ¼k sek
ĠÃ§alÄ±ÅŁ malar
ĠGen el
Ġf iyat
ĠS an
Ġt ab
Ġdest ek
Ġ em
Ġan lat
Ġm al
Ġil iÅŁ
Ã¼m Ã¼z
Ġg id
m er
az ar
ĠgerÃ§ek leÅŁtir
Ã¼n e
g el
ĠgÃ¶ n
Ġark adaÅŁ
Ġh aber
ĠiÅŁ lem
âĢ ľ
il ecek
ĠbaÅŁ ar
Ġhakk Ä±nda
Ġg Ã¼Ã§
iy aret
Ġda v
ler imiz
ĠB ur
ĠM il
ek k
m uÅŁ
ler inden
Ġed iyor
Ġkad Ä±n
Ġpro gram
a j
len en
ĠÃ¼zer e
en t
ĠB aÅŁ
Ġoy n
um uz
ĠH aber
g e
an t
B ir
ĠÃ§ ev
Ġb Ä±rak
Ġb ah
Ġar t
Ġs u
Ġuz un
s in
A Y
Ã§ ok
E K
oÄŁ raf
es inin
lan an
am az
ler le
Ġm erkez
Ġbelir t
Ġf ir
Ġh Ä±z
Ġbil gi
b ol
l um
Ġi k
or t
ĠgeÃ§ ir
ĠkarÅŁ Ä±l
ed ik
b ar
ĠAl lah
g an
Ġkullan Ä±l
Ä±r Ä±m
s al
Ġsor un
Ġt asar
Ġiht iy
Ġy Ã¼r
n de
Ġgen el
on om
Ã¼l tÃ¼r
Ġm ad
is tan
ĠE ÄŁ
A S
rÄ± ca
' t
ĠA d
Ġk aÃ§
du ÄŁu
ĠÃ¼r et
larÄ±n dan
e da
t Ä±m
at an
ĠMÃ¼ dÃ¼r
ĠB en
Ã¼n kÃ¼
Ġh ep
Ġd in
Ġol uÅŁtur
v er
r es
ĠkiÅŁ i
Ġson r
Ġc an
k Ä±
Ġol uÅŁ
1 9
m ayÄ±
Ġp aylaÅŁ
ak at
ĠsaÄŁ lÄ±k
ĠP ar
al i
ur t
Ġ Ã¼y
ĠÃ¼zer ine
Ġet mek
Ġm Ä±
ĠÃ¼zer inde
m ir
lÄ± y
ĠY Ä±l
r ar
Ġs Ä±n
Ã§ i
ĠÃ§ Ã¶z
ĠÃ¶ÄŁren c
Ġkay n
ĠE l
A M
ĠbaÅŁk a
r ik
k ara
b er
lem e
s iyon
ĠA t
Ġ er
u cu
Ġs eb
iz e
at ik
oÄŁ an
Ġm uh
Ġort aya
ĠÃľnivers itesi
ĠD ev
Ġed ilm
Ġd em
Ġz iyaret
ĠY ar
al e
ĠM erkez
Ġ Ã¼n
Ġkol ay
Ġtel efon
. âĢĿ
Ġr es
ĠT ar
ĠgÃ¶r Ã¼ÅŁ
Ã¼Ã§ Ã¼k
Ã ®
Ġol sun
ĠÅŁ u
B D
ĠbÃ¶l Ã¼m
a g
ĠE v
Ġb azÄ±
ĠBaÅŁk an
l im
Ġy ayÄ±n
ĠY ap
Ġk oy
Ġ1 2
1 0
Ä±yor um
c ek
ĠyÃ¶n et
l as
rup a
lam ak
it e
Ġm aÃ§
ĠD Ã¼n
ekk Ã¼r
d um
Ġ erk
ĠT L
c ih
s uz
d Ä±ndan
Ġp lan
ey in
Ġkab ul
ur u
ĠCum hur
az et
Ġyak Ä±n
m in
g in
ir ket
u st
il e
Ġhar eket
ter net
Ġben im
Ġm et
im di
ĠD r
Ġb Ã¼tÃ¼n
Ġgel iÅŁ
Ġb Ã¶yle
san Ä±z
ot oÄŁraf
Ġyak laÅŁ
Ġ %
Ġif ade
eler in
edi ÄŁ
is ini
Ġr ahat
ĠH er
Ġ un
Ġh an
da ÅŁ
ede f
Ġuygul am
g ul
U R
ti f
Ġmil yon
) ,
Ġgel di
iz i
ti ÄŁ
Ä° M
b ilir
Ġol abilir
eÅŁ it
E M
ĠÄ° Ã§
er n
m ez
ĠgÃ¼n Ã¼
p er
Ġyap an
ar asÄ±
Ġkon usunda
ad Ä±ÄŁÄ±
Ġm ev
Ġ Ã¼Ã§
ĠM ah
v an
m ay
Ġk ez
Ġt ur
ĠB Ã¼yÃ¼k
u c
ĠE s
Ġy ay
em m
il iyor
eda v
a al
oloj i
du ÄŁ
Ġbil in
Ä±l dÄ±
Ġter cih
ul uk
ĠA s
Ġan cak
Ġ w
Ġt at
Ä° K
el e
h e
ĠÂ »
d im
Ġk Ä±z
ĠaÃ§Ä±k lam
Ã¶ k
Ġyer ine
Ġvar dÄ±r
ĠO y
ak k
Ġay r
ĠY Ã¶n
un ca
Ġs Ä±
Ġbir Ã§ok
Ä±m a
O R
ob il
Ġed ilen
tr ol
Ġin dir
ay fa
Ġbu gÃ¼n
ĠgÃ¶n der
Ġp ol
Ġd iy
sun uz
ĠÄ° z
A D
is ine
ĠS er
iy esi
Ġk om
Ġis im
ay Ä±s
ĠEÄŁ itim
ĠiÃ§er isinde
oÄŁ u
Ġar dÄ±ndan
L AR
um u
ĠB Ã¶l
Ġk es
ti v
ĠdÃ¼n ya
n da
s ik
t em
Ġ1 8
mas Ä±nÄ±
g Ä±
ekt edir
o w
Ġm an
m eler
Ġmod el
ac aÄŁÄ±
ĠyÃ¼z de
Ġar tÄ±k
Ġyap mak
Ġt av
er j
Ġsiz e
Ġy en
un dan
1 2
Ġm er
Ġh is
ĠH as
Ã¼c ret
O N
er li
miÅŁ tir
Ġt al
ĠAn cak
an an
Ã¼ b
Ġs ektÃ¶r
Ä° Y
Ġgel iÅŁtir
Ä±yor uz
ek li
TÃ¼rk iye
iler e
ley en
ĠÃ§ eÅŁit
ĠÃĸz el
Ġher k
Ġ Ã¼cret
Ġy as
Ġyap tÄ±ÄŁÄ±
us lar
Ä±y a
Ġh edef
ab ilm
Ä±ÅŁ Ä±
Ġzaman da
Ġkap sam
Ġm ey
L I
eceÄŁ i
Ġk am
Ġs es
ĠK an
in deki
ĠO l
L ER
5 0
ĠAv rupa
Ġb er
Ġy orum
Ä±ÅŁ tÄ±r
ab Ä±
Ġson uÃ§
et ler
Ġy ine
Ġk av
ĠBak an
Ġhaf ta
u d
Ġt ah
Ġ .
lÄ±y or
ĠN e
ð Ł
Ġs osyal
Ġ201 7
as Ä±nÄ±n
Ġb ey
Ġ uÃ§
Ġk Ä±r
Ġad am
ĠteÅŁ ekkÃ¼r
acak tÄ±r
Ġy anÄ±
Ġar aÃ§
d oÄŁan
Ġm Ã¼ÅŁ
m adan
ĠT ur
Ġr enk
ed im
Ġd ak
Ġm ah
ĠY eni
ĠH al
ĠgeÃ§ en
Ġp ek
k Ã¼n
al t
Ġk il
c h
ĠO n
Ġc ev
Ġd ah
Ġgen Ã§
t im
Ä±r s
Ġgel ir
Ġhem en
Ġkit ap
Ã§ Ä±
Ġolduk Ã§a
ĠB iz
kin ci
ĠK ad
Ġb unu
oÄŁ un
b u
Ã¼c ad
ĠT op
ebilir siniz
g u
Ġtop lan
Ġok ul
ĠkÄ±s a
ĠV E
r en
Ġol uyor
Ġin an
ĠAn kara
Ġh es
s il
mas Ä±na
ĠO k
Ġi d
Ġ1 1
o f
ĠsÃ¶y ledi
on u
t in
Ġet kin
Ġbir az
Ġar aÅŁtÄ±r
al l
Ġm Ã¼z
Ġb ar
d et
. "
Ġi ti
Ġm ark
o lar
Ġol ay
iy i
ĠÅŁ irket
Ġyar at
al at
Ġ3 0
Ġ li
Ġad et
Ġgerek en
Ġm em
Ġdev let
an i
f er
Ġkon trol
ekt en
iniz e
d Ã¼l
A l
n ek
Ġtop lum
ar i
Ġben z
ĠA BD
Ġtak Ä±m
Ġo d
ay et
Ä° T
Ġm Ã¼m
ĠseÃ§ im
Ġ1 4
ĠA ma
ĠG el
Ã¼n Ã¼n
o h
H P
ĠK as
b aÅŁk
Ġb Ã¼y
00 0
d in
Ġm u
Ä±l Ä±r
ĠsÃ¼r e
Ġtak ip
ĠÅŁ eh
Ġy aÄŁ
Ġf otoÄŁraf
A Åŀ
Ä° S
lem ek
Ġm as
Ä° Z
Ġhal k
Ġb ilm
man Ä±n
Ġs ab
Ġver en
ĠK al
du k
Ġbiz im
Ġ1 6
ĠO t
Ġ ac
Ġiti bar
Ġhas t
3 0
ĠE y
ĠH ay
ĠhiÃ§ bir
ĠdeÄŁer lendir
Ġil et
Ġkur um
b ak
Ġk Ã¼Ã§Ã¼k
Ġk ut
Ġd ers
Ġek onom
et men
Ġin cel
lan dÄ±
D E
ĠÃ§alÄ±ÅŁ an
Ġsan at
ĠbaÅŁ ladÄ±
Ġv atan
lÃ¼ ÄŁÃ¼
imiz in
Ġv ur
Ġp ara
ĠV e
ab an
Ġger i
Ġon un
Ä± t
f or
dan a
ĠÃĸ n
ĠbaÅŁ v
Ġal mak
v e
Ġb ana
Ã¼s Ã¼
ĠdÃ¶n Ã¼ÅŁ
y le
ÅŁ am
Ġs por
Ġa it
am ak
m alÄ±
U L
ĠBeled iye
ĠB ey
n i
ilm iÅŁ
ĠmÃ¼m kÃ¼n
Ġes ki
uslar arasÄ±
l Ã¼l
Ġber aber
al Ä±m
Ġs ey
p r
abil ecek
u ÄŁ
Ġol up
Ġg ez
uy la
Ġalt Ä±nda
s man
Ġil Ã§
han gi
m em
Ġ av
en ek
Ã¼m Ã¼
ti ÄŁi
ey im
af a
Ä±l masÄ±
ĠgÃ¶r Ã¼l
Ġp er
k er
ĠTek n
Ġt edav
U N
is inin
Ġkal it
acaÄŁ Ä±nÄ±
um lu
ĠS aÄŁ
v et
ĠÃĸ ÄŁr
ÅŁ ehir
ĠK ay
iz m
an y
Ġs avaÅŁ
imiz i
Ġt emiz
ĠÃ¶ de
Ġkayn ak
in ce
Ġm Ã¼cad
d Ä±n
Ġ1 3
b e
iyet i
lan dÄ±r
im e
ĠbaÄŁ lÄ±
Ġtek rar
g Ä±n
B en
Ã¼k Ã¼m
de ÅŁ
erk en
ĠDÃ¼n ya
er Ã§
Ä±l mÄ±ÅŁ
r ans
ĠK ul
Ġsor u
Ġuz ak
ĠÃ¶zel lik
ĠÃ¼zer inden
b r
ĠÄ°n gil
imiz e
az i
at en
Ġ e
Ġz ar
A r
Ä±nÄ± f
Ġ [
Ġ1 7
Ġn er
Ä° n
ĠsÄ±n Ä±r
Ġon u
ĠEr doÄŁan
ĠaÄŁ Ä±r
Ġs in
Ġin ternet
Ġf ay
c an
Ġk ah
ef er
aal iyet
dÄ±ÄŁ Ä±nÄ±
uy u
Ä±s Ä±nda
Ġy emek
l ek
ĠU y
Ġa il
Ã¼l t
l Ä±nda
ĠD aha
Ġan laÅŁ
r on
Ġbir bir
Ġb unun
ez on
c Ã¼
et ay
Ġen gel
ĠB unun
Ġed ildi
S on
Ġk esin
ic aret
Ġt Ã¼k
ĠH az
Ġal Ä±ÅŁ
Ġ2 4
Ġd iz
Ġist em
ĠÅŁ ehir
Ġd ir
Ġs iyas
eler e
ĠA K
ad Ä±k
Ġ201 6
Ġr ek
ta j
ide o
m Ã¼ÅŁ
larÄ± yla
ĠÅŀ ub
eh met
Ġel de
ĠÄ°l k
Ġs ak
as t
is yon
Ġerk ek
Ä±z a
Ġsiz in
Ãľ R
ĠBeled iyesi
ĠhÄ±z lÄ±
d ay
ĠB ay
Ġn okt
ec i
ĠM ar
Ġyat Ä±rÄ±m
Ġk oÅŁ
ĠiliÅŁ k
Ġo tur
Ġol sa
ĠMerkez i
iler ine
Ġed in
ĠK o
iler ini
ĠdeÄŁil dir
if t
ĠdeÄŁiÅŁ ik
ut bol
Ġsay f
eler ini
es el
Ġk Ã¼ltÃ¼r
t aÅŁ
ĠÃ¶zel likle
Ġk ir
ĠdeÄŁ iÅŁtir
Ġver di
Ġm ed
ul an
alar Ä±n
tal ya
Ġboy unca
asyon u
ĠÃ§Ä±k an
Ġvatan daÅŁ
Ġhis s
is ay
te p
I R
l k
l o
Ġ2 5
Ġgerek ir
or u
c ut
Ġist eyen
ĠDev let
ĠA h
Ġgen iÅŁ
ĠU z
Ã¼ f
dÃ¼ ÄŁ
ĠÃ§ aÄŁ
Ġneden iyle
ĠÃ§ev r
Ġbil dir
ĠyÃ¶n elik
Ġf aaliyet
malar Ä±
im de
Ġk Ä±y
Ġher hangi
Ġk ayÄ±
m eyi
Ġr aÄŁ
v is
ark en
ĠM art
Ġ ...
ĠÃĩ Ã¼nkÃ¼
Ġsat Ä±ÅŁ
Ġt anÄ±
ad olu
es inden
ĠA mer
el en
ĠH av
ĠG Ã¶r
ĠD em
D A
ĠAy rÄ±ca
ĠH ar
Ġihtiy aÃ§
E n
u an
Ġolm ayan
alar da
ĠE m
eb ek
Ã¼ ler
is an
1 1
ĠyardÄ±m cÄ±
ĠPar ti
acaÄŁ Ä±z
eceÄŁ ini
al et
b a
Ġin ÅŁ
Ġtarih i
Ġkon usu
ir an
Ġek ip
on e
Ġs il
Ġist er
Ġyan i
en er
Ġh ey
m eden
ĠS por
Ġtem el
Ġtarih inde
Ġgel iyor
s Ä±n
Ġbiz e
Ġor an
Ġda ir
Ġmil let
Ġb ay
Ġyeni den
ĠE t
it ik
Ġsah ibi
Ġc ez
ĠS ur
s u
ĠÃ§alÄ±ÅŁ ma
Ġsal dÄ±r
ĠsÄ±r a
eÄŁ in
ĠU l
Ġ1 00
A B
ĠraÄŁ men
ĠT r
emm uz
1 5
ĠA li
ĠAr alÄ±k
Ġ ?
A H
Ġc ih
ĠÃ§Ã¶z Ã¼m
em i
Ġun ut
eler de
l uluk
ĠyaklaÅŁ Ä±k
lar dÄ±r
Ġgel ecek
ler iyle
ĠR us
ĠK om
s Ä±nÄ±z
Â Ń
Ġid di
Ġist iyor
Ġ >
E D
Ġbur ada
Ġsay esinde
Ã¼n den
Ġort am
Ġi kinci
Ġort ak
isay ar
ĠM uh
Ġt Ä±k
Ġkal dÄ±r
i j
) .
ĠKas Ä±m
I M
Ġad ay
ĠgerÃ§ek leÅŁ
c Ä±sÄ±
Ġal dÄ±
n Ä±z
Ġpar Ã§
ĠA b
Ġdol ayÄ±
ĠyÃ¶n tem
em in
Ġs ayÄ±
Ġg rup
Ġyaz Ä±
Ġgir iÅŁ
w w
Ġs ar
Ġim z
l is
ĠgÃ¼n de
b ah
A Z
lÃ¼ ÄŁ
in ci
Ġ: )
Ä±s Ä±ndan
Ä±r ken
Ġor gan
Ġan da
Ġkor k
g isi
Ġm is
ĠO sman
Ġm ik
Ġede cek
Ġolm uÅŁ
A P
g un
i ÄŁ
ĠT emmuz
Ġu ÄŁr
l iyor
en c
adÄ±ÄŁ Ä±nÄ±
Ġyap tÄ±
Ġen erj
ĠaÃ§ Ä±l
ĠPro f
Ġg ec
Ġot om
Ġkapsam Ä±nda
ĠÃ§eÅŁit li
Ġgerek li
ĠdÄ±ÅŁ Ä±nda
ĠyÃ¼k sel
Ġi y
Ġs ok
al nÄ±z
Ġhal e
Ãľ N
âĢ ĺ
Ġm ek
ed iye
ĠyÃ¶n etim
ĠM ehmet
k il
Ġo f
Ġb oz
ĠH at
Ġmev cut
y ar
ĠsÃ¼r dÃ¼r
eg or
ĠÃ¶n er
as a
ĠR es
Ġy oÄŁun
Ġay rÄ±
ĠAl man
ĠEy lÃ¼l
Ä±nÄ±z Ä±
es iyle
ĠEk im
Ġad Ä±m
Ġb eni
ĠÅŁ Ã¶yle
an lar
Ġf ik
r im
Ġk amp
Ġtasar Ä±m
ĠK at
Ã¶r t
Ġs aÃ§
len di
um a
ust afa
m al
Ġb oÅŁ
Ġot el
in d
Ġtop lam
Ġar as
ĠÃĩ ok
Ġv ak
ĠkarÅŁÄ±l aÅŁ
ĠaÅŁ aÄŁÄ±
ĠF ilm
Ġcev ap
Ġkullan Ä±cÄ±
Ġoyun cu
ĠtÃ¼r lÃ¼
ay i
Ġ201 5
ĠÅŁek l
Ġherk es
ĠT ak
Ġtekn ik
Ġkonu da
ĠN o
uk uk
ĠÃ§ iz
Ġt eh
am Ä±z
ĠKur ulu
Ġgerek iyor
Ġed erek
ok r
1 8
Ġl is
Ä±ÅŁ Ä±k
ĠÃ¶l Ã§
Ġs av
l Ã¼m
Ġbak Ä±m
Ġp azar
Ġdah il
Ġd etay
Ġel ekt
k aÃ§
ĠOy un
Ġyar Ä±ÅŁ
Ã¼c Ã¼
ĠM es
us al
Ġtekn oloj
A y
er e
l og
b i
Ġyar ar
Ġmad de
Ġc in
Ġ5 0
Ġg azet
ES Ä°
eceÄŁ iniz
okt or
ĠY aÅŁ
z em
Ġg iy
Ġd ok
an lÄ±
ad de
ĠÃ¶r g
201 8
Ġolacak tÄ±r
ers on
ĠD oÄŁ
Ġh Ã¼kÃ¼m
ĠÃ§ ar
Ġam ac
o ok
Ġd emek
Ġkar deÅŁ
H er
edi ÄŁi
et in
ĠS ayfa
ĠbaÅŁar Ä±lÄ±
Ġm ez
ĠmÃ¼ÅŁ ter
Ġbilg iler
ĠdÃ¼zen lenen
Ġ le
is k
ĠÃ¼r etim
Ġseb ep
Ġ ey
ik ay
an Ä±ÅŁ
l ilik
ĠÄ°z mir
i i
Ġhat Ä±r
2 00
Ġr ak
Ġtan Ä±m
ĠAn adolu
em al
Ġbel li
it ap
Ġb ab
ark Ä±
ti ÄŁini
t ay
Ġ ab
t eri
Ġilet iÅŁim
larÄ±n Ä±z
ĠM ayÄ±s
Ġam aÃ§
at Ã¼rk
ĠbaÄŁ lan
lu ÄŁ
ĠdoÄŁ al
Ġm aÄŁ
aban cÄ±
ĠkonuÅŁ tu
Ġd ayan
Ġs ezon
ĠÅŁ imdi
O L
Ġd iyor
Ġk ey
s er
im leri
m ey
u ar
al ama
ĠN isan
Ġyan Ä±nda
man Ä±z
e j
ev i
ĠÅŁ art
ir a
ade m
ĠY Ã¼k
Ä±n tÄ±
li f
Ġmes aj
l ine
Ġhav a
Ġhan gi
l in
Ġs uÃ§
ĠdoÄŁ r
ĠsÄ± cak
ĠA f
Ġdurum da
iz yon
Ġed il
v ek
ĠHaz iran
S T
ĠkÃ¶ tÃ¼
ĠH ak
Ġfay d
Â Ĵ
Ġtav s
Ġkurul uÅŁ
Ġf Ä±rs
ĠK r
ver iÅŁ
am am
os u
ĠK ap
ĠA Ã§
Ġist ediÄŁ
Ġuz man
ĠÃ§Ä±k tÄ±
Ä± da
Ġt ep
Ġetti ÄŁi
ĠkÄ±s m
Ġdak ika
Ġbek len
Ġil er
at if
Ġn um
An a
or e
Ġinsan lar
Ġzar ar
Ġon a
Ġad Ä±
lan mÄ±ÅŁ
. )
Ã ½
baÅŁk anÄ±
eÅŁ il
ĠB ar
Ġtem sil
Ġg ece
ĠÃĩ ocuk
Ġk elim
alar Ä±nda
ĠYar dÄ±m
ĠD eniz
Ġs ek
Ã »
Ġan lay
y an
Ġcih az
h al
d Ä±z
Ġkay bet
Ġbil im
Ġter Ã¶r
Ġc id
Ġeder im
Ġyap tÄ±ÄŁ
Ġan n
s por
Ġolm az
Ġ ðŁ
Ã¼ le
ĠB ul
or k
1 6
ĠÄ° st
I L
ĠyaÅŁ an
a ir
in al
g Ã¼r
m esini
Ġo per
f ak
ĠF ak
Ġ19 9
m eyen
ĠyÃ¼z den
ĠTar ih
in c
emiz de
U M
Ġneden le
Ġk as
ĠkayÄ± t
Ġl ist
Ġy em
ĠS ev
ĠÃ§ oc
Ġsistem i
abil iyor
in a
Ġede b
Ġder ece
Ã¼ ÄŁ
amp iyon
Ġd ar
Ã¼l en
Ġ2 2
ĠI n
Ġh oÅŁ
ĠsÃ¼r ekli
Ġvar dÄ±
f en
uy a
Ä±m da
ĠO cak
ĠsaÄŁ lay
Ġp at
ĠÃľ r
ĠS iz
ac a
ĠiÅŁ let
g esi
Ġan a
ĠbaÅŁ lad
is el
uv ar
ĠT el
Ġp art
Ä±mÄ±z a
at i
m eli
ĠBakan lÄ±ÄŁÄ±
ĠÃ¼n ivers
ĠÃ¶ yle
Ġs Ä±nÄ±f
Ġtal ep
ĠM ustafa
ĠbaÅŁ lam
Ġist iyorum
ĠB un
Ã¼y orum
ĠK Ã¼ltÃ¼r
Ġhes ap
Ä±l Ä±ÄŁ
Ä° stanbul
ĠHaber leri
am Ä±
Ġver mek
Ġmut lu
am sun
g r
Ä±l Ä±m
m ar
s en
ĠÃ¶r nek
Ġpro f
ĠMil li
ĠH an
Ġw eb
ĠT er
ĠiliÅŁ kin
Ġad Ä±na
ĠÄ°n san
ili ÄŁi
ed er
orm al
o da
raf ik
Ġmer ak
Ġy urt
m ayan
Ä±y Ä±
ĠD er
im ler
Ġm en
Ġ j
Ġ2 3
Ġ201 4
Ġi p
Ġsat Ä±n
ĠbaÅŁk an
Ġbulun du
ir i
g am
lak a
tiÄŁ imiz
Ġver ilen
ĠTÃ¼rk Ã§e
Ġed iyorum
Ġsiz i
Ġek ran
ov a
ĠMÃ¼dÃ¼r lÃ¼ÄŁÃ¼
Ġb es
Ġv Ã¼c
c eÄŁ
ĠgerÃ§ ekten
Ġson unda
Ä±s Ä±nÄ±
ĠtÃ¼k et
ĠkiÅŁ inin
im li
ĠaÃ§ Ä±sÄ±ndan
Ġz aten
ĠMil let
Ä° ÅŁ
o og
Ġyer de
ĠgÃ¼Ã§ lÃ¼
Ġdav ran
Ġcan lÄ±
ĠL is
Ġak Ä±l
Ġv ideo
p it
1 4
ĠyapÄ±l acak
ĠSaÄŁ lÄ±k
ay acak
eÅŁ tir
Ġk Ã¶y
Ġkal an
ler ce
Â ´
m anÄ±
ĠeÄŁ len
alar a
Ġtes lim
ĠÃĸ r
ĠY az
ĠS u
Ġal Ä±yor
ĠÄ°ngil iz
ĠE ÄŁer
E r
ĠÄ°Ã§ in
Ġr uh
Ġb or
Ġede bilir
oog le
da ÄŁ
ĠD ern
for man
Ġk orum
Ġyap Ä±
ĠPro j
l Ä±ÅŁ
eler ine
en gin
Ġy alnÄ±z
ĠV er
h t
E tik
Ġb eÄŁ
s ak
Ġm ot
ĠH izmet
ĠgeÃ§ miÅŁ
b aÅŁ
Ġmem nun
2 4
at Ã¶r
ĠM an
Ġhal ine
ad Ä±m
ad aki
ĠdÃ¼ny anÄ±n
Ġbir kaÃ§
Ġak ÅŁam
Ġg i
Ġtar t
alar Ä±nÄ±
m ed
Ġver ir
ĠÃ¶ÄŁr etmen
ĠB ah
g a
ĠbaÅŁ lat
ĠS al
Ġar aya
iler inin
ayÄ± p
Ġetk il
Ä±mÄ±z Ä±
ĠbaÅŁ lay
Ä±r Ä±
as Ä±ndan
eler inin
Ġi c
ĠGen Ã§
Ġyap tÄ±k
it al
l Ã¢
Ġk o
Ġkend ini
Ġh am
Ġ2 1
B ur
az Ä±m
ĠC h
Ġd on
Ä±nÄ±z a
ĠyÃ¼r Ã¼t
Ġd ost
Ġb ank
Ġetkin lik
I K
art esi
iniz de
Ã¼n Ã¼z
asÄ± yla
Ġitibar en
Ġgid er
Ġkal k
Ġf utbol
m iyor
Ġd olar
Ġs t
lu ÄŁu
eb il
Ġyap Ä±yor
Ġvar sa
h end
len me
ĠÅŁekl inde
Ġde p
ĠG azet
2 5
Ġar ac
in Ã§
m esine
Ġ ah
ĠÃ§ Ã¼nkÃ¼
ĠM al
ĠyÄ±l lÄ±k
Ġes er
Ã¼s lÃ¼m
ĠkatÄ±l Ä±m
un an
aÅŁ a
Ġhal inde
ĠbaÅŁ layan
f orm
ecek tir
d ak
Ġar ada
E Y
D Ã¼n
b lem
ĠS Ã¶z
ĠS osyal
Ġb iÃ§
t ul
ĠP ol
ĠM ak
ĠT Ã¼m
Ġkullan Ä±m
Ġser vis
ĠM er
g o
i a
Ġson ucu
Ġyap ar
Ġ aÅŁk
Ġas lÄ±nda
ĠgÃ¼n cel
Ġy Ä±k
Ġmey dana
Ġkar ak
ĠÃ¶ dÃ¼l
Ġp iyas
Ġtamam en
Ġkalit eli
Ġk af
Ġok uy
ĠBÃ¼yÃ¼k ÅŁehir
Ġn et
Ġyok tur
ĠAl t
O K
h a
Ġf orm
ÄŁu st
t on
ĠKad Ä±n
Ġas ker
Ġb az
ĠG Ã¼ven
Ġel e
Ä±s Ä±na
men in
Ġhas tan
Ġad lÄ±
Ġuygul an
ĠyÄ±l Ä±
Ġ &
ak et
ÄŁust os
mas Ä±nÄ±n
oloj ik
ĠmÃ¼z ik
Ġkat kÄ±
imiz de
Ã¼n cÃ¼
st a
ĠÃĩ alÄ±ÅŁ
Ġim k
ĠÄ°s lam
ĠBak anÄ±
Ġp uan
Ġden iz
ĠÃ¼cret siz
ĠsÄ±r asÄ±nda
Ġs tr
ĠD eÄŁ
Ġn ak
Ġ4 0
m ayÄ±n
ĠsÃ¶y l
Ġal dÄ±ÄŁÄ±
Ġhast alÄ±k
Ġkullan Ä±lan
Ġtart Ä±ÅŁ
Ġsen e
elik le
ĠS ar
Ġf akat
en ler
Ġ X
ĠB as
Ġyap tÄ±r
forman s
Ġar tÄ±r
ĠAt atÃ¼rk
Ġver diÄŁi
Ġkay b
ĠsÃ¼r eÃ§
ĠT ab
y Ä±
y o
K ar
ĠFak Ã¼lt
Ä±nÄ±z da
L Ä°
I Z
Ġ )
Ġor ta
Ġc am
Ġseb eb
ĠM ec
acaÄŁ Ä±m
Ġn it
ey gam
ĠgÃ¼ven lik
ek siyon
iy im
ĠM Ã¼z
ans Ä±
Ã¢ n
Ġol un
Ġbulun maktadÄ±r
et ik
Ġy um
ĠSan at
Ġken t
Ġmed ya
Ġhat ta
Ġbulun uyor
Ġpol is
ĠYÃ¶n etim
em en
ĠsaÄŁ lamak
Ġyan a
eÅŁ ik
1 7
Ä±mÄ±z da
Ġg ru
Ġsonr asÄ±
ĠS istem
ĠAh met
ĠÅŁ ah
ĠÃ¼lk e
ĠsÄ±n av
E V
Ġcid di
Ġn eler
Ã¼p er
r in
lar Ä±m
Ġyaz ar
ĠPro gram
um hur
f i
Ġsil ah
ĠÄ° yi
Ġd al
ĠP er
ĠMÃ¼dÃ¼r Ã¼
ĠbaÅŁ arÄ±
ĠS t
ĠA m
li ÄŁini
1 3
Ġn ok
Ġtar if
as i
Ġi t
bak an
Ġekonom ik
mam Ä±z
Ġtar z
d Ã¼k
Ġg iz
O S
Ġtes pit
Ġay ak
eler inde
Ġr ap
Ġok um
Ġt ec
A k
eb ilm
Ġhay al
Ġbulun duÄŁu
ĠÅŁey ler
es yon
ĠA ÄŁustos
Ġyer e
ĠDem ir
Ġc il
iy ah
em ez
Ä±n ca
Ġ um
ey n
ĠyaÅŁ ayan
ĠF akat
r ol
s on
ili ÄŁ
Y eni
Ã¼m e
Ġden eyim
mak ta
y um
Ġmal zem
ĠgÃ¼n lÃ¼k
iniz in
dÃ¼ ÄŁÃ¼
Ġs ol
Ġbilg isayar
Ġbiz i
eygam ber
Ġinsan larÄ±n
Y A
Ġ ce
m eleri
aÄŁ a
at a
ĠoluÅŁ an
.. ..
Ġ2 8
g ar
ul lah
Ġiz in
Ġbul uÅŁ
Ġn ef
Ġmut laka
Ġmil yar
Ġ201 3
Ġak tar
ĠS el
ers iz
Ġsev iy
Ġhizmet i
ĠÅŀub at
y Ä±l
L E
ĠYÃ¼k sek
Ġb i
Ġbel ki
ĠN asÄ±l
esyon el
Ã¶r en
g ili
Ġpro blem
Ġon lar
es tiv
ĠÃ¶l dÃ¼r
l ulu
an ya
ĠB ank
Ġyan lÄ±ÅŁ
ĠbaÅŁ Ä±na
Ġboy ut
ĠY ak
Ġay rÄ±ca
b ur
Ġhay van
Ġt ip
ĠÃ§ ift
ĠRus ya
ĠÃ¼n lÃ¼
Ġb eri
ĠsaÄŁlÄ±k lÄ±
uz ey
erson el
Ġdurum u
ĠG eÃ§
ĠK im
Ġyet erli
Ġad res
Ġner ede
Ġen d
ĠY er
ra da
ĠÄ°ÅŁ te
hend is
Ġver ilm
uz ur
ĠS en
Ġzor unda
ĠÃ¶rg Ã¼t
g eÃ§
Ġv az
em a
Ġg ar
Ġkim s
tan d
Ġn edir
Ġay Ä±nda
Ġil gi
lÄ±k la
al a
Ġdol u
ist ik
ĠÃ¶ÄŁrenc iler
Ġtavs iye
Ġ Ä±s
Etik etler
as ayfa
ĠSur iye
ĠO d
s eniz
Ä±l Ä±yor
al tÄ±
ĠMah all
r ek
Ġaras Ä±ndaki
ĠsaÄŁ lam
Ġiz le
ĠK Ã¼r
Ġet miÅŁ
Ġkap at
Ġd Ã¶rt
Ġed ilir
ĠbaÅŁv ur
ĠbaÅŁv uru
Ġsiz lere
ĠkiÅŁ iler
ĠYÃ¶n et
Ġyol u
Ġsor um
z et
Ġ2 7
ĠS in
ĠseÃ§ enek
ĠA ÅŁ
k em
l isi
oh bet
Ġamac Ä±yla
Ġz engin
s im
ĠmÃ¼cad ele
it imi
Ġbah s
am asÄ±
Ġb una
Ġm in
ĠFakÃ¼lt esi
ur um
eb ook
m Ä±yor
Ġsay Ä±sÄ±
de m
2 3
ter n
P ro
mÄ±ÅŁ tÄ±
ĠK emal
6 0
k ar
Ġek sik
lat form
ĠHas tan
Ġet tik
Ġs efer
et e
Ġuygul ama
Ġmak in
p p
Ä±l Ä±ÄŁÄ±
iy di
abilm ek
Ġhaf t
Ġs ig
ĠB Ã¶yle
men iz
M er
Ġ Ġ
B iz
laÅŁ tÄ±r
ĠiÅŁ aret
k a
8 0
eÅŁik taÅŁ
Ġetk ili
ĠalÄ±ÅŁ veriÅŁ
y as
Ġde fa
ter e
ĠA ÄŁ
ĠfÄ±rs at
Ä±mÄ±z Ä±n
Ġbel g
ĠÅŁey i
vek ili
Ġmek an
i ir
ar d
Ġtedav i
ĠDern eÄŁi
Ġper formans
Ġsab ah
iz ik
Ġkam u
ĠBil g
ro s
aÄŁÄ± t
r ac
m adÄ±
iÅŁ i
en Ã¼z
lad Ä±ÄŁÄ±
m uÅŁtur
k e
ĠÃ¶l Ã¼m
eceÄŁ iz
Ġb ayan
Ġbas Ä±n
Ġalan Ä±nda
ab z
ed iy
ĠsaÄŁ lan
Ġsun ul
Ġd oktor
Ġfik ir
ĠÃ§oc uÄŁ
Ġh ikay
os y
ĠdÃ¶nem de
âĢ ¢
ip ar
ĠF ran
y en
ĠM od
Ġdil e
h am
Ġo ÄŁ
ĠAmer ika
L U
eb ilecek
Ġver iyor
Ġr ol
ĠY ani
Ġg ol
iler ek
m Ä±zÄ±
uv vet
' '
Ġle z
g en
Ãĸ n
Ġres mi
uyor um
Ġmerkez i
Ġ2 6
ĠsÃ¶y lem
ĠS Ã¼r
id det
ĠG ir
Ġpol itik
ĠCumhur iyet
ilen dir
ĠK Ä±r
Ġt rans
Ġb al
ĠsayÄ± da
al lah
Ġ emek
Ãĸ z
ĠA z
An asayfa
Ġsay Ä±lÄ±
Ġkar t
Ġbey az
Ġh ukuk
Ġk uÅŁ
Ġm obil
Ġm Ã¼k
o Ã§
Ġiz ley
on ya
Ä° Åŀ
Ġhey ec
m edi
ĠdeÄŁer li
Ġrek lam
ĠbaÄŁ Ä±m
Ġd ek
ĠbaÅŁ Ä±nda
ĠsÃ¶y ley
ĠF iyat
ĠK ol
p ar
ĠS at
ĠÃĩ in
Ġtek lif
d ro
ĠBir liÄŁi
ĠA L
ĠC HP
ĠtÄ±k lay
Ġy abancÄ±
ĠgÃ¶ tÃ¼r
ĠdÃ¼ÅŁ Ã¼k
Ġhal a
ĠK Ä±z
ra il
ĠC an
ĠmÃ¼cad el
ĠK end
ildi ÄŁi
ĠT an
n ak
d al
ĠkoÅŁ ul
Ġul uslararasÄ±
Ġolm alÄ±
Ġdav et
Ġalt Ä±na
Ġb ol
ĠD Ã¶n
en di
c il
Ġenerj i
ac k
ĠdÃ¼ÅŁÃ¼n c
Ġgir iÅŁim
ĠT ay
Ġ â
h er
alar Ä±nÄ±n
alat asar
Ġoper asyon
ĠgÃ¶rÃ¼n tÃ¼
alar Ä±na
Ġetti ÄŁ
* *
Ġdak ik
is e
Ġder ec
Ġt est
alatasar ay
uk arÄ±
Ä±n t
Ġtat il
Ġ201 2
Ġtoplan t
Ġk eÅŁ
Ġed iyoruz
A C
ac ebook
! !
h one
ĠF at
ĠS ay
Ġ2 9
Ġkat egor
Ġg al
im in
emm el
ĠK Ã¶
abz on
Ġproj e
ĠdÃ¼z ey
ener bah
ĠAlman ya
t eki
c Ä±lÄ±k
h aba
Ġoy unu
ĠÃ§ar p
ĠA N
ĠOsman lÄ±
Ġmik tar
ĠE d
ler dir
Ġu c
Ġsav un
Ġkey if
ĠsÃ¼r ec
ĠHal k
Ġok u
4 0
ĠiÅŁ i
lÄ±ÄŁ Ä±nÄ±
Ġn es
ĠAn talya
ĠP art
Ã¼slÃ¼m an
Ġyer i
Ġolur sa
ĠsaÄŁ lar
ĠA R
iÃ§ ek
n iyet
g er
Ġl azÄ±m
ĠÃĸzel likle
ĠG Ã¼l
Ġil an
ab et
ĠT em
Ġuy ar
Ã¼mÃ¼z de
Ġn ormal
Ġb eÅŁ
im ar
ĠT icaret
al im
c o
larÄ±n Ä±zÄ±
r Ã¼b
an Ä±z
E l
s Ä±
Ġk Ä±l
Ġalan da
l Ä±lÄ±k
ĠBur sa
ev izyon
Ġk um
ÃľR K
G Ã¼n
Ġhal de
Ġyan dan
lad Ä±ÄŁ
iy an
ayÄ±s Ä±yla
Ġk ok
ĠÃ§alÄ±ÅŁmalar Ä±
A d
Ġduy ur
h i
n eÄŁin
T Ä°
uyor uz
Ġkon um
aÅŁ Ä±r
B il
ĠbaÅŁ lan
ĠG Ã¼nÃ¼
ĠMahall esi
Ġkarak ter
âĢ ĵ
Ġbit ir
s as
Ä±l maz
Ġtop rak
Ġli der
Ġihtiy ac
Ġat eÅŁ
ĠG Ã¼zel
c ort
Ġm a
Ġad r
ĠÃ¶nc eki
Ġbenz er
ĠG Ã¶
h at
ĠO L
al iz
Ġg ide
om an
tand art
. ,
Ġtes is
Ġkend isine
t aki
ĠT V
Ġnum ar
Ġbir ey
ah im
Ġsonr asÄ±nda
s iy
Ġak l
ob Ã¼s
ĠyaÅŁ anan
liÄŁ inde
Ġh uzur
mam Ä±ÅŁ
r aman
ĠKur ul
acaÄŁ Ä±nÄ±z
ĠL ig
Ġs oÄŁ
iv il
z e
ĠKul lan
tep e
Ġyol c
ma da
Ã¼p h
Ġar asÄ±
ĠTekn ik
Ġyap acak
in k
ul tan
Ġson uc
ĠBu gÃ¼n
Ġhayat a
k ek
Ġb ebek
eler den
Ġs enin
r um
ĠÃ¶n Ã¼nde
ledi ÄŁi
Ġolm adÄ±ÄŁÄ±nÄ±
Ġed ilmesi
ur at
at ej
p ek
len mesi
Ġr isk
er a
ĠÃ¶z gÃ¼r
av i
Ġhayat Ä±nÄ±
ĠgÃ¶r mek
Ġ ir
Ġf ak
O r
ĠiÃ§ eri
Ġteh lik
dÄ±ÄŁ Ä±nda
ĠbaÅŁ ta
G en
af ir
ĠÃľr Ã¼n
ĠuÃ§ ak
Ġfir malar
Ġd am
ĠB r
ĠAr aÅŁtÄ±r
Ã¼y le
Ġay Ä±r
Ġbir isi
ĠT es
H ay
Ġ eg
ĠS avaÅŁ
ĠtaÅŁ Ä±m
ĠP azar
Ġist en
ron ik
lik leri
Ġkur tul
Ġnok ta
Ġ ef
I Åŀ
malÄ± dÄ±r
s es
LER Ä°
Ġn ot
iyat ro
Ġs em
Ġil eri
Ġyap mÄ±ÅŁ
Ġder in
y anÄ±n
Ġt r
t Ã¶r
m asÄ±nda
A V
t p
Ġsiyas i
Ġon larÄ±n
ĠtaÅŁ Ä±y
Ġdol dur
E C
erÃ§ ev
/ /
Ġon larÄ±
ir k
ĠyÄ±l dÄ±r
h ar
t eÅŁ
ĠCumhur baÅŁkanÄ±
ĠM ed
k u
enerbah Ã§e
Ġyap arak
Ġkur tar
an taj
Ġgerek tiÄŁini
r em
Ä° s
Ġce p
ĠdÃ¼nya da
ĠY ol
ĠiÃ§in e
en g
Ġil aÃ§
ĠA lan
t ak
es iz
2 2
t iler
Ġp op
ĠÃ¼rÃ¼n leri
ĠhazÄ±r lan
Ġs itesi
Ġkr edi
Ġbelir ten
miÅŁ ti
B aÅŁ
Ġbah is
Ġan ne
Ã§ ak
ost a
ipar iÅŁ
ĠC am
ĠbeÄŁ en
Ġg Ã¼l
Ġhiss et
Ġkend ine
or d
Ġhar ika
ik let
ĠAÃ§ Ä±k
ĠSan ayi
Ġ6 0
ĠS amsun
ĠH af
um suz
Ġhay Ä±r
ad i
dro id
ul t
ay la
Ġelekt rik
Ġdev r
in ans
ĠyaÅŁ Ä±nda
eli dir
Ġrap or
ĠUl uslararasÄ±
ĠalÄ±n an
ĠK az
lÃ¼ t
mam ak
Ġol ma
Ġprof esyonel
uk lu
Ġal Ä±r
ĠyapÄ±l dÄ±
201 7
Ġb at
Ġes n
Ġf Ä±r
d Ã¼m
Ġem in
Ã¢ r
ĠUy gul
ĠgÃ¼n eÅŁ
Ġsan a
Ġal acak
ĠâĢ ¦
ĠÃ¶ ÄŁ
K K
Ġkim se
A Äŀ
sÄ±z lÄ±k
ey le
ĠAy nÄ±
Ġm ar
Ġa ile
ĠG Ã¶k
Ġd aÄŁ
Ġkar arÄ±
Ġif ad
Ġh enÃ¼z
ler inizi
Ġtec rÃ¼b
ĠÃ§ev ir
b ay
ĠiÅŁ e
ĠÃ§ at
Ġg ay
Ġbas it
ad Ä±r
ĠS ah
Ä±s Ä±nÄ±n
Ġ +
ĠK am
AS I
N e
O Äŀ
Ġyok sa
b est
Ġp oz
la j
I S
Ġs el
Ġt icaret
Ġolm adÄ±ÄŁÄ±
ĠÃ§ ab
ĠB Ä°R
n den
ĠsÄ±r ada
Ġp ersonel
Ã¶ v
y se
iÅŁ leri
Ġkil o
l iler
ĠeÄŁ er
ĠYardÄ±m cÄ±sÄ±
er r
ĠB aÄŁ
ĠgÃ¶ster en
Ġs oy
Ä±ÄŁ Ä±n
ĠB al
ĠS eÃ§
ĠÅŀ imdi
Ġbilg ileri
larÄ±mÄ±z Ä±n
Ġede ceÄŁ
d iler
ers in
Ġtoplan tÄ±
Ġar z
ĠiÅŁ te
eceÄŁ im
Ġy avaÅŁ
le v
ĠG oogle
aÄŁ an
b il
Ġp an
ĠÅŁ iddet
ĠiÃ§ i
Ġzor un
Ġsahip tir
ĠyapÄ±l masÄ±
k eri
ĠH akk
ĠK ah
ĠV ak
ilm iÅŁtir
ed eki
on s
Ġkullan arak
Ä±l acak
diÄŁ imiz
Ġduy gu
Ġyer inde
: //
us un
leÅŁ me
ers eniz
Ġb uy
ĠY orum
ĠBay ram
Ġsok ak
Ġp r
Ġkesin likle
Ġbun dan
ĠÃ§ erÃ§ev
ĠyaÅŁ Ä±ndaki
ĠaÃ§Ä±klam ada
Ġd u
n dan
Ġs ohbet
Ġmot or
A s
ĠD Ä±ÅŁ
b en
Ġinsan Ä±n
ĠyÄ±l larda
tÄ±ÄŁ Ä±nÄ±
Ġey lem
ĠD av
mek te
ĠY ayÄ±n
ĠV ar
Ġal arak
Ġtab i
Ġal anÄ±
t Ã¼l
ek im
ĠÅŁ ans
em be
t uk
Ġay ar
lÄ±k lÄ±
ma il
Ġolm uÅŁtur
Ġas la
ĠsaÄŁ layan
diÄŁ im
Ġfilm i
Ġtan e
m Ã¼r
âĢĿ ,
ĠÃ§ al
Ġ201 1
ĠkatÄ±l dÄ±
ĠmÃ¼ da
ĠgÃ¼n lerde
c isi
Ġson a
ij ital
ĠdÄ±ÅŁ Ä±
k Ä±n
Ä±yor lar
Ġk m
Ġkur al
ak lÄ±
Ġar ama
ĠF ir
Ġyay Ä±m
on d
iz asyon
ĠsÃ¼r ede
Ġhas tal
ĠÅŁ arkÄ±
y ap
duÄŁ unu
ter ek
Ġisim li
ev k
ĠdÃ¼zen len
ed iler
ey tin
7 0
ib er
Ġy iy
ĠdoÄŁ um
ken in
w it
Ġ201 0
Ġkad ro
Ġm ec
lad Ä±k
ildi ÄŁ
Ġv b
ĠAy dÄ±n
Ġi P
Ġhar c
Ġfaz l
iy er
ez i
Ġde f
ĠG azi
ĠÄ°l Ã§e
ĠH D
en e
Ġel eÅŁtir
eler inden
9 0
O M
Ãĩ ok
o ca
Ġk ans
ĠH am
ĠtaÅŁ Ä±n
ĠdeÄŁiÅŁik lik
Ġhaf if
Ġg Ã¼c
ĠmÃ¼k emmel
Ġs Ã¼t
ĠH z
Ġson u
A v
Ġyol a
ĠÄ° ran
ĠÃĩ ar
ĠR ec
l edik
Ġar ay
ez er
Ġgerek mektedir
a iz
liÄŁ e
ĠG Ã¶z
ĠD ol
ĠY Ã¼z
bet te
ĠiÅŁ bir
ĠÃĩ ev
Ġprogram Ä±
Ġon lara
el iyat
Ġkamp any
Ġart tÄ±r
esin deki
Ġt on
tad an
Ġ5 00
ĠU n
' s
Ã¼yor uz
Ġanlam da
ow s
ah met
ĠD air
ĠÃľ y
ar Ä±m
lÄ±ÄŁ a
Ġimz a
or un
Ġgi den
ĠiÃ§er ik
Ġmes af
Ä± c
ĠmÃ¼ÅŁ teri
Ä±s Ä±r
Ġar a
ĠÃ¶ÄŁren ci
an d
ĠT he
ĠakÄ±l lÄ±
Ġyarar lan
Ġd Ã¶k
Ġkah v
Ġtekn oloji
Ġet tir
Ġz am
il li
ot o
Ġvur gul
a i
Ġd o
ĠV al
ĠOr ta
s ini
Ġmes el
Ġsonr aki
ĠBÃ¶l Ã¼m
ey iz
s ay
g Ã¶r
ĠB in
Ġyer leÅŁ
Ġkazan dÄ±r
ĠÃ§ oÄŁu
U T
ed eni
om et
end ik
Ġf il
Ġkan al
C umhur
Ġh ap
dÄ±r Ä±m
Ġm at
E Z
Ġet mektedir
2 1
ĠH ol
âĢ¦ ]
eli ÄŁ
f et
ĠH em
Ġkal dÄ±
ak ar
Ġsah n
ĠyÄ±l da
Ġp iÅŁ
Ġsey ahat
Ġbun lar
Ġp latform
d am
emiz in
Ġy ada
am et
lÄ±ÄŁ Ä±na
Ġal mÄ±ÅŁ
ati on
Ġart Ä±ÅŁ
Ġtah min
Ġdem okr
Ġol umsuz
Ġal dÄ±ÄŁ
ĠM ut
D aha
est or
Ġyer el
E B
m eni
Ġvaz geÃ§
Al lah
Ã§ iler
Ġp sik
ĠyanÄ± t
ĠS ayÄ±n
ĠsaldÄ±r Ä±
ĠT aÅŁ
ÅŁ ey
teÅŁ em
? âĢĿ
ĠB unu
ar e
ĠaÅŁaÄŁÄ± daki
o u
Ġtan Ä±ÅŁ
il ebilir
Ġp ark
es s
ĠyÃ¼r Ã¼y
Ġi dar
ĠyÄ±l lar
ĠaÃ§Ä±k lama
ĠbaÅŁ lar
T ek
ĠÃľ st
abil eceÄŁiniz
LAR I
Ä±lÄ± Ã§
ĠD ur
Ġerk en
Ä±s Ä±nÄ±z
Ġkit ab
Ġk Ã¼r
c ilik
Ġotom obil
ac Ä±lÄ±k
Ġl im
ut an
ĠtanÄ± t
2 6
ĠYÄ±l maz
Ġkap Ä±
ler iniz
am ay
t o
et leri
ĠK itap
ĠD oÄŁu
Ġlez zet
Ġbaz en
ĠT asar
ak a
: )
ur o
Ġkav ram
Ġc m
Ġres im
Ġf el
Ġk aÅŁ
r ika
ĠL i
M A
ĠkarÅŁ Ä±sÄ±nda
ler im
m ur
or n
Ġbilin en
ĠY et
amaz an
Ġh Ã¢
Ġmod ern
ĠÃ¼nivers it
Ġv it
I LI
Ġon ay
Ġedilm iÅŁ
Ä±l dÄ±ÄŁÄ±
ĠkiÅŁ isel
Ġd anÄ±ÅŁ
2 8
larÄ±mÄ±z Ä±
Ġkal p
Ġp aket
Ġbil iyor
ĠD il
er im
E v
ĠS h
Ãľ K
Ġp as
Ġver ildi
Ġoyun c
Ġyak al
Ġyap maya
lerimiz i
Ġiddi a
ĠyapÄ±l Ä±r
Ġi b
u di
Ġb ilir
Ġyap Ä±m
dÄ±k tan
Ġs eni
Ġmad d
ĠÃ¶n e
ĠY an
eler le
c eli
ĠÃ¶zel liÄŁi
lÄ±ÄŁ Ä±n
at es
Ġtat lÄ±
ĠT at
rac at
ĠÄ° k
ĠÄ°ngiliz ce
ĠdÃ¶nem inde
dik leri
ĠB eÅŁiktaÅŁ
Ġs ur
Ġs tandart
p t
ĠBur ada
Ġay lÄ±k
Ġbelirt ti
Ġk Ä±ÅŁ
s ine
ĠB er
ĠdÃ¼ÅŁÃ¼n Ã¼yorum
ĠF il
ĠD iÄŁer
Ġolm asÄ±na
Ġ af
de v
ĠE f
ind ows
Ä°Y E
ĠÃ§ocuk lar
Ġdurum unda
Ġd iÅŁ
den iz
Ġet meye
Ġkay de
Ġf izik
len miÅŁ
ĠA B
Ġn Ã¼f
A BD
Ġyet iÅŁ
Ã¼n y
len ir
Ġc ok
Ġbek liyor
ĠK Ä±
ĠkiÅŁ ilik
Ġkend isi
ĠÃ§ ay
as Ä±n
ot el
is inden
Ġt Ã¶ren
Ġkar Ä±ÅŁ
Ġt az
ĠD Ã¼z
k iler
in t
ĠOk ul
ĠM ark
er ler
ĠgÃ¶r en
Ġvak it
Ġc en
A F
ĠÃ§ek en
ĠT am
ĠS aat
ĠOt el
5 3
ĠE ÅŁ
az a
ĠG erÃ§
ĠÃ§Ä±k Ä±yor
Ġsal on
Ġy ans
Ġbelir terek
Ġ Ä±ÅŁ
Ġed ip
uz u
Ġk op
ĠGÃ¼n ey
ĠS adece
K on
ayÄ± cÄ±
Ġ[ âĢ¦]
Ġheyec an
Ġi de
ĠW eb
Ġkap as
Ġet me
Ġo rada
ĠyÃ¶net ic
ĠBen im
ĠM Ã¼slÃ¼man
ĠÃ ¢
l iyat
Ã¢ h
Ġtak dir
tern atif
ayÄ± f
ĠaraÅŁtÄ±r ma
Ġav antaj
ĠM ev
Ġy or
b an
v isi
ĠÄ° Ãĩ
ĠÅŀ ehir
Ġkor un
E s
ĠÃ¶n Ã¼ne
Ġsor unu
y ip
ĠÅŁeh it
g iler
ER S
ĠistediÄŁ iniz
ĠsÄ±k Ä±ntÄ±
ĠÃ§ ap
ĠbaÅŁ lÄ±yor
Ġalt Ä±n
ay Ä±m
Ġm eÅŁ
ĠEl ekt
Ġ lÃ¼t
2 7
Ġaz al
ul du
ra g
Ġkend isini
ĠÅŀ eh
L AN
Ġp o
Ġist edi
ĠÃ¶de me
y Ã¼z
ĠCum a
lam asÄ±
ĠÅŀ ah
wit ter
m ut
Ġ Ä±ÅŁÄ±k
ĠRec ep
br ahim
Ä° lk
ĠÄ°n ÅŁ
ĠBil gi
Ġmis afir
ledi ÄŁ
Ġmark a
ĠÄ°ngil tere
Ã¼st Ã¼
ĠAmer ik
s em
ĠgeÃ§ ti
Ġim kan
ĠÅŁ Ã¼ph
ĠS Ä±n
ĠinÅŁ a
l iye
Ġev de
z er
ĠÃ¼rÃ¼n ler
iy iz
n u
un larÄ±
Ġpro t
ĠTr abzon
Ġ19 8
Ġyar alan
Ġal Ä±p
ĠaÃ§Ä±k ladÄ±
Ġgetir en
erk es
ĠÃ¶nc esi
b in
Ġolm aya
Ġ la
1 00
liÄŁ ine
Ġyet iÅŁtir
Ġedebilir siniz
Ġd el
Ġ3 5
Ġkon ut
pp le
Ġy eÅŁil
Ġh t
br Ä±s
ER Ä°
Ġyay gÄ±n
Ġden ey
am Ä±ÅŁ
Ġd es
ĠÄ°s rail
ĠÃľ lk
U S
ĠB it
ĠBaÅŁkan lÄ±ÄŁÄ±
ĠY at
us unu
Ġfir ma
ĠkarÅŁ Ä±lÄ±k
Ġdetay lÄ±
Ġtrans fer
Ä° l
is iyle
liÄŁ in
ĠÄ° m
ĠS ultan
Ġt ed
Ġs ipariÅŁ
Ġev e
ĠOd asÄ±
Ġl ira
ĠilÃ§ esinde
Ġon line
ĠÃ¼y e
Ġay dÄ±n
Ġyet k
ĠS ok
Ġhes ab
ĠgÃ¶n Ã¼l
ĠÃ¶nemli dir
Ä±n ar
Ġsonuc unda
ĠD E
Ġf or
an e
G eÃ§
ĠN ur
ĠYÄ±l dÄ±rÄ±m
Ġ8 0
Ġt e
Ġd Ã¼ÄŁ
Ġdiy erek
ĠP eygamber
Ġ3 1
Ġd osy
iÅŁ ehir
Ã¶ ÄŁr
Ãľ L
ĠS ab
lar dÄ±
oy u
abil eceÄŁi
han e
las ik
ĠyÄ±l dÄ±z
ed ek
Ġb ec
Ġz evk
ĠG Ã¼r
Ġser t
diÄŁ iniz
Ġk Ä±
Ġyaz Ä±lÄ±m
Ġ ez
Ġik ti
Ġal b
Ġbun larÄ±
m acÄ±
ĠS p
d it
ĠgÃ¼ven li
Ġb alÄ±k
2 9
Ġkap alÄ±
Ġol umlu
Ġgir en
ĠHastan esi
ĠR o
g Ã¼
Ġd iler
Ġuc uz
i ÄŁi
ĠgeÃ§ erli
Ġb log
Ġgenel likle
ĠSon ra
Ġ' '
Ġstr atej
alar dan
Ġtal eb
f Ä±
Ġg ur
Ġg az
ĠÅŁ ar
cÄ± lar
b ey
g al
ur ken
ĠolduÄŁ una
el is
Ġek ib
Ã¼l ey
Ġhizmet leri
ĠÅŁ ampiyon
eÄŁ e
ĠM as
Ġs p
Ġdah i
ĠK Ã¶y
eÄŁ ini
it y
Ä±m Ä±n
E k
iy a
Ġh ediye
t el
Ġs ivil
Ã¼m Ã¼ÅŁ
Ġlis ans
ĠBaÅŁ bakan
Ġs ap
ĠÃ§Ä±k Ä±ÅŁ
Ġc iv
Ġ ap
Ġolm asÄ±nÄ±
s eri
ĠdeÄŁ iÅŁim
lan masÄ±
ĠÃĸ dÃ¼l
ab ilen
Ġduy g
Ġar ab
at ur
an dÄ±r
Ġpop Ã¼ler
Ġcez a
4 5
ĠHay at
Ġ200 9
Ġet ik
ĠM urat
ĠlÃ¼t fen
di ÄŁini
Ġk uvvet
ĠÃ¼y esi
Ġr ad
ab rik
Ġal ma
Ġht tp
ĠG alatasaray
o ya
Ä± larak
ĠdÃ¼ÅŁ Ã¼r
Ä±yor du
Ġherk esin
dÄ±k larÄ±
dik ten
ĠTay yip
ĠFat ih
ĠÃ¶ÄŁr et
Ġak tif
an lÄ±k
ĠEk onom
Ġt Ã¼rk
ĠmÃ¼ÅŁter iler
Â »
Ã¼n deki
ĠY unan
Ġyer ini
n ik
ĠKar ÅŁ
ĠÃ¼l kenin
n Ã¼n
Ġbek l
Ġgel iÅŁim
ĠyÄ±l Ä±n
unuz u
Ä±n dÄ±r
ic ari
Ġcil t
Ġdavran Ä±ÅŁ
ĠD en
Ä° C
Ġb eden
may acak
Ãľ M
h is
al le
em iÅŁ
Ġs uyu
ok ul
in o
Ġkor uy
ĠFran sa
ĠH Ã¼s
Ġf on
Ġ7 0
201 6
R O
Ġyet er
Ġbir inci
adde si
Ä° D
gÄ± Ã§
ĠZ aman
Ġdiy en
S iz
l ayÄ±p
T AN
c iler
ĠY ok
ĠEr kek
iy ar
Ġolm adan
ĠHaber ler
ĠÅŁ Ä±k
n er
ĠKÃ¼r t
Ġas keri
Ġt ad
Ġh oc
Bu gÃ¼n
U K
em li
Ġy ukarÄ±
Ġetk isi
ĠgÃ¶r dÃ¼ÄŁ
ĠK ab
Ä°n san
Ġmil li
lan t
Ã§ esi
Ä±s Ä±z
Ä° z
ĠÅŁ iir
K ur
Ġt eb
ĠS ey
Ġb Ã¼t
ĠCumhur iyeti
ĠTarih i
Ġis m
ï ¿
ĠinÅŁ aat
ul masÄ±
ĠP az
3 5
ET Ãĸ
Ġuy um
ï¿ ½
ar Ä±nda
Ã¼mÃ¼z deki
ĠA dana
Ġtel evizyon
Ġ9 0
siz lik
ezer v
ok ulu
ĠaÅŁ am
am med
eb iliyor
diÄŁ inde
Ġgel miÅŁ
t arÄ±
ĠyÃ¼z yÄ±l
Ġanlam Ä±na
U Z
Ġayr Ä±l
Ġben ce
Ġser best
Ġek ley
ĠmÃ¼ dÃ¼r
Ġal tÄ±
Ġkay det
n am
Ġyet kil
Ġindir im
Ġay Ä±
ĠK Ã¼Ã§Ã¼k
Ġbun larÄ±n
Ġp eÅŁ
ĠeÄŁ itimi
Ġgel in
f at
ĠC en
ĠolduÄŁ umuz
Ġd uvar
emiz e
ĠkÃ¶ ÅŁ
ĠÅŀ ampiyon
Ġcin sel
t Ã¼rk
Ġb Ã¼ny
Ġmez un
ĠM ad
ĠAn droid
ĠO f
ĠdÃ¼ny aya
Ġ !
Ġkar Ä±ÅŁtÄ±r
ĠMillet vekili
an akk
ĠK Ä±s
Ġgerek tir
d Ã¼z
Ã¶y l
ĠhazÄ±r lÄ±k
baÅŁk an
ĠÅŁ if
ey ecek
Ġn edeni
oc k
Ġyap arken
Ġn amaz
Ġam eliyat
ĠR ab
Ġg r
ĠAr ap
DÃ¼n ya
ĠS AN
Ãĸz el
rans Ä±z
Ġanlay Ä±ÅŁ
Ġen f
ĠdÃ¼zen lem
Ġv s
Ġc es
Ġpar ti
Ãĸ R
baÅŁ Ä±
Ġnerede yse
T E
Ġkullan mak
ah tar
ĠyalnÄ±z ca
T A
Ġbas kÄ±
Ġ acÄ±
d ek
of t
Ġb ed
ik i
ĠsoÄŁ uk
b al
Ġdok un
Ġmodel leri
ĠÃ§ iÃ§ek
ĠF estiv
er t
Ġs iyah
ĠBil im
ĠÃ¶zellik leri
Ġkullan dÄ±
s Ã¼z
ĠA c
Ġ200 8
ĠK AR
ĠR e
an tep
Ġm o
ĠD est
Ġed iliyor
ĠB azÄ±
ĠâĢ Ŀ
ĠM et
ĠMÃ¼ hendis
anakk ale
ĠGÃ¼ven lik
ĠkÄ±r mÄ±zÄ±
ĠF enerbahÃ§e
S en
g re
or i
q u
Ġsit e
o ur
B M
- -
Ġin s
ĠH ep
man lÄ±k
ĠM ac
ĠUz un
Ġc Ã¼m
Ġyas ak
B el
ĠhatÄ±r lat
Ġiht im
S K
Ġver ecek
Ġbak Ä±ÅŁ
larÄ±mÄ±z a
Ġgru b
ĠgÃ¶r sel
t is
z a
Ġh Ã¼c
Ġis mi
ĠaÃ§ Ä±
Ġhakk Ä±
ÅŁ iv
k ol
ĠB at
ub e
Ġproj esi
Ġt as
l y
ĠÅŀ u
An kara
ĠK ut
Ġet raf
ĠK ir
lam Ä±ÅŁ
Ġh az
Ġtarih leri
ĠÃ¼Ã§ Ã¼ncÃ¼
Ġet mesi
Ġfiyat larÄ±
Ġkullan Ä±mÄ±
Ġp il
ĠEs ki
O B
Ġes as
ĠC ev
ĠNe w
ĠÅŁ ark
Ãĸn c
ad et
ĠB or
Ġkat Ä±lan
ĠbÃ¶lg esinde
ĠS ek
mem iÅŁ
Ġr eh
ĠT Ä±p
ir e
ad eniz
Ġo da
ĠB oy
ĠB AÅŀ
ĠBank asÄ±
Ġdem iÅŁ
Ġbin lerce
Ġed ilecek
Ġolan lar
ĠC em
Ġbay ram
Ġsay gÄ±
Ġb eb
E ÄŁer
Ġihtiy acÄ±
Ġas Ä±l
ĠF acebook
s ur
Ġmes lek
ĠM us
ĠteÅŁekkÃ¼r ler
Ġ4 5
Ġzaman larda
ĠdÃ¼zen li
ĠeÅŁ y
ĠL e
ĠMec lis
Ġsun uyor
Ġort alama
Ġdest eÄŁi
ĠuÄŁr aÅŁ
Ġz ih
T R
ĠG erek
ĠÃĩ aÄŁ
Ġd izi
lan d
ĠÃ¶ÄŁr etim
ĠGÃ¼n eÅŁ
Ġal ternatif
Ġyaz Ä±lÄ±
ĠT eÅŁ
ar lar
Ġyap abilir
ĠG ru
âĢ¦ âĢ¦
Ġyer leÅŁtir
Ġbel ediye
ĠY AP
ĠY en
Ġmet re
Ä±r lar
ĠgÃ¶ Ã§
mam asÄ±
Ġkurul an
Ä±n day
ĠÃ¼lk ede
Ġotom atik
ĠgerÃ§ekleÅŁtir ilen
s ev
ĠTur izm
ĠP r
D ev
ĠÃ§alÄ±ÅŁ Ä±yor
Ġgelen ek
Ãľ Z
od rum
is iklet
Ã¼b Ã¼
ĠD ir
Ãĸ N
ĠS Ã¼per
Ġrak am
ĠÄ°n ternet
ĠHas an
ĠB una
Ġinsan larÄ±
ĠPart isi
tu ÄŁ
T Ã¼m
alar Ä±ndan
Ä±ÅŁ ma
Ġk em
Ä±l mÄ±ÅŁtÄ±r
ĠulaÅŁ abilirsiniz
ĠLis esi
s at
E F
Ġdemek tir
Ġmuh teÅŁem
ĠaÃ§Ä±l Ä±ÅŁ
im den
Ġk od
ĠS itesi
ro m
B ak
Ä±sÄ± t
ĠÄ° brahim
O n
ĠM ic
ĠTel efon
ĠÄ° ki
Ġkon ak
D EN
4 4
Ġkur ulu
ĠkaÃ§ Ä±r
Ġin ce
ĠkiÅŁ iye
ir ler
Ġsev in
ĠS a
Mer haba
ĠvÃ¼c ut
Ġal maktadÄ±r
Ġg em
Ġbor Ã§
r ed
us una
iyor lar
Ġh ad
ĠKÄ± brÄ±s
ĠKur um
ĠaÅŁ Ä±rÄ±
erj i
or g
Ġes cort
ĠkÄ±sm Ä±
Ġbir ik
ĠiP hone
Ġm on
Ġimk anÄ±
ĠLi gi
Ġkit abÄ±
Ä° H
ĠK iÅŁ
Ä± b
ĠÃ§Ä±k art
es ef
ĠsÃ¼r esi
ĠI rak
ĠM ey
U z
am ik
ĠAK P
i ce
Ġgetir di
ĠBiz im
ĠP eki
irk eti
anÄ± t
ĠT ah
Ġbec er
ĠÄ° h
ĠyaÅŁam ak
ÄŁ ur
ĠÄ°n dir
ĠBÃ¶l Ã¼mÃ¼
Ġrahat sÄ±z
at or
da t
ĠyÃ¶net imi
ĠK uzey
ĠP KK
Ġt rafik
imiz den
Ġad Ä±nÄ±
ĠD in
Ġw ww
ĠProgram Ä±
Ġgiz li
ĠgÃ¼ven ilir
lay arak
Ġhep si
Ġip tal
ĠÅŁek er
lar ca
ir v
Ġvit am
ar y
let iÅŁim
Ġyen ilik
Ġson una
s inin
Ġam acÄ±
ĠbiÃ§ imde
ĠC ez
en gi
D r
ir ken
T op
ĠÅŁ ik
Ġok un
Ã¼l Ã¼
Ġkend ilerine
mak tan
Ġor tadan
Ġorgan izasyon
Ġr estor
Ġz ayÄ±f
ĠiÃ§er en
ĠBÃ¶yle ce
Ġyap Ä±mÄ±
ï »
Ġtut uk
Ġist ek
Ġsay fa
Ġver miÅŁ
Ġr oman
ĠR eh
ist in
ĠdÄ±ÅŁ arÄ±
Ġaz alt
Ġolm ay
Ġk ere
Ä±nÄ±z Ä±n
ĠalÄ±n dÄ±
ĠM at
Ġist ih
o x
ĠÃ§ocuk larÄ±n
ĠS Ä±r
Ġt uz
Ġgit ti
o j
ya j
ĠyapÄ±l mÄ±ÅŁ
Ġor anÄ±
akk abÄ±
ĠAraÅŁtÄ±r ma
r y
ĠÃ§alÄ±ÅŁ masÄ±
Ġilg inÃ§
ĠÃ¶lÃ§ Ã¼
ĠHav a
ĠD ers
ï» ¿
Ġt a
9 9
ĠP ark
Ġb om
im d
ĠÃ¶ y
ĠÄ° N
Ã¼le bilir
ĠG ÃľN
ĠHat ta
Ì Ī
B UL
O y
ĠY ine
Ġsanat Ã§Ä±
Ġherkes e
ĠTekn oloji
ĠAlt Ä±n
ĠbaÄŁÄ±m sÄ±z
sta gram
Ġyap abilirsiniz
ĠeÅŁ it
Ġer iÅŁ
k Ã¶y
ĠTur k
Ġd ay
Ġak tiv
Ġbur aya
m m
Ġbuy ur
is a
ĠÃĸn c
ĠÃĩ Ä±k
S ev
ĠB ek
ĠK Ä±lÄ±Ã§
ĠH iÃ§
Ġyak alan
ĠKon ya
ĠD Ã¼ÅŁ
di p
ĠS it
ĠparÃ§ asÄ±
Ġv ide
Ġd edim
lÄ±k lar
ĠbÃ¶lÃ¼m Ã¼
Ġilg ilen
G el
ĠyÄ±l Ä±ndan
lan da
Ġmal iyet
de b
Ġrenk li
duÄŁ umuz
ĠN edir
Ġsiyas et
Ä±l abilir
Ġbahs et
k iÅŁehir
ĠpaylaÅŁ Ä±m
ĠkiÅŁ ilerin
ĠÃ¼zer indeki
Ġy alan
Ġbir den
Ġbelir li
u ÄŁu
ĠmaÄŁ az
Ġhayat Ä±
ĠF eder
Ġat an
m is
Ġal dÄ±m
ilm ek
ti c
ĠhazÄ±r lanan
el l
Ġ201 9
lan Ä±r
y et
ĠAr tÄ±k
ww w
Ġsorum luluk
err ah
ad Ä±n
201 5
ĠsaÄŁ lÄ±yor
Ġl ir
Ġist edik
ĠÃ¼rÃ¼n Ã¼
Ġor du
iyor du
am ayan
Ġist iyoruz
an Ä±m
ul l
k adaÅŁ
Ġal g
oÄŁ az
ĠÄ°Ãĩ Ä°N
ĠdoÄŁr ult
ĠbaÄŁlan tÄ±
L Ä°K
ĠÃ¼st Ã¼n
Ġt anÄ±n
ĠAb d
Ġiy il
bak Ä±r
ĠM a
ĠiÅŁ ler
Ġben de
6 5
lan Ä±yor
Ġuygulam asÄ±
ĠBeled iy
end im
ĠÄ° L
Ġan aliz
S O
ĠKo ca
l al
de mir
av e
Ġhas ta
ĠK il
Ġdedi ÄŁ
ĠsÃ¶y leyen
Ä± f
Ġd Ã¶v
ĠarkadaÅŁ lar
ĠK up
ĠsÃ¼r eci
ic a
ic iler
Ġh ac
m it
ĠB Ä°L
? ?
S an
Ġf inans
Ġ19 7
Ġincel em
Ġteh dit
Ġsak in
ĠBir leÅŁ
Ġver i
Ä±ÄŁ Ä±nda
ĠÅŁ aÅŁÄ±r
Ġd Ã¼zel
s it
ĠMod el
Ä° V
st it
lulu ÄŁ
Ã¼ley man
T ar
ĠgeÃ§ tiÄŁimiz
an da
v ik
Ġbirbir inden
ĠO nun
Ġal maya
Ġm Ã¼t
Ãĩ ocuk
ĠkadÄ±n lar
Ġol acaÄŁÄ±nÄ±
en a
Ġyer li
O P
Ġm us
k ur
ĠðŁ Ļ
ilm ektedir
um p
k on
ĠolduÄŁ undan
ĠsÃ¶yl Ã¼yor
Ã¶ÄŁr etim
ĠsÃ¼r en
Ġduy ar
Ġsun an
Ġ @
ĠÃĸ mer
x y
Ġkr iz
Ġnit elik
Ġp ay
ĠtaÅŁÄ±y an
Ġhas sas
Ġkal Ä±n
emiz i
ÅŁam ba
el ek
Ġistiyor sanÄ±z
o od
K onu
ĠS av
Ġek len
se f
Ġkon uk
Ġbilg ilendir
en n
ĠMuh ammed
ĠGÃ¼n cel
ĠÃ§ev re
gil iz
ĠÃ¶z en
ĠR amazan
Ġs im
ĠHÃ¼s eyin
alt Ä±na
Ġsebeb i
am aya
lulu ÄŁu
Ġyat ak
ĠÃĸr neÄŁin
ĠBey az
Ġak adem
Ġsor umlu
Ġk us
dÄ±ÄŁ Ä±m
lerimiz in
ÅŁ embe
ĠiÅŁ in
ĠuÃ§ uÅŁ
af er
Ġel em
Ġh us
ĠÃ§ oÄŁ
Ġtur izm
ĠdÃ¼ÅŁ tÃ¼
Y ap
lem eye
Ġkom p
! âĢĿ
Ġkil omet
m os
iyar bakÄ±r
en ci
ĠK amp
ul ur
D I
iÅŁ e
z eme
b on
ĠB oz
ab eri
ĠdoÄŁru dan
ĠiÅŁ Ã§
eniz i
Ġkav uÅŁ
y er
M AN
Ġi di
r ay
0 5
Ġdol aÅŁ
Ġkeyif li
l iyet
d iniz
ĠJ ap
Ġal abilirsiniz
ĠGazet esi
Ġtem in
il im
ĠK art
Ġkon ser
ĠA Y
ĠdoÄŁrult usunda
ĠbÃ¶lg e
m adÄ±ÄŁÄ±
ĠHakk Ä±nda
Ġgid erek
D oÄŁ
Ġhak im
Ġet tim
0 1
B aÅŁk
t Ä±n
Ġtep ki
Ġ Q
ĠhÄ±z la
ĠKay mak
Ġolan ak
ĠB atÄ±
Ġbil et
D AN
ĠHizmet leri
ĠP at
t ek
ĠC ar
ĠF u
Ġ *
O T
ĠhÃ¼kÃ¼m et
Ġmod eli
ĠÃĸ Z
ĠC addesi
ĠseÃ§ en
Ġf aiz
Ġbar Ä±ÅŁ
Ġar acÄ±
r al
s ey
c ret
Ġal Ä±m
Ġfiyat Ä±
Ġgit mek
Ġih racat
ulu ÄŁ
am i
Ġg Ã¼cÃ¼
et rol
ĠdÃ¼ÅŁÃ¼n Ã¼yor
Ġt erk
ĠN eden
Ġt Ä±r
Ġb esin
Ġman z
p aÅŁa
ĠYÄ±l dÄ±z
as Ä±z
ĠÃ¼nivers ite
ĠI I
Ġsor uÅŁtur
ĠT ÃľRK
ley ici
ĠG rup
Ġ ;
ĠÅŁeh r
Ġmut luluk
Ġel b
Ġkur u
ektÃ¶r Ã¼
Ġhar it
Ġhiss ed
isyon u
ĠB ab
ĠF ransÄ±z
ĠaÄŁ aÃ§
Ġd ijital
ĠgÃ¶rÃ¼n t
Ġot obÃ¼s
lÄ±ÄŁ Ä±nda
an g
Ġgal ib
ĠbÃ¶lg ede
ĠY azÄ±
ĠbaÅŁk anÄ±
Ġ eb
ĠyayÄ±n lanan
ĠI s
Y Ä±l
ĠGenÃ§ lik
3 3
ebilm ek
Ġbiri dir
ĠS tr
Ġyen il
ĠY as
k el
Ġyap ma
E O
abilm ektedir
Ġr ezerv
ĠÃĩ ek
Ġpar Ã§a
as tik
ĠÄ° le
Ġr ast
n an
Ġb on
ĠiÅŁlem i
O k
Ġod ak
Ġm ac
ĠdÃ¶nÃ¼ÅŁ tÃ¼r
Ġt ers
ĠProj esi
v a
Ġ x
Ġt icari
Ġ3 00
Ì §
L A
Ġed erken
ĠÃ¶nc eden
ĠsÃ¶z leÅŁ
ĠvÃ¼c ud
ĠkÄ±y af
Ġd aÄŁÄ±t
am Ä±yor
Ġbulun ur
mas Ä±ndan
Ġi tir
av uz
ĠdÃ¼ÅŁ man
Ġs af
Ġdur uÅŁ
ĠE R
ĠB l
k al
Ġb Ã¶
ĠB Ã¼tÃ¼n
Ġetti ÄŁini
ĠD ik
ĠÄ° ST
ĠE N
lÄ±k larÄ±
Ġkam er
lendir me
Ġeder iz
T C
Ġist erseniz
dÄ±ÄŁ Ä±mÄ±z
it er
E vet
Ä±y Ä±z
ĠD oÃ§
l us
Ġark a
ĠG al
ĠsÃ¶y len
Ġgir di
z u
Ġitibar iyle
Ġnokta da
Ġver m
aÅŁ Ä±
ĠbaÄŁlan t
ĠÄ°l iÅŁ
tan Ä±n
ĠM obil
o ut
Ġic in
ĠyaÅŁ adÄ±ÄŁÄ±
l es
ĠeÄŁlen celi
ĠEr z
0 3
ul muÅŁ
k Ä±r
ĠAr ab
ĠGru bu
Ġyat Ä±r
ĠgÃ¶rÃ¼n Ã¼yor
ĠCum artesi
ĠW indows
Ġkayn aÄŁÄ±
aÅŁ Ä±k
ĠF utbol
ĠgÃ¶ster iyor
B Ã¼yÃ¼k
P S
Ġbur adan
ik at
ĠTar if
ĠÃ§ oÄŁun
il la
r is
Ġyap Ä±n
A t
Ġfayd alÄ±
em atik
ĠyaÅŁ at
ĠF otoÄŁraf
Ġver mektedir
Ġdol ayÄ±sÄ±yla
tr en
Ġsiz ler
Ġfayd alan
Ġbulun dur
om e
ĠÃ¶n lem
Ġden g
uk at
Ġr ed
Ġide al
Ġbilg iye
Ġgid iyor
fer ans
or ta
Ġgenel inde
ĠBah Ã§
ĠyaÅŁ ay
ĠN ak
u f
ĠD ak
ĠE tik
Ġdek or
ĠY emek
or din
et er
acak sÄ±nÄ±z
Ġt ez
ilm ez
r aki
o li
ĠA pple
ir im
an ti
is yen
un ma
masÄ± yla
ĠOt om
Ġgel diÄŁi
tÄ±ÄŁ Ä±mÄ±z
C HP
T ur
Ġs uy
ĠÃĩ elik
ĠSÄ±n av
Ġkend ilerini
ĠgeÃ§ iÅŁ
ĠK ara
ĠÄ° letiÅŁim
Ġolm am
u lar
Ġuz at
ĠbugÃ¼n e
Ġnef es
Ġdur dur
Ġum ut
ĠÄ°s p
ĠgÃ¼nde m
ĠEm niyet
Ġu fak
Ġ3 4
Ġikti dar
tan siy
y eni
ĠkullanÄ±l Ä±r
) :
ĠhayÄ±r lÄ±
I Y
Ġtab ii
ĠbaÅŁlam Ä±ÅŁ
ab ilmesi
Ġtut ar
ĠðŁĻ Ĥ
Ġi ken
ĠDÃ¼n y
ĠiliÅŁk iler
201 4
Ġyar g
ĠP ort
Ġt oz
Ġtarih li
ĠyÃ¼rÃ¼y Ã¼ÅŁ
eceÄŁ imiz
ĠS il
Ġyar Ä±n
E H
Ġnes il
K at
Ġdar be
Ġs Ã¼s
in sel
laÅŁ ma
ĠH otel
ĠÄ° dar
A h
Ġboz uk
ĠP aÅŁa
ĠN er
LI K
ĠSistem i
ĠK or
Ġhaber leri
lar i
Ġbelirt ilen
Ä°ÅŁ te
ĠkonuÅŁ an
in da
ĠY eÅŁil
Ġbah Ã§
Ġil Ã§e
Ġb l
Ã§ uk
ĠmaÃ§ Ä±
T Ãľ
Ġalb Ã¼m
ĠH ukuk
abil eceÄŁini
7 5
0 2
ĠÃľ N
ĠAn a
ro p
ĠTasar Ä±m
ĠSon uÃ§
yas al
ĠÃ§erÃ§ev esinde
ĠBun lar
lerimiz e
s ar
om p
ket bol
Ġkans er
ĠeÅŁ i
ĠD ub
olo g
Ġel bette
ĠgÃ¶rÃ¼n Ã¼m
ĠÄ° Åŀ
ĠVak fÄ±
Ġins anÄ±
ĠÃ¼y eleri
ĠkÃ¼ltÃ¼r el
end er
Ġkal ite
ĠD anÄ±ÅŁ
ĠT e
ir in
ĠÃĸÄŁr etmen
Äŀ Ä°
Ġal ak
A ma
ĠY ah
ĠgÃ¼n ler
ĠS ig
ĠT R
Ġfutbol cu
Ġz ek
Ġbul abilirsiniz
Ġver meye
lan mÄ±ÅŁtÄ±r
aÄŁ Ä±n
ĠolduÄŁ unuz
ĠĠ ĠĠ
Ġac aba
lan ma
0 9
Ġgel ip
Ġek ibi
ĠD e
ĠM on
Ġbenz eri
man Ä±zÄ±
Ġekip leri
Ġedilm iÅŁtir
an larÄ±
lam aya
Ġbir er
Ġinsan lara
t esi
Ã¼t Ã¼p
aal esef
Ġbir ini
lik ler
ĠolmalÄ± dÄ±r
ĠA T
Ġkolay ca
ĠUl usal
ĠKar adeniz
ĠgÃ¶z altÄ±na
Ġtoplum sal
Ġsan ki
Ġt he
ĠP lan
Ġzam anÄ±
ĠEt kin
Ġbilin Ã§
ĠtanÄ± tÄ±m
âĢĻ âĢĻ
lÄ±ÄŁ Ä±nÄ±n
Ġsek s
ĠK it
ĠPaz artesi
m uz
ĠG er
A ÅŁ
Ġfay da
D Ä°
ĠFestiv ali
ĠGerÃ§ ek
s oy
a in
las tik
ala xy
ĠtaÅŁ Ä±
l iliÄŁi
K al
larÄ±n daki
ĠÃ¶n de
Ġ3 6
Ġadet a
Ġf alan
Ġmah k
Ġbul mak
iler den
Ġelekt ronik
res s
Ġolduk larÄ±
Ä±k lÄ±
ĠM Ã¼ÅŁ
Ġof is
Ġyol cu
ĠaÃ§ Ä±lan
Ġsah ib
alar la
ĠÃľy esi
Ä±y dÄ±
ĠS or
Ġol dum
ĠBÃ¶l g
Ġtar Ä±m
ĠAk deniz
ediÄŁ iniz
C I
Ġdem ir
Ġf inal
ĠF ETÃĸ
Ġist ik
Ġbilim sel
m esinin
ĠAmerik an
w e
et h
5 5
t h
Ä±nt Ä±lÄ±
l or
ĠsektÃ¶r Ã¼nde
Ġ us
ĠsonuÃ§ larÄ±
Ġyak Ä±ndan
liÄŁ inin
3 4
Ġkullan an
ĠÃĸÄŁr enc
K AR
h ale
k siyon
v ar
l ayÄ±cÄ±
s h
ebilir iz
ĠiÅŁbir liÄŁi
? "
Ġr ahmet
Ġsistem leri
S aÄŁ
elis iniz
Ġkul ak
ĠM HP
ĠS Ã¼leyman
ĠMah kem
ĠT Ä°C
3 1
l eki
alim anÄ±
K ay
am adÄ±
ĠMÃ¼z ik
ĠSavaÅŁ Ä±
ĠS alÄ±
Ġetk ilen
19 9
lay Ä±n
ĠgÃ¼n Ã¼mÃ¼z
ĠteÅŁ kil
E y
Ġist ediÄŁi
Ġg ayet
Ġyer den
Ġsay ede
Ġser gil
ĠG ar
B ey
Ġk up
Ġkorum a
ĠiÃ§in deki
og raf
ĠK UR
ĠkÃ¶ k
ĠÅŁey in
Ġyap Ä±sÄ±
enc er
ĠaÃ§Ä± dan
ĠbaÅŁ ken
ĠdÃ¶nem i
Ä°z mir
S A
0 8
Ġrak ip
ĠÅŁ ef
H aber
Ġde pr
IN DA
Ġd is
Ġdiye bilir
as Ä±ndaki
Ġay n
o us
Ġyas al
Ġboy u
ĠI ÅŁ
ĠDest ek
ĠKul Ã¼bÃ¼
ER K
Ġf er
Ġanlat an
ĠÃ¶ den
i e
Ġda im
Gen el
Y az
ĠÃĩ anakkale
Ġsor unun
Ġmevcut tur
Ġbek lem
b ek
Ġpo tansiy
ĠOr gan
ĠK ent
ĠgÃ¶rÃ¼l en
ĠÅŁ er
Ġgel eceÄŁ
Ġun sur
V e
Ġyar Ä±m
Ġt en
Ġtan esi
b eri
ĠgeliÅŁ meler
ĠÃ§alÄ±ÅŁ mak
Ġkan un
Ġgru bu
ĠT EK
c ar
ĠV an
Ġhay ran
it ir
ĠE x
el al
0 6
ĠÃĩar ÅŁamba
Ġmen s
Ġ ada
an et
v ey
ĠKan un
Ġpr atik
ic k
3 6
ĠgÃ¶r m
y u
ecek siniz
ĠDev am
Ġh ik
ĠÅŁ unlarÄ±
ĠdeÄŁ eri
Ġkapas it
ay asa
ĠTr ump
Ġkes im
ĠS es
Ġsev gi
ĠB alÄ±k
iv as
ĠyÃ¶n el
ĠgÃ¶z lem
A Ã§
duÄŁ um
ru f
ĠÃ§Ä±k acak
0 7
deb iyat
ĠiÅŁlem leri
on g
un cu
Av rupa
de s
0 4
o o
Ġkah raman
em esi
ĠKur umu
ĠF ar
ĠM Ãľ
ĠY a
ĠÃ§aÄŁ r
ow n
d Ã¼n
iy el
un daki
ĠâĢ º
ir li
ĠbÃ¼y Ã¼m
H al
ĠkarÅŁ Ä±ya
im le
. [
adÄ±ÄŁ Ä±nÄ±z
os ya
ĠiliÅŁ ki
us unun
ĠPer ÅŁembe
Ġyum uÅŁ
ler ken
ĠE T
Ġsor gul
ĠÃĸÄŁr etim
Ġtemsil c
Ġm imar
Ġl ink
T D
Ġgur ur
Ġon dan
Ay rÄ±ca
ĠV ol
Ġn iyet
Ġ ..
Ġsan ayi
on a
ĠD A
Ġgi dip
M ET
K AN
an dar
el li
Ġgetir mek
adÄ±ÄŁ Ä±mÄ±z
ind istan
Ġb uz
duÄŁ unuz
Ġbir im
Ã¼l dÃ¼
ĠYaÅŁ am
Ġd iyet
ĠaraÅŁtÄ±r malar
ĠÄ°ÅŁ leri
ĠK ON
ĠG az
Ä°T ESÄ°
ĠA j
laÅŁ Ä±k
Ġb Ã¼r
R us
Ġsev k
Ġ200 7
n uv
Ġtop lu
Ġkar tÄ±
Ġt iyatro
I T
ĠÃ¶nc elikle
ĠG eri
ĠsÃ¼r edir
ĠÅŀ ey
Ġyiy ecek
Ġbeklen t
ĠYar Ä±ÅŁ
usu f
ĠAs ya
ac Ä±k
ĠAf rika
t d
os k
Ġalt yap
Ġd oy
Ġul usal
acaÄŁ Ä±na
Ġm ekt
ĠF orum
3 9
Ġg Ä±da
abilir iz
ĠyÃ¼z Ã¼nden
Ġsev en
ol a
Ã¼ ce
ĠM em
Ġpoz isyon
Ġt it
Ġmuh al
ĠÃ¼lk emizde
Ġr ef
Ġ3 2
Ġsev gil
ĠkadÄ±n larÄ±n
bah ar
Ġbar Ä±ndÄ±r
Ġsan Ä±rÄ±m
ĠF er
Ãĸ ÄŁr
m uyor
Ġmis iniz
ĠKo Ã§
Ġyen ilen
Ã ¾
Ġkaydet ti
Ġdurum larda
ĠyÃ¶n lendir
an n
ĠÅŀah in
Ġhap is
ĠBaÅŁ v
ĠS em
Ġfizik sel
lad Ä±m
ĠÅŀ irket
ti on
Ä±lÄ± p
Ġet ki
ĠÅŁik ayet
ĠgÃ¶ k
ĠulaÅŁ Ä±m
Pro f
g az
Ġmut fak
lik te
ĠÃľ Ã§
ĠF ark
ĠMed ya
tay Ä±z
ĠbÃ¼ny esinde
akar ya
ad ir
Ġyol da
av a
Ġist if
Ġyer ler
ĠmÃ¼ hendis
Ġtak v
ĠE ge
ĠamaÃ§ lÄ±
ĠoÄŁ lu
ĠÅŀ en
Ġbir leÅŁtir
ĠÄ° kinci
Åŀ u
Ġbir inin
Ġeg z
Ġyol unda
Ġr efer
Ġf estiv
Ġser g
Ġbil en
ĠOr du
ĠsaÄŁlay acak
Ġt Ä±p
ĠBayram Ä±
ĠE uro
alat ya
Ġmah all
k im
Ġdir en
u g
" ,
ĠEn stit
Ã¼st r
ĠS un
Ġolm ayÄ±
ĠgeÃ§ er
Ġyap tÄ±m
S amsun
eli ÄŁi
Â Ķ
ĠS Ä±nÄ±f
alÄ± dÄ±r
ĠDer gisi
ĠgÃ¼n Ã¼n
Ġad ayÄ±
ĠGazi antep
AR ET
Ġoyun larÄ±
ĠÅŁ iÅŁ
ĠM ersin
ĠD uy
Ġkon for
adÄ±ÄŁ Ä±m
Ġsey ir
lar daki
ĠA ile
al am
G Ã¶r
Ġs am
ĠteÅŁ vik
Ġortam da
Ġkad Ä±nÄ±n
ĠÅŁ ub
ĠY al
ĠgÃ¶r Ã¼r
Ġu st
Ä±ÄŁ Ä±nÄ±
Ġbab asÄ±
d eri
ĠdeÄŁ in
ans iyon
ĠgÃ¼n e
Ġ15 0
Åŀ imdi
AR I
Ġf abrik
ĠDak ika
3 8
Ġac il
ĠM Ä±sÄ±r
pr iz
us uz
Ġyaz Ä±k
Ġan ti
ĠbakÄ±m Ä±ndan
p osta
Ġuy umlu
ĠKon s
ĠgÃ¼n den
ĠYÃ¶net imi
Ġkal mÄ±ÅŁ
ren s
Ġn as
Ġmad di
ĠÃ§alÄ±ÅŁ tÄ±r
ĠG Ã¶n
Ġan d
s iyet
ĠÄ°nÅŁ aat
Ġs e
r esi
ĠMes lek
Ġfak tÃ¶r
Ġyolc uluk
Ġyok tu
Ġsorun larÄ±
T I
at e
dan Ä±
Ġyet en
Ġoyn an
Ġli g
Ġkay bol
Ġd edik
ĠbaÅŁlay acak
y alÄ±
Ġkol aylaÅŁ
D U
Ã¶r Ã¼
mey ecek
Ġoyn ay
Ġet miÅŁtir
ĠÃ¶ÄŁrenc ilerin
Ġtelefon u
ĠA D
m ara
duk larÄ±
r Ã¼k
ĠHas t
E Åŀ
Ġver gi
ur ta
ey se
Ġedil ebilir
ĠÄ°ÅŁ let
ĠkayÄ± p
ĠÅŁ irketi
s ul
ĠKan unu
Ġbak an
ĠRes mi
ĠdÃ¼ÅŁ en
ses uar
ĠC ih
ec iler
ĠT witter
Ġs arÄ±
ros oft
adÄ±k larÄ±
ĠAs lÄ±nda
ĠAd am
Ġ0 2
tÄ± lar
Ġil ave
eb e
b at
ĠkonuÅŁ ma
Ãľ n
l os
ĠyaptÄ±k larÄ±
ĠTar Ä±m
Ä±y Ä±m
Ã¼k s
Ä°Y OR
iye de
Ġkayde d
a il
Ġolm adÄ±
Ä° Ã§
ĠCez a
Ġk lasik
An cak
Ġtak Ä±mÄ±
L AM
Ġtedav isi
3 2
ĠT un
Ġbelir len
ĠkaÃ§ Ä±n
Ġol maktadÄ±r
ĠgerÃ§ekleÅŁ en
or b
Ġolduk larÄ±nÄ±
ĠEÄŁ itimi
Ġifad elerini
U l
Ġhak larÄ±
ĠH azÄ±r
Ġyar Ä±
Ġsebeb iyle
Ġiyi ce
ĠaÅŁaÄŁÄ± da
Ġkonu larda
ĠM ot
ĠCumhur baÅŁkan
_ _
Ġc oÄŁraf
ĠÃ¶n Ã¼mÃ¼zdeki
at istik
ĠBÃ¶l gesi
aÄŁ Ä±nÄ±
ĠO Y
ĠAv ust
Ġkorum ak
Ġmak al
m r
AL I
ÅŁ ap
Ġkur s
ĠO ÄŁ
v el
ĠsonuÃ§ lar
ĠD on
ĠOr t
ĠgÃ¶r dÃ¼k
dar oÄŁlu
Ġbirbir ine
ĠAn n
3 7
T L
b el
ĠSok ak
Ġalan larÄ±
Ġkazan an
ĠR ek
ek il
Ġgenel de
ĠsatÄ±ÅŁ a
Ġol abilirsiniz
ĠÃ§ek ti
ĠalÄ±n masÄ±
Ġmak am
ĠÄ° d
ĠKr al
Ġver imli
Ġ4 8
ĠC ad
ĠdÃ¶nÃ¼ÅŁ Ã¼m
Ġhan Ä±m
ĠBilg isayar
ĠkÃ¼r esel
Ġr e
ik ol
Cumhur baÅŁkanÄ±
Ġsiz leri
ĠP as
ĠY IL
Y ON
Ġsab it
ĠÃ§aÄŁ Ä±r
ĠaÄŁ rÄ±
ĠÃľnivers it
Ġgelenek sel
Ġyan Ä±na
ĠPar is
mas Ä±n
eb i
BM M
Ä°V ERS
Ġs Ã¼per
Ġd ini
r at
Ġhayat ta
ek s
Ġkurum sal
ĠgÃ¼Ã§ lendir
ĠY azar
ĠV ideo
Ġbahs ed
ot ik
Ġsin ir
ĠT iyatro
ĠKay nak
lan acak
Ġsin ema
t s
m ede
uÄŁ la
ĠyÃ¶net men
ĠÃ¼ret imi
ĠaÄŁ r
abilir ler
ĠY ork
Ġkal b
enk ul
m eyin
ĠB odrum
ĠiÅŁ leri
ĠtaÅŁ Ä±ma
er al
Ġad alet
ĠbaÅŁlan gÄ±Ã§
Ġdikkat e
g ah
Ġtemiz lik
Ġk anÄ±t
EN Ä°
Ġver erek
ĠgÃ¶r Ã¼yor
Ä°S Ä°
ĠEs kiÅŁehir
Ãľ r
ĠgÃ¼nde me
Ġzaman lar
ĠulaÅŁ mak
Ä±lÄ±ÄŁ Ä±yla
ĠM u
ĠÄ°s mail
Ġ0 9
b iy
ĠgÃ¶ l
ĠyaklaÅŁ Ä±m
Ġp ah
Ġz eytin
ĠsÄ± v
Ġsun um
Ġo p
ĠÅŀub e
ĠB undan
es e
o un
Ġ20 00
ĠRab b
Ġo b
ĠgÃ¶rev i
ĠolduÄŁ um
v eÃ§
ĠiÅŁ lev
Ġciv arÄ±nda
Ġtakdir de
am uk
uy um
Ġbas k
Ġedeb iyat
ab i
Ġkullan abilirsiniz
ĠbÃ¶lÃ¼m Ã¼nde
Al man
Ġmet rek
ĠTop lum
Ġi ade
Ġal dÄ±k
Ġd ip
ĠKÄ±z Ä±l
mÃ¼ÅŁ tÃ¼r
T r
Ġkend inizi
Ã¼ ya
Ġs unu
Ġ =
Ġhat a
ĠgÃ¶ster ir
Ġar alarÄ±nda
Ġyol uyla
Ġden etim
Ġtut ul
Ġf i
r iyet
ĠyaÅŁ lÄ±
ĠbÃ¶yle ce
ĠÃľN Ä°VERS
AB ER
Ġfon ksiyon
Ġaz Ä±ndan
Ġl ok
Ġhar ek
M ar
m esiyle
lay acak
ĠKup asÄ±
Ġsiz lerle
ĠgÃ¶rÃ¼ÅŁ meler
Ġver siyon
et iyle
Ġdurum a
Ä°N E
Ġr ej
ĠK af
ĠÅŀeh it
Ġ est
ler inize
4 8
ĠZ aten
Ġmey ve
Ġkend imi
ĠÃ§ek ici
gr esi
d un
Ġhal i
ĠEn d
il l
ĠHay van
ĠsaÄŁ lÄ±ÄŁÄ±
Ġtaraf tar
dÄ±ÄŁ Ä±nÄ±z
Ġmah kem
ĠDol ayÄ±sÄ±yla
Ġkazan dÄ±
Ġay akkabÄ±
ĠG alaxy
ĠZ iyaret
ĠÃ¶nc esinde
Ġbul du
es por
Ġar ÅŁiv
ĠÄ° mam
Ġbel ediy
ĠK av
ĠÃ¶n gÃ¶r
ĠElekt rik
eÄŁ ine
l iy
ĠEn erji
ĠDem okr
Ġol acaÄŁÄ±
ĠEv et
Ġa j
daÄŁ Ä±
Ġs aha
vek il
Ġsun ulan
ĠB ayan
lem esi
Ä°L ER
ond ra
Ã§ isi
ĠÄ° talya
ĠM imar
ĠfÄ±rs atÄ±
az en
Ġsev g
Ġkus ur
Ġmal zeme
Ġbes lenme
ek er
Ġmuh ab
ĠÃĩ ift
if e
ĠA V
Ġ19 6
an Ä±zÄ±
Ġk imi
M E
ĠD oÄŁan
ĠgÃ¼n Ã¼mÃ¼zde
Ġol unca
Ġb aba
ĠÃĩev re
Ġkar a
Ġzorun lu
ĠkarÅŁ Ä±lan
Ã¢ y
Ġproj eler
ĠÃ¶ÄŁrenc ileri
Ġtasar Ä±mÄ±
ĠK endi
ĠH Ã¼kÃ¼m
ĠiÅŁ Ã§i
ĠbaÄŁ Ä±ÅŁ
ĠmÃ¼da hale
ĠÃ§ocuÄŁ un
Ġkam era
ĠÃ¼ret ic
Ġkah ve
ĠL im
ley in
Ġkar go
s lan
ĠtÃ¼r Ã¼
ĠGÃ¶r Ã¼n
ĠP RO
Ġy e
Ġk Ä±zÄ±
er ik
Ġad landÄ±r
ĠF Ä±r
m esinde
ĠK aÃ§
Ġbir leÅŁ
Ġbelirt ildi
. âĢĻ
Ġyet enek
ac e
ĠMec lisi
Ġel inde
ĠB ebek
ĠiletiÅŁim e
p h
Ġver ilir
Ġkelim e
ĠR ap
p a
ĠulaÅŁ tÄ±r
ĠalÄ±ÅŁ kan
ĠgÃ¶ster di
ĠOn line
Ġuy an
any o
an dev
Ġ5 5
Ġver ilecek
ĠM ez
Ġb isiklet
Ġmem ur
ĠS e
Ġh aberi
Ġy itir
Ġteb rik
Ġ4 00
lÄ± dÄ±r
Ġyer lerde
Y ar
Ben im
Ġzor luk
4 6
S B
Ġsel am
Ġver ici
B Ã¶l
on un
lu p
ĠY aÄŁ
ĠÃ§alÄ±ÅŁmalar Ä±nÄ±
Ġted bir
R ET
ĠS arÄ±
201 3
ĠP an
Ġser may
par ator
malar Ä±nÄ±
Ġadr esi
ĠyÄ±l Ä±nÄ±n
ÅŁ u
Ġkit l
ĠDÄ±ÅŁ iÅŁleri
ĠgÃ¼zel lik
Ġedilm ektedir
ac h
Ġmak yaj
en de
Ġok ur
ĠÃľ cret
Ã¼l mesi
ad as
ĠR ad
Ġbulun mak
ĠgeliÅŁ miÅŁ
Ġf uar
Ä± d
Ġb eyin
ĠYap Ä±lan
ĠterÃ¶r ist
ĠD oktor
Ġg Ã¼r
ĠFil istin
Ġmey dan
Ġkol eksiyon
tÄ±k larÄ±
b ank
ĠOt obÃ¼s
Ġspor cu
ĠyaÄŁ mur
ab alÄ±k
Ġoy unun
j i
Ä±ÄŁ a
ĠÃ¶r n
em eyen
Ġkim lik
la v
ig ht
. '
ab or
is iz
ĠD iz
Ġn am
Ġsev iyorum
Ġar aba
ib e
Son raki
Ġoran Ä±nda
acaÄŁ Ä±mÄ±z
ĠSer vis
z at
ĠseÃ§enek leri
dÃ¼ÄŁ Ã¼nÃ¼
ĠAr aÃ§
ĠY urt
l iliÄŁ
Ġk uzey
z i
ĠEn gel
Ġkap s
ĠH Ä±z
Ġdakik ada
ok ol
ĠtÄ±klay Ä±nÄ±z
lÃ¼ÄŁ e
yas por
te in
Ġtasar ruf
Y aÅŁ
mek ten
k y
Ġreh ber
ĠE debiyat
Ä° B
Ġar alÄ±k
Ġgay ret
ĠD iyarbakÄ±r
es ter
g at
Ġbit k
ĠÃ¶rgÃ¼t Ã¼
il ip
r ip
ĠaÃ§Ä±klam asÄ±
B unun
ĠV ali
Ã¼y e
ĠkÄ±s Ä±m
Ġk oc
ĠT h
ĠD ek
Ġi man
Ġmey v
Ġ3 8
aman Ä±n
anlÄ± ur
Ãĸ Z
ĠK en
Ġtur ist
Ġarac Ä±lÄ±ÄŁÄ±yla
il t
ĠÃĸ l
Ġ Ä±r
Ġadam Ä±
f Ä±r
ĠÂ «
Ġay da
men izi
ildi ÄŁini
Ġderec ede
Ġd om
Ġbek lenen
Ġkul Ã¼p
Ġiz len
K end
ĠÃ§ am
ĠtÄ±klay Ä±n
Ġkap an
ĠTak Ä±m
ĠaydÄ±n lat
Ã¶l y
ĠAbd ullah
ĠÃĩalÄ±ÅŁ ma
ĠÃ¼lk eler
Ġkar iyer
Ġbeklen iyor
ĠÂ ĵ
S er
ĠÃľNÄ°VERS Ä°TESÄ°
Ġmar uz
ĠÃ§Ä±k mÄ±ÅŁ
ĠE K
egor i
aÄŁ Ä±na
ĠT emiz
ĠHak an
Ġkaybet ti
Ġsaat lerinde
K ul
ĠR enk
am adÄ±m
Ġyan gÄ±n
ĠHan Ä±m
Ġsin em
O C
Ġ ep
ĠTekn oloj
ĠÃ¼st Ã¼ne
lan tÄ±
ÅŁ Ä±
ĠS oru
Ġkal Ä±r
ĠÃ¶ lÃ¼
ic h
Ġhal en
Ġbilm iyorum
Ġm Ã¼l
am ayacak
ĠMÃ¼z esi
ĠBÃ¶l ge
ĠyÄ±l lardÄ±r
Ġser tif
m el
al og
ĠM aÃ§
Ġdikkat li
ĠbaÅŁ lÄ±klÄ±
Ġv izyon
andar ma
M uh
Ġ6 5
Ġmuh tem
Ġkork u
ĠYap Ä±
ĠOyun larÄ±
ĠkarÅŁÄ±l aÅŁtÄ±r
I n
ĠgeÃ§ iyor
lim a
Ġist edim
ĠTak Ä±mÄ±
eÄŁ iyle
f ik
Ġdev rim
ĠÄ° LE
ĠÃ§ocuk larÄ±
ĠedeceÄŁ iz
ĠAr t
ĠP lay
ĠsÃ¼reÃ§ te
Ġmiktar da
ĠsÃ¼r priz
Ġh Ã¼k
Ã¶ p
eler ek
ĠdeÄŁil di
EN D
EL Ä°
ĠÃ§ek iyor
Ġtab let
p az
d Ä±ÅŁ
Ġbiz lere
Ġc umhur
dik lerini
ĠK ore
ĠyaÅŁ Ä±yor
oh n
ĠBel ki
EL ER
ĠKoca eli
Ġy edek
ĠUygul ama
Ġh ediy
Ġt ren
ĠmaÃ§ Ä±nda
Ġek mek
ĠFiyat larÄ±
ĠOn lar
ĠyaptÄ±ÄŁ Ä±mÄ±z
d ol
i di
Äŀ Ä°T
Ġkims enin
ĠGazet e
Ġat tÄ±
ĠyÃ¼ksel t
Ġden em
Ġuy arÄ±
Ġfir masÄ±
as h
lÄ±k ta
ey ip
ĠdÃ¼zen lediÄŁi
Ġkim yasal
tif ak
Ġet tiler
D eniz
Ä±r sÄ±z
Ġhis se
unuz a
ĠF ik
Ġm m
Ġ7 5
Ġb iy
Ġv ir
ĠiÅŁ gal
Ġiz lem
Ġger eÄŁi
ĠkolaylaÅŁ tÄ±r
ĠaÄŁ z
ĠÃľ zer
Ġp lak
Ġsah ne
d oÄŁ
ĠYunan istan
ĠT av
T he
ĠkatÄ±lÄ±m cÄ±
ĠFeder asyonu
ĠgÃ¶r dÃ¼m
ĠPol is
ĠkeÅŁ f
ĠE D
ĠdÃ¼ÅŁÃ¼n Ã¼l
l ob
ĠyÃ¼r Ã¼r
ĠbÃ¼t Ã§
ĠProj e
ĠKr edi
ĠO lay
e e
Ġcez asÄ±
ĠS aÃ§
ĠkÃ¶ pek
Ġgar ant
Ġ2 50
ĠBirleÅŁ ik
mekt eyiz
ĠaÃ§ an
ĠT al
ĠÅŁey leri
ĠdÃ¼zel t
ĠkÃ¶ pr
ĠL a
Ġhastal Ä±ÄŁÄ±
ĠÃ§ek im
E ÄŁ
ler di
Ġmemnun iyet
ĠgÃ¼ven liÄŁi
S el
B ah
o tiv
Ġnokt asÄ±
Ġan tren
A mer
Ã¼t Ã¼
Ġfir mamÄ±z
I I
ĠG Ã¼nde
ĠHav alimanÄ±
E P
Ġnumar alÄ±
ĠT AR
Ġnak liyat
ĠY Ã¼r
ĠkaÅŁ Ä±ÄŁÄ±
Ġolm asa
ĠC on
Ġev den
Ã¼k le
Ġesn asÄ±nda
Ġ0 5
ĠLis ans
Ä±l masÄ±na
IN I
Ġes k
ley erek
Ġden k
ĠR ob
Ġbizim le
ĠY usuf
ĠS iyas
ul maz
Ġsev er
n deki
lÃ¢ m
ĠD ep
Ġyap Ä±yoruz
Ġisteyen ler
Ġyap Ä±p
4 7
ĠAk adem
ĠTop lant
ÅŁ e
Ġson suz
Ġm ini
ĠÃ¼st Ã¼nde
Ġol aÄŁan
Ġsebep le
d ing
Ġgel mesi
Ġkal em
ĠdÃ¼zey de
Ġm aalesef
ĠÃ¶lÃ§Ã¼ de
Ġbir ÅŁey
k ray
Ġal ey
Ġsorun lar
Ġyans Ä±t
ĠÅŁ eye
Ġsun mak
Ġan Ä±nda
it i
ĠsÃ¶y lemek
Ġr Ã¶
ĠbÃ¼y Ã¼
S AN
Ġesn af
ak al
ĠyapÄ±l Ä±yor
Ġister im
Ġar tan
Ġrek abet
Ġan Ä±
umuz un
Ġyap manÄ±z
Ġolmak tan
Ġhalk Ä±n
iv e
Ġmerkez inde
ez il
Ġyap mayÄ±
ĠEm re
Ġ0 8
ĠKam u
Ġev len
az er
R AM
Ġetkil ey
ĠÅŁeh rin
ĠK ork
ĠKay seri
Ġ eh
ĠF az
ĠS oy
Ä±s Ä±yla
ĠD ar
Ġ0 1
Ġuygulam alarÄ±
Ġor man
giliz ce
Ãľ lk
R es
ĠbaÅŁ Ä±
ĠeÄŁ it
y iz
t op
Ġer iÅŁim
Ġpar lak
et te
ay arak
Ġr Ã¼z
ar ik
ĠSek ret
Ġanlam Ä±
ĠO R
Ġbilg isi
Ġp etrol
Ġm oda
Ġses siz
ĠHaf t
P ar
ĠÅŁeh ri
Ġgerek tiÄŁi
Ġol amaz
ĠDÃ¼z en
Ġ Ã¼m
Ġdep ol
Ġdon anÄ±m
ĠEnstit Ã¼sÃ¼
Ġalan larda
u e
ĠÅŁ Ã¼k
ĠSamsun g
t um
Ġkal Ä±cÄ±
ĠkarÅŁ Ä±mÄ±za
Ġkazan Ã§
Ġhav uz
ĠV atan
ĠÃ¶ÄŁren mek
ĠSaÄŁ lÄ±ÄŁÄ±
ĠÃ¶ t
Ġistih dam
Ġef san
eÅŁ me
Ġpar mak
l ed
ĠdÃ¼ÄŁ Ã¼n
Ġf orum
m adÄ±ÄŁÄ±nÄ±
Ġengel li
unuz un
ĠK uÅŁ
ĠOr man
ĠkullanÄ±l abilir
Ġr engi
Ġd ili
Ãľ Y
Ġp ort
t or
anlÄ±ur fa
y az
ara j
aÄŁ Ä±nda
4 9
ot er
ey di
Ġ lan
Ġkol tuk
ĠdÃ¼ÅŁÃ¼n ce
N A
ĠsÃ¶z Ã¼
Ġtut an
um an
ĠOk ulu
amÄ±z da
Ġh itap
ĠFu arÄ±
Ġgit tik
ĠEkonom i
Ġdil ek
Ġdil iyorum
Ġbank a
ĠgÃ¶ ÄŁ
M AK
Ġdu a
Ġm avi
Ġdar b
Ġhareket e
T V
Ġbes len
Ġzaman Ä±nda
ĠM in
Ġver im
ĠK arak
Ġtab lo
ĠTem el
ĠP sik
S por
Ġay larÄ±nda
ĠÅŁ imd
Ġgerek se
Ġver me
S osyal
Ã Ħ
201 2
larÄ±n Ä±za
at Ä±n
Ġger ide
elen dir
Ġma il
alan dÄ±r
ĠTab i
ĠÄ° b
Ġmens up
ĠgÃ¶z Ã¼k
Bur sa
ĠyÃ¶ntem i
ĠÃ§alÄ±ÅŁ maya
ĠSer visi
Ġdepr em
ĠKar ab
Ġd ans
Ġg Ã¼z
ĠyÄ±l d
Ġgeldi ÄŁini
Ġkahv altÄ±
Ġar am
Ġy el
Ġkey f
ĠH erkes
day Ä±z
Ġ3 7
h ay
ec ik
ĠG Ä±da
E Ãĩ
ĠÄ° lan
Ġhar f
ĠAÅŁ k
ĠO p
ĠbaÅŁlad Ä±k
ĠÃ§oc uÄŁu
ĠY Ä±lÄ±
uk ur
UL U
Ġfark Ä±
ĠÃĸz gÃ¼r
las man
Ġgel ince
Ġev et
Ġ âĢĻ
ĠkatÄ±l dÄ±ÄŁÄ±
Ġcam i
ÄŀÄ°T Ä°M
Ġkullan dÄ±ÄŁÄ±
esel a
Ġmadde si
ĠE b
ĠSat Ä±ÅŁ
larÄ±nÄ±z Ä±n
m p
Ġtamam lan
eb ilen
s inde
Ġfilm in
Ġsaat leri
Y ak
al d
U y
Ġdur uyor
ĠbiÃ§ im
ilm e
Ġz irv
man Ä±za
ĠhÃ¼c r
imiz le
ĠK uvvet
ans Ä±z
ĠgÃ¶r dÃ¼
r ist
Ġv ad
P eki
Ġan lar
ERK EZ
is ar
Ġmus unuz
Ä° P
ĠaÃ§ Ä±ldÄ±
es ir
Ġev inde
ĠL td
Ġbak alÄ±m
ĠN et
Ġmet al
a a
ĠR um
Ġpan el
K adÄ±n
19 8
Ġm or
ĠÃ§at Ä±ÅŁ
ĠK erim
Ġedildi ÄŁi
Ġhafta da
edi ÄŁini
ĠÃ¶ mÃ¼r
Ġan ahtar
ĠN ev
uÅŁtur ucu
Ġuygulam alar
Ġtoplum un
Ġmev sim
Ġlezzet li
ayÄ± t
Ġokum ak
c Ä±lÄ±ÄŁ
Ġyar alÄ±
ĠDeÄŁ er
oÅŁ k
ĠmÃ¼mkÃ¼n dÃ¼r
Ġver iler
lar Ä±mÄ±
Ä±l lÄ±
Ġal abilir
ĠG ez
O D
Ġrezerv asyon
Ġetm eyi
ĠN eler
Ġok uma
ĠÃĸr g
Ġolm anÄ±n
ĠKÄ±lÄ±Ã§ daroÄŁlu
abor at
ah h
Ġd an
Ġod asÄ±
ĠKah raman
Ġz inc
An talya
Ã¢ m
Ġanlat tÄ±
Ġkaz a
rim enkul
Ġfark lÄ±lÄ±k
Ġp eyn
ĠbÃ¼y Ã¼me
men t
ĠDair e
ĠÃ§ ey
Ġve s
l d
Ġdav a
Ġsun duÄŁu
ĠyÄ±l larÄ±
tal yan
Ġver dim
Ġfel sef
S ur
ir t
lerin deki
ĠdÃ¼zen lendi
Ġd erken
ĠB e
ĠG EL
Ã¼rk en
M AD
Gen Ã§
Ġan al
ĠF en
ĠbazÄ± larÄ±
ĠN ec
Ġkon uyu
ÅŁ i
Ġal masÄ±
ĠAr kadaÅŁ
U B
em ey
ĠA il
Ġf ar
Ġc em
ĠTab ii
Ġd iyorum
Ġuy ku
Ġm Ã¼r
ĠRo ma
ĠB ana
ĠyÃ¶n Ã¼nde
Ġhal kÄ±
Ġg Ã¼
Tar ih
ĠB M
Ãĸ L
Ä°N DE
ĠEs cort
ĠG Ã¼Ã§
ĠS ON
Ġ3 3
Ġfestiv al
tÄ±ÄŁ Ä±m
ĠS P
Ġm Ã¼s
Ġoyun lar
Ġetik et
) )
ĠMak in
st r
Ġy Ã¶r
ĠP h
orn o
ĠdeÄŁil im
ĠÃ§alÄ±ÅŁ Ä±r
Ġvar lÄ±k
Ã¼m rÃ¼k
ĠA ir
ĠTan rÄ±
ĠZ ira
Ġt ok
Ġyetk ili
Ġolm uyor
DÃ¼n yanÄ±n
Ġin c
Ġmerkez ine
T AL
Ġa ilen
H ar
id er
lu b
Ġs ez
ĠmaÃ§ ta
Ġsavun ma
Ĩ Ĵ
ĠÃĩ ay
ĠKan unun
ĠiÅŁlet im
Ġser visi
ĠKÄ±s a
Ġsaat i
Ġmec lis
meli dir
ĠpiÅŁ ir
ĠE L
Ġbed el
l edim
ĠK aya
M an
ĠT ok
z an
Ġol abilecek
Ġhad is
Ġrahat lÄ±kla
Ġkur mak
Ġolm adÄ±ÄŁ
Ġbil iyorum
Ġsig ara
l om
Ġon ur
ĠS iyah
Ġ200 6
ĠÃľst elik
Ġsun maktadÄ±r
ĠnÃ¼f us
F A
st il
âĢ Ķ
ĠeÅŁ liÄŁinde
co in
Ġaktiv it
Ġkal itesi
Ä±l dÄ±ÄŁÄ±nda
Ġsit eleri
it ler
ĠsÄ± fÄ±r
Ġtip i
Ġik ram
ĠsÃ¼r ece
Ġhaber ler
ĠT edav
ĠmÃ¼da hal
S u
ĠErz urum
ĠN ot
Ġev lilik
h ab
Ġli deri
ĠH ey
Ġf atur
m edik
\ \
ĠDub laj
Ġyem eÄŁi
Ġma aÅŁ
ĠB U
Ġyor gun
Ä±ÅŁ lÄ±
. (
ley ecek
Ġdevlet in
Ä°S T
Ġincel ey
S t
Ġdurum un
ĠL ondra
Ġkilomet re
ĠS ivas
Ġy av
ĠgÃ¶r Ã¼yoruz
ĠKar ar
uÅŁ u
Ġd Ã¼k
Ġn in
M S
ĠyapÄ±l dÄ±ÄŁÄ±
K im
ĠK es
ĠsÃ¼r Ã¼yor
Ġetm ez
l iyoruz
ĠMahkem esi
Ġhayat Ä±n
ĠBil eti
Ġk u
ĠgÃ¼n ey
ĠgeÃ§ ici
C E
abil eceÄŁ
ut in
len iyor
o le
Ġk er
ĠKÃ¶y Ã¼
lÄ± lar
Ġg elerek
ĠcÃ¼m l
Ġail esi
ĠsÃ¶z leri
tiÄŁ im
Ġhas ar
Ġbul an
g Ã¼l
Ġsev gili
Ġyum urta
Ġy edi
Ã °
ĠsÄ±nÄ±r lÄ±
ĠÃĸ yle
iÅŁ ik
s av
4 2
ĠM en
Ġman tÄ±k
un lar
K an
ĠgÃ¼n ah
Ġbil eti
Ġkum aÅŁ
Ġmed y
ĠyÄ±l a
p o
Ġcan Ä±m
Ãĸnc eki
E m
est o
Ġsit esinde
Ġbekl iyoruz
ĠE ÄŀÄ°TÄ°M
ap i
ĠÅŁ unu
ĠÃ¼ret ilen
Ä±l masÄ±nÄ±
kray na
ĠL ist
Ã§ Ä±n
Ġgalib iyet
Ġegz ersiz
Rus ya
Ġb Ã¶yl
k or
Ġcan landÄ±r
Ġkr ed
Ä±l maktadÄ±r
Ġbirey sel
m ini
eb ze
ĠgÃ¼n leri
Es ki
ĠolduÄŁ unda
Ġkazan mak
am e
Ġf Ä±k
ĠyÃ¼z lerce
ĠÃ§ Ã¶k
c Ä±k
Ä° ki
ĠArab istan
ĠDeniz li
lÄ±y orum
Ġdal g
ĠSal onu
tÄ± cÄ±
Äŀ I
ĠB Ã¼l
iniz den
ĠBar Ä±ÅŁ
Ġc as
ĠT UR
ĠaÃ§ tÄ±
ĠE c
Ġ3 9
iler inden
ĠBun larÄ±n
Ġinan Ã§
li p
az e
Ġgel miÅŁtir
Ã¼tÃ¼p han
ĠD etay
Ġinsan a
ĠMes aj
Ġsay g
eng iz
Ġzaman lÄ±
Ġanlat Ä±yor
vey a
ip lin
ĠaÅŁk Ä±n
ĠD alÄ±
c Ã¼sÃ¼
por taj
ĠÃ¶nc elik
ĠH indistan
Ġgel mektedir
ĠG e
Ġger il
Ġal kol
Ġtem as
Ġolm amasÄ±
Ġol ayÄ±
ĠS ch
ĠdoÄŁ a
Ġs Ä±ÄŁÄ±n
p oz
Ġm ir
Ġg ram
Ġyolc uluÄŁ
Ġad Ä±yla
Ġyap masÄ±
ĠkÄ±y met
r id
ĠP AR
Ġd aÄŁÄ±
ĠUz man
Ġtep k
ĠbaÅŁlad Ä±m
Ġs Ä±z
ĠKadÄ±n lar
ĠÃ¼st Ã¼
ĠT ut
Ġist is
G B
Ġonun la
ilm esini
ĠBak Ä±m
lob al
Ġyet ersiz
ĠÃ¶ÄŁrenc ilere
O sman
ĠBahÃ§ eli
Ġ1 000
Ġben den
d iy
S in
k s
Ġb et
ĠT Ã¼r
Ġk Ä±sÄ±t
Ġmet in
ĠT BMM
Ġalan a
y im
Ġt ap
K Ä±r
Ġbah ar
Ġyaralan dÄ±
ĠM Ã¼cad
ers iniz
Ġver ilmesi
Ġve fat
Ġm ay
Ġav ukat
ediÄŁ im
ij inal
ĠÃ§alÄ±ÅŁmalar Ä±na
H z
AÃ§ Ä±k
Ġgazet ec
Ġl Ã¼ks
Ġkon uya
p e
iyor sunuz
OÄŀ LU
ĠgÃ¶ m
Ġpsik olojik
Ġbul uÅŁtur
Ġemek li
H as
Ġy oÄŁ
AN BUL
ĠÃ¶nem i
Ġbilg ilere
ĠOr han
andev u
Ġpotansiy el
Ġen te
ĠgerÃ§ekleÅŁtir ildi
D IR
ĠeÅŁ lik
u x
ĠF orm
ĠM alatya
aÄŁ Ä±nÄ±n
Ġalt Ä±nÄ±
Ġs esi
ĠÃ§ap Ä±nda
ĠarkadaÅŁ Ä±
malar Ä±n
ĠiÃ§in den
ĠO per
Ã¼r riyet
ĠkiÅŁ iyi
Ġsoru lar
ir aat
Ġpazar lama
tik ten
ĠTes is
ĠKons eyi
Ä±b bi
ĠP ara
Ġkonu lar
Ġyak Ä±ÅŁ
o ma
tu ÄŁu
ĠGÃ¶r ev
ĠG iz
Ġk aÄŁÄ±t
Ġbul ur
ĠOy unu
Ġbil iyoruz
ĠMÃ¼dÃ¼r lÃ¼ÄŁ
av uÅŁ
le x
Ġiyil eÅŁtir
Ġcen net
ĠÃ¼rÃ¼n lerin
Ġorgan ize
ĠÃĩ Ã¶z
Ġincel eme
ĠK oc
ĠYat Ä±rÄ±m
Ġsig ort
Ġv ah
ĠM etin
Ġpiyas aya
Ġd Ã¼r
Ġsahip liÄŁi
Ġaras Ä±ndan
tr e
ĠB log
Ġplan a
ĠsÃ¼r eli
muÅŁ tu
lÄ± ca
bal aj
U Y
Ġann esi
mal Ä±sÄ±nÄ±z
Ġg rafik
Ġtaz e
ĠKaymak am
ĠÃ¼cret i
ĠÄ°l gili
Ġp eygamber
Ġhayat Ä±na
ĠM ag
ĠMar mara
un us
Ġar an
ek tif
ĠtaÅŁÄ±m ak
Ä±yor sunuz
Ġmas a
ĠÃ¶ mr
Ġgide cek
Ġanlam ak
Ġbit ki
eÄŁ inde
l eket
Ġg ib
ĠâĢ ¢
ĠiÃ§eri ÄŁ
ut ma
m adÄ±m
bur g
edav a
ĠÃĸn ce
ĠH emen
ĠHak larÄ±
an ta
Ġder nek
Ġend iÅŁ
Ġmillet vekili
d il
tad oÄŁu
ĠM ERKEZ
iyan et
umuz u
Ġden et
M il
lan dÄ±ÄŁÄ±
i den
er yal
k as
dir ne
Ġsan al
I C
Ġed ici
m elerin
Ġf in
ĠMÃ¼hendis liÄŁi
A f
ok s
j e
A Ãĩ
ĠHan gi
Ġb e
ĠHast alÄ±k
ĠyÃ¼z ey
ĠinÅŁ allah
Ġd eri
ĠbaÅŁken ti
ĠG Ã¼mÃ¼ÅŁ
ĠeÅŁ siz
b o
S ab
Ġolay lar
Ġist ey
c eÄŁi
Ġs emin
ĠsÃ¼r Ã¼m
ĠÃ¶zgÃ¼r lÃ¼k
ĠKom isyonu
bay can
Ġb ez
A A
4 3
ĠYayÄ±n larÄ±
Ġtehlik eli
Ġn em
k z
em em
m Ä±
ĠgÃ¶r mÃ¼ÅŁ
ĠsektÃ¶r Ã¼
Ã ©
Y Ã¼k
Ä±n ma
errah i
lar ken
ĠM AH
uc usu
M al
ĠS akarya
Ġtal im
ĠdÃ¼zenlen ecek
T ÃľRK
ĠkatkÄ± da
Ġsil in
Uz un
Ġbir liÄŁi
Ġz iy
Ġbin a
m ediÄŁi
ĠkeÅŁ fet
ĠpaylaÅŁ mak
Ġolm ayacak
Ġtarz Ä±
Ġv ade
D iÄŁer
Ä°L Ä°
ĠÃ§aÄŁ rÄ±
! ..
G oogle
l Ä±lÄ±ÄŁ
Ġbak tÄ±ÄŁ
ĠiÃ§ ecek
Ġtavs iy
ĠtÃ¼k etim
iler de
ay ol
b as
ĠyÄ±l Ä±na
ĠÃ§iz gi
Ġbir ine
ĠDoÄŁ ru
Ġz emin
Ġko du
ĠDoÄŁ al
ĠKon gresi
sÄ±z Ä±n
ĠS n
ĠL TD
m us
ĠmaÄŁ dur
ĠÃ§alÄ±ÅŁ Ä±yoruz
Ġtarih inden
ĠyumuÅŁ ak
or lu
Ä° yi
G S
4 1
le ÄŁ
tiÄŁ inde
ĠModel leri
Ġmuh af
Ġces aret
ĠDoÄŁ um
Ġy ur
eler iyle
ĠA dÄ±
Ġy al
Ġtab an
ĠC ep
Ġkar anlÄ±k
c Ä±lÄ±ÄŁÄ±
ĠN O
ĠdÃ¼ÅŁÃ¼n Ã¼r
Ä° st
Ġ1 20
tÄ±k tan
ĠbÃ¼y Ã¼y
Ġkategor isinde
Ġkonak lama
Ġgel diÄŁinde
ĠkÄ± v
ĠaÃ§Ä±k landÄ±
Ġk Ã¢
Ġinan Ä±lmaz
Ġkal abalÄ±k
Ġp m
ĠP ak
ĠyÃ¶n de
Ġy aÄŁÄ±
Ġ0 6
la Ã§
Ġelb is
Ġgec ik
M es
ĠTem sil
KAR A
Ġtaraf tan
iÅŁ li
ĠeÄŁlen ce
Ġbelir lenen
ĠE mek
ĠK ud
Ġbey an
Ġhalk a
ĠG EN
duk tan
Ġn ih
Ġmalzem eleri
Ġal mÄ±ÅŁtÄ±r
Ġal Ä±rken
st ra
Ġkapsam lÄ±
ĠoluÅŁtur mak
Ä±l Ä±ÅŁ
Ġkon ferans
ĠY ay
ĠB et
ĠD i
Ġsah il
ĠðŁ ĺ
di ven
ĠH ABER
Ġt raf
ĠG ol
ĠâĢĺ âĢĻ
ĠolmuÅŁ tu
Ã§ ek
Ġâ ĨĴ
Ġol say
Ġtoplant Ä±sÄ±
ĠAd et
Ġbak Ä±n
Ġfark Ä±nda
ĠsÃ¼rec inde
ĠgÃ¶rÃ¼n tÃ¼l
tr al
ĠHay Ä±r
Ġuz ay
ĠdoÄŁr ul
Ġr ob
Ã¶r eni
l asyon
ĠV ER
Ġbel gesi
ĠdeÄŁerlendir me
Ã¼kle er
Ġincel en
Ġgerek Ã§
Ġgel dik
Ä±l dÄ±ÄŁÄ±nÄ±
Ġte or
ĠdÃ¼ÅŁ Ã¼ÅŁ
H A
luk la
ĠL ev
Ġkal acak
ĠU ÄŁur
ĠBunun la
Ġneler dir
BaÅŁk an
L Ãľ
ĠDÃ¼n yanÄ±n
p at
Ġmanz ar
ĠP ek
liÄŁ iyle
Ġkur ban
Ġyer leri
ĠSon r
hat s
ĠTat il
Ġhizmet ler
Ġsun ar
Ġp az
ab ak
ĠyapÄ±l maktadÄ±r
g azi
ĠHD P
Ã¼n ce
is h
Ġus ul
Ã¢ t
Ġgetir iyor
Ġhizmet e
ĠK er
ek om
Ã¶r f
ĠsÄ±r t
Ġduyg usal
Ġkamp anya
Ġzaman dÄ±r
ep e
Ġs ik
ĠUz manÄ±
ĠGel iÅŁtir
Ġak r
m adÄ±k
ĠB EL
Ġtarih ine
Ġn o
Ġmu ay
B ay
ĠsÃ¼r Ã¼cÃ¼
ĠM i
ĠNak liyat
ĠBaÅŁv uru
ĠyayÄ±n landÄ±
ĠSistem leri
ĠÃ¼z eri
ĠgeÃ§ir mek
ĠAd alet
Ġerkek ler
T er
Ġb oÄŁ
ĠÃĩ ak
ĠÅŁimdi den
ĠD aÄŁ
Hay at
IN A
Ġnet ic
u el
ĠAl Ä±ÅŁ
it ika
k ili
201 1
Ġhak lÄ±
ĠseÃ§ imi
ebilir im
Ġak sesuar
Ġ200 5
ĠÃĸdÃ¼l Ã¼
D em
is indeki
ĠgerÃ§ekleÅŁ ti
Ġek lem
v iÃ§
ĠBil imleri
ĠKon u
ĠB o
Ġmev zu
ĠbaÅŁarÄ± lar
ilm esine
Ġmakin esi
Ġkal mak
Ġkayb eden
Ġev i
Ġod aklÄ±
ĠAn ne
Ġimk Ã¢n
Ġar al
Ġt l
Ġm im
AY A
al el
ĠS im
ĠJ ohn
st e
ĠÅŁar j
Ġ 00
ĠF ull
Ġolur du
it asyon
it if
Ġkayb Ä±
Ġs log
eden iyet
Ġakadem ik
Â ±
ĠL Ã¼t
ĠDik kat
ĠeÅŁ ya
n Ã¼
Ġoran da
Ä°S TAN
Ġihtim al
ĠSav unma
Ġhakk Ä±nÄ±
Ġs of
ĠOy sa
ĠA p
Ġhar iÃ§
ay olu
ĠR uh
ec h
Ġs eri
Ġd osya
5 7
ĠbaÄŁ lam
Ġar asÄ±na
ĠS ezon
ĠÃ§ elik
Ġtop r
ĠG ec
ĠÄ°sp anya
ĠEf end
ĠB AK
Ġolm alarÄ±
Ġt o
at lar
Ġc az
am Ä±yorum
ĠkullanÄ±l masÄ±
Ġuygul anan
du lar
el le
ay as
ĠH ac
P G
ĠAn d
EÄŁ itim
ĠarkadaÅŁ Ä±m
ec t
ĠdÃ¶n dÃ¼
Ä±n an
ĠReh beri
Ġsan ay
Ġunut mayÄ±n
mem esi
ĠS T
H at
Ġbom b
Ġik ili
ĠsoruÅŁtur ma
Ġdair e
Ġlist esi
u a
Ġsistem inin
A b
Ġekonom i
Ġsit emiz
Ġkon se
S P
ĠHar ek
Ġkar bon
ĠKon trol
ĠOr tak
ĠaÄŁ Ä±z
D eÄŁ
an o
lam alar
Ġ Ã¼s
ĠkÄ±r Ä±k
ĠT im
j en
Ġhan gisi
ĠgeliÅŁ me
Ä±s Ä±n
ĠÃ§ocuk lara
Ġkil it
an bul
r az
iy eli
Ġah lak
Ġekip man
Ġem niyet
ĠD al
Ġmez ar
Ġs Ã¼n
Ġman evi
ĠDÃ¶n em
Ġkom ut
Ġik lim
5 9
Ġyorum lar
Ġmas raf
Ġayak ta
orum a
Ġkr al
Ġkr em
Ġtarif i
g ut
k Ä±rÄ±
Ġder g
ĠgÃ¶ster mek
eniz e
Ġbiz ler
meler ini
G Ã¼zel
Ġbildir di
Ġmedya da
Ġet meniz
ĠZ eytin
it Ã¶r
Ġkullan Ä±c
I P
ĠKaz an
y ol
ĠM or
dÄ± lar
Ġ Ä±sÄ±
k aya
ĠS AY
or ld
Ġedeb il
ĠC o
in er
Ġist anbul
Ġbek leyen
Ġas it
ĠulaÅŁ tÄ±
ekt aÅŁ
Ġhat t
ĠgÃ¶ster mektedir
m es
Ġsiz den
Ġenf eksiyon
ĠgÃ¼n Ã¼nde
m Ä±yorum
ĠSu udi
G erÃ§
Ġtut k
Ġdep lasman
Ġden ir
ĠI Åŀ
Ãľr Ã¼n
ĠgerÃ§ekleÅŁtir ilecek
6 8
Ġp rens
sim um
ĠFilm i
Ġdevr eye
Ġkem ik
ĠSil ah
Ġay et
ĠK Ä±ÅŁ
ĠSab ah
Ġlis te
S Ä°
lÄ±yor uz
os iklet
Ġiz lemek
Ġ0 7
N et
Ġend Ã¼str
ah il
c uz
Ã¼n Ã¼r
c al
Ġh ekim
ĠU lu
ik e
ĠÄ°n ce
ĠgeliÅŁtir me
ÅŁ et
ĠBil imler
Ġv el
Ġi kin
ler imi
Ġgel diÄŁ
Ġettik leri
Ġitir az
Ġgar anti
ĠbaÅŁlad Ä±ÄŁÄ±
Ġol asÄ±
M illi
ĠÄ°ST ANBUL
Ġ4 7
ĠÃĸ N
ĠU Y
Ã§ Ä±lÄ±k
ĠB es
Y Ä°
ĠyaptÄ±ÄŁ Ä±nÄ±
Ġeden ler
Ġest etik
ĠAr dÄ±ndan
Ġ6 00
Ġkar m
Ġak sine
m elik
ĠKon uÅŁ
Ãĸ r
Ġik isi
Ġstr es
ĠR as
ĠT amam
Ġteknoloj ik
Ã» l
ĠS orum
ĠD iÅŁ
! "
ĠM ek
K ap
Ġolmaz sa
ĠÅŁah Ä±s
Ġk afa
Ġkon ulu
ili ÄŁini
Ġkam yon
Ġver in
ĠkaÃ§ ak
ĠvatandaÅŁ lar
ey t
D V
ĠP latform
Ġst at
is ti
r uk
ĠilÃ§ esi
Ġev ren
ĠT ic
Ġday alÄ±
AC AK
ĠgeliÅŁ en
umuz a
ĠJap onya
ĠtaÅŁ Ä±yor
Ġdolar lÄ±k
Ġtarih lerinde
an dum
Ġl ay
Ġp or
Ġrek or
mamak tadÄ±r
ĠS AT
Ġboz ul
c usu
Ġar az
Ġdiz isi
ĠOl du
ĠÄ°l Ã§
Ġmekt up
de si
ĠHar eket
O l
Ġoyn anan
Ġalak alÄ±
Ġr om
ĠK elim
ĠY olu
ĠyaÅŁam Ä±nÄ±
Ġyak Ä±t
ĠH es
h iÅŁ
S Ã¶z
Ġkon s
ĠkÄ±y as
ĠBaÅŁ ar
ĠM ir
lan arak
ĠÃ§ek mek
ĠIÅŁ Ä±k
ĠBÃ¼yÃ¼k el
201 9
Ġ0 3
Dev let
5 8
Ġev ine
ĠAÅŁ aÄŁÄ±
ĠÃ§Ä±k tÄ±ÄŁÄ±
ĠÃ¼st len
Ġsem bol
ĠB oÄŁaz
Ġbul ut
Ġkul Ã¼b
Ġyaz arÄ±
ĠgeliÅŁtir mek
Ġt uÅŁ
Ġm Ã¼n
g ari
ĠCev ap
Ġtr end
Ä°N Ä°
Ġmik ro
Ġbildir ildi
Ġbun lara
BaÅŁ bakan
ĠalÄ±n Ä±r
Ġdeney imi
tÄ±ÄŁ Ä±nÄ±z
h as
ĠgÃ¶rÃ¼n ce
Ġrahat sÄ±zlÄ±k
B A
ĠO da
ĠAÄŁ Ä±r
ĠYap Ä±lÄ±r
ĠsÄ±k Ä±
Ġk ov
Ġmuhal ef
G Ä°
Ġtan Ä±k
em iyorum
ĠdÃ¼ÅŁÃ¼n dÃ¼ÄŁ
Ġtoplant Ä±sÄ±nda
ĠgÃ¶r dÃ¼ÄŁÃ¼
ĠHol landa
s Ã¼
eri f
ĠDevlet i
Ġk abil
Ġmark asÄ±
ĠHaf ta
ĠP a
Ġgetir diÄŁi
Ġbar dak
em iyor
Ġz ehir
Ġayr Ä±ntÄ±
Ġr iv
Ġisim ler
cel l
ĠdÃ¶nem in
Ġkat Ä±
Ġver dik
is ki
Ġvitam in
u da
Ġmut f
B eÅŁiktaÅŁ
Ġcev ab
ĠT oto
Ġ $
Ġtut mak
ĠS ol
ĠDE Äŀ
G E
Ġtur nuv
Ġgel eceÄŁi
Ġp ost
op er
Ġprot okol
Ġkir alama
Ġar Ä±yor
Ġsistem ini
ĠD ef
m emek
ĠT or
Ad res
Ġk Ã¼Ã§
suz luk
ĠVal isi
Ok ul
Ġfazl asÄ±
ĠK AD
on ik
oc uÄŁ
ĠÃ§ab uk
A m
ĠY avuz
Ġbiz leri
l it
ĠÅŁirket in
Ġpro tein
!! !
im et
az Ä±ÄŁ
iÅŁ an
6 7
ĠG B
ĠalÄ±n arak
iler le
ĠH Ä±r
ĠSiz in
Ġb Ä±
Ġt oh
ĠV en
ap p
Ġm it
Ġbekl iyorum
Ġd Ã¶
ĠsÄ±k Ä±nt
ĠÃ¼lk elerin
Ġvitam ini
Ġet ken
ĠÄ°s lÃ¢m
ĠoluÅŁtur an
ĠÃ§Ä±k Ä±p
Ġsertif ik
ĠJ o
Ġkullan Ä±yor
ĠTeÅŁ ekkÃ¼r
Ġark asÄ±nda
ĠÃ¶nem lisi
ek te
ĠÃ¶z gÃ¼
K ah
ĠkÃ¶ p
l on
Ġak Ä±ÅŁ
at lÄ±
ĠÄ°s k
ĠM el
at larÄ±
ĠÅŁ ok
li dir
Ġsanat Ã§
ĠÃĸ Äŀ
lin ik
ĠdÄ±ÅŁ Ä±na
ĠM aÄŁ
ĠgeniÅŁ let
am Ä±n
ĠT EM
Â °
b Ã¼s
larÄ±mÄ±z la
d Ä±ÅŁÄ±
tiÄŁ iniz
A li
ĠÃĸÄŁr enci
ur a
Ġayr Ä±ntÄ±lÄ±
ĠÃ§ aba
ti har
ĠbaÅŁlam Ä±ÅŁtÄ±r
Ġyaz dÄ±ÄŁÄ±
ĠÃ§Ã¶zÃ¼m ler
Ġprogram larÄ±
Ġalan lar
Ġay kÄ±rÄ±
ĠsÃ¼r Ã¼
Ġdedi ÄŁi
Ġnum arasÄ±
eb elik
v in
Ġduyur du
ĠÃ¶l dÃ¼
Ġcin ayet
ĠMic rosoft
Ġk g
ĠS tad
ĠÃĸz tÃ¼rk
ĠdeÄŁiÅŁ en
Ġmah alle
Ġimz alan
lan abilir
Ġsaat te
ĠÅŁey den
Ġgerek sin
ĠTer Ã¶r
ĠE min
ak in
ĠS tar
ĠgÃ¶z den
Ġkal Ä±yor
Ġmillet vekil
ĠSar ay
Ġorta da
m emiz
ĠTar af
ĠGir iÅŁ
F ir
Ãĸ K
ĠC om
ĠSin an
Ġhaber ine
H ep
Ul uslararasÄ±
Ġbir inc
Ã¼y Ã¼
ĠÄ° r
IN IZ
Ġah ÅŁap
Ä±k Ã¶y
Ã§ asÄ±
Ġken ar
ĠG ÃĸR
ĠÃ¼lk emizin
op ark
j inal
Ġmak ine
iÃ§ i
Ġb oya
ĠsÄ±v Ä±
ĠR om
Ġfark Ä±n
Ġar ayan
Ġgibi dir
ĠUygul am
Ġat mos
Ġk a
ĠIn stagram
Ġkend ileri
Ä±mÄ±z dan
ET Ä°
Biz im
ĠY AR
B ar
ĠT rans
ĠOyun cu
Ġist atistik
Ä±m dan
ĠOY UN
Ġak la
ĠB eni
ev er
Ġib adet
Ġbiz den
im ini
ĠÄ°ÅŁ lem
Ġhem ÅŁ
Ġoyn amak
Ġbek let
k ap
ĠM is
ĠÄ° talyan
Ġh alÄ±
ĠgÃ¶ster diÄŁi
Ġkal ma
Ġp lastik
Ġihtiyac Ä±nÄ±z
ĠP aylaÅŁ
Ġl it
Ġuy uÅŁturucu
Bur ada
Ġolmak la
r d
Ġdemokr atik
Ġalan larÄ±nda
ĠAz iz
ĠyapÄ±l abilir
ĠToplant Ä±sÄ±
Ġyol larÄ±
p Ä±nar
Ġproj eleri
ĠU Ã§ak
Ġhakk Ä±ndaki
D P
ĠyaÅŁ ama
ber g
ĠbÃ¶lg eye
Ġedecek tir
ĠÃ§ek ir
Ġplan Ä±
Ġmat eryal
ĠF inans
Ġtek er
Ġmesaj Ä±
m at
u du
ĠÃľ s
ĠseÃ§en eÄŁi
ti p
ĠS Ä±
Ġrestor an
ĠÃ¶z et
Ġmas aj
Ġkir al
ĠbaÅŁar Ä±sÄ±z
ĠdÃ¼zen leme
s is
Ġzarar lÄ±
Ġyaz Ä±l
Ġetk ileri
Ã§ u
sev er
ĠoluÅŁ ur
Ġdekor asyon
ĠÃ¶ÄŁren ildi
ĠÃ§ ikol
Ãĸzel likle
S adece
Ġpah alÄ±
c in
ĠÄ° t
ĠKart al
Alman ya
Ġp en
Ġdin amik
ĠÅŀampiyon asÄ±
Ġed ilerek
E t
up er
Ġbak ar
ĠFark lÄ±
un Ã§
ĠD EV
um un
ebil eceÄŁiniz
ĠÃ§Ä±k masÄ±
Ġkayb ed
Ã¼ÄŁ Ã¼n
il ler
ĠOr tadoÄŁu
ĠsÃ¼r Ã¼c
ĠY abancÄ±
Ġel inden
ĠÄ±r k
Ġb iber
Ġhayat Ä±nda
ĠB ol
Ġanlam lÄ±
fen di
ĠGÃ¶ ster
Ġih al
am es
ĠsektÃ¶r Ã¼nÃ¼n
ĠD el
ĠBaÅŁk a
Ġs et
ĠTrabzon spor
Ġsizin le
Ġyas a
Ġp ak
Ġistedi ÄŁini
Ġp laj
Ġbulun masÄ±
Ġm ide
5 6
t am
ĠÃ¼lk eye
Ġkal dÄ±ÄŁÄ±
Ġes eri
ediÄŁ imiz
Ġd ediler
ÅŁ ek
ĠK um
ud ak
ĠkÄ±sm Ä±nÄ±
ĠÅŁ air
ĠAn ayasa
5 00
o ta
c Ã¼k
ley ip
m esinden
mak la
Ġnokt asÄ±nda
Ġg Ä±d
G alatasaray
uyor lar
ĠG it
Ġted arik
ĠgÃ¼n dÃ¼z
ĠPol itik
Ġgerekir se
Ġzor lu
ĠB eÅŁ
7 8
Ġat Ä±k
uz el
Ġkamu oy
ĠÃ§ Ã¶p
ĠK ayÄ±t
Ġdayan Ä±klÄ±
Ġl ek
ĠBir Ã§ok
G e
Ġol acaÄŁÄ±z
Ġhus us
T ak
Ġbu dur
Ġil ham
ler deki
ĠKÃ¶ pr
ĠM avi
ĠGeÃ§ en
ĠSel Ã§uk
ĠB i
ĠBas Ä±n
ĠoluÅŁtur ul
ĠG ece
Ġgetir ir
g ur
ĠolduÄŁ unun
Ġsun uyoruz
ĠP arkÄ±
ĠA cil
Ġev in
am Ä±zÄ±
ĠKur tul
ĠTÄ°C ARET
ĠBas ketbol
ĠdeÄŁiÅŁik liÄŁi
T IR
y urt
Ġger iye
ĠkullanÄ±l maktadÄ±r
ĠÃľrÃ¼n leri
Ġtoplam da
Ġver mesi
Ġmal i
Ġkend ime
ĠUy gun
ĠaraÃ§ larÄ±
Ġism ini
M EK
ĠAz er
res yon
ĠkarÅŁ Ä±sÄ±na
Ġsiz lerin
AT O
ĠbaÅŁ lÄ±ÄŁÄ±
Ġyap rak
Ã¼le cek
Ġsorun suz
Ġt ev
erson eli
Ġz ul
Ġgiy im
Ġev r
Ġkend isinin
an ak
ĠH e
Ġdam ar
Ġ4 9
Ġdoktor a
in dan
Ġal mayÄ±
Ġuy k
Ġzaman a
ĠS ize
Ġdemokr asi
Ãĩ alÄ±ÅŁ
Ġeder ler
Ġtan Ä±y
5 4
Ġnef ret
ĠKal kÄ±n
ĠA S
ĠaÃ§Ä±klam alarda
ĠAj ansÄ±
Ġ200 4
Ġir ti
ĠAb dÃ¼l
ĠYok sa
ĠkarÅŁ Ä±n
Ä±l aÅŁ
ĠÄ°st ik
Ġbun lardan
ĠN ih
ĠMal zem
Ġko ordin
ĠAf rin
af e
ĠS elim
Ġdaim a
ĠC anlÄ±
Ġor aya
ĠSAN AY
n daki
Ġn ez
ĠiÃ§er ir
Ġder t
ĠK em
Ġlis e
Ã¼m an
ĠF et
Ġbiz zat
Ã¶n Ã¼
lo ad
Ġsev iyede
ow er
ĠiÅŁlet me
ĠK AL
Ġhep sini
ĠbÃ¼y Ã¼t
y di
ĠsÄ±nÄ±r larÄ±
Ġol anÄ±
Ġir ade
Ġkullan ma
ĠÃ§ek in
ĠÃ§ or
mar aÅŁ
Ġolm asÄ±n
ĠC ol
umuz da
Ġ4 6
s p
Ġv asÄ±
Ġsam imi
Ġdiler im
Ġv al
ab ildiÄŁ
Ġdon dur
Ġimz al
l Ä±lÄ±ÄŁÄ±
ĠKom utan
ĠÅŁif r
Ġal Ä±cÄ±
ĠKon ut
At atÃ¼rk
ĠD ost
ĠMan isa
ĠiÃ§eri ÄŁi
Ġkurul muÅŁ
Ġfir malarÄ±
bir liÄŁi
Ġol asÄ±l
Ġyaz dÄ±
Ġr eng
Ġokul a
Ġs os
A AT
Ġs ad
Ġtaraf Ä±nda
ĠÃ¶zellik ler
ĠM uÄŁla
y aÅŁ
Ġif tar
es un
Ġteknoloj isi
ĠM esela
Ġ4 2
eÄŁ inin
MAD DE
ĠdoÄŁ an
ĠbaÅŁ tan
ĠÃ¶ v
ĠyayÄ±m lanan
YÃ¼k sek
Ġit tifak
en ce
ant ol
ĠiliÅŁk ileri
usun daki
ĠkÄ±yaf et
ĠÃĩ iÃ§ek
Ġlay Ä±k
Ġmik tarÄ±
eler imiz
ĠE g
ĠÃ¶rn eÄŁi
Ġgir er
k ale
Ä±ÅŁÄ±k lÄ±k
Ġ Ä±sÄ±t
Ġv ize
ĠÃ§Ä±kar mak
az z
ĠÃ¼lk emiz
Ġy ah
ĠÄ°z le
ĠCam ii
ĠAr slan
Ä±rs ak
ĠKud Ã¼s
ĠW ar
Ġ ec
Ġist asyon
ĠS am
Ġver iyoruz
Ġproj enin
Ġoyun cak
Y er
Ġer di
Ġel ine
ĠA Ãĩ
ĠM oda
ĠhazÄ±r lanmÄ±ÅŁ
Ġmo tiv
Ä°M Ä°Z
Ġkom bin
GeÃ§ tiÄŁimiz
Ġih mal
c uluk
Ġyol unu
ĠdÃ¼ny ayÄ±
ĠH ikay
Ġser isi
Ġbel ge
tic aret
ĠA lev
K Ä±z
ĠÅŀub esi
ĠU krayna
ĠBÃ¼l ent
Ġp u
Ġyeter ince
ĠmaÄŁ lup
ĠÅŀ arkÄ±
Ġk ek
N ot
Y ine
ĠElekt ronik
ĠK a
laÅŁ masÄ±
leÅŁtir me
Ġyer lere
Ġner eye
Ġay Ä±nÄ±n
eli f
Ġoyunc usu
ĠaÅŁ ama
Ġeg emen
ĠbÃ¶lg esi
ĠEv e
H af
b iz
ĠY ÃĸN
Ġkon uyla
Ġsistem ine
ĠyÃ¼k Ã¼m
ĠMey danÄ±
Ġsay Ä±sÄ±nÄ±n
ĠettiÄŁ iniz
iÄŁ eri
ĠK oruma
ĠÃ¶r t
ĠÃ§Ä±k mak
Ä±ÅŁ tÄ±
uy du
Ġgir ecek
ay dÄ±
ebil eceÄŁi
B azÄ±
K itap
ey sel
Ġistif a
Cumhur iyet
Ġla f
ĠGÃ¼n lÃ¼k
ĠB os
Ġkend inize
ĠÅŁart larÄ±
ĠmÄ± dÄ±r
ĠG r
ĠAd ay
D er
F ilm
ĠKullan Ä±cÄ±
Ġs Ã¶
ĠbÃ¶lÃ¼m de
un d
ĠiÅŁ ini
ĠO K
Ġb anyo
his ar
Ġalan Ä±na
ĠyaÅŁ adÄ±k
Ġolm asÄ±nÄ±n
ĠT eb
ĠÄ°n an
Ġuygulam aya
ĠRek lam
ĠG Ã¶l
Ġmesel a
ĠT OP
ob i
ĠO lan
Ġsan iye
uyor du
ĠdÃ¶nem lerde
ĠBelediy espor
ĠgÃ¶z e
ĠsÃ¶z leÅŁme
201 0
ĠTur an
) âĢĻ
ĠY alnÄ±z
Ġmem leket
met ik
ĠHat ay
AR T
ĠB UR
ĠT ip
Ġin f
H em
ĠÃĩ am
Ġden ilen
Ġsen ar
Ġsoru larÄ±
lem iÅŁ
Ġarz u
ur e
en li
ĠyÃ¼rÃ¼t Ã¼len
Ġkal Ä±p
ĠAs lan
Ġlim on
ĠÄ° Z
Ġtamam ladÄ±
Ġp encer
Ġkat k
Ġmet r
any ol
ĠdÃ¼z gÃ¼n
ĠmeÅŁ hur
Ay nÄ±
lam ent
Ġbenim le
uv alet
luÄŁ a
am in
SaÄŁ lÄ±k
ĠÃ¼rÃ¼n Ã¼n
s et
Ġyap maktadÄ±r
ĠBilg iler
ĠMÃ¼cad ele
ĠrÃ¶ portaj
ĠGel iÅŁ
Ġistem ez
ĠDair esi
ĠKan al
AL AR
AN S
P ol
v at
Ġor ijinal
ĠBul gar
Ġyaz an
ĠOn u
ĠO b
ĠC in
Ġsilah lÄ±
ĠgerÃ§ekleÅŁtir di
Ãĸ Y
ĠV AR
Ġf en
ĠalÄ±n acak
d unuz
Ġor adan
Ã§Ä± lar
ĠgÃ¶rev ini
H iÃ§
ĠE mir
G azi
Ġmat ematik
D EM
Ġrob ot
Ġgir mek
r it
ĠanlaÅŁ Ä±l
Ġd og
ĠanlaÅŁ ma
Ġtam ir
Ġbak Ä±mÄ±
Ġhik Ã¢y
Ġserg ilen
ĠgeÃ§ mek
" .
Ã§ ileri
r aÃ§
Ġmin ik
ĠgÃ¶rÃ¼ÅŁ me
ĠS AÄŀ
U Åŀ
ĠkÄ±sm Ä±nda
ti h
im asyon
Ġplan da
Ġkut sal
D F
ĠÃ§Ä±k arak
ĠsÃ¶y ler
Ġanlam Ä±nda
B Ã¼tÃ¼n
Ġbit ti
dir im
ĠD ok
7 7
ĠE V
ĠsÃ¼r Ã¼k
abilm e
ĠU Ã§
ĠkullanÄ±cÄ± lar
ĠyaÅŁ Ä±nday
ĠÃ§ ant
Ġanlay Ä±ÅŁÄ±
ĠKÄ±r mÄ±zÄ±
Ġn iye
aÄŁ Ä±ndan
Ġdip lom
ĠGÃ¶r Ã¼ÅŁ
Ġprot esto
y olu
F enerbahÃ§e
il iÅŁ
O t
ĠÃĸn emli
Ġk oz
alar Ä±yla
Ġcev abÄ±
ĠKad Ä±kÃ¶y
ĠU r
EF A
Ġyap Ä±yorum
Ġrad yo
oc am
n av
Er doÄŁan
Ġkr izi
6 6
Ġmuh t
Ġver ileri
ĠdanÄ±ÅŁ man
O Y
l ilerin
S D
H AL
ĠOn ur
ĠDÃ¶n Ã¼ÅŁ
ab rika
ladÄ±ÄŁ Ä±mÄ±z
ĠBaÅŁ ak
ĠkarÅŁÄ±lÄ±k lÄ±
Ġden ize
ĠaÅŁ Ä±k
l ini
Ġl og
ĠoluÅŁ um
ĠyerleÅŁ im
v i
ĠJ andarma
Ġtaraf Ä±
ĠDek or
tÄ±k larÄ±nÄ±
T T
Ġsahip leri
Ġzaman la
Ġkonu larÄ±
Ġs om
Ã¼l Ã¼r
ĠM eh
Ġuzak laÅŁ
aman Ä±z
ĠyÃ¼rÃ¼r lÃ¼ÄŁe
ĠB aba
ĠN az
Ġoyn ayan
ĠyapÄ±l mÄ±ÅŁtÄ±r
Ġkaynak larÄ±
Ġsab Ä±r
Ġyarat Ä±cÄ±
los uz
ĠTÃľRK Ä°YE
ĠÃĸrg Ã¼tÃ¼
âĢ º
ic dan
Ġ0 4
Ã§ Ã¼
ĠT Ãľ
Ġmilyon larca
ĠÃĩ etin
Ġmac er
ur du
Ġ200 2
Ġic ra
ĠÃ§Ä±kar dÄ±
ĠÅŁah it
Ġtad Ä±nÄ±
laÅŁtÄ±r ma
Ġolm anÄ±z
Ġbl ok
9 5
ĠÃ¼lk elerde
ĠHÄ±z lÄ±
Ġbu ton
Ġkontrol Ã¼
duk Ã§a
Ġoy una
ï ¸
ĠS ez
Ġmon taj
iniz le
Ġkr itik
t Ã¼m
o du
ï¸ ı
Ġr azÄ±
ĠBir az
d oÄŁu
Ġmi dir
ran d
Ġan tik
lam alarÄ±
malar Ä±na
Ġ200 3
ĠK AY
A dana
iv er
ĠKalkÄ±n ma
ĠsaÄŁlamak tadÄ±r
Ġg emi
ĠbaÅŁ lÄ±k
m ad
ilm elidir
Ġnes n
Ġhttp s
ĠgÃ¶nÃ¼l lÃ¼
Ġg Ã¼ler
Ġcep h
m l
N E
Ġyarg Ä±lan
ĠS ektÃ¶r
ĠKad ir
Ġr af
ĠÃ¶ÄŁrenc isi
ĠSin ema
âĢĿ .
ĠSeÃ§ im
ĠrÃ¼z gar
T el
g Ã¶z
ĠistediÄŁ im
ap ort
ĠkiÅŁ ilere
i x
Ġh id
ul a
Ä±n dÄ±k
Ġf ot
ĠD an
Ġt ay
Ġsev ilen
tÃ¼r Ã¼
ĠbaÅŁ Ä±ndan
ĠÃ¼y elik
Ã¼m in
Ġt ey
ĠN it
ĠyetiÅŁ kin
ĠAzer baycan
ĠtakÄ±m Ä±n
ĠÃľnivers ite
ĠYak laÅŁÄ±k
S ar
ur ya
Ġs a
ĠB azen
M ut
or a
Ġadam Ä±n
Ã§ ilik
Ġkom isyon
ral ya
kÃ¼ dar
ing ton
ĠS af
Tr abzon
Ġprof il
ĠsÄ±r adan
ĠgÃ¼c Ã¼nÃ¼
ĠÄ° YÄ°
Ã¼mÃ¼z e
Ġfinans al
ĠÃľcret siz
ĠarkadaÅŁ larÄ±
Ãĩ in
Ġonlar ca
R E
Ġs akat
art man
Ġver meden
Ġmesaf ede
GeÃ§ en
Ä°N Ä°Z
osk ova
Ġiler leyen
Ġil ah
ĠgÃ¶rÃ¼l Ã¼r
ĠAV M
ĠD is
ĠIÅŀ Ä°D
ÅŁ ak
ĠÃ¶de y
Ġil a
las h
Ġfaaliyet leri
B Ã¶yle
Ġsak Ä±n
Ġediyor lar
H am
Ġpil ot
mal Ä±yÄ±z
ĠbaÅŁ lamak
ĠÃ¶rg Ã¼tÃ¼n
ĠÅŀ anlÄ±urfa
ĠHaft asÄ±
ĠH oca
Ä° F
ĠÃĸ de
U P
Ġver il
âĢ¦ âĢĿ
luÄŁ unu
eb ilmesi
ĠÄ±s rar
ĠÅŁ ansÄ±
ĠÄ°m parator
Ġgec esi
ĠOk u
p s
Ġgez eg
it a
Ãľ Åŀ
Ġarac Ä±n
Ġkr iter
Ġetk iler
ol os
BÃ¶l Ã¼m
ĠAlÄ±ÅŁ veriÅŁ
Ã¢ l
Ġhay li
ov er
ik al
Ġd Ã¶r
Ġkullan maya
Ġsig orta
ĠEtik et
Ġinan Ä±yorum
ay n
Ġes nek
ES T
ĠKur t
Ġsin yal
s alar
s aÄŁ
Ġh orm
Ġortam Ä±
Ġf it
il elik
gil tere
ro w
Ä±l ma
ĠE dirne
! )
C h
ĠF in
Ġalt Ä±ndaki
y ak
o ot
Ġh ip
Ġyap ay
Ã¼l Ã¼yor
L EM
ĠsÃ¶ylem iÅŁ
ĠAk Ä±n
ĠyatÄ±rÄ±m cÄ±
ĠKuvvet leri
Ġyurt dÄ±ÅŁ
Ġan ket
Ġyol una
Ġ5 7
ĠÃ¶z gÃ¼n
Ġsat Ä±ÅŁÄ±
Ġ len
ĠHal il
ĠD iy
ub u
az in
Ä±rs Ä±nÄ±z
ĠyÃ¼z Ã¼
Ġetm em
ĠF uar
Ġtamam Ä±
Ġol abiliyor
Ġdost u
ĠaÅŁ aÄŁ
Ġyaz Ä±n
Hay Ä±r
Ãĸnc elikle
Ġtav uk
ĠâĢ Ķ
ĠyÄ±l larÄ±nda
Ġver ebilir
s us
lÄ±k tan
acak lar
esin ce
ĠHol ding
Ġsek iz
Ġkut u
Ġgid iÅŁ
Ġyaz mak
s Ã¼n
ĠeÄŁlen c
Ġtak sit
Ġs tan
Ã¼c el
om b
Ġr Ã¼y
ĠyÄ±l dan
Ġidar i
Ġkat li
Ġtut un
Ġbilm ek
Ġseb ze
d o
ĠTel ekom
Ġsor du
ĠkÃ¶ tÃ¼l
ĠC ilt
ĠT Ä±k
ĠÄ°Ã§ erik
ĠyaptÄ±ÄŁ Ä±m
Ġd k
ĠD aÄŁÄ±
Ġy ansÄ±
ep yeni
Ġistik rar
lÃ¼ÄŁ Ã¼nÃ¼
bilir siniz
ĠÅŁek li
S S
ĠU cuz
Ġsev dik
Ġhaft alÄ±k
mar Ä±m
t Ã¼k
ay lÄ±
Ġsem t
L ET
Ġyar atan
Ġdir ekt
ĠJap on
Ġsev diÄŁim
Ġk uy
malar a
OL U
Ġner eden
c Ä±nÄ±n
m ac
Ġbilin c
ĠkatÄ±l mak
Ġyar gÄ±
Ã¼l mÃ¼ÅŁ
L AH
Ġgar ip
ĠB on
ĠÃĩ ank
F ran
ĠiÅŁ yer
Ġ5 8
ĠÃ§ eÅŁ
im um
hal de
l usu
Ġm uk
AR K
Ä±l mak
ILI K
Ġs ag
ĠKah v
ÃľL T
Ġdin len
Ġtat min
z aman
ĠSANAY Ä°
D Ä°R
Ġih lal
x t
ki f
ĠeÅŁy alar
Ġtut um
y n
Ġ4 1
Ġkok u
Ġkoruy ucu
Ġfor ma
ulu ÄŁu
ĠÃĩ avuÅŁ
ĠYarÄ±ÅŁ masÄ±
Ġnokt aya
den in
uk i
ĠÄ° sa
ĠD am
ĠB ize
ĠEm lak
ĠsektÃ¶r de
ĠyukarÄ± da
Ġhisset tir
Ġik na
y umu
OR UM
lÄ±ÄŁ Ä±ndan
Ġdo lara
ĠÃ§alÄ±ÅŁ tÄ±ÄŁÄ±
Ġyap acaÄŁÄ±z
Ġal Ä±mÄ±
Ġop siyon
Ãĩ Ã¼nkÃ¼
K Ä±s
ĠM Ã¼n
Ġtop luluk
Ġduy duÄŁu
ĠC engiz
ĠsÃ¶z ler
ĠdoÄŁ du
ĠÃľn lÃ¼
ĠmÃ¼t hiÅŁ
ĠettiÄŁ imiz
ĠKil is
Ġm uc
Ġort asÄ±nda
k o
ĠaraÃ§ lar
m edim
ĠyardÄ±m Ä±
Ġv ol
l uyor
it eli
Ġsan dal
Ġdeneyim li
Ġ6 4
ĠN um
ĠbÄ±rak Ä±n
Ġvurgul ayan
out ube
ĠÃ¶ f
Ġhoc am
Ä±l gÄ±n
Ġn eÅŁ
K am
ĠÅŁehir de
Ġbar daÄŁÄ±
Ġvad eli
Ġsistem in
Ġdev ir
ĠkÃ¶ ken
5 2
Ġf av
Ì Ĩ
Ġgid erken
dÄ±k larÄ±nÄ±
ĠÄ°l Ã§esi
on gul
Ġdil im
ĠÄ°n cel
Ġberaber inde
ĠP al
Ġ4 4
An adolu
As lÄ±nda
Ġisim leri
ĠdÃ¶v iz
Ġdevam Ä±
S UN
Ġherk esi
Ġuy dur
ĠAt eÅŁ
ĠgenÃ§ ler
ongul dak
ar rem
Ġn Ã¶
ĠA da
Y a
Ġoyn adÄ±ÄŁÄ±
Ġolur ken
eb ir
ĠÅŀ ti
ĠKur an
Ġyaz mÄ±ÅŁ
ev ler
6 9
is in
ĠvazgeÃ§ ilmez
El ekt
Â ·
T am
Ä°STAN BUL
Ġgel mez
Ġyarar lÄ±
Ġmekan iz
ĠmÃ¼ j
ĠD a
Y azar
ĠBal kan
Ġmak simum
S Y
k oz
Ġuy andÄ±r
anÄ± p
ĠP et
Ġfiyat lar
H AN
ĠF i
ĠÃ Ĥ
Ġs end
ĠÄ°liÅŁ kiler
ĠRes im
Ġbulun duÄŁunu
d Ä±nÄ±z
ĠKo ordin
Ġkampany asÄ±
Ġst il
ĠH a
ĠkarÅŁÄ±l Ä±ÄŁÄ±nda
eceÄŁ ine
m Ã¼yor
L AY
ĠÃľ ret
ĠB iy
ĠgÃ¶r me
ĠyaÄŁ Ä±ÅŁ
ĠMil yon
Ġr iski
i o
alÄ± lar
eÅŁ im
ĠSal ih
h id
Ġolay larÄ±
ĠTop lam
... ]
Ġf ant
Ġsek si
ĠMah mut
Ġet sin
ĠbÃ¶lg enin
r ah
ĠYaÅŁ ar
Ġetraf Ä±nda
Ġmerkez li
Ġik amet
ĠP C
ers ek
ĠK AP
ĠS orun
Ġolur sunuz
y at
Ġem ir
ĠolaÄŁan Ã¼stÃ¼
ĠM e
ĠÄ° ht
Ãĩ ev
ĠTEK N
ĠC ey
ĠgÃ¶ÄŁ Ã¼s
ĠG Ãľ
Ġokuy an
ous e
ĠH acÄ±
R A
Oy un
d y
Ġit h
ĠiÅŁlem ler
B B
Ġkims eye
Ġgel ebilir
hab alar
ĠdoÄŁr usu
ĠKad ar
ĠyÃ¶ntem leri
ir daÄŁ
ĠgÃ¶z ler
Ġ utan
Ġbir inde
ĠYer el
ĠD ig
ĠMillet ler
ĠUn ut
ĠK oz
âĢ¦âĢ¦ âĢ¦âĢ¦
Ġkolay lÄ±kla
ĠC ity
Ġkoy un
Ġgetir ildi
Ġon lardan
Ġisten en
Ġpoz itif
Ġdepol ama
â ĸ
ĠYÃ¼k sel
bey az
Ar tÄ±k
Ġhedef i
ĠD ayan
ons or
ak ende
ĠgÃ¶rev e
ĠS ER
Ġgazet eci
ĠgÃ¶r ebilirsiniz
t ah
Ġhes abÄ±
ĠdÃ¼ny asÄ±nda
leÅŁ mesi
Ġfik r
ek ili
ĠGerÃ§ ekten
medi ÄŁini
Ġdis iplin
ĠbÃ¶l Ã¼n
Ġi OS
ĠdÃ¶n Ã¼m
ĠG ER
Ġ0 53
ĠDav ut
Ġfilm leri
ĠP iyas
Ġkap ak
Samsun g
f eri
Ġgel sin
Ġres men
ĠD es
ebilm ektedir
ĠkullanÄ±cÄ± larÄ±n
ĠM U
Ġver ilmiÅŁ
Ġdetay larÄ±
Ġred de
ĠAl bay
ĠK el
eyin ce
Ä°n ternet
Ġm iyim
5 1
ĠH il
Ġiz ni
ĠK AT
Ġmis in
Ä° kinci
Ġal dÄ±ÄŁÄ±nÄ±
ĠS efer
âĢ ĭ
p ress
Ġteklif i
ĠaÃ§Ä±k Ã§a
Ġkend imizi
Ġoy unda
Ġr andevu
ĠÃ§Ã¶z Ã¼mÃ¼
Ġfik ri
ĠÃ§iz g
ĠTeÅŁ kil
ĠgeÃ§ tik
Ġkas ab
ĠdanÄ±ÅŁ manlÄ±k
ĠaldÄ±ÄŁ Ä±m
ĠDev amÄ±
Ġetkinlik leri
Ä°s lam
p iyat
ĠÃ¶ tÃ¼rÃ¼
T Ä°R
duÄŁ unda
ev eyn
Ġk Ã¶r
ĠO s
Ġib aret
O J
Ã¼st ri
ĠMot or
d Ã¼ncÃ¼
per yal
k Ä±ÅŁ
Ġt ef
der e
ĠKar deÅŁ
edik leri
Ġharc am
C Ä°
ĠÃ§ el
mak tÄ±r
bak anÄ±
Ġu ÄŁur
oj istik
Ġde gil
K Ã¼Ã§Ã¼k
Ġdiler iz
ĠBalÄ±k esir
Ġter c
os unu
Ġhey et
Ġbirlik t
Ġk Ã¼f
ĠAn al
ĠM ay
Ġboy un
ĠK Ä±y
ĠsaÄŁlan masÄ±
Ġzinc ir
Ġat tÄ±ÄŁÄ±
Ġhak aret
H ak
as on
Ġkullan Ä±n
Ġp ir
ĠYÃ¶net meli
Ġtes cil
ĠH AK
Ġs Ä±ÄŁ
ĠM ES
ĠA M
ĠSay f
Ġbilm iyor
Ar kadaÅŁ
Er kek
Ġorgan ik
ĠkatÄ±lÄ±m Ä±yla
ĠbaÅŁ rol
Ġhaft asÄ±nda
ĠÃ¶z Ã¼r
IS I
Ġhey kel
Ġyap acaÄŁÄ±
ĠS ayÄ±
Ã¢ lÃ¢
Ġnit eliÄŁ
o id
Ġem eÄŁi
Ġelb ise
Ġs us
c uk
Ġbilg ilerini
G Ã¶z
Ġinsan lÄ±k
Ġziy ade
Ä±y aman
ĠbaÅŁ a
Ġkad Ä±nÄ±
ĠyaÅŁan dÄ±
ĠO T
m iyorum
Ġm edeniyet
Ġkans eri
Ġoyuncu lar
ĠYak Ä±n
et en
ĠihtiyaÃ§ larÄ±nÄ±
Ġetkin liÄŁi
Ġders i
ĠT anÄ±
ic isi
200 9
Ġtaz min
Ġver ip
mam Ä±ÅŁtÄ±r
ĠO larak
esi dir
ĠÃ¶ÄŁren me
ec ilik
men ize
Ġgerekli dir
ĠAy r
Ġpar alel
H erkes
ĠAd nan
ĠC as
6 4
ĠOÄŁ uz
D ER
k Ã¢r
ĠÃ¶ p
ĠP ersonel
Ġtit iz
Ġkapsam da
ĠgerÃ§ekleÅŁ ecek
ĠK eÅŁ
Ġhep imiz
Ġsayf ada
Ġmalzem eler
Ġharek eti
Ġstratej ik
Ġtarih inin
Ġdevlet i
Ġdom ates
Ġper de
Ä°Y AT
Ġperformans Ä±
ĠP lus
tÄ±ÄŁ Ä±nda
ĠKar aman
Ġves ile
Ġk edi
ĠdÄ±ÅŁ Ä±ndaki
k ir
ĠT uz
ĠÃľ l
own load
Ġhaber dar
ĠgÃ¼nÃ¼mÃ¼z e
Ġgit tim
Ġs ade
Ġailen in
ĠÄ°nsan lar
Ġp rim
ĠÃ¼ret en
ĠdoÄŁ ur
Ġverilm ektedir
Ġhikay e
ĠS eb
ĠÃ§evr esinde
ĠHiÃ§ bir
b it
rag manÄ±
ĠyÄ±l larÄ±n
Ġo cak
ĠgÃ¶rÃ¼l Ã¼yor
Ġ Ä±
s iye
Ġger gin
ĠGel in
Ä±s al
ĠmÃ¼ h
ĠBun lardan
d alÄ±k
luÄŁ unda
ark a
abilir im
ic ileri
Ġgetir erek
Ġatmos fer
ĠkardeÅŁ im
Ġbul dum
Ġiz leyen
ĠZ iraat
Ġalg Ä±l
Ġol gun
IM IZ
ĠTarif i
Ġy uv
Ġnak liye
lan maktadÄ±r
f f
Ġh Ä±r
em edim
Ġmark et
Ġenf lasyon
Ġkim in
Ġsur etiyle
Ġtemsil cisi
Ġaray Ä±ÅŁ
ĠNer ede
Ġmahk eme
ĠgÃ¶rÃ¼n en
Ġolm al
ĠU laÅŁ
Ġu sta
n ey
ĠkayÄ±t lÄ±
Ġadr esine
ĠkardeÅŁ i
am adÄ±ÄŁÄ±
ĠyaptÄ±ÄŁ Ä±nÄ±z
Ġmec bur
K onya
ĠgÃ¶rev lendir
Ġek stra
Ġkarm aÅŁÄ±k
ĠI stanbul
ezil ya
ub ay
ĠKol ay
ĠKiÅŁ isel
ĠkÄ±s aca
ĠMes leki
H an
Ġrap oru
ĠÃĸnc elikle
ĠV ad
Ġboyut u
ĠdÃ¼ny asÄ±nÄ±n
dÄ±ÄŁ Ä±na
ĠdÃ¼ny adaki
Ġkom ÅŁu
eyn ep
Ġyaz Ä±sÄ±
Ġantren man
ĠkeÅŁf ed
Ġbiz de
ĠBir inci
Ġbunun la
Ġhalk Ä±nÄ±n
Ġotur um
ĠD izi
Ġhastan eye
S Ã¼r
Ġcem aat
LI ÄŀI
ĠDir ektÃ¶rÃ¼
ĠH edef
ĠaÅŁam asÄ±nda
ĠgerÃ§ eÄŁi
gr ama
S M
Ġkur ucusu
ĠMod ern
ĠY AZ
ĠG ay
Ġg un
Ġprogram Ä±na
ÄŁr ul
ĠseÃ§ ilen
ĠsavaÅŁ Ä±
ation al
ĠoÄŁ l
lÄ±ÄŁ Ä±yla
Ġkat lÄ±
Ġfilm de
Ä°Y ET
W eb
ĠAn lat
Ġsonr adan
Ġsuy un
G ir
ĠyÃ¼r Ã¼m
ĠTÃ¼rk men
Ġam balaj
eh r
Ġdir ek
Ġsaat lik
ĠkoÅŁul larÄ±
Ġkullan Ä±larak
ĠEv den
G K
Ġkoy u
ĠAf yon
ĠBah ar
Ġd elik
ĠÅŀ im
ĠgÃ¶rev l
Ġbon us
Ġo muz
ĠO ne
sas por
ĠgÃ¼ncel lem
oÄŁ uk
Ġriv ayet
ĠÃ¼lk eleri
Ġon larla
lÃ¼ÄŁ Ã¼nde
Ġsemin er
ĠkÃ¶pr Ã¼
ij yen
Ġl aborat
ĠdeÄŁer leri
Ġmillet in
Bey az
alar ca
ĠdÃ¼r Ã¼st
ĠdeÄŁiÅŁiklik ler
Ġsal onu
Ã¼r t
ĠbugÃ¼n kÃ¼
ĠN ef
M adde
ĠD EN
Ġsunu cu
Ġolsay dÄ±
ĠaÄŁÄ±r lÄ±k
Ġolur sak
viÃ§ re
Ġyak Ä±nda
Ġkav g
Ġdur an
Sur iye
ĠgeÃ§ erek
ĠE M
Ġmuhtem elen
AS YON
amÄ±z Ä±n
Y Ã¶n
s Ã¶r
Ġilg ilendir
ĠyapÄ±l acaktÄ±r
ĠÃ§aÄŁ daÅŁ
ĠHastalÄ±k larÄ±
Ġkar Ä±ÅŁÄ±k
Ġtemsilc ileri
iz min
fa iye
d el
ĠU N
Ġhastan e
ĠAr da
F i
N eden
Ġvar mÄ±ÅŁ
Ġgir miÅŁ
ĠkarÅŁÄ±l Ä±ÄŁÄ±
M ehmet
Ġr Ä±z
Ġih raÃ§
ĠdÃ¼ÅŁÃ¼n en
r as
ĠoluÅŁ uyor
Ġe uro
Ġart Ä±yor
Ġyer inden
ĠÅŁirket leri
ĠÃ§alÄ±ÅŁ tÄ±
ĠhÄ±z landÄ±r
Ġrefer andum
Ã¢h il
Ġob j
200 8
Ġhuzur lu
Ġkeyf ini
rag man
Ġtav Ä±r
Ã½ n
T ab
ĠY ou
ĠE fendi
ildiÄŁ inde
on i
Ġkayde den
Ġetmek te
Ġelem an
K Ä°
ah ya
Ġsermay e
Ġz afer
ĠfÄ±k r
ĠB ÃĸL
Ä±nÄ±z dan
Ġf Ä±
ĠalÄ±n mÄ±ÅŁ
ĠbaÅŁar Ä±yla
ĠsÃ¼rdÃ¼r Ã¼lebilir
Ġgir iyor
ek iz
ĠM c
O Z
ĠvatandaÅŁ larÄ±n
Ġbed eli
Ã¼s Ã¼nÃ¼
Ġdurum lar
ĠÃĩ AL
Ġyok sul
aÅŁk Ä±n
Ġuz manÄ±
m Ä±z
atÃ¶r Ã¼
ĠG u
Ġkurul um
Ġhak em
m esin
Ġtasar lanmÄ±ÅŁ
amam Ä±ÅŁ
ĠtoplantÄ± da
Ġbil eÅŁ
Ġbelir gin
ĠH Ä°Z
ĠolmasÄ± dÄ±r
h ak
Ġce h
ĠH AY
f t
S it
ĠBer lin
Ġt ac
ĠCumhurbaÅŁkan lÄ±ÄŁÄ±
ĠN es
adas Ä±nÄ±z
Ġit hal
ĠDA Ä°R
ĠÃľr etim
ĠEk ran
Ġmadd eler
luÄŁ un
Ã¼ el
ĠBaÅŁkan Ä±mÄ±z
ĠSal on
Ġgazet e
ur un
Ġn ik
Ġsiyas al
Ġmes leki
asÄ± dÄ±r
Y ani
Ġs uya
ĠfotoÄŁraf larÄ±
Ġal et
ĠBur s
Ġaltyap Ä±
Ġyar Ä±sÄ±
Ġolm as
ol ik
larÄ±mÄ±z da
ĠT Ã¼k
ĠPlatform u
Ġr ica
ĠAn tik
Ġn Ã¼kleer
lam ada
alar Ä±mÄ±z
Y D
ĠBAÅŀ KAN
ĠMut lu
Ġverilm iÅŁtir
ĠT C
ĠaÄŁr Ä±sÄ±
ĠBay rak
ĠM o
ĠY ER
en s
w ork
ĠList esi
B ul
Ġd oz
Ġ4 3
ĠGÃ¼ven liÄŁi
ĠT ep
Ġbay r
ĠbaÄŁ Ä±r
Ġzeytin y
ĠÃĸÄŁr en
ĠgÃ¼l Ã¼m
Ġem r
Ġey alet
Ġim alat
Ġuy du
Ġkonse pt
Ġmemnun iyeti
Ġsez onu
Ġhat tÄ±
Ġtaleb i
ĠÃ¶ÄŁ le
Ġhayat Ä±nÄ±n
M ah
ĠÃĩocuk lar
ĠgeliÅŁtir ilen
Ġart tÄ±
Ġab on
Ġsistem e
Ãľ Ã§
h o
br ek
ĠKo du
Ġgel dim
d as
Ġsiz de
ĠKon ak
ĠD ijital
Ġrefer ans
F F
ĠEr dem
ĠQ u
Ã§ ilerin
Ġorgan iz
ĠKo le
Ġden en
Ġsit ede
Ä°Z M
AL IK
ĠAm aÃ§
ĠaÃ§ mak
ĠKan ada
Ġgerek siz
ĠkiÅŁi den
Ġsev iyor
Ġbelir lendi
Ġh ic
Ġyap mam
- )
R EN
ĠBil et
m ik
Ġm Ã¼lt
ĠsÃ¶z lerine
Ġs Ã¶n
7 6
n ess
ĠEr men
ĠhazÄ±rlan Ä±yor
Ġar d
Ġev vel
it ab
i er
Ġher ÅŁey
ahat tin
ĠÅŀ TÄ°
Ġbur un
ĠR oman
ĠÅŁehr inde
A ÄŁ
ĠS c
ĠMÃ¼ÅŁ teri
t as
ad am
Ġfazl asÄ±yla
Ġprogram Ä±nda
Ġvak ti
ĠV Ã¼c
ĠdaÄŁÄ± tÄ±m
Ġb acak
istan bul
ĠsÄ±k lÄ±kla
ĠN il
ĠH ik
Ġbay rak
Ġev rak
ĠakÅŁam Ä±
U n
ĠY ENÄ°
ĠmÃ¼z iÄŁ
ĠK iÅŁi
ĠMut fak
ĠK esin
ĠKat egori
et li
Ġdiyebilir iz
Ġv iz
as eb
Ġl astik
Ġg uzel
ĠgeÃ§ir en
Ġd iÄŁeri
LÄ° ÄŀÄ°
ĠM adde
Ġkal eme
ĠJ e
ĠgerÃ§ekleÅŁtir diÄŁi
ĠÃĸZ EL
ĠtÃ¼ket imi
ĠÃĩÃ¶z Ã¼m
ĠiÅŁ it
ĠD OÄŀ
ĠÃĸz demir
ĠsÃ¼r dÃ¼
Ġt or
Ġform u
ĠD urum
ĠS ak
Ġgir ip
ĠF el
ĠÃ§Ã¶z Ã¼nÃ¼r
Ġmak ale
M erkez
Ġmot oru
Ġp ayÄ±
Ġsat an
Ġm az
ĠTeknoloj ileri
ilir ken
Ġait tir
Ġdir ektÃ¶r
Ġy uvar
âĢ ²
ĠÃ¶nc Ã¼l
Ġmas k
ĠEl bette
Ġcas ino
lik ten
Kul lan
il d
ĠhazÄ±r ladÄ±ÄŁÄ±
Ãľn ivers
ĠBil iÅŁim
Ġser gi
ĠsektÃ¶r Ã¼n
iz mi
Ġetm eyin
Ġi mam
ĠyÃ¼ksel di
ac i
ĠdÃ¶n er
ĠÄ°nÅŁ allah
Ġin tihar
ĠÃ¼rÃ¼n lerini
tiÄŁ ine
ĠBul uÅŁ
Ä±m lar
ĠhÃ¼k m
H Y
Ġakl Ä±ma
Tur k
ÄŁr Ä±
Ġente gre
ĠÃĩ OK
Ġkonu larÄ±nda
ĠbÄ± Ã§ak
Ġmez unu
Ġgetir ilen
Ġproblem i
liÄŁ inden
larÄ±mÄ±z dan
A pple
ĠY unus
Ġiy isi
Ġoku dum
ĠF eth
ĠKon gre
edi a
h em
at ih
Ġk el
Ġmetrek are
ist ler
ĠdÃ¼k kan
ĠgeÃ§ ecek
Ġuzak tan
ĠD olar
G Ã¶n
Ġhan g
Ġgelecek te
Ġyol dan
Ġpeyn ir
ĠY AÅŀ
Ġolm asÄ±ndan
Ġs kor
ĠAl p
Ġpiyas a
ĠbaÅŁlad Ä±ÄŁ
m ec
ðŁ ĺ
f one
s k
in can
em eyecek
Ġelektrik li
ĠDÃ¼ny asÄ±
ĠmÃ¼l k
Ġidar e
is im
ĠDevlet leri
S EL
Ġat mak
ĠBur ak
sar ay
Ġd isk
lediÄŁ imiz
Ġis yan
Ġihtim ali
Ġyenilik Ã§i
Ġin Ã§
Ġem anet
Ġb r
Ġkelim eler
Ġhikay esi
os h
Ġ Ä±n
ĠB AY
Ġm Ä±sÄ±nÄ±z
Ġekley in
Ġsah te
ĠÃľrÃ¼n ler
Ã¼m de
Ġ8 00
Ġtaraf ta
L EN
ĠgÃ¶ster ilen
onom ik
ĠN E
Ġ lik
ĠgÃ¶rev li
of f
h ine
antol on
ĠsÄ±cak lÄ±k
Ġb atÄ±
Ġiz leme
ĠÃĸr nek
Ġkuvvet li
or it
y eri
ul uyor
Ġ5 2
Ġhareket li
A z
Ġm ol
Ġb y
ĠM oskova
lan maz
ĠK DV
ig Ã¼r
Ġbak mak
Ġsit eniz
el iyiz
ey bol
Ġiz lenme
Ã¼nÃ¼z Ã¼
ĠFir ma
Ġortam Ä±nda
Ġbilg ilerin
Ġuz anan
Ġsey ret
ĠEl azÄ±ÄŁ
ĠdÃ¼ny asÄ±
Ã Ĥ
Ġoper asyonu
Ġbul aÅŁ
Ġm elek
Ġmet ro
Ġver diÄŁimiz
ĠgÃ¶Ã§ men
Ġv icdan
Ä±r t
ĠBir lik
Ġkom ik
M ustafa
b kz
Ġmad al
ĠTat lÄ±
ĠÅŁiddet li
ĠZ irv
en leri
ir iz
Ġ **
Ġayr Ä±m
ĠmÃ¼s abak
Ã§ ika
ĠAn gel
F acebook
ĠkÃ¼ltÃ¼r Ã¼
ĠHÄ°Z MET
Ġmot osiklet
Ġitir af
ĠhastalÄ±k larÄ±
ĠK ey
z ir
ĠM Ã¼slÃ¼m
Ġkitap larÄ±
ĠNeler dir
ĠEkonom ik
ĠM ik
Ġbozuk luk
M ak
Ġnetic esinde
ra j
ĠAk ÅŁam
l asÄ±
Ġhukuk i
Ġkad Ä±na
Ġgez i
ĠpaylaÅŁ tÄ±
ĠÃ§ ak
ĠyazÄ± lar
Ġhem de
Ġkullan Ä±ma
elik op
Ġtut uklu
Ġuz an
ĠÄ°stik lal
ĠÃ¶dÃ¼l Ã¼
ĠLÃ¼t fen
Ġistem iyorum
T M
ĠE ur
Ġadres inden
ĠgeliÅŁ imi
sun a
ĠGÃ¶n Ã¼l
M HP
ĠhÃ¢ lÃ¢
uh af
ĠkarÅŁÄ±l amak
H K
ĠR ektÃ¶r
Ġtarih e
ĠK UL
ĠÃ§alÄ±ÅŁ Ä±rken
N ET
c im
Y Ã¼z
ÄŁ in
Ã§ in
ĠgeÃ§ir di
ĠĠĠĠ ĠĠĠĠ
Ġ200 1
ĠKon ser
Ġp ersoneli
ĠÃ¶nem ini
Ġanlam Ä±yla
ĠÃĩ eÅŁit
ĠT est
Ġfiyat a
Ġp orno
Ġat Ã¶ly
ĠsÃ¼rdÃ¼r en
ĠtartÄ±ÅŁ ma
Ġ5 4
ĠK oÅŁ
ĠkonuÅŁ mada
lerimiz den
Ġhar ic
ĠVatan daÅŁ
Ġmin eral
Ġkitap lar
am da
ĠTurk ey
ĠPazar lama
Ġkitab Ä±n
ĠFÄ±r at
Ġh aÅŁ
M AZ
ĠC EO
f ir
ĠulaÅŁ an
Ġkaynak lÄ±
9 8
Ġkar n
onom i
Ġistem iyor
ĠbÄ±rak tÄ±
Ġayr Ä±ldÄ±
ĠEv i
H ome
Ġtop ar
g im
Ġkurul muÅŁtur
, âĢĿ
ĠZ afer
Ä°N Ä°N
iÃ§ in
Ġkal dÄ±m
ĠÃ¶y kÃ¼
ĠettiÄŁ im
B AÅŀ
m adÄ±ÄŁ
Ġbilgilendir me
Ä°n giltere
Ġist eÄŁi
ĠgÃ¶ v
ilecek tir
ĠK i
lan a
Ã¼mÃ¼z Ã¼n
da ha
len erek
Ġfir manÄ±n
Ġkalit esini
Ġsev diÄŁi
Ġtes ti
ĠiÃ§ ten
Ä±l maya
Ġd Ã¢hil
Ġetkiley ici
ĠN ATO
ĠP amuk
Ġrad y
s ed
ĠKal ite
Ġim al
ĠStr atej
un um
Ġ6 8
ĠGir iÅŁim
C O
Ġd udak
Ġzor lan
ĠsÃ¼r ecek
m ece
Ġt Ã¶reni
ĠÃ§ey rek
Ġst ok
Ġy epyeni
ĠÃĸ y
âĢ¦ .
Ġk ed
ĠS Ä±k
tÃ¼ ÄŁÃ¼
B it
ĠE st
Ġimk ansÄ±z
Ġyarat tÄ±ÄŁÄ±
Ġsey r
ĠS Ã¼t
ĠiÅŁ ten
ĠtecrÃ¼b e
7 1
T ER
Ġsar f
Ġboyut lu
Ã¼z Ã¼n
Ġ:) )
t ra
B aÄŁ
Ġverdi ÄŁini
S E
ledi ÄŁini
ĠBit coin
Ãĸ te
oloj isi
ÃľY ÃľK
ĠÅŁirket ler
ĠMa x
Ġkorun masÄ±
Ġk uz
Ġrej im
Ġkon usundaki
ĠbaÅŁar dÄ±
am adÄ±k
l Ã®
ĠyaÅŁ adÄ±
tis iz
ladÄ±ÄŁ Ä±nÄ±
Ġt Ä±bbi
it ed
erk esin
An ahtar
ĠÃ§alÄ±ÅŁmalar Ä±n
ĠMar din
ÄŁ day
Ġbeb eÄŁ
ĠB Ã¶yl
ĠRes ul
Ġyap acaÄŁÄ±nÄ±z
Ġkur ucu
ĠsaÄŁ ladÄ±
ĠÄ°s veÃ§
ĠDeÄŁ iÅŁik
ĠD iyanet
Ġfilm ler
EH Ä°R
ĠDevam Ä±nÄ±
ĠÅŀ eker
Ġgel mek
ĠiÃ§ e
Ġ5 6
ĠyÃ¼ksel en
Ġbilm eyen
ĠÅŁ Ã¶
leÅŁ miÅŁ
ĠÃ§ atÄ±
Ġdin ley
ĠgÃ¼n dÃ¼r
ĠO lim
ĠkÃ¶ t
Ġep ey
ĠtÃ¼ket ic
c m
ĠC emal
Ġt Ã¼y
ĠS EO
Ġtop u
Ġbilg iyi
Ġsay Ä±sÄ±nÄ±
Ġc h
ĠoluÅŁtur duÄŁu
Ġ lam
Ã¼l asyon
ĠKom ut
Ä±ÅŁ Ä±n
ĠT v
el in
Ġemin im
Ġilg isi
ĠMus a
on t
n ci
Ä° k
ĠM Ä°L
Ä±s Ä±ndaki
Ġdahil inde
f il
Ã¼ ÄŁÃ¼
Ġbas ketbol
Ġp osta
am Ä±za
C ev
Ġkad er
Ġinsan larla
ĠbaÅŁlat tÄ±
Ġfirmalar Ä±n
ĠP ost
Ġgit miÅŁ
ĠYÃ¼ksek okulu
Ġn adir
Ä°n gilizce
ĠEr meni
ĠOtom obil
ĠBel g
Ġtoh um
Ġih ale
ĠÃ§alÄ±ÅŁ Ä±yorum
Ġb edava
ĠtecrÃ¼b eli
F otoÄŁraf
ĠR ize
Ġkullan Ä±ÅŁlÄ±
ĠB Ã¼r
ĠB olu
ĠÃĩAL IÅŀ
ĠS uÃ§
ĠgeÃ§ir diÄŁi
Ġd ey
ĠW at
Ġetkil eyen
ĠgÃ¶rÃ¼nt Ã¼len
y asÄ±
Ä° ran
A G
D Ä±ÅŁ
ĠÃ¶nc Ã¼
ĠyayÄ±n lan
ĠAlan ya
bar ek
A c
ĠgÃ¶nder ilen
ĠÅŁer ef
e x
ac asÄ±
Ã¢ b
ĠZ ar
ĠiÃ§er isine
ĠT a
oy un
ĠM it
ĠGeliÅŁtir me
Ġ8 5
Ġcin siyet
ĠYaz Ä±lÄ±m
Ġkurul du
ĠOn larÄ±n
ĠTR T
Ġcil d
ĠBul un
Ġt uvalet
ĠyaÄŁ lÄ±
Ġodak lan
Ġhaf Ä±z
ĠparÃ§ alarÄ±
Ġtab ak
ht tp
ĠH ad
ĠV eli
OL OJ
Ġdemokr as
ĠP op
enek sel
Ġok ulu
Ġdetay lar
bar at
ĠHaz ret
Ġkar Ä±n
ĠboÅŁ an
B as
Ġp is
par ta
ad iÅŁ
Ġanlat mak
ĠAn t
ĠÃ¼z Ã¼l
ĠHÃ¼kÃ¼m et
ĠS ohbet
Ġf et
Ġed elim
ĠÅŁimd iye
Ġm el
Tek n
Ġdel il
ĠMad rid
Ġseb z
ĠSekret eri
Ġolur lar
ĠcÃ¼m le
ĠUz ak
ĠMet al
EL Ä°K
Ġyetkil ileri
ĠGÃ¼nde m
at in
Ġitibar Ä±yla
ĠBaÅŁ bakanÄ±
lÃ¼ÄŁ Ã¼ne
ĠaÃ§ ar
ĠGÃ¶k han
Ġtarih te
ĠdoÄŁ umlu
Ġyer yÃ¼z
ĠsÃ¼r esince
Ġp ik
ĠÃ§ Ä±r
Ġplan lanan
Ġyaz Ä±yÄ±
c k
K ol
Ġhizmet lerini
ĠP o
ĠiÅŁlet meler
ĠTop lantÄ±
Ġanlat Ä±m
ir mi
ĠS enin
ĠSar ayÄ±
ĠRad yo
ĠÃ§alÄ±ÅŁan larÄ±
Ġiy ilik
Haber ler
ĠetmiÅŁ ti
Ġyel paz
ĠyaÅŁ ar
Ġb ag
Ġver iliyor
ĠÃľzer ine
ĠbÄ±rak Ä±p
ĠÃ¶n der
ek ler
ĠÃ¼lk eden
Ġsat Ä±r
as ebe
Ġt v
Ä±lÄ±r ken
ĠyapÄ±l dÄ±ÄŁÄ±nÄ±
Ġyap abilecek
Ġgel eni
Ġetm eden
k ay
ĠsÃ¶ mÃ¼r
ĠÃĩ iz
M od
ul acak
ĠGeÃ§ miÅŁ
Ã§ uklu
ĠiP ad
ĠfotoÄŁraf lar
Ġyum urt
m il
Ġnitelik li
ĠÄ°ÅŁlet me
Ġb est
ĠKamp any
Ġd i
ĠkuruluÅŁ u
Ġyans Ä±m
Ġ5 9
Ġol ayÄ±n
g n
ĠaÄŁÄ±r lÄ±klÄ±
m atik
ey erek
Ġolm amak
Ġvurgul adÄ±
Ġmim ari
eh ri
Ġhaf tanÄ±n
ĠsÄ±nÄ±r sÄ±z
ĠA kif
Ġher halde
Ġkent inde
Y an
ĠBilg ileri
Ġas gari
ĠtÄ±p kÄ±
P r
) '
ĠOt o
ĠÃĸdÃ¼l leri
Ġs h
ĠaraÅŁtÄ±r macÄ±
Ã ĥ
6 1
ĠÄ° p
AM AN
Ġdon at
ĠAr ama
ĠÃĸzel likleri
Ġetkinlik ler
Ġrahat lat
ĠOyun lar
V er
Ġgay rimenkul
Ã¶z el
Ġplatform u
in san
ĠÃ¶n lemek
ilm eye
ay dÄ±n
Ġat Ä±lan
h aber
ĠÅŁÃ¼ph esiz
is p
Ġkir alÄ±k
Ġmuhalef et
Ġyar atÄ±
ĠÃĸÄŁrenc iler
Ġoldu g
Ġr ot
ĠDÃ¶n emi
C an
ĠaÃ§Ä±klam aya
Ġsevin irim
akk ak
Ġy alÄ±
A pp
iyet ini
Ã¼mÃ¼z Ã¼
ĠbaÅŁ landÄ±
Ġetm iyor
Ġ5 3
Ġbom ba
D ÃľR
ĠP il
Ġk Ã¼l
ĠA ra
ĠgÃ¶rÃ¼l dÃ¼
ĠfotoÄŁraf Ä±
ĠmÃ¼ sa
y dÄ±
se de
Ġith alat
Ġuygun dur
tur k
ĠGÃ¼n Ã¼mÃ¼zde
O G
iv an
ĠtÄ±klay arak
Ġyol un
Ġceza ev
Ġve da
Ġkonfor lu
m u
Ġd et
TAL YA
uy uz
Ġh ur
ĠR ed
ĠEÄŁ len
t iniz
Ġz ik
Ġab i
as s
ĠW orld
Ġmut luluÄŁ
ĠmÃ¼ÅŁter ilerine
ĠoluÅŁtur ulan
ĠSey ahat
b ox
ĠÃ¶ len
ĠbÃ¶lÃ¼m Ã¼nÃ¼
Ġ[ ...]
a ik
Ah met
Ġyaz ma
Ġgerektir en
Ġyarat mak
Ġzorunda dÄ±r
Ġel ini
Ġdurum una
Ġkur duÄŁu
Ġes ir
ĠMat ematik
f af
ĠgeliÅŁ meleri
ĠkuruluÅŁ larÄ±
ĠS Ã¶y
ĠaldÄ±ÄŁ Ä±mÄ±z
lam ayÄ±
Ġden eme
Amer ika
ash ington
ĠoluÅŁtur ur
ab ey
Bak an
ĠsÃ¼rdÃ¼r Ã¼yor
Ġkusur suz
Ġdok u
ĠM ari
Ġmuhaf aza
7 2
B ank
Ġh ain
ĠA Åŀ
Ġunut ulmaz
ĠyaÅŁam Ä±ÅŁ
v al
Ġyap Ä±ya
Ġr eÃ§
Ġolan larÄ±n
ĠF or
Ġol abileceÄŁini
7 9
ĠÄ°sp anyol
ĠÄ°dar esi
b uki
ĠÃ¶r neÄŁin
Ġnih ayet
Ġher ÅŁ
Ãľ T
ĠilÃ§ esine
Ġan lama
nam e
ĠKurum sal
ĠAs ker
mam alÄ±dÄ±r
ĠBl ack
ĠM y
Ã¼t ahya
Ġsit esinden
Etik et
Ġkullan Ä±r
ĠsÃ¼r Ã¼ÅŁ
K as
an larÄ±n
Ġg Ã¼mÃ¼ÅŁ
lay abilirsiniz
F akat
Ġinan c
ĠE h
ĠalÄ±ÅŁkan lÄ±k
B ana
k ut
ĠsaÄŁ ladÄ±ÄŁÄ±
Ġgir diÄŁi
8 8
ĠTur gut
ĠsaÄŁlay acaktÄ±r
mos yon
Bil g
ĠihtiyaÃ§ larÄ±
AÅŁ aÄŁÄ±
Ġisten ilen
Ġin tik
ĠD iyet
Ġfazl asÄ±nÄ±
ĠgÃ¶rÃ¼l mektedir
ĠpeÅŁ inde
fer ansÄ±
Ġcihaz lar
Ġyaz Ä±lmÄ±ÅŁ
ĠtÄ±r man
os un
om i
Ġedilm elidir
ad asÄ±
Ġsit emizde
ĠÃ§alÄ±ÅŁmalar a
ov e
h ep
Ġb oÄŁaz
Ġgide ceÄŁ
ĠFar uk
ver en
Ġ8 1
ah isar
Ġvur gu
Ġotel leri
Ġetk isini
Ã¢ nÄ±
Ġkapas itesi
Ġdiyor lar
g ir
C om
ĠAvust urya
Ġs ul
Ġsp onsor
Ġres imleri
Ġhal iyle
Ġs ec
Ġolacak sÄ±nÄ±z
Ġtop lanan
ĠdÃ¼ÅŁÃ¼n Ã¼n
lerimiz de
K oca
Ġtab l
Ġk aÄŁÄ±
Ġhorm on
Ġot opark
Ġberaber lik
ĠO na
ĠF izik
Ġyap madan
i et
er isi
ĠdÃ¼ÅŁ er
Ġek ledi
Ġ199 9
ĠÅŀ iir
ĠO D
ĠÃĩ ukur
ĠTel evizyon
Osman lÄ±
enc ere
ĠK AN
M ev
ĠPro t
Ġokuy ucu
av Ã¼z
tik leri
Ġy uk
6 3
s c
Ġail esinin
S al
Ġpol itika
ĠS ite
ĠdÃ¼ÅŁÃ¼nc eler
Ġi ma
ĠÄ° pek
ĠYal Ã§Ä±n
cÄ± larÄ±
ĠÃľ z
ÅŁ en
ul larÄ±
ÅŁ un
Pro gram
ĠseÃ§ in
Ġ7 00
dÄ±r ma
ĠgiriÅŁ imi
ĠsÃ¶z lerini
of Ã¶r
l ow
ĠKar go
alar ak
K iÅŁ
Ä°L M
em de
b olu
m ama
ĠMark a
Ġvar lÄ±ÄŁÄ±
abiliyor sunuz
ĠAmerik alÄ±
ĠadÄ±m lar
ĠiÅŁlem e
Ġor uÃ§
Ġhisse de
ĠdÃ¼zen ledi
ĠHat ip
p ro
C U
ĠAy ÅŁe
Ġis pat
ĠÃ§ if
siz in
ha el
Ġbas tÄ±r
ĠEt ti
ĠTÃ¼rk ler
ĠÅŁÃ¼ph eli
Ġlir aya
ĠdeÄŁiÅŁtir mek
Ġsom ut
iler inde
ĠMuh arrem
Ġayr Ä±lan
ĠMal iye
Ġokul da
Ġzek a
ĠC AD
Ġikti d
I D
Ġyol lar
8 2
ĠsÃ¶y leÅŁ
tu ÄŁrul
ĠÄ°N Åŀ
ĠgeÃ§erli dir
Ġfiyat larla
Ġcid d
Ġnum ara
af et
Ġhastan ede
ebil eceÄŁini
ĠyÃ¶net ici
bul ans
ĠN ik
ĠBek ir
ĠhÃ¼kÃ¼m eti
Ã¼n tÃ¼
ĠmaÃ§ Ä±n
ĠTop rak
Sab ah
Ġdin lem
ĠFilm leri
ĠartÄ±r mak
ĠA P
Â «
Ġko ca
Ġbirbir lerine
Ġpat ates
Ã¼min yum
ĠsÄ±k Ã§a
ĠsÄ±r al
ak lar
ĠCih az
Ġmad en
ĠAr ÅŁiv
Ġbal kon
ĠDÃ¼ÅŁ Ã¼n
ĠG ezi
Ġvir Ã¼s
Ġham ur
ĠSaÄŁlÄ±k lÄ±
Ġyaz Ä±yor
lat ma
oda fone
ĠDoÄŁ a
Ġb am
ur k
ĠÃ¼y eler
ers en
Ġsan tral
Ġadam larÄ±
ĠY um
Ġz ira
ĠT ev
ĠÃ¶lÃ§ Ã¼m
ĠÃ¼st e
ĠS k
Ġettik lerini
ĠgÃ¶z et
Ġsaha da
fi ce
r anÄ±
ĠAvust ralya
Ġh Ä±zÄ±
ĠT ol
ĠSilah lÄ±
ĠdÃ¶n dÃ¼r
ĠKaymak amÄ±
EC E
Ġin ci
ĠB oÅŁ
Ġerkek lerin
ĠaÃ§ tÄ±ÄŁÄ±
ĠD ili
Ġder im
ĠyaÅŁam Ä±
Ġhis si
ĠMÃ¼hendis lik
ĠÃ§oÄŁun lukla
li b
duk larÄ±nÄ±
Ġdef ter
Ġlim an
y r
ĠKurul uÅŁ
ĠyardÄ±m Ä±yla
Ġbir imi
ĠEr ol
ĠgeleceÄŁ e
ĠSay Ä±lÄ±
ahh Ã¼t
Ä°L Ä°R
M EN
Ġkol tuÄŁ
ĠgeÃ§ tiÄŁi
Ġpar ayÄ±
Ġkon gr
ĠdeÄŁiÅŁ imi
Ġcih azÄ±
ĠSin em
Ġkahv alt
Ġkullan Ä±yorum
Ġkarar lar
ĠKÃ¼r d
Ġm Ã¼st
ĠB lu
Ġkilomet r
ĠeÄŁitim e
Ġm ag
ĠBulgar istan
ĠkadÄ±n lara
ĠsÄ±nÄ±f Ä±
Ġt uru
ac Ä±n
OR U
Ġum arÄ±m
ĠTanÄ± tÄ±m
ĠI P
ĠU SB
ĠÃ§ek ilen
ĠbÃ¼t Ã§e
w ood
Ġdal ga
Ġal madan
Ġhak sÄ±z
Ġkelim esi
ir kin
Ġyan g
c esi
ken t
lÃ¼l Ã¼k
Ġkay dÄ±
ĠSÄ±nav Ä±
Ġotur ma
Ġtarih ten
ĠAk si
ĠoÄŁ lum
ĠÃ¶zellik lerini
Ġbay Ä±l
Ġkal madÄ±
ĠAL AN
ĠaÃ§Ä±k lan
ĠgÃ¼ncel leme
Ġsev iyesi
ĠHes ap
ade mi
st eri
Ä±y aka
ĠP en
in dir
Ġgel miyor
ĠoluÅŁtur uyor
l uyum
o larÄ±
b ab
Bil im
ĠYÃĸN ET
Ġb ot
Ġver g
ĠE bu
Ġbul uyor
Ġdev re
ĠEfend imiz
Ġders leri
g Ã¼ven
Ä°s rail
Ġmer haba
S ayÄ±n
ĠbaÅŁlat Ä±lan
ĠT ez
ĠMobil ya
ĠOk um
Ġc adde
Ġsan Ä±k
Ġs endik
ĠoluÅŁ maktadÄ±r
ĠdÃ¶nem ine
Ġsor usuna
Ġbur s
Ġform at
nav ut
Ġbilin ir
S eÃ§
ĠyaÅŁam aya
ĠM ali
ĠmÃ¼ÅŁteriler imize
ĠÅŁirket lerin
Ġdevam Ä±nÄ±
G Ã¼l
an ik
Ġgazet esi
ĠBel li
Ġkend isinden
baÅŁk a
ĠÃ§eÅŁit leri
ĠP ap
g ini
Ġy emin
ĠG Ã¼len
ĠÃĩ el
ĠAk Ä±llÄ±
Ġh il
ĠT om
Ġsorun larÄ±n
leÅŁ en
Ġail esine
ĠBul ut
ok er
Ġdurum unu
Ġistedik leri
Ġde g
Ġ5 1
Ġh a
c aya
ĠyÃ¶n lÃ¼
ĠD ÃľN
Ġev lat
ĠgenÃ§ lerin
ĠbÃ¼yÃ¼y en
ĠKarÅŁ Ä±
ĠH AS
ĠBat man
ecek ler
ĠaldÄ±ÄŁ Ä±nÄ±z
ĠgerekÃ§ esiyle
Ġdeplasman da
ĠN ormal
ĠV ekili
Ġak Ä±m
Ġb erek
ĠseÃ§im leri
Ġk Ã¼tÃ¼phan
f an
ak er
ĠGir esun
Ã¶rf ez
Ġbelirt mek
ĠDemir taÅŁ
Ġnas ip
Sel am
Ġvar lÄ±ÄŁÄ±nÄ±
ar ya
abil im
Ä°K A
Ä°R K
ĠtanÄ±n an
Ġmodel ler
' m
ĠEl b
B al
Ġcen az
âĢĻ ,
g ov
Ġyorum larÄ±
Ġmal iyeti
ĠkullanÄ±cÄ± larÄ±
Ġham ile
ĠyaÅŁ Ä±na
ĠB UL
Ġedeb ilecek
Ġvar an
lediÄŁ im
Ġk lima
Ġsit eye
c unun
mar is
Ġ9 5
alim an
ĠKar s
Ġak siyon
ĠÃ¶y k
Ġmadde sinin
Ġkurum lar
ebilir ler
ĠB us
ĠS Ã¼n
ez ya
Ġkoy du
ĠG id
Ġet i
T em
Ġyap mÄ±ÅŁtÄ±r
ĠY rd
ÄŁ e
ĠKal p
ĠgenÃ§ lik
ĠSur iyeli
Ġ9 9
I V
ĠteÅŁkil at
Ġm Ã¼slÃ¼man
ĠYet er
ĠW hats
ĠdÃ¶n en
adiÅŁ ah
ĠSah ip
ĠÅŁ im
T es
Ä±lmÄ±ÅŁ tÄ±
ĠiliÅŁk isi
Ġhastal Ä±ÄŁ
Ġsof r
ĠAd res
in ler
EN T
ĠyaÅŁ ta
Ġekran a
il k
ĠL ED
Ġk esi
ĠN AS
Ġv ekil
ĠboÅŁ luk
Ġhav ada
T eÅŁ
ĠÃľ R
Ġil im
Ġbak Ä±ldÄ±ÄŁÄ±nda
day Ä±m
Ġkad ros
r ib
ĠbÃ¶lg edeki
D K
Ã¼l dÃ¼ÄŁÃ¼
F ETÃĸ
Ġf abrika
Ä± cÄ±sÄ±
larÄ±nÄ±z da
B unu
H az
ĠkÄ±y Ä±
elikop ter
il de
Ġot ob
Ä±r nak
Ġt etik
T ube
ĠEtik etler
Ġeser leri
ĠTak ip
ĠbuluÅŁ tu
Ġbelg esel
Ġolduk tan
Ġay dÄ±r
ed iyesi
Ġkaps ayan
l iyorum
ĠD EM
ĠT rafik
Ġdiyebilir im
Ġmer diven
Ġkok usu
Ġ6 6
us a
Ġtemiz liÄŁi
ĠAl b
Ġedilecek tir
Ġarac Ä±lÄ±ÄŁÄ±
Ġve sil
m elisiniz
ĠCam i
uz un
mek le
Ġtalim at
as por
ĠS U
ĠC D
ĠgÃ¼z er
Ġsal at
Ġduy ulan
Ġken ti
ĠÃ¶ÄŁren im
Fran sa
Ġtamam landÄ±
Ġg ebelik
Ġnef is
Ġses lendir
ĠL in
ĠgÃ¶z Ã¼
ĠGEN EL
Sev gili
ĠBur cu
it h
ĠdoÄŁ u
aal anÄ±
Ġrenk ler
Ġcevab Ä±nÄ±
ĠP or
ĠÄ°L K
ce des
ĠC or
Ġmek Ã¢n
Ġedil emez
ĠCh ar
ĠO rada
Ġkav ga
ĠP DF
ĠZ or
Ġd iyoruz
ĠyaÅŁ Ä±yoruz
ĠKahraman maraÅŁ
Ġotur an
ĠyayÄ±n ladÄ±
Ġm l
ĠU EFA
Ġsayf asÄ±nda
Ġz em
Ġinsan i
Y urt
Ġiddi alÄ±
K endi
ĠÃ¼lk eyi
ĠFaz la
Ġkal masÄ±
ĠgÃ¶rÃ¼n Ã¼r
ĠbilinÃ§ li
el d
ĠÅŁart lar
ĠA C
Ġgel eceÄŁini
Ġ199 0
Ġdep resyon
Ġeksik siz
ĠÄ° M
8 5
mek tir
lerimiz le
ĠLev ent
ac iv
Ġuygulan Ä±r
ĠmÃ¼cadel esi
em edi
ĠS ov
ĠyaÅŁam Ä±n
S oru
l iydi
Ġsat Ä±lan
7 4
Y ukarÄ±
ĠKur ban
An n
EC EK
ender es
ĠGel en
Ġbelg eler
ĠAf gan
ĠyoÄŁ urt
Ġc ik
Ġver mez
lam anÄ±n
c Ã¼l
ĠÄ°h racat
Ġeb eveyn
Ġpak eti
Ġy il
ĠPar Ã§a
ĠBel gesi
ĠEr soy
Ä°M Ä°
Ġred det
Ġc al
Ġku cak
ĠDur umu
ĠS eni
7 3
Ġmes leÄŁ
Ġedildi ÄŁini
ĠkullanÄ±l Ä±yor
ĠyÃ¼z me
ĠKit ab
Ġtehlik e
Ġkan at
Ġgetir ecek
Ġdikkat i
M Ã¼
ĠgÃ¶rÃ¼ntÃ¼ ler
ĠbÃ¶lg esel
um da
ar s
ĠAl Ä±n
Ġhal ini
ĠiÅŁ ken
E ÅŁ
Ġmahk um
ir al
Ġoran larÄ±
av v
ĠN or
Ġsay Ä±l
Ġmir as
Ġ umu
Ġcez alandÄ±r
Ġb oru
Y eÅŁil
k usuz
ĠBak Ä±r
ĠyÃ¼k lÃ¼
ĠP aket
Ġmuh tar
M ASI
Ġyakalan dÄ±
Ġl in
Ġkur ab
ilmiÅŁ ti
ĠyÄ±ld Ä±zÄ±
ĠÅŀ ef
an Ä±za
ĠyaptÄ±k larÄ±nÄ±
Ġuyar Ä±nca
ĠAkadem isi
ĠvasÄ± t
ic s
n af
K Ã¶
ĠKelim eler
ĠU marÄ±m
ĠHer hangi
ĠdÃ¼ÅŁÃ¼n Ã¼yoruz
ĠÃĩ at
ĠkaldÄ±r Ä±ldÄ±
Ġbilin meyen
B at
a x
__ __
Ġs oÄŁan
ĠÃĸ lÃ¼m
ĠSÄ± cak
W indows
Ġteknoloj ileri
Ġv arken
Ġsit enin
Ġc oÅŁk
R e
iz li
Ġiler lem
Ġverir ken
Ġbildir im
ac aat
O lay
D Ã¼z
Ġ18 0
Ġrenk leri
Ġh ijyen
ĠaÅŁama da
ĠNit ekim
ĠiÅŁ tir
ĠyÃ¶netic ileri
Ġkarar Ä±nÄ±
ĠgÃ¶nder ildi
Ġbet on
ĠÄ°s viÃ§re
Y O
ĠMimar lÄ±k
d Ã¶n
ĠTer cih
Ġdur ak
Ġim ar
ĠB erk
ĠGel ecek
Ġmesaf e
ener al
S h
Ġtav an
Ġver miÅŁtir
ĠT AK
ĠdÃ¶n Ã¼k
Ãĩ E
ĠÃľ mit
Ġkay ak
Ġal dÄ±klarÄ±
Ġâ Ĥ
Ġb an
IY OR
ĠU mut
z en
ĠÃ§ iÄŁ
Ġoran la
ĠbaÅŁvur usu
ĠÅŀ er
meler ine
ĠKit abÄ±
ĠadlandÄ±r Ä±lan
Ġbeb eÄŁin
k ileri
AN A
t Ä±nÄ±z
S L
ta ur
ĠTarif leri
ĠsÃ¶z cÃ¼k
Or ta
ĠH Ã¼rriyet
ĠÃ§Ä±k ma
ĠOl aÄŁan
Ġslog an
ĠdÃ¶r dÃ¼ncÃ¼
Ġtraf iÄŁ
Ġver dikleri
k ul
Ġet ap
ĠyÃ¼k len
ĠyÃ¼z Ã¼ne
ĠaÃ§Ä±klam alar
Ġhep imizin
ĠD uvar
C A
ĠFat ma
Ġat arak
Ġmas al
L AÅŀ
Ġmerak la
Ġn eyse
ĠD ÃĸN
ĠSanat lar
Ġel den
Ġyaz Ä±lan
Ġnam azÄ±
Ġfil tr
ĠGel ir
Ġs ir
Ġses li
ekk e
Ġres imler
Ġp ast
ĠM Ã¼st
kur may
Ġkurtul mak
ĠyÄ±ld Ã¶n
Ġetm esini
Ġmev ki
iliÄŁ in
K Ä°N
ĠBaÅŁak ÅŁehir
ĠÃľn al
b aÄŁ
Ġs taj
Ġmobil ya
ĠÃ§alÄ±ÅŁmalar Ä±nÄ±n
AD A
ĠÃ§ il
Ġetm eleri
ĠÅŁÃ¼k Ã¼r
B ab
ĠarkadaÅŁ larÄ±m
ĠRap oru
Ġoyn at
im iyet
ĠF inal
eda t
ĠK O
t le
ĠM ini
IN IN
Ġmuhab bet
ĠEk ip
Ġtah t
ĠBirleÅŁ miÅŁ
ĠM AK
Ġharic inde
Ġas ans
lek s
Ġtak dim
Ġm g
ĠBen ce
ĠKon ular
ĠsÃ¶yledi ÄŁi
ĠR ah
ĠK ans
Ġ7 2
Ġyap alÄ±m
ĠM AL
ec k
ĠK K
ĠDemir el
b aba
l ing
ĠB an
Ġkal maz
Ġsenar yo
Ġgir erek
ĠKat egor
ĠmantÄ±k lÄ±
Ġgel miÅŁti
Ġ6 9
E G
ĠmÃ¼z iÄŁi
Ġetk isiz
PS S
ah an
Ġkork unÃ§
ĠÄ° f
v eni
ĠaÃ§Ä±klam asÄ±nda
Ġsay Ä±lÄ±r
Ġper iy
Ġyer in
Â ®
f Ã¼m
ĠbÄ±rak mak
ĠÅŀampiyon lar
ip to
Ġs Ã¶k
Ġm uz
yaz Ä±lÄ±
aciv ert
ĠBr ezilya
iÄŁ it
Er z
b y
Ġt Ã¼p
Ġkan aat
Ġfaz lad
Ġkesin tisiz
Ġoldu lar
ĠÅŁar ap
ĠV ide
i P
TÃ¼rk Ã§e
ĠArap Ã§a
Ġziyaret i
Ġ: :
Ġart masÄ±
Ġder ler
Ġbur adaki
ĠKir alama
ĠÃ¼y elerinin
v iv
Ġd eyip
L e
Gazi antep
Ġolur sanÄ±z
Ġbur asÄ±
ĠkullanÄ±l dÄ±ÄŁÄ±
ĠbaÅŁ layÄ±p
ĠYol larÄ±
Ġmen f
AM A
ĠdeÄŁil se
ĠY em
ĠÅŀ Ã¼k
ĠZ eynep
ĠKomutan lÄ±ÄŁÄ±
ĠBir bir
Hal k
Ġmer ham
ĠKon ferans
Ġbey ler
ar da
Ġ19 80
ĠgeÃ§ mesi
Ġizley ic
ĠgeÃ§ir ildi
ĠSat Ä±lÄ±k
M ersin
C EL
Y ol
Ġhassas iyet
Ġduy an
Ġar amak
Ġn az
w ay
Ġgit tiÄŁi
ed in
Ġr Ã¼ya
ĠOl sun
Ġkural larÄ±
Ġayn en
ad Ã¼f
amÄ±z dan
um artesi
oper atif
Ġver sin
ĠN ok
ĠVer gi
ĠgÃ¶r Ã¼yorum
re e
ĠA lex
Ġb ran
ĠBaÄŁ Ä±m
ĠUY G
Ġan Ä±m
ĠÃ¶ncelik li
c am
ĠSh ow
Ġinternet te
ĠgÃ¶r mez
ĠH oÅŁ
ter iler
Ġkat il
Ġmetrek ar
, ...
es Ã¶r
ler inizin
ĠSat Ä±n
ĠBun larÄ±
T UR
ĠbarÄ±ndÄ±r an
ĠKomut anÄ±
ĠD ER
z el
ĠÃ¶zel liÄŁini
Ġder gi
Ġann em
Ġbelg eleri
ĠbaktÄ±ÄŁ Ä±mÄ±zda
) ;
Ġf ed
Ġtaraf a
Ġkon ul
ĠÃ§Ä±r p
G Ã¼ven
Ġc errahi
ĠSel Ã§uklu
Ġc eb
ĠÃľs kÃ¼dar
ĠaÃ§ Ä±lmasÄ±
ĠhÃ¢ l
ĠbÃ¶lg elerde
Ġhay v
B Ä°T
H av
Ġunut ul
Ġyav ru
ol d
Ġuzak laÅŁtÄ±r
Ġders iniz
Ġhast alar
n es
Ġak tÃ¶r
em ektedir
ograf i
ĠP uan
Ġkarak teri
AK P
OK Ä°
Ġifade si
ĠolduÄŁ umu
ĠÃ§ikol ata
Ġenerj isi
S at
Ġ9 00
Ġboy unda
Ġseviy esinde
Ġsorum luluÄŁ
Ġkur an
ir se
s Ã¶z
V EN
ant in
Ġmadd eleri
ĠS ep
ĠM ur
ĠkaÃ§Ä±n Ä±lmaz
Ġkay d
Ġp Ã¼r
Ġsev giler
ĠkÄ±z Ä±n
ĠyÃ¼ksel iÅŁ
ĠS ivil
Ġseviy esine
Ġileri de
ĠKat Ä±lÄ±m
og a
Ġhastan Ä±n
ĠSer dar
Ġyemek leri
Ġsen ary
b Ã¼r
Ġser in
ak tif
lan gÄ±Ã§
ĠÃľ ye
Ġmah al
ĠDÃ¼z ce
Ġtah sil
Ġc Ã¼z
Ġkurul masÄ±
ĠÅŁu an
ĠAr ch
Ġaj ans
4 00
M ic
Ġar Ä±z
D OÄŀ
k lar
est en
Ġrak ib
ĠS EV
Ġ( %
Ġkonum unda
ĠyazÄ± da
Ä±t ma
ĠNo te
un t
Ġmuhtem el
Ġkil is
D IN
Ġh ev
Ġlit re
... "
ĠV it
Ġn azar
ĠbaÅŁlay arak
is tir
Ġyet mez
Ġduyar lÄ±
ĠAk ÅŁ
Ġmerkez leri
K r
ĠdemiÅŁ ti
Ġd uÅŁ
ĠW i
Ã¼le b
ĠÅŀ am
Ġb araj
ĠP utin
Ãĩ EK
ĠiÅŁ len
ladÄ±k larÄ±
Ġceh enn
Ġmuhal if
Ġuygul ay
on y
ĠfarkÄ±n dalÄ±k
ĠÃľR ÃľN
y or
K az
may la
lÄ±ÄŁ Ä±mÄ±z
ĠÃĸ te
P er
Ã¢ z
ĠR ef
Ġok si
ĠyardÄ±m cÄ±sÄ±
af ak
ob ile
ir et
Ġede mez
Ġdost luk
Ġsev imli
ĠE din
ĠKir alÄ±k
200 7
3 00
ĠGeÃ§ tiÄŁimiz
ĠAd asÄ±
Ġs tad
ĠgÃ¶ster gesi
Ġn ice
ĠB ÃľYÃľK
y em
Ġgrub un
G ÃľN
V A
ĠyÃ¼zyÄ±l da
ĠgÃ¶r eceksiniz
ĠdediÄŁ imiz
ĠZirv esi
Ġken tin
Ġoyn am
Ay dÄ±n
ĠOrgan ize
ĠProf esyonel
Ġbil diÄŁi
ĠEs en
ĠÃ¶ÄŁretmen ler
ĠBiz ler
Ġpas aport
Ãľ st
ĠdeÄŁil iz
t emiz
ĠYah udi
Ġken ara
ĠBaÅŁ sav
Ġ7 8
Ġbab asÄ±nÄ±n
ĠBÄ°L G
Ġtab ir
t v
ĠG re
Ġnit elendir
Ġi ÄŁ
Ġihtiyac Ä±mÄ±z
m Ã®
ĠhazÄ±r lamak
Ġdayan an
Ãľn lÃ¼
ĠBoy ut
ĠÃ§am aÅŁÄ±r
ĠkonuÅŁ masÄ±nda
Ġifade sini
malar Ä±nÄ±n
ĠTAR Ä°H
Ġg or
ĠbaÄŁlÄ± dÄ±r
Ġhesab Ä±ndan
ĠÃ§ Ä±ÄŁ
Ġyan Ä±l
ĠsÃ¼rec ini
ĠS uper
s inden
ĠbaÅŁkan lÄ±k
Ġeksik liÄŁi
Ġpiyas ada
Ġev li
Ġon arÄ±m
Ġem peryal
ĠÄ°k tis
Ġy eme
S ah
im a
Ġakr ab
ĠTurk cell
ĠÃ¶ÄŁrenc inin
Ġver ilerine
abilir sin
Son ra
un g
ĠD Ã¶rt
ĠyaptÄ±k tan
Ġfel aket
ĠÄ°Ã§ iÅŁleri
Ġk ib
OB Ä°
ĠF ay
ore x
ĠBil in
ĠgÃ¼Ã§ leri
ĠgerÃ§ekleÅŁtir mek
Ġdakik alÄ±k
ĠSÃ¼r ekli
Ġy aban
Ġkur du
Al tÄ±n
ĠÄ°sk ender
ĠEs er
ĠG em
Ġindir imli
Y E
Ġil de
ĠKap Ä±
Ġzih n
ĠB eden
S ize
Ġay Ä±n
diÄŁ in
Ġart Ä±ÅŁÄ±
Ä±y sa
ĠamaÃ§ la
Ġkap ital
Ġil anÄ±
ĠÃ§ Ä±lgÄ±n
Ġik iye
Ġf ull
Ġsalon unda
ĠP ir
w ard
Ġat Ä±n
tÃ¼ ÄŁ
K UR
EL ERÄ°
Ġbilin mektedir
Ġar azi
Ġbirey ler
ĠbaÄŁlant Ä±sÄ±
Ġiyil eÅŁ
ĠTedav i
G Ã¶k
Ġbit en
av ul
Ġm eme
Amer ik
Ġmuay ene
ĠKurtul uÅŁ
ok si
M Ã¼z
Ġar tar
ac iÄŁer
ĠE S
Ġh el
ĠGÃ¶ lÃ¼
Ġol abileceÄŁi
Ġkey fi
ĠK lima
Ġolan larÄ±
iz in
Ġaday larÄ±
oter api
ab b
at ay
ĠB isiklet
Ġtab anlÄ±
Ġversiyon u
ĠOL DU
ĠD AH
Ġfak ir
ĠG AZ
Ġv a
h y
Ġilg isini
Ä°ST EM
ĠKaf kas
ĠSekret er
Ġat Ä±l
Åŀ irket
ĠtÃ¼rk Ã§e
Ġdon an
ĠGen iÅŁ
ĠYAP IL
GÃ¼n Ã¼mÃ¼zde
ĠL G
B Ä°R
Ġdevam lÄ±
Ġaday lar
ĠBin ali
6 2
N asÄ±l
eter iner
ĠEv ren
Y K
Ġmes l
ĠDavut oÄŁlu
Ġediyor du
Ġmil liyet
ĠsÃ¶z lÃ¼k
Ġk Ä±n
Ġden li
ak istan
ĠgerÃ§ekleÅŁtir en
Ġar alar
Ġkay gÄ±
ĠKur su
ĠedeceÄŁ ini
ĠÃ¶rg Ã¼
ĠB izi
ĠdÃ¶n Ã¼p
ot u
ĠÃ§arp Ä±cÄ±
Ġtutuk landÄ±
y ken
k isi
ĠA dem
ĠgeÃ§miÅŁ te
ĠsÄ± fat
Ġalb Ã¼mÃ¼
ĠPa ul
pa gan
ĠMERKEZ Ä°
ĠHak kÄ±
kar ahisar
ĠÃ¶zellik lere
N er
Ġu f
Ġtoplum a
Ġek lendi
ev e
ar m
Ġfak Ã¼lt
ĠG Ã¼ler
ĠmeÅŁ gul
ĠkatÄ±l acak
ek si
ĠgÃ¶n l
Ġhayat i
Ġoynan acak
ĠAL T
ĠgÃ¶r meye
ĠiÅŁ ine
Ġat lat
Ġy on
ĠOl ur
ĠEv de
ĠgÃ¶rÃ¼ÅŁ mek
Ġk Ä±t
ĠI M
ĠyÄ±k ama
ĠB Ã¼y
ov asyon
t y
tar af
ĠÃ¶t esinde
Ġm usun
eÄŁ en
Ġman tar
Ġkon unun
Åŀ eh
u j
ĠH ekim
ĠZ onguldak
ĠsÃ¼n net
ĠPort ekiz
Ã§ iliÄŁi
eÄŁ li
LAM A
ay Ä±z
ĠY ukarÄ±
ĠseÃ§ ildi
Ġkaynak lanan
ĠT rak
ĠReh ber
Ġilk e
Ġ6 3
N Ä°N
el eme
Ġkab losuz
ih a
Ġnak it
Ġyaz Ä±mÄ±zda
ĠR estor
ĠÅŀehir cilik
Ġp ap
Ġbah Ã§e
Ġh ek
Ġgen etik
Ġmas um
ĠÃ§ ekt
Ä±p lak
Ġ1 12
iler iyle
Ġzih insel
ĠyapÄ± larak
Y ok
Ġsaat ler
ci ÄŁer
g raf
el ler
Ġpart isi
Ġbab am
dan Ä±n
Ġver meyi
ĠbaÄŁlant Ä±lÄ±
il a
t iy
kin g
ĠBel Ã§ika
C D
ĠKap alÄ±
m od
Ġkitap ta
os man
ĠÄ±s Ä±n
ĠTasar Ä±mÄ±
Ġp embe
ĠgÃ¶rdÃ¼ÄŁ Ã¼nÃ¼z
Ġroman tik
Ġkim dir
ĠEr iÅŁim
Ġkes kin
Ã¼s Ã¼nde
ĠSev gil
ĠgeÃ§ in
ac Ä±lÄ±ÄŁÄ±
ĠÃ§ek erek
Ġmesel esi
Ġasker lik
Ġfilm inin
Ġsunul uyor
ĠG ro
uv arÄ±
ĠYap Ä±m
Ġsen den
Ġdurum dan
Ġal manÄ±z
Ġk Ä±lÄ±
d f
Ġyorum u
Ġbey n
Ġt ansiyon
Z aman
Ġend iÅŁe
acaÄŁ Ä±ndan
Ġhak larÄ±nÄ±
ĠÃĩ orum
us uyla
ĠsÄ±k Ä±l
ĠkÃ¶ÅŁ e
m y
ĠHik met
eks ika
ĠÄ° ster
Ġseviy eye
ĠS ana
ĠhÃ¢ kim
Ġkoc aman
ĠEr tuÄŁrul
m art
Ġper akende
Ġt adÄ±
paz arÄ±
tÄ±k Ã§a
iÅŁ imi
B alÄ±k
ĠkullanÄ±cÄ± lara
ĠsÄ±nav Ä±
ĠEngel liler
c ik
ĠtaÅŁ Ä±r
Ã¼k emmel
Ġkatli am
ladÄ±ÄŁ Ä±m
Ġtec avÃ¼z
ĠmÃ¼ te
Ġsat Ä±lÄ±k
taur ant
ĠdÃ¼ny asÄ±na
ĠdÃ¼ÅŁ Ã¼yor
landÄ±r ma
larÄ±nÄ±z la
Ġ7 20
ĠK lasik
Ġsit esine
Ġbin asÄ±
ĠaÃ§ ma
ĠTek irdaÄŁ
Ġf as
Ġfil an
ĠÃ¶ÄŁr endik
Ġoyuncu larÄ±
ĠGenel likle
ĠÃĩ ocuÄŁ
ĠÅŁey tan
ĠgÃ¶rÃ¼ntÃ¼ leri
ĠU Z
las s
Ġistedik lerini
Ġaray Ã¼z
Ġs ep
ar lÄ±
ĠarasÄ±nda dÄ±r
Ġdiz ayn
ĠÃĩavuÅŁ oÄŁlu
Ġfaaliyet lerini
Ä±y er
ĠS tandart
ĠcoÄŁraf y
Ġsayf asÄ±
ĠyaptÄ± lar
Ġsorun larÄ±nÄ±
Ġeser ler
as al
ĠiÃ§er isindeki
y ani
der en
Ġtr av
ĠiÅŁ lerini
on lar
Ġsezon unda
ĠBey koz
dir me
Ġkazan ma
Ġf igÃ¼r
Ġser v
ĠsÃ¶yley erek
ĠD u
ĠW e
ĠUz ay
Ġsar ay
Ġbek ler
Ġsit eler
M Ã¼ÅŁ
ĠkÄ±ymet li
Ġkadro su
Ġbayan lar
ĠÃ§alÄ±ÅŁ maktadÄ±r
an sa
ĠOf is
ĠSig ort
art Ä±n
ĠA dÄ±m
Ġlez z
Ġp omp
Ãĩ anakkale
ĠSay Ä±sÄ±
a u
Ġkoy mak
ĠYÃ¼z yÄ±l
An ne
Ġfark Ä±na
Ġ eli
oz gat
Kat egori
Ġt uhaf
r Ã¼
malar da
Ġtamam layan
Ġkal a
af f
ĠÃ§Ä±kar an
Ġp Ä±r
ĠZ eki
GÃ¼n eÅŁ
p ik
Ġdestek leyen
ĠN as
ĠU sta
Ġtazmin at
Yap Ä±lan
Ġtamam Ä±nÄ±
Yak laÅŁÄ±k
Ġsezon un
ib a
ĠÃ§alÄ±ÅŁ tÄ±m
ĠYar Ä±m
Ġ1 10
Ġprogram da
Ġvade de
ĠÃ§Ä±k maya
Ġgetir ilmesi
tak Ä±m
Ġf Ã¼z
Ġek m
ĠmÃ¼ÅŁteriler imizin
Ġh ele
Ġpolitik asÄ±
ĠM enderes
ĠP R
ĠsaÃ§ ma
Ġeski den
ĠÃ§Ä±k mÄ±ÅŁtÄ±r
ĠKole ji
ĠS of
Ġref orm
Ġal acaÄŁÄ±
gel en
ĠÅŁek eri
o ol
Ġver mekteyiz
ĠAn abilim
Ġasans Ã¶r
Ġan imasyon
Ġbor c
K A
et tÃ¼r
Ġp res
Ġh oca
Ġger ilim
eri a
ran Ã§
abil itasyon
Ġvar say
Ġetm ey
Ġkap lama
Ġli f
Ġefsan e
ar istan
ĠyÃ¼z Ã¼nÃ¼
Ġyaz maya
ĠtÃ¼k en
ĠyaÅŁ Ä±ndan
ĠBur saspor
ĠSonuÃ§ larÄ±
Ġta ahhÃ¼t
Ġtek stil
ĠalÄ±n dÄ±ÄŁÄ±
Ġkend iniz
ĠYazÄ± cÄ±
Ġyet ki
AL ARI
Ġar adan
an z
ĠdÃ¼ÅŁÃ¼n dÃ¼m
L AK
Ġokum aya
Ġfer ah
Ġaray arak
c ilerin
T S
Ġizley ebilirsiniz
ĠAd Ä±yaman
ĠbÃ¶ brek
ĠbaÅŁlam adan
D Ã¼ÅŁ
ĠAd ayÄ±
Ġver iyorum
ĠS Ä°STEM
ĠyÃ¼z lÃ¼
ĠdÃ¼z eni
Ġbir ebir
Ġad Ä±nda
Ġhar am
Ġod alarÄ±
Y en
ĠkÃ¶y Ã¼
ĠEn gin
w s
ĠW ashington
Ġgel meye
ĠsÄ±nÄ±r Ä±
F atih
ĠDav id
ĠgÃ¶rev lisi
ĠdeÄŁerlendir meler
ĠMem ur
ĠSiyas et
ĠY Ã¼ce
ĠDeÄŁ il
f alt
k eme
Ġg ev
ĠÅŀey h
Ġtarih sel
Ġad li
ĠVak Ä±f
Ġv as
ĠvÃ¼cud un
p ol
Ġzaman Ä±n
iliÄŁ e
Ġyer lerden
Ä±y sanÄ±z
ĠO tur
Ã¼ler ek
Ġhareket leri
Ġvur du
Ġpart ner
ĠÅŁark Ä±cÄ±
Bel ediye
s ah
ĠkÃ¶k lÃ¼
Ġpu anÄ±
el a
Ġnokt alarÄ±
ĠdoÄŁal gaz
Ġger eÄŁ
h um
ĠKom itesi
Ġmen Ã¼
ĠÄ°s met
ĠH AL
ĠyapÄ±yor lar
ĠsÃ¼r er
ĠEv leri
ĠgÃ¼n lerinde
ĠÃ¶ner iler
I F
ĠgÃ¼n Ã¼ne
ĠG R
Ġdol andÄ±r
Ã¼p he
Ġk lav
dÄ±r an
ĠÃ§ iÃ§
Ġkaz Ä±
ic il
ĠÃ§ocuÄŁ a
ĠBiz ans
ĠaÃ§ Ä±ÄŁa
ĠFiyat Ä±
iliÄŁ inden
ĠAN KARA
Ġdiy alog
Ġef end
v il
Mer habalar
Ġkadar Ä±yla
le c
ĠS y
Ġk ast
ĠyaptÄ±r Ä±m
ĠgÃ¶rdÃ¼ÄŁ Ã¼m
ĠAt ak
ĠbaÄŁlam da
S ay
ĠkeÅŁ if
Ġet menin
M ed
ĠÃĸn der
Ġay a
ĠdÃ¼ÅŁÃ¼n mek
ĠmÃ¼r acaat
siy um
i da
ĠÃĸn er
ĠS ky
Ġpas ta
ĠkonuÅŁ mak
Ã»l ullah
ĠdÄ±ÅŁarÄ± dan
G RAM
ĠsÃ¶yledi ÄŁ
ĠMakin esi
r ap
Ġkur ma
Ġsah asÄ±nda
l iliÄŁini
ĠT en
ĠyaÅŁan dÄ±ÄŁÄ±
ĠiÃ§ me
ĠsÃ¶yley ebiliriz
ĠdeÄŁiÅŁ ken
Ġy Ã¼ce
Ġmu am
Ġmes ai
Ġj e
al isyon
ĠS te
ĠÃĸz kan
ey z
ĠkÃ¶tÃ¼l Ã¼k
ĠY ÃľK
os a
ĠdeÄŁer ini
Ġh elal
ĠÄ±ÅŁ Ä±n
Ġn eyi
unuz da
ĠF as
Ġar dÄ±
ĠÃĩank aya
ĠSt ore
200 6
miÅŁ tim
L EK
Ġz an
Ġbak arak
ĠgeÃ§ir ilen
aÃ§ Ä±k
m ran
Ġat Ä±ÅŁ
ĠAh med
Ġmuhab ir
ĠalÄ±n mÄ±ÅŁtÄ±r
â Ĩ
ĠDon ald
ĠbaÅŁ lÄ±
ac ag
ĠBakan lar
ĠSig orta
F ark
Ġk Ä±lan
Ã¼tÃ¼p hane
ĠVad isi
mÄ±ÅŁ tÄ±m
Ġort al
ĠparÃ§ alar
Ġg Ã¼mrÃ¼k
ĠOlim piyat
Ġbirik im
erk an
Koca eli
r uklu
Ù İ
Ġetk isiyle
ĠTer im
ĠSer best
Ġtah liye
Ġlist esinde
ah it
el iler
Ġsev iye
Ġc uma
Ġ199 8
ĠsÃ¶yl edik
Ġ1 30
le ÄŁi
ĠDig it
ED EN
ad er
ĠYat ak
larÄ± dÄ±r
aÅŁ ehir
or y
Ãľ S
ĠÄ° laÃ§
ĠDÃ¼nya da
Ġdil ediÄŁiniz
D iyarbakÄ±r
Ġhayvan lar
San at
ĠÃ§ek tiÄŁi
Ġat ar
t es
B una
ĠHep si
dÃ¼z Ã¼
li g
Ġakadem isyen
ĠBaÅŁ arÄ±
ĠR Ä±za
ĠD om
Ġtedav isinde
ing Ã¶l
Ġfilm inde
ĠS ad
Ġyeterli dir
ĠtÄ±k an
ĠGenÃ§ ler
k ah
ĠY eri
ĠÃ§alÄ±ÅŁ acak
d eler
ĠkÄ±l Ä±n
ĠgÃ¶nder di
w in
j a
Ġbek lemek
d on
ĠÃ§alÄ±ÅŁan lar
D in
Ġbelirt iliyor
Ġkayded ildi
Ġin anan
cel ona
E f
Ġtan rÄ±
BÄ°T AK
ĠÃ¼ret ici
Ġruh sal
Ġkork ut
ĠSP OR
imi Ã§i
Ġdok uz
ĠyÄ±l Ä±nÄ±
ĠkullanÄ±l acak
Ġk Ã¼t
ĠÄ°mparator luÄŁu
Ġal erj
ĠÅŀ irketi
may acaktÄ±r
Ġdef alarca
Ġbitk isel
ĠA ÄŁrÄ±
Ã¼y Ã¼ÅŁ
imiz deki
Ġsiz ce
Ġduy ul
Ġp antolon
ĠÅŀ ar
ĠSon y
Ġsor usu
Ġanlat maya
p ost
ar lÄ±k
Ġan lÄ±k
ĠÅŁimd ilik
Ġam bulans
ðŁ ĳ
B un
ĠG iyim
Son uÃ§
lar sa
dÃ¼ÄŁ Ã¼nde
Ã¶r ek
ĠÃ¶z lem
ĠL ok
M ark
da a
Ġtur istik
ĠÃ¼lk emize
ĠMag azin
Ġetm eyen
al Ä±n
ĠOrta okulu
ĠE lif
ĠkÄ±z lar
2 000
ĠO N
Ġkend inden
ĠM ekt
ĠiÅŁ ley
Ġmin imum
Ġotur up
Ġgem isi
Ġv aat
ĠgÃ¶ster erek
S Ã¼per
ĠÄ° H
Ġdav asÄ±
ĠmÃ¼dÃ¼r Ã¼
Ġkap Ä±sÄ±
ĠÃ§ek tir
Ġkal ori
ĠSem poz
b iye
ĠKon feransÄ±
Ã§ek mece
ĠÃ§alÄ±ÅŁ Ä±n
Ġ3 60
ilm eli
Ġk anÄ±
ĠyaÅŁ adÄ±ÄŁÄ±mÄ±z
Ġbas kÄ±n
ĠTeÅŁekkÃ¼r ler
ĠKur s
Ġbul am
GÃ¼n ey
ĠdeÄŁiÅŁ ti
Ġv an
ist iyan
Ġsun du
ĠÅŀ Ä°RK
k urt
D ik
Ġal dat
ĠÅŁ en
ĠÃ§Ã¶zÃ¼m leri
ĠT AN
amaz sÄ±nÄ±z
ĠAlan Ä±
K urum
Ġuygulan masÄ±
Ġkar e
ĠTur nuv
ĠeÄŁitim ini
Ġd ub
Ġevren sel
TeÅŁ ekkÃ¼r
ĠÂ ·
Ġs esini
ĠÅŁekil lendir
ĠM Ã¼s
Ġrol Ã¼
Ġgalib a
Ġ3 50
Ġmevzu at
GerÃ§ ek
ĠkadÄ±n larÄ±
ĠFestiv al
Ġfiyat lÄ±
Ġihtiyac Ä±nÄ±
ĠY Ã¼cel
Ġkon umu
ab ol
Ġmit ing
Ġnokt asÄ±na
Ġan t
ĠW ord
Ġanal izi
i dir
ĠDAÄ°R E
Ġyemek ler
ĠÄ°Ã§ er
ĠbaÅŁ Ä±nÄ±
ĠaÃ§ Ä±sÄ±
ĠbÃ¶lg esine
inc isi
ĠdÃ¼ÅŁÃ¼n erek
ĠÃ§oÄŁun luÄŁu
Ġtelefon la
ED Ä°
Ġyap Ä±ÅŁtÄ±r
8 9
Ġal Ä±yoruz
ĠÅŀim ÅŁek
Ġindir mek
Ġail eler
Ġet ek
c id
Ġeder se
ĠKab ul
Ġal ev
ĠyÃ¼r Ã¼
ĠsuÃ§ lu
LE Åŀ
Ġmor al
Ġders ler
ĠKom isyon
Ġziyaret Ã§
l esin
ev et
Ġgrup lar
en lerin
Ġart arak
c ay
** *
Ä°L ERÄ°
ĠgÃ¶rev leri
ĠdÃ¶n Ã¼yor
ĠR ak
ĠSal dÄ±r
Ã¢ yet
Y et
ĠKarab Ã¼k
ĠkÄ±s kan
por t
ĠG ibi
acaÄŁ Ä±nÄ±zÄ±
Ġtop tan
Ġkav uÅŁtur
qu e
Ä±nÄ±z la
ĠsÃ¼rec inin
ĠÄ°Ã§ inde
ĠÃ¼lk esi
res el
ĠS emin
k est
ĠDemokr asi
ĠdÄ±ÅŁarÄ± da
iz y
ĠdeÄŁiÅŁ iyor
ĠYah ud
ĠaÃ§ Ä±p
Ġkalk Ä±ÅŁ
Ä±r sa
Ġsay Ä±sÄ±z
Ġpro grama
Ġolm amÄ±ÅŁ
Ä°L Ä°K
Ġoluyor uz
ĠgÃ¶r Ã¼p
ĠK aÅŁ
ĠTÃ¼rk Ã§
Ġbuyur du
len mektedir
Ġt Ã¼n
Ġiyi dir
de st
ĠgÃ¶r Ã¼lebilir
ĠÃĸz can
Ġuygulam ak
j antin
Ġbelir siz
AT I
ĠF abrik
Ġilk okul
ab ir
Ġproj ede
ĠbaÅŁken t
Ġpro pagan
Ġsev erek
ĠÃ¼m it
ĠyÄ±llar ca
ĠE z
ob an
B undan
Ġd ram
r ama
ĠÃ§or ba
c alÄ±k
ledik lerini
lam Ä±ÅŁtÄ±r
s iyle
ap ur
Ã§ elik
ĠKÃ¶pr Ã¼sÃ¼
Ġkur uÅŁ
S ey
Ġoyn uyor
Ġb ini
Ġ6 7
Ġtit r
ladÄ±k tan
An droid
ĠAlbay rak
u dum
ĠdÃ¼ÅŁ mÃ¼ÅŁ
ĠP l
Ġan i
ub at
ĠyaÅŁ adÄ±klarÄ±
ĠKK TC
ĠEtkin lik
kin lik
ĠP ay
ĠDanÄ±ÅŁ manlÄ±k
ĠfÄ±r Ä±n
ĠHay al
ĠbaÅŁar Ä±ya
ĠDev rim
Ġid rar
Ġkut lu
Ġkazan mÄ±ÅŁ
K om
Ġf a
ĠaraÃ§ larÄ±n
ĠAr k
ĠdeÄŁer ler
y alar
ĠBah is
S EK
B U
Ġister iz
ĠPRO GRAM
ĠÄ°l han
Ġh Ä±rsÄ±z
ĠilaÃ§ lar
ĠkÄ±z ar
Ġsunul maktadÄ±r
Ġab art
N o
ĠB uz
id d
Ġn ar
ĠMark et
Ġkab lo
Ġb itim
T ag
Ġprens ip
ĠHizmet ler
ĠBaÅŁv ur
Ġel imizden
G azet
et le
Ġver ebilirsiniz
ĠÃ¶rnek leri
ĠH ER
Ġolay larÄ±n
Ġver diler
ĠÃ§Ä±k maktadÄ±r
V an
ĠYeni den
ĠDern ek
Ġd eyince
Ġgrup larÄ±
B er
ĠÄ°b n
ĠÃ§ Ã¼r
Ġkent sel
ĠÅŁehir ler
Ġtah sis
T AR
Ġf acebook
ĠNur i
Ġver miyor
Ġ7 9
Ġdiy elim
c er
ĠErz incan
Ġz ann
S p
Ġf ena
Ġzor dur
ĠPr emi
S U
ĠkiÅŁ ileri
ĠMÃľ DÃľR
ĠJ ames
mem ektedir
Ġek s
ĠT IK
ĠM erk
ĠD Ã¼ÄŁÃ¼n
ĠbeÄŁ endim
ĠnÃ¼f usu
ĠgÃ¶nder diÄŁi
ĠÄ°lan larÄ±
is y
Ġbilm em
ĠK Ã¼l
Ġun van
Y ayÄ±n
ðŁ Ĵ
Ġprogram lar
Ġal kÄ±ÅŁ
ĠÃ§Ä±k arÄ±
Ġtrans feri
ĠAv rup
l ilere
Ġduy uru
ĠÃ§alÄ±ÅŁ manÄ±n
ÃľZ EL
ĠGel iÅŁim
ĠKas tam
ĠMil liyet
Ġbu Ã§uk
ĠÃ¶l Ã¼mÃ¼
ĠbaÅŁar Ä±sÄ±
ĠD UR
Ġh elikopter
biy otik
Ġmenf aat
d elik
Ġhakk Ä±na
Ġbenz ersiz
ĠÃ§ev iri
ĠAs keri
ĠÃ§ey r
Ġel ma
Uy gul
ĠTak sim
tal ama
Ġalt Ä±ndan
ĠRe al
Ġkavram Ä±
g atif
M et
ĠÃ§ orb
ĠKul Ã¼p
ĠboÅŁ alt
ĠmÃ¼ d
Ã§ Ä±sÄ±
ĠD emek
ilm esinin
ĠyÄ±k an
Ġs tÃ¼
ĠZ iya
Ġkaz asÄ±
ĠsÃ¼rdÃ¼r dÃ¼
ĠseÃ§im lerde
ĠÃ¶ÄŁr endim
ĠÃĩak Ä±r
Ġbirisi dir
Ġtem p
ÃĸÄŁr enc
or ge
Ġel lerine
em eye
P eygamber
ak e
ayol larÄ±
ĠgeÃ§ ebilirsiniz
Ġgir mesi
Ġmuh akkak
ĠKullan Ä±m
ĠYÄ±l lÄ±k
ĠpiÅŁ man
Ġse ans
Ġ199 7
Ġmerak lÄ±
Ġdiy ecek
Ġkarar lÄ±
ĠGÃ¼n leri
Ġkurtar ma
ĠkarÅŁÄ±l ay
Ġsev inÃ§
ĠPlan Ä±
Ġort aÄŁÄ±
iÄŁ de
ĠG o
Ġal dÄ±ktan
eniz de
lediÄŁ iniz
Ġfayd asÄ±
ĠTiyatro su
Ġy Ä±p
i on
Ġgelecek tir
Ġol gu
ĠT eh
ĠGÃ¶ Ã§
Ġkal dÄ±k
Ġbenz iyor
dÃ¼k ten
ĠI SO
ĠsavaÅŁ Ä±n
Ġden eyin
K Ã¼ltÃ¼r
Ġtoplum u
ul e
ĠK aÄŁÄ±t
t isi
B ebek
ĠÄ°dar i
ĠkÃ¶ken li
Ġyat an
lamak tadÄ±r
ĠB a
ĠS endik
Ġtasar lanan
c aÄŁÄ±
Ġbilin iyor
ĠmaÄŁ aza
G Ã¶
ĠgÃ¶z le
ĠiÅŁlem lerini
k end
Ġsoru larÄ±nÄ±
ĠP lastik
ĠÅŀ erif
on da
ĠB Ä±rak
ĠÅŁampiyon luk
ĠgeliÅŁtir ilmesi
ĠA g
ĠAy akkabÄ±
ĠTemiz lik
ic o
Ġbran ÅŁ
Ġdeng eli
Ã¼nÃ¼z e
ĠtanÄ±m ak
Ã¼ fer
ĠNih at
Ġolan lara
Ġvideo larÄ±
ab ildiÄŁi
ĠUn ivers
AD I
laÅŁ mÄ±ÅŁ
Ġbu ÄŁday
ĠÃĩ oÄŁu
ĠKen an
ĠÃ¶mr Ã¼
ĠvatandaÅŁ Ä±
ĠMar s
ĠbaÅŁ lÄ±ca
b n
Ġhik met
d inde
ĠPol onya
mel iyiz
ĠgerÃ§ek Ã§i
mas ya
Ġmad denin
ĠKÃ¼rd istan
Ġbelir lemek
es k
Ġg e
Ġp lay
Ġtes adÃ¼f
ĠtÃ¼ket ici
ĠsÃ¼t Ã¼
ĠgiriÅŁ i
ladÄ±ÄŁ Ä±nÄ±z
Ã¶l ye
Ġpart inin
ĠÃľlk e
ĠyÃ¼r ek
Ġi ta
Siz in
ĠseÃ§ kin
ĠsÃ¶z lÃ¼
ĠiÃ§in dir
ĠÃ§ irkin
Ġtoplum da
Ġkonum da
Ġsend rom
ĠBÃ¶yl elikle
Ġinternet ten
ĠbÃ¼r okr
ĠistediÄŁ imiz
ez a
Ġer t
ĠbÄ±rak an
ĠtÃ¼rk iye
Ġy irmi
Ġ8 8
Ġtop lama
ĠiÅŁ Ã§iler
r ef
ĠEd iyor
ar Ä±ya
Ġd eli
Ġad il
Ġkom ÅŁ
ĠÃ§ek me
l eden
ip er
lan dÄ±ÄŁÄ±nÄ±
Ä±mÄ±z la
ĠbeÄŁ eni
Ġlaborat uvar
ĠSÄ±n Ä±r
ĠdeÄŁiÅŁ ir
Ġver mey
ĠBir kaÃ§
ĠUl us
ĠP S
ĠK ing
Ġn Ä±n
ĠdÄ±ÅŁ Ä±ndan
D il
abilm eniz
Ä±k lar
ĠSer isi
IM I
Ġkop ar
I A
ĠPRO J
at ma
Ġbulun mayan
Ġas k
et tin
OC UK
ĠyÃ¶nel t
iy o
ĠgÃ¼zel di
ĠÅŀ Ã¼ph
Ġ6 2
ĠÄ°ht iy
Ġer tel
ey la
ĠG Ã¼mrÃ¼k
k Ã¶
Ġsor uyu
ĠÃ¶ te
len in
Ġuygulam ayÄ±
Ġekonom isi
Ġit faiye
ĠgeÃ§tik Ã§e
Ġderec eye
ĠSonr asÄ±nda
ad ar
Ġbek ley
ĠÅŀ ark
R AN
ĠBakan lÄ±k
ĠHas ta
ver engi
Ġbul up
Ä°Åŀ Ä°M
Ġmakam Ä±nda
ĠP Ä±nar
ĠTek rar
Ġkred isi
Ġredde d
Ġdestek li
l ayÄ±
Ġmotiv asyon
Ġn iÅŁan
K Ä±
st en
Ġolur uz
ĠB oÄŁ
ĠC ap
Ġiz n
ĠBEL ED
Ġol abilmek
Ġhastal Ä±ÄŁÄ±n
Ġm isyon
tay Ä±m
Ġotom otiv
Y unan
ĠM AD
Ġf Ä±ndÄ±k
ĠI l
Ġs eti
ĠC oÅŁk
ĠJ ack
may alÄ±m
Ġproblem leri
ĠÅŁeh re
Ġlen s
Ġtakv im
Ġg oogle
ĠVal iliÄŁi
F il
ĠaÃ§ Ä±yor
ĠÃ§ocuk larÄ±nÄ±n
ĠOl mak
S Ä°Z
Ġkalit ede
Ġrisk ini
Ġsay Ä±n
Ġbelir lem
Ġo pt
Ġed iniz
k itap
ĠyÃ¼zyÄ±l Ä±n
Ġgiy in
eÄŁ im
Ä±r Ä±z
Ġyap Ä±ÅŁ
Ġkit le
Ġot o
ĠE lem
ĠÃ§ anta
Ġtemiz leme
ĠeÄŁ il
Ġdol ap
V atan
Ġgen e
ĠDekor asyon
Ġat mÄ±ÅŁ
Ġdurum dur
Ġis eniz
ĠYÃ¶n tem
dÄ±ÄŁ Ä±ndan
ĠAv ukat
ĠGal eri
ĠA F
Bilg isayar
Ġcen aze
. -
Ġdes en
Ġay Ä±na
hend isi
ĠseÃ§im lerinde
T an
AÅŁ k
Ã¼s Ã¼ne
Ġsay Ä±sÄ±nda
ĠÅŀ iÅŁli
ĠsonuÃ§ larÄ±nÄ±
ĠÃ§alÄ±ÅŁ mayÄ±
Ġ6 1
ĠK od
ĠP e
Ġbit kiler
M obil
Ġmut lak
ĠseÃ§im ler
for d
ĠÄ±ÅŁ Ä±ÄŁÄ±
Ġtat ili
ĠaydÄ±nlat ma
ĠÅŁey lerin
ĠÃ¶ÄŁ Ã¼n
I DA
ĠB ilm
ĠM ete
Ġn imet
ĠniteliÄŁ inde
ĠsÄ±k Ä±ÅŁ
len miÅŁtir
ĠT ap
we i
ĠMic hael
ĠgÃ¶zÃ¼k Ã¼yor
ĠM ekke
Ġter ap
ĠMet ro
K uzey
Ġbuton una
ĠedeceÄŁ im
Ġam atÃ¶r
Ġcaz ip
Ġer tesi
Ġdest eÄŁiyle
ĠKarÅŁ Ä±yaka
ĠÃ§alÄ±ÅŁan larÄ±n
Ġuzak lÄ±k
im al
ĠFran k
Ġtopr aÄŁa
ĠAm atÃ¶r
Ġvak Ä±f
Ġaktar an
ĠYou Tube
Ġyol larÄ±nÄ±
Ġk Ã¢r
ĠG EÃĩ
Ġl azer
Ġpar asÄ±
ĠbaÄŁ Ä±ÅŁÄ±klÄ±k
Ġmuht aÃ§
Ġp ul
ĠÃ§ok tan
Ġp ist
ĠBaÅŁ ladÄ±
ĠÃ¶ dÃ¼n
ĠZ ek
ĠAd resi
g Ã¼zel
ĠV eri
Ġsahn eye
ĠB EN
K amp
ĠTek in
Ġg lobal
ĠÄ°slam i
mal Ä±yÄ±m
Ġver gisi
ĠkarÅŁ Ä±nÄ±za
aÅŁtÄ±r ma
ĠÄ°n Ã¶nÃ¼
Ġdil iyoruz
lay abilir
ĠkarÄ±ÅŁtÄ±r Ä±n
ĠÅŁaÅŁÄ±r t
Ġmas aya
ĠÅŁar tÄ±
Ġbirey lerin
Ġbuz dol
Ġistiyor sunuz
Ġf os
ĠgÃ¶rÃ¼nt Ã¼sÃ¼
Ġistis mar
Ġden ildi
ĠG ebze
Ġan ayas
ĠBey oÄŁlu
ĠtÄ±r nak
Ġkop yal
ĠÄ°ÅŁ birliÄŁi
ĠKal Ä±n
ĠÅŁef faf
Ġt Ã¼f
Ġtarih in
Ġbulun makta
Ġac Ä±m
S aÃ§
c on
Ġbah sede
Ġay aÄŁa
ĠS tan
Ġbor cu
Ġotel de
Ä±l acaktÄ±r
ĠtÃ¶ren le
D AK
ĠA st
ĠS ec
Ġsokak ta
ĠgÃ¶rdÃ¼ÄŁ Ã¼mÃ¼z
ĠsÄ±r alam
Ä±l ama
Ġc ad
ĠC N
: :
Ġgetir miÅŁ
ĠDeÄŁer lendirme
Ġkur ut
anÄ±z da
ĠS izi
ĠÃ¼rÃ¼n lerinin
ĠMalzem eleri
ĠÃ¶f k
B r
Ġar tÄ±
Ġ199 5
lerin ce
illi am
Ġs ark
ĠKiÅŁ ilik
y azÄ±
Ġteknik leri
ĠMer t
r uz
ĠEr en
Ġedilm esini
uc h
Ġavantaj lÄ±
amay acaÄŁÄ±
Ġcev iz
ĠBul v
Ġruh u
iy eler
Ġat Ä±yor
ilik on
AN KARA
Ġsor ar
Ġkab a
Ġr ah
rist iyan
Ġf eth
Ġtarih ini
Ġm iyiz
ĠYaz dÄ±r
ĠK Ä±l
Ġyeten ekli
ĠmaÃ§ a
ĠSer t
Es kiÅŁehir
ĠM P
ĠHayvan cÄ±lÄ±k
Ġsit esinin
id in
Ġkurtul uÅŁ
ĠK Ã¶k
Ġtak ib
Ġed itÃ¶r
Ġsevin dir
ĠH y
Ġplak alÄ±
Ġkurum larÄ±
Ġgez in
ĠÃ§ adÄ±r
Ġal gÄ±
ĠT ES
iniz deki
at Ã¼r
ĠsÃ¶z Ã¼nÃ¼
ley se
ĠyapÄ±lan dÄ±r
Ġsistem inde
Ġn eye
ĠÃ§ek er
Ġsor uya
ĠAfgan istan
Ġzaman ki
ĠdÃ¼ny aca
Ġordu su
Ġcumhur iyet
ĠMey dan
Ġede ceÄŁi
ĠolduÄŁumuz u
Ġlir alÄ±k
ĠH ele
B eni
ĠMÃ¼slÃ¼m anlar
ĠgÃ¶z leri
Ġkal bi
ĠyaptÄ±r mak
ĠSer tif
de ÄŁer
ĠbaÄŁÄ±m lÄ±
ĠkÄ±r sal
laÅŁ an
Ġkat Ä±larak
Ġzar if
Y AL
Ġs Ã¼p
ed isi
Ġzaman dan
ĠkonuÅŁ uyor
ĠhastalÄ±k lar
Ġam el
D AR
M M
200 5
ĠÅŁart larda
m o
sel am
Ġd Ã¼
Ġan dan
ren ses
Ġne gatif
Ġkan alÄ±
Ġbulun mamaktadÄ±r
Ġar m
lay Ä±nÄ±z
Ġkend im
Ġm Ã¼c
Ġz ev
Ġc ar
ĠKal iteli
ĠC lub
ĠmÃ¼z e
ĠÃ¼ret mek
Ġay larda
UN U
Ġi v
Ġ7 7
Ã§ Ä±k
tern ational
ĠC al
Ġolmay acaktÄ±r
ak t
A ile
Ġziyaret Ã§i
Ġvak t
ĠgÃ¶k yÃ¼z
ĠbiÃ§ imi
Ġis abet
TÃľRK Ä°YE
ĠR ektÃ¶rÃ¼
SÄ° AD
Ġdiz inin
maz on
Ġtac iz
Ġad min
al eti
Ġson landÄ±r
Ġb a
ĠEdebiyat Ä±
Ġs Ã¼z
T K
Ġv at
Ġses leri
T amam
T AÅŀ
ĠTÃ¼k et
Ġan Ä±lan
ĠmeÅŁ ru
ĠKat ar
ĠkÄ±sm Ä±na
Ġyaz dÄ±r
Ġhizmet ini
ĠbaÅŁlad Ä±ÄŁÄ±nÄ±
Ġi bar
Ġvide osu
ĠeÄŁ ilim
ĠF ah
ĠÃ§alÄ±ÅŁ arak
ĠYal ova
el la
ĠYar gÄ±
ĠEs naf
Ġmes ele
Ġzeytiny aÄŁÄ±
iz me
ĠgeliÅŁ mesi
ĠÅŁ eri
ac an
C AN
ĠÃ¶ÄŁret meni
ĠAÃĩ IK
ti j
Ġsen t
ĠÄ±ÅŁ Ä±l
ĠgeÃ§ ip
acÄ± lar
ĠyapÄ±l acaÄŁÄ±
ĠbaÅŁladÄ± lar
Ġad Ä±mÄ±
ĠmÃ¼ barek
Ġbam baÅŁka
Ġk Ã¼p
Ġdiren iÅŁ
ĠkÄ±z Ä±m
ĠsÃ¼r Ã¼mÃ¼
ĠÄ°z mit
D oÃ§
Ġsev erim
acak larÄ±nÄ±
ĠH AZ
M AY
ĠSur esi
f te
Ġkur t
Ġp amuk
ĠgÃ¼n Ã¼nÃ¼
Ġima j
Ġkon usunu
Ġkims eyi
Ġproj eye
iy enin
Ã¼r ler
Ġder hal
ĠBos na
Ġyap maz
Ġem lak
ĠayÄ±r t
ĠÃ§Ä±kar Ä±lan
ĠL ink
Ġn olu
Ġok urken
H UR
S Ä±n
ĠH it
ayÄ±n ca
Ġedeb ilmek
Ġbul ma
ĠAr navut
h en
ĠTek stil
ĠtÃ¼r leri
allah u
ĠhÃ¼kÃ¼m etin
ĠAbd ul
ĠÃ§aÄŁr Ä±sÄ±
ĠmaÃ§ Ä±nÄ±
ir leri
ĠÃ§Ä±k abilir
Ġmem uru
ĠKastam onu
ob el
Ġhast alarÄ±n
f Ã¶y
ĠmÃ¼hendis lik
d yo
s ki
n o
ĠnÃ¶ bet
S akarya
ĠBas kÄ±
ĠdiÄŁer leri
Ġalan Ä±ndaki
we et
ĠÃĩev r
l il
Ã§ ay
ĠSAÄŀ LIK
ĠS AH
Ġkonu daki
Ġok ut
ĠayrÄ± calÄ±k
ĠF ord
Ġvide olar
Ġces ur
ĠB ed
Ġbul muÅŁ
Ã® n
azz am
Ġmak ul
ĠbakÄ±m dan
Ġbelirt ileri
m aca
ĠHotel s
Ġhak ikat
Ġduyg usu
ĠIs parta
Ä±k lÄ±k
lÃ¼k te
ĠT uÄŁ
ĠsÃ¶z cÃ¼
Ġistem iÅŁ
ĠÃ¢ yet
Ġsay gÄ±n
ĠaÅŁk Ä±
ĠC elal
Ġlim it
ya da
dik i
c rip
t eb
ĠC UM
ĠÄ° S
Ġhar ik
g ara
Ġon ar
H ava
Ġuzak lÄ±kta
ĠdÃ¶nem e
ben im
ĠkullanÄ±m Ä±na
ĠSÃ¶z cÃ¼sÃ¼
ĠDEV AM
ĠG Ä°R
ĠA la
uy ucu
Ġgel medi
Ġab one
ĠsÄ±r alarÄ±nda
Ġdep o
ĠAy han
Bil gi
ĠÃ¶zen le
ĠM AN
Ġk las
ĠtaÅŁÄ±mak tadÄ±r
Ġdest eÄŁini
ĠÅŁ ap
ĠaÅŁ an
ĠsÄ±nav a
ub uk
ĠKend isi
ĠH int
ol an
Ġ8 2
Ġr en
ec eg
ĠyÃ¶ntem ler
ĠsaÄŁlay arak
ĠÅŁans lÄ±
Ġoperasyon da
ĠRap or
Ġgereksin im
lendir ici
c istan
ĠyapÄ±l masÄ±nÄ±
ĠYardÄ±m cÄ±
Ġ10 80
Ġet nik
ĠAk hisar
ĠII I
ĠN am
ĠaÃ§Ä±l acak
Ġinceley ebilirsiniz
ĠR AM
ĠHizmet i
ĠBil dir
op ar
Ġetmek ten
ĠgeÃ§miÅŁ i
n y
ĠOs car
ledik leri
Ġiz i
Ġsan dÄ±k
ĠyatÄ±rÄ±m lar
ĠB B
E DE
ĠiÅŁ siz
ĠI r
ĠÅŁ ofÃ¶r
Ġp iyan
Ġolan aÄŁÄ±
Ġgerektir ir
ÄŁ inde
ĠSer ver
ĠTemsil cisi
ĠÃ§alÄ±ÅŁmalar Ä±nda
c ileri
ĠGÃľ VEN
Ġbir ileri
ĠÄ°lk okulu
ĠÃ§Ä±k tÄ±ÄŁÄ±nÄ±
Ġal dÄ±r
ĠÄ° lah
ĠGÃ¶n der
Ġkan dÄ±r
ua wei
Ġf u
ĠY erli
ĠC el
l ot
Ġim parator
edik al
Ã¼r i
Ġk linik
ĠyÄ±ldÄ±z lÄ±
Ot om
Ġkurtar mak
ĠRenk li
Ġham l
Ġkonum una
Ġek im
ĠKUL LAN
ĠÃľlk emizde
ĠaÄŁ acÄ±
is s
Y at
Ġkims eler
ĠBl ok
S es
Ġkom utan
ĠY OK
ĠN eyse
A J
Ġirti b
D en
Ġoyn adÄ±
t Ä±na
Ä±ÅŁÄ±k lÄ±
ĠÃ§Ä±kar dÄ±ÄŁÄ±
Ġ199 6
ĠMar ÅŁÄ±
Ġbul gu
Ġuygulam asÄ±nÄ±
ĠEr kan
ĠY emen
b le
ĠÃ¶ÄŁrenc ilerine
ĠÄ°NÅŀ AAT
Ġmalzem esi
cu lar
ĠsektÃ¶r Ã¼ne
ĠMar maris
ĠTip i
Han gi
Ġdey iÅŁ
ĠIn ternet
ĠY oÄŁun
ĠkatÄ±l Ä±mÄ±
rek ans
V ideo
Ġz ahmet
luÄŁ una
Ġanlat Ä±r
Ġbelirt iyor
Ġbenz et
ĠEn g
ĠÃĩ IK
ĠBes lenme
ĠbaÅŁlamÄ±ÅŁ tÄ±
ĠyazÄ± larÄ±
Ġas tr
Ġ7 6
Ġ7 3
ĠT as
Ġmemnuniyet ini
ĠK Ã¼tÃ¼phan
ĠÃ¼lk elere
ĠAl tÄ±
ĠsÃ¶yl Ã¼yorum
Ġik il
ĠÃ¼n it
akk ab
ĠkapÄ± larÄ±nÄ±
Ġkoy an
ĠAkadem ik
Ġkat Ä±nda
ĠaÃ§Ä±k lanan
Ġmin net
B or
ĠKur al
Ġdikkat ini
8 6
tan e
ĠM S
Ġbirbir ini
ĠD eri
ĠÃĩel ebi
Ġgit ar
Ãľ cret
k anÄ±
S Ä±r
ĠÅŁ Ã¼phe
Ã¼c Ã¼k
ĠS MS
ĠgÃ¶rÃ¼l dÃ¼ÄŁÃ¼
ĠY el
Ġde h
Ġm am
ĠiÅŁaret i
lik dÃ¼zÃ¼
ĠK OBÄ°
K ab
ĠK Ã¼tahya
Ġkatk Ä±sÄ±
ĠkÃ¶y lÃ¼
ĠAy Ä±
Ġgiy en
ard o
ĠÃ¼st elik
ĠhatÄ±r lam
as p
Ġgel diniz
Ġkir a
ĠÃ§el iÅŁ
ĠGaz ze
ĠF aaliyet
Ġyok sun
ĠÃ¼m met
ĠAr aba
Ġmesaj lar
ĠseÃ§ men
DÃ¼n y
D av
ĠbaÅŁlat tÄ±ÄŁÄ±
ĠAy ak
ĠTeÅŁkil atÄ±
ĠL ez
ĠO S
Ġek lemek
ĠdeÄŁiÅŁtir me
Ġgid in
Ġkon tr
ik li
Ġteknoloj inin
cÄ± larÄ±n
iv es
Ġhay ali
Ġk ef
Y orum
' ,
ĠR a
ĠU m
ĠPak istan
Ġil ki
ĠsÄ±r f
Ġkr ipto
ĠÃĸl Ã§
Dem ir
Ġbak tÄ±m
Ġb ant
Ġb asÄ±l
ĠÃ¼retic isi
ir ve
RET Ä°M
ĠkÃ¶ mÃ¼r
Ġsahib inin
Ġsen edir
Ġson bahar
Ġmark anÄ±n
Ġkullan mayÄ±
Ġharit a
Ġsunul acak
ĠAkÅŁ ener
Ġokun du
mak am
ĠÃ¶nem ine
ĠteÅŁ his
ĠdeÄŁerlendir mek
ĠyukarÄ± daki
Ġbak Ä±yor
Ġil i
Ġ <
g usu
Ã¢ s
Ä±l malÄ±dÄ±r
Ġolmay abilir
Ġzar f
D oÄŁu
ĠSÃ¶z leri
eg as
ĠSÃ¶z leÅŁmesi
ĠdÃ¼zey inde
Ġkolay lÄ±k
Ġkalk Ä±n
8 1
Ġkim liÄŁi
Ġincel emek
t iz
ik ler
at h
Ġm um
Ġdin lemek
ĠEk rem
Ġzor la
k uÅŁ
m ine
T icaret
ĠanlaÅŁ Ä±lÄ±r
ĠEr ken
EK TR
ĠB EY
Ġkr onik
eÄŁ er
larÄ±m Ä±n
Ġm Ä±sÄ±r
ĠyÄ±l baÅŁÄ±
ĠtaÅŁÄ±m acÄ±lÄ±k
Ġh ost
S iyah
ĠF it
Ġ199 4
ĠMal tepe
Ġetkinlik te
op e
ĠsÃ¼rec in
ĠCen ter
ĠSoy lu
ĠgÃ¶rÃ¼n Ã¼ÅŁ
Ġs ef
r ul
S AL
Ġg Ã¼le
Ġsaat lerde
amay acaÄŁÄ±nÄ±
ĠHay atÄ±
ĠForum u
ĠÃĸ ÄŁ
Ġhaber e
ĠMak ine
Ġsayf alar
lÃ¢ h
ĠÄ°st atistik
ĠyarÄ±ÅŁ ma
ĠF I
Ġre ak
ĠmÃ¼d det
Ġes in
Ġyaz Ä±p
ĠsÃ¼rec ine
day dÄ±
Ġbir takÄ±m
Ġgerek tiÄŁine
M as
Ġinsan lardan
Ġdur ur
Ġk eÃ§
ey a
ĠÅŁ ur
ĠB Ä°N
A lan
Ġita at
ĠÃ§ im
Ġk ade
Ġokul un
ĠsÃ¶z de
P R
ĠBil gisi
us undan
Ġsev dim
ĠB AS
im er
ĠÅŁark Ä±sÄ±
r asÄ±
Cev ap
ĠZ ey
ĠhoÅŁ uma
Ġbir de
ĠS ÃľR
Ġhav uzu
Ġpro mosyon
ĠÃ§Ä±k maz
Ġp eki
luÄŁ unun
M ac
Ġteslim at
C en
al p
Ġincel edi
ĠCen net
-- --
ĠbaÄŁ Ä±rsak
ĠpaylaÅŁ tÄ±ÄŁÄ±
ĠÄ°h san
Ġters ine
Ġameliyat Ä±
ĠaraÅŁtÄ±r maya
av ar
Ġuzman lar
Ã¼l ten
ĠdÃ¶k Ã¼l
Ġpat lama
Ġsor mak
ĠendÃ¼str iyel
Ġan ayasa
ĠhatÄ±rlat an
iy ana
Ġtan k
ĠkarÄ±ÅŁ Ä±m
Ġark adas
ĠsÄ±k Ä±cÄ±
Ġplan lama
ĠmÃ¼ f
Ġs osy
b eti
n esi
iP hone
d ini
Ġengel lemek
Ġhast asÄ±
Ġotel ler
ĠS oÄŁuk
ĠÃ¢ lem
Ġdam g
Ġod alar
Ġmak ar
ag ue
ĠS eti
ĠHukuk u
Ġsol unum
ĠeÄŁit men
ĠZ Ä°Y
Ġbenz in
D Ã¶n
Ġyar Ä±sÄ±nda
viv or
eg a
ĠAn lam
ĠbÃ¶ cek
â Ĺ
Ġkor ur
Ġgarant isi
S a
eliÄŁ ine
ĠTok at
Ġfatur a
Ġgel mesini
Ġd ib
Ġgereken ler
ĠYÃ¶net melik
ĠAL LAH
Ġkoz metik
Ġoyuncu larÄ±n
Ġgal ip
ĠÃ¼z Ã¼m
Ġhalk Ä±na
Ġver ecektir
Ġtut uyor
Ġyararlan mak
Ġal em
ĠaÃ§ lÄ±k
Ġbin anÄ±n
ĠeÄŁitim in
ĠyaÅŁ Ä±
T O
ĠÅŁ irin
il emez
Ġn ur
Ġekib imiz
ĠTop lu
ĠBur adan
ĠP etrol
Ġkoy up
il ebilecek
k am
ĠT o
ĠH or
ĠGÃ¼zel lik
ĠH AR
Ġb iÅŁ
r ut
ĠÃ§ocuk luk
Ġtes isi
Ġkom b
Ġder di
Ġstratej i
Ġruh sat
Ġsar s
ĠÃ§oÄŁ al
Ġlig de
ĠÄ°ndir im
ÅŁ ar
ĠEy Ã¼p
g Ã¶l
Ġsev iÅŁ
ĠÃ§Ã¶z Ã¼l
Ġerk eÄŁin
Ġsoru lara
eceÄŁ in
Åŀ ehir
ĠY outube
H akk
ĠG i
ĠA ta
ED Ä°R
ĠGÃ¶rÃ¼n tÃ¼
Ġk asa
Ġolur um
Ġticaret i
ro ÅŁ
K Ã¼r
Ġtez gah
ĠKim ya
Ne w
c alan
ĠgÃ¼zer gah
Ġs ih
Ġoksi jen
ekk ur
Ġ aÄŁÄ±
ĠÃ¼lk elerinde
Ġhedef leyen
Ġres sam
Ġokul lar
ĠyaÅŁÄ±nday Ä±m
ĠM eksika
Ġbilm ez
Ġheyec anlÄ±
Ä°n ÅŁ
Kay seri
Ġyar Ä±ÅŁÄ±
ĠMÃ¼dÃ¼r Ã¼mÃ¼z
Ġiy isini
ĠP laj
Ġal Ä±yorum
u larak
Ġkar an
Ġtur larÄ±
ĠAr asÄ±
ĠgÃ¶ster miÅŁ
ĠDayan Ä±ÅŁma
ĠboÅŁ al
ĠÃ§Ä±k Ä±ÅŁÄ±
Ġt witter
Ġyapmak ta
ab ah
ĠD V
ĠÃ¶ner ileri
Ġyapan lar
ĠS eri
ĠD ede
ĠiliÅŁk ili
Ġkay g
ĠÃ¼lk elerden
ĠAv cÄ±
Ġf es
eliÄŁ in
tay dÄ±
Ġyuvar lak
Ġh Ã¼r
ĠT SK
ĠbÃ¶lg elerinde
diÄŁ ine
ĠL og
ĠiÅŁ g
ĠÃĩaÄŁ rÄ±
ĠSev gi
ĠTr av
Ġrak ibi
ĠdÃ¼zen leyen
s ada
Ä° Ãĩ
Ġas falt
ĠÄ°nsan larÄ±n
ĠF Ä±rs
ĠbÃ¶lÃ¼m Ã¼ne
Ġar ayÄ±n
ĠBir likte
ĠmÃ¼cadel ede
ĠÂ ©
Ġyah ut
T EK
Ġdoy ur
n ot
Ben ce
Ġsenin le
ĠL id
LÃľ Äŀ
Ġk lip
Ġdiy abet
Ġderin lik
ma in
P azar
Ġsorun lara
ĠgÃ¼zel liÄŁi
ĠÄ° K
R amazan
J ap
S Ä±nÄ±f
Ġheyec anÄ±
Pro je
Ġb ine
Ġyap acaÄŁÄ±m
ArkadaÅŁ lar
Ġkut l
ledik ten
Ġt ir
ĠdÃ¶ ÅŁ
ĠL ib
g Ã¢h
ĠT ag
Ġev rim
ĠbaÅŁlam asÄ±
ĠðŁ ĳ
larÄ±m la
er on
mam alÄ±
Ġal lah
Ġsahip lerine
Ġsar Ä±m
ĠÄ°ÅŁ ler
ĠDeniz i
l s
ir men
l imi
ĠAk ademi
ĠT uru
ĠS tu
S aat
Ġay ni
ĠyÃ¶n Ã¼nden
og ram
ĠDAH A
ĠKaynak larÄ±
Ġyakal ay
Ġid am
ĠkonuÅŁ macÄ±
ĠkaldÄ±r mak
ĠTek lif
ĠC errahi
ĠkonuÅŁ masÄ±nÄ±
Ġdestek ler
Ġoku du
Ġh d
ĠG lobal
at o
Ġsay Ä±lan
ĠhoÅŁ lan
ĠStad Ä±
Ġk ot
iir t
Ġmekan ik
Ġ ~
Ġmuh at
Kar ÅŁ
m on
ĠKÄ±r Ä±k
ĠgÃ¶ steri
Ġk is
Ġyaz dÄ±m
Ġmuay en
ĠÄ°Ã§ eri
Ġf eder
ĠGel di
Ġkur su
Ġbil iÅŁim
ĠÃ§ek ilmiÅŁ
or oloji
ed d
Ġsorum luluÄŁu
al lÄ±
:) )
ĠÃĸÄŀ REN
ĠOn larÄ±
Ä±cÄ± lar
ay ip
âĨ Ĳ
ĠsonuÃ§ ta
ĠyÃ¼rÃ¼t en
Ġpat ron
Ġsonu ca
ĠBoÄŁaz iÃ§i
abil eceÄŁimiz
ĠGÃ¼Ã§ lÃ¼
ĠAk saray
Ġdiren Ã§
ĠarttÄ±r mak
Ġ199 3
Ġal maz
m alÄ±k
ĠAn ma
ĠMÃ¼st eÅŁ
acaÄŁ Ä±mÄ±
hid rat
Bir Ã§ok
Ġsey red
ĠBÃĸL ÃľM
al aÅŁ
ĠyakÄ±n larÄ±nda
Ġbu har
ĠgÃ¶rev ine
P D
ĠbÃ¶lÃ¼m Ã¼nden
ĠOy n
LAR AK
rag on
ist en
ĠSay gÄ±
Ġobj ektif
ĠM asa
Ġcihaz larÄ±
P KK
mam Ä±zÄ±
Ġimk Ã¢nÄ±
Ġharit asÄ±
Bel ki
Ġih rac
uv v
Ġstan dar
ĠD o
Ġkur gu
ĠÄ°st ih
mÄ±ÅŁ lar
Ġistem eyen
ĠaÃ§Ä±l Ä±ÅŁÄ±
Ġ199 2
Ġfark et
Ġsunul du
ĠÃ¶ldÃ¼r Ã¼l
iz za
s ir
ĠA mir
ĠÃĸde me
Ġkon san
Tel efon
Ġsok aÄŁa
ĠAt Ã¶ly
gin Ã§
Ġproj esinin
ĠV odafone
Ġken arÄ±nda
Ġbur c
V ali
ĠÃ¶ÄŁrenc ilerinin
ĠÃ§Ã¶z mek
Ġner de
ĠÅŀ if
Ġsezon da
Ã¼s Ã¼nÃ¼n
Ġyap manÄ±n
ĠH aberi
Ġle v
ĠI N
Ġm iz
ĠD ay
Ġz eki
l aki
Ġann eler
ĠBen de
ĠMak yaj
Ġinsan lÄ±ÄŁÄ±n
ĠV ur
ĠbaÅŁvuru larÄ±
ĠpaylaÅŁ Ä±mÄ±
Ġbozuk luÄŁu
Ġkoy uyor
Ġar Ä±
ĠC errah
ĠZ am
ĠGenel kurmay
D O
ĠMed ine
Ġkon usuna
ĠÃ§Ä±k arken
g eneral
ĠRob ert
T ah
ĠKay n
Ġail eleri
Ġokuy un
c asÄ±
Ã¼n ist
ĠÃ¼ret tiÄŁi
Ġsuy unu
ĠAlman ca
Ġm e
Ġar anan
il y
Ġad Ä±ndan
Ġkend imize
AN I
Ġih anet
Ġbas amak
Ġkur umu
ĠY AK
Ġtak Ä±ma
ĠbasÄ±n Ã§
Ġser gisi
al Ä±sÄ±nÄ±z
ĠÄ° y
Ġul us
Ġmuc iz
dak ilerden
H ol
Ġsu da
Ġiz ler
ĠsÄ±r asÄ±yla
Ġprogram Ä±nÄ±n
Ġgel ebilecek
ig er
ĠKut lu
Ġsan atÄ±
Top lum
Ġkim e
ĠyÃ¶n den
Ġem zir
t ing
Ġkar g
Ġhizmet ine
Ġkal mayÄ±
Ġtay in
b oy
ĠY Ä±k
ste in
ĠOn lara
Ġdil eÄŁiyle
ĠAl per
Ġseyir c
ĠH oc
200 4
Ġko alisyon
ĠEs as
Ġkar ara
ĠTak v
ĠTrak ya
I s
ĠgÃ¶v de
ad ok
Ġistih barat
len ebilir
ĠsaÄŁ lÄ±ÄŁÄ±nÄ±
Ġmut suz
ĠDev r
af eri
Ġyan Ä±ndan
ĠyÃ¶netic isi
ĠSin op
Ġk uc
ĠÃ¶n eri
g Ä±cÄ±
ĠOb ama
Ġik tis
Ġ20 20
ĠGel eneksel
Ġat ak
ĠÃ§eÅŁ idi
b un
Ġk ep
Ġhey eti
ĠSev gili
Ġtalep leri
Ġak Ä±n
Ġbeklen tiler
os una
Ġip uÃ§
ĠA cÄ±
ĠkonuÅŁ ulan
ĠVol kan
ĠFeth iye
Ġpat ent
Ġkup on
Ġneden leri
f ilm
Ã¼b nan
Ġnik ah
ĠgeÃ§ tiÄŁini
ĠH AV
Ġadam lar
Ġmark alar
ĠÃ¶rnek ler
ĠaÃ§Ä±k tÄ±r
ist al
Ġin gilizce
art ma
DÃ¼nya da
Ġayr Ä±lÄ±k
Ġbulun muyor
ĠyazÄ±l Ä±mÄ±
ĠS ili
ĠForm u
ĠyÄ±l lara
ĠyaÅŁ ant
ĠA A
Ġert elen
Ġokul larda
Ġ14 0
Ġev leri
Ġtespit i
Ġmesl ektaÅŁ
Ġtemsil ciler
Ġar Ä±za
ĠsÃ¶yley ebilirim
Ġism inin
ĠH adi
ĠMev cut
oksi dan
Ġil tih
ĠyÃ¶netim inde
Ġadr esini
am amak
ĠsaÄŁ lÄ±ÄŁ
Ġtoplant Ä±ya
Ġ19 70
Ġkazan dÄ±ÄŁÄ±
ĠÄ°ÅŁ Ã§i
ĠÃ¶zgÃ¼r lÃ¼ÄŁÃ¼
ĠST K
d alÄ±
Ġplan larÄ±
Ġpuan la
ĠGerek li
ĠÃ¶zel liÄŁine
KÄ±s a
ĠyaÅŁ ayacak
ĠhÃ¼c re
ĠGerek en
Ġbul acak
ĠsÃ¶y lenen
err y
raf t
t un
mem iÅŁtir
ĠkonuÅŁ tuk
Ġdam la
ĠÄ°lk Ã¶ÄŁretim
ĠA ut
ĠA LI
Ä±z lÄ±
ĠA Äŀ
Ġlist elen
Ġol acaÄŁÄ±na
Ġuy uy
am adan
ĠYar at
TE P
ĠG am
m un
Ġkur ÅŁun
ĠGro up
Ä±l a
Ġ16 0
ĠdÃ¼ÅŁÃ¼n m
Deniz li
ĠS o
Ġc errah
M urat
ĠgÃ¼ven le
er ez
Ġordu s
ebilm e
Ġpar fÃ¼m
y etik
h af
om o
s asÄ±
Ġproj eyi
ĠsÄ± Ã§
ĠÃĸz bek
at on
Ġvizyon a
Ġilgilendir en
ĠÃ§ek il
Ġfayd alarÄ±
Ġsol uk
ĠÃĸÄŁretmen ler
D ownload
ĠAn ti
ĠtÃ¶ren inde
ĠAN TALYA
Ġiler iye
Ġob ez
acaÄŁ Ä±mÄ±zÄ±
ĠL ider
Ġhissed iyorum
ĠÄ° mar
Ġikin cisi
ĠÅŁey lerden
ĠolduÄŁ unuzu
M U
alan an
m s
ĠKÃ¶ ÅŁ
eÄŁ imiz
ĠOtom otiv
ĠP rens
ig h
Kon uÅŁ
ĠDen etim
Ġham ilelik
ĠmÃ¼h im
Ġkoruy an
len ecek
Ġol acaÄŁÄ±m
ĠgÃ¼ven liÄŁini
ĠT ren
ĠPar lament
ikat Ã¼r
Ġnokt alar
Ġark asÄ±ndan
Ġvur uÅŁ
D ol
ĠiÅŁ sizlik
Ġref ah
Ġs tand
Ġkapasit eli
ĠÅŁ aÅŁkÄ±n
Ġoper atÃ¶r
ĠArt vin
ly wood
ĠkarÄ±ÅŁ Ä±mÄ±
ĠGar anti
Ġolmak sÄ±zÄ±n
Ġ Ä±lÄ±k
B odrum
ch ester
ĠL it
T P
ĠÄ° c
ad y
Ġkoy duÄŁu
Ġyaralan an
ĠGÃ¼ney doÄŁu
Ġas Ä±r
Â ²
Ġdurum larÄ±
ĠgÃ¶z lerini
Ġtelefon un
ĠEr c
ĠÅŀÄ°RK ETÄ°
ol uk
Ġed erseniz
eti ÄŁi
ĠH ani
â ľ
Ġprogram Ä±nÄ±
ĠT AÅŀ
Ġbulun muÅŁ
ĠZÄ°Y ARET
Ġn evi
Ġkar aciÄŁer
ĠgÃ¶z lÃ¼k
ĠKar iyer
ĠyÃ¼r Ã¼me
Ġy am
Ġ8 9
abol iz
ĠtasarÄ±m larÄ±
ĠÃ§alÄ±ÅŁ masÄ±nÄ±
Ġver diÄŁiniz
ĠF AK
ĠKem er
Ġsistem ler
ley ebilirsiniz
ĠkÄ±yas la
Ä± tÄ±r
Ġor jinal
Ġtak Ä±l
K ad
ĠÄ° leri
g ed
en ter
Ġ7 4
ena ult
ĠBel ir
ĠAt aÅŁehir
mas i
ĠEnd Ã¼stri
ĠPol at
Ġkal Ä±ntÄ±
Ġsen esinde
Ġyar a
f e
O tel
ĠÃ¶dÃ¼l lendir
te fik
ĠH ediye
ĠiÅŁ tah
Ġmu azzam
Ġal acaÄŁÄ±nÄ±z
ĠH alÄ±
ĠHÄ±r istiyan
li gi
ĠBaÄŁ dat
Ġbank alar
Mic rosoft
ĠM elek
p il
AN K
Ġbir Ã§
ten j
ĠÃ§alÄ±ÅŁ tÄ±k
l inin
Ġat Ä±ldÄ±
Ġkural lar
ĠsÄ±k Ä±ÅŁtÄ±r
Sin ema
ĠOper asyon
ĠfÄ±rsat larÄ±
eÄŁ iniz
ĠpeÅŁ in
ĠkuÅŁ ak
Ã§ ik
K Ä±ÅŁ
Ġb aya
Ð °
ĠÃ§evr eye
Ġsah aya
mran iye
GeÃ§ miÅŁ
ĠyÃ¶netim inin
Ġheyecan la
n ur
SY M
ĠkarÅŁÄ± tÄ±
ĠyaÅŁan Ä±yor
ed u
C em
Ġd inin
Ġirtib ata
ĠÃ¶lÃ§ ekli
ĠAr if
H ocam
Ġyarat tÄ±
ĠDÃ¶nÃ¼ÅŁ Ã¼m
ĠC er
ĠD iler
Ġtr ib
ĠboÅŁ a
Ġgetir dik
ĠKanunun un
ĠkÃ¼f Ã¼r
Ġbirik tir
ad Ä±ÅŁÄ±
ĠGazet eciler
ĠK os
ĠsÃ¶n dÃ¼r
Ġimkan larÄ±
ĠBir i
Mil let
er in
Ġkitab Ä±nÄ±
Ġb adem
Ġakl Ä±na
ĠP orno
Ġ9 8
Ġb ilerek
Ġgittik Ã§e
ĠB ut
id eki
D EK
B in
om en
ĠuÄŁr una
ĠÅŁekl indeki
Ġkamer asÄ±
Tek nik
Ä°Z E
Ġkarar larÄ±
ĠgÃ¶l g
ĠÃ¼y elerine
ĠyayÄ±m landÄ±
masÄ± dÄ±r
G er
ĠÃ§ek ildi
Ġn iÅŁ
ĠYÃ¼r Ã¼yÃ¼ÅŁ
nin g
ĠC insel
Ġmadal ya
Ãĩ aÄŁ
Ġal mÄ±ÅŁtÄ±
ĠYak asÄ±
Ġg ri
Ä±nÄ±z daki
S ezon
ĠEr can
Ġyol la
Ġmal um
Ġ19 60
ĠSer gisi
Ġsun maya
s y
ĠyapÄ±l malÄ±dÄ±r
ar aya
Bur adasÄ±nÄ±z
Ġhedef leri
ĠaÃ§ Ä±lmÄ±ÅŁ
mas a
Ġkaynak lar
ĠH el
ĠÃ¶de meler
Ġden emek
O ÄŁ
ĠbÃ¶lÃ¼m leri
Ġter ey
Ã¼l k
ĠFel sef
Ġetkil eÅŁ
Ġkan lÄ±
de ÄŁ
ĠTIK LAY
ĠsÃ¼r eyle
ta g
ĠÃ¼cret li
d elen
de di
Ä° DE
l op
ĠsaÄŁlay abilirsiniz
ĠEc z
ĠCey lan
ĠvasÄ±t asÄ±yla
ĠÃĩar ÅŁ
em ediÄŁi
ĠkÄ±s men
G O
T aÅŁ
ĠY OL
ĠEy lem
ĠMÃ¼slÃ¼man larÄ±n
Ġkolay dÄ±r
ĠkullanÄ±l mÄ±ÅŁtÄ±r
Ġrad ikal
ĠMes ut
ĠDetay lÄ±
ada ÄŁ
ĠbaÅŁkan larÄ±
Ġd eyim
Ġev ler
Ġf ren
Ġhedef liyor
Ġpar lament
Ġkap lÄ±
ĠFilm ler
t edir
f iye
ĠY ur
Ġoyunc unun
ĠtanÄ±t Ä±mÄ±
Ġsak lÄ±
Ä±nday Ä±z
l ileri
ĠdoÄŁrul tu
Ġed ersiniz
ĠS AL
Ġkat ma
Ġbul duÄŁu
ĠsektÃ¶r e
ĠolmadÄ±ÄŁ Ä±na
Ġyap Ä±sÄ±nÄ±
Ġhav aliman
ĠaÃ§ Ä±lÄ±r
Ġh Ä±rs
iy se
ĠAr ka
Ġyer lerinde
ĠS ipariÅŁ
Ġ9 6
Amerik an
Ġprogram Ä±n
Ġkom edi
. ''
Ġtercih i
D ur
Åŀ TÄ°
ĠK aÅŁÄ±k
Ġc aiz
ĠgereÄŁ ince
abil iyoruz
Ġez ber
Ġy ut
Ġfav or
ĠkonuÅŁ ul
Ġh amam
ĠErkek ler
ĠbaÅŁkan lÄ±ÄŁÄ±nda
c em
k es
ĠDer in
ĠLis e
m ark
Ġmev s
Ġbil diÄŁimiz
GerÃ§ ekten
Ġb ron
ĠsÄ±r alarda
l ov
Ġolm adÄ±k
Ġis kel
Ŀ ¤
Ġsoru larÄ±n
ĠMev lana
ilendir me
Ġver meyen
ĠuÃ§ aÄŁÄ±
Ġak sam
Ġgelir se
ĠgeliÅŁtir ilmiÅŁ
Ġavantaj Ä±
ĠkoÅŁul larda
LAR IN
ĠK Ä±rÄ±m
K ara
Ġtelefon lar
Ġtan Ä±ma
ĠAl ey
Ġn ehir
ĠB ig
ĠKur u
ĠY edek
ag o
ĠR Ã¼z
ĠJ on
Ġada p
Ġtep kiler
M in
Ġkayn aÄŁÄ±ndan
ĠbÃ¶lg eler
Ġedilm ez
AT ÃľRK
Ġtasar lanmÄ±ÅŁtÄ±r
D ar
ĠS w
ĠsÄ±kÄ±ntÄ± lar
ĠtÃ¶ren ine
Ġciv ar
Ġyetkil iler
ĠK AM
ĠaldÄ± lar
ĠN okt
ĠG ÃľZEL
od y
e w
ĠL ir
Ġtut arak
k un
Ġ Ã¼
ĠS om
ĠTrans fer
Ġbilg isini
Ġsey irler
ĠOk tay
f ab
Ġyap acaÄŁÄ±nÄ±
Ġkitab Ä±nda
ĠPat ent
.. ...
ĠkÃ¶y Ã¼nde
may Ä±nÄ±z
ĠL Ä°S
Ġs ter
Ġtaraf lÄ±
ĠÅŁaÅŁÄ±r tÄ±cÄ±
Ġyurt dÄ±ÅŁÄ±
Ġih bar
OB B
ĠdÃ¶n mek
lan maya
Ġbilg isay
ĠÃ§evr imiÃ§i
Ġsevgil isi
Ġver ildiÄŁi
ĠfÄ±r Ã§
S enin
Ġgerekiyor du
abilecek leri
M em
Ġolun ur
Ġetm edi
Kam u
Ġkon t
g ren
K art
lendi ÄŁini
n iz
Ġr it
Ã® m
ĠiÅŁlem ini
it an
Ġla ik
Ġkal or
Ä±l masÄ±nÄ±n
ĠAÅŁaÄŁÄ± daki
Ġtaleb inde
ĠKilis esi
ĠDur sun
Ã§Ä± larÄ±
ĠyayÄ±n ladÄ±ÄŁÄ±
K ent
ĠKal esi
Ġorganiz asyonu
Ä±ÄŁ Ä±na
Ġbur ad
ĠYap Ä±mÄ±
k oÅŁ
ĠÃ¶n Ã¼ndeki
ĠÃ§alÄ±ÅŁ tÄ±ÄŁÄ±nÄ±
Ġyaz Ä±nÄ±n
ĠYar Ä±n
ĠilÃ§ ede
ĠyÃ¼z e
Ġhep sinin
ĠÃ¶ncÃ¼l Ã¼ÄŁ
ĠÃ¼ret ilmiÅŁ
ĠyÃ¶n Ã¼
ĠÅŁ ov
ĠBugÃ¼n e
ĠkaldÄ±r Ä±lmasÄ±
ĠÅŁiddet le
G Ä°LÄ°
ĠSan ay
Ġst art
ĠÃ§erÃ§ev ede
Ġis lam
Ġar sa
ĠbÃ¶lg esindeki
ĠSar Ä±yer
Ġs ans
Ġyap abileceÄŁiniz
ĠMer al
ĠAs lÄ±
M at
ĠÄ°liÅŁ kin
on im
ĠGÃľN Ãľ
Ġkir li
ĠB Ã¼t
ĠÄ±ÅŁ Ä±ÄŁÄ±nda
Pro j
Ġsor dum
im arka
h ir
Ġtek ne
Ġmadde sinde
Ġy edik
ĠO LARAK
ĠÃ§at Ä±ÅŁma
Ġkazan Ä±r
K il
ĠgÃ¼c Ã¼ne
ĠCoÅŁk un
f on
ĠOl dukÃ§a
Ġkab in
Ġsistem de
ĠAr jantin
S iyas
Ð µ
Ã¼ya da
op i
ad en
ĠS ing
Ġkal mÄ±ÅŁtÄ±r
ĠA pp
Ġal Ã§ak
ĠD NA
Ġan ladÄ±m
Ġmakin eleri
Ġpar sel
if i
Ġhev es
Ġbank acÄ±lÄ±k
Ġkal madan
l iyesi
ed din
il yon
ĠSempoz yumu
lis h
ĠSiz ler
ĠeÄŁitim ler
ĠK Ã¶rfez
9 6
ĠOL AN
ĠgÃ¶r eceÄŁiz
Ġa g
Ġark e
Ġe x
Ã§ am
mer haba
ed onya
ĠBur han
ĠK Ã¼b
Ġak ciÄŁer
ler se
ĠBulv arÄ±
Ġilg il
ĠMer cedes
Ġalmak ta
ĠkÄ±sm Ä±nÄ±n
ĠHAK K
Ġettik ten
Ġsigort asÄ±
Ã§ o
Ġaf f
z in
ĠÅŁ ikay
Ġdol ay
b az
m inin
g erÃ§
ĠM ET
oun d
ĠH erkesin
ĠEnd Ã¼str
Ġt encer
mÃ¼ÅŁ tÃ¼
Ġadr esinde
ĠSiyas i
ĠUlu daÄŁ
dev let
ĠAy v
ĠB eb
ĠAnd re
Ġyorgun luk
ĠH ome
os s
ĠAÃ§Ä±k lamasÄ±
l unun
ĠmÃ¼z isyen
Ä° G
ĠTop luluÄŁu
ĠkonuÅŁ malar
Ãľlk emizde
leÅŁtir ilmiÅŁ
en ni
in st
M alatya
Ġemek lilik
Ġlist esine
ĠT HY
ĠPer formans
ĠGel iyor
elle f
ĠÄ°d di
Ġhediy eler
Ġak si
ĠbÃ¼yÃ¼k lÃ¼ÄŁÃ¼nde
O p
al li
ĠK imi
ĠKar aca
Ãĸr neÄŁin
Ġ/ /
Ġbak anlÄ±k
Ġmerham et
ĠMÃ¼ f
Ġortam larda
Ġh adi
ĠAl l
ĠsavaÅŁ a
ĠSonuÃ§ ta
Ġtak ibi
m adÄ±r
ĠFik ret
Ġkul Ã¼bÃ¼
ĠiliÅŁk ilerin
Ġvaz if
Ġhes aba
Ġver ilerin
Ġkon gre
ĠsÃ¶zleÅŁ mesi
Ġbulun arak
Ġm art
Ġmodel ini
Ġdestek lem
ĠoluÅŁ tu
Ġister se
Ġr ep
oj en
or du
ĠyaÅŁ Ä±yorum
Ġekip ler
Ġzevk li
p as
Ġalan Ä±n
ĠadÄ±m larÄ±
Ä±y an
h oÅŁ
ĠÃĸ lÃ¼
Ġder gisi
Ġdayan Ä±ÅŁma
ĠY PG
Ġyaz arak
ĠyÃ¼ksek liÄŁi
8 3
ĠUygul amasÄ±
Ġaktar dÄ±
ĠR ol
tal yaspor
ĠyÃ¶net melik
it li
DoÄŁ ru
ĠgÃ¶z de
Ġistiyor lar
Ġap artman
ĠN ehri
bur nu
ĠFransÄ±z ca
ĠSAT ILIK
Ġtem asÄ±
ĠaÃ§Ä±k layan
Ġtekn iÄŁi
ĠEr eÄŁli
D e
Ġu cu
Ġtah ta
ĠYÃ¶n etmen
Ġolm amÄ±z
ĠgÃ¼l dÃ¼r
ĠsanatÃ§ Ä±sÄ±
B unlar
es iniz
ĠulaÅŁ Ä±l
ĠiÃ§er iyor
ĠÅŁ em
ĠkullanÄ±l mÄ±ÅŁ
ĠF ragmanÄ±
ĠyapÄ± lar
Ä±sÄ±r a
Ãĸn ce
an ne
On line
O nun
ĠÃ¼ret iciler
Ġazalt mak
ĠKon uk
Y OR
Ġkab l
Ġhava alan
ĠF lor
Ġc ir
Ġad ama
Ġf laÅŁ
Ġbelir lenmesi
Ġod asÄ±nda
Kah raman
Ġyeten eÄŁi
ĠkonuÅŁ masÄ±
ĠÅŁey dir
Ġsit esini
ĠherÅŁ eyi
ĠGÃ¶r e
Ġyay Ä±nda
ĠbÄ±rak arak
Ġs kan
Ġzih niyet
ĠBar celona
ĠgÃ¶ster meye
D uy
ĠWhats App
P at
Ġhizmet lerin
Ġaley hi
V E
Ġsev erler
ĠKÃ¼r esel
M I
b esi
ĠÃ§Ä±kar Ä±n
Ġtem eli
de x
ĠdediÄŁ im
adÄ± lar
Ġsandal y
Ãľnivers it
ĠAm eliyat
ĠkÄ±yaf etler
ĠY Ã¶r
ĠKom p
ĠyurtdÄ±ÅŁ Ä±nda
saÄŁ lÄ±ÄŁÄ±
Ġyapmak tan
M en
ĠEk le
Ġkes tir
B R
ĠduruÅŁ u
Ä±r h
Ġolacak tÄ±
Ġbak ter
Ġkurum larÄ±n
iti on
l Ã½
ev Ã®
len diÄŁi
Elekt rik
ĠW illiam
Ġder n
ĠArch ives
ĠU LU
el iyim
ĠH enÃ¼z
Ġl ojistik
ĠÃĸÄŁr et
ul i
ĠgerÃ§ek lik
eti ce
ĠÃ¶nc esine
Ġkullan abileceÄŁiniz
ret tin
Ġk ud
ĠgenÃ§ lere
Ġer gen
ĠHar it
ĠKÄ±zÄ±l ay
Ġliste de
D IM
Ġpotansiy eli
ĠGay rimenkul
Ġkal dÄ±ÄŁÄ±nÄ±
il et
E x
Å ¸
ĠEn dek
ĠTÃ¼rk lerin
Ã§ eli
Ġmetrekar elik
Ġmillet i
ĠÃ§al Ä±n
os unda
av gat
B UR
ĠBr it
Ġm iydi
ĠkaÃ§ an
af i
Ġgru ba
ĠvatandaÅŁ larÄ±mÄ±zÄ±n
S eni
Ġyan Ä±nÄ±zda
ĠseÃ§ ilmiÅŁ
ĠT una
ar ÅŁ
ĠtÃ¼r den
Ġdur mak
Ġak lÄ±
ĠS erkan
ĠÃ¼cret leri
M AS
Ġfaaliyet e
B l
Ġser isinin
Ġtar ayÄ±cÄ±
ĠC re
ĠK AZ
ĠmaÃ§ larÄ±
Ġden ge
Ġ7 1
ĠÃ§ocuk larda
Ġyor ul
ĠoluÅŁtur ma
or gan
ĠgeliÅŁtir diÄŁi
Ġdosy alarÄ±
ĠalÄ±n dÄ±ÄŁÄ±nda
ĠÃ§ek iÅŁ
oz an
ĠÃ§ek imi
ĠBr un
ĠyoÄŁun laÅŁ
Ġs ipar
ĠU s
ef f
ĠMuh tar
Ġetm elisiniz
ĠÃ§ Ä±plak
Ġyap abilmek
Ġver eceÄŁiz
Ħ ¢
Ġgiy s
ÅŁ ir
ĠU ÅŁak
Ġpart iler
ĠK PSS
ĠÃ§alÄ±ÅŁ Ä±yorlar
Ġziyaret Ã§iler
Ġzih in
ĠAlt yazÄ±lÄ±
Ġyet in
ĠÅŁ ebek
tuÄŁ unu
Ġn a
Ġengel ler
Ġisim lerinden
oy ota
Ġmerkez e
ĠB Ã¶
ĠM az
ro me
r iye
Ä±l Ä±mÄ±
Erz urum
Ġyan Ä±sÄ±ra
Ġkullan dÄ±m
Ġaktiv ite
Ġgezeg en
ĠC eb
ĠM Ã¼t
iy es
ĠOrgan izasyon
ĠÅŁu dur
Ġziyaret e
Ġedeb iliyor
B AK
Ġtaraf Ä±n
Ġbayan Ä±m
G EN
ast ro
ĠÃĩalÄ±ÅŁ an
ĠC omp
Ġokum uÅŁ
Ġsen sÃ¶r
S tr
Ä± v
Ġfar z
d alar
ĠAn Ä±
ĠÃĩeÅŁit li
ĠMah alle
ĠT icari
ĠDeniz cilik
Ġifad eleri
ĠD ahil
Ġgelir ken
C AK
ĠÅŀ em
eÄŁ inden
Ġspor tif
ĠÃ§ekir dek
ĠÃ¶nem s
Ġfazlad Ä±r
ĠG Ã¼z
Ġpaz arÄ±
w a
ĠÅŀen ol
ĠNev ÅŁehir
ĠsÃ¶yl edim
m eme
m Ã¼
ĠGÃ¶z tepe
ĠfarklÄ± dÄ±r
ĠbaÅŁ bakan
Ġisteyen lerin
ĠKil o
Ġ> >
Åŀ anlÄ±urfa
D R
Ġsitemiz den
Ġol abilmektedir
ĠSan al
Ġduy dum
ul us
Ġdir eksiyon
K E
c is
ĠgÃ¼n kÃ¼
Ġtat b
ĠÃĩ OCUK
Ġs k
Ġhan i
Ġh ab
8 4
ĠHav acÄ±lÄ±k
Ø §
g ay
ĠaÃ§ abilir
ĠdÃ¼zenlem eler
Ġbel lek
as tÄ±r
ĠsÄ±cak lÄ±ÄŁÄ±
ĠYÄ±l Ä±nda
L a
Ġzul Ã¼m
ĠBaÅŁar Ä±lÄ±
Bir az
ĠdoÄŁrultu da
ĠÃ§ek ip
Ġfikir leri
ĠÃ§ar esiz
ĠG rand
ĠKol eksiyon
baÅŁkan lÄ±ÄŁÄ±
tiv e
Ġgit meye
Ġtasarruf u
ĠR ahat
ĠsaÄŁ anak
ĠOtom atik
ĠbaÅŁlat Ä±ldÄ±
Y emek
ad o
l Ä±nÄ±n
ÅŁ Ä±k
Ġdiz isinin
Ġbur cu
Ġakl Ä±nÄ±za
Ġay dan
P ress
Ġuygulan acak
ĠMÃ¼z iÄŁi
ĠuÄŁr at
ĠKar tÄ±
ĠdeÄŁin en
Ġfi il
may acaÄŁÄ±nÄ±
ĠHay dar
ĠÃĸnc eki
Ġgec enin
Ġpar anÄ±n
Ġduy uyoruz
Ġdev i
ĠRom anya
Ġyan l
Ġh Ã¼zÃ¼n
ĠtakÄ±m larÄ±
ĠSn ap
Ġkend isiyle
c insel
T EN
DoÄŁ um
Ġkullan Ä±rken
K AL
âĸ º
9 2
Ġuygul amanÄ±n
ĠÅŁampiyon u
Ġizley in
ĠolduÄŁ unca
Ġdil edi
iÅŁ kin
eÅŁ e
mam Ä±za
ĠbiÅŁ ey
Ġel it
Ġ15 00
S arÄ±
Ġkoy arak
Ġyap Ä±nÄ±n
Ġter min
Ġhav asÄ±
ĠDemokr atik
ĠkÄ±r Ä±l
ti Ã§i
ĠÃ§alÄ±ÅŁ acaÄŁÄ±z
B ek
al Ä±yÄ±z
Ġmut luluÄŁu
ĠÃ¶ÄŁ Ã¼t
Ġf ragman
Ġsefer inde
ĠS GK
ĠOl acak
ĠÃ§alÄ±ÅŁ mÄ±ÅŁ
b ih
v ri
Ä±m lÄ±
Trabzon spor
ĠAk ar
ĠiÅŁlem ci
ĠsaÄŁ lanan
Ġoy na
d s
Ġmac era
ĠbaÅŁar an
Ġver eceÄŁi
b urt
ĠAk su
ĠseÃ§ mek
ĠÅŀ iddet
Ġinan Ä±yoruz
Ġpir inÃ§
Ä°nsan lar
Ġihtiyac Ä±m
, "
Ġbiliyor sunuz
Ġform Ã¼l
8 7
amaz lar
ĠmÃ¼j de
ih an
ĠkeÅŁ ke
Ġindir me
Ġter im
Ä°T E
t ayÄ±
ĠihtiyaÃ§ larÄ±na
ĠseÃ§enek ler
Ġoyn ar
on ald
. :
Ġoyun unu
ĠÃ§Ä±k tÄ±k
Ġin at
em eyiz
ĠÃ§evr esi
rum p
ĠTe Ã¢lÃ¢
Ġbelir lenir
ĠtanÄ±n mÄ±ÅŁ
Ä±n ak
Ġver diÄŁim
Ġkaybet tiÄŁi
ĠTesis leri
ĠgÃ¶ster ecek
a ge
ed iniz
9 3
GÃ¶n deren
Ġkend iliÄŁinden
Ġver mem
ĠiÅŁ lerin
Ġtak Ä±
Ġr ev
ĠGÃ¶r sel
ĠYÃ¶netmeli ÄŁi
ĠY ozgat
Ġ Ä±z
Ġp et
at er
Ġsun acak
ĠM B
ĠDav et
ĠK u
Ġhizmet in
ĠAÄŁ a
Ġzorun dayÄ±z
ĠÃľ Z
Ġkullan abilir
c alÄ±
ĠÅŁ un
ĠL os
ĠyapÄ±l abilecek
ĠsaldÄ±r Ä±sÄ±
ĠK Ä°M
D iyanet
Ġc umartesi
Ġkat man
Ġitibar i
Ġ8 4
ĠAbdÃ¼l ham
ĠÃĩalÄ±ÅŁ malarÄ±
L ig
ĠiliÅŁk iye
Ġ12 5
lam anÄ±z
ĠÃĩukur ova
G I
ĠgeÃ§ meden
Ġdayan arak
Ġcihaz Ä±n
ĠaÅŁaÄŁ Ä±ya
ĠyÃ¶net meni
Ġuy uÅŁ
ĠB ingÃ¶l
am Ä±nÄ±
ĠKAD AR
ĠeÄŁitim leri
ĠTedav isi
Ġgec eleri
Ġport akal
Ä±rs Ä±n
ĠaÄŁÄ±r lÄ±ÄŁÄ±
ĠE Y
Ã¼s k
ĠYaÄŁ mur
ĠKap sam
ĠBak Ä±mÄ±
Ġuzman lÄ±k
ĠateÅŁ li
Ä°n giliz
r iz
ĠÃ¼stlen diÄŁi
ĠG iy
w eb
ĠsaldÄ±r gan
Ġbaz Ä±nda
Ġkonu lara
k az
Ġsit elerinde
ĠSan ki
Ġd okt
9 7
ĠarkadaÅŁ lÄ±k
h ot
ĠH ab
Ġorta okul
ĠÃ§ ayÄ±
ĠV ir
Ġtoz u
ĠH id
Ġin iÅŁ
ĠkaÄŁÄ± dÄ±
Ġsor ul
Ġetmek tir
Ġbir imleri
ĠO ut
alÄ± p
) -
Ġyan Ä±ndaki
Ġol aya
b arÄ±
Ġb any
Ġen j
ĠÃ§alÄ±ÅŁmalar da
ĠyÃ¶net tiÄŁi
10 1
Ġekley erek
Ġkim ler
ĠÃ¶de v
kir alama
ĠAy ar
ĠT ed
ĠK R
DoÄŁ al
Ġkategor ide
Ġkaf e
ĠSiz lere
ĠKol larÄ±
Ġfaaliyet ler
Ġr et
ĠF on
Fark lÄ±
ĠsÄ±kÄ±nt Ä±sÄ±
n al
ĠKÃ¶ pek
ĠAn ayas
u al
ĠmÃ¼z aker
ĠR ock
K ON
ra de
m ediÄŁ
b log
Ġkal mÄ±yor
Ġac ent
ĠÃĩ al
ĠÃ¶dÃ¼l Ã¼nÃ¼
ĠulaÅŁ Ä±n
Ġer it
v anÄ±
S ig
Ġmanz arasÄ±
Ġpres tij
Ġente gr
ĠAk sesuar
ar ch
ĠEs ad
Ġyakal amak
Ã¼l tÃ¼
Ġkal kan
Ġar Ä±ndÄ±r
bi e
ĠsÄ±r aya
Ġbur da
ĠaÃ§ arak
ĠW al
ĠM uz
SaÄŁ lÄ±klÄ±
ĠB ro
od ik
Ġy i
ĠEtiket lenen
ede cek
ĠÅŀ art
I rak
rop ol
ĠL aborat
Ġyaz Ä±mda
ĠOf isi
ĠHam di
Ġgid iyoruz
ĠNor veÃ§
ĠsuÃ§ u
ĠS ub
ut e
ĠY ILI
ĠS ib
ĠR ot
Ġgit tiÄŁ
et k
ĠiÅŁ veren
R I
ĠZ engin
ĠyakÄ±n larÄ±
K AT
ĠgÃ¶rÃ¼l mesi
Ġvurgul an
Ġtarif leri
Ġolumsuz luk
Ġfaaliyet lerine
Ġduygu larÄ±
Ġsen de
ĠgÃ¶r ecek
Ġkut usu
ĠÃĸn Ã¼mÃ¼zdeki
ĠBel irt
Ġnitelik te
Ġf an
ĠDen et
ĠKesin likle
Ġvermek te
ĠÃ§ et
Ġyap Ä±t
ay eti
ĠK UT
ĠVol eybol
v ir
gÄ± c
Ġisim lerin
ĠiÃ§ mek
US U
Ġtak si
OR T
ĠyoÄŁun luk
ĠyÃ¼rÃ¼t tÃ¼ÄŁÃ¼
edek tif
ĠDanÄ±ÅŁ man
ĠDil ek
Ġk Ã¼m
ĠYap an
elerin deki
om uz
Ġtop layan
ĠyÃ¼k leme
eniz in
ĠR od
ĠeleÅŁtir i
Ġkaz asÄ±nda
lanmÄ±ÅŁ tÄ±
Ġyap Ä±sÄ±na
ĠgÃ¶rÃ¼n Ã¼mÃ¼
ĠBur aya
Ä± dÄ±r
Ġ ]
ĠSah il
Ä±f Ä±r
acaÄŁ Ä±nÄ±n
Ġalg Ä±lan
Ġm alÄ±
M uÄŁla
Ġbulun acak
ĠO zan
ĠB anyo
Ġhaz in
ĠL ef
ĠKah ve
Ġoran Ä±nÄ±n
Al t
ĠC AN
Ã¶ m
ĠanlaÅŁ masÄ±
Ġform unu
Ġs adÄ±k
AL Ä°
ĠH ristiyan
ĠBakÄ±r kÃ¶y
Av ust
Ġoldu gu
ester ol
Ġsahip lerinin
F orum
d is
ĠC adde
s eler
Ġoda da
ĠÅŁirket lerinin
Ġp adiÅŁah
ĠEL EKTR
il ar
il eceÄŁi
Ġar amÄ±zda
ĠÃĩ eÅŁme
Ġanlam aya
ĠaÃ§Ä±l Ä±yor
Ġek si
Ġbenim s
ev re
ĠbaÅŁk alarÄ±nÄ±n
g eler
ĠÅŁ ube
BÃ¼yÃ¼k ÅŁehir
Ġtak Ä±lan
Ġuzman larÄ±
b istan
ag en
un e
ĠKÃ¶ tÃ¼
ĠEf es
Ġsahn ede
Ġcevap lar
ĠÃĸz er
ĠyatÄ±rÄ±m larÄ±
Ġzaman larÄ±n
tÄ±ÄŁ Ä±nÄ±zda
Ġort alam
Ġmanz ara
Ġal am
Ġem ri
ĠSonr asÄ±
k eli
ent o
Ġtal ih
Ġkar ab
Ġdayan Ä±k
Ä±lÄ±r sa
Ġhak sÄ±zlÄ±k
Ġ20 23
Ġbiy olojik
ĠkÄ±l avuz
ĠP YD
Ġser amik
Ġr utin
Ä°s p
? âĢĻ
Haf ta
ĠAj ans
Ġdestek lemek
Ġreak siyon
il at
Ġy edir
ĠdeÄŁer inde
ĠkadÄ±n larda
ĠgÃ¼z eli
ĠAÃ§ Ä±lÄ±ÅŁ
Ġkurul acak
Ġ199 1
Ġmodel lerini
Ä±nÄ± p
ĠBÃ¶lg esinde
Ġsorgul ama
AS T
Ãĩocuk lar
ĠNok ia
B azen
ĠsayÄ± larÄ±
Ġhac mi
ĠyÄ±l lardan
lik e
Ã¢ k
ĠAr ena
e et
ĠK eÃ§
lan mak
Ġkal siyum
On lar
LÃľÄŀ Ãľ
ĠSon unda
ĠÃ§Ä±kar ma
ĠgÃ¶ster isi
Ġs olu
r ad
yap Ä±
Ġlam b
r ep
iyet e
ĠO HAL
z ar
orun lu
Ġfav ori
Ġhak ik
EY E
H emen
ĠÅŀ imd
ĠVÃ¼c ut
ĠÃ§Ä±kar Ä±yor
Ġat ma
ris ti
ĠP i
Ġal masÄ±nÄ±
ĠvatandaÅŁ lara
ĠKim lik
ĠEm ine
Ġaz iz
Ġsab Ä±rsÄ±z
ildiÄŁ iniz
as e
ĠT ir
Ġaz a
Ġses len
Ġzar arÄ±
Ġim ha
Ġgetir ip
em iÅŁtir
ĠSev giler
ĠL Ä°M
Ġ: (
Ã» r
Ġgiz emli
ĠN us
Ġaday larÄ±n
Ġbol ca
ĠGÃ¼r cistan
Ġbul duk
Ġas ist
Ġok uyor
ĠbaÅŁ larÄ±nda
N ur
ĠdÃ¼ÅŁÃ¼n dÃ¼k
ĠgÃ¼r Ã¼lt
s Ã¼nÃ¼z
D oktor
ĠÃĩ Ä±nar
ĠoluÅŁtur maktadÄ±r
ad ig
Ter Ã¶r
Ġedin mek
ĠUYG UL
Ä± h
, ,
len mesine
Ġokuy up
ĠvatandaÅŁ larÄ±
lu lar
Ġcumhur baÅŁkanÄ±
ĠbuluÅŁ ma
Ã¼r Ã¼
ĠTan r
f eksiyon
ĠrÃ¼z g
mas Ä±z
ĠBank a
Ġko Ã§
ler inizde
ĠÅŁey lere
it leri
Ġn iÃ§in
Ġel le
Ġkoy ar
200 3
ĠÃ¶y l
ĠMerkez inde
ES CO
ol sun
Ġif tir
Ġ9 4
Ä±ÄŁ Ä±nÄ±n
ĠEb Ã»
Ã¼k sel
T av
ĠMuh teÅŁem
Ä± cÄ±lÄ±k
ĠAil esi
ĠS et
ĠDÃľN YA
d Ã¼ÅŁ
L G
ĠgÃ¶z altÄ±
Ġh or
Ġat om
Ġvur an
ĠY GS
ĠT AB
ĠAn aliz
emiz deki
ĠK ale
ĠV illa
v uru
larÄ±nÄ±z dan
Ġtak lit
Ġbit er
Ġdo larÄ±
Ġsun uyorum
ĠEn erj
Ġeksik lik
Ġgetir meye
Ġbil etleri
y ok
N IN
G erek
M B
ic tor
ĠN Ã¼f
Ġekonom isine
ĠhÄ±r sÄ±zlÄ±k
ĠP AZ
Ġverilecek tir
ĠfÄ± st
in s
Ġkab ar
C am
ĠMez ar
ilm esinde
Ġ17 0
ĠBin asÄ±
Ġnas il
ĠÃ¼nivers itesi
Ġtad Ä±na
Ġteh di
ĠÃ§ar e
Ġan iden
Ġek ranÄ±
ĠD O
tr y
Ġsat Ä±cÄ±
s enin
Ġtemel inde
Ġkut lama
ĠbaÄŁ layan
ĠkuruluÅŁ lar
ĠT EL
ĠG ur
ĠgÃ¼r eÅŁ
ĠEg emen
ah tarÄ±
ĠtanÄ± dÄ±k
G EB
iyor sun
Ġk alarak
1 50
ĠN ar
Ġkork usu
adok ya
ĠiÃ§ ki
ĠÄ°k ili
Ġhar man
L is
Ġduy uyor
Ġkurul umu
ĠaÃ§Ä±klam alarÄ±
ley ebilir
Ġrahat Ã§a
ĠÃ¶ner irim
em emiÅŁ
Ġyak Ä±ÅŁÄ±klÄ±
ĠS IN
K urt
Ġkaynak lardan
?? ?
Â §
Ġgarant ili
Ġirti bat
Ġuygulan abilir
Ġn elere
ĠKal em
Ġolan a
ĠZ el
Ġhav aya
Ġoyn amaya
ĠiÅŁlev sel
ĠD ah
Pol is
Ã¼nÃ¼z de
T U
k Ä±rÄ±m
ĠdÃ¼ÅŁ manÄ±
Ġyenil eme
im deki
ol la
ĠYan lÄ±ÅŁ
ĠTÃľ BÄ°TAK
ĠBÄ°L Ä°M
ĠpaylaÅŁ an
is por
Ġedilm esine
Ġtut tu
esi h
Ġkur arak
ĠAr ke
y etler
ÃľLT ÃľR
Ġdiy enler
ĠIn ternational
ik ar
f li
Ġp ank
H D
f urt
Ġyar Ä±da
ad is
ĠKullan Ä±mÄ±
EM E
ĠbaÅŁlay abilirsiniz
ĠKim se
ĠkoÅŁul lar
Ã½ r
Ġtesis leri
ÃĸÄŁr etmen
T at
ĠTes lim
l ekli
ĠHaz ine
ĠyaÅŁ larda
Ġkal e
Ġindir ebilirsiniz
Tab ii
Ġbelir tir
Ġbul maya
v ay
Ġgel meden
Ġilgilen en
Ġtak tik
Ġot ele
ĠOf fice
ĠsÄ±r alan
eh an
ĠgÃ¼Ã§ lÃ¼k
Y S
Ġp ot
T abi
Ã§ ocuk
Z eytin
Ġhikay esini
ĠbakÄ±m lÄ±
ĠbÃ¼r Ã¼n
ĠDE AÅŀ
Ġend eksi
Ġihtim alle
Ġs eg
if er
Ġsap tan
Ġc eket
ĠbaÅŁlay Ä±n
ĠG etir
lam adan
ĠH uzur
Ġbak Ä±p
ĠPaylaÅŁ Ä±m
ĠaÅŁ Ä±
Ġbitir di
Ġcep he
ĠP endik
ĠgÃ¶r kem
UR U
Or gan
Ġfilm ini
Ġduy mak
Ġmesaj larÄ±
ĠÃ§iz en
ĠÄ°dar e
Ġ Ã¼ÅŁ
ĠsaÄŁ lÄ±ÄŁÄ±na
ot t
ĠTUR Ä°ZM
K ut
V ol
ĠVer gisi
ĠgeleceÄŁ in
ir siniz
ĠÃĸnc esi
ĠMaÄŁ az
Ġters i
Ġproj elerin
du y
Ġkol u
Ġgelen ler
Ġiz liyor
T B
ed an
Ġbek lediÄŁi
Ġisteyen lere
w are
ĠdÃ¼ÅŁtÃ¼ ÄŁ
ĠYar alÄ±
Ġ8 3
ĠsaÄŁlan Ä±r
Ġ19 50
Ġfikir ler
Ġsorumlu dur
ĠT ef
Ġm Ä±sÄ±n
tr af
ĠyÃ¼rÃ¼t Ã¼l
Ġyazar Ä±n
Ġc ahil
ĠR am
eÄŁ inize
Ġver miÅŁti
ĠKim dir
ĠkuÅŁ kusuz
Ġtem enni
ĠA masya
END Ä°R
ĠA mazon
ĠulaÅŁ mÄ±ÅŁ
maz lar
ĠMev lÃ¼t
ak s
Ġyap Ä±da
Ġterc Ã¼me
Ġfizik i
ĠyaÅŁ Ä±nÄ±
Ġp oÅŁ
ĠÃĸz lem
ĠSon u
ĠbaÅŁ saÄŁlÄ±ÄŁÄ±
ĠÄ°n c
\\ '
Ġh uy
ĠMis afir
Ã¼ h
ĠB re
ĠGec esi
ĠÃľÃ§ Ã¼ncÃ¼
ĠOk uma
R AK
ĠU laÅŁtÄ±rma
ĠÃ¶rgÃ¼t leri
os na
Ä° d
yan us
Ġteb liÄŁ
Ġiz lerken
ĠK OM
Ġ4 50
Ġhayvan larÄ±n
ĠN obel
edd Ã¼t
Ġsav unan
m Ä±yoruz
avv uf
Ġ; )
ĠV ah
KÄ± brÄ±s
Ġey lÃ¼l
Ġyapar Ä±m
Ä° m
tÄ±ÄŁ Ä±na
Ġekran da
Ġpersonel in
ĠY AT
Ãĸ yle
ĠÃ¶nlem ler
ĠtaÅŁ Ä±t
ĠAn laÅŁ
iz ler
Ã» m
ĠÃ¼retim inde
ĠdÃ¼ÅŁtÃ¼ ÄŁÃ¼
Ġetk iliyor
ĠhazÄ±r lamÄ±ÅŁ
Ġuzak ta
g iniz
ĠPort alÄ±
Ġiddi asÄ±yla
ĠvÃ¼c uda
Ġin stagram
En gel
an mÄ±ÅŁ
iler imiz
ĠacÄ±m asÄ±z
Man isa
Or du
ak Ã¢r
ĠT Ã¶reni
ĠZ AMAN
ĠhoÅŁ gÃ¶r
Ġfelsef e
ĠS i
ĠbaÅŁkan lÄ±ÄŁÄ±
ĠpÃ¼r Ã¼z
sc he
ĠNil Ã¼fer
n ed
aliz asyon
ĠYorum lar
n eti
Ġeh liyet
ĠteÅŁ eb
Ġfiyat larÄ±nÄ±
m adde
tÄ± p
V ar
Ġyas aÄŁÄ±
Ġhus usunda
Ġdin lenme
Ġgec ede
Ġtak tir
ĠdeyiÅŁ le
ĠMik ro
Ġal Ã¼minyum
AL L
Y aÄŁ
Ġc om
ĠyarÄ±ÅŁ masÄ±
ĠsÄ±nÄ±f ta
Ġhat alar
R enk
ĠKur tar
Ġsorum lusu
op a
DOÄŀ AN
av at
Ä°l Ã§
Ġseyir ci
r usu
Ġantren Ã¶r
et tepe
Ġbal on
Ġn orm
Ġhav ayolu
ĠÃ¶ÄŁren ebilirsiniz
Ġduy uyorum
diÄŁ inizde
ĠÅŁirket inin
ĠiÅŁken ce
leÅŁtir mek
ĠAlev i
Ġr ok
ĠiÅŁlem lerinin
ĠT ER
ĠO SB
ĠdÃ¶nem inin
ac Ä±mÄ±z
Ben de
ek in
og rafik
ĠsÃ¶ylen iyor
Ġef endim
ĠdÃ¶v Ã¼ÅŁ
ĠbaÅŁlan gÄ±cÄ±
Ġk adem
â Ħ¢
Ãĩ ocuÄŁ
Ġ8 6
ĠyapÄ± larÄ±
Ġad Ä±nÄ±n
Ġay aÄŁÄ±
lad im
Ä±l acaÄŁÄ±
Ġyaz dÄ±k
ĠbaÅŁvuru lar
il an
D el
isy enler
Ġsal ata
ĠYorum larÄ±
Ġsig ar
Ġetkin liÄŁe
Ġboy n
ĠAngel es
Ġfir masÄ±nÄ±n
uv al
Ġkarbon hidrat
Ġpar alar
S tar
Ġkat led
ĠsaldÄ±r Ä±ya
ĠAt illa
ĠUygulam alarÄ±
ĠV iyana
k adir
Ġkorum aya
ĠÃ¶ÄŁr enin
ĠMac aristan
Ġkol larÄ±
Ġkur muÅŁ
ĠL Ã¼bnan
ĠBil ecik
ĠBur asÄ±
hay Ä±r
ĠKam era
Ġadres e
iz le
Ġj andarma
M AR
Ġtesis at
ĠD Ã¶v
Ġsad akat
ons olos
M art
or uk
Ġkor id
Ġgr ev
ĠsonuÃ§ larÄ±na
ĠT ech
Ġol sam
Ġbelir lenmiÅŁ
Ġalan lara
Ġdil de
Ġ9 7
ĠiÃ§erik li
E ge
ĠMart in
alat a
Z iyaret
ĠyansÄ± tan
op ol
Ġediyor sunuz
G ar
ia omi
r aÄŁÄ±
uÅŁ ak
ĠsuÃ§ undan
ĠEr g
ĠSan Ä±rÄ±m
Ġkeyif le
Ġgelir i
Ġsefer ber
ĠgÃ¶nder mek
Ġrenk te
T rump
Ġmu af
ĠBilim sel
rah man
M P
abilm eleri
ĠÅŁ amp
ĠðŁ Ĵ
Ġn eyin
ĠkullanÄ±cÄ± larÄ±na
ĠyayÄ±n lanacak
S AM
ĠÃĩ iÄŁ
ĠSon raki
Ġev inin
ĠsaldÄ±r Ä±da
Ġak an
Ġyay Ä±na
Ġpan ik
ĠK ES
day ken
ĠYÃľK SEK
ĠbaÄŁÄ±m sÄ±zlÄ±k
ĠKend ini
ing s
ĠÃ¼rÃ¼n lere
ĠvatandaÅŁ Ä±n
Ġs iber
Ġat Ä±p
ĠsÃ¶yl ediler
Ġkullan dÄ±ÄŁÄ±mÄ±z
Ġkazan Ä±yor
b l
Ġdel eg
ĠAY DIN
G eri
ĠTelefon u
Ġteor ik
K O
dir ler
ĠolasÄ±l Ä±k
ĠAk soy
Ev de
Ġplan lÄ±yor
ĠSel ahattin
ĠdeÄŁerlendir en
ĠOkul larÄ±
Ġdur ul
c c
Ġ9 3
Ġail elerin
M ec
AY I
Ġs irk
ĠOn dan
ĠB AH
ĠDiz isi
Ä°Y Ä°
Ġpar m
ĠÅŁ i
Ġiz ledi
ĠkayÄ±t larÄ±
Ġ7 50
DeÄŁ erli
Ġziyaret te
maz lÄ±k
ĠC han
ĠW h
Ġbur ayÄ±
G EL
ĠK Ã¢
Ġf aal
Ġsam imiyet
dÄ±ÄŁ Ä±n
ĠgiriÅŁim ci
Ġoku duÄŁum
ĠsÃ¶y le
ĠmÃ¼ÅŁter ilerin
ĠH P
ĠÅŁÃ¼ph el
ĠgÃ¶rÃ¼ÅŁ Ã¼
Ġbur Ã§
ĠK OL
Ġkategor i
ok u
ĠTuz la
ĠF re
ĠFir mamÄ±z
ĠM I
V al
ĠT ec
Ġede mey
Ġsit eyi
Ġann enin
B atÄ±
st at
ĠaÃ§ mÄ±ÅŁ
ĠmÃ¼n aseb
ĠiÅŁ yeri
Ġotomobil in
mÄ±z Ä±lÄ±
BaÅŁk a
ĠÃ§ikol at
Ġbil emiyorum
ĠtasarÄ±m lar
ek lik
Ä±n Ã§
klar eli
ĠKral lÄ±k
ĠY EN
ĠÃ§ocuk larÄ±na
ĠAfyon karahisar
em iyoruz
Ġlider lik
Ġsin dir
sa at
Ġneden lerle
ĠGe orge
Ġ8 7
ĠÃ§alÄ±ÅŁ anÄ±
ĠAlb Ã¼m
ĠMer ak
Ġm av
Tem el
Ġeylem i
ĠF l
Ġal ay
ĠM edi
ĠMuh am
IN DAN
Ġsah asÄ±
bil im
G AZ
Ġniyet li
ĠP ower
Ġtelefon da
ĠOyun cak
Ãĩ ift
Ġyolc uluÄŁu
Ġpil av
ĠFilm in
ĠEr oÄŁlu
ĠMer yem
ĠÅŁef kat
Ä°B Ä°
ĠCem iyeti
D ep
ĠB y
ef a
ĠD ERS
Ġkural larÄ±na
9 4
Ġkazan Ä±m
ĠyÃ¼ksek tir
Ġf iÅŁ
ĠAc aba
S ivas
om as
E din
Ġkut ladÄ±
Ġsertif ika
ur lar
Ġkonusu dur
ĠalÄ±n abilir
amay Ä±z
Ġf ragmanÄ±
ĠYÄ±l Ä±n
âĹ ı
Ġoyun unda
S or
Ġuzun luÄŁu
si on
ĠarkadaÅŁ larÄ±mÄ±z
Ġyap mamÄ±z
eyin deki
Ġvar ol
S I
Ġser p
sÄ±n lar
ĠÅŁif a
k om
Ġbulun duklarÄ±
ĠN is
Ġiler leme
ĠgerÃ§ekleÅŁtir dik
EN K
Ġmerkez de
acak larÄ±
Ġsevin dim
Ġtop luluÄŁ
ĠYÃ¼z de
ĠtakÄ±m Ä±nÄ±n
Ġilan larÄ±
Ãĩev re
ĠS OR
av antaj
ĠoluÅŁtur ulmasÄ±
ĠKaÅŁÄ±k Ã§Ä±
Ġrisk li
ĠgÃ¶r Ã¼lecek
ĠDuy uru
ĠgÃ¼ven ce
ĠkarÅŁÄ±l Ä±ÄŁÄ±nÄ±
Ġmark alarÄ±n
us e
liÄŁ imiz
ĠK HK
ĠOrdu su
Ġist iÅŁ
Ġbak Ä±r
Ġyapar lar
abildiÄŁ ince
ĠKUR ULU
Dev amÄ±
ĠgÃ¶z yaÅŁ
Ġsor uyor
Ġkent te
Ġiz ah
ĠMah keme
ĠarÅŁiv lendi
E b
ĠiÅŁ leyen
Ġsanat sal
ĠcoÄŁraf i
ĠD ans
BÃ¶l g
it or
ĠbÄ±rak tÄ±ÄŁÄ±
em ber
Ġat abilirsiniz
M aÃ§
Ġdiyor du
ĠkÄ±r k
un k
ĠtartÄ±ÅŁ malar
Ġhaz iran
ĠS ul
Ġpar amet
Ak Ä±llÄ±
ĠkuÅŁ at
as lan
asyon a
Ġetm eli
Ġrom anÄ±
C ep
ĠDemokr at
Ġkaybet miÅŁ
ĠGiz li
ÅŁ an
Ġul uslar
may e
Ġfinans man
Ġpro sed
ĠÃ¶ÄŁrenciler imiz
Ġver ebilecek
Ġdevrim ci
g Ã¶ren
lan Ä±p
Ġbaz lÄ±
ĠL atin
Ġb asar
Ġdev asa
ĠY AY
Ġiz lemeye
Ġetm emiz
ĠT AM
ĠY AN
Ġolay lara
ĠÅŁarkÄ± larÄ±
Ġgrub unda
ĠyÃ¼kÃ¼m lÃ¼lÃ¼k
ĠUlaÅŁ Ä±m
ĠDigit urk
Ġef ekt
Ġistik amet
ĠdÃ¶nÃ¼ÅŁ Ã¼
ĠaÃ§Ä±k Ã§asÄ±
OS YAL
j uv
O f
ĠaÃ§ Ä±n
ĠgÃ¶ster miÅŁtir
Ġf aÅŁ
ĠSorum lu
ĠmÃ¼lt eci
ĠÅŁif re
F utbol
ĠN a
bah is
Ġot uz
Ġg o
us h
ĠÃĩ ap
ĠbahÃ§ esinde
ĠD IÅŀ
Ġkamu oyu
Ġpazar Ä±nda
P ER
Ġdokun uÅŁ
Ġkarar Ä±n
as tr
Ġbilg ilerine
ladÄ±k larÄ±nÄ±
ĠÃ¶ldÃ¼r Ã¼ldÃ¼
Ad alet
ĠAl tay
Ġolay da
ĠgÃ¼neÅŁ in
Ġsat mak
Ġy etim
Ġbir eyin
diler de
Ġs ubay
ĠHal buki
Ġal arm
ĠeÅŁy alarÄ±
ĠÃ§alÄ±ÅŁma da
ĠparÃ§ alan
H otel
Ġs is
ĠbÄ±rak Ä±r
s s
Ġgrub unun
Ġgerek tiÄŁinde
ĠsÄ±k Ä±ntÄ±lÄ±
ÄŁ Ã¼s
Ġan ma
ĠMÃľ H
ĠÄ°r landa
ĠE UR
ĠBur adaki
ĠArÅŁiv i
ĠbuluÅŁ uyor
ĠM UT
ĠdeÄŁiÅŁik likleri
ĠAs Ä±l
ĠfÄ±rsat lar
k um
ĠTim es
ab al
LAR A
L Ã¼t
lÄ±lÄ±ÄŁ Ä±nÄ±
Ġtamam lanmasÄ±
H izmet
Ġdevam Ä±nda
Ġekib inin
c ev
Ġn isan
ĠHal a
Ġc ildi
ĠGenel de
ĠoluÅŁ u
ĠkazandÄ±r an
Y as
Ä±yor sun
ĠÄ°h ale
iyor dum
? ..
Ġbulun abilir
ĠMÃ¼n ih
Ġann esinin
f eder
Ġg Ã¼b
Ġder se
azÄ± t
Ġproj esinde
F er
Ġyer lerini
ĠKend isine
Ġbahset mek
Ġten is
ir lik
ĠEtkin likleri
y y
s uru
ĠDEM Ä°R
Ġhareket le
Ġol alÄ±m
iy ye
Ġtem alÄ±
oot h
Ġdikkat leri
ĠGal erisi
ven t
Ġhayat larÄ±nÄ±
ĠbaÅŁlan gÄ±c
ĠB AÄŀ
amam asÄ±
ĠYer ler
est el
AS A
Ġayr Ä±lmÄ±ÅŁ
ĠarÅŁiv leri
Ġtamam lanan
Ġiler liyor
F iyat
pr Ã¼
ĠN iÄŁde
S ultan
ĠElb ise
eÃ§ h
Ġtak s
ĠkuruluÅŁ larÄ±nÄ±n
ĠÃĸ calan
ĠCem il
ĠyalÄ± tÄ±m
ĠF r
ary ak
ĠeÄŁlenc eler
Ġm p
ĠÃ¼Ã§ Ã¼n
Ġsaat e
Ġhas ret
ust ur
es an
ĠAÄŁ Ä±z
d Ã¼nÃ¼z
may acaÄŁÄ±
Ġyetk isi
inc eye
ĠG rafik
Tekn oloji
ĠsÄ±r alar
UN DA
ilm i
Ġport fÃ¶y
j ik
ĠC es
ĠbaÅŁk asÄ±
ĠÃ¶n Ã¼nÃ¼
Ġoldug unu
ĠTr end
at ta
pek tif
ĠTEKN OLOJ
ĠgÃ¶ster mesi
ĠE den
ĠKahv altÄ±
Bil in
ĠHakk ari
Ġs iv
Ġin kar
Ġbilgiler inizi
me ga
Ġaz dÄ±r
Ġkoy ul
ĠÃ§ocuk larÄ±nÄ±
Ġham il
ĠMer haba
ĠCih an
ĠmÃ¼t tefik
ini p
re am
ĠbuluÅŁ acak
ĠK orun
Ġc oÅŁ
ayan lar
Ġgiz lilik
p on
KÄ±r mÄ±zÄ±
ĠS abancÄ±
Y abancÄ±
m iz
Ġkol on
Ġil inde
ĠÅŁ erif
Ġgir meye
Ġkon uma
Ġk Ã¶l
Ġpolis in
ĠsÃ¼r gÃ¼n
ĠgÃ¶r Ã¼leb
M ER
Ġiz ledim
Ġtarz da
M IÅŀ
ĠÃ§ar ÅŁ
ĠdÃ¼ÅŁÃ¼nc esi
Ġel indeki
ĠBir imi
Ã¼l ya
ĠÄ° Ã§i
ĠadÄ±m larla
Ġkend ilerinin
ĠG IDA
200 2
ob e
ĠÃ¶zellik lerine
ĠdoÄŁ uÅŁ
ac Ä±lÄ±ÄŁ
Ġy iye
kap Ä±
ĠsÃ¼r Ã¼len
ĠÅŀ ev
od yum
K ir
lek si
Ġver medi
Ġtem muz
n el
iyet le
ĠW il
iÅŁ Ã¶rt
Ġic at
ĠLin ux
ec an
Ġkes me
ĠkullanÄ±c Ä±nÄ±n
AS AR
s Ä±r
Ġay lar
Ġo mur
ĠkoÅŁ u
ĠL u
z im
ĠvÃ¼c udu
Ġel imden
Ġsebep ten
ĠgeÃ§ erken
Bay ram
Ġar ayÄ±p
B ize
Ġgel diler
ĠC afe
Ġkalk Ä±nma
ot ek
ĠF oto
ĠA H
H azÄ±r
Ġmini bÃ¼s
Ġp ansiyon
lay alÄ±m
Ä° h
ĠS ap
Ġbin alar
Ġgol Ã¼
Ġhaft alarda
Ġk Ã¼s
Ġalan larÄ±n
G A
Ġod asÄ±na
Ġtut maya
ĠÃ¼st esinden
am ayÄ±
Ġortak lÄ±k
ĠÃ§Ã¶zÃ¼m e
ĠyanÄ±t ladÄ±
ĠHarek atÄ±
Ġbesin ler
Ġt elif
AC I
c iliÄŁi
ĠL eyla
Ġsev diÄŁiniz
ĠaÃ§ acak
u cak
Ã¼m kÃ¼n
ĠM OD
Ġ9 2
Ġoluyor um
ĠS EN
ĠP ot
Fir mamÄ±z
ĠsaÄŁlam aya
ĠÃ¶nlem leri
ĠÃĩaÄŁ daÅŁ
ĠaralÄ±k sÄ±z
Ġbenz eyen
Ġteknoloj iyi
ĠRad y
Ġt orun
Ġyurt taÅŁ
ĠM EB
ĠL am
Ġincelem elerde
Ġh im
ĠsÃ¼r Ã¼n
L O
ĠkullanÄ±m Ä±nÄ±
ÃĩalÄ±ÅŁ ma
ot or
iy la
ĠfÄ±r tÄ±n
iyor sa
ĠgÃ¶rÃ¼ÅŁ tÃ¼
L AT
Ġders eniz
Ġet menizi
ĠEr dal
Ġanti oksidan
Ġel iyle
k Ä±l
Ġtem a
ĠÃ§evr esindeki
s ch
Ġmak s
Ġak Ä±ÅŁÄ±
Ġkil ogram
os unun
Ġkoy muÅŁ
ag a
el ekt
Ġf rekans
Ġmuhaf az
Ġolabilir ler
oc u
ĠdÃ¼ÅŁÃ¼nc elerini
Ä°N DEN
D Ãľ
ĠhÃ¼kÃ¼m leri
ĠdoÄŁ anÄ±n
ĠYan gÄ±n
ĠV eysel
Ġkal maya
F I
Ġtop lamak
k m
Ġar Ä±yorum
Ġpol isi
D S
Mod ern
ĠAk l
ĠÃĩÄ±k tÄ±
ĠdonanÄ±m lÄ±
eceÄŁ inizi
ĠsarÄ±m sak
abilecek siniz
f in
ĠMillet vekil
ĠT aban
Ġyap malarÄ±
ĠYet kili
Ġtut ulmasÄ±
Ġk aya
ĠN amaz
Ġbulun duÄŁumuz
Ġf eda
Ã¢ d
ĠGen eral
ĠkaÅŁ Ä±k
em edik
ĠTEKN Ä°K
Ġiktid ara
Ġetk ilerini
Ġin kÃ¢r
ĠMesaj Ä±
Ġoyn ayacak
â Ļ
Ã¶ mer
ant el
ĠiÃ§er mektedir
ĠH ur
Ġn ci
ĠAh ÅŁap
Ġg u
Ġhedef imiz
On ur
ĠgÃ¼ndem de
ĠBaÅŁ ta
Ġtar ama
Ġbelir leyen
ĠR is
Ġekley ip
Ġlan et
H DP
Ġkural lara
ĠgÃ¶r mesi
Ġbirlikt elik
ĠtecrÃ¼b esi
ĠD ÃľZ
lam asÄ±na
ĠK Ä°Åŀ
ĠAn Ä±t
Ġduygu lar
ĠNAS IL
ĠÃ§Ã¶zÃ¼nÃ¼r lÃ¼k
ef endi
ĠyaÄŁ Ä±ÅŁÄ±
Ġbirinc isi
ĠÃ§Ä±kar Ä±ldÄ±
OS GEB
ĠMas ter
ĠHarek eti
ĠZ orlu
Ġkon tenj
ĠkÃ¶ÅŁ esinde
ĠB ektaÅŁ
Ġkem er
ĠUn ited
Ä±m Ä±nÄ±
ĠSa adet
Y alnÄ±z
ĠAy lÄ±k
am m
ĠÃ§arp Ä±ÅŁ
an sta
ĠY iÄŁit
ĠT Ã¶ren
Ġpolitik alarÄ±
ĠÅŁah s
ĠK Ä°R
ĠÃľy eleri
c eler
D ijital
ĠBaÅŁ langÄ±Ã§
ber t
Ġiddi asÄ±
l uyuz
Ġan Ä±t
V AN
ĠAb dur
ĠaydÄ±n lÄ±k
o e
ĠbaÅŁ lÄ±klarÄ±
Ġc ek
ðŁ ı
Ġkud ret
ap top
af Ã¶r
Ġdal Ä±nda
Ġinternet e
ol f
ik ast
Kay nak
P osta
Ġo z
Ġark asÄ±na
Ġalan daki
ðŁ ĩ
Ġgez ilecek
Ġkamuoy una
Ġkurum un
Ġhesab Ä±nÄ±
ĠÅŁarkÄ± lar
Ġkonu ÄŁu
Ä±m la
Ġruh unu
k k
Ġse x
Ã¼ v
ĠkonuÅŁ maya
Ġmad enc
ĠtanÄ±y an
ĠUy sal
gel e
edir gin
Ġb Ä±k
b Ã¶l
Ä°Y ON
ĠkarÅŁÄ±laÅŁ ma
Ġal abilmek
ey l
g s
Ġgib iydi
P ost
emez siniz
ĠÃ¼lk esinde
ĠmÃ¼k ellef
ĠgÃ¶rÃ¼ÅŁ lerini
Ġnok tadan
ĠK OR
Ġhat alÄ±
Ġyaz Ä±yorum
ĠHÃ¼kÃ¼m eti
Ġtalep lerini
ĠS Ã¼m
Ġli gin
aÄŁ Ä±mÄ±z
ĠÄ±s lak
Ġal man
Ġan droid
Ġter eddÃ¼t
K AD
Ä±l malÄ±
ilm eyen
Ġdakik alar
Ġbirbir leriyle
Ġfas ul
Ġedilir ken
Ġyiyecek ler
Ul usal
ĠGiz lilik
las Ä±n
Ġat maya
ĠSon bahar
Ġtelefon larÄ±
Ġtehlik eye
Ġin ter
ĠgÃ¶revl ileri
GÃ¼n lÃ¼k
s Ä±nÄ±f
Ġyay Ä±lan
oz a
Ġkal eci
Ġfed akar
Yer el
Ġ up
Ġmah rum
ĠD ini
En erji
Ġuy ruklu
ĠV ik
orn ova
EK T
Ġdil le
l Ã¶r
ĠÄ°Z M
ĠG ran
ĠHar ika
Ġn isp
z Ä±
ĠdeÄŁerlendir di
? '
ĠM ED
Ġ3 000
Ġtekrar dan
ĠGER EK
ĠHav uz
& #
Ġr uj
Ġesk isi
ĠOL SUN
Ġdes tan
Herkes e
ĠHal ep
Ġb unda
ĠÅŁ ak
Ä°l Ã§e
END Ä°S
ĠgÃ¶m lek
ĠMad en
ĠT Ä±bbi
Uz man
Ġay Ä±ndan
h el
leri dir
at aÅŁ
ĠÃ¼z Ã¼ntÃ¼
â ĺ
ĠgÃ¼lÃ¼m s
R ek
isi on
Ġsay Ä±sÄ±na
? )
ĠKul ak
Ġyarat Ä±yor
Ġbilg inin
ĠdÃ¼ÅŁÃ¼n me
li e
ĠgeÃ§miÅŁ e
Ġedil ip
Ġgit mesi
ĠDV D
is ta
Kr edi
s Ã¼r
Ġsin dirim
ĠGol d
leriniz le
ĠD iv
ĠH AT
ĠdaÄŁ Ä±n
ĠEÄŁlen ce
Ġ198 9
ĠgÃ¶rm edim
ĠF ant
eg o
ĠyatÄ±r Ä±mÄ±
ĠBur dur
Ġin di
asÄ± ya
ĠT ru
ĠMES LEK
Ġkab uk
mamÄ±ÅŁ tÄ±
ĠRabb im
ĠS EÃĩ
ĠdeÄŁerlendir ilmesi
ĠAk tif
ĠAd li
ĠÅŁah ane
ĠKaz akistan
ĠPol itika
Ġhareket ler
Ġbah Ã§esi
Ġgir dim
ĠL ojistik
B log
Ġyapabilir im
Ġsev gisi
Ġsistem lerinin
Ġf oto
Ġyitir di
eb ap
ĠR ES
Ġiht il
ĠyapÄ±l Ä±rken
Ġproblem ler
ĠbÃ¶lg eyi
ĠEd ilen
Ġhast alarda
ok ak
Ġisten meyen
Ä± cak
ok sit
ĠdÃ¶nem lerinde
ĠyÃ¶n Ã¼ndeki
ĠkiÅŁiler de
Ġbil diÄŁim
Ġmet aboliz
evi ous
B et
ebiliyor sunuz
aÃ§ lÄ±
ĠÃ¶nem e
Ġdosy asÄ±
S avaÅŁ
Ġduygu larÄ±nÄ±
T un
ĠS esi
ĠE F
po ol
Ġkazan acak
Ġmod Ã¼l
Ġgez dir
may acaÄŁÄ±z
ĠÃ§alÄ±ÅŁan larÄ±nÄ±n
ĠR isk
ust ik
Ġolmak tÄ±r
Ġp encere
ĠyetiÅŁ en
ĠgeliÅŁim ini
Ġaz Ä±n
ĠBaÅŁk ent
das Ä±nÄ±z
maz sa
Ã¼n t
Ġ4 44
ĠB araj
Ġcil de
ul um
san e
Ġifad eler
Ġb Ã¼f
Top lam
Ġoluyor du
ĠBaÄŁÄ±m sÄ±z
ĠTamam en
Ġfin ale
ĠGÃ¼n Ã¼n
Ġziyaret inde
âĢ İ
ĠF Ä°YAT
Ġkazan arak
ut a
ĠMod eli
Ġtan r
ĠbaÄŁÄ±m lÄ±lÄ±k
Ġciv arÄ±
iy en
p ati
Ġor adaki
Ġar adÄ±ÄŁÄ±nÄ±z
y eÅŁil
ĠdÃ¼ÅŁ mesi
Ġl ak
Ġav uÃ§
ĠK op
unu cu
ĠBak alÄ±m
Ġkart larÄ±
ĠMak ina
ĠkÄ±ÅŁ Ä±n
Ġbir e
Ġmut luyum
Ġmesaf esinde
ĠulaÅŁ masÄ±
T BMM
ĠKam er
Ġnot u
ĠfÄ±r Ä±nda
ĠM Ã¼r
ĠSar Ä±k
ĠHerkes e
ĠK oy
Ġtelefon dan
at ch
Ġoyunc uluk
Ġdurum unun
ĠKÄ±r ÅŁehir
M avi
ĠF lash
ĠÅŁÃ¼k ran
ĠEÅŁ ya
ĠK IR
crip t
Ġbirbir lerini
ĠdÃ¼ny adan
Ġhayvan larÄ±
Ġbulun muÅŁtur
Ġkaz ada
ĠB eyin
Ġetm esine
R AF
Ġ aman
Ġk in
lar Ä±ma
enek on
Ġilah i
d om
AN T
Ġdol aylÄ±
Ġver ilere
ĠSaat i
ĠT OKÄ°
ĠÃ¶mÃ¼r lÃ¼
Ġmahkem eye
Ġ19 20
Ġnih ai
ĠsaÄŁ a
Ġuzun luÄŁunda
Ġt onu
B S
ĠPar Ã§
duÄŁ una
Ġrehber lik
Ġpart isinin
Ġuyar Ä±sÄ±
ĠÃ§ev resel
Ġkur maya
ĠgÃ¶ster in
ĠA lem
ĠT art
ĠM eÅŁ
C H
ed it
ĠdÃ¼ÅŁ kÃ¼n
asyon un
ĠÃ§ek iliÅŁ
ic ilerin
Ġmo du
OK ULU
ĠFik ir
S istem
Ġkon ulan
U V
ĠM um
Ġsorun unu
GÃ¼n cel
ster dam
Ġver eceÄŁim
y s
E mek
ib r
z ersiz
D ers
ĠÃ§arp tÄ±
oc i
Ġust asÄ±
âĢĶ âĢĶ
Ä±ÄŁ Ä±m
Ġdiz isinde
ĠDEÄŀ Ä°L
Sar ay
Ġum ur
ay ir
ĠSah ibi
eyz aj
Ġders in
Ġr ock
lem esine
ĠSig ara
ĠEn ver
Ġbul abilir
Ġazal tÄ±r
Â ł
ras ya
ĠdÃ¶n mesi
Ġbeklen medik
len mek
Ġpeyn iri
ĠSÃ¶z leÅŁ
Ġmadde sine
ĠProgram larÄ±
ĠDeÄŁ iÅŁtir
Ġsonsuz a
Ġhizmet lerinin
ark adaÅŁ
ĠRes imleri
ĠAraÅŁtÄ±r malarÄ±
Ã¼y dÃ¼
AÄŀ I
Ġsorun larÄ±na
Ġhip er
Ġam bar
ĠZ ih
ĠbÄ±rak Ä±ldÄ±
II I
ĠAtÃ¶ly esi
ĠarÄ±yor sanÄ±z
ĠAlt un
iyet te
Ġhedef e
ĠdÃ¼ÅŁÃ¼nÃ¼yor sanÄ±z
ĠgeliÅŁim ine
Ġnit eliÄŁi
Ġak s
Ġrek ab
Ġdikkat le
ĠiliÅŁk ilerini
K ork
Ġdevlet e
ĠStu di
ĠP TT
Ġlist esini
ĠP lat
p le
dan oz
Ġhaft aya
ĠkÄ±z Ä±l
Ġkonu lardan
ĠÃ§ek meye
em an
ab at
Ġbilin ci
Ġhedef ler
Ġen g
Ġek lenen
ĠY ET
Ġhat asÄ±
ĠBah Ã§e
ec ilerin
ust os
ĠOYUN LAR
d asÄ±
ĠtÃ¼n el
ĠMek an
Ġkadro suna
Ġ02 12
w agen
an ce
k iye
ĠgeliÅŁtir meye
p ara
bey li
ĠO kan
ĠBr Ã¼ksel
ĠU SD
ĠÃ¼lk edeki
ĠED Ä°YOR
ĠFAK ÃľLT
diÄŁ inden
ĠTab lo
Ġtan Ä±yor
K esin
du c
ĠdoÄŁ muÅŁ
aryak Ä±t
Ġbec eri
g usal
ĠH AF
u de
li c
P as
ĠEb ru
as an
Ġm ayÄ±s
Ġkah verengi
ĠB artÄ±n
Ġver elim
iÅŁ en
ĠyÃ¶netic iler
Ġ lÃ¼
ĠB ang
ĠpeÅŁ inden
ĠsoÄŁ ut
ĠBÃ¼yÃ¼kel Ã§isi
ĠkiÅŁiler den
Ġar ar
ĠHat ice
Ġdiler seniz
unu p
Ġal mam
ĠSt ok
ĠGÃ¶k Ã§
un i
ĠBu da
ĠN iÅŁ
Ġetap ta
ĠyakÄ±n Ä±nda
ĠÃ¶de mek
ĠS ami
ĠsÃ¼r dÃ¼ÄŁÃ¼
ĠbÃ¶lÃ¼m Ã¼nÃ¼n
Ġv aj
ht ml
Ġsefer de
9 1
af fer
Ġbayr aÄŁÄ±
Ġgerek ebilir
ĠV izyon
Ġsandal ye
s n
t iÅŁ
Ġtemin at
var yum
ĠgeliÅŁtir en
Ġkelim eleri
Ġsab aha
c ilere
Ġb Ã¼lten
ĠÃ¼lk elerine
ĠET TÄ°
Ġden edim
Ġbun larla
h ol
ĠH ouse
ĠyÃ¶n Ã¼yle
in ess
I CI
p an
Ġkullan dÄ±ÄŁÄ±nÄ±z
Ġr amazan
ĠKon yaspor
ĠDoktor a
ĠseÃ§ erek
Ġdosy alar
li d
ĠTÄ±k layÄ±nÄ±z
ĠT IR
ĠyaÅŁ a
G Ã¼nde
ĠkullanÄ±cÄ± larÄ±nÄ±n
Ġbir inden
Ġtah mini
ĠLÄ°M Ä°T
Ġvide oyu
ĠKans er
Ãĩ ek
ĠHas tal
Ġr est
ep siyon
ĠBÄ°L GÄ°
asyon lar
ĠiÅŁÃ§ ilerin
G az
Ġkurul duÄŁu
Ġgal er
Ġedebil eceÄŁiniz
il le
Ġmadd elerin
S ON
ĠulaÅŁ abilir
ĠmÃ¼cadel enin
Z aten
leÅŁ ti
ti dar
C on
ĠtanÄ±ÅŁ ma
ĠyÃ¼kÃ¼m lÃ¼
n n
ĠNum arasÄ±
ĠTeknoloj isi
Ġcez asÄ±na
Ġsayf asÄ±na
ĠDeÄŁ iÅŁim
ĠyapÄ±l masÄ±na
Ġev inizde
ĠyaklaÅŁ Ä±mÄ±
ĠErmen istan
Dik kat
ĠÃ¶ÄŁrenc iye
ĠmÃ¼sa it
Edin ilen
Ġ- -
Ġmon te
ĠolmadÄ±ÄŁ Ä±ndan
al in
ĠO ran
Ġsol a
ĠH is
ĠayÄ±r an
ĠPolitik alar
esi gn
Ġver ilebilir
ĠkÃ¼ltÃ¼r Ã¼nÃ¼
ĠPeygamber imiz
Ġek sen
Ġbask Ä±sÄ±
Ġdin leme
y alarÄ±
Ġedilm ek
Ġboy ama
andÄ±r ma
Ġf al
Ar t
1 20
Ġayr Ä±lÄ±r
ĠRes taurant
ost al
ĠkÄ±s alt
ĠDers i
t atÃ¶r
Ġtut ulan
Ġkum ar
ĠKoc aman
Ġap tal
Ġkarar Ä±nÄ±n
ĠÅŀÃ¼k rÃ¼
ĠS ÃĸZ
ĠanlaÅŁ maya
est ezi
ĠyakÄ±n larÄ±na
en Ã§
ĠR efer
Ġkuy ruk
Ġdo main
koÅŁ a
il ince
Ġcal is
O F
ĠR ey
ĠÄ°z zet
Ġetkil eÅŁim
dÃ¼r Ã¼lebilir
ĠEr gen
ĠBor sa
ĠbeÅŁ inci
ĠgÄ±d alar
Ġtaraf Ä±na
ĠgÃ¼zel likleri
Ġbir iydi
fli x
ĠdÃ¼ÅŁÃ¼ndÃ¼ÄŁ Ã¼m
Ġoran Ä±nÄ±
Yunan istan
Ġkonu larÄ±n
ĠÃ¶dÃ¼l lÃ¼
Ġb inden
Ġhar Ã§
Ġreng ini
Ġkap anÄ±ÅŁ
Ġun suru
ĠsaÄŁlam Ä±ÅŁ
Ġbelir ley
Ġmateryal ler
ĠReh abilitasyon
Ä°L EN
Ġpaz artesi
Ġaral Ä±ÄŁÄ±nda
YÄ±l dÄ±z
Ġt edirgin
s ol
ĠÅŀ Ã¶yle
ĠÃ§am ur
eli ÄŁini
Ġkalk Ä±p
id im
Ġel lerinde
Ġgelin lik
ĠÅŀ ekil
g Ä±z
ost Ã¼m
Ġpolis e
ĠHat Ä±r
ĠHal uk
n ez
Ġtop ladÄ±
ĠTab let
ĠyaygÄ±n laÅŁ
ĠU sul
Ġpro v
Ġac ele
Elekt ronik
ĠKuÅŁ adasÄ±
ĠR ich
and o
d r
ĠgÃ¶rev den
Ġis min
ĠÃ§Ä±karÄ± p
ĠG Ãĸ
Ġtes ekkur
ĠdÃ¼ÅŁÃ¼n dÃ¼r
Ġort ama
ĠÃ¶lÃ¼m Ã¼ne
g Ã¼cÃ¼
ĠÃ§ap lÄ±
Ġc o
ic an
ord s
Ġalak asÄ±
ĠbaÅŁ Ä±ma
Ġot or
Ä±l dÄ±r
ĠkÄ±sÄ±t lÄ±
ĠKÃ¼ltÃ¼r Ã¼
Ġs pr
Ġyat ay
ĠSer gi
ĠgerÃ§ek leri
6 00
ĠoluÅŁtur du
ĠyaklaÅŁ an
Ġamac Ä±mÄ±z
ĠK ep
Ġdiyor sanÄ±z
Ġkabil iyet
ĠgÃ¶rÃ¼n Ã¼me
ĠBiz de
ĠSek s
ĠdÃ¼zen ley
e a
ĠÃ§iz im
ks wagen
Ġj ener
ĠDir ektÃ¶r
ĠÃ§alÄ±ÅŁmalar Ä±mÄ±z
ĠYap Ä±ldÄ±
Ġsor usunu
has sa
Ġyap mÄ±yor
ĠgeÃ§ir miÅŁ
â Ĥ
lÃ¼ÄŁ Ã¼n
ie w
ĠD ip
Ä±l aÅŁtÄ±r
ĠK edi
ET LER
ĠF ragman
Ġmer mer
ĠgÃ¶rÃ¼ÅŁ meleri
Ġas lan
ĠSov yet
Ġhay ret
ĠmÃ¼cadel eyi
K emal
Ġses le
Ġtr ilyon
ĠyoÄŁun luÄŁu
Ġsek ilde
M Ä°Åŀ
ĠE Åŀ
ĠdÃ¼zen lemek
ĠAmaÃ§ lÄ±
n en
ĠM im
ĠAk taÅŁ
ĠgÃ¶rkem li
P A
ĠEski den
ĠeriÅŁ imi
ĠbÃ¶yl esine
Ġser vet
D B
ĠR oy
Ġgiy dir
Ġkal mayacak
Ġdekor atif
ĠgÃ¼n delik
ĠB EK
ĠOd alar
ĠMal zeme
if or
Ġanlam sÄ±z
Ġgel se
ĠF o
k esi
P ort
Ġsan iyede
ĠYargÄ± tay
p eria
ĠfÄ±r lat
Ġaf et
gel diniz
ĠSa int
ĠK azÄ±m
ĠHaber leÅŁme
ĠKes kin
acak sÄ±n
ĠHav aalanÄ±
ĠyetiÅŁtir mek
ĠyÃ¶ntem lerle
Ġgeliyor du
eyt ing
ĠDub ai
ĠyaÅŁ adÄ±ÄŁÄ±nÄ±
ĠÄ°n eg
ĠKaz a
Ġgit me
ĠBak Ä±ÅŁ
Ġtamam lamak
Ġday at
ĠBe ach
ĠK ÃľLTÃľR
ĠT ro
Ġalan larÄ±na
Ġkap tÄ±r
ĠhastalÄ±k larÄ±n
Ã¢ ye
Ġh ibe
Ġdost um
ĠTOP LAN
Dem okr
ekt eyiz
sin ler
Ġyapabilir iz
ĠÃ¶ bÃ¼r
ĠAc ar
c Ä±ya
ks Ã¼r
Ġkomp oz
c ess
ĠÄ±sÄ±t ma
ĠkarÅŁÄ±l ayacak
Ġbul acaksÄ±nÄ±z
ĠkullanÄ±l dÄ±
Ġk asÄ±
ĠE ce
Ġd usun
am alar
Ġnaz ik
Ġmed yanÄ±n
ĠOkum aya
Ġham le
ĠL ife
Ġ2 20
ĠamaÃ§ layan
eÅŁ ehir
oz of
ĠÄ°neg Ã¶l
LÃ¼t fen
Ä±r sanÄ±z
yÄ±l dÄ±z
ĠgeÃ§ miÅŁtir
ĠGÃ¼n dÃ¼z
Ġanti biyotik
Ġkap tan
et ooth
ĠHazÄ±r lÄ±k
C ar
ĠF ev
ĠaralÄ±k larla
ĠÃ¼n cÃ¼
Ġekib in
P an
p i
Ġay Ä±p
ĠB eh
ĠpiÅŁ irin
ĠÃĩÄ±k ar
Ġbil diÄŁiniz
ĠmÃ¼cadel eye
ĠeÄŁitim ine
Ġpar aya
Ġcil din
ĠhazÄ±rlan mÄ±ÅŁtÄ±r
ĠN azÄ±m
ON OM
Ġyap mÄ±ÅŁtÄ±
Ġneden se
Ġseviy esini
ĠÃ§Ä±kar Ä±lmasÄ±
ĠgÃ¶nder me
ĠÃ§evr esine
Ġettir en
HiÃ§ bir
ĠKap lan
r un
G ece
Ġmilyon dan
dÄ±k Ã§a
ĠMak edonya
ĠM id
ĠsaÄŁlan maktadÄ±r
Ġkons ol
ĠAvrup alÄ±
Ġel veriÅŁ
ĠmÃ¼l akat
AB Ä°LÄ°R
EM Ä°
Ã¼r ek
I ST
ĠDan imarka
Ġk lim
Ġzengin lik
ĠAk siyon
ĠgÃ¼c Ã¼nÃ¼n
ĠS OK
ĠI V
ĠgÃ¶nder en
ĠÃĩiz gi
Ġgec eler
ist lerin
Ġot eli
Ġarm aÄŁan
ĠbaÅŁar Ä±yÄ±
Hat ay
x x
ĠBaÅŁkan lÄ±k
Ġsor ulan
Ġ24 0
ĠKar arÄ±
ĠK Ä°T
Ġsab un
Ġbeklent ileri
Ġyar al
aman Ä±zÄ±
Ġmilletvekil leri
ĠÄ°ÅŁ in
Ġdiz ide
Ġrezerv asyonu
Ġpart ilerin
ĠyaÅŁadÄ±k larÄ±nÄ±
in ter
ĠB Ä°Z
K eÅŁ
ĠTar sus
anÄ±z Ä±n
Ġgir miÅŁtir
ĠmÃ¼t ev
Ġsim gesi
ĠC d
land iya
M Ä±sÄ±r
Ġvah ÅŁi
ĠDuy gu
ĠkarÅŁÄ± t
B oy
Ad am
Ġist in
ser ispor
ro jen
ĠyÄ±ldÃ¶n Ã¼mÃ¼
ĠT Ã¼n
ĠÅŀ Ä±rnak
am Ä±yoruz
Ġfilm e
ĠKer em
Ġkutl uyorum
ĠOtel leri
ĠF ur
Ġtut arÄ±
p ir
Ġz Ä±rh
Ġel lerinden
Ġdur du
Ġmillet imizin
Ar ap
Ġyel ken
ĠB AL
ĠBey likdÃ¼zÃ¼
ĠAr asÄ±nda
ĠKol tuk
ĠÃ§Ä±k mÄ±ÅŁtÄ±
Ġister dim
ĠW est
tÄ±ÄŁ Ä±n
ĠfÄ±rsat ta
ĠT ÃľM
Ġat let
Ġmerkez inin
y ah
ĠAn tren
ĠLÄ°MÄ°T ED
Ġkor san
Ġucuz a
KiÅŁ isel
El bette
Ġt aÃ§
ĠÅŁun lardÄ±r
ĠÃ§ab al
Ġâ ľ
Her hangi
BalÄ±k esir
ĠOR T
Ġyaz Ä±sÄ±nda
T asar
ov ic
uv ara
Ar aÃ§
ĠTurnuv asÄ±
Ġyet eri
ĠH en
Ġekip lerinin
M on
ĠFAKÃľLT ESÄ°
Ġz anlÄ±
ĠsÃ¶yley eyim
Ġkut up
ĠX box
Ġdam ga
ĠÄ°N SAN
Ġde z
ĠP OL
c eye
d ullah
ĠÃ¶ner isi
ĠEngel li
Ġgid iyorum
ĠiÅŁ lere
de ce
ĠAb bas
ĠyÃ¶r esel
N O
R U
Ġla v
ĠKork maz
Ġist asyonu
ĠÄ°t tifak
m uh
ĠÃľ mraniye
Ġtar ayÄ±
b Ã¼yÃ¼k
ĠDeÄŁ erli
ĠM ul
ĠÅŀÃ¼ph esiz
Ġol abildiÄŁince
Ġid rak
iz z
Ġb roÅŁ
ĠS end
Ġkarar laÅŁtÄ±r
Ġc ari
il dikten
K uÅŁ
j et
ĠS us
Ġekran larÄ±nda
V C
asyon larÄ±
Ġt Ã¼c
Ġkuzey inde
R abb
ĠC M
ĠD Ä±ÅŁÄ±
Ġhedef liyoruz
ðŁ Į
H Ã¼kÃ¼m
ĠÃ¶ d
ĠÃ¼y eliÄŁi
Ġfirmalar a
ĠUnivers ity
ĠC oÄŁraf
n az
ĠBÃ¶lg esel
Ġmek anÄ±
ĠyakÄ±ÅŁ Ä±r
lam asÄ±nÄ±
ĠTah min
ĠOY NA
len meye
ĠyapÄ±l acaÄŁÄ±nÄ±
ĠAT ATÃľRK
ak ip
Ã¼l in
Ġharc ama
Ġyap abiliyor
ĠiÅŁlem lerin
ĠpÄ±r Ä±l
Ġo v
ĠÄ°z in
Ġcidd iye
ĠS AAT
L ADI
ĠsÄ± c
ĠgÃ¶rmez den
g it
Ġyol larla
ĠseÃ§ me
Ġsu lar
Ġrej imi
f o
uy un
ĠgeliÅŁ mekte
Ġkolay lÄ±ÄŁÄ±
ĠL av
Ġev lerine
Ġgetir miÅŁtir
Ġdik iÅŁ
ĠK AB
ĠS K
Ġ ur
Ġdem iÅŁtir
Ù Ħ
Ġay akkab
ĠalÄ±n Ä±yor
ĠkuruluÅŁ larÄ±n
iÃ§ e
ĠLib ya
Ġkur siy
Ġaf fet
ĠYen ilik
ĠTol ga
s o
1 000
V Ã¼c
ĠiÅŁ inize
as u
ĠgÃ¶rÃ¼ntÃ¼l eme
Un ut
Ġbal Ä±ÄŁÄ±
y azar
Ġsor uldu
ĠmutluluÄŁ unu
Ġsal g
D UR
YukarÄ± da
Ġhav alandÄ±r
H edef
if a
liÄŁ indeki
r ey
Ġhaft asÄ±
ĠY ÃĸK
ĠIn ter
Ġpek iÅŁtir
ĠartÄ±ÅŁ la
ĠmÃ¼lk iyet
av uzu
Ġhat un
C RET
ĠFu at
Ġedilm eli
ĠTes ti
Ġsokak larda
r ab
ĠalÄ±n acaktÄ±r
erk ek
N OT
T al
Ġcin s
ĠMerk el
Ġsun arak
Ġed ine
ĠKAR Åŀ
ĠM Ä°T
lendir mek
ĠyÃ¶netim ine
ĠU st
ĠTaÅŁ Ä±ma
S AT
Ġsek ret
ĠÄ°ZM Ä°R
Ġkullan manÄ±z
Ġgetir in
Ġbirbir iyle
an am
ley i
Ġg azÄ±
Ġyer lerinden
Ġar om
Ġoyn arken
Ġel ime
Ġdondur ma
ber al
Ġm Ä±ydÄ±
ĠuÄŁr ayan
ĠÅŀ irin
tÃ¼l Ã¼
ĠM uÅŁ
Ġsaat ten
ĠAlt Ä±nda
ĠalÄ±n tÄ±
ĠSalon unda
Ġel inizde
ĠTaÅŁ Ä±m
Ã§ inin
Ġsayg Ä±lÄ±
Ġh usu
ĠOy na
kin cisi
ĠL uc
ĠProf il
gar enk
ĠB oya
Ã¶ ÄŁ
Ġbin asÄ±nda
Ġmark alarÄ±
Ġyarat Ä±r
Ġhaf Ä±za
ĠMut laka
ĠS tep
ĠgeÃ§ tikten
Ġb Ã¼k
Ä° talya
ram anÄ±
ĠM Ã¼kemmel
ĠbÃ¶lg esinin
ĠbaÅŁvuru da
Åŀ ah
ĠSoru lar
.... ..
Ġolanak larÄ±
ĠdÃ¼ÅŁÃ¼n meye
Ġotel in
Ġmensup larÄ±
Ġhav alimanÄ±
fi eld
Ġzinc iri
ĠeÅŁ im
ĠseÃ§im e
ĠkÄ±l mak
aÄŁ Ä±m
Ġc anÄ±
Ġdil inde
Ġkas Ä±m
AÅŁaÄŁÄ± daki
ak il
Ġyaz Ä±m
Ġyap amaz
al y
Ġberaber e
ĠC enk
En d
ĠCev abÄ±
ĠB ec
Ġbebek ler
Ġgir in
BaÅŁ ar
Ġoy u
ĠÃ§Ä±kar Ä±l
Ġtat ile
ĠT il
ĠÃ¼lk elerinin
ĠÃ§at Ä±sÄ±
Ġdah ili
ĠMer ve
ĠB edava
ĠiÅŁtir ak
Ġsul ama
Ġbas Ä±na
Ġmes leÄŁi
Kas Ä±m
ĠDep rem
ĠÃ¶l Ã¼r
ĠR en
Ġnormal de
Ġkullan dÄ±ÄŁÄ±m
ĠP eter
Ġz irve
B ER
ĠarkadaÅŁ Ä±mÄ±z
ers pektif
Ġeden lerin
ĠâĤ º
ĠS iirt
ĠÄ°z leme
Ġgir meden
Ġuz laÅŁ
ĠNef es
ĠÃ¶z gÃ¼ven
Ġzann ed
ĠtanÄ±t mak
Ä±nday Ä±m
Ġder giler
ĠdavranÄ±ÅŁ larÄ±
Ġmekan da
Ġb o
ĠÅŀ ener
Ġsahip liÄŁinde
t l
lo ud
er g
ĠsanatÃ§ Ä±nÄ±n
Ġs Ä±y
Ġbu tik
Ġkullan acak
ĠHar un
tur e
Ġhayat Ä±mÄ±za
ant Ä±lÄ±
ĠvÃ¼cut ta
Ġgelen e
ĠKul esi
ĠbÃ¼y Ã¼ley
ĠBÃ¼yÃ¼kel Ã§iliÄŁi
elik li
ĠÃĩalÄ±ÅŁ malar
S ana
S IZ
ĠCUM HUR
ĠY ÃľZ
ĠdÃ¼ÅŁÃ¼nÃ¼yor sunuz
Ġas il
ĠEl ma
ob a
Ġyay Ä±nÄ±
ĠKap ak
ĠÅŁart larÄ±na
ĠL o
UM U
ĠMan chester
ĠBAK AN
Ġkap Ä±yÄ±
eh ra
ĠC O
ĠAl ma
K Ã¶y
lar in
ĠbÃ¶lÃ¼m den
ĠAt let
Ġtest leri
ĠkardeÅŁ lik
Ġkapas ite
Ġanlam Ä±nÄ±
Ġgrub una
ĠÃ¼retim ini
Ġbeb eÄŁi
is iniz
ĠVen edik
ĠÃ¼retic ileri
ÄŁ ine
Ġ iri
t ap
ĠtakÄ±m lar
ĠÃ¶ÄŁren meye
tek in
Ġdub laj
Ġihrac atÄ±
ĠÃ¼retim e
out h
Ġalan Ä±nÄ±
Ġinsan lÄ±ÄŁa
f uk
ĠtaÅŁÄ± dÄ±ÄŁÄ±
Ġyapar sanÄ±z
c en
ĠMÃ¼ÅŁ av
ĠEndek si
es ki
ĠMÃľDÃľR LÃľÄŀÃľ
ilmek te
ĠFI FA
Ġor g
Ġsan tim
Ġar amaya
Ġesn ada
ĠAy kut
ĠolasÄ±l Ä±ÄŁÄ±
ĠJe an
Ġh ediyesi
abilm iÅŁ
k inden
in ek
em on
ĠSON U
Ġle hine
l Ä±m
ĠhazÄ±r ladÄ±k
Ġasker ler
ad in
N ef
ĠÄ°l ginÃ§
Ġtut tur
Ġmotiv e
Ġelem ent
Ġverim lilik
ĠÄ°nsan Ä±n
Ġkol esterol
ĠedilmiÅŁ ti
ĠmaÄŁ lub
Ġimzalan an
ilm emiÅŁ
ĠK oyu
Ġkap Ä±da
ĠÅŁans Ä±nÄ±
Ġv illa
iy eri
ĠsÃ¼r esini
ebil iyoruz
v o
k Ä±z
ĠNo el
ĠyÄ±p ran
Ġter mal
Ġkazan maya
ĠM h
Ġsunu c
Ġdez avantaj
ĠM obile
st em
ev her
inde dir
ĠbÃ¶lg eleri
ĠÃĸz al
Ġgit tiÄŁini
h il
ĠfaktÃ¶r ler
K Ã¼rt
Ġdurumda dÄ±r
ĠDEÄŀ ER
ĠKaynak lar
Ġkaybet meden
Ġtamam lamÄ±ÅŁ
Ġpay daÅŁ
ĠD edi
Ġgrup ta
ĠS iv
ac Ä±nÄ±n
ĠMeh med
ĠhÄ±zlÄ± ca
Ak deniz
Ġtem s
Ġal abileceÄŁiniz
Ġpat lat
ĠAnal izi
Ġt ram
ĠÃ¶ÄŁretmen leri
YÄ±l Ä±n
ĠKamp anya
T SK
Ġsak lÄ±dÄ±r
ĠK ez
Ġd amak
ĠÃĩ il
ĠTan er
Ġgazet eciler
ĠkatÄ±lÄ±mcÄ± lara
ĠgerÃ§ek te
ĠgÃ¼r Ã¼ltÃ¼
â ŀ
ĠDetay lar
ĠÃ¼lk emizi
Ä±yorlar dÄ±
ĠÃ¼z gÃ¼n
ik leri
Ar aÅŁtÄ±r
ĠulaÅŁ Ä±labilir
ĠSa id
ĠJo se
ĠBil al
Ġat Ã¶lye
z ade
Yak Ä±n
Ġbak Ä±ma
Ġskan dal
ub a
G rup
Ġmem lek
ĠBen zer
Ġan Ä±sÄ±na
Ġp ud
Ġmez hep
ĠÃ§ alan
ĠR os
ĠÃ¶zellik lerinden
ebilir sin
ĠgeÃ§ir dik
ĠÃ¶ner iriz
ĠHastan e
ĠAd il
idd eti
ĠHÄ±r vat
ans al
Ġbah an
Ġcehenn em
Ġgerek mez
ĠYas in
res im
Ġisim lerden
ĠPROGRAM I
Ġam iral
Ġv il
ĠhazÄ±r ladÄ±
ĠcÃ¼z dan
ĠkullanÄ±m Ä±nÄ±n
ĠdeÄŁiÅŁtir ildi
ĠPlan lama
ÅŁ a
Ġc on
ĠgerÃ§ekleÅŁ mesi
Ã Ĺ
lan masÄ±nÄ±
ĠkullanÄ±l mak
ĠtanÄ±k lÄ±k
ĠG ame
k iÅŁ
Ġyap masÄ±nÄ±
ĠH ersek
ĠZ er
ĠDEN Ä°Z
ĠdeÄŁer lerini
] .
n em
ĠiÃ§in i
Ġprof esÃ¶r
ĠyardÄ±m a
ĠE p
Ġmet ni
Ġhastal Ä±ÄŁa
Ġmilyon a
Ġdav anÄ±n
ĠSel am
Ã¢ f
ul uÅŁ
T ay
ĠkiÅŁiler le
ok al
ĠsÃ¼rdÃ¼r mektedir
Ġkim ya
Ġkadro muz
Ġbecer ileri
ĠÃ¼ret ilmiÅŁtir
ĠÄ°ktis adi
Ġkur utma
ĠH aÅŁ
Ġtaraf sÄ±z
Ġmetr elik
Ġr ul
ĠstÃ¼ dyo
ĠGre en
Ġb is
Q L
Ġsipar iÅŁi
Â ħ
Ã¼n eyt
Ġel imizde
V ak
Ġsem poz
EST EK
ĠI z
Ġdil ini
ĠMil lÃ®
ĠÄ±s Ä±r
macÄ± lar
Ġes rar
ĠK alan
Ġsan iy
Ġproj esini
Ġtemel ini
Ġon ce
ĠHam za
eh enn
lÄ±y dÄ±
iz mir
Ġhukuk u
Ġkarar Ä±na
Ġm ul
ĠÃ§alÄ±ÅŁ masÄ±na
op yr
ĠOsman gazi
oz u
ĠhastalÄ±k lara
Ġb asÄ±
ĠyaÅŁ adÄ±m
Ġb Ä±r
ĠÄ°L GÄ°LÄ°
Ġkoordin asyon
Ġgider mek
ĠkÄ±v am
Ġsembol Ã¼
il eÅŁtir
H Ä±zlÄ±
Ġb end
200 1
Ġkat Ä±na
ĠtakÄ±m da
T ok
ĠÄ°ncel eme
Ġon ayÄ±
Ġdamg asÄ±nÄ±
Ġal alÄ±m
Ġkur gul
ĠiÃ§ecek ler
ĠVer en
Ġev lerinde
ĠbÃ¼yÃ¼k lÃ¼ÄŁÃ¼
ĠYap Ä±lacak
ni a
og lu
Ãĩ ay
ĠÃ¶ncÃ¼lÃ¼ÄŁ Ã¼nde
ĠbaÅŁ lanan
ik asyon
ĠÃ§Ä±k masÄ±na
ĠMerkez leri
Ġmotor lu
ant Ä±sÄ±
Ġortak laÅŁ
edi o
Ġsun umu
T Ã¼r
Ġalan Ä±nÄ±n
ĠoÄŁ ul
Ġk l
Ġkon us
P O
ĠaÃ§ Ä±ÄŁÄ±
M ez
Ġkil ise
ĠkÃ¢ ÄŁ
YÃ¶n etim
ĠLir asÄ±
Ġerkek lere
ĠgÃ¶tÃ¼r dÃ¼
Ġtitiz likle
bo ard
Ġdar al
ĠT anÄ±t
ĠsoÄŁ utma
ĠdÃ¼z eyi
Ġec z
ĠBay kal
Ġhayat Ä±nÄ±zda
dÄ±ÄŁ Ä±nÄ±zda
ĠMU H
Ġkadros unda
b ook
Ġuygulama da
ĠN em
ĠyÃ¼z Ã¼k
Ġuc unda
liliÄŁ in
ĠU R
ĠkullanÄ±l maya
ĠHaf if
ĠH ost
Ġm iy
Ġdiz el
lem eler
ĠBaÅŁbakan lÄ±k
Ġtaktir de
ĠfotoÄŁraf larÄ±nÄ±
Ġiy iydi
V ER
D iÅŁ
H E
Ġumu du
ĠE de
Ġzorunlu dur
S il
Ġyarg Ä±l
ĠL CD
Ġokul larÄ±
Ġdestek liyor
ĠBor sasÄ±
N ormal
Ġokum ayÄ±
Ġokuy abilirsiniz
H ABER
Ġverir ler
Mes aj
ĠSan cak
osh op
Ġ053 2
Ġal acaktÄ±r
ers em
ĠÃľzer inde
Ã¼m Ã¼n
Ġmu dur
Ġhizmet inizde
p ark
ĠKar am
ic le
ĠiÄŁ ne
ĠKoordin asyon
MÃ¼z ik
Ġd uman
ĠiÃ§eri de
Ġon da
ĠD ÃľÅŀ
ĠkiÅŁ iyle
ĠaÃ§Ä±k lay
8 00
ĠaÃ§Ä±klam asÄ±nÄ±
ĠEs ra
Ġz alim
ĠK Ãĸ
Ġolay la
ĠOr al
Ġah laki
EH MET
Ġperformans Ä±nÄ±
Ġmahall esi
Ġbir iyle
sel en
G Ã¼Ã§
ĠR em
ĠKoordin atÃ¶rÃ¼
Has an
ay nÄ±
G M
leÅŁ ik
ilm esiyle
ĠsatÄ±ÅŁ larÄ±
ĠAraÅŁtÄ±r malar
ĠAl ternatif
r arÄ±
ĠÃ¶ tesi
pt om
Ġdav ada
Ġbul abileceÄŁiniz
ĠOd alarÄ±
Ġin ovasyon
ĠÃ§or ap
Ġyenilik ler
ĠbÄ±rak Ä±yor
ĠSAN AT
ĠStratej ik
lan masÄ±na
T witter
Ġsakin leri
Ġhar can
Ġbat arya
Ġan layan
Ey lÃ¼l
emiz den
in an
Ġmillet e
Ġf ol
Ġhav adan
Ġmo tif
p g
ĠP embe
Ġmet od
Ġbur n
Ġt raj
ĠsÃ¶ylemiÅŁ ti
Ġtan Ä±mÄ±
Ġder inden
Ġtav iz
ĠKut sal
ĠfÄ±r tÄ±na
ĠKAD IN
ĠH Ã¼k
ĠÃĩocuk larÄ±n
ĠÃ§ocuk larÄ±mÄ±zÄ±n
Ġiktid arÄ±
ĠSan dal
Ġar aca
ĠolmasÄ± yla
ĠEmek li
iÄŁ in
ĠdÃ¼k k
Ġtey it
Ġk Ã¼tÃ¼phane
ĠM Ä±
sey di
S un
Ġan ki
ĠÃ¼niversit eler
ĠB AR
Ġnazar an
ĠtarÄ±m sal
ĠfotoÄŁraf Ä±nÄ±
YaÅŁ am
Ä°L DÄ°
P sik
ĠP osta
ĠProj eleri
Ġkullan mÄ±ÅŁ
Ã¼l te
ĠterÃ¶r le
ĠAÅŁaÄŁÄ± da
Ġ `
C ilt
ĠEr k
g inin
Ġotur uyor
Åŀ ey
H ac
ĠsÃ¼rÃ¼c Ã¼sÃ¼
ĠÃ¶ le
Ġhat larÄ±
ĠCas ino
ĠsonuÃ§ lara
ĠÅŀ afak
D D
Ġmuhat ap
Ġbur adasÄ±nÄ±z
ĠS osy
Ġpar asÄ±nÄ±
Ġan ahtarÄ±
ĠK uv
Ġkazan mÄ±ÅŁtÄ±r
ĠsÃ¼reÃ§ leri
Haz iran
ĠhazÄ±r layan
Ġey lesin
ĠN ov
ĠKork u
ĠV el
Ġbelir ledi
Ġpazar da
ler ime
Ġtah r
ĠA tÄ±k
os istem
Ã ħ
Ġat anan
han esi
ĠAÄŁ aÃ§
Ġ198 7
ĠyÃ¶netmen liÄŁini
Ġgerek ecek
opyr ight
iz de
i ÄŁini
ĠÃĸzgÃ¼r lÃ¼k
Ġlir adan
alan dÄ±
Ġhat alarÄ±
k adÄ±n
Ġmek anlar
ĠD Ä°K
Ġkap aÄŁÄ±
T EM
in di
ĠGEN Ãĩ
N ev
ĠUN ESCO
Ġbilg isine
AN D
eg Ã¼l
ta in
G Ä°L
ic ilik
Ġtehlik esi
ĠMuh asebe
ĠDem et
Ġc ay
Ġproj elere
ĠRes ort
ilen in
L TD
ĠÃ§arp tÄ±r
Kat egor
Ek im
ĠBas it
ĠÃ¼rÃ¼n lerde
Ġlog o
Ġbit miÅŁ
ĠÃľZ ER
Ġder d
ĠSendik asÄ±
K S
Ġsahib ine
ĠEv lilik
Ġcihaz larÄ±n
Ġ9 1
Ġmodel inin
ĠHat tÄ±
Ġmut ab
ĠFaz Ä±l
sh op
Ġkap Ä±sÄ±nÄ±
ĠBab asÄ±
Ã§Ä± larÄ±n
AD OLU
t ab
Ġor da
ĠYÃ¼z me
ĠnÃ¼f usun
Ġnokt alara
Ġsat Ä±lÄ±yor
R ES
Ġver diklerini
ĠÃľst Ã¼n
k ab
Ġolmal Ä±sÄ±nÄ±z
ĠiÅŁ lerde
ĠYÃ¶n elik
Ġem ret
ĠhazÄ±rlÄ±k larÄ±
lem eyi
ĠMÃľH ENDÄ°S
ĠÃ¶zel leÅŁtir
Ä±nt Ä±sÄ±
ĠpÃ¼rÃ¼z sÃ¼z
ĠÅŁart Ä±yla
ĠLe on
ĠHol lywood
Ġalg orit
ĠMÃ¼dÃ¼r lÃ¼k
Ġbenim sem
Ġtab iki
Ġm uv
Ġsel lem
ĠkullanÄ±c Ä±ya
Ãľ Ãĩ
Ġ unu
miÅŁ ler
ĠÄ±s Ä±nma
ĠÃ§iÃ§ek ler
doÄŁ du
uy an
B oz
per m
ay iÅŁ
ap Ä±
z ani
Ġcenaz esi
ĠRe is
Ġmuh asebe
ĠEst etik
R ad
Ġbron z
Ġp lat
Ġel imde
ĠAn talyaspor
ĠYak up
Ġuygulam alarÄ±n
land alÄ±
ĠsÄ±r rÄ±
lÄ± sÄ±
ĠÄ°c ra
Ġh iz
ĠÃĩ or
ĠgÃ¶rev ler
Ġsim g
ĠD Ä°L
oÄŁ ol
S C
ĠÃ¢ lim
Ġhav ale
ĠT FF
Ġm Ã¢n
Ġpaz ara
ĠIn tel
if li
tak ya
ros s
ĠRÃ¼z gar
ceÄŁ iz
G Ã¼r
lerim le
or s
ĠF A
ĠV ize
Ã¼l Ã¼k
Ġiz mir
Ġvit es
Ġzorun luluk
Ġaf iÅŁ
ĠeÅŁ inin
ĠÄ°d lib
ĠK AS
ĠD UY
ĠdÃ¼ÅŁÃ¼n Ã¼p
Ã¶mer t
Ġes mer
Ġbak Ä±yorum
st ar
Ġhayat Ä±mda
ĠA let
P ek
Ġd alÄ±ÅŁ
ĠgÃ¶rdÃ¼ÄŁ Ã¼nÃ¼
Ġtut up
ĠÅŀ ek
sik lop
ĠgÃ¶ster g
Ġmiz ah
ĠÃ§Ä±kar Ä±r
ĠEr bakan
c y
ĠS uyu
ĠÅŁ ut
ĠmÃ¼ÅŁter ileri
ap s
Ġhak larÄ±na
b eli
ĠkÄ±z larÄ±
ĠbÃ¼yÃ¼k tÃ¼r
Ġindir in
ĠkoÅŁ tur
ĠYaÅŁ lÄ±
Ġhiss eder
Ġolmay acaÄŁÄ±nÄ±
Ã¼m cek
Ġs ultan
Ġerkek lerde
Ġp us
Ġyar Ä±sÄ±nÄ±
Ġfiyat lara
ĠdÃ¼ÅŁÃ¼nm Ã¼yorum
ĠÃ¼niversit eye
BAÅŀ KAN
ĠÃ§ok lu
um dan
Ġtur izmi
ĠkarÅŁÄ±l ayan
ĠgÃ¼Ã§ ler
Ġsag lik
Ġgir erken
ĠD inÃ§
Ġs uyla
Ġod aya
Ãĸn emli
ĠbaÅŁk alarÄ±na
ĠBM W
Ġvar mÄ±
ĠL as
Ġh uz
Ġindir imi
ĠCumhurbaÅŁkan Ä±mÄ±z
d k
B EY
ĠBit lis
ĠkÄ±yaf etleri
ĠMez un
ĠOD TÃľ
ĠkÃ¶y de
Ġkur b
Ġkr emi
Ġyaz dÄ±ÄŁÄ±m
ĠÃ¶l dÃ¼ÄŁÃ¼
ab Ä±nda
ĠÃĸ SYM
ĠM ER
ĠkÄ±s Ä±r
en ti
ĠMan avgat
ĠOlay larÄ±
Ġbit tikten
may acaÄŁÄ±m
Har ika
ĠHAZ IR
m ese
Ġb eye
ĠH uawei
ĠKam il
O cak
j der
ĠKÃ¼tÃ¼phan esi
p lant
Ġyaz arken
t witter
iv i
ort h
Ġdevr ed
Ġoyn ama
KadÄ±n lar
Ġzek Ã¢
Ġbuyur muÅŁtur
ĠÃ¼rÃ¼n e
ĠÄ°ÅŁ e
ĠÃ§Ä±kar maya
ĠsÄ±nÄ±r larÄ±nÄ±
Ġer dir
Ġbul amadÄ±m
ĠbaÅŁlÄ±yor uz
ĠTÄ±p kÄ±
Ġgel din
yon u
ĠdÄ±ÅŁ arÄ±ya
Ġteknoloj iye
oÄŁ ullarÄ±
ĠdÃ¼ÅŁÃ¼n Ã¼len
iet nam
Ġen ter
ch er
ab inde
Ġcan Ä±nÄ±
Ġfi dan
PD Y
lÄ±ÄŁ Ä±ndaki
ĠteÅŁeb bÃ¼s
Ġyol lardan
ĠsaldÄ±rÄ± larÄ±
TM L
Ġbek leme
ĠF onu
ĠdÃ¶nÃ¼ÅŁ tÃ¼
ĠÃ¶ÄŁrenciler imizin
es em
ĠP iyan
ĠÅŁehir lerde
Ġay larÄ±
ĠEr gÃ¼n
ĠT on
Ġol salar
Ä°S K
Ġiz lenen
ĠyÄ±l ki
Ġs n
ĠS ir
gr ad
ik ayet
Ãľcret siz
Ġal fab
R ob
Ġasker leri
Ġbab alar
ĠR enault
ĠSem ih
Ġlezz eti
Ġyak Ä±nÄ±n
Ġsoy ut
ib il
F Ä±r
Ġin anÄ±n
Ġyaz Ä±cÄ±
Ġkav ur
ĠseÃ§im de
Ġyol unun
Ä±z Ä±n
Ġetmek le
ĠÃ¼Ã§ lÃ¼
iy eleri
ĠkÃ¼ltÃ¼r Ã¼nÃ¼n
ĠgerÃ§ekleÅŁtir ebilirsiniz
ĠK ek
Ġintik am
ĠBo stan
Ġmimar lÄ±k
ĠFiyat lar
ĠyaÅŁ adÄ±ÄŁÄ±m
M ad
ĠH TC
ĠÄ°k lim
ĠaldÄ±k larÄ±nÄ±
Ġekonom isinin
Ġdol gu
Y ah
Ġz er
Ġhesab Ä±na
ĠdoÄŁ aya
Bir inci
ĠBahÃ§eli evler
ĠÃ§ ukur
ÅŁ er
Ġinan Ä±yor
ĠBayrak tar
l az
ĠÅŀ UB
Ġt etk
Ġs ub
ĠD C
re dat
Ä±l Ä±ÅŁÄ±
azÄ±r da
ot al
Ġkat an
Ġen str
Ġveriyor lar
an der
ĠÃ¶dÃ¼l leri
Y um
ĠStad yumu
Ġbelir ler
ĠÅŁik Ã¢yet
Ġd alÄ±
ĠEk mek
ĠsaÄŁlay abilir
Åŀ EHÄ°R
B eÅŁ
Ġel inize
Kal p
Ġrakam lar
ĠbÃ¶lÃ¼m ler
Ġâ ĸ
ĠDanÄ±ÅŁ manÄ±
ĠðŁĺ Ģ
ĠOrt aya
Ġoluyor lar
ĠgerÃ§ eÄŁe
B E
Ak ÅŁam
Ġtut ma
Ġyiy en
Ġvurgul ayarak
Ġal acaÄŁÄ±z
ĠT osun
ĠKo operatif
ĠR andevu
ĠsÃ¼r at
Ġotur t
ĠtanÄ±t tÄ±
ĠU p
Ġdes em
Kar deÅŁ
Ġseg ment
ĠS aklÄ±
tem elen
Ġistif ade
ĠÃ§Ä±k madan
Ġgol le
ĠÃ§ocuk larla
ĠÃ§ok Ã§a
Ã» n
ĠCeza evi
ĠHAKK INDA
ĠbÃ¼yÃ¼k lÃ¼k
Ġ Ã¼rk
ĠTop tan
ĠPr atik
ĠGÃ¶nÃ¼l lÃ¼
ĠM alat
ĠeÄŁitim de
UN A
Ġkar ayolu
ĠoluÅŁ acak
ĠÃ¶n Ã¼nden
Ġizley ici
ĠkatÄ±lÄ±m cÄ±lar
oloj inin
ĠÃ§oÄŁ alt
iv a
Ä±mÄ±z daki
edik lerini
Ġkay dÄ±r
ĠyapÄ±m Ä±nda
Ġaktivit eler
Ġgir dik
ĠTun Ã§
Ġp arkÄ±
Ġat ama
ecek lerini
ĠSili vri
ĠV eteriner
Ġberek et
G AN
ust in
ĠyolculuÄŁ a
Ãľnivers ite
cÄ±lÄ±ÄŁ Ä±nÄ±
Ġs eh
Ġedil ebilecek
ih at
ĠâĤ ¬
am adÄ±ÄŁÄ±nÄ±
ĠM oz
Ġ5 000
Ġiddi alarÄ±
Ġf izy
luk ta
ĠdeÄŁerlendir mesi
Ġdem eden
ĠPop Ã¼ler
2 50
ĠsÃ¼r ek
Ġedecek siniz
ĠÅŁiddet e
ĠMut f
Ġkayd Ä±yla
Ġdalg alan
r ent
ĠbÃ¶lg elere
AT A
ĠMak al
ĠLim anÄ±
Ġkanal larÄ±
Ġaral Ä±ÄŁÄ±
g em
ĠOrgan ik
G Ä±da
Ġib ad
Ġbas ka
ĠkaÃ§Ä±r mayÄ±n
ĠÄ° ler
Ġot orit
Ġd edektif
Â ©
Ġism iyle
Ġkurab iye
ĠhazÄ±rlÄ±k larÄ±nÄ±
Ġdoldur an
hay at
ĠÅŁim diki
ĠinÅŁaat Ä±
is er
Ãĩ Ä°
ĠÃ§ Ã¶l
Ġn ey
ĠKr em
as mus
ĠÃ¶z eti
Ġdir ektÃ¶rÃ¼
t Ä±mÄ±
Ġt orb
Ä° brahim
ĠbÃ¼yÃ¼m eye
Ġistek leri
ĠGER ÃĩEK
y mp
Ġbel de
ĠTeÅŁkil at
Ġyan Ä±mda
ĠÃĩak mak
Ġt Ã¼tÃ¼n
liÄŁ imizi
Ġtoprak larÄ±
v it
Ġlin ki
Ġyer lerine
Ġt Ã¼zel
h ret
Ġaray abilirsiniz
al ik
ĠsÃ¼r esinin
ĠhÃ¼kÃ¼met inin
Ġaz ar
Ġdin leyen
Ġedebilir iz
Ġbelirt iler
lik eli
ĠGerÃ§ek leÅŁtir
Ġj Ã¼ri
Ġuygul adÄ±ÄŁÄ±
Ġyar amaz
ac t
ĠortaklaÅŁ a
ĠM ana
Ġimz alÄ±
c Ä±m
ĠÃ¼Ã§ te
ĠD ESTEK
ĠPak eti
h az
ĠÅŁ iÅŁe
ĠDeÄŁiÅŁik lik
ĠDoÄŁ uÅŁ
Ġ10 1
Ġbulun duÄŁunuz
C K
ĠyapÄ±yor sunuz
Ġprogram lama
Ġyazar lar
Ġar at
Ã¼st e
ib ar
T arÄ±m
uÅŁtur ma
C OM
Ġkil oda
ĠgÃ¶rÃ¼l mÃ¼ÅŁtÃ¼r
ĠÃ§alÄ±ÅŁan larÄ±na
Ġzorun luluÄŁu
Ġhav anÄ±n
Ã¼r Ã¼n
Ġ198 8
Ġtut ku
ĠHak em
Ġdep osu
ac Ä±m
m ud
Ġkonse p
ĠsavaÅŁ ta
Ġmezun iyet
Ġev cil
Ġail eye
ĠgÃ¶rÃ¼nÃ¼m lÃ¼
Ġk uvv
ĠÃ¶ÄŁ leden
ut y
Ãĸ l
ĠÃ¶yk Ã¼sÃ¼
Ġpo li
Ġetik eti
Ġuygulam alÄ±
ĠOtel ler
geÃ§ miÅŁ
Oy sa
ĠSorum lusu
Ä°H A
Ġbit iyor
uk atÄ±
ĠyÃ¼rÃ¼y en
Ġver meniz
Ä±l amaz
ĠyaÅŁÄ±nday ken
Ġtuz ak
sel Ã¢m
Ġsit elerinin
Ġiyil eÅŁme
ĠkarÅŁ Ä±sÄ±ndaki
ĠÃ¶rgÃ¼tÃ¼n Ã¼n
Ġtah amm
ĠÅŁekil lerde
S ektÃ¶r
Top lantÄ±
ĠÃ§Ä±k acaktÄ±r
Ġyet kin
D IZ
Ġkr it
Ġah ir
ĠBil ge
Ġetkili dir
ad amÄ±
Ġden iyor
lin k
ĠToplum sal
b is
Ġyar dim
ĠSÃ¼r esi
ĠÅŁub at
ĠÃ§Ä±k masÄ±nÄ±
Ġdokun matik
Ġtah rik
e o
ĠProt okol
sa dece
Ġbir a
omet rik
Ġdedik odu
Ġ12 8
ĠkullanÄ±l abilecek
ĠTah ir
Ġmekt ubu
ĠyayÄ±n larÄ±
ĠPolitik asÄ±
Ġtan Ä±ÅŁtÄ±r
Ġik isinin
f ol
lem ektedir
Ġkilometr elik
Ġsu ikast
ĠO LU
Ġanlat Ä±lan
ĠbÃ¶yl esi
l iyim
Ġkup a
ĠDeÄŁer lendir
Ġbag aj
ind ek
ĠbÃ¼yÃ¼m esi
l aya
Ġtav r
ĠMuham met
ĠmaÃ§ Ä±nÄ±n
Ġhak larÄ±nÄ±n
b ack
Ġkontrol lÃ¼
F ransÄ±z
ĠA MA
Ġkor u
ĠÃ¶ncÃ¼l Ã¼k
ĠAp art
ĠC oun
M imar
ĠDÃ¼n dar
ĠB lo
ti han
Ġhayat Ä±m
ĠÅŁ aÅŁ
IL DI
ĠY arÄ±
ĠbayÄ±l dÄ±m
ĠEx p
ĠyaptÄ±ÄŁ Ä±nÄ±zda
ĠB IR
ĠdoÄŁru dur
ab ildi
ĠbaÅŁar Ä±sÄ±nÄ±
larÄ±m dan
LEM E
is as
Ġharek at
ilm em
ĠB ina
ĠÃ¶nc esinden
el ey
Ġaley hine
ĠSÃ¼n net
Ġd iÅŁi
Ġtoprak larda
ab e
Ġel bet
OC A
] [
ĠyÃ¼rÃ¼y erek
ĠResul ullah
lÃ¼ÄŁ Ã¼nÃ¼n
Y ENÄ°
ĠdÃ¶n g
ĠKay ak
Ġkes imi
ĠFeder al
Ġnez dinde
Ġper forman
H ey
ĠyÃ¼z leÅŁ
Ġsu larÄ±
Res mi
Ä°ÅŁ let
Kan al
ĠSeÃ§ enek
Ġend eks
ĠDÃ¼zen leme
Ġal malarÄ±
ĠhazÄ±rlan masÄ±
ĠSar aÃ§
R UP
Ġkorum asÄ±
Ġsunmak tayÄ±z
ĠeÄŁitim li
Ġt uzu
ĠsaÄŁ layÄ±cÄ±
Ġbek lerken
ĠSaÄŁ lam
Ġkr istal
ĠtasarÄ±m cÄ±
R ap
Ġsabah Ä±
L im
Ġbayram Ä±
ES Ä°NDE
da d
Ġter temiz
ĠP ast
Ġman ev
iyor sanÄ±z
Ġyol suzluk
Ã¼s Ã¼nden
ĠgenÃ§ leri
ĠFay d
Ġreh beri
Ġkur tarÄ±
Ġ ade
ĠEndÃ¼str iyel
ĠGÃ¶k Ã§e
nam esi
ĠR ep
lan Ä±n
Ã¶z Ã¼
Ġolmak ta
eceÄŁ imizi
Af yon
ĠBun lara
ĠgerÃ§ekleÅŁ ir
oÄŁ a
ĠsaÄŁ lanmÄ±ÅŁ
Su udi
Ġsen ede
Ġk Ä±lÄ±Ã§
Ġtuz lu
Ġyen erek
Ġ198 5
l Ã¼yor
ĠÃ¶lÃ¼m sÃ¼z
doÄŁ ru
ĠKÄ±s acasÄ±
aÄŁ aÃ§
tÃ¼ el
n it
g et
ĠBaÅŁk onsolos
ĠMaÃ§ Ä±
ĠgeÃ§ im
ĠsÃ¼p Ã¼r
Ġviz esi
ĠG T
Ġsev enler
Ġfor vet
ĠD ivan
ĠÃ¶l Ã¼me
Kar adeniz
Ġbilin mez
ĠkoÅŁul larÄ±na
Ġd edir
Ġsu st
ĠÅŀ Ä±k
ĠyayÄ±m ladÄ±
ĠM Ä°
mey le
Ġkonsan tr
Ġsistem iyle
ĠÃ§iÃ§ eÄŁi
ĠGer Ã§i
o om
ĠZ inc
Ġbor s
opar lÃ¶r
ĠUy ar
ĠTÃ¼rk leri
am alarÄ±
ĠÃĩ im
Ġnak li
AR ASI
Ġab dest
ĠsÃ¼n ger
Ġusul Ã¼
Ġ2 12
K af
Ġslogan Ä±yla
ĠKap tan
ĠBAÅŀKAN I
ĠS OSYAL
Ġal mÄ±yor
Ġul tr
Ġduy muÅŁ
Ġfot ok
ĠdÃ¶n Ã¼mÃ¼
Ġp Ã¼sk
tiÄŁ in
ay e
ĠkÄ±y amet
Ġimal atÄ±
ĠG Ã¼
Ġm eg
Ġok unan
Ġkalk ar
Ã ¡
ĠulaÅŁ tÄ±ÄŁÄ±
mekt eyim
Ġisim lerini
ĠtaÅŁÄ± dÄ±
mit h
ĠK linik
ĠÃĸy kÃ¼
ĠYAR DIM
Ġsaf h
l ut
Ġolmas aydÄ±
Ġal abilecek
ok uz
ĠÅŀ iÅŁ
ĠsaÄŁ lama
ĠseÃ§im inde
Ġal Ä±nÄ±p
Ġmol ek
ĠF M
ĠhÄ±z Ä±yla
ĠAr zu
ĠDanÄ±ÅŁ ma
ed r
ĠSaat leri
Ġo tu
Ġinan dÄ±r
ro v
ĠGÃ¼r eÅŁ
ĠgeliÅŁ melerin
Kahraman maraÅŁ
ĠD et
Ġokul dan
Ġkoleksiyon u
Y T
Ġkullan Ä±cÄ±sÄ±
ĠdÃ¶k Ã¼m
ĠÂ ĳ
adÄ±k Ã¶y
Ġfant ez
ĠWar s
ĠÃ¶ÄŁretmen lerin
ĠZ en
ĠM ig
ĠkÄ±lÄ± f
Ġistikrar lÄ±
ĠFabrik asÄ±
ĠN ap
? ,
ĠyaÅŁ Ä±n
lÄ± larÄ±n
ĠhÃ¼km Ã¼
Ġal etleri
Ġilgili dir
D iz
ÅŁ ah
Ġinf o
Ġyap acaÄŁÄ±mÄ±z
Ä° letiÅŁim
ĠN AK
ĠPsik oloji
Ġil imizde
ĠÃ§alÄ±ÅŁ Ä±p
ĠOy unun
ĠiÃ§erik ler
Ġb edeni
Ġokuy arak
Ġmanzar alÄ±
ĠGeÃ§ ir
Ġfin can
ĠgÃ¶rÃ¼ntÃ¼len di
Ġhafif let
Ġkal mÄ±ÅŁtÄ±
ĠkapÄ± larÄ±
Ġbilinc inde
lan ta
ĠKap adokya
ĠD Ã¶k
St ation
ĠgÃ¶rev inden
Ġhesap larÄ±
ĠBaÅŁkan vekili
Ġyol lara
ĠYar ar
ĠCh rome
Ġkor uyor
Ġkayn at
og rap
Tarih i
ĠboÅŁan ma
ĠD k
ĠÅŁah sen
Ġazal ma
ĠyÃ¶n e
ĠOsman iye
ĠgÃ¶rÃ¼ntÃ¼ le
Ġalan larÄ±nÄ±n
Ġist ersen
Ġses ler
ĠLid eri
ĠBer at
ĠPan el
ark i
Ġdevlet inin
Ġah lÃ¢
ĠÄ° LÄ°
ĠkÄ±rÄ±k lÄ±ÄŁÄ±
ĠÄ°ÅŁ i
ĠV ictor
ĠÃ¼niversit ede
ĠHar p
ĠSertif ik
ĠT EÅŀ
ĠtÃ¼m Ã¼
Ãĸr nek
Ġpik nik
ot on
Ġay aÄŁ
uz a
P o
BÃ¶yle ce
m iyoruz
ĠsaÄŁlÄ±yor uz
sh irt
Ġh e
ĠtÃ¼r b
Ġgerekiyor sa
Ġokul larÄ±n
Ġdost lar
Ġanlam Ä±ÅŁ
b adem
Ġkorid or
Ġplan lar
Ġkaynak lanÄ±yor
ĠdÃ¼ny asÄ±nÄ±
ĠBaÅŁ lÄ±yor
Ġsaat inde
Ġsigort alÄ±
s or
Ġkarar Ä±yla
Ġkampany alar
Ġy eÅŁ
ĠUr fa
Ġil acÄ±
ĠkazandÄ±r mak
ĠStr eet
b Ä±
Ġonay lÄ±
Ġtedbir ler
ĠHad is
Äŀ U
ri an
ĠY avaÅŁ
Ġhizmet lerinden
abileceÄŁ ine
Ġs i
Ġil la
ĠE C
ĠBUL UN
ĠsaÄŁlamak tÄ±r
ĠcÃ¼ml eler
R Ã¼yada
Ġol im
as yum
ĠiÅŁÃ§ ilik
Ġc hat
v iÅŁ
Ġder e
cÄ±lÄ±ÄŁ a
19 99
ut bolu
Ġg eb
ĠHalk la
Ġbon usu
Ġkon fer
ĠmÃ¼ÅŁter ilerinin
ĠsÃ¶z leriyle
adam larÄ±
ĠKategor iler
ĠY or
ĠY aman
Son y
ĠipuÃ§ larÄ±
m adÄ±ÄŁÄ±m
Ġid daa
ĠkonuÅŁ ur
ĠBah Ã§esi
D ir
id ge
Ġhar ici
ĠmÃ¼cadel esinde
S ol
Ġtedav iye
dÃ¼ÄŁ Ã¼m
M is
ĠJ et
ĠÄ°htiy aÃ§
ĠWord Press
ĠnÃ¼f usunun
abil iyorum
uv er
! .
Ãĸz gÃ¼r
h h
Ġsay Ä±m
Ġist ekli
ilm eden
Ġist endi
ĠyaÅŁamak tadÄ±r
Ġist eyecek
ĠSefer leri
ĠgeliÅŁtir erek
Ġteknoloj iler
ĠyaÅŁ tan
Ġbab anÄ±n
Ġdekor asyonu
T emiz
Ġbur juv
ĠYÄ±l lar
ĠS Ä°Y
ĠBir eysel
ĠBakan lÄ±ÄŁÄ±nÄ±n
ĠyaÅŁan mÄ±ÅŁ
ĠhÃ¼c um
Ġvideo da
Ġtem enn
ĠKaymakam Ä±mÄ±z
N isan
mez ler
Ġh ol
Ãĸ lÃ¼m
Biz ler
ic ek
Ġstandart larÄ±
adÄ±k larÄ±nÄ±
Ġbirik imi
ĠEnd on
Ġkar Ä±
ĠyÄ±ldÃ¶n Ã¼m
ĠSigort asÄ±
Ġyap Ä±sal
ĠyÃ¼k Ã¼
l Ä±na
AZ I
ĠÃ§ab asÄ±
Ġdiplom atik
ĠE lec
Prof esyonel
ĠhazÄ±r lay
Â ¼
Ġsor an
Ġ198 4
ri x
ĠS Ä°Z
Ġmalzem elerin
Ġo c
Ġgen cin
Ä±l masÄ±nda
Bar Ä±ÅŁ
c inin
ĠKen ti
ĠS adÄ±k
Ġsilin dir
Ġlist eye
Ã¢ v
AÅŀ TIR
Ġetkilen en
Ġekib ine
T IK
Ġed ince
Ġkelim esinin
ĠK Ä±lÄ±
ĠTav siye
Ġp es
ĠbaÅŁ larÄ±na
Ġgit meden
Ġderec esi
ĠV eya
Ġik iz
Fir ma
Ġyakalan an
ou g
ĠB avul
Ġhizmet lere
ĠS Ã¶n
ĠarkadaÅŁ larÄ±nÄ±n
Ġrapor da
ist im
ĠGeÃ§ iÅŁ
ĠI Ã§in
Ġman yetik
Ġbecer ilerini
Y AN
Ġbeklent isi
ĠS edat
ĠGÃ¶rev lisi
H oÅŁ
Ġkom bi
ĠpeÅŁ ine
il eceÄŁini
Ġkal masÄ±nÄ±
Ġc is
an masÄ±
Ġvermek ten
d iz
egas us
) âĢĿ
Ġmemnun um
ĠÄ°lk okul
ĠTal ep
Ġhikay eleri
ĠmÃ¼sa ade
Ġverim liliÄŁi
l ock
ĠÃ§alÄ±ÅŁmalar la
ob ili
adÄ±k tan
Ġgetir mektedir
ĠB uy
ĠH ES
ĠAnn eler
ĠS ik
ĠmÃ¼m in
ĠK n
ĠtrafiÄŁ e
Ġizley erek
ĠÅŀeh rin
L ink
ĠÃ¶z Ã¼
Ä±c Ä±nÄ±n
Ġkok ulu
ĠD osya
Ġdeneyim ini
Ġgetir me
ĠÃ§ekir de
ĠL eg
Ġbilir siniz
h un
Ġelekt ro
malar Ä±nda
ĠgeÃ§ it
Ġdur un
Ġkat mak
Ã® r
Ġplan lÄ±
ĠðŁ ĵ
Ġimzal adÄ±
ĠH ic
Ġtel aÅŁ
B i
Ġkarakter ler
ĠÃĩift Ã§i
Ġail esini
ĠX peria
Ġmaliyet li
eceÄŁ inden
Ã¢z Ä±m
ĠgÃ¶rÃ¼ÅŁ leri
Ġ10 5
ĠgÃ¼ven de
ĠBELED Ä°Y
ĠTh omas
ĠilaÃ§ lama
Ġp ed
ĠsuÃ§ lam
Ġn emli
ĠÃĸ R
Ġavantaj larÄ±
dem li
Ġan larÄ±
P U
ĠS Ä±fÄ±r
ĠdÃ¼ÅŁÃ¼nc eleri
ĠdediÄŁ in
tal ay
ediÄŁ in
Ġyas tÄ±k
Ġz Ä±t
Ġetm emek
h iÃ§
ĠÅŁÃ¶ len
Ġkullan masÄ±
Ġkar ikatÃ¼r
cÄ± oÄŁlu
ĠmÃ¼ÅŁteriler imiz
Ġdoktor lar
lam alÄ±
Ġrahat lÄ±ÄŁÄ±
aÃ§ a
ĠÃ¼lk elerinden
Ġsun mayÄ±
ĠKur ucu
G it
R Ä°
ĠSÄ±r bistan
Ġmasa Ã¼stÃ¼
Ġbir araya
ĠGAZ ET
ĠbirÅŁey ler
end ek
ĠHar ry
TÄ° V
Ġsporcu lar
ĠbeÄŁen isine
ĠBay burt
Ġhab ersiz
ans Ä±n
d og
Ġel lerini
ĠTÃ¼rk istan
ĠyarÄ±ÅŁ maya
Ġzarf Ä±nda
ru Ã§
op ik
on line
ĠAnn em
GenÃ§ lik
ĠgeÃ§ iniz
ĠMey ve
Ġmens ubu
ĠYÃ¼r Ã¼t
Ġay na
tr ali
ĠyÃ¶net en
ĠPamuk kale
Ġkesi ci
Ġon edio
In stagram
y esi
ĠR iz
ĠAl Ä±m
ĠI S
Ġolacak lar
A il
len mesini
ĠAl Ä±mÄ±
Ã¼l lÃ¼
ĠbaÅŁk asÄ±na
Y al
ĠtÃ¼rk Ã¼
eg en
ĠLe e
ĠtÃ¼m Ã¶r
Ġist emek
liliÄŁ e
ĠaÃ§Ä±lÄ±ÅŁ Ä±nÄ±
ĠYas asÄ±
ĠGÃ¼mÃ¼ÅŁ hane
ĠFran cis
Ãĩ ar
hi on
ĠiÃ§er diÄŁi
Ġkayb Ä±na
ÄŁ dÄ±r
Ġyat kÄ±n
Åŀ U
ĠfarklÄ±lÄ±k lar
ĠÄ°n ci
Gel in
Ġard Ä±nda
Ġmiktar Ä±nÄ±
Ġgide bilir
mis iniz
Ġmerkez lerinden
Ġp Ã¼f
lo ma
ĠDok uz
Ġ198 6
ĠilÃ§ esindeki
Ġolabilir di
Ġnumar alarÄ±
ĠÃ¶ÄŁ len
ĠarkadaÅŁ larÄ±n
ar yen
ĠAn ahtar
Ġkampany alarÄ±
Ġbeden sel
ĠseÃ§en eÄŁini
ĠaÃ§Ä±k lÄ±k
Ġekipman larÄ±
ĠmÃ¼ziÄŁ in
meler e
ĠÃĩat al
ĠK ub
Ġneden lerden
Bat man
Ġdin ler
DAK Ä°
F ar
Ġkarakter ini
Ġhast alarÄ±
ĠArda han
ĠalÄ±ÅŁveriÅŁ i
row n
Ġf are
ĠiÅŁ lerinde
ĠgÃ¶ster ebilir
ĠKon g
Ġpan eli
ak ere
ĠBor Ã§
ĠgeÃ§ mektedir
Ġsayf alarÄ±
Ġpas lanmaz
Ġk iz
BaÅŁ vuru
ĠÃ§ek ecek
Ġetm eliyiz
he imer
ĠSorum luluk
Ġpik sel
ĠMÃ¼dÃ¼rlÃ¼ÄŁ Ã¼ne
ĠP omp
KÄ±z Ä±l
Ġver ebilmek
Ġdu alar
Ġvol eybol
S av
Ġopt imiz
ĠolduÄŁ un
Ġilet iÅŁimi
. ),
ĠFet ullah
ĠS AR
ĠbaÅŁ lÄ±klar
Ġtoplant Ä±sÄ±na
ĠBrun son
Ġhast aya
ĠeÅŁit lik
ĠKan d
ĠT E
ip ol
H indistan
ĠFelsef e
Ġ198 2
Ġbulundur an
ĠKaÃ§ ak
Ġart maktadÄ±r
Ġiltih ap
ĠgÃ¼ndem ine
Ġist eÄŁe
v es
ĠF ed
ĠKan dil
ĠM AR
Ġik isini
ĠsÃ¶yleÅŁ i
Ġal mayan
ĠAÃ§Ä±k lama
ĠÃ§at lak
Ġsaat lerce
ĠH ap
ĠgÃ¼Ã§ lerinin
ĠAt ina
ĠFeder asyon
Ġklas Ã¶r
bu gun
n ce
ij er
ĠHey eti
ĠGÃ¼ven li
S ite
ĠyÄ±k Ä±m
d eleri
Ġdemir yolu
ĠÃ§ek imleri
ĠSey han
elen en
Ġfutbolcu lar
ĠNum ar
u u
ĠÃ§ Ä±tÄ±r
ĠM edia
Ġ Ð
Ġek leme
ĠOT OM
Ġplan lanÄ±yor
Ġduy duÄŁum
g or
Ġgeril edi
av an
ezerv asyon
Ġken te
ĠPort akal
Ä±k lÄ±ÄŁÄ±
Ġkar Ä±sÄ±
ĠdÃ¼zen siz
M a
am dan
ĠH Ã¼r
ĠÃĩar p
ĠP t
ĠoluÅŁtur ulmuÅŁ
Ġis raf
Ġcan avar
ĠM aalesef
ĠbaÅŁlar ken
ĠsÄ±r alama
Oy uncu
Ġk emi
K or
Ġuy umu
Ġdok usu
Ġincel eyen
ĠDÃ¼ÅŁ Ã¼k
Ġpen altÄ±
bir lik
B Ä°L
Ġmuam el
ĠsÄ±nÄ±f landÄ±r
ĠD ram
ĠHÄ°ZMET LERÄ°
ÅŁ k
Ġev lerde
ĠCh rist
Ġhav lu
maktadÄ±r lar
ĠbÃ¼y Ã¼yor
ĠPsik olojik
ĠAl tan
ĠEx cel
Ġtedbir leri
ĠdÃ¶n mÃ¼ÅŁ
ĠÃ§erÃ§ev e
ĠKurum larÄ±
P ara
Ġger eÃ§
Ġdur up
ĠBAY RAM
Ġmaz lum
our nal
ĠKurul du
ĠÃľ CRET
Ġspor u
s osyal
B oÄŁaz
Ġolmam asÄ±na
ĠMÃ¼steÅŁ ar
Ġl akin
er iler
Ġkat arak
L C
ĠkÄ±y Ä±sÄ±nda
ĠKÄ±rÄ±k kale
ward s
ĠB ornova
Ġyapar Ä±z
ĠiÃ§eriÄŁ inde
Ġkullan dÄ±klarÄ±
Ġbilm eniz
ĠTun us
ez e
ĠYah ya
Ġd ed
ĠsaldÄ±rÄ± lar
ĠDiler seniz
Ġl as
iy seniz
ĠÄ±srar la
Ġotel lerde
Ġam c
ĠyanÄ± tÄ±
ĠistediÄŁ in
ĠÃ¼rÃ¼n lerden
ĠY alan
Ġnak il
ak lÄ±k
Ġkar ma
ekt Ã¼el
ĠGÃ¶ ÄŁÃ¼s
ĠJ ava
Ġsoy kÄ±rÄ±m
K Ä±lÄ±Ã§
Ġmeyv eler
ĠhatÄ±r a
ĠTer c
Ġfaydalan mak
ĠBon us
ĠmaÃ§ Ä±na
p uz
K I
Ben z
Ġor al
Ġkalit eyi
ĠFev zi
lat an
t il
acaÄŁ Ä±n
Ġboyut ta
ĠgÃ¶rev lerini
ĠDÃ¼ÅŁ Ã¼nce
ĠtaÅŁÄ±m acÄ±lÄ±ÄŁÄ±
ĠH ediy
DÄ±ÅŁ iÅŁleri
Ġdom uz
Ġk ub
ĠBas k
Ġden gel
ĠÅŀehir ler
ev it
ĠMahall esinde
ob et
ek ir
ĠÅŀ air
ans u
Ġtur k
ĠÅŁ iddeti
Ä±c Ä±k
Ġdevlet ler
ĠBir incisi
lenir ken
Ġhisset tim
sen ger
Ġgr ip
Ġsit emize
Ġbah ane
ceÄŁ im
ĠdÄ±ÅŁ a
ĠÃ¼z Ã¼cÃ¼
Ġmakar na
ĠiÅŁit me
Ġhay kÄ±r
olog y
ĠT u
ĠZ orunlu
e ed
ĠbaÅŁ lama
Ġkan unun
00 1
Ġkah ramanÄ±
ĠiÃ§erik leri
AB A
ĠOr talama
ĠTav uk
ĠÃĩ ikol
ĠYas emin
ĠDevr imi
Ġart tÄ±ÄŁÄ±nÄ±
Ġgergin lik
ĠMAK Ä°N
ĠalÄ±r lar
ĠH o
ĠsÃ¼r eleri
ov o
Uygul ama
Ġmodel in
ĠKap Ä±sÄ±
ĠkeÅŁfet mek
luÄŁ undan
ĠMes cid
et ti
ĠdoÄŁ duÄŁu
Ġal Ä±k
ĠKad ro
Ġdol an
iliÄŁ ine
Ġyer lerin
ĠbÄ±rak ma
Ġfant astik
Ġindir ip
ĠaÃ§Ä±k ladÄ±ÄŁÄ±
Ġp erspektif
ĠyerleÅŁ ik
ĠH amam
Ġtes ettÃ¼r
ĠÃ¶n Ã¼
ĠC at
AS INDA
m uyorum
Hat ta
ĠSes li
elis in
Ġuygulam asÄ±na
d unun
ĠKarak ter
M ey
Ġ:) ))
Ġotur du
Ġturist lerin
ĠdeÄŁiÅŁtir en
ĠÃ¶ ksÃ¼r
ĠÃ§ erez
ĠbÃ¶ lÃ¼
Ġiz ol
ĠÃ§arp an
dÄ±ÄŁ Ä±nÄ±n
ĠalmÄ±ÅŁ tÄ±m
Ġpsik iyat
Ġtasar Ä±ma
ĠSIN AV
Ã½ m
Ġayak larÄ±
IR IM
Ġtut ulur
ĠKÃ¼rt ler
k Ä±s
F or
ĠPh ilip
Ġtraf iÄŁi
ĠneÅŁ eli
ĠsaÃ§ lar
n at
ĠSov yetler
ĠhatÄ±rlat tÄ±
Ã¢ let
AÃ§Ä±k lama
Ġkont eyn
Ġkal abal
ĠpaylaÅŁ Ä±yor
ĠÃ¶lÃ¼m Ã¼nden
ĠEs k
ĠSun um
ĠA udi
Ġbek leyin
ĠMÃ¼ÅŁ teriler
M AL
liy eye
ĠVÃ¼c ud
Ġdin le
ĠsanatÃ§Ä± lar
Ġev imde
Kurum sal
ĠbaÅŁk alarÄ±
Ġetkil eyecek
ĠNec ip
Ġfir maya
ĠbÃ¼yÃ¼ley ici
Ġkut luyor
ĠÅŁart tÄ±r
ĠErc iyes
Ġsav cÄ±
imiz dir
ĠYIL MAZ
Ġli gi
Ġmas asÄ±
ĠKa an
ĠbÃ¶yl elikle
Ġaday lÄ±ÄŁÄ±
ĠHal en
R ize
ĠdÃ¼ÅŁÃ¼n mÃ¼ÅŁ
Ġzirv eye
ĠbÄ±rak Ä±l
Ġolm alarÄ±nÄ±
ic al
ĠteÅŁ h
ĠkadÄ±n la
Ġg Ã¼ce
Ġman uel
ĠBur un
lÄ±y Ä±m
ĠL ove
memiÅŁ ti
v as
Ġark adan
Ġk aka
Ġdedi ÄŁini
ĠyaÅŁam ayÄ±
Ġkayb eder
ÅŁ imdi
s anÄ±
il asyon
ĠGerek enler
tar ih
Ġbelirlen miÅŁtir
ilm iyor
Ġyer dir
ĠsektÃ¶r Ã¼ndeki
ĠOrta okul
ĠdeÄŁil ler
ĠB ot
Ã§ Ä±nÄ±n
am adÄ±ÄŁÄ±m
ĠTay land
ĠÃ§ocuk larÄ±mÄ±z
Ġhaf tadÄ±r
Y ou
Ġs alÄ±
ĠartÄ±r Ä±lmasÄ±
se a
K aÃ§
iyet in
Ä±nÄ± fa
N eyse
Ġkum anda
ĠMÃ¼hendis leri
Ġhak lar
c at
Ġbelir leyici
M Ãľ
Ġdik tatÃ¶r
Ġk Ä±p
gun luk
ĠiÅŁlev i
ĠSanat larÄ±
Ġtoplan dÄ±
ĠA dan
Ġhayvan cÄ±lÄ±k
ĠPaz arÄ±
ĠÃ¶ldÃ¼r Ã¼len
T emmuz
Ġrestor asyon
Ġesk ort
ĠK ok
Ġkat alog
ĠsaÄŁlam asÄ±
rik ler
ĠkÃ¶t Ã¼ye
m Ã¼z
ĠKon usu
ĠFir malarÄ±
KÃ¼r esel
Ġam p
ĠÃ¶yl esine
ĠdÃ¼zen lenmesi
Ġas istan
ey ik
ĠKal dÄ±
Ġfaaliyet lerinin
iliÄŁ inin
Hol landa
b eÅŁ
c es
Ġve f
ĠaraÅŁtÄ±r masÄ±
ĠiÅŁ inizi
Ġetm elidir
Ġpsik olog
Ġselam lar
Ġoyun larÄ±nÄ±
ap os
ing le
Ġt h
Ġbak Ä±nca
ef abrik
Åŀ K
Ġkir let
ĠyaÅŁat mak
E dirne
b Ã¼l
ic iliÄŁi
Ġal acaÄŁÄ±m
Ġkapsam Ä±ndaki
Ġgazetec ilerin
Ġd r
ch ain
Ã¼s Ã¼n
ĠKafkas ya
Ġgerek tiÄŁ
ĠAl mak
ĠP hone
ĠH iz
av ig
Gel ecek
ĠH Ã¼lya
ĠÃ§ek miÅŁ
Ġuygul ayÄ±n
ĠKent sel
Ġsar Ä±ÅŁÄ±n
un ay
Ġdeniz in
ĠTIKLAY INIZ
ĠÃ§eyr eÄŁinde
Ġstat Ã¼
ĠtaÅŁÄ±n masÄ±
Ġengel liler
ĠÃĩin li
Par is
ĠL ou
abÄ± ta
H adi
Ġtah rip
ĠAbdur rahman
N AK
h p
ĠT it
Ġk okt
ĠEtkin liÄŁi
Ġyapmak tayÄ±z
ĠgeÃ§ir iyor
ĠĠĠĠĠĠĠĠ ĠĠĠĠĠĠĠĠ
d ragon
madÄ± lar
ĠAn laÅŁmasÄ±
ĠÃĩ erkes
SeÃ§ im
ĠtÃ¼rÃ¼ dÃ¼r
ĠKr alÄ±
ĠÄ°r fan
ĠD AN
Ġmilyon u
ĠG ri
ĠbaÅŁar mÄ±ÅŁ
ĠÃ¶ teki
ĠhazÄ±r Ä±z
B eb
ab iye
Ġfiyat larÄ±nÄ±n
ĠgÃ¼nde mi
ĠyÄ±l Ä±ndaki
y sa
at epe
Ġsiteniz in
de d
ĠPiyas asÄ±
ĠÃ¶ngÃ¶r Ã¼len
Ġamac Ä±na
f lasyon
Ġduy duÄŁumuz
t Ä±lÄ±
Ġgez isi
ĠseÃ§ ip
Ġbir iyim
ĠÅŀ uan
ĠKend ine
f un
Ã§ ilere
Ġkat ta
Ġtam iri
ĠkÃ¶ fte
ĠS aman
Ġkar am
diÄŁ imi
ĠÃ¶z deÅŁ
Ġgetir mesi
Ä°sp anya
ĠÃ¼rÃ¼n lerinde
Muh ammed
Ġverilm esini
ĠH ip
ĠEÄŁ it
Ġkriz in
ĠKÃ¶ se
ĠbÄ±rak mÄ±ÅŁ
ĠH on
ĠalÄ±n dÄ±ÄŁÄ±nÄ±
Ġbuy uk
ĠÃ¶ÄŁrenciler le
Ġtal ip
âĢ¦ )
ĠbileÅŁ en
elen miÅŁ
ĠhazÄ±r ladÄ±ÄŁÄ±mÄ±z
Ġister ler
ĠSah ne
ĠC ur
ĠgerÃ§ekleÅŁtir ecek
Ġart tÄ±ÄŁÄ±
Ġcas us
Ġser ver
af ra
Ġhav acÄ±lÄ±k
c han
Ġser inin
Ġsit eden
ĠM elik
Ġdoldur arak
k isel
ĠRe ad
AÅŀ A
ĠMÃ¼s lim
DEM Ä°R
ĠÃĩank Ä±rÄ±
ĠÄ°lan Ä±
ĠNet work
ah alle
Ġzan net
d Ã¶rt
Åŀeh it
ĠD R
ĠartÄ±r Ä±r
ĠÄ°st asyonu
ĠTam ir
ĠÃ§alÄ±ÅŁ tÄ±klarÄ±nÄ±
Ġbil imi
ĠMAH ALL
ĠtanÄ±m lanan
ladim ir
ĠÃ¼retim ine
ĠPAZ AR
P ark
Kategor iler
ĠoluÅŁ muÅŁ
Ġtah Ä±l
ĠmÃ¼ÅŁter iye
Ġr ay
Ġsendrom u
s iyah
Ġay gÄ±
P C
mey eceÄŁini
eler ce
ĠAm balaj
ĠYÃ¶net meni
g ez
ĠH ocam
ĠyÃ¶netim indeki
Ġsalon da
Ġdes enli
Ġ3 65
il iler
! ...
AL LAH
Ġbet a
Ġsit emizi
ĠÃĩÄ±k Ä±ÅŁ
ab le
ĠKos ova
ĠkatÄ±l ma
ĠÃ¼retim inin
Ġkonum landÄ±r
ĠfÃ¼z e
ĠoluÅŁ masÄ±
ĠgÃ¶nÃ¼l den
ĠkatkÄ± larÄ±
ĠKÃ¼b a
uf an
T rans
ĠdeÄŁiÅŁtir di
Ġkapsam Ä±na
ĠÃ§Ä±k tÄ±ÄŁÄ±nda
l inde
Ġter as
ĠBÃ¼r osu
ĠYet enek
ek imi
ĠÃĩ EK
Ġyap malÄ±
ani el
unuz la
Y IL
Ġhav aalanÄ±
Ġnokt ayÄ±
Ġfirmalar Ä±nÄ±n
Ġmay danoz
Ä° mam
tik lerini
ĠÃ¶ÄŁrenciler imize
Ġtab el
Ġf ert
ĠSiz de
ĠE DE
Ġbayan larÄ±n
ĠyÃ¶ntem le
ĠHac ettepe
ĠK OSGEB
ĠM eg
Ġhav uÃ§
Ġr ahim
ĠÅŁi iri
Ġsiz lerde
Ġfit ness
Ġdeng esini
abiliyor lar
nez yum
ĠKampany asÄ±
Ġol abilmesi
SO Y
M ete
J Ä°
ev en
D iy
ĠD ec
ĠV il
Ġalan larÄ±nÄ±
Ġhuz uru
ĠÃĸ L
Ġor anÄ±n
Ġaley h
ĠFinans al
Ġd iger
ant aÅŁÄ±
ĠMal ta
ad ay
Ġart acak
Ġs Ã¼tÃ¼n
ĠasÄ±l lÄ±
ĠAÅŁ Ä±rÄ±
lÄ±ÄŁ Ä±nca
Ġl ah
Ġhayat Ä±mÄ±zÄ±n
ĠÃ¼ret meye
ĠÃ¶f ke
Ġfil tre
ĠKarÅŁ Ä±laÅŁ
lÄ± can
ĠKÄ±r gÄ±z
Ġpark ur
S em
Ġy udum
Hay van
ĠÄ° li
ĠHikay esi
ĠanlayÄ±ÅŁ Ä±nÄ±
ĠbÃ¼yÃ¼k el
ĠÃ¼ret ken
Ġmuhabir ine
Ġsit elerinden
ĠsaÄŁlam Ä±ÅŁtÄ±r
b us
ĠgeÃ§ meye
ĠD at
Ġr ezil
ĠYÃ¶net icisi
Ġen tel
Ġhus uslar
Ġbak tÄ±
ĠUy du
Ġdetay larÄ±nÄ±
L ENDÄ°R
ĠT OBB
Ġadap te
ĠY edi
ilir se
Ġgel me
ĠgeÃ§ir mez
lÄ±ÄŁ Ä±m
ĠaltÄ±nda dÄ±r
Ġend Ã¼stri
Ġbank asÄ±
san sÃ¶r
ĠP oz
Ġeser lerin
ĠgeliÅŁmeler e
ĠB A
at tan
ul ullah
ĠkatÄ±l Ä±yor
ĠdeÄŁil siniz
l ali
ĠP ER
y Ã¼k
Ġolay dan
K EN
ĠPart ili
H Ã¼rriyet
Ġsit elerine
ĠiÅŁlet melerin
ĠtanÄ±ÅŁ mak
ĠKeÅŁ ke
ol ak
ĠA lÄ±
Ġsor usunun
ĠgÃ¶rÃ¼l meye
Ġkurs larÄ±
ĠSer maye
Ġbit iÅŁ
ĠgÃ¼ veni
in asyon
ib ir
Ġkar ayol
ĠiÅŁlet mec
EM LÄ°
Ġkav r
Ãľ s
ĠSur iyel
ĠKork ut
Ġproj elerini
ĠSÃ¼r Ã¼cÃ¼
Mar din
ĠT y
Ġark aya
ĠdavranÄ±ÅŁ lar
Ġyakal adÄ±
ĠvatandaÅŁ larÄ±mÄ±z
E debiyat
ĠAk Ä±l
ĠkarÅŁÄ±laÅŁ acak
ĠEr han
C anlÄ±
Ä°nsan larÄ±n
on ca
ĠyaÅŁ arken
ĠÃĸ k
âĢ¦âĢ¦âĢ¦âĢ¦ âĢ¦âĢ¦âĢ¦âĢ¦
anz Ä±m
ĠÃľr dÃ¼n
ĠP eÅŁ
Ġplatform da
Ġat Ä±ÅŁtÄ±r
ĠtÃ¶ren de
Ġhaber lere
B I
Ġma aÅŁÄ±
ĠkarÅŁÄ±l Ä±yor
G ec
ĠgÃ¼Ã§ lerin
R uh
ĠaÅŁ Ä±l
Ġt weet
ĠhazÄ±r da
ĠO v
Ġbun ca
Ġer im
Ġtop lar
Ġkarar lÄ±lÄ±k
Ġs usuz
Ġistiyor du
Ġyenilen ebilir
ĠSit eleri
Ġhizmet lerine
ĠKar adaÄŁ
ĠkarÅŁÄ±laÅŁ tÄ±ÄŁÄ±
Ġedecek lerini
ĠOr kest
ĠKor uyucu
R T
Ġokuy uc
ĠkulÃ¼b Ã¼n
ladÄ± lar
Ġuyg ar
ĠT oyota
Ġbildir en
TeÅŁekkÃ¼r ler
ĠaraÅŁtÄ±r mada
ĠA rada
ĠÃ¶z erk
ĠgÃ¼ncel lemesi
C Ãľ
Ġf izi
Ġim tihan
Ġgez en
ĠpaylaÅŁ Ä±lan
ĠDen eyim
ĠBaÅŁsav cÄ±lÄ±ÄŁÄ±
ĠAr as
Ġordus unun
ĠS pr
as onu
Ġhisset mek
Ġb and
Ġstad yum
ĠtaÅŁÄ±n maz
Ġal manÄ±zÄ±
Ġark asÄ±
iÄŁ e
ĠsÃ¶ylen ebilir
Ġprestij li
n eden
Ġkullan madan
Ġgez mek
Ġedin miÅŁ
rol ik
rem it
Ġmerkez lerinde
Ä±r dÄ±
mam aya
ĠulaÅŁ arak
Ġetkil edi
Ġtop luluÄŁu
ĠP ers
Ì ĩ
b all
t Ã¼n
Ġbiz lerin
ĠgiriÅŁim cilik
ĠR eg
ĠKon gr
Ġpara graf
BugÃ¼n e
ĠÅŀimdi den
Ġev inize
Ġettir mek
Ġsem ptom
ĠkullanÄ±l amaz
ĠF ri
ĠE le
tal i
Ġkab ak
ĠyaÅŁan acak
ĠarkadaÅŁ larÄ±yla
ĠtartÄ±ÅŁ maya
ĠgÃ¶r ebilir
ĠBaÅŁkan lÄ±ÄŁÄ±na
ĠÅŁah siyet
ĠÃ¶ÄŁren miÅŁ
ĠMÃ¼ hendisi
ĠBoz kurt
Ġan k
ĠAm sterdam
Ġbit mez
Ġ !!
ĠTaraf Ä±ndan
U krayna
esi den
im dir
ĠZey bek
Ġhapis han
Ä°C Ä°
Ġsebeb iyet
Ġk rom
Ġmec r
Ġsayf asÄ±ndan
Ġkir liliÄŁi
iy miÅŁ
â Ŀ¤
Ġter api
ĠgÃ¶rÃ¼ÅŁ mesi
S Ä±cak
ey ken
b or
Ġm oz
ĠT ÃľR
ĠÃ¶ÄŁren en
ĠMalzem eler
S EN
T uz
AF A
Ġail elerine
Ġt Ã¶r
iÅŁ te
ĠSat ranÃ§
Ġbilm eden
Sev gil
M Ã¼slÃ¼man
ĠAv rasya
Ġdayan Ä±ÅŁ
Ä±z da
ĠkatÄ±l mÄ±ÅŁ
mas ter
Ġistem iyoruz
ĠSur vivor
Ġb inin
Ġmahk Ã»m
ĠpaylaÅŁ Ä±ldÄ±
ĠH isar
mey ecektir
Ã½ Ã¾
ĠV iz
ĠdÃ¼ÅŁÃ¼n meden
Ä° Äŀ
Ġelbis eler
ĠOK UL
Ġsahip lerini
Ġdog ru
ĠtaÅŁÄ±n ma
Ġpolitik alar
ĠA Z
ĠZ ayÄ±f
ĠD Ã¼k
Ġbak teri
K adÄ±kÃ¶y
Ġgel mesiyle
ar dan
s ub
Bunun la
ĠgÃ¼ v
Ġ12 00
D Ä°N
Ġpor siyon
ĠelveriÅŁ li
ĠSib el
ĠgÃ¶r ebilmek
ĠGÃ¶kÃ§ en
Ġ19 15
Ġcev izi
ĠÃ§iz di
ĠUlus oy
Ġiz leri
Ġmal esef
ĠYol culuk
Ġhayat tan
Ġhaber in
D ern
ul duÄŁu
ta ge
Ġklav ye
D on
Ġanlat tÄ±ÄŁÄ±
Ġinsan larda
Ġsorun larÄ±nÄ±n
Ġpaket leme
Ã¶ portaj
eceÄŁ imi
ĠgÃ¶z Ã¼yle
ĠÅŁamp uan
ĠCerrah isi
Ġtarz Ä±nda
Y Ã¼r
H Ã¼s
ĠanÄ±m sat
ĠDevlet in
Ġbak acak
Ġekip lerinden
Ġhayat Ä±mÄ±zda
ĠR AP
Ġkes en
ay etler
Ġstratej isi
Ġdilek Ã§
Ġkend imiz
Ġdur madan
ĠB T
G Ã¼mÃ¼ÅŁ
ĠÃ¶ldÃ¼r dÃ¼
Ġatan dÄ±
S Ã¼leyman
Ġkar lÄ±
ĠNev zat
ĠA it
ĠC av
Ġfark l
ĠsoruÅŁtur masÄ±
ĠAn ton
Ġser Ã¼ven
Ġbeklent ilerini
ĠÃ§iz giler
Ġkur am
Ġkay da
man n
Ġer ecek
ĠiÅŁ lenmiÅŁ
ĠDer ya
Ä±y Ä±k
ĠK IZ
Ġgelir ler
ĠÅŁikayet Ã§i
Ġfonksiyon u
ĠFik ri
ĠBazÄ± larÄ±
di g
ĠÅŁ ab
O b
ĠSer v
Ġfikr ini
K B
is te
Ġh om
Ġzor laÅŁtÄ±r
Ġkitab Ä±nÄ±n
oy ol
ĠDin le
ĠWat ch
ĠtaÅŁÄ±y acak
Ġaltyap Ä±sÄ±
Ġtad ilat
ĠgÃ¶rÃ¼n se
tern eti
ec ep
Ġkapat mak
Ġkomp le
ĠBir den
Ġy ed
Ġhukuk a
ol ama
Ġgit meyi
Ġseviy esinin
ĠY TL
ĠTes pit
ĠkoÅŁul larÄ±nda
Ġfaal iyeti
Ġj et
ĠdÃ¶nem ini
ĠTes la
ĠBÃ¼t Ã§e
Ġb aÄŁÄ±
Ġlok asyon
Ġan kara
ĠfarkÄ±n dal
Ġyan larÄ±nda
ĠkÄ±s Ä±mda
Ġet tiniz
Ġ_ --
ledik Ã§e
Ġenf es
Ġ10 3
Ġfil ozof
Ġdestek lenen
ĠyaÄŁ lar
ĠH us
ï¿½ ï¿½
ĠB L
Ġolan Ä±n
ĠgÃ¼n lerin
ĠN at
abil eceÄŁim
ĠOk tar
M ESÄ°
ĠOper a
Ġbas arak
Ġal manÄ±n
duÄŁ undan
Ġfu arÄ±
ĠKal b
ĠyaygÄ±n laÅŁtÄ±r
Ġyap sÄ±n
Ġsev mek
uh an
GÃ¼ven lik
Ġ !!!
at it
Ġyenilen en
amak tadÄ±r
Ġkit aba
ĠY un
Ä°N CÄ°
Ġuyk usuz
ĠI lÄ±
Ġev ini
ĠfÄ±rsat Ä±nÄ±
Ġsal Ä±n
Vatan daÅŁ
Ġgazetec ilere
ĠgiriÅŁ inde
Bir bir
Ġsan mÄ±yorum
Ġhedef lerine
Ġgir me
ĠÃ¶l mÃ¼ÅŁ
ĠFer hat
ĠN ic
ĠbÃ¼yÃ¼k ÅŁehir
Ġmen aj
ĠsÄ±nav Ä±na
ĠSor unu
Ġekonom iye
ĠbÃ¶lÃ¼m e
Ġiler ley
Ġhissede cek
Ġtip ik
Ar alÄ±k
ĠKÄ±s aca
k g
Ġlok al
ĠgÃ¼zel dir
o te
ĠS EL
ĠÅŀar j
ĠB ern
Ġbin ada
ĠF OR
Ġr Ã¼ÅŁ
Ġgit tiÄŁimiz
ĠUnut mayÄ±n
ĠElektrik li
ĠG ÃľL
ĠB ob
ĠgÃ¶r erek
Ġs ac
Ġok uyorum
ĠSp a
ÅŁ in
ĠM av
Ġtrib Ã¼n
ĠgiriÅŁim inin
Ġkon seri
ĠgÃ¶rsel ler
ĠkÄ± lar
ĠbaÅŁlay Ä±nca
Ġd ist
F E
ek onomik
Ġkon v
ĠEndon ezya
ĠLez zet
Ġv ek
ide m
ĠiÅŁbir liÄŁiyle
Ġkaybol an
Ã¶zel likle
Ġbulun maz
ĠpaylaÅŁ Ä±yoruz
Res im
Ġerkek leri
ĠyapÄ± larÄ±n
ĠAyv alÄ±k
ĠYalnÄ±z ca
at ya
M ES
B O
ĠEk sik
Ġrakam larÄ±
ĠDÃ¼zen li
Ġek osistem
Ġgider ilmesi
ĠayrÄ±l mak
ĠiÅŁ lerine
Ġkesin t
Ġsen elik
Ġtamam lanmÄ±ÅŁ
taraf Ä±ndan
ĠLef koÅŁa
Ġak Ä±cÄ±
ĠsÄ±r asÄ±
Ġeklen miÅŁtir
is iyat
Ġver eyim
ĠKÄ±r klareli
ÃĸÄŁr etim
.. !
Ġduy duÄŁunu
ĠmaÃ§ lar
ĠM Ã¼mkÃ¼n
Ġ197 4
ĠUl tra
gen el
Ġop tik
ĠA G
ĠZ ehra
Ġhizmet ten
Ġk ostÃ¼m
Kar ab
Ġbul masÄ±
ĠK uz
ĠyeryÃ¼z Ã¼nde
Ġsun duÄŁumuz
T e
F OR
ĠmaÄŁ ar
Ġel li
ĠkÄ±z a
med iler
ĠsÄ±z dÄ±r
n asÄ±l
ĠD eli
ĠÃ§alÄ±ÅŁ acaÄŁÄ±m
ĠetmiÅŁ lerdir
g Ã¶n
ĠyarÄ±ÅŁ masÄ±nda
Ġt iÅŁÃ¶rt
ĠdÃ¼zenlem esi
ĠkonuÅŁtu ÄŁ
ĠkonuÅŁ urken
Ġ19 23
de al
hats app
Ġsu dan
ĠCen evre
Ġden izi
ĠyaÅŁan abilir
ĠdÃ¼zenlen miÅŁ
ĠZ e
ank aya
ĠyapÄ±l malÄ±
ĠT Ä±r
ron e
Ã¶ ken
ĠmÃ¼hendis liÄŁi
c Ä±n
ĠAD ET
ĠparÃ§ al
ĠN uh
ĠÃ§alÄ±ÅŁ kan
id di
ĠRestor an
ĠdeÄŁiÅŁim e
ĠÃ§atÄ±ÅŁ malar
h ip
ĠBaÅŁkan larÄ±
Ġsec de
ben de
Ġekonom inin
Ġl ed
o in
Ġnak led
Ġkullan Ä±yoruz
ĠPAR TÄ°
Ġintik al
____ ____
al ey
ĠuÄŁr adÄ±
Ã§ Ä±lÄ±ÄŁÄ±
z heimer
Ġmik rop
ay abilirsiniz
ak tan
ĠSpor larÄ±
san a
Ġeser in
Ġkend ilerinden
Y azÄ±
Ġkut landÄ±
Kay makam
ĠÃ§Ä±k tÄ±m
dÃ¼k siyon
an oz
Ġprosed Ã¼r
Ġvar Ä±ÅŁ
ĠMel ih
Ġko operatif
LER Ä°N
Ek onomi
LER E
ĠyaÅŁam Ä±na
Ä° r
ĠL an
Ġy oga
. Â»
ĠS up
amam Ä±ÅŁtÄ±r
ĠdeÄŁerlendirmeler de
MÃ¼ÅŁ teri
ist er
Ġsun muÅŁ
ĠAr m
ĠbÄ±rak Ä±lan
ĠHer ÅŁey
ĠFil iz
Ġev lerin
Ġsayg Ä±yla
ĠPro blem
ĠDest eÄŁi
Ġkapasit esine
Ġbelir lediÄŁi
ĠKap lama
Mar mara
ĠNÃ¼f us
ĠÃ¼y eliÄŁ
Ġhikay eler
lini ÄŁi
ĠÃ¼r etir
Ġ ....
D HA
ĠM oÄŁol
Ġdik ey
Ġv eli
ĠL akin
B aba
Ġbulun madÄ±ÄŁÄ±
Ġistis na
Ġbak mayÄ±n
Ä±lmasÄ± yla
Ġelem anlarÄ±
ĠF orex
Ġot op
Ġh Ã¼s
ĠgÃ¶tÃ¼r Ã¼r
ĠZam anÄ±
ba a
ĠoÄŁl unun
D etay
van ya
Ġspor a
ĠgerÃ§ek tir
EM Ä°Z
Ġsend ika
of ya
ĠseÃ§im lere
H O
( !)
Ġiy iye
Ġc ocuk
Ġkarab iber
Ġesir g
ĠÅŁikay etler
Ġyan da
ĠMÃ¼ÅŁ ter
Ġeh li
Ġilk eleri
ĠBil l
ĠJ ul
alÄ± cÄ±
len ip
Ã¼z zaman
ĠHayÄ±r lÄ±
ĠAs la
ĠÃĩ oban
ĠgeÃ§ tim
Ġbilm iyoruz
ĠBer g
ĠU fuk
ĠyÃ¼k lem
ĠyanÄ±t Ä±nÄ±
li van
ĠKÃ¼ltÃ¼r el
Ġo m
ĠyatÄ±r ma
ĠR et
ark an
ĠdÃ¼z eye
ĠÃ§ eki
ĠTun celi
tin a
ĠÄ°lah iyat
ĠÃĩaÄŁ layan
Ġpiyas asÄ±nda
Ġyetenek leri
Ġhizmet inde
ĠâĢ ĭ
at ar
Ġpozisyon da
ĠK us
Ġoluyor sunuz
Ġde de
Ġmas ke
ĠboÅŁ una
Ġh obi
ĠBu d
yi d
ĠFin landiya
ĠM ol
ĠgeÃ§ir meye
ĠanlaÅŁ Ä±lÄ±yor
ĠYan dex
ĠgÃ¼n Ã¼nden
ĠbaÅŁlay alÄ±m
ĠT aÅŁk
Ġt rak
ĠLim an
Kah v
Ã¼ se
ĠTar Ä±k
ĠR ahmet
Ġsorun lu
ecek sin
ĠKul Ã¼b
ĠMan ÅŁet
Ġf lash
g Ã¶
Kart al
Ġyapacak larÄ±
s Ä±k
Ġkaynak larÄ±nÄ±n
ĠD osy
... )
ek Ã¶y
dan s
Ġservis e
on der
ĠEK ONOM
Ġperiy odik
Ġbilir im
B ol
Ġgez gin
ĠE ver
ef ox
uluÄŁ unu
Ġhaber ini
ĠgeÃ§ir ilmesi
ĠUy gur
Ġdol usu
ĠJ im
Ġy aya
ĠT our
ĠG om
Ġfot ograf
Ġak aryakÄ±t
Ġgetir ilmiÅŁ
ĠrahatsÄ±z lÄ±ÄŁÄ±
ĠMAL Z
Ġcevap larÄ±
ĠT ASAR
H ER
m iye
ĠS mart
ĠÃ¶ner ilir
ĠtÃ¼f ek
m adÄ±ÄŁÄ±nÄ±z
ĠFar s
ĠRich ard
Ġdonat Ä±lmÄ±ÅŁ
ĠN EDÄ°R
ĠG ames
ĠkÄ±z gÄ±n
Ġnes ne
Ġiktidar Ä±n
ĠB OY
ĠÄ°s im
Ġkorun mak
Ġgrup larÄ±n
yar dÄ±m
Ġark asÄ±ndaki
Ġman ken
Ġder b
lÄ±k larÄ±n
Ġekley ebilirsiniz
Ġbay aÄŁÄ±
ĠAn asayfa
ĠT ime
Ġnem lendir
Ġstan t
ĠÄ°ÅŁlem leri
Ġyur d
ad il
u ge
ĠI C
may Ä±z
ĠE yal
Ġtan esini
ĠÃ§eÅŁit liliÄŁi
Ġmuc ize
aÅŁ ma
Ġgide b
Ġfonksiyon el
Ġar adÄ±m
ĠkarÅŁ Ä±y
ĠBaÄŁ lÄ±
ĠN Ã¶
Ä°ZM Ä°R
bu gÃ¼n
ĠÃ¶z ver
ĠgeÃ§ir me
uÃ§ uk
ĠAr Ä±
G al
ĠB oyu
ĠDemir ci
ĠDÄ±ÅŁ arÄ±
D Ã¶rt
ĠgeÃ§ mesine
ĠÃ¶de mesi
Ġuygul ayan
ĠH un
ĠMekt up
ĠBil imi
Ġ02 16
ĠyaÅŁ adÄ±ÄŁ
Ġtaraf tarÄ±
asyon el
ank ara
ĠmÃ¼cadel esini
K em
Ġyol larda
alar daki
ĠMÃ¼cad el
ir di
Ġs icil
ĠkÄ±skan Ã§
Ġap ar
Ġadres inize
Ġol a
Ġgec elik
K AY
AT Ä°K
Ġ10 2
ĠÃ§evr ili
ad Ä±nÄ±z
ĠAÅŁ Ä±k
ĠR af
ĠÅŀ ans
p atik
if ik
Ġav rupa
Ã¼rk an
ĠKelim e
Ġhaz ret
ĠyÃ¼k s
F ik
Ġor kest
ĠÅŀ EK
? .
Ġprogram larÄ±na
Ġk ac
Ġkontrol Ã¼nÃ¼
Ġlit r
Turk cell
ĠmÃ¼dÃ¼r lÃ¼k
n ca
Ġav ukatÄ±
Ġson unu
Ġ198 3
ĠGiriÅŁim cilik
ĠF ot
ĠmÃ¼dÃ¼r leri
Ġtut muÅŁ
Ġhalk Ä±mÄ±zÄ±n
ĠkÄ±rÄ±k lÄ±ÄŁÄ±na
ĠgeldiÄŁ ince
Ġistem em
Ġkurum lara
ĠÃ§Ä±k Ä±nca
b es
ĠkatÄ±lÄ±mcÄ± larÄ±n
ĠKom edi
Ġheyecan landÄ±r
Ãĸ Äŀ
Ġistiyor san
Ġbulut lu
Ġkur ar
Ġsonuc una
Ġyap malÄ±yÄ±m
Ġrest ore
Ä±z lÄ±k
ĠamaÃ§ lar
Ġr eyting
ĠkarÅŁ Ä±nÄ±z
Et kin
Ġuygulam asÄ±nÄ±n
Ġar da
Ġtar ikat
Kullan Ä±cÄ±
Ġp al
ĠBar zani
Bun larÄ±n
ĠYaz Ä±lÄ±
Ġav ro
ĠK e
Ġkes ildi
ken di
Ġunut mamak
ĠAs s
M u
ET Ä°K
ĠÅŁekl ini
Ä°YOR UM
Ġdiye bil
ĠdÃ¶nem inden
unda i
Ġterc Ã¼m
al Ä±ÄŁÄ±
san at
el eyen
ĠG Ã¼cÃ¼
Ġbak abilirsiniz
Ġyenil g
ĠÃ§Ä±kar mÄ±ÅŁ
ĠBUR SA
ĠiÅŁley iÅŁ
may arak
Ġpsik oloj
ĠÃ¼rÃ¼n dÃ¼r
Ġdik en
Ġdev ri
ĠGÃľN CEL
B AY
ĠK Ã¶r
Ġle h
Ġr Ã¼t
ĠaÄŁz Ä±
Ġvel iler
ĠAr acÄ±
at t
ock chain
Ġduy duklarÄ±
Ġaday larÄ±nÄ±n
ĠDe ad
ad min
ĠM ore
Ġhal let
or f
Ġkazan masÄ±
Ġsempoz yum
Ġbes lenen
ĠP ic
Ġyararlan abilirsiniz
ĠMus ul
ver cin
Ġyarar Ä±na
ĠAN ADOLU
ĠgeliÅŁ mesine
iz ma
Ġmev z
ĠgÃ¶z Ã¼nÃ¼
Y erli
Ġyaz Ä±ya
RUP A
Ġan lÄ±yor
ĠEM LAK
Ġak ar
Ġy outube
Ġz a
Ġkazan abilirsiniz
ĠSaklÄ± dÄ±r
Ġbit ecek
Ġsebep leri
ÄŁ im
ĠgeÃ§miÅŁ ten
Ġimz asÄ±
f az
ĠS Ã¼s
ilm is
ĠMil yar
Ġdin dar
y l
ĠOf f
ĠbaÅŁlad Ä±ÄŁÄ±nda
n ar
Ġan estezi
ĠÃ§ek meyi
ĠS AV
El azÄ±ÄŁ
ĠH um
Ġbul aÅŁÄ±k
ben ce
Ġbak la
ĠÄ°f tar
Ä°nÅŁ aat
Ġilk Ã¶ÄŁretim
Ġdin let
Ġmet ot
y aÄŁ
Ġard Ä±na
. âĢĻâĢĻ
Ġek lenir
ĠateÅŁ e
Ġide olojik
ĠT ac
ĠEl de
Ġh ib
c ekten
Ġtoh umu
ĠFi dan
ĠC Ã¼neyt
Ġul as
ahh it
Ġhediy elik
Ġayar larÄ±
Ġkib ar
Ġw ith
Ġtem bel
Ġhesap lama
Ġbu t
ĠaraÅŁtÄ±r malarÄ±
Ġkend in
t anÄ±
ĠdeÄŁerlendir mesinde
ĠÄ° TÃľ
ĠkarÅŁ Ä±nÄ±zda
Ġsat ranÃ§
Tur izm
Ġes en
ĠT EB
Ġetm iyorum
ĠGÃ¼n gÃ¶r
Ġ ï
ĠBoz daÄŁ
b atÄ±
Ġpazar Ä±na
Ġediyor sanÄ±z
Ġkaz anÄ±n
Ġunsur lar
ĠÃ¶lÃ¼m cÃ¼l
ĠkÄ±s acasÄ±
Ġtahamm Ã¼l
Ġyap ayÄ±m
ĠbaÅŁk asÄ±nÄ±n
ĠYet iÅŁtir
Ġetk iye
ĠChar les
g ec
ĠtÃ¼m Ã¼yle
ĠgÃ¶nder ilir
Ġdir i
Ġsunul muÅŁtur
ĠÃľlk emizin
oter ap
Ġbin alarÄ±n
ĠSevgil iler
Ġsefer leri
ĠdaÄŁÄ±t Ä±mÄ±
AN LAR
ĠuzaklÄ±k tadÄ±r
T Ä±p
ĠÅŀ AH
Ġaj ansÄ±
ĠgÃ¶ster ileri
Ã¼nÃ¼z Ã¼n
ĠkaynaÄŁÄ± dÄ±r
ĠG ÃĸZ
ĠKamp Ã¼sÃ¼
K ÃľR
Ġst abil
ĠdeÄŁer lere
ĠulaÅŁ Ä±r
Ġbitir mek
Ġhal indeki
ĠL at
Ġtamam lay
tÄ±ÄŁ Ä±mda
ĠBak Ä±n
ĠY av
ĠG Ä°BÄ°
man a
Ġp ic
B AR
ĠRab bi
ĠuÄŁraÅŁ an
ĠElec tr
ĠTeb liÄŁ
Ġtez ah
K en
ĠV ietnam
Ġif las
Ġyer le
ĠBil gin
Ġilg iyle
Ġtamam layarak
ĠYÄ±l baÅŁÄ±
Ġest etiÄŁi
ĠiÅŁ inde
Ġyeter lilik
ĠÅŁark Ä±yÄ±
t he
in at
Ġeylem leri
ĠDis iplin
ĠBar osu
ev leri
ĠZ aferi
Ã¼m r
DeÄŁ iÅŁik
ĠyÃ¶net meli
ĠArke oloji
ru h
Ġaz ap
Ġkap sar
Ġyasak tÄ±r
ĠTop al
ĠTeknik leri
ebil eceÄŁimiz
Ġizlen im
Ġtemiz lemek
Ġat tÄ±m
Jap onya
ĠÃĸÄŀ RET
laÃ§ atÄ±
Ġgerek Ã§e
ĠGÃľN DEM
aff uz
ĠÃĸl dÃ¼r
Ġail em
ib et
at Ä±nÄ±
Ġip ek
ĠalÄ±ÅŁveriÅŁ inde
Ġd uvara
Ġbozukluk larÄ±
Ġc el
Ġkalk tÄ±
ĠÄ°lk bahar
ĠÃ¶rgÃ¼tÃ¼n e
Ãĩ A
ĠAt las
Ä±nday dÄ±
ĠPremi er
B ayan
Ġy Ã¼cel
Mil liyet
Ġkarar la
Ġverildi ÄŁini
n Ã¢
Ġin en
S Ä±k
ĠEy l
ler imin
Ġsebep lerden
Ġsezon a
o on
Ġsorunun un
H erkesin
Ġsayf aya
ĠE leÅŁtir
ĠTÃ¼ket ici
Ġs Ã¼
ĠaÄŁ abey
ĠL azer
ic inin
ĠyatÄ±rÄ±m cÄ±lar
ĠeÅŁ cinsel
ĠMas aj
ĠK ob
ĠAf et
ON U
ĠhoÅŁ una
lerim den
ĠCem aat
Ġbeklet in
Ġplak et
an ca
ĠP iÅŁ
Ġbilgiler inin
ĠyayÄ±n lar
eler dir
ĠSa it
Ġver eceÄŁini
ĠkatkÄ± larÄ±yla
ĠM EV
Film in
ĠKonak lama
ĠbÃ¶lÃ¼m Ã¼n
Ã¼yor du
ĠbÃ¶lg eden
Ġyal Ä±n
Ġyaz mayÄ±
ĠparÃ§asÄ± dÄ±r
M esela
Ġask Ä±ya
ĠYap rak
Ġk uzu
ĠÃ§oÄŁ unu
ĠgÃ¶nder erek
Ġmakin asÄ±
K oÃ§
U lu
Ġkesin tisi
ĠÃ§alÄ±ÅŁmalar Ä±mÄ±zÄ±
ĠTah ran
ĠÃĩ ant
ĠamaÃ§ larÄ±
ta da
ĠÅŁub esi
Ġtest ler
Ġuygulam alarÄ±nÄ±
Ġkar ton
ĠMac era
g mail
ĠBus iness
U EFA
edi Ã¼zzaman
S ER
M y
Ġkur up
is iyim
Ġes pr
ĠÄ°N DÄ°R
ĠH EM
ĠÅŁehr ine
n ut
ĠÃ¼stÃ¼n lÃ¼k
ĠY alÄ±
ĠSER V
P az
ĠDaÄŁÄ± tÄ±m
ĠgÃ¶ster iliyor
ĠtuÅŁ una
Ġon ca
ĠyaÄŁ Ä±ÅŁlÄ±
Ġspor larÄ±
Ġdis ip
Â ĵ
Ġ6 50
ĠilÃ§ elerinde
at om
** **
ĠaraÃ§ larÄ±nÄ±
T OKÄ°
Ġyok muÅŁ
ab Ä±n
Ãľs kÃ¼dar
u er
ĠyÃ¶netim ini
Ġyah u
ĠgÃ¼ney inde
Ġdo larÄ±n
ĠMa il
Ġy Ä±ÄŁÄ±n
ĠL ed
p et
ĠTe or
ĠPremi um
Ġol unan
Ġsavun du
Ġolabilir im
ĠÃ§alÄ±ÅŁ tÄ±ÄŁÄ±m
ĠD og
emey eceÄŁi
b iÃ§
ĠdÃ¼ÅŁ me
ĠR ay
Ġyarat ma
ĠyÄ±l an
Ġer g
Ġâ ĺ
ilm esinden
ĠdÃ¼zen e
Ġh ort
Ġkur uyor
bn b
ĠTaÅŁ Ä±n
Ġc Ä±v
leriniz den
ĠYaÄŁ lÄ±
Ġ11 5
ĠÃĸÄŁrenc ilerin
Ġyap malÄ±sÄ±nÄ±z
Ġpsik oloji
ub le
ĠyaÅŁ larÄ±nda
ĠÅŀ EY
ĠV ladimir
Ġhareket in
Ġvesil eyle
ĠFilistin li
c ili
ĠkÃ¶ le
ĠsÄ±nÄ±r landÄ±r
Bah Ã§e
DEK Ä°
ab ri
ĠBenim le
ĠhatÄ±r lÄ±yorum
ĠBat Ä±lÄ±
Ġedin en
M ek
Ġhayal ini
Ġsen eye
ĠÅŀey tan
Ġman tÄ±ÄŁÄ±
Ġbahar at
ĠF an
y Ã¶n
ĠL ar
ĠAh lak
ĠCan er
ĠsÄ±ralam asÄ±nda
ĠÃĩev iri
ĠDer gi
ir seniz
ĠkatÄ±l Ä±yorum
ĠanlayÄ±ÅŁ Ä±yla
L AS
eler deki
ĠyÃ¼rÃ¼yÃ¼ÅŁ Ã¼
ĠdediÄŁ iniz
B oÅŁ
Ġyet miyor
ĠSivas spor
ĠÃ¼lk esine
Ġpart iye
ĠsaÄŁlan acak
ĠhemÅŁ ir
ĠÃ¼y elerin
Ġortak lÄ±ÄŁÄ±
ĠÃ§alÄ±ÅŁmalar Ä±yla
duÄŁ un
Ġh it
k ad
ĠYÃĸNET Ä°M
ĠB eÄŁen
U ST
Ġbilg ili
iz asyonu
Ġher gÃ¼n
Ġsilah lar
ĠYÃ¼ksek Ã¶ÄŁretim
ĠD AV
oh um
Ġt im
Ä±n aÄŁÄ±
ĠgeleceÄŁ ine
Ġsevg iyle
P lay
ĠgÃ¼ven c
Ã¶y ley
Kol ay
Ġteker lekli
ĠGeÃ§ ici
ĠborÃ§ lu
Ġkal sÄ±n
Ġet men
ĠSÃ¶z ler
ĠayÄ±r mak
Ġpas if
ĠD esign
ĠUy ku
Ġsunul masÄ±
Ġemperyal ist
ĠdoÄŁ asÄ±
Ġmutf aÄŁÄ±
ĠErg enekon
Ġhusu sta
ĠOper asyonu
iy ecek
Ġyap mayÄ±n
Ġy uz
ĠhazÄ±r landÄ±
Ġkategor isi
ĠBurs lu
ĠAlan lar
Ġdep artman
ĠKay serispor
Ġder ledik
ĠaÃ§Ä±k lamak
T FF
ĠRabb imiz
ĠÄ°ktis at
B es
Ġm ama
ĠBer aber
Kar s
Ġzorluk lar
ĠilÃ§ enin
Ġdenet imi
abileceÄŁ inizi
iy az
TEP E
ĠYayÄ±n cÄ±lÄ±k
Ġh Ã¼rriyet
ĠOn ay
Åŀ ampiyon
Ġmemlek eti
Ġpazar lÄ±k
ĠbÃ¼yÃ¼ dÃ¼
ih azÄ±rda
ĠÅŀen liÄŁi
Ġsinem aya
S ipariÅŁ
tic s
in stein
ĠgÃ¶z etim
ilm ezi
erk Ã¼k
ĠFayd alarÄ±
Ġyem eÄŁe
Ġh ekt
Ġkol ye
P N
Ġasker in
ĠBab am
ĠsÃ¶yley ecek
Ġamac a
Ġkan ama
ĠET KÄ°N
ĠgÃ¼n lere
Z onguldak
ĠF IR
Ġifad elerine
D ost
im ahalle
Ġhep sine
ĠgÃ¶tÃ¼r en
ĠgeÃ§ir erek
ĠÃĩ orlu
ĠOrt aÃ§
AL AN
es iydi
Ġek liyor
Ġsosyal ist
ĠEr bil
Ġtut uÅŁ
er leri
Ġtad Ä±nda
Ġdeniz de
Ġbirbir imize
Ġkarakter leri
allah i
ĠS ezer
LU K
ĠKAZ AN
ĠÃ§ alar
ĠTer min
ĠYol cu
M O
Ä°Y LE
199 8
Ġbank alarÄ±n
S izi
Ġbat ary
ĠV ef
ier re
ĠK lip
Ġobez ite
it me
ĠdeÄŁiÅŁ mektedir
ĠarkadaÅŁ Ä±nÄ±n
ĠBÃ¼r o
Ġfestiv ali
ut u
ĠC anan
Ġmen z
Ã¢ li
Ġbar Ä±ÅŁÄ±
ĠSoru larÄ±
X X
Ġmil lÃ®
ĠÃľl ker
ĠÅŁÃ¶ hret
Ġyer inin
Ãĸ mer
ĠBoÄŁ azÄ±
miÅŁ lerdir
Ġt om
Ġfilm lerin
Ä±l abilecek
tan siyon
UR T
ĠUl uslar
Ġortal amasÄ±
ĠCep h
ĠGÃ¶rÃ¼n t
Ġas lÄ±
ĠsÃ¼r mektedir
Ġyaz Ä±ldÄ±
Ġmensup larÄ±nÄ±n
ĠtakÄ±m Ä±nÄ±
ĠgÃ¶rÃ¼ÅŁ mede
ĠalÄ±ÅŁkan lÄ±ÄŁÄ±
l allahu
meler inin
ĠDar be
ĠER DOÄŀAN
Ġkapat tÄ±
ĠzayÄ±f lama
Ġi br
Ġyap Ä±sÄ±yla
Ġzor laÅŁ
ĠaÄŁ ustos
ĠRob ot
Ġhav alarda
O nu
Ã ª
Ġs ulu
ĠG emi
ĠiliÅŁk iyi
Ã¼yor lar
Ġtut acak
Ġimzalan dÄ±
Ġfabrik asÄ±
ĠaÅŁ amasÄ±
ĠyÃ¶net mek
ĠC EV
Ġf ran
dan ya
T Ä°N
ĠSiz ce
ĠÃ¼niversit enin
ĠoluÅŁ umu
Ġg azi
Ġparamet r
dur ma
Ġbur alarda
Ġfikir lerini
Ġsor una
M Ä°
Ġver ilerek
Ġekm eÄŁi
ĠM ans
Ġh asÄ±l
Ġasker lerin
dÃ¼k leri
ĠAbdÃ¼lham id
ĠSÃ¶z leÅŁme
ĠkarÅŁÄ±laÅŁ tÄ±
ĠsÃ¶zleÅŁ meli
ĠSab it
ur i
ĠÃĩ erkez
ĠKon feder
G ez
ĠkÃ¼t l
ĠS D
Ġat alÄ±m
par slan
ĠaraÃ§ la
duÄŁunuz da
Ġdedik leri
Ġenerj iyi
ĠVen Ã¼s
ĠHikay e
ĠT UT
ĠyapÄ±m cÄ±
id ye
ĠsÄ±kÄ±ntÄ± larÄ±
ĠM esel
ĠyerleÅŁtir me
Ġsor muÅŁ
Ġincelen mesi
Ġfel Ã§
ĠateÅŁ i
Ġmed res
Ġt ik
Ġod alarÄ±nda
Ġh ile
ĠÅŀampiyon u
Ġtur uncu
ĠEm rah
ĠAnn esi
les ene
m erkez
eÄŁ inizi
Ġyap Ä±cÄ±
ĠilaÃ§ larÄ±
Ġdeng esiz
O ff
ĠkiÅŁi dir
... âĢĿ
Ġerk eÄŁi
H a
ĠKend inizi
ĠV ers
oc h
cÄ±lÄ±ÄŁ Ä±n
ĠÃ¶n lenmesi
L K
ĠoluÅŁtur maya
Ġsit enizi
ĠÃ§Ä±kar sa
ĠkaÃ§ tÄ±
Ġgayret i
ĠoluÅŁtur arak
unuz dan
Ġkomb ine
ulus i
Fil istin
ĠbÃ¼r o
ĠÃ¼ret ilmektedir
Ġek ÅŁi
Ġhijyen ik
T HY
Ġces edi
ĠarttÄ±r Ä±r
ĠgeÃ§ iÅŁi
Mut fak
ĠEn ter
S c
Ġfirmalar dan
Ġgecik tir
Ġ19 19
ĠÃĩ EV
ĠHekim liÄŁi
Tek irdaÄŁ
ĠSing apur
ĠC R
ĠH T
am it
iy ade
Ġoyuncu lara
ĠBilg ilendirme
ĠDEÄŀ Ä°Åŀ
ĠM eri
ĠYer leÅŁ
Ġyarat Ä±k
ĠateÅŁ te
ĠÂ °
ĠedeceÄŁ iniz
Ã¶rf ezi
ĠÄ°skender un
ir o
Ġmevsim inde
Ġbilin miyor
S oÄŁuk
ĠPas ta
Ġan h
Hay al
B izi
Bah ar
INI F
ĠUy um
ĠaÃ§Ä±k lÄ±yor
ĠOy unda
ĠKol ye
ĠÃ§Ä±kar acak
Ġn ev
Ġip hone
ĠhemÅŁ ehr
ĠkarÅŁÄ±l adÄ±
Ä±y Ä±l
ih isar
al oÄŁu
ĠH ong
Ġsayf amÄ±zdan
Ġkut lam
ĠarkadaÅŁ lara
us an
Ġpaket leri
ĠbÃ¶yl edir
Ġd Ä±r
Ġmevs imi
ti gi
Ġkadro ya
F C
Ġrisk leri
ĠKasÄ±m paÅŁa
ĠiÃ§eri ÄŁini
Ner ede
ĠN Ã¼kleer
dÄ±r lar
ĠO z
ĠÅŁirket e
Ġeser lerini
ĠA str
ĠT AV
Ġkap Ä±l
ĠsaÃ§ larÄ±
osman paÅŁa
b ebek
ĠD iye
lan dÄ±ÄŁÄ±nda
ĠYap mak
Ġr andev
ĠtaÅŁ eron
Ġhangisi dir
Ġmark asÄ±nÄ±n
Ġbilin mesi
ĠuÃ§ ur
ĠbuluÅŁ an
Ġpropagan da
Ġmaliyet leri
ĠEn es
ĠÃ¶zgÃ¼r ce
ĠL ive
ĠSu at
Ġyal var
ĠKoleksiyon u
ĠParlament osu
o se
ĠayrÄ±ntÄ± larÄ±
KK TC
ĠkarÅŁÄ±lan dÄ±
Ġyaz Ä±mÄ±z
il ya
Ġayr Ä±nt
ĠkÄ±z art
ĠSan d
Ġgetir ilmiÅŁtir
ĠaÄŁaÃ§ larÄ±
Ġkons olos
iter atÃ¼r
b oz
ĠsÃ¼r Ã¼l
ĠaÄŁrÄ± larÄ±
ĠdeÄŁer inin
B asÄ±n
ĠsaÄŁ landÄ±
Ġgit sin
ĠKitap lar
Ġyok ken
ĠÅŀer ef
ĠhÃ¼kÃ¼m lerine
ĠVar lÄ±k
ĠalÄ±yor lar
Ġekip lerince
ĠbaÅŁ Ä±nÄ±za
Ġistek lerini
ans ever
f el
ĠÃ¶ldÃ¼r mek
ayÄ±n dÄ±r
ĠMuh af
Ġnisp eten
ĠAn imasyon
ĠZ emin
ĠyapÄ±m Ä±na
Ġkay Ä±n
Ġaz ami
iver pool
ĠgÃ¼Ã§lendir mek
ĠiÅŁlem lerinde
Ġkaynak larÄ±n
Ġdin lendir
ĠC up
Ġren garenk
Ġkim liÄŁini
Ġyor ucu
ĠF ox
Ġyaz lÄ±k
ĠP eyn
M EB
v az
Ãĩ ukur
Ġkan unu
Ġn ic
en en
ĠuÄŁr amÄ±ÅŁ
ĠF al
ĠÃ¶ldÃ¼r en
Ġgen c
Ġduyur uldu
Ġd um
Ġf iber
Ġgerek lilik
ede b
Ġedilm eye
Ġtakv iye
Ġisten iyor
Ġap art
ay abilir
ĠYazar lar
ĠNur ettin
Ġy y
Ġyetenek lerini
Ġoyun dan
ĠseÃ§ erken
el eÅŁtir
Ġal Ã§
Ġhap se
M ayÄ±s
[...]
