{
  "version": "1.0",
  "truncation": null,
  "padding": null,
  "added_tokens": [
    {
      "id": 0,
      "content": "<|endoftext|>",
      "single_word": false,
      "lstrip": false,
      "rstrip": false,
      "normalized": false,
      "special": true
    }
  ],
  "normalizer": null,
  "pre_tokenizer": {
    "type": "ByteLevel",
    "add_prefix_space": false,
    "trim_offsets": true,
    "use_regex": true
  },
  "post_processor": {
    "type": "ByteLevel",
    "add_prefix_space": true,
    "trim_offsets": false,
    "use_regex": true
  },
  "decoder": {
    "type": "ByteLevel",
    "add_prefix_space": true,
    "trim_offsets": true,
    "use_regex": true
  },
  "model": {
    "type": "BPE",
    "dropout": null,
    "unk_token": null,
    "continuing_subword_prefix": "",
    "end_of_word_suffix": "",
    "fuse_unk": false,
    "byte_fallback": false,
    "vocab": {
      "<|endoftext|>": 0,
      "!": 1,
      "\"": 2,
      "#": 3,
      "$": 4,
      "%": 5,
      "&": 6,
      "'": 7,
      "(": 8,
      ")": 9,
      "*": 10,
      "+": 11,
      ",": 12,
      "-": 13,
      ".": 14,
      "/": 15,
      "0": 16,
      "1": 17,
      "2": 18,
      "3": 19,
      "4": 20,
      "5": 21,
      "6": 22,
      "7": 23,
      "8": 24,
      "9": 25,
      ":": 26,
      ";": 27,
      "<": 28,
      "=": 29,
      ">": 30,
      "?": 31,
      "@": 32,
      "A": 33,
      "B": 34,
      "C": 35,
      "D": 36,
      "E": 37,
      "F": 38,
      "G": 39,
      "H": 40,
      "I": 41,
      "J": 42,
      "K": 43,
      "L": 44,
      "M": 45,
      "N": 46,
      "O": 47,
      "P": 48,
      "Q": 49,
      "R": 50,
      "S": 51,
      "T": 52,
      "U": 53,
      "V": 54,
      "W": 55,
      "X": 56,
      "Y": 57,
      "Z": 58,
      "[": 59,
      "\\": 60,
      "]": 61,
      "^": 62,
      "_": 63,
      "`": 64,
      "a": 65,
      "b": 66,
      "c": 67,
      "d": 68,
      "e": 69,
      "f": 70,
      "g": 71,
      "h": 72,
      "i": 73,
      "j": 74,
      "k": 75,
      "l": 76,
      "m": 77,
      "n": 78,
      "o": 79,
      "p": 80,
      "q": 81,
      "r": 82,
      "s": 83,
      "t": 84,
      "u": 85,
      "v": 86,
      "w": 87,
      "x": 88,
      "y": 89,
      "z": 90,
      "{": 91,
      "|": 92,
      "}": 93,
      "~": 94,
      "¡": 95,
      "¢": 96,
      "£": 97,
      "¤": 98,
      "¥": 99,
      "¦": 100,
      "§": 101,
      "¨": 102,
      "©": 103,
      "ª": 104,
      "«": 105,
      "¬": 106,
      "®": 107,
      "¯": 108,
      "°": 109,
      "±": 110,
      "²": 111,
      "³": 112,
      "´": 113,
      "µ": 114,
      "¶": 115,
      "·": 116,
      "¸": 117,
      "¹": 118,
      "º": 119,
      "»": 120,
      "¼": 121,
      "½": 122,
      "¾": 123,
      "¿": 124,
      "À": 125,
      "Á": 126,
      "Â": 127,
      "Ã": 128,
      "Ä": 129,
      "Å": 130,
      "Æ": 131,
      "Ç": 132,
      "È": 133,
      "É": 134,
      "Ê": 135,
      "Ë": 136,
      "Ì": 137,
      "Í": 138,
      "Î": 139,
      "Ï": 140,
      "Ð": 141,
      "Ñ": 142,
      "Ò": 143,
      "Ó": 144,
      "Ô": 145,
      "Õ": 146,
      "Ö": 147,
      "×": 148,
      "Ø": 149,
      "Ù": 150,
      "Ú": 151,
      "Û": 152,
      "Ü": 153,
      "Ý": 154,
      "Þ": 155,
      "ß": 156,
      "à": 157,
      "á": 158,
      "â": 159,
      "ã": 160,
      "ä": 161,
      "å": 162,
      "æ": 163,
      "ç": 164,
      "è": 165,
      "é": 166,
      "ê": 167,
      "ë": 168,
      "ì": 169,
      "í": 170,
      "î": 171,
      "ï": 172,
      "ð": 173,
      "ñ": 174,
      "ò": 175,
      "ó": 176,
      "ô": 177,
      "õ": 178,
      "ö": 179,
      "÷": 180,
      "ø": 181,
      "ù": 182,
      "ú": 183,
      "û": 184,
      "ü": 185,
      "ý": 186,
      "þ": 187,
      "ÿ": 188,
      "Ā": 189,
      "ā": 190,
      "Ă": 191,
      "ă": 192,
      "Ą": 193,
      "ą": 194,
      "Ć": 195,
      "ć": 196,
      "Ĉ": 197,
      "ĉ": 198,
      "Ċ": 199,
      "ċ": 200,
      "Č": 201,
      "č": 202,
      "Ď": 203,
      "ď": 204,
      "Đ": 205,
      "đ": 206,
      "Ē": 207,
      "ē": 208,
      "Ĕ": 209,
      "ĕ": 210,
      "Ė": 211,
      "ė": 212,
      "Ę": 213,
      "ę": 214,
      "Ě": 215,
      "ě": 216,
      "Ĝ": 217,
      "ĝ": 218,
      "Ğ": 219,
      "ğ": 220,
      "Ġ": 221,
      "ġ": 222,
      "Ģ": 223,
      "ģ": 224,
      "Ĥ": 225,
      "ĥ": 226,
      "Ħ": 227,
      "ħ": 228,
      "Ĩ": 229,
      "ĩ": 230,
      "Ī": 231,
      "ī": 232,
      "Ĭ": 233,
      "ĭ": 234,
      "Į": 235,
      "į": 236,
      "İ": 237,
      "ı": 238,
      "Ĳ": 239,
      "ĳ": 240,
      "Ĵ": 241,
      "ĵ": 242,
      "Ķ": 243,
      "ķ": 244,
      "ĸ": 245,
      "Ĺ": 246,
      "ĺ": 247,
      "Ļ": 248,
      "ļ": 249,
      "Ľ": 250,
      "ľ": 251,
      "Ŀ": 252,
      "ŀ": 253,
      "Ł": 254,
      "ł": 255,
      "Ń": 256,
      "Ä±": 257,
      "ar": 258,
      "er": 259,
      "Ã¼": 260,
      "an": 261,
      "in": 262,
      "ÅŁ": 263,
      "Ġb": 264,
      "en": 265,
      "il": 266,
      "ir": 267,
      "Ä±n": 268,
      "ÄŁ": 269,
      "Ã§": 270,
      "Ġk": 271,
      "Ġd": 272,
      "Ġs": 273,
      "al": 274,
      "Ġy": 275,
      "ak": 276,
      "Ġg": 277,
      "el": 278,
      "ek": 279,
      "lar": 280,
      "Ã¶": 281,
      "Ġo": 282,
      "Ġv": 283,
      "et": 284,
      "ay": 285,
      "am": 286,
      "Ġi": 287,
      "Ġt": 288,
      "un": 289,
      "de": 290,
      "as": 291,
      "or": 292,
      "ler": 293,
      "da": 294,
      "at": 295,
      "âĢ": 296,
      "Ġve": 297,
      "iy": 298,
      "es": 299,
      "Ġh": 300,
      "iz": 301,
      "im": 302,
      "on": 303,
      "Ġbir": 304,
      "ik": 305,
      "em": 306,
      "Ġm": 307,
      "ĠB": 308,
      "Ġol": 309,
      "ur": 310,
      "aÅŁ": 311,
      "Ä±r": 312,
      "ed": 313,
      "ul": 314,
      "Ä°": 315,
      "Ã¼n": 316,
      "Ä±l": 317,
      "ad": 318,
      "ĠA": 319,
      "ĠÃ§": 320,
      "Ä±k": 321,
      "is": 322,
      "Ã¼r": 323,
      "az": 324,
      "ey": 325,
      "âĢĻ": 326,
      "Ä±m": 327,
      "ĠK": 328,
      "ah": 329,
      "ap": 330,
      "ĠS": 331,
      "ab": 332,
      "ĠT": 333,
      "it": 334,
      "um": 335,
      "Ä±ÅŁ": 336,
      "le": 337,
      "iÅŁ": 338,
      "Ġil": 339,
      "Ġde": 340,
      "Ä±z": 341,
      "ĠM": 342,
      "ĠÃ¶": 343,
      "li": 344,
      "Ġp": 345,
      "ol": 346,
      "aÄŁ": 347,
      "ĠiÃ§": 348,
      "ok": 349,
      "st": 350,
      "ĠD": 351,
      "Ġf": 352,
      "ac": 353,
      "Ä±nda": 354,
      "Ã¼z": 355,
      "dan": 356,
      "Ġal": 357,
      "ĠÄ°": 358,
      "lÄ±": 359,
      "lan": 360,
      "ĠE": 361,
      "ĠgÃ¶": 362,
      "di": 363,
      "ev": 364,
      "ĠÅŁ": 365,
      "ĠH": 366,
      "ĠiÃ§in": 367,
      "ĠÃ": 368,
      "ini": 369,
      "Ġyap": 370,
      "Ġn": 371,
      "du": 372,
      "ĠY": 373,
      "ĠG": 374,
      "ec": 375,
      "esi": 376,
      "ine": 377,
      "la": 378,
      "Ġ1": 379,
      "larÄ±n": 380,
      "den": 381,
      "Ġar": 382,
      "Ġ2": 383,
      "uz": 384,
      "asÄ±": 385,
      "larÄ±": 386,
      "uy": 387,
      "Ġbu": 388,
      "inde": 389,
      "..": 390,
      "leri": 391,
      "Ã¼k": 392,
      "iyor": 393,
      "Ä±y": 394,
      "iler": 395,
      "Ġda": 396,
      "ti": 397,
      "Ã¼m": 398,
      "aÃ§": 399,
      "Ä±ÄŁ": 400,
      "af": 401,
      "eler": 402,
      "Ġile": 403,
      "alar": 404,
      "ĠP": 405,
      "Ġz": 406,
      "ya": 407,
      "iye": 408,
      "mak": 409,
      "Ġed": 410,
      "ĠO": 411,
      "Ġet": 412,
      "Ä±nÄ±": 413,
      "eÄŁ": 414,
      "ĠbaÅŁ": 415,
      "Ã¼l": 416,
      "ut": 417,
      "oÄŁ": 418,
      "Ġr": 419,
      "lik": 420,
      "ez": 421,
      "ĠgÃ¶r": 422,
      "uÅŁ": 423,
      "dir": 424,
      "Ä±s": 425,
      "iniz": 426,
      "av": 427,
      "Ġgel": 428,
      "ilir": 429,
      "Ġ(": 430,
      "Ġan": 431,
      "ĠâĢ": 432,
      "ma": 433,
      "eÃ§": 434,
      "Ġson": 435,
      "us": 436,
      "Ġver": 437,
      "eb": 438,
      "uk": 439,
      "Ã¼y": 440,
      "lam": 441,
      "ilm": 442,
      "inin": 443,
      "ce": 444,
      "ĠF": 445,
      "tir": 446,
      "Ġger": 447,
      "Ġkar": 448,
      "ĠÃ¶n": 449,
      "Ã¶n": 450,
      "ro": 451,
      "Ġc": 452,
      "eÅŁ": 453,
      "Ġoldu": 454,
      "ĠC": 455,
      "dÄ±r": 456,
      "larak": 457,
      "Åŀ": 458,
      "ib": 459,
      "Ġkon": 460,
      "Ġen": 461,
      "Ä±na": 462,
      "Ã¼ÅŁ": 463,
      "Ġin": 464,
      "ip": 465,
      "ta": 466,
      "len": 467,
      "Ġbil": 468,
      "Ġolarak": 469,
      "om": 470,
      "Ã¼rk": 471,
      "te": 472,
      "ĠÃ§ok": 473,
      "Ġtar": 474,
      "Ġay": 475,
      "ÄŁi": 476,
      "acak": 477,
      "aya": 478,
      "Ġ20": 479,
      "tÄ±r": 480,
      "mek": 481,
      "aha": 482,
      "anÄ±": 483,
      "Ä±yor": 484,
      "ĠdeÄŁ": 485,
      "Ä±ndan": 486,
      "Ġbul": 487,
      "Ġolan": 488,
      "Ġyer": 489,
      "Ġolm": 490,
      "lÄ±k": 491,
      "ĠiÅŁ": 492,
      "ĠN": 493,
      "âĢĿ": 494,
      "eni": 495,
      "edi": 496,
      "imiz": 497,
      "dÄ±": 498,
      "ĠyÄ±l": 499,
      "Ġkad": 500,
      "tan": 501,
      "ih": 502,
      "ĠgÃ¼n": 503,
      "unu": 504,
      "lu": 505,
      "ĠÃĩ": 506,
      "man": 507,
      "op": 508,
      "Ġ-": 509,
      "ĠR": 510,
      "ibi": 511,
      "se": 512,
      "lem": 513,
      "Ġkul": 514,
      "Ġdaha": 515,
      "Ġist": 516,
      "Ġkal": 517,
      "ark": 518,
      "isi": 519,
      "Ġad": 520,
      "ede": 521,
      "Ã¶y": 522,
      "Ġher": 523,
      "ayÄ±": 524,
      "yon": 525,
      "Ã¶r": 526,
      "ra": 527,
      "ĠBu": 528,
      "tÄ±": 529,
      "Ä±ÄŁÄ±": 530,
      "Ġvar": 531,
      "ĠâĢľ": 532,
      "ĠaÃ§": 533,
      "aman": 534,
      "ĠV": 535,
      "ili": 536,
      "ĠTÃ¼rk": 537,
      "Ġor": 538,
      "Ġkullan": 539,
      "alÄ±ÅŁ": 540,
      "san": 541,
      "ĠolduÄŁ": 542,
      "ecek": 543,
      "ic": 544,
      "ki": 545,
      "'d": 546,
      "Ġ3": 547,
      "aki": 548,
      "eh": 549,
      "ĠsÃ¼r": 550,
      "Ġgibi": 551,
      "ĠyaÅŁ": 552,
      "Ġkur": 553,
      "ĠÃĸ": 554,
      "mÄ±ÅŁ": 555,
      "Ä±nÄ±n": 556,
      "ama": 557,
      "...": 558,
      "ĠgeÃ§": 559,
      "eki": 560,
      "inden": 561,
      "Ġuy": 562,
      "00": 563,
      "end": 564,
      "Ġ201": 565,
      "os": 566,
      "Ä±mÄ±z": 567,
      "ĠÃ§alÄ±ÅŁ": 568,
      "ada": 569,
      "ĠÃ§Ä±k": 570,
      "ers": 571,
      "abilir": 572,
      "Ġyar": 573,
      "eri": 574,
      "ca": 575,
      "ĠÅŀ": 576,
      "ĠL": 577,
      "me": 578,
      "eli": 579,
      "ÄŁr": 580,
      "met": 581,
      "Ġbel": 582,
      "ist": 583,
      "eden": 584,
      "erk": 585,
      "gi": 586,
      "ilen": 587,
      "Ġkadar": 588,
      "alÄ±": 589,
      "ayan": 590,
      "sa": 591,
      "ĠÃ¼z": 592,
      "Ä±nÄ±z": 593,
      "lÃ¼": 594,
      "ĠAn": 595,
      "ru": 596,
      "Ġbulun": 597,
      "cÄ±": 598,
      "Ġon": 599,
      "Ġgerek": 600,
      "masÄ±": 601,
      "oy": 602,
      "ep": 603,
      "Ġzaman": 604,
      "ot": 605,
      "ekt": 606,
      "eye": 607,
      "let": 608,
      "asÄ±nda": 609,
      "laÅŁ": 610,
      "ĠÃ¶z": 611,
      "Ġel": 612,
      "unda": 613,
      "ĠsaÄŁ": 614,
      "iyet": 615,
      "ef": 616,
      "Ġek": 617,
      "miÅŁ": 618,
      "ĠÃ¼zer": 619,
      "ĠyapÄ±l": 620,
      "Ãľ": 621,
      "leÅŁ": 622,
      "ter": 623,
      "aÅŁk": 624,
      "Ġoy": 625,
      "Ã¶z": 626,
      "Ġyaz": 627,
      "Ã¼yÃ¼k": 628,
      "ĠU": 629,
      "nin": 630,
      "Ã¶l": 631,
      "yi": 632,
      "Ġsor": 633,
      "ade": 634,
      "Ġtek": 635,
      "Ã¼t": 636,
      "iyle": 637,
      "ans": 638,
      "oc": 639,
      "Ġpro": 640,
      "lÄ±ÄŁ": 641,
      "id": 642,
      "Ġdev": 643,
      "if": 644,
      "art": 645,
      "ĠÃľ": 646,
      "Ġsah": 647,
      "ĠdÃ¼ÅŁ": 648,
      "tur": 649,
      "Ġ\"": 650,
      "lerin": 651,
      "Ġdur": 652,
      "daki": 653,
      "Ġkat": 654,
      "ĠkarÅŁ": 655,
      "lara": 656,
      "uyor": 657,
      "Ġhal": 658,
      "ĠyÃ¶n": 659,
      "edir": 660,
      "Ġak": 661,
      "est": 662,
      "Ġhay": 663,
      "Ġsonra": 664,
      "Ã¼c": 665,
      "Ġ4": 666,
      "Ġl": 667,
      "Ġtaraf": 668,
      "iv": 669,
      "ĠAl": 670,
      "ĠdoÄŁ": 671,
      "Ġben": 672,
      "imi": 673,
      "ĠÃ¼r": 674,
      "Ġsiz": 675,
      "arak": 676,
      "Ġtop": 677,
      "ĠAr": 678,
      "Ã¢": 679,
      "siniz": 680,
      "Ġ5": 681,
      "iÃ§": 682,
      "unun": 683,
      "ken": 684,
      "Ġyan": 685,
      "Ġsay": 686,
      "Ġne": 687,
      "Ã¼Ã§": 688,
      "cak": 689,
      "aÄŁÄ±": 690,
      "Ġuyg": 691,
      "Ġyeni": 692,
      "ĠTÃ¼rkiye": 693,
      "larÄ±nÄ±": 694,
      "ĠÅŁek": 695,
      "aber": 696,
      "Ġise": 697,
      "ĠdÃ¶n": 698,
      "lad": 699,
      "men": 700,
      "ara": 701,
      "ER": 702,
      "Ġyak": 703,
      "AN": 704,
      "Ġsev": 705,
      "malar": 706,
      "eceÄŁ": 707,
      "Ġkap": 708,
      "sun": 709,
      "ram": 710,
      "ĠÃ¶ÄŁr": 711,
      "AR": 712,
      "Ġev": 713,
      "lerini": 714,
      "erek": 715,
      "Ġalan": 716,
      "od": 717,
      "Ġhak": 718,
      "deki": 719,
      "Ġyol": 720,
      "ĠÃ¶zel": 721,
      "Ã¼s": 722,
      "ĠgerÃ§": 723,
      "lay": 724,
      "ĠBir": 725,
      "arÄ±": 726,
      "Ġkay": 727,
      "ĠkiÅŁ": 728,
      "ĠdeÄŁil": 729,
      "tad": 730,
      "ĠbÃ¼yÃ¼k": 731,
      "lat": 732,
      "Ġinsan": 733,
      "Ġat": 734,
      "kin": 735,
      "ley": 736,
      "Ġkend": 737,
      "Ä±sÄ±": 738,
      "dÃ¼r": 739,
      "esinde": 740,
      "Ġuz": 741,
      "iyat": 742,
      "sel": 743,
      "Ġilk": 744,
      "Ã¼zel": 745,
      "Ġtak": 746,
      "Ġbiz": 747,
      "aat": 748,
      "asyon": 749,
      "Ġiyi": 750,
      "Ġilg": 751,
      "cu": 752,
      "eleri": 753,
      "ĠÃ¶nem": 754,
      "izmet": 755,
      "tr": 756,
      "Ġki": 757,
      "Ġbelir": 758,
      "ildi": 759,
      "elik": 760,
      "ci": 761,
      "Ġden": 762,
      "lere": 763,
      "âĢ¦": 764,
      "Ġgir": 765,
      "ĠÅŁey": 766,
      "larda": 767,
      "Ġgen": 768,
      "Ġhem": 769,
      "ĠyÃ¼z": 770,
      "ĠaÃ§Ä±k": 771,
      "ĠBaÅŁk": 772,
      "Ġok": 773,
      "orum": 774,
      "una": 775,
      "emiz": 776,
      "ÄŁer": 777,
      "dÄ±m": 778,
      "Ġort": 779,
      "Ãĩ": 780,
      "Ġbak": 781,
      "20": 782,
      "mas": 783,
      "ster": 784,
      "ran": 785,
      "nÄ±n": 786,
      "uÃ§": 787,
      "ten": 788,
      "ĠtarafÄ±ndan": 789,
      "Ġtarih": 790,
      "aret": 791,
      "ĠdÃ¼z": 792,
      "Ġyok": 793,
      "iÅŁtir": 794,
      "ĠsÃ¶y": 795,
      "Ġfark": 796,
      "Ġveya": 797,
      "bul": 798,
      "Ġdurum": 799,
      "ĠeÄŁ": 800,
      "uh": 801,
      "ĠI": 802,
      "ÄŁu": 803,
      "por": 804,
      "etim": 805,
      "ĠbÃ¶l": 806,
      "acaÄŁ": 807,
      "ĠZ": 808,
      "ĠgerÃ§ek": 809,
      "Ãĸ": 810,
      "alÄ±k": 811,
      "tadÄ±r": 812,
      "Ä±lan": 813,
      "tÄ±k": 814,
      "maya": 815,
      "Ġes": 816,
      "Ġtam": 817,
      "ĠÅŁekil": 818,
      "Ġhar": 819,
      "Ġiz": 820,
      "ileri": 821,
      "ayÄ±n": 822,
      "tik": 823,
      "ĠEr": 824,
      "Ä±yla": 825,
      "oz": 826,
      "Ġsan": 827,
      "liÄŁi": 828,
      "iyorum": 829,
      "Ä±lÄ±": 830,
      "Ġas": 831,
      "bir": 832,
      "ĠgÃ¶re": 833,
      "Ġ6": 834,
      "ebilir": 835,
      "Ġhizmet": 836,
      "abil": 837,
      "anÄ±n": 838,
      "itim": 839,
      "stan": 840,
      "Ġama": 841,
      "ĠolduÄŁu": 842,
      "adan": 843,
      "olo": 844,
      "ĠseÃ§": 845,
      "ĠdÃ¼n": 846,
      "ĠÄ°n": 847,
      "Ġdevam": 848,
      "ĠyÃ¼k": 849,
      "enin": 850,
      "etir": 851,
      "ĠgÃ¶ster": 852,
      "ocuk": 853,
      "Ġa": 854,
      "raf": 855,
      "ob": 856,
      "Ä±mÄ±": 857,
      "Ġul": 858,
      "Ġder": 859,
      "lah": 860,
      "Ġsahip": 861,
      "Ġmil": 862,
      "Bu": 863,
      "Ġya": 864,
      "ĠgÃ¼zel": 865,
      "re": 866,
      "ĠbaÄŁ": 867,
      "ven": 868,
      "erkez": 869,
      "ĠÃ§ek": 870,
      "ÄŁini": 871,
      "Ġ19": 872,
      "up": 873,
      "ĠtÃ¼m": 874,
      "rÄ±": 875,
      "Ġ:": 876,
      "dur": 877,
      "nÄ±": 878,
      "uÅŁtur": 879,
      "eyi": 880,
      "ĠÅŁekilde": 881,
      "Ġser": 882,
      "stanbul": 883,
      "ĠAy": 884,
      "Ġgetir": 885,
      "eniz": 886,
      "Ġih": 887,
      "Ġbilg": 888,
      "ĠKur": 889,
      "ĠÃ¼l": 890,
      "Ġfaz": 891,
      "lÄ±ÄŁÄ±": 892,
      "Ġyet": 893,
      "istem": 894,
      "Ġ#": 895,
      "Ġetti": 896,
      "ĠÃ¶ÄŁren": 897,
      "Ġneden": 898,
      "Ġkaz": 899,
      "Ġken": 900,
      "oÅŁ": 901,
      "Ã¼st": 902,
      "emek": 903,
      "Ġilgili": 904,
      "ĠBel": 905,
      "han": 906,
      "tar": 907,
      "ret": 908,
      "ĠdÃ¼ÅŁÃ¼n": 909,
      "ĠÃ¶nemli": 910,
      "Ġ7": 911,
      "oloj": 912,
      "mesi": 913,
      "ĠgÃ¶z": 914,
      "Ġhayat": 915,
      "ĠÄ°l": 916,
      "ehir": 917,
      "ulu": 918,
      "ĠsÄ±r": 919,
      "asÄ±l": 920,
      "Ġuygul": 921,
      "Ġsun": 922,
      "Ġpar": 923,
      "Ġalt": 924,
      "Ġhas": 925,
      "tÃ¼r": 926,
      "Ġdol": 927,
      "ĠolduÄŁunu": 928,
      "Ġolur": 929,
      "Ġter": 930,
      "Ġaz": 931,
      "ide": 932,
      "Ã§e": 933,
      "mam": 934,
      "Ã¼ven": 935,
      "Ġduy": 936,
      "maktadÄ±r": 937,
      "ĠÃ¶nce": 938,
      "Ġbin": 939,
      "Ġede": 940,
      "usu": 941,
      "leÅŁtir": 942,
      "siz": 943,
      "Ã¶yle": 944,
      "ika": 945,
      "azÄ±r": 946,
      "Ġam": 947,
      "dÄ±ÄŁÄ±": 948,
      "si": 949,
      "lerde": 950,
      "iÄŁer": 951,
      "larÄ±nÄ±n": 952,
      "ilik": 953,
      "ĠÃ¼lk": 954,
      "ĠdÃ¼zen": 955,
      "dÄ±ÄŁ": 956,
      "alarÄ±": 957,
      "gÃ¼n": 958,
      "larÄ±na": 959,
      "ub": 960,
      "iÅŁim": 961,
      "azÄ±": 962,
      "Ġ10": 963,
      "og": 964,
      "Ġis": 965,
      "Ġoyun": 966,
      "Ġ_": 967,
      "der": 968,
      "ne": 969,
      "dÃ¼": 970,
      "Ġkol": 971,
      "ye": 972,
      "esine": 973,
      "ĠbaÅŁk": 974,
      "Ġsat": 975,
      "Ġbirlik": 976,
      "ĠarasÄ±nda": 977,
      "sek": 978,
      "Ġdiye": 979,
      "Ġtut": 980,
      "ĠÃĸz": 981,
      "Ġbek": 982,
      "Ä±p": 983,
      "itesi": 984,
      "ĠÃ¼rÃ¼n": 985,
      "Ġiki": 986,
      "An": 987,
      "ĠsÃ¶z": 988,
      "gram": 989,
      "esin": 990,
      "201": 991,
      "Ġtan": 992,
      "Ġ8": 993,
      "ĠdeÄŁer": 994,
      "ĠAk": 995,
      "ĠhiÃ§": 996,
      "ĠEn": 997,
      "Ġfazla": 998,
      "rup": 999,
      "ivers": 1000,
      "ĠiÃ§inde": 1001,
      "Ġtem": 1002,
      "EN": 1003,
      "Ġzor": 1004,
      "ĠGen": 1005,
      "fa": 1006,
      "asar": 1007,
      "esini": 1008,
      "Ġsaat": 1009,
      "Ġark": 1010,
      "ĠaÄŁ": 1011,
      "abilirsiniz": 1012,
      "Ã§a": 1013,
      "Ã¼nde": 1014,
      "likle": 1015,
      "ĠkonuÅŁ": 1016,
      "Ġolmak": 1017,
      "Ã¼yor": 1018,
      "ĠiÃ§er": 1019,
      "ĠhazÄ±r": 1020,
      "eti": 1021,
      "lerine": 1022,
      "ig": 1023,
      "adece": 1024,
      "ĠkÄ±s": 1025,
      "mekt": 1026,
      "Ġhakk": 1027,
      "yal": 1028,
      "Ġgelen": 1029,
      "tu": 1030,
      "ĠalÄ±n": 1031,
      "Ġolacak": 1032,
      "lendir": 1033,
      "alan": 1034,
      "lama": 1035,
      "tÄ±ÄŁÄ±": 1036,
      "Ġsistem": 1037,
      "eyen": 1038,
      "lardan": 1039,
      "Ġ0": 1040,
      "larÄ±nda": 1041,
      "iyon": 1042,
      "Ġot": 1043,
      "ĠBil": 1044,
      "sÄ±z": 1045,
      "ĠKar": 1046,
      "ĠÄ°stanbul": 1047,
      "diÄŁi": 1048,
      "Ã¼p": 1049,
      "ĠW": 1050,
      "eÄŁi": 1051,
      "Ġboy": 1052,
      "ĠtaÅŁ": 1053,
      "tÃ¼": 1054,
      "cel": 1055,
      "Ġbirlikte": 1056,
      "ĠBak": 1057,
      "Ġetk": 1058,
      "ledi": 1059,
      "maz": 1060,
      "AL": 1061,
      "Ġdedi": 1062,
      "Ġhat": 1063,
      "tal": 1064,
      "nun": 1065,
      "ĠâĢĵ": 1066,
      "Ġbas": 1067,
      "Ä±ndaki": 1068,
      "eg": 1069,
      "Ã¼nÃ¼": 1070,
      "iyoruz": 1071,
      "lerinin": 1072,
      "Ä±cÄ±": 1073,
      "ana": 1074,
      "Ä°N": 1075,
      "Ġeden": 1076,
      "Ġbur": 1077,
      "meye": 1078,
      "Ġkim": 1079,
      "Ġkonu": 1080,
      "Ġkazan": 1081,
      "ĠaÅŁ": 1082,
      "Ġhaf": 1083,
      "ĠPro": 1084,
      "ĠulaÅŁ": 1085,
      "ĠÃ¶l": 1086,
      "Ġim": 1087,
      "Ġdil": 1088,
      "ĠÃ§ocuk": 1089,
      "Ġ/": 1090,
      "ĠdÄ±ÅŁ": 1091,
      "orm": 1092,
      "ET": 1093,
      "Ġdest": 1094,
      "com": 1095,
      "Ġmes": 1096,
      "ladÄ±": 1097,
      "ĠaynÄ±": 1098,
      "liÄŁ": 1099,
      "ĠÄ°ÅŁ": 1100,
      "ĠKon": 1101,
      "mektedir": 1102,
      "ĠdiÄŁer": 1103,
      "AK": 1104,
      "Ġdik": 1105,
      "net": 1106,
      "Ġ,": 1107,
      "Ġtes": 1108,
      "ĠBaÅŁkanÄ±": 1109,
      "Ġkab": 1110,
      "ĠJ": 1111,
      "Äŀ": 1112,
      "ĠdÃ¶nem": 1113,
      "kÃ¼": 1114,
      "ĠMÃ¼": 1115,
      "Ġmut": 1116,
      "ici": 1117,
      "ĠkÃ¶": 1118,
      "Ä±lÄ±k": 1119,
      "Ġtel": 1120,
      "acÄ±": 1121,
      "ĠfarklÄ±": 1122,
      "hur": 1123,
      "ĠBeled": 1124,
      "kat": 1125,
      "Ġsit": 1126,
      "ĠgÃ¶rÃ¼n": 1127,
      "larla": 1128,
      "ĠgÃ¼ven": 1129,
      "Ġmod": 1130,
      "Ġ9": 1131,
      "Ġu": 1132,
      "ĠÃľn": 1133,
      "Ġkit": 1134,
      "tÄ±ÄŁ": 1135,
      "ahat": 1136,
      "ĠâĢĺ": 1137,
      "gil": 1138,
      "bet": 1139,
      "ĠyapÄ±lan": 1140,
      "ĠÄ°s": 1141,
      "dik": 1142,
      "uv": 1143,
      "Ġsadece": 1144,
      "ĠeÅŁ": 1145,
      "Ġif": 1146,
      "ĠnasÄ±l": 1147,
      "larÄ±mÄ±z": 1148,
      "Ġsen": 1149,
      "lerinde": 1150,
      "Ġtekn": 1151,
      "ĠkatÄ±l": 1152,
      "ĠOr": 1153,
      "Ä±zÄ±": 1154,
      "Ġkurul": 1155,
      "Ġ'": 1156,
      "Ġkendi": 1157,
      "Ġfilm": 1158,
      "yla": 1159,
      "dar": 1160,
      "adaÅŁ": 1161,
      "ĠCum": 1162,
      "amp": 1163,
      "luk": 1164,
      "Ġ2018": 1165,
      "Ã¼tÃ¼n": 1166,
      "Ġyat": 1167,
      "Ġiht": 1168,
      "ĠAv": 1169,
      "isinde": 1170,
      "ĠbÃ¶lg": 1171,
      "Ġtamam": 1172,
      "ĠÃ¼st": 1173,
      "ov": 1174,
      "Ġanlam": 1175,
      "ĠkarÅŁÄ±": 1176,
      "IN": 1177,
      "Ġgit": 1178,
      "lak": 1179,
      "na": 1180,
      "Ġmi": 1181,
      "aÅŁtÄ±r": 1182,
      "Ġproj": 1183,
      "ĠyardÄ±m": 1184,
      "unuz": 1185,
      "ĠÂ": 1186,
      "EL": 1187,
      "Ġeder": 1188,
      "ĠÃ¶nc": 1189,
      "osyal": 1190,
      "ĠÃ¶r": 1191,
      "ĠÃ§Ä±kar": 1192,
      "ĠdoÄŁru": 1193,
      "ket": 1194,
      "ost": 1195,
      "ilmesi": 1196,
      "asÄ±na": 1197,
      "Ġkor": 1198,
      "ektÃ¶r": 1199,
      "enk": 1200,
      "ilerin": 1201,
      "olu": 1202,
      "ece": 1203,
      "ing": 1204,
      "Ġbiri": 1205,
      "diÄŁ": 1206,
      "ĠEk": 1207,
      "ĠtÃ¼r": 1208,
      "Ġhav": 1209,
      "avaÅŁ": 1210,
      "Ġbulunan": 1211,
      "aylaÅŁ": 1212,
      "Ġsal": 1213,
      "ÄŁÃ¼": 1214,
      "iyas": 1215,
      "ES": 1216,
      "ĠeÄŁitim": 1217,
      "inizi": 1218,
      "ĠsÄ±k": 1219,
      "layan": 1220,
      "Ġkr": 1221,
      "AT": 1222,
      "lerden": 1223,
      "ank": 1224,
      "ĠgÃ¶rev": 1225,
      "Ġetm": 1226,
      "Ġ200": 1227,
      "Ġkan": 1228,
      "Ġolduk": 1229,
      "aba": 1230,
      "oÄŁlu": 1231,
      "Ä°R": 1232,
      "Ġ15": 1233,
      "ĠSon": 1234,
      "Ä°L": 1235,
      "ĠyaÅŁam": 1236,
      "mi": 1237,
      "dÄ±k": 1238,
      "Ġbit": 1239,
      "usunda": 1240,
      "okt": 1241,
      "Ġbile": 1242,
      "efon": 1243,
      "adÄ±ÄŁ": 1244,
      "eme": 1245,
      "ĠdÃ¼ny": 1246,
      "ĠmÃ¼": 1247,
      "atÄ±": 1248,
      "Ġdikkat": 1249,
      "ĠteÅŁ": 1250,
      "sam": 1251,
      "ĠyÄ±lÄ±nda": 1252,
      "adÄ±": 1253,
      "asÄ±nÄ±": 1254,
      "ri": 1255,
      "lÃ¼k": 1256,
      "ĠGÃ¼n": 1257,
      "Ġkarar": 1258,
      "Ä±rak": 1259,
      "Ġuygun": 1260,
      "Ġbun": 1261,
      "TÃ¼rk": 1262,
      "kan": 1263,
      "rak": 1264,
      "eket": 1265,
      "ĠÃľnivers": 1266,
      "elim": 1267,
      "ĠolmasÄ±": 1268,
      "Ġmak": 1269,
      "ĠdeÄŁiÅŁ": 1270,
      "mÄ±ÅŁtÄ±r": 1271,
      "ĠTek": 1272,
      "ĠyÃ¼ksek": 1273,
      "ĠÃ§alÄ±ÅŁmalar": 1274,
      "ĠGenel": 1275,
      "Ġfiyat": 1276,
      "ĠSan": 1277,
      "Ġtab": 1278,
      "Ġdestek": 1279,
      "Ġem": 1280,
      "Ġanlat": 1281,
      "Ġmal": 1282,
      "ĠiliÅŁ": 1283,
      "Ã¼mÃ¼z": 1284,
      "Ġgid": 1285,
      "mer": 1286,
      "azar": 1287,
      "ĠgerÃ§ekleÅŁtir": 1288,
      "Ã¼ne": 1289,
      "gel": 1290,
      "ĠgÃ¶n": 1291,
      "ĠarkadaÅŁ": 1292,
      "Ġhaber": 1293,
      "ĠiÅŁlem": 1294,
      "âĢľ": 1295,
      "ilecek": 1296,
      "ĠbaÅŁar": 1297,
      "ĠhakkÄ±nda": 1298,
      "ĠgÃ¼Ã§": 1299,
      "iyaret": 1300,
      "Ġdav": 1301,
      "lerimiz": 1302,
      "ĠBur": 1303,
      "ĠMil": 1304,
      "ekk": 1305,
      "muÅŁ": 1306,
      "lerinden": 1307,
      "Ġediyor": 1308,
      "ĠkadÄ±n": 1309,
      "Ġprogram": 1310,
      "aj": 1311,
      "lenen": 1312,
      "ĠÃ¼zere": 1313,
      "ent": 1314,
      "ĠBaÅŁ": 1315,
      "Ġoyn": 1316,
      "umuz": 1317,
      "ĠHaber": 1318,
      "ge": 1319,
      "ant": 1320,
      "Bir": 1321,
      "ĠÃ§ev": 1322,
      "ĠbÄ±rak": 1323,
      "Ġbah": 1324,
      "Ġart": 1325,
      "Ġsu": 1326,
      "Ġuzun": 1327,
      "sin": 1328,
      "AY": 1329,
      "Ã§ok": 1330,
      "EK": 1331,
      "oÄŁraf": 1332,
      "esinin": 1333,
      "lanan": 1334,
      "amaz": 1335,
      "lerle": 1336,
      "Ġmerkez": 1337,
      "Ġbelirt": 1338,
      "Ġfir": 1339,
      "ĠhÄ±z": 1340,
      "Ġbilgi": 1341,
      "bol": 1342,
      "lum": 1343,
      "Ġik": 1344,
      "ort": 1345,
      "ĠgeÃ§ir": 1346,
      "ĠkarÅŁÄ±l": 1347,
      "edik": 1348,
      "bar": 1349,
      "ĠAllah": 1350,
      "gan": 1351,
      "ĠkullanÄ±l": 1352,
      "Ä±rÄ±m": 1353,
      "sal": 1354,
      "Ġsorun": 1355,
      "Ġtasar": 1356,
      "Ġihtiy": 1357,
      "ĠyÃ¼r": 1358,
      "nde": 1359,
      "Ġgenel": 1360,
      "onom": 1361,
      "Ã¼ltÃ¼r": 1362,
      "Ġmad": 1363,
      "istan": 1364,
      "ĠEÄŁ": 1365,
      "AS": 1366,
      "rÄ±ca": 1367,
      "'t": 1368,
      "ĠAd": 1369,
      "ĠkaÃ§": 1370,
      "duÄŁu": 1371,
      "ĠÃ¼ret": 1372,
      "larÄ±ndan": 1373,
      "eda": 1374,
      "tÄ±m": 1375,
      "atan": 1376,
      "ĠMÃ¼dÃ¼r": 1377,
      "ĠBen": 1378,
      "Ã¼nkÃ¼": 1379,
      "Ġhep": 1380,
      "Ġdin": 1381,
      "ĠoluÅŁtur": 1382,
      "ver": 1383,
      "res": 1384,
      "ĠkiÅŁi": 1385,
      "Ġsonr": 1386,
      "Ġcan": 1387,
      "kÄ±": 1388,
      "ĠoluÅŁ": 1389,
      "19": 1390,
      "mayÄ±": 1391,
      "ĠpaylaÅŁ": 1392,
      "akat": 1393,
      "ĠsaÄŁlÄ±k": 1394,
      "ĠPar": 1395,
      "ali": 1396,
      "urt": 1397,
      "ĠÃ¼y": 1398,
      "ĠÃ¼zerine": 1399,
      "Ġetmek": 1400,
      "ĠmÄ±": 1401,
      "ĠÃ¼zerinde": 1402,
      "mir": 1403,
      "lÄ±y": 1404,
      "ĠYÄ±l": 1405,
      "rar": 1406,
      "ĠsÄ±n": 1407,
      "Ã§i": 1408,
      "ĠÃ§Ã¶z": 1409,
      "ĠÃ¶ÄŁrenc": 1410,
      "Ġkayn": 1411,
      "ĠEl": 1412,
      "AM": 1413,
      "ĠbaÅŁka": 1414,
      "rik": 1415,
      "kara": 1416,
      "ber": 1417,
      "leme": 1418,
      "siyon": 1419,
      "ĠAt": 1420,
      "Ġer": 1421,
      "ucu": 1422,
      "Ġseb": 1423,
      "ize": 1424,
      "atik": 1425,
      "oÄŁan": 1426,
      "Ġmuh": 1427,
      "Ġortaya": 1428,
      "ĠÃľniversitesi": 1429,
      "ĠDev": 1430,
      "Ġedilm": 1431,
      "Ġdem": 1432,
      "Ġziyaret": 1433,
      "ĠYar": 1434,
      "ale": 1435,
      "ĠMerkez": 1436,
      "ĠÃ¼n": 1437,
      "Ġkolay": 1438,
      "Ġtelefon": 1439,
      ".âĢĿ": 1440,
      "Ġres": 1441,
      "ĠTar": 1442,
      "ĠgÃ¶rÃ¼ÅŁ": 1443,
      "Ã¼Ã§Ã¼k": 1444,
      "Ã®": 1445,
      "Ġolsun": 1446,
      "ĠÅŁu": 1447,
      "BD": 1448,
      "ĠbÃ¶lÃ¼m": 1449,
      "ag": 1450,
      "ĠEv": 1451,
      "ĠbazÄ±": 1452,
      "ĠBaÅŁkan": 1453,
      "lim": 1454,
      "ĠyayÄ±n": 1455,
      "ĠYap": 1456,
      "Ġkoy": 1457,
      "Ġ12": 1458,
      "10": 1459,
      "Ä±yorum": 1460,
      "cek": 1461,
      "ĠyÃ¶net": 1462,
      "las": 1463,
      "rupa": 1464,
      "lamak": 1465,
      "ite": 1466,
      "ĠmaÃ§": 1467,
      "ĠDÃ¼n": 1468,
      "ekkÃ¼r": 1469,
      "dum": 1470,
      "Ġerk": 1471,
      "ĠTL": 1472,
      "cih": 1473,
      "suz": 1474,
      "dÄ±ndan": 1475,
      "Ġplan": 1476,
      "eyin": 1477,
      "Ġkabul": 1478,
      "uru": 1479,
      "ĠCumhur": 1480,
      "azet": 1481,
      "ĠyakÄ±n": 1482,
      "min": 1483,
      "gin": 1484,
      "irket": 1485,
      "ust": 1486,
      "ile": 1487,
      "Ġhareket": 1488,
      "ternet": 1489,
      "Ġbenim": 1490,
      "Ġmet": 1491,
      "imdi": 1492,
      "ĠDr": 1493,
      "ĠbÃ¼tÃ¼n": 1494,
      "ĠgeliÅŁ": 1495,
      "ĠbÃ¶yle": 1496,
      "sanÄ±z": 1497,
      "otoÄŁraf": 1498,
      "ĠyaklaÅŁ": 1499,
      "Ġ%": 1500,
      "Ġifade": 1501,
      "elerin": 1502,
      "ediÄŁ": 1503,
      "isini": 1504,
      "Ġrahat": 1505,
      "ĠHer": 1506,
      "Ġun": 1507,
      "Ġhan": 1508,
      "daÅŁ": 1509,
      "edef": 1510,
      "Ġuygulam": 1511,
      "gul": 1512,
      "UR": 1513,
      "tif": 1514,
      "Ġmilyon": 1515,
      "),": 1516,
      "Ġgeldi": 1517,
      "izi": 1518,
      "tiÄŁ": 1519,
      "Ä°M": 1520,
      "bilir": 1521,
      "Ġolabilir": 1522,
      "eÅŁit": 1523,
      "EM": 1524,
      "ĠÄ°Ã§": 1525,
      "ern": 1526,
      "mez": 1527,
      "ĠgÃ¼nÃ¼": 1528,
      "per": 1529,
      "Ġyapan": 1530,
      "arasÄ±": 1531,
      "Ġkonusunda": 1532,
      "adÄ±ÄŁÄ±": 1533,
      "Ġmev": 1534,
      "ĠÃ¼Ã§": 1535,
      "ĠMah": 1536,
      "van": 1537,
      "may": 1538,
      "Ġkez": 1539,
      "Ġtur": 1540,
      "ĠBÃ¼yÃ¼k": 1541,
      "uc": 1542,
      "ĠEs": 1543,
      "Ġyay": 1544,
      "emm": 1545,
      "iliyor": 1546,
      "edav": 1547,
      "aal": 1548,
      "oloji": 1549,
      "duÄŁ": 1550,
      "Ġbilin": 1551,
      "Ä±ldÄ±": 1552,
      "Ġtercih": 1553,
      "uluk": 1554,
      "ĠAs": 1555,
      "Ġancak": 1556,
      "Ġw": 1557,
      "Ġtat": 1558,
      "Ä°K": 1559,
      "ele": 1560,
      "he": 1561,
      "ĠÂ»": 1562,
      "dim": 1563,
      "ĠkÄ±z": 1564,
      "ĠaÃ§Ä±klam": 1565,
      "Ã¶k": 1566,
      "Ġyerine": 1567,
      "ĠvardÄ±r": 1568,
      "ĠOy": 1569,
      "akk": 1570,
      "Ġayr": 1571,
      "ĠYÃ¶n": 1572,
      "unca": 1573,
      "ĠsÄ±": 1574,
      "ĠbirÃ§ok": 1575,
      "Ä±ma": 1576,
      "OR": 1577,
      "obil": 1578,
      "Ġedilen": 1579,
      "trol": 1580,
      "Ġindir": 1581,
      "ayfa": 1582,
      "ĠbugÃ¼n": 1583,
      "ĠgÃ¶nder": 1584,
      "Ġpol": 1585,
      "Ġdiy": 1586,
      "sunuz": 1587,
      "ĠÄ°z": 1588,
      "AD": 1589,
      "isine": 1590,
      "ĠSer": 1591,
      "iyesi": 1592,
      "Ġkom": 1593,
      "Ġisim": 1594,
      "ayÄ±s": 1595,
      "ĠEÄŁitim": 1596,
      "ĠiÃ§erisinde": 1597,
      "oÄŁu": 1598,
      "ĠardÄ±ndan": 1599,
      "LAR": 1600,
      "umu": 1601,
      "ĠBÃ¶l": 1602,
      "Ġkes": 1603,
      "tiv": 1604,
      "ĠdÃ¼nya": 1605,
      "nda": 1606,
      "sik": 1607,
      "tem": 1608,
      "Ġ18": 1609,
      "masÄ±nÄ±": 1610,
      "gÄ±": 1611,
      "ektedir": 1612,
      "ow": 1613,
      "Ġman": 1614,
      "meler": 1615,
      "Ġmodel": 1616,
      "acaÄŁÄ±": 1617,
      "ĠyÃ¼zde": 1618,
      "ĠartÄ±k": 1619,
      "Ġyapmak": 1620,
      "Ġtav": 1621,
      "erj": 1622,
      "Ġsize": 1623,
      "Ġyen": 1624,
      "undan": 1625,
      "12": 1626,
      "Ġmer": 1627,
      "Ġhis": 1628,
      "ĠHas": 1629,
      "Ã¼cret": 1630,
      "ON": 1631,
      "erli": 1632,
      "miÅŁtir": 1633,
      "Ġtal": 1634,
      "ĠAncak": 1635,
      "anan": 1636,
      "Ã¼b": 1637,
      "ĠsektÃ¶r": 1638,
      "Ä°Y": 1639,
      "ĠgeliÅŁtir": 1640,
      "Ä±yoruz": 1641,
      "ekli": 1642,
      "TÃ¼rkiye": 1643,
      "ilere": 1644,
      "leyen": 1645,
      "ĠÃ§eÅŁit": 1646,
      "ĠÃĸzel": 1647,
      "Ġherk": 1648,
      "ĠÃ¼cret": 1649,
      "Ġyas": 1650,
      "ĠyaptÄ±ÄŁÄ±": 1651,
      "uslar": 1652,
      "Ä±ya": 1653,
      "Ġhedef": 1654,
      "abilm": 1655,
      "Ä±ÅŁÄ±": 1656,
      "Ġzamanda": 1657,
      "Ġkapsam": 1658,
      "Ġmey": 1659,
      "LI": 1660,
      "eceÄŁi": 1661,
      "Ġkam": 1662,
      "Ġses": 1663,
      "ĠKan": 1664,
      "indeki": 1665,
      "ĠOl": 1666,
      "LER": 1667,
      "50": 1668,
      "ĠAvrupa": 1669,
      "Ġber": 1670,
      "Ġyorum": 1671,
      "Ä±ÅŁtÄ±r": 1672,
      "abÄ±": 1673,
      "ĠsonuÃ§": 1674,
      "etler": 1675,
      "Ġyine": 1676,
      "Ġkav": 1677,
      "ĠBakan": 1678,
      "Ġhafta": 1679,
      "ud": 1680,
      "Ġtah": 1681,
      "Ġ.": 1682,
      "lÄ±yor": 1683,
      "ĠNe": 1684,
      "ðŁ": 1685,
      "Ġsosyal": 1686,
      "Ġ2017": 1687,
      "asÄ±nÄ±n": 1688,
      "Ġbey": 1689,
      "ĠuÃ§": 1690,
      "ĠkÄ±r": 1691,
      "Ġadam": 1692,
      "ĠteÅŁekkÃ¼r": 1693,
      "acaktÄ±r": 1694,
      "ĠyanÄ±": 1695,
      "ĠaraÃ§": 1696,
      "doÄŁan": 1697,
      "ĠmÃ¼ÅŁ": 1698,
      "madan": 1699,
      "ĠTur": 1700,
      "Ġrenk": 1701,
      "edim": 1702,
      "Ġdak": 1703,
      "Ġmah": 1704,
      "ĠYeni": 1705,
      "ĠHal": 1706,
      "ĠgeÃ§en": 1707,
      "Ġpek": 1708,
      "kÃ¼n": 1709,
      "alt": 1710,
      "Ġkil": 1711,
      "ch": 1712,
      "ĠOn": 1713,
      "Ġcev": 1714,
      "Ġdah": 1715,
      "ĠgenÃ§": 1716,
      "tim": 1717,
      "Ä±rs": 1718,
      "Ġgelir": 1719,
      "Ġhemen": 1720,
      "Ġkitap": 1721,
      "Ã§Ä±": 1722,
      "ĠoldukÃ§a": 1723,
      "ĠBiz": 1724,
      "kinci": 1725,
      "ĠKad": 1726,
      "Ġbunu": 1727,
      "oÄŁun": 1728,
      "bu": 1729,
      "Ã¼cad": 1730,
      "ĠTop": 1731,
      "ebilirsiniz": 1732,
      "gu": 1733,
      "Ġtoplan": 1734,
      "Ġokul": 1735,
      "ĠkÄ±sa": 1736,
      "ĠVE": 1737,
      "ren": 1738,
      "Ġoluyor": 1739,
      "Ġinan": 1740,
      "ĠAnkara": 1741,
      "Ġhes": 1742,
      "sil": 1743,
      "masÄ±na": 1744,
      "ĠOk": 1745,
      "Ġid": 1746,
      "Ġ11": 1747,
      "of": 1748,
      "ĠsÃ¶yledi": 1749,
      "onu": 1750,
      "tin": 1751,
      "Ġetkin": 1752,
      "Ġbiraz": 1753,
      "ĠaraÅŁtÄ±r": 1754,
      "all": 1755,
      "ĠmÃ¼z": 1756,
      "Ġbar": 1757,
      "det": 1758,
      ".\"": 1759,
      "Ġiti": 1760,
      "Ġmark": 1761,
      "olar": 1762,
      "Ġolay": 1763,
      "iyi": 1764,
      "ĠÅŁirket": 1765,
      "Ġyarat": 1766,
      "alat": 1767,
      "Ġ30": 1768,
      "Ġli": 1769,
      "Ġadet": 1770,
      "Ġgereken": 1771,
      "Ġmem": 1772,
      "Ġdevlet": 1773,
      "ani": 1774,
      "fer": 1775,
      "Ġkontrol": 1776,
      "ekten": 1777,
      "inize": 1778,
      "dÃ¼l": 1779,
      "Al": 1780,
      "nek": 1781,
      "Ġtoplum": 1782,
      "ari": 1783,
      "Ġbenz": 1784,
      "ĠABD": 1785,
      "ĠtakÄ±m": 1786,
      "Ġod": 1787,
      "ayet": 1788,
      "Ä°T": 1789,
      "ĠmÃ¼m": 1790,
      "ĠseÃ§im": 1791,
      "Ġ14": 1792,
      "ĠAma": 1793,
      "ĠGel": 1794,
      "Ã¼nÃ¼n": 1795,
      "oh": 1796,
      "HP": 1797,
      "ĠKas": 1798,
      "baÅŁk": 1799,
      "ĠbÃ¼y": 1800,
      "000": 1801,
      "din": 1802,
      "Ġmu": 1803,
      "Ä±lÄ±r": 1804,
      "ĠsÃ¼re": 1805,
      "Ġtakip": 1806,
      "ĠÅŁeh": 1807,
      "ĠyaÄŁ": 1808,
      "ĠfotoÄŁraf": 1809,
      "AÅŀ": 1810,
      "Ä°S": 1811,
      "lemek": 1812,
      "Ġmas": 1813,
      "Ä°Z": 1814,
      "Ġhalk": 1815,
      "Ġbilm": 1816,
      "manÄ±n": 1817,
      "Ġsab": 1818,
      "Ġveren": 1819,
      "ĠKal": 1820,
      "duk": 1821,
      "Ġbizim": 1822,
      "Ġ16": 1823,
      "ĠOt": 1824,
      "Ġac": 1825,
      "Ġitibar": 1826,
      "Ġhast": 1827,
      "30": 1828,
      "ĠEy": 1829,
      "ĠHay": 1830,
      "ĠhiÃ§bir": 1831,
      "ĠdeÄŁerlendir": 1832,
      "Ġilet": 1833,
      "Ġkurum": 1834,
      "bak": 1835,
      "ĠkÃ¼Ã§Ã¼k": 1836,
      "Ġkut": 1837,
      "Ġders": 1838,
      "Ġekonom": 1839,
      "etmen": 1840,
      "Ġincel": 1841,
      "landÄ±": 1842,
      "DE": 1843,
      "ĠÃ§alÄ±ÅŁan": 1844,
      "Ġsanat": 1845,
      "ĠbaÅŁladÄ±": 1846,
      "Ġvatan": 1847,
      "lÃ¼ÄŁÃ¼": 1848,
      "imizin": 1849,
      "Ġvur": 1850,
      "Ġpara": 1851,
      "ĠVe": 1852,
      "aban": 1853,
      "Ġgeri": 1854,
      "Ġonun": 1855,
      "Ä±t": 1856,
      "for": 1857,
      "dana": 1858,
      "ĠÃĸn": 1859,
      "ĠbaÅŁv": 1860,
      "Ġalmak": 1861,
      "ve": 1862,
      "Ġbana": 1863,
      "Ã¼sÃ¼": 1864,
      "ĠdÃ¶nÃ¼ÅŁ": 1865,
      "yle": 1866,
      "ÅŁam": 1867,
      "Ġspor": 1868,
      "Ġait": 1869,
      "amak": 1870,
      "malÄ±": 1871,
      "UL": 1872,
      "ĠBelediye": 1873,
      "ĠBey": 1874,
      "ni": 1875,
      "ilmiÅŁ": 1876,
      "ĠmÃ¼mkÃ¼n": 1877,
      "Ġeski": 1878,
      "uslararasÄ±": 1879,
      "lÃ¼l": 1880,
      "Ġberaber": 1881,
      "alÄ±m": 1882,
      "Ġsey": 1883,
      "pr": 1884,
      "abilecek": 1885,
      "uÄŁ": 1886,
      "Ġolup": 1887,
      "Ġgez": 1888,
      "uyla": 1889,
      "ĠaltÄ±nda": 1890,
      "sman": 1891,
      "ĠilÃ§": 1892,
      "hangi": 1893,
      "mem": 1894,
      "Ġav": 1895,
      "enek": 1896,
      "Ã¼mÃ¼": 1897,
      "tiÄŁi": 1898,
      "eyim": 1899,
      "afa": 1900,
      "Ä±lmasÄ±": 1901,
      "ĠgÃ¶rÃ¼l": 1902,
      "Ġper": 1903,
      "ker": 1904,
      "ĠTekn": 1905,
      "Ġtedav": 1906,
      "UN": 1907,
      "isinin": 1908,
      "Ġkalit": 1909,
      "acaÄŁÄ±nÄ±": 1910,
      "umlu": 1911,
      "ĠSaÄŁ": 1912,
      "vet": 1913,
      "ĠÃĸÄŁr": 1914,
      "ÅŁehir": 1915,
      "ĠKay": 1916,
      "izm": 1917,
      "any": 1918,
      "ĠsavaÅŁ": 1919,
      "imizi": 1920,
      "Ġtemiz": 1921,
      "ĠÃ¶de": 1922,
      "Ġkaynak": 1923,
      "ince": 1924,
      "ĠmÃ¼cad": 1925,
      "dÄ±n": 1926,
      "Ġ13": 1927,
      "be": 1928,
      "iyeti": 1929,
      "landÄ±r": 1930,
      "ime": 1931,
      "ĠbaÄŁlÄ±": 1932,
      "Ġtekrar": 1933,
      "gÄ±n": 1934,
      "Ben": 1935,
      "Ã¼kÃ¼m": 1936,
      "deÅŁ": 1937,
      "erken": 1938,
      "ĠDÃ¼nya": 1939,
      "erÃ§": 1940,
      "Ä±lmÄ±ÅŁ": 1941,
      "rans": 1942,
      "ĠKul": 1943,
      "Ġsoru": 1944,
      "Ġuzak": 1945,
      "ĠÃ¶zellik": 1946,
      "ĠÃ¼zerinden": 1947,
      "br": 1948,
      "ĠÄ°ngil": 1949,
      "imize": 1950,
      "azi": 1951,
      "aten": 1952,
      "Ġe": 1953,
      "Ġzar": 1954,
      "Ar": 1955,
      "Ä±nÄ±f": 1956,
      "Ġ[": 1957,
      "Ġ17": 1958,
      "Ġner": 1959,
      "Ä°n": 1960,
      "ĠsÄ±nÄ±r": 1961,
      "Ġonu": 1962,
      "ĠErdoÄŁan": 1963,
      "ĠaÄŁÄ±r": 1964,
      "Ġsin": 1965,
      "Ġinternet": 1966,
      "Ġfay": 1967,
      "can": 1968,
      "Ġkah": 1969,
      "efer": 1970,
      "aaliyet": 1971,
      "dÄ±ÄŁÄ±nÄ±": 1972,
      "uyu": 1973,
      "Ä±sÄ±nda": 1974,
      "Ġyemek": 1975,
      "lek": 1976,
      "ĠUy": 1977,
      "Ġail": 1978,
      "Ã¼lt": 1979,
      "lÄ±nda": 1980,
      "ĠDaha": 1981,
      "ĠanlaÅŁ": 1982,
      "ron": 1983,
      "Ġbirbir": 1984,
      "Ġbunun": 1985,
      "ezon": 1986,
      "cÃ¼": 1987,
      "etay": 1988,
      "Ġengel": 1989,
      "ĠBunun": 1990,
      "Ġedildi": 1991,
      "Son": 1992,
      "Ġkesin": 1993,
      "icaret": 1994,
      "ĠtÃ¼k": 1995,
      "ĠHaz": 1996,
      "ĠalÄ±ÅŁ": 1997,
      "Ġ24": 1998,
      "Ġdiz": 1999,
      "Ġistem": 2000,
      "ĠÅŁehir": 2001,
      "Ġdir": 2002,
      "Ġsiyas": 2003,
      "elere": 2004,
      "ĠAK": 2005,
      "adÄ±k": 2006,
      "Ġ2016": 2007,
      "Ġrek": 2008,
      "taj": 2009,
      "ideo": 2010,
      "mÃ¼ÅŁ": 2011,
      "larÄ±yla": 2012,
      "ĠÅŀub": 2013,
      "ehmet": 2014,
      "Ġelde": 2015,
      "ĠÄ°lk": 2016,
      "Ġsak": 2017,
      "ast": 2018,
      "isyon": 2019,
      "Ġerkek": 2020,
      "Ä±za": 2021,
      "Ġsizin": 2022,
      "ÃľR": 2023,
      "ĠBelediyesi": 2024,
      "ĠhÄ±zlÄ±": 2025,
      "day": 2026,
      "ĠBay": 2027,
      "Ġnokt": 2028,
      "eci": 2029,
      "ĠMar": 2030,
      "ĠyatÄ±rÄ±m": 2031,
      "ĠkoÅŁ": 2032,
      "ĠiliÅŁk": 2033,
      "Ġotur": 2034,
      "Ġolsa": 2035,
      "ĠMerkezi": 2036,
      "ilerine": 2037,
      "Ġedin": 2038,
      "ĠKo": 2039,
      "ilerini": 2040,
      "ĠdeÄŁildir": 2041,
      "ift": 2042,
      "ĠdeÄŁiÅŁik": 2043,
      "utbol": 2044,
      "Ġsayf": 2045,
      "elerini": 2046,
      "esel": 2047,
      "ĠkÃ¼ltÃ¼r": 2048,
      "taÅŁ": 2049,
      "ĠÃ¶zellikle": 2050,
      "Ġkir": 2051,
      "ĠdeÄŁiÅŁtir": 2052,
      "Ġverdi": 2053,
      "Ġmed": 2054,
      "ulan": 2055,
      "alarÄ±n": 2056,
      "talya": 2057,
      "Ġboyunca": 2058,
      "asyonu": 2059,
      "ĠÃ§Ä±kan": 2060,
      "ĠvatandaÅŁ": 2061,
      "Ġhiss": 2062,
      "isay": 2063,
      "tep": 2064,
      "IR": 2065,
      "lk": 2066,
      "lo": 2067,
      "Ġ25": 2068,
      "Ġgerekir": 2069,
      "oru": 2070,
      "cut": 2071,
      "Ġisteyen": 2072,
      "ĠDevlet": 2073,
      "ĠAh": 2074,
      "ĠgeniÅŁ": 2075,
      "ĠUz": 2076,
      "Ã¼f": 2077,
      "dÃ¼ÄŁ": 2078,
      "ĠÃ§aÄŁ": 2079,
      "Ġnedeniyle": 2080,
      "ĠÃ§evr": 2081,
      "Ġbildir": 2082,
      "ĠyÃ¶nelik": 2083,
      "Ġfaaliyet": 2084,
      "malarÄ±": 2085,
      "imde": 2086,
      "ĠkÄ±y": 2087,
      "Ġherhangi": 2088,
      "ĠkayÄ±": 2089,
      "meyi": 2090,
      "ĠraÄŁ": 2091,
      "vis": 2092,
      "arken": 2093,
      "ĠMart": 2094,
      "Ġ...": 2095,
      "ĠÃĩÃ¼nkÃ¼": 2096,
      "ĠsatÄ±ÅŁ": 2097,
      "ĠtanÄ±": 2098,
      "adolu": 2099,
      "esinden": 2100,
      "ĠAmer": 2101,
      "elen": 2102,
      "ĠHav": 2103,
      "ĠGÃ¶r": 2104,
      "ĠDem": 2105,
      "DA": 2106,
      "ĠAyrÄ±ca": 2107,
      "ĠHar": 2108,
      "ĠihtiyaÃ§": 2109,
      "En": 2110,
      "uan": 2111,
      "Ġolmayan": 2112,
      "alarda": 2113,
      "ĠEm": 2114,
      "ebek": 2115,
      "Ã¼ler": 2116,
      "isan": 2117,
      "11": 2118,
      "ĠyardÄ±mcÄ±": 2119,
      "ĠParti": 2120,
      "acaÄŁÄ±z": 2121,
      "eceÄŁini": 2122,
      "alet": 2123,
      "ba": 2124,
      "ĠinÅŁ": 2125,
      "Ġtarihi": 2126,
      "Ġkonusu": 2127,
      "iran": 2128,
      "Ġekip": 2129,
      "one": 2130,
      "Ġsil": 2131,
      "Ġister": 2132,
      "Ġyani": 2133,
      "ener": 2134,
      "Ġhey": 2135,
      "meden": 2136,
      "ĠSpor": 2137,
      "Ġtemel": 2138,
      "Ġtarihinde": 2139,
      "Ġgeliyor": 2140,
      "sÄ±n": 2141,
      "Ġbize": 2142,
      "Ġoran": 2143,
      "Ġdair": 2144,
      "Ġmillet": 2145,
      "Ġbay": 2146,
      "Ġyeniden": 2147,
      "ĠEt": 2148,
      "itik": 2149,
      "Ġsahibi": 2150,
      "Ġcez": 2151,
      "ĠSur": 2152,
      "su": 2153,
      "ĠÃ§alÄ±ÅŁma": 2154,
      "ĠsaldÄ±r": 2155,
      "ĠsÄ±ra": 2156,
      "eÄŁin": 2157,
      "ĠUl": 2158,
      "Ġ100": 2159,
      "AB": 2160,
      "ĠraÄŁmen": 2161,
      "ĠTr": 2162,
      "emmuz": 2163,
      "15": 2164,
      "ĠAli": 2165,
      "ĠAralÄ±k": 2166,
      "Ġ?": 2167,
      "AH": 2168,
      "Ġcih": 2169,
      "ĠÃ§Ã¶zÃ¼m": 2170,
      "emi": 2171,
      "Ġunut": 2172,
      "elerde": 2173,
      "luluk": 2174,
      "ĠyaklaÅŁÄ±k": 2175,
      "lardÄ±r": 2176,
      "Ġgelecek": 2177,
      "leriyle": 2178,
      "ĠRus": 2179,
      "ĠKom": 2180,
      "sÄ±nÄ±z": 2181,
      "ÂŃ": 2182,
      "Ġiddi": 2183,
      "Ġistiyor": 2184,
      "Ġ>": 2185,
      "ED": 2186,
      "Ġburada": 2187,
      "Ġsayesinde": 2188,
      "Ã¼nden": 2189,
      "Ġortam": 2190,
      "Ġikinci": 2191,
      "Ġortak": 2192,
      "isayar": 2193,
      "ĠMuh": 2194,
      "ĠtÄ±k": 2195,
      "ĠkaldÄ±r": 2196,
      "ij": 2197,
      ").": 2198,
      "ĠKasÄ±m": 2199,
      "IM": 2200,
      "Ġaday": 2201,
      "ĠgerÃ§ekleÅŁ": 2202,
      "cÄ±sÄ±": 2203,
      "ĠaldÄ±": 2204,
      "nÄ±z": 2205,
      "ĠparÃ§": 2206,
      "ĠAb": 2207,
      "ĠdolayÄ±": 2208,
      "ĠyÃ¶ntem": 2209,
      "emin": 2210,
      "ĠsayÄ±": 2211,
      "Ġgrup": 2212,
      "ĠyazÄ±": 2213,
      "ĠgiriÅŁ": 2214,
      "ww": 2215,
      "Ġsar": 2216,
      "Ġimz": 2217,
      "lis": 2218,
      "ĠgÃ¼nde": 2219,
      "bah": 2220,
      "AZ": 2221,
      "lÃ¼ÄŁ": 2222,
      "inci": 2223,
      "Ġ:)": 2224,
      "Ä±sÄ±ndan": 2225,
      "Ä±rken": 2226,
      "Ġorgan": 2227,
      "Ġanda": 2228,
      "Ġkork": 2229,
      "gisi": 2230,
      "Ġmis": 2231,
      "ĠOsman": 2232,
      "Ġmik": 2233,
      "Ġedecek": 2234,
      "ĠolmuÅŁ": 2235,
      "AP": 2236,
      "gun": 2237,
      "iÄŁ": 2238,
      "ĠTemmuz": 2239,
      "ĠuÄŁr": 2240,
      "liyor": 2241,
      "enc": 2242,
      "adÄ±ÄŁÄ±nÄ±": 2243,
      "ĠyaptÄ±": 2244,
      "Ġenerj": 2245,
      "ĠaÃ§Ä±l": 2246,
      "ĠProf": 2247,
      "Ġgec": 2248,
      "Ġotom": 2249,
      "ĠkapsamÄ±nda": 2250,
      "ĠÃ§eÅŁitli": 2251,
      "Ġgerekli": 2252,
      "ĠdÄ±ÅŁÄ±nda": 2253,
      "ĠyÃ¼ksel": 2254,
      "Ġiy": 2255,
      "Ġsok": 2256,
      "alnÄ±z": 2257,
      "Ġhale": 2258,
      "ÃľN": 2259,
      "âĢĺ": 2260,
      "Ġmek": 2261,
      "ediye": 2262,
      "ĠyÃ¶netim": 2263,
      "ĠMehmet": 2264,
      "kil": 2265,
      "Ġof": 2266,
      "Ġboz": 2267,
      "ĠHat": 2268,
      "Ġmevcut": 2269,
      "yar": 2270,
      "ĠsÃ¼rdÃ¼r": 2271,
      "egor": 2272,
      "ĠÃ¶ner": 2273,
      "asa": 2274,
      "ĠRes": 2275,
      "ĠyoÄŁun": 2276,
      "ĠayrÄ±": 2277,
      "ĠAlman": 2278,
      "ĠEylÃ¼l": 2279,
      "Ä±nÄ±zÄ±": 2280,
      "esiyle": 2281,
      "ĠEkim": 2282,
      "ĠadÄ±m": 2283,
      "Ġbeni": 2284,
      "ĠÅŁÃ¶yle": 2285,
      "anlar": 2286,
      "Ġfik": 2287,
      "rim": 2288,
      "Ġkamp": 2289,
      "ĠtasarÄ±m": 2290,
      "ĠKat": 2291,
      "Ã¶rt": 2292,
      "ĠsaÃ§": 2293,
      "lendi": 2294,
      "uma": 2295,
      "ustafa": 2296,
      "mal": 2297,
      "ĠboÅŁ": 2298,
      "Ġotel": 2299,
      "ind": 2300,
      "Ġtoplam": 2301,
      "Ġaras": 2302,
      "ĠÃĩok": 2303,
      "Ġvak": 2304,
      "ĠkarÅŁÄ±laÅŁ": 2305,
      "ĠaÅŁaÄŁÄ±": 2306,
      "ĠFilm": 2307,
      "Ġcevap": 2308,
      "ĠkullanÄ±cÄ±": 2309,
      "Ġoyuncu": 2310,
      "ĠtÃ¼rlÃ¼": 2311,
      "ayi": 2312,
      "Ġ2015": 2313,
      "ĠÅŁekl": 2314,
      "Ġherkes": 2315,
      "ĠTak": 2316,
      "Ġteknik": 2317,
      "Ġkonuda": 2318,
      "ĠNo": 2319,
      "ukuk": 2320,
      "ĠÃ§iz": 2321,
      "Ġteh": 2322,
      "amÄ±z": 2323,
      "ĠKurulu": 2324,
      "Ġgerekiyor": 2325,
      "Ġederek": 2326,
      "okr": 2327,
      "18": 2328,
      "Ġlis": 2329,
      "Ä±ÅŁÄ±k": 2330,
      "ĠÃ¶lÃ§": 2331,
      "Ġsav": 2332,
      "lÃ¼m": 2333,
      "ĠbakÄ±m": 2334,
      "Ġpazar": 2335,
      "Ġdahil": 2336,
      "Ġdetay": 2337,
      "Ġelekt": 2338,
      "kaÃ§": 2339,
      "ĠOyun": 2340,
      "ĠyarÄ±ÅŁ": 2341,
      "Ã¼cÃ¼": 2342,
      "ĠMes": 2343,
      "usal": 2344,
      "Ġteknoloj": 2345,
      "Ay": 2346,
      "ere": 2347,
      "log": 2348,
      "bi": 2349,
      "Ġyarar": 2350,
      "Ġmadde": 2351,
      "Ġcin": 2352,
      "Ġ50": 2353,
      "Ġgazet": 2354,
      "ESÄ°": 2355,
      "eceÄŁiniz": 2356,
      "oktor": 2357,
      "ĠYaÅŁ": 2358,
      "zem": 2359,
      "Ġgiy": 2360,
      "Ġdok": 2361,
      "anlÄ±": 2362,
      "adde": 2363,
      "ĠÃ¶rg": 2364,
      "2018": 2365,
      "ĠolacaktÄ±r": 2366,
      "erson": 2367,
      "ĠDoÄŁ": 2368,
      "ĠhÃ¼kÃ¼m": 2369,
      "ĠÃ§ar": 2370,
      "Ġamac": 2371,
      "ook": 2372,
      "Ġdemek": 2373,
      "ĠkardeÅŁ": 2374,
      "Her": 2375,
      "ediÄŁi": 2376,
      "etin": 2377,
      "ĠSayfa": 2378,
      "ĠbaÅŁarÄ±lÄ±": 2379,
      "Ġmez": 2380,
      "ĠmÃ¼ÅŁter": 2381,
      "Ġbilgiler": 2382,
      "ĠdÃ¼zenlenen": 2383,
      "Ġle": 2384,
      "isk": 2385,
      "ĠÃ¼retim": 2386,
      "Ġsebep": 2387,
      "Ġey": 2388,
      "ikay": 2389,
      "anÄ±ÅŁ": 2390,
      "lilik": 2391,
      "ĠÄ°zmir": 2392,
      "ii": 2393,
      "ĠhatÄ±r": 2394,
      "200": 2395,
      "Ġrak": 2396,
      "ĠtanÄ±m": 2397,
      "ĠAnadolu": 2398,
      "emal": 2399,
      "Ġbelli": 2400,
      "itap": 2401,
      "Ġbab": 2402,
      "arkÄ±": 2403,
      "tiÄŁini": 2404,
      "tay": 2405,
      "Ġab": 2406,
      "teri": 2407,
      "ĠiletiÅŁim": 2408,
      "larÄ±nÄ±z": 2409,
      "ĠMayÄ±s": 2410,
      "ĠamaÃ§": 2411,
      "atÃ¼rk": 2412,
      "ĠbaÄŁlan": 2413,
      "luÄŁ": 2414,
      "ĠdoÄŁal": 2415,
      "ĠmaÄŁ": 2416,
      "abancÄ±": 2417,
      "ĠkonuÅŁtu": 2418,
      "Ġdayan": 2419,
      "Ġsezon": 2420,
      "ĠÅŁimdi": 2421,
      "OL": 2422,
      "Ġdiyor": 2423,
      "Ġkey": 2424,
      "ser": 2425,
      "imleri": 2426,
      "mey": 2427,
      "uar": 2428,
      "alama": 2429,
      "ĠNisan": 2430,
      "ĠyanÄ±nda": 2431,
      "manÄ±z": 2432,
      "ej": 2433,
      "evi": 2434,
      "ĠÅŁart": 2435,
      "ira": 2436,
      "adem": 2437,
      "ĠYÃ¼k": 2438,
      "Ä±ntÄ±": 2439,
      "lif": 2440,
      "Ġmesaj": 2441,
      "line": 2442,
      "Ġhava": 2443,
      "Ġhangi": 2444,
      "lin": 2445,
      "ĠsuÃ§": 2446,
      "ĠdoÄŁr": 2447,
      "ĠsÄ±cak": 2448,
      "ĠAf": 2449,
      "Ġdurumda": 2450,
      "izyon": 2451,
      "Ġedil": 2452,
      "vek": 2453,
      "ĠHaziran": 2454,
      "ST": 2455,
      "ĠkÃ¶tÃ¼": 2456,
      "ĠHak": 2457,
      "Ġfayd": 2458,
      "ÂĴ": 2459,
      "Ġtavs": 2460,
      "ĠkuruluÅŁ": 2461,
      "ĠfÄ±rs": 2462,
      "ĠKr": 2463,
      "veriÅŁ": 2464,
      "amam": 2465,
      "osu": 2466,
      "ĠKap": 2467,
      "ĠAÃ§": 2468,
      "ĠistediÄŁ": 2469,
      "Ġuzman": 2470,
      "ĠÃ§Ä±ktÄ±": 2471,
      "Ä±da": 2472,
      "Ġtep": 2473,
      "ĠettiÄŁi": 2474,
      "ĠkÄ±sm": 2475,
      "Ġdakika": 2476,
      "Ġbeklen": 2477,
      "Ġiler": 2478,
      "atif": 2479,
      "Ġnum": 2480,
      "Ana": 2481,
      "ore": 2482,
      "Ġinsanlar": 2483,
      "Ġzarar": 2484,
      "Ġona": 2485,
      "ĠadÄ±": 2486,
      "lanmÄ±ÅŁ": 2487,
      ".)": 2488,
      "Ã½": 2489,
      "baÅŁkanÄ±": 2490,
      "eÅŁil": 2491,
      "ĠBar": 2492,
      "Ġtemsil": 2493,
      "Ġgece": 2494,
      "ĠÃĩocuk": 2495,
      "Ġkelim": 2496,
      "alarÄ±nda": 2497,
      "ĠYardÄ±m": 2498,
      "ĠDeniz": 2499,
      "Ġsek": 2500,
      "Ã»": 2501,
      "Ġanlay": 2502,
      "yan": 2503,
      "Ġcihaz": 2504,
      "hal": 2505,
      "dÄ±z": 2506,
      "Ġkaybet": 2507,
      "Ġbilim": 2508,
      "ĠterÃ¶r": 2509,
      "Ġcid": 2510,
      "Ġederim": 2511,
      "ĠyaptÄ±ÄŁ": 2512,
      "Ġann": 2513,
      "spor": 2514,
      "Ġolmaz": 2515,
      "ĠðŁ": 2516,
      "Ã¼le": 2517,
      "ĠBul": 2518,
      "ork": 2519,
      "16": 2520,
      "ĠÄ°st": 2521,
      "IL": 2522,
      "ĠyaÅŁan": 2523,
      "air": 2524,
      "inal": 2525,
      "gÃ¼r": 2526,
      "mesini": 2527,
      "Ġoper": 2528,
      "fak": 2529,
      "ĠFak": 2530,
      "Ġ199": 2531,
      "meyen": 2532,
      "ĠyÃ¼zden": 2533,
      "ĠTarih": 2534,
      "inc": 2535,
      "emizde": 2536,
      "UM": 2537,
      "Ġnedenle": 2538,
      "Ġkas": 2539,
      "ĠkayÄ±t": 2540,
      "Ġlist": 2541,
      "Ġyem": 2542,
      "ĠSev": 2543,
      "ĠÃ§oc": 2544,
      "Ġsistemi": 2545,
      "abiliyor": 2546,
      "ina": 2547,
      "Ġedeb": 2548,
      "Ġderece": 2549,
      "Ã¼ÄŁ": 2550,
      "ampiyon": 2551,
      "Ġdar": 2552,
      "Ã¼len": 2553,
      "Ġ22": 2554,
      "ĠIn": 2555,
      "ĠhoÅŁ": 2556,
      "ĠsÃ¼rekli": 2557,
      "ĠvardÄ±": 2558,
      "fen": 2559,
      "uya": 2560,
      "Ä±mda": 2561,
      "ĠOcak": 2562,
      "ĠsaÄŁlay": 2563,
      "Ġpat": 2564,
      "ĠÃľr": 2565,
      "ĠSiz": 2566,
      "aca": 2567,
      "ĠiÅŁlet": 2568,
      "gesi": 2569,
      "Ġana": 2570,
      "ĠbaÅŁlad": 2571,
      "isel": 2572,
      "uvar": 2573,
      "ĠTel": 2574,
      "Ġpart": 2575,
      "Ä±mÄ±za": 2576,
      "ati": 2577,
      "meli": 2578,
      "ĠBakanlÄ±ÄŁÄ±": 2579,
      "ĠÃ¼nivers": 2580,
      "ĠÃ¶yle": 2581,
      "ĠsÄ±nÄ±f": 2582,
      "Ġtalep": 2583,
      "ĠMustafa": 2584,
      "ĠbaÅŁlam": 2585,
      "Ġistiyorum": 2586,
      "ĠBun": 2587,
      "Ã¼yorum": 2588,
      "ĠKÃ¼ltÃ¼r": 2589,
      "Ġhesap": 2590,
      "Ä±lÄ±ÄŁ": 2591,
      "Ä°stanbul": 2592,
      "ĠHaberleri": 2593,
      "amÄ±": 2594,
      "Ġvermek": 2595,
      "Ġmutlu": 2596,
      "amsun": 2597,
      "gr": 2598,
      "Ä±lÄ±m": 2599,
      "mar": 2600,
      "sen": 2601,
      "ĠÃ¶rnek": 2602,
      "Ġprof": 2603,
      "ĠMilli": 2604,
      "ĠHan": 2605,
      "Ġweb": 2606,
      "ĠTer": 2607,
      "ĠiliÅŁkin": 2608,
      "ĠadÄ±na": 2609,
      "ĠÄ°nsan": 2610,
      "iliÄŁi": 2611,
      "eder": 2612,
      "ormal": 2613,
      "oda": 2614,
      "rafik": 2615,
      "Ġmerak": 2616,
      "Ġyurt": 2617,
      "mayan": 2618,
      "Ä±yÄ±": 2619,
      "ĠDer": 2620,
      "imler": 2621,
      "Ġmen": 2622,
      "Ġj": 2623,
      "Ġ23": 2624,
      "Ġ2014": 2625,
      "Ġip": 2626,
      "ĠsatÄ±n": 2627,
      "ĠbaÅŁkan": 2628,
      "Ġbulundu": 2629,
      "iri": 2630,
      "gam": 2631,
      "laka": 2632,
      "tiÄŁimiz": 2633,
      "Ġverilen": 2634,
      "ĠTÃ¼rkÃ§e": 2635,
      "Ġediyorum": 2636,
      "Ġsizi": 2637,
      "Ġekran": 2638,
      "ova": 2639,
      "ĠMÃ¼dÃ¼rlÃ¼ÄŁÃ¼": 2640,
      "Ġbes": 2641,
      "ĠvÃ¼c": 2642,
      "ceÄŁ": 2643,
      "ĠgerÃ§ekten": 2644,
      "Ġsonunda": 2645,
      "Ä±sÄ±nÄ±": 2646,
      "ĠtÃ¼ket": 2647,
      "ĠkiÅŁinin": 2648,
      "imli": 2649,
      "ĠaÃ§Ä±sÄ±ndan": 2650,
      "Ġzaten": 2651,
      "ĠMillet": 2652,
      "Ä°ÅŁ": 2653,
      "oog": 2654,
      "Ġyerde": 2655,
      "ĠgÃ¼Ã§lÃ¼": 2656,
      "Ġdavran": 2657,
      "ĠcanlÄ±": 2658,
      "ĠLis": 2659,
      "ĠakÄ±l": 2660,
      "Ġvideo": 2661,
      "pit": 2662,
      "14": 2663,
      "ĠyapÄ±lacak": 2664,
      "ĠSaÄŁlÄ±k": 2665,
      "ayacak": 2666,
      "eÅŁtir": 2667,
      "ĠkÃ¶y": 2668,
      "Ġkalan": 2669,
      "lerce": 2670,
      "Â´": 2671,
      "manÄ±": 2672,
      "ĠeÄŁlen": 2673,
      "alara": 2674,
      "Ġteslim": 2675,
      "ĠÃĸr": 2676,
      "ĠYaz": 2677,
      "ĠSu": 2678,
      "ĠalÄ±yor": 2679,
      "ĠÄ°ngiliz": 2680,
      "ĠEÄŁer": 2681,
      "Er": 2682,
      "ĠÄ°Ã§in": 2683,
      "Ġruh": 2684,
      "Ġbor": 2685,
      "Ġedebilir": 2686,
      "oogle": 2687,
      "daÄŁ": 2688,
      "ĠDern": 2689,
      "forman": 2690,
      "Ġkorum": 2691,
      "ĠyapÄ±": 2692,
      "ĠProj": 2693,
      "lÄ±ÅŁ": 2694,
      "elerine": 2695,
      "engin": 2696,
      "ĠyalnÄ±z": 2697,
      "ĠVer": 2698,
      "ht": 2699,
      "Etik": 2700,
      "ĠbeÄŁ": 2701,
      "sak": 2702,
      "Ġmot": 2703,
      "ĠHizmet": 2704,
      "ĠgeÃ§miÅŁ": 2705,
      "baÅŁ": 2706,
      "Ġmemnun": 2707,
      "24": 2708,
      "atÃ¶r": 2709,
      "ĠMan": 2710,
      "Ġhaline": 2711,
      "adÄ±m": 2712,
      "adaki": 2713,
      "ĠdÃ¼nyanÄ±n": 2714,
      "ĠbirkaÃ§": 2715,
      "ĠakÅŁam": 2716,
      "Ġgi": 2717,
      "Ġtart": 2718,
      "alarÄ±nÄ±": 2719,
      "med": 2720,
      "Ġverir": 2721,
      "ĠÃ¶ÄŁretmen": 2722,
      "ĠBah": 2723,
      "ga": 2724,
      "ĠbaÅŁlat": 2725,
      "ĠSal": 2726,
      "Ġaraya": 2727,
      "ilerinin": 2728,
      "ayÄ±p": 2729,
      "Ġetkil": 2730,
      "Ä±mÄ±zÄ±": 2731,
      "ĠbaÅŁlay": 2732,
      "Ä±rÄ±": 2733,
      "asÄ±ndan": 2734,
      "elerinin": 2735,
      "Ġic": 2736,
      "ĠGenÃ§": 2737,
      "ĠyaptÄ±k": 2738,
      "ital": 2739,
      "lÃ¢": 2740,
      "Ġko": 2741,
      "Ġkendini": 2742,
      "Ġham": 2743,
      "Ġ21": 2744,
      "Bur": 2745,
      "azÄ±m": 2746,
      "ĠCh": 2747,
      "Ġdon": 2748,
      "Ä±nÄ±za": 2749,
      "ĠyÃ¼rÃ¼t": 2750,
      "Ġdost": 2751,
      "Ġbank": 2752,
      "Ġetkinlik": 2753,
      "IK": 2754,
      "artesi": 2755,
      "inizde": 2756,
      "Ã¼nÃ¼z": 2757,
      "asÄ±yla": 2758,
      "Ġitibaren": 2759,
      "Ġgider": 2760,
      "Ġkalk": 2761,
      "Ġfutbol": 2762,
      "miyor": 2763,
      "Ġdolar": 2764,
      "Ġst": 2765,
      "luÄŁu": 2766,
      "ebil": 2767,
      "ĠyapÄ±yor": 2768,
      "Ġvarsa": 2769,
      "hend": 2770,
      "lenme": 2771,
      "ĠÅŁeklinde": 2772,
      "Ġdep": 2773,
      "ĠGazet": 2774,
      "25": 2775,
      "Ġarac": 2776,
      "inÃ§": 2777,
      "mesine": 2778,
      "Ġah": 2779,
      "ĠÃ§Ã¼nkÃ¼": 2780,
      "ĠMal": 2781,
      "ĠyÄ±llÄ±k": 2782,
      "Ġeser": 2783,
      "Ã¼slÃ¼m": 2784,
      "ĠkatÄ±lÄ±m": 2785,
      "unan": 2786,
      "aÅŁa": 2787,
      "Ġhalinde": 2788,
      "ĠbaÅŁlayan": 2789,
      "form": 2790,
      "ecektir": 2791,
      "dak": 2792,
      "Ġarada": 2793,
      "EY": 2794,
      "DÃ¼n": 2795,
      "blem": 2796,
      "ĠSÃ¶z": 2797,
      "ĠSosyal": 2798,
      "ĠbiÃ§": 2799,
      "tul": 2800,
      "ĠPol": 2801,
      "ĠMak": 2802,
      "ĠTÃ¼m": 2803,
      "ĠkullanÄ±m": 2804,
      "Ġservis": 2805,
      "ĠMer": 2806,
      "go": 2807,
      "ia": 2808,
      "Ġsonucu": 2809,
      "Ġyapar": 2810,
      "ĠaÅŁk": 2811,
      "ĠaslÄ±nda": 2812,
      "ĠgÃ¼ncel": 2813,
      "ĠyÄ±k": 2814,
      "Ġmeydana": 2815,
      "Ġkarak": 2816,
      "ĠÃ¶dÃ¼l": 2817,
      "Ġpiyas": 2818,
      "Ġtamamen": 2819,
      "Ġkaliteli": 2820,
      "Ġkaf": 2821,
      "Ġokuy": 2822,
      "ĠBÃ¼yÃ¼kÅŁehir": 2823,
      "Ġnet": 2824,
      "Ġyoktur": 2825,
      "ĠAlt": 2826,
      "OK": 2827,
      "ha": 2828,
      "Ġform": 2829,
      "ÄŁust": 2830,
      "ton": 2831,
      "ĠKadÄ±n": 2832,
      "Ġasker": 2833,
      "Ġbaz": 2834,
      "ĠGÃ¼ven": 2835,
      "Ġele": 2836,
      "Ä±sÄ±na": 2837,
      "menin": 2838,
      "Ġhastan": 2839,
      "ĠadlÄ±": 2840,
      "Ġuygulan": 2841,
      "ĠyÄ±lÄ±": 2842,
      "Ġ&": 2843,
      "aket": 2844,
      "ÄŁustos": 2845,
      "masÄ±nÄ±n": 2846,
      "olojik": 2847,
      "ĠmÃ¼zik": 2848,
      "ĠkatkÄ±": 2849,
      "imizde": 2850,
      "Ã¼ncÃ¼": 2851,
      "sta": 2852,
      "ĠÃĩalÄ±ÅŁ": 2853,
      "Ġimk": 2854,
      "ĠÄ°slam": 2855,
      "ĠBakanÄ±": 2856,
      "Ġpuan": 2857,
      "Ġdeniz": 2858,
      "ĠÃ¼cretsiz": 2859,
      "ĠsÄ±rasÄ±nda": 2860,
      "Ġstr": 2861,
      "ĠDeÄŁ": 2862,
      "Ġnak": 2863,
      "Ġ40": 2864,
      "mayÄ±n": 2865,
      "ĠsÃ¶yl": 2866,
      "ĠaldÄ±ÄŁÄ±": 2867,
      "ĠhastalÄ±k": 2868,
      "ĠkullanÄ±lan": 2869,
      "ĠtartÄ±ÅŁ": 2870,
      "Ġsene": 2871,
      "elikle": 2872,
      "ĠSar": 2873,
      "Ġfakat": 2874,
      "enler": 2875,
      "ĠX": 2876,
      "ĠBas": 2877,
      "ĠyaptÄ±r": 2878,
      "formans": 2879,
      "ĠartÄ±r": 2880,
      "ĠAtatÃ¼rk": 2881,
      "ĠverdiÄŁi": 2882,
      "Ġkayb": 2883,
      "ĠsÃ¼reÃ§": 2884,
      "ĠTab": 2885,
      "yÄ±": 2886,
      "yo": 2887,
      "Kar": 2888,
      "ĠFakÃ¼lt": 2889,
      "Ä±nÄ±zda": 2890,
      "LÄ°": 2891,
      "IZ": 2892,
      "Ġ)": 2893,
      "Ġorta": 2894,
      "Ġcam": 2895,
      "Ġsebeb": 2896,
      "ĠMec": 2897,
      "acaÄŁÄ±m": 2898,
      "Ġnit": 2899,
      "eygam": 2900,
      "ĠgÃ¼venlik": 2901,
      "eksiyon": 2902,
      "iyim": 2903,
      "ĠMÃ¼z": 2904,
      "ansÄ±": 2905,
      "Ã¢n": 2906,
      "Ġolun": 2907,
      "ĠbulunmaktadÄ±r": 2908,
      "etik": 2909,
      "Ġyum": 2910,
      "ĠSanat": 2911,
      "Ġkent": 2912,
      "Ġmedya": 2913,
      "Ġhatta": 2914,
      "Ġbulunuyor": 2915,
      "Ġpolis": 2916,
      "ĠYÃ¶netim": 2917,
      "emen": 2918,
      "ĠsaÄŁlamak": 2919,
      "Ġyana": 2920,
      "eÅŁik": 2921,
      "17": 2922,
      "Ä±mÄ±zda": 2923,
      "Ġgru": 2924,
      "ĠsonrasÄ±": 2925,
      "ĠSistem": 2926,
      "ĠAhmet": 2927,
      "ĠÅŁah": 2928,
      "ĠÃ¼lke": 2929,
      "ĠsÄ±nav": 2930,
      "EV": 2931,
      "Ġciddi": 2932,
      "Ġneler": 2933,
      "Ã¼per": 2934,
      "rin": 2935,
      "larÄ±m": 2936,
      "Ġyazar": 2937,
      "ĠProgram": 2938,
      "umhur": 2939,
      "fi": 2940,
      "Ġsilah": 2941,
      "ĠÄ°yi": 2942,
      "Ġdal": 2943,
      "ĠPer": 2944,
      "ĠMÃ¼dÃ¼rÃ¼": 2945,
      "ĠbaÅŁarÄ±": 2946,
      "ĠSt": 2947,
      "ĠAm": 2948,
      "liÄŁini": 2949,
      "13": 2950,
      "Ġnok": 2951,
      "Ġtarif": 2952,
      "asi": 2953,
      "Ġit": 2954,
      "bakan": 2955,
      "Ġekonomik": 2956,
      "mamÄ±z": 2957,
      "Ġtarz": 2958,
      "dÃ¼k": 2959,
      "Ġgiz": 2960,
      "OS": 2961,
      "Ġtespit": 2962,
      "Ġayak": 2963,
      "elerinde": 2964,
      "Ġrap": 2965,
      "Ġokum": 2966,
      "Ġtec": 2967,
      "Ak": 2968,
      "ebilm": 2969,
      "Ġhayal": 2970,
      "ĠbulunduÄŁu": 2971,
      "ĠÅŁeyler": 2972,
      "esyon": 2973,
      "ĠAÄŁustos": 2974,
      "Ġyere": 2975,
      "ĠDemir": 2976,
      "Ġcil": 2977,
      "iyah": 2978,
      "emez": 2979,
      "Ä±nca": 2980,
      "Ġum": 2981,
      "eyn": 2982,
      "ĠyaÅŁayan": 2983,
      "ĠFakat": 2984,
      "rol": 2985,
      "son": 2986,
      "iliÄŁ": 2987,
      "Yeni": 2988,
      "Ã¼me": 2989,
      "Ġdeneyim": 2990,
      "makta": 2991,
      "yum": 2992,
      "Ġmalzem": 2993,
      "ĠgÃ¼nlÃ¼k": 2994,
      "inizin": 2995,
      "dÃ¼ÄŁÃ¼": 2996,
      "Ġsol": 2997,
      "Ġbilgisayar": 2998,
      "Ġbizi": 2999,
      "eygamber": 3000,
      "ĠinsanlarÄ±n": 3001,
      "YA": 3002,
      "Ġce": 3003,
      "meleri": 3004,
      "aÄŁa": 3005,
      "ata": 3006,
      "ĠoluÅŁan": 3007,
      "....": 3008,
      "Ġ28": 3009,
      "gar": 3010,
      "ullah": 3011,
      "Ġizin": 3012,
      "ĠbuluÅŁ": 3013,
      "Ġnef": 3014,
      "Ġmutlaka": 3015,
      "Ġmilyar": 3016,
      "Ġ2013": 3017,
      "Ġaktar": 3018,
      "ĠSel": 3019,
      "ersiz": 3020,
      "Ġseviy": 3021,
      "Ġhizmeti": 3022,
      "ĠÅŀubat": 3023,
      "yÄ±l": 3024,
      "LE": 3025,
      "ĠYÃ¼ksek": 3026,
      "Ġbi": 3027,
      "Ġbelki": 3028,
      "ĠNasÄ±l": 3029,
      "esyonel": 3030,
      "Ã¶ren": 3031,
      "gili": 3032,
      "Ġproblem": 3033,
      "Ġonlar": 3034,
      "estiv": 3035,
      "ĠÃ¶ldÃ¼r": 3036,
      "lulu": 3037,
      "anya": 3038,
      "ĠBank": 3039,
      "ĠyanlÄ±ÅŁ": 3040,
      "ĠbaÅŁÄ±na": 3041,
      "Ġboyut": 3042,
      "ĠYak": 3043,
      "ĠayrÄ±ca": 3044,
      "bur": 3045,
      "Ġhayvan": 3046,
      "Ġtip": 3047,
      "ĠÃ§ift": 3048,
      "ĠRusya": 3049,
      "ĠÃ¼nlÃ¼": 3050,
      "Ġberi": 3051,
      "ĠsaÄŁlÄ±klÄ±": 3052,
      "uzey": 3053,
      "ersonel": 3054,
      "Ġdurumu": 3055,
      "ĠGeÃ§": 3056,
      "ĠKim": 3057,
      "Ġyeterli": 3058,
      "Ġadres": 3059,
      "Ġnerede": 3060,
      "Ġend": 3061,
      "ĠYer": 3062,
      "rada": 3063,
      "ĠÄ°ÅŁte": 3064,
      "hendis": 3065,
      "Ġverilm": 3066,
      "uzur": 3067,
      "ĠSen": 3068,
      "Ġzorunda": 3069,
      "ĠÃ¶rgÃ¼t": 3070,
      "geÃ§": 3071,
      "Ġvaz": 3072,
      "ema": 3073,
      "Ġgar": 3074,
      "Ġkims": 3075,
      "tand": 3076,
      "Ġnedir": 3077,
      "ĠayÄ±nda": 3078,
      "Ġilgi": 3079,
      "lÄ±kla": 3080,
      "ala": 3081,
      "Ġdolu": 3082,
      "istik": 3083,
      "ĠÃ¶ÄŁrenciler": 3084,
      "Ġtavsiye": 3085,
      "ĠÄ±s": 3086,
      "Etiketler": 3087,
      "asayfa": 3088,
      "ĠSuriye": 3089,
      "ĠOd": 3090,
      "seniz": 3091,
      "Ä±lÄ±yor": 3092,
      "altÄ±": 3093,
      "ĠMahall": 3094,
      "rek": 3095,
      "ĠarasÄ±ndaki": 3096,
      "ĠsaÄŁlam": 3097,
      "Ġizle": 3098,
      "ĠKÃ¼r": 3099,
      "ĠetmiÅŁ": 3100,
      "Ġkapat": 3101,
      "ĠdÃ¶rt": 3102,
      "Ġedilir": 3103,
      "ĠbaÅŁvur": 3104,
      "ĠbaÅŁvuru": 3105,
      "Ġsizlere": 3106,
      "ĠkiÅŁiler": 3107,
      "ĠYÃ¶net": 3108,
      "Ġyolu": 3109,
      "Ġsorum": 3110,
      "zet": 3111,
      "Ġ27": 3112,
      "ĠSin": 3113,
      "ĠseÃ§enek": 3114,
      "ĠAÅŁ": 3115,
      "kem": 3116,
      "lisi": 3117,
      "ohbet": 3118,
      "ĠamacÄ±yla": 3119,
      "Ġzengin": 3120,
      "sim": 3121,
      "ĠmÃ¼cadele": 3122,
      "itimi": 3123,
      "Ġbahs": 3124,
      "amasÄ±": 3125,
      "Ġbuna": 3126,
      "Ġmin": 3127,
      "ĠFakÃ¼ltesi": 3128,
      "urum": 3129,
      "ebook": 3130,
      "mÄ±yor": 3131,
      "ĠsayÄ±sÄ±": 3132,
      "dem": 3133,
      "23": 3134,
      "tern": 3135,
      "Pro": 3136,
      "mÄ±ÅŁtÄ±": 3137,
      "ĠKemal": 3138,
      "60": 3139,
      "kar": 3140,
      "Ġeksik": 3141,
      "latform": 3142,
      "ĠHastan": 3143,
      "Ġettik": 3144,
      "Ġsefer": 3145,
      "ete": 3146,
      "Ġuygulama": 3147,
      "Ġmakin": 3148,
      "pp": 3149,
      "Ä±lÄ±ÄŁÄ±": 3150,
      "iydi": 3151,
      "abilmek": 3152,
      "Ġhaft": 3153,
      "Ġsig": 3154,
      "ĠBÃ¶yle": 3155,
      "meniz": 3156,
      "Mer": 3157,
      "ĠĠ": 3158,
      "Biz": 3159,
      "laÅŁtÄ±r": 3160,
      "ĠiÅŁaret": 3161,
      "ka": 3162,
      "80": 3163,
      "eÅŁiktaÅŁ": 3164,
      "Ġetkili": 3165,
      "ĠalÄ±ÅŁveriÅŁ": 3166,
      "yas": 3167,
      "Ġdefa": 3168,
      "tere": 3169,
      "ĠAÄŁ": 3170,
      "ĠfÄ±rsat": 3171,
      "Ä±mÄ±zÄ±n": 3172,
      "Ġbelg": 3173,
      "ĠÅŁeyi": 3174,
      "vekili": 3175,
      "Ġmekan": 3176,
      "iir": 3177,
      "ard": 3178,
      "Ġtedavi": 3179,
      "ĠDerneÄŁi": 3180,
      "Ġperformans": 3181,
      "Ġsabah": 3182,
      "izik": 3183,
      "Ġkamu": 3184,
      "ĠBilg": 3185,
      "ros": 3186,
      "aÄŁÄ±t": 3187,
      "rac": 3188,
      "madÄ±": 3189,
      "iÅŁi": 3190,
      "enÃ¼z": 3191,
      "ladÄ±ÄŁÄ±": 3192,
      "muÅŁtur": 3193,
      "ke": 3194,
      "ĠÃ¶lÃ¼m": 3195,
      "eceÄŁiz": 3196,
      "Ġbayan": 3197,
      "ĠbasÄ±n": 3198,
      "ĠalanÄ±nda": 3199,
      "abz": 3200,
      "ediy": 3201,
      "ĠsaÄŁlan": 3202,
      "Ġsunul": 3203,
      "Ġdoktor": 3204,
      "Ġfikir": 3205,
      "ĠÃ§ocuÄŁ": 3206,
      "Ġhikay": 3207,
      "osy": 3208,
      "ĠdÃ¶nemde": 3209,
      "âĢ¢": 3210,
      "ipar": 3211,
      "ĠFran": 3212,
      "yen": 3213,
      "ĠMod": 3214,
      "Ġdile": 3215,
      "ham": 3216,
      "ĠoÄŁ": 3217,
      "ĠAmerika": 3218,
      "LU": 3219,
      "ebilecek": 3220,
      "Ġveriyor": 3221,
      "Ġrol": 3222,
      "ĠYani": 3223,
      "Ġgol": 3224,
      "ilerek": 3225,
      "mÄ±zÄ±": 3226,
      "uvvet": 3227,
      "''": 3228,
      "Ġlez": 3229,
      "gen": 3230,
      "Ãĸn": 3231,
      "Ġresmi": 3232,
      "uyorum": 3233,
      "Ġmerkezi": 3234,
      "Ġ26": 3235,
      "ĠsÃ¶ylem": 3236,
      "ĠSÃ¼r": 3237,
      "iddet": 3238,
      "ĠGir": 3239,
      "Ġpolitik": 3240,
      "ĠCumhuriyet": 3241,
      "ilendir": 3242,
      "ĠKÄ±r": 3243,
      "Ġtrans": 3244,
      "Ġbal": 3245,
      "ĠsayÄ±da": 3246,
      "allah": 3247,
      "Ġemek": 3248,
      "Ãĸz": 3249,
      "ĠAz": 3250,
      "Anasayfa": 3251,
      "ĠsayÄ±lÄ±": 3252,
      "Ġkart": 3253,
      "Ġbeyaz": 3254,
      "Ġhukuk": 3255,
      "ĠkuÅŁ": 3256,
      "Ġmobil": 3257,
      "ĠmÃ¼k": 3258,
      "oÃ§": 3259,
      "Ġizley": 3260,
      "onya": 3261,
      "Ä°Åŀ": 3262,
      "Ġheyec": 3263,
      "medi": 3264,
      "ĠdeÄŁerli": 3265,
      "Ġreklam": 3266,
      "ĠbaÄŁÄ±m": 3267,
      "Ġdek": 3268,
      "ĠbaÅŁÄ±nda": 3269,
      "ĠsÃ¶yley": 3270,
      "ĠFiyat": 3271,
      "ĠKol": 3272,
      "par": 3273,
      "ĠSat": 3274,
      "ĠÃĩin": 3275,
      "Ġteklif": 3276,
      "dro": 3277,
      "ĠBirliÄŁi": 3278,
      "ĠAL": 3279,
      "ĠCHP": 3280,
      "ĠtÄ±klay": 3281,
      "ĠyabancÄ±": 3282,
      "ĠgÃ¶tÃ¼r": 3283,
      "ĠdÃ¼ÅŁÃ¼k": 3284,
      "Ġhala": 3285,
      "ĠKÄ±z": 3286,
      "rail": 3287,
      "ĠCan": 3288,
      "ĠmÃ¼cadel": 3289,
      "ĠKend": 3290,
      "ildiÄŁi": 3291,
      "ĠTan": 3292,
      "nak": 3293,
      "dal": 3294,
      "ĠkoÅŁul": 3295,
      "ĠuluslararasÄ±": 3296,
      "ĠolmalÄ±": 3297,
      "Ġdavet": 3298,
      "ĠaltÄ±na": 3299,
      "Ġbol": 3300,
      "ĠDÃ¶n": 3301,
      "endi": 3302,
      "cil": 3303,
      "Ġenerji": 3304,
      "ack": 3305,
      "ĠdÃ¼ÅŁÃ¼nc": 3306,
      "ĠgiriÅŁim": 3307,
      "ĠTay": 3308,
      "Ġâ": 3309,
      "her": 3310,
      "alarÄ±nÄ±n": 3311,
      "alatasar": 3312,
      "Ġoperasyon": 3313,
      "ĠgÃ¶rÃ¼ntÃ¼": 3314,
      "alarÄ±na": 3315,
      "ĠettiÄŁ": 3316,
      "**": 3317,
      "Ġdakik": 3318,
      "ise": 3319,
      "Ġderec": 3320,
      "Ġtest": 3321,
      "alatasaray": 3322,
      "ukarÄ±": 3323,
      "Ä±nt": 3324,
      "Ġtatil": 3325,
      "Ġ2012": 3326,
      "Ġtoplant": 3327,
      "ĠkeÅŁ": 3328,
      "Ġediyoruz": 3329,
      "AC": 3330,
      "acebook": 3331,
      "!!": 3332,
      "hone": 3333,
      "ĠFat": 3334,
      "ĠSay": 3335,
      "Ġ29": 3336,
      "Ġkategor": 3337,
      "Ġgal": 3338,
      "imin": 3339,
      "emmel": 3340,
      "ĠKÃ¶": 3341,
      "abzon": 3342,
      "Ġproje": 3343,
      "ĠdÃ¼zey": 3344,
      "enerbah": 3345,
      "ĠAlmanya": 3346,
      "teki": 3347,
      "cÄ±lÄ±k": 3348,
      "haba": 3349,
      "Ġoyunu": 3350,
      "ĠÃ§arp": 3351,
      "ĠAN": 3352,
      "ĠOsmanlÄ±": 3353,
      "Ġmiktar": 3354,
      "ĠEd": 3355,
      "lerdir": 3356,
      "Ġuc": 3357,
      "Ġsavun": 3358,
      "Ġkeyif": 3359,
      "ĠsÃ¼rec": 3360,
      "ĠHalk": 3361,
      "Ġoku": 3362,
      "40": 3363,
      "ĠiÅŁi": 3364,
      "lÄ±ÄŁÄ±nÄ±": 3365,
      "Ġnes": 3366,
      "ĠAntalya": 3367,
      "ĠPart": 3368,
      "Ã¼slÃ¼man": 3369,
      "Ġyeri": 3370,
      "Ġolursa": 3371,
      "ĠsaÄŁlar": 3372,
      "ĠAR": 3373,
      "iÃ§ek": 3374,
      "niyet": 3375,
      "ger": 3376,
      "ĠlazÄ±m": 3377,
      "ĠÃĸzellikle": 3378,
      "ĠGÃ¼l": 3379,
      "Ġilan": 3380,
      "abet": 3381,
      "ĠTem": 3382,
      "Ġuyar": 3383,
      "Ã¼mÃ¼zde": 3384,
      "Ġnormal": 3385,
      "ĠbeÅŁ": 3386,
      "imar": 3387,
      "ĠTicaret": 3388,
      "alim": 3389,
      "co": 3390,
      "larÄ±nÄ±zÄ±": 3391,
      "rÃ¼b": 3392,
      "anÄ±z": 3393,
      "El": 3394,
      "sÄ±": 3395,
      "ĠkÄ±l": 3396,
      "Ġalanda": 3397,
      "lÄ±lÄ±k": 3398,
      "ĠBursa": 3399,
      "evizyon": 3400,
      "Ġkum": 3401,
      "ÃľRK": 3402,
      "GÃ¼n": 3403,
      "Ġhalde": 3404,
      "Ġyandan": 3405,
      "ladÄ±ÄŁ": 3406,
      "iyan": 3407,
      "ayÄ±sÄ±yla": 3408,
      "Ġkok": 3409,
      "ĠÃ§alÄ±ÅŁmalarÄ±": 3410,
      "Ad": 3411,
      "Ġduyur": 3412,
      "hi": 3413,
      "neÄŁin": 3414,
      "TÄ°": 3415,
      "uyoruz": 3416,
      "Ġkonum": 3417,
      "aÅŁÄ±r": 3418,
      "Bil": 3419,
      "ĠbaÅŁlan": 3420,
      "ĠGÃ¼nÃ¼": 3421,
      "ĠMahallesi": 3422,
      "Ġkarakter": 3423,
      "âĢĵ": 3424,
      "Ġbitir": 3425,
      "sas": 3426,
      "Ä±lmaz": 3427,
      "Ġtoprak": 3428,
      "Ġlider": 3429,
      "Ġihtiyac": 3430,
      "ĠateÅŁ": 3431,
      "ĠGÃ¼zel": 3432,
      "cort": 3433,
      "Ġma": 3434,
      "Ġadr": 3435,
      "ĠÃ¶nceki": 3436,
      "Ġbenzer": 3437,
      "ĠGÃ¶": 3438,
      "hat": 3439,
      "ĠOL": 3440,
      "aliz": 3441,
      "Ġgide": 3442,
      "oman": 3443,
      "tandart": 3444,
      ".,": 3445,
      "Ġtesis": 3446,
      "Ġkendisine": 3447,
      "taki": 3448,
      "ĠTV": 3449,
      "Ġnumar": 3450,
      "Ġbirey": 3451,
      "ahim": 3452,
      "ĠsonrasÄ±nda": 3453,
      "siy": 3454,
      "Ġakl": 3455,
      "obÃ¼s": 3456,
      "ĠyaÅŁanan": 3457,
      "liÄŁinde": 3458,
      "Ġhuzur": 3459,
      "mamÄ±ÅŁ": 3460,
      "raman": 3461,
      "ĠKurul": 3462,
      "acaÄŁÄ±nÄ±z": 3463,
      "ĠLig": 3464,
      "ĠsoÄŁ": 3465,
      "ivil": 3466,
      "ze": 3467,
      "ĠKullan": 3468,
      "tepe": 3469,
      "Ġyolc": 3470,
      "mada": 3471,
      "Ã¼ph": 3472,
      "ĠarasÄ±": 3473,
      "ĠTeknik": 3474,
      "Ġyapacak": 3475,
      "ink": 3476,
      "ultan": 3477,
      "Ġsonuc": 3478,
      "ĠBugÃ¼n": 3479,
      "Ġhayata": 3480,
      "kek": 3481,
      "Ġbebek": 3482,
      "elerden": 3483,
      "Ġsenin": 3484,
      "rum": 3485,
      "ĠÃ¶nÃ¼nde": 3486,
      "lediÄŁi": 3487,
      "ĠolmadÄ±ÄŁÄ±nÄ±": 3488,
      "Ġedilmesi": 3489,
      "urat": 3490,
      "atej": 3491,
      "pek": 3492,
      "lenmesi": 3493,
      "Ġrisk": 3494,
      "era": 3495,
      "ĠÃ¶zgÃ¼r": 3496,
      "avi": 3497,
      "ĠhayatÄ±nÄ±": 3498,
      "ĠgÃ¶rmek": 3499,
      "Ġir": 3500,
      "Ġfak": 3501,
      "Or": 3502,
      "ĠiÃ§eri": 3503,
      "Ġtehlik": 3504,
      "dÄ±ÄŁÄ±nda": 3505,
      "ĠbaÅŁta": 3506,
      "Gen": 3507,
      "afir": 3508,
      "ĠÃľrÃ¼n": 3509,
      "ĠuÃ§ak": 3510,
      "Ġfirmalar": 3511,
      "Ġdam": 3512,
      "ĠBr": 3513,
      "ĠAraÅŁtÄ±r": 3514,
      "Ã¼yle": 3515,
      "ĠayÄ±r": 3516,
      "Ġbirisi": 3517,
      "ĠTes": 3518,
      "Hay": 3519,
      "Ġeg": 3520,
      "ĠSavaÅŁ": 3521,
      "ĠtaÅŁÄ±m": 3522,
      "ĠPazar": 3523,
      "Ġisten": 3524,
      "ronik": 3525,
      "likleri": 3526,
      "Ġkurtul": 3527,
      "Ġnokta": 3528,
      "Ġef": 3529,
      "IÅŀ": 3530,
      "malÄ±dÄ±r": 3531,
      "ses": 3532,
      "LERÄ°": 3533,
      "Ġnot": 3534,
      "iyatro": 3535,
      "Ġsem": 3536,
      "Ġileri": 3537,
      "ĠyapmÄ±ÅŁ": 3538,
      "Ġderin": 3539,
      "yanÄ±n": 3540,
      "Ġtr": 3541,
      "tÃ¶r": 3542,
      "masÄ±nda": 3543,
      "AV": 3544,
      "tp": 3545,
      "Ġsiyasi": 3546,
      "ĠonlarÄ±n": 3547,
      "ĠtaÅŁÄ±y": 3548,
      "Ġdoldur": 3549,
      "EC": 3550,
      "erÃ§ev": 3551,
      "//": 3552,
      "ĠonlarÄ±": 3553,
      "irk": 3554,
      "ĠyÄ±ldÄ±r": 3555,
      "har": 3556,
      "teÅŁ": 3557,
      "ĠCumhurbaÅŁkanÄ±": 3558,
      "ĠMed": 3559,
      "ku": 3560,
      "enerbahÃ§e": 3561,
      "Ġyaparak": 3562,
      "Ġkurtar": 3563,
      "antaj": 3564,
      "ĠgerektiÄŁini": 3565,
      "rem": 3566,
      "Ä°s": 3567,
      "Ġcep": 3568,
      "ĠdÃ¼nyada": 3569,
      "ĠYol": 3570,
      "ĠiÃ§ine": 3571,
      "eng": 3572,
      "ĠilaÃ§": 3573,
      "ĠAlan": 3574,
      "tak": 3575,
      "esiz": 3576,
      "22": 3577,
      "tiler": 3578,
      "Ġpop": 3579,
      "ĠÃ¼rÃ¼nleri": 3580,
      "ĠhazÄ±rlan": 3581,
      "Ġsitesi": 3582,
      "Ġkredi": 3583,
      "Ġbelirten": 3584,
      "miÅŁti": 3585,
      "BaÅŁ": 3586,
      "Ġbahis": 3587,
      "Ġanne": 3588,
      "Ã§ak": 3589,
      "osta": 3590,
      "ipariÅŁ": 3591,
      "ĠCam": 3592,
      "ĠbeÄŁen": 3593,
      "ĠgÃ¼l": 3594,
      "Ġhisset": 3595,
      "Ġkendine": 3596,
      "ord": 3597,
      "Ġharika": 3598,
      "iklet": 3599,
      "ĠAÃ§Ä±k": 3600,
      "ĠSanayi": 3601,
      "Ġ60": 3602,
      "ĠSamsun": 3603,
      "ĠHaf": 3604,
      "umsuz": 3605,
      "ĠhayÄ±r": 3606,
      "adi": 3607,
      "droid": 3608,
      "ult": 3609,
      "ayla": 3610,
      "Ġelektrik": 3611,
      "Ġdevr": 3612,
      "inans": 3613,
      "ĠyaÅŁÄ±nda": 3614,
      "elidir": 3615,
      "Ġrapor": 3616,
      "ĠUluslararasÄ±": 3617,
      "ĠalÄ±nan": 3618,
      "ĠKaz": 3619,
      "lÃ¼t": 3620,
      "mamak": 3621,
      "Ġolma": 3622,
      "Ġprofesyonel": 3623,
      "uklu": 3624,
      "ĠalÄ±r": 3625,
      "ĠyapÄ±ldÄ±": 3626,
      "2017": 3627,
      "Ġbat": 3628,
      "Ġesn": 3629,
      "ĠfÄ±r": 3630,
      "dÃ¼m": 3631,
      "Ġemin": 3632,
      "Ã¢r": 3633,
      "ĠUygul": 3634,
      "ĠgÃ¼neÅŁ": 3635,
      "Ġsana": 3636,
      "Ġalacak": 3637,
      "ĠâĢ¦": 3638,
      "ĠÃ¶ÄŁ": 3639,
      "KK": 3640,
      "Ġkimse": 3641,
      "AÄŀ": 3642,
      "sÄ±zlÄ±k": 3643,
      "eyle": 3644,
      "ĠAynÄ±": 3645,
      "Ġmar": 3646,
      "Ġaile": 3647,
      "ĠGÃ¶k": 3648,
      "ĠdaÄŁ": 3649,
      "ĠkararÄ±": 3650,
      "Ġifad": 3651,
      "ĠhenÃ¼z": 3652,
      "lerinizi": 3653,
      "ĠtecrÃ¼b": 3654,
      "ĠÃ§evir": 3655,
      "bay": 3656,
      "ĠiÅŁe": 3657,
      "ĠÃ§at": 3658,
      "Ġgay": 3659,
      "Ġbasit": 3660,
      "adÄ±r": 3661,
      "ĠSah": 3662,
      "Ä±sÄ±nÄ±n": 3663,
      "Ġ+": 3664,
      "ĠKam": 3665,
      "ASI": 3666,
      "Ne": 3667,
      "OÄŀ": 3668,
      "Ġyoksa": 3669,
      "best": 3670,
      "Ġpoz": 3671,
      "laj": 3672,
      "IS": 3673,
      "Ġsel": 3674,
      "Ġticaret": 3675,
      "ĠolmadÄ±ÄŁÄ±": 3676,
      "ĠÃ§ab": 3677,
      "ĠBÄ°R": 3678,
      "nden": 3679,
      "ĠsÄ±rada": 3680,
      "Ġpersonel": 3681,
      "Ã¶v": 3682,
      "yse": 3683,
      "iÅŁleri": 3684,
      "Ġkilo": 3685,
      "liler": 3686,
      "ĠeÄŁer": 3687,
      "ĠYardÄ±mcÄ±sÄ±": 3688,
      "err": 3689,
      "ĠBaÄŁ": 3690,
      "ĠgÃ¶steren": 3691,
      "Ġsoy": 3692,
      "Ä±ÄŁÄ±n": 3693,
      "ĠBal": 3694,
      "ĠSeÃ§": 3695,
      "ĠÅŀimdi": 3696,
      "Ġbilgileri": 3697,
      "larÄ±mÄ±zÄ±n": 3698,
      "ĠedeceÄŁ": 3699,
      "diler": 3700,
      "ersin": 3701,
      "ĠtoplantÄ±": 3702,
      "Ġarz": 3703,
      "ĠiÅŁte": 3704,
      "eceÄŁim": 3705,
      "ĠyavaÅŁ": 3706,
      "lev": 3707,
      "ĠGoogle": 3708,
      "aÄŁan": 3709,
      "bil": 3710,
      "Ġpan": 3711,
      "ĠÅŁiddet": 3712,
      "ĠiÃ§i": 3713,
      "Ġzorun": 3714,
      "Ġsahiptir": 3715,
      "ĠyapÄ±lmasÄ±": 3716,
      "keri": 3717,
      "ĠHakk": 3718,
      "ĠKah": 3719,
      "ĠVak": 3720,
      "ilmiÅŁtir": 3721,
      "edeki": 3722,
      "ons": 3723,
      "Ġkullanarak": 3724,
      "Ä±lacak": 3725,
      "diÄŁimiz": 3726,
      "Ġduygu": 3727,
      "Ġyerinde": 3728,
      "://": 3729,
      "usun": 3730,
      "leÅŁme": 3731,
      "erseniz": 3732,
      "Ġbuy": 3733,
      "ĠYorum": 3734,
      "ĠBayram": 3735,
      "Ġsokak": 3736,
      "Ġpr": 3737,
      "Ġkesinlikle": 3738,
      "Ġbundan": 3739,
      "ĠÃ§erÃ§ev": 3740,
      "ĠyaÅŁÄ±ndaki": 3741,
      "ĠaÃ§Ä±klamada": 3742,
      "Ġdu": 3743,
      "ndan": 3744,
      "Ġsohbet": 3745,
      "Ġmotor": 3746,
      "As": 3747,
      "ĠDÄ±ÅŁ": 3748,
      "ben": 3749,
      "ĠinsanÄ±n": 3750,
      "ĠyÄ±llarda": 3751,
      "tÄ±ÄŁÄ±nÄ±": 3752,
      "Ġeylem": 3753,
      "ĠDav": 3754,
      "mekte": 3755,
      "ĠYayÄ±n": 3756,
      "ĠVar": 3757,
      "Ġalarak": 3758,
      "Ġtabi": 3759,
      "ĠalanÄ±": 3760,
      "tÃ¼l": 3761,
      "ekim": 3762,
      "ĠÅŁans": 3763,
      "embe": 3764,
      "tuk": 3765,
      "Ġayar": 3766,
      "lÄ±klÄ±": 3767,
      "mail": 3768,
      "ĠolmuÅŁtur": 3769,
      "Ġasla": 3770,
      "ĠsaÄŁlayan": 3771,
      "diÄŁim": 3772,
      "Ġfilmi": 3773,
      "Ġtane": 3774,
      "mÃ¼r": 3775,
      "âĢĿ,": 3776,
      "ĠÃ§al": 3777,
      "Ġ2011": 3778,
      "ĠkatÄ±ldÄ±": 3779,
      "ĠmÃ¼da": 3780,
      "ĠgÃ¼nlerde": 3781,
      "cisi": 3782,
      "Ġsona": 3783,
      "ijital": 3784,
      "ĠdÄ±ÅŁÄ±": 3785,
      "kÄ±n": 3786,
      "Ä±yorlar": 3787,
      "Ġkm": 3788,
      "Ġkural": 3789,
      "aklÄ±": 3790,
      "Ġarama": 3791,
      "ĠFir": 3792,
      "ĠyayÄ±m": 3793,
      "ond": 3794,
      "izasyon": 3795,
      "ĠsÃ¼rede": 3796,
      "Ġhastal": 3797,
      "ĠÅŁarkÄ±": 3798,
      "yap": 3799,
      "duÄŁunu": 3800,
      "terek": 3801,
      "Ġisimli": 3802,
      "evk": 3803,
      "ĠdÃ¼zenlen": 3804,
      "ediler": 3805,
      "eytin": 3806,
      "70": 3807,
      "iber": 3808,
      "Ġyiy": 3809,
      "ĠdoÄŁum": 3810,
      "kenin": 3811,
      "wit": 3812,
      "Ġ2010": 3813,
      "Ġkadro": 3814,
      "Ġmec": 3815,
      "ladÄ±k": 3816,
      "ildiÄŁ": 3817,
      "Ġvb": 3818,
      "ĠAydÄ±n": 3819,
      "ĠiP": 3820,
      "Ġharc": 3821,
      "Ġfazl": 3822,
      "iyer": 3823,
      "ezi": 3824,
      "Ġdef": 3825,
      "ĠGazi": 3826,
      "ĠÄ°lÃ§e": 3827,
      "ĠHD": 3828,
      "ene": 3829,
      "ĠeleÅŁtir": 3830,
      "elerinden": 3831,
      "90": 3832,
      "OM": 3833,
      "Ãĩok": 3834,
      "oca": 3835,
      "Ġkans": 3836,
      "ĠHam": 3837,
      "ĠtaÅŁÄ±n": 3838,
      "ĠdeÄŁiÅŁiklik": 3839,
      "Ġhafif": 3840,
      "ĠgÃ¼c": 3841,
      "ĠmÃ¼kemmel": 3842,
      "ĠsÃ¼t": 3843,
      "ĠHz": 3844,
      "Ġsonu": 3845,
      "Av": 3846,
      "Ġyola": 3847,
      "ĠÄ°ran": 3848,
      "ĠÃĩar": 3849,
      "ĠRec": 3850,
      "ledik": 3851,
      "Ġaray": 3852,
      "ezer": 3853,
      "Ġgerekmektedir": 3854,
      "aiz": 3855,
      "liÄŁe": 3856,
      "ĠGÃ¶z": 3857,
      "ĠDol": 3858,
      "ĠYÃ¼z": 3859,
      "bette": 3860,
      "ĠiÅŁbir": 3861,
      "ĠÃĩev": 3862,
      "ĠprogramÄ±": 3863,
      "Ġonlara": 3864,
      "eliyat": 3865,
      "Ġkampany": 3866,
      "ĠarttÄ±r": 3867,
      "esindeki": 3868,
      "Ġton": 3869,
      "tadan": 3870,
      "Ġ500": 3871,
      "ĠUn": 3872,
      "'s": 3873,
      "Ã¼yoruz": 3874,
      "Ġanlamda": 3875,
      "ows": 3876,
      "ahmet": 3877,
      "ĠDair": 3878,
      "ĠÃľy": 3879,
      "arÄ±m": 3880,
      "lÄ±ÄŁa": 3881,
      "Ġimza": 3882,
      "orun": 3883,
      "Ġgiden": 3884,
      "ĠiÃ§erik": 3885,
      "Ġmesaf": 3886,
      "Ä±c": 3887,
      "ĠmÃ¼ÅŁteri": 3888,
      "Ä±sÄ±r": 3889,
      "Ġara": 3890,
      "ĠÃ¶ÄŁrenci": 3891,
      "and": 3892,
      "ĠThe": 3893,
      "ĠakÄ±llÄ±": 3894,
      "Ġyararlan": 3895,
      "ĠdÃ¶k": 3896,
      "Ġkahv": 3897,
      "Ġteknoloji": 3898,
      "Ġettir": 3899,
      "Ġzam": 3900,
      "illi": 3901,
      "oto": 3902,
      "Ġvurgul": 3903,
      "ai": 3904,
      "Ġdo": 3905,
      "ĠVal": 3906,
      "ĠOrta": 3907,
      "sini": 3908,
      "Ġmesel": 3909,
      "Ġsonraki": 3910,
      "ĠBÃ¶lÃ¼m": 3911,
      "eyiz": 3912,
      "say": 3913,
      "gÃ¶r": 3914,
      "ĠBin": 3915,
      "ĠyerleÅŁ": 3916,
      "ĠkazandÄ±r": 3917,
      "ĠÃ§oÄŁu": 3918,
      "UT": 3919,
      "edeni": 3920,
      "omet": 3921,
      "endik": 3922,
      "Ġfil": 3923,
      "Ġkanal": 3924,
      "Cumhur": 3925,
      "Ġhap": 3926,
      "dÄ±rÄ±m": 3927,
      "Ġmat": 3928,
      "EZ": 3929,
      "Ġetmektedir": 3930,
      "21": 3931,
      "ĠHol": 3932,
      "âĢ¦]": 3933,
      "eliÄŁ": 3934,
      "fet": 3935,
      "ĠHem": 3936,
      "ĠkaldÄ±": 3937,
      "akar": 3938,
      "Ġsahn": 3939,
      "ĠyÄ±lda": 3940,
      "ĠpiÅŁ": 3941,
      "Ġseyahat": 3942,
      "Ġbunlar": 3943,
      "Ġplatform": 3944,
      "dam": 3945,
      "emizin": 3946,
      "Ġyada": 3947,
      "amet": 3948,
      "lÄ±ÄŁÄ±na": 3949,
      "ĠalmÄ±ÅŁ": 3950,
      "ation": 3951,
      "ĠartÄ±ÅŁ": 3952,
      "Ġtahmin": 3953,
      "Ġdemokr": 3954,
      "Ġolumsuz": 3955,
      "ĠaldÄ±ÄŁ": 3956,
      "ĠMut": 3957,
      "Daha": 3958,
      "estor": 3959,
      "Ġyerel": 3960,
      "EB": 3961,
      "meni": 3962,
      "ĠvazgeÃ§": 3963,
      "Allah": 3964,
      "Ã§iler": 3965,
      "Ġpsik": 3966,
      "ĠyanÄ±t": 3967,
      "ĠSayÄ±n": 3968,
      "ĠsaldÄ±rÄ±": 3969,
      "ĠTaÅŁ": 3970,
      "ÅŁey": 3971,
      "teÅŁem": 3972,
      "?âĢĿ": 3973,
      "ĠBunu": 3974,
      "are": 3975,
      "ĠaÅŁaÄŁÄ±daki": 3976,
      "ou": 3977,
      "ĠtanÄ±ÅŁ": 3978,
      "ilebilir": 3979,
      "Ġpark": 3980,
      "ess": 3981,
      "ĠyÃ¼rÃ¼y": 3982,
      "Ġidar": 3983,
      "ĠyÄ±llar": 3984,
      "ĠaÃ§Ä±klama": 3985,
      "ĠbaÅŁlar": 3986,
      "Tek": 3987,
      "ĠÃľst": 3988,
      "abileceÄŁiniz": 3989,
      "LARI": 3990,
      "Ä±lÄ±Ã§": 3991,
      "ĠDur": 3992,
      "Ġerken": 3993,
      "Ä±sÄ±nÄ±z": 3994,
      "Ġkitab": 3995,
      "ĠkÃ¼r": 3996,
      "cilik": 3997,
      "Ġotomobil": 3998,
      "acÄ±lÄ±k": 3999,
      "Ġlim": 4000,
      "utan": 4001,
      "ĠtanÄ±t": 4002,
      "26": 4003,
      "ĠYÄ±lmaz": 4004,
      "ĠkapÄ±": 4005,
      "leriniz": 4006,
      "amay": 4007,
      "to": 4008,
      "etleri": 4009,
      "ĠKitap": 4010,
      "ĠDoÄŁu": 4011,
      "Ġlezzet": 4012,
      "Ġbazen": 4013,
      "ĠTasar": 4014,
      "aka": 4015,
      ":)": 4016,
      "uro": 4017,
      "Ġkavram": 4018,
      "Ġcm": 4019,
      "Ġresim": 4020,
      "Ġfel": 4021,
      "ĠkaÅŁ": 4022,
      "rika": 4023,
      "ĠLi": 4024,
      "MA": 4025,
      "ĠkarÅŁÄ±sÄ±nda": 4026,
      "lerim": 4027,
      "mur": 4028,
      "orn": 4029,
      "Ġbilinen": 4030,
      "ĠYet": 4031,
      "amazan": 4032,
      "ĠhÃ¢": 4033,
      "Ġmodern": 4034,
      "ĠÃ¼niversit": 4035,
      "Ġvit": 4036,
      "ILI": 4037,
      "Ġonay": 4038,
      "ĠedilmiÅŁ": 4039,
      "Ä±ldÄ±ÄŁÄ±": 4040,
      "ĠkiÅŁisel": 4041,
      "ĠdanÄ±ÅŁ": 4042,
      "28": 4043,
      "larÄ±mÄ±zÄ±": 4044,
      "Ġkalp": 4045,
      "Ġpaket": 4046,
      "Ġbiliyor": 4047,
      "ĠDil": 4048,
      "erim": 4049,
      "Ev": 4050,
      "ĠSh": 4051,
      "ÃľK": 4052,
      "Ġpas": 4053,
      "Ġverildi": 4054,
      "Ġoyunc": 4055,
      "Ġyakal": 4056,
      "Ġyapmaya": 4057,
      "lerimizi": 4058,
      "Ġiddia": 4059,
      "ĠyapÄ±lÄ±r": 4060,
      "Ġib": 4061,
      "udi": 4062,
      "Ġbilir": 4063,
      "ĠyapÄ±m": 4064,
      "dÄ±ktan": 4065,
      "Ġseni": 4066,
      "Ġmadd": 4067,
      "ĠÃ¶ne": 4068,
      "ĠYan": 4069,
      "elerle": 4070,
      "celi": 4071,
      "ĠÃ¶zelliÄŁi": 4072,
      "lÄ±ÄŁÄ±n": 4073,
      "ates": 4074,
      "ĠtatlÄ±": 4075,
      "ĠTat": 4076,
      "racat": 4077,
      "ĠÄ°k": 4078,
      "ĠÄ°ngilizce": 4079,
      "ĠdÃ¶neminde": 4080,
      "dikleri": 4081,
      "ĠBeÅŁiktaÅŁ": 4082,
      "Ġsur": 4083,
      "Ġstandart": 4084,
      "pt": 4085,
      "ĠBurada": 4086,
      "ĠaylÄ±k": 4087,
      "Ġbelirtti": 4088,
      "ĠkÄ±ÅŁ": 4089,
      "sine": 4090,
      "ĠBer": 4091,
      "ĠdÃ¼ÅŁÃ¼nÃ¼yorum": 4092,
      "ĠFil": 4093,
      "ĠDiÄŁer": 4094,
      "ĠolmasÄ±na": 4095,
      "Ġaf": 4096,
      "dev": 4097,
      "ĠEf": 4098,
      "indows": 4099,
      "Ä°YE": 4100,
      "ĠÃ§ocuklar": 4101,
      "Ġdurumunda": 4102,
      "ĠdiÅŁ": 4103,
      "deniz": 4104,
      "Ġetmeye": 4105,
      "Ġkayde": 4106,
      "Ġfizik": 4107,
      "lenmiÅŁ": 4108,
      "ĠAB": 4109,
      "ĠnÃ¼f": 4110,
      "ABD": 4111,
      "ĠyetiÅŁ": 4112,
      "Ã¼ny": 4113,
      "lenir": 4114,
      "Ġcok": 4115,
      "Ġbekliyor": 4116,
      "ĠKÄ±": 4117,
      "ĠkiÅŁilik": 4118,
      "Ġkendisi": 4119,
      "ĠÃ§ay": 4120,
      "asÄ±n": 4121,
      "otel": 4122,
      "isinden": 4123,
      "ĠtÃ¶ren": 4124,
      "ĠkarÄ±ÅŁ": 4125,
      "Ġtaz": 4126,
      "ĠDÃ¼z": 4127,
      "kiler": 4128,
      "int": 4129,
      "ĠOkul": 4130,
      "ĠMark": 4131,
      "erler": 4132,
      "ĠgÃ¶ren": 4133,
      "Ġvakit": 4134,
      "Ġcen": 4135,
      "AF": 4136,
      "ĠÃ§eken": 4137,
      "ĠTam": 4138,
      "ĠSaat": 4139,
      "ĠOtel": 4140,
      "53": 4141,
      "ĠEÅŁ": 4142,
      "aza": 4143,
      "ĠGerÃ§": 4144,
      "ĠÃ§Ä±kÄ±yor": 4145,
      "Ġsalon": 4146,
      "Ġyans": 4147,
      "Ġbelirterek": 4148,
      "ĠÄ±ÅŁ": 4149,
      "Ġedip": 4150,
      "uzu": 4151,
      "Ġkop": 4152,
      "ĠGÃ¼ney": 4153,
      "ĠSadece": 4154,
      "Kon": 4155,
      "ayÄ±cÄ±": 4156,
      "Ġ[âĢ¦]": 4157,
      "Ġheyecan": 4158,
      "Ġide": 4159,
      "ĠWeb": 4160,
      "Ġkapas": 4161,
      "Ġetme": 4162,
      "Ġorada": 4163,
      "ĠyÃ¶netic": 4164,
      "ĠBenim": 4165,
      "ĠMÃ¼slÃ¼man": 4166,
      "ĠÃ¢": 4167,
      "liyat": 4168,
      "Ã¢h": 4169,
      "Ġtakdir": 4170,
      "ternatif": 4171,
      "ayÄ±f": 4172,
      "ĠaraÅŁtÄ±rma": 4173,
      "Ġavantaj": 4174,
      "ĠMev": 4175,
      "Ġyor": 4176,
      "ban": 4177,
      "visi": 4178,
      "ĠÄ°Ãĩ": 4179,
      "ĠÅŀehir": 4180,
      "Ġkorun": 4181,
      "Es": 4182,
      "ĠÃ¶nÃ¼ne": 4183,
      "Ġsorunu": 4184,
      "yip": 4185,
      "ĠÅŁehit": 4186,
      "giler": 4187,
      "ERS": 4188,
      "ĠistediÄŁiniz": 4189,
      "ĠsÄ±kÄ±ntÄ±": 4190,
      "ĠÃ§ap": 4191,
      "ĠbaÅŁlÄ±yor": 4192,
      "ĠaltÄ±n": 4193,
      "ayÄ±m": 4194,
      "ĠmeÅŁ": 4195,
      "ĠElekt": 4196,
      "ĠlÃ¼t": 4197,
      "27": 4198,
      "Ġazal": 4199,
      "uldu": 4200,
      "rag": 4201,
      "Ġkendisini": 4202,
      "ĠÅŀeh": 4203,
      "LAN": 4204,
      "Ġpo": 4205,
      "Ġistedi": 4206,
      "ĠÃ¶deme": 4207,
      "yÃ¼z": 4208,
      "ĠCuma": 4209,
      "lamasÄ±": 4210,
      "ĠÅŀah": 4211,
      "witter": 4212,
      "mut": 4213,
      "ĠÄ±ÅŁÄ±k": 4214,
      "ĠRecep": 4215,
      "brahim": 4216,
      "Ä°lk": 4217,
      "ĠÄ°nÅŁ": 4218,
      "ĠBilgi": 4219,
      "Ġmisafir": 4220,
      "lediÄŁ": 4221,
      "Ġmarka": 4222,
      "ĠÄ°ngiltere": 4223,
      "Ã¼stÃ¼": 4224,
      "ĠAmerik": 4225,
      "sem": 4226,
      "ĠgeÃ§ti": 4227,
      "Ġimkan": 4228,
      "ĠÅŁÃ¼ph": 4229,
      "ĠSÄ±n": 4230,
      "ĠinÅŁa": 4231,
      "liye": 4232,
      "Ġevde": 4233,
      "zer": 4234,
      "ĠÃ¼rÃ¼nler": 4235,
      "iyiz": 4236,
      "nu": 4237,
      "unlarÄ±": 4238,
      "Ġprot": 4239,
      "ĠTrabzon": 4240,
      "Ġ198": 4241,
      "Ġyaralan": 4242,
      "ĠalÄ±p": 4243,
      "ĠaÃ§Ä±kladÄ±": 4244,
      "Ġgetiren": 4245,
      "erkes": 4246,
      "ĠÃ¶ncesi": 4247,
      "bin": 4248,
      "Ġolmaya": 4249,
      "Ġla": 4250,
      "100": 4251,
      "liÄŁine": 4252,
      "ĠyetiÅŁtir": 4253,
      "Ġedebilirsiniz": 4254,
      "Ġdel": 4255,
      "Ġ35": 4256,
      "Ġkonut": 4257,
      "pple": 4258,
      "ĠyeÅŁil": 4259,
      "Ġht": 4260,
      "brÄ±s": 4261,
      "ERÄ°": 4262,
      "ĠyaygÄ±n": 4263,
      "Ġdeney": 4264,
      "amÄ±ÅŁ": 4265,
      "Ġdes": 4266,
      "ĠÄ°srail": 4267,
      "ĠÃľlk": 4268,
      "US": 4269,
      "ĠBit": 4270,
      "ĠBaÅŁkanlÄ±ÄŁÄ±": 4271,
      "ĠYat": 4272,
      "usunu": 4273,
      "Ġfirma": 4274,
      "ĠkarÅŁÄ±lÄ±k": 4275,
      "ĠdetaylÄ±": 4276,
      "Ġtransfer": 4277,
      "Ä°l": 4278,
      "isiyle": 4279,
      "liÄŁin": 4280,
      "ĠÄ°m": 4281,
      "ĠSultan": 4282,
      "Ġted": 4283,
      "ĠsipariÅŁ": 4284,
      "Ġeve": 4285,
      "ĠOdasÄ±": 4286,
      "Ġlira": 4287,
      "ĠilÃ§esinde": 4288,
      "Ġonline": 4289,
      "ĠÃ¼ye": 4290,
      "ĠaydÄ±n": 4291,
      "Ġyetk": 4292,
      "ĠSok": 4293,
      "Ġhesab": 4294,
      "ĠgÃ¶nÃ¼l": 4295,
      "ĠÃ¶nemlidir": 4296,
      "Ä±nar": 4297,
      "Ġsonucunda": 4298,
      "ĠDE": 4299,
      "Ġfor": 4300,
      "ane": 4301,
      "GeÃ§": 4302,
      "ĠNur": 4303,
      "ĠYÄ±ldÄ±rÄ±m": 4304,
      "Ġ80": 4305,
      "Ġte": 4306,
      "ĠdÃ¼ÄŁ": 4307,
      "Ġdiyerek": 4308,
      "ĠPeygamber": 4309,
      "Ġ31": 4310,
      "Ġdosy": 4311,
      "iÅŁehir": 4312,
      "Ã¶ÄŁr": 4313,
      "ÃľL": 4314,
      "ĠSab": 4315,
      "lardÄ±": 4316,
      "oyu": 4317,
      "abileceÄŁi": 4318,
      "hane": 4319,
      "lasik": 4320,
      "ĠyÄ±ldÄ±z": 4321,
      "edek": 4322,
      "Ġbec": 4323,
      "Ġzevk": 4324,
      "ĠGÃ¼r": 4325,
      "Ġsert": 4326,
      "diÄŁiniz": 4327,
      "ĠkÄ±": 4328,
      "ĠyazÄ±lÄ±m": 4329,
      "Ġez": 4330,
      "Ġikti": 4331,
      "Ġalb": 4332,
      "ĠbunlarÄ±": 4333,
      "macÄ±": 4334,
      "ĠSp": 4335,
      "dit": 4336,
      "ĠgÃ¼venli": 4337,
      "ĠbalÄ±k": 4338,
      "29": 4339,
      "ĠkapalÄ±": 4340,
      "Ġolumlu": 4341,
      "Ġgiren": 4342,
      "ĠHastanesi": 4343,
      "ĠRo": 4344,
      "gÃ¼": 4345,
      "Ġdiler": 4346,
      "Ġucuz": 4347,
      "iÄŁi": 4348,
      "ĠgeÃ§erli": 4349,
      "Ġblog": 4350,
      "Ġgenellikle": 4351,
      "ĠSonra": 4352,
      "Ġ''": 4353,
      "Ġstratej": 4354,
      "alardan": 4355,
      "Ġtaleb": 4356,
      "fÄ±": 4357,
      "Ġgur": 4358,
      "Ġgaz": 4359,
      "ĠÅŁar": 4360,
      "cÄ±lar": 4361,
      "bey": 4362,
      "gal": 4363,
      "urken": 4364,
      "ĠolduÄŁuna": 4365,
      "elis": 4366,
      "Ġekib": 4367,
      "Ã¼ley": 4368,
      "Ġhizmetleri": 4369,
      "ĠÅŁampiyon": 4370,
      "eÄŁe": 4371,
      "ĠMas": 4372,
      "Ġsp": 4373,
      "Ġdahi": 4374,
      "ĠKÃ¶y": 4375,
      "eÄŁini": 4376,
      "ity": 4377,
      "Ä±mÄ±n": 4378,
      "Ek": 4379,
      "iya": 4380,
      "Ġhediye": 4381,
      "tel": 4382,
      "Ġsivil": 4383,
      "Ã¼mÃ¼ÅŁ": 4384,
      "Ġlisans": 4385,
      "ĠBaÅŁbakan": 4386,
      "Ġsap": 4387,
      "ĠÃ§Ä±kÄ±ÅŁ": 4388,
      "Ġciv": 4389,
      "Ġap": 4390,
      "ĠolmasÄ±nÄ±": 4391,
      "seri": 4392,
      "ĠdeÄŁiÅŁim": 4393,
      "lanmasÄ±": 4394,
      "ĠÃĸdÃ¼l": 4395,
      "abilen": 4396,
      "Ġduyg": 4397,
      "Ġarab": 4398,
      "atur": 4399,
      "andÄ±r": 4400,
      "ĠpopÃ¼ler": 4401,
      "Ġceza": 4402,
      "45": 4403,
      "ĠHayat": 4404,
      "Ġ2009": 4405,
      "Ġetik": 4406,
      "ĠMurat": 4407,
      "ĠlÃ¼tfen": 4408,
      "diÄŁini": 4409,
      "Ġkuvvet": 4410,
      "ĠÃ¼yesi": 4411,
      "Ġrad": 4412,
      "abrik": 4413,
      "Ġalma": 4414,
      "Ġhttp": 4415,
      "ĠGalatasaray": 4416,
      "oya": 4417,
      "Ä±larak": 4418,
      "ĠdÃ¼ÅŁÃ¼r": 4419,
      "Ä±yordu": 4420,
      "Ġherkesin": 4421,
      "dÄ±klarÄ±": 4422,
      "dikten": 4423,
      "ĠTayyip": 4424,
      "ĠFatih": 4425,
      "ĠÃ¶ÄŁret": 4426,
      "Ġaktif": 4427,
      "anlÄ±k": 4428,
      "ĠEkonom": 4429,
      "ĠtÃ¼rk": 4430,
      "ĠmÃ¼ÅŁteriler": 4431,
      "Â»": 4432,
      "Ã¼ndeki": 4433,
      "ĠYunan": 4434,
      "Ġyerini": 4435,
      "nik": 4436,
      "ĠKarÅŁ": 4437,
      "ĠÃ¼lkenin": 4438,
      "nÃ¼n": 4439,
      "Ġbekl": 4440,
      "ĠgeliÅŁim": 4441,
      "ĠyÄ±lÄ±n": 4442,
      "unuzu": 4443,
      "Ä±ndÄ±r": 4444,
      "icari": 4445,
      "Ġcilt": 4446,
      "ĠdavranÄ±ÅŁ": 4447,
      "ĠDen": 4448,
      "Ä°C": 4449,
      "Ġbeden": 4450,
      "mayacak": 4451,
      "ÃľM": 4452,
      "his": 4453,
      "alle": 4454,
      "emiÅŁ": 4455,
      "Ġsuyu": 4456,
      "okul": 4457,
      "ino": 4458,
      "Ġkoruy": 4459,
      "ĠFransa": 4460,
      "ĠHÃ¼s": 4461,
      "Ġfon": 4462,
      "Ġ70": 4463,
      "2016": 4464,
      "RO": 4465,
      "Ġyeter": 4466,
      "Ġbirinci": 4467,
      "addesi": 4468,
      "Ä°D": 4469,
      "gÄ±Ã§": 4470,
      "ĠZaman": 4471,
      "Ġdiyen": 4472,
      "Siz": 4473,
      "layÄ±p": 4474,
      "TAN": 4475,
      "ciler": 4476,
      "ĠYok": 4477,
      "ĠErkek": 4478,
      "iyar": 4479,
      "Ġolmadan": 4480,
      "ĠHaberler": 4481,
      "ĠÅŁÄ±k": 4482,
      "ner": 4483,
      "ĠKÃ¼rt": 4484,
      "Ġaskeri": 4485,
      "Ġtad": 4486,
      "Ġhoc": 4487,
      "BugÃ¼n": 4488,
      "UK": 4489,
      "emli": 4490,
      "ĠyukarÄ±": 4491,
      "Ġetkisi": 4492,
      "ĠgÃ¶rdÃ¼ÄŁ": 4493,
      "ĠKab": 4494,
      "Ä°nsan": 4495,
      "Ġmilli": 4496,
      "lant": 4497,
      "Ã§esi": 4498,
      "Ä±sÄ±z": 4499,
      "Ä°z": 4500,
      "ĠÅŁiir": 4501,
      "Kur": 4502,
      "Ġteb": 4503,
      "ĠSey": 4504,
      "ĠbÃ¼t": 4505,
      "ĠCumhuriyeti": 4506,
      "ĠTarihi": 4507,
      "Ġism": 4508,
      "ï¿": 4509,
      "ĠinÅŁaat": 4510,
      "ulmasÄ±": 4511,
      "ĠPaz": 4512,
      "35": 4513,
      "ETÃĸ": 4514,
      "Ġuyum": 4515,
      "ï¿½": 4516,
      "arÄ±nda": 4517,
      "Ã¼mÃ¼zdeki": 4518,
      "ĠAdana": 4519,
      "Ġtelevizyon": 4520,
      "Ġ90": 4521,
      "sizlik": 4522,
      "ezerv": 4523,
      "okulu": 4524,
      "ĠaÅŁam": 4525,
      "ammed": 4526,
      "ebiliyor": 4527,
      "diÄŁinde": 4528,
      "ĠgelmiÅŁ": 4529,
      "tarÄ±": 4530,
      "ĠyÃ¼zyÄ±l": 4531,
      "ĠanlamÄ±na": 4532,
      "UZ": 4533,
      "ĠayrÄ±l": 4534,
      "Ġbence": 4535,
      "Ġserbest": 4536,
      "Ġekley": 4537,
      "ĠmÃ¼dÃ¼r": 4538,
      "ĠaltÄ±": 4539,
      "Ġkaydet": 4540,
      "nam": 4541,
      "Ġyetkil": 4542,
      "Ġindirim": 4543,
      "ĠayÄ±": 4544,
      "ĠKÃ¼Ã§Ã¼k": 4545,
      "ĠbunlarÄ±n": 4546,
      "ĠpeÅŁ": 4547,
      "ĠeÄŁitimi": 4548,
      "Ġgelin": 4549,
      "fat": 4550,
      "ĠCen": 4551,
      "ĠolduÄŁumuz": 4552,
      "Ġduvar": 4553,
      "emize": 4554,
      "ĠkÃ¶ÅŁ": 4555,
      "ĠÅŀampiyon": 4556,
      "Ġcinsel": 4557,
      "tÃ¼rk": 4558,
      "ĠbÃ¼ny": 4559,
      "Ġmezun": 4560,
      "ĠMad": 4561,
      "ĠAndroid": 4562,
      "ĠOf": 4563,
      "ĠdÃ¼nyaya": 4564,
      "Ġ!": 4565,
      "ĠkarÄ±ÅŁtÄ±r": 4566,
      "ĠMilletvekili": 4567,
      "anakk": 4568,
      "ĠKÄ±s": 4569,
      "Ġgerektir": 4570,
      "dÃ¼z": 4571,
      "Ã¶yl": 4572,
      "ĠhazÄ±rlÄ±k": 4573,
      "baÅŁkan": 4574,
      "ĠÅŁif": 4575,
      "eyecek": 4576,
      "Ġnedeni": 4577,
      "ock": 4578,
      "Ġyaparken": 4579,
      "Ġnamaz": 4580,
      "Ġameliyat": 4581,
      "ĠRab": 4582,
      "Ġgr": 4583,
      "ĠArap": 4584,
      "DÃ¼nya": 4585,
      "ĠSAN": 4586,
      "Ãĸzel": 4587,
      "ransÄ±z": 4588,
      "ĠanlayÄ±ÅŁ": 4589,
      "Ġenf": 4590,
      "ĠdÃ¼zenlem": 4591,
      "Ġvs": 4592,
      "Ġces": 4593,
      "Ġparti": 4594,
      "ÃĸR": 4595,
      "baÅŁÄ±": 4596,
      "Ġneredeyse": 4597,
      "TE": 4598,
      "Ġkullanmak": 4599,
      "ahtar": 4600,
      "ĠyalnÄ±zca": 4601,
      "TA": 4602,
      "ĠbaskÄ±": 4603,
      "ĠacÄ±": 4604,
      "dek": 4605,
      "oft": 4606,
      "Ġbed": 4607,
      "iki": 4608,
      "ĠsoÄŁuk": 4609,
      "bal": 4610,
      "Ġdokun": 4611,
      "Ġmodelleri": 4612,
      "ĠÃ§iÃ§ek": 4613,
      "ĠFestiv": 4614,
      "ert": 4615,
      "Ġsiyah": 4616,
      "ĠBilim": 4617,
      "ĠÃ¶zellikleri": 4618,
      "ĠkullandÄ±": 4619,
      "sÃ¼z": 4620,
      "ĠAc": 4621,
      "Ġ2008": 4622,
      "ĠKAR": 4623,
      "ĠRe": 4624,
      "antep": 4625,
      "Ġmo": 4626,
      "ĠDest": 4627,
      "Ġediliyor": 4628,
      "ĠBazÄ±": 4629,
      "ĠâĢĿ": 4630,
      "ĠMet": 4631,
      "ĠMÃ¼hendis": 4632,
      "anakkale": 4633,
      "ĠGÃ¼venlik": 4634,
      "ĠkÄ±rmÄ±zÄ±": 4635,
      "ĠFenerbahÃ§e": 4636,
      "Sen": 4637,
      "gre": 4638,
      "ori": 4639,
      "qu": 4640,
      "Ġsite": 4641,
      "our": 4642,
      "BM": 4643,
      "--": 4644,
      "Ġins": 4645,
      "ĠHep": 4646,
      "manlÄ±k": 4647,
      "ĠMac": 4648,
      "ĠUzun": 4649,
      "ĠcÃ¼m": 4650,
      "Ġyasak": 4651,
      "Bel": 4652,
      "ĠhatÄ±rlat": 4653,
      "Ġihtim": 4654,
      "SK": 4655,
      "Ġverecek": 4656,
      "ĠbakÄ±ÅŁ": 4657,
      "larÄ±mÄ±za": 4658,
      "Ġgrub": 4659,
      "ĠgÃ¶rsel": 4660,
      "tis": 4661,
      "za": 4662,
      "ĠhÃ¼c": 4663,
      "Ġismi": 4664,
      "ĠaÃ§Ä±": 4665,
      "ĠhakkÄ±": 4666,
      "ÅŁiv": 4667,
      "kol": 4668,
      "ĠBat": 4669,
      "ube": 4670,
      "Ġprojesi": 4671,
      "Ġtas": 4672,
      "ly": 4673,
      "ĠÅŀu": 4674,
      "Ankara": 4675,
      "ĠKut": 4676,
      "Ġetraf": 4677,
      "ĠKir": 4678,
      "lamÄ±ÅŁ": 4679,
      "Ġhaz": 4680,
      "Ġtarihleri": 4681,
      "ĠÃ¼Ã§Ã¼ncÃ¼": 4682,
      "Ġetmesi": 4683,
      "ĠfiyatlarÄ±": 4684,
      "ĠkullanÄ±mÄ±": 4685,
      "Ġpil": 4686,
      "ĠEski": 4687,
      "OB": 4688,
      "Ġesas": 4689,
      "ĠCev": 4690,
      "ĠNew": 4691,
      "ĠÅŁark": 4692,
      "Ãĸnc": 4693,
      "adet": 4694,
      "ĠBor": 4695,
      "ĠkatÄ±lan": 4696,
      "ĠbÃ¶lgesinde": 4697,
      "ĠSek": 4698,
      "memiÅŁ": 4699,
      "Ġreh": 4700,
      "ĠTÄ±p": 4701,
      "ire": 4702,
      "adeniz": 4703,
      "Ġoda": 4704,
      "ĠBoy": 4705,
      "ĠBAÅŀ": 4706,
      "ĠBankasÄ±": 4707,
      "ĠdemiÅŁ": 4708,
      "Ġbinlerce": 4709,
      "Ġedilecek": 4710,
      "Ġolanlar": 4711,
      "ĠCem": 4712,
      "Ġbayram": 4713,
      "ĠsaygÄ±": 4714,
      "Ġbeb": 4715,
      "EÄŁer": 4716,
      "ĠihtiyacÄ±": 4717,
      "ĠasÄ±l": 4718,
      "ĠFacebook": 4719,
      "sur": 4720,
      "Ġmeslek": 4721,
      "ĠMus": 4722,
      "ĠteÅŁekkÃ¼rler": 4723,
      "Ġ45": 4724,
      "Ġzamanlarda": 4725,
      "ĠdÃ¼zenli": 4726,
      "ĠeÅŁy": 4727,
      "ĠLe": 4728,
      "ĠMeclis": 4729,
      "Ġsunuyor": 4730,
      "Ġortalama": 4731,
      "ĠdesteÄŁi": 4732,
      "ĠuÄŁraÅŁ": 4733,
      "Ġzih": 4734,
      "TR": 4735,
      "ĠGerek": 4736,
      "ĠÃĩaÄŁ": 4737,
      "Ġdizi": 4738,
      "land": 4739,
      "ĠÃ¶ÄŁretim": 4740,
      "ĠGÃ¼neÅŁ": 4741,
      "Ġalternatif": 4742,
      "ĠyazÄ±lÄ±": 4743,
      "ĠTeÅŁ": 4744,
      "arlar": 4745,
      "Ġyapabilir": 4746,
      "ĠGru": 4747,
      "âĢ¦âĢ¦": 4748,
      "ĠyerleÅŁtir": 4749,
      "Ġbelediye": 4750,
      "ĠYAP": 4751,
      "ĠYen": 4752,
      "Ġmetre": 4753,
      "Ä±rlar": 4754,
      "ĠgÃ¶Ã§": 4755,
      "mamasÄ±": 4756,
      "Ġkurulan": 4757,
      "Ä±nday": 4758,
      "ĠÃ¼lkede": 4759,
      "Ġotomatik": 4760,
      "ĠgerÃ§ekleÅŁtirilen": 4761,
      "sev": 4762,
      "ĠTurizm": 4763,
      "ĠPr": 4764,
      "Dev": 4765,
      "ĠÃ§alÄ±ÅŁÄ±yor": 4766,
      "Ġgelenek": 4767,
      "ÃľZ": 4768,
      "odrum": 4769,
      "isiklet": 4770,
      "Ã¼bÃ¼": 4771,
      "ĠDir": 4772,
      "ÃĸN": 4773,
      "ĠSÃ¼per": 4774,
      "Ġrakam": 4775,
      "ĠÄ°nternet": 4776,
      "ĠHasan": 4777,
      "ĠBuna": 4778,
      "ĠinsanlarÄ±": 4779,
      "ĠPartisi": 4780,
      "tuÄŁ": 4781,
      "TÃ¼m": 4782,
      "alarÄ±ndan": 4783,
      "Ä±ÅŁma": 4784,
      "Ġkem": 4785,
      "Ä±lmÄ±ÅŁtÄ±r": 4786,
      "ĠulaÅŁabilirsiniz": 4787,
      "ĠLisesi": 4788,
      "sat": 4789,
      "EF": 4790,
      "Ġdemektir": 4791,
      "ĠmuhteÅŁem": 4792,
      "ĠaÃ§Ä±lÄ±ÅŁ": 4793,
      "imden": 4794,
      "Ġkod": 4795,
      "ĠSitesi": 4796,
      "rom": 4797,
      "Bak": 4798,
      "Ä±sÄ±t": 4799,
      "ĠÄ°brahim": 4800,
      "On": 4801,
      "ĠMic": 4802,
      "ĠTelefon": 4803,
      "ĠÄ°ki": 4804,
      "Ġkonak": 4805,
      "DEN": 4806,
      "44": 4807,
      "Ġkurulu": 4808,
      "ĠkaÃ§Ä±r": 4809,
      "Ġince": 4810,
      "ĠkiÅŁiye": 4811,
      "irler": 4812,
      "Ġsevin": 4813,
      "ĠSa": 4814,
      "Merhaba": 4815,
      "ĠvÃ¼cut": 4816,
      "ĠalmaktadÄ±r": 4817,
      "Ġgem": 4818,
      "ĠborÃ§": 4819,
      "red": 4820,
      "usuna": 4821,
      "iyorlar": 4822,
      "Ġhad": 4823,
      "ĠKÄ±brÄ±s": 4824,
      "ĠKurum": 4825,
      "ĠaÅŁÄ±rÄ±": 4826,
      "erji": 4827,
      "org": 4828,
      "Ġescort": 4829,
      "ĠkÄ±smÄ±": 4830,
      "Ġbirik": 4831,
      "ĠiPhone": 4832,
      "Ġmon": 4833,
      "ĠimkanÄ±": 4834,
      "ĠLigi": 4835,
      "ĠkitabÄ±": 4836,
      "Ä°H": 4837,
      "ĠKiÅŁ": 4838,
      "Ä±b": 4839,
      "ĠÃ§Ä±kart": 4840,
      "esef": 4841,
      "ĠsÃ¼resi": 4842,
      "ĠIrak": 4843,
      "ĠMey": 4844,
      "Uz": 4845,
      "amik": 4846,
      "ĠAKP": 4847,
      "ice": 4848,
      "Ġgetirdi": 4849,
      "ĠBizim": 4850,
      "ĠPeki": 4851,
      "irketi": 4852,
      "anÄ±t": 4853,
      "ĠTah": 4854,
      "Ġbecer": 4855,
      "ĠÄ°h": 4856,
      "ĠyaÅŁamak": 4857,
      "ÄŁur": 4858,
      "ĠÄ°ndir": 4859,
      "ĠBÃ¶lÃ¼mÃ¼": 4860,
      "ĠrahatsÄ±z": 4861,
      "ator": 4862,
      "dat": 4863,
      "ĠyÃ¶netimi": 4864,
      "ĠKuzey": 4865,
      "ĠPKK": 4866,
      "Ġtrafik": 4867,
      "imizden": 4868,
      "ĠadÄ±nÄ±": 4869,
      "ĠDin": 4870,
      "Ġwww": 4871,
      "ĠProgramÄ±": 4872,
      "Ġgizli": 4873,
      "ĠgÃ¼venilir": 4874,
      "layarak": 4875,
      "Ġhepsi": 4876,
      "Ġiptal": 4877,
      "ĠÅŁeker": 4878,
      "larca": 4879,
      "irv": 4880,
      "Ġvitam": 4881,
      "ary": 4882,
      "letiÅŁim": 4883,
      "Ġyenilik": 4884,
      "Ġsonuna": 4885,
      "sinin": 4886,
      "ĠamacÄ±": 4887,
      "ĠbiÃ§imde": 4888,
      "ĠCez": 4889,
      "engi": 4890,
      "Dr": 4891,
      "irken": 4892,
      "Top": 4893,
      "ĠÅŁik": 4894,
      "Ġokun": 4895,
      "Ã¼lÃ¼": 4896,
      "Ġkendilerine": 4897,
      "maktan": 4898,
      "Ġortadan": 4899,
      "Ġorganizasyon": 4900,
      "Ġrestor": 4901,
      "ĠzayÄ±f": 4902,
      "ĠiÃ§eren": 4903,
      "ĠBÃ¶ylece": 4904,
      "ĠyapÄ±mÄ±": 4905,
      "ï»": 4906,
      "Ġtutuk": 4907,
      "Ġistek": 4908,
      "Ġsayfa": 4909,
      "ĠvermiÅŁ": 4910,
      "Ġroman": 4911,
      "ĠReh": 4912,
      "istin": 4913,
      "ĠdÄ±ÅŁarÄ±": 4914,
      "Ġazalt": 4915,
      "Ġolmay": 4916,
      "Ġkere": 4917,
      "Ä±nÄ±zÄ±n": 4918,
      "ĠalÄ±ndÄ±": 4919,
      "ĠMat": 4920,
      "Ġistih": 4921,
      "ox": 4922,
      "ĠÃ§ocuklarÄ±n": 4923,
      "ĠSÄ±r": 4924,
      "Ġtuz": 4925,
      "Ġgitti": 4926,
      "oj": 4927,
      "yaj": 4928,
      "ĠyapÄ±lmÄ±ÅŁ": 4929,
      "ĠoranÄ±": 4930,
      "akkabÄ±": 4931,
      "ĠAraÅŁtÄ±rma": 4932,
      "ry": 4933,
      "ĠÃ§alÄ±ÅŁmasÄ±": 4934,
      "ĠilginÃ§": 4935,
      "ĠÃ¶lÃ§Ã¼": 4936,
      "ĠHava": 4937,
      "ĠDers": 4938,
      "ï»¿": 4939,
      "Ġta": 4940,
      "99": 4941,
      "ĠPark": 4942,
      "Ġbom": 4943,
      "imd": 4944,
      "ĠÃ¶y": 4945,
      "ĠÄ°N": 4946,
      "Ã¼lebilir": 4947,
      "ĠGÃľN": 4948,
      "ĠHatta": 4949,
      "ÌĪ": 4950,
      "BUL": 4951,
      "Oy": 4952,
      "ĠYine": 4953,
      "ĠsanatÃ§Ä±": 4954,
      "Ġherkese": 4955,
      "ĠTeknoloji": 4956,
      "ĠAltÄ±n": 4957,
      "ĠbaÄŁÄ±msÄ±z": 4958,
      "stagram": 4959,
      "Ġyapabilirsiniz": 4960,
      "ĠeÅŁit": 4961,
      "ĠeriÅŁ": 4962,
      "kÃ¶y": 4963,
      "ĠTurk": 4964,
      "Ġday": 4965,
      "Ġaktiv": 4966,
      "Ġburaya": 4967,
      "mm": 4968,
      "Ġbuyur": 4969,
      "isa": 4970,
      "ĠÃĸnc": 4971,
      "ĠÃĩÄ±k": 4972,
      "Sev": 4973,
      "ĠBek": 4974,
      "ĠKÄ±lÄ±Ã§": 4975,
      "ĠHiÃ§": 4976,
      "Ġyakalan": 4977,
      "ĠKonya": 4978,
      "ĠDÃ¼ÅŁ": 4979,
      "dip": 4980,
      "ĠSit": 4981,
      "ĠparÃ§asÄ±": 4982,
      "Ġvide": 4983,
      "Ġdedim": 4984,
      "lÄ±klar": 4985,
      "ĠbÃ¶lÃ¼mÃ¼": 4986,
      "Ġilgilen": 4987,
      "Gel": 4988,
      "ĠyÄ±lÄ±ndan": 4989,
      "landa": 4990,
      "Ġmaliyet": 4991,
      "deb": 4992,
      "Ġrenkli": 4993,
      "duÄŁumuz": 4994,
      "ĠNedir": 4995,
      "Ġsiyaset": 4996,
      "Ä±labilir": 4997,
      "Ġbahset": 4998,
      "kiÅŁehir": 4999,
      "ĠpaylaÅŁÄ±m": 5000,
      "ĠkiÅŁilerin": 5001,
      "ĠÃ¼zerindeki": 5002,
      "Ġyalan": 5003,
      "Ġbirden": 5004,
      "Ġbelirli": 5005,
      "uÄŁu": 5006,
      "ĠmaÄŁaz": 5007,
      "ĠhayatÄ±": 5008,
      "ĠFeder": 5009,
      "Ġatan": 5010,
      "mis": 5011,
      "ĠaldÄ±m": 5012,
      "ilmek": 5013,
      "tic": 5014,
      "ĠhazÄ±rlanan": 5015,
      "ell": 5016,
      "Ġ2019": 5017,
      "lanÄ±r": 5018,
      "yet": 5019,
      "ĠArtÄ±k": 5020,
      "www": 5021,
      "Ġsorumluluk": 5022,
      "errah": 5023,
      "adÄ±n": 5024,
      "2015": 5025,
      "ĠsaÄŁlÄ±yor": 5026,
      "Ġlir": 5027,
      "Ġistedik": 5028,
      "ĠÃ¼rÃ¼nÃ¼": 5029,
      "Ġordu": 5030,
      "iyordu": 5031,
      "amayan": 5032,
      "Ġistiyoruz": 5033,
      "anÄ±m": 5034,
      "ull": 5035,
      "kadaÅŁ": 5036,
      "Ġalg": 5037,
      "oÄŁaz": 5038,
      "ĠÄ°ÃĩÄ°N": 5039,
      "ĠdoÄŁrult": 5040,
      "ĠbaÄŁlantÄ±": 5041,
      "LÄ°K": 5042,
      "ĠÃ¼stÃ¼n": 5043,
      "ĠtanÄ±n": 5044,
      "ĠAbd": 5045,
      "Ġiyil": 5046,
      "bakÄ±r": 5047,
      "ĠMa": 5048,
      "ĠiÅŁler": 5049,
      "Ġbende": 5050,
      "65": 5051,
      "lanÄ±yor": 5052,
      "ĠuygulamasÄ±": 5053,
      "ĠBelediy": 5054,
      "endim": 5055,
      "ĠÄ°L": 5056,
      "Ġanaliz": 5057,
      "SO": 5058,
      "ĠKoca": 5059,
      "lal": 5060,
      "demir": 5061,
      "ave": 5062,
      "Ġhasta": 5063,
      "ĠKil": 5064,
      "ĠdediÄŁ": 5065,
      "ĠsÃ¶yleyen": 5066,
      "Ä±f": 5067,
      "ĠdÃ¶v": 5068,
      "ĠarkadaÅŁlar": 5069,
      "ĠKup": 5070,
      "ĠsÃ¼reci": 5071,
      "ica": 5072,
      "iciler": 5073,
      "Ġhac": 5074,
      "mit": 5075,
      "ĠBÄ°L": 5076,
      "??": 5077,
      "San": 5078,
      "Ġfinans": 5079,
      "Ġ197": 5080,
      "Ġincelem": 5081,
      "Ġtehdit": 5082,
      "Ġsakin": 5083,
      "ĠBirleÅŁ": 5084,
      "Ġveri": 5085,
      "Ä±ÄŁÄ±nda": 5086,
      "ĠÅŁaÅŁÄ±r": 5087,
      "ĠdÃ¼zel": 5088,
      "sit": 5089,
      "ĠModel": 5090,
      "Ä°V": 5091,
      "stit": 5092,
      "luluÄŁ": 5093,
      "Ã¼leyman": 5094,
      "Tar": 5095,
      "ĠgeÃ§tiÄŁimiz": 5096,
      "anda": 5097,
      "vik": 5098,
      "Ġbirbirinden": 5099,
      "ĠOnun": 5100,
      "Ġalmaya": 5101,
      "ĠmÃ¼t": 5102,
      "Ãĩocuk": 5103,
      "ĠkadÄ±nlar": 5104,
      "ĠolacaÄŁÄ±nÄ±": 5105,
      "ena": 5106,
      "Ġyerli": 5107,
      "OP": 5108,
      "Ġmus": 5109,
      "kur": 5110,
      "ĠðŁĻ": 5111,
      "ilmektedir": 5112,
      "ump": 5113,
      "kon": 5114,
      "ĠolduÄŁundan": 5115,
      "ĠsÃ¶ylÃ¼yor": 5116,
      "Ã¶ÄŁretim": 5117,
      "ĠsÃ¼ren": 5118,
      "Ġduyar": 5119,
      "Ġsunan": 5120,
      "Ġ@": 5121,
      "ĠÃĸmer": 5122,
      "xy": 5123,
      "Ġkriz": 5124,
      "Ġnitelik": 5125,
      "Ġpay": 5126,
      "ĠtaÅŁÄ±yan": 5127,
      "Ġhassas": 5128,
      "ĠkalÄ±n": 5129,
      "emizi": 5130,
      "ÅŁamba": 5131,
      "elek": 5132,
      "ĠistiyorsanÄ±z": 5133,
      "ood": 5134,
      "Konu": 5135,
      "ĠSav": 5136,
      "Ġeklen": 5137,
      "sef": 5138,
      "Ġkonuk": 5139,
      "Ġbilgilendir": 5140,
      "enn": 5141,
      "ĠMuhammed": 5142,
      "ĠGÃ¼ncel": 5143,
      "ĠÃ§evre": 5144,
      "giliz": 5145,
      "ĠÃ¶zen": 5146,
      "ĠRamazan": 5147,
      "Ġsim": 5148,
      "ĠHÃ¼seyin": 5149,
      "altÄ±na": 5150,
      "Ġsebebi": 5151,
      "amaya": 5152,
      "luluÄŁu": 5153,
      "Ġyatak": 5154,
      "ĠÃĸrneÄŁin": 5155,
      "ĠBeyaz": 5156,
      "Ġakadem": 5157,
      "Ġsorumlu": 5158,
      "Ġkus": 5159,
      "dÄ±ÄŁÄ±m": 5160,
      "lerimizin": 5161,
      "ÅŁembe": 5162,
      "ĠiÅŁin": 5163,
      "ĠuÃ§uÅŁ": 5164,
      "afer": 5165,
      "Ġelem": 5166,
      "Ġhus": 5167,
      "ĠÃ§oÄŁ": 5168,
      "Ġturizm": 5169,
      "ĠdÃ¼ÅŁtÃ¼": 5170,
      "Yap": 5171,
      "lemeye": 5172,
      "Ġkomp": 5173,
      "!âĢĿ": 5174,
      "Ġkilomet": 5175,
      "mos": 5176,
      "iyarbakÄ±r": 5177,
      "enci": 5178,
      "ĠKamp": 5179,
      "ulur": 5180,
      "DI": 5181,
      "iÅŁe": 5182,
      "zeme": 5183,
      "bon": 5184,
      "ĠBoz": 5185,
      "aberi": 5186,
      "ĠdoÄŁrudan": 5187,
      "ĠiÅŁÃ§": 5188,
      "enizi": 5189,
      "ĠkavuÅŁ": 5190,
      "yer": 5191,
      "MAN": 5192,
      "Ġidi": 5193,
      "ray": 5194,
      "05": 5195,
      "ĠdolaÅŁ": 5196,
      "Ġkeyifli": 5197,
      "liyet": 5198,
      "diniz": 5199,
      "ĠJap": 5200,
      "Ġalabilirsiniz": 5201,
      "ĠGazetesi": 5202,
      "Ġtemin": 5203,
      "ilim": 5204,
      "ĠKart": 5205,
      "Ġkonser": 5206,
      "ĠAY": 5207,
      "ĠdoÄŁrultusunda": 5208,
      "ĠbÃ¶lge": 5209,
      "madÄ±ÄŁÄ±": 5210,
      "ĠHakkÄ±nda": 5211,
      "Ġgiderek": 5212,
      "DoÄŁ": 5213,
      "Ġhakim": 5214,
      "Ġettim": 5215,
      "01": 5216,
      "BaÅŁk": 5217,
      "tÄ±n": 5218,
      "Ġtepki": 5219,
      "ĠQ": 5220,
      "ĠhÄ±zla": 5221,
      "ĠKaymak": 5222,
      "Ġolanak": 5223,
      "ĠBatÄ±": 5224,
      "Ġbilet": 5225,
      "DAN": 5226,
      "ĠHizmetleri": 5227,
      "ĠPat": 5228,
      "tek": 5229,
      "ĠCar": 5230,
      "ĠFu": 5231,
      "Ġ*": 5232,
      "OT": 5233,
      "ĠhÃ¼kÃ¼met": 5234,
      "Ġmodeli": 5235,
      "ĠÃĸZ": 5236,
      "ĠCaddesi": 5237,
      "ĠseÃ§en": 5238,
      "Ġfaiz": 5239,
      "ĠbarÄ±ÅŁ": 5240,
      "ĠaracÄ±": 5241,
      "ral": 5242,
      "sey": 5243,
      "cret": 5244,
      "ĠalÄ±m": 5245,
      "ĠfiyatÄ±": 5246,
      "Ġgitmek": 5247,
      "Ġihracat": 5248,
      "uluÄŁ": 5249,
      "ami": 5250,
      "ĠgÃ¼cÃ¼": 5251,
      "etrol": 5252,
      "ĠdÃ¼ÅŁÃ¼nÃ¼yor": 5253,
      "Ġterk": 5254,
      "ĠNeden": 5255,
      "ĠtÄ±r": 5256,
      "Ġbesin": 5257,
      "Ġmanz": 5258,
      "paÅŁa": 5259,
      "ĠYÄ±ldÄ±z": 5260,
      "asÄ±z": 5261,
      "ĠÃ¼niversite": 5262,
      "ĠII": 5263,
      "ĠsoruÅŁtur": 5264,
      "ĠTÃľRK": 5265,
      "leyici": 5266,
      "ĠGrup": 5267,
      "Ġ;": 5268,
      "ĠÅŁehr": 5269,
      "Ġmutluluk": 5270,
      "Ġelb": 5271,
      "Ġkuru": 5272,
      "ektÃ¶rÃ¼": 5273,
      "Ġharit": 5274,
      "Ġhissed": 5275,
      "isyonu": 5276,
      "ĠBab": 5277,
      "ĠFransÄ±z": 5278,
      "ĠaÄŁaÃ§": 5279,
      "Ġdijital": 5280,
      "ĠgÃ¶rÃ¼nt": 5281,
      "ĠotobÃ¼s": 5282,
      "lÄ±ÄŁÄ±nda": 5283,
      "ang": 5284,
      "Ġgalib": 5285,
      "ĠbÃ¶lgede": 5286,
      "ĠYazÄ±": 5287,
      "ĠbaÅŁkanÄ±": 5288,
      "Ġeb": 5289,
      "ĠyayÄ±nlanan": 5290,
      "ĠIs": 5291,
      "YÄ±l": 5292,
      "ĠGenÃ§lik": 5293,
      "33": 5294,
      "ebilmek": 5295,
      "Ġbiridir": 5296,
      "ĠStr": 5297,
      "Ġyenil": 5298,
      "ĠYas": 5299,
      "kel": 5300,
      "Ġyapma": 5301,
      "EO": 5302,
      "abilmektedir": 5303,
      "Ġrezerv": 5304,
      "ĠÃĩek": 5305,
      "ĠparÃ§a": 5306,
      "astik": 5307,
      "ĠÄ°le": 5308,
      "Ġrast": 5309,
      "nan": 5310,
      "Ġbon": 5311,
      "ĠiÅŁlemi": 5312,
      "Ok": 5313,
      "Ġodak": 5314,
      "Ġmac": 5315,
      "ĠdÃ¶nÃ¼ÅŁtÃ¼r": 5316,
      "Ġters": 5317,
      "ĠProjesi": 5318,
      "va": 5319,
      "Ġx": 5320,
      "Ġticari": 5321,
      "Ġ300": 5322,
      "Ì§": 5323,
      "LA": 5324,
      "Ġederken": 5325,
      "ĠÃ¶nceden": 5326,
      "ĠsÃ¶zleÅŁ": 5327,
      "ĠvÃ¼cud": 5328,
      "ĠkÄ±yaf": 5329,
      "ĠdaÄŁÄ±t": 5330,
      "amÄ±yor": 5331,
      "Ġbulunur": 5332,
      "masÄ±ndan": 5333,
      "Ġitir": 5334,
      "avuz": 5335,
      "ĠdÃ¼ÅŁman": 5336,
      "Ġsaf": 5337,
      "ĠduruÅŁ": 5338,
      "ĠER": 5339,
      "ĠBl": 5340,
      "kal": 5341,
      "ĠbÃ¶": 5342,
      "ĠBÃ¼tÃ¼n": 5343,
      "ĠettiÄŁini": 5344,
      "ĠDik": 5345,
      "ĠÄ°ST": 5346,
      "ĠEN": 5347,
      "lÄ±klarÄ±": 5348,
      "Ġkamer": 5349,
      "lendirme": 5350,
      "Ġederiz": 5351,
      "TC": 5352,
      "Ġisterseniz": 5353,
      "dÄ±ÄŁÄ±mÄ±z": 5354,
      "iter": 5355,
      "Evet": 5356,
      "Ä±yÄ±z": 5357,
      "ĠDoÃ§": 5358,
      "lus": 5359,
      "Ġarka": 5360,
      "ĠGal": 5361,
      "ĠsÃ¶ylen": 5362,
      "Ġgirdi": 5363,
      "zu": 5364,
      "Ġitibariyle": 5365,
      "Ġnoktada": 5366,
      "Ġverm": 5367,
      "aÅŁÄ±": 5368,
      "ĠbaÄŁlant": 5369,
      "ĠÄ°liÅŁ": 5370,
      "tanÄ±n": 5371,
      "ĠMobil": 5372,
      "out": 5373,
      "Ġicin": 5374,
      "ĠyaÅŁadÄ±ÄŁÄ±": 5375,
      "les": 5376,
      "ĠeÄŁlenceli": 5377,
      "ĠErz": 5378,
      "03": 5379,
      "ulmuÅŁ": 5380,
      "kÄ±r": 5381,
      "ĠArab": 5382,
      "ĠGrubu": 5383,
      "ĠyatÄ±r": 5384,
      "ĠgÃ¶rÃ¼nÃ¼yor": 5385,
      "ĠCumartesi": 5386,
      "ĠWindows": 5387,
      "ĠkaynaÄŁÄ±": 5388,
      "aÅŁÄ±k": 5389,
      "ĠFutbol": 5390,
      "ĠgÃ¶steriyor": 5391,
      "BÃ¼yÃ¼k": 5392,
      "PS": 5393,
      "Ġburadan": 5394,
      "ikat": 5395,
      "ĠTarif": 5396,
      "ĠÃ§oÄŁun": 5397,
      "illa": 5398,
      "ris": 5399,
      "ĠyapÄ±n": 5400,
      "At": 5401,
      "ĠfaydalÄ±": 5402,
      "ematik": 5403,
      "ĠyaÅŁat": 5404,
      "ĠFotoÄŁraf": 5405,
      "Ġvermektedir": 5406,
      "ĠdolayÄ±sÄ±yla": 5407,
      "tren": 5408,
      "Ġsizler": 5409,
      "Ġfaydalan": 5410,
      "Ġbulundur": 5411,
      "ome": 5412,
      "ĠÃ¶nlem": 5413,
      "Ġdeng": 5414,
      "ukat": 5415,
      "Ġred": 5416,
      "Ġideal": 5417,
      "Ġbilgiye": 5418,
      "Ġgidiyor": 5419,
      "ferans": 5420,
      "orta": 5421,
      "Ġgenelinde": 5422,
      "ĠBahÃ§": 5423,
      "ĠyaÅŁay": 5424,
      "ĠNak": 5425,
      "uf": 5426,
      "ĠDak": 5427,
      "ĠEtik": 5428,
      "Ġdekor": 5429,
      "ĠYemek": 5430,
      "ordin": 5431,
      "eter": 5432,
      "acaksÄ±nÄ±z": 5433,
      "Ġtez": 5434,
      "ilmez": 5435,
      "raki": 5436,
      "oli": 5437,
      "ĠApple": 5438,
      "irim": 5439,
      "anti": 5440,
      "isyen": 5441,
      "unma": 5442,
      "masÄ±yla": 5443,
      "ĠOtom": 5444,
      "ĠgeldiÄŁi": 5445,
      "tÄ±ÄŁÄ±mÄ±z": 5446,
      "CHP": 5447,
      "Tur": 5448,
      "Ġsuy": 5449,
      "ĠÃĩelik": 5450,
      "ĠSÄ±nav": 5451,
      "Ġkendilerini": 5452,
      "ĠgeÃ§iÅŁ": 5453,
      "ĠKara": 5454,
      "ĠÄ°letiÅŁim": 5455,
      "Ġolmam": 5456,
      "ular": 5457,
      "Ġuzat": 5458,
      "ĠbugÃ¼ne": 5459,
      "Ġnefes": 5460,
      "Ġdurdur": 5461,
      "Ġumut": 5462,
      "ĠÄ°sp": 5463,
      "ĠgÃ¼ndem": 5464,
      "ĠEmniyet": 5465,
      "Ġufak": 5466,
      "Ġ34": 5467,
      "Ġiktidar": 5468,
      "tansiy": 5469,
      "yeni": 5470,
      "ĠkullanÄ±lÄ±r": 5471,
      "):": 5472,
      "ĠhayÄ±rlÄ±": 5473,
      "IY": 5474,
      "Ġtabii": 5475,
      "ĠbaÅŁlamÄ±ÅŁ": 5476,
      "abilmesi": 5477,
      "Ġtutar": 5478,
      "ĠðŁĻĤ": 5479,
      "Ġiken": 5480,
      "ĠDÃ¼ny": 5481,
      "ĠiliÅŁkiler": 5482,
      "2014": 5483,
      "Ġyarg": 5484,
      "ĠPort": 5485,
      "Ġtoz": 5486,
      "Ġtarihli": 5487,
      "ĠyÃ¼rÃ¼yÃ¼ÅŁ": 5488,
      "eceÄŁimiz": 5489,
      "ĠSil": 5490,
      "ĠyarÄ±n": 5491,
      "EH": 5492,
      "Ġnesil": 5493,
      "Kat": 5494,
      "Ġdarbe": 5495,
      "ĠsÃ¼s": 5496,
      "insel": 5497,
      "laÅŁma": 5498,
      "ĠHotel": 5499,
      "ĠÄ°dar": 5500,
      "Ah": 5501,
      "Ġbozuk": 5502,
      "ĠPaÅŁa": 5503,
      "ĠNer": 5504,
      "LIK": 5505,
      "ĠSistemi": 5506,
      "ĠKor": 5507,
      "Ġhaberleri": 5508,
      "lari": 5509,
      "Ġbelirtilen": 5510,
      "Ä°ÅŁte": 5511,
      "ĠkonuÅŁan": 5512,
      "inda": 5513,
      "ĠYeÅŁil": 5514,
      "ĠbahÃ§": 5515,
      "ĠilÃ§e": 5516,
      "Ġbl": 5517,
      "Ã§uk": 5518,
      "ĠmaÃ§Ä±": 5519,
      "TÃľ": 5520,
      "ĠalbÃ¼m": 5521,
      "ĠHukuk": 5522,
      "abileceÄŁini": 5523,
      "75": 5524,
      "02": 5525,
      "ĠÃľN": 5526,
      "ĠAna": 5527,
      "rop": 5528,
      "ĠTasarÄ±m": 5529,
      "ĠSonuÃ§": 5530,
      "yasal": 5531,
      "ĠÃ§erÃ§evesinde": 5532,
      "ĠBunlar": 5533,
      "lerimize": 5534,
      "sar": 5535,
      "omp": 5536,
      "ketbol": 5537,
      "Ġkanser": 5538,
      "ĠeÅŁi": 5539,
      "ĠDub": 5540,
      "olog": 5541,
      "Ġelbette": 5542,
      "ĠgÃ¶rÃ¼nÃ¼m": 5543,
      "ĠÄ°Åŀ": 5544,
      "ĠVakfÄ±": 5545,
      "ĠinsanÄ±": 5546,
      "ĠÃ¼yeleri": 5547,
      "ĠkÃ¼ltÃ¼rel": 5548,
      "ender": 5549,
      "Ġkalite": 5550,
      "ĠDanÄ±ÅŁ": 5551,
      "ĠTe": 5552,
      "irin": 5553,
      "ĠÃĸÄŁretmen": 5554,
      "ÄŀÄ°": 5555,
      "Ġalak": 5556,
      "Ama": 5557,
      "ĠYah": 5558,
      "ĠgÃ¼nler": 5559,
      "ĠSig": 5560,
      "ĠTR": 5561,
      "Ġfutbolcu": 5562,
      "Ġzek": 5563,
      "Ġbulabilirsiniz": 5564,
      "Ġvermeye": 5565,
      "lanmÄ±ÅŁtÄ±r": 5566,
      "aÄŁÄ±n": 5567,
      "ĠolduÄŁunuz": 5568,
      "ĠĠĠĠ": 5569,
      "Ġacaba": 5570,
      "lanma": 5571,
      "09": 5572,
      "Ġgelip": 5573,
      "Ġekibi": 5574,
      "ĠDe": 5575,
      "ĠMon": 5576,
      "Ġbenzeri": 5577,
      "manÄ±zÄ±": 5578,
      "Ġekipleri": 5579,
      "ĠedilmiÅŁtir": 5580,
      "anlarÄ±": 5581,
      "lamaya": 5582,
      "Ġbirer": 5583,
      "Ġinsanlara": 5584,
      "tesi": 5585,
      "Ã¼tÃ¼p": 5586,
      "aalesef": 5587,
      "Ġbirini": 5588,
      "likler": 5589,
      "ĠolmalÄ±dÄ±r": 5590,
      "ĠAT": 5591,
      "Ġkolayca": 5592,
      "ĠUlusal": 5593,
      "ĠKaradeniz": 5594,
      "ĠgÃ¶zaltÄ±na": 5595,
      "Ġtoplumsal": 5596,
      "Ġsanki": 5597,
      "Ġthe": 5598,
      "ĠPlan": 5599,
      "ĠzamanÄ±": 5600,
      "ĠEtkin": 5601,
      "ĠbilinÃ§": 5602,
      "ĠtanÄ±tÄ±m": 5603,
      "âĢĻâĢĻ": 5604,
      "lÄ±ÄŁÄ±nÄ±n": 5605,
      "Ġseks": 5606,
      "ĠKit": 5607,
      "ĠPazartesi": 5608,
      "muz": 5609,
      "ĠGer": 5610,
      "AÅŁ": 5611,
      "Ġfayda": 5612,
      "DÄ°": 5613,
      "ĠFestivali": 5614,
      "ĠGerÃ§ek": 5615,
      "soy": 5616,
      "ain": 5617,
      "lastik": 5618,
      "alaxy": 5619,
      "ĠtaÅŁÄ±": 5620,
      "liliÄŁi": 5621,
      "Kal": 5622,
      "larÄ±ndaki": 5623,
      "ĠÃ¶nde": 5624,
      "Ġ36": 5625,
      "Ġadeta": 5626,
      "Ġfalan": 5627,
      "Ġmahk": 5628,
      "Ġbulmak": 5629,
      "ilerden": 5630,
      "Ġelektronik": 5631,
      "ress": 5632,
      "ĠolduklarÄ±": 5633,
      "Ä±klÄ±": 5634,
      "ĠMÃ¼ÅŁ": 5635,
      "Ġofis": 5636,
      "Ġyolcu": 5637,
      "ĠaÃ§Ä±lan": 5638,
      "Ġsahib": 5639,
      "alarla": 5640,
      "ĠÃľyesi": 5641,
      "Ä±ydÄ±": 5642,
      "ĠSor": 5643,
      "Ġoldum": 5644,
      "ĠBÃ¶lg": 5645,
      "ĠtarÄ±m": 5646,
      "ĠAkdeniz": 5647,
      "ediÄŁiniz": 5648,
      "CI": 5649,
      "Ġdemir": 5650,
      "Ġfinal": 5651,
      "ĠFETÃĸ": 5652,
      "Ġistik": 5653,
      "Ġbilimsel": 5654,
      "mesinin": 5655,
      "ĠAmerikan": 5656,
      "we": 5657,
      "eth": 5658,
      "55": 5659,
      "th": 5660,
      "Ä±ntÄ±lÄ±": 5661,
      "lor": 5662,
      "ĠsektÃ¶rÃ¼nde": 5663,
      "Ġus": 5664,
      "ĠsonuÃ§larÄ±": 5665,
      "ĠyakÄ±ndan": 5666,
      "liÄŁinin": 5667,
      "34": 5668,
      "Ġkullanan": 5669,
      "ĠÃĸÄŁrenc": 5670,
      "KAR": 5671,
      "hale": 5672,
      "ksiyon": 5673,
      "var": 5674,
      "layÄ±cÄ±": 5675,
      "sh": 5676,
      "ebiliriz": 5677,
      "ĠiÅŁbirliÄŁi": 5678,
      "?\"": 5679,
      "Ġrahmet": 5680,
      "Ġsistemleri": 5681,
      "SaÄŁ": 5682,
      "elisiniz": 5683,
      "Ġkulak": 5684,
      "ĠMHP": 5685,
      "ĠSÃ¼leyman": 5686,
      "ĠMahkem": 5687,
      "ĠTÄ°C": 5688,
      "31": 5689,
      "leki": 5690,
      "alimanÄ±": 5691,
      "Kay": 5692,
      "amadÄ±": 5693,
      "ĠMÃ¼zik": 5694,
      "ĠSavaÅŁÄ±": 5695,
      "ĠSalÄ±": 5696,
      "Ġetkilen": 5697,
      "199": 5698,
      "layÄ±n": 5699,
      "ĠgÃ¼nÃ¼mÃ¼z": 5700,
      "ĠteÅŁkil": 5701,
      "Ey": 5702,
      "ĠistediÄŁi": 5703,
      "Ġgayet": 5704,
      "Ġyerden": 5705,
      "Ġsayede": 5706,
      "Ġsergil": 5707,
      "ĠGar": 5708,
      "Bey": 5709,
      "Ġkup": 5710,
      "Ġkoruma": 5711,
      "ĠiÃ§indeki": 5712,
      "ograf": 5713,
      "ĠKUR": 5714,
      "ĠkÃ¶k": 5715,
      "ĠÅŁeyin": 5716,
      "ĠyapÄ±sÄ±": 5717,
      "encer": 5718,
      "ĠaÃ§Ä±dan": 5719,
      "ĠbaÅŁken": 5720,
      "ĠdÃ¶nemi": 5721,
      "Ä°zmir": 5722,
      "SA": 5723,
      "08": 5724,
      "Ġrakip": 5725,
      "ĠÅŁef": 5726,
      "Haber": 5727,
      "Ġdepr": 5728,
      "INDA": 5729,
      "Ġdis": 5730,
      "Ġdiyebilir": 5731,
      "asÄ±ndaki": 5732,
      "Ġayn": 5733,
      "ous": 5734,
      "Ġyasal": 5735,
      "Ġboyu": 5736,
      "ĠIÅŁ": 5737,
      "ĠDestek": 5738,
      "ĠKulÃ¼bÃ¼": 5739,
      "ERK": 5740,
      "Ġfer": 5741,
      "Ġanlatan": 5742,
      "ĠÃ¶den": 5743,
      "ie": 5744,
      "Ġdaim": 5745,
      "Genel": 5746,
      "Yaz": 5747,
      "ĠÃĩanakkale": 5748,
      "Ġsorunun": 5749,
      "Ġmevcuttur": 5750,
      "Ġbeklem": 5751,
      "bek": 5752,
      "Ġpotansiy": 5753,
      "ĠOrgan": 5754,
      "ĠKent": 5755,
      "ĠgÃ¶rÃ¼len": 5756,
      "ĠÅŁer": 5757,
      "ĠgeleceÄŁ": 5758,
      "Ġunsur": 5759,
      "Ve": 5760,
      "ĠyarÄ±m": 5761,
      "Ġten": 5762,
      "Ġtanesi": 5763,
      "beri": 5764,
      "ĠgeliÅŁmeler": 5765,
      "ĠÃ§alÄ±ÅŁmak": 5766,
      "Ġkanun": 5767,
      "Ġgrubu": 5768,
      "ĠTEK": 5769,
      "car": 5770,
      "ĠVan": 5771,
      "Ġhayran": 5772,
      "itir": 5773,
      "ĠEx": 5774,
      "elal": 5775,
      "06": 5776,
      "ĠÃĩarÅŁamba": 5777,
      "Ġmens": 5778,
      "Ġada": 5779,
      "anet": 5780,
      "vey": 5781,
      "ĠKanun": 5782,
      "Ġpratik": 5783,
      "ick": 5784,
      "36": 5785,
      "ĠgÃ¶rm": 5786,
      "yu": 5787,
      "eceksiniz": 5788,
      "ĠDevam": 5789,
      "Ġhik": 5790,
      "ĠÅŁunlarÄ±": 5791,
      "ĠdeÄŁeri": 5792,
      "Ġkapasit": 5793,
      "ayasa": 5794,
      "ĠTrump": 5795,
      "Ġkesim": 5796,
      "ĠSes": 5797,
      "Ġsevgi": 5798,
      "ĠBalÄ±k": 5799,
      "ivas": 5800,
      "ĠyÃ¶nel": 5801,
      "ĠgÃ¶zlem": 5802,
      "AÃ§": 5803,
      "duÄŁum": 5804,
      "ruf": 5805,
      "ĠÃ§Ä±kacak": 5806,
      "07": 5807,
      "debiyat": 5808,
      "ĠiÅŁlemleri": 5809,
      "ong": 5810,
      "uncu": 5811,
      "Avrupa": 5812,
      "des": 5813,
      "04": 5814,
      "oo": 5815,
      "Ġkahraman": 5816,
      "emesi": 5817,
      "ĠKurumu": 5818,
      "ĠFar": 5819,
      "ĠMÃľ": 5820,
      "ĠYa": 5821,
      "ĠÃ§aÄŁr": 5822,
      "own": 5823,
      "dÃ¼n": 5824,
      "iyel": 5825,
      "undaki": 5826,
      "ĠâĢº": 5827,
      "irli": 5828,
      "ĠbÃ¼yÃ¼m": 5829,
      "Hal": 5830,
      "ĠkarÅŁÄ±ya": 5831,
      "imle": 5832,
      ".[": 5833,
      "adÄ±ÄŁÄ±nÄ±z": 5834,
      "osya": 5835,
      "ĠiliÅŁki": 5836,
      "usunun": 5837,
      "ĠPerÅŁembe": 5838,
      "ĠyumuÅŁ": 5839,
      "lerken": 5840,
      "ĠET": 5841,
      "Ġsorgul": 5842,
      "ĠÃĸÄŁretim": 5843,
      "Ġtemsilc": 5844,
      "Ġmimar": 5845,
      "Ġlink": 5846,
      "TD": 5847,
      "Ġgurur": 5848,
      "Ġondan": 5849,
      "AyrÄ±ca": 5850,
      "ĠVol": 5851,
      "Ġniyet": 5852,
      "Ġ..": 5853,
      "Ġsanayi": 5854,
      "ona": 5855,
      "ĠDA": 5856,
      "Ġgidip": 5857,
      "MET": 5858,
      "KAN": 5859,
      "andar": 5860,
      "elli": 5861,
      "Ġgetirmek": 5862,
      "adÄ±ÄŁÄ±mÄ±z": 5863,
      "indistan": 5864,
      "Ġbuz": 5865,
      "duÄŁunuz": 5866,
      "Ġbirim": 5867,
      "Ã¼ldÃ¼": 5868,
      "ĠYaÅŁam": 5869,
      "Ġdiyet": 5870,
      "ĠaraÅŁtÄ±rmalar": 5871,
      "ĠÄ°ÅŁleri": 5872,
      "ĠKON": 5873,
      "ĠGaz": 5874,
      "Ä°TESÄ°": 5875,
      "ĠAj": 5876,
      "laÅŁÄ±k": 5877,
      "ĠbÃ¼r": 5878,
      "Rus": 5879,
      "Ġsevk": 5880,
      "Ġ2007": 5881,
      "nuv": 5882,
      "Ġtoplu": 5883,
      "ĠkartÄ±": 5884,
      "Ġtiyatro": 5885,
      "IT": 5886,
      "ĠÃ¶ncelikle": 5887,
      "ĠGeri": 5888,
      "ĠsÃ¼redir": 5889,
      "ĠÅŀey": 5890,
      "Ġyiyecek": 5891,
      "Ġbeklent": 5892,
      "ĠYarÄ±ÅŁ": 5893,
      "usuf": 5894,
      "ĠAsya": 5895,
      "acÄ±k": 5896,
      "ĠAfrika": 5897,
      "td": 5898,
      "osk": 5899,
      "Ġaltyap": 5900,
      "Ġdoy": 5901,
      "Ġulusal": 5902,
      "acaÄŁÄ±na": 5903,
      "Ġmekt": 5904,
      "ĠForum": 5905,
      "39": 5906,
      "ĠgÄ±da": 5907,
      "abiliriz": 5908,
      "ĠyÃ¼zÃ¼nden": 5909,
      "Ġseven": 5910,
      "ola": 5911,
      "Ã¼ce": 5912,
      "ĠMem": 5913,
      "Ġpozisyon": 5914,
      "Ġtit": 5915,
      "Ġmuhal": 5916,
      "ĠÃ¼lkemizde": 5917,
      "Ġref": 5918,
      "Ġ32": 5919,
      "Ġsevgil": 5920,
      "ĠkadÄ±nlarÄ±n": 5921,
      "bahar": 5922,
      "ĠbarÄ±ndÄ±r": 5923,
      "ĠsanÄ±rÄ±m": 5924,
      "ĠFer": 5925,
      "ÃĸÄŁr": 5926,
      "muyor": 5927,
      "Ġmisiniz": 5928,
      "ĠKoÃ§": 5929,
      "Ġyenilen": 5930,
      "Ã¾": 5931,
      "Ġkaydetti": 5932,
      "Ġdurumlarda": 5933,
      "ĠyÃ¶nlendir": 5934,
      "ann": 5935,
      "ĠÅŀahin": 5936,
      "Ġhapis": 5937,
      "ĠBaÅŁv": 5938,
      "ĠSem": 5939,
      "Ġfiziksel": 5940,
      "ladÄ±m": 5941,
      "ĠÅŀirket": 5942,
      "tion": 5943,
      "Ä±lÄ±p": 5944,
      "Ġetki": 5945,
      "ĠÅŁikayet": 5946,
      "ĠgÃ¶k": 5947,
      "ĠulaÅŁÄ±m": 5948,
      "Prof": 5949,
      "gaz": 5950,
      "Ġmutfak": 5951,
      "likte": 5952,
      "ĠÃľÃ§": 5953,
      "ĠFark": 5954,
      "ĠMedya": 5955,
      "tayÄ±z": 5956,
      "ĠbÃ¼nyesinde": 5957,
      "akarya": 5958,
      "adir": 5959,
      "Ġyolda": 5960,
      "ava": 5961,
      "Ġistif": 5962,
      "Ġyerler": 5963,
      "ĠmÃ¼hendis": 5964,
      "Ġtakv": 5965,
      "ĠEge": 5966,
      "ĠamaÃ§lÄ±": 5967,
      "ĠoÄŁlu": 5968,
      "ĠÅŀen": 5969,
      "ĠbirleÅŁtir": 5970,
      "ĠÄ°kinci": 5971,
      "Åŀu": 5972,
      "Ġbirinin": 5973,
      "Ġegz": 5974,
      "Ġyolunda": 5975,
      "Ġrefer": 5976,
      "Ġfestiv": 5977,
      "Ġserg": 5978,
      "Ġbilen": 5979,
      "ĠOrdu": 5980,
      "ĠsaÄŁlayacak": 5981,
      "ĠtÄ±p": 5982,
      "ĠBayramÄ±": 5983,
      "ĠEuro": 5984,
      "alatya": 5985,
      "Ġmahall": 5986,
      "kim": 5987,
      "Ġdiren": 5988,
      "ug": 5989,
      "\",": 5990,
      "ĠEnstit": 5991,
      "Ã¼str": 5992,
      "ĠSun": 5993,
      "ĠolmayÄ±": 5994,
      "ĠgeÃ§er": 5995,
      "ĠyaptÄ±m": 5996,
      "Samsun": 5997,
      "eliÄŁi": 5998,
      "ÂĶ": 5999,
      "ĠSÄ±nÄ±f": 6000,
      "alÄ±dÄ±r": 6001,
      "ĠDergisi": 6002,
      "ĠgÃ¼nÃ¼n": 6003,
      "ĠadayÄ±": 6004,
      "ĠGaziantep": 6005,
      "ARET": 6006,
      "ĠoyunlarÄ±": 6007,
      "ĠÅŁiÅŁ": 6008,
      "ĠMersin": 6009,
      "ĠDuy": 6010,
      "Ġkonfor": 6011,
      "adÄ±ÄŁÄ±m": 6012,
      "Ġseyir": 6013,
      "lardaki": 6014,
      "ĠAile": 6015,
      "alam": 6016,
      "GÃ¶r": 6017,
      "Ġsam": 6018,
      "ĠteÅŁvik": 6019,
      "Ġortamda": 6020,
      "ĠkadÄ±nÄ±n": 6021,
      "ĠÅŁub": 6022,
      "ĠYal": 6023,
      "ĠgÃ¶rÃ¼r": 6024,
      "Ġust": 6025,
      "Ä±ÄŁÄ±nÄ±": 6026,
      "ĠbabasÄ±": 6027,
      "deri": 6028,
      "ĠdeÄŁin": 6029,
      "ansiyon": 6030,
      "ĠgÃ¼ne": 6031,
      "Ġ150": 6032,
      "Åŀimdi": 6033,
      "ARI": 6034,
      "Ġfabrik": 6035,
      "ĠDakika": 6036,
      "38": 6037,
      "Ġacil": 6038,
      "ĠMÄ±sÄ±r": 6039,
      "priz": 6040,
      "usuz": 6041,
      "ĠyazÄ±k": 6042,
      "Ġanti": 6043,
      "ĠbakÄ±mÄ±ndan": 6044,
      "posta": 6045,
      "Ġuyumlu": 6046,
      "ĠKons": 6047,
      "ĠgÃ¼nden": 6048,
      "ĠYÃ¶netimi": 6049,
      "ĠkalmÄ±ÅŁ": 6050,
      "rens": 6051,
      "Ġnas": 6052,
      "Ġmaddi": 6053,
      "ĠÃ§alÄ±ÅŁtÄ±r": 6054,
      "ĠGÃ¶n": 6055,
      "Ġand": 6056,
      "siyet": 6057,
      "ĠÄ°nÅŁaat": 6058,
      "Ġse": 6059,
      "resi": 6060,
      "ĠMeslek": 6061,
      "ĠfaktÃ¶r": 6062,
      "Ġyolculuk": 6063,
      "Ġyoktu": 6064,
      "ĠsorunlarÄ±": 6065,
      "TI": 6066,
      "ate": 6067,
      "danÄ±": 6068,
      "Ġyeten": 6069,
      "Ġoynan": 6070,
      "Ġlig": 6071,
      "Ġkaybol": 6072,
      "Ġdedik": 6073,
      "ĠbaÅŁlayacak": 6074,
      "yalÄ±": 6075,
      "ĠkolaylaÅŁ": 6076,
      "DU": 6077,
      "Ã¶rÃ¼": 6078,
      "meyecek": 6079,
      "Ġoynay": 6080,
      "ĠetmiÅŁtir": 6081,
      "ĠÃ¶ÄŁrencilerin": 6082,
      "Ġtelefonu": 6083,
      "ĠAD": 6084,
      "mara": 6085,
      "duklarÄ±": 6086,
      "rÃ¼k": 6087,
      "ĠHast": 6088,
      "EÅŀ": 6089,
      "Ġvergi": 6090,
      "urta": 6091,
      "eyse": 6092,
      "Ġedilebilir": 6093,
      "ĠÄ°ÅŁlet": 6094,
      "ĠkayÄ±p": 6095,
      "ĠÅŁirketi": 6096,
      "sul": 6097,
      "ĠKanunu": 6098,
      "Ġbakan": 6099,
      "ĠResmi": 6100,
      "ĠdÃ¼ÅŁen": 6101,
      "sesuar": 6102,
      "ĠCih": 6103,
      "eciler": 6104,
      "ĠTwitter": 6105,
      "ĠsarÄ±": 6106,
      "rosoft": 6107,
      "adÄ±klarÄ±": 6108,
      "ĠAslÄ±nda": 6109,
      "ĠAdam": 6110,
      "Ġ02": 6111,
      "tÄ±lar": 6112,
      "Ġilave": 6113,
      "ebe": 6114,
      "bat": 6115,
      "ĠkonuÅŁma": 6116,
      "Ãľn": 6117,
      "los": 6118,
      "ĠyaptÄ±klarÄ±": 6119,
      "ĠTarÄ±m": 6120,
      "Ä±yÄ±m": 6121,
      "Ã¼ks": 6122,
      "Ä°YOR": 6123,
      "iyede": 6124,
      "Ġkayded": 6125,
      "ail": 6126,
      "ĠolmadÄ±": 6127,
      "Ä°Ã§": 6128,
      "ĠCeza": 6129,
      "Ġklasik": 6130,
      "Ancak": 6131,
      "ĠtakÄ±mÄ±": 6132,
      "LAM": 6133,
      "Ġtedavisi": 6134,
      "32": 6135,
      "ĠTun": 6136,
      "Ġbelirlen": 6137,
      "ĠkaÃ§Ä±n": 6138,
      "ĠolmaktadÄ±r": 6139,
      "ĠgerÃ§ekleÅŁen": 6140,
      "orb": 6141,
      "ĠolduklarÄ±nÄ±": 6142,
      "ĠEÄŁitimi": 6143,
      "Ġifadelerini": 6144,
      "Ul": 6145,
      "ĠhaklarÄ±": 6146,
      "ĠHazÄ±r": 6147,
      "ĠyarÄ±": 6148,
      "Ġsebebiyle": 6149,
      "Ġiyice": 6150,
      "ĠaÅŁaÄŁÄ±da": 6151,
      "Ġkonularda": 6152,
      "ĠMot": 6153,
      "ĠCumhurbaÅŁkan": 6154,
      "__": 6155,
      "ĠcoÄŁraf": 6156,
      "ĠÃ¶nÃ¼mÃ¼zdeki": 6157,
      "atistik": 6158,
      "ĠBÃ¶lgesi": 6159,
      "aÄŁÄ±nÄ±": 6160,
      "ĠOY": 6161,
      "ĠAvust": 6162,
      "Ġkorumak": 6163,
      "Ġmakal": 6164,
      "mr": 6165,
      "ALI": 6166,
      "ÅŁap": 6167,
      "Ġkurs": 6168,
      "ĠOÄŁ": 6169,
      "vel": 6170,
      "ĠsonuÃ§lar": 6171,
      "ĠDon": 6172,
      "ĠOrt": 6173,
      "ĠgÃ¶rdÃ¼k": 6174,
      "daroÄŁlu": 6175,
      "Ġbirbirine": 6176,
      "ĠAnn": 6177,
      "37": 6178,
      "TL": 6179,
      "bel": 6180,
      "ĠSokak": 6181,
      "ĠalanlarÄ±": 6182,
      "Ġkazanan": 6183,
      "ĠRek": 6184,
      "ekil": 6185,
      "Ġgenelde": 6186,
      "ĠsatÄ±ÅŁa": 6187,
      "Ġolabilirsiniz": 6188,
      "ĠÃ§ekti": 6189,
      "ĠalÄ±nmasÄ±": 6190,
      "Ġmakam": 6191,
      "ĠÄ°d": 6192,
      "ĠKral": 6193,
      "Ġverimli": 6194,
      "Ġ48": 6195,
      "ĠCad": 6196,
      "ĠdÃ¶nÃ¼ÅŁÃ¼m": 6197,
      "ĠhanÄ±m": 6198,
      "ĠBilgisayar": 6199,
      "ĠkÃ¼resel": 6200,
      "Ġre": 6201,
      "ikol": 6202,
      "CumhurbaÅŁkanÄ±": 6203,
      "Ġsizleri": 6204,
      "ĠPas": 6205,
      "ĠYIL": 6206,
      "YON": 6207,
      "Ġsabit": 6208,
      "ĠÃ§aÄŁÄ±r": 6209,
      "ĠaÄŁrÄ±": 6210,
      "ĠÃľniversit": 6211,
      "Ġgeleneksel": 6212,
      "ĠyanÄ±na": 6213,
      "ĠParis": 6214,
      "masÄ±n": 6215,
      "ebi": 6216,
      "BMM": 6217,
      "Ä°VERS": 6218,
      "ĠsÃ¼per": 6219,
      "Ġdini": 6220,
      "rat": 6221,
      "Ġhayatta": 6222,
      "eks": 6223,
      "Ġkurumsal": 6224,
      "ĠgÃ¼Ã§lendir": 6225,
      "ĠYazar": 6226,
      "ĠVideo": 6227,
      "Ġbahsed": 6228,
      "otik": 6229,
      "Ġsinir": 6230,
      "ĠTiyatro": 6231,
      "ĠKaynak": 6232,
      "lanacak": 6233,
      "Ġsinema": 6234,
      "ts": 6235,
      "mede": 6236,
      "uÄŁla": 6237,
      "ĠyÃ¶netmen": 6238,
      "ĠÃ¼retimi": 6239,
      "ĠaÄŁr": 6240,
      "abilirler": 6241,
      "ĠYork": 6242,
      "Ġkalb": 6243,
      "enkul": 6244,
      "meyin": 6245,
      "ĠBodrum": 6246,
      "ĠiÅŁleri": 6247,
      "ĠtaÅŁÄ±ma": 6248,
      "eral": 6249,
      "Ġadalet": 6250,
      "ĠbaÅŁlangÄ±Ã§": 6251,
      "Ġdikkate": 6252,
      "gah": 6253,
      "Ġtemizlik": 6254,
      "ĠkanÄ±t": 6255,
      "ENÄ°": 6256,
      "Ġvererek": 6257,
      "ĠgÃ¶rÃ¼yor": 6258,
      "Ä°SÄ°": 6259,
      "ĠEskiÅŁehir": 6260,
      "Ãľr": 6261,
      "ĠgÃ¼ndeme": 6262,
      "Ġzamanlar": 6263,
      "ĠulaÅŁmak": 6264,
      "Ä±lÄ±ÄŁÄ±yla": 6265,
      "ĠMu": 6266,
      "ĠÄ°smail": 6267,
      "Ġ09": 6268,
      "biy": 6269,
      "ĠgÃ¶l": 6270,
      "ĠyaklaÅŁÄ±m": 6271,
      "Ġpah": 6272,
      "Ġzeytin": 6273,
      "ĠsÄ±v": 6274,
      "Ġsunum": 6275,
      "Ġop": 6276,
      "ĠÅŀube": 6277,
      "ĠBundan": 6278,
      "ese": 6279,
      "oun": 6280,
      "Ġ2000": 6281,
      "ĠRabb": 6282,
      "Ġob": 6283,
      "ĠgÃ¶revi": 6284,
      "ĠolduÄŁum": 6285,
      "veÃ§": 6286,
      "ĠiÅŁlev": 6287,
      "ĠcivarÄ±nda": 6288,
      "Ġtakdirde": 6289,
      "amuk": 6290,
      "uyum": 6291,
      "Ġbask": 6292,
      "Ġedebiyat": 6293,
      "abi": 6294,
      "Ġkullanabilirsiniz": 6295,
      "ĠbÃ¶lÃ¼mÃ¼nde": 6296,
      "Alman": 6297,
      "Ġmetrek": 6298,
      "ĠToplum": 6299,
      "Ġiade": 6300,
      "ĠaldÄ±k": 6301,
      "Ġdip": 6302,
      "ĠKÄ±zÄ±l": 6303,
      "mÃ¼ÅŁtÃ¼r": 6304,
      "Tr": 6305,
      "Ġkendinizi": 6306,
      "Ã¼ya": 6307,
      "Ġsunu": 6308,
      "Ġ=": 6309,
      "Ġhata": 6310,
      "ĠgÃ¶sterir": 6311,
      "ĠaralarÄ±nda": 6312,
      "Ġyoluyla": 6313,
      "Ġdenetim": 6314,
      "Ġtutul": 6315,
      "Ġfi": 6316,
      "riyet": 6317,
      "ĠyaÅŁlÄ±": 6318,
      "ĠbÃ¶ylece": 6319,
      "ĠÃľNÄ°VERS": 6320,
      "ABER": 6321,
      "Ġfonksiyon": 6322,
      "ĠazÄ±ndan": 6323,
      "Ġlok": 6324,
      "Ġharek": 6325,
      "Mar": 6326,
      "mesiyle": 6327,
      "layacak": 6328,
      "ĠKupasÄ±": 6329,
      "Ġsizlerle": 6330,
      "ĠgÃ¶rÃ¼ÅŁmeler": 6331,
      "Ġversiyon": 6332,
      "etiyle": 6333,
      "Ġduruma": 6334,
      "Ä°NE": 6335,
      "Ġrej": 6336,
      "ĠKaf": 6337,
      "ĠÅŀehit": 6338,
      "Ġest": 6339,
      "lerinize": 6340,
      "48": 6341,
      "ĠZaten": 6342,
      "Ġmeyve": 6343,
      "Ġkendimi": 6344,
      "ĠÃ§ekici": 6345,
      "gresi": 6346,
      "dun": 6347,
      "Ġhali": 6348,
      "ĠEnd": 6349,
      "ill": 6350,
      "ĠHayvan": 6351,
      "ĠsaÄŁlÄ±ÄŁÄ±": 6352,
      "Ġtaraftar": 6353,
      "dÄ±ÄŁÄ±nÄ±z": 6354,
      "Ġmahkem": 6355,
      "ĠDolayÄ±sÄ±yla": 6356,
      "ĠkazandÄ±": 6357,
      "ĠayakkabÄ±": 6358,
      "ĠGalaxy": 6359,
      "ĠZiyaret": 6360,
      "ĠÃ¶ncesinde": 6361,
      "Ġbuldu": 6362,
      "espor": 6363,
      "ĠarÅŁiv": 6364,
      "ĠÄ°mam": 6365,
      "Ġbelediy": 6366,
      "ĠKav": 6367,
      "ĠÃ¶ngÃ¶r": 6368,
      "ĠElektrik": 6369,
      "eÄŁine": 6370,
      "liy": 6371,
      "ĠEnerji": 6372,
      "ĠDemokr": 6373,
      "ĠolacaÄŁÄ±": 6374,
      "ĠEvet": 6375,
      "Ġaj": 6376,
      "daÄŁÄ±": 6377,
      "Ġsaha": 6378,
      "vekil": 6379,
      "Ġsunulan": 6380,
      "ĠBayan": 6381,
      "lemesi": 6382,
      "Ä°LER": 6383,
      "ondra": 6384,
      "Ã§isi": 6385,
      "ĠÄ°talya": 6386,
      "ĠMimar": 6387,
      "ĠfÄ±rsatÄ±": 6388,
      "azen": 6389,
      "Ġsevg": 6390,
      "Ġkusur": 6391,
      "Ġmalzeme": 6392,
      "Ġbeslenme": 6393,
      "eker": 6394,
      "Ġmuhab": 6395,
      "ĠÃĩift": 6396,
      "ife": 6397,
      "ĠAV": 6398,
      "Ġ196": 6399,
      "anÄ±zÄ±": 6400,
      "Ġkimi": 6401,
      "ME": 6402,
      "ĠDoÄŁan": 6403,
      "ĠgÃ¼nÃ¼mÃ¼zde": 6404,
      "Ġolunca": 6405,
      "Ġbaba": 6406,
      "ĠÃĩevre": 6407,
      "Ġkara": 6408,
      "Ġzorunlu": 6409,
      "ĠkarÅŁÄ±lan": 6410,
      "Ã¢y": 6411,
      "Ġprojeler": 6412,
      "ĠÃ¶ÄŁrencileri": 6413,
      "ĠtasarÄ±mÄ±": 6414,
      "ĠKendi": 6415,
      "ĠHÃ¼kÃ¼m": 6416,
      "ĠiÅŁÃ§i": 6417,
      "ĠbaÄŁÄ±ÅŁ": 6418,
      "ĠmÃ¼dahale": 6419,
      "ĠÃ§ocuÄŁun": 6420,
      "Ġkamera": 6421,
      "ĠÃ¼retic": 6422,
      "Ġkahve": 6423,
      "ĠLim": 6424,
      "leyin": 6425,
      "Ġkargo": 6426,
      "slan": 6427,
      "ĠtÃ¼rÃ¼": 6428,
      "ĠGÃ¶rÃ¼n": 6429,
      "ĠPRO": 6430,
      "Ġye": 6431,
      "ĠkÄ±zÄ±": 6432,
      "erik": 6433,
      "ĠadlandÄ±r": 6434,
      "ĠFÄ±r": 6435,
      "mesinde": 6436,
      "ĠKaÃ§": 6437,
      "ĠbirleÅŁ": 6438,
      "Ġbelirtildi": 6439,
      ".âĢĻ": 6440,
      "Ġyetenek": 6441,
      "ace": 6442,
      "ĠMeclisi": 6443,
      "Ġelinde": 6444,
      "ĠBebek": 6445,
      "ĠiletiÅŁime": 6446,
      "ph": 6447,
      "Ġverilir": 6448,
      "Ġkelime": 6449,
      "ĠRap": 6450,
      "pa": 6451,
      "ĠulaÅŁtÄ±r": 6452,
      "ĠalÄ±ÅŁkan": 6453,
      "ĠgÃ¶sterdi": 6454,
      "ĠOnline": 6455,
      "Ġuyan": 6456,
      "anyo": 6457,
      "andev": 6458,
      "Ġ55": 6459,
      "Ġverilecek": 6460,
      "ĠMez": 6461,
      "Ġbisiklet": 6462,
      "Ġmemur": 6463,
      "ĠSe": 6464,
      "Ġhaberi": 6465,
      "Ġyitir": 6466,
      "Ġtebrik": 6467,
      "Ġ400": 6468,
      "lÄ±dÄ±r": 6469,
      "Ġyerlerde": 6470,
      "Yar": 6471,
      "Benim": 6472,
      "Ġzorluk": 6473,
      "46": 6474,
      "SB": 6475,
      "Ġselam": 6476,
      "Ġverici": 6477,
      "BÃ¶l": 6478,
      "onun": 6479,
      "lup": 6480,
      "ĠYaÄŁ": 6481,
      "ĠÃ§alÄ±ÅŁmalarÄ±nÄ±": 6482,
      "Ġtedbir": 6483,
      "RET": 6484,
      "ĠSarÄ±": 6485,
      "2013": 6486,
      "ĠPan": 6487,
      "Ġsermay": 6488,
      "parator": 6489,
      "malarÄ±nÄ±": 6490,
      "Ġadresi": 6491,
      "ĠyÄ±lÄ±nÄ±n": 6492,
      "ÅŁu": 6493,
      "Ġkitl": 6494,
      "ĠDÄ±ÅŁiÅŁleri": 6495,
      "ĠgÃ¼zellik": 6496,
      "Ġedilmektedir": 6497,
      "ach": 6498,
      "Ġmakyaj": 6499,
      "ende": 6500,
      "Ġokur": 6501,
      "ĠÃľcret": 6502,
      "Ã¼lmesi": 6503,
      "adas": 6504,
      "ĠRad": 6505,
      "Ġbulunmak": 6506,
      "ĠgeliÅŁmiÅŁ": 6507,
      "Ġfuar": 6508,
      "Ä±d": 6509,
      "Ġbeyin": 6510,
      "ĠYapÄ±lan": 6511,
      "ĠterÃ¶rist": 6512,
      "ĠDoktor": 6513,
      "ĠgÃ¼r": 6514,
      "ĠFilistin": 6515,
      "Ġmeydan": 6516,
      "Ġkoleksiyon": 6517,
      "tÄ±klarÄ±": 6518,
      "bank": 6519,
      "ĠOtobÃ¼s": 6520,
      "Ġsporcu": 6521,
      "ĠyaÄŁmur": 6522,
      "abalÄ±k": 6523,
      "Ġoyunun": 6524,
      "ji": 6525,
      "Ä±ÄŁa": 6526,
      "ĠÃ¶rn": 6527,
      "emeyen": 6528,
      "Ġkimlik": 6529,
      "lav": 6530,
      "ight": 6531,
      ".'": 6532,
      "abor": 6533,
      "isiz": 6534,
      "ĠDiz": 6535,
      "Ġnam": 6536,
      "Ġseviyorum": 6537,
      "Ġaraba": 6538,
      "ibe": 6539,
      "Sonraki": 6540,
      "ĠoranÄ±nda": 6541,
      "acaÄŁÄ±mÄ±z": 6542,
      "ĠServis": 6543,
      "zat": 6544,
      "ĠseÃ§enekleri": 6545,
      "dÃ¼ÄŁÃ¼nÃ¼": 6546,
      "ĠAraÃ§": 6547,
      "ĠYurt": 6548,
      "liliÄŁ": 6549,
      "Ġkuzey": 6550,
      "zi": 6551,
      "ĠEngel": 6552,
      "Ġkaps": 6553,
      "ĠHÄ±z": 6554,
      "Ġdakikada": 6555,
      "okol": 6556,
      "ĠtÄ±klayÄ±nÄ±z": 6557,
      "lÃ¼ÄŁe": 6558,
      "yaspor": 6559,
      "tein": 6560,
      "Ġtasarruf": 6561,
      "YaÅŁ": 6562,
      "mekten": 6563,
      "ky": 6564,
      "Ġrehber": 6565,
      "ĠEdebiyat": 6566,
      "Ä°B": 6567,
      "ĠaralÄ±k": 6568,
      "Ġgayret": 6569,
      "ĠDiyarbakÄ±r": 6570,
      "ester": 6571,
      "gat": 6572,
      "Ġbitk": 6573,
      "ĠÃ¶rgÃ¼tÃ¼": 6574,
      "ilip": 6575,
      "rip": 6576,
      "ĠaÃ§Ä±klamasÄ±": 6577,
      "Bunun": 6578,
      "ĠVali": 6579,
      "Ã¼ye": 6580,
      "ĠkÄ±sÄ±m": 6581,
      "Ġkoc": 6582,
      "ĠTh": 6583,
      "ĠDek": 6584,
      "Ġiman": 6585,
      "Ġmeyv": 6586,
      "Ġ38": 6587,
      "amanÄ±n": 6588,
      "anlÄ±ur": 6589,
      "ÃĸZ": 6590,
      "ĠKen": 6591,
      "Ġturist": 6592,
      "ĠaracÄ±lÄ±ÄŁÄ±yla": 6593,
      "ilt": 6594,
      "ĠÃĸl": 6595,
      "ĠÄ±r": 6596,
      "ĠadamÄ±": 6597,
      "fÄ±r": 6598,
      "ĠÂ«": 6599,
      "Ġayda": 6600,
      "menizi": 6601,
      "ildiÄŁini": 6602,
      "Ġderecede": 6603,
      "Ġdom": 6604,
      "Ġbeklenen": 6605,
      "ĠkulÃ¼p": 6606,
      "Ġizlen": 6607,
      "Kend": 6608,
      "ĠÃ§am": 6609,
      "ĠtÄ±klayÄ±n": 6610,
      "Ġkapan": 6611,
      "ĠTakÄ±m": 6612,
      "ĠaydÄ±nlat": 6613,
      "Ã¶ly": 6614,
      "ĠAbdullah": 6615,
      "ĠÃĩalÄ±ÅŁma": 6616,
      "ĠÃ¼lkeler": 6617,
      "Ġkariyer": 6618,
      "Ġbekleniyor": 6619,
      "ĠÂĵ": 6620,
      "Ser": 6621,
      "ĠÃľNÄ°VERSÄ°TESÄ°": 6622,
      "Ġmaruz": 6623,
      "ĠÃ§Ä±kmÄ±ÅŁ": 6624,
      "ĠEK": 6625,
      "egori": 6626,
      "aÄŁÄ±na": 6627,
      "ĠTemiz": 6628,
      "ĠHakan": 6629,
      "Ġkaybetti": 6630,
      "Ġsaatlerinde": 6631,
      "Kul": 6632,
      "ĠRenk": 6633,
      "amadÄ±m": 6634,
      "ĠyangÄ±n": 6635,
      "ĠHanÄ±m": 6636,
      "Ġsinem": 6637,
      "OC": 6638,
      "Ġep": 6639,
      "ĠTeknoloj": 6640,
      "ĠÃ¼stÃ¼ne": 6641,
      "lantÄ±": 6642,
      "ÅŁÄ±": 6643,
      "ĠSoru": 6644,
      "ĠkalÄ±r": 6645,
      "ĠÃ¶lÃ¼": 6646,
      "ich": 6647,
      "Ġhalen": 6648,
      "Ġbilmiyorum": 6649,
      "ĠmÃ¼l": 6650,
      "amayacak": 6651,
      "ĠMÃ¼zesi": 6652,
      "ĠBÃ¶lge": 6653,
      "ĠyÄ±llardÄ±r": 6654,
      "Ġsertif": 6655,
      "mel": 6656,
      "alog": 6657,
      "ĠMaÃ§": 6658,
      "Ġdikkatli": 6659,
      "ĠbaÅŁlÄ±klÄ±": 6660,
      "Ġvizyon": 6661,
      "andarma": 6662,
      "Muh": 6663,
      "Ġ65": 6664,
      "Ġmuhtem": 6665,
      "Ġkorku": 6666,
      "ĠYapÄ±": 6667,
      "ĠOyunlarÄ±": 6668,
      "ĠkarÅŁÄ±laÅŁtÄ±r": 6669,
      "In": 6670,
      "ĠgeÃ§iyor": 6671,
      "lima": 6672,
      "Ġistedim": 6673,
      "ĠTakÄ±mÄ±": 6674,
      "eÄŁiyle": 6675,
      "fik": 6676,
      "Ġdevrim": 6677,
      "ĠÄ°LE": 6678,
      "ĠÃ§ocuklarÄ±": 6679,
      "ĠedeceÄŁiz": 6680,
      "ĠArt": 6681,
      "ĠPlay": 6682,
      "ĠsÃ¼reÃ§te": 6683,
      "Ġmiktarda": 6684,
      "ĠsÃ¼rpriz": 6685,
      "ĠhÃ¼k": 6686,
      "Ã¶p": 6687,
      "elerek": 6688,
      "ĠdeÄŁildi": 6689,
      "END": 6690,
      "ELÄ°": 6691,
      "ĠÃ§ekiyor": 6692,
      "Ġtablet": 6693,
      "paz": 6694,
      "dÄ±ÅŁ": 6695,
      "Ġbizlere": 6696,
      "Ġcumhur": 6697,
      "diklerini": 6698,
      "ĠKore": 6699,
      "ĠyaÅŁÄ±yor": 6700,
      "ohn": 6701,
      "ĠBelki": 6702,
      "ELER": 6703,
      "ĠKocaeli": 6704,
      "Ġyedek": 6705,
      "ĠUygulama": 6706,
      "Ġhediy": 6707,
      "Ġtren": 6708,
      "ĠmaÃ§Ä±nda": 6709,
      "Ġekmek": 6710,
      "ĠFiyatlarÄ±": 6711,
      "ĠOnlar": 6712,
      "ĠyaptÄ±ÄŁÄ±mÄ±z": 6713,
      "dol": 6714,
      "idi": 6715,
      "ÄŀÄ°T": 6716,
      "Ġkimsenin": 6717,
      "ĠGazete": 6718,
      "ĠattÄ±": 6719,
      "ĠyÃ¼kselt": 6720,
      "Ġdenem": 6721,
      "ĠuyarÄ±": 6722,
      "ĠfirmasÄ±": 6723,
      "ash": 6724,
      "lÄ±kta": 6725,
      "eyip": 6726,
      "ĠdÃ¼zenlediÄŁi": 6727,
      "Ġkimyasal": 6728,
      "tifak": 6729,
      "Ġettiler": 6730,
      "Deniz": 6731,
      "Ä±rsÄ±z": 6732,
      "Ġhisse": 6733,
      "unuza": 6734,
      "ĠFik": 6735,
      "Ġmm": 6736,
      "Ġ75": 6737,
      "Ġbiy": 6738,
      "Ġvir": 6739,
      "ĠiÅŁgal": 6740,
      "Ġizlem": 6741,
      "ĠgereÄŁi": 6742,
      "ĠkolaylaÅŁtÄ±r": 6743,
      "ĠaÄŁz": 6744,
      "ĠÃľzer": 6745,
      "Ġplak": 6746,
      "Ġsahne": 6747,
      "doÄŁ": 6748,
      "ĠYunanistan": 6749,
      "ĠTav": 6750,
      "The": 6751,
      "ĠkatÄ±lÄ±mcÄ±": 6752,
      "ĠFederasyonu": 6753,
      "ĠgÃ¶rdÃ¼m": 6754,
      "ĠPolis": 6755,
      "ĠkeÅŁf": 6756,
      "ĠED": 6757,
      "ĠdÃ¼ÅŁÃ¼nÃ¼l": 6758,
      "lob": 6759,
      "ĠyÃ¼rÃ¼r": 6760,
      "ĠbÃ¼tÃ§": 6761,
      "ĠProje": 6762,
      "ĠKredi": 6763,
      "ĠOlay": 6764,
      "ee": 6765,
      "ĠcezasÄ±": 6766,
      "ĠSaÃ§": 6767,
      "ĠkÃ¶pek": 6768,
      "Ġgarant": 6769,
      "Ġ250": 6770,
      "ĠBirleÅŁik": 6771,
      "mekteyiz": 6772,
      "ĠaÃ§an": 6773,
      "ĠTal": 6774,
      "ĠÅŁeyleri": 6775,
      "ĠdÃ¼zelt": 6776,
      "ĠkÃ¶pr": 6777,
      "ĠLa": 6778,
      "ĠhastalÄ±ÄŁÄ±": 6779,
      "ĠÃ§ekim": 6780,
      "EÄŁ": 6781,
      "lerdi": 6782,
      "Ġmemnuniyet": 6783,
      "ĠgÃ¼venliÄŁi": 6784,
      "Sel": 6785,
      "Bah": 6786,
      "otiv": 6787,
      "ĠnoktasÄ±": 6788,
      "Ġantren": 6789,
      "Amer": 6790,
      "Ã¼tÃ¼": 6791,
      "ĠfirmamÄ±z": 6792,
      "II": 6793,
      "ĠGÃ¼nde": 6794,
      "ĠHavalimanÄ±": 6795,
      "EP": 6796,
      "ĠnumaralÄ±": 6797,
      "ĠTAR": 6798,
      "Ġnakliyat": 6799,
      "ĠYÃ¼r": 6800,
      "ĠkaÅŁÄ±ÄŁÄ±": 6801,
      "Ġolmasa": 6802,
      "ĠCon": 6803,
      "Ġevden": 6804,
      "Ã¼kle": 6805,
      "ĠesnasÄ±nda": 6806,
      "Ġ05": 6807,
      "ĠLisans": 6808,
      "Ä±lmasÄ±na": 6809,
      "INI": 6810,
      "Ġesk": 6811,
      "leyerek": 6812,
      "Ġdenk": 6813,
      "ĠRob": 6814,
      "Ġbizimle": 6815,
      "ĠYusuf": 6816,
      "ĠSiyas": 6817,
      "ulmaz": 6818,
      "Ġsever": 6819,
      "ndeki": 6820,
      "lÃ¢m": 6821,
      "ĠDep": 6822,
      "ĠyapÄ±yoruz": 6823,
      "Ġisteyenler": 6824,
      "ĠyapÄ±p": 6825,
      "47": 6826,
      "ĠAkadem": 6827,
      "ĠToplant": 6828,
      "ÅŁe": 6829,
      "Ġsonsuz": 6830,
      "Ġmini": 6831,
      "ĠÃ¼stÃ¼nde": 6832,
      "ĠolaÄŁan": 6833,
      "Ġsebeple": 6834,
      "ding": 6835,
      "Ġgelmesi": 6836,
      "Ġkalem": 6837,
      "ĠdÃ¼zeyde": 6838,
      "Ġmaalesef": 6839,
      "ĠÃ¶lÃ§Ã¼de": 6840,
      "ĠbirÅŁey": 6841,
      "kray": 6842,
      "Ġaley": 6843,
      "Ġsorunlar": 6844,
      "ĠyansÄ±t": 6845,
      "ĠÅŁeye": 6846,
      "Ġsunmak": 6847,
      "ĠanÄ±nda": 6848,
      "iti": 6849,
      "ĠsÃ¶ylemek": 6850,
      "ĠrÃ¶": 6851,
      "ĠbÃ¼yÃ¼": 6852,
      "SAN": 6853,
      "Ġesnaf": 6854,
      "akal": 6855,
      "ĠyapÄ±lÄ±yor": 6856,
      "Ġisterim": 6857,
      "Ġartan": 6858,
      "Ġrekabet": 6859,
      "ĠanÄ±": 6860,
      "umuzun": 6861,
      "ĠyapmanÄ±z": 6862,
      "Ġolmaktan": 6863,
      "ĠhalkÄ±n": 6864,
      "ive": 6865,
      "Ġmerkezinde": 6866,
      "ezil": 6867,
      "ĠyapmayÄ±": 6868,
      "ĠEmre": 6869,
      "Ġ08": 6870,
      "ĠKamu": 6871,
      "Ġevlen": 6872,
      "azer": 6873,
      "RAM": 6874,
      "Ġetkiley": 6875,
      "ĠÅŁehrin": 6876,
      "ĠKork": 6877,
      "ĠKayseri": 6878,
      "Ġeh": 6879,
      "ĠFaz": 6880,
      "ĠSoy": 6881,
      "Ä±sÄ±yla": 6882,
      "ĠDar": 6883,
      "Ġ01": 6884,
      "ĠuygulamalarÄ±": 6885,
      "Ġorman": 6886,
      "gilizce": 6887,
      "Ãľlk": 6888,
      "Res": 6889,
      "ĠbaÅŁÄ±": 6890,
      "ĠeÄŁit": 6891,
      "yiz": 6892,
      "top": 6893,
      "ĠeriÅŁim": 6894,
      "Ġparlak": 6895,
      "ette": 6896,
      "ayarak": 6897,
      "ĠrÃ¼z": 6898,
      "arik": 6899,
      "ĠSekret": 6900,
      "ĠanlamÄ±": 6901,
      "ĠOR": 6902,
      "Ġbilgisi": 6903,
      "Ġpetrol": 6904,
      "Ġmoda": 6905,
      "Ġsessiz": 6906,
      "ĠHaft": 6907,
      "Par": 6908,
      "ĠÅŁehri": 6909,
      "ĠgerektiÄŁi": 6910,
      "Ġolamaz": 6911,
      "ĠDÃ¼zen": 6912,
      "ĠÃ¼m": 6913,
      "Ġdepol": 6914,
      "ĠdonanÄ±m": 6915,
      "ĠEnstitÃ¼sÃ¼": 6916,
      "Ġalanlarda": 6917,
      "ue": 6918,
      "ĠÅŁÃ¼k": 6919,
      "ĠSamsung": 6920,
      "tum": 6921,
      "ĠkalÄ±cÄ±": 6922,
      "ĠkarÅŁÄ±mÄ±za": 6923,
      "ĠkazanÃ§": 6924,
      "Ġhavuz": 6925,
      "ĠVatan": 6926,
      "ĠÃ¶ÄŁrenmek": 6927,
      "ĠSaÄŁlÄ±ÄŁÄ±": 6928,
      "ĠÃ¶t": 6929,
      "Ġistihdam": 6930,
      "Ġefsan": 6931,
      "eÅŁme": 6932,
      "Ġparmak": 6933,
      "led": 6934,
      "ĠdÃ¼ÄŁÃ¼n": 6935,
      "Ġforum": 6936,
      "madÄ±ÄŁÄ±nÄ±": 6937,
      "Ġengelli": 6938,
      "unuzun": 6939,
      "ĠKuÅŁ": 6940,
      "ĠOrman": 6941,
      "ĠkullanÄ±labilir": 6942,
      "Ġrengi": 6943,
      "Ġdili": 6944,
      "ÃľY": 6945,
      "Ġport": 6946,
      "tor": 6947,
      "anlÄ±urfa": 6948,
      "yaz": 6949,
      "araj": 6950,
      "aÄŁÄ±nda": 6951,
      "49": 6952,
      "oter": 6953,
      "eydi": 6954,
      "Ġlan": 6955,
      "Ġkoltuk": 6956,
      "ĠdÃ¼ÅŁÃ¼nce": 6957,
      "NA": 6958,
      "ĠsÃ¶zÃ¼": 6959,
      "Ġtutan": 6960,
      "uman": 6961,
      "ĠOkulu": 6962,
      "amÄ±zda": 6963,
      "Ġhitap": 6964,
      "ĠFuarÄ±": 6965,
      "Ġgittik": 6966,
      "ĠEkonomi": 6967,
      "Ġdilek": 6968,
      "Ġdiliyorum": 6969,
      "Ġbanka": 6970,
      "ĠgÃ¶ÄŁ": 6971,
      "MAK": 6972,
      "Ġdua": 6973,
      "Ġmavi": 6974,
      "Ġdarb": 6975,
      "Ġharekete": 6976,
      "TV": 6977,
      "Ġbeslen": 6978,
      "ĠzamanÄ±nda": 6979,
      "ĠMin": 6980,
      "Ġverim": 6981,
      "ĠKarak": 6982,
      "Ġtablo": 6983,
      "ĠTemel": 6984,
      "ĠPsik": 6985,
      "Spor": 6986,
      "ĠaylarÄ±nda": 6987,
      "ĠÅŁimd": 6988,
      "Ġgerekse": 6989,
      "Ġverme": 6990,
      "Sosyal": 6991,
      "ÃĦ": 6992,
      "2012": 6993,
      "larÄ±nÄ±za": 6994,
      "atÄ±n": 6995,
      "Ġgeride": 6996,
      "elendir": 6997,
      "Ġmail": 6998,
      "alandÄ±r": 6999,
      "ĠTabi": 7000,
      "ĠÄ°b": 7001,
      "Ġmensup": 7002,
      "ĠgÃ¶zÃ¼k": 7003,
      "Bursa": 7004,
      "ĠyÃ¶ntemi": 7005,
      "ĠÃ§alÄ±ÅŁmaya": 7006,
      "ĠServisi": 7007,
      "Ġdeprem": 7008,
      "ĠKarab": 7009,
      "Ġdans": 7010,
      "ĠgÃ¼z": 7011,
      "ĠyÄ±ld": 7012,
      "ĠgeldiÄŁini": 7013,
      "ĠkahvaltÄ±": 7014,
      "Ġaram": 7015,
      "Ġyel": 7016,
      "Ġkeyf": 7017,
      "ĠHerkes": 7018,
      "dayÄ±z": 7019,
      "Ġ37": 7020,
      "hay": 7021,
      "ecik": 7022,
      "ĠGÄ±da": 7023,
      "EÃĩ": 7024,
      "ĠÄ°lan": 7025,
      "Ġharf": 7026,
      "ĠAÅŁk": 7027,
      "ĠOp": 7028,
      "ĠbaÅŁladÄ±k": 7029,
      "ĠÃ§ocuÄŁu": 7030,
      "ĠYÄ±lÄ±": 7031,
      "ukur": 7032,
      "ULU": 7033,
      "ĠfarkÄ±": 7034,
      "ĠÃĸzgÃ¼r": 7035,
      "lasman": 7036,
      "Ġgelince": 7037,
      "Ġevet": 7038,
      "ĠâĢĻ": 7039,
      "ĠkatÄ±ldÄ±ÄŁÄ±": 7040,
      "Ġcami": 7041,
      "ÄŀÄ°TÄ°M": 7042,
      "ĠkullandÄ±ÄŁÄ±": 7043,
      "esela": 7044,
      "Ġmaddesi": 7045,
      "ĠEb": 7046,
      "ĠSatÄ±ÅŁ": 7047,
      "larÄ±nÄ±zÄ±n": 7048,
      "mp": 7049,
      "Ġtamamlan": 7050,
      "ebilen": 7051,
      "sinde": 7052,
      "Ġfilmin": 7053,
      "Ġsaatleri": 7054,
      "Yak": 7055,
      "ald": 7056,
      "Uy": 7057,
      "Ġduruyor": 7058,
      "ĠbiÃ§im": 7059,
      "ilme": 7060,
      "Ġzirv": 7061,
      "manÄ±za": 7062,
      "ĠhÃ¼cr": 7063,
      "imizle": 7064,
      "ĠKuvvet": 7065,
      "ansÄ±z": 7066,
      "ĠgÃ¶rdÃ¼": 7067,
      "rist": 7068,
      "Ġvad": 7069,
      "Peki": 7070,
      "Ġanlar": 7071,
      "ERKEZ": 7072,
      "isar": 7073,
      "Ġmusunuz": 7074,
      "Ä°P": 7075,
      "ĠaÃ§Ä±ldÄ±": 7076,
      "esir": 7077,
      "Ġevinde": 7078,
      "ĠLtd": 7079,
      "ĠbakalÄ±m": 7080,
      "ĠNet": 7081,
      "Ġmetal": 7082,
      "aa": 7083,
      "ĠRum": 7084,
      "Ġpanel": 7085,
      "KadÄ±n": 7086,
      "198": 7087,
      "Ġmor": 7088,
      "ĠÃ§atÄ±ÅŁ": 7089,
      "ĠKerim": 7090,
      "ĠedildiÄŁi": 7091,
      "Ġhaftada": 7092,
      "ediÄŁini": 7093,
      "ĠÃ¶mÃ¼r": 7094,
      "Ġanahtar": 7095,
      "ĠNev": 7096,
      "uÅŁturucu": 7097,
      "Ġuygulamalar": 7098,
      "Ġtoplumun": 7099,
      "Ġmevsim": 7100,
      "Ġlezzetli": 7101,
      "ayÄ±t": 7102,
      "Ġokumak": 7103,
      "cÄ±lÄ±ÄŁ": 7104,
      "ĠyaralÄ±": 7105,
      "ĠDeÄŁer": 7106,
      "oÅŁk": 7107,
      "ĠmÃ¼mkÃ¼ndÃ¼r": 7108,
      "Ġveriler": 7109,
      "larÄ±mÄ±": 7110,
      "Ä±llÄ±": 7111,
      "Ġalabilir": 7112,
      "ĠGez": 7113,
      "OD": 7114,
      "Ġrezervasyon": 7115,
      "Ġetmeyi": 7116,
      "ĠNeler": 7117,
      "Ġokuma": 7118,
      "ĠÃĸrg": 7119,
      "ĠolmanÄ±n": 7120,
      "ĠKÄ±lÄ±Ã§daroÄŁlu": 7121,
      "aborat": 7122,
      "ahh": 7123,
      "Ġdan": 7124,
      "ĠodasÄ±": 7125,
      "ĠKahraman": 7126,
      "Ġzinc": 7127,
      "Antalya": 7128,
      "Ã¢m": 7129,
      "ĠanlattÄ±": 7130,
      "Ġkaza": 7131,
      "rimenkul": 7132,
      "ĠfarklÄ±lÄ±k": 7133,
      "Ġpeyn": 7134,
      "ĠbÃ¼yÃ¼me": 7135,
      "ment": 7136,
      "ĠDaire": 7137,
      "ĠÃ§ey": 7138,
      "Ġves": 7139,
      "ld": 7140,
      "Ġdava": 7141,
      "ĠsunduÄŁu": 7142,
      "ĠyÄ±llarÄ±": 7143,
      "talyan": 7144,
      "Ġverdim": 7145,
      "Ġfelsef": 7146,
      "Sur": 7147,
      "irt": 7148,
      "lerindeki": 7149,
      "ĠdÃ¼zenlendi": 7150,
      "Ġderken": 7151,
      "ĠBe": 7152,
      "ĠGEL": 7153,
      "Ã¼rken": 7154,
      "MAD": 7155,
      "GenÃ§": 7156,
      "Ġanal": 7157,
      "ĠFen": 7158,
      "ĠbazÄ±larÄ±": 7159,
      "ĠNec": 7160,
      "Ġkonuyu": 7161,
      "ÅŁi": 7162,
      "ĠalmasÄ±": 7163,
      "ĠArkadaÅŁ": 7164,
      "UB": 7165,
      "emey": 7166,
      "ĠAil": 7167,
      "Ġfar": 7168,
      "Ġcem": 7169,
      "ĠTabii": 7170,
      "Ġdiyorum": 7171,
      "Ġuyku": 7172,
      "ĠmÃ¼r": 7173,
      "ĠRoma": 7174,
      "ĠBana": 7175,
      "ĠyÃ¶nÃ¼nde": 7176,
      "ĠhalkÄ±": 7177,
      "ĠgÃ¼": 7178,
      "Tarih": 7179,
      "ĠBM": 7180,
      "ÃĸL": 7181,
      "Ä°NDE": 7182,
      "ĠEscort": 7183,
      "ĠGÃ¼Ã§": 7184,
      "ĠSON": 7185,
      "Ġ33": 7186,
      "Ġfestival": 7187,
      "tÄ±ÄŁÄ±m": 7188,
      "ĠSP": 7189,
      "ĠmÃ¼s": 7190,
      "Ġoyunlar": 7191,
      "Ġetiket": 7192,
      "))": 7193,
      "ĠMakin": 7194,
      "str": 7195,
      "ĠyÃ¶r": 7196,
      "ĠPh": 7197,
      "orno": 7198,
      "ĠdeÄŁilim": 7199,
      "ĠÃ§alÄ±ÅŁÄ±r": 7200,
      "ĠvarlÄ±k": 7201,
      "Ã¼mrÃ¼k": 7202,
      "ĠAir": 7203,
      "ĠTanrÄ±": 7204,
      "ĠZira": 7205,
      "Ġtok": 7206,
      "Ġyetkili": 7207,
      "Ġolmuyor": 7208,
      "DÃ¼nyanÄ±n": 7209,
      "Ġinc": 7210,
      "Ġmerkezine": 7211,
      "TAL": 7212,
      "Ġailen": 7213,
      "Har": 7214,
      "ider": 7215,
      "lub": 7216,
      "Ġsez": 7217,
      "ĠmaÃ§ta": 7218,
      "Ġsavunma": 7219,
      "ĨĴ": 7220,
      "ĠÃĩay": 7221,
      "ĠKanunun": 7222,
      "ĠiÅŁletim": 7223,
      "Ġservisi": 7224,
      "ĠKÄ±sa": 7225,
      "Ġsaati": 7226,
      "Ġmeclis": 7227,
      "melidir": 7228,
      "ĠpiÅŁir": 7229,
      "ĠEL": 7230,
      "Ġbedel": 7231,
      "ledim": 7232,
      "ĠKaya": 7233,
      "Man": 7234,
      "ĠTok": 7235,
      "zan": 7236,
      "Ġolabilecek": 7237,
      "Ġhadis": 7238,
      "ĠrahatlÄ±kla": 7239,
      "Ġkurmak": 7240,
      "ĠolmadÄ±ÄŁ": 7241,
      "Ġbiliyorum": 7242,
      "Ġsigara": 7243,
      "lom": 7244,
      "Ġonur": 7245,
      "ĠSiyah": 7246,
      "Ġ2006": 7247,
      "ĠÃľstelik": 7248,
      "ĠsunmaktadÄ±r": 7249,
      "ĠnÃ¼fus": 7250,
      "FA": 7251,
      "stil": 7252,
      "âĢĶ": 7253,
      "ĠeÅŁliÄŁinde": 7254,
      "coin": 7255,
      "Ġaktivit": 7256,
      "Ġkalitesi": 7257,
      "Ä±ldÄ±ÄŁÄ±nda": 7258,
      "Ġsiteleri": 7259,
      "itler": 7260,
      "ĠsÄ±fÄ±r": 7261,
      "Ġtipi": 7262,
      "Ġikram": 7263,
      "ĠsÃ¼rece": 7264,
      "Ġhaberler": 7265,
      "ĠTedav": 7266,
      "ĠmÃ¼dahal": 7267,
      "Su": 7268,
      "ĠErzurum": 7269,
      "ĠNot": 7270,
      "Ġevlilik": 7271,
      "hab": 7272,
      "Ġlideri": 7273,
      "ĠHey": 7274,
      "Ġfatur": 7275,
      "medik": 7276,
      "\\\\": 7277,
      "ĠDublaj": 7278,
      "ĠyemeÄŁi": 7279,
      "ĠmaaÅŁ": 7280,
      "ĠBU": 7281,
      "Ġyorgun": 7282,
      "Ä±ÅŁlÄ±": 7283,
      ".(": 7284,
      "leyecek": 7285,
      "Ġdevletin": 7286,
      "Ä°ST": 7287,
      "Ġinceley": 7288,
      "St": 7289,
      "Ġdurumun": 7290,
      "ĠLondra": 7291,
      "Ġkilometre": 7292,
      "ĠSivas": 7293,
      "Ġyav": 7294,
      "ĠgÃ¶rÃ¼yoruz": 7295,
      "ĠKarar": 7296,
      "uÅŁu": 7297,
      "ĠdÃ¼k": 7298,
      "Ġnin": 7299,
      "MS": 7300,
      "ĠyapÄ±ldÄ±ÄŁÄ±": 7301,
      "Kim": 7302,
      "ĠKes": 7303,
      "ĠsÃ¼rÃ¼yor": 7304,
      "Ġetmez": 7305,
      "liyoruz": 7306,
      "ĠMahkemesi": 7307,
      "ĠhayatÄ±n": 7308,
      "ĠBileti": 7309,
      "Ġku": 7310,
      "ĠgÃ¼ney": 7311,
      "ĠgeÃ§ici": 7312,
      "CE": 7313,
      "abileceÄŁ": 7314,
      "utin": 7315,
      "leniyor": 7316,
      "ole": 7317,
      "Ġker": 7318,
      "ĠKÃ¶yÃ¼": 7319,
      "lÄ±lar": 7320,
      "Ġgelerek": 7321,
      "ĠcÃ¼ml": 7322,
      "Ġailesi": 7323,
      "ĠsÃ¶zleri": 7324,
      "tiÄŁim": 7325,
      "Ġhasar": 7326,
      "Ġbulan": 7327,
      "gÃ¼l": 7328,
      "Ġsevgili": 7329,
      "Ġyumurta": 7330,
      "Ġyedi": 7331,
      "Ã°": 7332,
      "ĠsÄ±nÄ±rlÄ±": 7333,
      "ĠÃĸyle": 7334,
      "iÅŁik": 7335,
      "sav": 7336,
      "42": 7337,
      "ĠMen": 7338,
      "ĠmantÄ±k": 7339,
      "unlar": 7340,
      "Kan": 7341,
      "ĠgÃ¼nah": 7342,
      "Ġbileti": 7343,
      "ĠkumaÅŁ": 7344,
      "Ġmedy": 7345,
      "ĠyÄ±la": 7346,
      "po": 7347,
      "ĠcanÄ±m": 7348,
      "Ãĸnceki": 7349,
      "Em": 7350,
      "esto": 7351,
      "Ġsitesinde": 7352,
      "Ġbekliyoruz": 7353,
      "ĠEÄŀÄ°TÄ°M": 7354,
      "api": 7355,
      "ĠÅŁunu": 7356,
      "ĠÃ¼retilen": 7357,
      "Ä±lmasÄ±nÄ±": 7358,
      "krayna": 7359,
      "ĠList": 7360,
      "Ã§Ä±n": 7361,
      "Ġgalibiyet": 7362,
      "Ġegzersiz": 7363,
      "Rusya": 7364,
      "ĠbÃ¶yl": 7365,
      "kor": 7366,
      "ĠcanlandÄ±r": 7367,
      "Ġkred": 7368,
      "Ä±lmaktadÄ±r": 7369,
      "Ġbireysel": 7370,
      "mini": 7371,
      "ebze": 7372,
      "ĠgÃ¼nleri": 7373,
      "Eski": 7374,
      "ĠolduÄŁunda": 7375,
      "Ġkazanmak": 7376,
      "ame": 7377,
      "ĠfÄ±k": 7378,
      "ĠyÃ¼zlerce": 7379,
      "ĠÃ§Ã¶k": 7380,
      "cÄ±k": 7381,
      "Ä°ki": 7382,
      "ĠArabistan": 7383,
      "ĠDenizli": 7384,
      "lÄ±yorum": 7385,
      "Ġdalg": 7386,
      "ĠSalonu": 7387,
      "tÄ±cÄ±": 7388,
      "ÄŀI": 7389,
      "ĠBÃ¼l": 7390,
      "inizden": 7391,
      "ĠBarÄ±ÅŁ": 7392,
      "Ġcas": 7393,
      "ĠTUR": 7394,
      "ĠaÃ§tÄ±": 7395,
      "ĠEc": 7396,
      "Ġ39": 7397,
      "ilerinden": 7398,
      "ĠBunlarÄ±n": 7399,
      "ĠinanÃ§": 7400,
      "lip": 7401,
      "aze": 7402,
      "ĠgelmiÅŁtir": 7403,
      "Ã¼tÃ¼phan": 7404,
      "ĠDetay": 7405,
      "Ġinsana": 7406,
      "ĠMesaj": 7407,
      "Ġsayg": 7408,
      "engiz": 7409,
      "ĠzamanlÄ±": 7410,
      "ĠanlatÄ±yor": 7411,
      "veya": 7412,
      "iplin": 7413,
      "ĠaÅŁkÄ±n": 7414,
      "ĠDalÄ±": 7415,
      "cÃ¼sÃ¼": 7416,
      "portaj": 7417,
      "ĠÃ¶ncelik": 7418,
      "ĠHindistan": 7419,
      "Ġgelmektedir": 7420,
      "ĠGe": 7421,
      "Ġgeril": 7422,
      "Ġalkol": 7423,
      "Ġtemas": 7424,
      "ĠolmamasÄ±": 7425,
      "ĠolayÄ±": 7426,
      "ĠSch": 7427,
      "ĠdoÄŁa": 7428,
      "ĠsÄ±ÄŁÄ±n": 7429,
      "poz": 7430,
      "Ġmir": 7431,
      "Ġgram": 7432,
      "ĠyolculuÄŁ": 7433,
      "ĠadÄ±yla": 7434,
      "ĠyapmasÄ±": 7435,
      "ĠkÄ±ymet": 7436,
      "rid": 7437,
      "ĠPAR": 7438,
      "ĠdaÄŁÄ±": 7439,
      "ĠUzman": 7440,
      "Ġtepk": 7441,
      "ĠbaÅŁladÄ±m": 7442,
      "ĠsÄ±z": 7443,
      "ĠKadÄ±nlar": 7444,
      "ĠÃ¼stÃ¼": 7445,
      "ĠTut": 7446,
      "Ġistis": 7447,
      "GB": 7448,
      "Ġonunla": 7449,
      "ilmesini": 7450,
      "ĠBakÄ±m": 7451,
      "lobal": 7452,
      "Ġyetersiz": 7453,
      "ĠÃ¶ÄŁrencilere": 7454,
      "Osman": 7455,
      "ĠBahÃ§eli": 7456,
      "Ġ1000": 7457,
      "Ġbenden": 7458,
      "diy": 7459,
      "Sin": 7460,
      "ks": 7461,
      "Ġbet": 7462,
      "ĠTÃ¼r": 7463,
      "ĠkÄ±sÄ±t": 7464,
      "Ġmetin": 7465,
      "ĠTBMM": 7466,
      "Ġalana": 7467,
      "yim": 7468,
      "Ġtap": 7469,
      "KÄ±r": 7470,
      "Ġbahar": 7471,
      "ĠyaralandÄ±": 7472,
      "ĠMÃ¼cad": 7473,
      "ersiniz": 7474,
      "Ġverilmesi": 7475,
      "Ġvefat": 7476,
      "Ġmay": 7477,
      "Ġavukat": 7478,
      "ediÄŁim": 7479,
      "ijinal": 7480,
      "ĠÃ§alÄ±ÅŁmalarÄ±na": 7481,
      "Hz": 7482,
      "AÃ§Ä±k": 7483,
      "Ġgazetec": 7484,
      "ĠlÃ¼ks": 7485,
      "Ġkonuya": 7486,
      "pe": 7487,
      "iyorsunuz": 7488,
      "OÄŀLU": 7489,
      "ĠgÃ¶m": 7490,
      "Ġpsikolojik": 7491,
      "ĠbuluÅŁtur": 7492,
      "Ġemekli": 7493,
      "Has": 7494,
      "ĠyoÄŁ": 7495,
      "ANBUL": 7496,
      "ĠÃ¶nemi": 7497,
      "Ġbilgilere": 7498,
      "ĠOrhan": 7499,
      "andevu": 7500,
      "Ġpotansiyel": 7501,
      "Ġente": 7502,
      "ĠgerÃ§ekleÅŁtirildi": 7503,
      "DIR": 7504,
      "ĠeÅŁlik": 7505,
      "ux": 7506,
      "ĠForm": 7507,
      "ĠMalatya": 7508,
      "aÄŁÄ±nÄ±n": 7509,
      "ĠaltÄ±nÄ±": 7510,
      "Ġsesi": 7511,
      "ĠÃ§apÄ±nda": 7512,
      "ĠarkadaÅŁÄ±": 7513,
      "malarÄ±n": 7514,
      "ĠiÃ§inden": 7515,
      "ĠOper": 7516,
      "Ã¼rriyet": 7517,
      "ĠkiÅŁiyi": 7518,
      "Ġsorular": 7519,
      "iraat": 7520,
      "Ġpazarlama": 7521,
      "tikten": 7522,
      "ĠTesis": 7523,
      "ĠKonseyi": 7524,
      "Ä±bbi": 7525,
      "ĠPara": 7526,
      "Ġkonular": 7527,
      "ĠyakÄ±ÅŁ": 7528,
      "oma": 7529,
      "tuÄŁu": 7530,
      "ĠGÃ¶rev": 7531,
      "ĠGiz": 7532,
      "ĠkaÄŁÄ±t": 7533,
      "Ġbulur": 7534,
      "ĠOyunu": 7535,
      "Ġbiliyoruz": 7536,
      "ĠMÃ¼dÃ¼rlÃ¼ÄŁ": 7537,
      "avuÅŁ": 7538,
      "lex": 7539,
      "ĠiyileÅŁtir": 7540,
      "Ġcennet": 7541,
      "ĠÃ¼rÃ¼nlerin": 7542,
      "Ġorganize": 7543,
      "ĠÃĩÃ¶z": 7544,
      "Ġinceleme": 7545,
      "ĠKoc": 7546,
      "ĠYatÄ±rÄ±m": 7547,
      "Ġsigort": 7548,
      "Ġvah": 7549,
      "ĠMetin": 7550,
      "Ġpiyasaya": 7551,
      "ĠdÃ¼r": 7552,
      "ĠsahipliÄŁi": 7553,
      "ĠarasÄ±ndan": 7554,
      "tre": 7555,
      "ĠBlog": 7556,
      "Ġplana": 7557,
      "ĠsÃ¼reli": 7558,
      "muÅŁtu": 7559,
      "lÄ±ca": 7560,
      "balaj": 7561,
      "UY": 7562,
      "Ġannesi": 7563,
      "malÄ±sÄ±nÄ±z": 7564,
      "Ġgrafik": 7565,
      "Ġtaze": 7566,
      "ĠKaymakam": 7567,
      "ĠÃ¼creti": 7568,
      "ĠÄ°lgili": 7569,
      "Ġpeygamber": 7570,
      "ĠhayatÄ±na": 7571,
      "ĠMag": 7572,
      "ĠMarmara": 7573,
      "unus": 7574,
      "Ġaran": 7575,
      "ektif": 7576,
      "ĠtaÅŁÄ±mak": 7577,
      "Ä±yorsunuz": 7578,
      "Ġmasa": 7579,
      "ĠÃ¶mr": 7580,
      "Ġgidecek": 7581,
      "Ġanlamak": 7582,
      "Ġbitki": 7583,
      "eÄŁinde": 7584,
      "leket": 7585,
      "Ġgib": 7586,
      "ĠâĢ¢": 7587,
      "ĠiÃ§eriÄŁ": 7588,
      "utma": 7589,
      "madÄ±m": 7590,
      "burg": 7591,
      "edava": 7592,
      "ĠÃĸnce": 7593,
      "ĠHemen": 7594,
      "ĠHaklarÄ±": 7595,
      "anta": 7596,
      "Ġdernek": 7597,
      "ĠendiÅŁ": 7598,
      "Ġmilletvekili": 7599,
      "dil": 7600,
      "tadoÄŁu": 7601,
      "ĠMERKEZ": 7602,
      "iyanet": 7603,
      "umuzu": 7604,
      "Ġdenet": 7605,
      "Mil": 7606,
      "landÄ±ÄŁÄ±": 7607,
      "iden": 7608,
      "eryal": 7609,
      "kas": 7610,
      "dirne": 7611,
      "Ġsanal": 7612,
      "IC": 7613,
      "Ġedici": 7614,
      "melerin": 7615,
      "Ġfin": 7616,
      "ĠMÃ¼hendisliÄŁi": 7617,
      "Af": 7618,
      "oks": 7619,
      "je": 7620,
      "AÃĩ": 7621,
      "ĠHangi": 7622,
      "Ġbe": 7623,
      "ĠHastalÄ±k": 7624,
      "ĠyÃ¼zey": 7625,
      "ĠinÅŁallah": 7626,
      "Ġderi": 7627,
      "ĠbaÅŁkenti": 7628,
      "ĠGÃ¼mÃ¼ÅŁ": 7629,
      "ĠeÅŁsiz": 7630,
      "bo": 7631,
      "Sab": 7632,
      "Ġolaylar": 7633,
      "Ġistey": 7634,
      "ceÄŁi": 7635,
      "Ġsemin": 7636,
      "ĠsÃ¼rÃ¼m": 7637,
      "ĠÃ¶zgÃ¼rlÃ¼k": 7638,
      "ĠKomisyonu": 7639,
      "baycan": 7640,
      "Ġbez": 7641,
      "AA": 7642,
      "43": 7643,
      "ĠYayÄ±nlarÄ±": 7644,
      "Ġtehlikeli": 7645,
      "Ġnem": 7646,
      "kz": 7647,
      "emem": 7648,
      "mÄ±": 7649,
      "ĠgÃ¶rmÃ¼ÅŁ": 7650,
      "ĠsektÃ¶rÃ¼": 7651,
      "Ã©": 7652,
      "YÃ¼k": 7653,
      "Ä±nma": 7654,
      "errahi": 7655,
      "larken": 7656,
      "ĠMAH": 7657,
      "ucusu": 7658,
      "Mal": 7659,
      "ĠSakarya": 7660,
      "Ġtalim": 7661,
      "ĠdÃ¼zenlenecek": 7662,
      "TÃľRK": 7663,
      "ĠkatkÄ±da": 7664,
      "Ġsilin": 7665,
      "Uzun": 7666,
      "ĠbirliÄŁi": 7667,
      "Ġziy": 7668,
      "Ġbina": 7669,
      "mediÄŁi": 7670,
      "ĠkeÅŁfet": 7671,
      "ĠpaylaÅŁmak": 7672,
      "Ġolmayacak": 7673,
      "ĠtarzÄ±": 7674,
      "Ġvade": 7675,
      "DiÄŁer": 7676,
      "Ä°LÄ°": 7677,
      "ĠÃ§aÄŁrÄ±": 7678,
      "!..": 7679,
      "Google": 7680,
      "lÄ±lÄ±ÄŁ": 7681,
      "ĠbaktÄ±ÄŁ": 7682,
      "ĠiÃ§ecek": 7683,
      "Ġtavsiy": 7684,
      "ĠtÃ¼ketim": 7685,
      "ilerde": 7686,
      "ayol": 7687,
      "bas": 7688,
      "ĠyÄ±lÄ±na": 7689,
      "ĠÃ§izgi": 7690,
      "Ġbirine": 7691,
      "ĠDoÄŁru": 7692,
      "Ġzemin": 7693,
      "Ġkodu": 7694,
      "ĠDoÄŁal": 7695,
      "ĠKongresi": 7696,
      "sÄ±zÄ±n": 7697,
      "ĠSn": 7698,
      "ĠLTD": 7699,
      "mus": 7700,
      "ĠmaÄŁdur": 7701,
      "ĠÃ§alÄ±ÅŁÄ±yoruz": 7702,
      "Ġtarihinden": 7703,
      "ĠyumuÅŁak": 7704,
      "orlu": 7705,
      "Ä°yi": 7706,
      "GS": 7707,
      "41": 7708,
      "leÄŁ": 7709,
      "tiÄŁinde": 7710,
      "ĠModelleri": 7711,
      "Ġmuhaf": 7712,
      "Ġcesaret": 7713,
      "ĠDoÄŁum": 7714,
      "Ġyur": 7715,
      "eleriyle": 7716,
      "ĠAdÄ±": 7717,
      "Ġyal": 7718,
      "Ġtaban": 7719,
      "ĠCep": 7720,
      "ĠkaranlÄ±k": 7721,
      "cÄ±lÄ±ÄŁÄ±": 7722,
      "ĠNO": 7723,
      "ĠdÃ¼ÅŁÃ¼nÃ¼r": 7724,
      "Ä°st": 7725,
      "Ġ120": 7726,
      "tÄ±ktan": 7727,
      "ĠbÃ¼yÃ¼y": 7728,
      "Ġkategorisinde": 7729,
      "Ġkonaklama": 7730,
      "ĠgeldiÄŁinde": 7731,
      "ĠkÄ±v": 7732,
      "ĠaÃ§Ä±klandÄ±": 7733,
      "ĠkÃ¢": 7734,
      "ĠinanÄ±lmaz": 7735,
      "ĠkalabalÄ±k": 7736,
      "Ġpm": 7737,
      "ĠPak": 7738,
      "ĠyÃ¶nde": 7739,
      "ĠyaÄŁÄ±": 7740,
      "Ġ06": 7741,
      "laÃ§": 7742,
      "Ġelbis": 7743,
      "Ġgecik": 7744,
      "Mes": 7745,
      "ĠTemsil": 7746,
      "KARA": 7747,
      "Ġtaraftan": 7748,
      "iÅŁli": 7749,
      "ĠeÄŁlence": 7750,
      "Ġbelirlenen": 7751,
      "ĠEmek": 7752,
      "ĠKud": 7753,
      "Ġbeyan": 7754,
      "Ġhalka": 7755,
      "ĠGEN": 7756,
      "duktan": 7757,
      "Ġnih": 7758,
      "Ġmalzemeleri": 7759,
      "ĠalmÄ±ÅŁtÄ±r": 7760,
      "ĠalÄ±rken": 7761,
      "stra": 7762,
      "ĠkapsamlÄ±": 7763,
      "ĠoluÅŁturmak": 7764,
      "Ä±lÄ±ÅŁ": 7765,
      "Ġkonferans": 7766,
      "ĠYay": 7767,
      "ĠBet": 7768,
      "ĠDi": 7769,
      "Ġsahil": 7770,
      "ĠðŁĺ": 7771,
      "diven": 7772,
      "ĠHABER": 7773,
      "Ġtraf": 7774,
      "ĠGol": 7775,
      "ĠâĢĺâĢĻ": 7776,
      "ĠolmuÅŁtu": 7777,
      "Ã§ek": 7778,
      "ĠâĨĴ": 7779,
      "Ġolsay": 7780,
      "ĠtoplantÄ±sÄ±": 7781,
      "ĠAdet": 7782,
      "ĠbakÄ±n": 7783,
      "ĠfarkÄ±nda": 7784,
      "ĠsÃ¼recinde": 7785,
      "ĠgÃ¶rÃ¼ntÃ¼l": 7786,
      "tral": 7787,
      "ĠHayÄ±r": 7788,
      "Ġuzay": 7789,
      "ĠdoÄŁrul": 7790,
      "Ġrob": 7791,
      "Ã¶reni": 7792,
      "lasyon": 7793,
      "ĠVER": 7794,
      "Ġbelgesi": 7795,
      "ĠdeÄŁerlendirme": 7796,
      "Ã¼kleer": 7797,
      "Ġincelen": 7798,
      "ĠgerekÃ§": 7799,
      "Ġgeldik": 7800,
      "Ä±ldÄ±ÄŁÄ±nÄ±": 7801,
      "Ġteor": 7802,
      "ĠdÃ¼ÅŁÃ¼ÅŁ": 7803,
      "HA": 7804,
      "lukla": 7805,
      "ĠLev": 7806,
      "Ġkalacak": 7807,
      "ĠUÄŁur": 7808,
      "ĠBununla": 7809,
      "Ġnelerdir": 7810,
      "BaÅŁkan": 7811,
      "LÃľ": 7812,
      "ĠDÃ¼nyanÄ±n": 7813,
      "pat": 7814,
      "Ġmanzar": 7815,
      "ĠPek": 7816,
      "liÄŁiyle": 7817,
      "Ġkurban": 7818,
      "Ġyerleri": 7819,
      "ĠSonr": 7820,
      "hats": 7821,
      "ĠTatil": 7822,
      "Ġhizmetler": 7823,
      "Ġsunar": 7824,
      "Ġpaz": 7825,
      "abak": 7826,
      "ĠyapÄ±lmaktadÄ±r": 7827,
      "gazi": 7828,
      "ĠHDP": 7829,
      "Ã¼nce": 7830,
      "ish": 7831,
      "Ġusul": 7832,
      "Ã¢t": 7833,
      "Ġgetiriyor": 7834,
      "Ġhizmete": 7835,
      "ĠKer": 7836,
      "ekom": 7837,
      "Ã¶rf": 7838,
      "ĠsÄ±rt": 7839,
      "Ġduygusal": 7840,
      "Ġkampanya": 7841,
      "ĠzamandÄ±r": 7842,
      "epe": 7843,
      "Ġsik": 7844,
      "ĠUzmanÄ±": 7845,
      "ĠGeliÅŁtir": 7846,
      "Ġakr": 7847,
      "madÄ±k": 7848,
      "ĠBEL": 7849,
      "Ġtarihine": 7850,
      "Ġno": 7851,
      "Ġmuay": 7852,
      "Bay": 7853,
      "ĠsÃ¼rÃ¼cÃ¼": 7854,
      "ĠMi": 7855,
      "ĠNakliyat": 7856,
      "ĠBaÅŁvuru": 7857,
      "ĠyayÄ±nlandÄ±": 7858,
      "ĠSistemleri": 7859,
      "ĠÃ¼zeri": 7860,
      "ĠgeÃ§irmek": 7861,
      "ĠAdalet": 7862,
      "Ġerkekler": 7863,
      "Ter": 7864,
      "ĠboÄŁ": 7865,
      "ĠÃĩak": 7866,
      "ĠÅŁimdiden": 7867,
      "ĠDaÄŁ": 7868,
      "Hayat": 7869,
      "INA": 7870,
      "Ġnetic": 7871,
      "uel": 7872,
      "ĠAlÄ±ÅŁ": 7873,
      "itika": 7874,
      "kili": 7875,
      "2011": 7876,
      "ĠhaklÄ±": 7877,
      "ĠseÃ§imi": 7878,
      "ebilirim": 7879,
      "Ġaksesuar": 7880,
      "Ġ2005": 7881,
      "ĠÃĸdÃ¼lÃ¼": 7882,
      "Dem": 7883,
      "isindeki": 7884,
      "ĠgerÃ§ekleÅŁti": 7885,
      "Ġeklem": 7886,
      "viÃ§": 7887,
      "ĠBilimleri": 7888,
      "ĠKonu": 7889,
      "ĠBo": 7890,
      "Ġmevzu": 7891,
      "ĠbaÅŁarÄ±lar": 7892,
      "ilmesine": 7893,
      "Ġmakinesi": 7894,
      "Ġkalmak": 7895,
      "Ġkaybeden": 7896,
      "Ġevi": 7897,
      "ĠodaklÄ±": 7898,
      "ĠAnne": 7899,
      "ĠimkÃ¢n": 7900,
      "Ġaral": 7901,
      "Ġtl": 7902,
      "Ġmim": 7903,
      "AYA": 7904,
      "alel": 7905,
      "ĠSim": 7906,
      "ĠJohn": 7907,
      "ste": 7908,
      "ĠÅŁarj": 7909,
      "Ġ00": 7910,
      "ĠFull": 7911,
      "Ġolurdu": 7912,
      "itasyon": 7913,
      "itif": 7914,
      "ĠkaybÄ±": 7915,
      "Ġslog": 7916,
      "edeniyet": 7917,
      "Ġakademik": 7918,
      "Â±": 7919,
      "ĠLÃ¼t": 7920,
      "ĠDikkat": 7921,
      "ĠeÅŁya": 7922,
      "nÃ¼": 7923,
      "Ġoranda": 7924,
      "Ä°STAN": 7925,
      "Ġihtimal": 7926,
      "ĠSavunma": 7927,
      "ĠhakkÄ±nÄ±": 7928,
      "Ġsof": 7929,
      "ĠOysa": 7930,
      "ĠAp": 7931,
      "ĠhariÃ§": 7932,
      "ayolu": 7933,
      "ĠRuh": 7934,
      "ech": 7935,
      "Ġseri": 7936,
      "Ġdosya": 7937,
      "57": 7938,
      "ĠbaÄŁlam": 7939,
      "ĠarasÄ±na": 7940,
      "ĠSezon": 7941,
      "ĠÃ§elik": 7942,
      "Ġtopr": 7943,
      "ĠGec": 7944,
      "ĠÄ°spanya": 7945,
      "ĠEfend": 7946,
      "ĠBAK": 7947,
      "ĠolmalarÄ±": 7948,
      "Ġto": 7949,
      "atlar": 7950,
      "Ġcaz": 7951,
      "amÄ±yorum": 7952,
      "ĠkullanÄ±lmasÄ±": 7953,
      "Ġuygulanan": 7954,
      "dular": 7955,
      "elle": 7956,
      "ayas": 7957,
      "ĠHac": 7958,
      "PG": 7959,
      "ĠAnd": 7960,
      "EÄŁitim": 7961,
      "ĠarkadaÅŁÄ±m": 7962,
      "ect": 7963,
      "ĠdÃ¶ndÃ¼": 7964,
      "Ä±nan": 7965,
      "ĠRehberi": 7966,
      "Ġsanay": 7967,
      "ĠunutmayÄ±n": 7968,
      "memesi": 7969,
      "ĠST": 7970,
      "Hat": 7971,
      "Ġbomb": 7972,
      "Ġikili": 7973,
      "ĠsoruÅŁturma": 7974,
      "Ġdaire": 7975,
      "Ġlistesi": 7976,
      "ua": 7977,
      "Ġsisteminin": 7978,
      "Ab": 7979,
      "Ġekonomi": 7980,
      "Ġsitemiz": 7981,
      "Ġkonse": 7982,
      "SP": 7983,
      "ĠHarek": 7984,
      "Ġkarbon": 7985,
      "ĠKontrol": 7986,
      "ĠOrtak": 7987,
      "ĠaÄŁÄ±z": 7988,
      "DeÄŁ": 7989,
      "ano": 7990,
      "lamalar": 7991,
      "ĠÃ¼s": 7992,
      "ĠkÄ±rÄ±k": 7993,
      "ĠTim": 7994,
      "jen": 7995,
      "Ġhangisi": 7996,
      "ĠgeliÅŁme": 7997,
      "Ä±sÄ±n": 7998,
      "ĠÃ§ocuklara": 7999,
      "Ġkilit": 8000,
      "anbul": 8001,
      "raz": 8002,
      "iyeli": 8003,
      "Ġahlak": 8004,
      "Ġekipman": 8005,
      "Ġemniyet": 8006,
      "ĠDal": 8007,
      "Ġmezar": 8008,
      "ĠsÃ¼n": 8009,
      "Ġmanevi": 8010,
      "ĠDÃ¶nem": 8011,
      "Ġkomut": 8012,
      "Ġiklim": 8013,
      "59": 8014,
      "Ġyorumlar": 8015,
      "Ġmasraf": 8016,
      "Ġayakta": 8017,
      "oruma": 8018,
      "Ġkral": 8019,
      "Ġkrem": 8020,
      "Ġtarifi": 8021,
      "gut": 8022,
      "kÄ±rÄ±": 8023,
      "Ġderg": 8024,
      "ĠgÃ¶stermek": 8025,
      "enize": 8026,
      "Ġbizler": 8027,
      "melerini": 8028,
      "GÃ¼zel": 8029,
      "Ġbildirdi": 8030,
      "Ġmedyada": 8031,
      "Ġetmeniz": 8032,
      "ĠZeytin": 8033,
      "itÃ¶r": 8034,
      "ĠkullanÄ±c": 8035,
      "IP": 8036,
      "ĠKazan": 8037,
      "yol": 8038,
      "ĠMor": 8039,
      "dÄ±lar": 8040,
      "ĠÄ±sÄ±": 8041,
      "kaya": 8042,
      "ĠSAY": 8043,
      "orld": 8044,
      "Ġedebil": 8045,
      "ĠCo": 8046,
      "iner": 8047,
      "Ġistanbul": 8048,
      "Ġbekleyen": 8049,
      "Ġasit": 8050,
      "ĠulaÅŁtÄ±": 8051,
      "ektaÅŁ": 8052,
      "Ġhatt": 8053,
      "ĠgÃ¶stermektedir": 8054,
      "mes": 8055,
      "Ġsizden": 8056,
      "Ġenfeksiyon": 8057,
      "ĠgÃ¼nÃ¼nde": 8058,
      "mÄ±yorum": 8059,
      "ĠSuudi": 8060,
      "GerÃ§": 8061,
      "Ġtutk": 8062,
      "Ġdeplasman": 8063,
      "Ġdenir": 8064,
      "ĠIÅŀ": 8065,
      "ÃľrÃ¼n": 8066,
      "ĠgerÃ§ekleÅŁtirilecek": 8067,
      "68": 8068,
      "Ġprens": 8069,
      "simum": 8070,
      "ĠFilmi": 8071,
      "Ġdevreye": 8072,
      "Ġkemik": 8073,
      "ĠSilah": 8074,
      "Ġayet": 8075,
      "ĠKÄ±ÅŁ": 8076,
      "ĠSabah": 8077,
      "Ġliste": 8078,
      "SÄ°": 8079,
      "lÄ±yoruz": 8080,
      "osiklet": 8081,
      "Ġizlemek": 8082,
      "Ġ07": 8083,
      "Net": 8084,
      "ĠendÃ¼str": 8085,
      "ahil": 8086,
      "cuz": 8087,
      "Ã¼nÃ¼r": 8088,
      "cal": 8089,
      "Ġhekim": 8090,
      "ĠUlu": 8091,
      "ike": 8092,
      "ĠÄ°nce": 8093,
      "ĠgeliÅŁtirme": 8094,
      "ÅŁet": 8095,
      "ĠBilimler": 8096,
      "Ġvel": 8097,
      "Ġikin": 8098,
      "lerimi": 8099,
      "ĠgeldiÄŁ": 8100,
      "Ġettikleri": 8101,
      "Ġitiraz": 8102,
      "Ġgaranti": 8103,
      "ĠbaÅŁladÄ±ÄŁÄ±": 8104,
      "ĠolasÄ±": 8105,
      "Milli": 8106,
      "ĠÄ°STANBUL": 8107,
      "Ġ47": 8108,
      "ĠÃĸN": 8109,
      "ĠUY": 8110,
      "Ã§Ä±lÄ±k": 8111,
      "ĠBes": 8112,
      "YÄ°": 8113,
      "ĠyaptÄ±ÄŁÄ±nÄ±": 8114,
      "Ġedenler": 8115,
      "Ġestetik": 8116,
      "ĠArdÄ±ndan": 8117,
      "Ġ600": 8118,
      "Ġkarm": 8119,
      "Ġaksine": 8120,
      "melik": 8121,
      "ĠKonuÅŁ": 8122,
      "Ãĸr": 8123,
      "Ġikisi": 8124,
      "Ġstres": 8125,
      "ĠRas": 8126,
      "ĠTamam": 8127,
      "Ġteknolojik": 8128,
      "Ã»l": 8129,
      "ĠSorum": 8130,
      "ĠDiÅŁ": 8131,
      "!\"": 8132,
      "ĠMek": 8133,
      "Kap": 8134,
      "Ġolmazsa": 8135,
      "ĠÅŁahÄ±s": 8136,
      "Ġkafa": 8137,
      "Ġkonulu": 8138,
      "iliÄŁini": 8139,
      "Ġkamyon": 8140,
      "Ġverin": 8141,
      "ĠkaÃ§ak": 8142,
      "ĠvatandaÅŁlar": 8143,
      "eyt": 8144,
      "DV": 8145,
      "ĠPlatform": 8146,
      "Ġstat": 8147,
      "isti": 8148,
      "ruk": 8149,
      "ĠilÃ§esi": 8150,
      "Ġevren": 8151,
      "ĠTic": 8152,
      "ĠdayalÄ±": 8153,
      "ACAK": 8154,
      "ĠgeliÅŁen": 8155,
      "umuza": 8156,
      "ĠJaponya": 8157,
      "ĠtaÅŁÄ±yor": 8158,
      "ĠdolarlÄ±k": 8159,
      "Ġtarihlerinde": 8160,
      "andum": 8161,
      "Ġlay": 8162,
      "Ġpor": 8163,
      "Ġrekor": 8164,
      "mamaktadÄ±r": 8165,
      "ĠSAT": 8166,
      "Ġbozul": 8167,
      "cusu": 8168,
      "Ġaraz": 8169,
      "Ġdizisi": 8170,
      "ĠOldu": 8171,
      "ĠÄ°lÃ§": 8172,
      "Ġmektup": 8173,
      "desi": 8174,
      "ĠHareket": 8175,
      "Ol": 8176,
      "Ġoynanan": 8177,
      "ĠalakalÄ±": 8178,
      "Ġrom": 8179,
      "ĠKelim": 8180,
      "ĠYolu": 8181,
      "ĠyaÅŁamÄ±nÄ±": 8182,
      "ĠyakÄ±t": 8183,
      "ĠHes": 8184,
      "hiÅŁ": 8185,
      "SÃ¶z": 8186,
      "Ġkons": 8187,
      "ĠkÄ±yas": 8188,
      "ĠBaÅŁar": 8189,
      "ĠMir": 8190,
      "lanarak": 8191,
      "ĠÃ§ekmek": 8192,
      "ĠIÅŁÄ±k": 8193,
      "ĠBÃ¼yÃ¼kel": 8194,
      "2019": 8195,
      "Ġ03": 8196,
      "Devlet": 8197,
      "58": 8198,
      "Ġevine": 8199,
      "ĠAÅŁaÄŁÄ±": 8200,
      "ĠÃ§Ä±ktÄ±ÄŁÄ±": 8201,
      "ĠÃ¼stlen": 8202,
      "Ġsembol": 8203,
      "ĠBoÄŁaz": 8204,
      "Ġbulut": 8205,
      "ĠkulÃ¼b": 8206,
      "ĠyazarÄ±": 8207,
      "ĠgeliÅŁtirmek": 8208,
      "ĠtuÅŁ": 8209,
      "ĠmÃ¼n": 8210,
      "gari": 8211,
      "ĠCevap": 8212,
      "Ġtrend": 8213,
      "Ä°NÄ°": 8214,
      "Ġmikro": 8215,
      "Ġbildirildi": 8216,
      "Ġbunlara": 8217,
      "BaÅŁbakan": 8218,
      "ĠalÄ±nÄ±r": 8219,
      "Ġdeneyimi": 8220,
      "tÄ±ÄŁÄ±nÄ±z": 8221,
      "has": 8222,
      "ĠgÃ¶rÃ¼nce": 8223,
      "ĠrahatsÄ±zlÄ±k": 8224,
      "BA": 8225,
      "ĠOda": 8226,
      "ĠAÄŁÄ±r": 8227,
      "ĠYapÄ±lÄ±r": 8228,
      "ĠsÄ±kÄ±": 8229,
      "Ġkov": 8230,
      "Ġmuhalef": 8231,
      "GÄ°": 8232,
      "ĠtanÄ±k": 8233,
      "emiyorum": 8234,
      "ĠdÃ¼ÅŁÃ¼ndÃ¼ÄŁ": 8235,
      "ĠtoplantÄ±sÄ±nda": 8236,
      "ĠgÃ¶rdÃ¼ÄŁÃ¼": 8237,
      "ĠHollanda": 8238,
      "sÃ¼": 8239,
      "erif": 8240,
      "ĠDevleti": 8241,
      "Ġkabil": 8242,
      "ĠmarkasÄ±": 8243,
      "ĠHafta": 8244,
      "ĠPa": 8245,
      "ĠgetirdiÄŁi": 8246,
      "Ġbardak": 8247,
      "emiyor": 8248,
      "Ġzehir": 8249,
      "ĠayrÄ±ntÄ±": 8250,
      "Ġriv": 8251,
      "Ġisimler": 8252,
      "cell": 8253,
      "ĠdÃ¶nemin": 8254,
      "ĠkatÄ±": 8255,
      "Ġverdik": 8256,
      "iski": 8257,
      "Ġvitamin": 8258,
      "uda": 8259,
      "Ġmutf": 8260,
      "BeÅŁiktaÅŁ": 8261,
      "Ġcevab": 8262,
      "ĠToto": 8263,
      "Ġ$": 8264,
      "Ġtutmak": 8265,
      "ĠSol": 8266,
      "ĠDEÄŀ": 8267,
      "GE": 8268,
      "Ġturnuv": 8269,
      "ĠgeleceÄŁi": 8270,
      "Ġpost": 8271,
      "oper": 8272,
      "Ġprotokol": 8273,
      "Ġkiralama": 8274,
      "ĠarÄ±yor": 8275,
      "Ġsistemini": 8276,
      "ĠDef": 8277,
      "memek": 8278,
      "ĠTor": 8279,
      "Adres": 8280,
      "ĠkÃ¼Ã§": 8281,
      "suzluk": 8282,
      "ĠValisi": 8283,
      "Okul": 8284,
      "ĠfazlasÄ±": 8285,
      "ĠKAD": 8286,
      "onik": 8287,
      "ocuÄŁ": 8288,
      "ĠÃ§abuk": 8289,
      "Am": 8290,
      "ĠYavuz": 8291,
      "Ġbizleri": 8292,
      "lit": 8293,
      "ĠÅŁirketin": 8294,
      "Ġprotein": 8295,
      "!!!": 8296,
      "imet": 8297,
      "azÄ±ÄŁ": 8298,
      "iÅŁan": 8299,
      "67": 8300,
      "ĠGB": 8301,
      "ĠalÄ±narak": 8302,
      "ilerle": 8303,
      "ĠHÄ±r": 8304,
      "ĠSizin": 8305,
      "ĠbÄ±": 8306,
      "Ġtoh": 8307,
      "ĠVen": 8308,
      "app": 8309,
      "Ġmit": 8310,
      "Ġbekliyorum": 8311,
      "ĠdÃ¶": 8312,
      "ĠsÄ±kÄ±nt": 8313,
      "ĠÃ¼lkelerin": 8314,
      "Ġvitamini": 8315,
      "Ġetken": 8316,
      "ĠÄ°slÃ¢m": 8317,
      "ĠoluÅŁturan": 8318,
      "ĠÃ§Ä±kÄ±p": 8319,
      "Ġsertifik": 8320,
      "ĠJo": 8321,
      "ĠkullanÄ±yor": 8322,
      "ĠTeÅŁekkÃ¼r": 8323,
      "ĠarkasÄ±nda": 8324,
      "ĠÃ¶nemlisi": 8325,
      "ekte": 8326,
      "ĠÃ¶zgÃ¼": 8327,
      "Kah": 8328,
      "ĠkÃ¶p": 8329,
      "lon": 8330,
      "ĠakÄ±ÅŁ": 8331,
      "atlÄ±": 8332,
      "ĠÄ°sk": 8333,
      "ĠMel": 8334,
      "atlarÄ±": 8335,
      "ĠÅŁok": 8336,
      "lidir": 8337,
      "ĠsanatÃ§": 8338,
      "ĠÃĸÄŀ": 8339,
      "linik": 8340,
      "ĠdÄ±ÅŁÄ±na": 8341,
      "ĠMaÄŁ": 8342,
      "ĠgeniÅŁlet": 8343,
      "amÄ±n": 8344,
      "ĠTEM": 8345,
      "Â°": 8346,
      "bÃ¼s": 8347,
      "larÄ±mÄ±zla": 8348,
      "dÄ±ÅŁÄ±": 8349,
      "tiÄŁiniz": 8350,
      "Ali": 8351,
      "ĠÃĸÄŁrenci": 8352,
      "ura": 8353,
      "ĠayrÄ±ntÄ±lÄ±": 8354,
      "ĠÃ§aba": 8355,
      "tihar": 8356,
      "ĠbaÅŁlamÄ±ÅŁtÄ±r": 8357,
      "ĠyazdÄ±ÄŁÄ±": 8358,
      "ĠÃ§Ã¶zÃ¼mler": 8359,
      "ĠprogramlarÄ±": 8360,
      "Ġalanlar": 8361,
      "ĠaykÄ±rÄ±": 8362,
      "ĠsÃ¼rÃ¼": 8363,
      "ĠdediÄŁi": 8364,
      "ĠnumarasÄ±": 8365,
      "ebelik": 8366,
      "vin": 8367,
      "Ġduyurdu": 8368,
      "ĠÃ¶ldÃ¼": 8369,
      "Ġcinayet": 8370,
      "ĠMicrosoft": 8371,
      "Ġkg": 8372,
      "ĠStad": 8373,
      "ĠÃĸztÃ¼rk": 8374,
      "ĠdeÄŁiÅŁen": 8375,
      "Ġmahalle": 8376,
      "Ġimzalan": 8377,
      "lanabilir": 8378,
      "Ġsaatte": 8379,
      "ĠÅŁeyden": 8380,
      "Ġgereksin": 8381,
      "ĠTerÃ¶r": 8382,
      "ĠEmin": 8383,
      "akin": 8384,
      "ĠStar": 8385,
      "ĠgÃ¶zden": 8386,
      "ĠkalÄ±yor": 8387,
      "Ġmilletvekil": 8388,
      "ĠSaray": 8389,
      "Ġortada": 8390,
      "memiz": 8391,
      "ĠTaraf": 8392,
      "ĠGiriÅŁ": 8393,
      "Fir": 8394,
      "ÃĸK": 8395,
      "ĠCom": 8396,
      "ĠSinan": 8397,
      "Ġhaberine": 8398,
      "Hep": 8399,
      "UluslararasÄ±": 8400,
      "Ġbirinc": 8401,
      "Ã¼yÃ¼": 8402,
      "ĠÄ°r": 8403,
      "INIZ": 8404,
      "ĠahÅŁap": 8405,
      "Ä±kÃ¶y": 8406,
      "Ã§asÄ±": 8407,
      "Ġkenar": 8408,
      "ĠGÃĸR": 8409,
      "ĠÃ¼lkemizin": 8410,
      "opark": 8411,
      "jinal": 8412,
      "Ġmakine": 8413,
      "iÃ§i": 8414,
      "Ġboya": 8415,
      "ĠsÄ±vÄ±": 8416,
      "ĠRom": 8417,
      "ĠfarkÄ±n": 8418,
      "Ġarayan": 8419,
      "Ġgibidir": 8420,
      "ĠUygulam": 8421,
      "Ġatmos": 8422,
      "Ġka": 8423,
      "ĠInstagram": 8424,
      "Ġkendileri": 8425,
      "Ä±mÄ±zdan": 8426,
      "ETÄ°": 8427,
      "Bizim": 8428,
      "ĠYAR": 8429,
      "Bar": 8430,
      "ĠTrans": 8431,
      "ĠOyuncu": 8432,
      "Ġistatistik": 8433,
      "Ä±mdan": 8434,
      "ĠOYUN": 8435,
      "Ġakla": 8436,
      "ĠBeni": 8437,
      "ever": 8438,
      "Ġibadet": 8439,
      "Ġbizden": 8440,
      "imini": 8441,
      "ĠÄ°ÅŁlem": 8442,
      "ĠhemÅŁ": 8443,
      "Ġoynamak": 8444,
      "Ġbeklet": 8445,
      "kap": 8446,
      "ĠMis": 8447,
      "ĠÄ°talyan": 8448,
      "ĠhalÄ±": 8449,
      "ĠgÃ¶sterdiÄŁi": 8450,
      "Ġkalma": 8451,
      "Ġplastik": 8452,
      "ĠihtiyacÄ±nÄ±z": 8453,
      "ĠPaylaÅŁ": 8454,
      "Ġlit": 8455,
      "ĠuyuÅŁturucu": 8456,
      "Burada": 8457,
      "Ġolmakla": 8458,
      "rd": 8459,
      "Ġdemokratik": 8460,
      "ĠalanlarÄ±nda": 8461,
      "ĠAziz": 8462,
      "ĠyapÄ±labilir": 8463,
      "ĠToplantÄ±sÄ±": 8464,
      "ĠyollarÄ±": 8465,
      "pÄ±nar": 8466,
      "Ġprojeleri": 8467,
      "ĠUÃ§ak": 8468,
      "ĠhakkÄ±ndaki": 8469,
      "DP": 8470,
      "ĠyaÅŁama": 8471,
      "berg": 8472,
      "ĠbÃ¶lgeye": 8473,
      "Ġedecektir": 8474,
      "ĠÃ§ekir": 8475,
      "ĠplanÄ±": 8476,
      "Ġmateryal": 8477,
      "ĠFinans": 8478,
      "Ġteker": 8479,
      "ĠmesajÄ±": 8480,
      "mat": 8481,
      "udu": 8482,
      "ĠÃľs": 8483,
      "ĠseÃ§eneÄŁi": 8484,
      "tip": 8485,
      "ĠSÄ±": 8486,
      "Ġrestoran": 8487,
      "ĠÃ¶zet": 8488,
      "Ġmasaj": 8489,
      "Ġkiral": 8490,
      "ĠbaÅŁarÄ±sÄ±z": 8491,
      "ĠdÃ¼zenleme": 8492,
      "sis": 8493,
      "ĠzararlÄ±": 8494,
      "ĠyazÄ±l": 8495,
      "Ġetkileri": 8496,
      "Ã§u": 8497,
      "sever": 8498,
      "ĠoluÅŁur": 8499,
      "Ġdekorasyon": 8500,
      "ĠÃ¶ÄŁrenildi": 8501,
      "ĠÃ§ikol": 8502,
      "Ãĸzellikle": 8503,
      "Sadece": 8504,
      "ĠpahalÄ±": 8505,
      "cin": 8506,
      "ĠÄ°t": 8507,
      "ĠKartal": 8508,
      "Almanya": 8509,
      "Ġpen": 8510,
      "Ġdinamik": 8511,
      "ĠÅŀampiyonasÄ±": 8512,
      "Ġedilerek": 8513,
      "Et": 8514,
      "uper": 8515,
      "Ġbakar": 8516,
      "ĠFarklÄ±": 8517,
      "unÃ§": 8518,
      "ĠDEV": 8519,
      "umun": 8520,
      "ebileceÄŁiniz": 8521,
      "ĠÃ§Ä±kmasÄ±": 8522,
      "Ġkaybed": 8523,
      "Ã¼ÄŁÃ¼n": 8524,
      "iller": 8525,
      "ĠOrtadoÄŁu": 8526,
      "ĠsÃ¼rÃ¼c": 8527,
      "ĠYabancÄ±": 8528,
      "Ġelinden": 8529,
      "ĠÄ±rk": 8530,
      "Ġbiber": 8531,
      "ĠhayatÄ±nda": 8532,
      "ĠBol": 8533,
      "ĠanlamlÄ±": 8534,
      "fendi": 8535,
      "ĠGÃ¶ster": 8536,
      "Ġihal": 8537,
      "ames": 8538,
      "ĠsektÃ¶rÃ¼nÃ¼n": 8539,
      "ĠDel": 8540,
      "ĠBaÅŁka": 8541,
      "Ġset": 8542,
      "ĠTrabzonspor": 8543,
      "Ġsizinle": 8544,
      "Ġyasa": 8545,
      "Ġpak": 8546,
      "ĠistediÄŁini": 8547,
      "Ġplaj": 8548,
      "ĠbulunmasÄ±": 8549,
      "Ġmide": 8550,
      "56": 8551,
      "tam": 8552,
      "ĠÃ¼lkeye": 8553,
      "ĠkaldÄ±ÄŁÄ±": 8554,
      "Ġeseri": 8555,
      "ediÄŁimiz": 8556,
      "Ġdediler": 8557,
      "ÅŁek": 8558,
      "ĠKum": 8559,
      "udak": 8560,
      "ĠkÄ±smÄ±nÄ±": 8561,
      "ĠÅŁair": 8562,
      "ĠAnayasa": 8563,
      "500": 8564,
      "ota": 8565,
      "cÃ¼k": 8566,
      "leyip": 8567,
      "mesinden": 8568,
      "makla": 8569,
      "ĠnoktasÄ±nda": 8570,
      "ĠgÄ±d": 8571,
      "Galatasaray": 8572,
      "uyorlar": 8573,
      "ĠGit": 8574,
      "Ġtedarik": 8575,
      "ĠgÃ¼ndÃ¼z": 8576,
      "ĠPolitik": 8577,
      "Ġgerekirse": 8578,
      "Ġzorlu": 8579,
      "ĠBeÅŁ": 8580,
      "78": 8581,
      "ĠatÄ±k": 8582,
      "uzel": 8583,
      "Ġkamuoy": 8584,
      "ĠÃ§Ã¶p": 8585,
      "ĠKayÄ±t": 8586,
      "ĠdayanÄ±klÄ±": 8587,
      "Ġlek": 8588,
      "ĠBirÃ§ok": 8589,
      "Ge": 8590,
      "ĠolacaÄŁÄ±z": 8591,
      "Ġhusus": 8592,
      "Tak": 8593,
      "Ġbudur": 8594,
      "Ġilham": 8595,
      "lerdeki": 8596,
      "ĠKÃ¶pr": 8597,
      "ĠMavi": 8598,
      "ĠGeÃ§en": 8599,
      "ĠSelÃ§uk": 8600,
      "ĠBi": 8601,
      "ĠBasÄ±n": 8602,
      "ĠoluÅŁturul": 8603,
      "ĠGece": 8604,
      "Ġgetirir": 8605,
      "gur": 8606,
      "ĠolduÄŁunun": 8607,
      "Ġsunuyoruz": 8608,
      "ĠParkÄ±": 8609,
      "ĠAcil": 8610,
      "Ġevin": 8611,
      "amÄ±zÄ±": 8612,
      "ĠKurtul": 8613,
      "ĠTÄ°CARET": 8614,
      "ĠBasketbol": 8615,
      "ĠdeÄŁiÅŁikliÄŁi": 8616,
      "TIR": 8617,
      "yurt": 8618,
      "Ġgeriye": 8619,
      "ĠkullanÄ±lmaktadÄ±r": 8620,
      "ĠÃľrÃ¼nleri": 8621,
      "Ġtoplamda": 8622,
      "Ġvermesi": 8623,
      "Ġmali": 8624,
      "Ġkendime": 8625,
      "ĠUygun": 8626,
      "ĠaraÃ§larÄ±": 8627,
      "Ġismini": 8628,
      "MEK": 8629,
      "ĠAzer": 8630,
      "resyon": 8631,
      "ĠkarÅŁÄ±sÄ±na": 8632,
      "Ġsizlerin": 8633,
      "ATO": 8634,
      "ĠbaÅŁlÄ±ÄŁÄ±": 8635,
      "Ġyaprak": 8636,
      "Ã¼lecek": 8637,
      "Ġsorunsuz": 8638,
      "Ġtev": 8639,
      "ersoneli": 8640,
      "Ġzul": 8641,
      "Ġgiyim": 8642,
      "Ġevr": 8643,
      "Ġkendisinin": 8644,
      "anak": 8645,
      "ĠHe": 8646,
      "Ġdamar": 8647,
      "Ġ49": 8648,
      "Ġdoktora": 8649,
      "indan": 8650,
      "ĠalmayÄ±": 8651,
      "Ġuyk": 8652,
      "Ġzamana": 8653,
      "ĠSize": 8654,
      "Ġdemokrasi": 8655,
      "ÃĩalÄ±ÅŁ": 8656,
      "Ġederler": 8657,
      "ĠtanÄ±y": 8658,
      "54": 8659,
      "Ġnefret": 8660,
      "ĠKalkÄ±n": 8661,
      "ĠAS": 8662,
      "ĠaÃ§Ä±klamalarda": 8663,
      "ĠAjansÄ±": 8664,
      "Ġ2004": 8665,
      "Ġirti": 8666,
      "ĠAbdÃ¼l": 8667,
      "ĠYoksa": 8668,
      "ĠkarÅŁÄ±n": 8669,
      "Ä±laÅŁ": 8670,
      "ĠÄ°stik": 8671,
      "Ġbunlardan": 8672,
      "ĠNih": 8673,
      "ĠMalzem": 8674,
      "Ġkoordin": 8675,
      "ĠAfrin": 8676,
      "afe": 8677,
      "ĠSelim": 8678,
      "Ġdaima": 8679,
      "ĠCanlÄ±": 8680,
      "Ġoraya": 8681,
      "ĠSANAY": 8682,
      "ndaki": 8683,
      "Ġnez": 8684,
      "ĠiÃ§erir": 8685,
      "Ġdert": 8686,
      "ĠKem": 8687,
      "Ġlise": 8688,
      "Ã¼man": 8689,
      "ĠFet": 8690,
      "Ġbizzat": 8691,
      "Ã¶nÃ¼": 8692,
      "load": 8693,
      "Ġseviyede": 8694,
      "ower": 8695,
      "ĠiÅŁletme": 8696,
      "ĠKAL": 8697,
      "Ġhepsini": 8698,
      "ĠbÃ¼yÃ¼t": 8699,
      "ydi": 8700,
      "ĠsÄ±nÄ±rlarÄ±": 8701,
      "ĠolanÄ±": 8702,
      "Ġirade": 8703,
      "Ġkullanma": 8704,
      "ĠÃ§ekin": 8705,
      "ĠÃ§or": 8706,
      "maraÅŁ": 8707,
      "ĠolmasÄ±n": 8708,
      "ĠCol": 8709,
      "umuzda": 8710,
      "Ġ46": 8711,
      "sp": 8712,
      "ĠvasÄ±": 8713,
      "Ġsamimi": 8714,
      "Ġdilerim": 8715,
      "Ġval": 8716,
      "abildiÄŁ": 8717,
      "Ġdondur": 8718,
      "Ġimzal": 8719,
      "lÄ±lÄ±ÄŁÄ±": 8720,
      "ĠKomutan": 8721,
      "ĠÅŁifr": 8722,
      "ĠalÄ±cÄ±": 8723,
      "ĠKonut": 8724,
      "AtatÃ¼rk": 8725,
      "ĠDost": 8726,
      "ĠManisa": 8727,
      "ĠiÃ§eriÄŁi": 8728,
      "ĠkurulmuÅŁ": 8729,
      "ĠfirmalarÄ±": 8730,
      "birliÄŁi": 8731,
      "ĠolasÄ±l": 8732,
      "ĠyazdÄ±": 8733,
      "Ġreng": 8734,
      "Ġokula": 8735,
      "Ġsos": 8736,
      "AAT": 8737,
      "Ġsad": 8738,
      "ĠtarafÄ±nda": 8739,
      "ĠÃ¶zellikler": 8740,
      "ĠMuÄŁla": 8741,
      "yaÅŁ": 8742,
      "Ġiftar": 8743,
      "esun": 8744,
      "Ġteknolojisi": 8745,
      "ĠMesela": 8746,
      "Ġ42": 8747,
      "eÄŁinin": 8748,
      "MADDE": 8749,
      "ĠdoÄŁan": 8750,
      "ĠbaÅŁtan": 8751,
      "ĠÃ¶v": 8752,
      "ĠyayÄ±mlanan": 8753,
      "YÃ¼ksek": 8754,
      "Ġittifak": 8755,
      "ence": 8756,
      "antol": 8757,
      "ĠiliÅŁkileri": 8758,
      "usundaki": 8759,
      "ĠkÄ±yafet": 8760,
      "ĠÃĩiÃ§ek": 8761,
      "ĠlayÄ±k": 8762,
      "ĠmiktarÄ±": 8763,
      "elerimiz": 8764,
      "ĠEg": 8765,
      "ĠÃ¶rneÄŁi": 8766,
      "Ġgirer": 8767,
      "kale": 8768,
      "Ä±ÅŁÄ±klÄ±k": 8769,
      "ĠÄ±sÄ±t": 8770,
      "Ġvize": 8771,
      "ĠÃ§Ä±karmak": 8772,
      "azz": 8773,
      "ĠÃ¼lkemiz": 8774,
      "Ġyah": 8775,
      "ĠÄ°zle": 8776,
      "ĠCamii": 8777,
      "ĠArslan": 8778,
      "Ä±rsak": 8779,
      "ĠKudÃ¼s": 8780,
      "ĠWar": 8781,
      "Ġec": 8782,
      "Ġistasyon": 8783,
      "ĠSam": 8784,
      "Ġveriyoruz": 8785,
      "Ġprojenin": 8786,
      "Ġoyuncak": 8787,
      "Yer": 8788,
      "Ġerdi": 8789,
      "Ġeline": 8790,
      "ĠAÃĩ": 8791,
      "ĠModa": 8792,
      "ĠhazÄ±rlanmÄ±ÅŁ": 8793,
      "Ġmotiv": 8794,
      "Ä°MÄ°Z": 8795,
      "Ġkombin": 8796,
      "GeÃ§tiÄŁimiz": 8797,
      "Ġihmal": 8798,
      "culuk": 8799,
      "Ġyolunu": 8800,
      "ĠdÃ¼nyayÄ±": 8801,
      "ĠHikay": 8802,
      "Ġserisi": 8803,
      "Ġbelge": 8804,
      "ticaret": 8805,
      "ĠAlev": 8806,
      "KÄ±z": 8807,
      "ĠÅŀubesi": 8808,
      "ĠUkrayna": 8809,
      "ĠBÃ¼lent": 8810,
      "Ġpu": 8811,
      "Ġyeterince": 8812,
      "ĠmaÄŁlup": 8813,
      "ĠÅŀarkÄ±": 8814,
      "Ġkek": 8815,
      "Not": 8816,
      "Yine": 8817,
      "ĠElektronik": 8818,
      "ĠKa": 8819,
      "laÅŁmasÄ±": 8820,
      "leÅŁtirme": 8821,
      "Ġyerlere": 8822,
      "Ġnereye": 8823,
      "ĠayÄ±nÄ±n": 8824,
      "elif": 8825,
      "Ġoyuncusu": 8826,
      "ĠaÅŁama": 8827,
      "Ġegemen": 8828,
      "ĠbÃ¶lgesi": 8829,
      "ĠEve": 8830,
      "Haf": 8831,
      "biz": 8832,
      "ĠYÃĸN": 8833,
      "Ġkonuyla": 8834,
      "Ġsistemine": 8835,
      "ĠyÃ¼kÃ¼m": 8836,
      "ĠMeydanÄ±": 8837,
      "ĠsayÄ±sÄ±nÄ±n": 8838,
      "ĠettiÄŁiniz": 8839,
      "iÄŁeri": 8840,
      "ĠKoruma": 8841,
      "ĠÃ¶rt": 8842,
      "ĠÃ§Ä±kmak": 8843,
      "Ä±ÅŁtÄ±": 8844,
      "uydu": 8845,
      "Ġgirecek": 8846,
      "aydÄ±": 8847,
      "ebileceÄŁi": 8848,
      "BazÄ±": 8849,
      "Kitap": 8850,
      "eysel": 8851,
      "Ġistifa": 8852,
      "Cumhuriyet": 8853,
      "Ġlaf": 8854,
      "ĠGÃ¼nlÃ¼k": 8855,
      "ĠBos": 8856,
      "Ġkendinize": 8857,
      "ĠÅŁartlarÄ±": 8858,
      "ĠmÄ±dÄ±r": 8859,
      "ĠGr": 8860,
      "ĠAday": 8861,
      "Der": 8862,
      "Film": 8863,
      "ĠKullanÄ±cÄ±": 8864,
      "ĠsÃ¶": 8865,
      "ĠbÃ¶lÃ¼mde": 8866,
      "und": 8867,
      "ĠiÅŁini": 8868,
      "ĠOK": 8869,
      "Ġbanyo": 8870,
      "hisar": 8871,
      "ĠalanÄ±na": 8872,
      "ĠyaÅŁadÄ±k": 8873,
      "ĠolmasÄ±nÄ±n": 8874,
      "ĠTeb": 8875,
      "ĠÄ°nan": 8876,
      "Ġuygulamaya": 8877,
      "ĠReklam": 8878,
      "ĠGÃ¶l": 8879,
      "Ġmesela": 8880,
      "ĠTOP": 8881,
      "obi": 8882,
      "ĠOlan": 8883,
      "Ġsaniye": 8884,
      "uyordu": 8885,
      "ĠdÃ¶nemlerde": 8886,
      "ĠBelediyespor": 8887,
      "ĠgÃ¶ze": 8888,
      "ĠsÃ¶zleÅŁme": 8889,
      "2010": 8890,
      "ĠTuran": 8891,
      ")âĢĻ": 8892,
      "ĠYalnÄ±z": 8893,
      "Ġmemleket": 8894,
      "metik": 8895,
      "ĠHatay": 8896,
      "ART": 8897,
      "ĠBUR": 8898,
      "ĠTip": 8899,
      "Ġinf": 8900,
      "Hem": 8901,
      "ĠÃĩam": 8902,
      "Ġdenilen": 8903,
      "Ġsenar": 8904,
      "ĠsorularÄ±": 8905,
      "lemiÅŁ": 8906,
      "Ġarzu": 8907,
      "ure": 8908,
      "enli": 8909,
      "ĠyÃ¼rÃ¼tÃ¼len": 8910,
      "ĠkalÄ±p": 8911,
      "ĠAslan": 8912,
      "Ġlimon": 8913,
      "ĠÄ°Z": 8914,
      "ĠtamamladÄ±": 8915,
      "Ġpencer": 8916,
      "Ġkatk": 8917,
      "Ġmetr": 8918,
      "anyol": 8919,
      "ĠdÃ¼zgÃ¼n": 8920,
      "ĠmeÅŁhur": 8921,
      "AynÄ±": 8922,
      "lament": 8923,
      "Ġbenimle": 8924,
      "uvalet": 8925,
      "luÄŁa": 8926,
      "amin": 8927,
      "SaÄŁlÄ±k": 8928,
      "ĠÃ¼rÃ¼nÃ¼n": 8929,
      "set": 8930,
      "ĠyapmaktadÄ±r": 8931,
      "ĠBilgiler": 8932,
      "ĠMÃ¼cadele": 8933,
      "ĠrÃ¶portaj": 8934,
      "ĠGeliÅŁ": 8935,
      "Ġistemez": 8936,
      "ĠDairesi": 8937,
      "ĠKanal": 8938,
      "ALAR": 8939,
      "ANS": 8940,
      "Pol": 8941,
      "vat": 8942,
      "Ġorijinal": 8943,
      "ĠBulgar": 8944,
      "Ġyazan": 8945,
      "ĠOnu": 8946,
      "ĠOb": 8947,
      "ĠCin": 8948,
      "ĠsilahlÄ±": 8949,
      "ĠgerÃ§ekleÅŁtirdi": 8950,
      "ÃĸY": 8951,
      "ĠVAR": 8952,
      "Ġfen": 8953,
      "ĠalÄ±nacak": 8954,
      "dunuz": 8955,
      "Ġoradan": 8956,
      "Ã§Ä±lar": 8957,
      "ĠgÃ¶revini": 8958,
      "HiÃ§": 8959,
      "ĠEmir": 8960,
      "Gazi": 8961,
      "Ġmatematik": 8962,
      "DEM": 8963,
      "Ġrobot": 8964,
      "Ġgirmek": 8965,
      "rit": 8966,
      "ĠanlaÅŁÄ±l": 8967,
      "Ġdog": 8968,
      "ĠanlaÅŁma": 8969,
      "Ġtamir": 8970,
      "ĠbakÄ±mÄ±": 8971,
      "ĠhikÃ¢y": 8972,
      "Ġsergilen": 8973,
      "ĠgeÃ§mek": 8974,
      "\".": 8975,
      "Ã§ileri": 8976,
      "raÃ§": 8977,
      "Ġminik": 8978,
      "ĠgÃ¶rÃ¼ÅŁme": 8979,
      "ĠSAÄŀ": 8980,
      "UÅŀ": 8981,
      "ĠkÄ±smÄ±nda": 8982,
      "tih": 8983,
      "imasyon": 8984,
      "Ġplanda": 8985,
      "Ġkutsal": 8986,
      "DF": 8987,
      "ĠÃ§Ä±karak": 8988,
      "ĠsÃ¶yler": 8989,
      "ĠanlamÄ±nda": 8990,
      "BÃ¼tÃ¼n": 8991,
      "Ġbitti": 8992,
      "dirim": 8993,
      "ĠDok": 8994,
      "77": 8995,
      "ĠEV": 8996,
      "ĠsÃ¼rÃ¼k": 8997,
      "abilme": 8998,
      "ĠUÃ§": 8999,
      "ĠkullanÄ±cÄ±lar": 9000,
      "ĠyaÅŁÄ±nday": 9001,
      "ĠÃ§ant": 9002,
      "ĠanlayÄ±ÅŁÄ±": 9003,
      "ĠKÄ±rmÄ±zÄ±": 9004,
      "Ġniye": 9005,
      "aÄŁÄ±ndan": 9006,
      "Ġdiplom": 9007,
      "ĠGÃ¶rÃ¼ÅŁ": 9008,
      "Ġprotesto": 9009,
      "yolu": 9010,
      "FenerbahÃ§e": 9011,
      "iliÅŁ": 9012,
      "Ot": 9013,
      "ĠÃĸnemli": 9014,
      "Ġkoz": 9015,
      "alarÄ±yla": 9016,
      "ĠcevabÄ±": 9017,
      "ĠKadÄ±kÃ¶y": 9018,
      "ĠUr": 9019,
      "EFA": 9020,
      "ĠyapÄ±yorum": 9021,
      "Ġradyo": 9022,
      "ocam": 9023,
      "nav": 9024,
      "ErdoÄŁan": 9025,
      "Ġkrizi": 9026,
      "66": 9027,
      "Ġmuht": 9028,
      "Ġverileri": 9029,
      "ĠdanÄ±ÅŁman": 9030,
      "OY": 9031,
      "lilerin": 9032,
      "SD": 9033,
      "HAL": 9034,
      "ĠOnur": 9035,
      "ĠDÃ¶nÃ¼ÅŁ": 9036,
      "abrika": 9037,
      "ladÄ±ÄŁÄ±mÄ±z": 9038,
      "ĠBaÅŁak": 9039,
      "ĠkarÅŁÄ±lÄ±klÄ±": 9040,
      "Ġdenize": 9041,
      "ĠaÅŁÄ±k": 9042,
      "lini": 9043,
      "Ġlog": 9044,
      "ĠoluÅŁum": 9045,
      "ĠyerleÅŁim": 9046,
      "vi": 9047,
      "ĠJandarma": 9048,
      "ĠtarafÄ±": 9049,
      "ĠDekor": 9050,
      "tÄ±klarÄ±nÄ±": 9051,
      "TT": 9052,
      "Ġsahipleri": 9053,
      "Ġzamanla": 9054,
      "ĠkonularÄ±": 9055,
      "Ġsom": 9056,
      "Ã¼lÃ¼r": 9057,
      "ĠMeh": 9058,
      "ĠuzaklaÅŁ": 9059,
      "amanÄ±z": 9060,
      "ĠyÃ¼rÃ¼rlÃ¼ÄŁe": 9061,
      "ĠBaba": 9062,
      "ĠNaz": 9063,
      "Ġoynayan": 9064,
      "ĠyapÄ±lmÄ±ÅŁtÄ±r": 9065,
      "ĠkaynaklarÄ±": 9066,
      "ĠsabÄ±r": 9067,
      "ĠyaratÄ±cÄ±": 9068,
      "losuz": 9069,
      "ĠTÃľRKÄ°YE": 9070,
      "ĠÃĸrgÃ¼tÃ¼": 9071,
      "âĢº": 9072,
      "icdan": 9073,
      "Ġ04": 9074,
      "Ã§Ã¼": 9075,
      "ĠTÃľ": 9076,
      "Ġmilyonlarca": 9077,
      "ĠÃĩetin": 9078,
      "Ġmacer": 9079,
      "urdu": 9080,
      "Ġ2002": 9081,
      "Ġicra": 9082,
      "ĠÃ§Ä±kardÄ±": 9083,
      "ĠÅŁahit": 9084,
      "ĠtadÄ±nÄ±": 9085,
      "laÅŁtÄ±rma": 9086,
      "ĠolmanÄ±z": 9087,
      "Ġblok": 9088,
      "95": 9089,
      "ĠÃ¼lkelerde": 9090,
      "ĠHÄ±zlÄ±": 9091,
      "Ġbuton": 9092,
      "ĠkontrolÃ¼": 9093,
      "dukÃ§a": 9094,
      "Ġoyuna": 9095,
      "ï¸": 9096,
      "ĠSez": 9097,
      "Ġmontaj": 9098,
      "inizle": 9099,
      "Ġkritik": 9100,
      "tÃ¼m": 9101,
      "odu": 9102,
      "ï¸ı": 9103,
      "ĠrazÄ±": 9104,
      "ĠBiraz": 9105,
      "doÄŁu": 9106,
      "Ġmidir": 9107,
      "rand": 9108,
      "Ġantik": 9109,
      "lamalarÄ±": 9110,
      "malarÄ±na": 9111,
      "Ġ2003": 9112,
      "ĠKAY": 9113,
      "Adana": 9114,
      "iver": 9115,
      "ĠKalkÄ±nma": 9116,
      "ĠsaÄŁlamaktadÄ±r": 9117,
      "Ġgemi": 9118,
      "ĠbaÅŁlÄ±k": 9119,
      "mad": 9120,
      "ilmelidir": 9121,
      "Ġnesn": 9122,
      "Ġhttps": 9123,
      "ĠgÃ¶nÃ¼llÃ¼": 9124,
      "ĠgÃ¼ler": 9125,
      "Ġceph": 9126,
      "ml": 9127,
      "NE": 9128,
      "ĠyargÄ±lan": 9129,
      "ĠSektÃ¶r": 9130,
      "ĠKadir": 9131,
      "Ġraf": 9132,
      "ĠÃ¶ÄŁrencisi": 9133,
      "ĠSinema": 9134,
      "âĢĿ.": 9135,
      "ĠSeÃ§im": 9136,
      "ĠrÃ¼zgar": 9137,
      "Tel": 9138,
      "gÃ¶z": 9139,
      "ĠistediÄŁim": 9140,
      "aport": 9141,
      "ĠkiÅŁilere": 9142,
      "ix": 9143,
      "Ġhid": 9144,
      "ula": 9145,
      "Ä±ndÄ±k": 9146,
      "Ġfot": 9147,
      "ĠDan": 9148,
      "Ġtay": 9149,
      "Ġsevilen": 9150,
      "tÃ¼rÃ¼": 9151,
      "ĠbaÅŁÄ±ndan": 9152,
      "ĠÃ¼yelik": 9153,
      "Ã¼min": 9154,
      "Ġtey": 9155,
      "ĠNit": 9156,
      "ĠyetiÅŁkin": 9157,
      "ĠAzerbaycan": 9158,
      "ĠtakÄ±mÄ±n": 9159,
      "ĠÃľniversite": 9160,
      "ĠYaklaÅŁÄ±k": 9161,
      "Sar": 9162,
      "urya": 9163,
      "Ġsa": 9164,
      "ĠBazen": 9165,
      "Mut": 9166,
      "ora": 9167,
      "ĠadamÄ±n": 9168,
      "Ã§ilik": 9169,
      "Ġkomisyon": 9170,
      "ralya": 9171,
      "kÃ¼dar": 9172,
      "ington": 9173,
      "ĠSaf": 9174,
      "Trabzon": 9175,
      "Ġprofil": 9176,
      "ĠsÄ±radan": 9177,
      "ĠgÃ¼cÃ¼nÃ¼": 9178,
      "ĠÄ°YÄ°": 9179,
      "Ã¼mÃ¼ze": 9180,
      "Ġfinansal": 9181,
      "ĠÃľcretsiz": 9182,
      "ĠarkadaÅŁlarÄ±": 9183,
      "Ãĩin": 9184,
      "Ġonlarca": 9185,
      "RE": 9186,
      "Ġsakat": 9187,
      "artman": 9188,
      "Ġvermeden": 9189,
      "Ġmesafede": 9190,
      "GeÃ§en": 9191,
      "Ä°NÄ°Z": 9192,
      "oskova": 9193,
      "Ġilerleyen": 9194,
      "Ġilah": 9195,
      "ĠgÃ¶rÃ¼lÃ¼r": 9196,
      "ĠAVM": 9197,
      "ĠDis": 9198,
      "ĠIÅŀÄ°D": 9199,
      "ÅŁak": 9200,
      "ĠÃ¶dey": 9201,
      "Ġila": 9202,
      "lash": 9203,
      "Ġfaaliyetleri": 9204,
      "BÃ¶yle": 9205,
      "ĠsakÄ±n": 9206,
      "Ġediyorlar": 9207,
      "Ham": 9208,
      "Ġpilot": 9209,
      "malÄ±yÄ±z": 9210,
      "ĠbaÅŁlamak": 9211,
      "ĠÃ¶rgÃ¼tÃ¼n": 9212,
      "ĠÅŀanlÄ±urfa": 9213,
      "ĠHaftasÄ±": 9214,
      "ĠHoca": 9215,
      "Ä°F": 9216,
      "ĠÃĸde": 9217,
      "UP": 9218,
      "Ġveril": 9219,
      "âĢ¦âĢĿ": 9220,
      "luÄŁunu": 9221,
      "ebilmesi": 9222,
      "ĠÄ±srar": 9223,
      "ĠÅŁansÄ±": 9224,
      "ĠÄ°mparator": 9225,
      "Ġgecesi": 9226,
      "ĠOku": 9227,
      "ps": 9228,
      "Ġgezeg": 9229,
      "ita": 9230,
      "ÃľÅŀ": 9231,
      "ĠaracÄ±n": 9232,
      "Ġkriter": 9233,
      "Ġetkiler": 9234,
      "olos": 9235,
      "BÃ¶lÃ¼m": 9236,
[...]
