{"<|endoftext|>":0,"!":1,"\"":2,"#":3,"$":4,"%":5,"&":6,"'":7,"(":8,")":9,"*":10,"+":11,",":12,"-":13,".":14,"/":15,"0":16,"1":17,"2":18,"3":19,"4":20,"5":21,"6":22,"7":23,"8":24,"9":25,":":26,";":27,"<":28,"=":29,">":30,"?":31,"@":32,"A":33,"B":34,"C":35,"D":36,"E":37,"F":38,"G":39,"H":40,"I":41,"J":42,"K":43,"L":44,"M":45,"N":46,"O":47,"P":48,"Q":49,"R":50,"S":51,"T":52,"U":53,"V":54,"W":55,"X":56,"Y":57,"Z":58,"[":59,"\\":60,"]":61,"^":62,"_":63,"`":64,"a":65,"b":66,"c":67,"d":68,"e":69,"f":70,"g":71,"h":72,"i":73,"j":74,"k":75,"l":76,"m":77,"n":78,"o":79,"p":80,"q":81,"r":82,"s":83,"t":84,"u":85,"v":86,"w":87,"x":88,"y":89,"z":90,"{":91,"|":92,"}":93,"~":94,"¡":95,"¢":96,"£":97,"¤":98,"¥":99,"¦":100,"§":101,"¨":102,"©":103,"ª":104,"«":105,"¬":106,"®":107,"¯":108,"°":109,"±":110,"²":111,"³":112,"´":113,"µ":114,"¶":115,"·":116,"¸":117,"¹":118,"º":119,"»":120,"¼":121,"½":122,"¾":123,"¿":124,"À":125,"Á":126,"Â":127,"Ã":128,"Ä":129,"Å":130,"Æ":131,"Ç":132,"È":133,"É":134,"Ê":135,"Ë":136,"Ì":137,"Í":138,"Î":139,"Ï":140,"Ð":141,"Ñ":142,"Ò":143,"Ó":144,"Ô":145,"Õ":146,"Ö":147,"×":148,"Ø":149,"Ù":150,"Ú":151,"Û":152,"Ü":153,"Ý":154,"Þ":155,"ß":156,"à":157,"á":158,"â":159,"ã":160,"ä":161,"å":162,"æ":163,"ç":164,"è":165,"é":166,"ê":167,"ë":168,"ì":169,"í":170,"î":171,"ï":172,"ð":173,"ñ":174,"ò":175,"ó":176,"ô":177,"õ":178,"ö":179,"÷":180,"ø":181,"ù":182,"ú":183,"û":184,"ü":185,"ý":186,"þ":187,"ÿ":188,"Ā":189,"ā":190,"Ă":191,"ă":192,"Ą":193,"ą":194,"Ć":195,"ć":196,"Ĉ":197,"ĉ":198,"Ċ":199,"ċ":200,"Č":201,"č":202,"Ď":203,"ď":204,"Đ":205,"đ":206,"Ē":207,"ē":208,"Ĕ":209,"ĕ":210,"Ė":211,"ė":212,"Ę":213,"ę":214,"Ě":215,"ě":216,"Ĝ":217,"ĝ":218,"Ğ":219,"ğ":220,"Ġ":221,"ġ":222,"Ģ":223,"ģ":224,"Ĥ":225,"ĥ":226,"Ħ":227,"ħ":228,"Ĩ":229,"ĩ":230,"Ī":231,"ī":232,"Ĭ":233,"ĭ":234,"Į":235,"į":236,"İ":237,"ı":238,"Ĳ":239,"ĳ":240,"Ĵ":241,"ĵ":242,"Ķ":243,"ķ":244,"ĸ":245,"Ĺ":246,"ĺ":247,"Ļ":248,"ļ":249,"Ľ":250,"ľ":251,"Ŀ":252,"ŀ":253,"Ł":254,"ł":255,"Ń":256,"Ä±":257,"ar":258,"er":259,"Ã¼":260,"an":261,"in":262,"ÅŁ":263,"Ġb":264,"en":265,"il":266,"ir":267,"Ä±n":268,"ÄŁ":269,"Ã§":270,"Ġk":271,"Ġd":272,"Ġs":273,"al":274,"Ġy":275,"ak":276,"Ġg":277,"el":278,"ek":279,"lar":280,"Ã¶":281,"Ġo":282,"Ġv":283,"et":284,"ay":285,"am":286,"Ġi":287,"Ġt":288,"un":289,"de":290,"as":291,"or":292,"ler":293,"da":294,"at":295,"âĢ":296,"Ġve":297,"iy":298,"es":299,"Ġh":300,"iz":301,"im":302,"on":303,"Ġbir":304,"ik":305,"em":306,"Ġm":307,"ĠB":308,"Ġol":309,"ur":310,"aÅŁ":311,"Ä±r":312,"ed":313,"ul":314,"Ä°":315,"Ã¼n":316,"Ä±l":317,"ad":318,"ĠA":319,"ĠÃ§":320,"Ä±k":321,"is":322,"Ã¼r":323,"az":324,"ey":325,"âĢĻ":326,"Ä±m":327,"ĠK":328,"ah":329,"ap":330,"ĠS":331,"ab":332,"ĠT":333,"it":334,"um":335,"Ä±ÅŁ":336,"le":337,"iÅŁ":338,"Ġil":339,"Ġde":340,"Ä±z":341,"ĠM":342,"ĠÃ¶":343,"li":344,"Ġp":345,"ol":346,"aÄŁ":347,"ĠiÃ§":348,"ok":349,"st":350,"ĠD":351,"Ġf":352,"ac":353,"Ä±nda":354,"Ã¼z":355,"dan":356,"Ġal":357,"ĠÄ°":358,"lÄ±":359,"lan":360,"ĠE":361,"ĠgÃ¶":362,"di":363,"ev":364,"ĠÅŁ":365,"ĠH":366,"ĠiÃ§in":367,"ĠÃ":368,"ini":369,"Ġyap":370,"Ġn":371,"du":372,"ĠY":373,"ĠG":374,"ec":375,"esi":376,"ine":377,"la":378,"Ġ1":379,"larÄ±n":380,"den":381,"Ġar":382,"Ġ2":383,"uz":384,"asÄ±":385,"larÄ±":386,"uy":387,"Ġbu":388,"inde":389,"..":390,"leri":391,"Ã¼k":392,"iyor":393,"Ä±y":394,"iler":395,"Ġda":396,"ti":397,"Ã¼m":398,"aÃ§":399,"Ä±ÄŁ":400,"af":401,"eler":402,"Ġile":403,"alar":404,"ĠP":405,"Ġz":406,"ya":407,"iye":408,"mak":409,"Ġed":410,"ĠO":411,"Ġet":412,"Ä±nÄ±":413,"eÄŁ":414,"ĠbaÅŁ":415,"Ã¼l":416,"ut":417,"oÄŁ":418,"Ġr":419,"lik":420,"ez":421,"ĠgÃ¶r":422,"uÅŁ":423,"dir":424,"Ä±s":425,"iniz":426,"av":427,"Ġgel":428,"ilir":429,"Ġ(":430,"Ġan":431,"ĠâĢ":432,"ma":433,"eÃ§":434,"Ġson":435,"us":436,"Ġver":437,"eb":438,"uk":439,"Ã¼y":440,"lam":441,"ilm":442,"inin":443,"ce":444,"ĠF":445,"tir":446,"Ġger":447,"Ġkar":448,"ĠÃ¶n":449,"Ã¶n":450,"ro":451,"Ġc":452,"eÅŁ":453,"Ġoldu":454,"ĠC":455,"dÄ±r":456,"larak":457,"Åŀ":458,"ib":459,"Ġkon":460,"Ġen":461,"Ä±na":462,"Ã¼ÅŁ":463,"Ġin":464,"ip":465,"ta":466,"len":467,"Ġbil":468,"Ġolarak":469,"om":470,"Ã¼rk":471,"te":472,"ĠÃ§ok":473,"Ġtar":474,"Ġay":475,"ÄŁi":476,"acak":477,"aya":478,"Ġ20":479,"tÄ±r":480,"mek":481,"aha":482,"anÄ±":483,"Ä±yor":484,"ĠdeÄŁ":485,"Ä±ndan":486,"Ġbul":487,"Ġolan":488,"Ġyer":489,"Ġolm":490,"lÄ±k":491,"ĠiÅŁ":492,"ĠN":493,"âĢĿ":494,"eni":495,"edi":496,"imiz":497,"dÄ±":498,"ĠyÄ±l":499,"Ġkad":500,"tan":501,"ih":502,"ĠgÃ¼n":503,"unu":504,"lu":505,"ĠÃĩ":506,"man":507,"op":508,"Ġ-":509,"ĠR":510,"ibi":511,"se":512,"lem":513,"Ġkul":514,"Ġdaha":515,"Ġist":516,"Ġkal":517,"ark":518,"isi":519,"Ġad":520,"ede":521,"Ã¶y":522,"Ġher":523,"ayÄ±":524,"yon":525,"Ã¶r":526,"ra":527,"ĠBu":528,"tÄ±":529,"Ä±ÄŁÄ±":530,"Ġvar":531,"ĠâĢľ":532,"ĠaÃ§":533,"aman":534,"ĠV":535,"ili":536,"ĠTÃ¼rk":537,"Ġor":538,"Ġkullan":539,"alÄ±ÅŁ":540,"san":541,"ĠolduÄŁ":542,"ecek":543,"ic":544,"ki":545,"'d":546,"Ġ3":547,"aki":548,"eh":549,"ĠsÃ¼r":550,"Ġgibi":551,"ĠyaÅŁ":552,"Ġkur":553,"ĠÃĸ":554,"mÄ±ÅŁ":555,"Ä±nÄ±n":556,"ama":557,"...":558,"ĠgeÃ§":559,"eki":560,"inden":561,"Ġuy":562,"00":563,"end":564,"Ġ201":565,"os":566,"Ä±mÄ±z":567,"ĠÃ§alÄ±ÅŁ":568,"ada":569,"ĠÃ§Ä±k":570,"ers":571,"abilir":572,"Ġyar":573,"eri":574,"ca":575,"ĠÅŀ":576,"ĠL":577,"me":578,"eli":579,"ÄŁr":580,"met":581,"Ġbel":582,"ist":583,"eden":584,"erk":585,"gi":586,"ilen":587,"Ġkadar":588,"alÄ±":589,"ayan":590,"sa":591,"ĠÃ¼z":592,"Ä±nÄ±z":593,"lÃ¼":594,"ĠAn":595,"ru":596,"Ġbulun":597,"cÄ±":598,"Ġon":599,"Ġgerek":600,"masÄ±":601,"oy":602,"ep":603,"Ġzaman":604,"ot":605,"ekt":606,"eye":607,"let":608,"asÄ±nda":609,"laÅŁ":610,"ĠÃ¶z":611,"Ġel":612,"unda":613,"ĠsaÄŁ":614,"iyet":615,"ef":616,"Ġek":617,"miÅŁ":618,"ĠÃ¼zer":619,"ĠyapÄ±l":620,"Ãľ":621,"leÅŁ":622,"ter":623,"aÅŁk":624,"Ġoy":625,"Ã¶z":626,"Ġyaz":627,"Ã¼yÃ¼k":628,"ĠU":629,"nin":630,"Ã¶l":631,"yi":632,"Ġsor":633,"ade":634,"Ġtek":635,"Ã¼t":636,"iyle":637,"ans":638,"oc":639,"Ġpro":640,"lÄ±ÄŁ":641,"id":642,"Ġdev":643,"if":644,"art":645,"ĠÃľ":646,"Ġsah":647,"ĠdÃ¼ÅŁ":648,"tur":649,"Ġ\"":650,"lerin":651,"Ġdur":652,"daki":653,"Ġkat":654,"ĠkarÅŁ":655,"lara":656,"uyor":657,"Ġhal":658,"ĠyÃ¶n":659,"edir":660,"Ġak":661,"est":662,"Ġhay":663,"Ġsonra":664,"Ã¼c":665,"Ġ4":666,"Ġl":667,"Ġtaraf":668,"iv":669,"ĠAl":670,"ĠdoÄŁ":671,"Ġben":672,"imi":673,"ĠÃ¼r":674,"Ġsiz":675,"arak":676,"Ġtop":677,"ĠAr":678,"Ã¢":679,"siniz":680,"Ġ5":681,"iÃ§":682,"unun":683,"ken":684,"Ġyan":685,"Ġsay":686,"Ġne":687,"Ã¼Ã§":688,"cak":689,"aÄŁÄ±":690,"Ġuyg":691,"Ġyeni":692,"ĠTÃ¼rkiye":693,"larÄ±nÄ±":694,"ĠÅŁek":695,"aber":696,"Ġise":697,"ĠdÃ¶n":698,"lad":699,"men":700,"ara":701,"ER":702,"Ġyak":703,"AN":704,"Ġsev":705,"malar":706,"eceÄŁ":707,"Ġkap":708,"sun":709,"ram":710,"ĠÃ¶ÄŁr":711,"AR":712,"Ġev":713,"lerini":714,"erek":715,"Ġalan":716,"od":717,"Ġhak":718,"deki":719,"Ġyol":720,"ĠÃ¶zel":721,"Ã¼s":722,"ĠgerÃ§":723,"lay":724,"ĠBir":725,"arÄ±":726,"Ġkay":727,"ĠkiÅŁ":728,"ĠdeÄŁil":729,"tad":730,"ĠbÃ¼yÃ¼k":731,"lat":732,"Ġinsan":733,"Ġat":734,"kin":735,"ley":736,"Ġkend":737,"Ä±sÄ±":738,"dÃ¼r":739,"esinde":740,"Ġuz":741,"iyat":742,"sel":743,"Ġilk":744,"Ã¼zel":745,"Ġtak":746,"Ġbiz":747,"aat":748,"asyon":749,"Ġiyi":750,"Ġilg":751,"cu":752,"eleri":753,"ĠÃ¶nem":754,"izmet":755,"tr":756,"Ġki":757,"Ġbelir":758,"ildi":759,"elik":760,"ci":761,"Ġden":762,"lere":763,"âĢ¦":764,"Ġgir":765,"ĠÅŁey":766,"larda":767,"Ġgen":768,"Ġhem":769,"ĠyÃ¼z":770,"ĠaÃ§Ä±k":771,"ĠBaÅŁk":772,"Ġok":773,"orum":774,"una":775,"emiz":776,"ÄŁer":777,"dÄ±m":778,"Ġort":779,"Ãĩ":780,"Ġbak":781,"20":782,"mas":783,"ster":784,"ran":785,"nÄ±n":786,"uÃ§":787,"ten":788,"ĠtarafÄ±ndan":789,"Ġtarih":790,"aret":791,"ĠdÃ¼z":792,"Ġyok":793,"iÅŁtir":794,"ĠsÃ¶y":795,"Ġfark":796,"Ġveya":797,"bul":798,"Ġdurum":799,"ĠeÄŁ":800,"uh":801,"ĠI":802,"ÄŁu":803,"por":804,"etim":805,"ĠbÃ¶l":806,"acaÄŁ":807,"ĠZ":808,"ĠgerÃ§ek":809,"Ãĸ":810,"alÄ±k":811,"tadÄ±r":812,"Ä±lan":813,"tÄ±k":814,"maya":815,"Ġes":816,"Ġtam":817,"ĠÅŁekil":818,"Ġhar":819,"Ġiz":820,"ileri":821,"ayÄ±n":822,"tik":823,"ĠEr":824,"Ä±yla":825,"oz":826,"Ġsan":827,"liÄŁi":828,"iyorum":829,"Ä±lÄ±":830,"Ġas":831,"bir":832,"ĠgÃ¶re":833,"Ġ6":834,"ebilir":835,"Ġhizmet":836,"abil":837,"anÄ±n":838,"itim":839,"stan":840,"Ġama":841,"ĠolduÄŁu":842,"adan":843,"olo":844,"ĠseÃ§":845,"ĠdÃ¼n":846,"ĠÄ°n":847,"Ġdevam":848,"ĠyÃ¼k":849,"enin":850,"etir":851,"ĠgÃ¶ster":852,"ocuk":853,"Ġa":854,"raf":855,"ob":856,"Ä±mÄ±":857,"Ġul":858,"Ġder":859,"lah":860,"Ġsahip":861,"Ġmil":862,"Bu":863,"Ġya":864,"ĠgÃ¼zel":865,"re":866,"ĠbaÄŁ":867,"ven":868,"erkez":869,"ĠÃ§ek":870,"ÄŁini":871,"Ġ19":872,"up":873,"ĠtÃ¼m":874,"rÄ±":875,"Ġ:":876,"dur":877,"nÄ±":878,"uÅŁtur":879,"eyi":880,"ĠÅŁekilde":881,"Ġser":882,"stanbul":883,"ĠAy":884,"Ġgetir":885,"eniz":886,"Ġih":887,"Ġbilg":888,"ĠKur":889,"ĠÃ¼l":890,"Ġfaz":891,"lÄ±ÄŁÄ±":892,"Ġyet":893,"istem":894,"Ġ#":895,"Ġetti":896,"ĠÃ¶ÄŁren":897,"Ġneden":898,"Ġkaz":899,"Ġken":900,"oÅŁ":901,"Ã¼st":902,"emek":903,"Ġilgili":904,"ĠBel":905,"han":906,"tar":907,"ret":908,"ĠdÃ¼ÅŁÃ¼n":909,"ĠÃ¶nemli":910,"Ġ7":911,"oloj":912,"mesi":913,"ĠgÃ¶z":914,"Ġhayat":915,"ĠÄ°l":916,"ehir":917,"ulu":918,"ĠsÄ±r":919,"asÄ±l":920,"Ġuygul":921,"Ġsun":922,"Ġpar":923,"Ġalt":924,"Ġhas":925,"tÃ¼r":926,"Ġdol":927,"ĠolduÄŁunu":928,"Ġolur":929,"Ġter":930,"Ġaz":931,"ide":932,"Ã§e":933,"mam":934,"Ã¼ven":935,"Ġduy":936,"maktadÄ±r":937,"ĠÃ¶nce":938,"Ġbin":939,"Ġede":940,"usu":941,"leÅŁtir":942,"siz":943,"Ã¶yle":944,"ika":945,"azÄ±r":946,"Ġam":947,"dÄ±ÄŁÄ±":948,"si":949,"lerde":950,"iÄŁer":951,"larÄ±nÄ±n":952,"ilik":953,"ĠÃ¼lk":954,"ĠdÃ¼zen":955,"dÄ±ÄŁ":956,"alarÄ±":957,"gÃ¼n":958,"larÄ±na":959,"ub":960,"iÅŁim":961,"azÄ±":962,"Ġ10":963,"og":964,"Ġis":965,"Ġoyun":966,"Ġ_":967,"der":968,"ne":969,"dÃ¼":970,"Ġkol":971,"ye":972,"esine":973,"ĠbaÅŁk":974,"Ġsat":975,"Ġbirlik":976,"ĠarasÄ±nda":977,"sek":978,"Ġdiye":979,"Ġtut":980,"ĠÃĸz":981,"Ġbek":982,"Ä±p":983,"itesi":984,"ĠÃ¼rÃ¼n":985,"Ġiki":986,"An":987,"ĠsÃ¶z":988,"gram":989,"esin":990,"201":991,"Ġtan":992,"Ġ8":993,"ĠdeÄŁer":994,"ĠAk":995,"ĠhiÃ§":996,"ĠEn":997,"Ġfazla":998,"rup":999,"ivers":1000,"ĠiÃ§inde":1001,"Ġtem":1002,"EN":1003,"Ġzor":1004,"ĠGen":1005,"fa":1006,"asar":1007,"esini":1008,"Ġsaat":1009,"Ġark":1010,"ĠaÄŁ":1011,"abilirsiniz":1012,"Ã§a":1013,"Ã¼nde":1014,"likle":1015,"ĠkonuÅŁ":1016,"Ġolmak":1017,"Ã¼yor":1018,"ĠiÃ§er":1019,"ĠhazÄ±r":1020,"eti":1021,"lerine":1022,"ig":1023,"adece":1024,"ĠkÄ±s":1025,"mekt":1026,"Ġhakk":1027,"yal":1028,"Ġgelen":1029,"tu":1030,"ĠalÄ±n":1031,"Ġolacak":1032,"lendir":1033,"alan":1034,"lama":1035,"tÄ±ÄŁÄ±":1036,"Ġsistem":1037,"eyen":1038,"lardan":1039,"Ġ0":1040,"larÄ±nda":1041,"iyon":1042,"Ġot":1043,"ĠBil":1044,"sÄ±z":1045,"ĠKar":1046,"ĠÄ°stanbul":1047,"diÄŁi":1048,"Ã¼p":1049,"ĠW":1050,"eÄŁi":1051,"Ġboy":1052,"ĠtaÅŁ":1053,"tÃ¼":1054,"cel":1055,"Ġbirlikte":1056,"ĠBak":1057,"Ġetk":1058,"ledi":1059,"maz":1060,"AL":1061,"Ġdedi":1062,"Ġhat":1063,"tal":1064,"nun":1065,"ĠâĢĵ":1066,"Ġbas":1067,"Ä±ndaki":1068,"eg":1069,"Ã¼nÃ¼":1070,"iyoruz":1071,"lerinin":1072,"Ä±cÄ±":1073,"ana":1074,"Ä°N":1075,"Ġeden":1076,"Ġbur":1077,"meye":1078,"Ġkim":1079,"Ġkonu":1080,"Ġkazan":1081,"ĠaÅŁ":1082,"Ġhaf":1083,"ĠPro":1084,"ĠulaÅŁ":1085,"ĠÃ¶l":1086,"Ġim":1087,"Ġdil":1088,"ĠÃ§ocuk":1089,"Ġ/":1090,"ĠdÄ±ÅŁ":1091,"orm":1092,"ET":1093,"Ġdest":1094,"com":1095,"Ġmes":1096,"ladÄ±":1097,"ĠaynÄ±":1098,"liÄŁ":1099,"ĠÄ°ÅŁ":1100,"ĠKon":1101,"mektedir":1102,"ĠdiÄŁer":1103,"AK":1104,"Ġdik":1105,"net":1106,"Ġ,":1107,"Ġtes":1108,"ĠBaÅŁkanÄ±":1109,"Ġkab":1110,"ĠJ":1111,"Äŀ":1112,"ĠdÃ¶nem":1113,"kÃ¼":1114,"ĠMÃ¼":1115,"Ġmut":1116,"ici":1117,"ĠkÃ¶":1118,"Ä±lÄ±k":1119,"Ġtel":1120,"acÄ±":1121,"ĠfarklÄ±":1122,"hur":1123,"ĠBeled":1124,"kat":1125,"Ġsit":1126,"ĠgÃ¶rÃ¼n":1127,"larla":1128,"ĠgÃ¼ven":1129,"Ġmod":1130,"Ġ9":1131,"Ġu":1132,"ĠÃľn":1133,"Ġkit":1134,"tÄ±ÄŁ":1135,"ahat":1136,"ĠâĢĺ":1137,"gil":1138,"bet":1139,"ĠyapÄ±lan":1140,"ĠÄ°s":1141,"dik":1142,"uv":1143,"Ġsadece":1144,"ĠeÅŁ":1145,"Ġif":1146,"ĠnasÄ±l":1147,"larÄ±mÄ±z":1148,"Ġsen":1149,"lerinde":1150,"Ġtekn":1151,"ĠkatÄ±l":1152,"ĠOr":1153,"Ä±zÄ±":1154,"Ġkurul":1155,"Ġ'":1156,"Ġkendi":1157,"Ġfilm":1158,"yla":1159,"dar":1160,"adaÅŁ":1161,"ĠCum":1162,"amp":1163,"luk":1164,"Ġ2018":1165,"Ã¼tÃ¼n":1166,"Ġyat":1167,"Ġiht":1168,"ĠAv":1169,"isinde":1170,"ĠbÃ¶lg":1171,"Ġtamam":1172,"ĠÃ¼st":1173,"ov":1174,"Ġanlam":1175,"ĠkarÅŁÄ±":1176,"IN":1177,"Ġgit":1178,"lak":1179,"na":1180,"Ġmi":1181,"aÅŁtÄ±r":1182,"Ġproj":1183,"ĠyardÄ±m":1184,"unuz":1185,"ĠÂ":1186,"EL":1187,"Ġeder":1188,"ĠÃ¶nc":1189,"osyal":1190,"ĠÃ¶r":1191,"ĠÃ§Ä±kar":1192,"ĠdoÄŁru":1193,"ket":1194,"ost":1195,"ilmesi":1196,"asÄ±na":1197,"Ġkor":1198,"ektÃ¶r":1199,"enk":1200,"ilerin":1201,"olu":1202,"ece":1203,"ing":1204,"Ġbiri":1205,"diÄŁ":1206,"ĠEk":1207,"ĠtÃ¼r":1208,"Ġhav":1209,"avaÅŁ":1210,"Ġbulunan":1211,"aylaÅŁ":1212,"Ġsal":1213,"ÄŁÃ¼":1214,"iyas":1215,"ES":1216,"ĠeÄŁitim":1217,"inizi":1218,"ĠsÄ±k":1219,"layan":1220,"Ġkr":1221,"AT":1222,"lerden":1223,"ank":1224,"ĠgÃ¶rev":1225,"Ġetm":1226,"Ġ200":1227,"Ġkan":1228,"Ġolduk":1229,"aba":1230,"oÄŁlu":1231,"Ä°R":1232,"Ġ15":1233,"ĠSon":1234,"Ä°L":1235,"ĠyaÅŁam":1236,"mi":1237,"dÄ±k":1238,"Ġbit":1239,"usunda":1240,"okt":1241,"Ġbile":1242,"efon":1243,"adÄ±ÄŁ":1244,"eme":1245,"ĠdÃ¼ny":1246,"ĠmÃ¼":1247,"atÄ±":1248,"Ġdikkat":1249,"ĠteÅŁ":1250,"sam":1251,"ĠyÄ±lÄ±nda":1252,"adÄ±":1253,"asÄ±nÄ±":1254,"ri":1255,"lÃ¼k":1256,"ĠGÃ¼n":1257,"Ġkarar":1258,"Ä±rak":1259,"Ġuygun":1260,"Ġbun":1261,"TÃ¼rk":1262,"kan":1263,"rak":1264,"eket":1265,"ĠÃľnivers":1266,"elim":1267,"ĠolmasÄ±":1268,"Ġmak":1269,"ĠdeÄŁiÅŁ":1270,"mÄ±ÅŁtÄ±r":1271,"ĠTek":1272,"ĠyÃ¼ksek":1273,"ĠÃ§alÄ±ÅŁmalar":1274,"ĠGenel":1275,"Ġfiyat":1276,"ĠSan":1277,"Ġtab":1278,"Ġdestek":1279,"Ġem":1280,"Ġanlat":1281,"Ġmal":1282,"ĠiliÅŁ":1283,"Ã¼mÃ¼z":1284,"Ġgid":1285,"mer":1286,"azar":1287,"ĠgerÃ§ekleÅŁtir":1288,"Ã¼ne":1289,"gel":1290,"ĠgÃ¶n":1291,"ĠarkadaÅŁ":1292,"Ġhaber":1293,"ĠiÅŁlem":1294,"âĢľ":1295,"ilecek":1296,"ĠbaÅŁar":1297,"ĠhakkÄ±nda":1298,"ĠgÃ¼Ã§":1299,"iyaret":1300,"Ġdav":1301,"lerimiz":1302,"ĠBur":1303,"ĠMil":1304,"ekk":1305,"muÅŁ":1306,"lerinden":1307,"Ġediyor":1308,"ĠkadÄ±n":1309,"Ġprogram":1310,"aj":1311,"lenen":1312,"ĠÃ¼zere":1313,"ent":1314,"ĠBaÅŁ":1315,"Ġoyn":1316,"umuz":1317,"ĠHaber":1318,"ge":1319,"ant":1320,"Bir":1321,"ĠÃ§ev":1322,"ĠbÄ±rak":1323,"Ġbah":1324,"Ġart":1325,"Ġsu":1326,"Ġuzun":1327,"sin":1328,"AY":1329,"Ã§ok":1330,"EK":1331,"oÄŁraf":1332,"esinin":1333,"lanan":1334,"amaz":1335,"lerle":1336,"Ġmerkez":1337,"Ġbelirt":1338,"Ġfir":1339,"ĠhÄ±z":1340,"Ġbilgi":1341,"bol":1342,"lum":1343,"Ġik":1344,"ort":1345,"ĠgeÃ§ir":1346,"ĠkarÅŁÄ±l":1347,"edik":1348,"bar":1349,"ĠAllah":1350,"gan":1351,"ĠkullanÄ±l":1352,"Ä±rÄ±m":1353,"sal":1354,"Ġsorun":1355,"Ġtasar":1356,"Ġihtiy":1357,"ĠyÃ¼r":1358,"nde":1359,"Ġgenel":1360,"onom":1361,"Ã¼ltÃ¼r":1362,"Ġmad":1363,"istan":1364,"ĠEÄŁ":1365,"AS":1366,"rÄ±ca":1367,"'t":1368,"ĠAd":1369,"ĠkaÃ§":1370,"duÄŁu":1371,"ĠÃ¼ret":1372,"larÄ±ndan":1373,"eda":1374,"tÄ±m":1375,"atan":1376,"ĠMÃ¼dÃ¼r":1377,"ĠBen":1378,"Ã¼nkÃ¼":1379,"Ġhep":1380,"Ġdin":1381,"ĠoluÅŁtur":1382,"ver":1383,"res":1384,"ĠkiÅŁi":1385,"Ġsonr":1386,"Ġcan":1387,"kÄ±":1388,"ĠoluÅŁ":1389,"19":1390,"mayÄ±":1391,"ĠpaylaÅŁ":1392,"akat":1393,"ĠsaÄŁlÄ±k":1394,"ĠPar":1395,"ali":1396,"urt":1397,"ĠÃ¼y":1398,"ĠÃ¼zerine":1399,"Ġetmek":1400,"ĠmÄ±":1401,"ĠÃ¼zerinde":1402,"mir":1403,"lÄ±y":1404,"ĠYÄ±l":1405,"rar":1406,"ĠsÄ±n":1407,"Ã§i":1408,"ĠÃ§Ã¶z":1409,"ĠÃ¶ÄŁrenc":1410,"Ġkayn":1411,"ĠEl":1412,"AM":1413,"ĠbaÅŁka":1414,"rik":1415,"kara":1416,"ber":1417,"leme":1418,"siyon":1419,"ĠAt":1420,"Ġer":1421,"ucu":1422,"Ġseb":1423,"ize":1424,"atik":1425,"oÄŁan":1426,"Ġmuh":1427,"Ġortaya":1428,"ĠÃľniversitesi":1429,"ĠDev":1430,"Ġedilm":1431,"Ġdem":1432,"Ġziyaret":1433,"ĠYar":1434,"ale":1435,"ĠMerkez":1436,"ĠÃ¼n":1437,"Ġkolay":1438,"Ġtelefon":1439,".âĢĿ":1440,"Ġres":1441,"ĠTar":1442,"ĠgÃ¶rÃ¼ÅŁ":1443,"Ã¼Ã§Ã¼k":1444,"Ã®":1445,"Ġolsun":1446,"ĠÅŁu":1447,"BD":1448,"ĠbÃ¶lÃ¼m":1449,"ag":1450,"ĠEv":1451,"ĠbazÄ±":1452,"ĠBaÅŁkan":1453,"lim":1454,"ĠyayÄ±n":1455,"ĠYap":1456,"Ġkoy":1457,"Ġ12":1458,"10":1459,"Ä±yorum":1460,"cek":1461,"ĠyÃ¶net":1462,"las":1463,"rupa":1464,"lamak":1465,"ite":1466,"ĠmaÃ§":1467,"ĠDÃ¼n":1468,"ekkÃ¼r":1469,"dum":1470,"Ġerk":1471,"ĠTL":1472,"cih":1473,"suz":1474,"dÄ±ndan":1475,"Ġplan":1476,"eyin":1477,"Ġkabul":1478,"uru":1479,"ĠCumhur":1480,"azet":1481,"ĠyakÄ±n":1482,"min":1483,"gin":1484,"irket":1485,"ust":1486,"ile":1487,"Ġhareket":1488,"ternet":1489,"Ġbenim":1490,"Ġmet":1491,"imdi":1492,"ĠDr":1493,"ĠbÃ¼tÃ¼n":1494,"ĠgeliÅŁ":1495,"ĠbÃ¶yle":1496,"sanÄ±z":1497,"otoÄŁraf":1498,"ĠyaklaÅŁ":1499,"Ġ%":1500,"Ġifade":1501,"elerin":1502,"ediÄŁ":1503,"isini":1504,"Ġrahat":1505,"ĠHer":1506,"Ġun":1507,"Ġhan":1508,"daÅŁ":1509,"edef":1510,"Ġuygulam":1511,"gul":1512,"UR":1513,"tif":1514,"Ġmilyon":1515,"),":1516,"Ġgeldi":1517,"izi":1518,"tiÄŁ":1519,"Ä°M":1520,"bilir":1521,"Ġolabilir":1522,"eÅŁit":1523,"EM":1524,"ĠÄ°Ã§":1525,"ern":1526,"mez":1527,"ĠgÃ¼nÃ¼":1528,"per":1529,"Ġyapan":1530,"arasÄ±":1531,"Ġkonusunda":1532,"adÄ±ÄŁÄ±":1533,"Ġmev":1534,"ĠÃ¼Ã§":1535,"ĠMah":1536,"van":1537,"may":1538,"Ġkez":1539,"Ġtur":1540,"ĠBÃ¼yÃ¼k":1541,"uc":1542,"ĠEs":1543,"Ġyay":1544,"emm":1545,"iliyor":1546,"edav":1547,"aal":1548,"oloji":1549,"duÄŁ":1550,"Ġbilin":1551,"Ä±ldÄ±":1552,"Ġtercih":1553,"uluk":1554,"ĠAs":1555,"Ġancak":1556,"Ġw":1557,"Ġtat":1558,"Ä°K":1559,"ele":1560,"he":1561,"ĠÂ»":1562,"dim":1563,"ĠkÄ±z":1564,"ĠaÃ§Ä±klam":1565,"Ã¶k":1566,"Ġyerine":1567,"ĠvardÄ±r":1568,"ĠOy":1569,"akk":1570,"Ġayr":1571,"ĠYÃ¶n":1572,"unca":1573,"ĠsÄ±":1574,"ĠbirÃ§ok":1575,"Ä±ma":1576,"OR":1577,"obil":1578,"Ġedilen":1579,"trol":1580,"Ġindir":1581,"ayfa":1582,"ĠbugÃ¼n":1583,"ĠgÃ¶nder":1584,"Ġpol":1585,"Ġdiy":1586,"sunuz":1587,"ĠÄ°z":1588,"AD":1589,"isine":1590,"ĠSer":1591,"iyesi":1592,"Ġkom":1593,"Ġisim":1594,"ayÄ±s":1595,"ĠEÄŁitim":1596,"ĠiÃ§erisinde":1597,"oÄŁu":1598,"ĠardÄ±ndan":1599,"LAR":1600,"umu":1601,"ĠBÃ¶l":1602,"Ġkes":1603,"tiv":1604,"ĠdÃ¼nya":1605,"nda":1606,"sik":1607,"tem":1608,"Ġ18":1609,"masÄ±nÄ±":1610,"gÄ±":1611,"ektedir":1612,"ow":1613,"Ġman":1614,"meler":1615,"Ġmodel":1616,"acaÄŁÄ±":1617,"ĠyÃ¼zde":1618,"ĠartÄ±k":1619,"Ġyapmak":1620,"Ġtav":1621,"erj":1622,"Ġsize":1623,"Ġyen":1624,"undan":1625,"12":1626,"Ġmer":1627,"Ġhis":1628,"ĠHas":1629,"Ã¼cret":1630,"ON":1631,"erli":1632,"miÅŁtir":1633,"Ġtal":1634,"ĠAncak":1635,"anan":1636,"Ã¼b":1637,"ĠsektÃ¶r":1638,"Ä°Y":1639,"ĠgeliÅŁtir":1640,"Ä±yoruz":1641,"ekli":1642,"TÃ¼rkiye":1643,"ilere":1644,"leyen":1645,"ĠÃ§eÅŁit":1646,"ĠÃĸzel":1647,"Ġherk":1648,"ĠÃ¼cret":1649,"Ġyas":1650,"ĠyaptÄ±ÄŁÄ±":1651,"uslar":1652,"Ä±ya":1653,"Ġhedef":1654,"abilm":1655,"Ä±ÅŁÄ±":1656,"Ġzamanda":1657,"Ġkapsam":1658,"Ġmey":1659,"LI":1660,"eceÄŁi":1661,"Ġkam":1662,"Ġses":1663,"ĠKan":1664,"indeki":1665,"ĠOl":1666,"LER":1667,"50":1668,"ĠAvrupa":1669,"Ġber":1670,"Ġyorum":1671,"Ä±ÅŁtÄ±r":1672,"abÄ±":1673,"ĠsonuÃ§":1674,"etler":1675,"Ġyine":1676,"Ġkav":1677,"ĠBakan":1678,"Ġhafta":1679,"ud":1680,"Ġtah":1681,"Ġ.":1682,"lÄ±yor":1683,"ĠNe":1684,"ðŁ":1685,"Ġsosyal":1686,"Ġ2017":1687,"asÄ±nÄ±n":1688,"Ġbey":1689,"ĠuÃ§":1690,"ĠkÄ±r":1691,"Ġadam":1692,"ĠteÅŁekkÃ¼r":1693,"acaktÄ±r":1694,"ĠyanÄ±":1695,"ĠaraÃ§":1696,"doÄŁan":1697,"ĠmÃ¼ÅŁ":1698,"madan":1699,"ĠTur":1700,"Ġrenk":1701,"edim":1702,"Ġdak":1703,"Ġmah":1704,"ĠYeni":1705,"ĠHal":1706,"ĠgeÃ§en":1707,"Ġpek":1708,"kÃ¼n":1709,"alt":1710,"Ġkil":1711,"ch":1712,"ĠOn":1713,"Ġcev":1714,"Ġdah":1715,"ĠgenÃ§":1716,"tim":1717,"Ä±rs":1718,"Ġgelir":1719,"Ġhemen":1720,"Ġkitap":1721,"Ã§Ä±":1722,"ĠoldukÃ§a":1723,"ĠBiz":1724,"kinci":1725,"ĠKad":1726,"Ġbunu":1727,"oÄŁun":1728,"bu":1729,"Ã¼cad":1730,"ĠTop":1731,"ebilirsiniz":1732,"gu":1733,"Ġtoplan":1734,"Ġokul":1735,"ĠkÄ±sa":1736,"ĠVE":1737,"ren":1738,"Ġoluyor":1739,"Ġinan":1740,"ĠAnkara":1741,"Ġhes":1742,"sil":1743,"masÄ±na":1744,"ĠOk":1745,"Ġid":1746,"Ġ11":1747,"of":1748,"ĠsÃ¶yledi":1749,"onu":1750,"tin":1751,"Ġetkin":1752,"Ġbiraz":1753,"ĠaraÅŁtÄ±r":1754,"all":1755,"ĠmÃ¼z":1756,"Ġbar":1757,"det":1758,".\"":1759,"Ġiti":1760,"Ġmark":1761,"olar":1762,"Ġolay":1763,"iyi":1764,"ĠÅŁirket":1765,"Ġyarat":1766,"alat":1767,"Ġ30":1768,"Ġli":1769,"Ġadet":1770,"Ġgereken":1771,"Ġmem":1772,"Ġdevlet":1773,"ani":1774,"fer":1775,"Ġkontrol":1776,"ekten":1777,"inize":1778,"dÃ¼l":1779,"Al":1780,"nek":1781,"Ġtoplum":1782,"ari":1783,"Ġbenz":1784,"ĠABD":1785,"ĠtakÄ±m":1786,"Ġod":1787,"ayet":1788,"Ä°T":1789,"ĠmÃ¼m":1790,"ĠseÃ§im":1791,"Ġ14":1792,"ĠAma":1793,"ĠGel":1794,"Ã¼nÃ¼n":1795,"oh":1796,"HP":1797,"ĠKas":1798,"baÅŁk":1799,"ĠbÃ¼y":1800,"000":1801,"din":1802,"Ġmu":1803,"Ä±lÄ±r":1804,"ĠsÃ¼re":1805,"Ġtakip":1806,"ĠÅŁeh":1807,"ĠyaÄŁ":1808,"ĠfotoÄŁraf":1809,"AÅŀ":1810,"Ä°S":1811,"lemek":1812,"Ġmas":1813,"Ä°Z":1814,"Ġhalk":1815,"Ġbilm":1816,"manÄ±n":1817,"Ġsab":1818,"Ġveren":1819,"ĠKal":1820,"duk":1821,"Ġbizim":1822,"Ġ16":1823,"ĠOt":1824,"Ġac":1825,"Ġitibar":1826,"Ġhast":1827,"30":1828,"ĠEy":1829,"ĠHay":1830,"ĠhiÃ§bir":1831,"ĠdeÄŁerlendir":1832,"Ġilet":1833,"Ġkurum":1834,"bak":1835,"ĠkÃ¼Ã§Ã¼k":1836,"Ġkut":1837,"Ġders":1838,"Ġekonom":1839,"etmen":1840,"Ġincel":1841,"landÄ±":1842,"DE":1843,"ĠÃ§alÄ±ÅŁan":1844,"Ġsanat":1845,"ĠbaÅŁladÄ±":1846,"Ġvatan":1847,"lÃ¼ÄŁÃ¼":1848,"imizin":1849,"Ġvur":1850,"Ġpara":1851,"ĠVe":1852,"aban":1853,"Ġgeri":1854,"Ġonun":1855,"Ä±t":1856,"for":1857,"dana":1858,"ĠÃĸn":1859,"ĠbaÅŁv":1860,"Ġalmak":1861,"ve":1862,"Ġbana":1863,"Ã¼sÃ¼":1864,"ĠdÃ¶nÃ¼ÅŁ":1865,"yle":1866,"ÅŁam":1867,"Ġspor":1868,"Ġait":1869,"amak":1870,"malÄ±":1871,"UL":1872,"ĠBelediye":1873,"ĠBey":1874,"ni":1875,"ilmiÅŁ":1876,"ĠmÃ¼mkÃ¼n":1877,"Ġeski":1878,"uslararasÄ±":1879,"lÃ¼l":1880,"Ġberaber":1881,"alÄ±m":1882,"Ġsey":1883,"pr":1884,"abilecek":1885,"uÄŁ":1886,"Ġolup":1887,"Ġgez":1888,"uyla":1889,"ĠaltÄ±nda":1890,"sman":1891,"ĠilÃ§":1892,"hangi":1893,"mem":1894,"Ġav":1895,"enek":1896,"Ã¼mÃ¼":1897,"tiÄŁi":1898,"eyim":1899,"afa":1900,"Ä±lmasÄ±":1901,"ĠgÃ¶rÃ¼l":1902,"Ġper":1903,"ker":1904,"ĠTekn":1905,"Ġtedav":1906,"UN":1907,"isinin":1908,"Ġkalit":1909,"acaÄŁÄ±nÄ±":1910,"umlu":1911,"ĠSaÄŁ":1912,"vet":1913,"ĠÃĸÄŁr":1914,"ÅŁehir":1915,"ĠKay":1916,"izm":1917,"any":1918,"ĠsavaÅŁ":1919,"imizi":1920,"Ġtemiz":1921,"ĠÃ¶de":1922,"Ġkaynak":1923,"ince":1924,"ĠmÃ¼cad":1925,"dÄ±n":1926,"Ġ13":1927,"be":1928,"iyeti":1929,"landÄ±r":1930,"ime":1931,"ĠbaÄŁlÄ±":1932,"Ġtekrar":1933,"gÄ±n":1934,"Ben":1935,"Ã¼kÃ¼m":1936,"deÅŁ":1937,"erken":1938,"ĠDÃ¼nya":1939,"erÃ§":1940,"Ä±lmÄ±ÅŁ":1941,"rans":1942,"ĠKul":1943,"Ġsoru":1944,"Ġuzak":1945,"ĠÃ¶zellik":1946,"ĠÃ¼zerinden":1947,"br":1948,"ĠÄ°ngil":1949,"imize":1950,"azi":1951,"aten":1952,"Ġe":1953,"Ġzar":1954,"Ar":1955,"Ä±nÄ±f":1956,"Ġ[":1957,"Ġ17":1958,"Ġner":1959,"Ä°n":1960,"ĠsÄ±nÄ±r":1961,"Ġonu":1962,"ĠErdoÄŁan":1963,"ĠaÄŁÄ±r":1964,"Ġsin":1965,"Ġinternet":1966,"Ġfay":1967,"can":1968,"Ġkah":1969,"efer":1970,"aaliyet":1971,"dÄ±ÄŁÄ±nÄ±":1972,"uyu":1973,"Ä±sÄ±nda":1974,"Ġyemek":1975,"lek":1976,"ĠUy":1977,"Ġail":1978,"Ã¼lt":1979,"lÄ±nda":1980,"ĠDaha":1981,"ĠanlaÅŁ":1982,"ron":1983,"Ġbirbir":1984,"Ġbunun":1985,"ezon":1986,"cÃ¼":1987,"etay":1988,"Ġengel":1989,"ĠBunun":1990,"Ġedildi":1991,"Son":1992,"Ġkesin":1993,"icaret":1994,"ĠtÃ¼k":1995,"ĠHaz":1996,"ĠalÄ±ÅŁ":1997,"Ġ24":1998,"Ġdiz":1999,"Ġistem":2000,"ĠÅŁehir":2001,"Ġdir":2002,"Ġsiyas":2003,"elere":2004,"ĠAK":2005,"adÄ±k":2006,"Ġ2016":2007,"Ġrek":2008,"taj":2009,"ideo":2010,"mÃ¼ÅŁ":2011,"larÄ±yla":2012,"ĠÅŀub":2013,"ehmet":2014,"Ġelde":2015,"ĠÄ°lk":2016,"Ġsak":2017,"ast":2018,"isyon":2019,"Ġerkek":2020,"Ä±za":2021,"Ġsizin":2022,"ÃľR":2023,"ĠBelediyesi":2024,"ĠhÄ±zlÄ±":2025,"day":2026,"ĠBay":2027,"Ġnokt":2028,"eci":2029,"ĠMar":2030,"ĠyatÄ±rÄ±m":2031,"ĠkoÅŁ":2032,"ĠiliÅŁk":2033,"Ġotur":2034,"Ġolsa":2035,"ĠMerkezi":2036,"ilerine":2037,"Ġedin":2038,"ĠKo":2039,"ilerini":2040,"ĠdeÄŁildir":2041,"ift":2042,"ĠdeÄŁiÅŁik":2043,"utbol":2044,"Ġsayf":2045,"elerini":2046,"esel":2047,"ĠkÃ¼ltÃ¼r":2048,"taÅŁ":2049,"ĠÃ¶zellikle":2050,"Ġkir":2051,"ĠdeÄŁiÅŁtir":2052,"Ġverdi":2053,"Ġmed":2054,"ulan":2055,"alarÄ±n":2056,"talya":2057,"Ġboyunca":2058,"asyonu":2059,"ĠÃ§Ä±kan":2060,"ĠvatandaÅŁ":2061,"Ġhiss":2062,"isay":2063,"tep":2064,"IR":2065,"lk":2066,"lo":2067,"Ġ25":2068,"Ġgerekir":2069,"oru":2070,"cut":2071,"Ġisteyen":2072,"ĠDevlet":2073,"ĠAh":2074,"ĠgeniÅŁ":2075,"ĠUz":2076,"Ã¼f":2077,"dÃ¼ÄŁ":2078,"ĠÃ§aÄŁ":2079,"Ġnedeniyle":2080,"ĠÃ§evr":2081,"Ġbildir":2082,"ĠyÃ¶nelik":2083,"Ġfaaliyet":2084,"malarÄ±":2085,"imde":2086,"ĠkÄ±y":2087,"Ġherhangi":2088,"ĠkayÄ±":2089,"meyi":2090,"ĠraÄŁ":2091,"vis":2092,"arken":2093,"ĠMart":2094,"Ġ...":2095,"ĠÃĩÃ¼nkÃ¼":2096,"ĠsatÄ±ÅŁ":2097,"ĠtanÄ±":2098,"adolu":2099,"esinden":2100,"ĠAmer":2101,"elen":2102,"ĠHav":2103,"ĠGÃ¶r":2104,"ĠDem":2105,"DA":2106,"ĠAyrÄ±ca":2107,"ĠHar":2108,"ĠihtiyaÃ§":2109,"En":2110,"uan":2111,"Ġolmayan":2112,"alarda":2113,"ĠEm":2114,"ebek":2115,"Ã¼ler":2116,"isan":2117,"11":2118,"ĠyardÄ±mcÄ±":2119,"ĠParti":2120,"acaÄŁÄ±z":2121,"eceÄŁini":2122,"alet":2123,"ba":2124,"ĠinÅŁ":2125,"Ġtarihi":2126,"Ġkonusu":2127,"iran":2128,"Ġekip":2129,"one":2130,"Ġsil":2131,"Ġister":2132,"Ġyani":2133,"ener":2134,"Ġhey":2135,"meden":2136,"ĠSpor":2137,"Ġtemel":2138,"Ġtarihinde":2139,"Ġgeliyor":2140,"sÄ±n":2141,"Ġbize":2142,"Ġoran":2143,"Ġdair":2144,"Ġmillet":2145,"Ġbay":2146,"Ġyeniden":2147,"ĠEt":2148,"itik":2149,"Ġsahibi":2150,"Ġcez":2151,"ĠSur":2152,"su":2153,"ĠÃ§alÄ±ÅŁma":2154,"ĠsaldÄ±r":2155,"ĠsÄ±ra":2156,"eÄŁin":2157,"ĠUl":2158,"Ġ100":2159,"AB":2160,"ĠraÄŁmen":2161,"ĠTr":2162,"emmuz":2163,"15":2164,"ĠAli":2165,"ĠAralÄ±k":2166,"Ġ?":2167,"AH":2168,"Ġcih":2169,"ĠÃ§Ã¶zÃ¼m":2170,"emi":2171,"Ġunut":2172,"elerde":2173,"luluk":2174,"ĠyaklaÅŁÄ±k":2175,"lardÄ±r":2176,"Ġgelecek":2177,"leriyle":2178,"ĠRus":2179,"ĠKom":2180,"sÄ±nÄ±z":2181,"ÂŃ":2182,"Ġiddi":2183,"Ġistiyor":2184,"Ġ>":2185,"ED":2186,"Ġburada":2187,"Ġsayesinde":2188,"Ã¼nden":2189,"Ġortam":2190,"Ġikinci":2191,"Ġortak":2192,"isayar":2193,"ĠMuh":2194,"ĠtÄ±k":2195,"ĠkaldÄ±r":2196,"ij":2197,").":2198,"ĠKasÄ±m":2199,"IM":2200,"Ġaday":2201,"ĠgerÃ§ekleÅŁ":2202,"cÄ±sÄ±":2203,"ĠaldÄ±":2204,"nÄ±z":2205,"ĠparÃ§":2206,"ĠAb":2207,"ĠdolayÄ±":2208,"ĠyÃ¶ntem":2209,"emin":2210,"ĠsayÄ±":2211,"Ġgrup":2212,"ĠyazÄ±":2213,"ĠgiriÅŁ":2214,"ww":2215,"Ġsar":2216,"Ġimz":2217,"lis":2218,"ĠgÃ¼nde":2219,"bah":2220,"AZ":2221,"lÃ¼ÄŁ":2222,"inci":2223,"Ġ:)":2224,"Ä±sÄ±ndan":2225,"Ä±rken":2226,"Ġorgan":2227,"Ġanda":2228,"Ġkork":2229,"gisi":2230,"Ġmis":2231,"ĠOsman":2232,"Ġmik":2233,"Ġedecek":2234,"ĠolmuÅŁ":2235,"AP":2236,"gun":2237,"iÄŁ":2238,"ĠTemmuz":2239,"ĠuÄŁr":2240,"liyor":2241,"enc":2242,"adÄ±ÄŁÄ±nÄ±":2243,"ĠyaptÄ±":2244,"Ġenerj":2245,"ĠaÃ§Ä±l":2246,"ĠProf":2247,"Ġgec":2248,"Ġotom":2249,"ĠkapsamÄ±nda":2250,"ĠÃ§eÅŁitli":2251,"Ġgerekli":2252,"ĠdÄ±ÅŁÄ±nda":2253,"ĠyÃ¼ksel":2254,"Ġiy":2255,"Ġsok":2256,"alnÄ±z":2257,"Ġhale":2258,"ÃľN":2259,"âĢĺ":2260,"Ġmek":2261,"ediye":2262,"ĠyÃ¶netim":2263,"ĠMehmet":2264,"kil":2265,"Ġof":2266,"Ġboz":2267,"ĠHat":2268,"Ġmevcut":2269,"yar":2270,"ĠsÃ¼rdÃ¼r":2271,"egor":2272,"ĠÃ¶ner":2273,"asa":2274,"ĠRes":2275,"ĠyoÄŁun":2276,"ĠayrÄ±":2277,"ĠAlman":2278,"ĠEylÃ¼l":2279,"Ä±nÄ±zÄ±":2280,"esiyle":2281,"ĠEkim":2282,"ĠadÄ±m":2283,"Ġbeni":2284,"ĠÅŁÃ¶yle":2285,"anlar":2286,"Ġfik":2287,"rim":2288,"Ġkamp":2289,"ĠtasarÄ±m":2290,"ĠKat":2291,"Ã¶rt":2292,"ĠsaÃ§":2293,"lendi":2294,"uma":2295,"ustafa":2296,"mal":2297,"ĠboÅŁ":2298,"Ġotel":2299,"ind":2300,"Ġtoplam":2301,"Ġaras":2302,"ĠÃĩok":2303,"Ġvak":2304,"ĠkarÅŁÄ±laÅŁ":2305,"ĠaÅŁaÄŁÄ±":2306,"ĠFilm":2307,"Ġcevap":2308,"ĠkullanÄ±cÄ±":2309,"Ġoyuncu":2310,"ĠtÃ¼rlÃ¼":2311,"ayi":2312,"Ġ2015":2313,"ĠÅŁekl":2314,"Ġherkes":2315,"ĠTak":2316,"Ġteknik":2317,"Ġkonuda":2318,"ĠNo":2319,"ukuk":2320,"ĠÃ§iz":2321,"Ġteh":2322,"amÄ±z":2323,"ĠKurulu":2324,"Ġgerekiyor":2325,"Ġederek":2326,"okr":2327,"18":2328,"Ġlis":2329,"Ä±ÅŁÄ±k":2330,"ĠÃ¶lÃ§":2331,"Ġsav":2332,"lÃ¼m":2333,"ĠbakÄ±m":2334,"Ġpazar":2335,"Ġdahil":2336,"Ġdetay":2337,"Ġelekt":2338,"kaÃ§":2339,"ĠOyun":2340,"ĠyarÄ±ÅŁ":2341,"Ã¼cÃ¼":2342,"ĠMes":2343,"usal":2344,"Ġteknoloj":2345,"Ay":2346,"ere":2347,"log":2348,"bi":2349,"Ġyarar":2350,"Ġmadde":2351,"Ġcin":2352,"Ġ50":2353,"Ġgazet":2354,"ESÄ°":2355,"eceÄŁiniz":2356,"oktor":2357,"ĠYaÅŁ":2358,"zem":2359,"Ġgiy":2360,"Ġdok":2361,"anlÄ±":2362,"adde":2363,"ĠÃ¶rg":2364,"2018":2365,"ĠolacaktÄ±r":2366,"erson":2367,"ĠDoÄŁ":2368,"ĠhÃ¼kÃ¼m":2369,"ĠÃ§ar":2370,"Ġamac":2371,"ook":2372,"Ġdemek":2373,"ĠkardeÅŁ":2374,"Her":2375,"ediÄŁi":2376,"etin":2377,"ĠSayfa":2378,"ĠbaÅŁarÄ±lÄ±":2379,"Ġmez":2380,"ĠmÃ¼ÅŁter":2381,"Ġbilgiler":2382,"ĠdÃ¼zenlenen":2383,"Ġle":2384,"isk":2385,"ĠÃ¼retim":2386,"Ġsebep":2387,"Ġey":2388,"ikay":2389,"anÄ±ÅŁ":2390,"lilik":2391,"ĠÄ°zmir":2392,"ii":2393,"ĠhatÄ±r":2394,"200":2395,"Ġrak":2396,"ĠtanÄ±m":2397,"ĠAnadolu":2398,"emal":2399,"Ġbelli":2400,"itap":2401,"Ġbab":2402,"arkÄ±":2403,"tiÄŁini":2404,"tay":2405,"Ġab":2406,"teri":2407,"ĠiletiÅŁim":2408,"larÄ±nÄ±z":2409,"ĠMayÄ±s":2410,"ĠamaÃ§":2411,"atÃ¼rk":2412,"ĠbaÄŁlan":2413,"luÄŁ":2414,"ĠdoÄŁal":2415,"ĠmaÄŁ":2416,"abancÄ±":2417,"ĠkonuÅŁtu":2418,"Ġdayan":2419,"Ġsezon":2420,"ĠÅŁimdi":2421,"OL":2422,"Ġdiyor":2423,"Ġkey":2424,"ser":2425,"imleri":2426,"mey":2427,"uar":2428,"alama":2429,"ĠNisan":2430,"ĠyanÄ±nda":2431,"manÄ±z":2432,"ej":2433,"evi":2434,"ĠÅŁart":2435,"ira":2436,"adem":2437,"ĠYÃ¼k":2438,"Ä±ntÄ±":2439,"lif":2440,"Ġmesaj":2441,"line":2442,"Ġhava":2443,"Ġhangi":2444,"lin":2445,"ĠsuÃ§":2446,"ĠdoÄŁr":2447,"ĠsÄ±cak":2448,"ĠAf":2449,"Ġdurumda":2450,"izyon":2451,"Ġedil":2452,"vek":2453,"ĠHaziran":2454,"ST":2455,"ĠkÃ¶tÃ¼":2456,"ĠHak":2457,"Ġfayd":2458,"ÂĴ":2459,"Ġtavs":2460,"ĠkuruluÅŁ":2461,"ĠfÄ±rs":2462,"ĠKr":2463,"veriÅŁ":2464,"amam":2465,"osu":2466,"ĠKap":2467,"ĠAÃ§":2468,"ĠistediÄŁ":2469,"Ġuzman":2470,"ĠÃ§Ä±ktÄ±":2471,"Ä±da":2472,"Ġtep":2473,"ĠettiÄŁi":2474,"ĠkÄ±sm":2475,"Ġdakika":2476,"Ġbeklen":2477,"Ġiler":2478,"atif":2479,"Ġnum":2480,"Ana":2481,"ore":2482,"Ġinsanlar":2483,"Ġzarar":2484,"Ġona":2485,"ĠadÄ±":2486,"lanmÄ±ÅŁ":2487,".)":2488,"Ã½":2489,"baÅŁkanÄ±":2490,"eÅŁil":2491,"ĠBar":2492,"Ġtemsil":2493,"Ġgece":2494,"ĠÃĩocuk":2495,"Ġkelim":2496,"alarÄ±nda":2497,"ĠYardÄ±m":2498,"ĠDeniz":2499,"Ġsek":2500,"Ã»":2501,"Ġanlay":2502,"yan":2503,"Ġcihaz":2504,"hal":2505,"dÄ±z":2506,"Ġkaybet":2507,"Ġbilim":2508,"ĠterÃ¶r":2509,"Ġcid":2510,"Ġederim":2511,"ĠyaptÄ±ÄŁ":2512,"Ġann":2513,"spor":2514,"Ġolmaz":2515,"ĠðŁ":2516,"Ã¼le":2517,"ĠBul":2518,"ork":2519,"16":2520,"ĠÄ°st":2521,"IL":2522,"ĠyaÅŁan":2523,"air":2524,"inal":2525,"gÃ¼r":2526,"mesini":2527,"Ġoper":2528,"fak":2529,"ĠFak":2530,"Ġ199":2531,"meyen":2532,"ĠyÃ¼zden":2533,"ĠTarih":2534,"inc":2535,"emizde":2536,"UM":2537,"Ġnedenle":2538,"Ġkas":2539,"ĠkayÄ±t":2540,"Ġlist":2541,"Ġyem":2542,"ĠSev":2543,"ĠÃ§oc":2544,"Ġsistemi":2545,"abiliyor":2546,"ina":2547,"Ġedeb":2548,"Ġderece":2549,"Ã¼ÄŁ":2550,"ampiyon":2551,"Ġdar":2552,"Ã¼len":2553,"Ġ22":2554,"ĠIn":2555,"ĠhoÅŁ":2556,"ĠsÃ¼rekli":2557,"ĠvardÄ±":2558,"fen":2559,"uya":2560,"Ä±mda":2561,"ĠOcak":2562,"ĠsaÄŁlay":2563,"Ġpat":2564,"ĠÃľr":2565,"ĠSiz":2566,"aca":2567,"ĠiÅŁlet":2568,"gesi":2569,"Ġana":2570,"ĠbaÅŁlad":2571,"isel":2572,"uvar":2573,"ĠTel":2574,"Ġpart":2575,"Ä±mÄ±za":2576,"ati":2577,"meli":2578,"ĠBakanlÄ±ÄŁÄ±":2579,"ĠÃ¼nivers":2580,"ĠÃ¶yle":2581,"ĠsÄ±nÄ±f":2582,"Ġtalep":2583,"ĠMustafa":2584,"ĠbaÅŁlam":2585,"Ġistiyorum":2586,"ĠBun":2587,"Ã¼yorum":2588,"ĠKÃ¼ltÃ¼r":2589,"Ġhesap":2590,"Ä±lÄ±ÄŁ":2591,"Ä°stanbul":2592,"ĠHaberleri":2593,"amÄ±":2594,"Ġvermek":2595,"Ġmutlu":2596,"amsun":2597,"gr":2598,"Ä±lÄ±m":2599,"mar":2600,"sen":2601,"ĠÃ¶rnek":2602,"Ġprof":2603,"ĠMilli":2604,"ĠHan":2605,"Ġweb":2606,"ĠTer":2607,"ĠiliÅŁkin":2608,"ĠadÄ±na":2609,"ĠÄ°nsan":2610,"iliÄŁi":2611,"eder":2612,"ormal":2613,"oda":2614,"rafik":2615,"Ġmerak":2616,"Ġyurt":2617,"mayan":2618,"Ä±yÄ±":2619,"ĠDer":2620,"imler":2621,"Ġmen":2622,"Ġj":2623,"Ġ23":2624,"Ġ2014":2625,"Ġip":2626,"ĠsatÄ±n":2627,"ĠbaÅŁkan":2628,"Ġbulundu":2629,"iri":2630,"gam":2631,"laka":2632,"tiÄŁimiz":2633,"Ġverilen":2634,"ĠTÃ¼rkÃ§e":2635,"Ġediyorum":2636,"Ġsizi":2637,"Ġekran":2638,"ova":2639,"ĠMÃ¼dÃ¼rlÃ¼ÄŁÃ¼":2640,"Ġbes":2641,"ĠvÃ¼c":2642,"ceÄŁ":2643,"ĠgerÃ§ekten":2644,"Ġsonunda":2645,"Ä±sÄ±nÄ±":2646,"ĠtÃ¼ket":2647,"ĠkiÅŁinin":2648,"imli":2649,"ĠaÃ§Ä±sÄ±ndan":2650,"Ġzaten":2651,"ĠMillet":2652,"Ä°ÅŁ":2653,"oog":2654,"Ġyerde":2655,"ĠgÃ¼Ã§lÃ¼":2656,"Ġdavran":2657,"ĠcanlÄ±":2658,"ĠLis":2659,"ĠakÄ±l":2660,"Ġvideo":2661,"pit":2662,"14":2663,"ĠyapÄ±lacak":2664,"ĠSaÄŁlÄ±k":2665,"ayacak":2666,"eÅŁtir":2667,"ĠkÃ¶y":2668,"Ġkalan":2669,"lerce":2670,"Â´":2671,"manÄ±":2672,"ĠeÄŁlen":2673,"alara":2674,"Ġteslim":2675,"ĠÃĸr":2676,"ĠYaz":2677,"ĠSu":2678,"ĠalÄ±yor":2679,"ĠÄ°ngiliz":2680,"ĠEÄŁer":2681,"Er":2682,"ĠÄ°Ã§in":2683,"Ġruh":2684,"Ġbor":2685,"Ġedebilir":2686,"oogle":2687,"daÄŁ":2688,"ĠDern":2689,"forman":2690,"Ġkorum":2691,"ĠyapÄ±":2692,"ĠProj":2693,"lÄ±ÅŁ":2694,"elerine":2695,"engin":2696,"ĠyalnÄ±z":2697,"ĠVer":2698,"ht":2699,"Etik":2700,"ĠbeÄŁ":2701,"sak":2702,"Ġmot":2703,"ĠHizmet":2704,"ĠgeÃ§miÅŁ":2705,"baÅŁ":2706,"Ġmemnun":2707,"24":2708,"atÃ¶r":2709,"ĠMan":2710,"Ġhaline":2711,"adÄ±m":2712,"adaki":2713,"ĠdÃ¼nyanÄ±n":2714,"ĠbirkaÃ§":2715,"ĠakÅŁam":2716,"Ġgi":2717,"Ġtart":2718,"alarÄ±nÄ±":2719,"med":2720,"Ġverir":2721,"ĠÃ¶ÄŁretmen":2722,"ĠBah":2723,"ga":2724,"ĠbaÅŁlat":2725,"ĠSal":2726,"Ġaraya":2727,"ilerinin":2728,"ayÄ±p":2729,"Ġetkil":2730,"Ä±mÄ±zÄ±":2731,"ĠbaÅŁlay":2732,"Ä±rÄ±":2733,"asÄ±ndan":2734,"elerinin":2735,"Ġic":2736,"ĠGenÃ§":2737,"ĠyaptÄ±k":2738,"ital":2739,"lÃ¢":2740,"Ġko":2741,"Ġkendini":2742,"Ġham":2743,"Ġ21":2744,"Bur":2745,"azÄ±m":2746,"ĠCh":2747,"Ġdon":2748,"Ä±nÄ±za":2749,"ĠyÃ¼rÃ¼t":2750,"Ġdost":2751,"Ġbank":2752,"Ġetkinlik":2753,"IK":2754,"artesi":2755,"inizde":2756,"Ã¼nÃ¼z":2757,"asÄ±yla":2758,"Ġitibaren":2759,"Ġgider":2760,"Ġkalk":2761,"Ġfutbol":2762,"miyor":2763,"Ġdolar":2764,"Ġst":2765,"luÄŁu":2766,"ebil":2767,"ĠyapÄ±yor":2768,"Ġvarsa":2769,"hend":2770,"lenme":2771,"ĠÅŁeklinde":2772,"Ġdep":2773,"ĠGazet":2774,"25":2775,"Ġarac":2776,"inÃ§":2777,"mesine":2778,"Ġah":2779,"ĠÃ§Ã¼nkÃ¼":2780,"ĠMal":2781,"ĠyÄ±llÄ±k":2782,"Ġeser":2783,"Ã¼slÃ¼m":2784,"ĠkatÄ±lÄ±m":2785,"unan":2786,"aÅŁa":2787,"Ġhalinde":2788,"ĠbaÅŁlayan":2789,"form":2790,"ecektir":2791,"dak":2792,"Ġarada":2793,"EY":2794,"DÃ¼n":2795,"blem":2796,"ĠSÃ¶z":2797,"ĠSosyal":2798,"ĠbiÃ§":2799,"tul":2800,"ĠPol":2801,"ĠMak":2802,"ĠTÃ¼m":2803,"ĠkullanÄ±m":2804,"Ġservis":2805,"ĠMer":2806,"go":2807,"ia":2808,"Ġsonucu":2809,"Ġyapar":2810,"ĠaÅŁk":2811,"ĠaslÄ±nda":2812,"ĠgÃ¼ncel":2813,"ĠyÄ±k":2814,"Ġmeydana":2815,"Ġkarak":2816,"ĠÃ¶dÃ¼l":2817,"Ġpiyas":2818,"Ġtamamen":2819,"Ġkaliteli":2820,"Ġkaf":2821,"Ġokuy":2822,"ĠBÃ¼yÃ¼kÅŁehir":2823,"Ġnet":2824,"Ġyoktur":2825,"ĠAlt":2826,"OK":2827,"ha":2828,"Ġform":2829,"ÄŁust":2830,"ton":2831,"ĠKadÄ±n":2832,"Ġasker":2833,"Ġbaz":2834,"ĠGÃ¼ven":2835,"Ġele":2836,"Ä±sÄ±na":2837,"menin":2838,"Ġhastan":2839,"ĠadlÄ±":2840,"Ġuygulan":2841,"ĠyÄ±lÄ±":2842,"Ġ&":2843,"aket":2844,"ÄŁustos":2845,"masÄ±nÄ±n":2846,"olojik":2847,"ĠmÃ¼zik":2848,"ĠkatkÄ±":2849,"imizde":2850,"Ã¼ncÃ¼":2851,"sta":2852,"ĠÃĩalÄ±ÅŁ":2853,"Ġimk":2854,"ĠÄ°slam":2855,"ĠBakanÄ±":2856,"Ġpuan":2857,"Ġdeniz":2858,"ĠÃ¼cretsiz":2859,"ĠsÄ±rasÄ±nda":2860,"Ġstr":2861,"ĠDeÄŁ":2862,"Ġnak":2863,"Ġ40":2864,"mayÄ±n":2865,"ĠsÃ¶yl":2866,"ĠaldÄ±ÄŁÄ±":2867,"ĠhastalÄ±k":2868,"ĠkullanÄ±lan":2869,"ĠtartÄ±ÅŁ":2870,"Ġsene":2871,"elikle":2872,"ĠSar":2873,"Ġfakat":2874,"enler":2875,"ĠX":2876,"ĠBas":2877,"ĠyaptÄ±r":2878,"formans":2879,"ĠartÄ±r":2880,"ĠAtatÃ¼rk":2881,"ĠverdiÄŁi":2882,"Ġkayb":2883,"ĠsÃ¼reÃ§":2884,"ĠTab":2885,"yÄ±":2886,"yo":2887,"Kar":2888,"ĠFakÃ¼lt":2889,"Ä±nÄ±zda":2890,"LÄ°":2891,"IZ":2892,"Ġ)":2893,"Ġorta":2894,"Ġcam":2895,"Ġsebeb":2896,"ĠMec":2897,"acaÄŁÄ±m":2898,"Ġnit":2899,"eygam":2900,"ĠgÃ¼venlik":2901,"eksiyon":2902,"iyim":2903,"ĠMÃ¼z":2904,"ansÄ±":2905,"Ã¢n":2906,"Ġolun":2907,"ĠbulunmaktadÄ±r":2908,"etik":2909,"Ġyum":2910,"ĠSanat":2911,"Ġkent":2912,"Ġmedya":2913,"Ġhatta":2914,"Ġbulunuyor":2915,"Ġpolis":2916,"ĠYÃ¶netim":2917,"emen":2918,"ĠsaÄŁlamak":2919,"Ġyana":2920,"eÅŁik":2921,"17":2922,"Ä±mÄ±zda":2923,"Ġgru":2924,"ĠsonrasÄ±":2925,"ĠSistem":2926,"ĠAhmet":2927,"ĠÅŁah":2928,"ĠÃ¼lke":2929,"ĠsÄ±nav":2930,"EV":2931,"Ġciddi":2932,"Ġneler":2933,"Ã¼per":2934,"rin":2935,"larÄ±m":2936,"Ġyazar":2937,"ĠProgram":2938,"umhur":2939,"fi":2940,"Ġsilah":2941,"ĠÄ°yi":2942,"Ġdal":2943,"ĠPer":2944,"ĠMÃ¼dÃ¼rÃ¼":2945,"ĠbaÅŁarÄ±":2946,"ĠSt":2947,"ĠAm":2948,"liÄŁini":2949,"13":2950,"Ġnok":2951,"Ġtarif":2952,"asi":2953,"Ġit":2954,"bakan":2955,"Ġekonomik":2956,"mamÄ±z":2957,"Ġtarz":2958,"dÃ¼k":2959,"Ġgiz":2960,"OS":2961,"Ġtespit":2962,"Ġayak":2963,"elerinde":2964,"Ġrap":2965,"Ġokum":2966,"Ġtec":2967,"Ak":2968,"ebilm":2969,"Ġhayal":2970,"ĠbulunduÄŁu":2971,"ĠÅŁeyler":2972,"esyon":2973,"ĠAÄŁustos":2974,"Ġyere":2975,"ĠDemir":2976,"Ġcil":2977,"iyah":2978,"emez":2979,"Ä±nca":2980,"Ġum":2981,"eyn":2982,"ĠyaÅŁayan":2983,"ĠFakat":2984,"rol":2985,"son":2986,"iliÄŁ":2987,"Yeni":2988,"Ã¼me":2989,"Ġdeneyim":2990,"makta":2991,"yum":2992,"Ġmalzem":2993,"ĠgÃ¼nlÃ¼k":2994,"inizin":2995,"dÃ¼ÄŁÃ¼":2996,"Ġsol":2997,"Ġbilgisayar":2998,"Ġbizi":2999,"eygamber":3000,"ĠinsanlarÄ±n":3001,"YA":3002,"Ġce":3003,"meleri":3004,"aÄŁa":3005,"ata":3006,"ĠoluÅŁan":3007,"....":3008,"Ġ28":3009,"gar":3010,"ullah":3011,"Ġizin":3012,"ĠbuluÅŁ":3013,"Ġnef":3014,"Ġmutlaka":3015,"Ġmilyar":3016,"Ġ2013":3017,"Ġaktar":3018,"ĠSel":3019,"ersiz":3020,"Ġseviy":3021,"Ġhizmeti":3022,"ĠÅŀubat":3023,"yÄ±l":3024,"LE":3025,"ĠYÃ¼ksek":3026,"Ġbi":3027,"Ġbelki":3028,"ĠNasÄ±l":3029,"esyonel":3030,"Ã¶ren":3031,"gili":3032,"Ġproblem":3033,"Ġonlar":3034,"estiv":3035,"ĠÃ¶ldÃ¼r":3036,"lulu":3037,"anya":3038,"ĠBank":3039,"ĠyanlÄ±ÅŁ":3040,"ĠbaÅŁÄ±na":3041,"Ġboyut":3042,"ĠYak":3043,"ĠayrÄ±ca":3044,"bur":3045,"Ġhayvan":3046,"Ġtip":3047,"ĠÃ§ift":3048,"ĠRusya":3049,"ĠÃ¼nlÃ¼":3050,"Ġberi":3051,"ĠsaÄŁlÄ±klÄ±":3052,"uzey":3053,"ersonel":3054,"Ġdurumu":3055,"ĠGeÃ§":3056,"ĠKim":3057,"Ġyeterli":3058,"Ġadres":3059,"Ġnerede":3060,"Ġend":3061,"ĠYer":3062,"rada":3063,"ĠÄ°ÅŁte":3064,"hendis":3065,"Ġverilm":3066,"uzur":3067,"ĠSen":3068,"Ġzorunda":3069,"ĠÃ¶rgÃ¼t":3070,"geÃ§":3071,"Ġvaz":3072,"ema":3073,"Ġgar":3074,"Ġkims":3075,"tand":3076,"Ġnedir":3077,"ĠayÄ±nda":3078,"Ġilgi":3079,"lÄ±kla":3080,"ala":3081,"Ġdolu":3082,"istik":3083,"ĠÃ¶ÄŁrenciler":3084,"Ġtavsiye":3085,"ĠÄ±s":3086,"Etiketler":3087,"asayfa":3088,"ĠSuriye":3089,"ĠOd":3090,"seniz":3091,"Ä±lÄ±yor":3092,"altÄ±":3093,"ĠMahall":3094,"rek":3095,"ĠarasÄ±ndaki":3096,"ĠsaÄŁlam":3097,"Ġizle":3098,"ĠKÃ¼r":3099,"ĠetmiÅŁ":3100,"Ġkapat":3101,"ĠdÃ¶rt":3102,"Ġedilir":3103,"ĠbaÅŁvur":3104,"ĠbaÅŁvuru":3105,"Ġsizlere":3106,"ĠkiÅŁiler":3107,"ĠYÃ¶net":3108,"Ġyolu":3109,"Ġsorum":3110,"zet":3111,"Ġ27":3112,"ĠSin":3113,"ĠseÃ§enek":3114,"ĠAÅŁ":3115,"kem":3116,"lisi":3117,"ohbet":3118,"ĠamacÄ±yla":3119,"Ġzengin":3120,"sim":3121,"ĠmÃ¼cadele":3122,"itimi":3123,"Ġbahs":3124,"amasÄ±":3125,"Ġbuna":3126,"Ġmin":3127,"ĠFakÃ¼ltesi":3128,"urum":3129,"ebook":3130,"mÄ±yor":3131,"ĠsayÄ±sÄ±":3132,"dem":3133,"23":3134,"tern":3135,"Pro":3136,"mÄ±ÅŁtÄ±":3137,"ĠKemal":3138,"60":3139,"kar":3140,"Ġeksik":3141,"latform":3142,"ĠHastan":3143,"Ġettik":3144,"Ġsefer":3145,"ete":3146,"Ġuygulama":3147,"Ġmakin":3148,"pp":3149,"Ä±lÄ±ÄŁÄ±":3150,"iydi":3151,"abilmek":3152,"Ġhaft":3153,"Ġsig":3154,"ĠBÃ¶yle":3155,"meniz":3156,"Mer":3157,"ĠĠ":3158,"Biz":3159,"laÅŁtÄ±r":3160,"ĠiÅŁaret":3161,"ka":3162,"80":3163,"eÅŁiktaÅŁ":3164,"Ġetkili":3165,"ĠalÄ±ÅŁveriÅŁ":3166,"yas":3167,"Ġdefa":3168,"tere":3169,"ĠAÄŁ":3170,"ĠfÄ±rsat":3171,"Ä±mÄ±zÄ±n":3172,"Ġbelg":3173,"ĠÅŁeyi":3174,"vekili":3175,"Ġmekan":3176,"iir":3177,"ard":3178,"Ġtedavi":3179,"ĠDerneÄŁi":3180,"Ġperformans":3181,"Ġsabah":3182,"izik":3183,"Ġkamu":3184,"ĠBilg":3185,"ros":3186,"aÄŁÄ±t":3187,"rac":3188,"madÄ±":3189,"iÅŁi":3190,"enÃ¼z":3191,"ladÄ±ÄŁÄ±":3192,"muÅŁtur":3193,"ke":3194,"ĠÃ¶lÃ¼m":3195,"eceÄŁiz":3196,"Ġbayan":3197,"ĠbasÄ±n":3198,"ĠalanÄ±nda":3199,"abz":3200,"ediy":3201,"ĠsaÄŁlan":3202,"Ġsunul":3203,"Ġdoktor":3204,"Ġfikir":3205,"ĠÃ§ocuÄŁ":3206,"Ġhikay":3207,"osy":3208,"ĠdÃ¶nemde":3209,"âĢ¢":3210,"ipar":3211,"ĠFran":3212,"yen":3213,"ĠMod":3214,"Ġdile":3215,"ham":3216,"ĠoÄŁ":3217,"ĠAmerika":3218,"LU":3219,"ebilecek":3220,"Ġveriyor":3221,"Ġrol":3222,"ĠYani":3223,"Ġgol":3224,"ilerek":3225,"mÄ±zÄ±":3226,"uvvet":3227,"''":3228,"Ġlez":3229,"gen":3230,"Ãĸn":3231,"Ġresmi":3232,"uyorum":3233,"Ġmerkezi":3234,"Ġ26":3235,"ĠsÃ¶ylem":3236,"ĠSÃ¼r":3237,"iddet":3238,"ĠGir":3239,"Ġpolitik":3240,"ĠCumhuriyet":3241,"ilendir":3242,"ĠKÄ±r":3243,"Ġtrans":3244,"Ġbal":3245,"ĠsayÄ±da":3246,"allah":3247,"Ġemek":3248,"Ãĸz":3249,"ĠAz":3250,"Anasayfa":3251,"ĠsayÄ±lÄ±":3252,"Ġkart":3253,"Ġbeyaz":3254,"Ġhukuk":3255,"ĠkuÅŁ":3256,"Ġmobil":3257,"ĠmÃ¼k":3258,"oÃ§":3259,"Ġizley":3260,"onya":3261,"Ä°Åŀ":3262,"Ġheyec":3263,"medi":3264,"ĠdeÄŁerli":3265,"Ġreklam":3266,"ĠbaÄŁÄ±m":3267,"Ġdek":3268,"ĠbaÅŁÄ±nda":3269,"ĠsÃ¶yley":3270,"ĠFiyat":3271,"ĠKol":3272,"par":3273,"ĠSat":3274,"ĠÃĩin":3275,"Ġteklif":3276,"dro":3277,"ĠBirliÄŁi":3278,"ĠAL":3279,"ĠCHP":3280,"ĠtÄ±klay":3281,"ĠyabancÄ±":3282,"ĠgÃ¶tÃ¼r":3283,"ĠdÃ¼ÅŁÃ¼k":3284,"Ġhala":3285,"ĠKÄ±z":3286,"rail":3287,"ĠCan":3288,"ĠmÃ¼cadel":3289,"ĠKend":3290,"ildiÄŁi":3291,"ĠTan":3292,"nak":3293,"dal":3294,"ĠkoÅŁul":3295,"ĠuluslararasÄ±":3296,"ĠolmalÄ±":3297,"Ġdavet":3298,"ĠaltÄ±na":3299,"Ġbol":3300,"ĠDÃ¶n":3301,"endi":3302,"cil":3303,"Ġenerji":3304,"ack":3305,"ĠdÃ¼ÅŁÃ¼nc":3306,"ĠgiriÅŁim":3307,"ĠTay":3308,"Ġâ":3309,"her":3310,"alarÄ±nÄ±n":3311,"alatasar":3312,"Ġoperasyon":3313,"ĠgÃ¶rÃ¼ntÃ¼":3314,"alarÄ±na":3315,"ĠettiÄŁ":3316,"**":3317,"Ġdakik":3318,"ise":3319,"Ġderec":3320,"Ġtest":3321,"alatasaray":3322,"ukarÄ±":3323,"Ä±nt":3324,"Ġtatil":3325,"Ġ2012":3326,"Ġtoplant":3327,"ĠkeÅŁ":3328,"Ġediyoruz":3329,"AC":3330,"acebook":3331,"!!":3332,"hone":3333,"ĠFat":3334,"ĠSay":3335,"Ġ29":3336,"Ġkategor":3337,"Ġgal":3338,"imin":3339,"emmel":3340,"ĠKÃ¶":3341,"abzon":3342,"Ġproje":3343,"ĠdÃ¼zey":3344,"enerbah":3345,"ĠAlmanya":3346,"teki":3347,"cÄ±lÄ±k":3348,"haba":3349,"Ġoyunu":3350,"ĠÃ§arp":3351,"ĠAN":3352,"ĠOsmanlÄ±":3353,"Ġmiktar":3354,"ĠEd":3355,"lerdir":3356,"Ġuc":3357,"Ġsavun":3358,"Ġkeyif":3359,"ĠsÃ¼rec":3360,"ĠHalk":3361,"Ġoku":3362,"40":3363,"ĠiÅŁi":3364,"lÄ±ÄŁÄ±nÄ±":3365,"Ġnes":3366,"ĠAntalya":3367,"ĠPart":3368,"Ã¼slÃ¼man":3369,"Ġyeri":3370,"Ġolursa":3371,"ĠsaÄŁlar":3372,"ĠAR":3373,"iÃ§ek":3374,"niyet":3375,"ger":3376,"ĠlazÄ±m":3377,"ĠÃĸzellikle":3378,"ĠGÃ¼l":3379,"Ġilan":3380,"abet":3381,"ĠTem":3382,"Ġuyar":3383,"Ã¼mÃ¼zde":3384,"Ġnormal":3385,"ĠbeÅŁ":3386,"imar":3387,"ĠTicaret":3388,"alim":3389,"co":3390,"larÄ±nÄ±zÄ±":3391,"rÃ¼b":3392,"anÄ±z":3393,"El":3394,"sÄ±":3395,"ĠkÄ±l":3396,"Ġalanda":3397,"lÄ±lÄ±k":3398,"ĠBursa":3399,"evizyon":3400,"Ġkum":3401,"ÃľRK":3402,"GÃ¼n":3403,"Ġhalde":3404,"Ġyandan":3405,"ladÄ±ÄŁ":3406,"iyan":3407,"ayÄ±sÄ±yla":3408,"Ġkok":3409,"ĠÃ§alÄ±ÅŁmalarÄ±":3410,"Ad":3411,"Ġduyur":3412,"hi":3413,"neÄŁin":3414,"TÄ°":3415,"uyoruz":3416,"Ġkonum":3417,"aÅŁÄ±r":3418,"Bil":3419,"ĠbaÅŁlan":3420,"ĠGÃ¼nÃ¼":3421,"ĠMahallesi":3422,"Ġkarakter":3423,"âĢĵ":3424,"Ġbitir":3425,"sas":3426,"Ä±lmaz":3427,"Ġtoprak":3428,"Ġlider":3429,"Ġihtiyac":3430,"ĠateÅŁ":3431,"ĠGÃ¼zel":3432,"cort":3433,"Ġma":3434,"Ġadr":3435,"ĠÃ¶nceki":3436,"Ġbenzer":3437,"ĠGÃ¶":3438,"hat":3439,"ĠOL":3440,"aliz":3441,"Ġgide":3442,"oman":3443,"tandart":3444,".,":3445,"Ġtesis":3446,"Ġkendisine":3447,"taki":3448,"ĠTV":3449,"Ġnumar":3450,"Ġbirey":3451,"ahim":3452,"ĠsonrasÄ±nda":3453,"siy":3454,"Ġakl":3455,"obÃ¼s":3456,"ĠyaÅŁanan":3457,"liÄŁinde":3458,"Ġhuzur":3459,"mamÄ±ÅŁ":3460,"raman":3461,"ĠKurul":3462,"acaÄŁÄ±nÄ±z":3463,"ĠLig":3464,"ĠsoÄŁ":3465,"ivil":3466,"ze":3467,"ĠKullan":3468,"tepe":3469,"Ġyolc":3470,"mada":3471,"Ã¼ph":3472,"ĠarasÄ±":3473,"ĠTeknik":3474,"Ġyapacak":3475,"ink":3476,"ultan":3477,"Ġsonuc":3478,"ĠBugÃ¼n":3479,"Ġhayata":3480,"kek":3481,"Ġbebek":3482,"elerden":3483,"Ġsenin":3484,"rum":3485,"ĠÃ¶nÃ¼nde":3486,"lediÄŁi":3487,"ĠolmadÄ±ÄŁÄ±nÄ±":3488,"Ġedilmesi":3489,"urat":3490,"atej":3491,"pek":3492,"lenmesi":3493,"Ġrisk":3494,"era":3495,"ĠÃ¶zgÃ¼r":3496,"avi":3497,"ĠhayatÄ±nÄ±":3498,"ĠgÃ¶rmek":3499,"Ġir":3500,"Ġfak":3501,"Or":3502,"ĠiÃ§eri":3503,"Ġtehlik":3504,"dÄ±ÄŁÄ±nda":3505,"ĠbaÅŁta":3506,"Gen":3507,"afir":3508,"ĠÃľrÃ¼n":3509,"ĠuÃ§ak":3510,"Ġfirmalar":3511,"Ġdam":3512,"ĠBr":3513,"ĠAraÅŁtÄ±r":3514,"Ã¼yle":3515,"ĠayÄ±r":3516,"Ġbirisi":3517,"ĠTes":3518,"Hay":3519,"Ġeg":3520,"ĠSavaÅŁ":3521,"ĠtaÅŁÄ±m":3522,"ĠPazar":3523,"Ġisten":3524,"ronik":3525,"likleri":3526,"Ġkurtul":3527,"Ġnokta":3528,"Ġef":3529,"IÅŀ":3530,"malÄ±dÄ±r":3531,"ses":3532,"LERÄ°":3533,"Ġnot":3534,"iyatro":3535,"Ġsem":3536,"Ġileri":3537,"ĠyapmÄ±ÅŁ":3538,"Ġderin":3539,"yanÄ±n":3540,"Ġtr":3541,"tÃ¶r":3542,"masÄ±nda":3543,"AV":3544,"tp":3545,"Ġsiyasi":3546,"ĠonlarÄ±n":3547,"ĠtaÅŁÄ±y":3548,"Ġdoldur":3549,"EC":3550,"erÃ§ev":3551,"//":3552,"ĠonlarÄ±":3553,"irk":3554,"ĠyÄ±ldÄ±r":3555,"har":3556,"teÅŁ":3557,"ĠCumhurbaÅŁkanÄ±":3558,"ĠMed":3559,"ku":3560,"enerbahÃ§e":3561,"Ġyaparak":3562,"Ġkurtar":3563,"antaj":3564,"ĠgerektiÄŁini":3565,"rem":3566,"Ä°s":3567,"Ġcep":3568,"ĠdÃ¼nyada":3569,"ĠYol":3570,"ĠiÃ§ine":3571,"eng":3572,"ĠilaÃ§":3573,"ĠAlan":3574,"tak":3575,"esiz":3576,"22":3577,"tiler":3578,"Ġpop":3579,"ĠÃ¼rÃ¼nleri":3580,"ĠhazÄ±rlan":3581,"Ġsitesi":3582,"Ġkredi":3583,"Ġbelirten":3584,"miÅŁti":3585,"BaÅŁ":3586,"Ġbahis":3587,"Ġanne":3588,"Ã§ak":3589,"osta":3590,"ipariÅŁ":3591,"ĠCam":3592,"ĠbeÄŁen":3593,"ĠgÃ¼l":3594,"Ġhisset":3595,"Ġkendine":3596,"ord":3597,"Ġharika":3598,"iklet":3599,"ĠAÃ§Ä±k":3600,"ĠSanayi":3601,"Ġ60":3602,"ĠSamsun":3603,"ĠHaf":3604,"umsuz":3605,"ĠhayÄ±r":3606,"adi":3607,"droid":3608,"ult":3609,"ayla":3610,"Ġelektrik":3611,"Ġdevr":3612,"inans":3613,"ĠyaÅŁÄ±nda":3614,"elidir":3615,"Ġrapor":3616,"ĠUluslararasÄ±":3617,"ĠalÄ±nan":3618,"ĠKaz":3619,"lÃ¼t":3620,"mamak":3621,"Ġolma":3622,"Ġprofesyonel":3623,"uklu":3624,"ĠalÄ±r":3625,"ĠyapÄ±ldÄ±":3626,"2017":3627,"Ġbat":3628,"Ġesn":3629,"ĠfÄ±r":3630,"dÃ¼m":3631,"Ġemin":3632,"Ã¢r":3633,"ĠUygul":3634,"ĠgÃ¼neÅŁ":3635,"Ġsana":3636,"Ġalacak":3637,"ĠâĢ¦":3638,"ĠÃ¶ÄŁ":3639,"KK":3640,"Ġkimse":3641,"AÄŀ":3642,"sÄ±zlÄ±k":3643,"eyle":3644,"ĠAynÄ±":3645,"Ġmar":3646,"Ġaile":3647,"ĠGÃ¶k":3648,"ĠdaÄŁ":3649,"ĠkararÄ±":3650,"Ġifad":3651,"ĠhenÃ¼z":3652,"lerinizi":3653,"ĠtecrÃ¼b":3654,"ĠÃ§evir":3655,"bay":3656,"ĠiÅŁe":3657,"ĠÃ§at":3658,"Ġgay":3659,"Ġbasit":3660,"adÄ±r":3661,"ĠSah":3662,"Ä±sÄ±nÄ±n":3663,"Ġ+":3664,"ĠKam":3665,"ASI":3666,"Ne":3667,"OÄŀ":3668,"Ġyoksa":3669,"best":3670,"Ġpoz":3671,"laj":3672,"IS":3673,"Ġsel":3674,"Ġticaret":3675,"ĠolmadÄ±ÄŁÄ±":3676,"ĠÃ§ab":3677,"ĠBÄ°R":3678,"nden":3679,"ĠsÄ±rada":3680,"Ġpersonel":3681,"Ã¶v":3682,"yse":3683,"iÅŁleri":3684,"Ġkilo":3685,"liler":3686,"ĠeÄŁer":3687,"ĠYardÄ±mcÄ±sÄ±":3688,"err":3689,"ĠBaÄŁ":3690,"ĠgÃ¶steren":3691,"Ġsoy":3692,"Ä±ÄŁÄ±n":3693,"ĠBal":3694,"ĠSeÃ§":3695,"ĠÅŀimdi":3696,"Ġbilgileri":3697,"larÄ±mÄ±zÄ±n":3698,"ĠedeceÄŁ":3699,"diler":3700,"ersin":3701,"ĠtoplantÄ±":3702,"Ġarz":3703,"ĠiÅŁte":3704,"eceÄŁim":3705,"ĠyavaÅŁ":3706,"lev":3707,"ĠGoogle":3708,"aÄŁan":3709,"bil":3710,"Ġpan":3711,"ĠÅŁiddet":3712,"ĠiÃ§i":3713,"Ġzorun":3714,"Ġsahiptir":3715,"ĠyapÄ±lmasÄ±":3716,"keri":3717,"ĠHakk":3718,"ĠKah":3719,"ĠVak":3720,"ilmiÅŁtir":3721,"edeki":3722,"ons":3723,"Ġkullanarak":3724,"Ä±lacak":3725,"diÄŁimiz":3726,"Ġduygu":3727,"Ġyerinde":3728,"://":3729,"usun":3730,"leÅŁme":3731,"erseniz":3732,"Ġbuy":3733,"ĠYorum":3734,"ĠBayram":3735,"Ġsokak":3736,"Ġpr":3737,"Ġkesinlikle":3738,"Ġbundan":3739,"ĠÃ§erÃ§ev":3740,"ĠyaÅŁÄ±ndaki":3741,"ĠaÃ§Ä±klamada":3742,"Ġdu":3743,"ndan":3744,"Ġsohbet":3745,"Ġmotor":3746,"As":3747,"ĠDÄ±ÅŁ":3748,"ben":3749,"ĠinsanÄ±n":3750,"ĠyÄ±llarda":3751,"tÄ±ÄŁÄ±nÄ±":3752,"Ġeylem":3753,"ĠDav":3754,"mekte":3755,"ĠYayÄ±n":3756,"ĠVar":3757,"Ġalarak":3758,"Ġtabi":3759,"ĠalanÄ±":3760,"tÃ¼l":3761,"ekim":3762,"ĠÅŁans":3763,"embe":3764,"tuk":3765,"Ġayar":3766,"lÄ±klÄ±":3767,"mail":3768,"ĠolmuÅŁtur":3769,"Ġasla":3770,"ĠsaÄŁlayan":3771,"diÄŁim":3772,"Ġfilmi":3773,"Ġtane":3774,"mÃ¼r":3775,"âĢĿ,":3776,"ĠÃ§al":3777,"Ġ2011":3778,"ĠkatÄ±ldÄ±":3779,"ĠmÃ¼da":3780,"ĠgÃ¼nlerde":3781,"cisi":3782,"Ġsona":3783,"ijital":3784,"ĠdÄ±ÅŁÄ±":3785,"kÄ±n":3786,"Ä±yorlar":3787,"Ġkm":3788,"Ġkural":3789,"aklÄ±":3790,"Ġarama":3791,"ĠFir":3792,"ĠyayÄ±m":3793,"ond":3794,"izasyon":3795,"ĠsÃ¼rede":3796,"Ġhastal":3797,"ĠÅŁarkÄ±":3798,"yap":3799,"duÄŁunu":3800,"terek":3801,"Ġisimli":3802,"evk":3803,"ĠdÃ¼zenlen":3804,"ediler":3805,"eytin":3806,"70":3807,"iber":3808,"Ġyiy":3809,"ĠdoÄŁum":3810,"kenin":3811,"wit":3812,"Ġ2010":3813,"Ġkadro":3814,"Ġmec":3815,"ladÄ±k":3816,"ildiÄŁ":3817,"Ġvb":3818,"ĠAydÄ±n":3819,"ĠiP":3820,"Ġharc":3821,"Ġfazl":3822,"iyer":3823,"ezi":3824,"Ġdef":3825,"ĠGazi":3826,"ĠÄ°lÃ§e":3827,"ĠHD":3828,"ene":3829,"ĠeleÅŁtir":3830,"elerinden":3831,"90":3832,"OM":3833,"Ãĩok":3834,"oca":3835,"Ġkans":3836,"ĠHam":3837,"ĠtaÅŁÄ±n":3838,"ĠdeÄŁiÅŁiklik":3839,"Ġhafif":3840,"ĠgÃ¼c":3841,"ĠmÃ¼kemmel":3842,"ĠsÃ¼t":3843,"ĠHz":3844,"Ġsonu":3845,"Av":3846,"Ġyola":3847,"ĠÄ°ran":3848,"ĠÃĩar":3849,"ĠRec":3850,"ledik":3851,"Ġaray":3852,"ezer":3853,"Ġgerekmektedir":3854,"aiz":3855,"liÄŁe":3856,"ĠGÃ¶z":3857,"ĠDol":3858,"ĠYÃ¼z":3859,"bette":3860,"ĠiÅŁbir":3861,"ĠÃĩev":3862,"ĠprogramÄ±":3863,"Ġonlara":3864,"eliyat":3865,"Ġkampany":3866,"ĠarttÄ±r":3867,"esindeki":3868,"Ġton":3869,"tadan":3870,"Ġ500":3871,"ĠUn":3872,"'s":3873,"Ã¼yoruz":3874,"Ġanlamda":3875,"ows":3876,"ahmet":3877,"ĠDair":3878,"ĠÃľy":3879,"arÄ±m":3880,"lÄ±ÄŁa":3881,"Ġimza":3882,"orun":3883,"Ġgiden":3884,"ĠiÃ§erik":3885,"Ġmesaf":3886,"Ä±c":3887,"ĠmÃ¼ÅŁteri":3888,"Ä±sÄ±r":3889,"Ġara":3890,"ĠÃ¶ÄŁrenci":3891,"and":3892,"ĠThe":3893,"ĠakÄ±llÄ±":3894,"Ġyararlan":3895,"ĠdÃ¶k":3896,"Ġkahv":3897,"Ġteknoloji":3898,"Ġettir":3899,"Ġzam":3900,"illi":3901,"oto":3902,"Ġvurgul":3903,"ai":3904,"Ġdo":3905,"ĠVal":3906,"ĠOrta":3907,"sini":3908,"Ġmesel":3909,"Ġsonraki":3910,"ĠBÃ¶lÃ¼m":3911,"eyiz":3912,"say":3913,"gÃ¶r":3914,"ĠBin":3915,"ĠyerleÅŁ":3916,"ĠkazandÄ±r":3917,"ĠÃ§oÄŁu":3918,"UT":3919,"edeni":3920,"omet":3921,"endik":3922,"Ġfil":3923,"Ġkanal":3924,"Cumhur":3925,"Ġhap":3926,"dÄ±rÄ±m":3927,"Ġmat":3928,"EZ":3929,"Ġetmektedir":3930,"21":3931,"ĠHol":3932,"âĢ¦]":3933,"eliÄŁ":3934,"fet":3935,"ĠHem":3936,"ĠkaldÄ±":3937,"akar":3938,"Ġsahn":3939,"ĠyÄ±lda":3940,"ĠpiÅŁ":3941,"Ġseyahat":3942,"Ġbunlar":3943,"Ġplatform":3944,"dam":3945,"emizin":3946,"Ġyada":3947,"amet":3948,"lÄ±ÄŁÄ±na":3949,"ĠalmÄ±ÅŁ":3950,"ation":3951,"ĠartÄ±ÅŁ":3952,"Ġtahmin":3953,"Ġdemokr":3954,"Ġolumsuz":3955,"ĠaldÄ±ÄŁ":3956,"ĠMut":3957,"Daha":3958,"estor":3959,"Ġyerel":3960,"EB":3961,"meni":3962,"ĠvazgeÃ§":3963,"Allah":3964,"Ã§iler":3965,"Ġpsik":3966,"ĠyanÄ±t":3967,"ĠSayÄ±n":3968,"ĠsaldÄ±rÄ±":3969,"ĠTaÅŁ":3970,"ÅŁey":3971,"teÅŁem":3972,"?âĢĿ":3973,"ĠBunu":3974,"are":3975,"ĠaÅŁaÄŁÄ±daki":3976,"ou":3977,"ĠtanÄ±ÅŁ":3978,"ilebilir":3979,"Ġpark":3980,"ess":3981,"ĠyÃ¼rÃ¼y":3982,"Ġidar":3983,"ĠyÄ±llar":3984,"ĠaÃ§Ä±klama":3985,"ĠbaÅŁlar":3986,"Tek":3987,"ĠÃľst":3988,"abileceÄŁiniz":3989,"LARI":3990,"Ä±lÄ±Ã§":3991,"ĠDur":3992,"Ġerken":3993,"Ä±sÄ±nÄ±z":3994,"Ġkitab":3995,"ĠkÃ¼r":3996,"cilik":3997,"Ġotomobil":3998,"acÄ±lÄ±k":3999,"Ġlim":4000,"utan":4001,"ĠtanÄ±t":4002,"26":4003,"ĠYÄ±lmaz":4004,"ĠkapÄ±":4005,"leriniz":4006,"amay":4007,"to":4008,"etleri":4009,"ĠKitap":4010,"ĠDoÄŁu":4011,"Ġlezzet":4012,"Ġbazen":4013,"ĠTasar":4014,"aka":4015,":)":4016,"uro":4017,"Ġkavram":4018,"Ġcm":4019,"Ġresim":4020,"Ġfel":4021,"ĠkaÅŁ":4022,"rika":4023,"ĠLi":4024,"MA":4025,"ĠkarÅŁÄ±sÄ±nda":4026,"lerim":4027,"mur":4028,"orn":4029,"Ġbilinen":4030,"ĠYet":4031,"amazan":4032,"ĠhÃ¢":4033,"Ġmodern":4034,"ĠÃ¼niversit":4035,"Ġvit":4036,"ILI":4037,"Ġonay":4038,"ĠedilmiÅŁ":4039,"Ä±ldÄ±ÄŁÄ±":4040,"ĠkiÅŁisel":4041,"ĠdanÄ±ÅŁ":4042,"28":4043,"larÄ±mÄ±zÄ±":4044,"Ġkalp":4045,"Ġpaket":4046,"Ġbiliyor":4047,"ĠDil":4048,"erim":4049,"Ev":4050,"ĠSh":4051,"ÃľK":4052,"Ġpas":4053,"Ġverildi":4054,"Ġoyunc":4055,"Ġyakal":4056,"Ġyapmaya":4057,"lerimizi":4058,"Ġiddia":4059,"ĠyapÄ±lÄ±r":4060,"Ġib":4061,"udi":4062,"Ġbilir":4063,"ĠyapÄ±m":4064,"dÄ±ktan":4065,"Ġseni":4066,"Ġmadd":4067,"ĠÃ¶ne":4068,"ĠYan":4069,"elerle":4070,"celi":4071,"ĠÃ¶zelliÄŁi":4072,"lÄ±ÄŁÄ±n":4073,"ates":4074,"ĠtatlÄ±":4075,"ĠTat":4076,"racat":4077,"ĠÄ°k":4078,"ĠÄ°ngilizce":4079,"ĠdÃ¶neminde":4080,"dikleri":4081,"ĠBeÅŁiktaÅŁ":4082,"Ġsur":4083,"Ġstandart":4084,"pt":4085,"ĠBurada":4086,"ĠaylÄ±k":4087,"Ġbelirtti":4088,"ĠkÄ±ÅŁ":4089,"sine":4090,"ĠBer":4091,"ĠdÃ¼ÅŁÃ¼nÃ¼yorum":4092,"ĠFil":4093,"ĠDiÄŁer":4094,"ĠolmasÄ±na":4095,"Ġaf":4096,"dev":4097,"ĠEf":4098,"indows":4099,"Ä°YE":4100,"ĠÃ§ocuklar":4101,"Ġdurumunda":4102,"ĠdiÅŁ":4103,"deniz":4104,"Ġetmeye":4105,"Ġkayde":4106,"Ġfizik":4107,"lenmiÅŁ":4108,"ĠAB":4109,"ĠnÃ¼f":4110,"ABD":4111,"ĠyetiÅŁ":4112,"Ã¼ny":4113,"lenir":4114,"Ġcok":4115,"Ġbekliyor":4116,"ĠKÄ±":4117,"ĠkiÅŁilik":4118,"Ġkendisi":4119,"ĠÃ§ay":4120,"asÄ±n":4121,"otel":4122,"isinden":4123,"ĠtÃ¶ren":4124,"ĠkarÄ±ÅŁ":4125,"Ġtaz":4126,"ĠDÃ¼z":4127,"kiler":4128,"int":4129,"ĠOkul":4130,"ĠMark":4131,"erler":4132,"ĠgÃ¶ren":4133,"Ġvakit":4134,"Ġcen":4135,"AF":4136,"ĠÃ§eken":4137,"ĠTam":4138,"ĠSaat":4139,"ĠOtel":4140,"53":4141,"ĠEÅŁ":4142,"aza":4143,"ĠGerÃ§":4144,"ĠÃ§Ä±kÄ±yor":4145,"Ġsalon":4146,"Ġyans":4147,"Ġbelirterek":4148,"ĠÄ±ÅŁ":4149,"Ġedip":4150,"uzu":4151,"Ġkop":4152,"ĠGÃ¼ney":4153,"ĠSadece":4154,"Kon":4155,"ayÄ±cÄ±":4156,"Ġ[âĢ¦]":4157,"Ġheyecan":4158,"Ġide":4159,"ĠWeb":4160,"Ġkapas":4161,"Ġetme":4162,"Ġorada":4163,"ĠyÃ¶netic":4164,"ĠBenim":4165,"ĠMÃ¼slÃ¼man":4166,"ĠÃ¢":4167,"liyat":4168,"Ã¢h":4169,"Ġtakdir":4170,"ternatif":4171,"ayÄ±f":4172,"ĠaraÅŁtÄ±rma":4173,"Ġavantaj":4174,"ĠMev":4175,"Ġyor":4176,"ban":4177,"visi":4178,"ĠÄ°Ãĩ":4179,"ĠÅŀehir":4180,"Ġkorun":4181,"Es":4182,"ĠÃ¶nÃ¼ne":4183,"Ġsorunu":4184,"yip":4185,"ĠÅŁehit":4186,"giler":4187,"ERS":4188,"ĠistediÄŁiniz":4189,"ĠsÄ±kÄ±ntÄ±":4190,"ĠÃ§ap":4191,"ĠbaÅŁlÄ±yor":4192,"ĠaltÄ±n":4193,"ayÄ±m":4194,"ĠmeÅŁ":4195,"ĠElekt":4196,"ĠlÃ¼t":4197,"27":4198,"Ġazal":4199,"uldu":4200,"rag":4201,"Ġkendisini":4202,"ĠÅŀeh":4203,"LAN":4204,"Ġpo":4205,"Ġistedi":4206,"ĠÃ¶deme":4207,"yÃ¼z":4208,"ĠCuma":4209,"lamasÄ±":4210,"ĠÅŀah":4211,"witter":4212,"mut":4213,"ĠÄ±ÅŁÄ±k":4214,"ĠRecep":4215,"brahim":4216,"Ä°lk":4217,"ĠÄ°nÅŁ":4218,"ĠBilgi":4219,"Ġmisafir":4220,"lediÄŁ":4221,"Ġmarka":4222,"ĠÄ°ngiltere":4223,"Ã¼stÃ¼":4224,"ĠAmerik":4225,"sem":4226,"ĠgeÃ§ti":4227,"Ġimkan":4228,"ĠÅŁÃ¼ph":4229,"ĠSÄ±n":4230,"ĠinÅŁa":4231,"liye":4232,"Ġevde":4233,"zer":4234,"ĠÃ¼rÃ¼nler":4235,"iyiz":4236,"nu":4237,"unlarÄ±":4238,"Ġprot":4239,"ĠTrabzon":4240,"Ġ198":4241,"Ġyaralan":4242,"ĠalÄ±p":4243,"ĠaÃ§Ä±kladÄ±":4244,"Ġgetiren":4245,"erkes":4246,"ĠÃ¶ncesi":4247,"bin":4248,"Ġolmaya":4249,"Ġla":4250,"100":4251,"liÄŁine":4252,"ĠyetiÅŁtir":4253,"Ġedebilirsiniz":4254,"Ġdel":4255,"Ġ35":4256,"Ġkonut":4257,"pple":4258,"ĠyeÅŁil":4259,"Ġht":4260,"brÄ±s":4261,"ERÄ°":4262,"ĠyaygÄ±n":4263,"Ġdeney":4264,"amÄ±ÅŁ":4265,"Ġdes":4266,"ĠÄ°srail":4267,"ĠÃľlk":4268,"US":4269,"ĠBit":4270,"ĠBaÅŁkanlÄ±ÄŁÄ±":4271,"ĠYat":4272,"usunu":4273,"Ġfirma":4274,"ĠkarÅŁÄ±lÄ±k":4275,"ĠdetaylÄ±":4276,"Ġtransfer":4277,"Ä°l":4278,"isiyle":4279,"liÄŁin":4280,"ĠÄ°m":4281,"ĠSultan":4282,"Ġted":4283,"ĠsipariÅŁ":4284,"Ġeve":4285,"ĠOdasÄ±":4286,"Ġlira":4287,"ĠilÃ§esinde":4288,"Ġonline":4289,"ĠÃ¼ye":4290,"ĠaydÄ±n":4291,"Ġyetk":4292,"ĠSok":4293,"Ġhesab":4294,"ĠgÃ¶nÃ¼l":4295,"ĠÃ¶nemlidir":4296,"Ä±nar":4297,"Ġsonucunda":4298,"ĠDE":4299,"Ġfor":4300,"ane":4301,"GeÃ§":4302,"ĠNur":4303,"ĠYÄ±ldÄ±rÄ±m":4304,"Ġ80":4305,"Ġte":4306,"ĠdÃ¼ÄŁ":4307,"Ġdiyerek":4308,"ĠPeygamber":4309,"Ġ31":4310,"Ġdosy":4311,"iÅŁehir":4312,"Ã¶ÄŁr":4313,"ÃľL":4314,"ĠSab":4315,"lardÄ±":4316,"oyu":4317,"abileceÄŁi":4318,"hane":4319,"lasik":4320,"ĠyÄ±ldÄ±z":4321,"edek":4322,"Ġbec":4323,"Ġzevk":4324,"ĠGÃ¼r":4325,"Ġsert":4326,"diÄŁiniz":4327,"ĠkÄ±":4328,"ĠyazÄ±lÄ±m":4329,"Ġez":4330,"Ġikti":4331,"Ġalb":4332,"ĠbunlarÄ±":4333,"macÄ±":4334,"ĠSp":4335,"dit":4336,"ĠgÃ¼venli":4337,"ĠbalÄ±k":4338,"29":4339,"ĠkapalÄ±":4340,"Ġolumlu":4341,"Ġgiren":4342,"ĠHastanesi":4343,"ĠRo":4344,"gÃ¼":4345,"Ġdiler":4346,"Ġucuz":4347,"iÄŁi":4348,"ĠgeÃ§erli":4349,"Ġblog":4350,"Ġgenellikle":4351,"ĠSonra":4352,"Ġ''":4353,"Ġstratej":4354,"alardan":4355,"Ġtaleb":4356,"fÄ±":4357,"Ġgur":4358,"Ġgaz":4359,"ĠÅŁar":4360,"cÄ±lar":4361,"bey":4362,"gal":4363,"urken":4364,"ĠolduÄŁuna":4365,"elis":4366,"Ġekib":4367,"Ã¼ley":4368,"Ġhizmetleri":4369,"ĠÅŁampiyon":4370,"eÄŁe":4371,"ĠMas":4372,"Ġsp":4373,"Ġdahi":4374,"ĠKÃ¶y":4375,"eÄŁini":4376,"ity":4377,"Ä±mÄ±n":4378,"Ek":4379,"iya":4380,"Ġhediye":4381,"tel":4382,"Ġsivil":4383,"Ã¼mÃ¼ÅŁ":4384,"Ġlisans":4385,"ĠBaÅŁbakan":4386,"Ġsap":4387,"ĠÃ§Ä±kÄ±ÅŁ":4388,"Ġciv":4389,"Ġap":4390,"ĠolmasÄ±nÄ±":4391,"seri":4392,"ĠdeÄŁiÅŁim":4393,"lanmasÄ±":4394,"ĠÃĸdÃ¼l":4395,"abilen":4396,"Ġduyg":4397,"Ġarab":4398,"atur":4399,"andÄ±r":4400,"ĠpopÃ¼ler":4401,"Ġceza":4402,"45":4403,"ĠHayat":4404,"Ġ2009":4405,"Ġetik":4406,"ĠMurat":4407,"ĠlÃ¼tfen":4408,"diÄŁini":4409,"Ġkuvvet":4410,"ĠÃ¼yesi":4411,"Ġrad":4412,"abrik":4413,"Ġalma":4414,"Ġhttp":4415,"ĠGalatasaray":4416,"oya":4417,"Ä±larak":4418,"ĠdÃ¼ÅŁÃ¼r":4419,"Ä±yordu":4420,"Ġherkesin":4421,"dÄ±klarÄ±":4422,"dikten":4423,"ĠTayyip":4424,"ĠFatih":4425,"ĠÃ¶ÄŁret":4426,"Ġaktif":4427,"anlÄ±k":4428,"ĠEkonom":4429,"ĠtÃ¼rk":4430,"ĠmÃ¼ÅŁteriler":4431,"Â»":4432,"Ã¼ndeki":4433,"ĠYunan":4434,"Ġyerini":4435,"nik":4436,"ĠKarÅŁ":4437,"ĠÃ¼lkenin":4438,"nÃ¼n":4439,"Ġbekl":4440,"ĠgeliÅŁim":4441,"ĠyÄ±lÄ±n":4442,"unuzu":4443,"Ä±ndÄ±r":4444,"icari":4445,"Ġcilt":4446,"ĠdavranÄ±ÅŁ":4447,"ĠDen":4448,"Ä°C":4449,"Ġbeden":4450,"mayacak":4451,"ÃľM":4452,"his":4453,"alle":4454,"emiÅŁ":4455,"Ġsuyu":4456,"okul":4457,"ino":4458,"Ġkoruy":4459,"ĠFransa":4460,"ĠHÃ¼s":4461,"Ġfon":4462,"Ġ70":4463,"2016":4464,"RO":4465,"Ġyeter":4466,"Ġbirinci":4467,"addesi":4468,"Ä°D":4469,"gÄ±Ã§":4470,"ĠZaman":4471,"Ġdiyen":4472,"Siz":4473,"layÄ±p":4474,"TAN":4475,"ciler":4476,"ĠYok":4477,"ĠErkek":4478,"iyar":4479,"Ġolmadan":4480,"ĠHaberler":4481,"ĠÅŁÄ±k":4482,"ner":4483,"ĠKÃ¼rt":4484,"Ġaskeri":4485,"Ġtad":4486,"Ġhoc":4487,"BugÃ¼n":4488,"UK":4489,"emli":4490,"ĠyukarÄ±":4491,"Ġetkisi":4492,"ĠgÃ¶rdÃ¼ÄŁ":4493,"ĠKab":4494,"Ä°nsan":4495,"Ġmilli":4496,"lant":4497,"Ã§esi":4498,"Ä±sÄ±z":4499,"Ä°z":4500,"ĠÅŁiir":4501,"Kur":4502,"Ġteb":4503,"ĠSey":4504,"ĠbÃ¼t":4505,"ĠCumhuriyeti":4506,"ĠTarihi":4507,"Ġism":4508,"ï¿":4509,"ĠinÅŁaat":4510,"ulmasÄ±":4511,"ĠPaz":4512,"35":4513,"ETÃĸ":4514,"Ġuyum":4515,"ï¿½":4516,"arÄ±nda":4517,"Ã¼mÃ¼zdeki":4518,"ĠAdana":4519,"Ġtelevizyon":4520,"Ġ90":4521,"sizlik":4522,"ezerv":4523,"okulu":4524,"ĠaÅŁam":4525,"ammed":4526,"ebiliyor":4527,"diÄŁinde":4528,"ĠgelmiÅŁ":4529,"tarÄ±":4530,"ĠyÃ¼zyÄ±l":4531,"ĠanlamÄ±na":4532,"UZ":4533,"ĠayrÄ±l":4534,"Ġbence":4535,"Ġserbest":4536,"Ġekley":4537,"ĠmÃ¼dÃ¼r":4538,"ĠaltÄ±":4539,"Ġkaydet":4540,"nam":4541,"Ġyetkil":4542,"Ġindirim":4543,"ĠayÄ±":4544,"ĠKÃ¼Ã§Ã¼k":4545,"ĠbunlarÄ±n":4546,"ĠpeÅŁ":4547,"ĠeÄŁitimi":4548,"Ġgelin":4549,"fat":4550,"ĠCen":4551,"ĠolduÄŁumuz":4552,"Ġduvar":4553,"emize":4554,"ĠkÃ¶ÅŁ":4555,"ĠÅŀampiyon":4556,"Ġcinsel":4557,"tÃ¼rk":4558,"ĠbÃ¼ny":4559,"Ġmezun":4560,"ĠMad":4561,"ĠAndroid":4562,"ĠOf":4563,"ĠdÃ¼nyaya":4564,"Ġ!":4565,"ĠkarÄ±ÅŁtÄ±r":4566,"ĠMilletvekili":4567,"anakk":4568,"ĠKÄ±s":4569,"Ġgerektir":4570,"dÃ¼z":4571,"Ã¶yl":4572,"ĠhazÄ±rlÄ±k":4573,"baÅŁkan":4574,"ĠÅŁif":4575,"eyecek":4576,"Ġnedeni":4577,"ock":4578,"Ġyaparken":4579,"Ġnamaz":4580,"Ġameliyat":4581,"ĠRab":4582,"Ġgr":4583,"ĠArap":4584,"DÃ¼nya":4585,"ĠSAN":4586,"Ãĸzel":4587,"ransÄ±z":4588,"ĠanlayÄ±ÅŁ":4589,"Ġenf":4590,"ĠdÃ¼zenlem":4591,"Ġvs":4592,"Ġces":4593,"Ġparti":4594,"ÃĸR":4595,"baÅŁÄ±":4596,"Ġneredeyse":4597,"TE":4598,"Ġkullanmak":4599,"ahtar":4600,"ĠyalnÄ±zca":4601,"TA":4602,"ĠbaskÄ±":4603,"ĠacÄ±":4604,"dek":4605,"oft":4606,"Ġbed":4607,"iki":4608,"ĠsoÄŁuk":4609,"bal":4610,"Ġdokun":4611,"Ġmodelleri":4612,"ĠÃ§iÃ§ek":4613,"ĠFestiv":4614,"ert":4615,"Ġsiyah":4616,"ĠBilim":4617,"ĠÃ¶zellikleri":4618,"ĠkullandÄ±":4619,"sÃ¼z":4620,"ĠAc":4621,"Ġ2008":4622,"ĠKAR":4623,"ĠRe":4624,"antep":4625,"Ġmo":4626,"ĠDest":4627,"Ġediliyor":4628,"ĠBazÄ±":4629,"ĠâĢĿ":4630,"ĠMet":4631,"ĠMÃ¼hendis":4632,"anakkale":4633,"ĠGÃ¼venlik":4634,"ĠkÄ±rmÄ±zÄ±":4635,"ĠFenerbahÃ§e":4636,"Sen":4637,"gre":4638,"ori":4639,"qu":4640,"Ġsite":4641,"our":4642,"BM":4643,"--":4644,"Ġins":4645,"ĠHep":4646,"manlÄ±k":4647,"ĠMac":4648,"ĠUzun":4649,"ĠcÃ¼m":4650,"Ġyasak":4651,"Bel":4652,"ĠhatÄ±rlat":4653,"Ġihtim":4654,"SK":4655,"Ġverecek":4656,"ĠbakÄ±ÅŁ":4657,"larÄ±mÄ±za":4658,"Ġgrub":4659,"ĠgÃ¶rsel":4660,"tis":4661,"za":4662,"ĠhÃ¼c":4663,"Ġismi":4664,"ĠaÃ§Ä±":4665,"ĠhakkÄ±":4666,"ÅŁiv":4667,"kol":4668,"ĠBat":4669,"ube":4670,"Ġprojesi":4671,"Ġtas":4672,"ly":4673,"ĠÅŀu":4674,"Ankara":4675,"ĠKut":4676,"Ġetraf":4677,"ĠKir":4678,"lamÄ±ÅŁ":4679,"Ġhaz":4680,"Ġtarihleri":4681,"ĠÃ¼Ã§Ã¼ncÃ¼":4682,"Ġetmesi":4683,"ĠfiyatlarÄ±":4684,"ĠkullanÄ±mÄ±":4685,"Ġpil":4686,"ĠEski":4687,"OB":4688,"Ġesas":4689,"ĠCev":4690,"ĠNew":4691,"ĠÅŁark":4692,"Ãĸnc":4693,"adet":4694,"ĠBor":4695,"ĠkatÄ±lan":4696,"ĠbÃ¶lgesinde":4697,"ĠSek":4698,"memiÅŁ":4699,"Ġreh":4700,"ĠTÄ±p":4701,"ire":4702,"adeniz":4703,"Ġoda":4704,"ĠBoy":4705,"ĠBAÅŀ":4706,"ĠBankasÄ±":4707,"ĠdemiÅŁ":4708,"Ġbinlerce":4709,"Ġedilecek":4710,"Ġolanlar":4711,"ĠCem":4712,"Ġbayram":4713,"ĠsaygÄ±":4714,"Ġbeb":4715,"EÄŁer":4716,"ĠihtiyacÄ±":4717,"ĠasÄ±l":4718,"ĠFacebook":4719,"sur":4720,"Ġmeslek":4721,"ĠMus":4722,"ĠteÅŁekkÃ¼rler":4723,"Ġ45":4724,"Ġzamanlarda":4725,"ĠdÃ¼zenli":4726,"ĠeÅŁy":4727,"ĠLe":4728,"ĠMeclis":4729,"Ġsunuyor":4730,"Ġortalama":4731,"ĠdesteÄŁi":4732,"ĠuÄŁraÅŁ":4733,"Ġzih":4734,"TR":4735,"ĠGerek":4736,"ĠÃĩaÄŁ":4737,"Ġdizi":4738,"land":4739,"ĠÃ¶ÄŁretim":4740,"ĠGÃ¼neÅŁ":4741,"Ġalternatif":4742,"ĠyazÄ±lÄ±":4743,"ĠTeÅŁ":4744,"arlar":4745,"Ġyapabilir":4746,"ĠGru":4747,"âĢ¦âĢ¦":4748,"ĠyerleÅŁtir":4749,"Ġbelediye":4750,"ĠYAP":4751,"ĠYen":4752,"Ġmetre":4753,"Ä±rlar":4754,"ĠgÃ¶Ã§":4755,"mamasÄ±":4756,"Ġkurulan":4757,"Ä±nday":4758,"ĠÃ¼lkede":4759,"Ġotomatik":4760,"ĠgerÃ§ekleÅŁtirilen":4761,"sev":4762,"ĠTurizm":4763,"ĠPr":4764,"Dev":4765,"ĠÃ§alÄ±ÅŁÄ±yor":4766,"Ġgelenek":4767,"ÃľZ":4768,"odrum":4769,"isiklet":4770,"Ã¼bÃ¼":4771,"ĠDir":4772,"ÃĸN":4773,"ĠSÃ¼per":4774,"Ġrakam":4775,"ĠÄ°nternet":4776,"ĠHasan":4777,"ĠBuna":4778,"ĠinsanlarÄ±":4779,"ĠPartisi":4780,"tuÄŁ":4781,"TÃ¼m":4782,"alarÄ±ndan":4783,"Ä±ÅŁma":4784,"Ġkem":4785,"Ä±lmÄ±ÅŁtÄ±r":4786,"ĠulaÅŁabilirsiniz":4787,"ĠLisesi":4788,"sat":4789,"EF":4790,"Ġdemektir":4791,"ĠmuhteÅŁem":4792,"ĠaÃ§Ä±lÄ±ÅŁ":4793,"imden":4794,"Ġkod":4795,"ĠSitesi":4796,"rom":4797,"Bak":4798,"Ä±sÄ±t":4799,"ĠÄ°brahim":4800,"On":4801,"ĠMic":4802,"ĠTelefon":4803,"ĠÄ°ki":4804,"Ġkonak":4805,"DEN":4806,"44":4807,"Ġkurulu":4808,"ĠkaÃ§Ä±r":4809,"Ġince":4810,"ĠkiÅŁiye":4811,"irler":4812,"Ġsevin":4813,"ĠSa":4814,"Merhaba":4815,"ĠvÃ¼cut":4816,"ĠalmaktadÄ±r":4817,"Ġgem":4818,"ĠborÃ§":4819,"red":4820,"usuna":4821,"iyorlar":4822,"Ġhad":4823,"ĠKÄ±brÄ±s":4824,"ĠKurum":4825,"ĠaÅŁÄ±rÄ±":4826,"erji":4827,"org":4828,"Ġescort":4829,"ĠkÄ±smÄ±":4830,"Ġbirik":4831,"ĠiPhone":4832,"Ġmon":4833,"ĠimkanÄ±":4834,"ĠLigi":4835,"ĠkitabÄ±":4836,"Ä°H":4837,"ĠKiÅŁ":4838,"Ä±b":4839,"ĠÃ§Ä±kart":4840,"esef":4841,"ĠsÃ¼resi":4842,"ĠIrak":4843,"ĠMey":4844,"Uz":4845,"amik":4846,"ĠAKP":4847,"ice":4848,"Ġgetirdi":4849,"ĠBizim":4850,"ĠPeki":4851,"irketi":4852,"anÄ±t":4853,"ĠTah":4854,"Ġbecer":4855,"ĠÄ°h":4856,"ĠyaÅŁamak":4857,"ÄŁur":4858,"ĠÄ°ndir":4859,"ĠBÃ¶lÃ¼mÃ¼":4860,"ĠrahatsÄ±z":4861,"ator":4862,"dat":4863,"ĠyÃ¶netimi":4864,"ĠKuzey":4865,"ĠPKK":4866,"Ġtrafik":4867,"imizden":4868,"ĠadÄ±nÄ±":4869,"ĠDin":4870,"Ġwww":4871,"ĠProgramÄ±":4872,"Ġgizli":4873,"ĠgÃ¼venilir":4874,"layarak":4875,"Ġhepsi":4876,"Ġiptal":4877,"ĠÅŁeker":4878,"larca":4879,"irv":4880,"Ġvitam":4881,"ary":4882,"letiÅŁim":4883,"Ġyenilik":4884,"Ġsonuna":4885,"sinin":4886,"ĠamacÄ±":4887,"ĠbiÃ§imde":4888,"ĠCez":4889,"engi":4890,"Dr":4891,"irken":4892,"Top":4893,"ĠÅŁik":4894,"Ġokun":4895,"Ã¼lÃ¼":4896,"Ġkendilerine":4897,"maktan":4898,"Ġortadan":4899,"Ġorganizasyon":4900,"Ġrestor":4901,"ĠzayÄ±f":4902,"ĠiÃ§eren":4903,"ĠBÃ¶ylece":4904,"ĠyapÄ±mÄ±":4905,"ï»":4906,"Ġtutuk":4907,"Ġistek":4908,"Ġsayfa":4909,"ĠvermiÅŁ":4910,"Ġroman":4911,"ĠReh":4912,"istin":4913,"ĠdÄ±ÅŁarÄ±":4914,"Ġazalt":4915,"Ġolmay":4916,"Ġkere":4917,"Ä±nÄ±zÄ±n":4918,"ĠalÄ±ndÄ±":4919,"ĠMat":4920,"Ġistih":4921,"ox":4922,"ĠÃ§ocuklarÄ±n":4923,"ĠSÄ±r":4924,"Ġtuz":4925,"Ġgitti":4926,"oj":4927,"yaj":4928,"ĠyapÄ±lmÄ±ÅŁ":4929,"ĠoranÄ±":4930,"akkabÄ±":4931,"ĠAraÅŁtÄ±rma":4932,"ry":4933,"ĠÃ§alÄ±ÅŁmasÄ±":4934,"ĠilginÃ§":4935,"ĠÃ¶lÃ§Ã¼":4936,"ĠHava":4937,"ĠDers":4938,"ï»¿":4939,"Ġta":4940,"99":4941,"ĠPark":4942,"Ġbom":4943,"imd":4944,"ĠÃ¶y":4945,"ĠÄ°N":4946,"Ã¼lebilir":4947,"ĠGÃľN":4948,"ĠHatta":4949,"ÌĪ":4950,"BUL":4951,"Oy":4952,"ĠYine":4953,"ĠsanatÃ§Ä±":4954,"Ġherkese":4955,"ĠTeknoloji":4956,"ĠAltÄ±n":4957,"ĠbaÄŁÄ±msÄ±z":4958,"stagram":4959,"Ġyapabilirsiniz":4960,"ĠeÅŁit":4961,"ĠeriÅŁ":4962,"kÃ¶y":4963,"ĠTurk":4964,"Ġday":4965,"Ġaktiv":4966,"Ġburaya":4967,"mm":4968,"Ġbuyur":4969,"isa":4970,"ĠÃĸnc":4971,"ĠÃĩÄ±k":4972,"Sev":4973,"ĠBek":4974,"ĠKÄ±lÄ±Ã§":4975,"ĠHiÃ§":4976,"Ġyakalan":4977,"ĠKonya":4978,"ĠDÃ¼ÅŁ":4979,"dip":4980,"ĠSit":4981,"ĠparÃ§asÄ±":4982,"Ġvide":4983,"Ġdedim":4984,"lÄ±klar":4985,"ĠbÃ¶lÃ¼mÃ¼":4986,"Ġilgilen":4987,"Gel":4988,"ĠyÄ±lÄ±ndan":4989,"landa":4990,"Ġmaliyet":4991,"deb":4992,"Ġrenkli":4993,"duÄŁumuz":4994,"ĠNedir":4995,"Ġsiyaset":4996,"Ä±labilir":4997,"Ġbahset":4998,"kiÅŁehir":4999,"ĠpaylaÅŁÄ±m":5000,"ĠkiÅŁilerin":5001,"ĠÃ¼zerindeki":5002,"Ġyalan":5003,"Ġbirden":5004,"Ġbelirli":5005,"uÄŁu":5006,"ĠmaÄŁaz":5007,"ĠhayatÄ±":5008,"ĠFeder":5009,"Ġatan":5010,"mis":5011,"ĠaldÄ±m":5012,"ilmek":5013,"tic":5014,"ĠhazÄ±rlanan":5015,"ell":5016,"Ġ2019":5017,"lanÄ±r":5018,"yet":5019,"ĠArtÄ±k":5020,"www":5021,"Ġsorumluluk":5022,"errah":5023,"adÄ±n":5024,"2015":5025,"ĠsaÄŁlÄ±yor":5026,"Ġlir":5027,"Ġistedik":5028,"ĠÃ¼rÃ¼nÃ¼":5029,"Ġordu":5030,"iyordu":5031,"amayan":5032,"Ġistiyoruz":5033,"anÄ±m":5034,"ull":5035,"kadaÅŁ":5036,"Ġalg":5037,"oÄŁaz":5038,"ĠÄ°ÃĩÄ°N":5039,"ĠdoÄŁrult":5040,"ĠbaÄŁlantÄ±":5041,"LÄ°K":5042,"ĠÃ¼stÃ¼n":5043,"ĠtanÄ±n":5044,"ĠAbd":5045,"Ġiyil":5046,"bakÄ±r":5047,"ĠMa":5048,"ĠiÅŁler":5049,"Ġbende":5050,"65":5051,"lanÄ±yor":5052,"ĠuygulamasÄ±":5053,"ĠBelediy":5054,"endim":5055,"ĠÄ°L":5056,"Ġanaliz":5057,"SO":5058,"ĠKoca":5059,"lal":5060,"demir":5061,"ave":5062,"Ġhasta":5063,"ĠKil":5064,"ĠdediÄŁ":5065,"ĠsÃ¶yleyen":5066,"Ä±f":5067,"ĠdÃ¶v":5068,"ĠarkadaÅŁlar":5069,"ĠKup":5070,"ĠsÃ¼reci":5071,"ica":5072,"iciler":5073,"Ġhac":5074,"mit":5075,"ĠBÄ°L":5076,"??":5077,"San":5078,"Ġfinans":5079,"Ġ197":5080,"Ġincelem":5081,"Ġtehdit":5082,"Ġsakin":5083,"ĠBirleÅŁ":5084,"Ġveri":5085,"Ä±ÄŁÄ±nda":5086,"ĠÅŁaÅŁÄ±r":5087,"ĠdÃ¼zel":5088,"sit":5089,"ĠModel":5090,"Ä°V":5091,"stit":5092,"luluÄŁ":5093,"Ã¼leyman":5094,"Tar":5095,"ĠgeÃ§tiÄŁimiz":5096,"anda":5097,"vik":5098,"Ġbirbirinden":5099,"ĠOnun":5100,"Ġalmaya":5101,"ĠmÃ¼t":5102,"Ãĩocuk":5103,"ĠkadÄ±nlar":5104,"ĠolacaÄŁÄ±nÄ±":5105,"ena":5106,"Ġyerli":5107,"OP":5108,"Ġmus":5109,"kur":5110,"ĠðŁĻ":5111,"ilmektedir":5112,"ump":5113,"kon":5114,"ĠolduÄŁundan":5115,"ĠsÃ¶ylÃ¼yor":5116,"Ã¶ÄŁretim":5117,"ĠsÃ¼ren":5118,"Ġduyar":5119,"Ġsunan":5120,"Ġ@":5121,"ĠÃĸmer":5122,"xy":5123,"Ġkriz":5124,"Ġnitelik":5125,"Ġpay":5126,"ĠtaÅŁÄ±yan":5127,"Ġhassas":5128,"ĠkalÄ±n":5129,"emizi":5130,"ÅŁamba":5131,"elek":5132,"ĠistiyorsanÄ±z":5133,"ood":5134,"Konu":5135,"ĠSav":5136,"Ġeklen":5137,"sef":5138,"Ġkonuk":5139,"Ġbilgilendir":5140,"enn":5141,"ĠMuhammed":5142,"ĠGÃ¼ncel":5143,"ĠÃ§evre":5144,"giliz":5145,"ĠÃ¶zen":5146,"ĠRamazan":5147,"Ġsim":5148,"ĠHÃ¼seyin":5149,"altÄ±na":5150,"Ġsebebi":5151,"amaya":5152,"luluÄŁu":5153,"Ġyatak":5154,"ĠÃĸrneÄŁin":5155,"ĠBeyaz":5156,"Ġakadem":5157,"Ġsorumlu":5158,"Ġkus":5159,"dÄ±ÄŁÄ±m":5160,"lerimizin":5161,"ÅŁembe":5162,"ĠiÅŁin":5163,"ĠuÃ§uÅŁ":5164,"afer":5165,"Ġelem":5166,"Ġhus":5167,"ĠÃ§oÄŁ":5168,"Ġturizm":5169,"ĠdÃ¼ÅŁtÃ¼":5170,"Yap":5171,"lemeye":5172,"Ġkomp":5173,"!âĢĿ":5174,"Ġkilomet":5175,"mos":5176,"iyarbakÄ±r":5177,"enci":5178,"ĠKamp":5179,"ulur":5180,"DI":5181,"iÅŁe":5182,"zeme":5183,"bon":5184,"ĠBoz":5185,"aberi":5186,"ĠdoÄŁrudan":5187,"ĠiÅŁÃ§":5188,"enizi":5189,"ĠkavuÅŁ":5190,"yer":5191,"MAN":5192,"Ġidi":5193,"ray":5194,"05":5195,"ĠdolaÅŁ":5196,"Ġkeyifli":5197,"liyet":5198,"diniz":5199,"ĠJap":5200,"Ġalabilirsiniz":5201,"ĠGazetesi":5202,"Ġtemin":5203,"ilim":5204,"ĠKart":5205,"Ġkonser":5206,"ĠAY":5207,"ĠdoÄŁrultusunda":5208,"ĠbÃ¶lge":5209,"madÄ±ÄŁÄ±":5210,"ĠHakkÄ±nda":5211,"Ġgiderek":5212,"DoÄŁ":5213,"Ġhakim":5214,"Ġettim":5215,"01":5216,"BaÅŁk":5217,"tÄ±n":5218,"Ġtepki":5219,"ĠQ":5220,"ĠhÄ±zla":5221,"ĠKaymak":5222,"Ġolanak":5223,"ĠBatÄ±":5224,"Ġbilet":5225,"DAN":5226,"ĠHizmetleri":5227,"ĠPat":5228,"tek":5229,"ĠCar":5230,"ĠFu":5231,"Ġ*":5232,"OT":5233,"ĠhÃ¼kÃ¼met":5234,"Ġmodeli":5235,"ĠÃĸZ":5236,"ĠCaddesi":5237,"ĠseÃ§en":5238,"Ġfaiz":5239,"ĠbarÄ±ÅŁ":5240,"ĠaracÄ±":5241,"ral":5242,"sey":5243,"cret":5244,"ĠalÄ±m":5245,"ĠfiyatÄ±":5246,"Ġgitmek":5247,"Ġihracat":5248,"uluÄŁ":5249,"ami":5250,"ĠgÃ¼cÃ¼":5251,"etrol":5252,"ĠdÃ¼ÅŁÃ¼nÃ¼yor":5253,"Ġterk":5254,"ĠNeden":5255,"ĠtÄ±r":5256,"Ġbesin":5257,"Ġmanz":5258,"paÅŁa":5259,"ĠYÄ±ldÄ±z":5260,"asÄ±z":5261,"ĠÃ¼niversite":5262,"ĠII":5263,"ĠsoruÅŁtur":5264,"ĠTÃľRK":5265,"leyici":5266,"ĠGrup":5267,"Ġ;":5268,"ĠÅŁehr":5269,"Ġmutluluk":5270,"Ġelb":5271,"Ġkuru":5272,"ektÃ¶rÃ¼":5273,"Ġharit":5274,"Ġhissed":5275,"isyonu":5276,"ĠBab":5277,"ĠFransÄ±z":5278,"ĠaÄŁaÃ§":5279,"Ġdijital":5280,"ĠgÃ¶rÃ¼nt":5281,"ĠotobÃ¼s":5282,"lÄ±ÄŁÄ±nda":5283,"ang":5284,"Ġgalib":5285,"ĠbÃ¶lgede":5286,"ĠYazÄ±":5287,"ĠbaÅŁkanÄ±":5288,"Ġeb":5289,"ĠyayÄ±nlanan":5290,"ĠIs":5291,"YÄ±l":5292,"ĠGenÃ§lik":5293,"33":5294,"ebilmek":5295,"Ġbiridir":5296,"ĠStr":5297,"Ġyenil":5298,"ĠYas":5299,"kel":5300,"Ġyapma":5301,"EO":5302,"abilmektedir":5303,"Ġrezerv":5304,"ĠÃĩek":5305,"ĠparÃ§a":5306,"astik":5307,"ĠÄ°le":5308,"Ġrast":5309,"nan":5310,"Ġbon":5311,"ĠiÅŁlemi":5312,"Ok":5313,"Ġodak":5314,"Ġmac":5315,"ĠdÃ¶nÃ¼ÅŁtÃ¼r":5316,"Ġters":5317,"ĠProjesi":5318,"va":5319,"Ġx":5320,"Ġticari":5321,"Ġ300":5322,"Ì§":5323,"LA":5324,"Ġederken":5325,"ĠÃ¶nceden":5326,"ĠsÃ¶zleÅŁ":5327,"ĠvÃ¼cud":5328,"ĠkÄ±yaf":5329,"ĠdaÄŁÄ±t":5330,"amÄ±yor":5331,"Ġbulunur":5332,"masÄ±ndan":5333,"Ġitir":5334,"avuz":5335,"ĠdÃ¼ÅŁman":5336,"Ġsaf":5337,"ĠduruÅŁ":5338,"ĠER":5339,"ĠBl":5340,"kal":5341,"ĠbÃ¶":5342,"ĠBÃ¼tÃ¼n":5343,"ĠettiÄŁini":5344,"ĠDik":5345,"ĠÄ°ST":5346,"ĠEN":5347,"lÄ±klarÄ±":5348,"Ġkamer":5349,"lendirme":5350,"Ġederiz":5351,"TC":5352,"Ġisterseniz":5353,"dÄ±ÄŁÄ±mÄ±z":5354,"iter":5355,"Evet":5356,"Ä±yÄ±z":5357,"ĠDoÃ§":5358,"lus":5359,"Ġarka":5360,"ĠGal":5361,"ĠsÃ¶ylen":5362,"Ġgirdi":5363,"zu":5364,"Ġitibariyle":5365,"Ġnoktada":5366,"Ġverm":5367,"aÅŁÄ±":5368,"ĠbaÄŁlant":5369,"ĠÄ°liÅŁ":5370,"tanÄ±n":5371,"ĠMobil":5372,"out":5373,"Ġicin":5374,"ĠyaÅŁadÄ±ÄŁÄ±":5375,"les":5376,"ĠeÄŁlenceli":5377,"ĠErz":5378,"03":5379,"ulmuÅŁ":5380,"kÄ±r":5381,"ĠArab":5382,"ĠGrubu":5383,"ĠyatÄ±r":5384,"ĠgÃ¶rÃ¼nÃ¼yor":5385,"ĠCumartesi":5386,"ĠWindows":5387,"ĠkaynaÄŁÄ±":5388,"aÅŁÄ±k":5389,"ĠFutbol":5390,"ĠgÃ¶steriyor":5391,"BÃ¼yÃ¼k":5392,"PS":5393,"Ġburadan":5394,"ikat":5395,"ĠTarif":5396,"ĠÃ§oÄŁun":5397,"illa":5398,"ris":5399,"ĠyapÄ±n":5400,"At":5401,"ĠfaydalÄ±":5402,"ematik":5403,"ĠyaÅŁat":5404,"ĠFotoÄŁraf":5405,"Ġvermektedir":5406,"ĠdolayÄ±sÄ±yla":5407,"tren":5408,"Ġsizler":5409,"Ġfaydalan":5410,"Ġbulundur":5411,"ome":5412,"ĠÃ¶nlem":5413,"Ġdeng":5414,"ukat":5415,"Ġred":5416,"Ġideal":5417,"Ġbilgiye":5418,"Ġgidiyor":5419,"ferans":5420,"orta":5421,"Ġgenelinde":5422,"ĠBahÃ§":5423,"ĠyaÅŁay":5424,"ĠNak":5425,"uf":5426,"ĠDak":5427,"ĠEtik":5428,"Ġdekor":5429,"ĠYemek":5430,"ordin":5431,"eter":5432,"acaksÄ±nÄ±z":5433,"Ġtez":5434,"ilmez":5435,"raki":5436,"oli":5437,"ĠApple":5438,"irim":5439,"anti":5440,"isyen":5441,"unma":5442,"masÄ±yla":5443,"ĠOtom":5444,"ĠgeldiÄŁi":5445,"tÄ±ÄŁÄ±mÄ±z":5446,"CHP":5447,"Tur":5448,"Ġsuy":5449,"ĠÃĩelik":5450,"ĠSÄ±nav":5451,"Ġkendilerini":5452,"ĠgeÃ§iÅŁ":5453,"ĠKara":5454,"ĠÄ°letiÅŁim":5455,"Ġolmam":5456,"ular":5457,"Ġuzat":5458,"ĠbugÃ¼ne":5459,"Ġnefes":5460,"Ġdurdur":5461,"Ġumut":5462,"ĠÄ°sp":5463,"ĠgÃ¼ndem":5464,"ĠEmniyet":5465,"Ġufak":5466,"Ġ34":5467,"Ġiktidar":5468,"tansiy":5469,"yeni":5470,"ĠkullanÄ±lÄ±r":5471,"):":5472,"ĠhayÄ±rlÄ±":5473,"IY":5474,"Ġtabii":5475,"ĠbaÅŁlamÄ±ÅŁ":5476,"abilmesi":5477,"Ġtutar":5478,"ĠðŁĻĤ":5479,"Ġiken":5480,"ĠDÃ¼ny":5481,"ĠiliÅŁkiler":5482,"2014":5483,"Ġyarg":5484,"ĠPort":5485,"Ġtoz":5486,"Ġtarihli":5487,"ĠyÃ¼rÃ¼yÃ¼ÅŁ":5488,"eceÄŁimiz":5489,"ĠSil":5490,"ĠyarÄ±n":5491,"EH":5492,"Ġnesil":5493,"Kat":5494,"Ġdarbe":5495,"ĠsÃ¼s":5496,"insel":5497,"laÅŁma":5498,"ĠHotel":5499,"ĠÄ°dar":5500,"Ah":5501,"Ġbozuk":5502,"ĠPaÅŁa":5503,"ĠNer":5504,"LIK":5505,"ĠSistemi":5506,"ĠKor":5507,"Ġhaberleri":5508,"lari":5509,"Ġbelirtilen":5510,"Ä°ÅŁte":5511,"ĠkonuÅŁan":5512,"inda":5513,"ĠYeÅŁil":5514,"ĠbahÃ§":5515,"ĠilÃ§e":5516,"Ġbl":5517,"Ã§uk":5518,"ĠmaÃ§Ä±":5519,"TÃľ":5520,"ĠalbÃ¼m":5521,"ĠHukuk":5522,"abileceÄŁini":5523,"75":5524,"02":5525,"ĠÃľN":5526,"ĠAna":5527,"rop":5528,"ĠTasarÄ±m":5529,"ĠSonuÃ§":5530,"yasal":5531,"ĠÃ§erÃ§evesinde":5532,"ĠBunlar":5533,"lerimize":5534,"sar":5535,"omp":5536,"ketbol":5537,"Ġkanser":5538,"ĠeÅŁi":5539,"ĠDub":5540,"olog":5541,"Ġelbette":5542,"ĠgÃ¶rÃ¼nÃ¼m":5543,"ĠÄ°Åŀ":5544,"ĠVakfÄ±":5545,"ĠinsanÄ±":5546,"ĠÃ¼yeleri":5547,"ĠkÃ¼ltÃ¼rel":5548,"ender":5549,"Ġkalite":5550,"ĠDanÄ±ÅŁ":5551,"ĠTe":5552,"irin":5553,"ĠÃĸÄŁretmen":5554,"ÄŀÄ°":5555,"Ġalak":5556,"Ama":5557,"ĠYah":5558,"ĠgÃ¼nler":5559,"ĠSig":5560,"ĠTR":5561,"Ġfutbolcu":5562,"Ġzek":5563,"Ġbulabilirsiniz":5564,"Ġvermeye":5565,"lanmÄ±ÅŁtÄ±r":5566,"aÄŁÄ±n":5567,"ĠolduÄŁunuz":5568,"ĠĠĠĠ":5569,"Ġacaba":5570,"lanma":5571,"09":5572,"Ġgelip":5573,"Ġekibi":5574,"ĠDe":5575,"ĠMon":5576,"Ġbenzeri":5577,"manÄ±zÄ±":5578,"Ġekipleri":5579,"ĠedilmiÅŁtir":5580,"anlarÄ±":5581,"lamaya":5582,"Ġbirer":5583,"Ġinsanlara":5584,"tesi":5585,"Ã¼tÃ¼p":5586,"aalesef":5587,"Ġbirini":5588,"likler":5589,"ĠolmalÄ±dÄ±r":5590,"ĠAT":5591,"Ġkolayca":5592,"ĠUlusal":5593,"ĠKaradeniz":5594,"ĠgÃ¶zaltÄ±na":5595,"Ġtoplumsal":5596,"Ġsanki":5597,"Ġthe":5598,"ĠPlan":5599,"ĠzamanÄ±":5600,"ĠEtkin":5601,"ĠbilinÃ§":5602,"ĠtanÄ±tÄ±m":5603,"âĢĻâĢĻ":5604,"lÄ±ÄŁÄ±nÄ±n":5605,"Ġseks":5606,"ĠKit":5607,"ĠPazartesi":5608,"muz":5609,"ĠGer":5610,"AÅŁ":5611,"Ġfayda":5612,"DÄ°":5613,"ĠFestivali":5614,"ĠGerÃ§ek":5615,"soy":5616,"ain":5617,"lastik":5618,"alaxy":5619,"ĠtaÅŁÄ±":5620,"liliÄŁi":5621,"Kal":5622,"larÄ±ndaki":5623,"ĠÃ¶nde":5624,"Ġ36":5625,"Ġadeta":5626,"Ġfalan":5627,"Ġmahk":5628,"Ġbulmak":5629,"ilerden":5630,"Ġelektronik":5631,"ress":5632,"ĠolduklarÄ±":5633,"Ä±klÄ±":5634,"ĠMÃ¼ÅŁ":5635,"Ġofis":5636,"Ġyolcu":5637,"ĠaÃ§Ä±lan":5638,"Ġsahib":5639,"alarla":5640,"ĠÃľyesi":5641,"Ä±ydÄ±":5642,"ĠSor":5643,"Ġoldum":5644,"ĠBÃ¶lg":5645,"ĠtarÄ±m":5646,"ĠAkdeniz":5647,"ediÄŁiniz":5648,"CI":5649,"Ġdemir":5650,"Ġfinal":5651,"ĠFETÃĸ":5652,"Ġistik":5653,"Ġbilimsel":5654,"mesinin":5655,"ĠAmerikan":5656,"we":5657,"eth":5658,"55":5659,"th":5660,"Ä±ntÄ±lÄ±":5661,"lor":5662,"ĠsektÃ¶rÃ¼nde":5663,"Ġus":5664,"ĠsonuÃ§larÄ±":5665,"ĠyakÄ±ndan":5666,"liÄŁinin":5667,"34":5668,"Ġkullanan":5669,"ĠÃĸÄŁrenc":5670,"KAR":5671,"hale":5672,"ksiyon":5673,"var":5674,"layÄ±cÄ±":5675,"sh":5676,"ebiliriz":5677,"ĠiÅŁbirliÄŁi":5678,"?\"":5679,"Ġrahmet":5680,"Ġsistemleri":5681,"SaÄŁ":5682,"elisiniz":5683,"Ġkulak":5684,"ĠMHP":5685,"ĠSÃ¼leyman":5686,"ĠMahkem":5687,"ĠTÄ°C":5688,"31":5689,"leki":5690,"alimanÄ±":5691,"Kay":5692,"amadÄ±":5693,"ĠMÃ¼zik":5694,"ĠSavaÅŁÄ±":5695,"ĠSalÄ±":5696,"Ġetkilen":5697,"199":5698,"layÄ±n":5699,"ĠgÃ¼nÃ¼mÃ¼z":5700,"ĠteÅŁkil":5701,"Ey":5702,"ĠistediÄŁi":5703,"Ġgayet":5704,"Ġyerden":5705,"Ġsayede":5706,"Ġsergil":5707,"ĠGar":5708,"Bey":5709,"Ġkup":5710,"Ġkoruma":5711,"ĠiÃ§indeki":5712,"ograf":5713,"ĠKUR":5714,"ĠkÃ¶k":5715,"ĠÅŁeyin":5716,"ĠyapÄ±sÄ±":5717,"encer":5718,"ĠaÃ§Ä±dan":5719,"ĠbaÅŁken":5720,"ĠdÃ¶nemi":5721,"Ä°zmir":5722,"SA":5723,"08":5724,"Ġrakip":5725,"ĠÅŁef":5726,"Haber":5727,"Ġdepr":5728,"INDA":5729,"Ġdis":5730,"Ġdiyebilir":5731,"asÄ±ndaki":5732,"Ġayn":5733,"ous":5734,"Ġyasal":5735,"Ġboyu":5736,"ĠIÅŁ":5737,"ĠDestek":5738,"ĠKulÃ¼bÃ¼":5739,"ERK":5740,"Ġfer":5741,"Ġanlatan":5742,"ĠÃ¶den":5743,"ie":5744,"Ġdaim":5745,"Genel":5746,"Yaz":5747,"ĠÃĩanakkale":5748,"Ġsorunun":5749,"Ġmevcuttur":5750,"Ġbeklem":5751,"bek":5752,"Ġpotansiy":5753,"ĠOrgan":5754,"ĠKent":5755,"ĠgÃ¶rÃ¼len":5756,"ĠÅŁer":5757,"ĠgeleceÄŁ":5758,"Ġunsur":5759,"Ve":5760,"ĠyarÄ±m":5761,"Ġten":5762,"Ġtanesi":5763,"beri":5764,"ĠgeliÅŁmeler":5765,"ĠÃ§alÄ±ÅŁmak":5766,"Ġkanun":5767,"Ġgrubu":5768,"ĠTEK":5769,"car":5770,"ĠVan":5771,"Ġhayran":5772,"itir":5773,"ĠEx":5774,"elal":5775,"06":5776,"ĠÃĩarÅŁamba":5777,"Ġmens":5778,"Ġada":5779,"anet":5780,"vey":5781,"ĠKanun":5782,"Ġpratik":5783,"ick":5784,"36":5785,"ĠgÃ¶rm":5786,"yu":5787,"eceksiniz":5788,"ĠDevam":5789,"Ġhik":5790,"ĠÅŁunlarÄ±":5791,"ĠdeÄŁeri":5792,"Ġkapasit":5793,"ayasa":5794,"ĠTrump":5795,"Ġkesim":5796,"ĠSes":5797,"Ġsevgi":5798,"ĠBalÄ±k":5799,"ivas":5800,"ĠyÃ¶nel":5801,"ĠgÃ¶zlem":5802,"AÃ§":5803,"duÄŁum":5804,"ruf":5805,"ĠÃ§Ä±kacak":5806,"07":5807,"debiyat":5808,"ĠiÅŁlemleri":5809,"ong":5810,"uncu":5811,"Avrupa":5812,"des":5813,"04":5814,"oo":5815,"Ġkahraman":5816,"emesi":5817,"ĠKurumu":5818,"ĠFar":5819,"ĠMÃľ":5820,"ĠYa":5821,"ĠÃ§aÄŁr":5822,"own":5823,"dÃ¼n":5824,"iyel":5825,"undaki":5826,"ĠâĢº":5827,"irli":5828,"ĠbÃ¼yÃ¼m":5829,"Hal":5830,"ĠkarÅŁÄ±ya":5831,"imle":5832,".[":5833,"adÄ±ÄŁÄ±nÄ±z":5834,"osya":5835,"ĠiliÅŁki":5836,"usunun":5837,"ĠPerÅŁembe":5838,"ĠyumuÅŁ":5839,"lerken":5840,"ĠET":5841,"Ġsorgul":5842,"ĠÃĸÄŁretim":5843,"Ġtemsilc":5844,"Ġmimar":5845,"Ġlink":5846,"TD":5847,"Ġgurur":5848,"Ġondan":5849,"AyrÄ±ca":5850,"ĠVol":5851,"Ġniyet":5852,"Ġ..":5853,"Ġsanayi":5854,"ona":5855,"ĠDA":5856,"Ġgidip":5857,"MET":5858,"KAN":5859,"andar":5860,"elli":5861,"Ġgetirmek":5862,"adÄ±ÄŁÄ±mÄ±z":5863,"indistan":5864,"Ġbuz":5865,"duÄŁunuz":5866,"Ġbirim":5867,"Ã¼ldÃ¼":5868,"ĠYaÅŁam":5869,"Ġdiyet":5870,"ĠaraÅŁtÄ±rmalar":5871,"ĠÄ°ÅŁleri":5872,"ĠKON":5873,"ĠGaz":5874,"Ä°TESÄ°":5875,"ĠAj":5876,"laÅŁÄ±k":5877,"ĠbÃ¼r":5878,"Rus":5879,"Ġsevk":5880,"Ġ2007":5881,"nuv":5882,"Ġtoplu":5883,"ĠkartÄ±":5884,"Ġtiyatro":5885,"IT":5886,"ĠÃ¶ncelikle":5887,"ĠGeri":5888,"ĠsÃ¼redir":5889,"ĠÅŀey":5890,"Ġyiyecek":5891,"Ġbeklent":5892,"ĠYarÄ±ÅŁ":5893,"usuf":5894,"ĠAsya":5895,"acÄ±k":5896,"ĠAfrika":5897,"td":5898,"osk":5899,"Ġaltyap":5900,"Ġdoy":5901,"Ġulusal":5902,"acaÄŁÄ±na":5903,"Ġmekt":5904,"ĠForum":5905,"39":5906,"ĠgÄ±da":5907,"abiliriz":5908,"ĠyÃ¼zÃ¼nden":5909,"Ġseven":5910,"ola":5911,"Ã¼ce":5912,"ĠMem":5913,"Ġpozisyon":5914,"Ġtit":5915,"Ġmuhal":5916,"ĠÃ¼lkemizde":5917,"Ġref":5918,"Ġ32":5919,"Ġsevgil":5920,"ĠkadÄ±nlarÄ±n":5921,"bahar":5922,"ĠbarÄ±ndÄ±r":5923,"ĠsanÄ±rÄ±m":5924,"ĠFer":5925,"ÃĸÄŁr":5926,"muyor":5927,"Ġmisiniz":5928,"ĠKoÃ§":5929,"Ġyenilen":5930,"Ã¾":5931,"Ġkaydetti":5932,"Ġdurumlarda":5933,"ĠyÃ¶nlendir":5934,"ann":5935,"ĠÅŀahin":5936,"Ġhapis":5937,"ĠBaÅŁv":5938,"ĠSem":5939,"Ġfiziksel":5940,"ladÄ±m":5941,"ĠÅŀirket":5942,"tion":5943,"Ä±lÄ±p":5944,"Ġetki":5945,"ĠÅŁikayet":5946,"ĠgÃ¶k":5947,"ĠulaÅŁÄ±m":5948,"Prof":5949,"gaz":5950,"Ġmutfak":5951,"likte":5952,"ĠÃľÃ§":5953,"ĠFark":5954,"ĠMedya":5955,"tayÄ±z":5956,"ĠbÃ¼nyesinde":5957,"akarya":5958,"adir":5959,"Ġyolda":5960,"ava":5961,"Ġistif":5962,"Ġyerler":5963,"ĠmÃ¼hendis":5964,"Ġtakv":5965,"ĠEge":5966,"ĠamaÃ§lÄ±":5967,"ĠoÄŁlu":5968,"ĠÅŀen":5969,"ĠbirleÅŁtir":5970,"ĠÄ°kinci":5971,"Åŀu":5972,"Ġbirinin":5973,"Ġegz":5974,"Ġyolunda":5975,"Ġrefer":5976,"Ġfestiv":5977,"Ġserg":5978,"Ġbilen":5979,"ĠOrdu":5980,"ĠsaÄŁlayacak":5981,"ĠtÄ±p":5982,"ĠBayramÄ±":5983,"ĠEuro":5984,"alatya":5985,"Ġmahall":5986,"kim":5987,"Ġdiren":5988,"ug":5989,"\",":5990,"ĠEnstit":5991,"Ã¼str":5992,"ĠSun":5993,"ĠolmayÄ±":5994,"ĠgeÃ§er":5995,"ĠyaptÄ±m":5996,"Samsun":5997,"eliÄŁi":5998,"ÂĶ":5999,"ĠSÄ±nÄ±f":6000,"alÄ±dÄ±r":6001,"ĠDergisi":6002,"ĠgÃ¼nÃ¼n":6003,"ĠadayÄ±":6004,"ĠGaziantep":6005,"ARET":6006,"ĠoyunlarÄ±":6007,"ĠÅŁiÅŁ":6008,"ĠMersin":6009,"ĠDuy":6010,"Ġkonfor":6011,"adÄ±ÄŁÄ±m":6012,"Ġseyir":6013,"lardaki":6014,"ĠAile":6015,"alam":6016,"GÃ¶r":6017,"Ġsam":6018,"ĠteÅŁvik":6019,"Ġortamda":6020,"ĠkadÄ±nÄ±n":6021,"ĠÅŁub":6022,"ĠYal":6023,"ĠgÃ¶rÃ¼r":6024,"Ġust":6025,"Ä±ÄŁÄ±nÄ±":6026,"ĠbabasÄ±":6027,"deri":6028,"ĠdeÄŁin":6029,"ansiyon":6030,"ĠgÃ¼ne":6031,"Ġ150":6032,"Åŀimdi":6033,"ARI":6034,"Ġfabrik":6035,"ĠDakika":6036,"38":6037,"Ġacil":6038,"ĠMÄ±sÄ±r":6039,"priz":6040,"usuz":6041,"ĠyazÄ±k":6042,"Ġanti":6043,"ĠbakÄ±mÄ±ndan":6044,"posta":6045,"Ġuyumlu":6046,"ĠKons":6047,"ĠgÃ¼nden":6048,"ĠYÃ¶netimi":6049,"ĠkalmÄ±ÅŁ":6050,"rens":6051,"Ġnas":6052,"Ġmaddi":6053,"ĠÃ§alÄ±ÅŁtÄ±r":6054,"ĠGÃ¶n":6055,"Ġand":6056,"siyet":6057,"ĠÄ°nÅŁaat":6058,"Ġse":6059,"resi":6060,"ĠMeslek":6061,"ĠfaktÃ¶r":6062,"Ġyolculuk":6063,"Ġyoktu":6064,"ĠsorunlarÄ±":6065,"TI":6066,"ate":6067,"danÄ±":6068,"Ġyeten":6069,"Ġoynan":6070,"Ġlig":6071,"Ġkaybol":6072,"Ġdedik":6073,"ĠbaÅŁlayacak":6074,"yalÄ±":6075,"ĠkolaylaÅŁ":6076,"DU":6077,"Ã¶rÃ¼":6078,"meyecek":6079,"Ġoynay":6080,"ĠetmiÅŁtir":6081,"ĠÃ¶ÄŁrencilerin":6082,"Ġtelefonu":6083,"ĠAD":6084,"mara":6085,"duklarÄ±":6086,"rÃ¼k":6087,"ĠHast":6088,"EÅŀ":6089,"Ġvergi":6090,"urta":6091,"eyse":6092,"Ġedilebilir":6093,"ĠÄ°ÅŁlet":6094,"ĠkayÄ±p":6095,"ĠÅŁirketi":6096,"sul":6097,"ĠKanunu":6098,"Ġbakan":6099,"ĠResmi":6100,"ĠdÃ¼ÅŁen":6101,"sesuar":6102,"ĠCih":6103,"eciler":6104,"ĠTwitter":6105,"ĠsarÄ±":6106,"rosoft":6107,"adÄ±klarÄ±":6108,"ĠAslÄ±nda":6109,"ĠAdam":6110,"Ġ02":6111,"tÄ±lar":6112,"Ġilave":6113,"ebe":6114,"bat":6115,"ĠkonuÅŁma":6116,"Ãľn":6117,"los":6118,"ĠyaptÄ±klarÄ±":6119,"ĠTarÄ±m":6120,"Ä±yÄ±m":6121,"Ã¼ks":6122,"Ä°YOR":6123,"iyede":6124,"Ġkayded":6125,"ail":6126,"ĠolmadÄ±":6127,"Ä°Ã§":6128,"ĠCeza":6129,"Ġklasik":6130,"Ancak":6131,"ĠtakÄ±mÄ±":6132,"LAM":6133,"Ġtedavisi":6134,"32":6135,"ĠTun":6136,"Ġbelirlen":6137,"ĠkaÃ§Ä±n":6138,"ĠolmaktadÄ±r":6139,"ĠgerÃ§ekleÅŁen":6140,"orb":6141,"ĠolduklarÄ±nÄ±":6142,"ĠEÄŁitimi":6143,"Ġifadelerini":6144,"Ul":6145,"ĠhaklarÄ±":6146,"ĠHazÄ±r":6147,"ĠyarÄ±":6148,"Ġsebebiyle":6149,"Ġiyice":6150,"ĠaÅŁaÄŁÄ±da":6151,"Ġkonularda":6152,"ĠMot":6153,"ĠCumhurbaÅŁkan":6154,"__":6155,"ĠcoÄŁraf":6156,"ĠÃ¶nÃ¼mÃ¼zdeki":6157,"atistik":6158,"ĠBÃ¶lgesi":6159,"aÄŁÄ±nÄ±":6160,"ĠOY":6161,"ĠAvust":6162,"Ġkorumak":6163,"Ġmakal":6164,"mr":6165,"ALI":6166,"ÅŁap":6167,"Ġkurs":6168,"ĠOÄŁ":6169,"vel":6170,"ĠsonuÃ§lar":6171,"ĠDon":6172,"ĠOrt":6173,"ĠgÃ¶rdÃ¼k":6174,"daroÄŁlu":6175,"Ġbirbirine":6176,"ĠAnn":6177,"37":6178,"TL":6179,"bel":6180,"ĠSokak":6181,"ĠalanlarÄ±":6182,"Ġkazanan":6183,"ĠRek":6184,"ekil":6185,"Ġgenelde":6186,"ĠsatÄ±ÅŁa":6187,"Ġolabilirsiniz":6188,"ĠÃ§ekti":6189,"ĠalÄ±nmasÄ±":6190,"Ġmakam":6191,"ĠÄ°d":6192,"ĠKral":6193,"Ġverimli":6194,"Ġ48":6195,"ĠCad":6196,"ĠdÃ¶nÃ¼ÅŁÃ¼m":6197,"ĠhanÄ±m":6198,"ĠBilgisayar":6199,"ĠkÃ¼resel":6200,"Ġre":6201,"ikol":6202,"CumhurbaÅŁkanÄ±":6203,"Ġsizleri":6204,"ĠPas":6205,"ĠYIL":6206,"YON":6207,"Ġsabit":6208,"ĠÃ§aÄŁÄ±r":6209,"ĠaÄŁrÄ±":6210,"ĠÃľniversit":6211,"Ġgeleneksel":6212,"ĠyanÄ±na":6213,"ĠParis":6214,"masÄ±n":6215,"ebi":6216,"BMM":6217,"Ä°VERS":6218,"ĠsÃ¼per":6219,"Ġdini":6220,"rat":6221,"Ġhayatta":6222,"eks":6223,"Ġkurumsal":6224,"ĠgÃ¼Ã§lendir":6225,"ĠYazar":6226,"ĠVideo":6227,"Ġbahsed":6228,"otik":6229,"Ġsinir":6230,"ĠTiyatro":6231,"ĠKaynak":6232,"lanacak":6233,"Ġsinema":6234,"ts":6235,"mede":6236,"uÄŁla":6237,"ĠyÃ¶netmen":6238,"ĠÃ¼retimi":6239,"ĠaÄŁr":6240,"abilirler":6241,"ĠYork":6242,"Ġkalb":6243,"enkul":6244,"meyin":6245,"ĠBodrum":6246,"ĠiÅŁleri":6247,"ĠtaÅŁÄ±ma":6248,"eral":6249,"Ġadalet":6250,"ĠbaÅŁlangÄ±Ã§":6251,"Ġdikkate":6252,"gah":6253,"Ġtemizlik":6254,"ĠkanÄ±t":6255,"ENÄ°":6256,"Ġvererek":6257,"ĠgÃ¶rÃ¼yor":6258,"Ä°SÄ°":6259,"ĠEskiÅŁehir":6260,"Ãľr":6261,"ĠgÃ¼ndeme":6262,"Ġzamanlar":6263,"ĠulaÅŁmak":6264,"Ä±lÄ±ÄŁÄ±yla":6265,"ĠMu":6266,"ĠÄ°smail":6267,"Ġ09":6268,"biy":6269,"ĠgÃ¶l":6270,"ĠyaklaÅŁÄ±m":6271,"Ġpah":6272,"Ġzeytin":6273,"ĠsÄ±v":6274,"Ġsunum":6275,"Ġop":6276,"ĠÅŀube":6277,"ĠBundan":6278,"ese":6279,"oun":6280,"Ġ2000":6281,"ĠRabb":6282,"Ġob":6283,"ĠgÃ¶revi":6284,"ĠolduÄŁum":6285,"veÃ§":6286,"ĠiÅŁlev":6287,"ĠcivarÄ±nda":6288,"Ġtakdirde":6289,"amuk":6290,"uyum":6291,"Ġbask":6292,"Ġedebiyat":6293,"abi":6294,"Ġkullanabilirsiniz":6295,"ĠbÃ¶lÃ¼mÃ¼nde":6296,"Alman":6297,"Ġmetrek":6298,"ĠToplum":6299,"Ġiade":6300,"ĠaldÄ±k":6301,"Ġdip":6302,"ĠKÄ±zÄ±l":6303,"mÃ¼ÅŁtÃ¼r":6304,"Tr":6305,"Ġkendinizi":6306,"Ã¼ya":6307,"Ġsunu":6308,"Ġ=":6309,"Ġhata":6310,"ĠgÃ¶sterir":6311,"ĠaralarÄ±nda":6312,"Ġyoluyla":6313,"Ġdenetim":6314,"Ġtutul":6315,"Ġfi":6316,"riyet":6317,"ĠyaÅŁlÄ±":6318,"ĠbÃ¶ylece":6319,"ĠÃľNÄ°VERS":6320,"ABER":6321,"Ġfonksiyon":6322,"ĠazÄ±ndan":6323,"Ġlok":6324,"Ġharek":6325,"Mar":6326,"mesiyle":6327,"layacak":6328,"ĠKupasÄ±":6329,"Ġsizlerle":6330,"ĠgÃ¶rÃ¼ÅŁmeler":6331,"Ġversiyon":6332,"etiyle":6333,"Ġduruma":6334,"Ä°NE":6335,"Ġrej":6336,"ĠKaf":6337,"ĠÅŀehit":6338,"Ġest":6339,"lerinize":6340,"48":6341,"ĠZaten":6342,"Ġmeyve":6343,"Ġkendimi":6344,"ĠÃ§ekici":6345,"gresi":6346,"dun":6347,"Ġhali":6348,"ĠEnd":6349,"ill":6350,"ĠHayvan":6351,"ĠsaÄŁlÄ±ÄŁÄ±":6352,"Ġtaraftar":6353,"dÄ±ÄŁÄ±nÄ±z":6354,"Ġmahkem":6355,"ĠDolayÄ±sÄ±yla":6356,"ĠkazandÄ±":6357,"ĠayakkabÄ±":6358,"ĠGalaxy":6359,"ĠZiyaret":6360,"ĠÃ¶ncesinde":6361,"Ġbuldu":6362,"espor":6363,"ĠarÅŁiv":6364,"ĠÄ°mam":6365,"Ġbelediy":6366,"ĠKav":6367,"ĠÃ¶ngÃ¶r":6368,"ĠElektrik":6369,"eÄŁine":6370,"liy":6371,"ĠEnerji":6372,"ĠDemokr":6373,"ĠolacaÄŁÄ±":6374,"ĠEvet":6375,"Ġaj":6376,"daÄŁÄ±":6377,"Ġsaha":6378,"vekil":6379,"Ġsunulan":6380,"ĠBayan":6381,"lemesi":6382,"Ä°LER":6383,"ondra":6384,"Ã§isi":6385,"ĠÄ°talya":6386,"ĠMimar":6387,"ĠfÄ±rsatÄ±":6388,"azen":6389,"Ġsevg":6390,"Ġkusur":6391,"Ġmalzeme":6392,"Ġbeslenme":6393,"eker":6394,"Ġmuhab":6395,"ĠÃĩift":6396,"ife":6397,"ĠAV":6398,"Ġ196":6399,"anÄ±zÄ±":6400,"Ġkimi":6401,"ME":6402,"ĠDoÄŁan":6403,"ĠgÃ¼nÃ¼mÃ¼zde":6404,"Ġolunca":6405,"Ġbaba":6406,"ĠÃĩevre":6407,"Ġkara":6408,"Ġzorunlu":6409,"ĠkarÅŁÄ±lan":6410,"Ã¢y":6411,"Ġprojeler":6412,"ĠÃ¶ÄŁrencileri":6413,"ĠtasarÄ±mÄ±":6414,"ĠKendi":6415,"ĠHÃ¼kÃ¼m":6416,"ĠiÅŁÃ§i":6417,"ĠbaÄŁÄ±ÅŁ":6418,"ĠmÃ¼dahale":6419,"ĠÃ§ocuÄŁun":6420,"Ġkamera":6421,"ĠÃ¼retic":6422,"Ġkahve":6423,"ĠLim":6424,"leyin":6425,"Ġkargo":6426,"slan":6427,"ĠtÃ¼rÃ¼":6428,"ĠGÃ¶rÃ¼n":6429,"ĠPRO":6430,"Ġye":6431,"ĠkÄ±zÄ±":6432,"erik":6433,"ĠadlandÄ±r":6434,"ĠFÄ±r":6435,"mesinde":6436,"ĠKaÃ§":6437,"ĠbirleÅŁ":6438,"Ġbelirtildi":6439,".âĢĻ":6440,"Ġyetenek":6441,"ace":6442,"ĠMeclisi":6443,"Ġelinde":6444,"ĠBebek":6445,"ĠiletiÅŁime":6446,"ph":6447,"Ġverilir":6448,"Ġkelime":6449,"ĠRap":6450,"pa":6451,"ĠulaÅŁtÄ±r":6452,"ĠalÄ±ÅŁkan":6453,"ĠgÃ¶sterdi":6454,"ĠOnline":6455,"Ġuyan":6456,"anyo":6457,"andev":6458,"Ġ55":6459,"Ġverilecek":6460,"ĠMez":6461,"Ġbisiklet":6462,"Ġmemur":6463,"ĠSe":6464,"Ġhaberi":6465,"Ġyitir":6466,"Ġtebrik":6467,"Ġ400":6468,"lÄ±dÄ±r":6469,"Ġyerlerde":6470,"Yar":6471,"Benim":6472,"Ġzorluk":6473,"46":6474,"SB":6475,"Ġselam":6476,"Ġverici":6477,"BÃ¶l":6478,"onun":6479,"lup":6480,"ĠYaÄŁ":6481,"ĠÃ§alÄ±ÅŁmalarÄ±nÄ±":6482,"Ġtedbir":6483,"RET":6484,"ĠSarÄ±":6485,"2013":6486,"ĠPan":6487,"Ġsermay":6488,"parator":6489,"malarÄ±nÄ±":6490,"Ġadresi":6491,"ĠyÄ±lÄ±nÄ±n":6492,"ÅŁu":6493,"Ġkitl":6494,"ĠDÄ±ÅŁiÅŁleri":6495,"ĠgÃ¼zellik":6496,"Ġedilmektedir":6497,"ach":6498,"Ġmakyaj":6499,"ende":6500,"Ġokur":6501,"ĠÃľcret":6502,"Ã¼lmesi":6503,"adas":6504,"ĠRad":6505,"Ġbulunmak":6506,"ĠgeliÅŁmiÅŁ":6507,"Ġfuar":6508,"Ä±d":6509,"Ġbeyin":6510,"ĠYapÄ±lan":6511,"ĠterÃ¶rist":6512,"ĠDoktor":6513,"ĠgÃ¼r":6514,"ĠFilistin":6515,"Ġmeydan":6516,"Ġkoleksiyon":6517,"tÄ±klarÄ±":6518,"bank":6519,"ĠOtobÃ¼s":6520,"Ġsporcu":6521,"ĠyaÄŁmur":6522,"abalÄ±k":6523,"Ġoyunun":6524,"ji":6525,"Ä±ÄŁa":6526,"ĠÃ¶rn":6527,"emeyen":6528,"Ġkimlik":6529,"lav":6530,"ight":6531,".'":6532,"abor":6533,"isiz":6534,"ĠDiz":6535,"Ġnam":6536,"Ġseviyorum":6537,"Ġaraba":6538,"ibe":6539,"Sonraki":6540,"ĠoranÄ±nda":6541,"acaÄŁÄ±mÄ±z":6542,"ĠServis":6543,"zat":6544,"ĠseÃ§enekleri":6545,"dÃ¼ÄŁÃ¼nÃ¼":6546,"ĠAraÃ§":6547,"ĠYurt":6548,"liliÄŁ":6549,"Ġkuzey":6550,"zi":6551,"ĠEngel":6552,"Ġkaps":6553,"ĠHÄ±z":6554,"Ġdakikada":6555,"okol":6556,"ĠtÄ±klayÄ±nÄ±z":6557,"lÃ¼ÄŁe":6558,"yaspor":6559,"tein":6560,"Ġtasarruf":6561,"YaÅŁ":6562,"mekten":6563,"ky":6564,"Ġrehber":6565,"ĠEdebiyat":6566,"Ä°B":6567,"ĠaralÄ±k":6568,"Ġgayret":6569,"ĠDiyarbakÄ±r":6570,"ester":6571,"gat":6572,"Ġbitk":6573,"ĠÃ¶rgÃ¼tÃ¼":6574,"ilip":6575,"rip":6576,"ĠaÃ§Ä±klamasÄ±":6577,"Bunun":6578,"ĠVali":6579,"Ã¼ye":6580,"ĠkÄ±sÄ±m":6581,"Ġkoc":6582,"ĠTh":6583,"ĠDek":6584,"Ġiman":6585,"Ġmeyv":6586,"Ġ38":6587,"amanÄ±n":6588,"anlÄ±ur":6589,"ÃĸZ":6590,"ĠKen":6591,"Ġturist":6592,"ĠaracÄ±lÄ±ÄŁÄ±yla":6593,"ilt":6594,"ĠÃĸl":6595,"ĠÄ±r":6596,"ĠadamÄ±":6597,"fÄ±r":6598,"ĠÂ«":6599,"Ġayda":6600,"menizi":6601,"ildiÄŁini":6602,"Ġderecede":6603,"Ġdom":6604,"Ġbeklenen":6605,"ĠkulÃ¼p":6606,"Ġizlen":6607,"Kend":6608,"ĠÃ§am":6609,"ĠtÄ±klayÄ±n":6610,"Ġkapan":6611,"ĠTakÄ±m":6612,"ĠaydÄ±nlat":6613,"Ã¶ly":6614,"ĠAbdullah":6615,"ĠÃĩalÄ±ÅŁma":6616,"ĠÃ¼lkeler":6617,"Ġkariyer":6618,"Ġbekleniyor":6619,"ĠÂĵ":6620,"Ser":6621,"ĠÃľNÄ°VERSÄ°TESÄ°":6622,"Ġmaruz":6623,"ĠÃ§Ä±kmÄ±ÅŁ":6624,"ĠEK":6625,"egori":6626,"aÄŁÄ±na":6627,"ĠTemiz":6628,"ĠHakan":6629,"Ġkaybetti":6630,"Ġsaatlerinde":6631,"Kul":6632,"ĠRenk":6633,"amadÄ±m":6634,"ĠyangÄ±n":6635,"ĠHanÄ±m":6636,"Ġsinem":6637,"OC":6638,"Ġep":6639,"ĠTeknoloj":6640,"ĠÃ¼stÃ¼ne":6641,"lantÄ±":6642,"ÅŁÄ±":6643,"ĠSoru":6644,"ĠkalÄ±r":6645,"ĠÃ¶lÃ¼":6646,"ich":6647,"Ġhalen":6648,"Ġbilmiyorum":6649,"ĠmÃ¼l":6650,"amayacak":6651,"ĠMÃ¼zesi":6652,"ĠBÃ¶lge":6653,"ĠyÄ±llardÄ±r":6654,"Ġsertif":6655,"mel":6656,"alog":6657,"ĠMaÃ§":6658,"Ġdikkatli":6659,"ĠbaÅŁlÄ±klÄ±":6660,"Ġvizyon":6661,"andarma":6662,"Muh":6663,"Ġ65":6664,"Ġmuhtem":6665,"Ġkorku":6666,"ĠYapÄ±":6667,"ĠOyunlarÄ±":6668,"ĠkarÅŁÄ±laÅŁtÄ±r":6669,"In":6670,"ĠgeÃ§iyor":6671,"lima":6672,"Ġistedim":6673,"ĠTakÄ±mÄ±":6674,"eÄŁiyle":6675,"fik":6676,"Ġdevrim":6677,"ĠÄ°LE":6678,"ĠÃ§ocuklarÄ±":6679,"ĠedeceÄŁiz":6680,"ĠArt":6681,"ĠPlay":6682,"ĠsÃ¼reÃ§te":6683,"Ġmiktarda":6684,"ĠsÃ¼rpriz":6685,"ĠhÃ¼k":6686,"Ã¶p":6687,"elerek":6688,"ĠdeÄŁildi":6689,"END":6690,"ELÄ°":6691,"ĠÃ§ekiyor":6692,"Ġtablet":6693,"paz":6694,"dÄ±ÅŁ":6695,"Ġbizlere":6696,"Ġcumhur":6697,"diklerini":6698,"ĠKore":6699,"ĠyaÅŁÄ±yor":6700,"ohn":6701,"ĠBelki":6702,"ELER":6703,"ĠKocaeli":6704,"Ġyedek":6705,"ĠUygulama":6706,"Ġhediy":6707,"Ġtren":6708,"ĠmaÃ§Ä±nda":6709,"Ġekmek":6710,"ĠFiyatlarÄ±":6711,"ĠOnlar":6712,"ĠyaptÄ±ÄŁÄ±mÄ±z":6713,"dol":6714,"idi":6715,"ÄŀÄ°T":6716,"Ġkimsenin":6717,"ĠGazete":6718,"ĠattÄ±":6719,"ĠyÃ¼kselt":6720,"Ġdenem":6721,"ĠuyarÄ±":6722,"ĠfirmasÄ±":6723,"ash":6724,"lÄ±kta":6725,"eyip":6726,"ĠdÃ¼zenlediÄŁi":6727,"Ġkimyasal":6728,"tifak":6729,"Ġettiler":6730,"Deniz":6731,"Ä±rsÄ±z":6732,"Ġhisse":6733,"unuza":6734,"ĠFik":6735,"Ġmm":6736,"Ġ75":6737,"Ġbiy":6738,"Ġvir":6739,"ĠiÅŁgal":6740,"Ġizlem":6741,"ĠgereÄŁi":6742,"ĠkolaylaÅŁtÄ±r":6743,"ĠaÄŁz":6744,"ĠÃľzer":6745,"Ġplak":6746,"Ġsahne":6747,"doÄŁ":6748,"ĠYunanistan":6749,"ĠTav":6750,"The":6751,"ĠkatÄ±lÄ±mcÄ±":6752,"ĠFederasyonu":6753,"ĠgÃ¶rdÃ¼m":6754,"ĠPolis":6755,"ĠkeÅŁf":6756,"ĠED":6757,"ĠdÃ¼ÅŁÃ¼nÃ¼l":6758,"lob":6759,"ĠyÃ¼rÃ¼r":6760,"ĠbÃ¼tÃ§":6761,"ĠProje":6762,"ĠKredi":6763,"ĠOlay":6764,"ee":6765,"ĠcezasÄ±":6766,"ĠSaÃ§":6767,"ĠkÃ¶pek":6768,"Ġgarant":6769,"Ġ250":6770,"ĠBirleÅŁik":6771,"mekteyiz":6772,"ĠaÃ§an":6773,"ĠTal":6774,"ĠÅŁeyleri":6775,"ĠdÃ¼zelt":6776,"ĠkÃ¶pr":6777,"ĠLa":6778,"ĠhastalÄ±ÄŁÄ±":6779,"ĠÃ§ekim":6780,"EÄŁ":6781,"lerdi":6782,"Ġmemnuniyet":6783,"ĠgÃ¼venliÄŁi":6784,"Sel":6785,"Bah":6786,"otiv":6787,"ĠnoktasÄ±":6788,"Ġantren":6789,"Amer":6790,"Ã¼tÃ¼":6791,"ĠfirmamÄ±z":6792,"II":6793,"ĠGÃ¼nde":6794,"ĠHavalimanÄ±":6795,"EP":6796,"ĠnumaralÄ±":6797,"ĠTAR":6798,"Ġnakliyat":6799,"ĠYÃ¼r":6800,"ĠkaÅŁÄ±ÄŁÄ±":6801,"Ġolmasa":6802,"ĠCon":6803,"Ġevden":6804,"Ã¼kle":6805,"ĠesnasÄ±nda":6806,"Ġ05":6807,"ĠLisans":6808,"Ä±lmasÄ±na":6809,"INI":6810,"Ġesk":6811,"leyerek":6812,"Ġdenk":6813,"ĠRob":6814,"Ġbizimle":6815,"ĠYusuf":6816,"ĠSiyas":6817,"ulmaz":6818,"Ġsever":6819,"ndeki":6820,"lÃ¢m":6821,"ĠDep":6822,"ĠyapÄ±yoruz":6823,"Ġisteyenler":6824,"ĠyapÄ±p":6825,"47":6826,"ĠAkadem":6827,"ĠToplant":6828,"ÅŁe":6829,"Ġsonsuz":6830,"Ġmini":6831,"ĠÃ¼stÃ¼nde":6832,"ĠolaÄŁan":6833,"Ġsebeple":6834,"ding":6835,"Ġgelmesi":6836,"Ġkalem":6837,"ĠdÃ¼zeyde":6838,"Ġmaalesef":6839,"ĠÃ¶lÃ§Ã¼de":6840,"ĠbirÅŁey":6841,"kray":6842,"Ġaley":6843,"Ġsorunlar":6844,"ĠyansÄ±t":6845,"ĠÅŁeye":6846,"Ġsunmak":6847,"ĠanÄ±nda":6848,"iti":6849,"ĠsÃ¶ylemek":6850,"ĠrÃ¶":6851,"ĠbÃ¼yÃ¼":6852,"SAN":6853,"Ġesnaf":6854,"akal":6855,"ĠyapÄ±lÄ±yor":6856,"Ġisterim":6857,"Ġartan":6858,"Ġrekabet":6859,"ĠanÄ±":6860,"umuzun":6861,"ĠyapmanÄ±z":6862,"Ġolmaktan":6863,"ĠhalkÄ±n":6864,"ive":6865,"Ġmerkezinde":6866,"ezil":6867,"ĠyapmayÄ±":6868,"ĠEmre":6869,"Ġ08":6870,"ĠKamu":6871,"Ġevlen":6872,"azer":6873,"RAM":6874,"Ġetkiley":6875,"ĠÅŁehrin":6876,"ĠKork":6877,"ĠKayseri":6878,"Ġeh":6879,"ĠFaz":6880,"ĠSoy":6881,"Ä±sÄ±yla":6882,"ĠDar":6883,"Ġ01":6884,"ĠuygulamalarÄ±":6885,"Ġorman":6886,"gilizce":6887,"Ãľlk":6888,"Res":6889,"ĠbaÅŁÄ±":6890,"ĠeÄŁit":6891,"yiz":6892,"top":6893,"ĠeriÅŁim":6894,"Ġparlak":6895,"ette":6896,"ayarak":6897,"ĠrÃ¼z":6898,"arik":6899,"ĠSekret":6900,"ĠanlamÄ±":6901,"ĠOR":6902,"Ġbilgisi":6903,"Ġpetrol":6904,"Ġmoda":6905,"Ġsessiz":6906,"ĠHaft":6907,"Par":6908,"ĠÅŁehri":6909,"ĠgerektiÄŁi":6910,"Ġolamaz":6911,"ĠDÃ¼zen":6912,"ĠÃ¼m":6913,"Ġdepol":6914,"ĠdonanÄ±m":6915,"ĠEnstitÃ¼sÃ¼":6916,"Ġalanlarda":6917,"ue":6918,"ĠÅŁÃ¼k":6919,"ĠSamsung":6920,"tum":6921,"ĠkalÄ±cÄ±":6922,"ĠkarÅŁÄ±mÄ±za":6923,"ĠkazanÃ§":6924,"Ġhavuz":6925,"ĠVatan":6926,"ĠÃ¶ÄŁrenmek":6927,"ĠSaÄŁlÄ±ÄŁÄ±":6928,"ĠÃ¶t":6929,"Ġistihdam":6930,"Ġefsan":6931,"eÅŁme":6932,"Ġparmak":6933,"led":6934,"ĠdÃ¼ÄŁÃ¼n":6935,"Ġforum":6936,"madÄ±ÄŁÄ±nÄ±":6937,"Ġengelli":6938,"unuzun":6939,"ĠKuÅŁ":6940,"ĠOrman":6941,"ĠkullanÄ±labilir":6942,"Ġrengi":6943,"Ġdili":6944,"ÃľY":6945,"Ġport":6946,"tor":6947,"anlÄ±urfa":6948,"yaz":6949,"araj":6950,"aÄŁÄ±nda":6951,"49":6952,"oter":6953,"eydi":6954,"Ġlan":6955,"Ġkoltuk":6956,"ĠdÃ¼ÅŁÃ¼nce":6957,"NA":6958,"ĠsÃ¶zÃ¼":6959,"Ġtutan":6960,"uman":6961,"ĠOkulu":6962,"amÄ±zda":6963,"Ġhitap":6964,"ĠFuarÄ±":6965,"Ġgittik":6966,"ĠEkonomi":6967,"Ġdilek":6968,"Ġdiliyorum":6969,"Ġbanka":6970,"ĠgÃ¶ÄŁ":6971,"MAK":6972,"Ġdua":6973,"Ġmavi":6974,"Ġdarb":6975,"Ġharekete":6976,"TV":6977,"Ġbeslen":6978,"ĠzamanÄ±nda":6979,"ĠMin":6980,"Ġverim":6981,"ĠKarak":6982,"Ġtablo":6983,"ĠTemel":6984,"ĠPsik":6985,"Spor":6986,"ĠaylarÄ±nda":6987,"ĠÅŁimd":6988,"Ġgerekse":6989,"Ġverme":6990,"Sosyal":6991,"ÃĦ":6992,"2012":6993,"larÄ±nÄ±za":6994,"atÄ±n":6995,"Ġgeride":6996,"elendir":6997,"Ġmail":6998,"alandÄ±r":6999,"ĠTabi":7000,"ĠÄ°b":7001,"Ġmensup":7002,"ĠgÃ¶zÃ¼k":7003,"Bursa":7004,"ĠyÃ¶ntemi":7005,"ĠÃ§alÄ±ÅŁmaya":7006,"ĠServisi":7007,"Ġdeprem":7008,"ĠKarab":7009,"Ġdans":7010,"ĠgÃ¼z":7011,"ĠyÄ±ld":7012,"ĠgeldiÄŁini":7013,"ĠkahvaltÄ±":7014,"Ġaram":7015,"Ġyel":7016,"Ġkeyf":7017,"ĠHerkes":7018,"dayÄ±z":7019,"Ġ37":7020,"hay":7021,"ecik":7022,"ĠGÄ±da":7023,"EÃĩ":7024,"ĠÄ°lan":7025,"Ġharf":7026,"ĠAÅŁk":7027,"ĠOp":7028,"ĠbaÅŁladÄ±k":7029,"ĠÃ§ocuÄŁu":7030,"ĠYÄ±lÄ±":7031,"ukur":7032,"ULU":7033,"ĠfarkÄ±":7034,"ĠÃĸzgÃ¼r":7035,"lasman":7036,"Ġgelince":7037,"Ġevet":7038,"ĠâĢĻ":7039,"ĠkatÄ±ldÄ±ÄŁÄ±":7040,"Ġcami":7041,"ÄŀÄ°TÄ°M":7042,"ĠkullandÄ±ÄŁÄ±":7043,"esela":7044,"Ġmaddesi":7045,"ĠEb":7046,"ĠSatÄ±ÅŁ":7047,"larÄ±nÄ±zÄ±n":7048,"mp":7049,"Ġtamamlan":7050,"ebilen":7051,"sinde":7052,"Ġfilmin":7053,"Ġsaatleri":7054,"Yak":7055,"ald":7056,"Uy":7057,"Ġduruyor":7058,"ĠbiÃ§im":7059,"ilme":7060,"Ġzirv":7061,"manÄ±za":7062,"ĠhÃ¼cr":7063,"imizle":7064,"ĠKuvvet":7065,"ansÄ±z":7066,"ĠgÃ¶rdÃ¼":7067,"rist":7068,"Ġvad":7069,"Peki":7070,"Ġanlar":7071,"ERKEZ":7072,"isar":7073,"Ġmusunuz":7074,"Ä°P":7075,"ĠaÃ§Ä±ldÄ±":7076,"esir":7077,"Ġevinde":7078,"ĠLtd":7079,"ĠbakalÄ±m":7080,"ĠNet":7081,"Ġmetal":7082,"aa":7083,"ĠRum":7084,"Ġpanel":7085,"KadÄ±n":7086,"198":7087,"Ġmor":7088,"ĠÃ§atÄ±ÅŁ":7089,"ĠKerim":7090,"ĠedildiÄŁi":7091,"Ġhaftada":7092,"ediÄŁini":7093,"ĠÃ¶mÃ¼r":7094,"Ġanahtar":7095,"ĠNev":7096,"uÅŁturucu":7097,"Ġuygulamalar":7098,"Ġtoplumun":7099,"Ġmevsim":7100,"Ġlezzetli":7101,"ayÄ±t":7102,"Ġokumak":7103,"cÄ±lÄ±ÄŁ":7104,"ĠyaralÄ±":7105,"ĠDeÄŁer":7106,"oÅŁk":7107,"ĠmÃ¼mkÃ¼ndÃ¼r":7108,"Ġveriler":7109,"larÄ±mÄ±":7110,"Ä±llÄ±":7111,"Ġalabilir":7112,"ĠGez":7113,"OD":7114,"Ġrezervasyon":7115,"Ġetmeyi":7116,"ĠNeler":7117,"Ġokuma":7118,"ĠÃĸrg":7119,"ĠolmanÄ±n":7120,"ĠKÄ±lÄ±Ã§daroÄŁlu":7121,"aborat":7122,"ahh":7123,"Ġdan":7124,"ĠodasÄ±":7125,"ĠKahraman":7126,"Ġzinc":7127,"Antalya":7128,"Ã¢m":7129,"ĠanlattÄ±":7130,"Ġkaza":7131,"rimenkul":7132,"ĠfarklÄ±lÄ±k":7133,"Ġpeyn":7134,"ĠbÃ¼yÃ¼me":7135,"ment":7136,"ĠDaire":7137,"ĠÃ§ey":7138,"Ġves":7139,"ld":7140,"Ġdava":7141,"ĠsunduÄŁu":7142,"ĠyÄ±llarÄ±":7143,"talyan":7144,"Ġverdim":7145,"Ġfelsef":7146,"Sur":7147,"irt":7148,"lerindeki":7149,"ĠdÃ¼zenlendi":7150,"Ġderken":7151,"ĠBe":7152,"ĠGEL":7153,"Ã¼rken":7154,"MAD":7155,"GenÃ§":7156,"Ġanal":7157,"ĠFen":7158,"ĠbazÄ±larÄ±":7159,"ĠNec":7160,"Ġkonuyu":7161,"ÅŁi":7162,"ĠalmasÄ±":7163,"ĠArkadaÅŁ":7164,"UB":7165,"emey":7166,"ĠAil":7167,"Ġfar":7168,"Ġcem":7169,"ĠTabii":7170,"Ġdiyorum":7171,"Ġuyku":7172,"ĠmÃ¼r":7173,"ĠRoma":7174,"ĠBana":7175,"ĠyÃ¶nÃ¼nde":7176,"ĠhalkÄ±":7177,"ĠgÃ¼":7178,"Tarih":7179,"ĠBM":7180,"ÃĸL":7181,"Ä°NDE":7182,"ĠEscort":7183,"ĠGÃ¼Ã§":7184,"ĠSON":7185,"Ġ33":7186,"Ġfestival":7187,"tÄ±ÄŁÄ±m":7188,"ĠSP":7189,"ĠmÃ¼s":7190,"Ġoyunlar":7191,"Ġetiket":7192,"))":7193,"ĠMakin":7194,"str":7195,"ĠyÃ¶r":7196,"ĠPh":7197,"orno":7198,"ĠdeÄŁilim":7199,"ĠÃ§alÄ±ÅŁÄ±r":7200,"ĠvarlÄ±k":7201,"Ã¼mrÃ¼k":7202,"ĠAir":7203,"ĠTanrÄ±":7204,"ĠZira":7205,"Ġtok":7206,"Ġyetkili":7207,"Ġolmuyor":7208,"DÃ¼nyanÄ±n":7209,"Ġinc":7210,"Ġmerkezine":7211,"TAL":7212,"Ġailen":7213,"Har":7214,"ider":7215,"lub":7216,"Ġsez":7217,"ĠmaÃ§ta":7218,"Ġsavunma":7219,"ĨĴ":7220,"ĠÃĩay":7221,"ĠKanunun":7222,"ĠiÅŁletim":7223,"Ġservisi":7224,"ĠKÄ±sa":7225,"Ġsaati":7226,"Ġmeclis":7227,"melidir":7228,"ĠpiÅŁir":7229,"ĠEL":7230,"Ġbedel":7231,"ledim":7232,"ĠKaya":7233,"Man":7234,"ĠTok":7235,"zan":7236,"Ġolabilecek":7237,"Ġhadis":7238,"ĠrahatlÄ±kla":7239,"Ġkurmak":7240,"ĠolmadÄ±ÄŁ":7241,"Ġbiliyorum":7242,"Ġsigara":7243,"lom":7244,"Ġonur":7245,"ĠSiyah":7246,"Ġ2006":7247,"ĠÃľstelik":7248,"ĠsunmaktadÄ±r":7249,"ĠnÃ¼fus":7250,"FA":7251,"stil":7252,"âĢĶ":7253,"ĠeÅŁliÄŁinde":7254,"coin":7255,"Ġaktivit":7256,"Ġkalitesi":7257,"Ä±ldÄ±ÄŁÄ±nda":7258,"Ġsiteleri":7259,"itler":7260,"ĠsÄ±fÄ±r":7261,"Ġtipi":7262,"Ġikram":7263,"ĠsÃ¼rece":7264,"Ġhaberler":7265,"ĠTedav":7266,"ĠmÃ¼dahal":7267,"Su":7268,"ĠErzurum":7269,"ĠNot":7270,"Ġevlilik":7271,"hab":7272,"Ġlideri":7273,"ĠHey":7274,"Ġfatur":7275,"medik":7276,"\\\\":7277,"ĠDublaj":7278,"ĠyemeÄŁi":7279,"ĠmaaÅŁ":7280,"ĠBU":7281,"Ġyorgun":7282,"Ä±ÅŁlÄ±":7283,".(":7284,"leyecek":7285,"Ġdevletin":7286,"Ä°ST":7287,"Ġinceley":7288,"St":7289,"Ġdurumun":7290,"ĠLondra":7291,"Ġkilometre":7292,"ĠSivas":7293,"Ġyav":7294,"ĠgÃ¶rÃ¼yoruz":7295,"ĠKarar":7296,"uÅŁu":7297,"ĠdÃ¼k":7298,"Ġnin":7299,"MS":7300,"ĠyapÄ±ldÄ±ÄŁÄ±":7301,"Kim":7302,"ĠKes":7303,"ĠsÃ¼rÃ¼yor":7304,"Ġetmez":7305,"liyoruz":7306,"ĠMahkemesi":7307,"ĠhayatÄ±n":7308,"ĠBileti":7309,"Ġku":7310,"ĠgÃ¼ney":7311,"ĠgeÃ§ici":7312,"CE":7313,"abileceÄŁ":7314,"utin":7315,"leniyor":7316,"ole":7317,"Ġker":7318,"ĠKÃ¶yÃ¼":7319,"lÄ±lar":7320,"Ġgelerek":7321,"ĠcÃ¼ml":7322,"Ġailesi":7323,"ĠsÃ¶zleri":7324,"tiÄŁim":7325,"Ġhasar":7326,"Ġbulan":7327,"gÃ¼l":7328,"Ġsevgili":7329,"Ġyumurta":7330,"Ġyedi":7331,"Ã°":7332,"ĠsÄ±nÄ±rlÄ±":7333,"ĠÃĸyle":7334,"iÅŁik":7335,"sav":7336,"42":7337,"ĠMen":7338,"ĠmantÄ±k":7339,"unlar":7340,"Kan":7341,"ĠgÃ¼nah":7342,"Ġbileti":7343,"ĠkumaÅŁ":7344,"Ġmedy":7345,"ĠyÄ±la":7346,"po":7347,"ĠcanÄ±m":7348,"Ãĸnceki":7349,"Em":7350,"esto":7351,"Ġsitesinde":7352,"Ġbekliyoruz":7353,"ĠEÄŀÄ°TÄ°M":7354,"api":7355,"ĠÅŁunu":7356,"ĠÃ¼retilen":7357,"Ä±lmasÄ±nÄ±":7358,"krayna":7359,"ĠList":7360,"Ã§Ä±n":7361,"Ġgalibiyet":7362,"Ġegzersiz":7363,"Rusya":7364,"ĠbÃ¶yl":7365,"kor":7366,"ĠcanlandÄ±r":7367,"Ġkred":7368,"Ä±lmaktadÄ±r":7369,"Ġbireysel":7370,"mini":7371,"ebze":7372,"ĠgÃ¼nleri":7373,"Eski":7374,"ĠolduÄŁunda":7375,"Ġkazanmak":7376,"ame":7377,"ĠfÄ±k":7378,"ĠyÃ¼zlerce":7379,"ĠÃ§Ã¶k":7380,"cÄ±k":7381,"Ä°ki":7382,"ĠArabistan":7383,"ĠDenizli":7384,"lÄ±yorum":7385,"Ġdalg":7386,"ĠSalonu":7387,"tÄ±cÄ±":7388,"ÄŀI":7389,"ĠBÃ¼l":7390,"inizden":7391,"ĠBarÄ±ÅŁ":7392,"Ġcas":7393,"ĠTUR":7394,"ĠaÃ§tÄ±":7395,"ĠEc":7396,"Ġ39":7397,"ilerinden":7398,"ĠBunlarÄ±n":7399,"ĠinanÃ§":7400,"lip":7401,"aze":7402,"ĠgelmiÅŁtir":7403,"Ã¼tÃ¼phan":7404,"ĠDetay":7405,"Ġinsana":7406,"ĠMesaj":7407,"Ġsayg":7408,"engiz":7409,"ĠzamanlÄ±":7410,"ĠanlatÄ±yor":7411,"veya":7412,"iplin":7413,"ĠaÅŁkÄ±n":7414,"ĠDalÄ±":7415,"cÃ¼sÃ¼":7416,"portaj":7417,"ĠÃ¶ncelik":7418,"ĠHindistan":7419,"Ġgelmektedir":7420,"ĠGe":7421,"Ġgeril":7422,"Ġalkol":7423,"Ġtemas":7424,"ĠolmamasÄ±":7425,"ĠolayÄ±":7426,"ĠSch":7427,"ĠdoÄŁa":7428,"ĠsÄ±ÄŁÄ±n":7429,"poz":7430,"Ġmir":7431,"Ġgram":7432,"ĠyolculuÄŁ":7433,"ĠadÄ±yla":7434,"ĠyapmasÄ±":7435,"ĠkÄ±ymet":7436,"rid":7437,"ĠPAR":7438,"ĠdaÄŁÄ±":7439,"ĠUzman":7440,"Ġtepk":7441,"ĠbaÅŁladÄ±m":7442,"ĠsÄ±z":7443,"ĠKadÄ±nlar":7444,"ĠÃ¼stÃ¼":7445,"ĠTut":7446,"Ġistis":7447,"GB":7448,"Ġonunla":7449,"ilmesini":7450,"ĠBakÄ±m":7451,"lobal":7452,"Ġyetersiz":7453,"ĠÃ¶ÄŁrencilere":7454,"Osman":7455,"ĠBahÃ§eli":7456,"Ġ1000":7457,"Ġbenden":7458,"diy":7459,"Sin":7460,"ks":7461,"Ġbet":7462,"ĠTÃ¼r":7463,"ĠkÄ±sÄ±t":7464,"Ġmetin":7465,"ĠTBMM":7466,"Ġalana":7467,"yim":7468,"Ġtap":7469,"KÄ±r":7470,"Ġbahar":7471,"ĠyaralandÄ±":7472,"ĠMÃ¼cad":7473,"ersiniz":7474,"Ġverilmesi":7475,"Ġvefat":7476,"Ġmay":7477,"Ġavukat":7478,"ediÄŁim":7479,"ijinal":7480,"ĠÃ§alÄ±ÅŁmalarÄ±na":7481,"Hz":7482,"AÃ§Ä±k":7483,"Ġgazetec":7484,"ĠlÃ¼ks":7485,"Ġkonuya":7486,"pe":7487,"iyorsunuz":7488,"OÄŀLU":7489,"ĠgÃ¶m":7490,"Ġpsikolojik":7491,"ĠbuluÅŁtur":7492,"Ġemekli":7493,"Has":7494,"ĠyoÄŁ":7495,"ANBUL":7496,"ĠÃ¶nemi":7497,"Ġbilgilere":7498,"ĠOrhan":7499,"andevu":7500,"Ġpotansiyel":7501,"Ġente":7502,"ĠgerÃ§ekleÅŁtirildi":7503,"DIR":7504,"ĠeÅŁlik":7505,"ux":7506,"ĠForm":7507,"ĠMalatya":7508,"aÄŁÄ±nÄ±n":7509,"ĠaltÄ±nÄ±":7510,"Ġsesi":7511,"ĠÃ§apÄ±nda":7512,"ĠarkadaÅŁÄ±":7513,"malarÄ±n":7514,"ĠiÃ§inden":7515,"ĠOper":7516,"Ã¼rriyet":7517,"ĠkiÅŁiyi":7518,"Ġsorular":7519,"iraat":7520,"Ġpazarlama":7521,"tikten":7522,"ĠTesis":7523,"ĠKonseyi":7524,"Ä±bbi":7525,"ĠPara":7526,"Ġkonular":7527,"ĠyakÄ±ÅŁ":7528,"oma":7529,"tuÄŁu":7530,"ĠGÃ¶rev":7531,"ĠGiz":7532,"ĠkaÄŁÄ±t":7533,"Ġbulur":7534,"ĠOyunu":7535,"Ġbiliyoruz":7536,"ĠMÃ¼dÃ¼rlÃ¼ÄŁ":7537,"avuÅŁ":7538,"lex":7539,"ĠiyileÅŁtir":7540,"Ġcennet":7541,"ĠÃ¼rÃ¼nlerin":7542,"Ġorganize":7543,"ĠÃĩÃ¶z":7544,"Ġinceleme":7545,"ĠKoc":7546,"ĠYatÄ±rÄ±m":7547,"Ġsigort":7548,"Ġvah":7549,"ĠMetin":7550,"Ġpiyasaya":7551,"ĠdÃ¼r":7552,"ĠsahipliÄŁi":7553,"ĠarasÄ±ndan":7554,"tre":7555,"ĠBlog":7556,"Ġplana":7557,"ĠsÃ¼reli":7558,"muÅŁtu":7559,"lÄ±ca":7560,"balaj":7561,"UY":7562,"Ġannesi":7563,"malÄ±sÄ±nÄ±z":7564,"Ġgrafik":7565,"Ġtaze":7566,"ĠKaymakam":7567,"ĠÃ¼creti":7568,"ĠÄ°lgili":7569,"Ġpeygamber":7570,"ĠhayatÄ±na":7571,"ĠMag":7572,"ĠMarmara":7573,"unus":7574,"Ġaran":7575,"ektif":7576,"ĠtaÅŁÄ±mak":7577,"Ä±yorsunuz":7578,"Ġmasa":7579,"ĠÃ¶mr":7580,"Ġgidecek":7581,"Ġanlamak":7582,"Ġbitki":7583,"eÄŁinde":7584,"leket":7585,"Ġgib":7586,"ĠâĢ¢":7587,"ĠiÃ§eriÄŁ":7588,"utma":7589,"madÄ±m":7590,"burg":7591,"edava":7592,"ĠÃĸnce":7593,"ĠHemen":7594,"ĠHaklarÄ±":7595,"anta":7596,"Ġdernek":7597,"ĠendiÅŁ":7598,"Ġmilletvekili":7599,"dil":7600,"tadoÄŁu":7601,"ĠMERKEZ":7602,"iyanet":7603,"umuzu":7604,"Ġdenet":7605,"Mil":7606,"landÄ±ÄŁÄ±":7607,"iden":7608,"eryal":7609,"kas":7610,"dirne":7611,"Ġsanal":7612,"IC":7613,"Ġedici":7614,"melerin":7615,"Ġfin":7616,"ĠMÃ¼hendisliÄŁi":7617,"Af":7618,"oks":7619,"je":7620,"AÃĩ":7621,"ĠHangi":7622,"Ġbe":7623,"ĠHastalÄ±k":7624,"ĠyÃ¼zey":7625,"ĠinÅŁallah":7626,"Ġderi":7627,"ĠbaÅŁkenti":7628,"ĠGÃ¼mÃ¼ÅŁ":7629,"ĠeÅŁsiz":7630,"bo":7631,"Sab":7632,"Ġolaylar":7633,"Ġistey":7634,"ceÄŁi":7635,"Ġsemin":7636,"ĠsÃ¼rÃ¼m":7637,"ĠÃ¶zgÃ¼rlÃ¼k":7638,"ĠKomisyonu":7639,"baycan":7640,"Ġbez":7641,"AA":7642,"43":7643,"ĠYayÄ±nlarÄ±":7644,"Ġtehlikeli":7645,"Ġnem":7646,"kz":7647,"emem":7648,"mÄ±":7649,"ĠgÃ¶rmÃ¼ÅŁ":7650,"ĠsektÃ¶rÃ¼":7651,"Ã©":7652,"YÃ¼k":7653,"Ä±nma":7654,"errahi":7655,"larken":7656,"ĠMAH":7657,"ucusu":7658,"Mal":7659,"ĠSakarya":7660,"Ġtalim":7661,"ĠdÃ¼zenlenecek":7662,"TÃľRK":7663,"ĠkatkÄ±da":7664,"Ġsilin":7665,"Uzun":7666,"ĠbirliÄŁi":7667,"Ġziy":7668,"Ġbina":7669,"mediÄŁi":7670,"ĠkeÅŁfet":7671,"ĠpaylaÅŁmak":7672,"Ġolmayacak":7673,"ĠtarzÄ±":7674,"Ġvade":7675,"DiÄŁer":7676,"Ä°LÄ°":7677,"ĠÃ§aÄŁrÄ±":7678,"!..":7679,"Google":7680,"lÄ±lÄ±ÄŁ":7681,"ĠbaktÄ±ÄŁ":7682,"ĠiÃ§ecek":7683,"Ġtavsiy":7684,"ĠtÃ¼ketim":7685,"ilerde":7686,"ayol":7687,"bas":7688,"ĠyÄ±lÄ±na":7689,"ĠÃ§izgi":7690,"Ġbirine":7691,"ĠDoÄŁru":7692,"Ġzemin":7693,"Ġkodu":7694,"ĠDoÄŁal":7695,"ĠKongresi":7696,"sÄ±zÄ±n":7697,"ĠSn":7698,"ĠLTD":7699,"mus":7700,"ĠmaÄŁdur":7701,"ĠÃ§alÄ±ÅŁÄ±yoruz":7702,"Ġtarihinden":7703,"ĠyumuÅŁak":7704,"orlu":7705,"Ä°yi":7706,"GS":7707,"41":7708,"leÄŁ":7709,"tiÄŁinde":7710,"ĠModelleri":7711,"Ġmuhaf":7712,"Ġcesaret":7713,"ĠDoÄŁum":7714,"Ġyur":7715,"eleriyle":7716,"ĠAdÄ±":7717,"Ġyal":7718,"Ġtaban":7719,"ĠCep":7720,"ĠkaranlÄ±k":7721,"cÄ±lÄ±ÄŁÄ±":7722,"ĠNO":7723,"ĠdÃ¼ÅŁÃ¼nÃ¼r":7724,"Ä°st":7725,"Ġ120":7726,"tÄ±ktan":7727,"ĠbÃ¼yÃ¼y":7728,"Ġkategorisinde":7729,"Ġkonaklama":7730,"ĠgeldiÄŁinde":7731,"ĠkÄ±v":7732,"ĠaÃ§Ä±klandÄ±":7733,"ĠkÃ¢":7734,"ĠinanÄ±lmaz":7735,"ĠkalabalÄ±k":7736,"Ġpm":7737,"ĠPak":7738,"ĠyÃ¶nde":7739,"ĠyaÄŁÄ±":7740,"Ġ06":7741,"laÃ§":7742,"Ġelbis":7743,"Ġgecik":7744,"Mes":7745,"ĠTemsil":7746,"KARA":7747,"Ġtaraftan":7748,"iÅŁli":7749,"ĠeÄŁlence":7750,"Ġbelirlenen":7751,"ĠEmek":7752,"ĠKud":7753,"Ġbeyan":7754,"Ġhalka":7755,"ĠGEN":7756,"duktan":7757,"Ġnih":7758,"Ġmalzemeleri":7759,"ĠalmÄ±ÅŁtÄ±r":7760,"ĠalÄ±rken":7761,"stra":7762,"ĠkapsamlÄ±":7763,"ĠoluÅŁturmak":7764,"Ä±lÄ±ÅŁ":7765,"Ġkonferans":7766,"ĠYay":7767,"ĠBet":7768,"ĠDi":7769,"Ġsahil":7770,"ĠðŁĺ":7771,"diven":7772,"ĠHABER":7773,"Ġtraf":7774,"ĠGol":7775,"ĠâĢĺâĢĻ":7776,"ĠolmuÅŁtu":7777,"Ã§ek":7778,"ĠâĨĴ":7779,"Ġolsay":7780,"ĠtoplantÄ±sÄ±":7781,"ĠAdet":7782,"ĠbakÄ±n":7783,"ĠfarkÄ±nda":7784,"ĠsÃ¼recinde":7785,"ĠgÃ¶rÃ¼ntÃ¼l":7786,"tral":7787,"ĠHayÄ±r":7788,"Ġuzay":7789,"ĠdoÄŁrul":7790,"Ġrob":7791,"Ã¶reni":7792,"lasyon":7793,"ĠVER":7794,"Ġbelgesi":7795,"ĠdeÄŁerlendirme":7796,"Ã¼kleer":7797,"Ġincelen":7798,"ĠgerekÃ§":7799,"Ġgeldik":7800,"Ä±ldÄ±ÄŁÄ±nÄ±":7801,"Ġteor":7802,"ĠdÃ¼ÅŁÃ¼ÅŁ":7803,"HA":7804,"lukla":7805,"ĠLev":7806,"Ġkalacak":7807,"ĠUÄŁur":7808,"ĠBununla":7809,"Ġnelerdir":7810,"BaÅŁkan":7811,"LÃľ":7812,"ĠDÃ¼nyanÄ±n":7813,"pat":7814,"Ġmanzar":7815,"ĠPek":7816,"liÄŁiyle":7817,"Ġkurban":7818,"Ġyerleri":7819,"ĠSonr":7820,"hats":7821,"ĠTatil":7822,"Ġhizmetler":7823,"Ġsunar":7824,"Ġpaz":7825,"abak":7826,"ĠyapÄ±lmaktadÄ±r":7827,"gazi":7828,"ĠHDP":7829,"Ã¼nce":7830,"ish":7831,"Ġusul":7832,"Ã¢t":7833,"Ġgetiriyor":7834,"Ġhizmete":7835,"ĠKer":7836,"ekom":7837,"Ã¶rf":7838,"ĠsÄ±rt":7839,"Ġduygusal":7840,"Ġkampanya":7841,"ĠzamandÄ±r":7842,"epe":7843,"Ġsik":7844,"ĠUzmanÄ±":7845,"ĠGeliÅŁtir":7846,"Ġakr":7847,"madÄ±k":7848,"ĠBEL":7849,"Ġtarihine":7850,"Ġno":7851,"Ġmuay":7852,"Bay":7853,"ĠsÃ¼rÃ¼cÃ¼":7854,"ĠMi":7855,"ĠNakliyat":7856,"ĠBaÅŁvuru":7857,"ĠyayÄ±nlandÄ±":7858,"ĠSistemleri":7859,"ĠÃ¼zeri":7860,"ĠgeÃ§irmek":7861,"ĠAdalet":7862,"Ġerkekler":7863,"Ter":7864,"ĠboÄŁ":7865,"ĠÃĩak":7866,"ĠÅŁimdiden":7867,"ĠDaÄŁ":7868,"Hayat":7869,"INA":7870,"Ġnetic":7871,"uel":7872,"ĠAlÄ±ÅŁ":7873,"itika":7874,"kili":7875,"2011":7876,"ĠhaklÄ±":7877,"ĠseÃ§imi":7878,"ebilirim":7879,"Ġaksesuar":7880,"Ġ2005":7881,"ĠÃĸdÃ¼lÃ¼":7882,"Dem":7883,"isindeki":7884,"ĠgerÃ§ekleÅŁti":7885,"Ġeklem":7886,"viÃ§":7887,"ĠBilimleri":7888,"ĠKonu":7889,"ĠBo":7890,"Ġmevzu":7891,"ĠbaÅŁarÄ±lar":7892,"ilmesine":7893,"Ġmakinesi":7894,"Ġkalmak":7895,"Ġkaybeden":7896,"Ġevi":7897,"ĠodaklÄ±":7898,"ĠAnne":7899,"ĠimkÃ¢n":7900,"Ġaral":7901,"Ġtl":7902,"Ġmim":7903,"AYA":7904,"alel":7905,"ĠSim":7906,"ĠJohn":7907,"ste":7908,"ĠÅŁarj":7909,"Ġ00":7910,"ĠFull":7911,"Ġolurdu":7912,"itasyon":7913,"itif":7914,"ĠkaybÄ±":7915,"Ġslog":7916,"edeniyet":7917,"Ġakademik":7918,"Â±":7919,"ĠLÃ¼t":7920,"ĠDikkat":7921,"ĠeÅŁya":7922,"nÃ¼":7923,"Ġoranda":7924,"Ä°STAN":7925,"Ġihtimal":7926,"ĠSavunma":7927,"ĠhakkÄ±nÄ±":7928,"Ġsof":7929,"ĠOysa":7930,"ĠAp":7931,"ĠhariÃ§":7932,"ayolu":7933,"ĠRuh":7934,"ech":7935,"Ġseri":7936,"Ġdosya":7937,"57":7938,"ĠbaÄŁlam":7939,"ĠarasÄ±na":7940,"ĠSezon":7941,"ĠÃ§elik":7942,"Ġtopr":7943,"ĠGec":7944,"ĠÄ°spanya":7945,"ĠEfend":7946,"ĠBAK":7947,"ĠolmalarÄ±":7948,"Ġto":7949,"atlar":7950,"Ġcaz":7951,"amÄ±yorum":7952,"ĠkullanÄ±lmasÄ±":7953,"Ġuygulanan":7954,"dular":7955,"elle":7956,"ayas":7957,"ĠHac":7958,"PG":7959,"ĠAnd":7960,"EÄŁitim":7961,"ĠarkadaÅŁÄ±m":7962,"ect":7963,"ĠdÃ¶ndÃ¼":7964,"Ä±nan":7965,"ĠRehberi":7966,"Ġsanay":7967,"ĠunutmayÄ±n":7968,"memesi":7969,"ĠST":7970,"Hat":7971,"Ġbomb":7972,"Ġikili":7973,"ĠsoruÅŁturma":7974,"Ġdaire":7975,"Ġlistesi":7976,"ua":7977,"Ġsisteminin":7978,"Ab":7979,"Ġekonomi":7980,"Ġsitemiz":7981,"Ġkonse":7982,"SP":7983,"ĠHarek":7984,"Ġkarbon":7985,"ĠKontrol":7986,"ĠOrtak":7987,"ĠaÄŁÄ±z":7988,"DeÄŁ":7989,"ano":7990,"lamalar":7991,"ĠÃ¼s":7992,"ĠkÄ±rÄ±k":7993,"ĠTim":7994,"jen":7995,"Ġhangisi":7996,"ĠgeliÅŁme":7997,"Ä±sÄ±n":7998,"ĠÃ§ocuklara":7999,"Ġkilit":8000,"anbul":8001,"raz":8002,"iyeli":8003,"Ġahlak":8004,"Ġekipman":8005,"Ġemniyet":8006,"ĠDal":8007,"Ġmezar":8008,"ĠsÃ¼n":8009,"Ġmanevi":8010,"ĠDÃ¶nem":8011,"Ġkomut":8012,"Ġiklim":8013,"59":8014,"Ġyorumlar":8015,"Ġmasraf":8016,"Ġayakta":8017,"oruma":8018,"Ġkral":8019,"Ġkrem":8020,"Ġtarifi":8021,"gut":8022,"kÄ±rÄ±":8023,"Ġderg":8024,"ĠgÃ¶stermek":8025,"enize":8026,"Ġbizler":8027,"melerini":8028,"GÃ¼zel":8029,"Ġbildirdi":8030,"Ġmedyada":8031,"Ġetmeniz":8032,"ĠZeytin":8033,"itÃ¶r":8034,"ĠkullanÄ±c":8035,"IP":8036,"ĠKazan":8037,"yol":8038,"ĠMor":8039,"dÄ±lar":8040,"ĠÄ±sÄ±":8041,"kaya":8042,"ĠSAY":8043,"orld":8044,"Ġedebil":8045,"ĠCo":8046,"iner":8047,"Ġistanbul":8048,"Ġbekleyen":8049,"Ġasit":8050,"ĠulaÅŁtÄ±":8051,"ektaÅŁ":8052,"Ġhatt":8053,"ĠgÃ¶stermektedir":8054,"mes":8055,"Ġsizden":8056,"Ġenfeksiyon":8057,"ĠgÃ¼nÃ¼nde":8058,"mÄ±yorum":8059,"ĠSuudi":8060,"GerÃ§":8061,"Ġtutk":8062,"Ġdeplasman":8063,"Ġdenir":8064,"ĠIÅŀ":8065,"ÃľrÃ¼n":8066,"ĠgerÃ§ekleÅŁtirilecek":8067,"68":8068,"Ġprens":8069,"simum":8070,"ĠFilmi":8071,"Ġdevreye":8072,"Ġkemik":8073,"ĠSilah":8074,"Ġayet":8075,"ĠKÄ±ÅŁ":8076,"ĠSabah":8077,"Ġliste":8078,"SÄ°":8079,"lÄ±yoruz":8080,"osiklet":8081,"Ġizlemek":8082,"Ġ07":8083,"Net":8084,"ĠendÃ¼str":8085,"ahil":8086,"cuz":8087,"Ã¼nÃ¼r":8088,"cal":8089,"Ġhekim":8090,"ĠUlu":8091,"ike":8092,"ĠÄ°nce":8093,"ĠgeliÅŁtirme":8094,"ÅŁet":8095,"ĠBilimler":8096,"Ġvel":8097,"Ġikin":8098,"lerimi":8099,"ĠgeldiÄŁ":8100,"Ġettikleri":8101,"Ġitiraz":8102,"Ġgaranti":8103,"ĠbaÅŁladÄ±ÄŁÄ±":8104,"ĠolasÄ±":8105,"Milli":8106,"ĠÄ°STANBUL":8107,"Ġ47":8108,"ĠÃĸN":8109,"ĠUY":8110,"Ã§Ä±lÄ±k":8111,"ĠBes":8112,"YÄ°":8113,"ĠyaptÄ±ÄŁÄ±nÄ±":8114,"Ġedenler":8115,"Ġestetik":8116,"ĠArdÄ±ndan":8117,"Ġ600":8118,"Ġkarm":8119,"Ġaksine":8120,"melik":8121,"ĠKonuÅŁ":8122,"Ãĸr":8123,"Ġikisi":8124,"Ġstres":8125,"ĠRas":8126,"ĠTamam":8127,"Ġteknolojik":8128,"Ã»l":8129,"ĠSorum":8130,"ĠDiÅŁ":8131,"!\"":8132,"ĠMek":8133,"Kap":8134,"Ġolmazsa":8135,"ĠÅŁahÄ±s":8136,"Ġkafa":8137,"Ġkonulu":8138,"iliÄŁini":8139,"Ġkamyon":8140,"Ġverin":8141,"ĠkaÃ§ak":8142,"ĠvatandaÅŁlar":8143,"eyt":8144,"DV":8145,"ĠPlatform":8146,"Ġstat":8147,"isti":8148,"ruk":8149,"ĠilÃ§esi":8150,"Ġevren":8151,"ĠTic":8152,"ĠdayalÄ±":8153,"ACAK":8154,"ĠgeliÅŁen":8155,"umuza":8156,"ĠJaponya":8157,"ĠtaÅŁÄ±yor":8158,"ĠdolarlÄ±k":8159,"Ġtarihlerinde":8160,"andum":8161,"Ġlay":8162,"Ġpor":8163,"Ġrekor":8164,"mamaktadÄ±r":8165,"ĠSAT":8166,"Ġbozul":8167,"cusu":8168,"Ġaraz":8169,"Ġdizisi":8170,"ĠOldu":8171,"ĠÄ°lÃ§":8172,"Ġmektup":8173,"desi":8174,"ĠHareket":8175,"Ol":8176,"Ġoynanan":8177,"ĠalakalÄ±":8178,"Ġrom":8179,"ĠKelim":8180,"ĠYolu":8181,"ĠyaÅŁamÄ±nÄ±":8182,"ĠyakÄ±t":8183,"ĠHes":8184,"hiÅŁ":8185,"SÃ¶z":8186,"Ġkons":8187,"ĠkÄ±yas":8188,"ĠBaÅŁar":8189,"ĠMir":8190,"lanarak":8191,"ĠÃ§ekmek":8192,"ĠIÅŁÄ±k":8193,"ĠBÃ¼yÃ¼kel":8194,"2019":8195,"Ġ03":8196,"Devlet":8197,"58":8198,"Ġevine":8199,"ĠAÅŁaÄŁÄ±":8200,"ĠÃ§Ä±ktÄ±ÄŁÄ±":8201,"ĠÃ¼stlen":8202,"Ġsembol":8203,"ĠBoÄŁaz":8204,"Ġbulut":8205,"ĠkulÃ¼b":8206,"ĠyazarÄ±":8207,"ĠgeliÅŁtirmek":8208,"ĠtuÅŁ":8209,"ĠmÃ¼n":8210,"gari":8211,"ĠCevap":8212,"Ġtrend":8213,"Ä°NÄ°":8214,"Ġmikro":8215,"Ġbildirildi":8216,"Ġbunlara":8217,"BaÅŁbakan":8218,"ĠalÄ±nÄ±r":8219,"Ġdeneyimi":8220,"tÄ±ÄŁÄ±nÄ±z":8221,"has":8222,"ĠgÃ¶rÃ¼nce":8223,"ĠrahatsÄ±zlÄ±k":8224,"BA":8225,"ĠOda":8226,"ĠAÄŁÄ±r":8227,"ĠYapÄ±lÄ±r":8228,"ĠsÄ±kÄ±":8229,"Ġkov":8230,"Ġmuhalef":8231,"GÄ°":8232,"ĠtanÄ±k":8233,"emiyorum":8234,"ĠdÃ¼ÅŁÃ¼ndÃ¼ÄŁ":8235,"ĠtoplantÄ±sÄ±nda":8236,"ĠgÃ¶rdÃ¼ÄŁÃ¼":8237,"ĠHollanda":8238,"sÃ¼":8239,"erif":8240,"ĠDevleti":8241,"Ġkabil":8242,"ĠmarkasÄ±":8243,"ĠHafta":8244,"ĠPa":8245,"ĠgetirdiÄŁi":8246,"Ġbardak":8247,"emiyor":8248,"Ġzehir":8249,"ĠayrÄ±ntÄ±":8250,"Ġriv":8251,"Ġisimler":8252,"cell":8253,"ĠdÃ¶nemin":8254,"ĠkatÄ±":8255,"Ġverdik":8256,"iski":8257,"Ġvitamin":8258,"uda":8259,"Ġmutf":8260,"BeÅŁiktaÅŁ":8261,"Ġcevab":8262,"ĠToto":8263,"Ġ$":8264,"Ġtutmak":8265,"ĠSol":8266,"ĠDEÄŀ":8267,"GE":8268,"Ġturnuv":8269,"ĠgeleceÄŁi":8270,"Ġpost":8271,"oper":8272,"Ġprotokol":8273,"Ġkiralama":8274,"ĠarÄ±yor":8275,"Ġsistemini":8276,"ĠDef":8277,"memek":8278,"ĠTor":8279,"Adres":8280,"ĠkÃ¼Ã§":8281,"suzluk":8282,"ĠValisi":8283,"Okul":8284,"ĠfazlasÄ±":8285,"ĠKAD":8286,"onik":8287,"ocuÄŁ":8288,"ĠÃ§abuk":8289,"Am":8290,"ĠYavuz":8291,"Ġbizleri":8292,"lit":8293,"ĠÅŁirketin":8294,"Ġprotein":8295,"!!!":8296,"imet":8297,"azÄ±ÄŁ":8298,"iÅŁan":8299,"67":8300,"ĠGB":8301,"ĠalÄ±narak":8302,"ilerle":8303,"ĠHÄ±r":8304,"ĠSizin":8305,"ĠbÄ±":8306,"Ġtoh":8307,"ĠVen":8308,"app":8309,"Ġmit":8310,"Ġbekliyorum":8311,"ĠdÃ¶":8312,"ĠsÄ±kÄ±nt":8313,"ĠÃ¼lkelerin":8314,"Ġvitamini":8315,"Ġetken":8316,"ĠÄ°slÃ¢m":8317,"ĠoluÅŁturan":8318,"ĠÃ§Ä±kÄ±p":8319,"Ġsertifik":8320,"ĠJo":8321,"ĠkullanÄ±yor":8322,"ĠTeÅŁekkÃ¼r":8323,"ĠarkasÄ±nda":8324,"ĠÃ¶nemlisi":8325,"ekte":8326,"ĠÃ¶zgÃ¼":8327,"Kah":8328,"ĠkÃ¶p":8329,"lon":8330,"ĠakÄ±ÅŁ":8331,"atlÄ±":8332,"ĠÄ°sk":8333,"ĠMel":8334,"atlarÄ±":8335,"ĠÅŁok":8336,"lidir":8337,"ĠsanatÃ§":8338,"ĠÃĸÄŀ":8339,"linik":8340,"ĠdÄ±ÅŁÄ±na":8341,"ĠMaÄŁ":8342,"ĠgeniÅŁlet":8343,"amÄ±n":8344,"ĠTEM":8345,"Â°":8346,"bÃ¼s":8347,"larÄ±mÄ±zla":8348,"dÄ±ÅŁÄ±":8349,"tiÄŁiniz":8350,"Ali":8351,"ĠÃĸÄŁrenci":8352,"ura":8353,"ĠayrÄ±ntÄ±lÄ±":8354,"ĠÃ§aba":8355,"tihar":8356,"ĠbaÅŁlamÄ±ÅŁtÄ±r":8357,"ĠyazdÄ±ÄŁÄ±":8358,"ĠÃ§Ã¶zÃ¼mler":8359,"ĠprogramlarÄ±":8360,"Ġalanlar":8361,"ĠaykÄ±rÄ±":8362,"ĠsÃ¼rÃ¼":8363,"ĠdediÄŁi":8364,"ĠnumarasÄ±":8365,"ebelik":8366,"vin":8367,"Ġduyurdu":8368,"ĠÃ¶ldÃ¼":8369,"Ġcinayet":8370,"ĠMicrosoft":8371,"Ġkg":8372,"ĠStad":8373,"ĠÃĸztÃ¼rk":8374,"ĠdeÄŁiÅŁen":8375,"Ġmahalle":8376,"Ġimzalan":8377,"lanabilir":8378,"Ġsaatte":8379,"ĠÅŁeyden":8380,"Ġgereksin":8381,"ĠTerÃ¶r":8382,"ĠEmin":8383,"akin":8384,"ĠStar":8385,"ĠgÃ¶zden":8386,"ĠkalÄ±yor":8387,"Ġmilletvekil":8388,"ĠSaray":8389,"Ġortada":8390,"memiz":8391,"ĠTaraf":8392,"ĠGiriÅŁ":8393,"Fir":8394,"ÃĸK":8395,"ĠCom":8396,"ĠSinan":8397,"Ġhaberine":8398,"Hep":8399,"UluslararasÄ±":8400,"Ġbirinc":8401,"Ã¼yÃ¼":8402,"ĠÄ°r":8403,"INIZ":8404,"ĠahÅŁap":8405,"Ä±kÃ¶y":8406,"Ã§asÄ±":8407,"Ġkenar":8408,"ĠGÃĸR":8409,"ĠÃ¼lkemizin":8410,"opark":8411,"jinal":8412,"Ġmakine":8413,"iÃ§i":8414,"Ġboya":8415,"ĠsÄ±vÄ±":8416,"ĠRom":8417,"ĠfarkÄ±n":8418,"Ġarayan":8419,"Ġgibidir":8420,"ĠUygulam":8421,"Ġatmos":8422,"Ġka":8423,"ĠInstagram":8424,"Ġkendileri":8425,"Ä±mÄ±zdan":8426,"ETÄ°":8427,"Bizim":8428,"ĠYAR":8429,"Bar":8430,"ĠTrans":8431,"ĠOyuncu":8432,"Ġistatistik":8433,"Ä±mdan":8434,"ĠOYUN":8435,"Ġakla":8436,"ĠBeni":8437,"ever":8438,"Ġibadet":8439,"Ġbizden":8440,"imini":8441,"ĠÄ°ÅŁlem":8442,"ĠhemÅŁ":8443,"Ġoynamak":8444,"Ġbeklet":8445,"kap":8446,"ĠMis":8447,"ĠÄ°talyan":8448,"ĠhalÄ±":8449,"ĠgÃ¶sterdiÄŁi":8450,"Ġkalma":8451,"Ġplastik":8452,"ĠihtiyacÄ±nÄ±z":8453,"ĠPaylaÅŁ":8454,"Ġlit":8455,"ĠuyuÅŁturucu":8456,"Burada":8457,"Ġolmakla":8458,"rd":8459,"Ġdemokratik":8460,"ĠalanlarÄ±nda":8461,"ĠAziz":8462,"ĠyapÄ±labilir":8463,"ĠToplantÄ±sÄ±":8464,"ĠyollarÄ±":8465,"pÄ±nar":8466,"Ġprojeleri":8467,"ĠUÃ§ak":8468,"ĠhakkÄ±ndaki":8469,"DP":8470,"ĠyaÅŁama":8471,"berg":8472,"ĠbÃ¶lgeye":8473,"Ġedecektir":8474,"ĠÃ§ekir":8475,"ĠplanÄ±":8476,"Ġmateryal":8477,"ĠFinans":8478,"Ġteker":8479,"ĠmesajÄ±":8480,"mat":8481,"udu":8482,"ĠÃľs":8483,"ĠseÃ§eneÄŁi":8484,"tip":8485,"ĠSÄ±":8486,"Ġrestoran":8487,"ĠÃ¶zet":8488,"Ġmasaj":8489,"Ġkiral":8490,"ĠbaÅŁarÄ±sÄ±z":8491,"ĠdÃ¼zenleme":8492,"sis":8493,"ĠzararlÄ±":8494,"ĠyazÄ±l":8495,"Ġetkileri":8496,"Ã§u":8497,"sever":8498,"ĠoluÅŁur":8499,"Ġdekorasyon":8500,"ĠÃ¶ÄŁrenildi":8501,"ĠÃ§ikol":8502,"Ãĸzellikle":8503,"Sadece":8504,"ĠpahalÄ±":8505,"cin":8506,"ĠÄ°t":8507,"ĠKartal":8508,"Almanya":8509,"Ġpen":8510,"Ġdinamik":8511,"ĠÅŀampiyonasÄ±":8512,"Ġedilerek":8513,"Et":8514,"uper":8515,"Ġbakar":8516,"ĠFarklÄ±":8517,"unÃ§":8518,"ĠDEV":8519,"umun":8520,"ebileceÄŁiniz":8521,"ĠÃ§Ä±kmasÄ±":8522,"Ġkaybed":8523,"Ã¼ÄŁÃ¼n":8524,"iller":8525,"ĠOrtadoÄŁu":8526,"ĠsÃ¼rÃ¼c":8527,"ĠYabancÄ±":8528,"Ġelinden":8529,"ĠÄ±rk":8530,"Ġbiber":8531,"ĠhayatÄ±nda":8532,"ĠBol":8533,"ĠanlamlÄ±":8534,"fendi":8535,"ĠGÃ¶ster":8536,"Ġihal":8537,"ames":8538,"ĠsektÃ¶rÃ¼nÃ¼n":8539,"ĠDel":8540,"ĠBaÅŁka":8541,"Ġset":8542,"ĠTrabzonspor":8543,"Ġsizinle":8544,"Ġyasa":8545,"Ġpak":8546,"ĠistediÄŁini":8547,"Ġplaj":8548,"ĠbulunmasÄ±":8549,"Ġmide":8550,"56":8551,"tam":8552,"ĠÃ¼lkeye":8553,"ĠkaldÄ±ÄŁÄ±":8554,"Ġeseri":8555,"ediÄŁimiz":8556,"Ġdediler":8557,"ÅŁek":8558,"ĠKum":8559,"udak":8560,"ĠkÄ±smÄ±nÄ±":8561,"ĠÅŁair":8562,"ĠAnayasa":8563,"500":8564,"ota":8565,"cÃ¼k":8566,"leyip":8567,"mesinden":8568,"makla":8569,"ĠnoktasÄ±nda":8570,"ĠgÄ±d":8571,"Galatasaray":8572,"uyorlar":8573,"ĠGit":8574,"Ġtedarik":8575,"ĠgÃ¼ndÃ¼z":8576,"ĠPolitik":8577,"Ġgerekirse":8578,"Ġzorlu":8579,"ĠBeÅŁ":8580,"78":8581,"ĠatÄ±k":8582,"uzel":8583,"Ġkamuoy":8584,"ĠÃ§Ã¶p":8585,"ĠKayÄ±t":8586,"ĠdayanÄ±klÄ±":8587,"Ġlek":8588,"ĠBirÃ§ok":8589,"Ge":8590,"ĠolacaÄŁÄ±z":8591,"Ġhusus":8592,"Tak":8593,"Ġbudur":8594,"Ġilham":8595,"lerdeki":8596,"ĠKÃ¶pr":8597,"ĠMavi":8598,"ĠGeÃ§en":8599,"ĠSelÃ§uk":8600,"ĠBi":8601,"ĠBasÄ±n":8602,"ĠoluÅŁturul":8603,"ĠGece":8604,"Ġgetirir":8605,"gur":8606,"ĠolduÄŁunun":8607,"Ġsunuyoruz":8608,"ĠParkÄ±":8609,"ĠAcil":8610,"Ġevin":8611,"amÄ±zÄ±":8612,"ĠKurtul":8613,"ĠTÄ°CARET":8614,"ĠBasketbol":8615,"ĠdeÄŁiÅŁikliÄŁi":8616,"TIR":8617,"yurt":8618,"Ġgeriye":8619,"ĠkullanÄ±lmaktadÄ±r":8620,"ĠÃľrÃ¼nleri":8621,"Ġtoplamda":8622,"Ġvermesi":8623,"Ġmali":8624,"Ġkendime":8625,"ĠUygun":8626,"ĠaraÃ§larÄ±":8627,"Ġismini":8628,"MEK":8629,"ĠAzer":8630,"resyon":8631,"ĠkarÅŁÄ±sÄ±na":8632,"Ġsizlerin":8633,"ATO":8634,"ĠbaÅŁlÄ±ÄŁÄ±":8635,"Ġyaprak":8636,"Ã¼lecek":8637,"Ġsorunsuz":8638,"Ġtev":8639,"ersoneli":8640,"Ġzul":8641,"Ġgiyim":8642,"Ġevr":8643,"Ġkendisinin":8644,"anak":8645,"ĠHe":8646,"Ġdamar":8647,"Ġ49":8648,"Ġdoktora":8649,"indan":8650,"ĠalmayÄ±":8651,"Ġuyk":8652,"Ġzamana":8653,"ĠSize":8654,"Ġdemokrasi":8655,"ÃĩalÄ±ÅŁ":8656,"Ġederler":8657,"ĠtanÄ±y":8658,"54":8659,"Ġnefret":8660,"ĠKalkÄ±n":8661,"ĠAS":8662,"ĠaÃ§Ä±klamalarda":8663,"ĠAjansÄ±":8664,"Ġ2004":8665,"Ġirti":8666,"ĠAbdÃ¼l":8667,"ĠYoksa":8668,"ĠkarÅŁÄ±n":8669,"Ä±laÅŁ":8670,"ĠÄ°stik":8671,"Ġbunlardan":8672,"ĠNih":8673,"ĠMalzem":8674,"Ġkoordin":8675,"ĠAfrin":8676,"afe":8677,"ĠSelim":8678,"Ġdaima":8679,"ĠCanlÄ±":8680,"Ġoraya":8681,"ĠSANAY":8682,"ndaki":8683,"Ġnez":8684,"ĠiÃ§erir":8685,"Ġdert":8686,"ĠKem":8687,"Ġlise":8688,"Ã¼man":8689,"ĠFet":8690,"Ġbizzat":8691,"Ã¶nÃ¼":8692,"load":8693,"Ġseviyede":8694,"ower":8695,"ĠiÅŁletme":8696,"ĠKAL":8697,"Ġhepsini":8698,"ĠbÃ¼yÃ¼t":8699,"ydi":8700,"ĠsÄ±nÄ±rlarÄ±":8701,"ĠolanÄ±":8702,"Ġirade":8703,"Ġkullanma":8704,"ĠÃ§ekin":8705,"ĠÃ§or":8706,"maraÅŁ":8707,"ĠolmasÄ±n":8708,"ĠCol":8709,"umuzda":8710,"Ġ46":8711,"sp":8712,"ĠvasÄ±":8713,"Ġsamimi":8714,"Ġdilerim":8715,"Ġval":8716,"abildiÄŁ":8717,"Ġdondur":8718,"Ġimzal":8719,"lÄ±lÄ±ÄŁÄ±":8720,"ĠKomutan":8721,"ĠÅŁifr":8722,"ĠalÄ±cÄ±":8723,"ĠKonut":8724,"AtatÃ¼rk":8725,"ĠDost":8726,"ĠManisa":8727,"ĠiÃ§eriÄŁi":8728,"ĠkurulmuÅŁ":8729,"ĠfirmalarÄ±":8730,"birliÄŁi":8731,"ĠolasÄ±l":8732,"ĠyazdÄ±":8733,"Ġreng":8734,"Ġokula":8735,"Ġsos":8736,"AAT":8737,"Ġsad":8738,"ĠtarafÄ±nda":8739,"ĠÃ¶zellikler":8740,"ĠMuÄŁla":8741,"yaÅŁ":8742,"Ġiftar":8743,"esun":8744,"Ġteknolojisi":8745,"ĠMesela":8746,"Ġ42":8747,"eÄŁinin":8748,"MADDE":8749,"ĠdoÄŁan":8750,"ĠbaÅŁtan":8751,"ĠÃ¶v":8752,"ĠyayÄ±mlanan":8753,"YÃ¼ksek":8754,"Ġittifak":8755,"ence":8756,"antol":8757,"ĠiliÅŁkileri":8758,"usundaki":8759,"ĠkÄ±yafet":8760,"ĠÃĩiÃ§ek":8761,"ĠlayÄ±k":8762,"ĠmiktarÄ±":8763,"elerimiz":8764,"ĠEg":8765,"ĠÃ¶rneÄŁi":8766,"Ġgirer":8767,"kale":8768,"Ä±ÅŁÄ±klÄ±k":8769,"ĠÄ±sÄ±t":8770,"Ġvize":8771,"ĠÃ§Ä±karmak":8772,"azz":8773,"ĠÃ¼lkemiz":8774,"Ġyah":8775,"ĠÄ°zle":8776,"ĠCamii":8777,"ĠArslan":8778,"Ä±rsak":8779,"ĠKudÃ¼s":8780,"ĠWar":8781,"Ġec":8782,"Ġistasyon":8783,"ĠSam":8784,"Ġveriyoruz":8785,"Ġprojenin":8786,"Ġoyuncak":8787,"Yer":8788,"Ġerdi":8789,"Ġeline":8790,"ĠAÃĩ":8791,"ĠModa":8792,"ĠhazÄ±rlanmÄ±ÅŁ":8793,"Ġmotiv":8794,"Ä°MÄ°Z":8795,"Ġkombin":8796,"GeÃ§tiÄŁimiz":8797,"Ġihmal":8798,"culuk":8799,"Ġyolunu":8800,"ĠdÃ¼nyayÄ±":8801,"ĠHikay":8802,"Ġserisi":8803,"Ġbelge":8804,"ticaret":8805,"ĠAlev":8806,"KÄ±z":8807,"ĠÅŀubesi":8808,"ĠUkrayna":8809,"ĠBÃ¼lent":8810,"Ġpu":8811,"Ġyeterince":8812,"ĠmaÄŁlup":8813,"ĠÅŀarkÄ±":8814,"Ġkek":8815,"Not":8816,"Yine":8817,"ĠElektronik":8818,"ĠKa":8819,"laÅŁmasÄ±":8820,"leÅŁtirme":8821,"Ġyerlere":8822,"Ġnereye":8823,"ĠayÄ±nÄ±n":8824,"elif":8825,"Ġoyuncusu":8826,"ĠaÅŁama":8827,"Ġegemen":8828,"ĠbÃ¶lgesi":8829,"ĠEve":8830,"Haf":8831,"biz":8832,"ĠYÃĸN":8833,"Ġkonuyla":8834,"Ġsistemine":8835,"ĠyÃ¼kÃ¼m":8836,"ĠMeydanÄ±":8837,"ĠsayÄ±sÄ±nÄ±n":8838,"ĠettiÄŁiniz":8839,"iÄŁeri":8840,"ĠKoruma":8841,"ĠÃ¶rt":8842,"ĠÃ§Ä±kmak":8843,"Ä±ÅŁtÄ±":8844,"uydu":8845,"Ġgirecek":8846,"aydÄ±":8847,"ebileceÄŁi":8848,"BazÄ±":8849,"Kitap":8850,"eysel":8851,"Ġistifa":8852,"Cumhuriyet":8853,"Ġlaf":8854,"ĠGÃ¼nlÃ¼k":8855,"ĠBos":8856,"Ġkendinize":8857,"ĠÅŁartlarÄ±":8858,"ĠmÄ±dÄ±r":8859,"ĠGr":8860,"ĠAday":8861,"Der":8862,"Film":8863,"ĠKullanÄ±cÄ±":8864,"ĠsÃ¶":8865,"ĠbÃ¶lÃ¼mde":8866,"und":8867,"ĠiÅŁini":8868,"ĠOK":8869,"Ġbanyo":8870,"hisar":8871,"ĠalanÄ±na":8872,"ĠyaÅŁadÄ±k":8873,"ĠolmasÄ±nÄ±n":8874,"ĠTeb":8875,"ĠÄ°nan":8876,"Ġuygulamaya":8877,"ĠReklam":8878,"ĠGÃ¶l":8879,"Ġmesela":8880,"ĠTOP":8881,"obi":8882,"ĠOlan":8883,"Ġsaniye":8884,"uyordu":8885,"ĠdÃ¶nemlerde":8886,"ĠBelediyespor":8887,"ĠgÃ¶ze":8888,"ĠsÃ¶zleÅŁme":8889,"2010":8890,"ĠTuran":8891,")âĢĻ":8892,"ĠYalnÄ±z":8893,"Ġmemleket":8894,"metik":8895,"ĠHatay":8896,"ART":8897,"ĠBUR":8898,"ĠTip":8899,"Ġinf":8900,"Hem":8901,"ĠÃĩam":8902,"Ġdenilen":8903,"Ġsenar":8904,"ĠsorularÄ±":8905,"lemiÅŁ":8906,"Ġarzu":8907,"ure":8908,"enli":8909,"ĠyÃ¼rÃ¼tÃ¼len":8910,"ĠkalÄ±p":8911,"ĠAslan":8912,"Ġlimon":8913,"ĠÄ°Z":8914,"ĠtamamladÄ±":8915,"Ġpencer":8916,"Ġkatk":8917,"Ġmetr":8918,"anyol":8919,"ĠdÃ¼zgÃ¼n":8920,"ĠmeÅŁhur":8921,"AynÄ±":8922,"lament":8923,"Ġbenimle":8924,"uvalet":8925,"luÄŁa":8926,"amin":8927,"SaÄŁlÄ±k":8928,"ĠÃ¼rÃ¼nÃ¼n":8929,"set":8930,"ĠyapmaktadÄ±r":8931,"ĠBilgiler":8932,"ĠMÃ¼cadele":8933,"ĠrÃ¶portaj":8934,"ĠGeliÅŁ":8935,"Ġistemez":8936,"ĠDairesi":8937,"ĠKanal":8938,"ALAR":8939,"ANS":8940,"Pol":8941,"vat":8942,"Ġorijinal":8943,"ĠBulgar":8944,"Ġyazan":8945,"ĠOnu":8946,"ĠOb":8947,"ĠCin":8948,"ĠsilahlÄ±":8949,"ĠgerÃ§ekleÅŁtirdi":8950,"ÃĸY":8951,"ĠVAR":8952,"Ġfen":8953,"ĠalÄ±nacak":8954,"dunuz":8955,"Ġoradan":8956,"Ã§Ä±lar":8957,"ĠgÃ¶revini":8958,"HiÃ§":8959,"ĠEmir":8960,"Gazi":8961,"Ġmatematik":8962,"DEM":8963,"Ġrobot":8964,"Ġgirmek":8965,"rit":8966,"ĠanlaÅŁÄ±l":8967,"Ġdog":8968,"ĠanlaÅŁma":8969,"Ġtamir":8970,"ĠbakÄ±mÄ±":8971,"ĠhikÃ¢y":8972,"Ġsergilen":8973,"ĠgeÃ§mek":8974,"\".":8975,"Ã§ileri":8976,"raÃ§":8977,"Ġminik":8978,"ĠgÃ¶rÃ¼ÅŁme":8979,"ĠSAÄŀ":8980,"UÅŀ":8981,"ĠkÄ±smÄ±nda":8982,"tih":8983,"imasyon":8984,"Ġplanda":8985,"Ġkutsal":8986,"DF":8987,"ĠÃ§Ä±karak":8988,"ĠsÃ¶yler":8989,"ĠanlamÄ±nda":8990,"BÃ¼tÃ¼n":8991,"Ġbitti":8992,"dirim":8993,"ĠDok":8994,"77":8995,"ĠEV":8996,"ĠsÃ¼rÃ¼k":8997,"abilme":8998,"ĠUÃ§":8999,"ĠkullanÄ±cÄ±lar":9000,"ĠyaÅŁÄ±nday":9001,"ĠÃ§ant":9002,"ĠanlayÄ±ÅŁÄ±":9003,"ĠKÄ±rmÄ±zÄ±":9004,"Ġniye":9005,"aÄŁÄ±ndan":9006,"Ġdiplom":9007,"ĠGÃ¶rÃ¼ÅŁ":9008,"Ġprotesto":9009,"yolu":9010,"FenerbahÃ§e":9011,"iliÅŁ":9012,"Ot":9013,"ĠÃĸnemli":9014,"Ġkoz":9015,"alarÄ±yla":9016,"ĠcevabÄ±":9017,"ĠKadÄ±kÃ¶y":9018,"ĠUr":9019,"EFA":9020,"ĠyapÄ±yorum":9021,"Ġradyo":9022,"ocam":9023,"nav":9024,"ErdoÄŁan":9025,"Ġkrizi":9026,"66":9027,"Ġmuht":9028,"Ġverileri":9029,"ĠdanÄ±ÅŁman":9030,"OY":9031,"lilerin":9032,"SD":9033,"HAL":9034,"ĠOnur":9035,"ĠDÃ¶nÃ¼ÅŁ":9036,"abrika":9037,"ladÄ±ÄŁÄ±mÄ±z":9038,"ĠBaÅŁak":9039,"ĠkarÅŁÄ±lÄ±klÄ±":9040,"Ġdenize":9041,"ĠaÅŁÄ±k":9042,"lini":9043,"Ġlog":9044,"ĠoluÅŁum":9045,"ĠyerleÅŁim":9046,"vi":9047,"ĠJandarma":9048,"ĠtarafÄ±":9049,"ĠDekor":9050,"tÄ±klarÄ±nÄ±":9051,"TT":9052,"Ġsahipleri":9053,"Ġzamanla":9054,"ĠkonularÄ±":9055,"Ġsom":9056,"Ã¼lÃ¼r":9057,"ĠMeh":9058,"ĠuzaklaÅŁ":9059,"amanÄ±z":9060,"ĠyÃ¼rÃ¼rlÃ¼ÄŁe":9061,"ĠBaba":9062,"ĠNaz":9063,"Ġoynayan":9064,"ĠyapÄ±lmÄ±ÅŁtÄ±r":9065,"ĠkaynaklarÄ±":9066,"ĠsabÄ±r":9067,"ĠyaratÄ±cÄ±":9068,"losuz":9069,"ĠTÃľRKÄ°YE":9070,"ĠÃĸrgÃ¼tÃ¼":9071,"âĢº":9072,"icdan":9073,"Ġ04":9074,"Ã§Ã¼":9075,"ĠTÃľ":9076,"Ġmilyonlarca":9077,"ĠÃĩetin":9078,"Ġmacer":9079,"urdu":9080,"Ġ2002":9081,"Ġicra":9082,"ĠÃ§Ä±kardÄ±":9083,"ĠÅŁahit":9084,"ĠtadÄ±nÄ±":9085,"laÅŁtÄ±rma":9086,"ĠolmanÄ±z":9087,"Ġblok":9088,"95":9089,"ĠÃ¼lkelerde":9090,"ĠHÄ±zlÄ±":9091,"Ġbuton":9092,"ĠkontrolÃ¼":9093,"dukÃ§a":9094,"Ġoyuna":9095,"ï¸":9096,"ĠSez":9097,"Ġmontaj":9098,"inizle":9099,"Ġkritik":9100,"tÃ¼m":9101,"odu":9102,"ï¸ı":9103,"ĠrazÄ±":9104,"ĠBiraz":9105,"doÄŁu":9106,"Ġmidir":9107,"rand":9108,"Ġantik":9109,"lamalarÄ±":9110,"malarÄ±na":9111,"Ġ2003":9112,"ĠKAY":9113,"Adana":9114,"iver":9115,"ĠKalkÄ±nma":9116,"ĠsaÄŁlamaktadÄ±r":9117,"Ġgemi":9118,"ĠbaÅŁlÄ±k":9119,"mad":9120,"ilmelidir":9121,"Ġnesn":9122,"Ġhttps":9123,"ĠgÃ¶nÃ¼llÃ¼":9124,"ĠgÃ¼ler":9125,"Ġceph":9126,"ml":9127,"NE":9128,"ĠyargÄ±lan":9129,"ĠSektÃ¶r":9130,"ĠKadir":9131,"Ġraf":9132,"ĠÃ¶ÄŁrencisi":9133,"ĠSinema":9134,"âĢĿ.":9135,"ĠSeÃ§im":9136,"ĠrÃ¼zgar":9137,"Tel":9138,"gÃ¶z":9139,"ĠistediÄŁim":9140,"aport":9141,"ĠkiÅŁilere":9142,"ix":9143,"Ġhid":9144,"ula":9145,"Ä±ndÄ±k":9146,"Ġfot":9147,"ĠDan":9148,"Ġtay":9149,"Ġsevilen":9150,"tÃ¼rÃ¼":9151,"ĠbaÅŁÄ±ndan":9152,"ĠÃ¼yelik":9153,"Ã¼min":9154,"Ġtey":9155,"ĠNit":9156,"ĠyetiÅŁkin":9157,"ĠAzerbaycan":9158,"ĠtakÄ±mÄ±n":9159,"ĠÃľniversite":9160,"ĠYaklaÅŁÄ±k":9161,"Sar":9162,"urya":9163,"Ġsa":9164,"ĠBazen":9165,"Mut":9166,"ora":9167,"ĠadamÄ±n":9168,"Ã§ilik":9169,"Ġkomisyon":9170,"ralya":9171,"kÃ¼dar":9172,"ington":9173,"ĠSaf":9174,"Trabzon":9175,"Ġprofil":9176,"ĠsÄ±radan":9177,"ĠgÃ¼cÃ¼nÃ¼":9178,"ĠÄ°YÄ°":9179,"Ã¼mÃ¼ze":9180,"Ġfinansal":9181,"ĠÃľcretsiz":9182,"ĠarkadaÅŁlarÄ±":9183,"Ãĩin":9184,"Ġonlarca":9185,"RE":9186,"Ġsakat":9187,"artman":9188,"Ġvermeden":9189,"Ġmesafede":9190,"GeÃ§en":9191,"Ä°NÄ°Z":9192,"oskova":9193,"Ġilerleyen":9194,"Ġilah":9195,"ĠgÃ¶rÃ¼lÃ¼r":9196,"ĠAVM":9197,"ĠDis":9198,"ĠIÅŀÄ°D":9199,"ÅŁak":9200,"ĠÃ¶dey":9201,"Ġila":9202,"lash":9203,"Ġfaaliyetleri":9204,"BÃ¶yle":9205,"ĠsakÄ±n":9206,"Ġediyorlar":9207,"Ham":9208,"Ġpilot":9209,"malÄ±yÄ±z":9210,"ĠbaÅŁlamak":9211,"ĠÃ¶rgÃ¼tÃ¼n":9212,"ĠÅŀanlÄ±urfa":9213,"ĠHaftasÄ±":9214,"ĠHoca":9215,"Ä°F":9216,"ĠÃĸde":9217,"UP":9218,"Ġveril":9219,"âĢ¦âĢĿ":9220,"luÄŁunu":9221,"ebilmesi":9222,"ĠÄ±srar":9223,"ĠÅŁansÄ±":9224,"ĠÄ°mparator":9225,"Ġgecesi":9226,"ĠOku":9227,"ps":9228,"Ġgezeg":9229,"ita":9230,"ÃľÅŀ":9231,"ĠaracÄ±n":9232,"Ġkriter":9233,"Ġetkiler":9234,"olos":9235,"BÃ¶lÃ¼m":9236,"ĠAlÄ±ÅŁveriÅŁ":9237,"Ã¢l":9238,"Ġhayli":9239,"over":9240,"ikal":9241,"ĠdÃ¶r":9242,"Ġkullanmaya":9243,"Ġsigorta":9244,"ĠEtiket":9245,"ĠinanÄ±yorum":9246,"ayn":9247,"Ġesnek":9248,"EST":9249,"ĠKurt":9250,"Ġsinyal":9251,"salar":9252,"saÄŁ":9253,"Ġhorm":9254,"ĠortamÄ±":9255,"Ġfit":9256,"ilelik":9257,"giltere":9258,"row":9259,"Ä±lma":9260,"ĠEdirne":9261,"!)":9262,"Ch":9263,"ĠFin":9264,"ĠaltÄ±ndaki":9265,"yak":9266,"oot":9267,"Ġhip":9268,"Ġyapay":9269,"Ã¼lÃ¼yor":9270,"LEM":9271,"ĠsÃ¶ylemiÅŁ":9272,"ĠAkÄ±n":9273,"ĠyatÄ±rÄ±mcÄ±":9274,"ĠKuvvetleri":9275,"ĠyurtdÄ±ÅŁ":9276,"Ġanket":9277,"Ġyoluna":9278,"Ġ57":9279,"ĠÃ¶zgÃ¼n":9280,"ĠsatÄ±ÅŁÄ±":9281,"Ġlen":9282,"ĠHalil":9283,"ĠDiy":9284,"ubu":9285,"azin":9286,"Ä±rsÄ±nÄ±z":9287,"ĠyÃ¼zÃ¼":9288,"Ġetmem":9289,"ĠFuar":9290,"ĠtamamÄ±":9291,"Ġolabiliyor":9292,"Ġdostu":9293,"ĠaÅŁaÄŁ":9294,"ĠyazÄ±n":9295,"HayÄ±r":9296,"Ãĸncelikle":9297,"Ġtavuk":9298,"ĠâĢĶ":9299,"ĠyÄ±llarÄ±nda":9300,"Ġverebilir":9301,"sus":9302,"lÄ±ktan":9303,"acaklar":9304,"esince":9305,"ĠHolding":9306,"Ġsekiz":9307,"Ġkutu":9308,"ĠgidiÅŁ":9309,"Ġyazmak":9310,"sÃ¼n":9311,"ĠeÄŁlenc":9312,"Ġtaksit":9313,"Ġstan":9314,"Ã¼cel":9315,"omb":9316,"ĠrÃ¼y":9317,"ĠyÄ±ldan":9318,"Ġidari":9319,"Ġkatli":9320,"Ġtutun":9321,"Ġbilmek":9322,"Ġsebze":9323,"do":9324,"ĠTelekom":9325,"Ġsordu":9326,"ĠkÃ¶tÃ¼l":9327,"ĠCilt":9328,"ĠTÄ±k":9329,"ĠÄ°Ã§erik":9330,"ĠyaptÄ±ÄŁÄ±m":9331,"Ġdk":9332,"ĠDaÄŁÄ±":9333,"ĠyansÄ±":9334,"epyeni":9335,"Ġistikrar":9336,"lÃ¼ÄŁÃ¼nÃ¼":9337,"bilirsiniz":9338,"ĠÅŁekli":9339,"SS":9340,"ĠUcuz":9341,"Ġsevdik":9342,"ĠhaftalÄ±k":9343,"marÄ±m":9344,"tÃ¼k":9345,"aylÄ±":9346,"Ġsemt":9347,"LET":9348,"Ġyaratan":9349,"Ġdirekt":9350,"ĠJapon":9351,"ĠsevdiÄŁim":9352,"Ġkuy":9353,"malara":9354,"OLU":9355,"Ġnereden":9356,"cÄ±nÄ±n":9357,"mac":9358,"Ġbilinc":9359,"ĠkatÄ±lmak":9360,"ĠyargÄ±":9361,"Ã¼lmÃ¼ÅŁ":9362,"LAH":9363,"Ġgarip":9364,"ĠBon":9365,"ĠÃĩank":9366,"Fran":9367,"ĠiÅŁyer":9368,"Ġ58":9369,"ĠÃ§eÅŁ":9370,"imum":9371,"halde":9372,"lusu":9373,"Ġmuk":9374,"ARK":9375,"Ä±lmak":9376,"ILIK":9377,"Ġsag":9378,"ĠKahv":9379,"ÃľLT":9380,"Ġdinlen":9381,"Ġtatmin":9382,"zaman":9383,"ĠSANAYÄ°":9384,"DÄ°R":9385,"Ġihlal":9386,"xt":9387,"kif":9388,"ĠeÅŁyalar":9389,"Ġtutum":9390,"yn":9391,"Ġ41":9392,"Ġkoku":9393,"Ġkoruyucu":9394,"Ġforma":9395,"uluÄŁu":9396,"ĠÃĩavuÅŁ":9397,"ĠYarÄ±ÅŁmasÄ±":9398,"Ġnoktaya":9399,"denin":9400,"uki":9401,"ĠÄ°sa":9402,"ĠDam":9403,"ĠBize":9404,"ĠEmlak":9405,"ĠsektÃ¶rde":9406,"ĠyukarÄ±da":9407,"Ġhissettir":9408,"Ġikna":9409,"yumu":9410,"ORUM":9411,"lÄ±ÄŁÄ±ndan":9412,"Ġdolara":9413,"ĠÃ§alÄ±ÅŁtÄ±ÄŁÄ±":9414,"ĠyapacaÄŁÄ±z":9415,"ĠalÄ±mÄ±":9416,"Ġopsiyon":9417,"ÃĩÃ¼nkÃ¼":9418,"KÄ±s":9419,"ĠMÃ¼n":9420,"Ġtopluluk":9421,"ĠduyduÄŁu":9422,"ĠCengiz":9423,"ĠsÃ¶zler":9424,"ĠdoÄŁdu":9425,"ĠÃľnlÃ¼":9426,"ĠmÃ¼thiÅŁ":9427,"ĠettiÄŁimiz":9428,"ĠKilis":9429,"Ġmuc":9430,"ĠortasÄ±nda":9431,"ko":9432,"ĠaraÃ§lar":9433,"medim":9434,"ĠyardÄ±mÄ±":9435,"Ġvol":9436,"luyor":9437,"iteli":9438,"Ġsandal":9439,"Ġdeneyimli":9440,"Ġ64":9441,"ĠNum":9442,"ĠbÄ±rakÄ±n":9443,"Ġvurgulayan":9444,"outube":9445,"ĠÃ¶f":9446,"Ġhocam":9447,"Ä±lgÄ±n":9448,"ĠneÅŁ":9449,"Kam":9450,"ĠÅŁehirde":9451,"ĠbardaÄŁÄ±":9452,"Ġvadeli":9453,"Ġsistemin":9454,"Ġdevir":9455,"ĠkÃ¶ken":9456,"52":9457,"Ġfav":9458,"ÌĨ":9459,"Ġgiderken":9460,"dÄ±klarÄ±nÄ±":9461,"ĠÄ°lÃ§esi":9462,"ongul":9463,"Ġdilim":9464,"ĠÄ°ncel":9465,"Ġberaberinde":9466,"ĠPal":9467,"Ġ44":9468,"Anadolu":9469,"AslÄ±nda":9470,"Ġisimleri":9471,"ĠdÃ¶viz":9472,"ĠdevamÄ±":9473,"SUN":9474,"Ġherkesi":9475,"Ġuydur":9476,"ĠAteÅŁ":9477,"ĠgenÃ§ler":9478,"onguldak":9479,"arrem":9480,"ĠnÃ¶":9481,"ĠAda":9482,"Ya":9483,"ĠoynadÄ±ÄŁÄ±":9484,"Ġolurken":9485,"ebir":9486,"ĠÅŀti":9487,"ĠKuran":9488,"ĠyazmÄ±ÅŁ":9489,"evler":9490,"69":9491,"isin":9492,"ĠvazgeÃ§ilmez":9493,"Elekt":9494,"Â·":9495,"Tam":9496,"Ä°STANBUL":9497,"Ġgelmez":9498,"ĠyararlÄ±":9499,"Ġmekaniz":9500,"ĠmÃ¼j":9501,"ĠDa":9502,"Yazar":9503,"ĠBalkan":9504,"Ġmaksimum":9505,"SY":9506,"koz":9507,"ĠuyandÄ±r":9508,"anÄ±p":9509,"ĠPet":9510,"Ġfiyatlar":9511,"HAN":9512,"ĠFi":9513,"ĠÃĤ":9514,"Ġsend":9515,"ĠÄ°liÅŁkiler":9516,"ĠResim":9517,"ĠbulunduÄŁunu":9518,"dÄ±nÄ±z":9519,"ĠKoordin":9520,"ĠkampanyasÄ±":9521,"Ġstil":9522,"ĠHa":9523,"ĠkarÅŁÄ±lÄ±ÄŁÄ±nda":9524,"eceÄŁine":9525,"mÃ¼yor":9526,"LAY":9527,"ĠÃľret":9528,"ĠBiy":9529,"ĠgÃ¶rme":9530,"ĠyaÄŁÄ±ÅŁ":9531,"ĠMilyon":9532,"Ġriski":9533,"io":9534,"alÄ±lar":9535,"eÅŁim":9536,"ĠSalih":9537,"hid":9538,"ĠolaylarÄ±":9539,"ĠToplam":9540,"...]":9541,"Ġfant":9542,"Ġseksi":9543,"ĠMahmut":9544,"Ġetsin":9545,"ĠbÃ¶lgenin":9546,"rah":9547,"ĠYaÅŁar":9548,"ĠetrafÄ±nda":9549,"Ġmerkezli":9550,"Ġikamet":9551,"ĠPC":9552,"ersek":9553,"ĠKAP":9554,"ĠSorun":9555,"Ġolursunuz":9556,"yat":9557,"Ġemir":9558,"ĠolaÄŁanÃ¼stÃ¼":9559,"ĠMe":9560,"ĠÄ°ht":9561,"Ãĩev":9562,"ĠTEKN":9563,"ĠCey":9564,"ĠgÃ¶ÄŁÃ¼s":9565,"ĠGÃľ":9566,"Ġokuyan":9567,"ouse":9568,"ĠHacÄ±":9569,"RA":9570,"Oyun":9571,"dy":9572,"Ġith":9573,"ĠiÅŁlemler":9574,"BB":9575,"Ġkimseye":9576,"Ġgelebilir":9577,"habalar":9578,"ĠdoÄŁrusu":9579,"ĠKadar":9580,"ĠyÃ¶ntemleri":9581,"irdaÄŁ":9582,"ĠgÃ¶zler":9583,"Ġutan":9584,"Ġbirinde":9585,"ĠYerel":9586,"ĠDig":9587,"ĠMilletler":9588,"ĠUnut":9589,"ĠKoz":9590,"âĢ¦âĢ¦âĢ¦âĢ¦":9591,"ĠkolaylÄ±kla":9592,"ĠCity":9593,"Ġkoyun":9594,"Ġgetirildi":9595,"Ġonlardan":9596,"Ġistenen":9597,"Ġpozitif":9598,"Ġdepolama":9599,"âĸ":9600,"ĠYÃ¼ksel":9601,"beyaz":9602,"ArtÄ±k":9603,"Ġhedefi":9604,"ĠDayan":9605,"onsor":9606,"akende":9607,"ĠgÃ¶reve":9608,"ĠSER":9609,"Ġgazeteci":9610,"ĠgÃ¶rebilirsiniz":9611,"tah":9612,"ĠhesabÄ±":9613,"ĠdÃ¼nyasÄ±nda":9614,"leÅŁmesi":9615,"Ġfikr":9616,"ekili":9617,"ĠGerÃ§ekten":9618,"mediÄŁini":9619,"Ġdisiplin":9620,"ĠbÃ¶lÃ¼n":9621,"ĠiOS":9622,"ĠdÃ¶nÃ¼m":9623,"ĠGER":9624,"Ġ053":9625,"ĠDavut":9626,"Ġfilmleri":9627,"ĠPiyas":9628,"Ġkapak":9629,"Samsung":9630,"feri":9631,"Ġgelsin":9632,"Ġresmen":9633,"ĠDes":9634,"ebilmektedir":9635,"ĠkullanÄ±cÄ±larÄ±n":9636,"ĠMU":9637,"ĠverilmiÅŁ":9638,"ĠdetaylarÄ±":9639,"Ġredde":9640,"ĠAlbay":9641,"ĠKel":9642,"eyince":9643,"Ä°nternet":9644,"Ġmiyim":9645,"51":9646,"ĠHil":9647,"Ġizni":9648,"ĠKAT":9649,"Ġmisin":9650,"Ä°kinci":9651,"ĠaldÄ±ÄŁÄ±nÄ±":9652,"ĠSefer":9653,"âĢĭ":9654,"press":9655,"Ġteklifi":9656,"ĠaÃ§Ä±kÃ§a":9657,"Ġkendimizi":9658,"Ġoyunda":9659,"Ġrandevu":9660,"ĠÃ§Ã¶zÃ¼mÃ¼":9661,"Ġfikri":9662,"ĠÃ§izg":9663,"ĠTeÅŁkil":9664,"ĠgeÃ§tik":9665,"Ġkasab":9666,"ĠdanÄ±ÅŁmanlÄ±k":9667,"ĠaldÄ±ÄŁÄ±m":9668,"ĠDevamÄ±":9669,"Ġetkinlikleri":9670,"Ä°slam":9671,"piyat":9672,"ĠÃ¶tÃ¼rÃ¼":9673,"TÄ°R":9674,"duÄŁunda":9675,"eveyn":9676,"ĠkÃ¶r":9677,"ĠOs":9678,"Ġibaret":9679,"OJ":9680,"Ã¼stri":9681,"ĠMotor":9682,"dÃ¼ncÃ¼":9683,"peryal":9684,"kÄ±ÅŁ":9685,"Ġtef":9686,"dere":9687,"ĠKardeÅŁ":9688,"edikleri":9689,"Ġharcam":9690,"CÄ°":9691,"ĠÃ§el":9692,"maktÄ±r":9693,"bakanÄ±":9694,"ĠuÄŁur":9695,"ojistik":9696,"Ġdegil":9697,"KÃ¼Ã§Ã¼k":9698,"Ġdileriz":9699,"ĠBalÄ±kesir":9700,"Ġterc":9701,"osunu":9702,"Ġheyet":9703,"Ġbirlikt":9704,"ĠkÃ¼f":9705,"ĠAnal":9706,"ĠMay":9707,"Ġboyun":9708,"ĠKÄ±y":9709,"ĠsaÄŁlanmasÄ±":9710,"Ġzincir":9711,"ĠattÄ±ÄŁÄ±":9712,"Ġhakaret":9713,"Hak":9714,"ason":9715,"ĠkullanÄ±n":9716,"Ġpir":9717,"ĠYÃ¶netmeli":9718,"Ġtescil":9719,"ĠHAK":9720,"ĠsÄ±ÄŁ":9721,"ĠMES":9722,"ĠAM":9723,"ĠSayf":9724,"Ġbilmiyor":9725,"ArkadaÅŁ":9726,"Erkek":9727,"Ġorganik":9728,"ĠkatÄ±lÄ±mÄ±yla":9729,"ĠbaÅŁrol":9730,"ĠhaftasÄ±nda":9731,"ĠÃ¶zÃ¼r":9732,"ISI":9733,"Ġheykel":9734,"ĠyapacaÄŁÄ±":9735,"ĠSayÄ±":9736,"Ã¢lÃ¢":9737,"ĠniteliÄŁ":9738,"oid":9739,"ĠemeÄŁi":9740,"Ġelbise":9741,"Ġsus":9742,"cuk":9743,"Ġbilgilerini":9744,"GÃ¶z":9745,"ĠinsanlÄ±k":9746,"Ġziyade":9747,"Ä±yaman":9748,"ĠbaÅŁa":9749,"ĠkadÄ±nÄ±":9750,"ĠyaÅŁandÄ±":9751,"ĠOT":9752,"miyorum":9753,"Ġmedeniyet":9754,"Ġkanseri":9755,"Ġoyuncular":9756,"ĠYakÄ±n":9757,"eten":9758,"ĠihtiyaÃ§larÄ±nÄ±":9759,"ĠetkinliÄŁi":9760,"Ġdersi":9761,"ĠTanÄ±":9762,"icisi":9763,"2009":9764,"Ġtazmin":9765,"Ġverip":9766,"mamÄ±ÅŁtÄ±r":9767,"ĠOlarak":9768,"esidir":9769,"ĠÃ¶ÄŁrenme":9770,"ecilik":9771,"menize":9772,"Ġgereklidir":9773,"ĠAyr":9774,"Ġparalel":9775,"Herkes":9776,"ĠAdnan":9777,"ĠCas":9778,"64":9779,"ĠOÄŁuz":9780,"DER":9781,"kÃ¢r":9782,"ĠÃ¶p":9783,"ĠPersonel":9784,"Ġtitiz":9785,"Ġkapsamda":9786,"ĠgerÃ§ekleÅŁecek":9787,"ĠKeÅŁ":9788,"Ġhepimiz":9789,"Ġsayfada":9790,"Ġmalzemeler":9791,"Ġhareketi":9792,"Ġstratejik":9793,"Ġtarihinin":9794,"Ġdevleti":9795,"Ġdomates":9796,"Ġperde":9797,"Ä°YAT":9798,"ĠperformansÄ±":9799,"ĠPlus":9800,"tÄ±ÄŁÄ±nda":9801,"ĠKaraman":9802,"Ġvesile":9803,"Ġkedi":9804,"ĠdÄ±ÅŁÄ±ndaki":9805,"kir":9806,"ĠTuz":9807,"ĠÃľl":9808,"ownload":9809,"Ġhaberdar":9810,"ĠgÃ¼nÃ¼mÃ¼ze":9811,"Ġgittim":9812,"Ġsade":9813,"Ġailenin":9814,"ĠÄ°nsanlar":9815,"Ġprim":9816,"ĠÃ¼reten":9817,"ĠdoÄŁur":9818,"Ġverilmektedir":9819,"Ġhikaye":9820,"ĠSeb":9821,"ĠÃ§evresinde":9822,"ĠHiÃ§bir":9823,"bit":9824,"ragmanÄ±":9825,"ĠyÄ±llarÄ±n":9826,"Ġocak":9827,"ĠgÃ¶rÃ¼lÃ¼yor":9828,"ĠÄ±":9829,"siye":9830,"Ġgergin":9831,"ĠGelin":9832,"Ä±sal":9833,"ĠmÃ¼h":9834,"ĠBunlardan":9835,"dalÄ±k":9836,"luÄŁunda":9837,"arka":9838,"abilirim":9839,"icileri":9840,"Ġgetirerek":9841,"Ġatmosfer":9842,"ĠkardeÅŁim":9843,"Ġbuldum":9844,"Ġizleyen":9845,"ĠZiraat":9846,"ĠalgÄ±l":9847,"Ġolgun":9848,"IMIZ":9849,"ĠTarifi":9850,"Ġyuv":9851,"Ġnakliye":9852,"lanmaktadÄ±r":9853,"ff":9854,"ĠhÄ±r":9855,"emedim":9856,"Ġmarket":9857,"Ġenflasyon":9858,"Ġkimin":9859,"Ġsuretiyle":9860,"Ġtemsilcisi":9861,"ĠarayÄ±ÅŁ":9862,"ĠNerede":9863,"Ġmahkeme":9864,"ĠgÃ¶rÃ¼nen":9865,"Ġolmal":9866,"ĠUlaÅŁ":9867,"Ġusta":9868,"ney":9869,"ĠkayÄ±tlÄ±":9870,"Ġadresine":9871,"ĠkardeÅŁi":9872,"amadÄ±ÄŁÄ±":9873,"ĠyaptÄ±ÄŁÄ±nÄ±z":9874,"Ġmecbur":9875,"Konya":9876,"ĠgÃ¶revlendir":9877,"Ġekstra":9878,"ĠkarmaÅŁÄ±k":9879,"ĠIstanbul":9880,"ezilya":9881,"ubay":9882,"ĠKolay":9883,"ĠKiÅŁisel":9884,"ĠkÄ±saca":9885,"ĠMesleki":9886,"Han":9887,"Ġraporu":9888,"ĠÃĸncelikle":9889,"ĠVad":9890,"Ġboyutu":9891,"ĠdÃ¼nyasÄ±nÄ±n":9892,"dÄ±ÄŁÄ±na":9893,"ĠdÃ¼nyadaki":9894,"ĠkomÅŁu":9895,"eynep":9896,"ĠyazÄ±sÄ±":9897,"Ġantrenman":9898,"ĠkeÅŁfed":9899,"Ġbizde":9900,"ĠBirinci":9901,"Ġbununla":9902,"ĠhalkÄ±nÄ±n":9903,"Ġoturum":9904,"ĠDizi":9905,"Ġhastaneye":9906,"SÃ¼r":9907,"Ġcemaat":9908,"LIÄŀI":9909,"ĠDirektÃ¶rÃ¼":9910,"ĠHedef":9911,"ĠaÅŁamasÄ±nda":9912,"ĠgerÃ§eÄŁi":9913,"grama":9914,"SM":9915,"Ġkurucusu":9916,"ĠModern":9917,"ĠYAZ":9918,"ĠGay":9919,"Ġgun":9920,"ĠprogramÄ±na":9921,"ÄŁrul":9922,"ĠseÃ§ilen":9923,"ĠsavaÅŁÄ±":9924,"ational":9925,"ĠoÄŁl":9926,"lÄ±ÄŁÄ±yla":9927,"ĠkatlÄ±":9928,"Ġfilmde":9929,"Ä°YET":9930,"Web":9931,"ĠAnlat":9932,"Ġsonradan":9933,"Ġsuyun":9934,"Gir":9935,"ĠyÃ¼rÃ¼m":9936,"ĠTÃ¼rkmen":9937,"Ġambalaj":9938,"ehr":9939,"Ġdirek":9940,"Ġsaatlik":9941,"ĠkoÅŁullarÄ±":9942,"ĠkullanÄ±larak":9943,"ĠEvden":9944,"GK":9945,"Ġkoyu":9946,"ĠAfyon":9947,"ĠBahar":9948,"Ġdelik":9949,"ĠÅŀim":9950,"ĠgÃ¶revl":9951,"Ġbonus":9952,"Ġomuz":9953,"ĠOne":9954,"saspor":9955,"ĠgÃ¼ncellem":9956,"oÄŁuk":9957,"Ġrivayet":9958,"ĠÃ¼lkeleri":9959,"Ġonlarla":9960,"lÃ¼ÄŁÃ¼nde":9961,"Ġseminer":9962,"ĠkÃ¶prÃ¼":9963,"ijyen":9964,"Ġlaborat":9965,"ĠdeÄŁerleri":9966,"Ġmilletin":9967,"Beyaz":9968,"alarca":9969,"ĠdÃ¼rÃ¼st":9970,"ĠdeÄŁiÅŁiklikler":9971,"Ġsalonu":9972,"Ã¼rt":9973,"ĠbugÃ¼nkÃ¼":9974,"ĠNef":9975,"Madde":9976,"ĠDEN":9977,"Ġsunucu":9978,"ĠolsaydÄ±":9979,"ĠaÄŁÄ±rlÄ±k":9980,"Ġolursak":9981,"viÃ§re":9982,"ĠyakÄ±nda":9983,"Ġkavg":9984,"Ġduran":9985,"Suriye":9986,"ĠgeÃ§erek":9987,"ĠEM":9988,"Ġmuhtemelen":9989,"ASYON":9990,"amÄ±zÄ±n":9991,"YÃ¶n":9992,"sÃ¶r":9993,"Ġilgilendir":9994,"ĠyapÄ±lacaktÄ±r":9995,"ĠÃ§aÄŁdaÅŁ":9996,"ĠHastalÄ±klarÄ±":9997,"ĠkarÄ±ÅŁÄ±k":9998,"Ġtemsilcileri":9999,"izmin":10000,"faiye":10001,"del":10002,"ĠUN":10003,"Ġhastane":10004,"ĠArda":10005,"Fi":10006,"Neden":10007,"ĠvarmÄ±ÅŁ":10008,"ĠgirmiÅŁ":10009,"ĠkarÅŁÄ±lÄ±ÄŁÄ±":10010,"Mehmet":10011,"ĠrÄ±z":10012,"ĠihraÃ§":10013,"ĠdÃ¼ÅŁÃ¼nen":10014,"ras":10015,"ĠoluÅŁuyor":10016,"Ġeuro":10017,"ĠartÄ±yor":10018,"Ġyerinden":10019,"ĠÅŁirketleri":10020,"ĠÃ§alÄ±ÅŁtÄ±":10021,"ĠhÄ±zlandÄ±r":10022,"Ġreferandum":10023,"Ã¢hil":10024,"Ġobj":10025,"2008":10026,"Ġhuzurlu":10027,"Ġkeyfini":10028,"ragman":10029,"ĠtavÄ±r":10030,"Ã½n":10031,"Tab":10032,"ĠYou":10033,"ĠEfendi":10034,"ildiÄŁinde":10035,"oni":10036,"Ġkaydeden":10037,"Ġetmekte":10038,"Ġeleman":10039,"KÄ°":10040,"ahya":10041,"Ġsermaye":10042,"Ġzafer":10043,"ĠfÄ±kr":10044,"ĠBÃĸL":10045,"Ä±nÄ±zdan":10046,"ĠfÄ±":10047,"ĠalÄ±nmÄ±ÅŁ":10048,"ĠbaÅŁarÄ±yla":10049,"ĠsÃ¼rdÃ¼rÃ¼lebilir":10050,"Ġgiriyor":10051,"ekiz":10052,"ĠMc":10053,"OZ":10054,"ĠvatandaÅŁlarÄ±n":10055,"Ġbedeli":10056,"Ã¼sÃ¼nÃ¼":10057,"Ġdurumlar":10058,"ĠÃĩAL":10059,"Ġyoksul":10060,"aÅŁkÄ±n":10061,"ĠuzmanÄ±":10062,"mÄ±z":10063,"atÃ¶rÃ¼":10064,"ĠGu":10065,"Ġkurulum":10066,"Ġhakem":10067,"mesin":10068,"ĠtasarlanmÄ±ÅŁ":10069,"amamÄ±ÅŁ":10070,"ĠtoplantÄ±da":10071,"ĠbileÅŁ":10072,"Ġbelirgin":10073,"ĠHÄ°Z":10074,"ĠolmasÄ±dÄ±r":10075,"hak":10076,"Ġceh":10077,"ĠHAY":10078,"ft":10079,"Sit":10080,"ĠBerlin":10081,"Ġtac":10082,"ĠCumhurbaÅŁkanlÄ±ÄŁÄ±":10083,"ĠNes":10084,"adasÄ±nÄ±z":10085,"Ġithal":10086,"ĠDAÄ°R":10087,"ĠÃľretim":10088,"ĠEkran":10089,"Ġmaddeler":10090,"luÄŁun":10091,"Ã¼el":10092,"ĠBaÅŁkanÄ±mÄ±z":10093,"ĠSalon":10094,"Ġgazete":10095,"urun":10096,"Ġnik":10097,"Ġsiyasal":10098,"Ġmesleki":10099,"asÄ±dÄ±r":10100,"Yani":10101,"Ġsuya":10102,"ĠfotoÄŁraflarÄ±":10103,"Ġalet":10104,"ĠBurs":10105,"ĠaltyapÄ±":10106,"ĠyarÄ±sÄ±":10107,"Ġolmas":10108,"olik":10109,"larÄ±mÄ±zda":10110,"ĠTÃ¼k":10111,"ĠPlatformu":10112,"Ġrica":10113,"ĠAntik":10114,"ĠnÃ¼kleer":10115,"lamada":10116,"alarÄ±mÄ±z":10117,"YD":10118,"ĠBAÅŀKAN":10119,"ĠMutlu":10120,"ĠverilmiÅŁtir":10121,"ĠTC":10122,"ĠaÄŁrÄ±sÄ±":10123,"ĠBayrak":10124,"ĠMo":10125,"ĠYER":10126,"ens":10127,"work":10128,"ĠListesi":10129,"Bul":10130,"Ġdoz":10131,"Ġ43":10132,"ĠGÃ¼venliÄŁi":10133,"ĠTep":10134,"Ġbayr":10135,"ĠbaÄŁÄ±r":10136,"Ġzeytiny":10137,"ĠÃĸÄŁren":10138,"ĠgÃ¼lÃ¼m":10139,"Ġemr":10140,"Ġeyalet":10141,"Ġimalat":10142,"Ġuydu":10143,"Ġkonsept":10144,"Ġmemnuniyeti":10145,"Ġsezonu":10146,"ĠhattÄ±":10147,"Ġtalebi":10148,"ĠÃ¶ÄŁle":10149,"ĠhayatÄ±nÄ±n":10150,"Mah":10151,"ĠÃĩocuklar":10152,"ĠgeliÅŁtirilen":10153,"ĠarttÄ±":10154,"Ġabon":10155,"Ġsisteme":10156,"ÃľÃ§":10157,"ho":10158,"brek":10159,"ĠKodu":10160,"Ġgeldim":10161,"das":10162,"Ġsizde":10163,"ĠKonak":10164,"ĠDijital":10165,"Ġreferans":10166,"FF":10167,"ĠErdem":10168,"ĠQu":10169,"Ã§ilerin":10170,"Ġorganiz":10171,"ĠKole":10172,"Ġdenen":10173,"Ġsitede":10174,"Ä°ZM":10175,"ALIK":10176,"ĠAmaÃ§":10177,"ĠaÃ§mak":10178,"ĠKanada":10179,"Ġgereksiz":10180,"ĠkiÅŁiden":10181,"Ġseviyor":10182,"Ġbelirlendi":10183,"Ġhic":10184,"Ġyapmam":10185,"-)":10186,"REN":10187,"ĠBilet":10188,"mik":10189,"ĠmÃ¼lt":10190,"ĠsÃ¶zlerine":10191,"ĠsÃ¶n":10192,"76":10193,"ness":10194,"ĠErmen":10195,"ĠhazÄ±rlanÄ±yor":10196,"Ġard":10197,"Ġevvel":10198,"itab":10199,"ier":10200,"ĠherÅŁey":10201,"ahattin":10202,"ĠÅŀTÄ°":10203,"Ġburun":10204,"ĠRoman":10205,"ĠÅŁehrinde":10206,"AÄŁ":10207,"ĠSc":10208,"ĠMÃ¼ÅŁteri":10209,"tas":10210,"adam":10211,"ĠfazlasÄ±yla":10212,"ĠprogramÄ±nda":10213,"Ġvakti":10214,"ĠVÃ¼c":10215,"ĠdaÄŁÄ±tÄ±m":10216,"Ġbacak":10217,"istanbul":10218,"ĠsÄ±klÄ±kla":10219,"ĠNil":10220,"ĠHik":10221,"Ġbayrak":10222,"Ġevrak":10223,"ĠakÅŁamÄ±":10224,"Un":10225,"ĠYENÄ°":10226,"ĠmÃ¼ziÄŁ":10227,"ĠKiÅŁi":10228,"ĠMutfak":10229,"ĠKesin":10230,"ĠKategori":10231,"etli":10232,"Ġdiyebiliriz":10233,"Ġviz":10234,"aseb":10235,"Ġlastik":10236,"Ġguzel":10237,"ĠgeÃ§iren":10238,"ĠdiÄŁeri":10239,"LÄ°ÄŀÄ°":10240,"ĠMadde":10241,"Ġkaleme":10242,"ĠJe":10243,"ĠgerÃ§ekleÅŁtirdiÄŁi":10244,"ĠÃĸZEL":10245,"ĠtÃ¼ketimi":10246,"ĠÃĩÃ¶zÃ¼m":10247,"ĠiÅŁit":10248,"ĠDOÄŀ":10249,"ĠÃĸzdemir":10250,"ĠsÃ¼rdÃ¼":10251,"Ġtor":10252,"Ġformu":10253,"ĠDurum":10254,"ĠSak":10255,"Ġgirip":10256,"ĠFel":10257,"ĠÃ§Ã¶zÃ¼nÃ¼r":10258,"Ġmakale":10259,"Merkez":10260,"Ġmotoru":10261,"ĠpayÄ±":10262,"Ġsatan":10263,"Ġmaz":10264,"ĠTeknolojileri":10265,"ilirken":10266,"Ġaittir":10267,"ĠdirektÃ¶r":10268,"Ġyuvar":10269,"âĢ²":10270,"ĠÃ¶ncÃ¼l":10271,"Ġmask":10272,"ĠElbette":10273,"Ġcasino":10274,"likten":10275,"Kullan":10276,"ild":10277,"ĠhazÄ±rladÄ±ÄŁÄ±":10278,"Ãľnivers":10279,"ĠBiliÅŁim":10280,"Ġsergi":10281,"ĠsektÃ¶rÃ¼n":10282,"izmi":10283,"Ġetmeyin":10284,"Ġimam":10285,"ĠyÃ¼kseldi":10286,"aci":10287,"ĠdÃ¶ner":10288,"ĠÄ°nÅŁallah":10289,"Ġintihar":10290,"ĠÃ¼rÃ¼nlerini":10291,"tiÄŁine":10292,"ĠBuluÅŁ":10293,"Ä±mlar":10294,"ĠhÃ¼km":10295,"HY":10296,"ĠaklÄ±ma":10297,"Turk":10298,"ÄŁrÄ±":10299,"Ġentegre":10300,"ĠÃĩOK":10301,"ĠkonularÄ±nda":10302,"ĠbÄ±Ã§ak":10303,"Ġmezunu":10304,"Ġgetirilen":10305,"Ġproblemi":10306,"liÄŁinden":10307,"larÄ±mÄ±zdan":10308,"Apple":10309,"ĠYunus":10310,"Ġiyisi":10311,"Ġokudum":10312,"ĠFeth":10313,"ĠKongre":10314,"edia":10315,"hem":10316,"atih":10317,"Ġkel":10318,"Ġmetrekare":10319,"istler":10320,"ĠdÃ¼kkan":10321,"ĠgeÃ§ecek":10322,"Ġuzaktan":10323,"ĠDolar":10324,"GÃ¶n":10325,"Ġhang":10326,"Ġgelecekte":10327,"Ġyoldan":10328,"Ġpeynir":10329,"ĠYAÅŀ":10330,"ĠolmasÄ±ndan":10331,"Ġskor":10332,"ĠAlp":10333,"Ġpiyasa":10334,"ĠbaÅŁladÄ±ÄŁ":10335,"mec":10336,"ðŁĺ":10337,"fone":10338,"sk":10339,"incan":10340,"emeyecek":10341,"Ġelektrikli":10342,"ĠDÃ¼nyasÄ±":10343,"ĠmÃ¼lk":10344,"Ġidare":10345,"isim":10346,"ĠDevletleri":10347,"SEL":10348,"Ġatmak":10349,"ĠBurak":10350,"saray":10351,"Ġdisk":10352,"lediÄŁimiz":10353,"Ġisyan":10354,"Ġihtimali":10355,"ĠyenilikÃ§i":10356,"ĠinÃ§":10357,"Ġemanet":10358,"Ġbr":10359,"Ġkelimeler":10360,"Ġhikayesi":10361,"osh":10362,"ĠÄ±n":10363,"ĠBAY":10364,"ĠmÄ±sÄ±nÄ±z":10365,"Ġekleyin":10366,"Ġsahte":10367,"ĠÃľrÃ¼nler":10368,"Ã¼mde":10369,"Ġ800":10370,"Ġtarafta":10371,"LEN":10372,"ĠgÃ¶sterilen":10373,"onomik":10374,"ĠNE":10375,"Ġlik":10376,"ĠgÃ¶revli":10377,"off":10378,"hine":10379,"antolon":10380,"ĠsÄ±caklÄ±k":10381,"ĠbatÄ±":10382,"Ġizleme":10383,"ĠÃĸrnek":10384,"Ġkuvvetli":10385,"orit":10386,"yeri":10387,"uluyor":10388,"Ġ52":10389,"Ġhareketli":10390,"Az":10391,"Ġmol":10392,"Ġby":10393,"ĠMoskova":10394,"lanmaz":10395,"ĠKDV":10396,"igÃ¼r":10397,"Ġbakmak":10398,"Ġsiteniz":10399,"eliyiz":10400,"eybol":10401,"Ġizlenme":10402,"Ã¼nÃ¼zÃ¼":10403,"ĠFirma":10404,"ĠortamÄ±nda":10405,"Ġbilgilerin":10406,"Ġuzanan":10407,"Ġseyret":10408,"ĠElazÄ±ÄŁ":10409,"ĠdÃ¼nyasÄ±":10410,"ÃĤ":10411,"Ġoperasyonu":10412,"ĠbulaÅŁ":10413,"Ġmelek":10414,"Ġmetro":10415,"ĠverdiÄŁimiz":10416,"ĠgÃ¶Ã§men":10417,"Ġvicdan":10418,"Ä±rt":10419,"ĠBirlik":10420,"Ġkomik":10421,"Mustafa":10422,"bkz":10423,"Ġmadal":10424,"ĠTatlÄ±":10425,"ĠÅŁiddetli":10426,"ĠZirv":10427,"enleri":10428,"iriz":10429,"Ġ**":10430,"ĠayrÄ±m":10431,"ĠmÃ¼sabak":10432,"Ã§ika":10433,"ĠAngel":10434,"Facebook":10435,"ĠkÃ¼ltÃ¼rÃ¼":10436,"ĠHÄ°ZMET":10437,"Ġmotosiklet":10438,"Ġitiraf":10439,"ĠhastalÄ±klarÄ±":10440,"ĠKey":10441,"zir":10442,"ĠMÃ¼slÃ¼m":10443,"ĠkitaplarÄ±":10444,"ĠNelerdir":10445,"ĠEkonomik":10446,"ĠMik":10447,"Ġbozukluk":10448,"Mak":10449,"Ġneticesinde":10450,"raj":10451,"ĠAkÅŁam":10452,"lasÄ±":10453,"Ġhukuki":10454,"ĠkadÄ±na":10455,"Ġgezi":10456,"ĠpaylaÅŁtÄ±":10457,"ĠÃ§ak":10458,"ĠyazÄ±lar":10459,"Ġhemde":10460,"ĠkullanÄ±ma":10461,"elikop":10462,"Ġtutuklu":10463,"Ġuzan":10464,"ĠÄ°stiklal":10465,"ĠÃ¶dÃ¼lÃ¼":10466,"ĠLÃ¼tfen":10467,"Ġistemiyorum":10468,"TM":10469,"ĠEur":10470,"Ġadresinden":10471,"ĠgeliÅŁimi":10472,"suna":10473,"ĠGÃ¶nÃ¼l":10474,"MHP":10475,"ĠhÃ¢lÃ¢":10476,"uhaf":10477,"ĠkarÅŁÄ±lamak":10478,"HK":10479,"ĠRektÃ¶r":10480,"Ġtarihe":10481,"ĠKUL":10482,"ĠÃ§alÄ±ÅŁÄ±rken":10483,"NET":10484,"cim":10485,"YÃ¼z":10486,"ÄŁin":10487,"Ã§in":10488,"ĠgeÃ§irdi":10489,"ĠĠĠĠĠĠĠĠ":10490,"Ġ2001":10491,"ĠKonser":10492,"Ġpersoneli":10493,"ĠÃ¶nemini":10494,"ĠanlamÄ±yla":10495,"ĠÃĩeÅŁit":10496,"ĠTest":10497,"Ġfiyata":10498,"Ġporno":10499,"ĠatÃ¶ly":10500,"ĠsÃ¼rdÃ¼ren":10501,"ĠtartÄ±ÅŁma":10502,"Ġ54":10503,"ĠKoÅŁ":10504,"ĠkonuÅŁmada":10505,"lerimizden":10506,"Ġharic":10507,"ĠVatandaÅŁ":10508,"Ġmineral":10509,"Ġkitaplar":10510,"amda":10511,"ĠTurkey":10512,"ĠPazarlama":10513,"ĠkitabÄ±n":10514,"ĠFÄ±rat":10515,"ĠhaÅŁ":10516,"MAZ":10517,"ĠCEO":10518,"fir":10519,"ĠulaÅŁan":10520,"ĠkaynaklÄ±":10521,"98":10522,"Ġkarn":10523,"onomi":10524,"Ġistemiyor":10525,"ĠbÄ±raktÄ±":10526,"ĠayrÄ±ldÄ±":10527,"ĠEvi":10528,"Home":10529,"Ġtopar":10530,"gim":10531,"ĠkurulmuÅŁtur":10532,",âĢĿ":10533,"ĠZafer":10534,"Ä°NÄ°N":10535,"iÃ§in":10536,"ĠkaldÄ±m":10537,"ĠÃ¶ykÃ¼":10538,"ĠettiÄŁim":10539,"BAÅŀ":10540,"madÄ±ÄŁ":10541,"Ġbilgilendirme":10542,"Ä°ngiltere":10543,"ĠisteÄŁi":10544,"ĠgÃ¶v":10545,"ilecektir":10546,"ĠKi":10547,"lana":10548,"Ã¼mÃ¼zÃ¼n":10549,"daha":10550,"lenerek":10551,"ĠfirmanÄ±n":10552,"Ġkalitesini":10553,"ĠsevdiÄŁi":10554,"Ġtesti":10555,"ĠiÃ§ten":10556,"Ä±lmaya":10557,"ĠdÃ¢hil":10558,"Ġetkileyici":10559,"ĠNATO":10560,"ĠPamuk":10561,"Ġrady":10562,"sed":10563,"ĠKalite":10564,"Ġimal":10565,"ĠStratej":10566,"unum":10567,"Ġ68":10568,"ĠGiriÅŁim":10569,"CO":10570,"Ġdudak":10571,"Ġzorlan":10572,"ĠsÃ¼recek":10573,"mece":10574,"ĠtÃ¶reni":10575,"ĠÃ§eyrek":10576,"Ġstok":10577,"Ġyepyeni":10578,"ĠÃĸy":10579,"âĢ¦.":10580,"Ġked":10581,"ĠSÄ±k":10582,"tÃ¼ÄŁÃ¼":10583,"Bit":10584,"ĠEst":10585,"ĠimkansÄ±z":10586,"ĠyarattÄ±ÄŁÄ±":10587,"Ġseyr":10588,"ĠSÃ¼t":10589,"ĠiÅŁten":10590,"ĠtecrÃ¼be":10591,"71":10592,"TER":10593,"Ġsarf":10594,"Ġboyutlu":10595,"Ã¼zÃ¼n":10596,"Ġ:))":10597,"tra":10598,"BaÄŁ":10599,"ĠverdiÄŁini":10600,"SE":10601,"lediÄŁini":10602,"ĠBitcoin":10603,"Ãĸte":10604,"olojisi":10605,"ÃľYÃľK":10606,"ĠÅŁirketler":10607,"ĠMax":10608,"ĠkorunmasÄ±":10609,"Ġkuz":10610,"Ġrejim":10611,"Ġkonusundaki":10612,"ĠbaÅŁardÄ±":10613,"amadÄ±k":10614,"lÃ®":10615,"ĠyaÅŁadÄ±":10616,"tisiz":10617,"ladÄ±ÄŁÄ±nÄ±":10618,"ĠtÄ±bbi":10619,"ited":10620,"erkesin":10621,"Anahtar":10622,"ĠÃ§alÄ±ÅŁmalarÄ±n":10623,"ĠMardin":10624,"ÄŁday":10625,"ĠbebeÄŁ":10626,"ĠBÃ¶yl":10627,"ĠResul":10628,"ĠyapacaÄŁÄ±nÄ±z":10629,"Ġkurucu":10630,"ĠsaÄŁladÄ±":10631,"ĠÄ°sveÃ§":10632,"ĠDeÄŁiÅŁik":10633,"ĠDiyanet":10634,"Ġfilmler":10635,"EHÄ°R":10636,"ĠDevamÄ±nÄ±":10637,"ĠÅŀeker":10638,"Ġgelmek":10639,"ĠiÃ§e":10640,"Ġ56":10641,"ĠyÃ¼kselen":10642,"Ġbilmeyen":10643,"ĠÅŁÃ¶":10644,"leÅŁmiÅŁ":10645,"ĠÃ§atÄ±":10646,"Ġdinley":10647,"ĠgÃ¼ndÃ¼r":10648,"ĠOlim":10649,"ĠkÃ¶t":10650,"Ġepey":10651,"ĠtÃ¼ketic":10652,"cm":10653,"ĠCemal":10654,"ĠtÃ¼y":10655,"ĠSEO":10656,"Ġtopu":10657,"Ġbilgiyi":10658,"ĠsayÄ±sÄ±nÄ±":10659,"Ġch":10660,"ĠoluÅŁturduÄŁu":10661,"Ġlam":10662,"Ã¼lasyon":10663,"ĠKomut":10664,"Ä±ÅŁÄ±n":10665,"ĠTv":10666,"elin":10667,"Ġeminim":10668,"Ġilgisi":10669,"ĠMusa":10670,"ont":10671,"nci":10672,"Ä°k":10673,"ĠMÄ°L":10674,"Ä±sÄ±ndaki":10675,"Ġdahilinde":10676,"fil":10677,"Ã¼ÄŁÃ¼":10678,"Ġbasketbol":10679,"Ġposta":10680,"amÄ±za":10681,"Cev":10682,"Ġkader":10683,"Ġinsanlarla":10684,"ĠbaÅŁlattÄ±":10685,"ĠfirmalarÄ±n":10686,"ĠPost":10687,"ĠgitmiÅŁ":10688,"ĠYÃ¼ksekokulu":10689,"Ġnadir":10690,"Ä°ngilizce":10691,"ĠErmeni":10692,"ĠOtomobil":10693,"ĠBelg":10694,"Ġtohum":10695,"Ġihale":10696,"ĠÃ§alÄ±ÅŁÄ±yorum":10697,"Ġbedava":10698,"ĠtecrÃ¼beli":10699,"FotoÄŁraf":10700,"ĠRize":10701,"ĠkullanÄ±ÅŁlÄ±":10702,"ĠBÃ¼r":10703,"ĠBolu":10704,"ĠÃĩALIÅŀ":10705,"ĠSuÃ§":10706,"ĠgeÃ§irdiÄŁi":10707,"Ġdey":10708,"ĠWat":10709,"Ġetkileyen":10710,"ĠgÃ¶rÃ¼ntÃ¼len":10711,"yasÄ±":10712,"Ä°ran":10713,"AG":10714,"DÄ±ÅŁ":10715,"ĠÃ¶ncÃ¼":10716,"ĠyayÄ±nlan":10717,"ĠAlanya":10718,"barek":10719,"Ac":10720,"ĠgÃ¶nderilen":10721,"ĠÅŁeref":10722,"ex":10723,"acasÄ±":10724,"Ã¢b":10725,"ĠZar":10726,"ĠiÃ§erisine":10727,"ĠTa":10728,"oyun":10729,"ĠMit":10730,"ĠGeliÅŁtirme":10731,"Ġ85":10732,"Ġcinsiyet":10733,"ĠYazÄ±lÄ±m":10734,"Ġkuruldu":10735,"ĠOnlarÄ±n":10736,"ĠTRT":10737,"Ġcild":10738,"ĠBulun":10739,"Ġtuvalet":10740,"ĠyaÄŁlÄ±":10741,"Ġodaklan":10742,"ĠhafÄ±z":10743,"ĠparÃ§alarÄ±":10744,"Ġtabak":10745,"http":10746,"ĠHad":10747,"ĠVeli":10748,"OLOJ":10749,"Ġdemokras":10750,"ĠPop":10751,"eneksel":10752,"Ġokulu":10753,"Ġdetaylar":10754,"barat":10755,"ĠHazret":10756,"ĠkarÄ±n":10757,"ĠboÅŁan":10758,"Bas":10759,"Ġpis":10760,"parta":10761,"adiÅŁ":10762,"Ġanlatmak":10763,"ĠAnt":10764,"ĠÃ¼zÃ¼l":10765,"ĠHÃ¼kÃ¼met":10766,"ĠSohbet":10767,"Ġfet":10768,"Ġedelim":10769,"ĠÅŁimdiye":10770,"Ġmel":10771,"Tekn":10772,"Ġdelil":10773,"ĠMadrid":10774,"Ġsebz":10775,"ĠSekreteri":10776,"Ġolurlar":10777,"ĠcÃ¼mle":10778,"ĠUzak":10779,"ĠMetal":10780,"ELÄ°K":10781,"Ġyetkilileri":10782,"ĠGÃ¼ndem":10783,"atin":10784,"ĠitibarÄ±yla":10785,"ĠBaÅŁbakanÄ±":10786,"lÃ¼ÄŁÃ¼ne":10787,"ĠaÃ§ar":10788,"ĠGÃ¶khan":10789,"Ġtarihte":10790,"ĠdoÄŁumlu":10791,"ĠyeryÃ¼z":10792,"ĠsÃ¼resince":10793,"Ġpik":10794,"ĠÃ§Ä±r":10795,"Ġplanlanan":10796,"ĠyazÄ±yÄ±":10797,"ck":10798,"Kol":10799,"Ġhizmetlerini":10800,"ĠPo":10801,"ĠiÅŁletmeler":10802,"ĠToplantÄ±":10803,"ĠanlatÄ±m":10804,"irmi":10805,"ĠSenin":10806,"ĠSarayÄ±":10807,"ĠRadyo":10808,"ĠÃ§alÄ±ÅŁanlarÄ±":10809,"Ġiyilik":10810,"Haberler":10811,"ĠetmiÅŁti":10812,"Ġyelpaz":10813,"ĠyaÅŁar":10814,"Ġbag":10815,"Ġveriliyor":10816,"ĠÃľzerine":10817,"ĠbÄ±rakÄ±p":10818,"ĠÃ¶nder":10819,"ekler":10820,"ĠÃ¼lkeden":10821,"ĠsatÄ±r":10822,"asebe":10823,"Ġtv":10824,"Ä±lÄ±rken":10825,"ĠyapÄ±ldÄ±ÄŁÄ±nÄ±":10826,"Ġyapabilecek":10827,"Ġgeleni":10828,"Ġetmeden":10829,"kay":10830,"ĠsÃ¶mÃ¼r":10831,"ĠÃĩiz":10832,"Mod":10833,"ulacak":10834,"ĠGeÃ§miÅŁ":10835,"Ã§uklu":10836,"ĠiPad":10837,"ĠfotoÄŁraflar":10838,"Ġyumurt":10839,"mil":10840,"Ġnitelikli":10841,"ĠÄ°ÅŁletme":10842,"Ġbest":10843,"ĠKampany":10844,"Ġdi":10845,"ĠkuruluÅŁu":10846,"ĠyansÄ±m":10847,"Ġ59":10848,"ĠolayÄ±n":10849,"gn":10850,"ĠaÄŁÄ±rlÄ±klÄ±":10851,"matik":10852,"eyerek":10853,"Ġolmamak":10854,"ĠvurguladÄ±":10855,"Ġmimari":10856,"ehri":10857,"ĠhaftanÄ±n":10858,"ĠsÄ±nÄ±rsÄ±z":10859,"ĠAkif":10860,"Ġherhalde":10861,"Ġkentinde":10862,"Yan":10863,"ĠBilgileri":10864,"Ġasgari":10865,"ĠtÄ±pkÄ±":10866,"Pr":10867,")'":10868,"ĠOto":10869,"ĠÃĸdÃ¼lleri":10870,"Ġsh":10871,"ĠaraÅŁtÄ±rmacÄ±":10872,"Ãĥ":10873,"61":10874,"ĠÄ°p":10875,"AMAN":10876,"Ġdonat":10877,"ĠArama":10878,"ĠÃĸzellikleri":10879,"Ġetkinlikler":10880,"Ġrahatlat":10881,"ĠOyunlar":10882,"Ver":10883,"Ġgayrimenkul":10884,"Ã¶zel":10885,"Ġplatformu":10886,"insan":10887,"ĠÃ¶nlemek":10888,"ilmeye":10889,"aydÄ±n":10890,"ĠatÄ±lan":10891,"haber":10892,"ĠÅŁÃ¼phesiz":10893,"isp":10894,"ĠkiralÄ±k":10895,"Ġmuhalefet":10896,"ĠyaratÄ±":10897,"ĠÃĸÄŁrenciler":10898,"Ġoldug":10899,"Ġrot":10900,"ĠDÃ¶nemi":10901,"Can":10902,"ĠaÃ§Ä±klamaya":10903,"Ġsevinirim":10904,"akkak":10905,"ĠyalÄ±":10906,"App":10907,"iyetini":10908,"Ã¼mÃ¼zÃ¼":10909,"ĠbaÅŁlandÄ±":10910,"Ġetmiyor":10911,"Ġ53":10912,"Ġbomba":10913,"DÃľR":10914,"ĠPil":10915,"ĠkÃ¼l":10916,"ĠAra":10917,"ĠgÃ¶rÃ¼ldÃ¼":10918,"ĠfotoÄŁrafÄ±":10919,"ĠmÃ¼sa":10920,"ydÄ±":10921,"sede":10922,"Ġithalat":10923,"Ġuygundur":10924,"turk":10925,"ĠGÃ¼nÃ¼mÃ¼zde":10926,"OG":10927,"ivan":10928,"ĠtÄ±klayarak":10929,"Ġyolun":10930,"Ġcezaev":10931,"Ġveda":10932,"Ġkonforlu":10933,"mu":10934,"Ġdet":10935,"TALYA":10936,"uyuz":10937,"Ġhur":10938,"ĠRed":10939,"ĠEÄŁlen":10940,"tiniz":10941,"Ġzik":10942,"Ġabi":10943,"ass":10944,"ĠWorld":10945,"ĠmutluluÄŁ":10946,"ĠmÃ¼ÅŁterilerine":10947,"ĠoluÅŁturulan":10948,"ĠSeyahat":10949,"box":10950,"ĠÃ¶len":10951,"ĠbÃ¶lÃ¼mÃ¼nÃ¼":10952,"Ġ[...]":10953,"aik":10954,"Ahmet":10955,"Ġyazma":10956,"Ġgerektiren":10957,"Ġyaratmak":10958,"ĠzorundadÄ±r":10959,"Ġelini":10960,"Ġdurumuna":10961,"ĠkurduÄŁu":10962,"Ġesir":10963,"ĠMatematik":10964,"faf":10965,"ĠgeliÅŁmeleri":10966,"ĠkuruluÅŁlarÄ±":10967,"ĠSÃ¶y":10968,"ĠaldÄ±ÄŁÄ±mÄ±z":10969,"lamayÄ±":10970,"Ġdeneme":10971,"Amerika":10972,"ashington":10973,"ĠoluÅŁturur":10974,"abey":10975,"Bakan":10976,"ĠsÃ¼rdÃ¼rÃ¼yor":10977,"Ġkusursuz":10978,"Ġdoku":10979,"ĠMari":10980,"Ġmuhafaza":10981,"72":10982,"Bank":10983,"Ġhain":10984,"ĠAÅŀ":10985,"Ġunutulmaz":10986,"ĠyaÅŁamÄ±ÅŁ":10987,"val":10988,"ĠyapÄ±ya":10989,"ĠreÃ§":10990,"ĠolanlarÄ±n":10991,"ĠFor":10992,"ĠolabileceÄŁini":10993,"79":10994,"ĠÄ°spanyol":10995,"ĠÄ°daresi":10996,"buki":10997,"ĠÃ¶rneÄŁin":10998,"Ġnihayet":10999,"ĠherÅŁ":11000,"ÃľT":11001,"ĠilÃ§esine":11002,"Ġanlama":11003,"name":11004,"ĠKurumsal":11005,"ĠAsker":11006,"mamalÄ±dÄ±r":11007,"ĠBlack":11008,"ĠMy":11009,"Ã¼tahya":11010,"Ġsitesinden":11011,"Etiket":11012,"ĠkullanÄ±r":11013,"ĠsÃ¼rÃ¼ÅŁ":11014,"Kas":11015,"anlarÄ±n":11016,"ĠgÃ¼mÃ¼ÅŁ":11017,"layabilirsiniz":11018,"Fakat":11019,"Ġinanc":11020,"ĠEh":11021,"ĠalÄ±ÅŁkanlÄ±k":11022,"Bana":11023,"kut":11024,"ĠsaÄŁladÄ±ÄŁÄ±":11025,"ĠgirdiÄŁi":11026,"88":11027,"ĠTurgut":11028,"ĠsaÄŁlayacaktÄ±r":11029,"mosyon":11030,"Bilg":11031,"ĠihtiyaÃ§larÄ±":11032,"AÅŁaÄŁÄ±":11033,"Ġistenilen":11034,"Ġintik":11035,"ĠDiyet":11036,"ĠfazlasÄ±nÄ±":11037,"ĠgÃ¶rÃ¼lmektedir":11038,"ĠpeÅŁinde":11039,"feransÄ±":11040,"Ġcihazlar":11041,"ĠyazÄ±lmÄ±ÅŁ":11042,"ĠtÄ±rman":11043,"osun":11044,"omi":11045,"Ġedilmelidir":11046,"adasÄ±":11047,"Ġsitemizde":11048,"ĠÃ§alÄ±ÅŁmalara":11049,"ove":11050,"hep":11051,"ĠboÄŁaz":11052,"ĠgideceÄŁ":11053,"ĠFaruk":11054,"veren":11055,"Ġ81":11056,"ahisar":11057,"Ġvurgu":11058,"Ġotelleri":11059,"Ġetkisini":11060,"Ã¢nÄ±":11061,"Ġkapasitesi":11062,"Ġdiyorlar":11063,"gir":11064,"Com":11065,"ĠAvusturya":11066,"Ġsul":11067,"Ġsponsor":11068,"Ġresimleri":11069,"Ġhaliyle":11070,"Ġsec":11071,"ĠolacaksÄ±nÄ±z":11072,"Ġtoplanan":11073,"ĠdÃ¼ÅŁÃ¼nÃ¼n":11074,"lerimizde":11075,"Koca":11076,"Ġtabl":11077,"ĠkaÄŁÄ±":11078,"Ġhormon":11079,"Ġotopark":11080,"Ġberaberlik":11081,"ĠOna":11082,"ĠFizik":11083,"Ġyapmadan":11084,"iet":11085,"erisi":11086,"ĠdÃ¼ÅŁer":11087,"Ġekledi":11088,"Ġ1999":11089,"ĠÅŀiir":11090,"ĠOD":11091,"ĠÃĩukur":11092,"ĠTelevizyon":11093,"OsmanlÄ±":11094,"encere":11095,"ĠKAN":11096,"Mev":11097,"ĠProt":11098,"Ġokuyucu":11099,"avÃ¼z":11100,"tikleri":11101,"Ġyuk":11102,"63":11103,"sc":11104,"Ġailesinin":11105,"Sal":11106,"Ġpolitika":11107,"ĠSite":11108,"ĠdÃ¼ÅŁÃ¼nceler":11109,"Ġima":11110,"ĠÄ°pek":11111,"ĠYalÃ§Ä±n":11112,"cÄ±larÄ±":11113,"ĠÃľz":11114,"ÅŁen":11115,"ullarÄ±":11116,"ÅŁun":11117,"Program":11118,"ĠseÃ§in":11119,"Ġ700":11120,"dÄ±rma":11121,"ĠgiriÅŁimi":11122,"ĠsÃ¶zlerini":11123,"ofÃ¶r":11124,"low":11125,"ĠKargo":11126,"alarak":11127,"KiÅŁ":11128,"Ä°LM":11129,"emde":11130,"bolu":11131,"mama":11132,"ĠMarka":11133,"ĠvarlÄ±ÄŁÄ±":11134,"abiliyorsunuz":11135,"ĠAmerikalÄ±":11136,"ĠadÄ±mlar":11137,"ĠiÅŁleme":11138,"ĠoruÃ§":11139,"Ġhissede":11140,"ĠdÃ¼zenledi":11141,"ĠHatip":11142,"pro":11143,"CU":11144,"ĠAyÅŁe":11145,"Ġispat":11146,"ĠÃ§if":11147,"sizin":11148,"hael":11149,"ĠbastÄ±r":11150,"ĠEtti":11151,"ĠTÃ¼rkler":11152,"ĠÅŁÃ¼pheli":11153,"Ġliraya":11154,"ĠdeÄŁiÅŁtirmek":11155,"Ġsomut":11156,"ilerinde":11157,"ĠMuharrem":11158,"ĠayrÄ±lan":11159,"ĠMaliye":11160,"Ġokulda":11161,"Ġzeka":11162,"ĠCAD":11163,"Ġiktid":11164,"ID":11165,"Ġyollar":11166,"82":11167,"ĠsÃ¶yleÅŁ":11168,"tuÄŁrul":11169,"ĠÄ°NÅŀ":11170,"ĠgeÃ§erlidir":11171,"Ġfiyatlarla":11172,"Ġcidd":11173,"Ġnumara":11174,"afet":11175,"Ġhastanede":11176,"ebileceÄŁini":11177,"ĠyÃ¶netici":11178,"bulans":11179,"ĠNik":11180,"ĠBekir":11181,"ĠhÃ¼kÃ¼meti":11182,"Ã¼ntÃ¼":11183,"ĠmaÃ§Ä±n":11184,"ĠToprak":11185,"Sabah":11186,"Ġdinlem":11187,"ĠFilmleri":11188,"ĠartÄ±rmak":11189,"ĠAP":11190,"Â«":11191,"Ġkoca":11192,"Ġbirbirlerine":11193,"Ġpatates":11194,"Ã¼minyum":11195,"ĠsÄ±kÃ§a":11196,"ĠsÄ±ral":11197,"aklar":11198,"ĠCihaz":11199,"Ġmaden":11200,"ĠArÅŁiv":11201,"Ġbalkon":11202,"ĠDÃ¼ÅŁÃ¼n":11203,"ĠGezi":11204,"ĠvirÃ¼s":11205,"Ġhamur":11206,"ĠSaÄŁlÄ±klÄ±":11207,"ĠyazÄ±yor":11208,"latma":11209,"odafone":11210,"ĠDoÄŁa":11211,"Ġbam":11212,"urk":11213,"ĠÃ¼yeler":11214,"ersen":11215,"Ġsantral":11216,"ĠadamlarÄ±":11217,"ĠYum":11218,"Ġzira":11219,"ĠTev":11220,"ĠÃ¶lÃ§Ã¼m":11221,"ĠÃ¼ste":11222,"ĠSk":11223,"Ġettiklerini":11224,"ĠgÃ¶zet":11225,"Ġsahada":11226,"fice":11227,"ranÄ±":11228,"ĠAvustralya":11229,"ĠhÄ±zÄ±":11230,"ĠTol":11231,"ĠSilahlÄ±":11232,"ĠdÃ¶ndÃ¼r":11233,"ĠKaymakamÄ±":11234,"ECE":11235,"Ġinci":11236,"ĠBoÅŁ":11237,"Ġerkeklerin":11238,"ĠaÃ§tÄ±ÄŁÄ±":11239,"ĠDili":11240,"Ġderim":11241,"ĠyaÅŁamÄ±":11242,"Ġhissi":11243,"ĠMÃ¼hendislik":11244,"ĠÃ§oÄŁunlukla":11245,"lib":11246,"duklarÄ±nÄ±":11247,"Ġdefter":11248,"Ġliman":11249,"yr":11250,"ĠKuruluÅŁ":11251,"ĠyardÄ±mÄ±yla":11252,"Ġbirimi":11253,"ĠErol":11254,"ĠgeleceÄŁe":11255,"ĠSayÄ±lÄ±":11256,"ahhÃ¼t":11257,"Ä°LÄ°R":11258,"MEN":11259,"ĠkoltuÄŁ":11260,"ĠgeÃ§tiÄŁi":11261,"ĠparayÄ±":11262,"Ġkongr":11263,"ĠdeÄŁiÅŁimi":11264,"ĠcihazÄ±":11265,"ĠSinem":11266,"Ġkahvalt":11267,"ĠkullanÄ±yorum":11268,"Ġkararlar":11269,"ĠKÃ¼rd":11270,"ĠmÃ¼st":11271,"ĠBlu":11272,"Ġkilometr":11273,"ĠeÄŁitime":11274,"Ġmag":11275,"ĠBulgaristan":11276,"ĠkadÄ±nlara":11277,"ĠsÄ±nÄ±fÄ±":11278,"Ġturu":11279,"acÄ±n":11280,"ORU":11281,"ĠumarÄ±m":11282,"ĠTanÄ±tÄ±m":11283,"ĠIP":11284,"ĠUSB":11285,"ĠÃ§ekilen":11286,"ĠbÃ¼tÃ§e":11287,"wood":11288,"Ġdalga":11289,"Ġalmadan":11290,"ĠhaksÄ±z":11291,"Ġkelimesi":11292,"irkin":11293,"Ġyang":11294,"cesi":11295,"kent":11296,"lÃ¼lÃ¼k":11297,"ĠkaydÄ±":11298,"ĠSÄ±navÄ±":11299,"Ġoturma":11300,"Ġtarihten":11301,"ĠAksi":11302,"ĠoÄŁlum":11303,"ĠÃ¶zelliklerini":11304,"ĠbayÄ±l":11305,"ĠkalmadÄ±":11306,"ĠALAN":11307,"ĠaÃ§Ä±klan":11308,"ĠgÃ¼ncelleme":11309,"Ġseviyesi":11310,"ĠHesap":11311,"ademi":11312,"steri":11313,"Ä±yaka":11314,"ĠPen":11315,"indir":11316,"Ġgelmiyor":11317,"ĠoluÅŁturuyor":11318,"luyum":11319,"olarÄ±":11320,"bab":11321,"Bilim":11322,"ĠYÃĸNET":11323,"Ġbot":11324,"Ġverg":11325,"ĠEbu":11326,"Ġbuluyor":11327,"Ġdevre":11328,"ĠEfendimiz":11329,"Ġdersleri":11330,"gÃ¼ven":11331,"Ä°srail":11332,"Ġmerhaba":11333,"SayÄ±n":11334,"ĠbaÅŁlatÄ±lan":11335,"ĠTez":11336,"ĠMobilya":11337,"ĠOkum":11338,"Ġcadde":11339,"ĠsanÄ±k":11340,"Ġsendik":11341,"ĠoluÅŁmaktadÄ±r":11342,"ĠdÃ¶nemine":11343,"Ġsorusuna":11344,"Ġburs":11345,"Ġformat":11346,"navut":11347,"Ġbilinir":11348,"SeÃ§":11349,"ĠyaÅŁamaya":11350,"ĠMali":11351,"ĠmÃ¼ÅŁterilerimize":11352,"ĠÅŁirketlerin":11353,"ĠdevamÄ±nÄ±":11354,"GÃ¼l":11355,"anik":11356,"Ġgazetesi":11357,"ĠBelli":11358,"Ġkendisinden":11359,"baÅŁka":11360,"ĠÃ§eÅŁitleri":11361,"ĠPap":11362,"gini":11363,"Ġyemin":11364,"ĠGÃ¼len":11365,"ĠÃĩel":11366,"ĠAkÄ±llÄ±":11367,"Ġhil":11368,"ĠTom":11369,"ĠsorunlarÄ±n":11370,"leÅŁen":11371,"Ġailesine":11372,"ĠBulut":11373,"oker":11374,"Ġdurumunu":11375,"Ġistedikleri":11376,"Ġdeg":11377,"Ġ51":11378,"Ġha":11379,"caya":11380,"ĠyÃ¶nlÃ¼":11381,"ĠDÃľN":11382,"Ġevlat":11383,"ĠgenÃ§lerin":11384,"ĠbÃ¼yÃ¼yen":11385,"ĠKarÅŁÄ±":11386,"ĠHAS":11387,"ĠBatman":11388,"ecekler":11389,"ĠaldÄ±ÄŁÄ±nÄ±z":11390,"ĠgerekÃ§esiyle":11391,"Ġdeplasmanda":11392,"ĠNormal":11393,"ĠVekili":11394,"ĠakÄ±m":11395,"Ġberek":11396,"ĠseÃ§imleri":11397,"ĠkÃ¼tÃ¼phan":11398,"fan":11399,"aker":11400,"ĠGiresun":11401,"Ã¶rfez":11402,"Ġbelirtmek":11403,"ĠDemirtaÅŁ":11404,"Ġnasip":11405,"Selam":11406,"ĠvarlÄ±ÄŁÄ±nÄ±":11407,"arya":11408,"abilim":11409,"Ä°KA":11410,"Ä°RK":11411,"ĠtanÄ±nan":11412,"Ġmodeller":11413,"'m":11414,"ĠElb":11415,"Bal":11416,"Ġcenaz":11417,"âĢĻ,":11418,"gov":11419,"ĠyorumlarÄ±":11420,"Ġmaliyeti":11421,"ĠkullanÄ±cÄ±larÄ±":11422,"Ġhamile":11423,"ĠyaÅŁÄ±na":11424,"ĠBUL":11425,"Ġedebilecek":11426,"Ġvaran":11427,"lediÄŁim":11428,"Ġklima":11429,"Ġsiteye":11430,"cunun":11431,"maris":11432,"Ġ95":11433,"aliman":11434,"ĠKars":11435,"Ġaksiyon":11436,"ĠÃ¶yk":11437,"Ġmaddesinin":11438,"Ġkurumlar":11439,"ebilirler":11440,"ĠBus":11441,"ĠSÃ¼n":11442,"ezya":11443,"Ġkoydu":11444,"ĠGid":11445,"Ġeti":11446,"Tem":11447,"ĠyapmÄ±ÅŁtÄ±r":11448,"ĠYrd":11449,"ÄŁe":11450,"ĠKalp":11451,"ĠgenÃ§lik":11452,"ĠSuriyeli":11453,"Ġ99":11454,"IV":11455,"ĠteÅŁkilat":11456,"ĠmÃ¼slÃ¼man":11457,"ĠYeter":11458,"ĠWhats":11459,"ĠdÃ¶nen":11460,"adiÅŁah":11461,"ĠSahip":11462,"ĠÅŁim":11463,"Tes":11464,"Ä±lmÄ±ÅŁtÄ±":11465,"ĠiliÅŁkisi":11466,"ĠhastalÄ±ÄŁ":11467,"Ġsofr":11468,"ĠAdres":11469,"inler":11470,"ENT":11471,"ĠyaÅŁta":11472,"Ġekrana":11473,"ilk":11474,"ĠLED":11475,"Ġkesi":11476,"ĠNAS":11477,"Ġvekil":11478,"ĠboÅŁluk":11479,"Ġhavada":11480,"TeÅŁ":11481,"ĠÃľR":11482,"Ġilim":11483,"ĠbakÄ±ldÄ±ÄŁÄ±nda":11484,"dayÄ±m":11485,"Ġkadros":11486,"rib":11487,"ĠbÃ¶lgedeki":11488,"DK":11489,"Ã¼ldÃ¼ÄŁÃ¼":11490,"FETÃĸ":11491,"Ġfabrika":11492,"Ä±cÄ±sÄ±":11493,"larÄ±nÄ±zda":11494,"Bunu":11495,"Haz":11496,"ĠkÄ±yÄ±":11497,"elikopter":11498,"ilde":11499,"Ġotob":11500,"Ä±rnak":11501,"Ġtetik":11502,"Tube":11503,"ĠEtiketler":11504,"Ġeserleri":11505,"ĠTakip":11506,"ĠbuluÅŁtu":11507,"Ġbelgesel":11508,"Ġolduktan":11509,"ĠaydÄ±r":11510,"ediyesi":11511,"Ġkapsayan":11512,"liyorum":11513,"ĠDEM":11514,"ĠTrafik":11515,"Ġdiyebilirim":11516,"Ġmerdiven":11517,"Ġkokusu":11518,"Ġ66":11519,"usa":11520,"ĠtemizliÄŁi":11521,"ĠAlb":11522,"Ġedilecektir":11523,"ĠaracÄ±lÄ±ÄŁÄ±":11524,"Ġvesil":11525,"melisiniz":11526,"ĠCami":11527,"uzun":11528,"mekle":11529,"Ġtalimat":11530,"aspor":11531,"ĠSU":11532,"ĠCD":11533,"ĠgÃ¼zer":11534,"Ġsalat":11535,"Ġduyulan":11536,"Ġkenti":11537,"ĠÃ¶ÄŁrenim":11538,"Fransa":11539,"ĠtamamlandÄ±":11540,"Ġgebelik":11541,"Ġnefis":11542,"Ġseslendir":11543,"ĠLin":11544,"ĠgÃ¶zÃ¼":11545,"ĠGENEL":11546,"Sevgili":11547,"ĠBurcu":11548,"ith":11549,"ĠdoÄŁu":11550,"aalanÄ±":11551,"Ġrenkler":11552,"ĠcevabÄ±nÄ±":11553,"ĠPor":11554,"ĠÄ°LK":11555,"cedes":11556,"ĠCor":11557,"ĠmekÃ¢n":11558,"Ġedilemez":11559,"ĠChar":11560,"ĠOrada":11561,"Ġkavga":11562,"ĠPDF":11563,"ĠZor":11564,"Ġdiyoruz":11565,"ĠyaÅŁÄ±yoruz":11566,"ĠKahramanmaraÅŁ":11567,"Ġoturan":11568,"ĠyayÄ±nladÄ±":11569,"Ġml":11570,"ĠUEFA":11571,"ĠsayfasÄ±nda":11572,"Ġzem":11573,"Ġinsani":11574,"Yurt":11575,"ĠiddialÄ±":11576,"Kendi":11577,"ĠÃ¼lkeyi":11578,"ĠFazla":11579,"ĠkalmasÄ±":11580,"ĠgÃ¶rÃ¼nÃ¼r":11581,"ĠbilinÃ§li":11582,"eld":11583,"ĠÅŁartlar":11584,"ĠAC":11585,"ĠgeleceÄŁini":11586,"Ġ1990":11587,"Ġdepresyon":11588,"Ġeksiksiz":11589,"ĠÄ°M":11590,"85":11591,"mektir":11592,"lerimizle":11593,"ĠLevent":11594,"aciv":11595,"ĠuygulanÄ±r":11596,"ĠmÃ¼cadelesi":11597,"emedi":11598,"ĠSov":11599,"ĠyaÅŁamÄ±n":11600,"Soru":11601,"liydi":11602,"ĠsatÄ±lan":11603,"74":11604,"YukarÄ±":11605,"ĠKurban":11606,"Ann":11607,"ECEK":11608,"enderes":11609,"ĠGelen":11610,"Ġbelgeler":11611,"ĠAfgan":11612,"ĠyoÄŁurt":11613,"Ġcik":11614,"Ġvermez":11615,"lamanÄ±n":11616,"cÃ¼l":11617,"ĠÄ°hracat":11618,"Ġebeveyn":11619,"Ġpaketi":11620,"Ġyil":11621,"ĠParÃ§a":11622,"ĠBelgesi":11623,"ĠErsoy":11624,"Ä°MÄ°":11625,"Ġreddet":11626,"Ġcal":11627,"Ġkucak":11628,"ĠDurumu":11629,"ĠSeni":11630,"73":11631,"ĠmesleÄŁ":11632,"ĠedildiÄŁini":11633,"ĠkullanÄ±lÄ±yor":11634,"ĠyÃ¼zme":11635,"ĠKitab":11636,"Ġtehlike":11637,"Ġkanat":11638,"Ġgetirecek":11639,"Ġdikkati":11640,"MÃ¼":11641,"ĠgÃ¶rÃ¼ntÃ¼ler":11642,"ĠbÃ¶lgesel":11643,"umda":11644,"ars":11645,"ĠAlÄ±n":11646,"Ġhalini":11647,"ĠiÅŁken":11648,"EÅŁ":11649,"Ġmahkum":11650,"iral":11651,"ĠoranlarÄ±":11652,"avv":11653,"ĠNor":11654,"ĠsayÄ±l":11655,"Ġmiras":11656,"Ġumu":11657,"ĠcezalandÄ±r":11658,"Ġboru":11659,"YeÅŁil":11660,"kusuz":11661,"ĠBakÄ±r":11662,"ĠyÃ¼klÃ¼":11663,"ĠPaket":11664,"Ġmuhtar":11665,"MASI":11666,"ĠyakalandÄ±":11667,"Ġlin":11668,"Ġkurab":11669,"ilmiÅŁti":11670,"ĠyÄ±ldÄ±zÄ±":11671,"ĠÅŀef":11672,"anÄ±za":11673,"ĠyaptÄ±klarÄ±nÄ±":11674,"ĠuyarÄ±nca":11675,"ĠAkademisi":11676,"ĠvasÄ±t":11677,"ics":11678,"naf":11679,"KÃ¶":11680,"ĠKelimeler":11681,"ĠUmarÄ±m":11682,"ĠHerhangi":11683,"ĠdÃ¼ÅŁÃ¼nÃ¼yoruz":11684,"ĠÃĩat":11685,"ĠkaldÄ±rÄ±ldÄ±":11686,"Ġbilinmeyen":11687,"Bat":11688,"ax":11689,"____":11690,"ĠsoÄŁan":11691,"ĠÃĸlÃ¼m":11692,"ĠSÄ±cak":11693,"Windows":11694,"Ġteknolojileri":11695,"Ġvarken":11696,"Ġsitenin":11697,"ĠcoÅŁk":11698,"Re":11699,"izli":11700,"Ġilerlem":11701,"Ġverirken":11702,"Ġbildirim":11703,"acaat":11704,"Olay":11705,"DÃ¼z":11706,"Ġ180":11707,"Ġrenkleri":11708,"Ġhijyen":11709,"ĠaÅŁamada":11710,"ĠNitekim":11711,"ĠiÅŁtir":11712,"ĠyÃ¶neticileri":11713,"ĠkararÄ±nÄ±":11714,"ĠgÃ¶nderildi":11715,"Ġbeton":11716,"ĠÄ°sviÃ§re":11717,"YO":11718,"ĠMimarlÄ±k":11719,"dÃ¶n":11720,"ĠTercih":11721,"Ġdurak":11722,"Ġimar":11723,"ĠBerk":11724,"ĠGelecek":11725,"Ġmesafe":11726,"eneral":11727,"Sh":11728,"Ġtavan":11729,"ĠvermiÅŁtir":11730,"ĠTAK":11731,"ĠdÃ¶nÃ¼k":11732,"ÃĩE":11733,"ĠÃľmit":11734,"Ġkayak":11735,"ĠaldÄ±klarÄ±":11736,"ĠâĤ":11737,"Ġban":11738,"IYOR":11739,"ĠUmut":11740,"zen":11741,"ĠÃ§iÄŁ":11742,"Ġoranla":11743,"ĠbaÅŁvurusu":11744,"ĠÅŀer":11745,"melerine":11746,"ĠKitabÄ±":11747,"ĠadlandÄ±rÄ±lan":11748,"ĠbebeÄŁin":11749,"kileri":11750,"ANA":11751,"tÄ±nÄ±z":11752,"SL":11753,"taur":11754,"ĠTarifleri":11755,"ĠsÃ¶zcÃ¼k":11756,"Orta":11757,"ĠHÃ¼rriyet":11758,"ĠÃ§Ä±kma":11759,"ĠOlaÄŁan":11760,"Ġslogan":11761,"ĠdÃ¶rdÃ¼ncÃ¼":11762,"ĠtrafiÄŁ":11763,"Ġverdikleri":11764,"kul":11765,"Ġetap":11766,"ĠyÃ¼klen":11767,"ĠyÃ¼zÃ¼ne":11768,"ĠaÃ§Ä±klamalar":11769,"Ġhepimizin":11770,"ĠDuvar":11771,"CA":11772,"ĠFatma":11773,"Ġatarak":11774,"Ġmasal":11775,"LAÅŀ":11776,"Ġmerakla":11777,"Ġneyse":11778,"ĠDÃĸN":11779,"ĠSanatlar":11780,"Ġelden":11781,"ĠyazÄ±lan":11782,"ĠnamazÄ±":11783,"Ġfiltr":11784,"ĠGelir":11785,"Ġsir":11786,"Ġsesli":11787,"ekke":11788,"Ġresimler":11789,"Ġpast":11790,"ĠMÃ¼st":11791,"kurmay":11792,"Ġkurtulmak":11793,"ĠyÄ±ldÃ¶n":11794,"Ġetmesini":11795,"Ġmevki":11796,"iliÄŁin":11797,"KÄ°N":11798,"ĠBaÅŁakÅŁehir":11799,"ĠÃľnal":11800,"baÄŁ":11801,"Ġstaj":11802,"Ġmobilya":11803,"ĠÃ§alÄ±ÅŁmalarÄ±nÄ±n":11804,"ADA":11805,"ĠÃ§il":11806,"Ġetmeleri":11807,"ĠÅŁÃ¼kÃ¼r":11808,"Bab":11809,"ĠarkadaÅŁlarÄ±m":11810,"ĠRaporu":11811,"Ġoynat":11812,"imiyet":11813,"ĠFinal":11814,"edat":11815,"ĠKO":11816,"tle":11817,"ĠMini":11818,"ININ":11819,"Ġmuhabbet":11820,"ĠEkip":11821,"Ġtaht":11822,"ĠBirleÅŁmiÅŁ":11823,"ĠMAK":11824,"Ġharicinde":11825,"Ġasans":11826,"leks":11827,"Ġtakdim":11828,"Ġmg":11829,"ĠBence":11830,"ĠKonular":11831,"ĠsÃ¶ylediÄŁi":11832,"ĠRah":11833,"ĠKans":11834,"Ġ72":11835,"ĠyapalÄ±m":11836,"ĠMAL":11837,"eck":11838,"ĠKK":11839,"ĠDemirel":11840,"baba":11841,"ling":11842,"ĠBan":11843,"Ġkalmaz":11844,"Ġsenaryo":11845,"Ġgirerek":11846,"ĠKategor":11847,"ĠmantÄ±klÄ±":11848,"ĠgelmiÅŁti":11849,"Ġ69":11850,"EG":11851,"ĠmÃ¼ziÄŁi":11852,"Ġetkisiz":11853,"PSS":11854,"ahan":11855,"ĠkorkunÃ§":11856,"ĠÄ°f":11857,"veni":11858,"ĠaÃ§Ä±klamasÄ±nda":11859,"ĠsayÄ±lÄ±r":11860,"Ġperiy":11861,"Ġyerin":11862,"Â®":11863,"fÃ¼m":11864,"ĠbÄ±rakmak":11865,"ĠÅŀampiyonlar":11866,"ipto":11867,"ĠsÃ¶k":11868,"Ġmuz":11869,"yazÄ±lÄ±":11870,"acivert":11871,"ĠBrezilya":11872,"iÄŁit":11873,"Erz":11874,"by":11875,"ĠtÃ¼p":11876,"Ġkanaat":11877,"Ġfazlad":11878,"Ġkesintisiz":11879,"Ġoldular":11880,"ĠÅŁarap":11881,"ĠVide":11882,"iP":11883,"TÃ¼rkÃ§e":11884,"ĠArapÃ§a":11885,"Ġziyareti":11886,"Ġ::":11887,"ĠartmasÄ±":11888,"Ġderler":11889,"Ġburadaki":11890,"ĠKiralama":11891,"ĠÃ¼yelerinin":11892,"viv":11893,"Ġdeyip":11894,"Le":11895,"Gaziantep":11896,"ĠolursanÄ±z":11897,"ĠburasÄ±":11898,"ĠkullanÄ±ldÄ±ÄŁÄ±":11899,"ĠbaÅŁlayÄ±p":11900,"ĠYollarÄ±":11901,"Ġmenf":11902,"AMA":11903,"ĠdeÄŁilse":11904,"ĠYem":11905,"ĠÅŀÃ¼k":11906,"ĠZeynep":11907,"ĠKomutanlÄ±ÄŁÄ±":11908,"ĠBirbir":11909,"Halk":11910,"Ġmerham":11911,"ĠKonferans":11912,"Ġbeyler":11913,"arda":11914,"Ġ1980":11915,"ĠgeÃ§mesi":11916,"Ġizleyic":11917,"ĠgeÃ§irildi":11918,"ĠSatÄ±lÄ±k":11919,"Mersin":11920,"CEL":11921,"Yol":11922,"Ġhassasiyet":11923,"Ġduyan":11924,"Ġaramak":11925,"Ġnaz":11926,"way":11927,"ĠgittiÄŁi":11928,"edin":11929,"ĠrÃ¼ya":11930,"ĠOlsun":11931,"ĠkurallarÄ±":11932,"Ġaynen":11933,"adÃ¼f":11934,"amÄ±zdan":11935,"umartesi":11936,"operatif":11937,"Ġversin":11938,"ĠNok":11939,"ĠVergi":11940,"ĠgÃ¶rÃ¼yorum":11941,"ree":11942,"ĠAlex":11943,"Ġbran":11944,"ĠBaÄŁÄ±m":11945,"ĠUYG":11946,"ĠanÄ±m":11947,"ĠÃ¶ncelikli":11948,"cam":11949,"ĠShow":11950,"Ġinternette":11951,"ĠgÃ¶rmez":11952,"ĠHoÅŁ":11953,"teriler":11954,"Ġkatil":11955,"Ġmetrekar":11956,",...":11957,"esÃ¶r":11958,"lerinizin":11959,"ĠSatÄ±n":11960,"ĠBunlarÄ±":11961,"TUR":11962,"ĠbarÄ±ndÄ±ran":11963,"ĠKomutanÄ±":11964,"ĠDER":11965,"zel":11966,"ĠÃ¶zelliÄŁini":11967,"Ġdergi":11968,"Ġannem":11969,"Ġbelgeleri":11970,"ĠbaktÄ±ÄŁÄ±mÄ±zda":11971,");":11972,"Ġfed":11973,"Ġtarafa":11974,"Ġkonul":11975,"ĠÃ§Ä±rp":11976,"GÃ¼ven":11977,"Ġcerrahi":11978,"ĠSelÃ§uklu":11979,"Ġceb":11980,"ĠÃľskÃ¼dar":11981,"ĠaÃ§Ä±lmasÄ±":11982,"ĠhÃ¢l":11983,"ĠbÃ¶lgelerde":11984,"Ġhayv":11985,"BÄ°T":11986,"Hav":11987,"Ġunutul":11988,"Ġyavru":11989,"old":11990,"ĠuzaklaÅŁtÄ±r":11991,"Ġdersiniz":11992,"Ġhastalar":11993,"nes":11994,"ĠaktÃ¶r":11995,"emektedir":11996,"ografi":11997,"ĠPuan":11998,"Ġkarakteri":11999,"AKP":12000,"OKÄ°":12001,"Ġifadesi":12002,"ĠolduÄŁumu":12003,"ĠÃ§ikolata":12004,"Ġenerjisi":12005,"Sat":12006,"Ġ900":12007,"Ġboyunda":12008,"Ġseviyesinde":12009,"ĠsorumluluÄŁ":12010,"Ġkuran":12011,"irse":12012,"sÃ¶z":12013,"VEN":12014,"antin":12015,"Ġmaddeleri":12016,"ĠSep":12017,"ĠMur":12018,"ĠkaÃ§Ä±nÄ±lmaz":12019,"Ġkayd":12020,"ĠpÃ¼r":12021,"Ġsevgiler":12022,"ĠkÄ±zÄ±n":12023,"ĠyÃ¼kseliÅŁ":12024,"ĠSivil":12025,"Ġseviyesine":12026,"Ġileride":12027,"ĠKatÄ±lÄ±m":12028,"oga":12029,"ĠhastanÄ±n":12030,"ĠSerdar":12031,"Ġyemekleri":12032,"Ġsenary":12033,"bÃ¼r":12034,"Ġserin":12035,"aktif":12036,"langÄ±Ã§":12037,"ĠÃľye":12038,"Ġmahal":12039,"ĠDÃ¼zce":12040,"Ġtahsil":12041,"ĠcÃ¼z":12042,"ĠkurulmasÄ±":12043,"ĠÅŁuan":12044,"ĠArch":12045,"Ġajans":12046,"400":12047,"Mic":12048,"ĠarÄ±z":12049,"DOÄŀ":12050,"klar":12051,"esten":12052,"Ġrakib":12053,"ĠSEV":12054,"Ġ(%":12055,"Ġkonumunda":12056,"ĠyazÄ±da":12057,"Ä±tma":12058,"ĠNote":12059,"unt":12060,"Ġmuhtemel":12061,"Ġkilis":12062,"DIN":12063,"Ġhev":12064,"Ġlitre":12065,"...\"":12066,"ĠVit":12067,"Ġnazar":12068,"ĠbaÅŁlayarak":12069,"istir":12070,"Ġyetmez":12071,"ĠduyarlÄ±":12072,"ĠAkÅŁ":12073,"Ġmerkezleri":12074,"Kr":12075,"ĠdemiÅŁti":12076,"ĠduÅŁ":12077,"ĠWi":12078,"Ã¼leb":12079,"ĠÅŀam":12080,"Ġbaraj":12081,"ĠPutin":12082,"ÃĩEK":12083,"ĠiÅŁlen":12084,"ladÄ±klarÄ±":12085,"Ġcehenn":12086,"Ġmuhalif":12087,"Ġuygulay":12088,"ony":12089,"ĠfarkÄ±ndalÄ±k":12090,"ĠÃľRÃľN":12091,"yor":12092,"Kaz":12093,"mayla":12094,"lÄ±ÄŁÄ±mÄ±z":12095,"ĠÃĸte":12096,"Per":12097,"Ã¢z":12098,"ĠRef":12099,"Ġoksi":12100,"ĠyardÄ±mcÄ±sÄ±":12101,"afak":12102,"obile":12103,"iret":12104,"Ġedemez":12105,"Ġdostluk":12106,"Ġsevimli":12107,"ĠEdin":12108,"ĠKiralÄ±k":12109,"2007":12110,"300":12111,"ĠGeÃ§tiÄŁimiz":12112,"ĠAdasÄ±":12113,"Ġstad":12114,"ĠgÃ¶stergesi":12115,"Ġnice":12116,"ĠBÃľYÃľK":12117,"yem":12118,"Ġgrubun":12119,"GÃľN":12120,"VA":12121,"ĠyÃ¼zyÄ±lda":12122,"ĠgÃ¶receksiniz":12123,"ĠdediÄŁimiz":12124,"ĠZirvesi":12125,"Ġkentin":12126,"Ġoynam":12127,"AydÄ±n":12128,"ĠOrganize":12129,"ĠProfesyonel":12130,"ĠbildiÄŁi":12131,"ĠEsen":12132,"ĠÃ¶ÄŁretmenler":12133,"ĠBizler":12134,"Ġpasaport":12135,"Ãľst":12136,"ĠdeÄŁiliz":12137,"temiz":12138,"ĠYahudi":12139,"Ġkenara":12140,"ĠBaÅŁsav":12141,"Ġ78":12142,"ĠbabasÄ±nÄ±n":12143,"ĠBÄ°LG":12144,"Ġtabir":12145,"tv":12146,"ĠGre":12147,"Ġnitelendir":12148,"ĠiÄŁ":12149,"ĠihtiyacÄ±mÄ±z":12150,"mÃ®":12151,"ĠhazÄ±rlamak":12152,"Ġdayanan":12153,"ÃľnlÃ¼":12154,"ĠBoyut":12155,"ĠÃ§amaÅŁÄ±r":12156,"ĠkonuÅŁmasÄ±nda":12157,"Ġifadesini":12158,"malarÄ±nÄ±n":12159,"ĠTARÄ°H":12160,"Ġgor":12161,"ĠbaÄŁlÄ±dÄ±r":12162,"ĠhesabÄ±ndan":12163,"ĠÃ§Ä±ÄŁ":12164,"ĠyanÄ±l":12165,"ĠsÃ¼recini":12166,"ĠSuper":12167,"sinden":12168,"ĠbaÅŁkanlÄ±k":12169,"ĠeksikliÄŁi":12170,"Ġpiyasada":12171,"Ġevli":12172,"ĠonarÄ±m":12173,"Ġemperyal":12174,"ĠÄ°ktis":12175,"Ġyeme":12176,"Sah":12177,"ima":12178,"Ġakrab":12179,"ĠTurkcell":12180,"ĠÃ¶ÄŁrencinin":12181,"Ġverilerine":12182,"abilirsin":12183,"Sonra":12184,"ung":12185,"ĠDÃ¶rt":12186,"ĠyaptÄ±ktan":12187,"Ġfelaket":12188,"ĠÄ°Ã§iÅŁleri":12189,"Ġkib":12190,"OBÄ°":12191,"ĠFay":12192,"orex":12193,"ĠBilin":12194,"ĠgÃ¼Ã§leri":12195,"ĠgerÃ§ekleÅŁtirmek":12196,"ĠdakikalÄ±k":12197,"ĠSÃ¼rekli":12198,"Ġyaban":12199,"Ġkurdu":12200,"AltÄ±n":12201,"ĠÄ°skender":12202,"ĠEser":12203,"ĠGem":12204,"Ġindirimli":12205,"YE":12206,"Ġilde":12207,"ĠKapÄ±":12208,"Ġzihn":12209,"ĠBeden":12210,"Size":12211,"ĠayÄ±n":12212,"diÄŁin":12213,"ĠartÄ±ÅŁÄ±":12214,"Ä±ysa":12215,"ĠamaÃ§la":12216,"Ġkapital":12217,"ĠilanÄ±":12218,"ĠÃ§Ä±lgÄ±n":12219,"Ġikiye":12220,"Ġfull":12221,"Ġsalonunda":12222,"ĠPir":12223,"ward":12224,"ĠatÄ±n":12225,"tÃ¼ÄŁ":12226,"KUR":12227,"ELERÄ°":12228,"Ġbilinmektedir":12229,"Ġarazi":12230,"Ġbireyler":12231,"ĠbaÄŁlantÄ±sÄ±":12232,"ĠiyileÅŁ":12233,"ĠTedavi":12234,"GÃ¶k":12235,"Ġbiten":12236,"avul":12237,"Ġmeme":12238,"Amerik":12239,"Ġmuayene":12240,"ĠKurtuluÅŁ":12241,"oksi":12242,"MÃ¼z":12243,"Ġartar":12244,"aciÄŁer":12245,"ĠES":12246,"Ġhel":12247,"ĠGÃ¶lÃ¼":12248,"ĠolabileceÄŁi":12249,"Ġkeyfi":12250,"ĠKlima":12251,"ĠolanlarÄ±":12252,"izin":12253,"ĠadaylarÄ±":12254,"oterapi":12255,"abb":12256,"atay":12257,"ĠBisiklet":12258,"ĠtabanlÄ±":12259,"Ġversiyonu":12260,"ĠOLDU":12261,"ĠDAH":12262,"Ġfakir":12263,"ĠGAZ":12264,"Ġva":12265,"hy":12266,"Ġilgisini":12267,"Ä°STEM":12268,"ĠKafkas":12269,"ĠSekreter":12270,"ĠatÄ±l":12271,"Åŀirket":12272,"ĠtÃ¼rkÃ§e":12273,"Ġdonan":12274,"ĠGeniÅŁ":12275,"ĠYAPIL":12276,"GÃ¼nÃ¼mÃ¼zde":12277,"ĠLG":12278,"BÄ°R":12279,"ĠdevamlÄ±":12280,"Ġadaylar":12281,"ĠBinali":12282,"62":12283,"NasÄ±l":12284,"eteriner":12285,"ĠEvren":12286,"YK":12287,"Ġmesl":12288,"ĠDavutoÄŁlu":12289,"Ġediyordu":12290,"Ġmilliyet":12291,"ĠsÃ¶zlÃ¼k":12292,"ĠkÄ±n":12293,"Ġdenli":12294,"akistan":12295,"ĠgerÃ§ekleÅŁtiren":12296,"Ġaralar":12297,"ĠkaygÄ±":12298,"ĠKursu":12299,"ĠedeceÄŁini":12300,"ĠÃ¶rgÃ¼":12301,"ĠBizi":12302,"ĠdÃ¶nÃ¼p":12303,"otu":12304,"ĠÃ§arpÄ±cÄ±":12305,"ĠtutuklandÄ±":12306,"yken":12307,"kisi":12308,"ĠAdem":12309,"ĠgeÃ§miÅŁte":12310,"ĠsÄ±fat":12311,"ĠalbÃ¼mÃ¼":12312,"ĠPaul":12313,"pagan":12314,"ĠMERKEZÄ°":12315,"ĠHakkÄ±":12316,"karahisar":12317,"ĠÃ¶zelliklere":12318,"Ner":12319,"Ġuf":12320,"Ġtopluma":12321,"Ġeklendi":12322,"eve":12323,"arm":12324,"ĠfakÃ¼lt":12325,"ĠGÃ¼ler":12326,"ĠmeÅŁgul":12327,"ĠkatÄ±lacak":12328,"eksi":12329,"ĠgÃ¶nl":12330,"Ġhayati":12331,"Ġoynanacak":12332,"ĠALT":12333,"ĠgÃ¶rmeye":12334,"ĠiÅŁine":12335,"Ġatlat":12336,"Ġyon":12337,"ĠOlur":12338,"ĠEvde":12339,"ĠgÃ¶rÃ¼ÅŁmek":12340,"ĠkÄ±t":12341,"ĠIM":12342,"ĠyÄ±kama":12343,"ĠBÃ¼y":12344,"ovasyon":12345,"ty":12346,"taraf":12347,"ĠÃ¶tesinde":12348,"Ġmusun":12349,"eÄŁen":12350,"Ġmantar":12351,"Ġkonunun":12352,"Åŀeh":12353,"uj":12354,"ĠHekim":12355,"ĠZonguldak":12356,"ĠsÃ¼nnet":12357,"ĠPortekiz":12358,"Ã§iliÄŁi":12359,"eÄŁli":12360,"LAMA":12361,"ayÄ±z":12362,"ĠYukarÄ±":12363,"ĠseÃ§ildi":12364,"Ġkaynaklanan":12365,"ĠTrak":12366,"ĠRehber":12367,"Ġilke":12368,"Ġ63":12369,"NÄ°N":12370,"eleme":12371,"Ġkablosuz":12372,"iha":12373,"Ġnakit":12374,"ĠyazÄ±mÄ±zda":12375,"ĠRestor":12376,"ĠÅŀehircilik":12377,"Ġpap":12378,"ĠbahÃ§e":12379,"Ġhek":12380,"Ġgenetik":12381,"Ġmasum":12382,"ĠÃ§ekt":12383,"Ä±plak":12384,"Ġ112":12385,"ileriyle":12386,"Ġzihinsel":12387,"ĠyapÄ±larak":12388,"Yok":12389,"Ġsaatler":12390,"ciÄŁer":12391,"graf":12392,"eller":12393,"Ġpartisi":12394,"Ġbabam":12395,"danÄ±n":12396,"Ġvermeyi":12397,"ĠbaÄŁlantÄ±lÄ±":12398,"ila":12399,"tiy":12400,"king":12401,"ĠBelÃ§ika":12402,"CD":12403,"ĠKapalÄ±":12404,"mod":12405,"Ġkitapta":12406,"osman":12407,"ĠÄ±sÄ±n":12408,"ĠTasarÄ±mÄ±":12409,"Ġpembe":12410,"ĠgÃ¶rdÃ¼ÄŁÃ¼nÃ¼z":12411,"Ġromantik":12412,"Ġkimdir":12413,"ĠEriÅŁim":12414,"Ġkeskin":12415,"Ã¼sÃ¼nde":12416,"ĠSevgil":12417,"ĠgeÃ§in":12418,"acÄ±lÄ±ÄŁÄ±":12419,"ĠÃ§ekerek":12420,"Ġmeselesi":12421,"Ġaskerlik":12422,"Ġfilminin":12423,"Ġsunuluyor":12424,"ĠGro":12425,"uvarÄ±":12426,"ĠYapÄ±m":12427,"Ġsenden":12428,"Ġdurumdan":12429,"ĠalmanÄ±z":12430,"ĠkÄ±lÄ±":12431,"df":12432,"Ġyorumu":12433,"Ġbeyn":12434,"Ġtansiyon":12435,"Zaman":12436,"ĠendiÅŁe":12437,"acaÄŁÄ±ndan":12438,"ĠhaklarÄ±nÄ±":12439,"ĠÃĩorum":12440,"usuyla":12441,"ĠsÄ±kÄ±l":12442,"ĠkÃ¶ÅŁe":12443,"my":12444,"ĠHikmet":12445,"eksika":12446,"ĠÄ°ster":12447,"Ġseviyeye":12448,"ĠSana":12449,"ĠhÃ¢kim":12450,"Ġkocaman":12451,"ĠErtuÄŁrul":12452,"mart":12453,"Ġperakende":12454,"ĠtadÄ±":12455,"pazarÄ±":12456,"tÄ±kÃ§a":12457,"iÅŁimi":12458,"BalÄ±k":12459,"ĠkullanÄ±cÄ±lara":12460,"ĠsÄ±navÄ±":12461,"ĠEngelliler":12462,"cik":12463,"ĠtaÅŁÄ±r":12464,"Ã¼kemmel":12465,"Ġkatliam":12466,"ladÄ±ÄŁÄ±m":12467,"ĠtecavÃ¼z":12468,"ĠmÃ¼te":12469,"ĠsatÄ±lÄ±k":12470,"taurant":12471,"ĠdÃ¼nyasÄ±na":12472,"ĠdÃ¼ÅŁÃ¼yor":12473,"landÄ±rma":12474,"larÄ±nÄ±zla":12475,"Ġ720":12476,"ĠKlasik":12477,"Ġsitesine":12478,"ĠbinasÄ±":12479,"ĠaÃ§ma":12480,"ĠTekirdaÄŁ":12481,"Ġfas":12482,"Ġfilan":12483,"ĠÃ¶ÄŁrendik":12484,"ĠoyuncularÄ±":12485,"ĠGenellikle":12486,"ĠÃĩocuÄŁ":12487,"ĠÅŁeytan":12488,"ĠgÃ¶rÃ¼ntÃ¼leri":12489,"ĠUZ":12490,"lass":12491,"Ġistediklerini":12492,"ĠarayÃ¼z":12493,"Ġsep":12494,"arlÄ±":12495,"ĠarasÄ±ndadÄ±r":12496,"Ġdizayn":12497,"ĠÃĩavuÅŁoÄŁlu":12498,"Ġfaaliyetlerini":12499,"Ä±yer":12500,"ĠStandart":12501,"ĠcoÄŁrafy":12502,"ĠsayfasÄ±":12503,"ĠyaptÄ±lar":12504,"ĠsorunlarÄ±nÄ±":12505,"Ġeserler":12506,"asal":12507,"ĠiÃ§erisindeki":12508,"yani":12509,"deren":12510,"Ġtrav":12511,"ĠiÅŁlerini":12512,"onlar":12513,"Ġsezonunda":12514,"ĠBeykoz":12515,"dirme":12516,"Ġkazanma":12517,"ĠfigÃ¼r":12518,"Ġserv":12519,"ĠsÃ¶yleyerek":12520,"ĠDu":12521,"ĠWe":12522,"ĠUzay":12523,"Ġsaray":12524,"Ġbekler":12525,"Ġsiteler":12526,"MÃ¼ÅŁ":12527,"ĠkÄ±ymetli":12528,"Ġkadrosu":12529,"Ġbayanlar":12530,"ĠÃ§alÄ±ÅŁmaktadÄ±r":12531,"ansa":12532,"ĠOfis":12533,"ĠSigort":12534,"artÄ±n":12535,"ĠAdÄ±m":12536,"Ġlezz":12537,"Ġpomp":12538,"Ãĩanakkale":12539,"ĠSayÄ±sÄ±":12540,"au":12541,"Ġkoymak":12542,"ĠYÃ¼zyÄ±l":12543,"Anne":12544,"ĠfarkÄ±na":12545,"Ġeli":12546,"ozgat":12547,"Kategori":12548,"Ġtuhaf":12549,"rÃ¼":12550,"malarda":12551,"Ġtamamlayan":12552,"Ġkala":12553,"aff":12554,"ĠÃ§Ä±karan":12555,"ĠpÄ±r":12556,"ĠZeki":12557,"GÃ¼neÅŁ":12558,"pik":12559,"Ġdestekleyen":12560,"ĠNas":12561,"ĠUsta":12562,"Ġtazminat":12563,"YapÄ±lan":12564,"ĠtamamÄ±nÄ±":12565,"YaklaÅŁÄ±k":12566,"Ġsezonun":12567,"iba":12568,"ĠÃ§alÄ±ÅŁtÄ±m":12569,"ĠYarÄ±m":12570,"Ġ110":12571,"Ġprogramda":12572,"Ġvadede":12573,"ĠÃ§Ä±kmaya":12574,"Ġgetirilmesi":12575,"takÄ±m":12576,"ĠfÃ¼z":12577,"Ġekm":12578,"ĠmÃ¼ÅŁterilerimizin":12579,"Ġhele":12580,"ĠpolitikasÄ±":12581,"ĠMenderes":12582,"ĠPR":12583,"ĠsaÃ§ma":12584,"Ġeskiden":12585,"ĠÃ§Ä±kmÄ±ÅŁtÄ±r":12586,"ĠKoleji":12587,"ĠSof":12588,"Ġreform":12589,"ĠalacaÄŁÄ±":12590,"gelen":12591,"ĠÅŁekeri":12592,"ool":12593,"Ġvermekteyiz":12594,"ĠAnabilim":12595,"ĠasansÃ¶r":12596,"Ġanimasyon":12597,"Ġborc":12598,"KA":12599,"ettÃ¼r":12600,"Ġpres":12601,"Ġhoca":12602,"Ġgerilim":12603,"eria":12604,"ranÃ§":12605,"abilitasyon":12606,"Ġvarsay":12607,"Ġetmey":12608,"Ġkaplama":12609,"Ġlif":12610,"Ġefsane":12611,"aristan":12612,"ĠyÃ¼zÃ¼nÃ¼":12613,"Ġyazmaya":12614,"ĠtÃ¼ken":12615,"ĠyaÅŁÄ±ndan":12616,"ĠBursaspor":12617,"ĠSonuÃ§larÄ±":12618,"ĠtaahhÃ¼t":12619,"Ġtekstil":12620,"ĠalÄ±ndÄ±ÄŁÄ±":12621,"Ġkendiniz":12622,"ĠYazÄ±cÄ±":12623,"Ġyetki":12624,"ALARI":12625,"Ġaradan":12626,"anz":12627,"ĠdÃ¼ÅŁÃ¼ndÃ¼m":12628,"LAK":12629,"Ġokumaya":12630,"Ġferah":12631,"Ġarayarak":12632,"cilerin":12633,"TS":12634,"Ġizleyebilirsiniz":12635,"ĠAdÄ±yaman":12636,"ĠbÃ¶brek":12637,"ĠbaÅŁlamadan":12638,"DÃ¼ÅŁ":12639,"ĠAdayÄ±":12640,"Ġveriyorum":12641,"ĠSÄ°STEM":12642,"ĠyÃ¼zlÃ¼":12643,"ĠdÃ¼zeni":12644,"Ġbirebir":12645,"ĠadÄ±nda":12646,"Ġharam":12647,"ĠodalarÄ±":12648,"Yen":12649,"ĠkÃ¶yÃ¼":12650,"ĠEngin":12651,"ws":12652,"ĠWashington":12653,"Ġgelmeye":12654,"ĠsÄ±nÄ±rÄ±":12655,"Fatih":12656,"ĠDavid":12657,"ĠgÃ¶revlisi":12658,"ĠdeÄŁerlendirmeler":12659,"ĠMemur":12660,"ĠSiyaset":12661,"ĠYÃ¼ce":12662,"ĠDeÄŁil":12663,"falt":12664,"keme":12665,"Ġgev":12666,"ĠÅŀeyh":12667,"Ġtarihsel":12668,"Ġadli":12669,"ĠVakÄ±f":12670,"Ġvas":12671,"ĠvÃ¼cudun":12672,"pol":12673,"ĠzamanÄ±n":12674,"iliÄŁe":12675,"Ġyerlerden":12676,"Ä±ysanÄ±z":12677,"ĠOtur":12678,"Ã¼lerek":12679,"Ġhareketleri":12680,"Ġvurdu":12681,"Ġpartner":12682,"ĠÅŁarkÄ±cÄ±":12683,"Belediye":12684,"sah":12685,"ĠkÃ¶klÃ¼":12686,"ĠpuanÄ±":12687,"ela":12688,"ĠnoktalarÄ±":12689,"ĠdoÄŁalgaz":12690,"ĠgereÄŁ":12691,"hum":12692,"ĠKomitesi":12693,"ĠmenÃ¼":12694,"ĠÄ°smet":12695,"ĠHAL":12696,"ĠyapÄ±yorlar":12697,"ĠsÃ¼rer":12698,"ĠEvleri":12699,"ĠgÃ¼nlerinde":12700,"ĠÃ¶neriler":12701,"IF":12702,"ĠgÃ¼nÃ¼ne":12703,"ĠGR":12704,"ĠdolandÄ±r":12705,"Ã¼phe":12706,"Ġklav":12707,"dÄ±ran":12708,"ĠÃ§iÃ§":12709,"ĠkazÄ±":12710,"icil":12711,"ĠÃ§ocuÄŁa":12712,"ĠBizans":12713,"ĠaÃ§Ä±ÄŁa":12714,"ĠFiyatÄ±":12715,"iliÄŁinden":12716,"ĠANKARA":12717,"Ġdiyalog":12718,"Ġefend":12719,"vil":12720,"Merhabalar":12721,"ĠkadarÄ±yla":12722,"lec":12723,"ĠSy":12724,"Ġkast":12725,"ĠyaptÄ±rÄ±m":12726,"ĠgÃ¶rdÃ¼ÄŁÃ¼m":12727,"ĠAtak":12728,"ĠbaÄŁlamda":12729,"Say":12730,"ĠkeÅŁif":12731,"Ġetmenin":12732,"Med":12733,"ĠÃĸnder":12734,"Ġaya":12735,"ĠdÃ¼ÅŁÃ¼nmek":12736,"ĠmÃ¼racaat":12737,"siyum":12738,"ida":12739,"ĠÃĸner":12740,"ĠSky":12741,"Ġpasta":12742,"ĠkonuÅŁmak":12743,"Ã»lullah":12744,"ĠdÄ±ÅŁarÄ±dan":12745,"GRAM":12746,"ĠsÃ¶ylediÄŁ":12747,"ĠMakinesi":12748,"rap":12749,"Ġkurma":12750,"ĠsahasÄ±nda":12751,"liliÄŁini":12752,"ĠTen":12753,"ĠyaÅŁandÄ±ÄŁÄ±":12754,"ĠiÃ§me":12755,"ĠsÃ¶yleyebiliriz":12756,"ĠdeÄŁiÅŁken":12757,"ĠyÃ¼ce":12758,"Ġmuam":12759,"Ġmesai":12760,"Ġje":12761,"alisyon":12762,"ĠSte":12763,"ĠÃĸzkan":12764,"eyz":12765,"ĠkÃ¶tÃ¼lÃ¼k":12766,"ĠYÃľK":12767,"osa":12768,"ĠdeÄŁerini":12769,"Ġhelal":12770,"ĠÄ±ÅŁÄ±n":12771,"Ġneyi":12772,"unuzda":12773,"ĠFas":12774,"ĠardÄ±":12775,"ĠÃĩankaya":12776,"ĠStore":12777,"2006":12778,"miÅŁtim":12779,"LEK":12780,"Ġzan":12781,"Ġbakarak":12782,"ĠgeÃ§irilen":12783,"aÃ§Ä±k":12784,"mran":12785,"ĠatÄ±ÅŁ":12786,"ĠAhmed":12787,"Ġmuhabir":12788,"ĠalÄ±nmÄ±ÅŁtÄ±r":12789,"âĨ":12790,"ĠDonald":12791,"ĠbaÅŁlÄ±":12792,"acag":12793,"ĠBakanlar":12794,"ĠSigorta":12795,"Fark":12796,"ĠkÄ±lan":12797,"Ã¼tÃ¼phane":12798,"ĠVadisi":12799,"mÄ±ÅŁtÄ±m":12800,"Ġortal":12801,"ĠparÃ§alar":12802,"ĠgÃ¼mrÃ¼k":12803,"ĠOlimpiyat":12804,"Ġbirikim":12805,"erkan":12806,"Kocaeli":12807,"ruklu":12808,"Ùİ":12809,"Ġetkisiyle":12810,"ĠTerim":12811,"ĠSerbest":12812,"Ġtahliye":12813,"Ġlistesinde":12814,"ahit":12815,"eliler":12816,"Ġseviye":12817,"Ġcuma":12818,"Ġ1998":12819,"ĠsÃ¶yledik":12820,"Ġ130":12821,"leÄŁi":12822,"ĠDigit":12823,"EDEN":12824,"ader":12825,"ĠYatak":12826,"larÄ±dÄ±r":12827,"aÅŁehir":12828,"ory":12829,"ÃľS":12830,"ĠÄ°laÃ§":12831,"ĠDÃ¼nyada":12832,"ĠdilediÄŁiniz":12833,"DiyarbakÄ±r":12834,"Ġhayvanlar":12835,"Sanat":12836,"ĠÃ§ektiÄŁi":12837,"Ġatar":12838,"tes":12839,"Buna":12840,"ĠHepsi":12841,"dÃ¼zÃ¼":12842,"lig":12843,"Ġakademisyen":12844,"ĠBaÅŁarÄ±":12845,"ĠRÄ±za":12846,"ĠDom":12847,"Ġtedavisinde":12848,"ingÃ¶l":12849,"Ġfilminde":12850,"ĠSad":12851,"Ġyeterlidir":12852,"ĠtÄ±kan":12853,"ĠGenÃ§ler":12854,"kah":12855,"ĠYeri":12856,"ĠÃ§alÄ±ÅŁacak":12857,"deler":12858,"ĠkÄ±lÄ±n":12859,"ĠgÃ¶nderdi":12860,"win":12861,"ja":12862,"Ġbeklemek":12863,"don":12864,"ĠÃ§alÄ±ÅŁanlar":12865,"Din":12866,"Ġbelirtiliyor":12867,"Ġkaydedildi":12868,"Ġinanan":12869,"celona":12870,"Ef":12871,"ĠtanrÄ±":12872,"BÄ°TAK":12873,"ĠÃ¼retici":12874,"Ġruhsal":12875,"Ġkorkut":12876,"ĠSPOR":12877,"imiÃ§i":12878,"Ġdokuz":12879,"ĠyÄ±lÄ±nÄ±":12880,"ĠkullanÄ±lacak":12881,"ĠkÃ¼t":12882,"ĠÄ°mparatorluÄŁu":12883,"Ġalerj":12884,"ĠÅŀirketi":12885,"mayacaktÄ±r":12886,"Ġdefalarca":12887,"Ġbitkisel":12888,"ĠAÄŁrÄ±":12889,"Ã¼yÃ¼ÅŁ":12890,"imizdeki":12891,"Ġsizce":12892,"Ġduyul":12893,"Ġpantolon":12894,"ĠÅŀar":12895,"ĠSony":12896,"Ġsorusu":12897,"Ġanlatmaya":12898,"post":12899,"arlÄ±k":12900,"ĠanlÄ±k":12901,"ĠÅŁimdilik":12902,"Ġambulans":12903,"ðŁĳ":12904,"Bun":12905,"ĠGiyim":12906,"SonuÃ§":12907,"larsa":12908,"dÃ¼ÄŁÃ¼nde":12909,"Ã¶rek":12910,"ĠÃ¶zlem":12911,"ĠLok":12912,"Mark":12913,"daa":12914,"Ġturistik":12915,"ĠÃ¼lkemize":12916,"ĠMagazin":12917,"Ġetmeyen":12918,"alÄ±n":12919,"ĠOrtaokulu":12920,"ĠElif":12921,"ĠkÄ±zlar":12922,"2000":12923,"ĠON":12924,"Ġkendinden":12925,"ĠMekt":12926,"ĠiÅŁley":12927,"Ġminimum":12928,"Ġoturup":12929,"Ġgemisi":12930,"Ġvaat":12931,"ĠgÃ¶stererek":12932,"SÃ¼per":12933,"ĠÄ°H":12934,"ĠdavasÄ±":12935,"ĠmÃ¼dÃ¼rÃ¼":12936,"ĠkapÄ±sÄ±":12937,"ĠÃ§ektir":12938,"Ġkalori":12939,"ĠSempoz":12940,"biye":12941,"ĠKonferansÄ±":12942,"Ã§ekmece":12943,"ĠÃ§alÄ±ÅŁÄ±n":12944,"Ġ360":12945,"ilmeli":12946,"ĠkanÄ±":12947,"ĠyaÅŁadÄ±ÄŁÄ±mÄ±z":12948,"ĠbaskÄ±n":12949,"ĠTeÅŁekkÃ¼rler":12950,"ĠKurs":12951,"Ġbulam":12952,"GÃ¼ney":12953,"ĠdeÄŁiÅŁti":12954,"Ġvan":12955,"istiyan":12956,"Ġsundu":12957,"ĠÅŀÄ°RK":12958,"kurt":12959,"Dik":12960,"Ġaldat":12961,"ĠÅŁen":12962,"ĠÃ§Ã¶zÃ¼mleri":12963,"ĠTAN":12964,"amazsÄ±nÄ±z":12965,"ĠAlanÄ±":12966,"Kurum":12967,"ĠuygulanmasÄ±":12968,"Ġkare":12969,"ĠTurnuv":12970,"ĠeÄŁitimini":12971,"Ġdub":12972,"Ġevrensel":12973,"TeÅŁekkÃ¼r":12974,"ĠÂ·":12975,"Ġsesini":12976,"ĠÅŁekillendir":12977,"ĠMÃ¼s":12978,"ĠrolÃ¼":12979,"Ġgaliba":12980,"Ġ350":12981,"Ġmevzuat":12982,"GerÃ§ek":12983,"ĠkadÄ±nlarÄ±":12984,"ĠFestival":12985,"ĠfiyatlÄ±":12986,"ĠihtiyacÄ±nÄ±":12987,"ĠYÃ¼cel":12988,"Ġkonumu":12989,"abol":12990,"Ġmiting":12991,"ĠnoktasÄ±na":12992,"Ġant":12993,"ĠWord":12994,"Ġanalizi":12995,"idir":12996,"ĠDAÄ°RE":12997,"Ġyemekler":12998,"ĠÄ°Ã§er":12999,"ĠbaÅŁÄ±nÄ±":13000,"ĠaÃ§Ä±sÄ±":13001,"ĠbÃ¶lgesine":13002,"incisi":13003,"ĠdÃ¼ÅŁÃ¼nerek":13004,"ĠÃ§oÄŁunluÄŁu":13005,"Ġtelefonla":13006,"EDÄ°":13007,"ĠyapÄ±ÅŁtÄ±r":13008,"89":13009,"ĠalÄ±yoruz":13010,"ĠÅŀimÅŁek":13011,"Ġindirmek":13012,"Ġaileler":13013,"Ġetek":13014,"cid":13015,"Ġederse":13016,"ĠKabul":13017,"Ġalev":13018,"ĠyÃ¼rÃ¼":13019,"ĠsuÃ§lu":13020,"LEÅŀ":13021,"Ġmoral":13022,"Ġdersler":13023,"ĠKomisyon":13024,"ĠziyaretÃ§":13025,"lesin":13026,"evet":13027,"Ġgruplar":13028,"enlerin":13029,"Ġartarak":13030,"cay":13031,"***":13032,"Ä°LERÄ°":13033,"ĠgÃ¶revleri":13034,"ĠdÃ¶nÃ¼yor":13035,"ĠRak":13036,"ĠSaldÄ±r":13037,"Ã¢yet":13038,"Yet":13039,"ĠKarabÃ¼k":13040,"ĠkÄ±skan":13041,"port":13042,"ĠGibi":13043,"acaÄŁÄ±nÄ±zÄ±":13044,"Ġtoptan":13045,"ĠkavuÅŁtur":13046,"que":13047,"Ä±nÄ±zla":13048,"ĠsÃ¼recinin":13049,"ĠÄ°Ã§inde":13050,"ĠÃ¼lkesi":13051,"resel":13052,"ĠSemin":13053,"kest":13054,"ĠDemokrasi":13055,"ĠdÄ±ÅŁarÄ±da":13056,"izy":13057,"ĠdeÄŁiÅŁiyor":13058,"ĠYahud":13059,"ĠaÃ§Ä±p":13060,"ĠkalkÄ±ÅŁ":13061,"Ä±rsa":13062,"ĠsayÄ±sÄ±z":13063,"Ġprograma":13064,"ĠolmamÄ±ÅŁ":13065,"Ä°LÄ°K":13066,"Ġoluyoruz":13067,"ĠgÃ¶rÃ¼p":13068,"ĠKaÅŁ":13069,"ĠTÃ¼rkÃ§":13070,"Ġbuyurdu":13071,"lenmektedir":13072,"ĠtÃ¼n":13073,"Ġiyidir":13074,"dest":13075,"ĠgÃ¶rÃ¼lebilir":13076,"ĠÃĸzcan":13077,"Ġuygulamak":13078,"jantin":13079,"Ġbelirsiz":13080,"ATI":13081,"ĠFabrik":13082,"Ġilkokul":13083,"abir":13084,"Ġprojede":13085,"ĠbaÅŁkent":13086,"Ġpropagan":13087,"Ġseverek":13088,"ĠÃ¼mit":13089,"ĠyÄ±llarca":13090,"ĠEz":13091,"oban":13092,"Bundan":13093,"Ġdram":13094,"rama":13095,"ĠÃ§orba":13096,"calÄ±k":13097,"lediklerini":13098,"lamÄ±ÅŁtÄ±r":13099,"siyle":13100,"apur":13101,"Ã§elik":13102,"ĠKÃ¶prÃ¼sÃ¼":13103,"ĠkuruÅŁ":13104,"Sey":13105,"Ġoynuyor":13106,"Ġbini":13107,"Ġ67":13108,"Ġtitr":13109,"ladÄ±ktan":13110,"Android":13111,"ĠAlbayrak":13112,"udum":13113,"ĠdÃ¼ÅŁmÃ¼ÅŁ":13114,"ĠPl":13115,"Ġani":13116,"ubat":13117,"ĠyaÅŁadÄ±klarÄ±":13118,"ĠKKTC":13119,"ĠEtkinlik":13120,"kinlik":13121,"ĠPay":13122,"ĠDanÄ±ÅŁmanlÄ±k":13123,"ĠfÄ±rÄ±n":13124,"ĠHayal":13125,"ĠbaÅŁarÄ±ya":13126,"ĠDevrim":13127,"Ġidrar":13128,"Ġkutlu":13129,"ĠkazanmÄ±ÅŁ":13130,"Kom":13131,"Ġfa":13132,"ĠaraÃ§larÄ±n":13133,"ĠArk":13134,"ĠdeÄŁerler":13135,"yalar":13136,"ĠBahis":13137,"SEK":13138,"BU":13139,"Ġisteriz":13140,"ĠPROGRAM":13141,"ĠÄ°lhan":13142,"ĠhÄ±rsÄ±z":13143,"ĠilaÃ§lar":13144,"ĠkÄ±zar":13145,"ĠsunulmaktadÄ±r":13146,"Ġabart":13147,"No":13148,"ĠBuz":13149,"idd":13150,"Ġnar":13151,"ĠMarket":13152,"Ġkablo":13153,"Ġbitim":13154,"Tag":13155,"Ġprensip":13156,"ĠHizmetler":13157,"ĠBaÅŁvur":13158,"Ġelimizden":13159,"Gazet":13160,"etle":13161,"Ġverebilirsiniz":13162,"ĠÃ¶rnekleri":13163,"ĠHER":13164,"ĠolaylarÄ±n":13165,"Ġverdiler":13166,"ĠÃ§Ä±kmaktadÄ±r":13167,"Van":13168,"ĠYeniden":13169,"ĠDernek":13170,"Ġdeyince":13171,"ĠgruplarÄ±":13172,"Ber":13173,"ĠÄ°bn":13174,"ĠÃ§Ã¼r":13175,"Ġkentsel":13176,"ĠÅŁehirler":13177,"Ġtahsis":13178,"TAR":13179,"Ġfacebook":13180,"ĠNuri":13181,"Ġvermiyor":13182,"Ġ79":13183,"Ġdiyelim":13184,"cer":13185,"ĠErzincan":13186,"Ġzann":13187,"Sp":13188,"Ġfena":13189,"Ġzordur":13190,"ĠPremi":13191,"SU":13192,"ĠkiÅŁileri":13193,"ĠMÃľDÃľR":13194,"ĠJames":13195,"memektedir":13196,"Ġeks":13197,"ĠTIK":13198,"ĠMerk":13199,"ĠDÃ¼ÄŁÃ¼n":13200,"ĠbeÄŁendim":13201,"ĠnÃ¼fusu":13202,"ĠgÃ¶nderdiÄŁi":13203,"ĠÄ°lanlarÄ±":13204,"isy":13205,"Ġbilmem":13206,"ĠKÃ¼l":13207,"Ġunvan":13208,"YayÄ±n":13209,"ðŁĴ":13210,"Ġprogramlar":13211,"ĠalkÄ±ÅŁ":13212,"ĠÃ§Ä±karÄ±":13213,"Ġtransferi":13214,"ĠAvrup":13215,"lilere":13216,"Ġduyuru":13217,"ĠÃ§alÄ±ÅŁmanÄ±n":13218,"ÃľZEL":13219,"ĠGeliÅŁim":13220,"ĠKastam":13221,"ĠMilliyet":13222,"ĠbuÃ§uk":13223,"ĠÃ¶lÃ¼mÃ¼":13224,"ĠbaÅŁarÄ±sÄ±":13225,"ĠDUR":13226,"Ġhelikopter":13227,"biyotik":13228,"Ġmenfaat":13229,"delik":13230,"ĠhakkÄ±na":13231,"Ġbenzersiz":13232,"ĠÃ§eviri":13233,"ĠAskeri":13234,"ĠÃ§eyr":13235,"Ġelma":13236,"Uygul":13237,"ĠTaksim":13238,"talama":13239,"ĠaltÄ±ndan":13240,"ĠReal":13241,"ĠkavramÄ±":13242,"gatif":13243,"Met":13244,"ĠÃ§orb":13245,"ĠKulÃ¼p":13246,"ĠboÅŁalt":13247,"ĠmÃ¼d":13248,"Ã§Ä±sÄ±":13249,"ĠDemek":13250,"ilmesinin":13251,"ĠyÄ±kan":13252,"ĠstÃ¼":13253,"ĠZiya":13254,"ĠkazasÄ±":13255,"ĠsÃ¼rdÃ¼rdÃ¼":13256,"ĠseÃ§imlerde":13257,"ĠÃ¶ÄŁrendim":13258,"ĠÃĩakÄ±r":13259,"Ġbirisidir":13260,"Ġtemp":13261,"ÃĸÄŁrenc":13262,"orge":13263,"Ġellerine":13264,"emeye":13265,"Peygamber":13266,"ake":13267,"ayollarÄ±":13268,"ĠgeÃ§ebilirsiniz":13269,"Ġgirmesi":13270,"Ġmuhakkak":13271,"ĠKullanÄ±m":13272,"ĠYÄ±llÄ±k":13273,"ĠpiÅŁman":13274,"Ġseans":13275,"Ġ1997":13276,"ĠmeraklÄ±":13277,"Ġdiyecek":13278,"ĠkararlÄ±":13279,"ĠGÃ¼nleri":13280,"Ġkurtarma":13281,"ĠkarÅŁÄ±lay":13282,"ĠsevinÃ§":13283,"ĠPlanÄ±":13284,"ĠortaÄŁÄ±":13285,"iÄŁde":13286,"ĠGo":13287,"ĠaldÄ±ktan":13288,"enizde":13289,"lediÄŁiniz":13290,"ĠfaydasÄ±":13291,"ĠTiyatrosu":13292,"ĠyÄ±p":13293,"ion":13294,"Ġgelecektir":13295,"Ġolgu":13296,"ĠTeh":13297,"ĠGÃ¶Ã§":13298,"ĠkaldÄ±k":13299,"Ġbenziyor":13300,"dÃ¼kten":13301,"ĠISO":13302,"ĠsavaÅŁÄ±n":13303,"Ġdeneyin":13304,"KÃ¼ltÃ¼r":13305,"Ġtoplumu":13306,"ule":13307,"ĠKaÄŁÄ±t":13308,"tisi":13309,"Bebek":13310,"ĠÄ°dari":13311,"ĠkÃ¶kenli":13312,"Ġyatan":13313,"lamaktadÄ±r":13314,"ĠBa":13315,"ĠSendik":13316,"Ġtasarlanan":13317,"caÄŁÄ±":13318,"Ġbiliniyor":13319,"ĠmaÄŁaza":13320,"GÃ¶":13321,"ĠgÃ¶zle":13322,"ĠiÅŁlemlerini":13323,"kend":13324,"ĠsorularÄ±nÄ±":13325,"ĠPlastik":13326,"ĠÅŀerif":13327,"onda":13328,"ĠBÄ±rak":13329,"ĠÅŁampiyonluk":13330,"ĠgeliÅŁtirilmesi":13331,"ĠAg":13332,"ĠAyakkabÄ±":13333,"ĠTemizlik":13334,"ico":13335,"ĠbranÅŁ":13336,"Ġdengeli":13337,"Ã¼nÃ¼ze":13338,"ĠtanÄ±mak":13339,"Ã¼fer":13340,"ĠNihat":13341,"Ġolanlara":13342,"ĠvideolarÄ±":13343,"abildiÄŁi":13344,"ĠUnivers":13345,"ADI":13346,"laÅŁmÄ±ÅŁ":13347,"ĠbuÄŁday":13348,"ĠÃĩoÄŁu":13349,"ĠKenan":13350,"ĠÃ¶mrÃ¼":13351,"ĠvatandaÅŁÄ±":13352,"ĠMars":13353,"ĠbaÅŁlÄ±ca":13354,"bn":13355,"Ġhikmet":13356,"dinde":13357,"ĠPolonya":13358,"meliyiz":13359,"ĠgerÃ§ekÃ§i":13360,"masya":13361,"Ġmaddenin":13362,"ĠKÃ¼rdistan":13363,"Ġbelirlemek":13364,"esk":13365,"Ġge":13366,"Ġplay":13367,"ĠtesadÃ¼f":13368,"ĠtÃ¼ketici":13369,"ĠsÃ¼tÃ¼":13370,"ĠgiriÅŁi":13371,"ladÄ±ÄŁÄ±nÄ±z":13372,"Ã¶lye":13373,"Ġpartinin":13374,"ĠÃľlke":13375,"ĠyÃ¼rek":13376,"Ġita":13377,"Sizin":13378,"ĠseÃ§kin":13379,"ĠsÃ¶zlÃ¼":13380,"ĠiÃ§indir":13381,"ĠÃ§irkin":13382,"Ġtoplumda":13383,"Ġkonumda":13384,"Ġsendrom":13385,"ĠBÃ¶ylelikle":13386,"Ġinternetten":13387,"ĠbÃ¼rokr":13388,"ĠistediÄŁimiz":13389,"eza":13390,"Ġert":13391,"ĠbÄ±rakan":13392,"ĠtÃ¼rkiye":13393,"Ġyirmi":13394,"Ġ88":13395,"Ġtoplama":13396,"ĠiÅŁÃ§iler":13397,"ref":13398,"ĠEdiyor":13399,"arÄ±ya":13400,"Ġdeli":13401,"Ġadil":13402,"ĠkomÅŁ":13403,"ĠÃ§ekme":13404,"leden":13405,"iper":13406,"landÄ±ÄŁÄ±nÄ±":13407,"Ä±mÄ±zla":13408,"ĠbeÄŁeni":13409,"Ġlaboratuvar":13410,"ĠSÄ±nÄ±r":13411,"ĠdeÄŁiÅŁir":13412,"Ġvermey":13413,"ĠBirkaÃ§":13414,"ĠUlus":13415,"ĠPS":13416,"ĠKing":13417,"ĠnÄ±n":13418,"ĠdÄ±ÅŁÄ±ndan":13419,"Dil":13420,"abilmeniz":13421,"Ä±klar":13422,"ĠSerisi":13423,"IMI":13424,"Ġkopar":13425,"IA":13426,"ĠPROJ":13427,"atma":13428,"Ġbulunmayan":13429,"Ġask":13430,"ettin":13431,"OCUK":13432,"ĠyÃ¶nelt":13433,"iyo":13434,"ĠgÃ¼zeldi":13435,"ĠÅŀÃ¼ph":13436,"Ġ62":13437,"ĠÄ°htiy":13438,"Ġertel":13439,"eyla":13440,"ĠGÃ¼mrÃ¼k":13441,"kÃ¶":13442,"Ġsoruyu":13443,"ĠÃ¶te":13444,"lenin":13445,"ĠuygulamayÄ±":13446,"Ġekonomisi":13447,"Ġitfaiye":13448,"ĠgeÃ§tikÃ§e":13449,"Ġdereceye":13450,"ĠSonrasÄ±nda":13451,"adar":13452,"Ġbekley":13453,"ĠÅŀark":13454,"RAN":13455,"ĠBakanlÄ±k":13456,"ĠHasta":13457,"verengi":13458,"Ġbulup":13459,"Ä°ÅŀÄ°M":13460,"ĠmakamÄ±nda":13461,"ĠPÄ±nar":13462,"ĠTekrar":13463,"Ġkredisi":13464,"Ġredded":13465,"Ġdestekli":13466,"layÄ±":13467,"Ġmotivasyon":13468,"ĠniÅŁan":13469,"KÄ±":13470,"sten":13471,"Ġoluruz":13472,"ĠBoÄŁ":13473,"ĠCap":13474,"Ġizn":13475,"ĠBELED":13476,"Ġolabilmek":13477,"ĠhastalÄ±ÄŁÄ±n":13478,"Ġmisyon":13479,"tayÄ±m":13480,"Ġotomotiv":13481,"Yunan":13482,"ĠMAD":13483,"ĠfÄ±ndÄ±k":13484,"ĠIl":13485,"Ġseti":13486,"ĠCoÅŁk":13487,"ĠJack":13488,"mayalÄ±m":13489,"Ġproblemleri":13490,"ĠÅŁehre":13491,"Ġlens":13492,"Ġtakvim":13493,"Ġgoogle":13494,"ĠValiliÄŁi":13495,"Fil":13496,"ĠaÃ§Ä±yor":13497,"ĠÃ§ocuklarÄ±nÄ±n":13498,"ĠOlmak":13499,"SÄ°Z":13500,"Ġkalitede":13501,"Ġriskini":13502,"ĠsayÄ±n":13503,"Ġbelirlem":13504,"Ġopt":13505,"Ġediniz":13506,"kitap":13507,"ĠyÃ¼zyÄ±lÄ±n":13508,"Ġgiyin":13509,"eÄŁim":13510,"Ä±rÄ±z":13511,"ĠyapÄ±ÅŁ":13512,"Ġkitle":13513,"Ġoto":13514,"ĠElem":13515,"ĠÃ§anta":13516,"Ġtemizleme":13517,"ĠeÄŁil":13518,"Ġdolap":13519,"Vatan":13520,"Ġgene":13521,"ĠDekorasyon":13522,"ĠatmÄ±ÅŁ":13523,"Ġdurumdur":13524,"Ġiseniz":13525,"ĠYÃ¶ntem":13526,"dÄ±ÄŁÄ±ndan":13527,"ĠAvukat":13528,"ĠGaleri":13529,"ĠAF":13530,"Bilgisayar":13531,"Ġcenaze":13532,".-":13533,"Ġdesen":13534,"ĠayÄ±na":13535,"hendisi":13536,"ĠseÃ§imlerinde":13537,"Tan":13538,"AÅŁk":13539,"Ã¼sÃ¼ne":13540,"ĠsayÄ±sÄ±nda":13541,"ĠÅŀiÅŁli":13542,"ĠsonuÃ§larÄ±nÄ±":13543,"ĠÃ§alÄ±ÅŁmayÄ±":13544,"Ġ61":13545,"ĠKod":13546,"ĠPe":13547,"Ġbitkiler":13548,"Mobil":13549,"Ġmutlak":13550,"ĠseÃ§imler":13551,"ford":13552,"ĠÄ±ÅŁÄ±ÄŁÄ±":13553,"Ġtatili":13554,"ĠaydÄ±nlatma":13555,"ĠÅŁeylerin":13556,"ĠÃ¶ÄŁÃ¼n":13557,"IDA":13558,"ĠBilm":13559,"ĠMete":13560,"Ġnimet":13561,"ĠniteliÄŁinde":13562,"ĠsÄ±kÄ±ÅŁ":13563,"lenmiÅŁtir":13564,"ĠTap":13565,"wei":13566,"ĠMichael":13567,"ĠgÃ¶zÃ¼kÃ¼yor":13568,"ĠMekke":13569,"Ġterap":13570,"ĠMetro":13571,"Kuzey":13572,"Ġbutonuna":13573,"ĠedeceÄŁim":13574,"ĠamatÃ¶r":13575,"Ġcazip":13576,"Ġertesi":13577,"ĠdesteÄŁiyle":13578,"ĠKarÅŁÄ±yaka":13579,"ĠÃ§alÄ±ÅŁanlarÄ±n":13580,"ĠuzaklÄ±k":13581,"imal":13582,"ĠFrank":13583,"ĠtopraÄŁa":13584,"ĠAmatÃ¶r":13585,"ĠvakÄ±f":13586,"Ġaktaran":13587,"ĠYouTube":13588,"ĠyollarÄ±nÄ±":13589,"ĠkÃ¢r":13590,"ĠGEÃĩ":13591,"Ġlazer":13592,"ĠparasÄ±":13593,"ĠbaÄŁÄ±ÅŁÄ±klÄ±k":13594,"ĠmuhtaÃ§":13595,"Ġpul":13596,"ĠÃ§oktan":13597,"Ġpist":13598,"ĠBaÅŁladÄ±":13599,"ĠÃ¶dÃ¼n":13600,"ĠZek":13601,"ĠAdresi":13602,"gÃ¼zel":13603,"ĠVeri":13604,"Ġsahneye":13605,"ĠBEN":13606,"Kamp":13607,"ĠTekin":13608,"Ġglobal":13609,"ĠÄ°slami":13610,"malÄ±yÄ±m":13611,"Ġvergisi":13612,"ĠkarÅŁÄ±nÄ±za":13613,"aÅŁtÄ±rma":13614,"ĠÄ°nÃ¶nÃ¼":13615,"Ġdiliyoruz":13616,"layabilir":13617,"ĠkarÄ±ÅŁtÄ±rÄ±n":13618,"ĠÅŁaÅŁÄ±rt":13619,"Ġmasaya":13620,"ĠÅŁartÄ±":13621,"Ġbireylerin":13622,"Ġbuzdol":13623,"Ġistiyorsunuz":13624,"Ġfos":13625,"ĠgÃ¶rÃ¼ntÃ¼sÃ¼":13626,"Ġistismar":13627,"Ġdenildi":13628,"ĠGebze":13629,"Ġanayas":13630,"ĠBeyoÄŁlu":13631,"ĠtÄ±rnak":13632,"Ġkopyal":13633,"ĠÄ°ÅŁbirliÄŁi":13634,"ĠKalÄ±n":13635,"ĠÅŁeffaf":13636,"ĠtÃ¼f":13637,"Ġtarihin":13638,"Ġbulunmakta":13639,"ĠacÄ±m":13640,"SaÃ§":13641,"con":13642,"Ġbahsede":13643,"ĠayaÄŁa":13644,"ĠStan":13645,"Ġborcu":13646,"Ġotelde":13647,"Ä±lacaktÄ±r":13648,"ĠtÃ¶renle":13649,"DAK":13650,"ĠAst":13651,"ĠSec":13652,"Ġsokakta":13653,"ĠgÃ¶rdÃ¼ÄŁÃ¼mÃ¼z":13654,"ĠsÄ±ralam":13655,"Ä±lama":13656,"Ġcad":13657,"ĠCN":13658,"::":13659,"ĠgetirmiÅŁ":13660,"ĠDeÄŁerlendirme":13661,"Ġkurut":13662,"anÄ±zda":13663,"ĠSizi":13664,"ĠÃ¼rÃ¼nlerinin":13665,"ĠMalzemeleri":13666,"ĠÃ¶fk":13667,"Br":13668,"ĠartÄ±":13669,"Ġ1995":13670,"lerince":13671,"illiam":13672,"Ġsark":13673,"ĠKiÅŁilik":13674,"yazÄ±":13675,"Ġteknikleri":13676,"ĠMert":13677,"ruz":13678,"ĠEren":13679,"Ġedilmesini":13680,"uch":13681,"ĠavantajlÄ±":13682,"amayacaÄŁÄ±":13683,"Ġceviz":13684,"ĠBulv":13685,"Ġruhu":13686,"iyeler":13687,"ĠatÄ±yor":13688,"ilikon":13689,"ANKARA":13690,"Ġsorar":13691,"Ġkaba":13692,"Ġrah":13693,"ristiyan":13694,"Ġfeth":13695,"Ġtarihini":13696,"Ġmiyiz":13697,"ĠYazdÄ±r":13698,"ĠKÄ±l":13699,"Ġyetenekli":13700,"ĠmaÃ§a":13701,"ĠSert":13702,"EskiÅŁehir":13703,"ĠMP":13704,"ĠHayvancÄ±lÄ±k":13705,"Ġsitesinin":13706,"idin":13707,"ĠkurtuluÅŁ":13708,"ĠKÃ¶k":13709,"Ġtakib":13710,"ĠeditÃ¶r":13711,"Ġsevindir":13712,"ĠHy":13713,"ĠplakalÄ±":13714,"ĠkurumlarÄ±":13715,"Ġgezin":13716,"ĠÃ§adÄ±r":13717,"ĠalgÄ±":13718,"ĠTES":13719,"inizdeki":13720,"atÃ¼r":13721,"ĠsÃ¶zÃ¼nÃ¼":13722,"leyse":13723,"ĠyapÄ±landÄ±r":13724,"Ġsisteminde":13725,"Ġneye":13726,"ĠÃ§eker":13727,"Ġsoruya":13728,"ĠAfganistan":13729,"Ġzamanki":13730,"ĠdÃ¼nyaca":13731,"Ġordusu":13732,"Ġcumhuriyet":13733,"ĠMeydan":13734,"ĠedeceÄŁi":13735,"ĠolduÄŁumuzu":13736,"ĠliralÄ±k":13737,"ĠHele":13738,"Beni":13739,"ĠMÃ¼slÃ¼manlar":13740,"ĠgÃ¶zleri":13741,"Ġkalbi":13742,"ĠyaptÄ±rmak":13743,"ĠSertif":13744,"deÄŁer":13745,"ĠbaÄŁÄ±mlÄ±":13746,"ĠkÄ±rsal":13747,"laÅŁan":13748,"ĠkatÄ±larak":13749,"Ġzarif":13750,"YAL":13751,"ĠsÃ¼p":13752,"edisi":13753,"Ġzamandan":13754,"ĠkonuÅŁuyor":13755,"ĠhastalÄ±klar":13756,"Ġamel":13757,"DAR":13758,"MM":13759,"2005":13760,"ĠÅŁartlarda":13761,"mo":13762,"selam":13763,"ĠdÃ¼":13764,"Ġandan":13765,"renses":13766,"Ġnegatif":13767,"ĠkanalÄ±":13768,"ĠbulunmamaktadÄ±r":13769,"Ġarm":13770,"layÄ±nÄ±z":13771,"Ġkendim":13772,"ĠmÃ¼c":13773,"Ġzev":13774,"Ġcar":13775,"ĠKaliteli":13776,"ĠClub":13777,"ĠmÃ¼ze":13778,"ĠÃ¼retmek":13779,"Ġaylarda":13780,"UNU":13781,"Ġiv":13782,"Ġ77":13783,"Ã§Ä±k":13784,"ternational":13785,"ĠCal":13786,"ĠolmayacaktÄ±r":13787,"akt":13788,"Aile":13789,"ĠziyaretÃ§i":13790,"Ġvakt":13791,"ĠgÃ¶kyÃ¼z":13792,"ĠbiÃ§imi":13793,"Ġisabet":13794,"TÃľRKÄ°YE":13795,"ĠRektÃ¶rÃ¼":13796,"SÄ°AD":13797,"Ġdizinin":13798,"mazon":13799,"Ġtaciz":13800,"Ġadmin":13801,"aleti":13802,"ĠsonlandÄ±r":13803,"Ġba":13804,"ĠEdebiyatÄ±":13805,"ĠsÃ¼z":13806,"TK":13807,"Ġvat":13808,"Ġsesleri":13809,"Tamam":13810,"TAÅŀ":13811,"ĠTÃ¼ket":13812,"ĠanÄ±lan":13813,"ĠmeÅŁru":13814,"ĠKatar":13815,"ĠkÄ±smÄ±na":13816,"ĠyazdÄ±r":13817,"Ġhizmetini":13818,"ĠbaÅŁladÄ±ÄŁÄ±nÄ±":13819,"Ġibar":13820,"Ġvideosu":13821,"ĠeÄŁilim":13822,"ĠFah":13823,"ĠÃ§alÄ±ÅŁarak":13824,"ĠYalova":13825,"ella":13826,"ĠYargÄ±":13827,"ĠEsnaf":13828,"Ġmesele":13829,"ĠzeytinyaÄŁÄ±":13830,"izme":13831,"ĠgeliÅŁmesi":13832,"ĠÅŁeri":13833,"acan":13834,"CAN":13835,"ĠÃ¶ÄŁretmeni":13836,"ĠAÃĩIK":13837,"tij":13838,"Ġsent":13839,"ĠÄ±ÅŁÄ±l":13840,"ĠgeÃ§ip":13841,"acÄ±lar":13842,"ĠyapÄ±lacaÄŁÄ±":13843,"ĠbaÅŁladÄ±lar":13844,"ĠadÄ±mÄ±":13845,"ĠmÃ¼barek":13846,"ĠbambaÅŁka":13847,"ĠkÃ¼p":13848,"ĠdireniÅŁ":13849,"ĠkÄ±zÄ±m":13850,"ĠsÃ¼rÃ¼mÃ¼":13851,"ĠÄ°zmit":13852,"DoÃ§":13853,"Ġseverim":13854,"acaklarÄ±nÄ±":13855,"ĠHAZ":13856,"MAY":13857,"ĠSuresi":13858,"fte":13859,"Ġkurt":13860,"Ġpamuk":13861,"ĠgÃ¼nÃ¼nÃ¼":13862,"Ġimaj":13863,"Ġkonusunu":13864,"Ġkimseyi":13865,"Ġprojeye":13866,"iyenin":13867,"Ã¼rler":13868,"Ġderhal":13869,"ĠBosna":13870,"Ġyapmaz":13871,"Ġemlak":13872,"ĠayÄ±rt":13873,"ĠÃ§Ä±karÄ±lan":13874,"ĠLink":13875,"Ġnolu":13876,"Ġokurken":13877,"HUR":13878,"SÄ±n":13879,"ĠHit":13880,"ayÄ±nca":13881,"Ġedebilmek":13882,"Ġbulma":13883,"ĠArnavut":13884,"hen":13885,"ĠTekstil":13886,"ĠtÃ¼rleri":13887,"allahu":13888,"ĠhÃ¼kÃ¼metin":13889,"ĠAbdul":13890,"ĠÃ§aÄŁrÄ±sÄ±":13891,"ĠmaÃ§Ä±nÄ±":13892,"irleri":13893,"ĠÃ§Ä±kabilir":13894,"Ġmemuru":13895,"ĠKastamonu":13896,"obel":13897,"ĠhastalarÄ±n":13898,"fÃ¶y":13899,"ĠmÃ¼hendislik":13900,"dyo":13901,"ski":13902,"no":13903,"ĠnÃ¶bet":13904,"Sakarya":13905,"ĠBaskÄ±":13906,"ĠdiÄŁerleri":13907,"ĠalanÄ±ndaki":13908,"weet":13909,"ĠÃĩevr":13910,"lil":13911,"Ã§ay":13912,"ĠSAÄŀLIK":13913,"ĠSAH":13914,"Ġkonudaki":13915,"Ġokut":13916,"ĠayrÄ±calÄ±k":13917,"ĠFord":13918,"Ġvideolar":13919,"Ġcesur":13920,"ĠBed":13921,"ĠbulmuÅŁ":13922,"Ã®n":13923,"azzam":13924,"Ġmakul":13925,"ĠbakÄ±mdan":13926,"Ġbelirtileri":13927,"maca":13928,"ĠHotels":13929,"Ġhakikat":13930,"Ġduygusu":13931,"ĠIsparta":13932,"Ä±klÄ±k":13933,"lÃ¼kte":13934,"ĠTuÄŁ":13935,"ĠsÃ¶zcÃ¼":13936,"ĠistemiÅŁ":13937,"ĠÃ¢yet":13938,"ĠsaygÄ±n":13939,"ĠaÅŁkÄ±":13940,"ĠCelal":13941,"Ġlimit":13942,"yada":13943,"diki":13944,"crip":13945,"teb":13946,"ĠCUM":13947,"ĠÄ°S":13948,"Ġharik":13949,
[...]
