#version: 0.2
× Ļ
× ķ
×ķ ×
×Ļ ×
× Ķ
× ľ
× ŀ
× Ĳ
× ĳ
× ¨
× ©
× ª
Ġ ×Ķ
× ¢
× ł
Ġ ×ľ
× Ĺ
Ġ ×ĳ
× Ľ
Ġ ×ŀ
×ķ× ª
×Ļ× Ŀ
Ġ ×Ĳ
× ĵ
× §
Ġ ×©
× ¤
× ¡
× Ĵ
× ĺ
× Ŀ
× ¦
Ġ ×ķ×
Ġ ×¢
×ķ× ¨
× ĸ
Ġ ×Ľ
×Ļ× ª
Ġ×© ×ľ
×ķ× ľ
× Ł
×Ļ× ¨
Ġ ×ł
Ġ ×Ĺ
×ķ× ĵ
Ġ×Ķ ×ŀ
×Ļ× Ķ
×Ļ× ł
×ķ× ĳ
×ķ× ł
Ġ×Ĳ ×ª
×ķ× Ł
Ġ ×ª
×Ļ× ©
×Ļ× ľ
Ġ ×¨
Ġ ×¤
×Ļ ×ķ×ª
Ġ ×§
×ĳ ×¨
× ļ
Ġ×ľ ×Ķ
×ł ×Ļ
Ġ×¢ ×ľ
×Ļ× ĵ
×Ļ× Ł
Ġ ×Ĵ
Ġ×ľ ×Ĳ
×ķ× Ĳ
×ķ× Ŀ
×Ļ× §
Ġ ×ĸ
×ķ× ŀ
×Ļ× ĳ
Ġ ×¡
Ġ ×ĵ
×Ļ× ŀ
×ķ× ¤
×ķ× ©
Ġ×Ķ ×Ĳ
×ķ× ¢
×ķ× §
×¨ ×Ĳ
â Ģ
×Ļ× Ĳ
×ķ× ¡
×¤ ×¨
×Ļ× ¢
×ķ× Ĺ
Ġ×ĳ ×ŀ
×© ×¨
×Ļ× Ľ
×Ļ ×Ļ×Ŀ
×ł ×ķ
×ł ×Ķ
×Ĺ ×¨
×Ļ× ¤
×ķ× ¦
Ġ×Ķ ×©
Ġ×ĳ ×Ĳ
×ķ× Ĵ
Ġ×ľ ×ŀ
×Ļ× ¡
×Ļ× ĺ
×Ľ ×ľ
Ġ×Ķ ×ª
Ġ ×¦
Ġ (
Ġ×Ķ ×Ĺ
×Ļ× ¦
×Ļ ×ķ
Ġ×ŀ ×Ķ
×ķ× Ľ
Ġ×ķ× Ķ
Ġ -
Ġ×Ķ ×¢
×ĵ ×¨
Ġ ×ĺ
×ª ×Ļ
Ġ×ĳ ×¢
×ĳ ×ľ
Ġ×ŀ ×©
×Ļ× Ĺ
Ġ×Ľ ×ľ
Ġ×© ×Ķ
× £
×ŀ ×Ķ
Ġ×Ĳ ×ľ
Ġ×Ķ ×¨
Ġ ×Ļ
×¨ ×Ļ×Ŀ
Ġ ×Ļ×©
Ġ×¢ ×Ŀ
Ġ×ķ× ŀ
Ġ "
Ġ×ķ× ľ
Ġ×ŀ ×Ĳ
. .
×ĺ ×¨
Ġ×ĸ ×Ķ
×¨ ×Ľ
Ġ×Ķ ×ĳ
×ł ×Ļ×Ŀ
×ľ ×Ķ
×ŀ ×©
×ľ ×Ĳ
Ġ âĢ
Ġ×ŀ ×ª
×ķ× ĺ
Ġ×Ķ ×§
Ġ×ľ ×¢
Ġ×ŀ ×¡
Ġ ×ķ
Ġ×ŀ ×¢
×ĵ ×Ļ
Ġ×Ķ ×¡
Ġ×ķ× Ĳ
×ł ×ķ×ª
Ġ×Ķ ×ķ×Ĳ
Ġ×Ķ ×ł
Ġ 1
Ġ×ĳ ×©
Ġ×ĳ ×ª
Ġ×© ×ŀ
×Ĳ ×ª
Ġ×Ĳ ×ķ
Ġ×ľ ×©
Ġ 2
×ĳ ×¢
×ķ ×Ļ
Ġ×Ķ ×¤
Ġ×Ķ ×Ĵ
Ġ×ĳ ×Ķ
×ľ ×Ļ
×Ļ× ļ
Ġ×ķ× ĳ
Ġ×ŀ ×§
×Ļ×ķ×ª ×¨
Ġ×ľ ×¤
×ķ× Ķ
×© ×Ķ
Ġ×ĳ ×¨
Ġ×ľ ×ĳ
×ķ×ł ×Ķ
Ġ×Ķ ×ĸ
Ġ×ľ ×Ĺ
×ł ×ª
Ġ×Ķ ×Ķ
×© ×ª
×¨ ×Ķ
Ġ×© ×Ĳ
×Ļ× Ĵ
Ġ×Ĳ ×ķ×ª
×ŀ ×ª
×© ×Ļ×Ŀ
×ĵ ×Ļ×Ŀ
× ¥
×ķ× ĸ
Ġ×Ķ ×Ľ
Ġ×ŀ ×Ĺ
×¨ ×ª
ĠâĢ ĵ
×ĳ ×Ķ
×Ĺ ×ª
Ġ×Ķ ×¦
Ġ×ľ ×§
×Ļ×¨ ×ķ×ª
Ġ×Ĵ ×Ŀ
Ġ×¤ ×¨
×ķ× ļ
×ŀ ×ķ
×ķ×ł ×Ļ×Ŀ
Ġ×ĳ ×Ĺ
×ķ×ł ×ķ×ª
×¢ ×ķ×ª
×ŀ ×¨
×ľ ×Ļ×Ŀ
×Ļ× ĸ
Ġ×Ľ ×Ļ
×ľ ×§
×ł ×¡
×¨ ×ĳ
Ġ×ŀ ×¦
Ġ×Ĳ ×Ĺ×¨
×ķ×¨ ×Ķ
×Ļ×ł ×ķ
Ġ _
×Ľ ×Ŀ
×Ļ×¨ ×Ķ
×¨ ×Ĵ
×ŀ ×Ł
×¤ ×ª
×ŀ ×¦
×ķ× £
×ľ ×ķ
×Ļ×ł ×Ķ
×¢ ×ª
×Ļ ×ķ×Ł
Ġ×Ķ ×ĵ
0 0
×¨×Ĳ ×ľ
×ķ×ľ ×Ŀ
×© ×ķ×ª
Ġ×ķ× ¢
Ġ×Ķ ×Ļ×Ĳ
Ġ×ĳ ×¡
×Ĳ ×Ļ
×Ľ ×ª
Ġ×Ķ ×Ļ
×Ĺ ×§
Ġ×© ×ĳ
×Ĺ ×ĵ
×ª ×¨
×ĳ ×Ļ×Ŀ
×¡ ×§
×ķ×ĵ ×Ķ
×ĵ ×Ķ
Ġ×Ľ ×Ĳ
×Ļ×Ľ ×ķ×ľ
×ķ×¨ ×Ļ×Ŀ
×ł ×ĺ
Ġ ×Ļ×ķ×ª×¨
×ĳ ×Ļ
Ġ×ĳ ×§
Ġ×ľ ×ª
×Ĳ ×¨
×ĸ ×Ķ
Ö ¼
Ġ×ŀ ×ĳ
Ġ×ķ× Ľ
Ġ×ľ ×Ļ
Ġ×Ķ ×Ļ×Ķ
Ġ×Ķ×ŀ ×©
Ġ×Ĳ ×ł
×¨×Ĳ ×©
Ġ×ŀ ×Ľ
×ķ×ł ×Ļ
×ľ ×ª
Ġ×Ĳ ×ł×Ļ
×¤ ×©×¨
×ľ ×ĳ
×ľ ×ķ×ª
×ł ×Ļ×ª
Ġ ×Ļ×ĵ
×¨ ×Ļ
×ķ×ĳ ×Ķ
Ġ×ŀ ×ĵ
×ŀ ×Ļ×Ŀ
Ġ×ŀ ×Ļ
×¨ ×ĺ
×ĳ ×ª
×¤ ×§
×Ļ×ľ ×Ķ
×Ĳ ×Ļ×Ŀ
Ġ×Ĳ ×Ŀ
×¤ ×Ļ
×ľ ×Ĺ
Ġ×ĳ ×ł
.. .
×Ĳ ×ķ×ª
×¢ ×Ķ
Ġ×ŀ ×Ĵ
Ġ×¨ ×Ĳ
0 1
Ġ×ŀ ×ŀ
Ö ¸
Ġ×© ×ł
×ķ×ľ ×Ķ
×ŀ ×Ļ
Ġ×¢ ×ĳ
Ġ×ľ ×¦
Ġ×¢ ×ĵ
×ķ ×Ļ×ķ×ª
×Ĵ ×ľ
×Ĳ ×Ķ
×Ļ×§ ×Ķ
×ĺ ×Ļ
×© ×ĳ
×ŀ ×ķ×ª
Ö °
Ġ×Ĳ ×ĳ
Ġ×Ĳ ×ĳ×ľ
Ġ×ĳ ×ĳ
Ġ×Ķ ×ĺ
Ġ ×Ļ×Ľ×ķ×ľ
Ġ×ĳ ×Ļ×Ł
Ġ×¤ ×¢
×ŀ ×ĵ
×ĸ ×¨
Ġ×Ĺ ×ĳ×¨
Ġ×Ĺ ×ĵ
Ġ×ķ× ©
×ķ× ¥
×ľ ×ĺ
Ġ×¨ ×§
×ĵ ×Ŀ
×Ĺ ×Ķ
Ġ×ľ ×Ľ
×¢ ×¨
Ġ×¢ ×¦
×Ĵ ×¨
Ġ×ĳ ×Ľ×ľ
×ķ ×ķ
×¤ ×Ļ×Ŀ
×Ĺ ×ķ×ª
Ġ×Ĳ ×Ĺ×ĵ
×© ×ľ
×ĺ ×Ļ×Ŀ
Ġ×ķ× ł
Ġ×ĳ ×Ľ
×ŀ ×¢
Ġ×ľ ×ĵ
Ġ 3
" .
×Ļ× £
Ġ ×Ļ×Ķ
Ġ×Ľ ×ļ
×ŀ ×Ļ×ĵ
×ŀ ×ķ×ĵ
Ġ×ĳ ×¤
Ġ×ľ ×¡
Ġ×ŀ ×¨
Ġ×Ĳ ×¨
Ġ ,
Ö ·
Ġ×Ķ ×Ŀ
Ġ×ľ×Ķ ×ª
×Ļ×ĳ ×Ķ
×Ļ×© ×Ķ
Ġ×ľ ×ķ
Ġ×ľ ×Ĵ
×Ļ×¢ ×Ķ
×ĵ ×ķ×ª
Ö ´
×Ļ×¨ ×Ļ×Ŀ
×ĳ ×ķ×ª
×Ļ×¤ ×Ķ
Ġ×Ļ×© ×¨×Ĳ×ľ
Ġ×ĳ ×¦
Ġ×Ľ ×ĵ×Ļ
Ġ×Ķ ×ľ
×¢ ×ľ
Ġ×ĳ ×Ļ×ª
×¢ ×Ļ×Ŀ
Ġ×ŀ ×¤
×ķ×ľ ×Ļ×Ŀ
Ġ×Ľ ×ŀ×ķ
×Ľ ×Ł
×ĸ ×ķ×¨
×Ľ ×ł
×ķ×¨ ×ª
Ġ×ĳ ×Ĵ
Ġ×ł ×ķ×¡
×Ļ ×ķ×Ŀ
×ŀ ×Ĳ
×Ļ×ª ×Ķ
×ķ×ŀ ×¨
×ĵ ×ª
×Ļ×ŀ ×Ķ
×© ×Ļ
Ġ×ĳ ×ĵ
×Ļ×ª ×Ļ
×Ķ ×ľ
×ĳ×¨ ×Ķ
) .
Ġ×ķ×ľ ×Ĳ
Ġ2 01
×Ĳ ×ķ
×§ ×¨
×Ĺ ×Ļ×Ŀ
×¨×Ľ ×ĸ
Ġ ×ķ×ª
×ĳ×¨ ×Ļ×Ŀ
Ġ×¦ ×¨
Ġ×Ĺ ×©
×ķ×¨ ×Ļ
Ġ×ķ× Ĺ
×ŀ ×ľ
×ķ×¨ ×ķ×ª
Ġ×ŀ ×ł
Ġ×ĳ ×ľ
×¤ ×ĺ
Ġ×Ĵ ×ĵ
Ġ×ĳ ×Ļ×ķ×ª×¨
×Ľ ×Ķ
×ª ×Ĺ
Ġ×ĳ ×ĺ
Ġ×©×ľ ×Ĳ
×¨ ×ķ×ª
Ġ×Ĳ ×Ļ×Ł
×ķ×ĳ ×ķ×ª
Ġ×§ ×¨
×ķ×¦ ×Ķ
Ġ×Ĳ ×ŀ
×Ĳ ×Ŀ
Ġ×© ×¢
×ķ×ľ ×Ļ
×Ļ×¨ ×ª
×¤ ×ľ
×¨×Ĳ ×Ķ
×Ļ×ł ×Ļ×Ŀ
Ġ×Ĺ ×Ļ
Ġ×Ķ×ŀ ×§
×¤ ×ķ×¨
Ġ×ª ×§
Ġ×ĳ ×ķ
Ġ ×Ļ×Ĺ
×ł ×Ļ×Ķ
×Ĵ ×ĵ
Ġ×Ķ ×¨×Ĳ×©
×ķ ×ķ×ª
×ķ×¨ ×ļ
Ġ×Ľ ×ª
×Ļ×ª ×Ł
×ł ×§
×Ļ×Ľ ×Ķ
×Ļ×ŀ ×Ļ×Ŀ
×¡ ×ĺ
×¦ ×ľ
Ġ×ĸ ×ķ
×Ļ×© ×¨×Ĳ×ľ
Ġ ×Ļ×¦
âĢ ¬
Ġ×ľ×Ķ ×Ļ×ķ×ª
×¦ ×Ķ
×ŀ ×Ĺ
×Ľ ×©
e r
Ġ×¢ ×ķ×ĵ
Ġ×© ×§
×¦ ×ķ×¢
Ġ×Ĳ×ķ×ª ×ķ
×Ļ×ł ×Ļ
×Ļ×ľ ×ķ
×Ļ×ľ ×ĵ×Ļ×Ŀ
Ġ×Ķ ×¤×¨
×¤ ×Ķ
Ġ×ĵ ×¨
×Ļ×ĵ ×Ķ
i n
×ķ×ŀ ×Ļ
Ġ×Ĳ ×Ļ×©
×Ĺ ×ł×ķ
Ġ×¨×Ĳ ×©
" ,
Ġ ×Ļ×¨
Ġ×ľ ×¨
Ġ×Ķ×ĸ ×Ķ
×Ľ ×ķ×ª
Ġ×ĳ×ŀ ×§
×Ĳ ×ľ
Ġ×ķ× Ĵ
×Ļ×ľ ×Ļ×Ŀ
Ġ×ľ×¤ ×ł×Ļ
×Ļ×Ķ ×Ŀ
Ġ×ľ×Ĳ ×Ĺ×¨
×Ļ×ł ×ª
×ķ×ĳ ×¨
×ķ ×ķ×Ķ
Ġ×ŀ×Ĳ ×ķ×ĵ
Ġ×Ĳ ×Ļ×ł
×Ļ×ľ ×ķ×ª
Ö ¹
×¤ ×¡
Ġ 4
Ġ×ľ ×Ľ×ľ
×¤ ×ķ×ª
×Ļ×ŀ ×ķ×©
Ġ×©×ľ ×Ļ
Ġ×© ×Ľ
Ġ×ķ× ¨
Ġ×©×ľ ×Ķ
Ġ×Ĳ ×©×¨
Ġ×Ļ×ĵ ×Ļ
) ,
×ķ×¤ ×Ķ
Ġ×ĺ ×ķ×ĳ
Ġ×ĸ ×Ĳ×ª
Ġ×Ĳ ×ļ
×ŀ ×§
×ķ×Ĺ ×ķ×ª
×ķ×ŀ ×Ķ
Ġ×Ĳ ×¤×©×¨
Ö ¶
×ª ×§
×¨×Ľ ×ª
Ġ 5
Ġ×ł ×©
×Ļ×ĵ ×¢
×ķ×¤ ×Ł
âĢ Ŀ
Ġ×§ ×ĺ
×© ×ķ
Ġ×ľ ×ł
Ġ×ŀ ×ĸ
×ķ×ĵ ×ķ×ª
×ł×Ļ ×Ļ×Ł
×¨ ×¥
×Ĳ ×ł×Ļ
Ġ×¡ ×¤×¨
×ĵ×¨ ×ļ
Ġ×ŀ ×ĺ
×Ļ×¨ ×ķ×¢
×Ĺ ×Ļ
×¦ ×Ļ
×ķ×Ĳ ×¨
Ġ×Ľ ×ĳ×¨
×ĸ ×§
Ġ×ł ×Ļ×ª×Ł
Ġ×ŀ ×ľ
×Ļ×§ ×¨
Ġ×© ×Ļ×©
×ĳ ×§
Ġ×ª ×ľ
Ġ×©×ľ ×ł×ķ
Ġ ×Ļ×¢
×ķ×Ľ ×ľ
Ġ×© ×ª
Ġ×ľ×Ķ ×Ĵ
Ġ×Ķ ×Ľ×ľ
Ġ×Ľ ×ŀ×Ķ
Ġ×©×ľ ×ļ
Ġ×© ×Ŀ
×Ľ ×¨
Ġ×ŀ ×ŀ×©
×ķ×© ×Ķ
Ġ×Ĵ ×ĳ
Ġ×Ķ×ŀ ×Ĺ
Ġ×ª ×Ĺ
Ġ×Ķ×Ĳ ×Ĺ×¨
×Ľ ×Ļ×Ŀ
×ķ×ĵ ×Ļ
Ġ×Ĵ ×¨
×¢ ×Ŀ
Ġ×ķ× ¤
Ġ /
Ġ×Ľ×Ĳ ×Ł
Ġ×ľ ×ł×ķ
Ġ×© ×¨
×ķ×ŀ ×Ļ×Ŀ
Ġ×ŀ ×ķ×¦
×Ļ× ¥
Ġ×ľ ×Ľ×Ŀ
×ł ×ķ×¢
×¦ ×¨
Ġ .
Ġ×ł ×Ľ
×Ļ×¡ ×ĺ
×ĳ ×Ĳ
×Ļ×ĳ ×ķ×¨
×ķ×Ĳ ×Ķ
Ġ×ķ×ľ ×Ķ
Ġ×ĳ ×ł×Ļ
Ġ×Ĺ ×ľ×§
×¡ ×ª
Ġ×©×ľ ×ķ
Ġ×©×Ķ ×ķ×Ĳ
Ġ×ĵ ×ĳ×¨
o n
Ġ×ľ ×ĺ
Ġ×Ĳ ×ĸ
Ġ×Ķ×Ļ ×ķ×Ŀ
×Ļ×ĳ ×ķ×ª
×ł ×ĵ
Ġ×ĳ ×Ł
Ġ×Ļ ×ķ×Ŀ
×§ ×¡
×ķ×¡ ×£
Ġ×ł ×ª
Ġ×ľ ×ľ×Ĳ
Ġ×Ľ ×©
Ġ×ľ ×ļ
Ġ×Ľ ×ķ×ľ
×ŀ ×¡
Ġ1 9
Ġ×Ķ×ŀ ×¢
×Ļ×Ĳ ×ķ×ª
×ª ×ķ
×Ļ×¤ ×ķ×¨
Ġ×ł ×¤
×ĳ ×ķ×¢
×Ķ ×¨
Ġ×ª ×©
×Ļ×ł ×ķ×ª
Ġ×© ×ł×Ļ
Ġ×© ×Ĺ
e s
Ġ×ĳ×ª ×Ĺ
Ġ×Ĳ×ĳ ×Ļ×ĳ
Ġ×¢ ×¨
×© ×Ŀ
×§ ×ĺ
Ġ '
Ġ×ŀ×¡ ×¤×¨
Ġ×¢×ĳ ×ķ×¨
×¦ ×ª
Ö µ
×Ļ×ŀ ×Ļ
o r
Ġ×Ĳ ×ķ×¨
Ġ×© ×ł×Ļ×Ŀ
o m
×ķ×¨ ×¡
Ġ×ĳ×Ĳ ×ŀ×¦
Ġ×ĳ×Ĳ ×ª×¨
Ġ×Ķ×ĳ ×Ļ×ª
Ġ×ª ×ķ×Ľ
a n
×ĳ ×Ĺ
×Ľ ×ĳ
×ķ×ŀ ×ķ×ª
Ġ×ľ×ŀ ×¢
Ġ×Ķ×ŀ ×¡
×ķ×ł ×Ļ×ª
×ķ×¢ ×ĵ
×Ļ×Ľ ×ķ×ª
×© ×ķ×ĺ
×ķ×ľ ×ķ×Ĵ
×Ľ ×ķ×Ļ×ķ×ª
×Ļ×ĺ ×Ķ
×Ļ×ľ ×ª
Ġ S
Ġ×Ķ ×Ļ×ķ
Ġ×ķ× §
Ġ×ª ×ŀ
Ġ×Ķ×¨ ×ĳ×Ķ
Ġ×ª ×Ĵ
×Ĺ ×ľ
×Ļ×Ĺ ×Ķ
×ł ×Ļ×ķ×ª
Ġ×Ķ×ŀ ×ª
×§ ×Ļ×Ŀ
Ġ×Ĳ×ľ ×Ĳ
Ġ×Ľ ×Ł
×Ļ×¡ ×Ķ
Ġ C
×ķ×© ×Ĳ
×¦ ×¢
Ġ×ľ×¢ ×©×ķ×ª
Ġ×¢ ×ķ×ĳ
×ľ ×¤
Ġ×Ķ×ŀ ×ĵ
Ġ×Ĳ ×Ĺ×ª
×Ļ×ĵ ×Ļ
Ġ×ĳ ×ĸ
Ġ×¤ ×Ļ
×Ļ×¤ ×ķ×ľ
×Ĵ ×¢
Ġ×ł ×¢
Ġ×Ķ×ª ×§
×ķ×Ĺ ×ĵ
×ķ×ĵ ×Ļ×Ŀ
×§ ×ķ×ª
×¦ ×ĳ
! !
×ĳ ×ķ×ĵ×Ķ
Ġ×ĸ ×ŀ×Ł
×Ļ×Ĳ ×ľ
×ĳ ×ĵ
Ġ×§ ×©×¨
×© ×§
×¦ ×ķ×ª
×ķ×© ×ľ×Ļ×Ŀ
×¦ ×Ļ×Ķ
a r
×Ľ ×Ļ
×Ľ ×ķ
×ķ×ĳ ×Ļ×Ŀ
×ĺ×¨ ×ł×ĺ
Ġ×Ĳ ×ŀ×¨
×©×¨ ×ĵ
Ġ×ľ ×ľ
Ġ×¨ ×ĳ
×Ļ×ĳ ×¨
Ġ×ŀ×© ×¤
×ŀ ×ķ×¨
×Ĵ ×ķ×¨
Ġ×Ĳ ×Ĺ
Ġ :
×¢ ×ĵ
×Ļ×ŀ ×ª
Ġ×ľ×§ ×ĳ×ľ
×ľ ×Ŀ
Ġ 6
×ķ×ĳ ×ª
×ĵ ×©
×Ļ×ŀ ×ķ×ª
Ġ×ł ×§
×ĳ×¨ ×ª
Ġ×ĳ×Ĳ×ŀ×¦ ×¢×ķ×ª
Ġ×§ ×ķ×ĵ
×¤×¨ ×¡
×ķ×ľ ×ķ×ª
Ġ×ķ×¢ ×ķ×ĵ
Ġ×© ×ł×Ķ
Ġ×ķ× ĸ
Ġ×ľ×¤ ×Ļ
Ġ×ĳ×ĳ ×Ļ×ª
Ġ×ŀ×© ×Ķ
Ġ×Ĳ×ª ×Ķ
Ġ×ĳ×Ĳ ×ķ×¤×Ł
Ġ×Ĳ ×Ļ
Ġ×Ķ×¡ ×¤×¨
Ġ×© ×Ļ×¨×ķ×ª
×ĳ ×ĺ
×§ ×ĳ
Ġ×¢ ×¡×§
×ķ×¦ ×¨
âĢ ¦
Ġ×ĳ ×Ļ×©×¨×Ĳ×ľ
×Ļ×ł ×Ĵ
×ĳ ×Ļ×¨
Ġ×¨ ×Ĺ
×Ļ×ĳ ×ª
×¨ ×Ĺ
Ġ×Ĳ ×¡
Ġ×Ľ×Ĳ ×©×¨
Ġ×ł ×¡
×¨×ĳ ×ķ×ª
Ġ×¦×¨ ×Ļ×ļ
Ġ×Ķ×Ĺ ×ľ
Ġ×ĳ ×Ļ
×Ĵ ×Ŀ
×¢ ×Ļ
×Ļ×¨ ×Ļ
×¤ ×ķ
Ġ×ŀ ×ľ×Ĳ
Ġ×Ľ ×ĵ
×ķ×¤ ×Ļ
×¨×Ĳ ×ķ×ª
×© ×Ĳ
Ġ×ķ× ¡
×Ļ×Ĳ ×Ķ
Ġ×Ķ×Ĵ ×ĵ
×Ļ×¦ ×ķ×ĳ
Ġ×Ļ ×ķ×ĵ
×Ĳ ×ł
Ġ 7
Ġ×ŀ×§ ×¦×ķ×¢
×ķ×© ×Ļ×Ŀ
Ġ >
Ġ×Ķ ×ĳ×¨
Ġ A
× ģ
i l
×ķ×ł ×ª
Ġ×Ķ×ŀ ×ľ
Ġ×Ĳ×ª ×Ŀ
Ġ Â
Ġ ×Ļ×ª
Ġ×ĳ×ŀ ×¡
×ŀ ×Ļ×ª
e n
Ġ×ŀ×© ×ª
Ġ×Ĳ×Ĺ×¨ ×Ļ
×Ļ×Ĺ ×¡
Ġ×Ĳ×ł ×Ĺ×ł×ķ
×ķ×¦ ×Ļ×Ŀ
Ġ×Ķ×Ĳ ×Ŀ
×ĳ ×ķ×¨
Ġ×ł ×Ĺ
×ĵ ×ľ
×ķ×Ľ ×Ķ
Ġ×Ĳ ×ĵ×Ŀ
Ġ×Ĳ×ķ×ª ×Ķ
×§ ×Ķ
×¨ ×ķ
×¤ ×¢
×ĳ ×ķ×ĵ
Ġ×ĵ×¨ ×ļ
×ķ×§ ×¨
Ġ×¨ ×©
Ġ×¨ ×¦
a l
Ġ×ŀ ×Ļ×ľ
×Ĵ ×©
Ġ×ķ×Ĵ ×Ŀ
×Ĳ ×Ł
Ġ×ľ×Ķ ×Ŀ
Ġ×Ľ ×¡
Ġ×Ĳ ×Ļ×ļ
×Ļ×ľ ×ĵ
âĢ ª
Ġ×Ķ×¨ ×ĳ
Ġ×Ĺ×ĵ ×©
Ġ×©×ľ ×Ľ×Ŀ
Ġ×Ľ ×ł
Ġ×¤ ×©×ķ×ĺ
×Ĵ ×Ļ×Ŀ
×Ľ×ª ×ĳ
×Ļ×ł ×Ŀ
Ġ×Ĳ×ł ×©×Ļ×Ŀ
Ġ×Ĺ ×Ļ×Ļ×Ŀ
Ġ×Ĳ×ķ×ª ×Ŀ
Ġ×ĳ ×ľ×ĳ
×Ļ×© ×Ļ
Ġ×ł ×Ķ
×ķ×ŀ ×ª
Ġ×§ ×ľ
Ġ×ª ×¢
×ķ×¡ ×ĺ
×ķ×ĵ ×©
×Ļ×Ľ ×Ļ×Ŀ
×Ĵ ×Ļ×©
e l
Ġ×Ĳ ×ĵ
Ġ T
Ġ×ł ×ŀ×¦
Ġ×¢ ×ŀ
Ġ2 00
Ġ×© ×Ĳ×ª
×Ļ×Ľ ×ª
Ġ1 0
Ġ×ŀ ×ķ×¡
Ġ×Ľ ×ŀ
i t
Ġ×Ĺ ×ľ
1 9
Ġ×© ×Ļ
a t
Ġ×ĳ×ŀ ×©
Ġ×Ĵ ×ľ
Ġ×ľ×ŀ ×¦
Ġ×Ĵ×ĳ ×ķ×Ķ
Ġ×¤ ×ľ
Ġ×Ĺ ×ĵ×¨
×Ļ×ª ×ķ×Ĺ
×Ļ×¤ ×Ļ×Ŀ
×Ĳ ×ŀ
×Ľ×© ×Ļ×ķ
Ġ×Ļ×Ķ ×Ļ×Ķ
Ġ M
×ĳ ×Ļ×ª
Ġ B
Ġ×Ĺ×ĳ×¨ ×ª
×Ļ×ĸ ×Ķ
×§ ×ĵ
Ġ×Ĵ×ĵ ×ķ×ľ
×Ļ×¢ ×Ļ×Ŀ
×ĺ×¨ ×Ķ
Ġ×¢×ĳ ×ķ×ĵ×Ķ
×Ĳ ×ĳ
Ġ×©×Ĳ ×ł×Ļ
Ġ×Ĳ ×¤
×ķ ×Ļ×§
×§ ×ľ
Ġ P
×Ķ ×ŀ
×Ľ ×ķ×Ł
Ġ×ĳ ×Ļ×ĺ
Ġ×Ķ×Ĺ ×ĳ×¨×Ķ
Ġ×Ĳ ×£
Ġ×¤×¢ ×Ŀ
×©×ĳ ×ķ×Ł
×ķ ×ķ×Ĺ
×ķ×ĳ ×Ł
×Ĺ ×ķ×Ł
Ġ×Ķ×§ ×¨
×Ļ×ł ×ķ×Ļ
×ķ ×ķ×Ł
Ġ×¨ ×ĳ×Ļ×Ŀ
×¡ ×Ļ
Ġ×Ĳ×ľ ×Ķ
×ª ×Ķ
Ġ×Ķ ×ķ×ľ
Ġ×Ķ ×Ļ×©
Ġ×ŀ×ª ×Ĺ
×ķ×§ ×Ķ
Ġ×ķ× ĵ
× ´
Ġ×Ļ ×ķ×¦
Ġ×¨ ×ķ×¦×Ķ
×ĳ ×ķ×§
×Ļ×¤ ×ķ×©
×¦ ×ķ
×Ļ ×Ļ
×ķ×Ľ ×Ł
×ŀ ×¢×ķ×ª
Ġ 8
×¡ ×Ļ×Ŀ
Ġ×Ķ×Ľ ×Ļ
Ġ×ŀ×§ ×ķ×Ŀ
×ł×Ķ ×ľ
×Ļ×¦ ×ķ×¨
Ġ×ł×ķ×¡ ×¤×Ļ×Ŀ
×Ļ×¢ ×ķ×ª
Ġ×ĳ×¢ ×ķ×ľ×Ŀ
Ġ×ľ×Ķ ×©
×Ļ×ł ×Ļ×Ļ×Ŀ
Ġ×Ķ×¨×Ĳ×© ×ķ×Ł
×ķ×¢ ×ľ
×ł ×Ĳ×Ļ
×Ļ×¦ ×Ķ
Ġ×ł ×Ĵ×ĵ
×¦ ×Ļ×Ŀ
Ġ 0
×Ķ ×ª
×ĸ ×ŀ
2 01
×ł×Ļ ×Ļ×Ŀ
×¡ ×Ķ
×ĳ ×ķ
Ġ×ŀ ×ķ×ŀ
Ġ×Ķ×¢ ×ķ×ľ×Ŀ
×¤ ×©
×Ĵ ×Ķ
×ª ×Ŀ
Ġ×© ×Ļ×¢
×ł ×ķ×Ł
Ġ×Ķ×Ļ ×Ļ×ª×Ķ
×Ļ×ĳ ×Ļ×Ŀ
Ġ×©×ľ×Ķ ×Ŀ
Ġ×Ľ ×Ķ
Ġ×Ľ×ľ ×ľ
Ġ×Ķ×¢ ×Ļ×¨
×¡ ×¤×¨
×ĵ×Ļ ×Ļ×Ł
Ġ [
×ĳ ×Ļ×ľ
Ġ×ĳ×ŀ×§ ×ķ×Ŀ
Ġ×Ķ×ª ×Ĺ
Ġ×ŀ ×Ļ×ĵ×¢
Ġ×Ĳ ×¦×ľ
×Ĳ ×ĸ
Ġ H
Ġ×ŀ ×¨×Ľ×ĸ
×Ĵ ×¨×ª
×ľ ×ķ×ľ
×ĺ ×ľ
×ķ×§ ×Ļ×Ŀ
×ł ×Ĵ
Ġ×Ĳ ×©
×ĵ ×ķ
×¤×ª ×Ĺ
×Ļ ×Ļ×Ł
o t
i c
Ġ×© ×Ļ×ŀ×ķ×©
Ġ×Ķ×© ×ľ
Ġ×Ĳ ×Ķ
Ġ×ŀ ×ķ×ĵ
Ġ×Ķ ×ķ×ĵ
×ŀ ×ĺ
Ġ×ŀ ×ķ×ľ
Ġ ×Ļ×ľ×ĵ×Ļ×Ŀ
Ġ×Ĵ ×ķ×¨
×¤ ×ķ×Ĳ
Ġ×Ķ×Ĳ ×ª×¨
Ġ×§ ×ĳ
Ġ×ĳ×ŀ ×Ĺ
×©×ª ×ŀ×©
Ġ×Ĳ ×ł×ķ
×Ļ×ł ×ĺ×¨×ł×ĺ
Ġ×Ķ×ŀ×© ×¤×ĺ
×Ļ×ĺ ×ª
Ġ×¤ ×ķ×¨
×ķ×ĳ ×¢
Ġ â
×¨ ×©
Ġ×Ĺ×© ×ķ×ĳ
×Ļ ×Ļ×Ķ
Ġ×ĳ×ŀ ×Ļ
Ġ×Ķ ×Ł
Ġ×Ķ×ŀ ×Ĳ
Ġ×© ×ķ×ł×Ļ×Ŀ
Ġ×ŀ ×ķ×©
Ġ×Ĳ ×ķ×¤
×¦ ×ŀ
Ġ×Ĳ×ª ×¨
Ġ×© ×©
Ġ×ľ×Ķ ×¢
Ġ×Ĳ×ª ×¨×Ļ×Ŀ
×Ļ×§ ×Ļ×Ŀ
Ġ×ĳ ×Ļ×ł
Ġ×Ĳ ×ķ×ĺ
Ġ×ĵ ×Ļ×Ł
Ġ×ľ ×ĸ
Ġ×ĳ×ª×Ĺ ×ķ×Ŀ
×ķ×Ĺ ×Ķ
Ġ×ĳ ×ĵ×¨×ļ
×Ļ×ĳ ×ľ
1 0
Ġ×¡ ×ĺ
Ġ×¤×¨ ×ĺ
Ġ×ĳ×¢ ×ľ
Ġ×ľ×Ķ ×ĳ
Ġ×Ĳ ×ķ×Ķ
Ġ×ŀ ×Ľ×ľ
Ġ×ĳ×ľ×ĳ ×ĵ
Ġ×ŀ ×ł×ª
×Ļ×ľ ×ķ×Ŀ
×ķ×¦ ×Ĳ×ķ×ª
×Ļ×¨×ķ×¢ ×Ļ×Ŀ
×Ĺ ×ķ×¨
Ġ×Ķ×© ×ł×Ļ
×§ ×Ļ
Ġ×¨ ×Ľ
Ġ×¤ ×¡
Ġ×ľ×Ķ ×¦
Ġ×ľ×ŀ×¦ ×ķ×Ĳ
×©×ľ ×ķ×Ŀ
×ĳ×¨ ×Ļ×ª
×¤×§ ×Ļ×ĵ
Ġ×Ĺ ×¡
Ġ×ŀ ×ķ×ĸ
Ġ×¤×¨ ×¡
Ġ×Ĳ×ķ×ª ×Ļ
Ġ×ŀ ×Ł
Ġ×Ĺ ×ķ×©
Ġ×Ķ ×ķ×¨
Ġ 9
×ĳ×ľ ×ª
Ġ×ľ ×¤×¨
r e
×Ļ×ķ ×ķ×Ł
×Ķ ×Ĳ
Ġ×Ĳ ×Ļ×ł×ķ
×© ×ķ×ĳ
×Ļ×ł ×ķ×ļ
×¨×Ľ ×Ļ×Ŀ
×Ļ×ĵ ×ķ×ª
Ġ×Ľ×ķ×ľ ×ľ
×Ĵ ×ķ×ª
Ġ×ľ×Ķ×Ĵ ×Ļ×¢
×§ ×ķ
Ġ×ŀ×§ ×ķ×¨
Ġ×ľ ×¨×Ĳ×ķ×ª
×ĺ ×Ĺ
Ġ×ķ× ĺ
×¤×ķ×¨ ×ĺ
Ġ×¡ ×ķ×Ĵ
×ķ×ŀ ×Ļ×ª
Ġ×© ×ĳ×¢
s t
âĢ Ļ
×ĺ ×Ķ
Ġ×ŀ×ª ×ķ×ļ
Ġ×ľ ×Ļ×ŀ
Ġ×¡ ×¨×ĺ
Ġ×Ĳ×ľ ×ķ
Ġ×Ķ×ĸ ×Ľ×ķ×Ļ×ķ×ª
×Ĵ ×ĳ
×Ļ×ľ ×Ļ
×ł ×Ŀ
Ġ×Ĳ×Ĺ×¨ ×Ļ×Ŀ
Ġ×ŀ ×ķ×¨
Ġ×Ķ×ŀ ×¦
×ĳ×¨ ×ķ×ª
×§ ×ª
Ġ I
×ķ×ľ ×ĵ
×¢ ×ķ
Ġ×ĵ ×Ļ
Ġ×¤ ×ª
Ġ×ĳ×Ķ ×ª
×Ķ×ľ ×Ļ×ļ
Ġ×ŀ×©×Ķ ×ķ
Ġ×ľ×ŀ ×©
Ġ×ķ× ¦
Ġ×Ĺ ×ķ×§
×ķ×¤ ×¨
Ġ×©×Ķ ×Ŀ
×ĳ ×©
Ġ×ĳ×Ķ ×Ŀ
Ġ×ĵ ×§×ķ×ª
Ġ×ŀ×© ×Ĺ×§
Ġ×ª ×¨
×¤ ×ķ×Ł
Ġ×ĺ ×¨
Ġ×ĳ ×Ļ×ķ×Ŀ
×ĸ ×¨×Ķ
×ķ×Ĳ ×ľ
Ġ×ª ×ŀ×Ļ×ĵ
Ġ×ª ×ķ×ļ
Ġ D
×Ļ×ł ×Ļ×ķ×ª
×Ļ×Ĵ ×Ķ
×Ĵ ×Ł
×¨ ×ķ×Ł
×ķ×¤ ×©
Ġ×¢ ×Ľ×©×Ļ×ķ
Ġ×§ ×ķ×¨
×Ĺ ×ľ×ĺ
Ġ×ª ×Ķ
Ġ×ĳ×Ĳ ×¨×¥
Ġ×ª ×Ĳ
Ġ×©×Ķ ×Ļ×Ĳ
×Ķ×ľ ×ļ
Ġ×Ķ×Ĳ ×ł
×ķ×¨ ×Ļ×Ķ
Ġ×ķ×¢ ×ľ
Ġ×§ ×Ļ
Ġ×Ķ×ĸ ×ŀ×Ł
l e
×ķ×Ĵ ×ľ
Ġ×ĳ ×¤×¨
Ġ×ĳ×¢ ×ľ×Ļ
Ġ×© ×ĸ×Ķ
Ġ×ł ×Ļ×¡
h e
c om
Ġ×ľ×ŀ ×Ķ
×©×¨ ×ķ×ª
×ķ×Ľ ×¨
Ġ R
Ġ×¢ ×©
×Ļ×Ĺ ×ķ×ª
Ġ×ķ×Ĳ ×ª
Ġ×¨×Ĳ×© ×ķ×Ł
' ,
×ķ×¤ ×ª
Ġ×Ķ ×ĵ×¨
×ŀ×¢ ×ĺ
×Ĵ ×ª
Ġ×ŀ×ĵ ×ķ×ĳ×¨
×Ļ×ĳ ×Ļ
×ŀ ×ł×Ļ×Ŀ
Ġ×©×ŀ ×ķ×¨×ķ×ª
×ķ×ĵ ×ª
00 0
Ġ×ľ×§ ×¨
Ġ×ĺ ×¢
×ķ×ª ×ķ
Ġ×Ľ ×©×Ķ
×©×¨ ×Ķ
×ķ×ŀ ×¨×Ļ×Ŀ
×Ļ×¢ ×ķ
Ġ×ĳ×© ×ľ
×¤ ×Ļ×§
Ġ×Ļ×¨ ×ķ×©×ľ×Ļ×Ŀ
Ġ×Ĳ ×Ļ×ª
Ġ×Ķ×© ×ª
×ľ ×ķ×Ł
Ġ×Ĳ ×Ļ×¨
×© ×ķ×¨×ª
Ġ×ĺ ×ĳ×¢
Ġ×ĳ ×Ļ×§
×Ľ ×Ļ×¨
×ŀ×© ×ļ
Ġ×ĳ ×ĵ×Ļ
×¨×Ľ ×ķ×ª
×¨ ×ĵ
Ġ×ķ ×Ļ
Ġ×Ĺ×ĵ ×©×ķ×ª
×Ļ×¤ ×ķ×ª
Ġ×¡ ×ĳ
×ĳ×¨ ×Ļ
Ġ×ĳ×ŀ ×¢
Ġ×ĳ ×ľ×Ļ
×Ķ ×©
×Ļ×ĳ×¨ ×¡
Ġ×ĵ ×¢×ª
o o
e t
Ġ×Ķ ×ķ×¤
×ķ×¦ ×Ĳ×Ķ
×¨×ĺ ×Ļ×¡
Ġ×© ×¢×ķ×ª
Ġ×§ ×©×Ķ
Ġ×© ×ł×ª
Ġ×Ķ×Ĺ ×Ļ×Ļ×Ŀ
Ġ×¢×¦ ×ŀ
×ķ×ł ×Ļ×ĳ×¨×¡
Ġ×Ļ×Ľ×ķ×ľ ×Ļ×Ŀ
ĠÂ »
Ġ×ľ×ĵ ×¢×ª
Ġ×ĳ ×Ĵ×ľ
×ķ×ĳ ×ķ×¡
×ķ×ĳ ×ľ
×¨ ×§
×ĸ ×ķ
×Ļ×ł ×Ļ×ª
Ġ L
Ġ×¢×¦ ×ŀ×ķ
Ġ×Ķ×ŀ×© ×¤
Ġ×¦ ×¢
×Ļ×¡ ×ĳ×ķ×§
Ġ t
×ĳ ×Ĺ×¨
×ķ×¤ ×Ļ×Ŀ
Ġ×Ķ×Ľ ×ł×¡
5 0
×¦ ×Ļ×ķ×ª
×ķ×ŀ ×Ł
Ġ×ĳ×ŀ ×Ķ×ľ×ļ
Ġ×Ķ×© ×ł×Ķ
Ġ×Ķ×¢ ×ĳ×ķ×ĵ×Ķ
×Ļ×ĺ ×Ļ×Ŀ
Ġ×Ľ ×¨
×Ķ ×¦
×ķ×ł ×ĵ
Ġ×§ ×¦×ª
Ġ×¢ ×ĵ×Ļ×Ļ×Ł
×¨×Ĳ ×ľ×Ļ
Ġ G
×ķ×¦ ×ķ×ª
×ķ×ĵ ×©×Ļ×Ŀ
Ġ×ŀ×Ĳ ×ŀ
×ª ×Ĵ
Ġ×© ×ķ×ĳ
×Ĺ ×ķ
Ġ×¨ ×¢
Ġ×Ķ×Ĳ ×¨×¥
Ġ×ķ×Ķ ×ķ×Ĳ
Ġ×©×ĳ ×ķ×¢
Ġ×¤ ×Ĺ×ķ×ª
Ġ×¢×ľ ×Ļ×ķ
Ġ×ĳ×ŀ×Ļ ×ķ×Ĺ×ĵ
×Ļ ×Ļ×ª
âĢ «
×Ļ×ĵ ×Ļ×Ŀ
Ġ×ķ×ŀ ×¢
ĠâĢ ľ
Ġ×ª ×¤
Ġ×ĳ×¦ ×ķ×¨×Ķ
Ġ×ŀ×ª ×§
Ġ ×Ļ×ĳ
Ġ×ĳ×ł ×ķ×©×Ĳ
×Ļ×Ľ ×Ŀ
Ġ×Ķ×ŀ ×Ļ
×Ļ×ŀ ×ķ×Ł
Ġ×Ķ×ª ×¢
×Ľ×ł ×ķ×ľ×ķ×Ĵ
Ġ×ŀ ×ķ×Ĵ
Ġ×ĳ×© ×ł×ª
×Ļ×© ×ķ×¨
Ġ×© ×ĳ×Ķ
Ġ×ł ×¨×Ĳ×Ķ
Ġ×ł ×ŀ
×Ľ ×ŀ×Ķ
Ġ ×Ļ×§
Ġ×ĵ ×ķ
×ķ×ĳ ×Ļ
a c
×Ļ×ĺ ×Ļ
×Ļ×¦ ×ĵ
Ġ1 2
Ġ×ľ×ĳ ×Ļ×ª
Ġ×¨ ×Ĵ
×ĵ×¨ ×Ķ
Ġ×ĵ ×ĳ×¨×Ļ×Ŀ
Ġ×¤ ×ķ×ľ
×ŀ ×ķ×ł×Ķ
Ġ×ł ×Ļ
Ġ×©×ĳ ×ķ
Ġ×ĳ×Ĳ ×ŀ×ª
' '
×ķ×© ×¨
Ġ W
o u
Ġ×Ķ×ŀ×ĵ ×Ļ×ł×Ķ
×Ļ×¦ ×ķ×¢
×ł ×Ļ×§
1 2
×Ľ ×ķ×ľ
Ġ×Ĳ ×ķ×ŀ×¨
Ġ×ł ×Ĳ
×ľ ×Ļ×ª
×Ľ ×ł×¡
×ĸ×¨ ×Ĺ
Ġ×ŀ×© ×ŀ×¢×ķ×ª
×ĳ×¢ ×ª
Ġ ×Ļ×¤
Ġ×Ĳ ×Ļ×Ľ×ķ×ª
Ġ×Ķ×Ĺ ×ĵ
Ġ×Ĺ ×ŀ
×ľ ×ķ×Ĺ
Ġ201 8
×ķ×Ľ ×Ļ×Ŀ
Ġ×Ķ ×Ļ×ª×Ķ
Ġ×ŀ×¢ ×¨×Ľ×ª
Ġ×Ķ×¤ ×¢
Ġ ...
×ķ×ľ ×¨
Ġ×ĳ×¨ ×Ĺ
Ġ×Ķ×ł ×ª
Ġ×¡ ×¤
×Ļ×Ĵ ×ķ×ĵ
Ġ×Ĳ×¤ ×Ļ×ľ×ķ
Ġ×Ķ×¢ ×¡×§
×¢ ×ª×Ļ
×Ļ×ŀ ×ķ
Ġ×ĺ ×ķ×ĳ×Ķ
Ġ×ł×ķ×¡ ×£
×Ļ×© ×ķ×¨×Ļ×Ŀ
Ġ×Ľ ×Ĺ
×Ľ ×¡
Ġ×Ļ×Ĺ ×ĵ
×ĳ ×ª×Ļ
×ł ×Ł
×ĵ ×Ļ×Ķ
Ġ×ķ×Ķ ×ª
Ġ×ķ×ĳ ×¢
Ġ×ĸ ×ķ×Ĵ
Ġ×ĳ ×Ļ×¨
Ġ×¦ ×Ļ
Ġ×¡ ×Ļ
Ġ×ķ×¢ ×ĵ
Ġ×Ķ×ĳ ×Ļ×ĺ
Ġ×Ĺ ×¨
Ġ×Ĳ×Ĺ×¨ ×ª
Ġ×ŀ×ĳ ×Ĺ
×Ļ×ķ ×ķ×§
Ġ×¨ ×ĳ×ķ×ª
Ġ×ľ×Ľ ×ļ
Ġ×ŀ ×©×¨×ĵ
×ŀ ×ł×ķ×ª
Ġ×¨ ×ķ×ĳ
×Ĳ ×Ļ×Ł
Ġ2 0
Ġ×ĳ×ª ×ķ×ļ
Ġ ×Ļ×ŀ×Ļ×Ŀ
×ľ×Ĺ ×Ķ
Ġ×ŀ×Ļ ×ķ×Ĺ
Ġ×Ķ×¨×Ĳ×© ×ķ×ł×Ķ
Ġ×ĳ×Ĳ ×¨
i s
×ķ×¢ ×¨
×Ĳ ×Ļ×ļ
Ö ¾
Ġ×© ×¤
Ġ F
×ķ ×ķ×Ļ
Ġ×Ĳ ×ķ×ľ×Ļ
Ġ×§ ×ķ×ľ
e d
a m
×Ľ ×ł×Ļ×ª
×¡ ×Ŀ
Ġ×ľ ×ķ×§
Ġ×ŀ ×¨×Ĵ
Ġ×ł×Ľ ×ķ×Ł
Ġ×Ķ×¢ ×ķ×ĳ
×Ļ×¦ ×Ļ×Ŀ
×ľ×ķ ×ķ
×¨×Ĵ ×ķ×Ł
Ġ×ŀ ×ķ×¤
Ġ ?
×ķ×¦ ×¨×Ļ×Ŀ
Ġ×Ĺ ×ª
Ġ×ķ×Ľ ×Ł
Ġ×ķ ×Ļ×©
Ġ×ŀ ×ķ×ª
×Ļ×Ķ ×ķ×ľ
×ķ×ĵ ×Ļ×ª
Ġ×ŀ ×ĵ×Ļ
×¢ ×Ļ×£
Ġ×ķ×ľ ×Ľ×Ł
Ġ×Ķ×ĵ ×Ļ×Ł
Ġ×ĳ×ĸ ×ŀ×Ł
Ġ×ª ×Ĺ×ª
Ġ×ŀ×ķ×ŀ ×ľ
Ġ×ķ×ŀ ×Ķ
Ġ×¢ ×ķ×ŀ
Ġ×©×Ĳ ×Ļ×Ł
×Ļ×¢ ×ª
Ġ×ĳ×ĵ×Ļ ×ķ×§
Ġ×¨ ×Ľ×ĳ
Ġ×ŀ×¢ ×ĺ
Ġ×Ķ ×ľ×Ĳ
Ġ×ĺ ×Ļ
×ĵ ×ķ×¨
Ġ×ŀ ×ł×Ķ
×ĵ ×£
Ġ×Ľ ×ĸ×Ķ
×ŀ ×ĳ
×ł ×¢
Ġ×¢ ×ª
Ġ×Ľ ×¤×Ļ
Ġ×Ķ×ĳ ×Ĳ
×ķ×¤ ×ķ×ª
Ġ×Ĺ×ĳ×¨ ×Ķ
Ġ×ľ×Ĵ ×ĳ×Ļ
×ķ×Ĵ ×¨
×Ĵ×ľ ×Ļ×ª
×ł ×¦
Ġ×ŀ×© ×¤×ĺ
×Ļ×§ ×ķ×ª
Ġ×Ļ×ķ×ĵ ×¢
Ġ×Ľ ×ĳ
Ġ×Ķ ×ł×Ķ
Ġ×ľ×ĳ ×ĵ
×Ľ ×ķ×ł×Ļ×Ŀ
×Ķ ×¤
Ġ×¡ ×ŀ
Ġ×© ×ķ×§
Ġ×ĳ×¢ ×ª
Ġ×¤ ×Ķ
Ġ×ķ×Ĳ ×ł×Ļ
×ķ ×Ļ×Ļ×Ŀ
1 1
×¨ ×ļ
Ġ×ľ×Ķ ×¤
Ġ×¢ ×¨×ĳ
×ł×ĺ ×Ļ×Ŀ
×ķ×ł ×Ļ×Ļ×Ŀ
Ġ×Ķ×Ĺ ×©
Ġ×ŀ ×ľ×Ĺ
×ĳ ×ķ×¨×Ķ
Ġ×Ķ×ŀ ×¨×Ľ×ĸ
×Ļ×Ľ ×ķ×Ł
Ġ×¢ ×ķ×¨
Ġ×ķ×Ľ ×ľ
2 0
Ġ×ł ×ĵ
×Ļ×ĺ ×¨
Ġ×ª ×ĳ
Ġ×ĸ ×ŀ
×¨×Ĳ ×Ļ
Ġ×ķ×ŀ ×ª
Ġ×Ķ ×Ļ×¨
Ġ×Ķ ×ĳ×ľ
Ġ×Ķ×Ĳ ×ĵ×Ŀ
×Ļ×ª ×¨
×Ĳ×ª ×Ķ
×Ķ ×¡
Ġ×Ľ ×ŀ×¢×ĺ
Ġ×Ĺ ×ķ×ĵ×©×Ļ×Ŀ
×ł×ķ ×Ļ×ķ×ª
\ \
Ġ×Ķ ×©×¨
Ġ×ĳ×ª ×§
×ķ×¨ ×Ĵ
×ķ×Ĳ ×Ļ×Ŀ
Ġ×ŀ×©×ª ×ŀ×©
Ġ×ľ×¤ ×¢
×Ĳ×ª ×¨
×ĳ×ľ ×Ķ
Ġ×ķ×ĸ ×Ķ
Ġ×Ķ×Ļ ×Ļ×ª×Ļ
Ġ×ĳ×Ľ×ľ ×ľ
Ġ×ĳ ×ª×Ļ
Ġ×© ×ŀ×©
Ġ×© ×ĺ
Ġ×Ķ×¨ ×©
Ġ E
c o
×Ļ×ł ×ķ×§
Ġ×ł ×ķ×ª
Ġ1 8
Ġ×Ķ×ĸ ×ķ
Ġ×¢ ×Ļ×¨
Ġ×Ķ×ŀ ×ĳ
×¢×¨ ×Ļ×Ľ×ª
Ġ×ľ ×Ľ×ª
×Ķ ×¢
×Ķ ×ĵ
×Ķ ×Ĳ×Ŀ
Ġ×ķ×Ķ ×ŀ
×Ļ×ª ×ķ×£
×ĸ ×¨×ª
Ġ×ŀ×Ĺ ×Ļ×¨
×ĵ×¨ ×ª
3 0
Ġ×Ĵ ×Ļ×ľ
×ķ×Ĺ ×Ļ×Ŀ
×§ ×ķ×¨
Ġ×©×Ķ ×Ļ×Ķ
×ĵ×¨ ×ķ×ª
Ö ²
×¨×Ĳ ×ª
×ķ×ł ×Ļ×ķ×ª
Ĥ ª
×ł×Ļ ×Ļ×Ķ
' .
Ġ×ł ×©×Ļ×Ŀ
×ĳ ×Ļ×ĳ×Ķ
Ġ×Ķ×Ĺ ×ĵ×©
Ġ×ŀ×¢ ×ľ
Ġ×Ĺ×ĵ ×©×Ļ×Ŀ
Ġ ×Ļ×¤×Ķ
×ŀ×© ×ľ×Ķ
Ġ×ĳ×Ĵ×ľ ×ľ
Ġ×Ĺ×ĳ×¨ ×ķ×ª
Ġ×Ķ×Ĺ ×ľ×ĺ
×¡ ×¨
Ġ×ĳ×© ×ĳ×Ļ×ľ
Ġ×ŀ ×ķ×ĳ
Ġ×ł×ŀ×¦ ×Ĳ
Ġ×Ķ×Ĵ×ĵ ×ķ×ľ
Ġ×¨ ×¤×ķ×Ĳ
×ķ×¤ ×¡
×§ ×ĳ×ķ×ª
Ġ×© ×ª×Ļ
×Ĳ ×ľ×Ķ
×¤×ľ ×Ļ×§
×ĳ ×¡
×§ ×©
Ġ×§×ĺ ×Ł
Ġ×Ĺ×ĵ ×©×Ķ
Ġ×¡ ×¤×§
×Ĺ ×©
×§ ×¢
Ġ×Ĵ×ĳ×ķ×Ķ ×Ķ
Ġ ×Ļ×ŀ
×ľ ×Ļ×Ĺ
1 8
×Ļ×ĵ ×ķ×Ŀ
Ġ×ŀ ×ķ×Ľ
Ġ×©×ŀ ×¢
Ġ×Ĳ×ķ×ĺ ×ķ×ĳ×ķ×¡
Ġ×ĳ×¢ ×Ļ×§×¨
×ľ×¤ ×ķ×Ł
Ġ1 5
×ķ×¡ ×¨
Ġ×© ×ķ×Ŀ
Ġ×ĳ ×¨×Ĳ×©
Ġ×ŀ×Ĳ ×ĵ
Ġ×ª×Ĵ ×ķ×ĳ×Ķ
Ġ×ĳ×ŀ ×ĵ
Ġ×Ķ×¦ ×ĵ
×ĳ ×Ł
Ġ×Ĺ ×ķ×ĸ
Ġ×Ļ×Ľ×ķ×ľ ×Ķ
Ġ×ľ ×¨×Ľ
Ġ×ľ×Ķ ×¡
Ġ×ĳ×ŀ×¡ ×Ĵ×¨×ª
×¡×§ ×Ļ
×Ĵ ×ķ
×©×¨ ×ª
Ġ×© ×Ľ×ľ
×Ļ×ĵ ×ª
Ġ×ĳ×ľ ×ª×Ļ
×ķ×Ĵ ×Ķ
×ķ×ľ ×Ĺ
Ġ×¢ ×Ļ×¦×ķ×ĳ
Ġ×¦ ×ĳ×¢
Ġ×Ķ×Ķ ×ª
Ġ×ľ×§×¨ ×ķ×Ĳ
Ġ×Ĺ ×©×ĳ×ķ×Ł
×ķ×§ ×Ĳ
×Ļ×ĺ ×ľ
Ġ×ĳ×ª ×ľ
Ġ ×Ļ×¡
Ġâ Ĥª
Ġ×Ķ×§ ×ĺ
Ġ×Ķ×ŀ ×ĺ
Ġ×ľ×ŀ ×§
Ġ×ľ×ŀ ×ĵ
Ġ×ŀ×Ķ ×Ŀ
Ġ×Ľ×ª ×ĳ
Ġ×ŀ×Ĳ ×ĸ
Ġ×Ĳ×ķ×ª ×ļ
Ġ p
Ġ×ŀ×¦ ×ĳ
×¡ ×ķ×Ł
Ġ×Ķ ×ķ
Ġ×§ ×©
×Ľ ×ķ×¨
×Ĳ ×ĳ×ľ
a s
in g
Ö¼ Ö¸
Ġ×ŀ ×ķ×¢
×Ķ ×Ĺ
Ġ×§ ×ķ
Ġ×Ķ ×Ļ×ľ×ĵ×Ļ×Ŀ
×Ļ×Ĺ ×ª
×Ĵ ×ķ×Ł
Ġ×Ķ×§ ×ĳ
Ġ×Ķ×© ×ĳ×ķ×¢
×ĳ×¨ ×ķ
×¤ ×Ļ×Ķ
Ġ×Ĳ×ķ×ª ×ł×ķ
×Ĵ×Ļ×© ×ķ×ª
×Ļ×§ ×ķ×Ŀ
Ġ×ŀ ×Ļ×Ŀ
×Ĺ×¨ ×Ļ
Ġ×§ ×¦
Ġ×Ķ×Ĵ ×ĳ
Ġ×ª×Ĵ ×ķ×ĳ×ķ×ª
×ĳ×¢ ×Ķ
×Ļ×ł×ķ ×Ļ×Ļ×Ŀ
×Ļ×©×Ķ ×ķ
Ġ×Ķ×Ĳ ×¨
×ł×Ļ×ª ×Ł
Ġ×Ļ ×ķ×¨
Ġ×Ľ×ĵ ×Ĳ×Ļ
×ł×Ļ ×Ļ×ª
Ġ×Ķ×ª ×Ĳ
×ķ×ł ×ĺ
Ġ×ľ ×Ļ×ĵ
Ġ×ŀ×¡ ×ķ
×Ļ×ĳ ×Ļ×ª
×ł ×ª×Ļ
Ġ×Ķ×¨ ×Ļ
Ġ ×Ļ×Ĳ
×ĳ×ľ ×Ļ×Ŀ
×ķ×ĵ ×ľ
Ġ×¨ ×ķ×¦×Ļ×Ŀ
×Ĳ ×Ļ×ª
Ġ×ķ×ŀ ×©
Ġ×Ķ×Ľ ×ķ×ľ
Ġ×ľ×ŀ ×©×ľ
Ġ×ł ×Ĵ
Ġ×Ķ×¡ ×¨×ĺ
Ġ×Ĳ×ľ ×§
Ġ×ĳ ×ĵ×¨
Ġ×ĳ×¢ ×¦
×ŀ×© ×Ļ×ļ
Ġ×¢ ×ķ×©×Ķ
Ġ×© ×ķ×ł×ķ×ª
×ķ×¦ ×ª
Ġ×Ĳ×Ļ×© ×Ļ
Ġ×ĺ ×Ļ×¤×ķ×ľ
Ġ×¦ ×ĵ
Ġ×¨ ×ĳ×Ķ
×Ļ×¢ ×ķ×¥
×ķ×ł ×ķ
×¨×Ľ ×Ķ
Ġ×Ķ×¤ ×¡
Ġ×ķ×Ķ ×©
×Ļ×§ ×ķ×Ł
Ġ×ŀ ×ĸ×Ķ
Ġ×Ľ×¡ ×£
Ġ×ľ×Ĳ ×ª×¨
Ġ×¡ ×Ļ×¤
h t
×ķ×¤ ×ĺ
×ŀ ×ĳ×¨
Ġ×Ĳ ×Ļ×ł×Ķ
×Ĳ ×¡
×ł ×©×Ļ×Ŀ
Ġ×Ĵ×ĵ ×ķ×ľ×Ķ
Ġ×©×Ķ ×ª
Ġ×ľ×Ľ ×Ł
Ġ×Ĺ ×ķ×ľ
×ķ×¡ ×Ļ×£
Ġ×ľ×ª ×ª
Ġ×Ķ ×ĵ×¨×ļ
Ġ×Ķ×Ĳ×Ĺ×¨ ×ķ×Ł
a d
2 00
×Ĳ ×¤×©×¨
Ġ×ŀ×Ļ×ľ ×Ļ×ķ×Ł
×Ļ×© ×ķ×Ŀ
w w
×ķ×Ĵ ×¢
Ġ×Ķ×¦ ×Ļ×ĳ×ķ×¨
Ġ×Ĳ ×Ĵ
Ġ×ľ×ŀ ×¨×ķ×ª
×ŀ ×ķ×Ł
Ġ O
âĢ ı
1 5
Ġ×Ĳ ×ķ×Ľ×ľ
i g
×ł ×Ĺ×ł×ķ
Ġ×Ķ×© ×Ļ×ŀ×ķ×©
×Ĺ ×ĸ
×ķ×§ ×ĺ
×Ļ×§ ×ª
Ġ×Ķ×Ĵ ×¨
Ġ×Ĳ ×ķ×ŀ
×ŀ ×¤
Ġ×Ľ ×ķ×ľ×Ŀ
Ġ×ľ×ĳ ×Ļ×Ł
Ġ×ĳ×¢ ×Ļ×¨
Ġ×ŀ ×ĵ×¨
Ġ×ĵ ×ķ×ĵ
Ġ×ł ×¦
Ġ m
Ġ×¤×¢ ×Ļ×ľ×ķ×ª
Ġ ×Ļ×Ĵ
Ġ×©×ĳ ×ª
×© ×¢
Ġ×ľ ×Ļ×ľ×ĵ×Ļ×Ŀ
o l
Ġ×¤×¢ ×ķ×ľ×Ķ
Ġ×Ķ×¤ ×ľ
Ġ×© ×ł×ķ×ª
Ġ×ľ×Ķ ×©×ª×ŀ×©
×Ļ×© ×Ļ×Ŀ
Ġ×Ķ ×ľ×ĳ
Ġ×ľ×ª ×§
Ġ N
Ġ×Ķ×ŀ ×Ľ
Ġ×¡ ×ķ×£
×ł ×Ĺ
×Ļ×ĸ ×Ļ×Ķ
×ķ×© ×ª
×¨×Ĳ ×ķ
×Ĳ ×ł×ķ
Ġ×ª×ķ×Ľ ×ľ×ķ
Ġ×¨ ×ķ×Ĺ
×Ļ×ĺ ×ĳ
Ġ×Ĳ ×ķ×ľ×Ŀ
Ġ×¢×¨ ×Ļ×Ľ×Ķ
×ķ×Ĺ ×¨
Ġ×ª×ŀ ×ķ×ł×ķ×ª
×ĳ×ľ ×Ļ
Ġ×ľ×¢ ×¦
×ł×¡ ×Ķ
Ġ×Ĺ ×Ļ×ł×Ŀ
Ġ×ŀ ×ĺ×¨
Ġ×ŀ ×ķ×§
×Ļ×ł ×ĺ
ĠâĢ ¢
Ġ×Ķ×Ľ ×¨
×ķ×ķ ×Ļ×Ŀ
×Ļ×ĵ ×ķ
×ķ×¡ ×¤×ª
×Ļ×¨ ×ķ
×Ĺ ×ķ×§
Ġ×ł ×ĺ
Ġ×¦ ×ķ×¨×ļ
×ķ×© ×Ļ
×ķ×© ×Ĳ×Ļ×Ŀ
u s
×Ļ×ĵ ×ķ×¨
Ġ×¡ ×ľ
Ġ×ľ×¦ ×Ĳ×ª
×ķ×ª ×Ķ
Ġ×ĳ×ŀ ×Ķ
Ġ×ĵ ×ķ×¨
Ġ ×Ļ×ľ
Ġ×Ľ ×ķ×ª
Ġ×ĳ×ŀ×© ×ļ
×Ĳ ×ŀ×¨
Ġ×Ľ×Ļ ×ķ×Ŀ
×ľ ×ŀ×Ļ×ĵ
Ġ×¢ ×ķ
Ġ×Ľ×ŀ ×ķ×ĳ×Ł
×ķ×Ļ×§ ×ĺ
Ġ×Ĳ×ľ×§ ×ĺ×¨
Ġ×ľ×Ĺ ×ľ
×ĳ×ľ ×ķ
×¨×ĳ ×Ļ
i d
o w
×¨×Ĵ ×¢
Ġ×¢ ×ķ×©×Ļ×Ŀ
Ġ×Ķ ×Ļ×Ĺ
×Ĺ×¨ ×ķ×ª
Ġ1 4
Ġ> >
×Ļ×Ľ ×¨
Ġ×Ķ×¨ ×¦
Ġ×¢ ×ŀ×ķ×ĵ
Ġ×ª×Ķ ×Ļ×Ķ
i on
Ġ×ŀ×Ĳ ×ª
×Ļ×© ×ķ×ª
Ġ×ĳ×¡ ×Ļ×¡
×Ľ ×ļ
Ġ×Ķ×© ×§
Ġ×Ĺ ×Ĵ
Ġ×Ķ×ŀ ×Ĵ
r a
Ġ×ŀ×Ĳ ×¤×©×¨
×Ĳ×¨ ×Ļ×ļ
×ł×ķ×¢ ×Ķ
Ġ×ŀ×ŀ ×ł×ķ
Ġ×ĳ×Ķ×ª ×Ĳ×Ŀ
Ġ×ĵ ×£
Ġ×ľ×Ķ ×¨
Ġ×ľ×¤ ×Ĺ×ķ×ª
Ġ×ª ×ķ×ĵ×Ķ
Ġ×Ĺ ×ĳ
×ŀ ×ķ×§
Ġ×¦ ×Ļ×ĳ×ķ×¨
×ķ×¤ ×ķ
×Ľ×ľ ×Ķ
×ł×Ļ ×ķ
Ġ×Ķ×ª ×Ĵ
Ġ×ŀ ×¤×ª
×ķ×© ×ĳ
Ġ×ĺ ×Ļ×¤
Ġ×¤ ×ł×Ļ×Ŀ
Ġ×Ķ×ĵ ×ĳ×¨
Ġ×Ľ ×Ļ×¦×ĵ
c h
Ġ b
Ġ×Ķ×ŀ ×Ļ×ĵ×¢
Ġ×ŀ×¡ ×ª
Ġ×Ķ×¢ ×ª
Ġ×Ķ×ª ×ŀ
Ġ×ª ×ł×Ĳ×Ļ
Ġ×Ķ ×ľ×§
Ġ×Ľ ×Ľ×ľ
Ġ×ľ×Ĺ ×¥
Ġ×Ĺ ×Ļ×¤×Ķ
Ġ×ľ ×¨×Ĳ×©
Ġ×¨ ×ŀ×ª
×ķ×¡ ×Ļ×Ŀ
×Ļ×ĺ ×ķ×ª
Ġ×ĳ×§ ×¨
×ķ×ŀ ×ķ
×ķ×¦ ×Ļ×Ĳ
Ġ×ľ×§ ×ķ×Ĺ×ķ×ª
×Ļ×ĸ ×Ŀ
×ĵ ×Ł
Ġ×ŀ×Ķ ×ŀ
Ġ×Ķ×ĵ ×ĳ×¨×Ļ×Ŀ
×ķ×ľ ×ĺ
Ġ×Ķ ×Ļ×ĵ
Ġ×ĳ×Ĳ ×ĸ×ķ×¨
×ł ×Ĳ
Ġ3 0
Ġ×¡ ×Ļ×ŀ
Ġ×ľ×Ĳ ×ķ×¨
Ġ×ŀ ×ª×Ļ
Ġ×ł ×Ļ×¦
×Ļ×¦ ×¨
×¢ ×ķ×ĵ
Ġ×©×Ĳ×ª ×Ķ
Ġ×Ļ ×Ļ×Ĺ
×ľ ×ŀ×Ķ
Ġ×ŀ×§×¦×ķ×¢ ×Ļ
×¤×¨ ×Ļ×ĺ
Ġ×¢×¡×§ ×Ļ×Ŀ
×¡ ×ĺ×¨
Ġ×ľ×Ĳ ×ķ×¨×ļ
×Ķ ×Ĵ
×ķ×Ĵ ×Ļ×Ŀ
Ġ×ľ ×ĳ×¨
Ġ×ĳ×Ļ×¨ ×ķ×©×ľ×Ļ×Ŀ
Ġ×Ĺ ×ĸ×§
Ġ×Ķ×Ĺ ×ķ×§
×ł ×ĵ×¨
×ľ ×ļ
Ġ×ľ×ĵ ×ĳ×¨
Ġ×¢ ×ķ×ľ×Ķ
Ġ×Ķ×Ĳ ×ľ
Ġ×ľ×© ×ł×ķ×ª
Ġ×ĳ×ł ×ķ×¡×£
Ġ )
Ġ1 6
o f
i v
×Ļ×Ķ ×Ł
Ġ, âĢ¬
×Ļ×¡×ĺ ×ķ×¨×Ļ×Ķ
Ġ×Ĳ×Ĺ×¨ ×ķ×ª
Ġ×¢ ×ķ×ľ×Ŀ
×ł ×¨
Ġ×ķ×Ķ ×¢
×ķ×¨ ×£
Ġ×§ ×ĵ
Ġ s
Ġ×¡×¤×¨ ×Ļ×Ŀ
Ġ×Ķ×ŀ×© ×Ĺ×§
Ġ×ĸ ×¨
Ġ×ķ ×Ļ×§
×ľ ×Ł
Ġ×¡ ×Ĵ
Ġ×Ľ ×¨×ĺ×Ļ×¡
Ġ×Ĳ×ľ ×Ļ×ķ
×©×¨ ×Ļ×Ŀ
Ġ×ľ×ľ ×ŀ×ķ×ĵ
Ġ×Ķ×§ ×ķ×ĵ
×¤×ķ×¨ ×¡×Ŀ
Ġ×Ķ×ĸ ×Ĳ×ª
Ġ×¤ ×ł
Ġ×© ×Ļ×Ķ
×ķ×ĺ ×¨
Ö¼ Ö°
×ķ×ľ ×ª
×Ĳ ×©
×§ ×¡×ĺ
Ġ×Ľ ×¤
Ġ×Ķ×ŀ ×ŀ×©×ľ×Ķ
Ġ×¢×¦ ×ŀ×Ļ
Ġ×Ľ×ľ ×Ļ
Ġ×Ľ ×Ĵ×ķ×Ł
Ġ×¢×ķ×ĳ ×ĵ
×Ĳ ×ľ×Ļ
Ġ×ŀ ×¨×Ĳ×©
Ġ×ľ×ĳ ×¦×¢
×ķ×¨ ×¨
Ġ×ķ×Ĳ ×ĸ
Ġ×Ĳ×Ļ×© ×Ļ×ª
Ġ×ª ×¨×Ĵ
Ġ×ľ ×ĸ×Ķ
Ġ×ŀ×ľ ×ķ×Ł
×ķ ×ķ×Ĳ
Ġ×Ķ×© ×Ļ×¨×ķ×ª
Ġ×ľ×Ķ×ª ×Ĺ
×ķ×ŀ ×Ļ×Ļ×Ŀ
×Ļ×Ĳ ×ª
Ġ×ŀ×Ĵ ×ķ×ķ×Ł
×Ĳ ×Ĵ
Ġ×ľ×Ķ×ĳ ×Ļ×Ł
Ġ×Ķ×Ľ ×ª
Ġ×ľ×ĳ ×Ĺ×ķ×¨
×Ļ×ŀ×Ļ ×Ļ×ľ
×¨ ×¦
Ġ×¤×¢ ×ŀ×Ļ×Ŀ
Ġ×ĳ×Ĳ ×Ļ×ł×ĺ×¨×ł×ĺ
r o
Ġ×¤×¨ ×§
1 7
Ġ×Ķ×ŀ ×ľ×Ĳ
Ġ×ľ×ŀ ×¡
Ġ×Ķ×Ļ×© ×¨×Ĳ×ľ×Ļ
×© ×ŀ
×§ ×©×Ķ
×Ľ ×ł×Ļ×Ŀ
×ľ×ķ×ķ ×Ļ×ĸ×Ļ×Ķ
×ķ×ł ×¡
×¤×Ļ ×Ļ×Ķ
×ķ×ķ ×Ļ×¨
a g
×© ×Ļ×¨×ķ×ª
Ġ×ĳ×ŀ ×¨×Ľ×ĸ
×ķ×ĵ ×¢×Ķ
Ġ×ĳ×ŀ×§ ×¨×Ķ
Ġ×¦×¨ ×Ļ×Ľ×Ļ×Ŀ
. "
Ġ×ŀ×¢ ×ĳ×¨
Ġ×ķ ×Ļ×ĵ
Ġ×Ĺ ×Ļ×¤×ķ×©
1 4
Ġ×ª×© ×¢
×ķ×ł ×Ł
×Ľ×ł ×ķ×Ł
Ġ×ĳ×¨ ×ķ×¨
Ġ×ŀ×© ×§
×Ļ×© ×ª
Ġ×ĳ×¢ ×§×ĳ×ķ×ª
Ġ1 3
Ġ×ĳ×¤ ×ł×Ļ
×ł ×©
Ġ×ľ ×ł×¡
Ġ×ł×ª ×ł×Ļ×Ķ
Ġ×ķ×Ķ ×¡
Ġ×Ĺ ×©×ĳ
t er
Ġ×ĳ×Ļ×ĺ ×ķ×Ĺ
Ġ2 4
×Ļ×¦ ×Ļ×¨×ª
×ķ×ĺ ×Ļ
×ķ×¡ ×Ļ
×Ĵ×ķ×¨ ×Ļ×Ķ
Ġ×Ķ×ŀ×ľ ×ķ×Ł
Ġ1 7
Ġ×ŀ ×ĵ×Ķ
Ġ×ľ ×Ļ×¦×ķ×¨
Ġ×Ķ×Ĳ ×ľ×Ķ
Ġ×©×Ĳ×ª ×Ŀ
Ġ ×Ļ×Ŀ
×ĸ ×ķ×Ł
Ġ×ľ×ŀ ×Ĺ
Ġ×Ļ×ĵ ×¢
Ġ×©×Ļ×¨×ķ×ª ×Ļ
Ġ×Ķ×ĳ ×¢
×Ļ×Ľ ×ľ
.. ..
Ġ×ĸ ×Ľ×ķ×Ļ×ķ×ª
Ġ×¨ ×©×ª
Ġ×ŀ×¦ ×ĵ
Ġ ×Ļ×ľ×ĵ
Ġ×Ķ×Ĳ×Ĺ×¨ ×ķ×ł×ķ×ª
Ġ×ķ×Ķ ×Ĳ
×ĳ ×Ļ×¢×Ķ
Ö¼ Ö´
Ġ×Ķ×ŀ×§ ×ķ×Ŀ
Ġ×©×§ ×ľ
Ġ×ŀ×ķ×¦ ×¨×Ļ×Ŀ
Ġ×Ĵ ×Ł
×¤ ×ķ×Ĳ×Ķ
×ł×ĺ ×Ļ
×Ļ×¡ ×ª
Ġ×Ĺ ×ķ×ĳ
×ŀ ×ļ
1 6
×ŀ ×Ľ
×Ļ×¤ ×ķ
×Ĺ ×ĳ
×Ĺ×§ ×¨
Ġ \\
Ġ×§×ķ×ĵ ×Ŀ
×ķ×¢ ×Ķ
Ġ×Ĳ ×Ļ×ĸ×Ķ
×ł ×Ĳ×Ļ×Ŀ
Ġ×ķ×Ĳ ×£
×ľ×Ļ ×ķ×Ł
Ġ×ĳ×Ľ ×ļ
×ķ×Ľ ×ł×Ļ×ª
Ġ×Ķ×ª ×Ļ
Ġ×© ×Ĵ×Ŀ
Ġ×ł ×Ļ×§
×ķ×¡ ×§
Ġ×Ķ×ŀ ×ķ×©
Ġ×ŀ×Ľ ×Ł
×Ľ ×ķ×Ŀ
Ġ×ĵ×ķ ×ķ×§×Ĳ
Ġ×ľ×§ ×Ĺ×ª
Ġ×ŀ×¡ ×¢
1 3
Ġ×ŀ×Ļ ×ķ×Ĺ×ĵ
Ġ×Ķ×Ĵ ×Ļ×¢
×¦×¨ ×Ļ×ļ
×ķ×¤ ×Ĳ
Ġ×Ķ×ĳ ×Ĺ
×©×ª ×ª
Ġ×¡ ×§×¡
Ġ×Ķ×© ×ł×Ļ×Ŀ
×ł×Ļ ×ķ×Ł
×Ľ ×ł×ª
âĢ ĵ
Ġ×Ĳ ×Ļ×¨×ķ×¢×Ļ×Ŀ
×ķ×Ĵ ×¨×Ļ×Ŀ
Ġ×ľ×¢ ×ĳ×ķ×ĵ
Ġ×Ķ×Ĳ ×ŀ
Ġ×ľ×Ķ ×ķ×¨
×Ļ×¡ ×ķ×Ļ
Ġ×¤ ×Ļ×¨
×© ×ķ×¨
×Ĳ ×©×¨
×©×Ķ ×ķ
Ġ×ĳ×¨ ×©×ª
Ġ×ł ×Ļ×Ķ×ķ×ľ
Ġ×Ĳ ×ķ×ĵ×ķ×ª
×ĵ×Ļ ×ķ×Ł
Ġ×ĳ×¡ ×¤×¨
×ķ×¦ ×¢
×Ķ ×Ļ×ľ×Ķ
Ġ×Ľ ×¤×¨
×Ļ×Ĺ ×ĵ
Ġ×Ľ ×ķ×Ĺ
×ķ×ł ×Ĵ
Ġ×ķ×Ĳ ×Ŀ
Ġ×¦ ×ķ×¨
Ġ×Ķ×¨ ×Ĵ
×Ĺ ×ª×Ļ
Ġ×Ķ×ŀ ×ķ×¢
Ġ×Ķ×ŀ×©×¤ ×Ĺ×Ķ
Ġ×ĳ×¨ ×Ļ×Ĳ×ķ×ª
Ġ×ł×ķ×¡ ×¤×ķ×ª
Ġ×Ĳ×Ļ×ł ×Ŀ
Ġ×Ĳ×ª ×Ľ×Ŀ
Ġ×Ķ×Ĺ ×Ļ
×Ļ×ľ ×ķ×ĳ
Ġ×ŀ×ķ×ŀ×ľ ×¥
Ġ×¤ ×ª×¨
×ķ×ł×Ļ×ĳ×¨×¡ ×Ļ×ĺ×ª
Ġ×Ĺ ×ķ×ķ×ª
Ġ×ŀ ×ł×Ķ×ľ
×¨×ĳ ×Ļ×ª
Ġ×Ķ×ĳ×¨ ×Ļ×ª
Ġ×¦ ×Ķ
Ġ×© ×¢×ľ
×Ļ×Ĳ ×ķ×¨
× ³
Ġ×Ĵ×ĵ ×ķ×ľ×Ļ×Ŀ
Ġ201 7
Ġ×¢×ķ×ĳ ×ĵ×Ļ×Ŀ
Ġ×¢ ×ĳ×¨
×ķ×Ľ ×ķ×ª
×ĸ ×ľ
×ł×Ļ ×Ļ×ł×Ļ×Ŀ
Ġ×©×ŀ ×ª
Ġ×Ĺ ×ķ×ĵ×©
×¤×¨ ×ĺ
Ġ×¦ ×Ļ×ľ×ķ×Ŀ
Ġ×ŀ×ª ×Ĳ
×ķ×ķ ×Ļ×Ķ
×ŀ×¦ ×Ĳ
Ġ×Ļ×Ķ ×ķ×ĵ×Ķ
×ł ×Ļ×¡
Ġ×¡ ×¤×ķ×¨×ĺ
×ŀ×¢ ×¨×Ľ×ª
Ġ×ł×ķ×¡ ×¤×ª
- -
Ġ×ľ×¢ ×ķ×ľ×Ŀ
Ġ×ľ×¦ ×ĵ
Ġ×ŀ×¡ ×ķ×Ĵ
Ġ×Ĳ×ł ×©×Ļ
Ġ×ĳ×ŀ ×¨
×ķ×¢×ĵ ×ķ×Ł
Ġ×© ×Ĵ
Ġ×¤×¨ ×ĺ×Ļ
×ķ×ĸ ×Ļ
Ġ×ķ×Ķ ×Ļ×Ĳ
Ġ×ł ×ĳ
Ġ×ľ×¤ ×ª
Ġ×©×Ļ×¢ ×¨
×Ľ ×¨×ª
Ġ×ĵ ×§
×ķ×ĸ ×Ķ
Ġ×Ķ×© ×ŀ
×ķ×¢ ×Ļ×Ŀ
×© ×ŀ×Ķ
Ġ×ĳ×§ ×¨×ĳ
Ġ×ŀ×Ĳ ×©×¨
×¡ ×Ļ×¡
×ĳ×¢ ×Ļ×Ŀ
×¤ ×Ĳ
Ġ×ŀ ×ķ×ł
Ġ×ķ×Ľ ×ķ
×Ļ×Ľ ×ł×¡
×Ļ×Ĺ ×Ļ×Ŀ
×ķ×¨ ×Ĳ
×¨×Ĵ ×ľ
×Ķ ×ķ×Ĳ
×ķ×Ĳ ×ķ
×ŀ×© ×Ĺ×§
×ŀ×¨ ×Ļ
×ķ×Ĵ ×Ļ×ķ×ª
Ġ×ŀ×ĳ ×ĺ
×ł×¡ ×Ļ×Ŀ
Ġ×Ķ×ĳ ×Ĳ×Ļ×Ŀ
Ġ×Ľ×ľ ×ľ×Ļ
Ġ×¡ ×Ļ×¤×ķ×¨
Ġ×Ĺ ×Ļ×ľ
Ġ×ľ×© ×ŀ
Ġ×¤ ×Ĵ
×¤ ×Ļ×ľ×ķ
Ġ×© ×Ľ×Ł
Ġ×ľ ×ķ×ŀ×¨
Ġ×Ĳ ×Ļ×¨×ķ×¢
Ġ×§ ×Ļ×ĳ
Ġ×Ķ×¨ ×¢
Ġ×Ļ×Ĺ ×¡
Ġ×ĳ ×Ĺ×¨
Ġ×Ĵ ×ķ×ľ
Ġ×ŀ×Ĺ ×ĵ×©
Ġ×ĳ×© ×Ŀ
×¢×¨ ×ļ
Ġ×ľ ×Ĵ×¨
Ġ×ª ×Ķ×ľ×Ļ×ļ
Ġ×ŀ×©×¤ ×Ĺ×Ķ
Ġ×¨×Ĳ ×©×Ļ
×ķ×ĳ ×¢×ª
Ġ×Ĳ×Ļ×ł ×ĺ×¨×ł×ĺ
×¨ ×Ļ×Ķ
Ġ×Ľ ×ķ×Ľ
×ķ ×Ļ×¨
×¤ ×ķ×¡
×ĺ×Ļ ×Ļ×Ł
Ġ×Ķ×Ĺ×ĵ ×©×Ķ
Ġ V
×Ļ×ª ×Ļ×Ŀ
Ġ×Ķ ×Ļ×©×¨×Ĳ×ľ
×ľ×§ ×ª
Ġ×Ĳ ×¦
a y
Ġ×Ķ×ĸ ×ŀ
Ġ×© ×¢×Ķ
Ġ×§ ×ĳ×ľ×ª
Ġ×ŀ×¡ ×¤×Ļ×§
×ķ×¨ ×ĵ
×Ĵ ×Ļ
Ġ×ŀ×© ×ľ
i r
Ġ1 1
!! !
Ġ×Ķ×ª ×©
Ġ×© ×¡
Ġ×¦ ×ķ×ķ×ª
Ġ×ķ×ŀ ×§
Ġ×ł×Ļ×¡ ×Ļ×ķ×Ł
Ġ×Ķ×Ĳ ×ĵ
Ġ×Ĳ ×¤×¨
Ġ×Ļ×ķ×ĵ ×¢×Ļ×Ŀ
×ķ×Ĺ ×ª
Ġ×ĸ ×§
Ġ×ľ×§ ×¨×Ĳ×ª
×ŀ ×ª×Ļ
Ġ×© ×Ĺ×§
Ġ×ľ×Ķ×ª ×§
Ġ×ľ×ĳ ×Ł
Ġ×¦ ×¤
Ġ×ŀ×ŀ ×ľ
×¤×Ļ ×Ļ×¡×ĳ×ķ×§
×ĵ×¨ ×Ļ×Ŀ
Ġ×ŀ ×ķ×Ĺ
Ġ×Ĵ ×ķ×£
Ġ×©×ľ ×ķ×Ŀ
Ġ×ĳ ×ĳ×¨
Ġ×ķ×Ĳ ×Ļ×Ł
×Ļ×§ ×ķ
Ġ×Ķ ×Ļ×ł×ķ
Ġ×ĵ ×ķ×ľ×¨
Ġ×© ×Ļ×¨
Ġ×Ľ×Ķ ×Ł
×Ķ ×§
×ķ×§ ×ª
×¦ ×Ļ×ľ×ķ×Ŀ
Ġ×Ķ×Ĳ ×¤×©×¨
Ġ×Ķ×Ľ ×¡
Ġ×Ķ×Ĺ ×Ļ×ł×ķ×ļ
Ġ×ĸ ×Ľ
Ġ×Ķ×¨ ×Ľ
Ġ×ķ×ŀ ×¡
×Ĳ×ł ×Ĺ×ł×ķ
Ġ×ĳ ×Ļ×ĵ
×ķ×Ķ ×Ļ×Ŀ
Ġ×ķ×ľ ×¢
Ġ×¨ ×ķ×Ĳ×Ķ
×ŀ×Ļ×ĵ ×Ķ
Ġ×ŀ×Ĵ ×Ļ×¢
Ġ×Ļ ×ķ×¡×£
Ġ×Ļ×¦ ×Ĺ×§
Ġ×ŀ×ª ×Ĳ×Ļ×Ŀ
Ġ×ŀ×©×¤ ×Ĺ×ª
×ķ×ľ×Ĺ ×Ł
Ġ×Ķ×ŀ ×ķ×¡
Ġ×ľ×© ×Ŀ
×Ķ ×ĳ×Ķ
Ġ×ĳ×Ķ ×¨
×Ĺ ×Ŀ
×ĵ ×ķ×ĵ
×Ļ×§ ×ĺ
Ġ f
×ŀ ×ķ×ľ
Ġ×ª ×ª
Ġ×ª×ķ×Ľ ×Ł
Ġ×Ĺ ×ķ×ŀ
Ġ×ĳ×Ķ ×Ĺ×ľ×ĺ
Ġ×¢ ×©×ķ
Ġ×Ķ×Ķ ×Ĵ
Ġ×§ ×Ļ×ĳ×ľ
Ġ×Ķ ×Ĺ×¨
×ķ×Ĳ ×Ļ
Ġ×ľ×ŀ ×Ļ
oo k
×ķ×ĳ ×Ļ×ľ
Ġ×Ķ×ŀ×© ×ļ
Ġ×ľ×¢ ×ĸ×ķ×¨
×Ĳ ×ķ×Ł
Ġ×©×ŀ ×Ĺ
Ġ×Ķ×ĺ ×ķ×ĳ
Ġ×Ļ×¢ ×§×ĳ
Ġ d
Ġ×Ľ×ľ ×Ľ×ľ
Ġ×ľ×ŀ×¢ ×©×Ķ
Ġ×© ×Ļ×ł×ķ×Ļ
Ġ×ł ×Ļ×ķ
×ª ×ķ×ĵ×Ķ
×ķ×¢ ×ĵ×Ķ
×ŀ ×ķ×ļ
Ġ×©×Ĳ ×ł×Ĺ×ł×ķ
×Ľ×ª ×ķ×ĳ×ª
Ġ×¡ ×Ļ×Ľ
Ġ×§ ×¦×¨
×ľ ×¢
Ġ ×Ļ×ķ
Ġ×ª ×¤×§×Ļ×ĵ
Ġ×Ķ×Ľ×ł×¡ ×ª
×ľ×Ĺ ×ŀ×Ķ
Ġ×Ĵ ×ķ×Ĵ×ľ
Ġ×Ĳ ×Ļ×ĸ
×Ļ×¡ ×§
Ġ×Ķ×Ĳ ×Ļ×ł×ĺ×¨×ł×ĺ
×¤×¡ ×Ķ
Ġ×ª×ľ ×ŀ×Ļ×ĵ
×ŀ×§ ×ķ×Ŀ
Ġ×¢×ľ ×Ļ×Ķ
×Ļ×Ĳ ×ĺ×¨
×Ļ×ŀ ×ķ×ĵ×Ļ×Ŀ
Ġ×Ĳ×ľ ×Ļ×Ķ
Ġ×Ķ×§ ×ĵ
Ġ×Ľ×Ĳ ×ľ×Ķ
×ľ×¤ ×ł×Ļ
×Ļ×¡ ×ķ×ª
Ġ×ŀ×© ×ķ×Ŀ
×¤ ×Ĵ
Ġ×© ×ķ×ł×Ķ
Ġ×Ķ×Ĵ ×ķ×£
Ġ *
Ġ×ķ×Ķ ×Ĺ
×ķ×ŀ ×ĺ×¨
×Ļ×ł ×¨
×ŀ×Ļ×ĵ ×¢
Ġ×ĳ×¨ ×§
Ġ×Ĳ ×ĸ×ķ×¨
×Ĳ ×ķ×¨
Ġ×Ķ ×Ļ×ª×¨
Ġ×¤×¨ ×ĺ×Ļ×Ŀ
Ġ×ķ×© ×ľ
×¤×¨×¡ ×Ŀ
Ġ×§ ×¨×Ĳ
×Ļ×ł ×¡
Ġ×ŀ×© ×ł×Ķ
Ġ×Ķ×ľ ×ľ×ķ
Ġ×Ļ×Ķ ×Ļ×ķ
Ġ×¨ ×ĳ×Ļ
×Ļ×ľ ×ķ×Ļ
Ġ×¢×ľ ×Ļ
×ķ×ľ×ķ×Ĵ ×Ļ×Ķ
Ġ×ĺ×ķ×ĳ ×Ļ×Ŀ
Ġ×ľ×¦ ×Ļ×ķ×Ł
Ġ×ľ×© ×ŀ×ķ×¨
×ĸ ×Ļ×Ŀ
Ġ×ĳ×¢ ×ķ×ĵ
Ġ×Ķ×Ĳ×Ĺ×¨ ×ķ×ł×Ķ
Ġ×Ĳ×ľ×§×ĺ×¨ ×ķ×ł×Ļ
×Ľ ×¨×Ķ
Ġ×ŀ×¡ ×¤×§
×ľ×Ĳ ×Ĺ×¨
Ġ×Ķ×ĺ ×ĳ×¢
Ġ×ľ×¦ ×ķ×¨×ļ
×Ĳ×ª ×Ŀ
Ġ×ŀ×Ĺ ×©
×¢ ×ķ×¨
Ġ×ŀ×¢ ×¨×Ľ×ķ×ª
×ķ×Ľ ×Ĺ
Ġ×ĳ×© ×¢×Ķ
×Ķ ×Ķ
×Ļ×ĺ ×ķ×Ĺ
Ġ5 0
×Ļ×Ĳ ×ķ×Ł
Ġ×ľ×ŀ×¢ ×ľ×Ķ
×ĳ ×ł
âĢ ¢
Ġ1 00
Ġ×ł×¡ ×Ļ×¢×Ķ
Ġ×ŀ×Ķ ×¨
Ġ2 5
ot el
âĢ¬ âĢ¬
Ġ×Ķ×¨ ×Ľ×ĳ
×Ľ×ł×ķ×ľ×ķ×Ĵ ×Ļ×Ķ
Ġ×Ļ×¦ ×Ĳ
? ?
Ġ×¢×¨ ×ļ
Ġ×¤ ×ª×Ĺ
Ġ×§ ×Ļ×Ļ×Ŀ
Ġ×ª ×¨×ĳ×ķ×ª
Ġ×¦×¨ ×Ļ×Ľ×Ķ
×¦ ×Ļ×ª
Ġ×¢ ×ł×§
×ķ×© ×ĳ×Ļ×Ŀ
×ĵ ×ĳ×¨
Ġ×©×Ĳ ×ľ×ķ×ª
Ġ×©×Ĺ ×ķ×¨
×ľ ×ŀ
×Ĵ ×Ļ×¢
Ġ×Ķ×Ļ×©×¨×Ĳ×ľ ×Ļ×ª
Ġ×ŀ×ľ×Ĳ ×Ķ
Ġ×ķ×ĳ ×Ľ×ľ
Ġ×Ĺ×© ×ŀ×ľ
×Ļ×© ×Ļ×ª
Ġ×© ×Ļ×ķ×ķ×§
×ķ×ĵ ×¨
Ġ×ĳ×ł ×§
Ġ×Ķ×ª ×ķ×ĳ×¢
×¨×Ĵ ×Ļ×Ķ
×Ĳ×¨ ×§
Ġ×Ľ×ľ ×ķ×ŀ×¨
×ĳ×ľ ×ķ×Ĵ
Ġ×ł ×ķ×©×Ĳ
Ġ×Ĺ ×§
en t
Ġ×Ĺ×ķ×© ×ĳ
×Ļ×ķ ×ķ×Ļ
Ġ×ª ×¦
Ġ×©×ľ ×ķ×©×Ķ
Ġ×§×ĺ ×ł×Ļ×Ŀ
Ġ×ľ ×ĳ×¢
×ķ×§ ×Ļ
ĠÂ ©
×Ļ ×ķ×¨
Ġ×ŀ ×Ļ×ĵ
×ŀ×¨ ×Ļ×§
×¨×Ľ ×Ļ
×Ĵ ×ł×ķ×Ł
Ġ×Ĵ ×ĸ
×ľ×§ ×Ķ
Ġ×ķ×ŀ ×Ļ
Ġ×Ĺ×Ļ ×Ļ×ĳ
Ġ×ľ ×Ļ×Ķ
Ġ×¡ ×¢×Ļ×£
Ġ×¢ ×ł×Ļ×Ļ×Ł
Ġ×¢×ľ ×Ļ×Ķ×Ŀ
Ġ×ŀ×¦ ×ķ
×ķ×¦ ×Ĳ×ª
×ĳ ×ķ×ľ
Ġ×ķ×ŀ ×¦
Ġ×ĳ ×ĸ×Ķ
Ġ×ĳ×Ĺ ×ķ
Ġ×ŀ×Ļ×ķ×Ĺ ×ĵ×Ļ×Ŀ
×¢ ×Ł
×Ļ×Ľ×ķ×ľ ×ª
×Ĺ×ĵ ×©×ķ×ª
Ġ×¢×¦ ×ŀ×Ķ
Ġ×Ķ ×ĺ×¨
Ġ !
Ġ×ľ ×ķ×Ĺ
×¡×§ ×Ļ×Ŀ
Ġ×ŀ×© ×Ĳ
×ĳ ×Ļ×ĳ
×¤×ª ×Ĺ×ķ×ª
×Ľ ×ķ×ł×Ķ
×Ļ×Ĳ ×ķ
Ġ×ķ ×Ļ×¨
Ġ×§ ×ķ×¨×¡
Ġ×Ĳ ×¨×Ĵ
Ġ ×Ļ×ŀ×Ļ
Ġ×Ķ×ł ×Ĳ
Ġ×Ķ×¡ ×ª
×Ļ×¤ ×ª
Ġ×ľ×¢ ×ŀ×ķ×ĵ
2 5
an d
Ġ×Ĳ×¤×©×¨ ×ķ×ª
es s
Ġ×¦ ×ľ
Ġ×ĸ×Ķ ×ķ
Ġ×Ķ×ŀ ×ķ×Ł
Ġ×Ĺ ×Ļ×¦
×ŀ ×Ļ×Ļ×Ŀ
Ġ×¢ ×ŀ×ĵ
Ġ×ĵ ×ķ×Ĵ
Ġ×¨×Ĺ ×ĳ
×¡ ×¨×ĺ
Ġ×ĵ ×Ķ
×ł ×Ĵ×ľ×Ļ×ª
Ġ×Ķ×ª ×¤
Ġ×ª ×Ļ×§
Ġ×ª ×ķ×¨×Ķ
Ġ×ĳ×ŀ ×Ļ×ĵ×Ķ
Ġ×Ľ ×ķ×¡
Ġ×Ķ×© ×¤
Ġ×ľ×Ķ ×Ľ
×ĳ×¨ ×Ĵ
Ġ×ĳ×¡ ×ķ×£
Ġ×ķ×ľ ×§
×ľ ×ª×Ļ
Ġ×¤ ×¡×§
×ĵ×¨ ×©
Ġ×©×ŀ ×Ł
Ġ×Ķ×ŀ ×¨
×ŀ×¨ ×ķ×ª
Ġ×Ĳ×ľ ×£
×© ×Ļ×¨
Ġ×ŀ×ĳ ×Ļ×Ł
×Ĵ ×ķ×ķ×Ł
Ġ19 9
Ġ×Ķ×Ķ ×¡
Ġ×Ĳ×ľ ×Ļ
Ġ×ĳ×¨×Ĺ ×ĳ×Ļ
×ŀ ×Ļ×Ķ
Ġ×ĺ ×ķ×¢
Ġ×ľ×¤ ×ł×ķ×ª
Ġ×ķ×ĳ ×Ķ
Ġ×ĳ ×¤×Ļ×Ļ×¡×ĳ×ķ×§
Ġ×Ĺ×ĳ×¨ ×Ļ×Ŀ
×ł ×Ļ×Ł
Ġ ×Ļ×ĸ
Ġ×Ķ×Ĵ ×ľ
Ġ×ĵ ×Ļ×¨×Ķ
×ĸ ×Ļ×Ł
Ġ×Ķ×§ ×ľ
×ķ×ĵ ×ł×ĺ×Ļ×Ŀ
×ĳ×ľ ×ķ×ª
Ġ×ŀ×¡ ×ľ×ķ×ľ
Ġ×ŀ ×¤×¨
4 0
×Ķ ×ķ
Ġ×ĳ×Ĵ ×Ļ×ľ
Ġ×ĵ ×Ļ×Ĵ
×Ĳ ×ĵ
Ġ×ŀ ×Ļ×©×Ķ×ķ
×Ĵ×¨ ×ķ×ª
Ġ×ľ×ķ×§ ×Ĺ
×ķ×© ×ķ×ª
Ġ×Ķ×¢ ×¨×ĳ
Ġ×ĳ ×ł×ķ
Â ©
Ġ +
Ġ×Ķ×ŀ×§ ×¦×ķ×¢
×Ľ ×ŀ×ķ
Ġ×Ķ×¢ ×¦
Ġ×§ ×Ļ×ľ
×ĳ×§ ×©
×¤ ×Ł
×Ľ ×Ļ×¨×Ķ
Ġ×ľ×Ķ×ĳ ×Ļ×Ĳ
×ķ×Ľ ×ľ×ķ
×ķ×¨ ×ĺ
×Ļ ×ķ×ł×Ļ
×ĵ ×Ļ×ķ
Ġ×ľ×Ķ ×ĵ
Ġ×ĳ ×Ļ×¦×ķ×¢
Ġ×Ľ ×Ľ×Ķ
×ŀ ×Ĺ×Ķ
Ġ×© ×Ļ×¤
Ġ×ŀ×© ×ķ×ª
Ġ×Ķ×Ĳ ×ķ×¤
×ķ×§ ×¡
Ġ×Ķ×ł ×©
×ĸ×ŀ ×Ļ×Ł
Ġ×ľ×© ×ľ
×Ļ×§ ×ķ×¨
Ġ×ľ×Ķ ×ŀ×©×Ļ×ļ
×§ ×ķ×ľ
Ġ×ł×Ľ ×ł×¡
Ġ×Ķ×Ĳ ×ŀ×¨×Ļ×§
×©×Ļ ×Ļ×Ķ
×ĺ×Ļ ×ķ×ľ
×Ļ×¢ ×Ļ
×¢ ×Ļ×¨
×ķ×ĸ ×Ļ×Ŀ
Ġ×Ķ×ŀ ×ł
Ġ×Ļ×¦ ×Ļ×¨×ª
Ġ×Ľ×ĵ ×ķ×¨
Ġ×ĳ×¢ ×ĳ×¨
Ġ×§ ×Ļ×©×ķ×¨×Ļ×Ŀ
Ġ×©×§ ×ľ×Ļ×Ŀ
×ķ×ĳ ×Ļ×¥
Ġ×ĳ×Ķ ×§
Ġ×©×Ĳ ×ľ×Ķ
Ġ×Ĺ ×ķ×ĳ×Ķ
Ö¼ Ö·
Ġ×ķ×ĳ ×Ĳ
ĠâĢ «
i m
×ŀ ×ķ×ĳ×Ł
Ġ×Ķ×ª ×ķ×¨×Ķ
×ķ×ĺ ×Ļ×Ł
×¦ ×Ļ×ĳ
Ġ×Ĳ×ķ×Ķ ×ĳ
Ġ×ł ×ĸ×§
Ġ×ĳ ×¨×Ĳ
×ĺ ×ķ×¨
Ġ×ĳ×Ĳ ×ķ×ª×ķ
Ġ×ĳ×Ĵ ×Ļ×Ł
Ġ×ķ×ŀ ×Ĺ
Ġ×Ľ×ł ×¨×Ĳ×Ķ
×ŀ ×Ļ×Ł
Ġ×ĳ ×©×¨
Ġ×ŀ×ª ×Ĺ×ª
Ġ×ĳ×Ķ ×¦
Ġ×¤×¨×ĺ ×Ļ×ķ×ª
Ġ×Ķ×ŀ ×ķ×¤
Ġ×ĳ×¢ ×ĸ×¨×ª
o g
Ġ×ķ×Ķ ×¤
×¡ ×ķ×£
Ġ×Ķ×¤×¨ ×ĺ
Ġ×ľ ×Ļ×©×¨×Ĳ×ľ
Ġ×ĳ×§ ×ĺ
Ġ×Ķ×Ĳ ×ķ×¨
×Ķ ×Ļ×Ķ
Ġ×ľ×ĺ ×¢
Ġ×Ĳ×ķ×ª ×Ł
×¨×Ľ ×ĳ
Ġ×ķ×Ľ ×ļ
Ġ×ľ×Ķ ×¡×ª
Ġ×Ķ×¤ ×ª
Ġ×¤ ×ł×Ļ
Ġ×ľ×¢ ×ķ×ŀ×ª
Ġ×ŀ×¤ ×ł×Ļ
Ġ×¡ ×ł
×Ľ ×ķ×ł×ķ×ª
Ġ×Ļ×Ķ ×ķ×ĵ×Ļ
Ġ×© ×¦×¨×Ļ×ļ
×ŀ ×ķ×ł×ķ×ª
×ĳ ×Ļ×Ł
Ġ U
×ŀ×ķ×ĵ ×ĵ
Ġ×Ķ ×Ļ×Ŀ
i e
Ġ×ª×§ ×©×ķ×¨×ª
Ġ×Ĺ ×¦×Ļ
×Ļ×ŀ ×Ļ×Ł
Ġ×Ķ ×Ļ×ĺ×ĳ
Ġ×ŀ×Ķ ×©
Ġ×Ĳ×Ķ ×ĳ×Ķ
Ġ×ľ×ĳ×ĵ ×ķ×§
Ġ×Ķ×ĳ ×ĺ
×Ļ×Ĵ ×Ļ×Ŀ
Ġ×Ľ×ľ ×¤×Ļ
×ł ×Ļ×Ĺ
×¦ ×Ĺ
×¤ ×Ļ×Ļ×Ŀ
Ġ×ŀ×¢ ×ķ×ľ×Ķ
×ľ ×ŀ×ª
×ĸ×¨ ×Ĺ×Ļ
Ġ ×Ļ×ł
Ġ201 6
×¦ ×¢×Ļ×Ŀ
Ġ×¨ ×Ĵ×¢
×ĳ×¨×Ķ ×Ŀ
×Ļ×© ×ķ×ĳ
Ġ×Ĳ ×Ľ
Ġ×ĳ×ł×Ļ ×Ļ×ª
Ġ×Ķ×©×ł×Ļ ×Ļ×Ķ
Ġ×ŀ×¢ ×ķ×¨
Ġ×ľ×© ×Ĳ
Ġ×ĳ×© ×ł×Ķ
Ġ×Ķ ×Ļ×ľ×ĵ
Ġ×ĳ×© ×ĳ×ķ×¢
Ġ×Ķ×ª ×Ĺ×ª
Ġ×© ×Ļ×§
×Ĺ ×ķ×¨×Ļ
×Ļ×¨ ×ķ×©
Ġ×ľ×Ļ×ŀ ×ķ×ĵ
Ġ×ĳ×¢ ×Ļ×Ķ
Ġ×ł ×Ĵ×Ļ×©×ķ×ª
Ġ×¢ ×ķ×ĸ
Ġ×Ķ×¦×ĵ ×ĵ×Ļ×Ŀ
Ġ×©×ľ ×ķ×©
Ġ×¡×ĳ ×Ļ×ĳ
×Ļ ×Ļ×ª×Ļ
×Ļ×ŀ ×ķ×Ŀ
Ġ×ª ×ĸ
×Ļ×ª ×Ľ×Ł
Ġ×ľ×Ĳ ×ķ×ŀ×Ļ
×ľ ×¡
×ķ×ŀ ×ĺ
Ġ×ľ×§ ×ł×ķ×ª
×Ļ×¢ ×¨
Ġ×Ķ×ĸ ×ķ×Ĵ
Ġ×Ľ ×ŀ×ķ×ª
×ĳ ×¦×¢
×§ ×¨×Ĳ
Ġ×Ĳ ×Ľ×Ł
×¨×Ļ ×Ļ×ª
Ġ×Ĳ×Ĺ×¨ ×Ļ×ķ×ª
Ġ×ŀ×Ĳ ×ķ×ª
Ġ×¤×¨ ×ķ×¤
Ġ×§ ×¤×Ķ
×Ļ×© ×Ĳ×¨
Ġ×ŀ ×Ļ×ł×Ļ
×ŀ×ĵ ×Ļ×ł×Ļ×ķ×ª
×© ×Ļ×ª
Ġ×Ľ×ª ×ķ×ĳ×ª
Ġ×ľ×ŀ×¢ ×Ł
Ġ×ª ×ķ×¦×Ĳ×ķ×ª
Ġ×Ĺ ×ķ×¤
×ķ×ĺ ×Ļ×Ŀ
Ġ×§×ĺ ×ł×Ķ
Ġ×ľ×ŀ×§ ×ķ×Ŀ
Ġ×©×ľ ×ŀ×Ķ
Ġ×¤×¨×¡ ×ķ×Ŀ
×Ļ×ĳ ×ķ×¨×Ļ
×© ×ª×Ļ
Ġ×ŀ×Ĳ×ŀ ×¨×Ļ×Ŀ
×¢×¨ ×ķ×ª
Ġ×Ķ×Ĳ ×Ļ×¨
Ġ×ĳ×© ×ķ×§
Ġ×© ×ķ×ª
u r
×ķ×ĳ ×ĵ
Ġ×©×Ľ ×ĳ×¨
Ġ×ķ×Ķ ×Ŀ
×ľ ×¦
×Ļ×Ĵ ×ª
×Ļ×Ĳ ×Ļ×Ŀ
×Ļ×¤ ×Ļ
×Ļ×Ĺ ×ķ×ĵ
×¢ ×ŀ
Ġ×ŀ×Ĺ ×©×ĳ
Ġ×Ĳ×¦×ľ ×ł×ķ
×ĵ ×ŀ×ł×ķ×ª
×ŀ×ľ ×ķ×Ł
Ġ×Ķ×ķ×ľ ×ĵ×ª
Ġ×Ķ×© ×Ŀ
×ŀ ×¨×Ļ×Ŀ
× Ĥ
Ġ×ĳ ×ķ×§×¨
Ġ×ľ×Ľ×ª ×ķ×ĳ
Ġ×ľ×Ķ ×§
Ġ×ĳ×¡ ×¨×ĺ
Ġ×ľ ×ľ×§
×ĺ×¨ ×£
Ġ×ķ×Ķ ×¦
Ġ×Ľ×Ĳ ×Ļ×ľ×ķ
Ġ×ĳ×¢×¦ ×Ŀ
Ġ×Ķ×¡ ×ĺ
Ġ×ľ×¤ ×Ĵ
Ġ×ķ×¨ ×§
×Ļ×¤ ×ķ×¨×Ļ×Ŀ
×Ļ×ĵ ×Ł
Ġ×Ķ×ĺ ×Ļ×¤×ķ×ľ
u n
Ġ×Ķ×ŀ ×Ļ×Ŀ
×ķ×¤ ×¢×Ķ
Ġ×ľ×¢ ×ĳ×ķ×¨
e b
Ġ×Ľ×Ĳ ×ŀ×ķ×¨
Ġ×©×Ļ×Ķ ×Ļ×Ķ
Ġ×Ľ ×ł×¡
Ġ×§ ×ķ×¨×Ķ
Ġ×ŀ×Ĺ ×ľ
Ġ×©×Ķ ×Ļ×ķ
Ġ×ĵ ×Ļ×ķ
t p
×©×Ĳ ×ľ×ķ×ª
Ġ×Ķ×Ĺ ×ª
×ķ×¡ ×ĺ×¨
Ġ×Ĳ ×Ļ×ľ
×ľ×Ĺ ×¥
×¡ ×ķ×Ŀ
Ġ×ľ×Ĵ ×ŀ×¨×Ļ
Ġ×ķ×ĳ ×¨
Ġ×Ķ×Ķ ×¦
Ġ×Ķ×©×¨ ×ķ×Ł
Ġ h
6 0
Ġ×© ×ł×Ļ×ª×Ł
Ġ×ŀ×ĵ ×Ļ×ł×ª
Ġ×ľ×Ĺ ×ķ×§
Ġ×ĳ×ŀ ×¦
×ķ×§×ĺ ×ķ×ĳ×¨
×Ļ ×Ļ×¢
Ġ×¡ ×§
Ġ×ŀ×Ķ ×ª
Ġ×Ķ×ª ×¨
×ķ×¨ ×Ļ×ª
Ġ×Ķ×Ĳ ×Ļ×¨×ķ×¢
Ġ×Ļ×ª ×¨
Ġ×ĳ×© ×ł×Ļ×Ŀ
Ġ×ŀ×§ ×¨×Ķ
Ġ×Ķ ×Ļ×ł×Ķ
Ġ×¦ ×ķ
/ /
×Ľ ×ł×Ķ
×¨×Ĳ ×ľ×Ļ×Ŀ
×Ļ×ª ×ķ×Ł
Ġ×Ľ ×¢×ª
Ġ J
Ġ×Ķ×ĳ ×Ĳ×Ķ
×ŀ ×ł
×ķ×ª ×¨
Ġ×Ķ×ĳ ×Ļ×ł
Ġ×§ ×ĳ×ķ×¢
Ġ×Ķ×§ ×©×¨
Ġ×ĳ ×ķ×ĵ
Ġ×Ķ×Ĵ×ĵ ×ķ×ľ×Ķ
Ġ×ŀ×ĵ ×ķ×¢
Ġ×ľ×Ļ ×ķ×Ŀ
Ġ×Ľ ×¢
×ł×Ķ ×Ĵ×ķ×ª
Ġ×¡×ķ×Ĵ ×Ļ
×ľ×Ĳ ×ķ×ŀ×Ļ
Ġ×© ×ķ×ķ×Ķ
×¤ ×©×Ļ×Ŀ
Ġ×Ķ ×ķ×ĳ
Ġ×¡ ×ĵ
×ķ×§ ×Ŀ
Ġ×© ×ĵ
×¨×Ľ ×Ļ×ķ×Ł
Ġ×ķ×Ļ×ĵ ×Ĳ×ķ
×Ĳ ×ĺ
Ġ×© ×Ļ×ª
Ġ×ľ×Ķ ×©×ª
Ġ×ľ ×Ļ×ľ×Ķ
Ġ×Ĺ ×ĸ
Ġ×Ķ×¤ ×ł×Ļ×Ŀ
Ġ×¡ ×ĵ×¨
2 2
Ġ×ľ×ľ ×Ľ×ª
Ġ×ľ×Ķ ×ķ×¡×Ļ×£
×Ļ×¢ ×ķ×¨
×Ķ ×Ļ×¨
×¤ ×Ĺ×Ķ
Ġ×¡ ×ķ×ľ
×ĳ×¢ ×ķ×ª
×ķ×¤ ×ķ×ľ
×ŀ ×ł×Ļ×Ķ
Ġ×ķ×Ķ ×¨
Ġ×ª ×©×ľ×ķ×Ŀ
Ġ×Ķ×ĳ×¨ ×Ļ×Ĳ×ķ×ª
ht tp
×ľ ×ĵ
×Ļ×§ ×¡
Ġ×ľ×© ×ª
Ġ×ŀ×Ķ ×ķ×ķ×Ķ
Ġ×Ķ×ķ×ľ ×ļ
Ġ×ĳ×¨ ×ŀ×Ķ
Ġ×ŀ×Ĵ ×Ļ×¢×Ļ×Ŀ
Ġ×Ķ×Ĳ ×©
Ġ×ķ×ľ ×Ĺ
×¤×¡ ×ª
Ġ×ľ×¡ ×¤×¨
×¤ ×ł×Ļ
Ġ×Ļ×ķ×¦ ×Ĳ
Ġ×Ķ×ŀ ×¦×ĳ
Ġ×ķ×ŀ ×ĵ
Ġ×ľ×¨ ×©
Ġ×ĳ×Ĺ ×ĵ×¨
×ķ×ķ ×Ļ×ª
Ġ×ŀ×¤ ×ķ×ª
Ġ×ķ×ľ×Ĳ ×Ĺ×¨
Ġ×ľ×© ×ľ×Ŀ
Ġ×Ĳ×ľ ×Ļ×ł×ķ
×ŀ×¨ ×Ĺ×§
Ġ×ª×ŀ ×ķ×ł×Ķ
Ġ×ł ×ĳ×Ĺ×¨
Ġ×¢ ×§×ĳ
Ġ×ĵ ×¨×Ľ×Ļ×Ŀ
Ġ×ľ×¢ ×ª
Ġ×Ķ×Ļ×Ķ ×ķ×ĵ×Ļ
Ġ×Ĺ ×ķ×¥
Ġ×¤ ×Ļ×ª×ķ×Ĺ
×ķ×¡ ×Ļ×Ķ
×ĵ×¨ ×Ļ×ļ
Ġ c
×ķ×ŀ ×Ļ×ķ×ª
Ġ×ŀ×Ķ ×Ĳ
Ġ×Ķ×¨ ×Ĺ
Ġ×¢×¦×ŀ ×Ŀ
Ġ×Ĺ ×ķ×¤×©
i a
Ġ×ĳ×Ķ ×Ł
Ġ×Ķ×¤ ×ķ×ľ
Ġ×Ķ×© ×ķ×ł×Ļ×Ŀ
×ľ ×Ĵ
Ġ×ŀ ×ķ×ĺ
: //
Ġ4 0
×ŀ ×ł×ķ
×ĺ×Ļ ×Ļ×ľ
×ŀ ×Ľ×Ļ×Ŀ
×ľ ×Ĺ×ª
Ġ×§ ×ł
Ġ×ķ×Ķ ×Ł
×Ļ×§ ×ľ
Ġ×ª×§ ×ķ×ķ×Ķ
Ġ×ĵ ×ķ×ŀ×Ķ
×§ ×ķ×ĳ
×ŀ ×ĸ
Ġ×¢ ×¥
Ġ×ł ×ĵ×ľ
Ġ×ĳ×ŀ ×¦×ĳ
×ŀ×ķ ×Ļ×ķ×ª
×Ļ×¡ ×Ļ×Ŀ
Ġ×Ĺ ×ķ×ľ×Ļ×Ŀ
Ġ×Ķ×§ ×©
Ġ×ŀ×ĳ ×Ļ×ª
? "
Ġ×ł×Ĺ ×©
Ġ×¨ ×ķ×ŀ
a k
8 0
Ġ×¨ ×Ĵ×ľ
Ġ×ĳ×Ĳ ×¨×Ķ
Ġ×ĳ×ĺ ×ķ×Ĺ
Ġ×ŀ×¢ ×ķ×ł×Ļ
×ł×Ļ×Ķ ×ķ×ľ
Ġ×ľ×Ķ×¢ ×ĳ×Ļ×¨
×ŀ×© ×ª
Ġ×ľ×Ķ ×Ĺ×ľ
Ġ2 2
Ġ×ľ×Ĺ ×¦×ķ
Ġ×ķ×ŀ ×Ĳ
Ġ×Ķ×ŀ ×ķ×ĸ
Ġ×§×ĳ ×ķ×¦×ª
Ġ×Ķ×Ĺ ×ķ×ľ×Ļ×Ŀ
Ġ×ŀ×Ķ ×¢
×ľ ×Ļ×Ķ
Ġ×Ĳ ×Ļ×©×Ķ
Ġ×ľ ×ķ×Ļ
×ĸ×¨ ×ķ
Ġ×ľ×¦ ×Ļ×Ļ×Ł
Ġ×ľ×Ĺ×ľ ×ķ×ĺ×Ļ×Ł
Ġ×ķ×Ĳ ×Ĺ
×ĳ ×ł×Ķ
Ġ×Ķ×Ĳ ×ķ×Ľ×ľ
Ġ×Ķ×ł ×¡
Ġ×© ×Ļ×Ľ×ķ×ľ
Ġ×©×Ķ ×¢
×Ļ×ľ ×ķ×Ļ×ķ×ª
Ġ×Ĺ×ĳ×¨ ×Ļ
u t
Ġ×ķ×Ĳ ×¤×Ļ×ľ×ķ
Ġ×ł×¢ ×©×Ķ
×Ļ×Ĵ ×¨
Ġ201 5
×Ļ×ĺ ×Ļ×ª
×Ķ ×ķ×¨
×¨×Ĳ ×Ļ×ª
Ġ×ŀ ×ĳ×ľ×Ļ
Ġ×Ĵ ×ĳ×¨
Ġ×ĳ×¢ ×Ļ×ķ×ª
×Ĳ×¨ ×ĺ
Ġ×ŀ×©×Ĺ×§ ×Ļ×Ŀ
×¨×Ĺ ×ĳ
Ġ×© ×Ļ×Ĺ
Ġ×Ĳ ×ŀ×Ĳ
×Ĳ ×¤
Ġ×ĳ ×Ļ×©
Ġ×© ×Ļ×ŀ
×Ķ ×ĺ
Ġ×Ķ×§ ×ķ×ľ
Ġ×ł×ª×ł×Ļ×Ķ ×ķ
ĠâĢ ı
×ķ×ª ×Ŀ
Ġ×¢×ľ ×Ļ×ł×ķ
Ġ2 1
×ľ×ķ ×ķ×Ķ
Ġ×Ķ×§×ĳ ×ķ×¦×Ķ
×Ľ×© ×Ļ×¨
×ĺ×¨ ×§
×Ļ×Ľ ×Ļ
Ġ×ŀ×¦ ×Ļ×¢
Ġ×© ×ĸ
Ġ×Ĳ ×§
Ġ×ł×§ ×ķ×ĵ×ķ×ª
Ġ×© ×ķ×ŀ
×Ķ ×ł
Ġ &
Ġ×Ķ×¢ ×ľ×Ļ×ķ×Ł
Ġ×ŀ×ŀ ×ł×Ķ
Ġ×Ĵ ×ŀ
×¡×ĺ ×Ļ×ĳ×ľ
Ġ×Ļ ×Ļ×¢×ķ×¥
Ġ×ŀ×ľ ×ķ×ł×ķ×ª
Ġ×Ļ×© ×¨×Ĳ×ľ×Ļ
Ġ×ŀ×Ķ ×Ĺ
Ġ×ľ×Ķ×© ×Ļ×Ĵ
×ķ×ĺ ×Ķ
Ġ×Ķ×ł ×¤
Ġ×ľ×© ×Ļ×ŀ×ķ×©
Ġ×ł ×Ļ×ª×ķ×Ĺ
×Ļ×ĸ ×ķ×¨
×ķ×ĵ ×¢×ķ×ª
Ġ×ĸ ×Ľ×ķ×ª
Ġ×ķ ×ķ
Ġ×ľ×Ĳ×Ĺ×¨ ×ķ×ł×Ķ
Ġ×Ķ ×¨×Ĳ
Ġ×ª×ķ×Ľ ×ł×Ļ×ª
Ġ×ľ×ŀ ×ł×ķ×¢
×ķ×© ×¨×Ļ×Ŀ
×¢ ×ŀ×ķ×ĵ
Ġ×ł ×¤×¨
ĠI n
Ġ×Ķ×Ĳ ×ŀ×ª
×Ļ×¤ ×ĵ×Ļ×Ķ
Ġ×¢×ķ×ŀ ×ĵ
×ĵ ×§
o s
âĢ ľ
u m
×ķ×Ķ ×¨
×ģ Ö¶
Ġ×ľ×ĳ ×ĺ×ľ
×Ļ×© ×ķ×Ł
×© ×ĺ
Ġ×ŀ ×Ļ×ł
ww w
Ġ×Ķ×¢×ķ×ĳ ×ĵ×Ķ
×ĸ ×Ļ×§
Ġ×ª ×ķ×Ĳ×¨
×ķ×¤ ×Ļ×ª
Ġ×Ļ×Ķ ×ķ×ĵ×Ļ×Ŀ
×Ľ ×ĵ×Ļ
×© ×ķ×Ł
Ġ×Ķ×ŀ ×ķ×¦×¨
Ġ×¢ ×ĸ
×Ļ×ĳ ×ķ
×Ļ×© ×Ļ×ķ×Ł
Ġ×©×Ĳ ×Ļ×ł×ķ
×ķ×© ×ĳ×Ļ
Ġ×Ķ×ŀ ×¤
×Ļ×Ľ×ķ×ľ ×ķ×Ĵ
Ġ×Ĺ ×ĺ
Ġ×ŀ×¢ ×ł×Ļ×Ļ×Ł
×Ļ×§ ×ķ×ĵ
Ġ×Ķ×© ×Ĳ
Ġ×Ķ×ĳ×Ļ×ĺ ×Ĺ×ķ×Ł
2 4
Ġ×Ķ×ĳ ×ł×§
×ķ×Ĵ ×ķ×¡×ĺ
×ķ×¨ ×ķ×Ŀ
Ġ×¨ ×ķ×Ĳ×Ļ×Ŀ
Ġ×Ķ×Ĳ×ł ×©×Ļ×Ŀ
Ġ×Ķ×ŀ×¢ ×¨×Ľ×ª
Ġ×Ķ ×ķ×Ĵ
Ġ×ľ×Ĺ ×ĸ×ķ×¨
Ġ×ĳ ×Ļ×ĵ×Ļ
×ŀ ×¨×Ľ×ĸ
Ġ×ŀ×ĳ×Ĺ ×Ļ×ł×ª
7 0
Ġ X
×ķ×ĵ ×¢
Ġ×ľ×ª ×Ĺ
Ġ×Ķ×¤ ×ķ×¢×ľ
Ġ×¢×ķ×¨ ×Ľ×Ļ
Ġ×© ×¦
Ġ×¢ ×ķ×¨×ļ
Ġ×ķ×Ĺ ×¦×Ļ
Ġ×Ĳ×ķ ×ķ×Ļ×¨
Ġ×©×ľ ×Ļ×ĺ
Ġ×ķ ×Ļ×¦
Ġ×ľ×¨×Ľ ×ķ×©
Ġ×ŀ×©×ª×ŀ×© ×Ļ×Ŀ
Ġ×ĳ×Ĺ ×Ļ×Ļ×Ŀ
×ķ×¤ ×ľ
Ġ×ķ×Ľ ×Ļ
Ġ×¢×ĳ ×ķ×ĵ×ķ×ª
Ġ×Ļ×ķ×ĵ ×¢×ª
×¤ ×ª×Ļ
Ġ×ľ×§×ĳ×ľ ×ª
Ġ×Ĺ ×Ļ×ł×ķ×ļ
×Ĳ ×ª×Ļ
Ġ×ª×¨×Ĵ ×ķ×Ŀ
Ġ×ķ×ª ×©
Ġ×Ĺ×ĵ×¨ ×Ļ×Ŀ
Ġ×¢ ×©×¨×ķ×ª
Ġ×ŀ×Ĺ ×Ļ×¨×Ļ×Ŀ
Ġ×ŀ×¢ ×ķ×ĵ
9 0
×¨×Ľ ×ķ
Ġ×¢ ×©×Ķ
Ġ×©×ľ ×Ļ×©×Ļ
×¤×¨×¡ ×ķ×Ŀ
201 8
×ķ×ŀ ×ĵ
×Ĺ ×Ļ×¤×ķ×©
Ġ×© ×ķ×ľ
Ġ×Ĳ×ŀ ×ł×Ŀ
Ġ×©×ł ×¢
×¦×ľ ×Ļ×Ĺ
×ŀ×ķ×§ ×¨×ĺ
e m
Ġ×ľ×¢ ×ĳ×ķ×ĵ×Ķ
Ġ×Ĳ ×ķ×ľ
×Ĺ ×Ļ×ª
Ġ×©×Ĳ ×¤×©×¨
Ġ×¨ ×©×ķ×ª
×Ļ×ŀ ×Ł
Ġ×Ĳ×ľ ×¤×Ļ
×ĳ ×Ļ×¨×Ķ
Ġ×ĳ ×Ļ×Ĺ×¡
×¡ ×ľ
Ġ×Ĳ×Ĺ×¨ ×ķ×ł×Ļ×Ŀ
×Ļ×Ľ ×¨×ķ×Ł
Ġ×Ķ ×Ļ×¢
) :
Ġ×¢ ×ł
×¨ ×ķ×ĳ
×ķ×§ ×ķ×ª
Ġ×ŀ×ķ×¦ ×¨×Ļ
Ġ×©×ŀ ×ĵ
Ġ×Ĺ ×ľ×ĳ
Ġ×Ķ×ĺ ×ķ×ĳ×Ļ×Ŀ
Ġ×Ĵ×¨ ×Ŀ
×ľ ×Ļ×Ł
×ĺ ×ķ
×Ļ×ĳ ×ķ×©
Ġ K
×ķ×ł×Ļ×ĳ×¨×¡ ×Ļ×ĺ×Ķ
×ł ×Ļ×¡×Ķ
Ġ×ĳ ×Ļ×Ĺ×ĵ
×Ľ×ª ×ĳ×Ķ
Ġ×ĳ×Ĺ ×Ļ×ł×Ŀ
Ġ×ŀ×§ ×ĳ×ľ
Ġ×ĳ×Ľ ×ĵ×Ļ
Ġ×ĵ ×ª
Ġ×Ļ×Ĺ×¡ ×Ļ×ª
Ġ×ŀ×ĸ ×ķ×Ł
Ġ×¤ ×Ļ×ł
×ŀ ×Ĳ×ķ×ª
Ġ×ľ×ł×¡ ×ķ×ª
Ġ×Ķ×ŀ×Ĺ ×Ļ×¨
ĠH otel
×ķ×ĳ ×ŀ×ĳ×¨
Ġ×Ĳ×Ļ×© ×ķ×¨
Ġ×ľ×¤×¨ ×ĺ×Ļ×Ŀ
×ŀ×Ĺ ×Ļ×¨
×Ľ×ľ ×Ļ×Ŀ
Ġ×Ĳ ×¨×Ķ
Ġ×ķ×ĸ ×Ĳ×ª
Ġ×Ļ×Ľ×ķ×ľ ×ª
×ķ×ŀ ×ļ
Ġ×ŀ×Ĺ ×ķ×¥
Ġ×Ķ ×Ļ×¦
Ġ×¤ ×ķ×¢
Ġ×ĺ ×ķ×¨
Ö¸ Ö¼
Ġ×Ķ×Ĳ×Ĺ×¨ ×ķ×ł×Ļ×Ŀ
Ġ×Ĳ ×ĳ×¨×Ķ×Ŀ
2 3
Ġ×ª ×ķ×¨
Ġ×ĳ×© ×ľ×ĳ
Ġ×© ×Ļ×¦
×Ļ×¤ ×ķ×Ļ
Ġ×©×ĳ ×Ĳ
×Ļ×¦ ×ķ×ª
Ġ×ĳ×Ķ ×ŀ×©×ļ
×Ĺ×¨ ×Ļ×Ŀ
Ġ201 4
Ġ×ĳ×Ĳ ×ķ×ª×Ķ
Ġ×ŀ×§×¦×ķ×¢ ×Ļ×ª
Ġ×Ĳ×ķ×Ķ ×ĳ×ª
×ª ×Ł
Ġ×Ķ×¢ ×ľ
×Ļ×ľ ×Ļ×ª
Ġ×© ×Ļ×ł×Ķ
Ġ×ŀ×Ķ ×¡
×Ĳ ×ķ×¨×Ķ
×Ļ×§ ×ķ×¨×ª
Ġ×ĳ×¨ ×ŀ×ª
Ġ×¨×¤×ķ×Ĳ ×Ļ
Ġ×Ľ×ł ×Ĵ×ĵ
×¢ ×Ļ×Ł
×Ļ×ŀ ×ķ×ĵ
Ġ2 3
Ġ×ŀ ×¨×Ĳ×Ķ
×¤×ĺ ×ŀ×ĳ×¨
×©×ĳ ×ķ×¢
Ġ×Ķ×Ĳ ×Ļ×©
×Ļ×Ĵ ×ķ×ª
×Ļ×Ĳ×ĺ×¨ ×ķ×Ł
×ķ×ĸ ×ľ
Ġ×Ĺ ×ķ×¡×¨
Ġ×§ ×¨×Ķ
×Ķ×¨ ×©×ŀ×Ķ
Ġ×©×Ĳ ×¨
×¢ ×ĳ×¨
Ġ×ľ×Ķ×¤ ×ķ×ļ
Ġ×ľ×ĳ ×Ĺ
×ŀ ×Ĵ
Ġ×§×¨ ×ķ×ĳ
Ġ×Ĳ×Ĺ×¨ ×ķ×ł×ķ×ª
×ľ×Ķ ×ľ×Ł
Ġ×ŀ×§ ×ķ×ŀ×ķ×ª
×¤ ×Ļ×ª
Ġ×ľ×¢ ×¨
Ġ×Ķ×ĳ ×ĵ
×ķ×¡ ×¡
×ĸ ×ŀ×Ł
Ġ×¤ ×§
Ġ×Ķ×Ķ ×ľ
Ġ×©×Ľ ×¨
e x
Ġ×ŀ×Ĺ ×§×¨
Ġ×Ļ×ķ×¨ ×§
Ġ×Ĳ ×ŀ×ª
or t
Ġ×©×Ĳ ×Ŀ
Ġ×Ķ×ª×¢ ×ķ×¤×Ķ
2 1
Ġ×Ķ×ŀ ×ķ×ĳ
Ġ×¢ ×ķ×ł×Ķ
Ġ×ĺ ×ľ×¤×ķ×Ł
Ġ×Ķ×¢ ×¨
Ġ×ľ×¢ ×¦×ŀ
Ġ×© ×ĳ×¨
Ġ×ł ×Ļ×ª
×¢ ×Ļ×¦×ķ×ĳ
Ġ×ª ×Ļ
Ġ×§ ×Ļ×ĵ×ķ×Ŀ
Ġ×Ķ×¡ ×Ļ×¤×ķ×¨
Ġ×Ķ×¡ ×ĳ×Ļ×ĳ×Ķ
Ġ×Ĺ×Ļ ×Ļ
Ġ×ŀ×ľ×Ĺ ×ŀ×ª
Ġ×ĳ×ĸ ×Ľ×ķ×ª
×§ ×¨×Ļ×Ŀ
Ġ×ľ×ĵ ×ķ×Ĵ
Ġ×Ķ×ĳ×Ļ×ĺ ×ķ×Ĺ
×ķ×Ķ ×Ķ
Ġ×ķ×ĳ ×ª
Ġ×Ķ×ľ×§ ×ķ×Ĺ
Ġ×ŀ×¦ ×ķ×Ļ
×©×ª ×ķ
×©×ª ×£
×Ĳ×¨ ×¥
×Ĵ ×ķ×ĳ×Ķ
Ġ×Ķ×¨ ×ķ×Ĺ
Ġ×Ķ×ĳ×ľ ×ķ×Ĵ
×Ļ×¢ ×Ļ×Ł
Ġ×§×Ļ×ľ ×ķ×ŀ×ĺ×¨
Ġ×Ķ×ĳ×¢ ×Ļ×Ķ
Ġ×ľ×Ķ ×ª×Ļ
u b
Ġ×ľ×©×ŀ ×ķ×¢
×Ļ×Ĵ ×Ļ
a b
Ġ×ĳ×¡ ×ĵ×¨
×ķ×Ĵ ×ķ×ª
Ġ×Ķ×ľ ×Ļ×Ľ×Ķ
Ġ×ŀ×Ľ ×ļ
Ġ×ķ×¢ ×Ŀ
×Ķ ×¨×ĳ
×Ļ×¨×Ļ ×Ļ×ª
Ġ×ľ×Ķ ×ĸ×ŀ×Ļ×Ł
×¤ ×ĵ
Ġ×ĵ ×Ĳ
×Ĳ×ĳ ×Ļ×ĳ
×¤×§ ×ĺ
Ġ×Ķ×¡ ×Ľ×Ŀ
in d
Ġ×ŀ ×Ļ×ľ×Ļ×Ŀ
Ġ×ŀ×§ ×¡
Ġ g
Ġ×Ķ×¡ ×Ľ
Ġ×ŀ×ķ×¦ ×¨
×ĸ ×Ļ
×ķ×¤ ×¢×ķ×ª
×ĺ ×Ĵ
×ľ×ŀ×Ļ×ĵ ×Ļ×Ŀ
Ġ×Ķ×¤ ×¢×Ŀ
Ġ×Ķ×¦ ×Ļ
Ġ×Ķ×¢ ×ĵ
Ġ×ķ×Ķ ×Ĵ
Ġ×ĳ×¦ ×¤×ķ×Ł
Ġ×Ķ×¨ ×¤×ķ×Ĳ
×Ļ×ĳ ×ķ×¥
Ġ×Ķ×¢ ×Ŀ
Ġ×ĵ ×Ļ×¨×ķ×ª
Ġ×ŀ×Ĳ ×Ļ×¨
×Ļ×ł ×ĵ
Ġ×ľ×Ĺ ×©×ķ×ĳ
×ŀ ×ľ×Ĳ
×ĳ ×Ļ×Ĳ
×¡×§ ×Ķ
Ġ×Ķ×¢ ×Ļ×§×¨
Ġ×ķ×ľ ×©
Ġ×Ĺ ×ķ×ŀ×¨
Ġ×ĳ ×Ļ×ŀ×Ļ×Ŀ
×ł ×Ļ×Ĵ×ķ×ĵ
×¦ ×ķ×¨
Ġ×Ķ×ª×§ ×©×ķ×¨×ª
Ġ×ķ×ĳ ×Ļ×Ł
Ġ×© ×Ĺ×¨
Ġ×Ĳ×¨ ×¥
Ġ×ĳ×¢ ×ł×Ļ×Ļ×Ł
Ġ×¢ ×Ļ×ł×Ļ×Ļ×Ŀ
ic e
Ġ×ľ×Ĳ ×Ľ×ķ×ľ
×ķ×ŀ ×ĵ×Ļ×Ŀ
Ġ×§ ×ķ×ĳ
×Ĳ ×ķ×Ŀ
Ġ×Ĳ×¨ ×ķ×ļ
Ġ×Ķ×Ĳ ×ķ×ķ×Ļ×¨
Ġ×ł ×ķ×¢×¨
ĠS t
Ġ×¢ ×§
Ġ×ŀ×Ľ ×ĳ×Ļ
×ĵ ×Ļ×ª
Ġ×¤ ×ľ×Ĳ
Ġ×Ķ×© ×Ĳ×ľ×Ķ
Ġ201 3
×¤×Ļ ×Ļ×Ł
Ġ×ŀ×¡ ×Ĺ×¨
×ķ×¦ ×¨×ª
Ġ×ĳ×¨ ×¦
Ġ×ŀ ×Ļ×ĵ×Ļ
Ġ×¤ ×Ļ×¦
Ġ×ł×ª ×ķ×ł×Ļ×Ŀ
2 9
Ġ×ŀ×¦ ×ľ×Ļ×Ĺ
×ł ×Ĳ×ķ×ª
Ġ×ľ×Ķ ×©×§
Ġ×Ĺ ×ł
Ġ×Ķ×Ĳ ×Ĵ
Ġ×ľ×ĳ ×ł×ķ×ª
Ġ×ĳ×Ĺ ×ľ×§
Ġ×§ ×ľ×Ĳ
×¤×§ ×ª
Ġ×ł×¤ ×ľ×Ĳ
Ġ×Ķ×¦ ×ľ×Ļ×Ĺ
Ġ×ľ×Ķ×Ĵ ×Ļ×ĵ
×¨×ĳ ×Ļ×Ŀ
Ġ×ª ×ĵ
Ġ×Ķ×Ļ ×Ļ×ł×ķ
×ķ×Ķ ×Ļ
Ġ×Ĳ ×¨×Ĵ×ķ×Ł
Ġ×Ļ×ķ×¦ ×¨×Ļ×Ŀ
i p
Ġ×Ķ×ŀ ×Ĳ×Ķ
Ġ×Ķ×ŀ ×Ķ
Ġ×ŀ ×Ļ×Ł
Ġ×Ľ ×ĸ×ķ
i k
×¢ ×ķ×Ł
Ġ×ĳ×Ĺ ×ĳ×¨×Ķ
Ġ×ľ ×ĵ×¨
Ġ×ĳ×§ ×©×Ķ
×ł×ª ×Ķ
×Ļ×§ ×Ļ
Ġ×§ ×ŀ
×ĳ×Ĺ ×Ł
Ġ×¤×ľ ×¡×ĺ
×¦×ŀ ×ĳ×¨
o v
×Ĳ ×§
Ġ×¤×Ļ ×Ļ×¡×ĳ×ķ×§
Ġ×Ĳ ×ĵ×¨
Ġ×©×ĳ×ķ×¢ ×ķ×ª
Ġ×ĺ×ĳ×¢ ×Ļ
Ġ×ľ×¤×¢ ×ŀ×Ļ×Ŀ
Ġ×ľ×Ĺ ×ª
Ġ×Ķ×ķ×ĵ ×¢×Ķ
Ġ×Ĳ×ķ×ŀ ×¨×ª
Ġ×Ļ×© ×Ļ×¨×ķ×ª
Ġ×ĵ ×Ŀ
Ġ×Ĳ×Ļ×ª ×ķ
Ġ×Ķ ×ĵ×Ļ
Ġ×ľ×© ×Ĺ×§
Ġ×ľ×Ĳ ×¨
×ķ×ĵ ×Ļ×ķ
Ġ×ŀ×ĵ ×Ļ×ł×Ļ×ķ×ª
×Ĺ×ľ×ĺ ×Ķ
Ġ×ĺ ×Ľ×ł×ķ×ľ×ķ×Ĵ
Ġ×ĸ ×Ľ×¨
Ġ×¤ ×ĺ
Ġ×ĳ×§ ×ľ×ķ×ª
Ġ×ŀ×Ķ ×Ļ×¨
Ġ×¦ ×Ļ×ķ×Ł
Ġ×ł×¤ ×©
Ġ×ľ×Ķ×ª×Ĺ ×Ļ×ľ
Ġ×ľ×¨ ×ķ×ĳ
Ġ×ĳ×Ļ×§ ×ķ×¨×ª
×ŀ×Ĳ ×ľ
n et
Ġ×ŀ×Ļ ×ķ×Ŀ
Ġ×§ ×ķ×ŀ
Ġ×ĳ×¤ ×ķ×¢×ľ
×ķ×§ ×ĵ
×Ļ×ŀ ×Ļ×ª
Ġ×ĳ×§ ×ĳ
Ġ×Ķ×Ľ×ľ ×Ľ×ľ
Ġ×ľ×¡ ×¤×§
×Ļ×© ×¨
×ķ×Ļ×§ ×ĺ×Ļ×Ŀ
Ġ×© ×Ļ×ł×Ļ×Ļ×Ŀ
Ġ×¨×Ĳ ×Ķ
Ġ×Ļ ×Ļ×ª×Ľ×Ł
Ġ×ĳ×Ĺ ×©×ĳ×ķ×Ł
Ġ×¦×Ļ×ĳ×ķ×¨ ×Ļ×ª
Ġ×ĳ ×ķ×Ĺ
×Ļ×¢ ×ķ×ĵ
×ª×Ĵ ×Ļ×ķ×ª
Ġ×Ķ×ŀ ×ķ×¦
Ġ×Ķ×¦ ×ķ×¨×ļ
Ġ×Ľ ×Ļ×ķ×ķ×Ł
Ġ×Ľ×ľ ×Ļ×Ŀ
×Ľ ×ĳ×¨
×ŀ ×ķ×¡
Ġ×©×¢ ×ĳ×¨
Ġ×ĳ×Ĺ ×ķ×ĵ×©
Ġ×ĵ ×Ĵ
Ġ×ĳ×ŀ×¨ ×Ĺ×§
×ŀ ×Ĳ×ª
Ġ×Ķ×© ×ĳ×ª
ĠT he
×ĺ ×ķ×Ł
×Ĵ×ķ×¨ ×Ļ×ķ×ª
h ot
Ġ×Ľ ×Ļ×£
×¨×Ĳ ×Ļ×Ŀ
Ġ×ŀ ×ł×¡×Ķ
×Ļ ×Ļ×ĳ
Ġ×ŀ×©×ŀ×¢×ķ×ª ×Ļ
Ġ×ĳ×ŀ×¢ ×¨×Ľ×ª
Ġ×ŀ×Ļ×ķ×Ĺ ×ĵ×ª
Ġ×ľ×Ķ×ª ×ŀ×ķ×ĵ×ĵ
Ġ×ĳ ×Ļ×¦
Ġ×Ĺ×¡ ×¨
×¡ ×ķ×¨
Ġ×ŀ×ª×Ĺ ×Ļ×ľ
×ĸ ×Ĳ×ª
×ĺ ×¢
a v
Ġ×Ķ×ŀ ×©×ª×ŀ×©
Ġ×ŀ×¤ ×¢
×¤ ×ķ×ľ
Ġ×¢ ×ķ×ľ
Ġ×Ĳ×Ļ×ł ×ĺ
×Ļ×¡ ×Ļ×ķ×Ł
×Ļ×Ĳ ×Ł
Ġ×Ĵ×ķ×¨ ×Ŀ
Ġ×ŀ ×ĳ×¨
×Ļ×ŀ ×ķ×ĵ×Ļ
×Ķ ×ª×Ĺ
Ġ×ŀ×¢ ×¦
Ġ×ŀ×ķ×ĸ ×ŀ×ł×Ļ×Ŀ
es t
×ŀ ×ĵ×Ķ
×© ×ľ×Ĺ
Ġ×ŀ×ĵ×Ķ ×Ļ×Ŀ
×¨×Ĵ ×Ļ×©
Â »
×Ľ×ł ×Ļ×¡×Ķ
×ľ ×ŀ×ķ×ª
Ġ×ľ×Ķ ×Ļ×Ľ×ł×¡
Ġ×¤×¨ ×©×ª
×¡ ×ķ×§
Ġ×ľ×Ĵ×¨ ×ķ×Ŀ
Ġ×ŀ ×ŀ×Ķ
Ġ×ĳ ×Ĵ×¨
Ġ×ľ×Ķ ×Ľ×Ļ×¨
Ġ×Ķ×¢ ×ĳ×¨×Ļ×ª
Ġ×Ķ ×ķ×Ľ
Ġ×¨×Ĳ×© ×ķ×ł×Ķ
×Ļ ×ķ×¡
Ġ×Ķ×ľ ×Ļ×ŀ×ķ×ĵ×Ļ×Ŀ
×§ ×ķ×ĵ
Ġ×©×ŀ ×¦
×ķ×Ľ ×ł×ķ×ª
×Ķ ×ĳ
×© ×ĺ×Ļ×Ļ×Ł
Ġ×Ķ×ª ×ĳ×Ļ×¢×Ķ
Ġ×Ķ×Ĺ ×Ļ×¤×ķ×©
×Ļ×ĳ ×ķ×ĵ
Ġ×¦ ×Ļ×¦×Ļ×Ŀ
×ķ×Ľ ×Ļ×ª
×ķ×ŀ ×ľ
×Ļ×ª ×ķ×ł
Ġ l
Ġ×ĳ×¨ ×Ĵ×¢
×ĺ×¨ ×ª
Ġ×ª ×ķ×Ľ×ľ
] .
Ġ×Ĵ ×ķ×ĵ×ľ
Ġ×ľ×¨×Ĳ×© ×ķ×ł×Ķ
×Ĳ ×Ĺ×ĵ
×ŀ ×ł×Ķ
a p
Ġ×¤ ×ķ×¨×¡
×ķ×¡ ×ĺ×Ļ×Ŀ
×ķ×§ ×£
Ġ×Ĳ ×¤×ľ×Ļ×§
Ġ×Ķ×Ĵ ×ķ×ľ
×¤×§ ×ĵ
Ġ×ĳ×Ļ×ł ×Ļ×Ķ×Ŀ
Ġ×Ķ×ŀ ×ĸ
Ġ×ŀ×¦ ×ķ×ķ×Ķ
×ķ×Ĳ ×ª
iv e
o p
×ŀ×¡ ×¢
Ġ×Ĳ×ŀ ×Ļ×ª×Ļ
×©×ª ×Ķ
Ġ×¨ ×ķ×ķ×Ĺ
Ġ×Ľ ×ķ×©×¨
Ġ×§ ×ķ×ł
Ġ×¨×§ ×¢
Ġ×Ķ×Ĵ ×Ļ×¢×ķ
Ġ×Ļ×© ×Ļ×¨×Ķ
×ľ×ĳ ×ĵ
Ġ×Ľ ×ķ
Ġ×¤ ×Ļ×ľ
Ġ×ŀ×ĺ ×¢×Ŀ
Ġ×Ĳ ×Ļ×ŀ
Ġ×©×Ķ ×Ĵ
Ġ×ĳ×Ĺ ×Ļ
Ġ×ĳ×ŀ×Ĺ ×Ļ×¨
Ġ×ŀ×ĵ ×ĳ×¨
×ŀ×Ĳ ×ŀ×¨×Ļ×Ŀ
Ġ×Ķ ×Ļ×Ĺ×¡
Ġ×ĳ×¢ ×ľ×ª
Ġ×ĺ ×¨×Ĳ
Ġ×¦×Ļ ×ķ×ĵ
Ġ×© ×ŀ×Ķ
Ġ×ĳ×ŀ×Ķ ×Ļ×¨×ķ×ª
×Ļ×¡ ×ķ×§
Ġ×ŀ ×ķ×¢×ĵ
Ġ×© ×ĺ×Ĺ
Ġ×ľ×§ ×ĳ
Ġ×ŀ×¡ ×ļ
Ġ×ł×ŀ×¦ ×Ĳ×ª
Ġ×ľ×Ĺ ×Ļ×ķ×ª
Ġ×ŀ ×©×¨
Ġ×ł×ŀ×¦ ×Ĳ×Ļ×Ŀ
×¦×ľ ×Ļ×Ķ
×ĵ ×¤×Ļ×Ŀ
Ġ201 2
×ķ×Ĳ ×ķ×ª
×Ĺ ×ľ×§
Ġ×Ķ×ķ×ĵ ×¢×ķ×ª
Ġ×Ĳ ×ķ×ŀ×¨×Ļ×Ŀ
×Ļ×ĵ ×ķ×ľ
Ġ×Ĳ ×§×ĵ
×Ĺ ×ĳ×¨×ª
Ġ×Ķ×Ĺ ×§
Ġ×ŀ×¤ ×ľ
Ġ×¢×¨ ×ķ×¥
×ķ×ŀ ×Ŀ
Ġ ×´
×ĵ ×Ļ×Ł
Ġ×ł ×¢×ľ
Ġ×ŀ×ł ×Ľ
Ġ×¨×Ľ ×ĳ×ª
Ġ×ª ×Ļ×ł×ķ×§
Ġ×¢×© ×ķ×Ļ
âĢª .
Ġ×ª×Ĺ ×ķ×Ŀ
Ġ in
Ġ×ŀ×¡×ķ ×Ļ×Ŀ
Ġ×©×ĳ×Ķ ×Ŀ
Ġ×©×Ļ×¨×ķ×ª ×Ļ×Ŀ
×ķ×ĳ ×¡
Ġ×Ĳ ×ķ×ł
×Ļ ×Ļ×¡
Ġ×Ķ×¤×ľ ×¡×ĺ
Ġ×Ĵ ×ĳ×Ļ
Ġ×ĳ ×Ļ×Ķ
×ŀ×ķ×ª ×Ķ
×Ļ×ŀ ×¨
Ġ×Ĳ×Ļ×ł ×ĵ
Ġ×Ķ×© ×ķ×¤×ĺ
Ġ×ĳ×ŀ×© ×Ĺ×§
Ġ×Ļ×© ×ł×Ŀ
Ġ×¦ ×¤×ķ
Ġ×Ĳ×ŀ×¨ ×Ļ×§
Ġ×ĳ×ĵ ×ĳ×¨
Ġ×¦ ×¢×ĵ
Ġ×¨×Ĳ ×ķ
×ķ×¤ ×Ļ×Ķ
Ġ×§ ×Ķ
Ġ×¡ ×ª×Ŀ
Ġ×§ ×ĳ×¢
Ġ×ŀ×ĵ ×Ļ×ł×Ķ
Ġ w
Ġ×Ĳ×ķ×¨ ×Ĵ
Ġ×ľ ×ł×§
Ġ×Ķ×Ļ×Ķ ×ķ×ĵ×Ļ×Ŀ
Ġt o
Ġ×ĳ×¡ ×ļ
×Ļ×Ĳ ×ľ×Ļ
×ľ×ĳ ×ķ×Ŀ
Ġ×ľ×ĺ ×Ļ×¤×ķ×ľ
×Ļ×¡×ĺ ×Ļ×ª
×¢ ×©
Ġ×Ĳ ×Ļ×¤×Ķ
Ġ×ĺ ×ľ
Ġ×Ķ×ª ×¨×ĳ×ķ×ª
Ġ×Ļ×ĵ ×ķ×¢
Ġ×©×Ķ ×¦
Ġ×ľ×Ĳ ×ł×©×Ļ×Ŀ
Ġ×Ķ×Ĺ ×ŀ
Ġ×Ĳ×ľ ×ĳ
Ġ×ľ×Ķ ×ķ×¦×Ļ×Ĳ
×Ľ×ł ×Ļ×¡
×ķ×¢ ×ĵ×ª
×Ļ ×Ļ×ĺ
Ġ×Ķ×Ĺ ×ĳ×¨×ª
Ġ×Ķ×ł ×Ĺ
×ķ×ĺ ×ľ
×Ķ ×ķ×ĳ
Ġ×ĵ ×ŀ×Ļ
Ġ×Ķ×ŀ×Ĺ ×©×ĳ
Ġ×ł ×ķ×¨
Ġ×Ĳ×ŀ ×ł×ķ×ª
×ĳ ×Ļ×©
×¤ ×Ĺ×ķ×ª
a il
Ġ×© ×Ļ×Ĺ×Ķ
Ġ×ľ×© ×ľ×ķ×Ĺ
Ġ×©×Ĳ ×ł×ķ
Ġ×Ĳ×ķ×Ķ ×ĳ×Ļ×Ŀ
×Ļ×¨×Ļ ×Ļ×Ķ
×ĳ ×ł×Ļ
Ġ×Ĳ×Ļ×¨ ×ķ×¤×Ķ
Ġ×¢×ľ ×Ķ
×Ĵ×¨ ×Ŀ
Ġ×ķ×Ķ ×ł
×ŀ×¦ ×Ĳ×ķ
Ġ×ľ ×Ļ×¨
×Ļ×Ľ ×Ł
Ġ×Ļ×Ľ×ķ×ľ ×ķ×ª
Ġ×ĳ×ª ×ķ×¨
×ķ×¢ ×¥
×ĳ ×Ľ×ľ
Ġ×Ļ×© ×Ļ×¨
Ġ×ĳ ×ĳ×¢
×ŀ×¨ ×ķ
Ġ×Ķ×Ĳ ×Ĺ
Ġ×ķ×Ľ ×ĵ
Ġ. âĢ¬
Ġ×ķ×Ķ ×§
u l
Ġ×ķ×Ĳ ×ľ
4 5
Ġ×ľ×Ĳ ×¤×©×¨
×ł×Ļ×Ĵ×ķ×ĵ ×Ļ×ķ×ª
Ġ×Ĺ ×¤
Ġ×Ĳ×¨ ×¦×ķ×ª
×Ĳ ×Ĺ×¨×Ļ
Ġ×Ķ×ł ×ĵ
c k
Ġ×¡ ×ĳ×Ĳ
Ġ×§×¨ ×Ł
Ġ×Ĳ ×ĳ×Ļ
×Ĳ×¨ ×Ļ
Ġ×Ķ×¢ ×ķ×¨
Ġ×ĺ ×ķ×ĳ×ķ×ª
Ġ×©×ł×ª ×Ļ×Ļ×Ŀ
c t
Ġ×© ×Ļ×ľ
Ġ×§×Ļ ×Ļ×ŀ×ª
Ġ×Ĳ ×ŀ×¦
×Ļ×ĵ ×¨
Ġ×Ļ×Ĺ ×¡×Ļ
Ġ×ŀ×Ĵ ×Ļ×ĳ
Ġ×© ×ķ
Ġ×Ĵ ×ķ×¤
×¡ ×ŀ
Ġ×Ķ×©×ľ ×Ļ×©×Ļ
Ġ×ŀ×ª ×¢
Ġ×¦ ×ŀ
Ġ×Ķ×Ķ ×ķ×¨×Ļ×Ŀ
Ġ×Ľ ×ĳ×ķ×ĵ
Ġ×ŀ×ĵ ×Ļ×ł×ķ×ª
×ŀ×Ĳ ×¡
×ĳ ×Ĳ×Ļ
Ġ×Ĳ×¡ ×ĺ×¨
Ġ×Ķ×¤ ×ł
Ġ×ĳ ×ł×ķ×ª
Ġ×Ķ×¢ ×ķ×ł×Ķ
2 6
×ŀ×ĵ ×ª
Ġ×¨ ×ķ
Ġ×ŀ×Ĳ ×Ļ
Ġ×Ķ×¢ ×ķ×ľ
×Ļ×¨ ×ķ×¤×Ķ
×Ľ ×ł×ķ
Ġ×Ĺ×Ļ ×Ļ×ĳ×Ļ×Ŀ
Ġ×ľ ×Ļ×ĵ×Ļ
Ġ×ŀ×ª ×Ł
×Ľ×ª ×ķ×ĳ
×ķ×ĳ ×ĵ×Ļ×Ŀ
or d
Ġ×Ķ×¨×Ĳ×© ×ķ×ł×Ļ×Ŀ
Ġ×Ĳ×Ļ×© ×Ļ×Ļ×Ŀ
×ł×ĺ ×Ļ×ª
Ġ×ª×§ ×ķ×¤×Ķ
Ġ×ķ×¤ ×¨
Ġ6 0
Ġ×©×Ĳ ×ľ
×¤×¨ ×§
Ġ×ŀ×ª ×ł×Ķ
×ĳ×¨ ×ķ×Ĳ×¨
Ġ×Ĳ ×Ļ×¡
Ġ×Ķ×¤ ×Ĵ
×Ļ×Ľ ×ķ
Ġ×ĳ×¢ ×¨
Ġ×ĳ×ª×Ĺ ×Ļ×ľ×ª
×ķ×ŀ ×ł×Ļ×Ŀ
×Ĳ ×ķ×ĵ×ķ×ª
Ġ×ŀ×¢ ×¨
Ġ×ľ×© ×Ļ×Ŀ
×ľ×ĺ ×ķ×Ł
Ġ×Ķ×ŀ×ķ×¢ ×¦×Ķ
Ġ×ŀ×Ľ ×Ļ×ķ×ķ×Ł
Ġ×Ľ×ľ ×ķ×Ŀ
Ġ of
Ġ×ŀ×Ľ ×¨
Ġ×¦×¢ ×Ļ×¨
Ġ×ľ×© ×¢×ĳ×¨
Ġ×ľ ×¨×ĳ×ķ×ª
Ġ×ł ×ĸ
×ķ×Ĳ ×ĳ
Ġ×Ķ×Ĳ ×§×ĵ
Ġ×ķ×Ķ ×ĳ
Ġ×ŀ×ª ×§×ĵ
Ġ201 1
Ġ×ĳ ×ķ×¨
Ġ×Ĳ×ŀ ×Ļ×ª
Ġ×ĳ×¡ ×ķ×¤×ķ
Ġ×Ķ ×Ļ×ľ
Ġ×Ľ×ķ×ľ ×ķ
Ġ×Ľ×ª ×ķ×¦×Ĳ×Ķ
Ġ×ł×ķ×ª ×Ł
Ġ×Ķ×ŀ ×ķ×ª
×ķ×ĵ ×Ĳ×Ļ
Ġ×Ľ×ł ×Ļ×¡×Ķ
×©×Ļ ×Ļ×ª
Ġ×© ×¢×¨
Ġ×Ĳ×ĵ ×ķ×Ŀ
×¨×Ĳ×© ×Ļ
Ġ×ľ×Ķ ×Ĵ×ĵ
×ª×Ĺ ×Ļ×ľ
Ġ×ľ×ĺ ×ķ×ĳ×ª
Ġ×ĳ×ĳ ×ķ×§×¨
Ġ×Ķ×ŀ×ľ ×ļ
Ġ×Ĵ ×ĳ×¨×Ļ×Ŀ
Ġ×ľ×Ĳ ×¨×¥
Ġ×Ķ×ĳ ×ķ×§×¨
Ġ×ł×© ×Ĳ×¨
Ġ×ľ×ķ×§ ×Ĺ×ª
Ġ×©×Ķ ×ŀ
Ġ×Ļ×© ×ł×Ķ
Ġ×ª ×Ľ×ł×Ļ×ª
Ġ×ĵ×Ļ×Ĵ ×Ļ×ĺ
Ġ×ŀ ×¨×ª
Ġ×ľ×Ļ×Ķ ×ł×ķ×ª
Ġ×ľ×Ķ ×Ĺ×ĸ
Ġ×Ķ×ĺ ×ķ×ĳ×Ķ
Ġ×ĵ×¨ ×ķ×Ŀ
Ġ×Ķ×¢×ķ×ĳ ×ĵ×Ļ×Ŀ
×ķ×Ľ ×¨×ª
×¤ ×Ĺ×ª
×ķ×ĺ ×ł×¦
×ķ×Ĳ ×Ł
Ġ×Ļ×¦ ×¨
Ġ×Ĺ×ĵ×¨ ×Ļ
×ķ×¨ ×Ŀ
Ġ×ķ×ª×© ×ķ×ĳ×ķ×ª
×ķ×¨ ×©
Ġ×¤×ķ×¨ ×ł×ķ
×ĺ×¨ ×¤×ķ
Ġ×§ ×ľ×Ķ
Ġ×Ķ×ŀ×© ×ĺ×¨×Ķ
' )
Ġ×© ×Ļ×Ĳ
Ġ×ĳ×Ļ×ĺ ×ķ×Ļ
Ġ×¢×ĳ×ķ×¨ ×Ľ×Ŀ
Ġ×Ĺ ×ĸ×¨×Ķ
Ġ×¡ ×ĺ×¨
Ġ×©×ķ×§ ×ķ×ľ×ĵ
Ġ #
Ġ2 6
×ł×ķ ×Ļ
Ġ×Ķ×ª ×ł
" )
×¢×Ļ ×ķ×ł×ķ×ª
Ġ×Ķ×©×ª ×ª
×Ķ ×ĸ
×ĺ×¨ ×Ŀ
Ġ×ŀ×Ĳ ×Ĺ×ķ×¨×Ļ
Ġ×ŀ×Ĳ ×ķ×Ĺ×¨
Ġ×ķ×ĳ ×©
×¢ ×¨×Ķ
Ġ×Ļ ×ķ×Ľ×ľ
âĢª. âĢ¬âĢ¬
Ġ×¢ ×Ļ×Ł
Ö¼ Öµ
Ġ×ŀ×¢ ×ķ×ľ×Ŀ
Ġ×ĳ×ĳ ×Ĺ
o d
Ġ×ŀ×¢ ×ł×Ķ
Ġ×© ×Ľ×ª×ĳ
Ġ×ŀ×ķ×© ×ľ×Ŀ
Ġ×Ķ×© ×Ĳ×¨
Ġ×ĳ×¦ ×ĵ
×Ļ×ĸ ×¨
Ġ×ĳ×¨×Ĺ ×ķ×ĳ
×©×Ĳ ×Ļ×¨
Ġ×Ķ ×ľ×ķ
Ġ×ł×ª ×Ł
Ġ×Ĳ×ĳ ×ĺ
Ġ×Ľ ×ķ×Ĺ×ķ×ª
Ġ×ł×Ľ ×ķ×ł×Ķ
Ġ×©×Ķ ×©
×Ļ×ĳ ×ķ×Ļ
×Ļ×¨ ×ķ×Ĵ
×ĸ×¨ ×Ĺ×Ļ×Ŀ
Ġ×ķ×ľ ×ª
×¤ ×Ļ×¦×Ķ
×Ĺ ×ŀ
×ķ×ł×ĵ ×ķ×Ł
×ĺ ×ķ×ĳ
Ġ×Ķ×Ľ ×ķ×ª
×ľ×Ļ ×Ļ×Ł
in e
S S
Ġ×ľ×Ķ ×Ļ×¤
×Ľ ×ª×Ļ
Ġ×Ķ×¨ ×©×ª
×ĺ×¨×§ ×¦×Ļ×ķ×ª
Ġ×Ķ×Ĳ ×Ļ×©×Ļ
Ġ×Ķ×§×ķ×ĵ ×Ŀ
at ion
Ġ×ĵ ×Ļ×ł×Ļ
Ġ×ĳ×¢ ×ĳ×ķ×ĵ×Ķ
Ġ×ĳ×¢ ×ĳ×¨×Ļ×ª
Ġ×ķ×ŀ ×Ľ
Ġ×Ķ×Ķ ×¨
Ġ×© ×Ļ×¨×Ļ×Ŀ
Ġ×Ķ×ŀ ×ł×Ķ
Ġ×Ķ×ł×Ĳ ×©×Ŀ
Ġ×ª ×¢×¨
Ġ×ľ×Ķ ×Ļ×ŀ
Ġ×ŀ×ĳ ×¦×¢
Ġ×Ķ×Ļ×Ĺ ×Ļ×ĵ×Ķ
×ĺ×¨ ×ķ×ª
×ķ×ĸ ×Ł
Ġ×©×Ķ ×Ĳ
Ġ×¤×ª×¨ ×ķ×Ł
Ġ×Ķ×¦ ×ĳ×Ĳ
×Ļ×ª ×Ŀ
Ġ×Ķ×¡ ×ŀ
Ġ×Ķ×ŀ ×ª×§
×ľ ×ŀ×Ļ×Ŀ
Ġ×ł ×ª×§
Ġ×Ķ×© ×ķ×§
Ġ×ł×ŀ ×ķ×ļ
Ġ×ķ×Ľ ×ŀ×ķ×ĳ×Ł
Ġ×ŀ×Ĳ ×Ĺ×¨
Ġ×Ĳ×ķ×¨ ×Ĺ×Ļ×Ŀ
Ġ×ŀ×¢ ×ŀ×ĵ
Ġ×¦×¢ ×Ļ×¨×Ļ×Ŀ
Ġ×©×Ļ×© ×Ļ
×ķ×¡ ×Ķ
×¤×¨ ×Ļ×Ŀ
Ġ×ľ×¢ ×Ļ×ª×Ļ×Ŀ
Ġ×ľ×© ×¤×¨
Ġ×ĵ ×ľ×ª
Ġ×©×Ĳ ×Ļ×ł×Ŀ
Ġ×ľ×Ĳ ×Ļ×¨×ķ×¢×Ļ×Ŀ
Ġ×ľ×¦ ×¤×ķ×ª
Ġ×Ķ×¦ ×¢×ª
Ġ×ĵ ×ķ×Ĳ
×ķ×¦ ×Ĳ
Ġ×Ķ×Ĳ ×Ļ
×ķ×ĺ ×ĳ
Ġ×©×ŀ ×ķ×ª
Ġ×§ ×Ļ×¨
Ġ×§×ĳ ×ķ×¦×ķ×ª
Ġ×Ķ×Ĵ×ĵ ×ķ×ľ×Ļ×Ŀ
Ġ×¤×ª×¨ ×ķ×ł×ķ×ª
5 5
9 9
Ġ×¦ ×ĳ×Ĳ
×¤ ×Ĺ
×Ļ×ľ ×ķ×Ł
Ġ×ĵ ×ł
Ġ×Ķ×Ĺ×ľ ×Ļ×ĺ
×Ľ ×ł×Ļ
Ġ×ŀ×¢ ×ľ×Ķ
×ł ×ł×Ķ
Ġ×Ķ×ŀ ×ĳ×§
Ġ×ĳ ×Ľ×ª×ĳ
×Ĳ ×ķ×ľ×Ļ
×ķ×¤ ×ķ×ľ×¨
Ġ×¨×¤×ķ×Ĳ ×Ļ×ª
Ġ×ĵ ×Ł
Ġ×Ķ×§ ×ŀ×ª
×ľ×Ĺ ×ŀ×ª
×ĳ ×ķ×ĵ×ķ×ª
Ġ×ŀ×©×ŀ×¢×ķ×ª ×Ļ×ª
×¦×Ļ ×Ļ×ª
×Ļ ×Ļ×ª×Ķ
Ġ×ĳ×ŀ ×©×§
×ĺ ×ķ×ª
Ġ×Ķ×¤ ×ļ
Ġ×ĳ×ª ×ķ×Ľ
×ľ×Ĳ ×ķ×ª
2 7
Ġ201 0
Ġ×ĳ×ŀ ×©×¨×ĵ
Ġ×ľ ×ł×Ļ
Ġ×¡×¨×ĺ ×Ļ×Ŀ
×Ķ ×Ļ×Ĳ
Ġ×ł ×ķ×£
Ġ×ĳ×ł ×ķ×Ĵ×¢
×Ĵ ×ķ×ľ
Ġ×Ķ×ķ×¨ ×Ĳ×ķ×ª
Ġ×ĳ×¢ ×Ļ×ł×Ļ
×ĳ×ĺ ×Ļ×Ĺ
Ġ×Ķ×¢ ×ł×Ļ×Ļ×Ł
Ġ×ŀ×§ ×ĳ×ľ×Ļ×Ŀ
Ġ×Ķ×Ĺ ×ĳ×¨×ķ×ª
Ġ2 7
Ġ×ĳ×¨ ×©
×ŀ ×ĵ×Ļ×Ŀ
×¨ ×¢
×ķ×ł ×Ļ×Ķ
Ġ×¡ ×ķ×Ľ×¨
Ġ2 8
×Ķ ×ŀ×©
" :
×Ľ ×Ĺ
Ġ×ĳ×ľ ×ķ×Ĵ
Ġ×ľ×ĵ ×£
Ġ×ķ ×Ļ×ķ×ª×¨
Ġ×ª×ŀ ×Ļ×Ľ×Ķ
Ġ×ł ×¢×Ļ×Ŀ
1 00
Ġ×Ķ ×Ļ×ŀ×Ļ×Ŀ
Ġ×Ķ×¦ ×¢
Ġ×©×ŀ ×Ĳ
×ŀ ×ķ×ĸ
Ġ×Ķ×Ľ×¡ ×£
×Ķ ×Ĳ×ª×¨
Ġ×ĳ×© ×ĺ×Ĺ
ig ht
×ķ×ĺ ×ķ
Ġ×©×ŀ ×ķ
Ġ×Ĵ ×Ļ×©×Ķ
Ġ×ĳ×Ķ×¦ ×ľ×Ĺ×Ķ
Ġ×¢ ×ĸ×¨
×Ĵ×¨ ×¡
Ġ×Ķ×ł ×ķ×Ľ
×ľ ×ľ
Ġ×¡ ×Ļ×ĳ×Ķ
×ķ×¤ ×Ĳ×Ļ×Ŀ
Ġ×¤ ×Ļ×ĸ
Ġ×ĵ×ĳ×¨ ×Ļ
Ġ( "
×ĳ ×ł×Ļ×Ļ×ª
2 8
×ŀ ×Ļ×§
Ġ×ľ×¤×ª ×ķ×Ĺ
×ľ ×¤×Ļ
Ġ×ķ×¢ ×ĵ×ª
×ķ×¦ ×Ļ
×ķ×ľ ×ĵ×ķ×ª
Ġ×Ķ×ľ ×Ļ×ľ×Ķ
Ġ×Ķ×ª ×ŀ×ķ×ł×Ķ
×ķ×ł ×©
Ġ×Ķ ×Ļ×¡
Ġ×ķ×Ķ ×Ķ
×ķ×© ×Ŀ
×Ļ×ĺ×ľ ×Ļ×Ķ
Ġ×Ķ ×ķ×¢
Ġ×ľ×Ļ×ŀ ×ķ×ĵ×Ļ
Ġ×ĳ×ĳ ×§×©×Ķ
×ķ×Ĵ ×ª
Ġ×ĺ ×¢×Ŀ
Ġ×Ķ×© ×Ĺ×§
Ġ×ĵ ×Ļ×¡×§
×¨×Ĵ ×ķ×Ŀ
×© ×ķ×ĳ×Ķ
ĠâĢ ¬
Ġ Y
Ġ×Ķ×Ĺ ×ľ×§
Ġ×§×ĺ ×ł×ķ×ª
3 3
Ġ×Ķ×ł ×ķ×©×Ĳ
Ġ n
Ġ×¡ ×ķ×¤×¨
Ġ×Ķ×¤×¢ ×Ļ×ľ×ķ×ª
Ġ×Ķ×¡ ×Ļ×ĳ×Ķ
Ġ×ŀ ×Ĺ×¨
Ġ×Ķ×ĵ ×¢×ª
ĠâĢ ª
Ġ×ł ×Ļ×©
×¡ ×Ļ×§
×© ×Ļ×ł×ķ×Ļ×Ļ×Ŀ
Ġ×©×ŀ×ĵ ×ķ×ĳ×¨
Ġ×Ĺ ×Ŀ
Ġ×ŀ×¨×Ľ×ĸ ×Ļ
×Ľ ×ŀ×Ļ×Ŀ
×Ĳ ×ŀ×Ķ
Ġ×ĳ ×ł×¡
Ġ×Ķ×Ļ×Ķ ×ķ×ĵ×Ļ×ª
Ġ×Ķ×ŀ×ª ×Ĳ
Ġ×Ķ×Ķ ×ķ×Ł
Ġ×Ľ×ķ×ª ×ĳ
Ġ×Ķ×ł×ª ×ķ×ł×Ļ×Ŀ
Ġ×Ĺ×© ×Ļ×ĳ×ķ×ª
Ġ×¤×ª ×ķ×Ĺ
Ġ×© ×¤×ª
Ġ y
Ġ×Ļ×© ×ķ×ĳ×Ļ×Ŀ
Ġ×¡ ×ĳ×Ļ×¨
Ġ×© ×ķ×ĺ
Ġ×ľ×¢ ×Ļ×ľ
Ġ×©×Ļ×¢ ×ķ×¨
Ġ×ł×© ×ŀ×¢
Ġ×Ķ×ª ×ķ×ĳ×¢×ª
×Ļ×Ľ ×ķ×Ļ
Ġ×¡ ×ķ×¤
Ġ×Ĳ×ŀ ×ķ×¨
Ġ×ŀ×¨×Ľ×ĸ ×Ļ×ª
Ġ×Ķ×¤×¨ ×ĺ×Ļ×Ŀ
Ġ×ĳ×ł ×Ļ×Ĵ×ķ×ĵ
×¡ ×ķ
Ġ×Ķ×ĵ ×£
Ġ×ŀ ×Ļ×¨
Ġ×¦ ×ŀ×Ĺ
Ġ×Ķ ×Ļ×§
Ġ×Ķ×Ĳ ×ĸ×ķ×¨
Ġ×Ĳ×¤×©×¨ ×ķ×Ļ×ķ×ª
×¤×§ ×Ķ
×Ľ×© ×Ļ×¨×Ļ×Ŀ
Ġ×Ķ×ĳ ×¡×Ļ×¡
Ġ×©×ľ ×ĳ
×ł ×©×Ļ
Ġ×¢×¡×§ ×Ļ
Ġ×ĳ×ŀ×§ ×¨×Ļ×Ŀ
×§ ×ķ×¨×¡
Ġ×ľ×¤×¢ ×ķ×ľ
Ġ×ĺ×Ļ ×ķ×ľ
×ĸ ×Ļ×ª
Ġ×¤×¨ ×Ļ
×ķ×ľ ×ľ
Ġ×§×ĳ ×ķ×¦×Ķ
Ġ19 8
Ġ×© ×Ļ×ĳ
Ġ×¤ ×ĺ×¨
Ġ×Ķ×¢ ×ŀ×ķ×ĵ
×ķ×¤ ×Ļ×¢
Ġ×ŀ×Ķ ×ŀ×¢×¨×Ľ×ª
Ġ×§ ×Ļ×©×ķ×¨
Ġ =
Ö´ Ö¼
Ġ http
Ġ×ª×§ ×ķ×¤×ª
×Ķ ×¦×Ķ
Ġ×Ĳ×ĳ ×Ł
×Ļ×ĳ ×Ļ×ķ×ª
Ġ×Ĺ ×Ļ×ł
Ġ×ľ×Ĺ ×ĳ×¨
Ġ×ľ×ª ×ķ×ļ
Ġ×Ķ ×ķ×¨×Ļ×Ŀ
Ġ×©×Ķ ×Ĺ
Ġ×Ķ ×ķ×ŀ
Ġ×Ķ×Ĳ ×¡
Ġ×Ĺ ×ķ×Ŀ
×ª ×¨×Ļ×Ŀ
Ġ×©×Ķ ×¤
Ġ×Ĳ×ª ×ŀ×ķ×ľ
Ġ×ŀ×ĵ ×¢
Ġ ×Ļ×Ľ
×¡ ×Ł
×ľ ×ŀ×Ļ
Ö° Ö¼
Ġ×Ķ×ŀ ×ľ×Ĺ×ŀ×Ķ
Ġ×ł ×ķ×ľ×ĵ
×ķ×¨ ×ŀ×Ļ×Ŀ
Ġ×ľ×Ľ ×ķ×ľ×Ŀ
×ł×Ļ ×Ļ×ł×Ļ
×¨ ×¤×ª
×ķ×ĵ ×ķ
×¤×¨ ×ĺ×Ļ×Ŀ
Ġ×Ĳ×ŀ ×¨×Ķ
Ġ×ľ×Ķ×Ľ ×Ļ×Ł
×¤ ×Ļ×ĵ
Ġ×Ķ×ľ×§ ×ķ×Ĺ×ķ×ª
Ġ×ľ×Ĳ ×ĵ×Ŀ
×ĳ ×ŀ
Ġ×ľ×ŀ ×¨
Ġ×Ĺ×ķ×ĸ ×¨
×ķ×ľ ×ķ
Ġ×ŀ×Ĳ ×¨
Ġ×Ķ×ŀ×ľ ×¦×ķ×ª
Ġ×Ĳ×ł ×Ĳ
Ġ×©×ŀ ×Ĺ×Ķ
Ġ×Ĳ ×ķ×ĳ
Ġ×Ķ×ĳ ×Ļ×ª×Ķ
Ġ×¢ ×ĸ×¨×Ķ
Ġ×ŀ×Ľ ×©
Ġ×Ķ×¨ ×ķ×ķ×Ĺ
Ġ×Ĳ×¡ ×ķ×¨
×Ļ×Ĵ ×ķ
Ġ×ĸ×Ķ ×ĳ
×ķ×Ľ ×ĳ
Ġ×Ĺ×Ļ ×Ļ×ķ
Ġ×Ķ×Ļ×Ĺ ×Ļ×ĵ
Ġ×ŀ×Ĵ ×ĵ
×ĳ×¨ ×¨
×ĸ ×¨×Ļ×Ŀ
Ġ×Ĳ×ª ×¨×Ļ
Ġ×Ķ×ŀ ×ķ×¦×¨×Ļ×Ŀ
Ġ×©×ľ ×Ĺ
Ġ×¤×¢ ×ķ×ľ×ķ×ª
Ġ×Ľ×ķ×Ľ ×ĳ×Ļ×Ŀ
Ġ×Ķ×ŀ×¦ ×Ļ×Ĳ×ķ×ª
Ġ×ķ×Ļ×§ ×Ļ×¤×ĵ×Ļ×Ķ
Ġ×ķ×ŀ ×ł
Ġ×ĳ ×ķ×ĺ
Ġ×ŀ×©×¤ ×ĺ×Ļ
Ġ×ĳ×¤ ×¢
er s
Ġ×Ĺ ×ł×ķ×ª
Ġ×¢ ×Ļ×§×¨
Ġ×ŀ×ĳ ×§
Ġ×ľ×Ķ×ª ×¢
×ķ×ĳ ×ĳ
Ġ×Ķ×Ĳ ×¨×ĵ
×Ļ ×Ļ×ł×ķ
Ġ×ŀ×Ķ ×¦
Ġ×¡ ×Ļ×¡
Ġ×¦×¨ ×¤×ª
Ġ×Ķ×ł×ª ×ĳ×¢
Ġ×ŀ ×¨×Ľ
×ķ ×ķ×ł×Ļ×Ŀ
Ġ×Ķ×© ×Ļ×¨
Ġ×§×¨ ×Ļ×Ĳ×Ķ
Ġ×Ķ×ĵ ×ª
Ġ×ĳ×ŀ ×ª
Ġ×Ĳ×ľ ×Ļ×Ķ×Ŀ
×ŀ×ĺ ×Ļ×§×Ķ
Ġ×Ķ×ĺ ×¢
Ġ×¢×ĳ ×ĵ
âĢĿ .
Ġ×ŀ×ĸ ×Ĵ
Ġ×¨×¦ ×ķ×Ł
Ġ×ŀ×Ķ ×¤
Ġ×Ĳ ×Ļ×ª×Ļ
Ġ×ľ×¤ ×¡
Ġ×¤×¨×ĺ ×Ļ×ª
×¨×Ļ ×Ļ×¨×Ķ
Ġ×ŀ ×ĳ×¢
Ġ×¢ ×ķ×¦
Ġ×ŀ×¨ ×§
Ġ×Ķ×¤×¨×ĺ ×Ļ×ķ×ª
×ķ×ĳ ×¢×Ļ×Ŀ
Ġ×ķ×ª ×§
×ĸ ×ĳ
×©×Ĳ ×ľ×Ķ
Ġ×Ĺ ×ķ×ŀ×¨×Ļ×Ŀ
Ġ×Ķ×Ķ ×©×§
Ġ×¤ ×Ĳ
×ł×ķ×¢ ×ª
Ġ×ľ×Ķ×¦ ×Ļ×Ĵ
Ġ×ľ×Ĵ ×ľ×ķ×ª
Ġ×ĳ ×ľ×Ĳ
Ġ×Ķ×¡ ×¤
Ġ×¢×ŀ ×ķ×§
Ġ×Ķ×ŀ×§ ×ķ×©×¨×Ļ×Ŀ
×¦×¨ ×ķ
Ġ×Ĺ×ĳ×¨×ª ×Ļ×ª
Ġ×Ĵ ×Ļ×Ĳ
×Ļ×¡ ×ĺ×Ļ
×Ľ ×ł×ķ×ª
Ġ×ł ×ķ×Ķ
×Ľ×ł ×Ļ×ķ×ª
Ġ×Ķ×¨×Ĳ×© ×Ļ
Ġ×ŀ×Ļ ×Ļ×¦
Ġ×Ĳ×Ĺ ×ķ×ĸ
×Ľ ×Ļ×¦×ĵ
Ġ×ķ ×ķ×ľ
Ġ×ĳ×¢ ×¨×ļ
Ġ×ŀ×§ ×¨
×Ļ×Ĳ ×¨×ĵ
Ġ×Ķ×§ ×Ļ
0 5
Ġ×Ķ ×ĵ×Ļ×ķ×Ł
×¢×ª ×Ŀ
Ġ×Ĵ×ķ×¨ ×ŀ×Ļ×Ŀ
Ġ×¢ ×ķ×ĳ×¨
Ġ×¤×¨×ĺ ×Ļ×Ļ×Ŀ
×Ľ ×Ĳ×©×¨
×ľ ×©
Ġ×Ĳ×ĳ ×Ĳ
×ŀ×ª ×ķ×ļ
Ġ×ŀ×ŀ×© ×ľ×ª
×Ļ×ª ×ķ×ª
×§ ×ķ×Ŀ
Ġ×ĳ×¢ ×¦×ŀ
Ġ×ľ×©×Ĳ ×ķ×ľ
Ġ×Ĵ×ĵ ×ķ×ľ×ķ×ª
ð Ł
×ĺ ×Ļ×¤×ķ×ľ
Ġ×ĳ×§×ĺ ×Ĵ×ķ×¨×Ļ×Ķ
Ġ×Ĳ×ł ×ķ×©
×ĳ ×¦
Ġ×ĳ×ŀ ×ľ×ķ×Ł
×ĸ×ŀ ×ł×Ķ
Ġ×ŀ×© ×§×ľ
Ġ×ŀ×Ľ ×Ļ×¨
Ġ×ŀ×ķ×¨ ×Ľ
Ġ×ĺ×ķ×¢ ×Ł
×ķ×ł ×§
Ġ×ĳ×¢ ×ĵ
Ġ×ľ×ĳ ×ł×Ļ
3 5
×Ļ×ł ×Ł
Ġ×©×ŀ ×Ļ
Ġ×Ĳ×Ļ×Ľ×ķ×ª ×Ļ
Ġ×Ķ×ŀ ×©×¨×ĵ
Ġ×©×ľ ×Ŀ
Ġ×Ķ×ł ×Ľ×ķ×Ł
Ġ×Ķ×©×§ ×¢×ķ×ª
Ġ×ĺ ×ľ×ķ×ķ×Ļ×ĸ×Ļ×Ķ
Ġ×ľ×Ľ ×Ĳ×Ł
Ġ×ª×© ×ķ×ĳ×Ķ
Ġ×ĳ×ŀ ×Ĳ×Ļ
×ľ×ĺ ×ķ×ª
Ġ×Ķ×§ ×Ķ×Ļ×ľ×Ķ
Ġ×Ķ×ł×ª ×ĳ×¢×ª
Ġ×ľ×Ĳ ×ľ
×ł×¡ ×Ļ
Ġ×Ĳ ×ķ×ł×Ļ×ĳ×¨×¡×Ļ×ĺ×ª
Ġ×Ļ×¨ ×ķ×§
Ġ×Ĺ ×ĸ×¨
Ġ×¨×Ĳ ×Ļ×ª×Ļ
Ġ×Ĳ×Ļ×ª ×ł×ķ
Ġ×ł×Ļ×ķ ×ķ×ĺ
i f
Ġ×© ×Ļ×ª×ķ×£
×ŀ×¦ ×Ĳ×Ļ×Ŀ
Ġ×Ķ×§×¨ ×ķ×ĳ
Ġ×ĳ×ŀ×¡ ×¤×¨
Ġ×¤ ×ķ×¡×ĺ
×ķ×ĸ×ľ ×ĺ×¨
×ķ×Ĳ ×Ļ×Ł
×Ķ ×ª×§
Ġ×ľ×©×ª ×£
Ġ×Ķ×ª×Ĵ ×ķ×ĳ×Ķ
×ľ ×Ļ×Ĺ×Ķ
Ġ×ľ×ŀ ×ł
Ġ×ĵ ×ķ×Ĳ×¨
×ľ×ķ ×Ļ×ķ×ª
ar t
Ġ×ŀ ×ķ×Ľ×Ł
Ġ×ĳ ×¨×Ľ
Ġ×ĳ×ŀ ×ĺ×¨×Ķ
Ġ×ĳ×ª ×Ĳ×¨×Ļ×ļ
×Ĺ×¨ ×¨
Ġ×ľ×Ķ ×Ļ×¨
Ġ×¦×ĳ×¢ ×Ļ×Ŀ
Ġ×Ķ×ŀ ×ķ×Ĺ
Ġ×Ķ×Ĺ×ľ×ĺ ×Ķ
Ġ×ľ×¡ ×Ļ×Ļ×¢
g le
×Ļ×¡ ×Ļ
Ġ×Ķ×Ĺ ×ĳ×¨
Ġ×Ķ×ĸ ×ĵ×ŀ×ł×ķ×ª
×Ļ×ª ×ķ×ł×ķ×ª
×ŀ×© ×ľ
×¤ ×ķ×ļ
ĠâĢ ¦
Ġ×ł ×Ľ×ª×ĳ
Ġ×Ĳ×¨ ×ķ×Ĺ×ª
Ġ×Ĳ×¨ ×ķ×Ľ×Ķ
Ġ×Ķ×ŀ×ķ×© ×ľ×Ŀ
×Ļ×¡ ×ĺ×Ļ×Ŀ
Ġ×ľ×ł ×©×Ļ×Ŀ
Ġ200 9
e w
Ġ×ŀ×Ĺ ×ķ
Ġ×Ķ×Ľ×ķ×ľ ×ľ
Ġ×ķ×ľ×Ķ ×ª
Ġ×Ķ×Ĵ ×ł×Ķ
Ġ×Ķ ×Ļ×ŀ
Ġ×ŀ×¢ ×ĵ
Ġ×ķ×Ĳ ×ķ×ľ×Ļ
×ŀ ×ł×Ļ×ª
×Ļ×ĵ ×ķ×©
r ess
×ĵ×ķ×¨ ×Ĵ×ľ
Ġ×Ķ×¡×¤×¨ ×Ļ×Ŀ
Ġ×¨×© ×Ļ×ŀ×ª
Ġ×Ķ×Ĳ ×¨×Ĵ×ķ×Ł
Ġ×ĳ×© ×Ļ×¨×ķ×ª
×ķ×© ×Ĳ×Ļ
Ġ×ŀ×ĳ×Ĺ ×Ļ×ł×Ķ
Ġ×Ĳ×ķ×¨ ×Ĺ
Ġ×ľ×© ×ľ×ĳ
×© ×¤
Ġ×ľ×ª ×ķ×Ľ×Ł
×Ĺ ×ĵ×¨
Ġ×ŀ×© ×ł×ª
Ġ×Ĳ×¨ ×ĳ×¢
Ġ×ŀ×ķ×ŀ ×Ĺ×Ķ
Ġ3 8
Ġ×¢×ª ×Ļ×ĵ
Ġ×Ľ ×¨×Ĵ×¢
Ġ×Ĳ ×Ķ×¨
×ģ Ö°
×Ļ×¦ ×Ļ×Ķ
×Ļ×ł ×ķ×Ł
Ġ×ľ×Ķ ×ĸ
Ġ×Ķ ×Ļ×ķ×ª
Ġ×ª ×ł
Ġ×¤ ×ķ×ª
Ġ×ĳ×ĳ ×ª×Ļ
×ķ×ĳ ×¨×ª
4 8
×¡ ×ĵ
Ġ×Ľ×©×Ķ ×ķ×Ĳ
×Ĺ×ĵ ×©
Ġ×ľ×© ×ł×ª
Ġ×¡ ×Ľ×ķ×Ŀ
Ġ×ŀ×ķ×ŀ×ľ ×¦×Ļ×Ŀ
al l
Ġ×Ķ ×ķ×¡
×Ķ×¨ ×Ļ×Ļ×Ŀ
Ġ×ľ×ŀ ×Ľ×Ļ×¨×Ķ
×ŀ ×ľ×Ļ
Ġ×©×ŀ ×ķ×Ĳ×ľ
Ġ×Ķ×Ĳ×¨×ĵ ×§×ķ×¨
Ġ×ľ×¢ ×ł×Ļ×Ļ×Ł
×ŀ ×Ļ×ķ×ª
Ġ×ł ×ķ×Ĺ
Ġ×© ×Ļ×ĵ
×Ĺ×¨ ×Ļ×ķ×ª
Ġ×ł ×Ļ×¨
Ġ×ķ×Ĳ ×¨
Ġ×Ļ ×Ļ×¦
×ľ×ĺ ×ª
Ġ×Ķ×¨ ×©×ķ×ª
âĢ Ń
Ġ×ľ×© ×Ļ×¨×ķ×ª
Ġ×¡ ×Ļ×¨
×¡ ×ķ×ª
Ġ×Ĺ×Ļ ×ķ×ĳ
ou t
×ŀ×ķ×ĵ ×ĵ×ķ×ª
Ġ×Ķ×¢ ×¦×ŀ
×ŀ×¦ ×ĳ
Ġ×ĳ×¢ ×ľ×ķ×ª
Ġ×¨ ×ľ×ķ
Ġ×Ķ×ª ×Ļ×Ľ×ķ×Ł
×¦ ×Ŀ
×ķ×¡ ×§×Ļ×Ŀ
×ľ×Ļ ×Ļ×Ķ
×¦ ×Ĳ
Ġ×ª×ľ ×ķ×Ļ
Ġ×¢ ×ĳ×¨×Ļ×ª
Ġ×©×ł ×§
×ĳ×ĵ ×ľ
Ġ×Ķ×ª ×ł×ķ×¢×Ķ
Ġ×Ĳ ×ķ×¨×Ļ
Ġ×Ķ ×Ļ×¡×ĺ
Ġ×Ĺ×Ļ×¦ ×ķ×ł×Ļ×Ļ×Ŀ
Ġ2 9
0 7
×ŀ×ľ ×ķ×ł×ķ×ª
Ġ×ŀ×Ĺ ×¤×©×Ļ×Ŀ
Ġ×ł×Ĺ ×©×ĳ
Ġ×ĳ×¨ ×Ļ×Ĳ
×ķ×¢ ×Ļ
×ŀ×Ķ ×ľ×ļ
Ġ×Ĵ ×ł
Ġ×ĳ×ĵ×¨ ×ķ×Ŀ
ĠC om
×Ľ×ľ ×ľ×Ķ
Ġ×Ķ×Ĳ ×Ļ×©×Ķ
Ġ×Ľ×ľ ×©×Ķ×ķ
Ġ×ľ×§ ×ĳ×ķ×¢
Ö¼ Ö¶
Ġ×ĳ×ŀ ×Ĵ
Ġ×ĳ×Ľ ×¤×¨
×ŀ×ĵ ×ķ
×Ĵ ×Ļ×ľ
Ġ×ŀ×© ×ľ×ķ×Ĺ
×ŀ ×Ļ×Ľ×Ķ
×Ļ×ĺ ×ķ×ľ
×ķ×ĳ ×ľ×Ļ×Ŀ
Ġ×ķ×Ĳ ×Ļ×ľ×ķ
×ľ×Ĳ ×Ļ
Ġ×¨×Ĺ ×ķ×ĳ
Ġ×©×ľ ×Ļ×ĺ×Ķ
×ł×Ļ×ª ×Ļ
×¦ ×ķ×Ĵ×Ķ
Ġ×Ķ×¤ ×Ļ
×Ļ×¤ ×ķ×Ł
oo gle
Ġ×Ĳ ×Ļ×ĳ
×ķ×ŀ ×Ļ×ł
ar k
Ġ×ĳ×Ĳ ×ľ
×¤×ľ×Ļ×§ ×¦×Ļ×Ķ
×Ļ×ª ×ł×ķ
Ġ×ŀ×©×¤×ĺ ×Ļ×ª
Ġ×Ļ×¤ ×ķ
Ġ×Ĳ×Ķ ×ĳ×ª×Ļ
Ġb y
×¤×¢ ×Ļ×ľ
Ġ×ľ×Ļ×ŀ ×ķ×ĵ×Ļ×Ŀ
Ġ×ª×ĳ ×Ļ×¢×Ķ
Ġ×ł ×ķ×©×Ĳ×Ļ×Ŀ
×¤ ×Ļ×ľ
Ġ×ķ×Ķ ×Ļ×Ķ
o st
p h
Ġ×Ķ×ł ×§
Ġ×ĳ×¡ ×¢×Ļ×£
Ġ×ĳ ×Ļ×ŀ
Ġ×ľ×ľ×§ ×ķ×Ĺ×ķ×ª
×ķ×Ĵ ×Ļ
×¤×¡ ×Ļ×§
Ġ×ĸ ×Ļ×Ķ
×© ×ĳ×ª
Ġ×Ķ×© ×ķ×ł×ķ×ª
×Ļ×Ľ ×ķ×ĸ
Ġ×ŀ×¢ ×ķ×¦
Ġ×ĸ×Ķ ×Ķ
Ġ×ª ×ł×Ĳ×Ļ×Ŀ
Ġ×¨×Ĳ ×ķ×Ļ
Ġ×ĸ ×Ļ×Ł
Ġ×© ×Ļ×ł×ķ×Ļ×Ļ×Ŀ
Ġ9 0
Ġ×Ļ×§ ×¨×Ķ
×Ľ×¨ ×ķ
Ġ×Ĳ×¤×©×¨ ×Ļ
Ġ×Ľ×ª ×ķ×ĳ
Ġ×ľ×Ĺ ×©
Ġ×Ķ×¤ ×ķ×¡×ĺ
Ġ×ľ×ŀ ×¦×ĳ
Ġ×Ľ×ķ×ľ ×ľ×ª
×¢ ×ĵ×Ķ
×ķ×ĺ×ł×¦ ×Ļ×Ĳ×ľ
Ġ×ŀ×ķ×§ ×ĵ
or g
×ŀ ×ł×Ļ
Ġ×ľ×ŀ ×ª
Ġ×ĳ×¡ ×Ĵ×ł×ķ×Ł
×ķ×ª ×Ļ
Ġ×ł×¤ ×ķ×¦×ķ×ª
Ġ×ĳ ×ł×ª
o b
Ġ×ŀ×¢ ×ĳ
×Ļ×§ ×¨×Ļ
Ġ×ľ×Ķ ×ł×Ļ×Ĺ
Ġ×ĺ ×Ļ×¤×Ļ×Ŀ
×Ĳ ×¨×Ľ×Ļ×ķ×Ł
×ŀ×¡ ×¤×¨
×ŀ ×©×¨×ĵ
×ķ×ĵ ×Ĳ
Ġ×Ķ×¦ ×ķ×ķ×ª
×Ľ ×Ĳ
Ġ×Ļ×© ×Ļ×ĳ×Ķ
×¤ ×ķ×£
×ķ×ĵ ×Ļ×Ļ×Ŀ
Ġ×© ×ĵ×Ķ
Ġ×ĳ×¤ ×¢×Ŀ
Ġ×ĳ×¦ ×ĳ×¢
Ġ×ŀ×ª ×Ľ×ķ
×ķ×¤ ×Ļ×ľ
×ķ×ĺ ×ķ×ĳ×ķ×¡
×ķ×ķ ×Ļ×¨×Ķ
×ķ×¦ ×¨×Ļ
Ġ×Ķ×¨ ×Ĵ×ľ
Ġ×¡ ×Ļ×ķ×Ŀ
? !
Ġ×¡×Ļ×Ľ ×ķ×Ļ
×ķ×ł ×Ŀ
Ġ×ķ×ŀ ×ĳ
Ġ×© ×Ĺ×Ļ
Ġ×ĸ ×Ľ×Ķ
Ġ×Ľ ×©×ľ
×ŀ ×Ŀ
Ġ×Ķ×ł ×ķ×¢×¨
Ġ×Ķ×ľ×Ĳ ×ķ×ŀ×Ļ
Ġ×§×ķ×¨ ×Ĳ×Ļ×Ŀ
Ġ×ŀ×©×¤ ×Ĺ×ķ×ª
Ġ×¦ ×¤×ķ×Ł
Ġ×Ķ×ĵ ×Ļ×¨×Ķ
Ġ×ľ ×ł×ª
×ķ×Ľ ×ª
×ŀ ×Ļ×ł
Ġ×Ļ ×Ļ×©
Ġ×¡ ×Ĳ
Ġ×Ķ×ŀ×Ĳ ×¤×©×¨
×ķ×¨ ×Ļ×ķ×ª
Ġ×©×ŀ ×ķ×ł×Ķ
Ġ×ª ×Ļ×§×ķ×Ł
Ġ×ķ×ĳ×¢ ×Ļ×§×¨
Ġ×Ľ×ľ ×©×Ķ
Ġ×ŀ×ķ×ĸ ×Ļ×§×Ķ
Ġ×ĳ×ŀ×ĵ ×Ļ×ł×Ķ
Ġ×Ķ ×ķ×©
Ġ×ŀ×Ķ ×Ł
* *
Ġ×©×Ķ ×¡
×Ĵ ×ľ×Ļ×Ŀ
×Ĳ ×Ĺ
Ġ×ľ×© ×ĳ×ª
×Ľ ×Ļ×¨×ķ×ª
Ġ×ŀ ×Ļ×ľ×Ķ
Ġ×Ķ×ŀ×© ×§
Ġ×ĳ×Ĳ×ŀ×¦ ×¢
Ġ×¨ ×ķ×¤×Ĳ
Ġ×ĳ×Ĳ ×ł×Ĵ×ľ×Ļ×ª
Ġ×ķ×Ķ ×ĵ
Ġ×Ķ ×ķ×§
0 8
Ġ×Ĳ ×ĺ
Ġ×¦ ×ķ×ŀ×ª
Ġ×ľ×Ĺ ×ĳ×¨×ª
Ġ×Ķ×ŀ ×Ĺ×§×¨
0 6
Ġ×¦ ×ĳ×Ļ
Ġ×ŀ×©×Ĺ×§ ×Ļ
Ġ×Ĳ ×ķ×¤×Ł
Ġ×¡×Ļ×ŀ ×Ł
Ġ×Ļ ×ķ×§
Ġ×Ķ ×ľ×Ĺ
f ice
Ġ×¢×ĳ ×ķ×ĵ×ª
Ġ×Ķ ×Ļ×Ľ×ķ×ľ×ª
Ġ×ŀ×Ĳ ×ŀ×¨
Ġ×Ĳ×ľ ×ķ×Ķ×Ļ×Ŀ
Ġ×ŀ ×ķ×Ľ×¨
Ġ×ŀ×¢ ×ľ×ķ×ª
Ġ×§×¨ ×Ļ×ª
Ġ×Ķ×ŀ ×ľ×Ĺ
Ġ×¤×¨ ×ķ×Ļ×§×ĺ
Ġ×Ľ ×©×¨
Ġ×ľ×Ĺ ×¤×©
Ġ×¢ ×Ļ×¨×Ļ×Ļ×ª
Ġ×ľ×¨ ×©×ķ×ª
Ġ×Ļ ×Ļ×Ł
ï »
×Ĳ×ł ×©×Ļ×Ŀ
Ġ×Ķ×© ×ĳ
Ġ×ŀ×ĸ ×ľ
ï» ¿
Ġ×ŀ×Ľ ×ķ×Ł
Ġ×Ķ×ł×© ×Ļ×Ĳ
Ġ×Ķ×Ĺ ×ĵ×¨
Ġ×ĳ×ª×§ ×ķ×¤×Ķ
×Ļ×¢ ×ĸ×¨
Ġ×ĳ×Ķ ×¡
Ġ: )
×Ļ×ŀ ×¡
×Ľ ×ķ×ł×ª
Ġ×ľ×Ķ×Ĵ ×Ļ×©
Ġ×¢×ĵ ×Ľ×ķ×ł×Ļ×Ŀ
Ġ×ľ×ŀ×¢ ×¨×Ľ×ª
Ġ×ŀ×§ ×¨×§
Ġ×ŀ×Ĳ×¤×©×¨ ×ª
Ġ×ŀ×Ĺ×© ×ĳ×Ļ×Ŀ
Ġ×©×ŀ ×¡
Ġ×§ ×ĳ×ľ
Ġ×ĳ×§ ×©×¨
Ġ19 7
Ġ×ľ×ĳ ×ķ×Ĳ
×ľ×§ ×ĺ×¨
Ġ×Ķ×§ ×ķ×¨×¡
Ġ×ŀ×ķ×ª ×¨
Ġ×¢×ľ ×ķ×ľ
Ġ×© ×ķ×Ĳ
c e
19 9
Ġ×ĳ ×ķ×ľ
×ķ ×Ļ×ĵ
r om
Ġ×§ ×ķ×¤
Ġ×ĳ×Ķ ×ľ
×ľ ×Ļ×ĺ
Ġ×ª ×Ľ×ł×ķ×Ł
×© ×Ł
Ġ×ĳ×© ×ĳ×ª
Ġ×ĳ×© ×ł×Ļ
Ġ×Ĺ ×ŀ×©
Ġ×§×ķ×¨ ×Ĳ
×ł ×ĸ
×ķ×ĳ ×¨×Ļ×Ŀ
×Ķ ×Ŀ
Ġ×Ķ×ŀ ×ķ×¨
×Ķ ×ł×Ķ
×Ļ×§ ×ķ×Ļ
Ġ×Ķ ×ķ×¦
Ġ×ķ×Ľ ×ª
Ġ ×Ļ×§×¨
×ŀ×©×Ĺ×§ ×Ļ
Ġ×Ĳ×ŀ×¨ ×Ļ×§×Ķ
Ġ×ŀ×§ ×ķ×ķ×Ķ
Ġ×ķ ×ķ×Ĳ
×¤×¨ ×Ļ×ľ
×ĵ ×Ļ×¨×ķ×ª
×Ļ×ŀ ×ķ×¨
Ġ×ľ×Ĺ ×Ļ×Ļ×Ŀ
Ġ×ĳ×ŀ ×ĺ
Ġ×ŀ ×ķ
×Ľ ×ķ×Ķ
Ġ×ĳ×ª ×Ķ×ľ×Ļ×ļ
Ġ×ķ ×Ļ×¢
Ġ×Ľ×ķ×ľ ×ł×ķ
Ġ×ŀ×Ĺ ×ĸ
Ġ×¤×¨ ×Ĺ×Ļ×Ŀ
Ġ×ŀ×¨ ×Ĺ
×ķ×¢ ×ķ×ª
Ġ×Ĺ×ķ×§ ×Ļ
×Ĵ ×©×ª
Ġ×ŀ×Ĵ ×ķ×¨×Ļ×Ŀ
×ķ×¢ ×ĵ×Ļ×Ŀ
Ġ×©×Ķ ×ª×§
Ġ×Ĳ×ł ×Ĵ×ľ×Ļ×ª
Ġ×Ĺ×ķ×© ×ĳ×Ļ×Ŀ
Ġ×ľ ×©×¨
×ľ×¦ ×¤×Ļ×Ķ
Ġ×ŀ×¦ ×Ļ×¦×Ķ
×Ķ ×Ļ×ķ×Ŀ
Ġ×Ļ ×ķ×Ľ×ľ×ķ
Ġ×Ķ×Ĺ ×ķ×¤×©
×Ļ×ŀ ×¨×Ļ×Ŀ
Ġ×Ļ ×ķ×¤×Ļ
Ġ×¢ ×©×¨
Ġ×¤×ķ×¨ ×ķ×Ŀ
×Ļ×ĺ ×ķ×ĺ
×ķ×Ĳ ×Ŀ
×Ĵ ×¨×Ļ×Ŀ
Ġ×ľ×Ķ×ķ×¨ ×Ļ×ĵ
Ġ×© ×ķ×ķ×Ļ
Ġ×ĳ×¢ ×¨×ĳ
Ġ×ĳ×Ĺ ×Ļ×¤×Ķ
Ġ×ŀ×Ĳ×ŀ ×Ļ×Ł
Ġ×Ĳ ×Ļ×ĺ
âĢ İ
×©×ķ ×ķ×Ĳ×ª
Ġ×Ķ×¡ ×ĵ×¨
Ġ200 8
Ġ×ł×Ļ ×Ļ×ĵ×Ļ×Ŀ
ĠâĢ Ķ
Ġ×Ķ×ĸ ×¨
Ġ×ŀ×Ķ ×Ļ×¨×Ķ
Ġ×Ķ×ª ×Ķ×ľ×Ļ×ļ
Ġ×ª ×©×ľ
Ġ×ĳ×¢ ×ŀ×ķ×ĵ
Ġ×Ķ×ĳ×Ĺ ×Ļ×¨×ķ×ª
Ġ×ª ×ł×ķ×¢×Ķ
Ġ×Ľ×ľ×ľ ×Ļ×ª
Ġ×ŀ×ĵ ×ķ×Ļ×§
×ķ×Ľ ×Ĺ×ķ×ª
×ĳ×¨ ×ķ×Ľ×Ļ×Ŀ
×ĳ×ł ×ķ×¡×£
×Ļ×ĵ ×Ļ×ª
Ġ×ĺ×Ļ ×ķ×ľ×Ļ×Ŀ
×ķ×¤ ×©×Ķ
×ł ×Ļ×ł×ķ
Ġ×ľ×Ĺ ×ĳ×¨×Ķ
6 5
Ġ×©×ĳ ×Ļ×Ł
Ġ×ľ×¢ ×ľ×ķ×ª
×Ľ ×ķ×ł×Ļ
×©×§ ×ľ×ķ×Ł
Ġ×ľ×¢ ×¡×§×Ļ×Ŀ
Ġ×ķ×Ĳ ×ŀ×¨
Ġ×Ĳ×© ×ĵ×ķ×ĵ
Ġ×Ĺ ×ķ
×¤×¨×¡ ×ŀ×ķ
Ġ×ĳ×© ×¢×ķ×ª
×Ĳ ×ķ×¤
Ġ×ŀ×¡ ×¨
×¢ ×ł×ķ
Ġ×Ĳ×ĵ ×ŀ×Ķ
×ķ×ľ ×Ĳ
Ġ×Ķ×ª×Ļ ×Ļ×Ĺ×¡
Ġ×ķ×© ×ķ×ĳ
×Ľ×ª ×Ķ
×Ĵ×ĵ ×ľ
Ġ×ĳ×Ĳ ×Ļ×ĸ×ķ×¨
Ġ×ķ×ĳ ×ķ
Ġ×§ ×Ļ×¦
×ł ×£
Ġ×Ķ×ª×ŀ ×ķ×ł×ķ×ª
Ġ×Ķ ×ķ×¦×Ĳ×ª
Ġ×Ķ×ŀ×Ļ ×Ļ×ľ
Ġ×© ×ķ×ľ×Ĺ×Ł
Ġ×Ķ×ĳ ×ł×ª×Ļ
Ġ×¨ ×Ĳ×Ļ
×ł×¡ ×Ļ×Ķ
Ġ×Ķ×¨×¤×ķ×Ĳ ×Ļ
Ġ×Ĳ×¨ ×ĳ×¢×Ķ
Ġ×ķ ×Ļ×ľ
Ġ×ŀ ×¤×ª×Ĺ
Ġ×ª×Ĺ ×ķ×ŀ×Ļ
×¡×§ ×ª
×Ļ×ª ×ķ
Ġ×ª ×ķ×©×ĳ×Ļ
×ķ×Ľ ×Ļ
×Ļ×¤ ×¨
×§ ×Ļ×©×ķ×¨×Ļ×Ŀ
Ġ×ķ×Ķ ×ĺ
×ł×¡ ×ķ×ª
Ġ×ŀ×ĸ ×ķ
Ġ×ŀ×¤ ×Ķ
Ġ×ŀ×ĺ ×¨×Ļ×Ŀ
×ł×Ķ ×ľ×ķ×ª
×Ĵ ×ľ×Ķ
×ķ×Ľ ×ł×Ķ
Ġ×©×Ķ ×Ł
×¤ ×ł×Ļ×Ŀ
Ġ×ŀ×© ×ķ×ľ
Ġ×ŀ×Ĺ ×¤×©
Ġ×ª×Ļ ×Ļ×¨×ķ×ª
×ķ×Ľ ×¨×Ļ×Ŀ
Ġ7 0
×ķ×ľ ×ĵ×ª
Ġ×ª ×ķ×ŀ
Ġ×Ĺ ×ķ×ķ×Ļ×Ķ
×Ļ×ł ×§
Ġ×Ķ ×Ļ×ĳ
Ġ×ŀ×ľ ×ļ
Ġ×ł×§ ×ĳ×¢
Ġ×ľ×ŀ×© ×ļ
Ġ×ŀ×© ×ŀ×©
el l
Ġ×Ķ×Ĳ×¤×©×¨ ×ķ×ª
×Ĳ×ŀ ×ł×ķ×ª
Ġ×ŀ ×Ļ×Ľ
Ġ×ŀ×ĵ ×ĳ×¨×Ļ×Ŀ
Ġ×Ļ×Ķ ×ķ×ĵ×Ļ×ª
Ġ×¢ ×§×¨
Ġ×ĳ×ľ ×Ļ×ľ×Ķ
Ġ×Ķ×Ĳ ×ķ
Ġ×§ ×ķ×§
Ġ×ŀ×ĳ ×ł×Ķ
Ġ×Ķ×§ ×Ķ×ľ
Ġ×Ķ×ł ×Ĺ×Ķ
×Ļ×Ķ ×ķ
Ġ×ŀ×§ ×ĵ
×¨×© ×ŀ×Ķ
Ġ×Ķ×ŀ ×©×ķ×ª
Ġ×ŀ×¨×Ĵ ×Ļ×©
Ġ×ŀ×ķ×ĵ ×¨
Ġ×¤×©×ķ×ĺ ×Ķ
Ġ×¢×ľ ×Ļ×ļ
Ġ×ľ×Ķ ×§×ľ
Ġ×ķ×ĳ ×Ĺ
×ķ ×ķ×ł×Ķ
×¨×Ĺ ×ķ×ĳ
×Ļ×ĳ ×Ļ×Ļ×Ŀ
Ġ×ĳ×ł×Ļ ×ķ
Ġ×Ľ×Ĳ ×ľ×ķ
Ġ3 5
×Ĵ ×ķ×ĳ×ķ×ª
Ġ×ł ×ĵ×¨
Ġ×ł×Ĳ ×ŀ×¨
×ł×Ļ×ª ×ķ×Ĺ
Ġ×ľ×Ķ ×ª×¨
Ġ×¢×ĳ ×ķ×ĵ
Ġ×Ķ×Ĳ ×ķ×¦×¨
Ġ×ŀ×ŀ ×Ĺ
Ġ×ľ×Ķ ×ĺ
Ġ×ŀ×¡×¢ ×ĵ×ķ×ª
Ġ×ķ×Ľ ×ŀ×Ķ
Ġ×Ķ×ª ×ł×Ķ×Ĵ×ķ×ª
Ġ×ĳ×Ļ×§ ×ķ×¨
Ġ×ŀ×ł ×Ļ×ķ×ª
×ĳ×ĺ ×Ļ×Ķ
×©×Ļ×¨×ķ×ª ×Ļ
- '
Ġ×§×Ļ ×Ļ×ŀ×Ļ×Ŀ
×Ĳ×ŀ ×Ļ×Ł
Ġ×ĳ×© ×ł×ķ×ª
Ġ×¤ ×Ļ×§
3 7
Ġ×ª×ķ×Ľ ×ł×Ķ
Ġ×Ķ×ª ×ķ×Ľ×ł×Ļ×ª
Ġ×ľ×¦ ×¤×Ļ×Ļ×Ķ
Ġ×Ķ×Ľ×ł×¡ ×Ķ
Ġ×ĳ×Ĺ ×ķ×¥
Ġ×ĵ ×ľ
Ġ×ł×© ×Ĳ
Ġ×Ķ×Ĺ×ĵ ×©×ķ×ª
Ġ×ľ ×¤×¨×¡×Ŀ
Ġ×© ×Ļ×ľ×ķ×ĳ
×Ķ×¦ ×Ĵ
Ġ×ł ×ķ×Ľ×ľ
Ġ×Ĺ ×Ļ×ķ×ª
Ġ×ĵ ×Ĺ
Ġ×ķ×ĳ ×Ľ×ļ
Ġ×Ķ×ŀ×Ļ ×ķ×Ĺ
Ġ×ĳ×Ĳ ×Ļ
×Ķ ×Ľ×ľ
Ġ×Ĳ ×ķ×¤×Ļ
×Ļ×Ľ ×ļ
Ġ×ľ×ĳ ×§×¨
Ġ×Ĳ×ķ×¤ ×ł×Ķ
Ġ×Ķ×ł×ķ×Ľ ×Ĺ×Ļ
Ġ×ĳ×¢×ª ×Ļ×ĵ
Ġ×Ķ×Ĵ ×Ļ×¢×Ķ
×Ĵ×© ×ª×Ļ
Ġ×ĳ×¨ ×ķ×ĳ
. [
Ġ×Ĳ×ľ ×Ļ×Ľ×Ŀ
Ġ×ŀ×¢ ×©×Ķ
Ġ×¢×ĵ ×Ļ×£
Ġ×©×¨ ×§
×ķ×Ĵ ×Ł
×Ĳ×Ķ ×ĳ×ª×Ļ
Ġ×¦ ×Ļ×ľ
×Ĺ ×Ĺ
Ġ×ŀ×ĺ ×¢
×ŀ ×ķ×¦×¢
Ġ×Ķ×ŀ×¨×Ľ×ĸ ×Ļ
Ġ×ľ×Ķ ×Ļ×©×Ĳ×¨
Ġ×ŀ×Ļ×ľ ×Ļ×Ĳ×¨×ĵ
×ķ ×Ļ×Ķ
×ª×Ĵ ×ķ×ĳ×ķ×ª
×ľ×Ĳ ×ķ×ŀ×Ļ×ª
Ġ×¢×¦ ×ŀ×Ļ×ª
Ġ×Ļ×© ×¨×Ĳ×ľ×Ļ×Ŀ
Ġ×ľ×¨×Ľ ×ĳ
Ġ×ŀ×Ķ ×ĵ
Ġ×Ľ×ª ×ĳ×Ķ
Ġ×ľ×Ĺ ×ľ×§
Ġ×ľ×¢ ×ĸ
×¤ ×Ļ×¢
Ġ×ľ×ĳ ×Ļ×¦×ķ×¢
Ġ×ĳ ×ĳ×ľ×ķ×Ĵ
×ķ×ĸ ×¨
Ġ×ľ×Ķ ×Ł
Ġ×ĳ ×Ļ×ľ
Ġ×ĳ×Ĳ ×Ļ×¨×ķ×¤×Ķ
×Ľ×ķ×Ķ ×ķ×ľ
×¤×¨ ×©×ª
Ġ×ĵ ×Ļ×ķ×Ł
Ġ×Ľ×¨×ĺ×Ļ×¡ ×Ļ×Ŀ
Ġ×Ķ ×ł×Ļ
Ġ×Ĺ×ŀ ×Ļ×©×Ļ
×ł ×ĳ
×ª×¨ ×ķ×Ł
Ġ×ŀ×§×¦×ķ×¢ ×Ļ×Ļ×Ŀ
Ġ×Ķ×¢×¦×ŀ ×Ĳ×ķ×ª
Ġ×Ĳ×ŀ×¨ ×ķ
Ġ×§ ×¨×ĳ
×©×ª×ª ×£
×ķ×Ľ ×Ļ×Ĺ
Ġ×ľ×Ĺ ×Ļ
×Ļ×ĸ ×ķ×§
Ġ×Ķ ×ľ×Ķ
×¦×Ļ ×ķ×ł
Ġ×Ļ×© ×¨
×Ļ×ĳ ×ķ×ĳ
Ġ×¡×Ļ×¤ ×ķ×¨×Ļ×Ŀ
Ġ×ŀ×¦ ×Ļ×¢×Ķ
Ġ×ł×© ×Ļ×Ĳ
Ġ×¤ ×Ļ×ł×ª
Ġ×§ ×Ķ×ľ
Ġ×ĳ×Ľ ×ł×¡
Ġ×Ļ×Ĺ ×Ļ×ĵ×ķ×ª
Ġ×¨×Ĵ ×Ļ×ľ
×ĸ ×Ļ×Ķ
Ġ×Ĺ ×ķ×¨
×ķ×¢ ×ľ×ª
Ġ×ľ×Ķ ×¨×Ĵ×Ļ×©
Ġ×Ķ×Ķ ×Ĺ×ľ×ĺ×Ķ
Ġ×Ķ×©×ľ ×ķ×Ŀ
Ġ×ľ×ŀ×© ×Ĺ×§
Ġ×ł×Ĺ ×ŀ×ĵ
Ġ×Ĳ×ľ ×ķ×Ł
×ĸ ×¢
Ġ×ĳ×Ķ ×ª×Ĺ
Ġ×Ĺ×ķ×© ×ĳ×ª
×Ļ×ł ×Ļ×Ķ×Ŀ
Ġ×ľ×ĺ ×¤×ľ
Ġ×¨ ×ķ×ĸ
×Ļ×ĺ ×ł×Ļ×Ķ
Ġ×ķ×Ĳ ×Ļ×ļ
Ġ×ĳ ×Ļ×ŀ×Ļ
Ġ×ľ×¢ ×ĵ
×¢ ×ķ×¨×ļ
×Ļ×¢ ×ĵ
Ġ×ķ×ľ ×ľ×Ĳ
×§ ×Ł
×¤×ª ×ķ×¨
Ġ×Ĺ ×ł×ķ×Ļ×ķ×ª
Ġ×¡ ×ª
Ġ×ĳ×ŀ ×Ĵ×ķ×ķ×Ł
Ġ×ŀ ×ķ×¨×Ķ
Ġ×ľ×Ķ×© ×Ľ×¨×Ķ
Ġ×ĺ ×¢×ķ×ª
i z
Ġ×Ĳ×ł ×¨×Ĵ×Ļ×Ķ
×Ļ×ł×ª ×Ļ×Ļ×Ŀ
×ŀ×§ ×¨×Ķ
Ġ×ª ×Ĺ×¨×ķ×ª
×ł×Ĵ ×ĵ×ķ×ª
×ķ×ľ×ķ×Ĵ ×Ļ
Ġ×Ķ×ł ×¤×©
×©×ª ×Ļ×ķ×ª
Ġ×Ķ×ŀ×§ ×ķ×ŀ×Ļ×ª
Ġt he
Ġ×Ķ×ķ×¤ ×ļ
Ġ×¤×ķ×¨×¡ ×Ŀ
×Ļ×ĺ ×Ĺ×ķ×Ł
Ġ×ľ×Ľ ×Ļ×ķ×ķ×Ł
Ġ×Ķ×¦ ×¤
Ġ×ŀ×Ľ ×Ļ×¨×ķ×ª
×ł ×ĵ×Ķ
Ġ×¢ ×¨×Ľ×Ļ×Ŀ
×ŀ×ĵ ×Ļ×ł×Ķ
Ġ×ĳ×¤ ×ķ×¨×ķ×Ŀ
Ġ×Ľ×ª ×ĳ×ķ×ª
×ķ×¤ ×ĺ×Ļ×Ŀ
Ġ×ŀ×Ľ ×Ļ×¨×Ļ×Ŀ
Ġ×ĳ×Ĵ ×ķ×£
Ġ×ĳ×Ĺ ×ķ×Ŀ
×¨×Ĵ ×Ļ×ľ
Ġ×Ķ×ĵ ×ķ×¨
×¤×ľ ×Ĵ×Ķ
Ġ×¤ ×ķ×¢×ľ
Ġ×Ķ×Ĳ ×Ļ×ł
Ġ×ĵ ×ŀ
×ľ×§ ×ķ×ª
Ġ×Ĺ×Ļ ×Ļ×ĳ×ª
Ġ×Ĺ×© ×ķ×ĳ×Ķ
Ġ×ĳ×¦ ×ľ
×ª ×ľ
Ġ×ĳ×¨ ×ķ×¨×Ķ
Ġ×ĳ×ª ×Ĳ
Ġ×Ķ×¤×¢ ×ķ×ľ×Ķ
Ġ×ŀ×ĳ ×¦×¢×Ļ×Ŀ
Ġ×ŀ ×ł×ķ×ª
×¢ ×©×Ķ
Ġ×Ķ×Ĺ×© ×ŀ×ľ
Ġ×ľ×Ĳ ×Ĺ×ĵ
Ġ×Ķ×ŀ×Ĺ ×Ļ×¨×Ļ×Ŀ
Ġ×©×Ķ ×ĳ
Ġ×¡×¤×¨ ×ķ×ª
×ł×Ķ ×Ĵ
Ġ×ĳ×ŀ×§ ×ĳ×Ļ×ľ
×Ķ ×¤×¨
Ġ×Ķ×Ĳ ×ŀ×ķ×¨
Ġ×¡ ×¨
Ġ×ª ×Ļ×Ĳ
×ķ×ĵ ×Ļ×ķ×ª
×Ļ×ľ ×ł×ĵ
×Ļ×ĺ ×ķ×¨
Ġ×Ķ×ŀ ×ķ×ŀ
Ġ×Ķ×§ ×Ļ×¥
Ġ×ŀ×¡ ×Ľ×Ļ×Ŀ
Ġ×¨×Ĺ ×ķ×§
Ġ×ķ×Ĳ ×ł×Ĺ×ł×ķ
Ġ×ŀ×Ľ ×Ļ×¨×Ķ
Ġ×Ĳ ×ł×ĺ
Ġ×ĳ×© ×Ļ×ª×ķ×£
×ķ×ŀ ×§
Ġ×¤ ×ķ×Ĵ
Ġ×ĺ ×§×¡
×ķ×Ľ ×ĳ×Ļ×Ŀ
Ġ×Ķ×Ĳ ×ĳ
Ġ×Ĳ×ľ ×ŀ
Ġ×ŀ×Ĳ ×Ļ×ª×ł×ķ
×©×ľ ×ł×ķ×ª
Ġm in
Ġ×ŀ×ķ×§ ×ĵ×Ŀ
Ġ×§×ķ×ĵ ×ŀ×ķ×ª
×© ×ł×Ļ
Ġ×¤ ×Ļ×¨×ķ×ª
Ġ×Ķ×ŀ ×Ļ×ľ×Ķ
Ġ×Ķ×Ĺ ×ķ×ŀ×¨
Ġ×ŀ×ĺ ×ĳ×Ĺ
Ġ×Ķ×ł ×©×Ļ×Ŀ
0 9
4 4
Ġ×Ĺ ×Ł
Ġ×Ķ×ĳ×Ļ×ł ×ľ×Ĳ×ķ×ŀ×Ļ
×ŀ ×¨×ª
Ġ×Ĳ×Ļ×© ×Ļ×ķ×ª
×ľ ×ł×ĵ
Ġ×¨ ×¤
Ġ×ĳ×ł ×ķ×ĳ×ŀ×ĳ×¨
Ġ×ľ×Ķ×¢ ×ľ×ķ×ª
×ķ×ĳ ×ĵ×Ķ
Ġ×Ĳ×ł ×ĵ×¨
Ġ×ľ×Ĺ ×Ĵ
×Ļ×ĸ ×ķ
Ġ×ĳ×Ĵ ×ķ×Ĵ×ľ
Ġ×ĳ×Ĳ ×ķ×§×ĺ×ķ×ĳ×¨
it y
Ġ×ľ×¡ ×ĺ
Ġ×ŀ×¤ ×Ĵ
×Ľ×ª ×ĳ×ķ×ª
Ġ×ľ×ŀ ×ĺ
Ġ×ĳ×¨ ×ķ×ļ
Ġ×ķ×ł ×©
Ġ×¤×Ĵ ×Ļ×¢×Ķ
Ġ×§×ķ×ľ ×ł×ķ×¢
Ġ×ł ×Ĳ×ľ
×ł ×¤
Ġ×¡×¤×¨ ×Ļ
Ġ×§×ĵ ×Ļ×ŀ×Ķ
×Ĺ×¨ ×ª
Ġ×ŀ×¦×ķ ×Ļ×Ł
Ġ×ĳ×§×¨ ×ķ×ĳ
Ġ×Ķ×ŀ ×¢×¨
Ġ×ľ×Ľ ×Ĳ×ķ×¨×Ķ
Ġ×ľ×¢ ×ĳ×¨
Ġ×Ķ×¨×Ľ ×ĳ×ª
Ġ×Ķ×ķ ×ķ×¢×ĵ×Ķ
Ġ×Ĺ ×Ľ×Ŀ
×§ ×Ļ×ĵ×ķ×Ŀ
×ĵ ×ķ×Ł
×ĳ×Ļ ×ķ×Ŀ
Ġ×¨×© ×Ĳ×Ļ
×Ļ×ł ×ķ×¡
Ġ×ľ×¢ ×Ļ×¨
×Ľ×ł×ª ×Ĳ
×©×¨ ×ķ
at e
×ł×Ļ×ķ ×ķ×ĺ
Ġ×ĳ×ŀ×§ ×ķ×ŀ×ķ×ª
Ġ×Ķ×ŀ×ľ×Ĳ ×Ķ
Ġ×¢×ķ×ĳ ×ĵ×ª
Ġ×ĺ ×¨×Ļ
Ġ×ł ×¤×ª
Ġ×Ķ×Ĺ ×ĳ×¨×Ļ×Ŀ
Ġ×Ĳ×Ļ×ª ×Ŀ
Ġ×ĺ ×ľ×¤
Ġ×§ ×ķ×ŀ×Ķ
×ª×Ĺ ×Ŀ
Ġ×ŀ×ĳ ×Ĺ×¨
Ġ×Ķ×© ×ŀ×©
×§×ĺ ×ķ×¨
×ķ×ķ ×Ļ×Ł
Ġ×ľ×ĳ ×Ļ×ĺ×ķ×Ĺ
×ŀ×ª ×ķ
3 9
Ġ×¢ ×ķ×Ĵ×Ļ×ķ×ª
×ķ×¡ ×Ļ×Ļ×Ķ
Ġ×Ķ×ª ×ķ×¦×Ĳ×ķ×ª
Ġ×Ķ×ª ×Ľ×ł×Ļ×ª
Ġ×ķ×Ķ ×ŀ×©
×Ļ ×ķ×¢
×Ļ×ł ×Ļ×ķ
×ĳ ×Ļ×Ķ
Ġ×ľ×Ĵ ×Ļ×ľ
×ŀ ×ķ×¨×Ķ
Ġ×ĳ×Ĳ ×ķ×¨
Ġ×Ĳ×ķ×¤ ×ł×Ļ×Ļ×Ŀ
×ķ×ĳ ×ľ×ª
Ġ×Ķ×¨×¢ ×Ļ×ķ×Ł
Ġâ Ĩ
Ö· Ö¼
Ġ×Ļ ×ķ×ł×Ļ
×ŀ×¡ ×¨
Ġ×ľ×¤×Ĵ ×ķ×¢
Ġ×ĸ ×¦
Ġ×Ĺ ×ĳ×ľ
Ġ×ķ×© ×Ŀ
Ġ×¤×ķ×ľ ×Ļ×ĺ
Ġ×ĸ ×Ļ×ª
×¢×¨ ×ķ×Ľ×Ķ
×Ļ×ŀ ×Ļ×ķ×ª
Ġ×ł ×¨
×ķ×ŀ ×ł×ķ×ª
×ķ×ĵ ×ĵ
Ġ×ľ×ĸ ×Ľ×ķ×¨
Ġ×ł ×ķ×¤×©
×ķ ×ķ×ł×ª
×Ĵ ×Ļ×ĵ
Ġ×ŀ×ĵ×¨ ×Ļ×ļ
Ġ×ľ×ĵ ×¢×ª×Ļ
Ġ×Ĳ×ł ×Ĳ×ľ×Ļ
×¤×Ļ ×Ļ×ł×Ļ×Ŀ
Ġ×ľ×¢×¦ ×ŀ×ķ
Ġ×Ĳ ×Ļ×ª×Ł
Ġ×ĳ×ª ×¤×§×Ļ×ĵ
Ġ×ĺ×¨ ×Ŀ
Ġ×ª×ľ×ŀ×Ļ×ĵ ×Ļ×Ŀ
×ľ ×Ļ×ķ×ª
×Ĳ ×Ļ×¨
Ġ×Ķ×¦ ×ľ×Ĺ×Ķ
Ġ×ĳ×ł ×Ļ×ŀ×Ļ×Ł
Ġ×ľ×Ĺ ×ĵ×¨
×ŀ×¢ ×©×Ķ
Ġ×ŀ×Ľ ×Ļ×ľ
×ŀ ×¤×¨×ĺ
5 00
×Ļ×¡ ×ķ×Ł
Ġ×¢×ľ ×Ļ×Ľ×Ŀ
Ġ×Ķ×ª×© ×ķ×ĳ×Ķ
Ġ×ĸ ×ķ×Ķ×Ļ
Ġ×ĳ×ŀ ×ľ
Ġ×ŀ×©×ª ×ª
Ġ×ł×¤ ×Ĵ
Ġ×ĳ×ŀ×Ļ ×Ļ×ľ
×ĵ ×ŀ×ķ×ª
×Ĺ ×Ļ×ľ
m ail
Ġ×¨ ×Ļ
Ġ×Ķ×Ĺ ×ľ×Ķ
Ġ×ĳ×Ķ×§ ×ĵ×Ŀ
Ġ×Ķ×ŀ ×ĺ×¨×Ķ
Ġ×ĳ×Ļ×ĺ ×Ĺ×ķ×Ł
3 6
Ġ×Ķ×ª ×Ĺ×ľ
Ġ×Ķ×¡ ×¤×ķ×¨×ĺ
×ĳ ×Ļ×ĺ×ķ×Ĺ
Ġ×ĳ×¡ ×¤×ĺ×ŀ×ĳ×¨
×ł×§ ×Ļ×Ŀ
Ġ×¡ ×Ļ×ľ
×¢×ª ×ķ
×ł ×Ĺ×Ķ
l og
Ġ×ŀ×ķ×ĵ ×Ļ×¢×Ļ×Ł
Ġ' '
Ġ×ĳ×Ļ ×ķ×ľ×Ļ
×ľ ×ŀ×¨×ķ×ª
×ª ×¤×¨×Ļ×ĺ
Ġ×ŀ×ŀ ×ł×Ļ
Ġ×Ĵ ×ķ×ĳ×Ķ
Ġ×Ķ×Ľ ×ł×Ļ×¡×Ķ
Ġ×© ×ł×Ļ×ª
Ġ×Ķ×ĸ ×ŀ×ł×Ļ×Ŀ
Ġ×ŀ×¡×ķ ×Ļ×ŀ×Ļ×Ŀ
Ġ×ł×Ķ ×ĵ×¨
Ġ×Ĳ×ľ ×Ļ×ļ
Ġ×Ķ×ľ ×Ľ×Ķ
×ł×¡ ×Ļ×¢×Ķ
Ġ×ĳ×¤×¨ ×ĺ
201 7
Ġ×§ ×ł×Ļ×ķ×Ł
Ġ×ĳ×Ļ ×ķ×ł×Ļ
Ġ×¢ ×©×¨×Ķ
Ġ×ł ×ķ×¦×¨
Ġ×ĳ×ŀ ×Ĳ
!! !!
×ķ×¡ ×¡×ª
Ġ×¢ ×ĸ×Ķ
Ġ×Ļ ×ķ×¢
×Ķ ×ķ×¡×£
Ġ×Ķ×ŀ ×ķ×ł
×¤×¨ ×ĵ
Ġ×ł×§ ×ķ×ĵ×ª
Ġ×ķ ×Ļ×Ķ
Ġ×Ĺ×ķ×¤ ×©×Ļ
Ġ×Ĺ×ľ×§ ×Ļ
×Ľ ×ķ×Ĺ
Ġ×ł×Ļ×§ ×Ļ×ķ×Ł
0 3
×ķ×© ×¢
Ġ×ŀ×¦ ×Ĺ
Ġ×¢ ×ĳ×¨×ķ
×¨×© ×Ļ×ŀ×ª
Ġ×ľ×© ×ł×Ļ
Ġ×Ĳ ×Ļ×ŀ×Ļ×Ļ×ľ
×ŀ ×Ļ×¨
Ġ×ĳ×Ĳ ×Ķ
Ġ×ľ×Ķ×©×§ ×Ļ×¢
×¨ ×ķ×¦×Ķ
×ķ×¢ ×ľ×Ļ×Ŀ
ow s
×§ ×Ļ×Ł
×¦ ×Ļ×¤
Ġ×ľ×© ×ķ×Ł
Ġ×¦×ĵ ×§
Ġ×©×ł ×©
Ġ×ŀ×¨ ×ĵ
Ġ×ĳ×ĵ ×Ļ×§×ª
Ġ×Ķ×¨ ×¦×ľ×Ļ×Ķ
Ġ×Ķ×¢ ×Ļ×¦×ķ×ĳ
Ġ×ĳ×Ĳ ×Ĺ×ĵ
Ġ×ª ×¡
Ġ×Ĵ×ķ×¨ ×Ļ×ķ×Ł
Ġ×Ķ×ł ×¨×Ĳ×Ķ
×ķ×¤ ×ľ×Ļ×Ŀ
Ġ×ª ×ŀ×¦×Ĳ×ķ
×ĳ ×ł×Ļ×ª
Ġ×Ķ×Ľ ×ĳ×ķ×ĵ
×Ļ×¦ ×ķ×Ļ
×ŀ×§ ×ĵ
×Ļ×¨ ×ķ×£
Ġ×Ĵ ×Ĳ
Ġ×©×ľ×Ķ ×Ł
×ĺ×¨ ×Ļ
×Ļ×ª ×¨×ķ×Ł
Ġ×ŀ×ª×Ĺ ×Ļ×ľ×Ļ×Ŀ
Ġ×ĳ×Ļ×ł ×ķ×Ĳ×¨
Ġ×ľ×¢×ª ×Ļ×Ŀ
Ġ×Ľ×Ĺ ×ľ×§
Ġ×¨×¢ ×Ļ×ķ×Ł
Ġ×¢×ľ ×ķ×ª
Ġ×ĳ×ĺ ×Ĺ
Ġ×Ĳ ×Ĵ×ĳ
×ĺ×¨ ×¤×ķ×ª
Ġ×ķ×© ×Ļ×¨×ķ×ª
Ġ×Ķ×¦×Ļ×ĳ×ķ×¨ ×Ļ×ª
×Ļ×¨×ķ×© ×Ļ×Ł
Ġ×ŀ ×ķ×ķ×ª
Ġ×ľ×ŀ ×Ļ×ĵ×Ķ
Ġ×Ķ×ª ×ľ×ŀ×Ļ×ĵ×Ļ×Ŀ
Ġ×ľ ×Ļ×ľ
×ĵ ×ŀ
Ġ×ŀ×§ ×ľ
... "
Ġ×Ļ×©×¨×Ĳ×ľ ×Ļ×ª
Ġ×ľ ×Ļ×ľ×ĵ
×¦ ×ķ×ķ×ª
×ĸ ×ķ×ł×Ķ
Ġ×ķ×© ×ķ×ª
ar d
Ġ×Ķ×Ĳ ×ľ×ķ
Ġ×ł ×Ķ×¨
Ġ×Ľ×¡ ×¤×Ļ
âĢ¦ ]
ac k
Ġ×Ĺ ×Ļ×ĳ×ķ×¨
×ķ×ķ ×Ļ×Ĺ
Ġ×Ķ×§ ×©×ķ×¨
×Ĵ ×¨×Ķ
Ġ×¢ ×ķ×¡×§
×ĸ×¨×Ĺ ×Ļ×ª
Ġ×ĳ ×ķ×ķ
Ġ×ĳ×Ĳ ×©
Ġ×ľ×ł ×©
Ġ×Ķ×¦ ×¢×ķ×ª
×Ĺ ×ĸ×ķ×¨
×ķ×ĵ ×©×Ļ
×ģ Ö¸
Ġ×ŀ×ŀ ×ļ
Ġ×ľ×Ĳ ×Ļ×¨×ķ×¢
Ġ×Ĵ×ĳ×ķ×Ķ ×Ļ×Ŀ
0 4
×ľ ×Ľ×ľ
Ġ×Ľ×ł×¡ ×ª
s e
Ġ×©×¢ ×©
×Ĳ ×ĵ×Ŀ
×ł ×Ļ×£
×Ĵ×¨ ×¡×Ķ
Ġ×¤×¢ ×ŀ×Ļ×Ļ×Ŀ
×¦×ķ×¢ ×Ļ×Ŀ
Ġ×ľ×¤ ×ª×Ĺ
ĠA r
Ġ×Ķ ×Ļ×ĵ×¢
×Ĵ ×ł
Ġ×ŀ×ľ×Ĺ ×ŀ×Ķ
×ķ×ķ ×Ļ×ĺ×¨
×ŀ ×Ļ×ľ
Ġ×ŀ×¢ ×Ļ×Ł
Ġ×ł×ŀ ×ķ×Ľ×Ķ
×ĵ ×Ĳ×Ļ
×Ļ×ĳ ×Ĳ
Ġ×ľ×ŀ ×ľ×Ĳ
Ġ×Ķ×¤×¨ ×ķ×Ļ×§×ĺ
Ġ×ľ×Ķ×Ĺ×ľ ×Ļ×£
Ġ×ķ×ĳ ×¡
Ġ×ĳ×ĺ ×Ļ×Ĺ×ķ×ª
Ġ×¤×ª ×Ļ×Ĺ×ª
×¢×ľ ×Ŀ
×§ ×ĳ×ľ
Ġ×ĵ×Ļ×Ĵ×Ļ×ĺ ×ľ×Ļ
×ŀ ×ľ×Ķ
×ŀ×¡ ×Ĵ×¨×ª
Ġ×ŀ×ĳ ×§×©
Ġ×ŀ×¦ ×Ļ×Ĳ×ķ×ª
×ĳ ×Ļ×¢×ķ×ª
Ġ×ŀ ×ķ×¢×ĵ×ķ×Ł
×©×ķ ×ķ×Ĳ×Ķ
×Ĺ ×Ļ×Ļ×Ŀ
Ġ×ĵ ×ŀ×ķ×ª
×ĵ ×ķ×Ĳ×¨
Ġ×ł ×ķ×¢×ĵ
×Ĳ ×Ļ×ĸ×Ķ
×Ľ×ł ×Ł
Ġ×Ķ×ĳ ×ª
Ġ×Ĺ×ĳ×¨ ×ª×Ļ
Ġ×ľ×Ĳ ×ĺ
Ġ×¤ ×Ĳ×¨
×ĸ ×ª
Ġ×Ĳ ×§×¡
Ġ×Ĳ ×Ļ×ľ×ª
Ġ×ķ×ĳ ×§
×¤ ×Ļ×ª×ķ×Ĺ
×ŀ×ĵ ×ķ×ĳ×¨
Ġ×Ķ×¦ ×Ķ
×¤×ķ×¨ ×¡
Ġ×Ĳ×ŀ×¨ ×ª×Ļ
×ŀ×ķ×ª ×ª
Ġ×ľ×ĳ ×Ĺ×ķ×Ł
Ġ×Ķ ×ķ×ĸ
Ġ×©×¨ ×ķ×Ł
Ġ×ĳ×ĵ ×£
Ġ×¦×¤ ×ķ×Ļ
Ġ×ľ×ŀ ×Ĵ
×ķ×¤ ×¢
3 1
Ġ×ŀ×¨ ×©
Ġ×ľ×¡ ×¨×ĺ
Ġ×Ĺ×© ×ķ×ĳ×Ļ×Ŀ
Ġ×Ļ ×ķ×ŀ×Ļ
Ġ×ŀ×© ×ķ×ĳ
w it
×ķ×ľ×ķ×Ĵ ×Ļ×ª
×¢ ×¨×ĳ
Ġ×ľ ×ĵ×¨×ļ
×¤ ×ľ×Ļ×Ŀ
Ġ×ľ×§ ×Ļ×Ļ×Ŀ
Ġ×Ķ×ª ×¤×ª×Ĺ×ķ×ª
Ġ×Ĳ×Ļ×ł ×ł×ķ
Ġ×ĳ×ĵ ×Ļ×§×Ķ
Ġ×ķ×ľ×§ ×ĳ×ľ
Ġ×ĳ×ł×Ļ ×Ļ×Ķ
Ġ×ľ×ĳ ×§×©
Ġ×Ķ×Ĺ ×ĸ×§
Ġ×Ķ×ł ×ķ×¡
×© ×ŀ×ķ
×ĸ ×ķ×¨×Ļ×Ŀ
Ġ×Ķ×Ĺ×ľ×ĺ ×ķ×ª
×§ ×Ļ×Ļ×Ŀ
Ġ×ľ×Ķ×¦ ×Ļ×¢
Ġ×ĺ ×§×¡×ĺ
×ĺ ×Ł
Ġ ðŁ
×Ĳ ×ļ
Ġ×ľ×Ķ ×ľ×Ł
Ġ×Ķ×Ĺ ×Ĵ
Ġ×Ķ×Ĺ×ª ×ķ×ł×Ķ
on t
Ġ×Ķ×ŀ×Ĳ ×ŀ×¨
Ġ×Ĳ×ľ×Ļ×Ķ ×ķ
Ġ×ŀ×ĸ ×ŀ×Ł
×© ×ł×ķ×ª
Ġ×Ĵ×¨ ×ŀ×ł×Ļ×Ķ
Ġ×ª×Ĺ ×Ļ×ľ×ª
ĠCom m
×ľ×Ĳ ×Ķ
×ĸ ×ķ×ª
Ġ×Ķ ×ķ×¦×Ĳ×ķ×ª
Ġ×ĳ×¢ ×Ļ×¦×ķ×ĳ
Ġ×ľ×Ķ×¡ ×ĳ×Ļ×¨
Ġ×Ķ×§ ×ķ×¨
Ġ×Ĳ ×Ļ×ľ×ķ
Ġ×Ļ ×Ļ×¦×ķ×¨
×ĳ ×ķ×Ł
×¡ ×£
Ġ×ŀ×§ ×¨×Ļ×Ŀ
Ġ×ŀ×©×ķ×ª ×£
Ġ×ĳ×§ ×ķ×ľ
Ġ×ŀ×ŀ ×ķ×§×Ŀ
Ġ×ķ×ŀ ×¨
×ĳ×¢ ×ľ×Ļ
Ġ×ĵ ×Ļ×Ĳ
Ġ×©×¢ ×ĳ×¨×Ķ
Ġ×©×ł ×¤
×ķ×¦ ×Ļ×Ĳ×ľ
×ľ×ĺ ×Ķ
Ġ×ĸ ×ķ×ľ
Ġ×¢ ×Ļ
Ġ×Ķ×ŀ×© ×ŀ×¢×ķ×ª
Ġ×ľ×Ĺ ×©×ĳ×ķ×Ł
6 7
Ġ×ŀ×Ĳ ×ľ
Ġ×ľ×Ĺ ×¡
×Ļ×¨×ª ×ķ
×ĳ×© ×ł×ª
Ġ×ŀ×Ķ ×ķ
Ġ×ľ ×ª×¨
Ġ×ķ×¤ ×©×ķ×ĺ
Ġ×Ķ×Ķ ×ª×§
×ķ×Ĺ ×Ļ
Ġ×ľ×§ ×ľ
Ġ×Ļ ×Ļ×¢
Ġ×ŀ×ĳ ×Ļ×Ĳ
Ġ×ľ×Ķ×Ĵ ×Ļ×ĳ
Ġ×¨×Ĳ×© ×Ļ×ª
×ł×ĵ ×ľ
×ķ×Ľ ×ł×Ļ×Ŀ
3 8
Ġ×¡ ×ĳ×ľ
Ġ×Ķ×Ĺ×ĵ ×©×Ļ×Ŀ
Ġ×Ĳ×Ĺ×¨ ×Ļ×ł×ķ
Ġ×ĺ×¢ ×ł×Ķ
Ġ×Ķ×¤×Ļ ×Ļ×¡×ĳ×ķ×§
×ŀ ×Ļ×ł×Ļ×Ŀ
Ġ×ĳ ×ķ×Ĳ×ķ
Ġ×ĺ×¨×Ĳ ×ŀ×¤
×ľ ×Ļ×£
Ġ×ª ×Ķ×ľ
×¨×Ĵ ×©
Ġ×ł×Ļ×§ ×ķ×Ļ
Ġ×¢×© ×Ļ×¨
3 4
Ġ×Ķ×Ĵ ×Ļ×©×Ķ
Ġ×¨×¦ ×Ļ×ª×Ļ
! "
×ł ×¨×Ĳ×Ķ
Ġ×ĳ ×¨×Ľ×ĳ
Ġ×ŀ×Ľ ×©×Ļ×¨
×ĺ ×ª
Ġ×Ķ×¢ ×Ļ×¨×Ļ×Ļ×Ķ
Ġ8 0
Ġ×ŀ×ķ×Ĵ ×ĳ×ľ
Ġ×ĳ×Ľ ×¤×ķ×£
×Ļ×Ľ ×ķ×Ŀ
Ġ×ľ×Ļ ×Ļ×¦×¨
a st
Ġ×ŀ×ª×§ ×ĵ×Ŀ
Ġ×ľ ×Ļ×ķ×ķ×Ļ
Ġ×ĳ×Ĳ ×ķ×Ĵ×ķ×¡×ĺ
Ġ×§ ×ķ×¡
Ġ×ŀ×¡ ×ŀ×Ľ×Ļ×Ŀ
Ġ×ľ×Ķ×ª ×Ĳ×Ļ×Ŀ
Ġ×Ĺ ×ĸ×Ķ
Ġ×ł×Ļ ×Ļ×¨
Ġ×© ×Ļ×Ĵ
Ġ×Ķ×ŀ ×ķ×ĵ×¨
Ġ×Ķ×¦ ×Ĵ
Ġ×Ĳ ×Ļ×ĵ
×ľ×ª ×Ķ
Ġ×ľ×Ķ ×Ľ×ł×Ļ×¡
Ġ×Ļ ×ķ×¡×Ļ
Ġ×ĳ×ĵ ×¦×ŀ×ĳ×¨
Ġ×ĸ×ķ×Ĵ ×Ļ
Ġ×Ĳ×ł ×Ĵ
×ł ×ķ×¨
Ġ×¡ ×ĵ×¨×ª
Ġ×Ķ×ª×Ĺ ×Ļ×ľ
âĢĿ ,
Ġ×Ĳ ×Ļ×ŀ×ķ×Ł
Ġ×Ķ×Ĳ×ķ×¨ ×Ĺ×Ļ×Ŀ
Ġ v
Ġ×© ×Ļ×ķ×ª×¨
Ġ×¨ ×Ļ×©×ķ×Ŀ
Ġ×Ĳ×© ×¨×Ĳ×Ļ
Ġ×ł ×¤×ª×Ĺ
Ġ×Ĳ×Ļ×ł×ĵ ×§×¡
Ġ×ŀ×Ĺ ×Ļ
×ķ×¨×¡ ×Ķ
Ġ×Ļ×¢ ×ķ×¥
Ġ×© ×Ĵ×¨
Ġ×ł ×ķ×¨×Ĳ
×Ļ×ł ×ª×Ļ
Ġ×¤×¢ ×Ļ×ľ×ķ×Ļ×ķ×ª
Ġ×ł×§ ×¨×Ĳ
×© ×Ľ
Ġ×Ľ×ĵ×ķ×¨ ×Ĵ×ľ
×ķ×¨×¡ ×ľ
Ġ×ľ×¨×© ×Ļ×ŀ×ª
" ?
Ġ×ŀ×¢ ×¨×ĳ
Ġ×ľ×¦ ×Ļ×ĳ×ķ×¨
Ġ×Ķ×Ķ×Ĵ ×ł×Ķ
×Ĵ×¨ ×©
Ġ0 5
Ġ×Ķ×¦ ×Ļ×ĳ×ķ×¨×Ļ
Ġ×ľ ×Ļ×¦
Ġ×ŀ×ķ×¦ ×ľ×Ĺ
Ġ×© ×Ļ×ĺ×ª
Ġ×¡ ×Ļ×ĺ×Ļ
Ġ×Ĺ ×ķ×£
Ġ×ĳ×ª×§ ×ķ×¤×ª
×ķ×¡ ×Ļ×ª
Ġ×ŀ×¡×ķ ×Ļ×ŀ×ª
×¤×©×¨ ×ķ×ª
Ġ×Ĺ ×ŀ×Ļ×Ŀ
Ġ4 5
×ł ×ķ×¡
on s
Ġ×ķ×¤ ×¢
×ľ×ķ×ľ ×¨
Ġ×ĳ×Ĳ ×©×¨
Ġ×© ×ĸ×ķ
19 8
Ġ×Ļ×Ĺ ×¡×Ļ×Ŀ
×ķ×¢ ×Ŀ
×ķ×ĵ ×§
×ĳ×ª ×Ĳ
Ġ×ŀ ×Ľ×ª×ĳ
Ġ×¨×©×ª ×ķ×ª
×Ĵ×ľ ×Ļ×Ķ
Ġ×ľ×¤ ×ķ×¢×ľ
×ĳ ×ł×ķ×ª
ĠR e
Ġ×Ķ×Ķ ×Ļ×¡×ĺ×ķ×¨×Ļ×Ķ
Ġ×Ķ×¡ ×ĵ×¨×Ķ
×ķ×ŀ×ľ ×¥
Ġ×ĺ ×Ľ×ł
×ķ×ŀ ×ĺ×Ļ
Ġ×Ķ×Ľ ×ķ×Ĺ
×© ×ĳ×Ķ
×¨×Ĵ ×ķ×ł×Ļ×Ŀ
or e
Ġ×§×© ×ķ×¨
Ġ×ľ×ŀ ×Ĳ
Ġ×Ķ×¨ ×ŀ×ĳ
Ġ×ĳ×Ĳ ×¤×¨×Ļ×ľ
Ġ×¢ ×¤
Ġ×ŀ×ķ×© ×Ĵ
Ġ×ŀ ×Ļ×§×¨
Ö ±
Ġ×ľ ×Ļ×ĵ×Ķ
×¤ ×Ļ×¨
Ġ×ŀ ×Ļ×ŀ
Ġ×ŀ×Ĳ ×ķ×¨
Ġ×¡ ×§×¨
Ġ×Ĺ×ĸ×§ ×Ķ
×¤×¡ ×Ļ×Ŀ
×Ĺ×Ļ ×Ļ×ĳ
Ġ×ľ×Ķ×ĵ ×¤×¡×Ķ
×ķ×¨ ×§
Ġ×ĳ×Ĺ ×ķ×§
Ġ×©×§ ×ĺ
Ġ×¢×ķ×ŀ ×ĵ×Ļ×Ŀ
Ġ×¢×¦×ŀ ×ļ
Ġ×©×Ķ ×Ļ×Ļ×ª×Ķ
Ġ×Ľ×© ×Ļ×©
Ġ×ĳ×¨ ×ĸ
×Ľ×ľ ×ľ
×Ĵ×ĳ ×ł×Ļ×ķ×ª
Ġ×ŀ×ª×Ĳ ×Ļ×ŀ×Ķ
Ġ×Ķ×© ×ķ×Ĳ×Ķ
×Ĺ ×©×ķ×ĳ
ind ows
Ġ×Ķ×§×ĺ ×Ł
Ġ×Ķ×ĵ×¨ ×Ľ×Ķ
Ġ×ĳ×Ĳ×¨ ×¦×ķ×ª
Ġ×Ĺ×©×ĳ ×ª×Ļ
Ġ ..
×Ļ×¦ ×ª
×ĳ ×Ļ×¨×ķ×ª
Ġ×ľ ×ł×Ķ×ľ
×ķ×§ ×ķ
Ġ×ŀ×Ķ ×Ļ
Ġ×ĳ ×ķ×Ĵ
0 2
Ġ×ľ×Ĺ ×Ŀ
×ª ×ķ×Ľ×Ł
×ķ×Ĵ×¨ ×¤×Ļ×Ķ
×¨ ×ķ×¦×Ļ×Ŀ
Ġ×Ķ×¢ ×ĳ×¨×ª
Ġ×ŀ×¢ ×©
×ł×Ļ×Ķ ×Ŀ
Ġ×ŀ×¦ ×Ļ×¢×Ļ×Ŀ
Ġ×Ľ ×ķ×ľ×Ķ
×Ļ×ĸ ×¨×Ļ×Ŀ
Ġ×ª×ķ×Ľ ×ł×Ļ×ķ×ª
Ġ×Ķ×ķ×ľ ×Ľ×Ļ×Ŀ
Ġ×¤×¡ ×Ļ×Ľ×ķ×ľ×ķ×Ĵ
Ġ×ŀ×Ĵ ×Ļ×¢×Ķ
Ġ×ķ×ŀ×§ ×¦×ķ×¢
Ġ×ŀ×ķ×ĵ ×¢×ķ×ª
×ĵ×ľ ×Ĵ
Ġ×ŀ ×ľ×ĳ×ĵ
Ġ×Ľ×Ĳ ×ĳ
Ġ200 7
Ġ×¤×ª ×Ĳ×ķ×Ŀ
Ġ×ŀ ×ŀ×ª
Ġ×ľ×Ķ×¦ ×ĺ×¨×£
×Ļ×© ×Ł
Ġ×ª×© ×ķ×ŀ×ª
Â ·
×Ļ×ł×ª ×ķ×ł×Ļ×Ŀ
Ġ×ľ×ĳ×¢ ×ľ×Ļ
Ġ×ľ ×Ļ×¦×Ļ×¨×ª
Ġ×Ľ×ª ×ĳ×ķ
×ķ×¡ ×§×ª
Ġ×ĳ×ª ×Ļ×§
×ª×Ļ ×Ļ×Ĺ×¡
×© ×Ļ×ª×ķ×£
×ĺ×¨ ×ļ
Ġ×Ĺ×ľ×§ ×Ļ×Ŀ
Ġ×ŀ×ķ×¨ ×Ľ×ĳ
Ġ×ľ×ª ×¤×§×Ļ×ĵ
Ġ×ŀ×¦ ×Ļ×Ĵ
×ķ×¤ ×ĵ×Ļ×Ķ
ĠC re
Ġ×Ľ ×ĸ×Ĳ×ª
Ġ×ľ×ŀ ×ĺ×Ķ
Ġ×© ×ķ×ŀ×¨
Ġ×Ķ×ª ×ķ×¦×Ĳ×Ķ
Ġ×Ľ×ľ×Ľ×ľ ×Ļ×ª
×ķ×Ļ ×Ļ×§×ĺ
Ġ×ľ×¢×¦ ×ŀ×Ļ
Ġ×Ļ×ķ×¦ ×Ĳ×ª
Ġ×ĳ ×ł×Ļ×Ļ×Ł
Ġ×Ĳ×Ļ×ĸ ×ķ
Ġ×ŀ×¦ ×¨×Ļ×Ŀ
i es
Ġ×¨×Ľ ×Ļ×©×ª
Ġ×ŀ×ķ×¦ ×Ĳ
Ġ×¡×Ļ×¤ ×¨
Ġ×ĳ×Ķ×¨ ×ĳ×Ķ
Ġ×¨×Ĺ ×ķ×ĳ×ķ×ª
×ĺ×Ļ ×ķ×ľ×Ļ×Ŀ
Ġ×ª ×ķ×¡×¤×ª
Ġ×Ĵ ×ĳ×¢×ª
×Ļ×ŀ ×Ļ×Ļ×Ŀ
Ġ×ľ×Ķ ×§×Ļ×Ŀ
Ġ×§ ×¤
Ġ×Ĳ×¨ ×Ļ×Ķ
Ġ×ŀ×©×¤ ×Ĺ×ª×Ļ
×ķ×ł×ª ×Ł
Ġ×Ķ×ĸ ×Ľ×ķ×ª
Ġ×Ķ×ł ×ĵ×ľ
Ġ×ľ×Ķ ×¤×¨
ou r
Ġ×Ķ ×Ļ×¡×ĺ×ķ×¨×Ļ×Ķ
×¢ ×ĵ×Ļ
Ġ×ŀ×ĳ ×Ļ×ł×Ļ×Ŀ
Ġ×©×ł ×Ļ×Ķ
Ġ×ĳ×Ĳ ×Ļ×Ľ×ķ×ª
×Ļ×ķ ×ķ×¨
Ġ×¤×¨ ×ķ×Ļ×§×ĺ×Ļ×Ŀ
Ġ×ŀ×¦ ×Ĳ×ª×Ļ
Ġ×ŀ ×ľ×Ķ
Ġ×ľ×Ĺ ×ķ
Ġ×©×Ĺ×§ ×ł×Ļ×Ŀ
Ġ×ŀ×¡ ×Ĺ×¨×Ļ
Ġ×Ĳ×Ļ×ł ×Ł
Ġ×Ķ×ŀ×¨×Ľ×ĸ ×Ļ×ª
Ġ×ľ×ŀ ×Ľ×ķ×¨
Ġ×Ĳ×ŀ×¦ ×¢×Ļ
Ġ×ľ×§ ×ĵ×Ŀ
Ġ×Ĺ×ķ×ŀ ×¨×Ļ
Ġ×ĺ×¢ ×Ł
Ġ×ĳ×ĵ ×Ļ×§×ķ×ª
Ġ×Ļ×Ļ×Ĺ ×ķ×ĵ×Ļ
Ġ×©×ŀ×¢ ×ķ×Ł
Ġ×Ķ ×ķ×Ł
Ġ×ľ ×Ĵ×ľ
D F
×ł ×Ļ×§×Ķ
E R
×ŀ ×Ĺ×Ļ×Ŀ
×ĺ×¨ ×¡
Ġ×Ķ×ŀ×ĵ ×¢
Ġ×Ķ×©×ª ×ŀ×©
×Ķ ×Ł
Ġ×ª ×Ĳ×¨×Ļ×ļ
Ġ×¤×ľ ×¤×ľ
Ġ×ľ×ł×Ļ ×ķ×ĸ×ľ×ĺ×¨
Ġ×Ķ×ĵ ×Ŀ
Ġ×Ķ×©×¤ ×¢×Ķ
×ľ×Ĳ ×ª
4 7
Ġ×ĵ×ł ×Ļ×Ĳ×ľ
ro s
Ġ×©×Ķ ×ķ×¤
on e
×Ĳ ×ķ×Ĵ
Ġ×ľ×Ķ×Ļ×ŀ ×ł×¢
Ġ×Ĳ×ķ×ĺ ×ķ×ŀ×ĺ
Ġ×Ļ×¦ ×Ļ×¨×Ķ
Ġ×¤×¢ ×Ļ×ľ
Ġ×¢ ×ķ×£
Ġ and
Ġ×ł ×Ļ×Ĵ
Ġ×© ×¨×Ķ
Ġ×Ķ×¢ ×ĳ×¨
Ġ200 4
×ķ×ĵ ×Ŀ
Ġ×Ķ ×ķ×¡×£
×ķ×¨ ×ķ
Ġ×ŀ×Ļ ×Ļ×ľ
Ġ3 1
Ġ×ĵ ×Ļ×ĳ×¨
Ġ×ĳ×ľ ×ķ×ł×ĵ
Ġ×ľ×ª×§ ×Ł
×ĵ×¨ ×Ľ×Ķ
×Ľ×ª ×Ļ×ĳ×ª
×Ĺ ×ķ×ľ
Ġ×Ĳ×ķ×¤ ×ĺ
Ġ×Ķ×ŀ×ª ×Ĳ×Ļ×Ŀ
Ġ×©×§ ×Ļ×ĳ×ľ
Ġ×¡ ×¢
×©×ª×ª ×¤×ķ×ª
i st
×Ľ ×Ļ×ķ×Ŀ
×ł ×Ĵ×ĵ
×ķ×ľ ×Ł
Ġ×¢ ×ª×Ķ
Ġ×ª×Ĺ ×ķ×©×Ķ
Ġ×ķ×Ķ ×Ľ×ľ
Ġ×ĳ×ķ×Ĺ ×¨×Ļ×Ŀ
Ġ×ĳ×Ĺ ×Ļ×Ļ
q u
Ġ×ľ×ĸ ×Ľ×ķ×ª
Ġ×ŀ×Ĳ ×ķ×ĳ
an g
Ġ×ľ×Ķ×¢ ×ł×Ļ×§
Ġ×ł×Ķ ×Ĵ
Ġ×Ķ×ĳ×ľ ×ª×Ļ
Ġ×ľ×Ķ ×¨×Ĺ
×Ļ×ĸ ×¦×Ļ×Ķ
Ġ×Ķ×¢×ª ×Ļ×§×Ķ
×ŀ×¢ ×ľ×Ķ
Ġ×ľ×© ×ŀ×©
Ġ×Ķ×ŀ ×ĸ×ķ×Ł
Ġ×Ķ×ª ×¤×§×Ļ×ĵ
Ġ×ĳ×Ĵ ×ĵ
Ġ×Ķ×ª×Ĺ ×ĳ×ķ×¨×Ķ
Ġ×Ķ×¡ ×¤×§
Ġ×ľ ×Ļ×ł×Ķ
Ġ {
om e
×ķ×ł ×ĺ×Ļ
Ġ×ŀ ×Ļ×ł×Ļ×ª
Ġ×Ķ×ª×Ĵ ×ķ×ĳ×ķ×ª
Ġ×ľ×Ķ ×ł
Ġ×ĳ×Ĳ ×ķ×ł×Ļ×ĳ×¨×¡×Ļ×ĺ×ª
Ġ×© ×¢×ª
Ġ×Ķ×ĳ ×Ĳ×ķ×ª
Ġ×Ĳ ×Ļ×ª×Ķ
Ġ×ŀ×¢×ķ×ł×Ļ ×Ļ×ł×Ļ×Ŀ
Ġ×ŀ×§ ×ķ×¨×ķ×ª
Ġ×© ×ķ×ŀ×Ł
Ġ×ŀ×ª ×ķ×§
Ġ×©×ŀ ×Ĳ×ľ
Ġ×Ķ×¦ ×¢×Ļ×¨
×Ļ×¨ ×ķ×Ŀ
Ġ ]
Ġ×ł ×ĵ×¨×©
Ġ×ŀ×© ×ŀ×¢
×Ľ×ł ×¢
×ĳ×ķ×¨ ×Ĵ
Ġ×ŀ×ķ×¤ ×Ļ×¢
Ġ×¢×¦ ×Ŀ
Ġ×ľ×ķ ×ķ×ª×¨
Ġ×Ķ×Ĳ ×Ļ×¨×ķ×¢×Ļ×Ŀ
Ġ×¤ ×©
Ġ×Ķ×Ĺ ×ķ×ľ
Ġ×Ľ ×ĳ×ĵ
×ŀ×ĵ ×ķ×ª
Ġ×¤ ×Ĳ×¨×§
Ġ×ŀ×¦ ×Ĳ
Ġ×ľ×Ķ×ķ×¨ ×ĵ×Ķ
Ġ×Ĳ×Ĺ ×¨×Ĳ×Ļ
Ġ×Ĳ×ĳ ×ķ×ª
Ġ×Ķ×ª ×Ļ×ł×ķ×§
Ġ×Ķ×Ĵ ×¢×Ķ
Ġ×ľ×¢×¨ ×ķ×ļ
Ġ×¢×ķ×ĳ ×ĵ×Ļ
Ġ×ľ ×Ļ×ĳ
Ġ×ª ×ķ×¡
Ġ×ª×Ĺ ×ķ×©×ª
Ġ×ĳ×ŀ ×Ļ×Ŀ
Ġ×Ķ×ķ×¨ ×Ĳ×Ķ
Ġ×§×¦ ×¨×Ķ
Ġ×¤ ×¡×§×Ļ
Ġ×Ķ×ŀ ×ķ×¢×ĵ
Ġ×Ĳ×Ļ×¨ ×ķ×Ĺ
Ġ[ âĢ¦]
Ġ×ł×© ×§
×ŀ×Ĳ ×ŀ×¨
is h
Ġ×Ķ×ŀ ×Ļ×ľ×Ļ×Ŀ
Ġ×Ĳ×ĳ ×Ļ×ķ
Ġ×ĸ×ķ×Ĵ ×ķ×ª
Ġ×ŀ×ĳ ×ķ×¡×¡
Ġ×Ķ×ŀ ×ĳ×§×©
Ġ×© ×ĵ×ķ×ª
Ġ×ķ×Ĳ ×Ĺ×¨
Ġ×ł ×ķ
×ŀ×Ļ ×ķ×Ĺ×ĵ
Ġ×Ķ×© ×ķ×ķ×Ĳ
Ġ×Ĳ×¡×ĺ×¨ ×ĺ×Ĵ
Ġ×ĳ×¤ ×¡
×¦ ×Ļ×¨
×ł ×ł×Ļ×Ŀ
Ġ×ķ×ŀ ×Ĵ
Ġ×Ķ×¢×ª ×Ļ×ĵ
Ġ×¨ ×Ļ×©×Ļ×ķ×Ł
Ġ×Ĺ×ķ×ľ ×ķ×Ł
Ġ×Ķ×Ĳ×Ĺ×¨ ×Ļ×Ŀ
×Ļ×¤ ×ľ
×¤×ķ×¡ ×ĺ×Ļ×Ŀ
Ġ×¦ ×Ļ×ĳ×ķ×¨×Ļ
Ġ×ĳ×ĺ ×ľ×¤×ķ×Ł
Ġ×Ķ×ŀ×§ ×¨×Ļ×Ŀ
wit ter
Ġ×Ķ×Ķ ×ķ×¨
Ġ×Ļ×¡ ×ķ×ĵ
×¨×Ľ ×Ł
Ġ×Ķ×Ľ×ľ ×Ļ×Ŀ
Ġ×Ĵ ×ķ×ľ×ĵ
Ġ×ŀ×© ×Ŀ
×ŀ×© ×§
Ġ×ľ ×ł×Ļ×Ķ×ķ×ľ
Ġ×ŀ×¢ ×ł×Ļ
S T
Ġ×ľ×§ ×ķ×Ĺ
Ġ×©×¤ ×Ļ×¨
Ġ×¢×ķ×ŀ ×ĵ×ª
Ġ×ª×ĸ ×ķ×ł×Ķ
Ġ×Ķ×Ĺ ×ķ×ĵ×©
Ġ×Ĳ×Ĺ ×¡×ķ×Ł
Ġ×Ļ×ĳ ×ķ×Ĳ
×ķ×Ĳ ×ľ×Ļ
Ġ×ĳ×Ķ ×Ľ×¨
Ġ×¡×ĺ ×ķ×ĵ×ł×ĺ×Ļ×Ŀ
Ġ×ĳ×Ļ×ĺ ×ķ×ľ
×¤ ×Ļ×ķ×ª
Ġ×ĳ×Ľ ×ŀ×Ķ
Ġ×© ×¤×Ķ
Ġ×ľ×Ķ ×¤×¡×Ļ×§
Ġ×Ĵ ×Ļ×¨
×¢ ×ĳ×ķ×¨
×¤×¢ ×Ļ×ľ×ķ×ª
Ġ×Ĳ×ŀ×Ļ×ª ×Ļ×ª
Ġ×ĳ ×¤×ª×Ĺ
Ġ×ĳ×Ĺ ×©
4 9
Ġ×ķ×Ĳ ×Ļ×Ľ×ķ×ª
Ġ×ľ ×¨×Ĵ×¢
Ġ×Ķ×ĳ×Ĺ ×Ļ×¨×Ķ
Ġ×¨ ×¢×Ļ×ķ×ł×ķ×ª
×ĺ ×Ĳ
Ġ×©×ł×Ļ ×Ļ×Ķ
Ġ×ŀ×ŀ×© ×Ļ×ļ
Ġ×ŀ×ł ×Ĺ×Ŀ
Ġ×ĺ×¢ ×ł×ķ×ª
×ķ×Ĳ ×Ļ×ĵ
×Ķ ×Ľ
p ort
×ĳ ×Ļ×ľ×Ķ
×ķ×Ķ ×ľ
Ġ×ŀ ×Ļ×ĵ×Ķ
Ġ×ŀ×ķ×© ×ľ×ŀ×ª
n e
Ġ×§ ×Ĳ
P ress
Ġ×Ķ×Ĺ ×ķ×¥
Ġ×ŀ×Ķ ×§
Ġ×Ľ×¡ ×¤×Ļ×Ŀ
×Ļ×ł ×ķ×¨
Ġ×ľ×Ķ ×ĳ×ĺ×Ļ×Ĺ
Ġ×Ķ×Ĺ ×¡
Ġ×Ļ×ľ ×ĵ×Ķ
×ŀ×ľ ×¦×ķ×ª
Ġ×Ķ×ĳ ×§×©×Ķ
Ġ×Ķ×ĺ ×ľ×ķ×ķ×Ļ×ĸ×Ļ×Ķ
Ġ×Ķ×© ×ĺ×Ĺ
Ġ×ľ×ŀ ×ĳ
Ġ×¡ ×Ĵ×ķ×¨
Ġ×Ĳ×ľ ×Ľ×¡
×Ĺ ×ķ×ĳ
Ġ×ĳ×Ļ×§ ×©
Ġ×© ×Ļ×Ĺ×ķ×ª
Ġ×ĳ×Ĺ ×Ļ×¨×Ķ
Ġ×Ķ×Ķ ×ķ×ĵ×¢×Ķ
Ġ×ª×¨ ×ķ×¤×ķ×ª
×Ľ×ľ ×ª
Ġ×Ķ×ĳ ×Ķ
Ġ×ĵ ×ĳ
n d
Ġ×ŀ×ª ×Ľ×ķ×ł×Ļ×Ŀ
Ġ×§ ×Ļ×¥
Ġ×©×Ĺ×§ ×Ł
×ĺ ×Ĺ×Ļ×Ŀ
Ġ×¡ ×Ļ×ł×Ļ
" ).
Ġ×ĳ×¢×¦ ×ŀ×ķ
×Ķ ×ł×¡×Ļ×¢×Ķ
Ġ×ĸ ×ķ×Ľ×¨
×ł×ª ×¨
Ġ×Ķ×Ĵ×ĳ ×ķ×Ķ
Ġ×Ĳ ×¤×ľ
Ġ×Ķ×¢ ×Ļ×Ł
Ġ×Ķ×¢ ×Ļ×§×¨×Ļ
×ĺ ×Ļ×¤
Ġ×ŀ ×Ļ×Ľ×ľ
Ġ×¤×¡ ×Ĺ
×ĳ×Ĺ×¨ ×ª
Ġ×ŀ ×ĺ×¨×Ķ
Ġ×§ ×ŀ×Ĺ
Ġ×¡ ×Ľ
ĠS h
Ġ×Ķ×Ĵ×ĳ ×ķ×Ķ×Ķ
Ġ×ŀ×ł×Ķ ×ľ×ª
Ġ×¨ ×¤×ķ×Ĳ×Ķ
Ġ×ŀ×Ĺ ×ľ×ķ×ª
Ġ×ĳ×ĺ ×ķ×Ĺ×Ķ
Ġ×ĳ ×¤×¨×¡
Ġ×ŀ×§×¨×§ ×¢×Ļ×Ł
Ġ×ķ×Ľ×ĵ ×ķ×ŀ×Ķ
Ġ×ľ×Ķ×Ĵ ×Ł
×ľ×ĺ ×¤×ķ×¨
Ġ×ĳ×ł ×ķ×©×Ĳ×Ļ×Ŀ
×Ķ ×¡×¤×¨
Ġ×ľ×Ķ×Ĺ×ĸ ×Ļ×¨
Ġ×ĵ ×Ĵ×Ŀ
Ġ×© ×Ļ×¤×ķ×¨
×Ļ×§ ×Ĳ×Ļ×Ŀ
Ġ×ŀ ×Ļ×ª
Ġ×ľ ×ł×Ķ
Ġ×ĸ×ŀ ×ł×Ļ
×Ļ×Ľ ×¨×ķ×ª
Ġ×ĳ×¤ ×ĳ×¨×ķ×Ĳ×¨
×ŀ ×ķ×ł×Ļ×Ŀ
Ġ×ķ×ľ ×¦
Ġ×Ķ×ł ×¢
Ġ×Ļ×¦ ×Ĳ×ķ
×ľ×§ ×ķ×Ĺ×ķ×ª
×ŀ ×ķ×ł
Ġ×ĵ ×ķ×¤×Ł
Ġ×Ķ×ĸ×Ķ ×ĳ
Ġ×ŀ×ĵ×Ķ ×Ļ×ŀ×Ķ
Ġ×Ķ×ª ×ķ×Ľ×Ł
Ġ×¡ ×ł×ĺ
Ġ×Ķ×Ĵ×ĵ ×ķ×ľ×ķ×ª
×ª ×¢
Ġ×Ķ×Ĳ ×ľ×§×ĺ×¨
Ġ×¤ ×ķ×¡×ĺ×Ļ×Ŀ
Ġ×ŀ×¡×¤×§ ×ª
Ġ×Ķ×Ĺ ×ķ×¦×Ķ
Ġ×ķ×Ĺ ×ľ×§
â Ĩ
Ġ×ľ ×ĳ×ľ
Ġ×Ļ×Ĺ ×Ļ×ĵ
i b
Ġ×Ĳ ×ķ×§×ĺ×ķ×ĳ×¨
×Ĳ ×Ļ×¤×Ķ
Ġ×¨ ×ķ×§
Ġ×Ĳ×ĵ ×ŀ×ķ
×ľ ×ŀ×ĵ
Ġ×ł×ª ×ķ×ł×Ļ
Ġ×Ĳ ×ķ×¨×ļ
Ġ×ŀ×Ĺ ×ķ×ĸ
Ġ×ŀ×ª×Ļ ×Ļ×Ĺ×¡
Ġ×Ķ×Ļ ×Ļ×ª
Ġ×ĳ×ĳ ×Ĳ×¨
ar e
Ġ×ł×¤×¨ ×ĵ
Ġ×Ķ×¦ ×ľ×Ĺ
Ġ×ĳ×ŀ ×¨×¥
Ġ×Ķ×ŀ×§ ×ķ×¨×Ļ
Ġ×ŀ ×¨×ĳ×Ļ×ª
×Ķ ×Ĺ×ľ
×ĺ×Ļ ×Ļ×ľ×Ļ×Ŀ
Ġ×Ļ×ª ×¨×ķ×Ł
Ġ×¨×Ĵ ×Ļ×ľ×Ķ
Ġ×ķ×ĳ ×ł
Ġ×Ĳ×ĳ×ĺ ×Ĺ×Ķ
Ġ×ĳ×Ĳ ×Ļ×¨×ķ×¢
×¦ ×Ļ×§×ľ
Ġ×Ķ×Ĵ ×©×ª
Ġ×¨×¢ ×ł×ł×Ķ
×Ĵ ×ĳ×¨
Ġ×ĳ×ĺ ×¢
×Ļ×ł ×©×ĺ×Ļ×Ļ×Ł
Ġ×ŀ×¡ ×ĳ×Ļ×ĳ
Ġ×ĵ ×ķ×ľ
Ġ×© ×¨×Ĳ
Ġ×ĳ×Ĵ ×Ł
Ġ×Ķ×¡ ×ĳ×¨
Ġ×¨ ×Ļ×§
ord Press
Ġ×Ľ×ľ×Ľ×ľ ×Ļ
×ŀ×§ ×ķ×¨
of t
il l
Ġ×Ķ×Ĺ ×ľ×ķ
Ġ×Ķ×ķ×ľ ×Ľ×ª
Ġ×¨×ĳ ×Ļ×¢×Ļ
Ġ×ľ×ĵ×ķ×Ĵ ×ŀ×Ķ
×ľ×Ĳ ×Ļ×Ŀ
Ġ×ŀ×ł ×¢
Ġ×Ķ×Ĳ×ŀ ×Ļ×ª×Ļ
Ġ×Ķ×§ ×¤
Ġ×ŀ×ª ×ŀ×Ĺ×Ķ
Ġ×ł×Ľ ×¡×Ļ×Ŀ
Ġ×Ĳ×Ļ×ľ ×Ł
×ķ×Ĵ ×ķ
Ġ5 00
Ġ×Ķ×§×ķ×ľ ×ł×ķ×¢
Ġ×ĸ×ŀ ×Ļ×Ł
×ľ×ĺ ×Ļ×Ŀ
Ġ×ĳ×Ĵ ×ķ×ĵ×ľ
Ġ×ķ ×Ļ×ĺ
×ķ×ľ ×Ļ×Ł
Ġ×ľ×ŀ ×ķ×¢×ĵ
Ġ×©×ł×Ļ ×Ļ×Ŀ
Ġ×Ļ×Ĳ ×Ļ×¨
Ġ×ĵ ×ķ×ŀ×Ļ×Ŀ
Ġ×ľ×ĸ×Ķ ×ķ×ª
Ġ×ŀ×ª ×ķ×Ľ
×§×¨ ×Ł
×ĳ ×ŀ×Ķ×ľ×ļ
×§×ĺ ×Ĵ×ķ×¨×Ļ×Ķ
Ġ×Ķ×ľ×Ĳ ×Ķ
Ġ×© ×¨×ķ×ª
Ġ×¡ ×Ļ×Ľ×ķ×Ł
Ġ×© ×¨×ª
Ġ×ŀ×¤ ×Ĵ×©
Ġ×© ×¤×¨
Ġ×ķ×ľ ×¡
Ġ×Ļ×ķ×¦ ×Ĳ×Ļ×Ŀ
Ġ×© ×ĺ×¨
Ġ×© ×Ļ×¨×Ķ
×ł×ķ ×Ļ×Ļ×Ŀ
×Ĳ ×ĳ×Ļ
Ġ×Ķ×§×¨ ×§×¢
I D
Ġ×§×¨ ×ķ×ĳ×ķ×ª
Ġ×ĳ×Ĺ ×Ļ×¨×ª
×Ļ×ł ×¡×§×Ļ
Ġ×Ļ×¨ ×§×ķ×ª
Ġ×ĳ×ª ×Ļ×Ŀ
Ġ×ľ×ĵ×ķ×Ĵ ×ŀ×Ĳ
Ġ×Ķ×ĵ ×ķ×Ĳ×¨
Ġ×Ķ×©×Ļ×¨×ķ×ª ×Ļ×Ŀ
Ġ×Ķ×© ×Ľ×¨×ª
Ġ×ĳ×¨ ×©×ķ×ª
Ġ×Ķ×© ×¤×Ķ
Ġ×¡×¤ ×Ĳ
×ķ×ĵ ×ł×ĺ
Ġ×Ķ×©×§ ×¢×Ķ
Ġ×¨ ×Ķ
Ġ×Ķ×ª×§ ×ķ×¤×Ķ
Ġ×ŀ×Ľ ×Ĳ×Ł
Ġ×Ķ×¤ ×§
Ġ×ĳ×ł ×ķ×©×Ĳ×Ļ
Ġ×Ļ ×ķ×¦×¨
Ġ×Ķ×ŀ×¡ ×Ĺ×¨
Ġ×Ķ×ł ×ĵ×¨
×§×¨ ×§×¢
Ġ×ķ×ĳ ×ŀ
Ġ×ŀ ×Ļ×§×ķ×Ŀ
Ġ×ŀ×ķ×¡ ×Ļ×§×Ķ
Ġ×Ķ×ĺ ×ľ×¤×ķ×Ł
×¡ ×ķ×§×Ķ
Ġ×¨×¦ ×ķ×Ļ
Ġ×ķ×ľ ×ĵ
Ġ×ŀ×ł ×¦
7 7
Ġ×ľ ×ľ×ĳ
Ġ×Ĳ ×©×ª×ķ
Ġ×Ķ×Ĳ ×Ķ×ĳ×Ķ
×Ķ×¦ ×ĺ×¨×¤×ķ
Ġ×ĳ×ł ×Ļ×Ķ
Ġ×ľ×§ ×Ķ×ľ
Ġ×ŀ×§ ×¡×Ļ×Ŀ
×ª ×ŀ×ķ×ł×ķ×ª
×©×ª ×Ļ×ª
I N
Ö »
×ŀ×ķ×§×¨×ĺ ×Ļ×Ķ
Ġ×Ķ×¤ ×Ľ×Ķ
Ġ×Ĳ×Ļ×ª ×ļ
Ġ×ķ×ĳ ×ĺ
Ġ×Ĺ ×Ļ×Ķ
Ġ×ľ×Ķ×ª ×Ĳ
Ġ×ŀ×Ķ ×ĳ×Ļ×ª
Ġ×ľ×ķ ×ķ×ĵ×Ĳ
Ġ×Ķ×ĸ×ŀ ×ł×ª
×Ĳ×¨ ×ĵ
Ġ×ķ×ł ×¢
Ġ×¡ ×Ļ×Ł
Ġ×§ ×Ļ×ķ×Ŀ
Ġ×Ĳ×¨ ×Ļ×Ĳ×ľ
Ġ×¡×¨×ĺ ×Ļ
Ġ×Ĺ×ŀ ×Ļ×©×Ķ
Ġ×©×Ķ ×¨
×¡×§ ×¡
Ġ×Ķ×ł ×¦
Ġ×ŀ×ķ×Ľ ×ł×Ļ×Ŀ
×¤ ×¢×ľ
×ĸ ×Ľ×ķ×ª
Ġ×Ķ×Ķ×¡ ×Ľ×Ŀ
Ġ×Ĺ×ķ×ĸ ×Ķ
Ġ×Ķ×Ķ ×ĳ×ĵ×ľ
3 2
×ĸ×§ ×Ļ×Ŀ
Ġ×ķ×ŀ×ª ×Ł
×ĸ×§ ×ª
Ġ×Ĳ ×Ļ×¤×ķ×¨
×ĺ×¨ ×§×ĺ
u d
Ġ×ķ×Ĳ ×ª×Ŀ
Ġ×Ķ×ľ×Ĳ ×ķ×ŀ×Ļ×ª
Ġ×Ķ×ľ ×Ļ×ŀ×ķ×ĵ
Ġ×ĳ×ª ×ł×Ĳ×Ļ
×Ļ×ĳ ×ķ×¨×Ļ×Ŀ
Ġ×Ľ×ľ×©×Ķ ×Ļ
Ġ×Ĳ×ľ ×Ĺ
Ġ×¢ ×Ĵ
Ġ×©×ŀ ×¨
Ġ×ł×¢ ×Ļ×ŀ×Ķ
×ĳ×¢ ×ķ
Ġ×¢ ×Ļ×¡×ķ×§
Ġ×¢ ×¨×Ļ×Ŀ
Ġ×§ ×Ļ×ł
Ġ×ķ ×Ļ×ª
Ġ×ķ×Ķ×¡ ×ĳ×Ļ×ĳ×Ķ
×Ĺ×ª ×Ķ
×ŀ ×Ļ×§×Ķ
Ġ×ŀ×ķ×¡ ×¨
Ġ×Ķ×ŀ ×¤×¨
Ġ×Ĳ×¤×¨ ×Ļ×§×Ķ
Ġ×ĺ ×Ļ×¡×Ķ
Ġ×¢ ×ķ×§
Ġ×ŀ×¡ ×Ļ
Ġ- --
×ª ×¦×ķ×Ĵ×Ķ
Ġ×Ķ×ŀ ×ł×Ķ×ľ
Ġ×ľ×Ĺ ×ķ×ĵ×©
Ġ×ĺ ×¢×Ļ×Ŀ
Ġ×¤ ×Ļ×Ĵ
Ġ×ľ×ŀ ×ĵ×Ļ
Ġ×Ķ×Ĺ ×ķ×ŀ×¨×Ļ×Ŀ
Ġ×ľ×§ ×Ļ×ĵ×ķ×Ŀ
Ġ×Ĺ ×¦
Ġ×¨ ×Ĵ×©
Ġ×Ķ×§ ×¦
Ġ×ŀ×ķ×¡ ×ĵ×ķ×ª
Ġ×ĳ×ŀ ×Ĳ×Ķ
Ġ×¢×¦×ŀ ×Ĳ×Ļ
×Ĳ×ķ ×ķ×Ķ
Ġ i
Ġ×ĳ×ĵ ×ķ×Ĳ×¨
Ġ×Ķ×¤×¨ ×¡×ķ×Ŀ
Ġ×ľ×Ķ ×©×Ĳ×Ļ×¨
Ġ×ķ×ŀ×¢ ×ľ×Ķ
Ġ×©×Ĳ ×ķ×ľ×Ļ
Ġ×Ĳ×¤×ľ×Ļ×§ ×¦×Ļ×ķ×ª
×ª ×Ĳ
ĠC ook
×ľ ×ľ×Ĳ
×Ļ×ĵ ×ķ×ĵ
Ġ×ķ×ľ ×ŀ
×Ľ×ľ ×Ļ
Ġ×Ĳ×ķ ×ķ
Ġ×Ķ×ŀ×¡ ×ļ
Ġ×Ĳ ×©×§×ľ×ķ×Ł
Ġ×ĳ×ª ×©×ľ×ķ×Ŀ
Ġ×Ķ×ŀ×©×¤ ×ĺ×Ļ
Ġ×Ķ×Ĳ×ŀ×¨×Ļ×§ ×Ĳ×Ļ
Ġ×Ķ×Ļ×Ĺ×¡ ×Ļ×Ŀ
×ĵ ×¡
×¡×¤×¨ ×Ļ×Ŀ
Ġ×Ķ×¦ ×¨
×Ļ×¤ ×¡
×Ļ×ľ ×ķ×Ĵ
Ġ×©×Ĳ ×Ļ×ł×Ķ
×ª ×¨×ĳ×ķ×ª
Ġ×Ķ×ª ×ľ
×ĳ ×Ĵ
Ġ200 0
Ġ×Ķ×Ľ ×ķ×ķ×ł×Ķ
ac h
Ġ×ª ×ł×ķ×¢×ª
Ġ×¤×ķ×¢ ×ľ×Ļ×Ŀ
×Ľ ×¨×ķ×ª
Ġ×Ĳ×© ×ŀ×Ĺ
Ġ×Ķ×Ļ ×ķ×ŀ×Ļ
×ĸ×Ķ ×ķ
Ġ×Ķ ×ķ×¡×Ļ×£
Ġ×©×ł ×Ļ×ķ×ª
×Ļ×© ×ķ
Ġ×Ķ×© ×Ļ×¢×¨
Ġ a
Ġ×Ķ×Ĺ ×ķ×£
6 8
Ġ×¦ ×¨×Ľ
Ġ×ł×Ķ ×¨×Ĵ
ag e
×Ĺ ×ĸ×¨
Ġ×ĳ×© ×¤×Ķ
Ġ×Ľ×ķ×ľ ×ľ×Ļ×Ŀ
×ª ×Ļ×§×ķ×Ł
ĠA l
Ġ×§ ×ĳ×ľ×Ķ
an t
â Ĺ
Ġ×ľ×¢×¦ ×ķ×¨
Ġ×ĳ×Ļ×ł ×ľ×Ĳ×ķ×ŀ×Ļ
×¢ ×Ľ×©×Ļ×ķ
Ġ×ŀ ×¨×Ķ
u p
Ġ×¡×ĺ ×ł×ĵ×¨
×ł ×Ļ×Ľ×Ŀ
×ķ×ĸ ×Ļ×Ĳ×ķ×Ł
Ġ×Ķ ×Ļ×Ľ×Ł
Ġ×ľ×¦ ×¨
×ª ×ł×Ĳ×Ļ
Ġ×ĳ×ª ×¢
×Ļ×§ ×Ĳ×Ļ
Ġ×ĳ×Ľ ×Ļ×¨
Ġ×ĵ×Ļ×ķ ×ķ×Ĺ
Ġ×ŀ×ķ×Ĵ ×©
ac e
×ĵ ×ŀ×Ķ
×ķ×ĳ×Ļ ×Ļ×§×ĺ
Ġ×Ĺ ×Ļ×¡
Ġ×Ķ×Ļ×© ×Ļ×ĳ×Ķ
Ġ×ŀ×¢×ķ×ł×Ļ ×Ļ×Ł
×ķ×ĵ ×¢×ª
Ġ×ŀ×¡ ×ķ×Ĵ×ľ
Ġ×ĸ ×ŀ×ł×Ļ×Ŀ
×Ļ×ĸ ×ķ×Ĵ
×ŀ ×ł×ª
Ġ×Ķ×¨ ×Ĺ×ĳ
Ġ×ŀ×ł×Ķ ×ľ×Ļ×Ŀ
Ġ×ķ×ª ×Ĺ
Ġ×ŀ×Ļ×Ľ ×Ĳ×ľ
Ġ×Ķ×Ľ ×¤×¨
Ġ×Ĺ ×ķ×Ĵ
×ŀ ×¢×ª
Ġ×ĵ ×¢×ķ×ª
×Ķ ×Ļ×Ļ
Ġ r
Ġ×ŀ×¡×¤×¨ ×Ļ×Ŀ
Ġ×ł×Ļ ×Ļ×ĵ
×ķ×¤ ×§
Ġ×Ķ ×Ļ×¤
Ġ×ŀ×¦ ×ķ×ķ×ª
Ġh d
×ĵ ×ĳ×¨×Ļ×Ŀ
Ġ×©×Ĳ ×£
Ġ×ŀ×Ĵ ×¢
×Ļ×Ĺ ×ķ
×ĺ ×Ļ×ª
Ġ×Ĳ×Ĺ×¨ ×Ļ×ķ
×¢ ×§×ĳ
Ġ×ľ×ŀ ×ķ×¡
×ª×Ĵ ×ķ×ĳ×Ķ
Ö¼ Ö¹
Ġ×§ ×¨×Ļ
Ġ×ŀ×ķ×¢ ×¦×ª
Ġ×Ļ×ĵ ×¢×ª×Ļ
Ġ×©×Ķ ×§
Ġ×¡×¨×ĺ ×Ł
Ġ×ľ ×ķ×Ĺ×ķ×ª
Ġ×ĳ×¡ ×ĳ
×ª ×©
Ġ×ª ×¤×§
Ġ×ķ×ĳ×Ľ×ľ ×ľ
Ġ×Ľ ×Ļ×¡
Ġ×ĳ×Ĺ ×ĳ×¨×ª
Ġ×¤×ľ ×Ļ×ľ×Ļ
Ġ×Ķ×ŀ×ľ ×¦×Ķ
×ĳ×§ ×Ķ
Ġ×ŀ×Ĳ ×Ĺ×ķ×¨
6 9
ĠG oogle
Ġ×Ķ×¨ ×ķ×¤×Ĳ
Ġ×ĺ×¨ ×ķ×¨
×ķ×¢ ×¦×Ķ
×Ĳ ×£
Ġ×Ķ×Ľ×ľ×Ľ×ľ ×Ļ
×ł×ª ×ķ
Ġ×§ ×ķ×ĳ×¢
×ķ×¦ ×¨×ķ×ª
Ġ×ŀ×Ĺ ×§×¨×Ļ×Ŀ
×ķ×ŀ ×¨×Ļ
Ġ×Ľ ×£
Ġ×ŀ ×ŀ×¦
Ġ×©×¨ ×ķ×¦×Ķ
Ġ×Ķ ×ķ×ł
id e
Ġ×ĳ ×ł×Ķ
Ġ×ľ×¦ ×¢
Ġ×ĳ×¡ ×ĺ
Ġ×Ľ×ª ×Ļ×ĳ×Ķ
×Ļ×ĺ×¨ ×Ļ×ł×Ĵ
Ġ×ĵ ×¨×Ľ
Ġ×Ķ×Ľ×ª ×ĳ×Ķ
Ġ×ŀ×ª ×¨×Ĺ
×Ļ×§ ×£
Ġ×ķ×¤ ×Ļ×ª×ķ×Ĺ
Ġ×¢×©×ķ ×Ļ×Ķ
Ġ×ľ×ł ×¦×Ĺ
Ġ×Ķ×Ķ ×ĸ
×Ĳ×ĳ ×Ļ×¡
×ķ×¤×ķ×ľ×¨ ×Ļ×ķ×ª
×ķ×¦ ×¥
Ġ×Ĳ ×ķ×¡
×Ĳ×ŀ ×¨×Ļ×Ŀ
×Ĺ ×ķ×ĳ×Ķ
Ġ×ŀ×ĵ ×ĵ
×¤ ×¢×Ŀ
Ġ×ĳ×ŀ ×ķ×¡
Ġ×Ĳ ×Ĺ×ķ×ª
×Ļ ×Ļ×¦
Ġ×ª×§ ×¦×Ļ×ĳ
Ġ×ŀ×¡ ×ĳ×Ļ×¨
×Ľ ×Ĳ×Ł
×§×¨ ×¨
Ġ×¤×¡ ×Ļ×Ľ
Ġ×ŀ ×ł×¡×Ļ×Ŀ
Ġ×Ķ×§ ×ķ×ŀ
Ġ×ĳ×¨×Ĳ×© ×Ļ×ª
Ġ×ŀ×¨ ×Ł
Ġ×ŀ×ĸ ×Ľ×Ļ×¨
Ġ×¢ ×Ļ×ª×ķ×ł
Ġ×¢×©×ķ ×Ļ×Ļ×Ŀ
Ġ×Ĳ×ľ ×Ļ×ŀ×ķ×ª
Ġ×ŀ×Ĺ ×ľ×§×ª
Ġ×ª×Ĳ ×ķ×¨×Ķ
Ġ×Ķ×ŀ ×Ľ×©×Ļ×¨
Ġ×ľ×© ×ł×Ķ
Ġ×ª ×Ļ×¨
×¤×¢ ×ŀ×Ļ×Ŀ
Ġ on
Ġ×ľ×Ķ ×¨×Ĳ×ķ×ª
×Ķ ×ŀ×Ĺ
Ġ×§ ×ł×Ļ×ķ×ª
Ġ×ľ×¢ ×ł×ķ×ª
×Ķ×© ×Ľ×¨×ª
×¤×ķ×¨ ×ķ×Ŀ
Ġ×§ ×¨×Ļ×Ļ×ª
×©×ĳ ×ķ×ª
Ġ×ľ×§ ×Ĺ
201 6
Ġ×Ķ×¤×¨ ×ĺ×Ļ
Ġ×ł ×Ĺ×ľ
Ġ×§×¨ ×§×¢
on g
Ġ×ĳ ×ĳ×ª
Ġ×ĳ×Ķ×Ľ×¨ ×Ĺ
Ġ×Ļ×¨ ×Ļ×ĵ×Ķ
×Ķ ×Ļ
Ġ×Ķ×ľ ×Ļ×ļ
×¦×Ļ×§×ľ ×ķ×¤×ĵ×Ļ×Ķ
Ġ×Ķ ×ķ×Ĺ
Ġ×ĳ ×¨×Ľ×Ķ
Ġ×¡ ×Ļ×ĳ×ķ×ª
Ġ×Ĺ ×ķ×¡
×Ĳ×ł ×Ĳ
Ġ×©×Ĳ ×ŀ×¨
Ġ×Ķ×© ×Ľ
at ive
Ġ×ª ×ķ×Ŀ
Ġ×¡ ×ļ
Ġ×ŀ×Ķ ×Ļ×¨×ķ×ª
Ġ×Ķ×© ×Ļ×ķ×ķ×§
×Ĺ×§ ×¨×Ļ×Ŀ
Ġ×¦ ×ŀ×ķ×ĵ
Ġ×Ķ×ĵ ×ľ×ª
Ġ×§×© ×ķ×¨×Ļ×Ŀ
Ġ×Ķ×¢×ķ×ĳ ×ĵ
Ġ×¢×ķ×ĳ ×¨×Ļ×Ŀ
Ġ×ª ×ŀ×¨
Ġ×¢ ×ŀ×Ļ×ĵ
Ġ×Ķ×Ĵ ×Ļ×ľ
×ķ×¤×ķ×ľ ×¨×Ļ
Ġ×¦×¨ ×ķ
Ġ×ŀ ×Ľ×Ŀ
Ġ×ł×§ ×Ļ
Ġ×Ķ×ĳ ×Ļ
Ġ×¢ ×ł×Ļ×Ļ×ł×Ļ×Ŀ
ĠB us
Ġ×Ľ ×Ļ×Ľ×¨
Ġ×¢×¦ ×ŀ×Ĳ
×¤×¢ ×ķ×ľ
×Ļ×¢ ×¥
×ĳ×¨ ×Ļ×Ķ
Ġ×Ľ×Ĺ ×ķ×ľ
Ġ×© ×ª×§
×ª ×ª
Ġ×ŀ×©×ª ×ł×Ķ
Ġ×Ķ×ŀ×ķ×¡ ×ĵ
Ġ×ł ×ķ×Ĺ×Ķ
×ŀ ×¨×Ķ
Ġ×ŀ×ŀ ×ķ×¦×¢
Ġ×ľ×¤ ×§
Ġ×ŀ×ª ×ł×ķ×ª
ra el
×ķ×Ļ ×Ļ×§
×Ķ×ĵ ×¤×¡×Ķ
×ķ×¨×ĵ ×¤×¨×¡
' :
Ġ×Ķ×© ×ł×Ļ×Ķ
Ġ×Ķ×ĳ ×ł×Ļ×Ļ×Ķ
Ġ×ĳ×Ĵ ×ĵ×Ļ×Ŀ
Ġ×ĳ×© ×ķ×Ŀ
Ġ×ĳ×ª×Ĺ ×ĳ×ķ×¨×Ķ
âĢ ĭ
Ġ×ľ×© ×Ļ×ł×ķ×Ļ
Ġ×ª×¢ ×ķ×ĵ×ª
Ġ×ŀ×§ ×ķ×ŀ×Ļ×ª
Ġ×ĳ×ª×Ĺ ×ķ×ŀ×Ļ
Ġ×¡×ķ×Ĵ ×Ļ×Ŀ
Ġ×ŀ×Ļ×ķ×Ĺ ×ĵ×ķ×ª
Ġ×Ķ×¤×¨ ×§
Ġ×Ķ×¢×¡×§ ×Ļ×Ŀ
Ġ×ľ×Ķ×ª×Ļ ×Ļ×Ĺ×¡
Ġ×ĳ×ŀ×©×§ ×ľ
ĠC h
×ķ×ľ ×ł×ķ
Ġ×ľ×Ĳ ×Ļ
Ġ×ľ ×ĸ×¨
Ġ×ķ×Ľ ×Ĳ×©×¨
Ġ×Ķ×ŀ ×©×ª
Ġ×Ķ×ĺ ×Ļ×¤
Ġ×Ľ×Ĳ ×Ĺ×ĵ
Ġ×Ķ×§×¨ ×ķ×ĳ×Ķ
Ġ×Ķ×§×¨ ×Ļ×Ĳ×Ķ
Ġ×ĸ×Ķ ×ķ×ª
×Ļ×¡ ×¨
Ġ×Ĳ ×ķ×Ľ
Ġ×Ĵ×ĳ ×Ļ×ł×Ķ
×Ĺ ×ķ×¨×ª
Ġ×ĳ×ĺ ×Ļ×¤×ķ×ľ
Ġ×Ĵ ×Ļ
Ġ×ł×¤ ×Ĵ×¢
×© ×ĳ×Ļ×Ŀ
Ġ200 6
Ġ×ŀ ×ķ×ł×Ķ
×ķ×Ľ ×ł×ª
×ł ×ĵ×Ļ
Ġ×Ĺ×ķ×¤×© ×Ļ×ª
×Ĺ ×Ł
×ľ ×Ļ×ŀ×ķ×ĵ×Ļ
Ġ×¢×ľ ×Ļ×Ļ
Ġ×ŀ×ĳ ×ł×Ļ
Ġ×Ķ×¢ ×Ļ×ł×Ļ×Ļ×Ŀ
Ġ×Ķ×©×ķ×ķ×Ĳ ×ª
Ġ×ŀ×¨×ĵ ×Ľ×Ļ
×ł×ķ×¢ ×ķ×ª
Ġ×Ķ×ŀ×§ ×ķ×¨
Ġ×ĸ ×ķ×Ľ×Ķ
Ġ×¡×ŀ ×ķ×ļ
Ġ×Ķ×Ĳ ×ŀ×Ļ×ª
×© ×ķ×Ŀ
Ġ×¨ ×ĵ
Ġ×Ķ×ĸ×ŀ ×ł×Ķ
Ġ×Ķ×ŀ ×ĳ×ķ×§
Ġ×Ķ×Ĳ×Ĺ×¨ ×Ļ×ķ×ª
Ġ×¡ ×¨×Ĵ×ľ
Ġ×ľ×Ĳ ×ŀ
Ġ×¡×ĺ ×ĺ
Ġ×ŀ×¨ ×Ĺ×§
Ġ×ľ ×ķ×ŀ×ĵ×Ļ×Ŀ
Ġ×Ķ×ŀ×ĳ ×ł×Ķ
Ġ×ĺ ×ķ×¤×¡
×ķ×ŀ ×Ĳ
Ġ×ŀ×ĺ ×Ķ
×ŀ ×ŀ×©
×ĳ×¢ ×ľ
Ġ×ŀ×Ķ ×Ķ
Ġ×ŀ×© ×Ľ
Ġ×ŀ×ķ×¡ ×Ļ×¤×Ļ×Ŀ
Ġ×Ķ×ľ ×ļ
Ġ×§×Ļ×ĳ ×ľ×ķ
Ġ×Ķ×ĳ ×ŀ×Ķ
×Ľ×ł×¡ ×ķ×ª
×¡ ×Ļ×¤×ķ×¨
Ġ×ª×§ ×ĳ×ľ×ķ
×Ļ×Ľ×ķ×ľ ×ķ×ª
Ġ×¤×ª ×Ļ×Ĺ×Ķ
Ġ×Ĺ×© ×©
Ġ×ŀ×¡ ×ľ
×Ľ ×ŀ×ª
×ľ ×ķ×Ĵ
Ġ×ĵ×¢×ª ×ķ
Ġ×¨×© ×ķ×ŀ×ķ×ª
Ġ×©×Ķ ×ª×Ĺ
Ġ×ĳ×Ĺ ×ķ×¨
×ľ×ķ×ķ ×Ļ×Ŀ
Ġ×ľ×Ĳ ×Ł
i x
Ġ×ŀ ×ĸ×¨
×Ĳ ×ŀ×ª
×ķ×ª ×§
×ľ ×¨
Ġ×Ķ×Ĳ ×¦
×Ĳ ×ĳ×Ļ×Ŀ
Ġ×¨ ×ķ×ĺ
Ġ×¢×ľ ×Ļ×ķ×Ł
Ġ×ŀ×Ĵ ×Ł
Ġ×Ķ×©×ľ ×Ļ×ĺ×Ķ
×ķ×Ĵ ×Ŀ
Ġ×ŀ×ª ×ķ
Ġ×¨×Ĺ ×¦×Ķ
×Ĳ ×Ļ×©
Ġ×Ķ×ŀ×© ×Ļ×ĳ
Ġ×¨ ×ķ×Ľ
7 5
Ġ×Ķ×Ĳ ×ķ×ł×Ļ×ĳ×¨×¡×Ļ×ĺ×Ķ
Ġ×Ĳ ×¤×§×ĺ
Ġ×ŀ×Ĳ ×¡×¨
Ġ×ĵ×ķ×¨ ×©
Ġ×ĸ ×¨×Ļ×Ŀ
Ġ×ĳ ×Ļ×ľ×ķ×Ļ
Ġ×Ĳ ×Ļ×ĺ×ľ×Ļ×Ķ
Ġ×¤ ×Ĺ×ĵ
Ġ×¢×ŀ ×ĵ×Ķ
Ġ×Ķ×© ×Ļ×¨×Ļ×Ŀ
Ġ×ŀ×ŀ ×ķ×§
Ġ×ķ×ĳ×¢ ×ľ×Ļ
Ö¸ Ö
×ķ×© ×ļ
Ġ×ŀ×©×ķ×ª ×¤×ª
as s
×Ļ×Ĳ ×¨
Ġ×Ķ×ŀ×Ĺ ×ķ×ĸ×Ļ
Ġ×ŀ×ŀ×ľ ×Ļ×¦×Ļ×Ŀ
Ġ×Ľ ×¤×ķ×ª
×Ĳ ×ľ×ķ
Ġ×© ×ķ×¨
Ġ×Ķ×Ĺ×ľ×ĺ ×ª
Ġ×ŀ×Ĳ×ŀ ×Ļ×ł×Ļ×Ŀ
Ġ×ĳ×© ×¤×ķ×ª
eb ook
Ġ×Ķ×ª×Ĺ ×ĳ×¨
×ķ×¨×Ļ ×Ļ×ª
Ġ×¨ ×ķ×¡×Ļ×Ķ
×Ĺ ×ĳ×¨
Ġ×Ĺ×ĳ×¨×ª ×Ļ×ķ×ª
×ŀ×Ļ×§ ×ķ×ŀ×ļ
Ġ×Ĵ ×ķ×©
Ġ×ĳ×ŀ×Ĺ ×Ļ×¨×Ļ×Ŀ
Ġ×¡×Ĵ ×ł×ķ×Ł
Ġ×Ķ×ŀ ×Ľ×¨
Ġ×©×ŀ ×Ļ×Ŀ
×ł ×ķ×©×Ĳ
Ġ×ľ×Ľ ×ĳ×ķ×ĵ
Ġ×Ķ×© ×¨×Ĳ×Ķ
Ġ×¨×Ĺ ×ĳ×Ļ
Ġ×Ķ×ª ×Ļ×§
Ġ×ª ×Ļ×Ĳ×ĺ×¨×ķ×Ł
×Ķ ×ŀ×ľ×ķ×Ł
Ġ×§ ×¡
×Ļ×¢ ×Ļ×ª
Ġ×© ×¤×ķ×ª
Ġ×ŀ×Ĺ ×ŀ
Ġ×ĸ ×Ļ×Ľ×¨×ķ×Ł
Ġ×ĸ×Ľ ×Ĳ×Ļ
Ġ×Ķ×ŀ×¢ ×¨×ĳ×Ļ
Ġ×Ļ×¢ ×Ļ×ľ
×Ĳ ×ķ×ĺ
Ġ×ľ×Ķ ×ķ×Ľ×Ļ×Ĺ
Ġ×ľ×ŀ ×©×ª×ŀ×©
×§ ×Ļ×¨×Ķ
Ġ×Ľ×ľ ×Ķ
Ġ×ŀ ×Ļ×ŀ×ķ×Ł
Ġ×ķ×¢ ×Ľ×©×Ļ×ķ
Ġ×Ĵ ×Ĵ
Ġ×¤×¨ ×Ļ×ĺ×Ļ×Ŀ
Ġ×ľ×ŀ ×©×¨×ĵ
Ġ×§ ×¦×ĳ
×Ļ×¡×ĺ ×Ļ×§×Ķ
Ġ×Ĳ×¦ ×ľ×Ļ
Ġ×Ĵ×ķ×ľ ×Ł
×¤ ×ľ×ª
Ġ×Ķ×§ ×©×Ķ
×Ļ×ł×Ķ ×ľ
×ł ×ķ×©×Ĳ×Ļ×Ŀ
Ġ×ĵ ×Ĵ×©
×ķ×Ķ ×ķ
×ľ×ķ ×Ļ×Ķ
Ġ×ľ×ĳ×Ĺ ×Ļ×¨×ª
Ġ×ŀ×§ ×ĳ
Ġ×ŀ×Ĺ ×Ļ×¨×Ļ
Ġ×ķ×ľ ×¤
Ġ×ľ×ĵ ×Ĳ×ķ×Ĵ
Ġ×ł ×ķ×Ĺ×ķ×ª
Ġ×ł ×ķ×Ĵ
Ġ×Ķ×¢ ×¨×ļ
Ġ×Ĳ×ľ×ĳ ×ķ×Ŀ
Ġ×Ķ×¤ ×ķ×¨
Ġ×©×ŀ ×§
Ġ×ł×ĳ ×ł×Ķ
Ġ×ľ×Ķ×ª×Ĺ ×ĳ×¨
Ġ×ĺ ×Ľ×ł×ķ×ľ×ķ×Ĵ×Ļ×Ķ
Ġ×Ķ×ŀ ×¦×ľ
Ġ×Ķ×Ľ×ľ ×ľ×Ļ
Ġ×§ ×©×ķ×ª
Ġ×ª×Ĺ ×ł×Ķ
ĠHotel s
Ġ×ľ×Ķ ×©×ª×ª×£
Ġ×ł×Ķ ×Ļ×Ĵ×Ķ
Ġ×ľ×Ĺ ×ĳ×¨×ķ×ª
Ġ×Ļ×Ĵ ×Ļ×¢
e v
Ġ×Ļ ×ķ×ĳ×ľ
Ġ×ľ×Ĳ ×ķ
×¡ ×Ļ×ª
×ĳ×¡ ×ķ×£
×Ļ×Ķ ×ķ×ĺ
Ġ×Ĺ×©×ĳ ×ķ×ł×ķ×ª
Ġ×Ĺ×Ļ ×Ļ×ľ×Ļ×Ŀ
Ġ×Ļ ×ķ×Ĺ
Ġ×ŀ ×Ľ×ª
Ġ×Ķ×ŀ×§ ×ĵ×©
×Ľ ×ŀ×ķ×ª
Ġ×ľ×ŀ ×¡×¤×¨
×ĳ ×Ļ×§
×ĵ×ŀ ×ł×ķ×Ļ×ķ×ª
Ġ×Ķ×¨×© ×ŀ×Ļ
Ġ×ĳ×Ĵ ×ķ×ĳ×Ķ
Ġ×ķ×ł ×¡
Ġ×ŀ×ª ×Ĳ×¨
Ġ×ĳ×ŀ ×ķ×¢×ĵ
ĠâĢ ĺ
Ġ×Ķ×¨ ×ĳ×Ļ
Ġ×Ķ×¨ ×Ļ×ķ×Ł
Ġ×ľ ×Ļ×ľ×ķ×ª
×ĳ ×ł×ķ
Ġ×ķ×ł ×Ļ×Ķ×ķ×ľ
Ġ×Ķ×¦ ×ĳ×¢
Ġ ×Ļ×¤×Ļ×Ŀ
Ġ×© ×§×¨
×Ĵ ×Ļ×©×Ķ
Ġ×¡×ĵ ×ł×Ĳ×ķ×ª
p l
ac ebook
Ġ×Ķ×Ĳ×ĵ ×ŀ×Ķ
Ġ×Ķ×ĳ ×Ł
Ġ×ª ×Ļ×Ĳ×ķ×¨
A R
×Ĺ ×©×ĳ
×Ĺ×ª ×Ŀ
Ġ×ĳ ×ķ×Ĵ×¨
Ġ×ŀ×Ĺ ×ĸ×ķ×¨
Ġ×Ķ×Ĳ ×ľ×ĳ×ķ×Ŀ
×Ĳ×¨ ×ķ
Ġ×Ķ×Ĳ ×Ļ×ŀ
Ġ×©×ķ×ª ×¤×Ļ×Ŀ
Ġ×¢×¦×ŀ ×ł×ķ
Ġ×Ļ ×ķ×ľ×Ļ
×Ļ×Ĺ ×Ļ
×¨×Ĵ ×Ł
Ġ×Ķ×¢ ×¨×ķ×ª
×©×ª×ª ×¤×Ļ×Ŀ
Ġ×Ķ×ł ×Ľ×ķ×ł×Ķ
Ġ×ŀ×ķ×ĳ ×Ļ×ľ
Ġ×ĳ×¢ ×Ļ×Ļ×ª
Ġ×Ķ×Ľ×ľ ×ľ
×Ľ×© ×Ļ×ĺ×Ļ×Ŀ
Ġ×Ĳ×ŀ ×ĳ×ĺ×Ļ×Ķ
×¢ ×ĵ×ķ×ª
Ġ×© ×Ļ×ĺ×ķ×ª
Ġ×ĺ×Ļ×¤ ×ķ×ľ×Ļ×Ŀ
×Ļ×ĸ ×Ļ
Ġ×¡×Ļ ×ķ×¢
e en
Ġ×ķ×¢ ×Ļ×¦×ķ×ĳ
Ġ×ŀ×ķ×ŀ ×Ĺ×Ļ×Ŀ
Ġ×Ļ×© ×Ł
Ġ×Ķ×Ĺ×ĳ×¨×ª ×Ļ×ª
× ĥ
4 6
×ĳ×¨ ×Ļ×Ĳ×ķ×ª
Ġ×Ĳ×ĳ ×ķ
×ķ×§ ×ķ×ľ
Ġ×¤×¨×¡ ×Ŀ
Ġ×ĵ ×Ĵ×Ļ×Ŀ
×ĳ×ª ×Ŀ
Ġ×ł×ķ×ª ×ł×Ļ×Ŀ
ĠO f
×¤×¨ ×ķ×¤
Ġ×Ķ×§×ĵ ×ķ×©
×Ļ×Ľ ×ľ×ķ×ª
Ġ×Ķ×© ×ł×Ļ×Ļ×Ŀ
in t
Ġ×Ĺ×ľ×§ ×Ŀ
Ġ×§×Ķ ×Ļ×ľ×ª
×Ĺ×ª ×ķ×ł×Ķ
Ġ×Ķ×ľ ×Ļ×ĵ×Ķ
Ġ×©×Ĳ ×Ļ×ł
Ġ×ł×ŀ×¦ ×Ĳ×ķ
4 2
Ġ×Ķ×ł ×Ľ×¡
Ġ×Ķ×©×Ĳ ×ľ×ķ×ª
Ġ×Ĳ ×ķ×¡×ĺ×¨
Ġ×©×Ļ×© ×ł×Ŀ
Ġ×ł×¦ ×Ļ×Ĵ
Ġ×Ķ×ŀ×ķ×ĸ ×Ļ×§×Ķ
Ġ×ĳ×© ×Ļ×ŀ×ķ×©
Ġ×©×ĳ ×ĺ
Ġ×ķ×Ļ×¨ ×ĺ
×Ĳ ×Ļ×ķ×ª
Ġ×Ļ×Ļ×Ĺ ×ķ×ĵ×Ļ×ª
Ġ×Ķ×ŀ×©×Ĺ×§ ×Ļ×Ŀ
×¦×ľ ×ķ×ł×Ķ
Ġ×Ķ×ł×Ķ ×ľ×ª
Ġ×Ķ×ŀ×¡ ×ľ×ķ×ľ
Ġ×Ļ×¨ ×ĵ
Ġ×ŀ×¦×ķ×Ļ ×Ļ×Ł
Ġ×Ļ×Ļ×Ĺ ×ķ×¡
Ġ×ķ×Ĳ ×Ļ×ł×ķ
×ĳ ×Ĺ×Ļ×Ŀ
Ġ×ĳ×ŀ×§ ×ķ×¨
Ġ×Ķ×ª ×¨×Ĺ
Ġ×Ĳ×Ļ×¡ ×ķ×¨
×Ľ ×©×Ķ
a z
×ĳ×ĺ ×Ĳ
×Ļ×ľ ×Ł
Ġ×ľ×¢ ×Ļ×¦×ķ×ĳ
Ġ×ľ×Ĳ ×Ĺ
×ĸ ×Ľ×ķ×Ļ×ķ×ª
Ġ×¨ ×¦×Ķ
×ł ×Ĳ×Ķ
Ġ×Ķ×§ ×¨×ĳ
Ġ k
Ġ×Ļ×¢ ×©×Ķ
×ł×ĵ ×¡
×ł ×Ļ×ĺ
×©×¨ ×Ļ
Ġ×ķ×Ķ ×Ĺ×ľ
×¤ ×ł×Ķ
Ġ×Ķ×Ķ ×Ļ×¡×ĺ
Ġ×Ļ ×ķ×©×ĳ
Ġ×¢ ×ŀ×Ļ×ª
Ġ×ŀ×Ĺ ×ĳ×¨
Ġ×ĺ ×ķ×ķ×Ĺ
Ġ×ĳ×Ĳ ×ĳ
×ł×ĺ ×ľ
Ġ×ľ ×Ļ×©
Ġ×©×ľ ×ľ
Ġ×ĸ ×Ľ×ª×Ķ
Ġ×ª ×ķ×¤
Ġ×¨×¦ ×Ļ×£
Ġ×ŀ×ĵ ×¢×Ļ
Ġ×Ļ×ŀ ×Ļ×Ł
×ķ×© ×ĳ×ª
×ŀ×¢ ×ĳ×¨
Ġ×¤ ×¦
Ġ×ŀ×© ×ł×Ļ
Ġ×ķ×ŀ ×ĺ
Ġ×ĳ ×ĳ×ľ
Ġ×¡ ×Ļ×ł
Ġ×ĳ×¨ ×Ļ×ª
×¡×§ ×¨
Ġ×Ķ×ŀ×§×¦×ķ×¢ ×Ļ
×¡ ×¤
Ġ×¢ ×ķ×ľ×Ļ×Ŀ
Ġ×¨×ķ×Ĺ ×ł×Ļ
Ġ×ľ ×Ļ×ĳ×¨
Ġ×ŀ×ł ×ķ×¢
Ġ×ŀ×ª×Ĺ ×Ŀ
Ġ×ŀ×¡ ×ķ×¨×ª
, "
Ġ×Ķ×©×Ĺ×§ ×ł×Ļ×Ŀ
Ġ×ķ×Ĳ ×Ĺ×¨×Ļ
Ġ×Ķ×ĵ ×Ļ×Ĵ
Ġ×§ ×©×Ļ×Ŀ
Ġ×ŀ×¡×¤×§ ×Ļ×Ŀ
×¤ ×ĺ×Ļ×Ŀ
Ġ×Ķ×¨ ×Ĵ×¢
×¨×ĺ ×Ļ
Ġ×Ķ×Ĵ ×ĸ
Ġ×Ķ×ł ×Ļ×ª×ķ×Ĺ
Ġ×ĳ×§ ×©×ª
Ġ×Ķ ×ĺ×Ļ×ķ×ľ
Ġ×©×ª ×Ķ×Ļ×Ķ
×Ļ×¤ ×Ļ×ķ×ª
Ġ×¢ ×Ĵ×ĳ×ł×Ļ×ķ×ª
×¤×¢ ×ľ×Ķ
] ,
Ġ×ŀ ×ľ×ķ×ķ×Ķ
Ġ×ĳ×§ ×ľ
Ġ×Ķ×ķ×¤ ×¢×ķ×ª
Ġ×ĳ×Ĳ ×ł
×ķ×ĳ ×¦×Ļ
Ġ×Ķ×¡×ĺ ×ķ×ĵ×ł×ĺ×Ļ×Ŀ
×Ĳ×ľ ×Ļ×ª
Ġ×ĳ×© ×Ļ×¢×ķ×¨
Ġ×¢ ×ĳ×¨×Ķ
o c
×Ķ×ķ×¨ ×ĵ×Ķ
×Ĳ×ŀ ×¥
Ġ×ľ×Ķ ×ķ×ĵ×ķ×ª
Ġ×ĳ×Ķ ×Ĵ
×ķ×ª ×Ł
Ġ×ĳ×Ĺ ×ķ×¨×Ķ
×Ļ×§ ×ķ×ľ
×ķ×ĺ ×ķ×ª
Ġ×ŀ×ª×Ĺ ×Ļ×ľ×Ķ
Ġ×ł ×¨×Ĺ×ĳ
Ġ×Ļ×¢ ×ľ×Ķ
Ġ×Ķ×Ľ×ķ×ľ ×ľ×ª
Ġ×ĵ×ľ×ª ×ķ×ª
Ġ×ŀ×¨ ×¦
Ġ×Ĳ ×§×ĺ
Ġ×ŀ×ĳ ×ł×Ļ×Ŀ
Ġ×ķ×Ĳ ×ł×ķ
Ġ×Ļ ×ķ×ĸ
Ġ×Ĵ×ĳ ×ķ×ľ×ķ×ª
Ġ×Ķ×Ĳ ×Ķ
×© ×Ĺ×¨
Ġ×Ķ×§×ĺ ×ł×Ļ×Ŀ
×ĵ×¨ ×ķ×Ŀ
Ġ×Ķ×¢×ķ×ľ ×ŀ×Ļ
Ġ×Ķ×© ×ľ×ĺ×ķ×Ł
Ġ×ľ×ŀ ×¨×Ľ×ĸ
×§×ĺ ×Ĵ×ķ×¨×Ļ×ķ×ª
×¤ ×Ļ×Ĳ
Ġ×ŀ×ŀ ×¢
×ķ×Ķ ×ĳ
Ġ×ŀ×¤ ×¢×ľ
×ª×ķ ×ķ×Ļ×ķ×ª
Ġ×Ķ×ŀ×Ļ ×ķ×Ĺ×ĵ
Ġ×©×Ķ ×Ķ
Ġ×Ķ×§×ķ×ĵ ×ŀ×ª
Ġ×©×ķ×ľ ×Ļ×Ļ×Ŀ
×ª ×©×¢
Ġ×Ķ×§ ×ķ×ł
×ŀ ×¤×Ļ×Ļ×Ł
ĠW indows
Ġ×ĵ ×Ļ×¡
×ĳ ×Ļ×ķ×ª
Ġ×Ĺ×Ļ ×Ļ×Ķ×Ŀ
n g
Ġ×ķ×§ ×¨
×ŀ×© ×Ļ×Ŀ
Ġ×ľ×Ĺ×ª ×ķ×ł×Ķ
Ġ×ķ×Ķ ×ľ
Ġ×ľ×ŀ ×Ľ×©×Ļ×¨×Ļ×Ŀ
Ġ×¤×Ļ×¦ ×ķ×Ļ
×ķ×ĳ ×©
Ġ×Ķ×ŀ×¢ ×ĳ×¨
Ġ×Ķ×¤ ×ª×¨×ķ×Ł
Ġ×ª ×ª×§
Ġ×Ķ×Ĳ ×ŀ×ł×ķ×ª
Ġ×ľ×¨ ×ĵ×ª
Ġ×ŀ×Ĺ ×ķ×ľ
×¤ ×Ĳ×Ķ
Ġ×¢×ľ ×Ļ×Ļ×Ķ
Ġ×Ĳ×Ļ×Ľ×ķ×ª ×Ļ×Ļ×Ŀ
Â ´
Ġ×ŀ×ĺ×¨ ×ķ×ª
×ł ×Ļ×¨
Ġ×ł ×¨×Ĳ×Ļ×ª
Ġ×Ķ×¨×¦ ×ķ×Ł
Ġ×Ķ×§×ĺ ×ł×Ķ
Ġ×Ķ×¤ ×Ķ
Ġ×ł×© ×ľ×Ĺ
Ġ×ĳ×¡ ×ĳ×Ļ×ĳ×Ķ
Ġ×ĳ×ª ×Ĵ×ķ×ĳ×Ķ
×ķ×ĳ ×¥
Ġ×ĳ×¨×Ĺ ×ķ×ĳ×ķ×ª
×Ĺ×Ļ ×Ļ×Ķ
×¤ ×ļ
Ġ×ķ×Ĳ ×Ĺ×ĵ
Ġ×Ķ×ŀ×¡ ×ķ×¨×ª
ol d
×ķ×Ĳ×ľ ×Ļ×ª
Ġ×¢×¡×§ ×Ļ×Ļ×Ŀ
Ġ www
Ġ×¨ ×Ļ×Ĺ
Ġ×©×ł ×ŀ×¦×Ĳ
Ġ×ľ×Ĺ×¡ ×ķ×ļ
×Ľ×¡ ×ķ×ļ
×ĵ×¨ ×Ļ
Ġ×ŀ ×ĸ×¨×Ĺ
Ġ×ķ×ĳ ×ŀ×§
Ġ×ķ ×Ļ×Ĳ
Ġ×§×¨ ×Ŀ
×Ļ×ĳ ×©
Ġ×ŀ ×Ļ×ķ×ª×¨
×ķ×ł×Ļ ×Ļ×ł×Ļ×Ŀ
Ġ×ľ×ª ×ķ×Ĳ×¨
Ġ×ĳ×Ĺ ×ł×ķ×ª
Ġ×ķ×Ķ ×ª×§
Ġ×Ķ×¤ ×ķ×¢×ľ×Ļ×Ŀ
Ġ3 6
Ġ×Ĺ×ª ×ķ×ł×Ķ
Ġ×Ľ×ĳ ×Ļ×©
Ġ×ŀ×ŀ×ľ ×Ļ×¥
Ġ×ĳ×¤ ×ł×Ļ×Ŀ
5 9
Ġ×ŀ×¡ ×ķ×Ļ
Ġ×Ķ×¦ ×ľ
×¨×Ĵ ×©×ķ×ª
Ġ Z
Ġ×¢×ľ ×ķ×ľ×Ķ
i an
×ĳ×ĺ ×Ĺ×Ķ
Ġ×Ķ×¤ ×Ľ×ķ
ĠCre ative
Ġ×ĵ×Ļ ×ķ×¨
Ġ×Ļ×© ×ł×ķ
Ġ×Ķ×© ×Ļ×ĺ×Ķ
Ġ×ķ×Ķ ×ª×Ĺ
Ġ×ŀ×¤ ×¡
Ġ×Ķ×ł ×ķ×Ľ×Ĺ
Ġ×Ķ×ª ×©×ľ×ķ×Ŀ
×¤×¨ ×ª
Ġ×ŀ×Ĺ×© ×ĳ×Ķ
Ġ×ľ×Ķ ×ķ×ĳ×Ļ×ľ
Ġ×ŀ×ķ×¤ ×¢
Ġ×ª×Ĺ ×ĳ×ķ×¨×Ķ
Ġ×Ķ×ŀ×ĵ ×Ļ×ł×ķ×ª
Ġ×Ķ×ŀ ×ĸ×¨×Ĺ
Ġ×§ ×©×ª
Ġ×¢×ķ×ĸ ×¨
Ġ×ĳ×¡ ×ķ×¤×¨
Ġ×Ķ×Ķ ×§
Ġ3 2
×Ļ×Ľ ×Ĳ×ķ×Ł
Ġ×©×§ ×ķ×¨×Ķ
×Ļ ×ķ×ł×ķ×ª
Ö¶ ×ģ
Ġ×ĵ ×¨×Ľ×ķ
×ª×Ļ ×Ļ×©
5 8
Ġ×ķ×ĸ ×ķ
×Ķ×ĳ×Ķ ×¨×Ķ
Ġ×Ļ×ĵ ×Ļ×Ļ×Ŀ
Ġ×ł ×ŀ×ľ
×Ļ×¦ ×ĳ
Ġ×Ķ×§ ×ķ×ĵ×©
Ġ×¦ ×ĳ×Ĳ×Ļ
Ġ×ª×ŀ ×ķ×¨×ª
Ġ×¨ ×ŀ×ķ×ª
×ķ×¤×¡ ×ķ×¨
Ġ×ĸ×Ľ ×ķ×Ľ×Ļ×ª
×Ľ ×ĸ
Ġ×ĳ×ŀ ×Ļ×ľ×Ļ×Ŀ
Ġ×ĳ×ŀ ×ĸ×¨×Ĺ
Ġ×ĳ×Ķ ×¢
×Ļ×ķ ×ķ
or n
Ġ×Ķ×¢ ×ł×§
Ġ×ĺ ×Ļ×¡×ķ×ª
Ġ×ł ×ķ×ľ
Ġ×ľ×Ķ ×¤×¢×Ļ×ľ
Ġ×©×ŀ ×Ļ×¨×Ķ
Ġ×Ķ×¨×© ×ŀ×Ķ
×ĳ ×ķ×Ĳ×ķ
Ġ×¢×¦ ×ķ×Ŀ
×¢ ×ĳ×¨×Ļ×ª
×ł ×Ľ
Ġ×Ķ×Ĺ×ľ×ĺ ×ª×Ļ
Ġ×ŀ×¤ ×ķ×¨×ĺ
Ġ×ĵ ×§×Ķ
×¤ ×Ĵ×©
Ġ×Ĳ×¨×Ĵ ×ķ×ł×Ļ
Ġ×ľ ×¨×Ĳ
Ġ×ĳ×Ĺ ×ľ
×ł ×ľ
Ġ×Ķ×¨×Ĳ×© ×ķ×ł×ķ×ª
Ġ×Ķ×ĳ ×Ļ×Ł
Ġ×ľ×ª ×Ĵ×ķ×ĳ×ķ×ª
Ġ×¦ ×ĳ
Ġ×ŀ×Ķ ×ľ
Ġ×Ķ×ĳ ×ł×Ļ×Ļ×Ł
Ġ×Ķ×Ĳ ×Ļ×Ľ×ķ×ª
Ġ×ľ×Ķ ×Ĳ×ŀ×Ļ×Ł
Ġ×¢ ×ŀ×ķ
×Ļ×ľ ×ķ×¡
×¢ ×ĸ
×© ×ł×Ķ
l ine
Ġ×Ķ×Ĺ ×Ļ×¦
Ġ×¡ ×Ĺ
×¤×ĵ ×¤×Ł
Ġ×Ķ×Ľ ×ĳ
×ŀ×ľ ×ķ×ľ
×Ļ×¦ ×Ĺ×ķ×Ł
Ġ×Ķ×Ľ×ľ ×Ľ×ľ×Ķ
Ġ×©×Ķ ×Ĵ×Ļ×¢
Ġ×¤×¨ ×ł×§
Ġ×ª×Ĺ ×ł×ª
×Ļ×Ľ ×ķ×ĵ
Ġ×Ĺ ×Ļ×¤
Ġ×Ļ×ª ×Ľ×Ł
Ġ×© ×ķ×ľ×Ĺ
×ŀ×Ļ ×Ļ×ľ
Ġ×Ķ×ŀ×Ĺ ×ľ×§×Ķ
×Ļ×ł ×¡×ĺ
Ġ×ķ×Ķ ×ł×Ķ
Ġ×Ĵ×ľ ×ķ×ĳ×¡
×ĳ×ķ×ĵ ×ª
Ġ×Ĳ×ķ×ĺ×ķ×ŀ×ĺ ×Ļ×ª
Ġ×ĳ×Ĳ ×ķ
Ġ×Ķ×¤×¨ ×¡
i o
×¢×ĵ ×Ľ×Ł
ĠÂ ·
×Ĺ ×Ļ×ķ×ª
Ġ×ĳ×ª×Ĺ ×ķ×ŀ×Ļ×Ŀ
Ġ×ĺ×Ļ×¤ ×ķ×ľ×Ļ
Ġ×©×ľ ×ĺ
Ġ×ľ×¤ ×Ļ×ª×ķ×Ĺ
×ł ×ļ
w ik
re e
Ġ×Ĳ ×ķ×Ĵ×ķ×¡×ĺ
Ġ×Ķ×¨ ×ľ×ķ
Ġ×ŀ×©×¨ ×ĵ×Ļ
×Ķ ×©×ķ×ķ×Ĳ×ª
ic ros
Ġ×ŀ×Ĵ ×ľ×Ķ
Ġ×ķ×ľ ×Ľ×ľ
×Ĳ×ľ ×ķ×Ł
Ġ×¢×ĳ ×Ļ×¨×ķ×ª
Ġ×ľ×ª×§ ×ķ×¤×Ķ
×ķ×§×¨ ×ª×Ļ
×ĳ ×Ļ×¢
×ĺ×¨ ×ķ
Ġ×ľ ×Ļ×Ŀ
×¢ ×ĳ×ķ×ĵ×Ķ
Ġ×Ķ×Ķ ×ĸ×ŀ×ł×Ķ
" ),
Ġ×Ĺ ×ł×Ķ
Ġ×ľ×¤×ª ×ķ×¨
×¤ ×ķ×ĸ
Ġ×ľ×Ĺ ×Ľ×ķ×ª
Ġ×©×ł ×Ļ×Ķ×Ŀ
Ġ×ĳ×§×ĳ ×ķ×¦×Ķ
Ġ×ľ×Ķ×¦ ×ľ×Ĺ×Ķ
×ŀ×¦ ×Ŀ
Ġ×ĳ×ĵ ×¤×Ļ×Ŀ
Ġ200 5
Ġ×ľ×Ľ×ª ×ĳ×Ķ
×ķ×ĳ ×Ĳ
Ġ×©×ľ×Ĳ ×Ĺ×¨
Ġ×ľ ×¨×Ĵ×ľ
Ġ×ª×§ ×Ļ×Ł
×ĳ×Ļ×¨ ×ķ
×ł×ĺ ×Ļ×ķ×ª
×Ļ×ĺ ×¨×Ķ
Ġ×Ķ×ĳ ×Ļ×Ĳ
4 1
Ġ×ľ×Ķ×© ×¤×Ļ×¢
Ġ×ŀ×ª ×§×Ļ
% .
Ġ×ĳ×ŀ ×Ľ
×Ĺ×ľ×ĺ ×ķ×ª
Ġ×¢ ×Ļ×ķ×Ł
×ĵ×¨ ×Ĵ
Ġ×Ĳ×ķ×ĺ ×ķ×ŀ×ĺ×Ļ
Ġ×ĳ×Ķ×§ ×©×¨
Ġ×ŀ×¦ ×¨
Ġ×§×ķ×ĳ ×¥
T he
×§ ×¤×Ļ×¦×Ķ
Ġ×§×Ļ×ĳ ×ķ×¥
Ġ×¡ ×ķ×ķ
×ł ×ĳ×¨×Ĵ
×¤ ×Ļ×§×Ķ
Ġ×ķ ×Ļ×ĸ
Ġ×Ĳ ×ĸ×¨×Ĺ×Ļ
Ġ×Ķ×© ×Ļ×ł×ķ×Ļ
Ġ×Ķ×¢×¡×§ ×Ķ
ĠT witter
Ġ×ĵ ×ł×Ļ
×ķ×ł ×ł×ķ×ª
×¤ ×ľ×Ķ
it e
×Ĺ ×ķ×ķ×ª
Ġ×ª ×¤×¨×Ļ×ĺ
Ġ×ĳ×© ×Ļ×ľ×ķ×ĳ
×ŀ×ĵ ×ķ×¢
×Ľ ×¨×ĺ×Ļ×¡
×Ļ×ŀ ×ķ×Ļ
Ġ×ł×¡ ×Ļ×¢×ķ×ª
icros oft
Ġ×Ĳ×Ļ×ł ×ł×Ķ
Ġ×Ķ×§ ×ĳ×ķ×¢
×ķ×Ľ ×ł×Ļ×ķ×ª
Ġ×Ķ×ª ×Ĺ×Ļ
Ġ×©×Ĳ ×Ļ
×ķ×¤ ×Ļ×Ł
Ġ3 00
×ŀ ×Ĳ×Ļ
×ł×Ļ×¡ ×Ļ×ķ×Ł
Ġ×ŀ×Ļ×ľ ×ķ×Ļ
×ĸ ×ķ×ľ
Ġ×ŀ×Ĵ ×ĵ×ľ
Ġ×ĳ×Ĳ ×Ļ×ĸ×Ķ
×ķ×ĵ ×Ļ×¢
Ġ×Ķ×Ľ ×ł×Ķ
Ġ×Ķ×¦ ×ĳ×Ĳ×Ļ
Ġ×ŀ×ŀ×ľ ×Ļ×¦×Ķ
Ġ×Ķ×©×ľ ×Ļ×©×Ļ×ª
Ġ×ľ×¢ ×¡×§
×Ĺ×Ļ ×Ļ×ª
Ġ×©×Ļ×ŀ ×©
Ġ×Ķ×¢ ×¨×ĳ×Ļ
Ġ×ľ ×Ļ×©×ķ×Ł
Ġ×¨ ×ĵ×Ļ×ķ
Ġ×Ķ×ĳ ×ł×Ķ
Ġ×Ļ×¢ ×ĵ
Ġ×ª ×Ľ×ķ×ł×ķ×ª
×Ķ×¨ ×¦
×Ļ×ĵ ×Ĳ×ķ
×ª×¨ ×Ĺ
×ŀ×¡×¢ ×ĵ×ķ×ª
Ġ×Ķ×ĵ ×Ļ×¨×ķ×ª
Ġ×Ķ×Ļ×¢ ×ĵ
Ġ×ł×ª ×ķ×Ł
Ġ×ķ×¨ ×¦
Ġ×ĳ ×ľ×Ķ
Ġ×Ķ×Ĵ ×Ļ×ĳ
Ġ×ĸ ×Ĳ×ĳ
Ġ×¨×ľ×ķ ×ķ×ł×ĺ
Ġ×ł×Ķ ×ĵ×¨×ª
Ġ×Ķ×¦ ×¢×Ķ
Ġ×Ķ×ŀ ×ĵ×Ķ
Ġ×©×ľ ×ķ×©×ª
4 3
Ġ×ĳ×¨×©×ª ×ķ×ª
Ġ×ĳ×¤×¢ ×Ļ×ľ×ķ×ª
Ġ×§×Ļ×ĳ ×ľ×Ķ
Ġ×Ĳ ×ĺ×¨×§×¦×Ļ×ķ×ª
Ġ×Ľ×© ×Ĳ×ł×Ļ
6 6
Ġ×Ĺ×Ļ×¦ ×ķ×ł×Ļ
×ķ×Ļ ×Ļ×Ł
×©×ĳ ×Ļ×ľ
Ġ×¤ ×ł×Ķ
Ġ×ŀ×Ĺ×©×ĳ ×ķ×ª
Ġ×Ķ×§ ×ķ
Ġ×Ķ×Ĺ ×ĸ
s h
Ġ×Ķ×Ĳ ×Ĺ×ĵ
Ġ×Ķ×Ķ ×¡×ª
Ġ×ĵ ×ľ×§
Ġ4 8
Ġ×¢ ×ŀ×§
Ġ×ŀ×Ĵ ×ĸ×Ļ×Ł
Ġ×ľ×© ×Ļ×¨
r ight
Ġ×ĳ×ª ×ķ×Ľ×ł×Ļ×ª
ĠðŁ Ļ
Ġ×Ķ×§×¨ ×ķ×ĳ×Ļ×Ŀ
Ġ×Ĺ ×Ļ×¨×ķ×Ŀ
Ġ×ª×© ×ķ×ĳ×ķ×ª
Ġ×¢ ×Ļ×©×ķ×Ł
×¡×§ ×ł×Ķ
Ġ×¢×¡×§ ×Ļ×ª
Ġ×ł ×Ļ×Ľ×¨
×ķ×ŀ×Ļ×ł ×Ļ×ķ×Ŀ
Ġ×ĳ×¨×Ĳ×© ×ķ×Ł
Ġ×ĳ×ª ×ķ×Ŀ
Ġ×ĳ ×Ļ×Ŀ
Ġ×¢×ĳ ×Ļ×¨×Ķ
Ġ×Ķ×¢ ×ŀ×ķ×ª×Ķ
Ġ×ŀ×§ ×ĳ×ľ×ª
Ġ×©×Ĳ ×ķ×ľ
Ġ×Ľ×¨×ĺ×Ļ×¡ ×Ļ
Ġ×ª×© ×¡
×Ľ×ķ×ľ ×ľ
Ġ×ķ×Ĳ ×ª×Ķ
Ġ×ŀ×§ ×Ļ×£
Ġ×ŀ×Ĳ×ŀ ×¥
Ġ×¢×¨×ĳ ×Ļ×Ŀ
Ġ×ĳ ×Ļ×ł×ª×Ļ×Ļ×Ŀ
Ġ×ľ ×¤×¨×¡×ķ×Ŀ
×Ķ×¦×Ķ ×¨×ª
Ġ×ĳ×© ×ª×Ļ
Ġ×ķ×ĳ×¢ ×ķ×ľ×Ŀ
Ġ×ŀ×ª×Ĳ ×Ļ×ŀ×Ļ×Ŀ
×ŀ ×ł×Ķ×ľ
Ġ×ĳ×¦ ×ķ×¨×ª
ĠP l
g mail
Ġ×ĺ×Ľ×ł×ķ×ľ×ķ×Ĵ ×Ļ×ķ×ª
×ŀ ×Ľ×ª
Ġ×¤×¨ ×¥
×¦ ×§
×ĳ×§ ×ķ×ª
Ġ×ĳ×ŀ ×ľ×Ĺ×ŀ×ª
×Ļ×ĺ ×ķ
×Ĵ×¨×¡ ×Ĳ×ķ×ª
Ġ×¨ ×ķ×ª
Ġ×Ķ ×Ļ×ł×Ŀ
Ġ×Ķ×¦×ľ×Ļ×Ĺ ×ķ
Ġ×ŀ×ª×§×ĵ ×ŀ×Ļ×Ŀ
Ġ×Ĵ ×Ļ×ĵ×ķ×ľ
Ġ×ĳ×ŀ ×Ĳ×ŀ×¨
Ġ×ŀ×Ķ ×Ĵ
Ġ×ĳ×ŀ ×ĸ
×Ľ×ľ ×Ļ×ª
×¦×ķ×¢ ×ª
Ġ×Ķ×Ĳ ×Ļ×©×Ļ×ª
Ġ×ŀ×©×¤×Ĺ×ª ×ķ
Ġ×Ķ×Ĺ×ķ×¤×© ×Ļ×ª
×ł×Ļ ×Ļ×ł×ķ
Ġ×ķ×Ķ ×Ľ
Ġ×ŀ×ķ×ĸ ×¨
×ķ×ł ×ª×Ļ
×ķ×ł ×ª×ķ
Ġ×ĳ×Ĺ ×ĸ×¨×Ķ
×¡×¤×¨ ×Ļ
Ġ×§×¦ ×¨×Ļ×Ŀ
Ġ×ĳ×Ļ×ª ×Ļ
Ġ×Ĳ ×Ļ×Ľ
Ġ×Ĺ ×Ľ×ŀ×Ļ×Ŀ
Öµ Ö¼
Ġ×Ļ×¦ ×Ļ×¨×ķ×ª
Ġ×§×ĺ ×Ĵ×ķ×¨×Ļ×Ķ
Ġ×ķ×Ĳ ×Ļ
Ġ×Ķ×§ ×ł×Ļ×ķ×ª
Ġ×¢×© ×Ļ×ª×Ļ
Ġ×Ķ ×ķ×¦×Ĳ×Ķ
×ŀ×¦ ×Ļ×Ŀ
Ġ×¨×¦ ×Ĺ
Ġ×Ķ×Ĳ ×¤×ľ×Ļ×§×¦×Ļ×Ķ
×Ĵ×Ļ×© ×Ļ×Ŀ
Ġ0 3
×¤ ×©×ª
Ġ×¢×ŀ×ķ×ĵ ×Ļ×Ŀ
Ġ×Ĳ×¡ ×£
Ġ×¤ ×¡×ĺ
Ġ×§×Ļ×ĳ×ľ ×ª×Ļ
Ġ×Ĵ×ĸ ×¢
Ġ×Ĵ×ķ×ľ ×©×Ļ×Ŀ
×¤×¢ ×ķ×ľ×Ķ
Ġ×ĳ×Ĳ ×¨×Ĵ×ķ×Ł
Ġ×ĳ×Ļ×© ×ķ×ľ
Ġ×§×ķ×¨×¡ ×Ļ×Ŀ
A N
Ġ×¤×Ļ×¨ ×ķ×©
Ġ×ĳ×Ĺ ×ķ×ľ
Ġ×ĺ ×ķ
Ġ×©×ł ×Ĳ×ŀ×¨
Ġ×¢×ķ×ĳ ×ĵ×ķ×ª
×ĳ ×ł×§
Ġ×Ĳ×Ļ×¨ ×Ĳ×Ł
×Ļ×¨ ×ķ×¨
Ġ×ª ×ķ×©×ĳ
Ġ×Ķ×Ķ ×ĵ
Ġ×ŀ×¡ ×Ļ×ĳ×ķ×ª
Ġ×§×ķ×ĵ ×©
Ġ×Ĳ ×ĸ×¨×Ĺ
Ġ×Ĳ×Ļ ×Ļ×ľ
Ġ×ŀ×¨×Ĵ ×Ļ×©×Ķ
Ġ×Ķ×Ĺ×© ×ķ×ĳ×Ļ×Ŀ
Ġ×Ķ×ŀ×ĺ ×ĳ×Ĺ
Ġ×Ĵ ×ŀ×¨
Ġ×©×ł ×¨×Ĳ×Ķ
Ġ×Ľ×ª ×Ļ×ĳ×ª
×¢ ×§
×¨×Ĳ×© ×ķ×Ł
Ġ×¨ ×Ľ×©
Ġ×Ķ×Ĺ ×©×ķ×ĳ
) ;
Ġ×Ĳ ×ĳ×¨
Ġ×Ķ×© ×ķ×ľ×Ĺ×Ł
Ġ×Ĵ×ĵ ×ľ
×ł ×Ľ×ķ×Ł
×Ļ ×Ļ×¨×Ķ
Ġ×ĵ×Ļ×Ĵ ×Ļ×ĺ×ľ
Ġ×¨×ĳ ×Ļ×Ł
Ġ×ĳ ×ķ×ľ×ĺ
Ġ×Ķ×ŀ ×ķ×Ĵ
×ĳ×¢ ×ķ×Ł
Ġ×Ķ×§ ×ĳ×ľ×Ķ
×ķ×¡ ×ķ×ª
×ķ×ķ×Ļ ×Ļ×ª
Ġ×©×Ķ ×Ļ×Ļ×ª×Ļ
Ġ×¦×¢ ×Ļ×¨×Ķ
Ġ×Ķ×¡ ×Ļ×Ľ×ķ×Ł
Ġ×©×ĳ ×Ĺ
×¨ ×©×ª
ĠI s
Ġ×¤×ł ×Ļ×ŀ×Ļ
Ġ×Ľ×ķ×Ľ ×ĳ
ĠR SS
×Ļ×Ĺ ×Ļ×ĵ×Ķ
Ġ×ŀ×¦ ×ľ×ŀ×ķ×ª
Ġ×Ķ×Ĳ×ł ×ķ×©×Ļ
Ġ×ķ×ŀ ×ķ×¡
Ġ×ŀ×Ķ ×ķ×ª
Ġ×ķ×Ĳ ×ĳ
Ġ×©×ĳ×ķ×¢ ×Ļ×Ļ×Ŀ
Ġ×Ķ×ĸ ×Ļ×Ľ×¨×ķ×Ł
×ķ×ł ×¨
Ġ×ł ×ŀ×©
P DF
Ġ×ľ×¨ ×©×ª
×ŀ ×ĵ×¨×Ļ×ļ
ĠðŁĻ Ĥ
×Ļ×¡ ×ĵ
×¢×§×ĳ ×ķ
Ġ×Ĵ ×Ļ×ķ×¡
×Ļ×Ĳ×ľ ×Ļ×§
Ġ×Ķ×ĵ ×ķ
Ġ×ĳ×Ĺ ×Ļ×¨×ķ×ª
×Ĳ×ĸ ×ľ
×ŀ×Ĳ ×ĸ
Ġ×ľ×Ķ×Ĺ×ľ ×Ļ×ĺ
Ġ×ĳ×¢×¨ ×ķ×¥
Ġ×Ķ×ĺ ×Ľ×ł×ķ×ľ×ķ×Ĵ×Ļ×Ķ
×¤ ×Ļ×¡
Ġ×©×Ķ ×¨×Ļ
Ġ×¨×© ×Ļ×ŀ×Ķ
Ġ×ľ×ł ×ķ×©×Ĳ
Ġ×Ĳ×¨ ×ķ×Ľ×ķ×ª
Ġ×ĳ ×Ľ×ª
Ġ5 5
Ġ×¡ ×ķ×ĵ
Ġ×Ļ×ķ×¦ ×Ĵ
×Ķ×Ĺ ×ĳ×¨×Ķ
r an
Ġ×©×ł ×§×¨×Ĳ
×¢ ×¨×ª
Ġ×ľ×Ķ×Ĵ×ĵ ×Ļ×ľ
×¡ ×Ļ×Ķ
as h
Ġ×Ĺ×ķ×ĸ ×¨×ª
×ķ×© ×ľ
Ġ×ĳ×ł ×Ļ×Ķ×ķ×ľ
Ġ×ĳ×Ľ ×ķ×Ĺ
Ġ×ĳ×Ĳ ×Ļ×Ŀ
O N
×Ļ×ŀ ×¦×Ļ×Ķ
×Ļ×Ľ ×ķ×ĳ
Ġ×ķ×© ×Ļ×ķ×ķ×§
Ġ×ł×ĵ ×ŀ×Ķ
Ġ×ľ×Ķ ×Ļ×¢
Ġ×ľ×§ ×ĺ
×Ļ×§ ×ľ×Ļ
Ġ×¤×ľ ×ķ×¡
Ġ×ľ×ŀ×¢ ×ĺ
ĠW ordPress
Ġ×¨×© ×ŀ×Ļ
Ġ×Ĳ×ķ×ŀ ×ł×ķ×ª
ĠâĢ º
Ġ×ĳ×ŀ×ĵ ×Ļ×ł×ª
Ġ×¢×ĵ ×Ł
×¦ ×Ļ×¤×Ļ
Ġ×Ķ×ĵ ×Ĵ
Ġ×Ļ×Ķ ×ĵ×ķ×ª
Ġ×ľ ×ľ×Ĺ
Ġ×¨×¦ ×Ļ×ł×Ļ
Ġ×Ļ ×ķ×ŀ×Ļ×Ļ×Ŀ
×Ļ×ĸ ×ķ×Ł
Ġ×©×ĳ×Ķ ×Ł
201 5
Ġ×ľ×Ķ ×ŀ×©×ļ
Ġ×Ĺ×ķ×ĸ ×¨×Ļ×Ŀ
×Ļ×ľ ×Ļ×Ķ
Ġ×¢×ľ ×ķ×ľ×Ļ×Ŀ
×Ļ×¦ ×Ĵ
×ľ×§ ×ĳ×ľ×ª
×ĳ ×Ļ×§×ķ×¨×ª
Ġ×ĳ×¤ ×ķ×¨
×ł ×¨×ª
g e
Ġ×ĳ×¡ ×ŀ×ķ×ļ
Ġ×ĳ×§ ×Ļ×¥
Ġ×Ĺ×ľ ×ķ×Ŀ
Ġ×ĵ ×ŀ×ķ×Ļ×ķ×ª
Ġ×ľ×¨ ×Ļ×©×Ļ×ķ×Ł
×¦×ĳ ×Ļ×¢
Ġ×©×Ķ ×ķ×Ĵ
Ġ×ķ×ľ ×ķ
×ł×Ķ ×ľ×ª
×ķ ×ķ×Ĳ×Ķ
Ġ×Ļ×¢ ×ľ
Ġ×ĳ×ĺ ×ķ×Ĺ×Ļ×Ŀ
Ġ×©×Ļ×Ķ ×Ļ×ķ
×Ļ×ł×Ĵ ×ĺ×ķ×Ł
Ġ×©×ŀ ×Ĵ
×© ×ł×Ļ×Ŀ
Ġ×ª ×ķ×¨×ª
Ġ×ł ×¢×¨×ļ
Ġ×Ķ×Ĳ×ł ×¨×Ĵ×Ļ×Ķ
Ġ×¨×Ĺ ×ĳ×Ķ
Ġ×Ķ×Ĺ ×ķ×ĳ×Ķ
Ġ×Ķ×§ ×Ļ×Ļ×Ŀ
Ġ×Ķ×¤×ł ×Ļ×ŀ×Ļ
Ġ×Ĳ×ķ×¨×Ĵ ×ł×Ļ
Ġ×Ķ×¨ ×Ĵ×©×ª×Ļ
Ġ×© ×¤×¢
Ġ×Ķ×© ×Ļ×ĵ×ķ×¨
Ġ×Ĵ×ķ×¤ ×ł×Ļ×ª
Ġ×ŀ×Ĺ ×ľ×Ķ
×Ķ ×¢×¨×ķ×ª
5 6
Ġ×Ķ×ĺ ×ķ×ĳ×ķ×ª
Ġ×Ĺ×© ×Ļ×ĳ×Ķ
Ġ×Ķ×§ ×Ļ×©×ķ×¨×Ļ×Ŀ
×Ļ×ĵ ×ķ×¢
ĠComm ons
Ġ×Ļ×ĵ ×ķ
×ķ×ĸ ×Ļ×§×Ķ
Ġ×ĳ×ĳ ×ĵ
! )
Ġ×©×Ľ×ª×ĳ ×ª×Ļ
×ľ×Ĺ ×¦×ķ
Ġ×ª×Ĺ ×Ļ×ľ×Ķ
×§×¨×§×¢ ×Ļ×Ł
×Ļ ×Ļ×¢×ķ×¥
Ġ×ĳ×ª ×ķ×¡×¤×ª
Ġ×Ķ×Ľ ×¨×ĺ×Ļ×¡
7 9
Ġ×ŀ×ŀ×© ×Ļ×Ľ×Ļ×Ŀ
×ķ×ł ×ļ
×ĳ×Ĺ ×ķ×Ł
Ġ×©×Ļ×¦ ×Ĳ
Ġ×© ×ĵ×¨
Ġ×ķ×ķ×Ĳ ×ľ×Ķ
Ġ×ŀ×¨×Ĵ ×Ļ×©×Ļ×Ŀ
Ġ×¤ ×¡×ĺ×Ļ×ĳ×ľ
Ġ×Ĳ×Ļ ×Ļ×¨
Ġ×Ĳ×ľ ×Ļ×¢×ĸ×¨
Ġ×ľ×ľ ×ŀ×ĵ
Ġ×¡×¤×¨ ×ĵ
×ª×¨ ×Ĺ×©
×ł ×Ļ×§×Ļ×Ŀ
×Ķ×ĵ ×Ĵ×©×ª
Ġ×Ļ×ª×¨ ×ķ×ł×ķ×ª
×ĸ×ŀ ×ł×ķ×ª
Ġ×¤ ×ķ×ĺ×ł×¦×Ļ×Ĳ×ľ
×¢ ×¦
Ġ×ĳ ×ĺ×¨×Ŀ
Ġ×¢×ĵ ×ķ×ª
Ġ×ľ×Ĺ ×Ļ×¤×ķ×©
Ġ×ķ×¢ ×ĵ×Ļ×Ļ×Ł
Ġ×ľ×Ľ ×ŀ×Ķ
Ġ×ĳ×ķ ×ķ×ĵ×Ĳ×Ļ
×© ×Ļ×Ķ
×ľ×Ĳ ×ķ×ŀ×Ļ×Ļ×Ŀ
Ġ×Ĳ×ľ ×Ľ×ķ×Ķ×ķ×ľ
Ġ×Ļ×ŀ ×©
×Ļ×§ ×ķ×Ĺ
Ġ×ĳ×§ ×ĳ×ķ×§
Ġ×ľ×Ķ ×Ĳ
×ŀ×ľ ×Ļ×¥
×Ľ ×Ļ×¨×Ļ×Ŀ
Ġ×Ĳ ×ł×ĺ×Ļ
Ġ×Ĳ ×ķ×Ł
×Ļ×Ĵ ×ľ
×¢×¨ ×ķ×¥
Ġ×Ķ×ŀ ×ĵ×¨
×¡×¨ ×Ļ×ĺ
×Ĳ ×Ĺ×ª
Ġ×¨×© ×ķ×Ŀ
Ġ×Ľ ×Ļ×©
×ķ×ľ ×ŀ×ķ
Ġ×ł×§ ×ķ×ĵ×Ķ
Ġ×ķ×Ĵ ×¨
Ġ1 50
Ġ×Ķ×ł ×ķ×Ĵ×¢
Ġ×Ķ×Ĳ×ĵ ×ķ×Ŀ
×Ĳ×ķ×ª ×ķ
Ġ×ŀ×Ĳ ×ĳ×§
×ķ×Ĺ ×¨×Ļ×Ŀ
Ġ×ŀ ×ķ×ª×ķ
Ġ×ŀ×ĳ ×ķ×Ĵ×¨×Ļ×Ŀ
Ġ×ĺ×ĳ×¢ ×Ļ×Ļ×Ŀ
Ġ×¤×ķ×¢ ×ľ×ª
Ġ×©×ŀ ×Ĳ×¤×©×¨
Ġ×ŀ×¢ ×¨×ļ
Ġ×ľ×Ļ×ŀ ×ķ×Ł
×¢ ×¨×Ļ×Ŀ
Ġ×ŀ×Ĵ ×Ļ×ľ
Ġ×© ×Ĵ×ķ×¨
Ġ×Ķ×ŀ×§ ×ķ×ŀ×Ļ
Ġ×ľ×¤×¢ ×Ļ×ľ×ķ×ª
Ġ×Ķ×Ĵ×ķ×ľ ×©×Ļ×Ŀ
×Ļ×ĺ ×Ļ×§×Ķ
Ġ×Ķ×ŀ×Ĺ ×ľ×Ķ
Ġ×Ķ×¤ ×ķ×Ľ×Ķ
Ġ×Ķ×Ľ ×ĳ×Ļ×©
Ġ×ĳ×¡ ×ĵ×¨×Ķ
Ġ×¡×ŀ ×Ľ×ķ×ª
×ł×ĺ ×Ķ
t it
Ġ×ľ×ł×¡ ×ķ×¢
Ġ×ľ×© ×Ļ×¤×ķ×¨
Ġ×Ķ×ª ×Ľ×ł×ķ×Ł
Ġ×ľ×Ĵ ×ĳ
Ġ×ĳ×¨ ×Ļ×Ľ×Ķ
Ġf rom
Ġ×ŀ×¤ ×Ĺ
Ġ×Ļ×ĳ ×©
Ġ×ŀ×¨×Ĵ ×©
Ġ×Ļ×ľ ×ĵ×Ļ
Ġ×Ķ×ŀ ×©×ª×ª×¤×Ļ×Ŀ
×ķ×ŀ ×ł×ķ×Ļ×ķ×ª
Ġ×Ķ×ł×¡ ×Ļ×¢×Ķ
Ġ×ĳ×ĺ ×ķ×¤×¡
201 2
×ŀ ×Ļ×ķ×Ł
×ľ×ª ×Ŀ
×¢ ×ķ×ľ×Ŀ
Ġ×Ķ×Ĺ ×ķ×¨×£
×ĳ ×ļ
×Ĺ ×Ĵ
×ł ×ĺ×¨
Ġ×ĳ×ª×§ ×©×ķ×¨×ª
Ġ×¤×ķ×¨ ×ĺ
Ġ×ŀ×ĳ×Ĺ ×Ł
Ġ×Ķ×¨×¦ ×Ĳ×ķ×ª
Ġ×ķ×¦ ×¨
Ġ×ĳ×¨ ×ĸ×ľ
Ġ×ķ×ľ×Ķ ×¢
Ġ×ŀ×ª ×Ľ×ķ×ł×Ļ
Ġ×Ķ×Ĵ×ĳ ×ķ×ľ
Ġ×ĸ×§ ×ķ×§×Ļ×Ŀ
Ġ×Ķ×ª ×ł×Ĳ×Ļ×Ŀ
×Ĳ ×ľ×Ĳ
×ķ×¨ ×Ł
Ġ×ĳ×¢ ×ĳ×ķ×¨
Ġ×Ķ×ª ×ĳ
Ġ×ĸ ×ķ×Ķ×¨
Ġ×Ķ×© ×Ĺ
Ġ×©×Ķ ×Ļ×ª×Ķ
Ġ×ľ×ĺ ×ķ×ķ×Ĺ
×ľ×Ĺ ×ķ×ª
Ġ×Ķ×© ×¢×ķ×ª
Ġ×ŀ×Ĳ ×Ķ
Ġ×ŀ×Ĺ ×Ľ×Ķ
Ġ×ŀ×ł×Ķ ×ľ×Ļ
×¨×Ĳ×© ×ķ×ł×Ķ
Ġ×ľ ×¨×ĳ
×Ĵ×ľ ×ľ
×Ļ×Ĳ ×ĺ
Ġ×ĳ ×ķ×Ĳ
×¦ ×Ļ×ĺ×ķ×ĺ
Ġ×ł ×ŀ×¡×¨
×ŀ×ª ×ł×Ķ
×¦×ķ×¢ ×Ķ
×Ĳ ×¦
Ġ×Ķ×ľ×ĳ ×Ł
Ġ×¦ ×Ļ×¨
Ġ×ł×© ×Ļ×ŀ×Ķ
Ġ×Ķ×ŀ×ľ ×ķ×ł×ķ×ª
Ġ×ķ×Ĳ ×¤×©×¨
×Ķ×¦×Ķ ×¨×Ķ
Ġ×ŀ×ª ×¨×Ĵ
×ª×Ĺ ×ķ×ŀ×Ļ
Ġ×Ļ×ľ ×ĵ×ķ×ª
×ŀ ×Ĺ×ķ×ª
×ķ×ĳ ×¡×§×Ļ
×Ļ×ł×ª ×Ł
Ġ×ŀ×ķ×ĸ ×Ļ×Ĳ×ķ×Ł
Ġ×ĳ ×ĺ×¨
Ġ×ĳ ×Ļ×¡
Ġ×ŀ×¤ ×ķ×¨×¡
Ġ×ľ×Ĵ ×ķ×£
Ġ×ĵ ×ķ×ĳ
×Ľ ×¤×Ļ
×Ļ ×ķ×ĵ
E D
Ġ×ŀ×© ×Ľ×ł×ª×Ĳ
Ġ×Ķ×© ×ķ×ĺ
×ĳ×Ĳ ×ł×Ĵ×ľ×Ļ×ª
×¤ ×Ļ×ľ×Ķ
×Ĺ×¨ ×ķ×¨
×ķ×ł ×Ļ×§×Ķ
Ġ×Ľ ×©×ĳ
Ġ×ł×¡ ×Ķ
Ġ×ŀ×©×¨ ×ĵ×Ļ×Ŀ
Ġ×ŀ×ª ×Ľ×ķ×Ł
Ġ×ľ×Ĺ ×ķ×ķ×ª
Ġ×Ķ×ŀ ×ĵ×¨×Ļ×ļ
Ġ×¤ ×¨×Ĳ
Ġ×ĳ×Ķ ×©
Ġ×ŀ×Ķ ×ľ×ļ
Ġ×ľ×¢ ×¡×ķ×§
×¤×ķ×¨ ×ĺ×ľ
Ġ×© ×ķ×¨×Ķ
Ġ×ĳ×ł×¡ ×Ļ×ĳ×ķ×ª
Ġ×ľ×ŀ×ĵ ×Ļ×ł×Ķ
Ġ×Ķ ×Ļ×¤×Ķ
Ġ×Ķ×¨×ķ×ķ×Ĺ ×Ķ
Ġ×Ķ×Ľ×ľ ×ľ×Ļ×ª
×ķ×¤ ×Ĳ×Ļ
Ġ×ĳ×¨ ×Ĵ
Ġ×Ĳ×ª ×Ļ
Ġ×ŀ×Ľ ×ķ×ł×ķ×ª
×¡ ×Ĳ×ķ×ª
Ġ×Ķ×ŀ ×¨×Ĳ×Ķ
Ġ×ŀ×ķ×¦ ×Ĳ×Ļ×Ŀ
Ġ×ĳ ×Ľ×ª×ĳ×Ķ
×Ĵ×¢ ×ª×Ļ
Ġ×ŀ×Ļ ×ķ×¢×ĵ
Ġ×ľ×© ×ķ×§
Ġ×ľ×¢ ×§×ķ×ĳ
Ġ×Ķ×Ĳ×ł ×¦×Ļ×§×ľ×ķ×¤×ĵ×Ļ×Ķ
×Ķ×ľ ×Ľ×Ķ
ĠB e
Ġ×¡ ×Ĵ×Ł
Ġ×ĳ×ŀ ×¨×Ĺ×ĳ
×¤ ×¥
×ĸ ×Ľ×¨
Ġ×ŀ×ĵ ×Ļ×Ķ
×¤×¨ ×Ļ×§×Ķ
Ġ×Ĵ×Ļ×ľ ×ķ×Ļ
×ķ ×ķ×§×Ļ×Ŀ
Ġ×Ķ×ĳ ×ĵ×ľ
Ġ×Ľ×ł ×Ļ×¡×ª
Ġ×ĳ×Ļ×ł ×ķ×ł×Ļ
Ġ×ĸ ×ľ
Ġ×ŀ ×ķ×¨×Ļ×Ŀ
×¤×¨ ×Ļ
Ġ×Ķ×ŀ ×¤×ľ×Ĵ×Ķ
×Ļ×Ļ×¦ ×ķ×Ĳ
×Ķ×ĺ ×§×¡×ĺ
Ġ×Ĳ×Ļ×ł ×¡×ĺ
Ġ×Ķ×ł ×ĸ×§
Ġ×Ĳ ×©×ª
Ġ×ľ×Ķ ×ķ×¨×Ļ×Ŀ
Ġ×ª×ľ×ŀ×Ļ×ĵ ×Ļ
×ł×ĵ ×ĳ×ķ×ª
Ġ×Ķ×¦×¢ ×Ļ×¨×Ļ×Ŀ
Ġ×Ķ×ķ×ĵ ×Ļ×¢
Ġ×Ķ×Ĳ ×ķ×ª
Ġ×¡×Ļ×Ľ ×ķ×Ŀ
×Ľ×ª×ĳ ×ķ
×Ļ×ł×ĵ ×§×¡
Ġ×ª×¤×§×Ļ×ĵ ×Ļ×Ŀ
Ġ×Ľ ×¤×ª×ķ×¨
×¢×ª ×Ļ×§
×ķ×¦ ×Ĳ×Ļ×Ŀ
Ġ×Ķ×ŀ ×ķ×§×ĵ
e ct
ak e
×ŀ ×ł×Ļ×ķ×ª
Ġ×©×¢ ×©×ķ
I T
Ġ×ŀ×ŀ ×§
Ġ×Ļ×ĵ ×Ļ×¢×ķ×ª
Ġ×Ķ×Ĳ×© ×¨×Ĳ×Ļ
×Ļ×Ľ×ķ×ľ×ķ×Ĵ ×Ļ×Ķ
Ġ×ŀ ×ķ×ĵ×Ķ
Ġ×Ķ×Ĳ×ķ×¤ ×ł×Ķ
Ġ×Ķ×¨ ×ĳ×Ļ×Ŀ
Ġ×Ĳ×ŀ ×ķ×ł×Ķ
Ġ×ĳ ×¤×ª
Ġ×ķ×ĳ ×ĵ
×ĺ×¨ ×¡×Ļ×Ŀ
Ġ×ŀ ×¤×§×ĵ
×Ļ×ĺ ×Ļ×Ł
Ġ×Ķ×ŀ ×ķ×¨×Ķ
Ġ×Ķ×ł ×Ļ×¡×Ļ×ķ×Ł
Ġ×©×Ľ ×ĵ×Ĳ×Ļ
Ġ×¢ ×ĳ×¨×Ļ
Ġ×¢×¦×ŀ ×Ľ×Ŀ
Ġ×ŀ×¢×ķ×ĵ ×Ľ×ł×Ļ×Ŀ
Ġ×Ķ×© ×Ļ×ł×Ķ
Ġ×ł×ķ×¡ ×¢×Ļ×Ŀ
Ġ×Ĳ×ķ×¨ ×Ł
Ġ×ĵ×ķ×Ĵ ×ŀ×Ĳ×ķ×ª
Ġ×ª×¢ ×ķ×¤×Ķ
Ġ×ŀ×§ ×ķ×ŀ×Ļ
Ġ×Ĵ ×ĸ×¨
Ġ×ľ×Ĳ ×ĸ×ķ×¨
Ġ×ª ×ķ×§×£
Ġ×Ķ×ĳ×¨ ×Ļ×ĺ×Ļ
201 4
Ġ×Ķ×ŀ×ķ×ª ×Ĵ
Ġ×ķ×ĳ ×¦
Ġ×Ķ×¨ ×Ķ
Ġ×ĳ×ĳ ×Ļ×¦×ķ×¢
Ġ×ĵ ×Ļ×Ļ×Ł
Ġ×ł×ķ×ª ×¨
Ġ×Ĺ×ķ×ĳ ×ĳ×Ł
Ġ×ľ×ĳ ×ª
×Ļ×ĵ ×ķ×Ł
5 7
âĹ Ħ
Ġ×ĳ×Ĺ ×ľ×ķ×Ł
×Ľ ×ķ×ľ×Ŀ
Ġ×ľ ×ĵ×Ļ
Ġ×§×Ļ ×Ļ×ŀ×ķ×ª
×Ĵ ×Ļ×Ķ
×Ļ×§ ×ķ×ł×Ļ×Ŀ
Ġ×ľ×Ĵ ×ķ×¨
Ġ×ĳ×¨ ×Ĵ×ľ
Ġ×Ķ×ŀ×§ ×ķ×ŀ×ķ×ª
×¦ ×¤×ķ
Ġ×Ķ×ŀ×©×¤ ×ĺ×Ļ×Ŀ
Ġ×Ĳ×Ĺ ×ķ×ĸ×Ļ×Ŀ
Ġ×Ķ×ª ×Ľ×ķ
×ĳ ×ĳ
Ġ×ĸ ×Ļ
Ġ×Ķ×ľ ×ķ×Ĺ
Ġ×Ķ×¡×¨×ĺ ×Ļ×Ŀ
Ġ×¡ ×ķ×ĳ×ľ
×Ĳ ×ķ×ľ
×Ļ×ĺ ×ķ×Ĳ
×ĵ ×ķ×¨×¡×ľ
Ġ×ŀ×Ĺ ×ł×Ķ
Ġ×Ķ×ª ×ķ×©×ĳ×Ļ×Ŀ
×ĸ×ŀ ×ł×ª
×Ļ×¢ ×ķ×¨×Ļ
Ġ×© ×Ļ×Ľ
×ķ×§×ĺ ×ķ×¨
Ġ×Ķ×Ķ ×©
Ġ×Ĺ ×ķ×ĵ×©×Ļ
×¤×ľ ×ľ
×Ļ×ŀ ×©
Ġ×Ķ×© ×¢×Ķ
Ġ×Ķ×ŀ ×¨×Ľ
Ġ×ª ×ķ×¤×¢×ķ×ª
Ġ×ľ×¤ ×Ļ×Ķ
Ġ×ŀ×Ĵ ×ł
Ġ×¡×ĺ ×ķ×ĵ×Ļ×ķ
Ġ×¢×ĵ ×Ļ×Ł
Ġ×Ĺ×ķ×¤ ×©×Ķ
Ġ×Ķ×Ļ×© ×¨×Ĳ×ľ×Ļ×Ŀ
Ġ×Ķ×ŀ ×Ķ×¤
Ġ×ŀ×¦ ×Ļ
×¦ ×Ļ×Ĵ
Ġ×ľ×¢×ĸ ×ķ×ĳ
Ġ×Ĳ×Ĺ×¨ ×ķ×ł×Ķ
e c
Ġ×ŀ×¨ ×ķ×¦×Ļ×Ŀ
Ġ×Ĳ×ķ×ķ ×Ļ×¨×Ķ
Ġ×ª ×Ľ
Ġ×Ķ×ĺ ×¢×Ŀ
Ġ×Ķ×¢×Ļ×§×¨ ×Ļ×ª
Ġ×ľ ×Ļ×ł
Ġ×ŀ×ŀ ×¡
Ġ×ĳ×Ĺ ×Ļ×ł×ķ×ļ
' s
Ġ×ľ×ŀ ×Ľ
×ŀ×© ×Ķ
Ġ×ľ×Ķ×Ĵ×ĵ ×Ļ×¨
Ġ×Ļ×Ķ ×ķ×©×¢
×ł×ª ×Ļ×Ļ×Ŀ
Ġ×Ķ×ŀ ×Ľ×ķ×Ł
×¦×ķ×¢ ×ķ×ª
×ľ ×Ľ×Ł
Ġ×ľ×Ķ ×Ľ×¨
Ġ×ŀ ×ķ×ĳ×Ł
Ġ×ĳ×ĺ ×ĳ×¢
×Ĵ×¨ ×Ļ×Ķ
u re
Ġ×ĳ ×ł×Ļ×Ŀ
Ġ×ŀ×¢ ×¦×ĳ
Ġ×ª ×Ľ×ł×Ļ×Ŀ
Ġ×ĳ×ĺ ×ķ×ķ×Ļ×ĺ×¨
×¢×ŀ ×Ŀ
Ġ×ŀ×¡×¢ ×ĵ×Ķ
Ġ×Ķ×ĺ ×Ľ×ł×ķ×ľ×ķ×Ĵ
Ġ×¦ ×Ļ×Ļ×Ł
×ķ×Ĵ ×Ļ×Ķ
Ġ×Ķ ×ķ×¨×Ķ
Ġ×ķ×ł ×ª
Ġ×ķ×ľ ×ŀ×Ķ
×©×ĳ ×ķ
Ġ×©×Ĳ ×ł×©×Ļ×Ŀ
Ġ×Ķ×ŀ ×ª×Ĺ
Ġ×Ķ×ª×Ĳ ×ŀ×Ķ
×ķ×ĺ ×Ļ×ª
Ġ×ŀ×¤ ×ł×§
Ġ×Ķ×ª ×Ĺ×¨×ķ×ª
Ġ×ŀ×¡ ×ŀ×ļ
Ġ×Ķ×ĳ ×¢×ľ
Ġ×Ķ×Ĺ×ĳ×¨×ª ×Ļ×ķ×ª
Ġ×Ľ×ľ ×ĳ×Ļ×Ŀ
Ġ×ľ×ª ×Ĳ×¨
Ġ×ŀ×¦ ×ĺ
Ġ×ª×Ĵ ×Ļ×ķ×ª
×ķ×ľ ×ļ
×Ļ×Ĵ ×ķ×Ł
Ġ×Ĳ ×¨×Ľ×Ļ×ķ×Ł
×ķ×Ĳ ×ł×Ļ
Ġ×Ķ×Ķ ×ª×Ĺ
×ŀ×ª ×Ŀ
×ķ×ķ ×Ļ×¥
Ġ×ĳ×ķ×ķ ×Ļ×§
×§×ķ×ĵ ×Ŀ
Ġ×ľ×ŀ ×ĸ
Ġ×Ķ×¡ ×Ļ×ŀ
Ġ×Ķ×Ĺ ×ķ×ĳ
Ġ×ĳ×Ĳ ×Ĺ×ª
Ġ×ŀ ×ĸ×¨×Ĺ×Ļ
×Ľ×Ļ×¨ ×ķ
Ġ×©×Ļ ×Ļ×ļ
Ġ×ľ×Ľ×ª ×ķ×ĳ×ª
u ck
Ġ×ĳ ×Ļ×Ĳ×ľ×Ļ×§
Ġ×Ĳ ×ķ×©
Ġ×Ķ×¡ ×Ľ×ķ×Ŀ
×ĺ×Ļ ×Ļ×Ķ
Ġ×Ĳ×Ļ×© ×ķ×Ŀ
Ġ×¡×ł ×Ļ×£
Ġ×©×ĳ ×¡
Ġ×Ļ×ł ×ķ×Ĳ×¨
Ġ×Ķ×¢ ×ŀ×§
Ġ×¡ ×Ĵ×ľ
Ġ×ķ×§ ×ĳ
×¤×¡ ×ķ
×© ×Ļ×ķ×ª
Ġ×ľ×Ķ ×Ļ×©
×ľ ×¤×¨×ĺ×Ļ×Ŀ
Ġ×Ķ×ª×Ĺ×ľ ×ª×Ļ
Ġ×ŀ×ķ×¡ ×ĵ
Ġ×Ķ×ŀ ×¦×ķ
×Ĵ ×ĵ×Ļ×Ŀ
Ġ×ĳ×Ķ ×Ļ×¡×ĺ×ķ×¨×Ļ×Ķ
Ġ×Ķ×ŀ ×ķ×ĵ
×Ĵ×ķ×¨ ×¨
Ġ×¨×Ĵ ×©×ķ×ª
Ġ×Ķ×Ĳ×ľ×§×ĺ×¨ ×ķ×ł×Ļ
×Ļ×ľ ×¨
×¤ ×ł×ķ×ª
×ĳ×¡ ×¡
Ġ×ķ×ł ×Ļ×ª×Ł
×§ ×©×ª
Ġ×Ĳ×ŀ×¨×Ļ×§ ×Ĳ×Ļ
Ġ×¦ ×ķ×¨×Ķ
Ġ7 5
Ġ×Ķ×ŀ×Ĳ ×ĳ×§
Ġ×Ķ×Ĳ ×Ļ×©×ķ×Ŀ
Ġ×ľ ×ķ×ł×ĵ×ķ×Ł
×Ĺ×ª ×Ļ×ª
×§ ×ķ×ĸ×Ļ
×ŀ ×ĺ×Ļ
Ġ×ŀ×ķ×ĵ ×ľ
Ġ×ª×Ĳ ×ķ×ł×ķ×ª
Ġ×Ķ×Ĵ ×¢×ª×Ļ
Ġ×ĸ ×ķ×ľ×Ļ×Ŀ
Ġ×ķ×Ĳ ×Ĺ×¨×Ļ×Ŀ
×ķ×ĵ ×¨×ª
×ľ×§ ×ĺ
Ġ×ķ×ĳ ×ł×Ļ
Ġ×¢ ×Ļ×ĵ×Ł
Ġ×ĺ×ĳ×¢ ×Ļ×ª
Ġ×ķ×Ľ ×ŀ×ķ
Ġ×Ķ×Ĺ ×ł×ķ×ª
Ġ×ª ×ķ×¦×¨×ª
Ġ×ŀ×Ļ ×Ļ×ĵ×Ļ
Ġ×ĳ×ĵ×¨ ×Ľ×Ļ×Ŀ
×ķ×§ ×¨×Ĳ
Ġ×ľ ×ĵ×Ļ×ķ×Ł
Ġ×©×ŀ ×ª×Ĺ
Ġ×Ĳ×Ļ×¨×ķ×¢ ×Ļ
Ġ×Ĵ ×Ļ×¨×ķ×©×Ļ×Ł
Ġ×ª ×Ļ×Ľ
Ġ×ĳ×¤×¨ ×§
×¡ ×Ĵ
×¤×¨ ×Ķ
Ġ×ķ×Ľ ×ĳ×¨
Ġ×Ĺ ×ľ×Ķ
Ġ×ŀ×ķ×Ĺ ×ľ×ĺ
Ġ×Ķ×¤×¢ ×ľ×Ķ
Ġ×ª×Ļ×ł×ķ×§ ×ķ×ª
Ġ×ª×§ ×ł×ķ×Ł
Ġ×¨ ×ķ×ŀ×Ł
×¤×§ ×Ļ×Ŀ
×¤ ×ķ×¡×ĺ
Ġ×Ķ×¢ ×ľ×Ļ
Ġ×ķ×Ķ ×Ĳ×Ŀ
ĠâĨ Ĳ
Ġ×ķ ×Ļ×¡
Ġ×© ×Ľ×ł
Ġ×ľ×ª×Ĺ ×ķ×Ŀ
Ġ×ŀ×Ķ ×ł×Ķ
Ġ×Ķ×§ ×Ļ×ĳ×ķ×¥
Ġ×Ķ×ķ×¤ ×Ľ×Ļ×Ŀ
Ġ×ĳ×Ĳ ×Ļ×ľ×ª
Ġ×ª ×ķ×ª
Ġ×Ĳ×Ķ ×ĳ×ª
Ġ×Ķ×§×© ×ķ×¨×Ļ×Ŀ
Ġ×Ķ×ŀ ×ķ×ķ×ª
ic k
Ġ×ķ×ĺ ×¨
Ġ×Ķ×Ĳ ×ª
Ġ×ĳ ×Ļ×¦×Ļ×Ŀ
Ġ×Ķ×¦ ×¢×ĵ
Ġ×Ĳ ×ķ×ĸ
Ġ×Ĺ ×ŀ×Ķ
×ĺ×¨ ×Ľ×ķ
Ġ×ŀ×ķ×Ľ ×¨×Ļ×Ŀ
×Ĵ ×ľ×Ļ
Ġ×Ĳ×¨ ×¦×Ļ
Ġ×ŀ×¦×ľ×Ļ×Ĺ ×Ļ×Ŀ
×ľ ×Ļ×Ĵ×ª
Ġ×ľ×ª×¨ ×ķ×Ŀ
Ġ×Ķ×ĳ ×Ļ×ł×Ļ×Ļ×Ŀ
Ġ×ľ×ŀ ×ķ×ª
Ġ×Ķ×ł ×ŀ
Ġ×Ķ×ł×ķ×Ľ×Ĺ ×Ļ×ª
Ġ×ŀ×ŀ×© ×ľ×Ķ
Ġ×ŀ×ª ×ĳ
×ª ×¨×Ĵ×ķ×Ŀ
Ġ3 7
×Ĺ ×¡
Ġ×¡×ł ×ĺ×¨
Ġ×¨ ×Ļ×ĳ
Ġ×Ķ×¦ ×¤×ķ×Ł
Ġ×Ĺ ×ŀ×Ĳ×¡
Ġ×ĳ×¨ ×ķ×Ĺ
ub e
Ġ×ŀ ×¤×§
Ġ×Ķ×Ĵ ×ĵ×¨×ķ×ª
Ġ×¢×ŀ ×ķ×¡
×ŀ×¨ ×§
×ĳ×¢ ×Ļ×Ķ
Ġ×§ ×©×ĳ
×ķ×ĺ×Ļ ×ķ×ĳ
Ġ×ĵ×¨ ×ķ×©
Ġ×Ķ×§ ×¤×Ķ
Ġ×¢×ĳ×ķ×ĵ ×ª×ķ
Ġ×Ĺ ×ķ×ª
Ġ×Ķ×© ×Ľ×¨
Ġ×ľ×ľ×§ ×ķ×Ĺ
×ķ×ł×Ļ×ĳ×¨×¡ ×Ļ×ĺ
×© ×ŀ×¢
×¡ ×Ĳ
×Ľ ×ł×Ļ×ķ×Ł
Ġ×Ĳ×ł ×¨×Ĵ
Ġ×Ĺ ×ķ×ľ×Ķ
Ġ×ĳ×© ×ŀ
Ġ×ľ×ĳ×¨ ×¨
Ġ×ĵ ×ĳ×©
Ġ×Ĳ ×ŀ×Ł
Ġ×§ ×Ļ×ł×Ĵ
×Ļ×ł ×Ĵ×¨
Ġ×Ķ×¢×¨×ĳ ×Ļ×Ŀ
Ġ×ŀ×¡×¤×¨ ×ª
Ġ×ľ×Ķ×Ļ×¨ ×©×Ŀ
Ġ×Ĺ ×ķ×ĳ×ķ×ª
Ġ×ŀ×Ľ ×Ļ×¨×ª
Ġ×ľ×Ķ×© ×ľ×Ļ×Ŀ
_ _
Ġ×Ĳ×ķ×ł ×ľ×Ļ×Ļ×Ł
×ķ×Ĵ ×ŀ×ª
er v
Ġ×Ĺ×ł ×ķ×Ľ×Ķ
×¤×ľ×Ļ×§ ×¦×Ļ×ķ×ª
Ġ×ľ×Ķ ×ł×ķ×ª
Ġ×Ķ×ĺ ×§×¡×ĺ
Ġ×Ļ×§ ×¨×Ļ×Ŀ
Ġ×Ķ×ŀ×ķ×ĳ ×Ļ×ľ×Ļ×Ŀ
×ĳ ×ĵ×Ķ
×©×¨ ×ĵ×Ļ
Ġ×ľ×ł ×¦×ľ
×Ļ×ĸ ×ķ×ª
Ġ×Ķ×Ķ ×¢
Ġ×Ķ×ŀ ×ĳ×ĺ
Ġ×Ĳ×Ļ×ł ×¡
Ġ×ĳ×ĳ ×ł×Ļ
Ġ×Ķ×ł ×Ĵ
Ġ×ķ ×Ļ×ľ×ĵ×Ļ×Ŀ
Ġ×¡×ĳ ×Ļ×ĳ×ª
Ġ×Ĳ×ŀ ×ķ×¨×Ķ
Ġ×§ ×ķ×¨×ķ×ª
Ġ×¡×Ļ×¡ ×ŀ×Ķ
Ġ×Ľ ×Ļ×¡×ķ×Ļ
×Ĺ ×ł×ķ×ª
Ġ×Ĳ×¡ ×Ļ×Ķ
Ġ×ŀ×Ĺ ×ĸ×Ļ×§
Ġ×Ķ×Ĳ×ł ×ķ×©
u e
Ġ×ª×¤×§×Ļ×ĵ ×ķ
Ġ×©×ŀ ×¢×ª×Ļ
Ġ×ŀ×© ×ļ
Ġ×ĵ ×¨×Ľ×Ļ
Ġ×Ķ×ŀ ×ŀ×©
×ł×ĵ ×ĳ×Ļ×Ŀ
Ġ×Ĵ ×ľ×Ļ
r ip
Ġ×§ ×ķ×©×Ļ
Ġ×Ķ ×ķ×§×Ŀ
Ġ×ł ×Ļ×¡×Ķ
Ġ×¦×Ļ ×ķ×¨
Ġ×¢×ľ ×ª×Ķ
×¦×Ļ ×Ļ×Ł
Ġ×ķ×Ĺ ×Ļ
Ġ×Ķ×Ĵ ×ķ×¨×ŀ×Ļ×Ŀ
×Ĳ×ŀ ×ł×Ļ×Ŀ
Ġ×¢ ×Ļ×ľ×Ļ×ª
Ġ×¨ ×©×ľ×ł×ķ×ª
Ġ×ŀ×Ľ ×ķ×ł×Ļ×ķ×ª
Ġ×ľ×¢ ×ł×Ļ×Ļ×ł×Ļ
Ġ×ŀ×¦ ×¤×Ķ
Ġ×ľ×Ķ×¦ ×Ļ×ľ
Ġ×¢×ľ ×ķ
Ġ×Ĺ×© ×ŀ×ľ×Ļ
Ġ×ľ×ĵ×ĳ×¨ ×Ļ×ķ
Ġ×Ķ×© ×ķ×ŀ×¨
Ġ×Ķ×§×¨ ×ķ×ĳ×ķ×ª
Ġ×¡ ×ĺ×Ļ×Ļ×ľ
Ġ×ŀ×¨ ×©×Ļ×Ŀ
e ar
Ġ×Ķ×ª×Ļ ×Ļ×¨×ķ×ª
×Ļ×Ĳ ×ķ×Ŀ
Ġ×ŀ×Ĳ×¤×©×¨ ×Ļ×Ŀ
Ġ×ľ×¤ ×Ļ×Ľ×ļ
Ġ×Ķ×¡ ×ķ×£
3 00
×ķ×ł ×ł×ª
×Ķ ×©×Ĳ
×ŀ×¦ ×¢×Ļ
Ġ×©×¢ ×¨×Ļ×Ŀ
Ġ×Ĳ ×ķ×©×¨
×ĳ ×ŀ×¡×Ĵ×¨×ª
Ġ×¡×ĺ×¨ ×Ļ×ĺ
Ġ×ľ×Ķ ×¦×ľ×Ļ×Ĺ
×¤×¨ ×Ļ×Ķ
Ġ×¨ ×Ļ×¦
Ġ×ŀ×¦×Ĺ ×Ļ×§
Ġ×Ľ×ĳ ×Ļ×¡×Ķ
Ġ×¡×¤ ×¦×Ļ×¤
Ġ×Ĳ ×ĸ×¨×Ĺ×Ļ×Ŀ
×ľ×ķ ×Ļ×Ļ×Ŀ
t h
Ġ×Ķ×Ļ×¡ ×ķ×ĵ
×Ĺ×ľ ×ķ×Ł
×ĳ ×ķ×ĺ
×Ļ×ŀ ×ľ×Ļ
Ġ×ŀ×Ķ ×ĺ
Ġ×ĳ×ª×ķ×Ľ ×ķ
Ġ×Ĺ×Ļ ×Ļ×ł×ķ
Ġ×Ļ×§ ×ĳ×ľ
Ġ×Ķ×ŀ×©×ķ×ª ×£
Ö ½
×¢ ×Ļ×ķ×Ł
201 1
Ġ×Ķ×ĳ ×Ļ×§×ķ×¨×ª
Ġ×ŀ×¢ ×ł×Ļ×Ļ×ł×Ļ×Ŀ
×Ķ ×ķ×¡×¤×ª
Ġ×ľ×ĸ ×ŀ×Ł
×ķ×ł ×ł×ķ
×Ķ×Ĳ ×Ļ×ŀ×Ļ×Ļ×ľ
Ġ×ĳ×Ĳ ×ķ×¤
Ġ×¨ ×ĸ
Ġ×©×ł ×¢×¨×ļ
' -
Ġ×ľ×¢×¦ ×ŀ×Ķ
201 3
Ġ×ĳ×ŀ×Ĺ ×©×ĳ
Ġ×¤ ×ł×ķ
Ġ×ĳ×¦ ×Ķ
Ġ×Ķ×Ļ ×Ļ×Ĺ
×Ļ×¡ ×ķ
×§ ×Ĳ×ķ×ª
×ŀ×ª ×Ľ×ķ×ł×Ļ×Ŀ
×Ļ×¨ ×ķ×©×ľ×Ļ×Ŀ
Ġ×Ķ×ĵ ×ª×Ļ
Ġ×Ķ×Ĺ×§ ×Ļ×¨×Ķ
×§ ×Ļ×Ķ
Ġ×Ķ×ª×Ĳ ×ķ×ł×Ķ
Ġ×Ĵ×ĳ ×ķ×ľ
Ġ×Ķ×ŀ×§ ×¨×Ķ
Ġ×Ĳ ×Ļ×¤
Ġ×Ļ×© ×Ļ×ĳ×ª
×¡×§ ×ķ
×ĵ×¨ ×ķ
Ġ×Ĳ ×©×Ķ
Ġ×©×ł ×Ľ×ł×¡
Ġ×Ķ×Ľ×¡ ×¤×Ļ×Ŀ
×ķ×Ĺ ×ĸ×¨
Ġ×Ķ×Ĺ ×Ļ×ľ
×Ļ×¢ ×ķ×Ł
Ġ×ŀ×¡ ×Ĵ×¨×ª
Ġ×Ĳ×Ļ×Ľ×ķ×ª ×Ļ×ª
Ġ×Ķ×Ĺ ×ķ×ķ×Ļ×Ķ
âĢ¦ .
Ġ×ŀ×ķ×ĳ ×Ļ×ľ×Ļ×Ŀ
Ġ×ł ×ķ×¢×Ŀ
×Ķ ×ķ×ª
Ġ×Ķ×Ĵ×ľ ×Ļ×ľ
Ġ×¤ ×ł×ĺ
Ġ×Ĵ×ĳ×ķ×Ķ ×ķ×ª
Ġ×ĸ×§ ×ķ×§
×ķ×¢ ×ĵ×ķ×ª
×Ķ ×Ĳ×¨×¥
Ġ×Ķ×¤ ×Ļ×ª×ķ×Ĺ
Ġ×Ļ×Ķ ×ľ
Ġ×ľ×¡ ×Ļ×Ļ×Ŀ
×ķ×§ ×Ł
Ġ×¢ ×ŀ×ķ×ª×ª
Ġ×ŀ×ķ×¡ ×ŀ×ļ
Ġ×Ĳ ×ŀ×Ķ
Ġ×ł×Ļ×© ×ķ×Ĳ×Ļ×Ł
Ġ×¨×Ľ ×Ļ×©×Ķ
Ġ×ľ×ŀ×ł ×Ļ×¢×ª
Ġ×Ķ×ª×Ĺ×Ļ ×Ļ×ĳ×ķ×ª
Ġ×Ķ×¢ ×©
Ġ×¡×Ļ ×ķ×¨
Ġ×ŀ×ľ ×ŀ×ĵ
Ġ×ĳ×Ľ ×¨
o x
Ġ×©×Ĺ ×©×ķ×ĳ
Ġ×©×Ľ ×ķ×ľ×Ŀ
Ġ×Ķ×Ĺ×ľ ×ľ
Ġ×ķ×ĳ ×ľ
Ġ×ķ ×Ļ×ł
Ġ×ŀ ×©×¨×Ķ
×Ļ×¤ ×ķ×Ĺ
Ġ×Ķ×ĳ×Ļ×ĺ ×ķ×Ļ
Ġ×ŀ ×Ļ×§
Ġ×ĳ×ĵ ×Ļ×¨×Ķ
Ġ×ķ×ŀ ×Ĳ×¤×©×¨
Ġ×ŀ×ķ×¨×Ľ ×ĳ×ª
Ġ×ķ ×Ļ×Ľ×ķ×ľ
Ġ×ŀ×ľ×Ĳ ×Ļ×Ŀ
×ŀ×¨ ×ĺ
Ġ×ª×Ĺ ×ĸ
Ġ×Ļ×ĵ ×¢×ķ
Ġ×Ķ×¤ ×ķ×ļ
Ġ×Ļ×© ×ł×Ł
Ġ×ŀ×© ×ľ×ĳ
Ġ×ĸ×§ ×Ł
Ġ×ŀ×Ĳ ×Ĵ×¨
Ġ×ł ×ķ×ĳ×ŀ×ĳ×¨
Ġ×¨ ×Ļ×Ĳ×ľ
?? ?
×§ ×¦×Ļ×Ķ
×© ×¢×ķ×ª
×Ļ×¡ ×ķ×¨
Ġ×ŀ ×Ļ×ĺ×ĳ
×Ķ×Ļ×¨ ×©×Ŀ
Ġ×Ķ×Ĵ ×Ł
Ġ×ľ ×ĺ×Ļ×ķ×ľ
×ł×Ĺ ×Ļ×ķ×ª
×Ĳ ×ŀ×Ĳ
Ġ3 9
Ġ×Ķ ×ķ×ķ×ª
×ķ×ĸ ×¨×Ļ×Ŀ
Ġ×Ķ×¤ ×ķ×¨×ķ×Ŀ
×Ĳ×Ķ ×ĳ×Ķ
Ġ×ĳ×Ĳ ×¤×©×¨×ķ×ª
×Ĵ ×ľ×ķ×ª
×ľ×Ĵ ×ĳ×Ļ
Ġ×ľ×¢ ×ĳ×¨×Ļ×ª
Ġ×ŀ×¦ ×ľ×Ļ×Ĺ×Ķ
Ġ×Ľ×©×Ķ ×Ŀ
Ġ×Ķ×ŀ×¡ ×¤×¨
Ġ×Ķ×Ĺ×ľ ×Ļ×ĺ×Ķ
Ġ×Ĳ×ł ×ĵ
Ġ×¤×ķ×¨ ×ĺ×ľ
×ĸ×¨ ×Ĺ×ķ×ª
Ġ×Ĳ×Ķ ×ĳ×ķ
Ġ×ľ×Ķ×Ĺ×ĸ ×Ļ×§
Ġ×ŀ×Ĺ ×Ļ×Ļ×ĳ
a h
Ġ×ĺ×ķ×¢ ×ł×Ļ×Ŀ
Ġ×ĳ×© ×ĵ×Ķ
Ġ×¤ ×Ļ×ª
Ġ×ŀ ×ŀ×¨
Ġ $
×ŀ ×Ľ×ķ×ª
Ġ×Ķ×ŀ×¢×¨ ×¢×¨
Ġ×Ķ×¦ ×ľ×Ļ×Ĺ×Ķ
Ġ×Ļ×ĵ ×Ļ×ĵ×ķ×ª
Ġ×Ļ×© ×ª
Ġ×Ķ×ķ×ĵ ×ķ
×Ĺ ×ĸ×¨×Ķ
Ġ×¢ ×Ļ×¡×ķ×Ļ
Ġ×ľ×ĳ ×ł×Ļ×Ŀ
Ġ×Ķ×Ĳ×Ĵ ×ķ×ĵ×Ķ
Ġ×Ķ×ª ×ķ×Ľ×ł×Ķ
×ł×§ ×Ķ
Ġ×© ×Ļ×ŀ×ķ
×Ĵ×ľ ×Ļ×ľ×Ķ
×ĳ ×ŀ×Ļ×ĵ×Ķ
Ġ×ķ×Ĺ ×©
Ġ×Ķ ×ķ×ķ
×¤ ×ķ×¢×ľ
Ġ×ª×¢ ×©×Ļ×Ļ×ª
×ķ×Ĺ ×ĵ×ª
×Ļ×ľ ×Ĳ
Ġ×¢ ×ķ×¤×¨
Ġ×©×ŀ ×ł×ª
Ġ×Ĵ ×Ļ×ľ×Ķ
Ġ×¨×Ľ ×ĳ×Ļ×Ŀ
Ġ×ª×¢ ×©×Ķ
Ġ×©×Ļ×¢ ×ķ×¨×Ļ
Ġ×Ķ×Ļ×¦ ×Ļ×¨×Ķ
Ġ×ĳ×Ķ×¨ ×Ļ×ķ×Ł
Ġ×Ĺ ×ķ×ķ×Ļ×ª
Ġ×ķ×ŀ ×ª×§
Ġ×Ķ×Ľ×¨ ×ŀ×ľ
Ġ×Ķ×¨×© ×Ļ×ŀ×Ķ
Ġ×ŀ×ĳ ×Ļ×ł×Ķ
Ġ×Ĺ ×ł×Ļ×Ķ
Ġ×Ĳ×ľ ×ĺ×¨×ł×ĺ
Ġ×Ķ×Ĳ ×ª×¨×Ļ×Ŀ
Ġ×ĳ×¨×Ĳ ×©×ķ×ª
Ġ×©×Ĺ ×ľ×§
Ġ×Ķ×Ķ×©×§ ×¢×Ķ
7 2
Ġ×Ķ×Ļ×© ×Ł
×Ĳ ×Ļ×ŀ×Ļ×Ļ×ľ
×ĳ×Ĺ ×Ļ×Ł
Ġ×ľ ×Ļ×ĺ×¨
Ġ×ĸ×ŀ ×ł×Ļ×ª
Ġ×¡ ×ķ×¦×Ļ×Ĳ×ľ
Ġ×ĳ×Ľ ×Ļ×¨×Ļ×Ŀ
Ġ×Ĺ×ĳ×¨×ª ×Ļ×Ļ×Ŀ
×ķ×ŀ ×ĵ×ª
×Ļ×¢ ×ķ×¨×Ļ×Ŀ
×Ļ×ª ×ķ×ļ
Ö¶ Ö¼
Ġ×Ļ×ª ×§×Ļ×Ļ×Ŀ
×Ĳ ×Ļ×ł
A T
×Ķ×¤ ×ķ×ļ
Ġ×Ľ×ª ×ĳ×Ļ
×Ķ ×Ļ×Ļ×ª×Ļ
×ĵ ×ł×Ķ
Ġ×Ķ ×ķ×¦×Ļ×Ĳ
×ĳ×Ĺ×¨ ×ķ
×ķ ×ķ×ľ
×Ļ×ľ ×ķ×ŀ×Ļ×Ŀ
Ġ×Ĳ×ľ ×Ļ×Ļ
×ł ×Ľ×ª×ĳ
×Ļ×ĵ ×ļ
Ġ×ĵ ×Ļ×ł
Ġ×ľ×Ĳ ×ķ×ŀ×Ļ×ª
Ġ×ķ×Ķ×¨ ×ĳ×Ķ
×Ĳ×ķ×ª ×Ķ
Ġ Q
Ġ×ľ×¨ ×¦
Ġ×ŀ×¨ ×Ĺ×ĳ
Ġ×ķ×ľ ×ĳ
Ġ×Ĳ ×¨×Ľ
Ġ×ľ×Ķ×¡ ×Ļ×¨
Ġ×ĳ×ľ×ķ×ł×ĵ ×Ļ×ł×Ļ×ª
Ġ×ķ×ĳ ×¢×ľ
Ġ×¤×ł ×Ļ×ŀ×Ķ
Ġ×Ķ×ĳ×ĵ ×Ļ×§×Ķ
Ġ×Ķ×Ķ×ľ ×Ľ×Ķ
Ġ×ª ×ľ×ª
×¦×Ķ ×Ļ×¨
Ġ×ľ×¢ ×ķ×ĳ×ĵ×Ļ×Ŀ
Ġ×¡×¨×ĺ ×ķ×Ł
Ġ×ĵ×¨ ×ķ×©×Ļ×Ŀ
Ġ×Ĵ ×ķ
Ġ×ĳ×ŀ ×ª×Ĺ×Ŀ
Ġ3 3
Ġ×§ ×ķ×ŀ×ķ×ª
Ġ×©×§ ×Ļ×ĳ
×¨×ĺ ×Ļ×ķ×ª
×ķ×ĵ ×Ļ×Ķ
×Ļ ×Ļ×ŀ×¡
Ġ×Ĺ ×ŀ×ķ×ĵ
Ġ×§ ×ķ×ł×¡
Ġ×ŀ×¢×ł×Ļ ×Ļ×ł×ª
Ġ×©×ľ ×¤
Ġ×Ĺ×¨ ×ĵ×Ļ×Ŀ
×ķ×¤ ×¨×ª
Ġ×ľ×ŀ ×ª×Ł
Ġ×Ķ×¢ ×ĳ×¨×Ļ
Ġ×ŀ×Ĵ ×ł×ĺ×Ļ×Ŀ
Ġ ×Ļ×ĺ
Ġ×ľ×¢ ×Ŀ
Ġ×ŀ×ķ×ĵ ×¢
×ķ×ł ×ł×Ļ×Ŀ
Ġ×ľ×Ĺ ×Ļ×ł×ķ×ļ
Ġ×Ķ×Ľ ×Ĺ
Ġ×ĳ×Ĳ ×Ĵ
Ġ×§ ×ķ×ķ×Ļ
Ġ×ľ×ŀ ×ł×Ķ
Ġ×Ĳ×¤×¨ ×Ļ×ľ
×ĺ ×Ļ×¤×Ļ×Ŀ
Ġ×Ķ×ł ×ķ×Ĵ
Ġ×Ķ×¦ ×Ļ×ľ×ķ×Ŀ
Ġ×¤ ×ķ×ł×Ķ
ĠE x
Ġ×ľ×ĵ ×ķ×Ł
Ġ×Ķ×ª ×ł×Ĵ×ĵ×ķ×ª
×Ļ×¦ ×ķ
Ġ×Ķ×ŀ ×Ľ×ľ×ľ×Ķ
Ġ×ĳ×Ķ ×©×ķ×ķ×Ĳ×Ķ
Ġ×ĳ×ľ ×¢×ĵ
Ġ×©×Ķ ×Ĺ×ľ
Ġ×Ķ×¢ ×¥
p p
Ġ×Ĳ×ŀ ×ķ×Ł
Ġ×©×ĳ ×©
Ġ×ĵ ×¨×Ĵ
Ġ×Ķ×ķ×¤ ×Ľ×ª
×Ľ×ľ ×ķ×ŀ×¨
Ġ×ĳ×ª ×ķ×¨×Ķ
×Ļ×ĵ ×Ļ×¢×ķ×ª
Ġ×ĵ×¨ ×Ļ×©×ķ×ª
Ġ×ł ×ķ×Ľ×Ĺ×ķ×ª
Ġ×¦×¤ ×Ļ×ķ×ª
Ġ×ľ×Ĳ ×ŀ×ł×ķ×ª
Ġ×¢×ľ ×Ļ×Ķ×Ł
Ġ×ĳ×ķ×ĵ ×ĵ
Ġ×Ķ×ª×¢ ×©×Ļ×Ļ×Ķ
Ġ×Ĳ×¨ ×ķ×Ĺ×ķ×ª
Ġ×ŀ×Ĵ ×¨
×ĳ×§ ×©×Ķ
Ġ×Ķ×¡ ×¢×ķ×ª
Ġ: :
Ġ×Ķ×¨ ×¤×ķ×Ĳ×Ķ
Ġ×¡ ×¤×ĺ×ŀ×ĳ×¨
Ġ×ŀ×©×ª×ª ×¤×Ļ×Ŀ
Ġ×Ĳ×Ļ×ĺ ×ľ×§
Ġ×Ķ×ł×ª ×ĳ×¢×Ļ×Ŀ
r y
Ġ×Ķ×§×¨ ×Ł
Ġ×ŀ×ĺ×¨ ×ª
Ġ×ĸ×ķ×Ĵ ×Ļ×ķ×ª
Ġ×© ×Ļ×ĺ×Ķ
×ĵ ×Ļ×ľ×ķ×Ĵ
Ġ×Ĵ×¨ ×ķ×¢
Ġ×Ķ×¡ ×ķ×¤×¨
Ġ×Ľ×ĵ ×Ļ×Ł
×ľ×Ĺ ×Ŀ
5 3
×¨×ĺ ×Ļ×Ŀ
×ĳ×¨ ×Ĳ×©
Ġ×Ĺ ×Ľ×ŀ×Ķ
Ġ×Ķ×Ĺ×ľ ×¤×ª
Ġ×ĳ×Ķ×ª ×Ĳ×ŀ×Ķ
Ġ×¨×Ĳ ×Ļ×Ķ
Ġ×Ĳ ×ķ×¡×£
Ġ×©×¨ ×ķ×ĳ
×Ĺ ×Ļ×ľ×Ķ
Ġ×Ķ×Ĺ×¨ ×ĵ×Ļ
Ġ×ĳ×ĳ×Ĺ ×Ļ×¨×ķ×ª
C D
Ġ×ĵ ×¤×Ļ
Ġ×Ķ×ŀ×© ×Ļ×ļ
Ġ×ª×Ĺ ×ľ×Ļ×£
Ġ×ĳ×Ķ ×Ļ×¨
Ġ×¤×¨ ×Ļ×ĵ
×Ļ ×Ļ×ŀ×Ķ
Ġ×¢ ×©×ª×Ķ
Ġ×ķ×ĳ ×Ļ×§
×Ĳ×ĵ ×Ĵ
Ġ×Ķ×Ļ×§ ×£
Ġ×ĳ×Ķ×ª×Ĺ ×ľ×Ķ
×¢ ×ł×ª
Ġ×Ķ×¢ ×ŀ
ĠI D
5 4
×Ļ×© ×ķ×Ļ
×ŀ×¦ ×Ļ×Ĳ×ķ×ª
×Ĳ ×Ļ×¨×ķ×¢×Ļ×Ŀ
Ġ×ĵ×ĳ×¨ ×Ļ×ķ
×ķ×© ×Ł
×ķ×ĳ ×Ļ×ª
×Ļ×ĺ ×ľ×§
Ġ×ŀ×ķ×§×ĵ ×ŀ×ª
×Ļ×© ×ķ×ľ
Ġ×Ķ×ŀ ×ŀ×ķ×§
Ġ×Ķ×© ×Ļ×¤
Ġ×Ĺ×§ ×Ļ×¨×Ķ
Ġ×ª ×ķ×¦×Ĳ×Ķ
×ŀ×ł ×Ľ
×Ĵ ×¨×Ļ
Ġ×§ ×ľ×ķ×ª
5 1
Ġ×ŀ×§ ×ķ×¨×Ļ
Ġ×Ķ×ŀ ×ķ×ĵ×¢×ķ×ª
Ġ×Ľ×Ķ ×Ķ
×ĺ ×ķ×¡
Ġ×ľ×ŀ ×Ļ×ĵ×¢
Ġ×ĳ×ľ ×ķ×ł×ĵ×ķ×Ł
×¡×¨×ĺ ×Ļ×Ŀ
Ġ×ł ×¨×Ĳ×Ļ×Ŀ
ow n
×ĺ ×§
×Ķ ×ķ×ĵ×¢×Ķ
Ġ×© ×ĵ×¨×ķ×ª
Ġ×Ķ×¢ ×©×¨×Ķ
Ġ×Ļ×¦ ×Ĳ×Ķ
Ġ×Ľ×¤ ×ķ×ľ
Ġ×ŀ×ŀ ×¨×Ľ×ĸ
Ġ×Ĺ ×ķ×¨×£
Ġ×ľ×¤×Ĵ ×ķ×©
Ġ×ķ×ŀ ×Ļ×ĵ×¢
Ġ×ĳ×Ĳ ×Ļ×ŀ×Ļ×Ļ×ľ
Ġ×ľ×ª ×Ļ×ł×ķ×§
Ġ×ĳ×Ĳ ×Ĺ×¨×Ļ×ķ×ª
×Ļ×¨ ×ķ×§
5 2
×ª ×Ļ×§
Ġ×Ķ×Ĳ ×ķ×ľ
Ġ×Ĳ×ŀ ×Ļ×¨
Ġ×Ķ×ķ×ĳ ×ľ×ķ×ª
Ġ×ł×ķ×ª ×ł×ª
Ġ×ĳ ×ł×ĺ
Ġ×ŀ×¢ ×§×ĳ
Ġ×Ķ×§ ×Ļ×¨
Ġ×§×ĺ ×Ĵ×ķ×¨×Ļ×ķ×ª
Ġ×ĳ×ľ ×©×ķ×Ł
×ĺ ×ķ×£
Ġ×¡ ×Ĺ×¨
×ŀ ×ķ×¦×¨×Ļ×Ŀ
Ġ×ľ×ŀ ×ŀ×©
×ľ×ķ ×ķ×Ĳ×Ķ
×Ķ ×Ļ×ķ
×¡×ª ×Ľ×ľ
Ġ×Ķ×Ĵ ×ŀ×¨
×ķ×ĺ ×ķ×§×ķ×ľ
×ł ×ł×ª
Ġ×ŀ×ķ×ĳ ×ł×Ķ
×§×ĳ ×ķ×¦×Ķ
×ģ Ö´
Ġ×©×Ļ×¤ ×ķ×¥
Ġy net
Ġ×Ĺ×ĵ×¨ ×Ķ
Ġ×ĳ×§ ×ķ×¨×¡
Ġ×ľ×Ľ ×ł×¡
×ŀ ×Ļ×§×ķ×Ŀ
Ġ×ª×Ĺ ×ķ×ŀ×Ļ×Ŀ
Ġ×¡ ×ķ×¨
e e
Ġ×¨ ×ŀ×Ķ
Ġ×Ķ×Ĵ×ķ×ľ ×Ł
Ġ×ľ×ŀ×© ×¤×Ĺ×Ķ
Ġ×ľ×¦ ×ľ×Ŀ
Ġ×© ×ķ×Ĳ×ľ
Ġ×©×Ķ×Ĵ ×Ļ×¢×ķ
Ġ×Ķ×Ĳ×¤×©×¨ ×ķ×Ļ×ķ×ª
Ġ×ŀ×Ľ ×ķ×ł×ª
×Ľ ×ŀ×ķ×ĳ×Ł
Ġ×¤ ×Ļ×ł×Ķ
×ĺ×Ļ ×Ļ×ł×ķ×ª
r i
Ġ×©×ľ ×¤×ł×Ļ
Ġ×ĳ×ª ×ŀ×ķ×ł×Ķ
Ġ×ŀ×¨×ª ×§
Ġ×ĳ ×ļ
×Ĺ×ª ×ª
Ġ×Ĳ ×¤×¡
Ġ×©×Ľ ×ĸ×Ķ
Ġ×ª×© ×Ľ
Ġ×ŀ×¢ ×©×Ļ
Ġ×Ĳ×ĳ ×§×ª
×ł ×ķ×ĳ
b er
Ġ3 4
×Ļ×ŀ ×Ļ×Ķ
Ġ×Ķ×ł ×Ľ
×¤×ľ ×ĵ
×¤ ×Ĳ×ª
Ġ×©×ŀ ×ĳ
a f
Ġ×Ķ×ŀ×© ×Ļ×ĳ×Ķ
Ġ×Ķ×ł ×Ĵ×ĳ
Ġ×©×¢ ×ĵ
×Ĳ ×ĸ×ķ×¨
×Ĳ×ª ×¨×Ļ×Ŀ
ĠâĤª .
Ġ×Ľ×©×Ķ ×Ļ×Ĳ
Ġ st
×ķ×Ĵ ×ŀ×Ķ
c he
Ġ×ľ ×Ļ×Ĵ×ª
Ġ×ĳ×ŀ×ĵ ×Ļ×ł×ķ×ª
Ġ×Ķ×ŀ ×ł×Ļ×ķ×ª
Ġ×Ķ×¡ ×Ļ×Ľ
Ġ×Ķ×ķ×§ ×ŀ×Ķ
Ġ×ŀ×¤ ×ķ×¨
Ġ×Ķ×Ĵ ×Ĳ×ķ×Ł
Ġ×ł×Ĵ ×ŀ×¨
×Ĺ ×Ļ×ł×ķ×ļ
Ġ×ŀ ×Ļ×ĺ
Ġ×© ×ª×¨
Ġ×ŀ×©×§ ×Ļ×¢×Ļ×Ŀ
Ġ×ł×ĳ×Ĺ×¨ ×ª
Ġ×ķ×§ ×ľ
Ġ×¤×Ĵ ×Ļ×©×Ķ
Ġ×§ ×¨×Ĳ×ķ
Ġ×ĳ×¨ ×Ļ×ĺ×ł×Ļ×Ķ
Ġ×©×Ļ×§ ×ķ×ľ
Ġ×Ķ×Ľ×ľ×Ľ×ľ ×Ļ×ª
Ġ×¤ ×ķ×Ĵ×¢
Ġ×ł×Ļ×¦ ×Ĺ×ķ×Ł
Ġ×ĳ×¡ ×Ļ×Ł
×Ļ×ł ×Ļ×Ķ
Ġ×Ķ×ĵ×¨ ×Ľ×Ļ×Ŀ
×ľ×ķ ×ķ×ª
Ġ×Ĳ×Ĺ×¨ ×ķ×Ł
Ġ×ĳ×ª ×Ĺ×¨×ķ×ª
Ġ×© ×ķ×ķ×Ļ×Ŀ
Ġ×©×Ķ ×Ľ×ľ
Ġ×©×ŀ ×ĺ×¨
×Ļ×ķ×ª ×ķ
Ġ×ľ×© ×Ĳ×ľ×Ķ
Ġ×©×Ķ ×ķ×¦
Ġ×Ķ×Ķ×¦ ×ľ×Ĺ×Ķ
Ġ×ĵ ×¤×Ļ×Ŀ
l y
Ġ×ł ×¤×ľ
Ġâ Ĺ
Ġ×¢ ×ĵ×Ļ
Ġ×Ļ ×ķ×Ĵ
Ġ×Ĳ×ķ×¨ ×ĸ
Ġ×Ķ×Ĺ ×Ļ×ł
Ġ×©×ķ×ª ×£
×ķ×ŀ ×Ļ×Ķ
Ġ×ª ×ŀ×¦
Ġ×ŀ ×Ļ×©
×Ĺ×¨ ×Ķ
Ġ×ĳ×¦ ×Ļ×ĳ×ķ×¨
Ġ×ŀ×ķ×ĳ ×Ļ×ľ×Ķ
×ŀ×ľ ×¦×Ķ
Ġ×ł ×ķ×Ľ×Ĺ
Ġ×ł ×ķ×§
Ġ×©×¢ ×ĵ×Ļ×Ļ×Ł
Ġ×¢ ×©×¨×Ļ×Ŀ
Ġ×ĵ ×ķ×ĳ×¨
×ŀ×¦ ×¢×ķ×ª
ĠR es
Ġ×ŀ×¨ ×¥
×Ļ×¦ ×Ļ
Ġ×ĵ ×¦×ŀ×ĳ×¨
×ª ×¤
Ġ×ĳ×Ķ ×ķ×¨
×Ļ×¤ ×ķ×¨×Ļ
ĠH D
Ġ×Ķ×Ľ ×ķ×Ľ×ĳ×Ļ×Ŀ
Ġ×Ķ×ľ×Ķ ×§×Ķ
Ġ×ķ×Ļ×§ ×Ļ×ł×ª×ķ×ł×Ļ×Ŀ
×© ×Ļ×ķ×ķ×§
Ġ×Ĳ ×¡×ª
Ġ×ľ×¡ ×Ĵ×ķ×¨
Ġ×¤×¨×ķ×¤ ×Ļ×ľ
×ł×¦ ×Ĺ
Ġ×Ķ×ŀ×©×ª×ŀ×© ×Ļ×Ŀ
Ġ×Ķ×ĳ×¢ ×Ļ×ķ×ª
Ġ×ŀ×ĳ×§ ×©×Ļ×Ŀ
Ġ×ľ×ľ ×Ļ×ŀ×ķ×ĵ×Ļ
Ġ×Ķ×Ļ×Ķ ×ĵ×ķ×ª
×ĸ×§ ×Ķ
Ġ×ĳ×Ĳ ×ĵ
Ġ×§×¨×Ĳ ×ª×Ļ
Ġ×Ķ×§ ×ľ×Ĳ
Ġ×¡×¤×¨ ×ķ
×Ĵ×ĵ ×ķ×ľ
Ġ×© ×Ļ×¨×Ļ
en d
Ġ×ĳ×Ĳ ×ķ×ł×Ļ×ĳ×¨×¡×Ļ×ĺ×Ķ
Ġ×ľ×ŀ ×©×§
Ġ×ĵ ×ķ×Ĺ
×ľ ×ŀ×©×ľ
Ġ×Ĳ ×Ĺ×Ļ
Ġ×Ľ×ľ ×ĳ
Ġ×Ķ×¤ ×Ļ×ł
Ġ×ľ×Ķ ×ķ×¤×Ļ×¢
×ķ×ĺ ×Ł
×Ĳ×ł ×¨
Ġ×ª×¨ ×¦×ķ
Ġ×Ĳ×Ķ×¨ ×ķ×Ł
Ġ×ĳ×¦ ×ĳ×Ĳ
Ġ×Ķ×¡ ×Ļ×ĳ×ķ×ª
×ŀ×ĳ ×¦×¢
×ĳ×¢ ×§×ĳ×ķ×ª
Ġ×¨ ×ķ×Ł
×Ļ×ľ ×ª×Ļ
×ª ×ķ×Ľ×ł×Ļ×ª
×ł ×ł×ķ
A L
Ġ×ŀ×¡×ª ×ĳ×¨
Ġ×ŀ×ª ×Ľ×ł
Ġ×ĳ×ŀ×© ×¤×Ĺ×Ķ
Ġ×Ĳ×Ĺ ×¨×Ĳ×Ļ×ª
201 0
Ġ×ŀ×© ×ĺ×¨×ª
×¤×¡ ×ķ×ª
Ġ×Ļ×¦ ×Ļ×Ĳ×Ķ
Ġ×ŀ×ª×Ľ×ķ ×ķ×Ł
Ġ×© ×Ļ×¡
Ġ×ĳ×ĳ×¢ ×ľ×ķ×ª
Ġ×ŀ×¡ ×ķ×Ľ×Ł
×ľ×§ ×¡
Ġ×Ķ×© ×ķ×ª
Ġ×ķ×Ĳ ×Ļ×¨×ķ×¢×Ļ×Ŀ
Ġ×¡×ĳ ×Ļ×ĳ×Ķ
Ġ×Ķ×Ķ ×©×¤
Ġ×ľ×ŀ×Ĺ ×©×ĳ
×ĸ×ŀ ×ķ×¨×ª
Ġ×ľ×¦ ×¨×Ľ×Ļ×Ŀ
Ġ×©×ł ×ķ×¦×¨
Ġ×ŀ×ĸ ×ķ×ł×ķ×ª
Ġ×Ĳ ×ĺ×¨×§×ĺ
Ġ×Ķ×ŀ ×Ļ×ľ
×Ĺ×ª ×Ł
Ġ×ŀ ×ľ×ĳ
×Ļ×©×Ķ ×Ļ
Ġ×ĳ ×¨×Ľ×ķ×ª
Ġ×§×ĳ ×¦×Ļ×Ŀ
tit le
×Ļ×ĺ ×¨×Ļ
Ġ×ł×¡ ×Ļ×ķ×Ł
Ġ×Ķ ×Ļ×ķ×ª×¨
Ġ×ł ×¨×©
Ġ×Ķ×ª×Ĺ×ª ×ķ×Ł
ĠB l
Ġ×Ķ×Ľ ×ķ×Ĺ×ķ×ª
×Ķ×¨ ×©
Ġ×ķ×Ľ ×Ļ×¦×ĵ
Ġ×¢×ĵ ×Ľ×ķ×Ł
Ġ×ľ×ĳ ×ª×Ļ
Ġ×ĳ×Ķ ×ĵ×¨
Ġ×Ĳ×Ĺ ×Ļ×ķ
Ġ×Ĵ×ľ ×Ļ×ľ
ĠCook ie
Ġ×Ķ×§×ĳ ×ķ×¦×ķ×ª
×ķ×¦ ×ŀ×Ķ
Ġ×ł ×Ļ×Ķ
Ġ×ľ×¢ ×ķ×ĵ
P S
×ł×ĺ ×Ļ×Ļ×Ŀ
Ġ×ŀ×¢ ×ł×Ļ×§
Ġ×Ľ×ľ ×Ľ×ľ×Ķ
Ġ×ŀ×ª ×Ľ×ª
Ġ×¨×Ľ ×ķ×©
Ġ×Ĺ×ľ ×ľ
×Ĳ ×¨×Ķ
Ġ×¨ ×ķ×¤×Ĳ×Ļ×Ŀ
×ŀ ×Ļ×Ĺ×Ķ
Ġ×ĳ×¢ ×ł×£
Ġ×ĳ×Ĺ×¨ ×ķ
Ġ×¤×¨ ×§×Ļ×Ŀ
Ġ×Ķ×ŀ×Ĺ ×ĳ×¨
×Ľ ×ķ×¨×Ķ
Ġ×Ķ×Ļ×ª×¨ ×ķ×ł×ķ×ª
Ġ×Ķ ×Ļ×¦×¨
Ġ×Ķ×Ľ ×©×¨×Ķ
g er
Ġ2 50
Ġ×ĺ ×Ľ×ł×Ļ×ª
Ġ×ŀ ×Ļ×ĵ×ª
Ġ×ª×Ĺ ×ł×ķ×ª
Ġ×ĳ×¢ ×ľ×Ķ
×ŀ×¦ ×Ĳ×ª
Ġ×ª×Ĵ ×ķ×ĳ×ª
Ġ×Ĺ ×ŀ×ķ×¨
×ĳ×§ ×©×ª
×ŀ×ķ×ĵ ×ĵ×Ļ×Ŀ
×Ĳ×¨×ĺ ×¤×ķ×Ł
Ġ×© ×ķ×¤
Ġ×Ķ×ŀ ×ķ×Ľ×¨
Ġ×©×Ļ×ŀ×ķ×© ×Ļ
Ġ×¨ ×Ĺ×ľ
Ġ×ŀ×§×¦×ķ×¢ ×Ļ×ķ×ª
Ġ×ª×Ĺ×ª ×ķ×Ł
×ķ×Ĵ ×Ļ×ª
Ġ×ŀ×¤×ª ×Ļ×¢
Ġ×Ķ×ŀ ×¤×ª×Ĺ
Ġ×ľ×ĳ×¨ ×Ļ×Ĳ×ķ×ª
×¢×¨ ×Ļ×ļ
×ķ×ŀ ×¨×ª
Ġ×Ķ×¡ ×Ľ×ŀ×Ķ
Ġ×ŀ ×Ļ×ĺ×ķ×ª
×§×¨ ×Ļ×ª
Ġ×ľ×Ļ ×Ļ×©
Ġ×ľ×Ķ×¨×Ĺ ×Ļ×ĳ
o om
Ġ×Ķ×§ ×Ļ×©×ķ×¨
Ġ×ŀ×Ĳ ×ŀ×Ł
Ġ×ĳ×¢ ×Ļ×ª×ķ×Ł
Ġ×Ķ×Ĳ×ŀ×¨×Ļ×§ ×Ĳ×Ļ×ª
Ġ×ŀ×¡ ×§
×ª ×Ļ×Ĳ×ķ×¨
Ġ200 3
Ġ×Ķ×ŀ ×ķ×¢×ĵ×ķ×Ł
Ġ×Ľ×ª ×ĳ×ª×Ļ
×ķ×Ķ ×ĳ×Ļ×Ŀ
×ĳ ×ĵ×Ļ×Ŀ
Ġ×Ķ×¢×ķ×ľ ×ŀ×Ļ×ª
Ġ×Ķ×Ĵ ×¢×ł×ķ
Ġ×ĳ×ŀ×¦ ×Ļ×Ĳ×ķ×ª
×¤×¨×¡ ×ŀ×Ļ×Ŀ
Ġ×ŀ×ĳ ×ķ×§
Ġ×ķ×ŀ ×¤
Ġ×Ĺ×ľ ×ķ×ł×ķ×ª
Ġ×ł×Ľ ×¡
×§ ×ķ×Ł
Ġ×¨ ×ķ×ĵ
Ġ×Ķ×ŀ×Ľ ×ķ×ł×Ķ
×ĵ ×ķ×ľ
Ġ×ł ×ŀ×¨
Ġ×Ķ×ĵ ×ķ×Ĳ
Ġ×Ľ×¨ ×ŀ×ľ
Ġ×¢×ł×§ ×Ļ×ª
Ġ×Ĳ×ŀ ×ķ×¨×Ļ×Ŀ
O R
Ġ×Ĳ×¨ ×ķ×Ľ×Ļ×Ŀ
Ġ×ĵ ×ª×Ļ
Ġ×Ķ×¦ ×ľ×Ĺ×ª
Ġ×ŀ×¡ ×ķ×ŀ×ł×Ļ×Ŀ
Ġ×Ķ×ŀ×ĺ ×ķ×¤×ľ
Ġ×Ĺ×Ļ×ķ×ĳ ×Ļ×ª
×ĳ×Ķ ×Ļ×¨
×ľ ×ķ×¨
×ķ ×ķ×ł×ķ×ª
Ġ×ĳ×§ ×¦×ĳ
Ġ×¢×¡×§ ×Ķ
Ġ×ŀ×ķ×Ľ ×ł×Ķ
×¨×© ×Ļ×ŀ×Ķ
Ġ×©×ł ×ª×Ļ
8 8
Ġ×ŀ×ŀ ×§×ķ×Ŀ
×ķ×¡ ×Ļ×Ł
×¤×ª ×Ļ×¢
×ŀ×Ļ ×Ļ×Ł
Ġ×ĳ×§ ×Ļ×¦×ķ×¨
Ġ×Ķ×¢ ×¨×ĳ×Ļ×ª
Ġ×Ķ×¢ ×¨×Ľ×Ķ
Ġ×Ķ×Ĳ ×§
×ŀ ×ķ×ŀ×ľ×¥
Ġ×ł×© ×ľ×Ĺ×Ķ
Ġ×©×ł×¢ ×©×Ķ
×Ļ ×Ļ×ŀ×Ļ×Ŀ
Ġ×ł×¢×ľ ×Ļ×Ļ×Ŀ
×Ļ×ĸ ×ŀ×Ļ×Ŀ
Ġ×ĳ×ŀ×© ×¤×ĺ
Ġ×¤×ķ×ª ×Ĺ
×Ĳ×ľ ×ľ×Ķ
Ġ×§ ×ķ×ľ×ķ×ª
Ġ×Ķ×Ĺ×ľ×Ļ×ĺ ×ķ
×¤ ×ł×ķ
Ġ×ĺ×Ļ×¤ ×ķ×Ĺ
Ġ×ĳ×¡×Ļ×¡ ×Ļ
×ķ×ľ ×ľ×ª
Ġ×¤ ×ł×Ļ×ķ
Ġ×¡ ×ĵ×¨×Ķ
×¤ ×ķ×ĳ×ľ
×Ļ ×Ļ×¨
Ġ×§ ×Ļ×©
Ġ×ķ×Ĺ ×ľ
Ġ×ķ×ŀ ×ŀ×©
Ġ×Ķ×© ×Ĺ×ķ×¨
Ġ×ŀ×ŀ ×ĵ
×ŀ×Ķ ×ķ
ar y
ed ia
×ķ×¦ ×Ļ×Ķ
Ġ×ŀ×¨ ×¤×¡×ª
Ġ×ĳ×ª ×ł×Ĳ×Ļ×Ŀ
×Ļ×¦ ×Ĳ
Ġ×Ķ×¨ ×ķ×ĳ
Ġ×ĳ×Ľ×ľ ×Ļ
Ġ×ŀ×ĳ ×§×¨
×ŀ×Ĳ ×§×ķ
Ġ×ľ×Ķ×§ ×ŀ×ª
×ł×¡ ×Ļ×Ļ×Ŀ
Ġ×Ķ×¢×¦ ×ŀ×Ļ
Ġ×Ĳ×¨×Ĵ ×ķ×ł×Ļ×Ŀ
Ġ×ľ×ª ×ľ
×ķ×¨ ×ª×Ļ
Ġ×ŀ×ľ ×Ľ×ª
Ġ×ľ×© ×Ľ×ª
Ġ×ķ×ĳ ×Ķ×ª
Ġ×¨ ×ķ×ł×Ļ
Ġ×Ĳ×ĵ ×Ļ×¨
Ġ×¡ ×ŀ×ľ
×©×Ĺ×¨ ×Ĺ×ķ×¨×ª
Ġ×ŀ×Ķ ×ķ×ķ×Ļ×Ŀ
×ķ×¤ ×Ļ×ķ×ª
Ġ×Ķ×Ĺ ×©×ĳ×ķ×Ł
Ġ×ľ×¢ ×Ļ×Ļ×Ł
Ġ×ŀ×ª ×ľ
Ġ×Ķ×ł ×ķ×©×Ĳ×Ļ×Ŀ
×ĵ ×ª×Ļ
Ġ×ŀ×Ķ ×Ļ×ķ×Ŀ
×ŀ×§ ×¨×Ļ×Ŀ
Ġ×Ķ×§ ×Ļ×ĳ
×¨×Ĳ ×ķ×Ļ
ĠâĢ Ŀ
Ġ×Ķ×¡ ×¨×ª
×Ļ×ª ×ķ×ł×Ļ×Ŀ
Ġ×ª ×Ľ×ł×Ļ×ķ×ª
×Ķ ×Ķ×¦
×©×Ļ×¨×ķ×ª ×Ļ×Ŀ
Ġ×ĳ×¢ ×ķ×ł×Ķ
Ġ×ľ×Ľ ×¤×¨
×ª ×ŀ×ķ×ł×Ķ
Ġ×ĳ×ŀ ×ĳ×¦×¢
Ġ×§ ×ķ×ł×Ļ×Ŀ
Ġ×©×§ ×¨×Ķ
Ġ×ķ×ĳ ×ŀ×Ļ×ķ×Ĺ×ĵ
Ġ×Ķ×Ľ×ķ×ª ×¨×ª
×© ×ķ×§
o ck
Ġ×Ĳ×Ĵ ×£
Ġ×¤×ķ×ľ ×Ļ×ĺ×Ļ×ª
Ġ×ŀ×¡ ×Ļ×ĳ×Ķ
Ġ×ŀ ×Ļ×ĺ×ª
Ġ×Ļ×ķ×§ ×¨×Ķ
Ġ×Ĵ ×ª
Ġ×ľ ×Ļ×§
×ĳ×ĵ ×ķ
×ķ×Ĵ ×ŀ×Ĳ
Ġâ ĸ
×ľ×Ĳ ×Ŀ
×© ×Ĺ×§
×ł ×¤×ª×Ĺ
Ġ×Ķ×¦ ×Ķ×¨×Ļ×Ļ×Ŀ
Ġ×ŀ×ł ×ĵ
×ķ×ł×Ļ ×Ļ×Ł
Ġ×ł ×Ĵ×¨
Ġ×Ķ×¡ ×Ļ×¤×ķ×¨×Ļ×Ŀ
Ġ×ĳ×ĵ ×ķ×ŀ×Ķ
Ġ×§ ×Ķ×Ļ×ľ×Ķ
Ġ×ľ×ŀ×§ ×ķ×ŀ×ķ×ª
Ġ×Ķ×¨×ĳ ×Ļ×¢×Ļ
Ġ×ľ×¤ ×Ļ×ĵ
Ġ×ŀ×¡ ×ķ×Ļ×Ļ×Ŀ
Ġ×ŀ×ŀ×© ×Ļ×Ľ×Ķ
×ĵ ×©×ķ×ª
×¤×© ×ĺ
Ġ×Ķ×ŀ×© ×ł×Ķ
×ŀ×¤×¨×ĺ ×ķ×¨×Ķ
Ġ×ķ×© ×Ĳ×¨
Ġ×ĳ×ŀ×ĺ ×ĳ×Ĺ
Ġ×Ĳ×ķ×ĳ ×ĵ×Ł
Ġ×ª ×ķ×©×ĳ×Ļ×Ŀ
Ġ×Ķ×ŀ ×ŀ
Ġ×ķ×Ĳ ×Ľ×Ł
Ġ×¢×¦×ŀ×Ĳ ×Ļ×ª
×ĵ ×ķ×Ĳ
m ent
Ġ×ł ×Ļ×Ľ
Ġ×Ĺ ×ķ×ŀ×ķ×ª
Ġ×ĳ×ĺ ×§×¡
×ŀ×¤ ×ķ×¡
Ġ×Ķ×ŀ ×ķ×¨×Ļ×Ŀ
Ġ×Ķ×ĸ ×ŀ×ł×ķ×ª
Ġ×ķ×ŀ ×Ĳ×ĸ
×Ļ×ŀ ×ĺ
Ġ×Ķ×ĳ×¢ ×ľ×Ļ×Ŀ
Ġ×ĳ×ĳ ×ł×Ļ×Ļ×Ł
×Ľ×ł×¡ ×Ķ
. )
Ġ×ŀ×ł ×Ļ×Ĺ
Ġ×¢ ×ķ×ł×©
Ġ×¨×Ĳ ×Ļ×ķ×ª
×Ļ×Ľ ×ķ×Ĺ
×Ļ ×Ļ×ŀ×ª
Ġ×§ ×¤×Ļ×¦×Ķ
×¡ ×ľ×ĳ
6 4
ĠAr ch
Ġ×§ ×ľ×Ļ×Ŀ
Ġ×©×¢ ×ķ×ĵ
Ġ×Ķ×¡ ×Ļ
×Ļ×ŀ ×ķ×ł×Ļ×Ŀ
Ġ×Ķ×ª ×¢×ľ
Ġ×Ķ×Ĺ ×ľ×ĳ
×Ļ×¡ ×Ĳ
×ķ×¢ ×¦×ª
Ġ×Ķ×ŀ×© ×Ļ×Ĺ
×§×¨ ×ķ×ĳ
Ö £
Ġ×ľ ×ĺ×¨
×ł×Ķ ×ľ×Ķ
Ġ×©×§ ×ĵ
Ġ×Ķ×ĸ ×ĵ×ŀ×ł×ķ×Ļ×ķ×ª
Ġ×ª×¢ ×ĸ×ķ×¨
×ĳ ×Ĳ×¨
Ġ×Ķ×Ĳ×Ļ×¨ ×ķ×¤×Ļ
Ġ×Ĺ×ľ ×ķ×Ł
Ġ×ł×¤ ×©×Ļ
Ġ it
Ġ×¢×¨×ĳ ×Ļ
Ġ×Ķ×© ×ŀ×Ĳ×ľ
ĠIn n
Ġ×Ķ×ª ×ķ×ĳ×¢×Ļ×Ŀ
Ġ×Ķ×¤ ×©×ķ×ĺ
Ġ×Ķ×ŀ×Ľ ×Ļ×¨×ķ×ª
×ľ×Ļ ×Ļ×ª
Ġ×ŀ×¦ ×Ĳ×ķ
Ġ×ŀ×ķ×¡ ×Ļ×£
×Ľ ×¨×Ļ×Ŀ
Ġ×Ķ×ĳ ×ł×ķ×ª
Ġ×ľ×ĳ ×¡×ķ×£
×Ĺ ×ĳ×¨×ķ×ª
Ġ×Ķ×ª×ŀ ×Ļ×Ľ×Ķ
Ġ×Ķ×© ×Ļ×Ĺ×Ķ
` `
×Ľ×ł×¡ ×ª
Ġ×Ĵ ×ł×Ļ
Ġ×Ĺ ×ķ×ĳ×ª
H otel
Ġ×Ķ×¤×ľ×¡×ĺ ×Ļ×ł×Ļ×ª
Ġ×Ķ×ĵ ×¤×¡×Ķ
Ġ×ĵ ×¢×Ķ
×©×¨ ×ĵ×Ļ×Ŀ
Ġ×ŀ×ķ×¤ ×¢×ľ
×ŀ×ª ×Ļ×Ł
Ġ×ł×Ķ ×Ļ×Ķ
Ġ×ł×© ×ŀ×Ĺ
Ġ×¨ ×Ļ×ĳ×Ļ×ª
Ġ×Ķ×ª×Ĺ×ª ×ķ×ł×Ķ
Ġ×ĳ×ķ×ĺ ×Ļ×§
Ġ×¡ ×ķ×Ľ
×¤ ×Ļ×¨×Ķ
Ġ×ŀ×¡ ×Ľ
Ġ×ľ×ķ×§ ×Ĺ×Ļ×Ŀ
Ġ×ľ×Ľ ×¨×ĺ×Ļ×¡
Ġ×Ķ×ł×Ķ ×Ĵ
Ġ×§×ĳ ×ķ×¦
Ġ×ĳ×Ľ×ł×¡ ×ª
Ġ×ľ ×ĺ×Ļ×Ļ×ľ
Ġ×ĳ×ŀ ×Ļ×ĵ×¢
Ġ×¢×ķ×ĳ ×ĵ×Ļ×Ķ
Ġ×Ķ×ĳ×ł×§ ×Ļ×Ŀ
×Ļ×¤ ×Ł
Ġ×Ĺ×Ļ ×Ļ×ľ
Ġ×Ĳ×ĵ ×ķ×ŀ×Ļ×Ŀ
×ķ×Ĳ ×ĸ
Ġ×©×ŀ ×ľ×ķ×ª
Ġ×Ĺ×ľ ×ķ×ŀ×ķ×ª
Ġ×ĳ×¤ ×Ļ×ª×ķ×Ĺ
×ľ×ķ×ľ ×¨×Ļ
×ķ×ĸ ×ķ×ª
Ġ×Ĺ×ķ×ĵ×© ×Ļ×Ļ×Ŀ
Ġ×ķ×ŀ×§×¦×ķ×¢ ×Ļ
Ġ×Ļ×© ×Ļ×ĳ×ķ×ª
Ġ×Ĺ×ľ×§ ×Ļ×ª
Ġ×Ķ×ĳ ×§
Ġ×Ķ×¨×Ĳ×© ×Ļ×ª
Ġ×©×Ķ ×Ľ×Ļ
- "
×Ļ×ĺ ×ķ×¨×Ļ×Ŀ
Ġ×ŀ×ª ×¨
ĠS p
Ġ×¢×§ ×Ļ×ĳ×Ĳ
Ġd e
Ġ×¡×¤×§ ×Ļ×Ŀ
Ġ×Ĳ×ŀ ×ł×Ļ×Ŀ
×ķ×ĳ ×ľ×Ķ
Ġ×¨×ľ×ķ ×ķ×ł×ĺ×Ļ
Ġ×Ķ×¤×ª ×Ļ×Ĺ×Ķ
S t
Ġ×Ķ×ĺ ×ķ×¨
Ġ×ĳ×Ĵ×¨ ×ŀ×ł×Ļ×Ķ
Ġ×ĵ×¨ ×ķ×¨
Ġ×ĳ ×Ļ×ł×Ķ
Ġ×ĳ×¦ ×¨×¤×ª
×Ĺ ×¤×©
×ª ×ķ×¦×Ĳ×ķ×ª
Ġ×ķ×ł ×§
Ġ×Ķ×¨×Ĵ×ľ ×Ļ×Ļ×Ŀ
Ġ6 5
Ġ !!!
×ķ×¨ ×Ľ×Ļ
Ġ×ŀ×ķ×Ľ ×¨×ª
Ġ×¡ ×ĳ×ª×Ĳ
×ŀ×¢ ×Ł
Ġ×ľ×ĺ×¢ ×ł×ª
×¢×¨ ×Ļ×Ľ×Ķ
Ġ×¦ ×ķ×ĵ×§
Ġ×ŀ×© ×ĳ×¨
Ġ×ŀ×ĵ ×£
Ġ×ĳ×Ļ×§ ×ķ×¨×ķ×ª
Ġ×Ķ×ŀ ×ŀ×ľ
Ġ×ķ×¨ ×Ĳ
Ġ×Ķ×©×ª×ª ×¤×ķ×ª
Ġ×Ĳ×© ×Ľ×ł
Ġ×Ĳ×Ľ ×¤×ª
×ķ×ĳ ×ĵ×ª
Ġ×ľ×ŀ×¡ ×¢
Ġ×¢ ×Ļ×ł×Ļ
Ġ×ŀ×¦×ķ ×Ļ×ł×ª
Ġ×Ļ×Ľ×ķ×ľ ×ª×Ļ
Ġ×Ĳ×ŀ ×Ļ×Ł
m an
Ġ×¦ ×ķ×¨×ª
×ł×Ļ×Ķ ×ķ
×ķ×¤ ×¨×Ļ×Ŀ
Ġ×ŀ×¤×ľ ×Ĵ×ª
×ĵ ×ł×Ĳ×ķ×ª
Ġ×ľ ×Ļ×ĺ
×ł×ķ×¢ ×Ļ×Ŀ
Ġ×ł ×ĳ×ĵ
Ġ×Ķ×ĳ×Ļ×ł ×ľ×Ĳ×ķ×ŀ×Ļ×ª
Ġ×ª×ķ×Ľ ×ł×ķ×ª
Ġ×ľ×ĳ ×ł×Ķ
Ġ×Ķ×Ĳ ×¡×ĺ×¨
Ġ×ľ×Ķ ×Ļ×ľ
Ġ×Ķ ×ķ×ª
Ġ×Ķ×¤ ×¡×§×Ķ
×ŀ ×ł×ĺ
×ĵ ×Ļ×¨
Ġ×ĵ ×Ļ×¨×ª
Ġ×Ķ×ŀ×ķ×¤ ×Ļ×¢
Ġ×Ķ×ª×ŀ ×Ĺ×ķ×ª
Ġ×¢ ×Ļ×ª×ķ×Ł
Ġ×¤×ł ×Ļ×ŀ×Ļ×ª
Ġ×© ×Ļ×©×Ķ
Ġ×ķ×Ĳ ×ŀ
Ġ×ĳ×Ĳ ×ķ×ķ×Ļ×¨
Ġ×Ķ×¤×ľ×¡×ĺ ×Ļ×ł×Ļ×Ŀ
Ġ×Ķ×ĵ ×ŀ×ķ×Ļ×ķ×ª
Ġ×Ķ×ĺ×¨ ×ķ×¨
Ġ×Ķ×ŀ ×Ļ×Ł
Ġ×ĵ×ķ×Ĵ ×ŀ×Ķ
Ġ×ĸ ×Ľ×ķ
Ġ×ľ×¢ ×¦×ĳ
×Ķ×¤ ×ķ×¢×ľ
Ġ×Ķ×Ĵ ×Ĳ
Ġ×Ľ×ª ×ķ×ĳ×ķ×ª
Ġ×Ļ×¨ ×ķ×§×Ķ
Ġ×Ķ×©×ķ×¤×ĺ ×ª
×ķ×¨ ×Ļ×Ļ×Ŀ
Ġ×ŀ×ł ×§
Ġ×ķ×ĳ×ł ×ķ×¡×£
Ġ×Ĳ×ľ ×ķ×ŀ×Ļ×ł×Ļ×ķ×Ŀ
×ł×¡ ×ķ
Ġ×Ķ×Ĳ ×Ļ×ĵ
Ġ×Ķ×¢ ×Ļ×ª×ķ×ł
Ġ×ĳ×Ľ ×ł×Ļ×¡×Ķ
Ġ×¢×ķ×ĳ ×ĵ×Ķ
Ġ×ľ×ŀ ×ł×Ķ×ľ
Ġ×ĳ×Ĵ×ľ ×Ļ×ľ
Ġ×Ķ×ķ×ĵ ×Ļ×¢×Ķ
Ġ×ķ×Ĳ ×ķ×ľ×Ŀ
Ġ×ľ×ĵ ×ĳ×¨×Ļ
Ġ×ľ×ŀ×© ×¤×Ĺ×ķ×ª
Ġ×Ķ×Ĺ ×ĸ×¨
×Ĳ×¨ ×Ļ×ª
Ġ×¨ ×ĺ
Ġ×ľ×ĳ ×ł×ķ×Ł
Ġ×¢×ŀ ×ķ×§×Ķ
Ġ×¢×Ļ×¨ ×ķ×ł×Ļ
Ġ×ĳ×ŀ×ĵ ×ĳ×¨
Ġ×ľ×Ļ ×Ļ×Ł
×ŀ ×Ļ×ľ×Ļ×Ŀ
Ġ×ŀ×©×¤ ×Ļ×¢
Ġ×ľ ×©×¨×ª
×ŀ×ª ×Ĺ
×Ļ×ľ ×ļ
M S
Ġ×¦ ×¤×Ļ×Ļ×Ķ
e g
ĠOf fice
Ġ×Ķ×Ľ ×ĵ×ķ×¨×Ĵ×ľ
Ġ×¤×©×ķ×ĺ ×Ļ×Ŀ
Ġ×ķ ×Ļ×Ĺ
Ġ×©×¨ ×ķ×¦×Ļ×Ŀ
Ġ×ł×ĺ ×¢×Ł
Ġ×ĸ ×Ļ×ķ
Ġ×ĳ×¡ ×Ļ×ķ×Ŀ
Ġ×¦×Ļ ×ķ×ł×Ķ
Ġ×Ĺ×ĳ ×Ļ×ľ×ķ×ª
×ĵ ×ĵ
Ġ×¢×ĳ ×ķ×¨×ļ
×Ľ×ľ ×ľ×ª
Ġ×Ķ×ľ×ķ ×ķ×Ĳ×Ķ
Ġ0 9
Ġ×Ķ×ł ×Ĳ×Ķ
Ġ×ŀ×¨ ×ķ×¦×Ķ
Ġ×Ķ×ª ×¢×¨×ķ×Ľ×Ķ
×Ĺ ×ĳ×¨×Ķ
Ġ×Ķ×¨ ×Ļ×Ŀ
Ġ×Ķ×ŀ×ª×Ĳ ×Ļ×ŀ×Ļ×Ŀ
Ġ×Ķ×Ķ ×ķ×¦×Ĳ×Ķ
Ġ×ŀ×¢×ķ×¨ ×ĳ
Ġ×ł×¦ ×Ļ×Ĵ×Ļ
Ġ×Ķ×ĺ×¢ ×ł×Ķ
Ġ×Ĺ×¡ ×¨×Ļ
×ĺ ×ĵ×Ļ×ķ×Ł
×¤×¨ ×ķ
Ġ×ľ×§×ĳ ×ķ×¦×Ķ
Ġ×ĳ ×ķ×¦
Ġ×Ķ×ŀ ×¡×ª
Ġ×©×¢ ×ķ×Ł
Ġ×Ķ ×ł×ķ
Ġ×ľ×Ļ×¨ ×ķ×©×ľ×Ļ×Ŀ
Ġ4 2
Ġ×Ķ×¤×¨ ×¢×ķ×ª
Ġ×Ļ×¦ ×ľ×Ļ×Ĺ
Ġ×ĳ×Ķ ×Ļ×§×£
Ġ×ĵ ×Ļ×¨×ķ×Ĵ
Ġ×ľ×¨ ×¤×ķ×Ĳ×Ķ
×¨ ×¤×ķ×Ĳ×Ķ
Ġ×ĳ×¨×Ĳ ×Ļ×ķ×Ł
Ġ×Ķ×Ļ×ĵ ×ķ×¢
×ĳ ×ŀ×§×¨×Ķ
Ġ×Ķ×ĵ×Ļ ×ķ×¨
O T
×© ×ŀ×Ļ×Ŀ
Ġ×Ļ ×ķ×¢×¥
×Ļ×¨ ×ª×Ļ
Ġ×§×¨ ×ķ×ĳ×Ļ×Ŀ
Ġ×Ķ×Ĳ×ķ×Ľ×ľ ×ķ×¡×Ļ×Ļ×Ķ
Ġ×ĳ×© ×¢×ª
Ġ×ľ×¢ ×¨×ĳ
Ġ×ŀ×¡×ķ×Ĵ ×ľ×Ļ×Ŀ
Ġ×ª ×Ĳ×Ļ
Ġ×Ķ×Ķ×©×§ ×¢×ķ×ª
Ġ×Ļ ×ķ×Ĳ×ĳ
Ġ×ĳ×Ķ×ľ ×Ļ×ļ
Ġ×Ķ×Ĳ ×Ĺ×Ļ×Ŀ
Ġ×©×ª ×ķ×Ľ×ľ×ķ
Ġ×Ķ×Ĺ ×ĵ×¨×Ļ×Ŀ
oo d
Ġ×ĳ×ľ ×Ļ×Ĵ×Ķ
Ġ×Ĵ×ľ ×¢×ĵ
Ġ×ķ×ŀ ×ĸ
Ġ×ľ×ª ×¢
Ġ×ľ×Ķ ×¢×ª×Ļ×§
Ġ×Ĵ×¨ ×¡×ª
Ġ×¡ ×Ļ×ĳ
Ġ×© ×Ļ×ĺ
×Ļ×Ĳ ×¡
E T
Ġ×ŀ×ª ×ł
Ġ×ķ×ĳ ×Ļ×ª
Ġ×ĳ×ŀ ×ķ×ĸ×Ļ×Ĳ×ķ×Ł
Ġ×ª×ĳ ×Ļ×¢×ķ×ª
Ġ×ŀ×Ľ×© ×Ļ×¨×Ļ
×¡ ×¤×ķ×¨×ĺ
Ġ0 8
Ġ×ĳ×ŀ×¡ ×ľ×ķ×ľ
×Ĵ ×ľ×ķ
Ġ×Ĺ ×ķ×ĺ
Ġ×¨×¤×ķ×Ĳ ×Ļ×Ļ×Ŀ
Ġ x
×Ļ×ĺ ×©
Ġ×Ķ×ŀ×ĳ×§ ×©×ª
Ġ×Ķ×ł ×Ļ×©
Ġ×Ĳ×ľ×Ľ×¡ ×ł×ĵ×¨
Ġ×©×ŀ ×Ļ×©×Ķ×ķ
200 6
Ö° ×ģ
×ķ×ľ ×Ļ×ª
Ġ×Ķ×ķ×ĸ ×ŀ×Ł
Ġ×Ķ×¢ ×¨×Ļ×Ŀ
Ġ×ŀ×¡ ×Ļ×ĳ×ª
h is
×ľ×ĺ ×ķ
Ġ×ŀ×¨ ×ķ×ķ×Ĺ
Ġ×ľ×ŀ×ķ×¢×ĵ ×¤×Ļ×Ŀ
Ġ×ķ×ł ×¤
6 3
Ġ×ŀ×Ļ×ľ ×Ļ×ķ×ł×Ļ
Ġ×ľ×¤ ×ľ
Ġ×Ľ ×Ļ×ķ
O S
Ġ×Ķ×ª×§ ×¦×Ļ×ĳ
Ġ×ŀ×Ĳ ×ª×¨
×Ļ×¡ ×ĺ×¨
Ġ×ķ×© ×ŀ
×¤×ķ×Ĳ ×ª
Ġ×¤ ×Ļ×ł×ķ×Ļ
×Ļ ×ķ×¤×Ļ
Ġ×ŀ×¦ ×ĳ×Ļ×Ŀ
×ķ×¡ ×ķ×¤×ĺ
Ġ×Ķ×Ĳ×§×ĵ ×ŀ×Ļ×ª
Ġ×ŀ×ĳ ×ķ×¡×¡×ª
ac t
Ġ×¤×¨×ĺ ×Ļ×Ľ×Ŀ
Ġ×¨ ×Ļ×Ķ×ķ×ĺ
Ġ×ľ×ĵ ×Ļ×Ł
Ġ×ł×Ľ ×ł×¡×Ļ×Ŀ
Ġ×ŀ×¦ ×ķ×ŀ×ª
×¢ ×ŀ×Ļ×Ŀ
Ġ×¨×© ×ķ×Ļ×ķ×ª
Ġ4 00
Ġ×ĳ×¨×© ×Ļ×ŀ×ª
Ġ×Ķ×ŀ×¤ ×Ĵ×©
Ġ×ľ×Ķ ×ľ
Ġ×¡ ×§×Ļ
Ġ×ŀ×©×¤×Ĺ×ª ×Ļ×ª
I P
Ġ×ª×§ ×Ł
Ġ×©×ĳ×¢ ×Ķ
×ĸ×Ļ×§ ×Ļ×Ł
Ġ×Ķ×Ķ ×¤×¨
×ĵ ×ľ×ª
Ġ×ĳ×¢ ×Ļ×ł×Ļ×Ļ×Ŀ
×Ĳ ×Ļ×¨×ķ×¢
×ĳ ×ķ×Ĳ
st er
Ġ×¢ ×ķ×ł×ª
i re
Ġ×ŀ×©×¤ ×ĺ×Ļ×Ŀ
Ġ×§×©×¨ ×Ļ×Ŀ
Ġ×Ķ×ŀ ×ķ×ĺ
×ª×¨ ×ķ×ª
×Ļ×ķ ×ķ×Ĺ
×¤×¨ ×ķ×Ļ×§×ĺ
×Ļ×¢ ×ķ×ĺ
Ġ×Ķ×Ĵ ×ł×ª
×ł×ĵ ×¡×Ķ
Ġ×ľ×ĺ ×ķ×ĳ×Ķ
Ġ×Ĳ×¤×©×¨ ×Ļ×ª
Ġ×ŀ×ĺ ×ĳ×¢
Ġ×ĳ×Ĳ ×ķ×ľ
Ġ×ŀ×ª ×ķ×§×Ķ
B A
Ġ×¤ ×ķ×ł×§
Ġ×©×¢ ×©×Ķ
Ġ×ĳ ×Ļ×§×¨
×ķ×© ×ľ×ŀ×Ļ
Ġ×ŀ ×Ļ×©×¨×Ĳ×ľ
Ġ×¤×¨ ×Ĵ
Ġ×ĳ ×ķ×¢
Ġ×Ĳ ×Ļ×Ĵ×ķ×ĵ
Ġ×Ķ×Ĳ×Ļ×¨ ×ķ×Ĺ
Ġ×©×¢ ×ķ×©×Ķ
Ġf or
Ġ×Ľ×ķ×ª ×¨×ª
Ġ×ľ×¢×¦×ŀ ×Ŀ
Ġ×Ķ×¡ ×ĳ×Ļ×¨
Ġ×Ľ ×Ĵ
×Ļ×ĺ ×ķ×Ļ
Ġ×Ķ×Ļ ×ķ×¦×¨×Ļ×Ŀ
Ġ×ĳ×Ĵ ×ĵ×¨
Ġ×Ķ×Ĺ×ĳ×¨ ×ª×Ļ
H E
×ĳ ×Ļ×¨×Ļ×Ŀ
×ķ×ĵ ×Ĳ×ķ×ª
Ġ×Ļ ×ķ×ł×Ķ
Ġ×ķ×ŀ ×ª×Ĺ
Ġ×Ĵ×ľ ×¨×Ļ×Ķ
Ġ×¤ ×ł×¡
Ġ×Ķ×Ľ×ª ×Ļ×ĳ×Ķ
Ġ×©×ª ×ŀ×Ļ×ĵ
Ġ×ŀ×Ĳ ×ķ×¨×Ĵ
Ġ×ŀ×ľ×Ĳ ×Ľ×ķ×ª
×ŀ×¡ ×ĺ×¨
Ġ×Ķ×ŀ ×ŀ×ķ×¦×¢
Ġ×¡×§ ×Ļ×¨×Ķ
Ġ×ĳ×ª ×Ľ×ł×Ļ×ª
Ġ×ŀ ×Ļ×ĸ×ķ×Ĵ
Ġ×ľ ×Ļ×¢×ĵ
Ġ×¦×¤×ķ ×Ļ×Ķ
Ġ×Ĳ×© ×Ľ×ķ×ľ
×ĸ×Ķ ×¨×Ķ
Ġ×ĳ×§ ×Ļ×ĳ×ķ×¥
Ġ×Ĳ×¨ ×Ļ×§
Ġ×ľ×¢×ª ×Ļ×ĵ
Ġ×ľ×©×ľ ×ķ×ĺ
Ġ×Ķ×Ĺ ×Ļ×¡
×¨ ×ķ×Ŀ
Ġ×ŀ ×ķ×ĳ×Ķ
Ġ×©×ŀ ×Ĵ×Ļ×¢
Ġ×¢ ×ķ×¡×§×ª
Ġ×Ķ×ŀ ×¤×ķ×¨×¡
×Ļ×ľ ×Ļ×Ł
Ġ×ľ×Ĳ ×©×¨
Ġ×¤×¨ ×§×ĺ
Ġ×§×ķ×¨ ×Ļ×Ĳ×Ķ
Ġ×Ķ×Ļ×ĵ ×Ļ×Ļ×Ŀ
Ġ×Ľ ×ŀ×©
Ġ×¤ ×ł×Ļ×Ķ
Ġ×ľ×¡×ĺ ×ķ×ĵ×ł×ĺ×Ļ×Ŀ
Ġ12 0
×Ļ×¦ ×¢
Ġ×ª×ĳ ×ł×Ļ×ª
Ġ×ŀ×Ļ ×Ļ×ĵ
Ġ×ª ×Ļ×§×Ļ×Ŀ
Ġ×Ľ ×Ļ×ª×Ķ
Ġ×Ľ ×¥
Ġ×Ĳ×ł×ĵ×¨ ×ķ×Ĳ×Ļ×ĵ
×Ļ×ĳ ×ķ×Ĳ
Ġ×Ļ×ķ×§ ×¨×ª
Ġ×©×Ļ×¢ ×ķ×¨×Ļ×Ŀ
Ġ×ĵ ×Ļ×ĸ
×Ľ ×ĳ×ª
Ġ×Ķ×¨ ×¦×ľ
×Ľ ×Ļ×Ķ
×ŀ×§ ×¦×ķ×¢
Ġ×Ķ×ŀ×ĳ ×¦×¢
×ł ×ķ×Ľ×Ķ
Ġ×Ķ ×ĺ×Ļ
×ķ×ł ×Ĳ×ķ×ª
Ġ×Ľ×ķ×ª ×ĳ×Ļ×Ŀ
Ġ×ľ×ª ×ł×Ĳ×Ļ
Ġ×¨×Ĵ ×Ļ×ľ×Ļ×Ŀ
×Ļ×¦ ×ķ×ĳ×Ļ×Ŀ
Ġ×Ķ×Ĳ×¨ ×ķ×ļ
Ġ/ /
×ŀ×Ľ ×ĳ×Ļ
Ġ×Ĳ ×ķ×ł×ķ
Ġ×ķ×ŀ ×ķ×¨
×Ļ×¤ ×ķ×¡
×© ×ŀ×ķ×ª
Ġ×ľ×Ķ×Ĵ ×ł×ª
×ŀ×¦ ×¢
×Ľ×ķ ×ķ×ł×Ķ
Ġ×ł×¤ ×¦×¢
Ġ×ŀ×©×¤×ĺ ×Ļ×Ļ×Ŀ
Ġ×Ľ×ķ×¡ ×ķ×ª
×ĺ ×Ļ×Ļ×Ŀ
Ġ×ķ×ł ×Ķ
Ġ×ĳ×ŀ×¢ ×ŀ×ĵ
×ķ×¡ ×Ļ×ķ×ª
Ġ×ĳ×§ ×ķ×ĳ×¦×Ļ
Ġ×ľ×Ķ×¡×ª ×Ľ×ľ
Ġ×¨×Ĵ×ľ ×Ļ×Ļ×Ŀ
×ľ ×ł×ķ
×¤×§ ×ķ×ĵ
Ġ×¦×¢ ×ĵ×Ļ×Ŀ
Ġ×ĳ×©×ĳ×Ļ×ľ ×Ļ
Ġ×ŀ×Ĺ ×Ľ×Ļ×Ŀ
Ġ×ŀ×Ĳ×ŀ ×Ļ×ł×Ķ
Ġ×ľ×Ķ×ª×§ ×Ļ×Ł
Ġ×Ķ×¦×ľ×Ĺ ×ª×Ļ
Ġ×©×ĳ ×Ľ×ľ
×¢ ×Ĵ
Ġ×©×Ļ×Ľ×ķ×ľ ×Ļ×Ŀ
Ġ×ķ×Ĳ ×©×¨
Ġ×Ļ×¢ ×¨
×Ļ×ĳ ×¦×Ļ×Ķ
Ġ×Ķ ×¨×Ĳ×ľ
Ġ ;
Ġ×Ķ×Ļ×¨ ×ķ×§
×Ľ ×ĳ×ķ×ª
Ġ×ľ ×ĳ×ľ×ķ×ª
Ġ×ł ×Ľ×ķ×ª
×ŀ ×ķ×¢×ĵ×ķ×Ł
Ġ×Ķ×¦ ×ķ×¤×Ļ×Ŀ
Ġ×¨×© ×ķ×ŀ×Ķ
Ġ×Ķ×Ĳ×ŀ×Ļ×ª ×Ļ×ª
×ĵ ×Ļ×ł×Ļ
Ġ×Ķ×ª ×ķ×Ĳ×¨
Ġ×ľ×©×Ĳ ×ľ×ķ×ª
Ġ×Ĺ×ľ ×ķ×§×ª
×ķ×ĳ ×ķ
×§ ×ª×Ļ
Ġ×ķ×Ķ ×ĸ
Ġ×ĳ×Ĳ ×ŀ
×ŀ ×Ľ×¨
Ġ×ķ ×Ļ×¤×Ķ
Ġ×ª ×¤×¡
Ġ×©×¤×Ļ×¨ ×Ĳ
Ġ- -
Ġ×Ķ×¤ ×ķ×¤×ķ×ľ×¨×Ļ
Ġ×ľ×ĵ ×Ĺ×ķ×ª
Ġ×ł ×ª×Ĺ
Ġ×ľ×Ľ×ľ ×ľ
Ġ×Ķ×ŀ×ª ×ł×Ķ
Ġ×ŀ×¨ ×¢
Ġ×Ķ×¨×Ľ ×Ļ×©×Ķ
Ġ×¤×ª ×ķ×Ĺ×Ķ
Ġ×Ķ×¢ ×ľ×Ļ×Ļ×Ķ
Ġ×Ĳ×¨ ×ĸ
Ġ×¨×Ĳ ×Ļ×ł×ķ
Ġ×ª×§ ×£
Ġ×ĸ ×¨×Ķ
Ġ×© ×ķ×¨×ķ×ª
Ġ×Ķ×¢ ×ķ×¨×£
×Ĵ×¢ ×ł×ķ
% ,
Ġ×ľ×Ķ×ª ×¢×ľ×Ŀ
ĠO n
Ġ×ľ×Ĺ ×Ļ×ľ
Ġ×¤×Ļ×ĸ ×Ļ×ª
Ġ×Ķ×Ļ ×Ļ×¦×ķ×¨
Ġ×ł ×ķ×ĵ×¢
Ġ×Ĺ×Ļ ×ķ×ĳ×Ļ
Ġ4 9
Ġ×ľ×ŀ ×ĺ×¨×ķ×ª
Ġ×Ķ×Ĺ×ľ ×ķ×Ŀ
Ġ×¢×¦ ×Ļ×Ŀ
Ġ×ľ×ł×Ķ ×ķ×Ĵ
×ĵ ×Ļ×¨×Ķ
Ġ×Ķ×ª ×¤×¨
Ġ×ł ×Ĺ×ª
×ĳ ×ŀ×§×ķ×Ŀ
Ġ×ĳ ×ľ×Ĺ
Ġ×ľ×§ ×¨×ķ×ª
Ġ×¤×¨ ×ł×¡
Ġ×ľ×ª ×Ĳ
×¢×ª ×Ķ
×Ļ×ª ×ª
×ķ×ł ×Ĳ
Ġ×ľ×ŀ×¡ ×ķ×¨
Ġ×ª ×ķ×¤×¢×Ķ
Ġ×¢×§×¨ ×ķ×ł×ķ×ª
Ġ×Ķ×Ķ×¦ ×¢×Ķ
Ġ×¤ ×Ĺ
Ġ×¤ ×ĳ×¨×ķ×Ĳ×¨
Ġ <
Ġ×Ĺ×Ļ ×ķ×ļ
Ġ×¢×¨ ×¢×ķ×¨
Ġ×ŀ×ł×Ķ ×Ļ×Ĵ
×§×¨ ×ķ
s p
Ġ×ª×ŀ ×ķ×ł×ª
Ġ×Ķ×ŀ×ª ×ŀ×Ĺ×Ķ
Ġ×¨×Ĳ ×Ļ×ķ×Ł
Ġ×¦ ×ľ×Ŀ
Ġ×Ķ×ŀ ×ķ×ĳ×Ļ×ľ
Ġ×Ķ×¢ ×ķ×ł×©
ow er
×ĵ ×Ĵ
Ġ×Ĳ×Ļ×ł ×ł×Ļ
Ġ×ŀ×Ļ ×Ļ×ĵ×Ļ×ª
Ġ×ĳ×Ĳ ×Ķ×ĳ×Ķ
Ġ×ŀ×©×Ĳ ×ĳ×Ļ
ĠB log
×ª ×ķ×Ĳ×¨
Ġ×ŀ×Ľ ×ķ×ł×Ļ×ª
Ġ×ĵ ×¤×ķ×¡
×Ļ×Ĵ ×ķ×¨
Ġ×Ĺ×ŀ ×Ĳ×Ķ
Ġ×¢×ľ ×Ļ×Ļ×ª
×¨×Ľ ×Ļ×ĳ
Ġ×ľ×© ×Ĳ×ª
ie w
Ġ×Ĺ×ķ ×ķ×Ļ×ķ×ª
Ġ×Ķ×Ĳ ×ķ×ĺ×ķ×ĳ×ķ×¡
Ġ×¡×¤ ×Ļ×¨
Ġ×Ĺ×©×ŀ×ľ ×Ļ×Ļ×Ŀ
×§×ĳ ×ķ×¦×ª
Ġ×¤ ×ĺ×ķ×¨
Ġ×Ĵ×¨ ×¢
×Ļ×Ĳ ×ĺ×Ķ
×Ļ ×Ļ×ŀ×ķ
Ġ×ª×¤ ×ķ×Ĺ×Ļ
Ġ×Ķ×¨×Ĺ ×ķ×ĳ
Ġ×ĳ×ĺ ×ķ×ķ×Ĺ
Ġ×ĳ×© ×§×ĺ
Ġ×Ķ×© ×Ļ
×ŀ×¡ ×ľ×ķ×ľ
Ġ×ĳ×¡ ×Ľ×ķ×Ŀ
a w
Ġ×Ķ×ª×Ļ×Ļ×Ĺ×¡ ×ķ×ª
Ġ×ľ×Ĺ ×§×ķ×¨
G B
Ġ×¢ ×ł×Ļ
Ġ×Ķ×¨×© ×ķ×Ļ×ķ×ª
Ġ×¡ ×ľ×ĺ
Ġ×ķ×ł ×¨×Ĳ×Ķ
Ġ×ľ×ŀ ×ľ×Ĺ×ŀ×Ķ
Ġ×Ķ×ĳ ×Ļ×¦×ķ×¢
Ġ×ĳ×Ĵ ×ĵ×Ļ
Ġ×ľ×Ķ ×¦×ĳ×Ļ×¢
×¨×ĳ ×ª
Ġ×Ķ×¦ ×¨×Ľ×Ļ×Ŀ
×Ļ×§ ×Ł
Ġ×ķ×Ĺ ×ĳ×¨
Ġ×ľ×Ĺ×Ĵ ×ķ×Ĵ
×ķ×¨×Ĵ ×Ļ×Ķ
Ġ×¤×¢ ×Ļ×ľ×Ķ
×§×ĵ ×ŀ×Ļ×Ķ
Ġ×ª×¢ ×ķ×ĵ×ķ×ª
Ġ×ĳ ×¤×§
Ġ×¤×ķ×ľ ×Ļ×ĺ×Ļ
ĠP ro
Ġ×Ķ×¨ ×©×Ŀ
Ġ×ľ×Ķ ×Ļ×ķ
Ġ×Ķ×©×Ĺ×§ ×Ł
Ġ×ķ×Ľ ×©
Ġ×¡ ×ŀ×Ļ×Ŀ
×Ļ×Ĺ×¡ ×Ļ
Ġ×ľ×ŀ ×Ļ×Ŀ
Ġ×Ķ×¤ ×§×ª
u g
Ġ×Ķ×¡ ×ľ×ķ×ľ×¨
Ġ×Ķ×Ĳ ×ŀ×ķ×ł×Ķ
ID T
×ĳ×§ ×Ļ×Ŀ
Ġ×Ķ×ķ×ŀ ×ķ×¨
Ġ×Ķ×ŀ×ĳ×§ ×¨×Ļ×Ŀ
Ġ×Ķ×© ×ł×ª×Ļ
Ġ×ľ×Ķ×ĸ ×Ľ×Ļ×¨
Ġ×¢×ĳ×ķ×¨ ×ķ
Ġ×ł ×¢×¨
Ġ×ĳ×Ľ ×Ļ×ª×Ķ
Ġ×ĳ×©×ĳ×Ļ×ľ ×Ľ×Ŀ
×ľ ×£
Ġ×ŀ×ķ×ª ×Ĵ
Ġ×ľ×Ĳ ×Ķ
Ġ×ĵ×ķ×Ĵ ×ŀ×Ĳ
Ġ×ĳ×ł ×¤×¨×ĵ
Ġ×¢ ×ŀ×Ļ
Ġ×Ķ×© ×Ļ×ł×Ļ×Ļ×Ŀ
×© ×Ļ×ŀ×ķ
Ġ×ľ×Ķ ×ĳ×Ĺ×Ļ×Ł
×Ļ×Ĵ ×ķ×¢
Ġ×© ×ª×Ĺ
Ġ×Ķ×ł ×Ĵ×Ļ×©×ķ×ª
Ġ×Ķ×ĺ ×§×¡
×Ļ×¤ ×Ļ×Ł
Ġ×¤ ×ľ×Ļ
Ġ×ķ×ľ ×ŀ×¨×ķ×ª
×ĳ ×ł×Ļ×Ŀ
Ġ×Ĳ×ľ ×¤×Ļ×Ŀ
Ġ×ķ×ĳ ×ª×Ļ
×Ĵ×ľ ×¨×Ļ×Ļ×ª
Ġ×ĵ ×¢×ª×Ļ
Ġ×Ķ×Ĵ ×ĳ×¨
Ġ×ľ×©×ª ×ķ×ª
Ġ×ĳ×ĺ ×ľ×ķ×ķ×Ļ×ĸ×Ļ×Ķ
Ġ×© ×ķ×Ĺ
7 8
×Ľ ×Ļ×ľ
Ġ×ĳ×© ×ķ×¨×Ķ
Ġ×©×Ĺ×Ļ ×Ļ×Ķ
×ĳ×ĵ ×Ļ×ľ
Ġ×ŀ×©×Ĳ ×ĳ×Ļ×Ŀ
Ġ×ŀ×Ķ ×ł
×Ľ ×ł×Ļ×Ļ×Ŀ
Ġ×Ĳ×¨ ×¦×Ķ
Ġ×Ķ×¦×Ļ ×ķ×ĵ
Ġ×Ķ×Ķ×ĸ ×ĵ×ŀ×ł×ķ×ª
Ġ×§×¨ ×Ļ×Ĳ×ª
Ġ×ľ ×Ĺ×¨
Ġ×Ļ×© ×ł×Ļ×Ŀ
Ġ×Ķ×ŀ ×Ļ×ª
Ġ×Ľ×Ĳ ×ĳ×Ļ
Ġ×ľ×ŀ ×ŀ×©×ľ×Ķ
×ŀ×¦ ×ķ×Ŀ
×¤ ×©×ķ×ĺ
ĠIs rael
Ġ×©×Ķ ×ķ
×Ļ×Ľ×ł×¡ ×ķ
Ġ×Ķ×ŀ×ª×Ĳ ×Ļ×ŀ×Ķ
×ĳ×§ ×ª
Ġ×Ĳ×ķ×ł ×ł×ķ×ª
Ġ×ľ×Ĳ ×¡
Ġ×ł×Ľ ×ķ×ł×ķ×ª
Ġ×ł×Ĺ×© ×ĳ×ª
Ġ×§ ×Ļ×¨×ķ×ª
×ľ×¤ ×ķ
×ŀ×¢ ×¨×Ľ×ķ×ª
ĠC l
Ġ×ŀ×ĵ ×ķ×¨
×ĸ ×Ļ×ľ
Ġ×¢ ×ĺ
Ġ×ľ×Ĳ ×ķ×ª×ķ
×ķ×© ×Ļ×ł×Ĵ×ĺ×ķ×Ł
Ġ×Ķ×§×Ļ ×Ļ×ŀ×Ļ×Ŀ
Ġ×Ķ×Ļ×¡×ĺ ×ķ×¨×Ļ
Ġ×ĳ×¨ ×Ļ×¨×Ķ
Ġ×ŀ×ĳ ×ķ×Ĵ×¨
Ġ×Ķ×ª ×ł×Ķ×ľ×ķ×ª
Ġ×ķ×Ķ ×Ľ×Ļ
Ġ×ĳ×¢ ×Ļ×ĵ×Ł
Ġ×Ľ ×©×¨×ķ×ª
Ġ×¢ ×Ļ×ĳ×ķ×ĵ
×§×ľ ×Ļ×ĺ×ķ×ª
Ġ×ª ×ķ×§
Ġ×Ķ×Ľ×ł×¡ ×ķ×ª
×Ĳ ×ķ×ľ×Ŀ
×Ĵ×© ×ł×ķ
Ġ×©×ĳ ×Ĺ×¨
Ġ×ľ×ĳ×¢ ×ľ
Ġ×ŀ ×Ļ×Ķ
Ġ×Ķ×¨×ľ×ķ ×ķ×ł×ĺ
Ġ×¢×ľ ×ķ×Ļ×ķ×ª
Ġ×©×ŀ ×ª×§
Ġ×ķ×Ķ ×¤×¨
×¡ ×¢×Ļ×£
Ġ×ķ×¤ ×ª
Ġ×ľ×ĳ ×ł×Ļ×Ļ×ª
Ġ×Ķ×© ×¢×¨
Ġ×Ķ×¢×¡×§ ×Ļ
Ġ×ľ×§ ×ķ×ľ
Ġ×Ķ ×ķ×¡×¤×ª
Ġ×ķ×ł ×ķ×¢×¨
Ġ×Ķ×ĵ×¨ ×ķ×Ŀ
Ġ×¦ ×¨×Ľ×Ļ×Ŀ
Ġ×ķ×Ķ ×Ļ×ķ
? )
×ľ×ŀ ×ł×ĺ
Ġ×Ķ×Ļ ×ķ×¤×Ļ
Ġ×Ĵ ×Ļ×ľ×ķ
Ġ×ľ×ķ ×ķ×Ĳ×Ļ
Ġ×ŀ×¢ ×ķ×¨×¨
Ġ×ĵ ×Ļ×ł×ķ
ĠU S
u st
Ġ×Ĳ×ķ ×Ļ×¨
Ġ×¡×Ļ×¤ ×ķ×¨×Ļ
×Ķ ×Ľ×Ļ
Ġ×ĳ×Ļ×ŀ ×ŀ×Ķ
Ġ×Ĺ×Ļ ×Ļ×Ķ
Ġ×ŀ×©×ľ ×Ļ×ŀ×Ķ
×Ĺ×ľ ×ķ×§×ª
×Ĳ ×Ļ×ľ×ķ
Ġ×ľ×ª ×¤×ķ×¡
Ġ×ľ×¢ ×Ļ×Ł
am p
Ġ×¤×¢ ×Ļ×ľ×Ļ×Ŀ
Ġ×ľ×ķ ×Ļ×Ł
Ġ×Ĵ×¨ ×¤×Ļ
Ġ×Ķ×ŀ×¡ ×¨
Ġ×¤×ľ×¡×ĺ ×Ļ×§
Ġ×Ľ×¤ ×Ļ×ª
Ġ×Ķ×Ĳ ×Ļ×ł×ĺ
Ġ×Ķ×ŀ ×¤×Ķ
Ġ×Ķ×Ľ ×ł×ª
Ġ×¤×Ļ×§ ×ķ×Ĺ
Ġ×¤ ×Ļ×¡
Ġ×ķ×ľ×ª ×ª
×ł×ĵ ×ĳ
×Ķ×ŀ ×¨×Ľ×ĸ
Ġ×ª ×ķ×ľ×ĵ×ķ×ª
Ġ×ľ×Ľ ×ĳ
ig n
×ĳ×¦ ×¢×ª
Ġ×¡×ŀ ×ļ
Ġ×Ķ×Ļ ×Ļ×©×ķ×ĳ
Ġ×ł×Ĳ ×ŀ×Ł
Ġ×ķ×ŀ ×ľ
Ġ×Ķ×¨ ×¤×ª
Ġ×©×ŀ ×Ĺ×Ļ×Ŀ
Ġ×¤×¨×¡ ×ķ×ŀ×ª
o y
Ġ×ĳ×© ×ĳ×ĺ
×ķ×ľ ×Ļ×Ķ
×¦ ×ª×Ļ
Ġ×ľ×Ĳ ×Ķ×ķ×ĳ
×´ .
Ġ×ķ×Ķ ×ķ×¨
×Ķ×¨ ×ĳ×Ķ
Ġ×Ķ×Ĵ ×ķ×¨×Ŀ
×¡×Ļ ×Ļ×¢
Ġ×Ķ×Ķ×ľ ×Ļ×ļ
×¤ ×ķ×§
×ĳ ×ĵ×¨×ļ
Ġ×ª ×Ľ×©×Ļ×ĺ×Ļ×Ŀ
Ġ×ķ×ľ ×Ļ×ĵ×Ķ
Ġ×ª×¨ ×ķ×ŀ×Ķ
×ŀ×Ĺ ×Ļ×¨×Ļ×Ŀ
×¦ ×ĵ
×ĳ×¨ ×ļ
Ġ×ĳ ×ĸ×§
×ŀ×©×Ĺ×§ ×Ļ×Ŀ
Ġ×ĺ ×Ľ×ł×Ļ
Ġ×ľ×Ķ ×§×ª
Ġ×ª×§ ×ķ×Ķ
iv es
Ġ×ª ×ķ×ŀ×ļ
Ġ×ŀ×ĸ ×ŀ×Ļ×ł×Ļ×Ŀ
Ġ×© ×Ļ×ĵ×ķ×¨
×§×© ×Ļ×ĳ
Ġ×¡×Ļ×ŀ ×ł×Ļ
Ġ×§ ×¡×Ŀ
Ġ×¢×Ļ×¨ ×ķ×ł×Ļ×ª
Ö ¥
A M
Ġ×§×ľ×Ĳ ×¡×Ļ
×Ĵ×Ļ×© ×ª
Ġ×ĺ ×§
×¡×§ ×ķ×ª
Ġ×ŀ×§ ×ķ×ŀ×Ļ×ķ×ª
Ġ×© ×©×ª
Ġ×ĳ×© ×Ĳ×ľ×Ķ
a x
×ŀ×ķ×§×¨×ĺ ×Ļ×ª
200 9
Ġ×Ķ×Ķ ×ķ×Ĳ
Ġ×ŀ×©×ķ×ª ×¤×Ļ×Ŀ
Ġ×ľ ×ķ×ĵ
Ġ×ŀ×¡ ×ķ×ĳ
×ķ×ĺ ×Ĺ
Ġ×Ķ×ľ ×Ľ×ķ×ª
×Ĳ ×Ĵ×ĳ
Ġ×©×ľ ×Ļ×©
Ġ×ŀ×ķ×Ĵ ×Ł
Ġ×ľ×ŀ ×Ĺ×ķ×§
Ġ×ĳ×Ĺ×Ļ ×Ļ×ķ
Ġ×Ļ×Ĺ ×Ļ×ĵ×Ķ
Ġ×Ķ×ĳ ×ķ×ľ
Ġ×ľ×© ×ª×Ļ
Ġ×ķ×Ĺ ×¡
or m
Ġ×Ķ×ª×§ ×Ļ×Ļ×Ŀ
ĠF acebook
Ġ×Ķ×¦ ×¨×¤×ª
Ġ×ł×¤ ×ĺ×¨
Ġ×ŀ×Ĺ ×¤×©×ª
Ġ×Ĵ ×©×Ŀ
Ġ×Ķ×Ĳ ×ķ×ĺ
Ġ×ŀ×¨ ×¤×Ĳ
Ġt een
Ġ×ĺ ×Ĳ
Ġ×Ķ×Ľ ×Ļ×¤×ķ×¨×Ļ×Ŀ
Ġ×Ķ×Ľ ×ĵ×ķ×¨
Ġ×Ķ×ĳ ×Ļ×§
Ġ×ľ×¤×¨ ×§
Ġ×ĳ×ĺ ×Ł
Ġ×ķ×ĳ ×ľ×Ļ
×Ĵ×¨ ×ķ×Ŀ
on d
×ł ×¥
×¤ ×ķ×ł×Ļ×Ŀ
×ŀ ×ķ×ł×Ļ
e ch
Ġ×Ĵ×ķ×¨ ×ŀ×ª
Ġ×§×ĺ ×¢
Ġ×Ķ×¡ ×ľ
Ġ×ľ×© ×Ľ×ł×¢
Ġ×Ļ×¢ ×ĸ×ķ×¨
Ġ×ŀ×¦ ×Ĳ×ª×Ŀ
×ŀ×ĺ ×¨×Ļ×Ŀ
Ġ×ĳ×Ĺ ×ĳ×¨×ķ×ª
Ġ×ķ×ŀ ×©×§
.. ...
×ľ×§ ×¨
Ġ×Ķ×Ĺ ×ķ×ľ×Ķ
Ġ×ŀ×¢ ×¥
×Ļ×Ĺ ×¡×ª
Ġ×ľ ×Ļ×Ĳ×ķ×¨
×Ĵ×¢ ×ķ
×Ľ ×Ļ×Ł
×ĵ×Ļ ×ķ×§
Ġ×Ķ×Ĺ×Ļ ×Ļ×ľ
Ġ×Ķ×ŀ ×¨×Ķ
Ġ×ľ×¨×Ľ ×Ļ×©×ª
×ĵ ×ł
Ġ×ŀ×Ľ×© ×Ļ×¨×Ļ×Ŀ
Ġ×Ķ×Ľ ×Ĳ×ĳ
U S
Ġ×©×ľ ×§
Ġ×ĵ ×Ļ×¨
Ġ×Ķ×ŀ ×¤×ķ×¨×¡×Ŀ
Ġ×Ĳ×ľ ×Ĵ
Ġ×ŀ×¤×Ĵ ×©×Ļ×Ŀ
×Ľ ×ĵ
Ġ×Ķ×Ľ×ľ ×ĳ
Ġ×§ ×¨×Ļ×Ļ×¨×Ķ
ost ed
Ġ×Ķ×ŀ×¡ ×¢
A C
Ġ×Ķ×ŀ×§ ×ķ×¨×Ļ×ª
Ġ×Ķ×¢ ×ĳ×ķ×ĵ×ķ×ª
Ġ×Ĳ×ķ×ĳ ×ŀ×Ķ
Ġ×ķ×ľ×Ķ ×Ļ×ķ×ª
Ġ×ĳ×¤×¨ ×ķ×Ļ×§×ĺ
×¤×¡ ×ľ
of fice
Ġ×ŀ×ª×§×ĵ ×ŀ×ª
Ġ×Ļ×Ĺ ×ĸ×ķ×¨
×ŀ×ĺ ×Ķ
Ġ×Ľ×Ĳ ×ĳ×Ļ×Ŀ
Ġ×ľ×Ĺ ×ĸ×§
Ġ×Ĵ×¨ ×¡×Ķ
×©×ľ ×ķ×©×Ķ
Ġ×ĳ×Ļ×ł ×Ļ×ł×ķ
Ġ×Ķ×Ļ ×Ļ×Ł
v it
×ł ×ķ×Ĵ
×ŀ ×ķ×¨×ª
Ġ×ľ×Ĵ ×ĳ×¨×Ļ×Ŀ
Ġ×ĳ×ĵ ×ķ×Ĳ
Ġ×Ļ×Ĺ ×Ļ×ĵ×ª
Ġ×Ĺ ×ĸ×ķ×Ł
×¨×ª ×Ŀ
Ġ×ľ×© ×Ľ×ķ×Ĺ
Ġ×¡ ×ĳ×ķ×¨
Ġ×Ĳ×ĳ ×ł×Ļ×Ŀ
Ġ×Ķ×© ×Ļ×ł×ķ×Ļ×Ļ×Ŀ
Ġ×¢×¨×ĳ ×Ļ×ª
Ġs h
Ġ×Ķ×ŀ ×Ļ×§×ķ×Ŀ
ark er
Ġ×Ĺ×ľ×§ ×Ķ
Ġ×ĳ×Ĺ ×¦×¨
Ġ×Ľ×¤ ×ķ×ľ×Ķ
Ġ×ķ×Ĳ ×Ĺ×ª
×ŀ×© ×¤×ĺ
Ġ×ŀ×¤ ×Ĺ×ĵ
Ġ×¨ ×ķ×ĺ×ĳ
Ġ×ľ×© ×Ĺ×¨×¨
×Ļ×§ ×Ļ×ķ×Ł
Ġ×ŀ×ķ×Ĺ ×ľ×ĺ×ª
Ġ×Ļ×ķ×¦ ×¨×ª
Ġ×Ķ×¦ ×ĺ×¨×¤×ķ
×Ľ ×¤×¨
ĠU n
Ġ×ľ×¢×¦×ŀ ×Ľ×Ŀ
Ġ×ª×Ķ×ľ ×Ļ×Ľ×Ļ
Ġ×ł×Ķ ×ł×Ļ×Ŀ
Ġ×©×ł ×ķ×¢×ĵ
m l
Ġ×ł ×Ļ×Ĺ
Ġ×Ķ×ł ×ĵ×¨×©
Ġ×¨×Ĳ×© ×ķ×ł×Ļ
Ġ×Ĺ×© ×Ļ×¤×Ķ
Ġ×ľ×Ĵ ×Ļ×ĺ
Ġ×ł×Ļ×¡ ×Ļ×ª×Ļ
Ġ×© ×ł×¡
×ĳ×ĺ ×Ĺ×ª
×ķ ×ķ×Ļ×ķ×ª
Ġ×Ķ×ĵ×Ļ×Ĵ ×Ļ×ĺ
4 00
Ġ×ľ×Ĳ ×Ļ×©×ķ×¨
Ġ×ľ×ª ×ŀ×ķ×ļ
Ġ×ķ×Ķ ×ŀ×ª
×ķ×ŀ×¨ ×ķ×Ł
Ġ×Ļ ×Ļ×§
Ġ×ĳ×ľ ×©
×ľ×§ ×Ļ×Ŀ
Ġ×ŀ ×¨×Ļ×Ŀ
×¨×Ĳ×© ×Ļ×ª
Ġ×ĵ×ķ×ľ ×¨×Ļ×Ŀ
×©×Ĳ ×Ļ×ª
Ġ×Ķ×¤ ×ķ×¤×ķ×ľ×¨×Ļ×ķ×ª
Ġ×Ľ ×ŀ×Ļ
Ġ×Ķ×ĸ ×Ľ
Ġ×Ķ×Ļ ×Ļ
Ġ×ŀ ×Ļ×ľ×ķ×ª
Ġ×Ķ×Ĵ ×ĵ×¨×Ķ
Ġ×ł ×Ľ×©
Ġ×©×¢ ×ĳ×¨×ķ
Ġ×ĵ×¨ ×Ļ×©×Ķ
Ġ×ŀ×§ ×ķ×ŀ×Ļ×Ļ×Ŀ
×ŀ ×Ļ×Ĳ×ľ
Ġ×ķ×Ķ×ŀ ×¨×Ľ×ĸ
Ġ×ŀ×¢ ×Ĵ×ľ
Ġ×ķ×ĵ ×Ĳ×Ļ
Ġ×ĳ×¡ ×Ļ×¤×ķ×¨
Ġ×ľ×Ĳ ×£
Ġ×Ķ×¤×¨ ×©×Ķ
Ġ×ķ×ŀ ×¡×¤×¨
Ġ×ĳ×© ×Ľ×ķ×ł×ª
Ġ×Ļ×ķ×¨ ×ķ
Ġ×Ļ×Ĳ ×¤×©×¨
Ġ×§×Ļ ×Ļ×ĺ×¨×Ļ×ł×Ĵ
Ġ×¨ ×ĸ×Ķ
Ġ×Ķ×Ĵ ×Ļ×ķ×ł×Ļ
Ġ×Ķ×ľ ×ľ
ra ph
×ķ×ł×Ļ×ĳ×¨×¡×Ļ×ĺ ×Ĳ×ķ×ª
Ġ×Ķ×¤ ×¡×§×ª
Ġ×Ķ×ŀ×Ĺ ×©×ĳ×Ķ
×ķ×ŀ ×¡
Ġ×ł ×ķ×©
Ġ×ĳ×ª ×©×ķ×ĳ×Ķ
Ġ×Ķ×ł ×ĳ×Ĺ×¨
Ġ×ľ×ŀ×ĵ ×ª×Ļ
Ġ×ŀ×Ķ×¦ ×ĵ
Ġ×¢ ×¨×Ľ×ª
Ġ×Ĺ ×ŀ×ķ×ª
Ġ×ĳ×¨×© ×Ļ×ŀ×Ķ
Ġ×ĵ×Ļ×Ĵ×Ļ×ĺ×ľ ×Ļ×Ļ×Ŀ
Ġ×§ ×Ļ×ĵ
×Ļ×Ĳ ×ł×Ķ
E L
Ġ×Ķ×Ĳ×§×ĵ ×ŀ×Ļ×Ķ
Ġ×ŀ ×ķ×¤×ª
Ġ !!
Ġ×ŀ×§ ×ķ×ĳ×ľ
Ġ×Ĳ×ª ×Ł
Ġ×ĳ×Ĳ ×ķ×ľ×Ŀ
Ġ×© ×¨×Ļ
Ġ×¨ ×ŀ
×ŀ×© ×¤×Ĺ×Ķ
Ġ×ª×ĵ ×ŀ×Ļ×ª
Ġ×ĳ×§×¨ ×Ļ×ª
Ġ×ľ×ŀ×ĳ ×ķ×Ĵ×¨×Ļ×Ŀ
Ġ×¨×Ľ ×Ļ×ĳ×Ķ
e y
Ġ×ŀ ×©×¨×ª
Ġ×¤×ª ×ķ×Ĺ×Ļ×Ŀ
Ġ×©×Ĳ ×ľ×ª
Ġ×ĳ×§ ×Ķ×Ļ×ľ×Ķ
Ġ×ŀ×Ĺ ×ľ×ª
×ķ×Ĺ×¨ ×¨
Ġ×Ķ×Ķ ×¤×¢×ľ×Ķ
Ġ×ŀ×ķ×ĵ ×¢×Ļ×Ŀ
ic t
Ġ×ķ×ľ ×ľ
Ġ×Ĳ×¦ ×ľ×ķ
Ġ×ķ×ľ×¢ ×©×ķ×ª
Ġ×ľ×ª ×Ľ×ł×Ł
×¦ ×¨×Ķ
Ġ×ľ×ª ×Ľ×ł×ķ×Ł
×ł×© ×Ļ×Ĳ
Ġ×ł×Ķ ×ł×Ķ
×ĵ×¨ ×Ļ×Ł
×ŀ×ķ×ĵ ×¢×ķ×ª
Ġ×¡×Ļ×¡ ×ŀ×Ĳ
Ġ×Ĵ×ĸ ×¢×Ļ
Ġ×¨ ×ļ
Ġ×©×Ĳ ×Ĺ×¨×Ļ
Ġ×ķ ×ķ×¨×ĵ×¤×¨×¡
×ķ×¤ ×£
Ġ×Ķ×¢ ×Ļ×ª×ķ×Ł
Ġ×ĳ×ŀ ×ķ×¢×ĵ×ķ×Ł
Ġ×Ķ×Ķ ×¤
Ġ×Ķ×§ ×ľ×Ķ
Ġ×ľ×¦ ×¨×Ľ×Ļ
Ġ200 2
Ġ×ĳ×Ĺ ×¦×Ļ
Ġ×Ķ×¤×¨ ×ª
Ġ×© ×Ļ×ł
n t
Ġ×ŀ×© ×ľ×ķ
Ġ×ł ×ķ×ĺ
Ġ×ª ×ľ×ķ×Ļ×Ķ
Ġ×ľ×Ĵ ×©×ª
' ).
×ľ×ĺ×¤×ķ×¨ ×ŀ×Ķ
Ġ×ľ×Ķ ×¤×Ļ×§
×¦ ×ĳ×¢
×¦×ª ×Ķ
×Ĺ ×ķ×ł×Ļ
×ŀ ×ķ×ł×Ļ×ª
Ġ×¨×Ĳ ×ķ×ĳ×Ł
×ķ×Ļ×Ļ×§ ×ĺ×Ļ×Ŀ
Ġ×Ķ×Ķ ×ķ×ĵ×¢×ķ×ª
×Ľ×ĳ ×ķ×ĵ
×Ĥ Ö°
Ġ×ĳ×¨ ×Ļ
Ġ×Ĺ ×ķ×§×Ļ×Ŀ
Ġ×¦ ×Ķ×¨×Ļ×Ļ×Ŀ
×Ķ ×ĳ×Ļ×ª
×¦×¢ ×ĵ
6 1
Ġ×ĳ×¢ ×¡×§
Ġ×Ķ×Ĳ×Ļ×© ×Ļ×Ļ×Ŀ
hot o
Ġ×ľ×¢ ×ķ×ŀ×§
Ġ×ľ×ŀ ×ĺ×¨×Ķ
Ġ×¢×ķ×ĳ ×¨×ª
Ġ×©×Ĳ ×ķ×ª×ķ
Ġ×ĳ×ł ×Ļ×¡×Ļ×ķ×Ł
×¡ ×¡
Ġ×¦ ×Ļ×¤×ķ×¨
Ġ×Ļ×Ĵ ×Ĳ×ľ
Ġ×¡ ×Ļ×Ļ×Ŀ
Ġ×ĳ×¨ ×Ļ×Ĳ×Ķ
×¤×ľ ×Ĵ×ķ×ª
Ġ×Ĺ×ķ×§ ×¨×Ļ×Ŀ
Ġ×ķ×© ×¨
Ġ×§ ×ķ×ł×Ķ
Ġ×¨×Ĳ×Ļ ×Ļ×Ķ
Ġ×¤×Ļ×ł ×ł×¡×Ļ
×Ķ ×ł×ª
Ġ×ŀ×© ×Ļ×ŀ×Ķ
Ġ×© ×ĳ×ľ
Ġ×ŀ ×Ļ×¥
×Ĺ ×ķ×¥
Ġ×ŀ ×¨×ĺ
Ġ×Ĺ×ĸ×§ ×Ļ×Ŀ
Ġ×Ļ×¡ ×ķ×ĵ×Ļ
in k
Ġ×Ķ×ŀ ×ĳ×Ĺ×Ł
Ġ×Ľ×ķ×ª ×ĳ×ª
Ġ×Ĳ ×Ľ×ľ
×ķ×ĳ ×ĵ×Ļ
Ġ×ŀ×Ĺ×ľ ×ķ×§×ª
Ġ×ķ×ĳ ×ľ×ª×Ļ
Ġ×Ĺ ×Ļ×ŀ×ķ×Ŀ
×Ļ×¦ ×Ļ×¨×Ķ
Ġ×Ķ×ł×Ĺ ×Ļ×ķ×ª
Ġ×ķ×ª ×¢
Ġ×©×ĳ×¢ ×ª
Ġ×Ĺ×¨ ×ĵ×Ķ
×ķ×ĳ ×ł×ķ×ª
Ġ×ŀ×ķ×¨ ×©×ª
Ġ×Ķ×Ĵ ×Ļ×©
Ġ×ŀ×ĳ×§ ×©×ª
Ġ×ķ×ľ ×¨×Ĳ×ķ×ª
Ġ×ŀ×Ĺ ×ĳ×¨×ª
Ġ×ľ×Ĳ ×¡×ķ×£
Ġ×ľ×Ķ×¨ ×ķ×ķ×Ļ×Ĺ
Ġ×ĳ×Ĳ ×ĸ×ķ×¨×Ļ×Ŀ
×Ļ×Ľ ×ľ×Ļ×Ŀ
Ġ×¨×Ĳ×© ×ķ×ł×Ļ×Ŀ
Ġ×ľ×Ĺ ×ĵ×©
Ġ×Ĳ×ķ×Ľ ×ľ×Ļ×Ŀ
Ġ×©×Ĳ ×Ļ×ł×Ł
Ġ×ŀ×¢×ķ×ĵ ×Ľ×Ł
Ġ×Ļ×ĵ ×ķ×¢×Ķ
Ġ×ŀ×Ĵ ×ķ×¨
Ġ×ł ×Ĳ×ŀ×ł×ķ×ª
×¤×Ĵ ×©×Ļ×Ŀ
Ġ×Ķ×ª×Ĺ ×ķ×Ŀ
Ġ×ĸ×Ļ×Ķ ×ķ×Ļ
Ġ×ŀ×Ľ ×ķ×Ĺ
Ġ×ŀ×¦ ×ľ×ŀ×Ķ
200 8
×Ĺ×§ ×Ļ×Ŀ
Ġ×ĸ ×ķ×Ľ×¨×ª
Ġ×§×ĳ×ķ×¢ ×Ķ
Ġ×ĳ×©×ĳ×Ļ×ľ ×ļ
Ġ×Ļ×© ×Ļ
Ġ×©×ĳ×Ĳ ×ŀ×ª
Ġ×Ĳ×ª ×Ĵ×¨
Ġ×§ ×¦×Ķ
Ġ×Ļ×¢ ×Ļ×ľ×Ķ
Ġ×Ķ×ª ×ĳ×¨×¨
Ġ×ľ×Ĵ ×Ł
Ġ×ĳ×© ×Ĳ
ph p
Ġ×Ľ ×Ļ×¤×ķ×¨
Ġ×Ķ×¨ ×ķ×ŀ
Ġ×Ķ×¡ ×ª×Ļ
Ġ×Ĳ×ķ×ª ×Ļ×ķ×ª
Ġ j
C h
Ġ×ĳ ×Ļ×¢
Ġ×ª×¨ ×ķ×ŀ×ķ×ª
Ġ×Ķ×ŀ ×ķ×§
âĨ Ĵ
Ġ×ł ×ŀ×©×ļ
Ġ×ľ×¡ ×Ļ×ķ×Ŀ
Ġ×ĳ×ł×ª ×ł×Ļ×Ķ
×Ļ×ľ ×Ļ×ķ×ª
×ŀ×¦ ×Ļ×Ķ
Ġ×¢×¦ ×ŀ×Ł
×ĸ ×Ł
×Ļ×ŀ ×Ĳ
×ķ×¡×ĺ ×Ķ
×ķ ×ķ×Ĳ×¨
Ġ×Ķ×ĵ×ª ×Ļ×ª
Ġ×Ĺ×¡ ×¨×ª
×Ľ ×Ļ×Ľ×¨
Ġ×Ĳ×Ķ ×ķ×ĳ
×Ļ×Ĳ ×ł×Ļ
Ġ×© ×Ļ×ĸ
Ġ×¨ ×ķ×©×Ŀ
×¨×Ĵ ×Ŀ
×ŀ×ĵ ×Ļ×Ķ
Ġ×Ĳ×ł ×ķ×©×Ļ
Ġ×Ķ×©×ª×ª ×¤×ķ
×ķ ×Ļ×©
×Ľ×¨ ×ķ×Ł
Ġ×ĳ×Ļ×© ×Ļ×ĳ×Ķ
×ĳ ×Ļ×ĳ×ª
Ġ×Ķ×¤ ×ķ×ĺ×ł×¦×Ļ×Ĳ×ľ
Ġ×Ķ×¨×Ĺ ×ĳ×Ķ
×Ļ×ŀ ×ķ×¡
Ġ×ŀ×ł ×Ĺ×Ķ
×ĳ ×Ļ×¢×ª
E N
Ġ×Ķ×ŀ×ķ×ŀ ×Ĺ×Ļ×Ŀ
Ġ×ľ×§×¨ ×Ļ×Ĳ×Ķ
Ġ×ĳ×© ×Ļ×ĺ×ª
) (
×ĳ×¨ ×ĺ
Ġ×Ķ×§ ×ľ×ĺ×ķ×ª
Â «
×ķ×¤ ×©×Ļ
×¤×ª ×¨×ķ×Ł
Ġ×Ķ ×Ļ×Ľ×¨×ķ×ª
Ġ×Ķ×ŀ ×¨×ª
×¢×ª ×Ļ×Ŀ
×ĳ×ĵ ×ķ×§
Ġ×ŀ×¦ ×Ļ×Ĵ×Ķ
×¡ ×ķ×Ĵ
Ġ×¢×¨ ×Ł
×ŀ×¢ ×ķ
Ġ×©×¢ ×ķ×©×Ļ×Ŀ
×Ĳ×ł ×Ĵ
Ġ×ľ×Ĳ ×Ļ×ł×ĺ×¨×ł×ĺ
Ġ×ĳ×¢×¦×ŀ ×ļ
×ŀ ×ĳ×Ĺ
I C
Ġ×ľ×Ķ×ª×§ ×Ļ×Ļ×Ŀ
Ġ×ŀ×¢ ×ł×Ļ×§×Ķ
Ġ×ľ×¦ ×ķ×ķ×ª
×ķ×ĳ ×ľ×ķ×ª
Ġ×Ķ×¨ ×ļ
Ġ×Ĳ×ķ×¤ ×¦×Ļ×ķ×ª
Ġ×ľ×ŀ×Ļ ×Ļ×ľ
Ġ×¦×ŀ ×Ĺ×Ļ×Ŀ
Ġ×ĳ×© ×Ļ×ĵ×ķ×¨
×Ĵ ×ł×Ļ×Ŀ
×ĳ ×Ļ×ĵ
×¡ ×Ļ×ŀ
×Ļ×© ×ķ×ĳ×Ļ×Ŀ
Ġ×ł×ĵ ×Ļ×¨
Ġ×Ĳ ×Ĺ×Ļ×Ŀ
Ġ×Ĳ×¨ ×ķ×Ĺ×Ķ
Ġ×© ×ķ×¤×ĺ
×ĺ×¨ ×Ļ×ķ×ª
×ķ×Ĳ ×ĺ
Ġ×¡ ×Ļ×ĵ
Ġ×ľ ×ķ×ĳ
Ġ×ķ ×Ļ×ĳ
Ġ×ĳ×ª ×ŀ×ķ×ł×ķ×ª
×ŀ×ĺ ×Ľ
Ġ×ŀ×© ×ķ×ŀ
Ġ×ľ×Ķ×ª×§ ×©×¨
×ª ×ŀ×Ļ×ĵ
Ġ×§×ŀ ×¤×Ļ×Ļ×Ł
Ġ×ŀ×ķ×ĵ×¨ ×ł×Ļ
Ġ×Ĺ×ķ×ŀ ×¦×Ķ
Ġ×Ĳ ×Ļ×ł×Ļ
Ġ×Ķ×¡×¤×¨ ×ķ×ª
Ġ×ŀ×§ ×©
×Ķ ×ŀ×ª
Ġ×ł×Ĵ×ĵ ×ķ
×Ļ×ĸ ×¨×Ļ
o k
Ġ×ĺ×ķ×¢ ×ł×ª
Ġ×ĳ×ľ ×ķ×Ĵ×¨×Ļ×Ŀ
×ķ×¤ ×Ļ×Ļ×Ŀ
Ġ×¦ ×Ļ×ŀ×¨×Ļ×Ŀ
×ķ×ľ ×©
Ġ×ľ×Ĺ ×Ļ×ŀ×Ķ
×ķ×ĳ ×ĳ×Ļ×Ŀ
Ġ×Ĳ ×ķ×Ĺ
Ġ×Ķ×ľ ×Ļ×Ĵ×Ķ
×¤×¢ ×ľ×ª
×ª ×Ľ×ł×Ļ×ª
Ġ×ĳ×Ļ×ł ×ľ×Ĳ×ķ×ŀ×Ļ×Ļ×Ŀ
Ġ×ŀ×ķ×¢ ×ŀ×ĵ
ï ¿
Ġ×ª ×¤×ķ×¨×¡×Ŀ
Ġ×Ķ×Ĺ×ķ×§ ×¨×Ļ×Ŀ
Ġ×ĳ×ķ×ĵ ×ĵ×Ļ×Ŀ
×ŀ×Ķ ×Ļ
Ġ×ĳ×¦ ×§
Ġ×Ķ×ĺ×ĳ×¢ ×Ļ
×Ĵ×¨ ×ķ
×Ļ×Ĺ×¡ ×Ļ×Ŀ
Ġ×Ķ×Ļ×¨ ×ĵ×Ł
×Ľ ×Ļ×ľ×Ķ
Ġ×¨×© ×ŀ×Ļ×ª
×Ļ×¢ ×ķ×ĵ×Ļ
9 8
×ľ ×Ļ×Ļ×Ŀ
Ġ×Ķ×¢ ×ĳ×Ļ×¨×Ķ
Ġ×ĳ×ŀ×¡ ×¢
Ġ×§×Ļ×ĳ×ľ ×ł×ķ
×©×§ ×¢×Ķ
×ĳ ×©×ľ
Ġ×ĸ×ķ×Ĵ ×Ļ×ª
×¡ ×Ļ×§×Ķ
Ġ×©×ª ×Ļ×Ļ×Ŀ
Ġ×ĳ×ĵ ×ĳ×¨×Ļ×Ŀ
Ġ re
Ġ×¤ ×ķ×ĺ
Ġ×ľ×Ĺ×© ×ķ×£
Ġ×©×¢×ľ ×Ļ×ķ
Ġ×Ķ×ŀ×¢ ×¨×ĳ×Ļ×ª
Ġ×ĸ×Ľ×¨ ×ķ×Ł
Ġ×ĳ×Ľ ×ĳ×Ļ×©
×§ ×ĳ×ľ×ķ
Ġ×ķ×Ĳ ×ł×©×Ļ
×Ķ×¡ ×Ľ×Ŀ
7 3
Ġ×Ķ×Ĳ ×ĸ×¨×Ĺ×Ļ×Ŀ
Ġ×ľ×©×ľ ×ķ×Ŀ
Ġ×Ķ×Ĺ ×Ļ×ĳ×ķ×¨
a in
Ġ×Ķ×ľ ×ķ×Ļ
×ŀ ×Ļ×¢
×¦ ×Ł
Ġ×Ľ ×ķ×¨
Ġ×ŀ×ĵ ×ľ
Ġ×Ķ×¨ ×Ļ×©×ķ×Ŀ
Ġ×Ļ ×ķ×Ĵ×Ķ
Ġ×ķ×Ķ ×ķ×¤
Ġ×¤×ķ×¨ ×ķ×ŀ×Ļ×Ŀ
×Ĳ ×¦×ľ
×¤×§ ×ķ×ª
Ġ×ĳ ×ĵ×Ŀ
×ĺ ×Ļ×¡×ķ×ª
Ġ×ľ×Ķ×¤ ×Ĺ×Ļ×ª
×ķ×ĳ×Ļ ×Ļ×ľ
Ġ×ł ×ķ×ĸ
Ġ×¡ ×Ł
Ġ×Ķ×ĳ ×Ļ×§×ķ×¨
Ġ×ŀ×¦ ×ĳ×ķ
Ġ×Ķ×ŀ×ķ×¡ ×Ļ×§×Ķ
Ġ×ª×Ĳ ×Ĵ×Ļ×ĵ
×Ļ×Ĳ ×Ŀ
Ġ×© ×ķ×¨×©
×ŀ×Ĵ ×ĸ×Ļ×Ł
Ġ×ŀ×© ×Ļ×ŀ×ķ×ª
×Ĳ ×Ĺ×¨
Ġ×Ķ×ŀ×¡ ×ŀ×Ľ×Ļ×Ŀ
Ġ×ŀ×ł ×Ĵ×ł×ķ×Ł
Ġ×ŀ×¨ ×Ĺ×ķ×§
Ġ×¡ ×ķ×¨×Ļ×Ķ
Ġ×Ķ×ĳ×ª ×Ļ×Ŀ
Ġ×¨ ×ĳ×¢
Ġ×Ķ×ŀ×§ ×ķ×ŀ×Ļ×ķ×ª
t om
Ġ×Ľ×¢ ×ĳ×ķ×¨
×¦ ×ł×ķ
×Ľ×ľ ×ķ×ľ
Ġ×ľ×Ķ×§ ×¤×Ļ×ĵ
×ł×§ ×ķ
Ġ×ĳ×§ ×©×ķ×ª
×¦ ×Ļ×ŀ×¨×Ļ×Ŀ
Ġ×Ķ ×Ļ×§×¨
Ġ×ľ×Ĳ ×Ļ×©×Ķ
Ġ×¡×Ļ×Ľ ×ķ×ł×Ļ×Ŀ
E S
Ġ×ĳ×ĵ×Ļ ×ķ×Ł
Ġ×ĳ×Ļ×ª ×ķ
×Ļ×ĳ ×ķ×§
×Ļ×§ ×ľ×Ļ×ª
×ķ×¦ ×¨×Ķ
Ġ×Ĳ×¡ ×ª×¨
×ķ×§ ×¨×ª
Ġ×ķ×ľ ×Ļ
Ġ×ł×¤×ľ×Ĳ ×Ķ
Ġ×Ķ×ª×Ĺ ×ł×Ķ
Ġ×Ķ×¢ ×ª×§
×Ķ×ª×Ĺ ×ĳ×¨
×¦ ×ĳ×Ļ×Ŀ
×ĳ×ĵ ×ľ×Ļ×Ŀ
Ġ×Ĳ ×ŀ×©
Ġ×Ķ×ķ×Ĵ ×©×Ķ
×Ľ ×ķ×¨×ª
Ġ×Ĺ ×ķ×ķ×Ļ×Ļ×ª
×ŀ×§ ×ķ×ŀ×ķ×ª
×¨×ĺ ×ķ×Ł
Ġ×¡ ×Ľ×ł×Ķ
Ġ×Ķ×ŀ×§×¦×ķ×¢ ×Ļ×ª
Ġ×ĳ×¡ ×ķ×¨×Ļ×Ķ
×Ļ×¦ ×Ļ×§
Ġ×ŀ×Ķ ×ŀ×Ĺ
Ġ×ł×Ĺ ×ŀ×Ł
×ķ×¡ ×¤×ķ×ª
l ish
Ġ×ŀ×ľ ×ķ×Ĳ
Ġ×§×ł ×Ĳ×ĳ×Ļ×¡
Ġ×ŀ×ķ×Ĵ ×ĳ×ľ×ķ×ª
Ġ×ł ×ķ×ĳ×¢
Ġ×Ĳ×ľ ×ķ×£
×ķ×ł ×Ĳ×Ļ
Ġ×¤ ×Ļ×§×ķ×ĵ
×ĵ×¨ ×ķ×©
×ª×¨ ×ķ×ł×ķ×ª
ĠN ew
×ŀ×¢ ×¨×ĳ
Ġ×ŀ×ķ×ª ×Ĳ×Ŀ
Ġ×Ķ×ł ×©×§
×Ļ×ĺ×ķ×Ĳ ×¦×Ļ×Ķ
Ġ×Ĳ ×ķ×¦×¨
×ľ×¤ ×ķ×ł×Ļ×Ŀ
Ġ×Ĳ ×ŀ×ķ
Ġ×Ķ×ŀ×¡ ×¢×ĵ×Ķ
Ġ×ĳ×Ķ×¨ ×¦×ľ×Ļ×Ķ
Ġ×ķ×ľ ×ĺ
6 2
Ġ×ķ×ľ ×¤×¢×ŀ×Ļ×Ŀ
Ġ×Ĳ×Ĺ ×Ļ×ĵ
Ġ×¤×¨ ×ķ×¤×¡×ķ×¨
Ġ×Ķ×ŀ×ķ×¤ ×¢
×ķ×Ĺ ×§
I ST
Ġ×©×Ķ ×ĸ
Ġ×ľ×Ĳ ×¨×Ķ
Ġ×§×¦ ×Ļ×Ł
Ġ×ķ×ŀ ×ł×Ķ
Ġ×Ķ×Ĳ ×¤
Ġ×©×ª ×¢
Ġ×ĳ×¤ ×Ĳ×¨×§
http s
Ġ×ķ×Ĳ ×ķ×ŀ×¨
Ġ×ľ×Ľ×ľ ×ķ×ľ
Ġ×ŀ×ª ×ŀ×Ļ×ĵ
×ķ×¦ ×ĳ
×¤ ×Ļ×ķ
Ġ×Ĳ×Ļ×ĸ ×ķ×Ł
Ġ×ª×¤ ×Ļ×ľ×Ķ
×ĳ×ľ ×ł×ķ×ª
Ġ×Ķ×ł ×Ĺ×ķ×ª
×ł ×ĵ×Ļ×Ŀ
Ġ×ľ×Ķ ×Ľ×ł×¡
Ö ĸ
Ġ×ľ×Ķ ×¨×Ļ×Ŀ
×ŀ ×¤×ª
Ġ×ŀ×Ľ ×ł×Ļ×¡
Ġ×ĳ×Ĳ×© ×ĵ×ķ×ĵ
Ġ×ŀ×ª×§ ×Ļ×Ļ×Ŀ
Ġ×Ķ×¤×ķ×ľ ×Ļ×ĺ×Ļ×ª
×ķ ×ķ×§
×Ĳ ×ķ×Ĺ×ĸ×¨
Ġ×Ĺ×¤ ×¦×Ļ×Ŀ
Ġ×¢×ĳ×ķ×¨ ×Ŀ
Ġ×©×ŀ ×ķ×¨
Ġ×ĳ ×ĳ×Ļ
ĠA g
Ġ×ľ×ĳ×Ĺ×Ļ×¨×ª ×Ľ×Ŀ
Ġ×ķ×Ĵ ×ĵ
×Ķ ×ķ×ĵ×¢×ķ×ª
Ġ×Ķ×ł ×ķ×¨
Ġ×ª×Ķ×ľ ×Ļ×Ľ×Ļ×Ŀ
Ġ×ĳ×ŀ ×Ľ×ķ×Ł
Ġ×¦×Ķ ×ķ×ĳ
Ġ×ĳ×ŀ×¡ ×¢×ĵ×Ķ
Ġ×ª ×ĳ×ľ
ï¿ ½
Ġ×Ĳ×Ļ×ĸ ×ķ×¨
Ġ×Ķ×©×Ĳ ×Ļ×¨×ķ
Ġ×ĸ ×¢
Ġ×ľ×Ķ×ķ×¨ ×Ĳ×ķ×ª
Ġ×Ķ×Ĺ×¨ ×ĵ×Ļ×Ŀ
f o
Ġ×Ķ×© ×ķ×¤×ĺ×Ļ×Ŀ
Ġ×ŀ×© ×ľ×Ķ
Ġ×ł×Ļ×ª ×ł×Ķ
Ġ×ľ×ª ×Ļ×§×ķ×Ł
×Ĳ×Ķ ×ĳ
Ġ×¦×Ļ×ĳ×ķ×¨ ×Ļ×Ļ×Ŀ
Ġ×Ļ ×Ļ×©×ķ×Ŀ
×Ļ×ł ×ł×ķ
Ġ×ķ×¨ ×Ĳ×©
Ġ×¤×ĺ×¨ ×Ļ×ķ×ª
Ġ×Ķ×ŀ×¨×Ľ×ĸ ×Ļ×Ļ×Ŀ
×ĳ×¨×Ĳ×© ×Ļ×ª
Ġ×ŀ×Ĺ ×¡
Ġ×ľ×Ĳ ×Ĺ×ķ×¨
Ġ×ķ×ľ ×Ĵ
Ġ×ľ×© ×ĳ×ķ×¢
Ġ×Ķ×Ĺ×Ļ ×Ļ×ľ×Ļ×Ŀ
×Ķ×ľ ×Ļ×Ľ×Ļ×Ŀ
- )
Ġ×ł×Ļ×ª ×ł×ª
Ġ×ŀ ×Ļ×ĵ×ķ×ª
Ġ×Ķ×§ ×Ķ
Ġ×ŀ ×¤×Ļ
×ŀ×ĵ ×ĵ
Ġ×¤ ×ķ×¨×Ļ×Ŀ
×§×¨ ×ķ×ł×ķ×ª
Ġ×ª×¢ ×©×Ļ×Ļ×Ķ
Ġ×ŀ×¢×ķ×¨ ×ĳ×ķ×ª
Ġ×ĵ×Ļ×Ĵ×Ļ×ĺ ×ľ×Ļ×ª
Ġ×Ķ×Ĳ ×¨×Ļ
Ġ×ľ×ŀ ×Ļ×©×Ķ×ķ
×ŀ×Ĺ ×¤×©×Ļ×Ŀ
Ġ×ł×ª ×ł×ķ
×§ ×¦×ª
Ġ×Ĳ ×¤×ķ×¨
Ġ×Ķ×ª×Ĺ ×ķ×©×Ķ
Ġ×ĳ×ŀ ×ķ×ĳ×Ł
Ġ×ŀ×¦ ×Ļ×Ļ×Ł
Ġ×Ĺ ×Ļ×ĵ×ķ×©
Ġ×ĺ×¢ ×ķ×Ļ×ķ×ª
×Ļ×ª ×ķ×¨
Ġ×Ķ×© ×ĵ
×ľ ×ķ×ł×Ł
Ġ×ķ×¨ ×Ļ×Ľ×ķ×ĸ
Ġ×Ķ×Ĺ ×ķ×ĸ×Ķ
Ġ×ŀ×ĳ ×§×¨×Ļ×Ŀ
Ġ×ĵ×ª ×Ļ×Ļ×Ŀ
×ķ×ł×ĵ ×Ļ×Ĳ×ľ
Ġ×Ķ×ł ×Ļ×Ķ×ķ×ľ
Ġ×ľ×ľ×Ĺ ×ķ×¥
, ,
ĠA d
Ġ×Ĵ ×ŀ×ľ
Ġ×¢×ķ×ŀ ×§
Ġ×Ķ×Ķ ×¨×©×ŀ×Ķ
Ġ×ľ×¢×ĸ ×Ĳ×ĸ×ľ
Ġ×Ķ×ª×Ĺ ×Ļ×ľ×ķ
Ġ×¢×ĳ ×ķ×¨×Ļ
×ķ×ł ×¦
Ġ×ĳ×ª ×¨
Ġ×ĳ×Ļ×ł ×ľ×Ĳ×ķ×ŀ×Ļ×ª
×ĵ ×¢
Ġ×ľ×Ķ×ĵ ×Ĵ×Ļ×©
Ġ×ŀ×ĳ×ĺ ×Ļ×Ĺ
Ġ×Ľ ×ĸ
Ġ×Ļ ×ķ×§×¨×ª×Ļ
Ġ×¨ ×ŀ×ķ×Ł
Ġ×Ķ×Ĵ ×ĳ×¨×Ļ×Ŀ
Ġ×ĳ×¤×¨ ×©×ª
Ġ×ª×§ ×ł×ķ×ª
Ġ×ŀ×© ×ĺ×Ĺ
Ġ×©×ľ ×ĺ×ķ×Ł
Ġ×ĳ ×Ļ×ľ×ĵ×Ļ×Ŀ
×ĸ×§ ×ķ×ª
Ġ×Ķ×¢×ľ×Ļ ×ķ×ł×Ķ
Ġ×ķ×ĺ ×Ļ×¤×ķ×ľ
Ġ×ľ×ŀ×¦ ×Ļ×Ĳ×ķ×ª
×Ľ×¡ ×£
×Ļ×ķ ×ķ×ļ
×ĸ ×ŀ×Ķ
Ġ×Ķ×ª×¤ ×ķ×¦×Ķ
×ł×ª ×§
Ġ×ŀ×ª ×Ķ
×ķ×¢ ×ķ×ĵ
Ġ×Ļ×ĳ ×ł×Ķ
Ġ×¤×Ļ×ľ ×ķ×¡
Ġ×ĺ ×Ķ
Ġ×Ķ×¤×¢ ×ľ×ª
Ġ×Ķ×¡ ×Ļ×Ľ×ķ×Ļ
Ġ×ķ×ŀ ×©×ª
Ġ×Ĵ ×©×¨
Ġ×¢ ×ł×Ķ
Ġ×Ļ×§ ×ĳ×ľ×ķ
Ġ×ĳ×Ĳ ×ķ×¨×ļ
Ġ×Ķ×© ×ŀ×Ĳ
Ġ×Ķ×ª ×©×¢
Ġ×ľ×Ķ×Ļ×¤ ×Ĵ×©
Ġ×Ļ×¢ ×Ļ×ľ×ķ×ª
Ġ×ľ×Ļ×ĳ×¨ ×ŀ×Ł
Ġ×¢×ŀ×ĵ ×ª
Ġ×Ķ×Ķ ×Ĺ×ľ×ĺ×ķ×ª
Ġ×ľ×ĸ ×ķ×Ĵ×ķ×ª
Ġ×ŀ×© ×ĺ×¨×Ķ
Ġ×ķ×Ĺ ×ĳ×¨×ķ×ª
Ġ×§ ×Ĳ×¨
×Ļ×ĸ ×Ļ×Ŀ
Ġ×Ĳ×ĳ ×ł×Ļ
Ġ×Ķ×Ľ ×¨×Ķ
Ġ×Ļ×© ×ķ×ĳ
×ĺ ×ĺ
Ġ×ľ×¡ ×ŀ×ķ×ļ
Ġ×Ķ×§ ×¨×Ļ×Ļ×¨×Ķ
×©×ľ ×Ŀ
×© ×Ļ×ŀ×ķ×©
Ġ×Ķ×Ľ×¨ ×ķ×Ļ×ķ×ª
Ġ×Ķ×Ļ ×ķ×¢×¥
Ġ×ŀ×ľ ×Ľ×ķ×ª
Ġ×Ĳ×ľ×Ĺ ×ķ×ĺ×Ļ
×¨×Ĵ ×©×Ķ
×Ĳ×¨ ×Ĺ
×ľ×Ĳ ×ľ
Ġ×ķ×ĺ ×Ľ×ł×ķ×ľ×ķ×Ĵ×Ļ×Ķ
Ġ×Ķ×Ļ ×Ļ×ª×Ŀ
Ġ×¤×¨ ×Ļ×ĺ
Ġ×Ļ ×ķ×ł×ª×Ł
×ķ×ľ×ķ×Ĵ ×Ļ×ķ×ª
Ġ×ŀ ×ł×ķ×Ļ
×Ļ×ľ×ª ×Ķ
Ġ×Ķ×ķ×ĵ ×¢×ª
Ġ×¤×¡ ×ķ×§
Ġ×ŀ×Ļ×ŀ ×ĵ
Ġ×Ķ×¢ ×Ļ×ª×ķ×ł×ķ×ª
×Ļ×¢ ×ª×ķ
Ġ×ľ×¡ ×ĵ×¨
×¤ ×ľ×Ĳ
Ġ×Ľ×ķ ×ķ×ł×Ķ
Ġ×Ľ ×ª×¨
×ĵ×ķ ×ķ×§×Ĳ
×¤ ×¦×Ļ×Ŀ
Ġ×ĵ ×ł×Ķ
Ġ×ĳ×ŀ ×Ĺ×§×¨
×ĸ×¨ ×ķ×ª
×ĵ×¨ ×Ļ×Ľ×ľ×ķ×ª
Ġ×ķ×¦×¨ ×Ļ×ļ
ĠArch ives
Ġ×ķ×Ĳ ×ł
ind ex
×ķ×© ×¨×ª
×ĳ×ĵ ×Ļ×§×ª
Ġ×¦×¨ ×Ļ×Ľ×ª
×ķ×ľ ×ł×ĵ
Ġ×©×ĳ ×Ļ×§
Ġ×©×Ĳ ×ķ×ŀ×¨
×ľ×ķ ×Ļ×ĸ×Ļ×Ķ
×Ļ×ĺ×¨×Ļ ×ķ×ł×Ļ×Ŀ
×Ļ×¤×ķ×¨ ×ł×Ļ×Ķ
Ġ×¢×ł ×£
×©×ľ ×ķ×ŀ×Ļ×Ŀ
Ġ×ĵ×Ļ ×ķ×§
×Ĳ×¨ ×Ļ×Ľ×Ļ×Ŀ
Ġ×§×© ×ķ×¨×Ķ
Ġ×Ķ×¤×Ĵ ×Ļ×¢×Ķ
×© ×ľ×Ĳ
Ġ×¨×ķ×ĳ ×Ŀ
Ġ×ľ×ľ ×Ļ×ŀ×ķ×ĵ×Ļ×Ŀ
Ġ×ŀ×¢×ķ×¦ ×ĳ
Ġ×Ĺ×§ ×ľ×Ĳ
×¨ ×ķ×ł×ķ×ª
×ķ×ŀ ×Ĺ×Ķ
Ġ×Ļ×Ĺ×ĵ ×Ļ×ķ
×ķ×¢ ×Ļ×ĵ×ª
×Ĵ×ĵ ×ľ×ª
×ª ×Ĳ×¨×Ļ×ļ
Ġ×Ķ×© ×ľ×ĳ
Ġ×ª×¦ ×ķ×Ĵ×Ķ
Ġ×ĳ×ĺ×¢ ×ł×Ķ
Ġ×Ķ×ª×Ļ ×Ļ×©
Ġ×ķ×ĸ×Ķ ×ķ
Ġ×ĳ×¢ ×Ļ×Ł
Ġ×Ķ×¡ ×¢
×ķ×¤×ķ×ľ×¨ ×Ļ×Ļ×Ŀ
Ġ×Ķ×Ľ ×Ķ×Ł
×ľ×ŀ×Ļ×ĵ ×Ļ
Ġ×Ķ×Ĺ ×ĺ
Ġ×Ķ×ŀ×Ļ ×ķ×¢×ĵ
Ġ×Ķ×ª ×Ľ×ł×Ļ×Ŀ
Ġ×Ķ×¨ ×ķ×¤×Ĳ×Ļ×Ŀ
×§×ķ×ľ ×ĺ×Ķ
p s
×ķ×¤ ×ķ×Ł
Ġ×ĳ×¢ ×ĸ×Ķ
Ġ×© ×ĺ×Ļ
Ġ×ł×Ļ ×ķ×ĸ
Ġ×ĳ×ŀ×§ ×¦×ķ×¢
Ġ×©×¢×ª ×Ļ×Ļ×Ŀ
Ġ×ľ×Ķ×ª×Ļ ×Ļ×¢×¥
Ġ×ĳ×ª ×ł
Ġ×Ļ×Ĵ ×Ļ×¢×ķ
Ġ×Ķ×ŀ×ķ×ŀ ×Ĺ×Ķ
Ġ×Ĳ×ķ×¨ ×Ĺ×Ļ
Ġ×ľ×ŀ ×ľ
Ġ×ĳ ×ĸ×¨
ĠA ir
Ġ×ŀ×ŀ ×ķ×Ĺ
×¤×¨ ×ĺ×Ļ
Ġ×Ķ×ĵ ×ŀ×ķ×ª
Ġ×ķ×© ×ł×Ļ
Ġ×Ĳ×ķ×¤ ×¦×Ļ×Ķ
Ġ×Ķ×ĳ ×Ľ×ķ×¨×Ķ
Ġ×Ĵ ×Ļ×ĳ×ķ×©
Ġ×¢×ķ×ľ ×ŀ×Ļ
in ter
h er
Ġ×Ĳ×Ķ ×ķ×ĵ
Ġ×ľ×Ķ ×ķ×ķ×ª
un d
Ġ×ĳ ×ķ×ł×Ķ
×Ĳ ×Ļ×ľ×Ł
Ġ×¤×¨ ×Ļ×ĸ
Ġ×ľ×Ķ×Ļ×ľ ×Ĺ×Ŀ
Ġ×Ķ×¢ ×¨×Ľ×Ļ×Ŀ
×ķ×ĳ ×ľ×Ļ
×ķ×ĳ ×ĵ×ķ×ª
Ġ×ķ×ŀ ×Ĵ×ķ
Ġ×ľ×ŀ ×ł×ķ×ª
Ġ×Ķ×ŀ ×Ļ×ł
Ġ×Ķ×§×ĺ ×¢
Ġ×§×ĺ ×¢×Ļ
Ġ×ŀ×ķ×¤ ×Ļ×¢×Ļ×Ŀ
Ġ×ŀ×Ĳ ×Ĺ
Ġ×ĳ×Ķ×¡ ×Ľ×Ŀ
im e
Ġ×Ĳ ×¨×ĺ
Ġ×¨×Ķ ×Ļ×ĺ×Ļ×Ŀ
Ġ×ł×¡ ×Ļ×ĳ×ķ×ª
Ġ×Ĳ×ª ×Ĳ
Ġ×¤×Ļ×¦ ×ķ×Ļ×Ļ×Ŀ
Ġ×Ķ×Ĵ ×ŀ
×¦ ×Ĳ×ķ
Ġ×Ķ×ł×ĵ ×¡×Ķ
Ġ×ľ ×ķ×Ĳ
Ġ×ŀ×ĸ ×ŀ
Ġ×Ļ×¨ ×Ĳ×Ķ
Ġ×ĳ×¦ ×¢
Ġ×Ľ ×¨×Ĳ×ķ×Ļ
×Ķ ×Ļ×¡×ĺ×ķ×¨×Ļ×Ķ
Ġg et
Ġ×ĳ×Ĺ ×§
×ķ×ŀ ×¥
Ġ×ľ×ª ×©×ľ×ķ×Ŀ
Ġ×©×Ķ ×ł
Ġ×Ķ×¤×ķ×ľ ×Ļ×ĺ
Ġ×Ķ×ŀ×¦×ľ ×ŀ×Ķ
Ġ×Ķ×¤×¨ ×ķ×¤×Ļ×ľ
Ġ×ł×Ķ×¨ ×Ļ×Ķ
×§ ×¢×ķ×ª
Ġ×ĵ ×ľ×§×ª
Ġ×Ķ×Ĵ ×Ĵ
Ġ×¦×¢ ×¦×ķ×¢×Ļ×Ŀ
Ġ×ŀ×¢×ĵ ×Ļ×£
Ġ×Ķ×¦ ×Ĵ×ª
Ġ×Ķ×¤ ×Ľ×ł×ķ
Ġ×ľ×Ķ ×¢×¨×Ļ×ļ
×ª×Ļ ×Ļ×¨×ķ×ª
×ķ×Ľ ×ķ
Ġ×ķ×ŀ ×©×Ŀ
o ad
×ķ×ĳ ×Ļ×ķ×ª
Ġ×ŀ×ķ×Ĵ ×ĳ×ľ×ª
×ĺ ×ĳ×¢
* .
×ķ×ŀ ×ķ×Ł
Ġ×ª×ķ×¡ ×¤×ķ×ª
×Ļ×ª×¨ ×ķ×ł×ķ×ª
Ġp hot
Ġ×ŀ×ĳ ×Ļ×Ĳ×Ķ
Ġ×Ĳ×¤×ľ×Ļ×§ ×¦×Ļ×Ļ×ª
Ġ×ľ×Ķ×ª×§ ×ĵ×Ŀ
Ġ×Ķ×Ĳ ×Ļ×Ĺ×ķ×ĵ
Ġ×§×© ×Ļ×Ļ×Ŀ
Ġ×§×ĺ ×ľ
Ġ×ľ×Ĺ ×§×¨
Ġ×ľ×Ķ×©×§ ×¢×Ķ
Ġ×ł×ķ×ª ×¨×ķ
Ġ×Ķ×¢ ×ķ×ª
Ġ×§ ×ķ×ĳ×Ļ
Ġ×Ļ×¨ ×ķ×Ł
Ġ×ł×¢ ×ĸ×ķ×¨
Ġ×ĳ×Ĺ ×ľ×ľ
Ġ×¨ ×Ļ×Ľ×ķ×ĸ
Ġ×ĳ×ŀ ×ķ×ł
Ġ×ŀ×©×ľ ×ŀ×Ļ×Ŀ
Ġ×Ķ×Ĳ×ĵ ×ŀ×ķ
Ġ×ľ×ŀ×© ×ķ×ļ
Ġ×ª ×©×ª×Ļ×ª
Ġ×ľ×Ĳ ×Ļ×©
od a
Ġ×ĳ×ŀ ×ª×Ł
Ġ×ŀ×§ ×¤
Ġ×Ķ×ķ×Ĵ ×Ł
Ġ4 6
×Ķ×¨ ×Ļ×ķ×Ł
Ġ×¤×© ×Ļ×ĺ×ª
Ġ×ĳ×Ķ ×ª×§
Ġ×Ķ×ĳ ×¦×§
Ġ×¨ ×Ŀ
×ķ×ŀ×ĺ×¨ ×Ļ
Ġ×ĳ ×ķ×ł
I S
Ġ×ĳ ×Ļ×¨×Ķ
Ġ×ĳ×Ĺ ×ł×ķ×Ļ×ķ×ª
Ġ×§×ķ×¨ ×Ļ×¡
Ġ×Ķ×ķ×¤ ×Ļ×¢
×ķ×¨ ×ĳ×ķ×ª
×©×§ ×¢×ķ×ª
Ġ×¢ ×ķ×Ĵ×ª
Ġ×¢×ķ×¦ ×ŀ×ª
Ġ×Ķ×Ĳ ×©×Ķ
×ľ×§ ×¨×Ĳ×ª
×¨×ĳ ×ķ×Ļ×ķ×ª
×ł ×ł×ķ×ª
Ġ×ŀ×ĺ ×ĳ×Ĺ×Ļ×Ŀ
Ġ×ķ×ľ×¢ ×Ļ×ª×Ļ×Ŀ
×Ĺ ×ķ×£
Ġ×©×ŀ ×ł
×ŀ ×Ĺ×§×¨
Ġ4 4
Ġ×Ķ×ľ×ķ ×ķ×Ĳ×ķ×ª
×Ļ×¡×ĺ ×Ł
×ŀ×ĵ ×¢
Ġ×ľ×¡ ×ķ×Ĵ
Ġ×¨ ×¢×Ķ
×§×¨ ×ł×ķ×ª
Ġ×ł×¢ ×©×Ļ×ª
Ġ×Ķ×Ĵ ×ķ×¨
×¨×§ ×¢
Ġ×ľ ×ł×Ļ×ķ×ķ×ĺ
×Ĳ ×¨×Ĵ
Ġ×¢ ×ķ×¡×§×Ļ×Ŀ
×ľ×Ķ ×ĳ×ķ×ª
Ġ×Ĳ×Ľ ×Ļ×ľ×Ķ
Ġ×Ķ×¤ ×ľ×Ĳ
Ġ×¢ ×ķ×Ĵ×ķ×ª
Ġ×Ķ×¢ ×ķ×ľ×Ķ
Ġ×ľ×ĳ×¢ ×Ļ×ķ×ª
Ġ×¡ ×ĺ×Ļ
×¢×¨ ×ķ×ĳ×ª
Ġ×ľ×ł×§ ×ķ×ª
Ġ×ľ×Ķ×© ×Ļ×ĳ
Ġ×Ļ×ķ×¨ ×ĵ
Ġ×¢×ŀ×ĵ ×ķ×ª
×ķ×¦ ×¢×ª
Ġ×Ķ×¤ ×Ļ×¨
O M
Ġ×Ķ×¢ ×ķ×¡×§
Ġ×Ķ ×Ļ×ª
Ġ×ł×ķ×Ķ ×Ĵ×Ļ×Ŀ
Ġ×ŀ×ķ×© ×ĳ
Ġ×¢ ×ŀ×Ļ×ĵ×Ķ
Ġ×Ķ×ŀ ×ĸ×ľ
Ġ×¡×¨×ĺ ×ķ×ł×Ļ×Ŀ
Ġ×ĳ×© ×ŀ×Ĺ×Ķ
Ġ×ķ×ł ×Ļ×ľ
Ġ×Ĳ×Ļ×ĺ ×ķ×Ŀ
Ġ×Ĳ×Ĺ ×ľ×Ķ
×ĳ ×Ļ×ĺ×ķ×ľ
×Ĺ×¨ ×ķ×Ļ×ķ×ª
Ġ×Ķ×¦ ×ĳ×¢×Ļ×Ŀ
Ġ×ĳ×ĺ ×ķ×Ł
Ġ×ĵ×ķ×¨ ×ķ×Ł
Ġ×Ķ×ŀ×© ×ľ×ĳ
Ġ×Ķ×ŀ×ĳ×§ ×©×Ļ×Ŀ
Ġ×¢ ×¨×Ľ
l d
×¨×© ×ķ×ŀ×Ķ
×ķ×ķ×Ļ ×ķ×Ł
×ĺ ×Ĺ×ª
Ġ×§×ĳ×ķ×¦ ×ª×Ļ
Ġ×ŀ×Ľ ×ķ×ł×Ķ
Ġ×Ĵ ×¨×Ĳ
Ġ×ŀ×ĵ ×ķ×ķ×Ĺ
Ġ×Ķ×ŀ×ĳ×ķ×§ ×©
×Ĳ ×ķ×Ľ×ľ
Ġ×ķ×ł ×Ĺ×ĸ×ķ×¨
Ġ×Ĺ ×ŀ×¦
Ġ×Ķ×ĳ ×Ļ×Ĳ×ķ
Ġ×ľ×§ ×Ķ×Ļ×ľ×Ķ
Ġ×ł×ĵ×¨ ×©×Ļ×Ŀ
Ġ×©×¨ ×¦
Ġ×Ķ×¤×¡ ×Ĺ
Ġ×ŀ×¡×ľ ×ķ×ľ×Ļ
Ġ×Ķ×ŀ×Ľ ×Ļ×¨×Ķ
O L
Ġ×Ĳ×Ļ ×Ļ
Ġ×ĳ×§ ×¨×Ļ×Ļ×ª
Ġ×Ļ×¤ ×ł×Ļ
×ķ×Ĳ×ľ ×Ļ×¦×Ļ×Ķ
×¤ ×¡×ĺ×Ļ×ĳ×ľ
×ľ ×Ļ×Ĵ×Ķ
Ġ×Ķ×ł ×©×ŀ×Ķ
Ġ×Ķ×§ ×Ļ×¦
Ġ×ĳ×Ĺ ×Ĵ
og raph
Ġ×ĳ×¨×ĸ ×Ļ×ľ
Ġ×ķ×©×Ļ×¨×ķ×ª ×Ļ×Ŀ
Ġ×ľ×Ķ×ª ×Ĵ×ĳ×¨
Ġ×¨ ×Ļ×¦×Ķ
Ġ×Ĵ×¨ ×ķ×¡
Ġ×ĳ×¨ ×Ļ×Ĳ×Ļ×Ŀ
Ġ×Ĵ×¨ ×ķ×Ł
Ġ×Ķ ×ķ×¢×ĵ×Ķ
n ess
×ĳ ×Ļ×ķ
×Ļ×ľ ×Ļ×ķ×Ł
Ġ×ľ×ĳ ×ĺ
Ġ×ĳ×ª ×¤
Ġ×§ ×ĳ×ľ×ķ
Ġ×Ĺ×ķ×§ ×Ļ×ª
oo vit
Ġ×ķ×Ķ ×©×ľ
Ġ×Ĺ ×ķ×§×¨
ig a
Ġ×ł ×Ĵ×Ļ×©
v is
Ġ×Ķ×Ļ×© ×¨
×Ļ×Ķ ×ķ×ĵ×Ķ
×ĳ ×ķ×ł×Ł
Ġ×ł ×ķ×Ĺ×Ļ×Ŀ
×Ļ×¨ ×Ł
Ġ×ľ×Ļ ×Ļ×§
Ġ4 7
Ġ×ĳ×Ľ ×ĳ×ķ×ĵ
×ĸ×§ ×Ļ
Ġ×¡×¤ ×¦×Ļ×¤×Ļ
Ġ×ŀ ×Ļ×ĺ×Ķ
×Ļ×Ĳ ×ķ×ł×Ļ×Ŀ
Ġ×©×Ļ×ķ×ķ×§ ×Ļ
Ġ×ĳ×¡ ×ŀ
×Ļ×ŀ ×ª×Ļ
Ġ×Ĺ×ĺ ×Ļ×ĳ×ª
×Ļ×© ×ł×Ŀ
Ġ×ŀ×ª ×Ĵ
Ġ×ľ×¨×© ×ķ×Ŀ
Ġ×¨×Ĵ ×¢×Ļ×Ŀ
×Ľ×ª ×ĳ×ª
Ġ×ľ×Ĺ ×ķ×¤×©×Ķ
×© ×Ļ×Ĺ×Ķ
Ġ×ŀ×ĳ ×Ļ×Ĳ×Ļ×Ŀ
Ġ×©×Ĺ×¨ ×ķ×¨
Ġ×Ķ×ĺ ×Ļ×¡×Ķ
Ġ×Ķ×ŀ×ł ×ķ×Ĺ
Ġ×§ ×ĵ×Ŀ
Ġ×ŀ×Ľ ×Ķ
Ġ×Ķ×ŀ×© ×Ļ×ŀ×Ķ
Ġ×Ķ×Ĳ ×Ļ×ĺ×ľ×§
Ġ×Ķ ×ķ×ĺ
Ġ×Ķ×ķ×Ĺ ×ľ×ĺ
Ġ×ĺ ×ķ×¤
×ĳ×© ×ł×Ļ×Ŀ
Ġ×§ ×ķ×¤×ª
Ġ×ł ×Ĳ×Ķ
Ġ×Ľ×ķ×ª ×¨×ķ×ª
Ġ×Ķ×§ ×ĳ×ľ
Ġ×©×Ļ×Ĳ ×¤×©×¨
Ġ200 1
Ġ×ľ×¨ ×ķ×¥
Ġ×¤ ×ł×Ļ×ķ×ª
Ġ×ķ×Ķ ×©×ķ×ķ×Ĳ×ª
×Ĳ ×Ļ×ł×ĵ×§×¡
Ġ×¢×¨ ×Ļ×Ľ×ª
ex t
Ġ×Ķ×ª×§ ×ł×ª
×ł×ĺ ×Ļ×ł×Ķ
Ġ×Ĳ ×ĵ×ľ
Ġ×©×§ ×¨×Ĳ
Ġ×ŀ×ª×Ĺ×ª ×ł×Ļ×Ŀ
Ġ×© ×ķ×Ĳ×Ķ
Ġ×Ķ×ª×§ ×©×¨×ķ×ª
Ġ×Ļ×¤ ×Ł
×Ĳ ×ķ×¡
×Ļ×ĺ ×§
Ġ×©×Ķ ×ķ×ĳ
×Ĵ×ķ×¨ ×Ļ×ķ×Ł
×ŀ ×Ļ×©×Ķ×ķ
Ġ×ŀ×©×ª×ŀ×© ×Ļ
×ŀ×Ļ×ĵ ×ķ×ª
×¤×¡ ×ĵ
×© ×Ļ×ľ×ĵ
Ġ×ĳ×Ĺ ×ķ×£
Ġ×Ĵ ×ķ×¤×Ļ×Ŀ
Ġ×Ĳ×Ļ×ł ×ļ
Ġ×ľ ×ķ×ŀ×ĵ
Ġ×ª×¢ ×ķ×ĵ×Ķ
Ġ6 4
Ġ×Ķ×ķ×ĳ ×ľ×Ķ
Ġ×Ļ×¢ ×ĳ×ķ×¨
Ġ×ŀ×ĵ ×ĳ×¨×ª
Ġ×ŀ×§ ×ľ×Ĺ×ª
×ķ×ĵ ×ĵ×Ļ×Ŀ
×ķ×ľ ×§
×ŀ×ľ ×ļ
×Ĳ×Ļ ×Ļ
Ġ×ľ×© ×§
Ġ×ĳ×ł ×Ĵ×ĳ
Ġ×Ĳ×ĳ×ĺ ×Ĺ×ª
Ġ×©×Ļ×ĵ ×ķ×¨×Ļ×Ŀ
×ŀ×Ĺ ×ķ
Ġ×ł×© ×Ľ
Ġ×ľ×ł ×¤
Ġ×Ĺ×ŀ ×ķ×¨×Ķ
×Ĵ×Ļ×© ×ķ
Ġ×Ķ×Ľ×ķ×ľ ×ľ×Ļ×Ŀ
Ġ×¤×¢ ×ľ
Ġ×¨ ×Ļ×§×ķ×ĵ
... )
Ġ×ŀ×ĺ ×¤×ľ
Ġ×©×§ ×©×Ķ
×¡×ŀ ×ķ×ł×ª
Ġ×¨ ×ķ×¢×Ļ
Ġ×ĳ×Ĺ ×ķ×ĵ×©×Ļ×Ŀ
×ł ×ķ×Ĺ
Ġ×¢ ×ķ×ŀ×¨
Ġ×¢ ×ł×ª
8 00
Ġ×ŀ×ĺ ×ķ×¡
Ġ×©×ķ×ŀ ×¢
Ġ×Ķ×ª×§ ×ĳ×ľ×Ķ
×ķ×ł ×ľ×ĵ
9 5
Ġ×¨×¢ ×©
Ġ×ĳ×¢ ×ĳ×ķ×ĵ×ª
Ġ×ľ×ĺ×¢ ×ķ×Ł
Ġ×ĵ ×Ĵ×ľ
Ġ×ł ×ķ×ķ×Ķ
×ĵ×Ķ ×ķ×ª
Ġ×ŀ×Ĵ ×ķ×ķ×ł×Ļ×Ŀ
×Ĳ×© ×ŀ×Ĺ
Ġ×Ľ×ĳ ×Ļ×Ľ×ķ×ľ
Ġ×ł×Ļ×¦ ×Ĺ
Ġ×©×ŀ×© ×ª
×ĳ×¨ ×Ĳ
Ġ×ŀ×ķ×¤ ×Ļ×¢×Ķ
×ª×Ĺ ×ķ×Ŀ
Ġ×ķ×ª ×¨×ĳ×ķ×ª
Ġ×©×ľ ×Ļ×©×Ļ×ª
Ġ×Ĳ×¡×ĺ×¨×ĺ×Ĵ ×Ļ×Ķ
Ġ×ł×Ļ×¡ ×ķ
Ġ×©×Ĳ ×¡×ķ×¨
Ġ×§ ×ľ×Ļ
ĠP hot
Ġ×ŀ ×ķ×¡×£
Ġ×ľ ×Ļ×¡
Ġ×ľ×Ĺ ×ķ×ª
Ġ×Ĺ×Ļ×¦ ×ķ×ł×Ļ×ª
Ġ×ĳ×Ĺ ×ķ×¨×£
ĠD es
Ġ×Ĵ ×ķ×¤×Ł
Ġ×ĳ×ĳ ×¡×Ļ×¡
ĠM ar
×© ×Ļ×ł×ķ×Ļ
Ġ4 3
Ġ×ĳ×¡ ×ĵ×¨×ª
Ġ×¤ ×ķ×ŀ
×ŀ ×ŀ
Ġ×ŀ×ŀ ×ķ×©
Ġ×ŀ×¡ ×Ľ×ª
×ł ×ķ×ł×Ķ
Ġ×¨×¤×ķ×Ĳ ×Ļ×ķ×ª
Ġ×Ķ×ŀ ×ĵ×¨×©
Ġ×ŀ×© ×ª×Ļ
Ġ×¤×ķ×ľ ×Ļ×Ł
×Ķ ×ĵ×¨×ļ
Ġ×©×Ķ ×ķ×§
Ġ×ŀ×ª ×ķ×Ĺ
×Ļ×ľ ×¡
Ġ×Ķ×ĺ ×ķ×¤×¡
×ķ×Ķ ×ĳ×ª
am es
Ġ×Ĳ×Ķ×¨ ×Ł
ĠP r
Ġ×ľ×Ĺ ×ł×ķ×ª
×Ľ ×ŀ×Ļ
ĠS u
Ġ×Ķ×ĳ ×Ļ×¨×Ķ
Ġ×ª×¢ ×©×Ļ
Ġ×ł×ķ×ľ ×ĵ×Ķ
Ġ×Ķ×Ķ×©×¤ ×¢×Ķ
Ġ×© ×Ļ×¨×ª
Ġ×Ķ×Ĳ ×ķ×ķ×Ļ×¨×Ķ
Ġ×¡×ĺ ×ķ×ĵ×ł×ĺ
×ĵ ×Ļ×ĺ
Ġ×Ķ×ŀ×ķ×ĵ×¨ ×ł×Ļ
Ġ×Ķ×ŀ ×©×¨×Ķ
Ġ×ĳ×Ľ ×ŀ×ķ×ª
Ġ×ľ×ª×§ ×©×ķ×¨×ª
Ġ×ľ×ĵ ×Ļ×¨×Ķ
Ġ×©×ŀ ×Ļ×¨×ª
Ġ×ĳ×ŀ ×ľ×Ĺ×ŀ×Ķ
Ġ×ŀ×Ĵ ×Ķ
Ġ×Ĵ ×Ĳ×Ķ
×ŀ ×Ľ×ª×ĳ
Ġ×ĳ×ĳ ×ł×§
Ġ×ĳ×ĵ ×§×Ķ
Ġ×ľ ×ķ×ķ
×ķ×¨ ×¨×Ļ×Ŀ
A P
×¡ ×ķ×ľ
Ġ×©×ķ×ķ×Ļ ×ķ×Ł
Ġ×ŀ×Ķ ×ĳ
×ľ×Ĳ ×ķ×¨
Ġ×Ķ×¡ ×Ļ×ł×Ļ×ª
Ġ×¢ ×Ľ×ķ
Ġ×Ķ×ł ×ĳ
Ġ×Ķ×Ĳ×ł ×Ĵ×ľ×Ļ×ª
Ġ×§ ×ł×Ķ
×ŀ ×ĸ×ľ
Ġ×Ķ×Ĺ ×Ļ×ķ×ª
×ł ×Ļ×ļ
Ġ×ľ×Ĳ ×Ĺ×ª
Ġ×ŀ×¡×ķ ×Ļ×ŀ×ķ×ª
Ġ×Ķ×ĳ×ĺ ×Ļ×Ĺ×ķ×ª
Ġ×¤×¨ ×©×ł×ķ×ª
Ġ×ŀ×§ ×¨×ķ×ĳ
Ġ×Ķ×Ľ×ł×¡ ×ķ
Ġ us
×Ļ×¨ ×Ĳ×Ł
Ġ×ŀ×ľ×Ĳ ×Ļ
Ġ×ķ×¨ ×ķ×ĵ
Ġ×ŀ×Ĳ ×ķ×Ĺ
Ġ×Ķ×ŀ×¢ ×¨×ĳ
Ġ×ľ×ŀ ×Ĺ×¨×ª
Ġ×ĳ×ª ×©
Ġ×Ĳ×Ĺ ×ķ×¨×Ķ
Ġ×ŀ×¢ ×ķ×ľ×Ļ×Ŀ
×¤ ×Ľ×ķ
×Ľ×¨ ×ª×Ļ
Ġ×Ķ×ł×ĵ×¨ ×©×Ļ×Ŀ
Ġ×ķ×Ĳ ×ķ×¨
Ġ×ŀ×Ĺ ×ķ×ĳ×¨
Ġ×ĳ×¢×¦×ŀ ×Ŀ
Ġ×¡ ×Ļ×ĳ×ķ×ĳ
×© ×Ļ×¢×ķ×¨×Ļ
Ġ×Ķ×§ ×ķ×ł×¡
Ġ×Ķ×© ×§×ĺ
×ľ×§ ×ķ×Ŀ
Ġ×©×ķ×Ĳ ×ľ×Ļ×Ŀ
×¤×ķ×¨ ×ŀ×¦×Ļ×Ķ
Ġ×ĳ ×Ļ×ĸ
Ġ×§ ×ķ×ł×Ĵ
Ġ×©×¨×Ĳ ×Ļ×ª×Ļ
Ġ×ł×¢ ×¦×¨
Ġ ×Ļ×¤×ķ×ª
Ġ×ĳ×ł×ķ ×Ļ
Ġ×© ×¨×Ľ
×Ļ×ł ×Ļ×ł×ķ
Ġ×ŀ×ĵ×¨ ×Ĵ×ķ×ª
Ġ×ĺ×ľ×¤ ×ķ×ł×Ļ×Ŀ
Ġ×Ķ×ŀ×Ķ×¤ ×Ľ×Ķ
Ġ×Ķ×ķ×¤ ×¢×Ķ
Ġ×ŀ×Ĳ×ĸ ×Ł
Ġ×ĳ×Ļ×ĵ ×Ļ×Ļ×Ŀ
Ġ×ľ×ª ×ķ×ĳ×¢
×¨×Ĺ ×ĳ×Ķ
×Ĳ ×Ļ×Ľ×ķ×ª
×Ļ×ĳ ×ĺ
Ġ×ŀ×¨ ×ķ×Ľ
Ġ×ĳ×Ľ ×¨×ĺ×Ļ×¡
Ġ×§ ×Ļ×¡
Ġ×ľ ×Ļ×Ĺ
Ġ×Ķ×ł ×Ļ×ª
Ġ×ł×ŀ ×ķ×Ľ×Ļ×Ŀ
Ġ×Ĳ×¨ ×ķ×Ł
Ġ×Ľ×Ĺ ×ķ×ĵ×©
Ġ×Ķ×¤ ×Ĺ×ĵ
Ġ×¡×ĳ×ľ ×ł×ķ×ª
Ġ×ľ×¦ ×¨×Ľ
Ġ×Ķ×¡ ×ķ×¤×Ļ
Ġ e
Ġ×ł×Ĳ×ľ ×¥
Ġ×ª×§ ×¦
×Ĺ×§ ×ķ
Ġ×ŀ×¨ ×¦×Ķ
Ġ×ĳ×ŀ×¢ ×¨×Ľ×ķ×ª
Ġ×¡×ĺ×ł×ĵ×¨ ×ĺ
Ġ×ŀ×©×ķ×ľ ×ĳ
Ġ×Ķ×¦ ×ĺ×¨×£
×ŀ×ĺ ×Ļ×ª
M arker
Ġ×ĳ×©×ľ ×ķ×Ŀ
Ġ×ĵ×ķ×¨ ×©×ª
Ġ×ª ×ķ×ĳ×¢
Ġ×Ķ×Ļ×ľ ×ĵ×Ķ
Ġ 01
Ġ×¦×ķ ×ķ×Ĳ×¨
Ġ×© ×Ļ×§×ķ×Ŀ
Ġ×ĳ×§×¨×ĳ ×ª
Ġ×Ķ×¢×Ļ×§×¨ ×Ļ×Ļ×Ŀ
Ġ×Ķ×Ĳ ×Ļ×ŀ×Ļ×Ļ×ľ
Ġ×Ķ×ĳ ×©×¨
R SS
Ġ×ľ×Ķ ×Ļ×ĸ
Ġ×Ĳ×ķ×ŀ ×ł×Ŀ
Ġ×ĳ×¤ ×ķ×ľ
Ġ×¤×¨×Ļ×ĵ ×ŀ×Ł
Ġ×ŀ×Ĺ ×ĵ
×ł ×Ļ×¦
Ġ×ŀ×¦ ×ķ×ŀ
×Ľ×ķ×ª ×¨×ª
Ġ×ł×ķ×¡ ×Ĺ
×Ļ×ł ×¡×ķ×Ł
Ġ×ĳ×Ļ×Ķ ×ŀ
i al
Ġ×¡ ×ĵ×¨×ķ×ª
Ġ×ŀ×ľ×Ĳ ×ķ
Ġ×ĳ×© ×ĳ
A S
Ġ×ĳ×Ĳ×ª×¨ ×Ļ
Ġ×¡ ×ķ×ĳ×ľ×Ļ×Ŀ
Ġ×ŀ×§ ×ķ×ĵ×Ŀ
Ġ×Ķ×¨ ×Ļ×ĳ×Ļ×ª
Ġ×ĳ×ŀ×© ×ĺ×¨×Ķ
×¡ ×ĺ×Ļ
Ġ×Ķ×¤ ×Ļ×¦
Ġ×Ķ×¦ ×Ļ×ķ×ł×Ļ
×Ķ ×§×ľ
Ġ×ĵ×Ļ ×ķ×ł×Ļ×Ŀ
Ġ×¡ ×ķ×Ľ×ł×ķ×ª
Ġ×ĳ×ŀ ×Ļ×ĵ×ª
Ġ×ľ×ĳ×Ĺ ×Ļ×¨×Ķ
Ġ×Ĺ×¤ ×¥
Ġ×Ķ×Ķ×¡×ª ×ĵ×¨×ķ×ª
Ġ×ł×Ķ×¨×Ĵ ×ķ
×Ļ×ŀ ×ľ×Ļ×ª
Ġ×ķ×Ļ×¦ ×ŀ×Ł
Ġ×ª ×Ļ×Ľ×ķ×Ł
I L
×ľ×Ĺ ×ķ
Ġ×ĳ×¨ ×¢
×¨ ×¡
Ġ×©×Ĳ ×ľ×ª×Ļ
201 9
Ġ×Ĵ×ľ ×Ļ×©×Ķ
Ġ×Ķ×Ĳ×ł×ķ×© ×Ļ×ª
Ġ×ľ×ª ×ľ×ŀ×Ļ×ĵ×Ļ×Ŀ
Ġ×©×¢ ×¨×Ļ
Ġ×ĳ×Ĳ ×ķ×ª
Ġ×Ķ×¢ ×ľ×Ķ
Ġ×ŀ ×Ļ×©×Ķ×Ļ
×Ļ×¨ ×ķ×Ł
×ŀ×ĵ ×Ļ×ł×ª
Ġ×Ķ×ĳ ×ł×ª
Ġ×¤ ×ķ×ĺ×¨
Ġ×ĳ×¤ ×¡×ĺ×Ļ×ĳ×ľ
Ġ×Ķ×¦×¨ ×¤×ª×Ļ
×Ľ ×ŀ×¢×ĺ
Ġ×Ķ×Ĳ ×ĸ
×ŀ ×Ļ×©×Ķ
×Ķ×Ĺ ×Ļ×Ļ×Ŀ
×ł×¡ ×§×Ļ
Ġ×ª×Ĳ ×ķ×ł×ª
Ġ×Ļ ×ķ×©×ĳ×Ļ×Ŀ
Ġ×ľ×Ĳ ×ķ×¤
Ġ×ľ×ĳ ×Ļ×§×ķ×¨
Ġ×Ĺ×¨ ×Ļ×£
×©×ª ×ķ×ª
Ġ×ĵ×ķ×Ĵ ×ŀ×ª
Ġ×ŀ×ª×§×ĵ ×ŀ×ķ×ª
Ġ×ĳ×§ ×ķ
Ġ×ŀ×ł ×Ļ×¢×Ķ
Ġ×¡ ×Ļ×ł×Ļ×ª
Ġ×ĳ×ĺ ×Ĺ×ķ×Ł
ir l
×Ĳ ×Ĵ×Ķ
Ġ×ľ×¢ ×ķ×ĵ×ĵ
×ľ×ĳ ×Ł
×¡ ×Ļ×§×Ļ×Ŀ
Ġ×¡×Ļ×ŀ ×ł×Ļ×Ŀ
Ġ×ŀ ×ķ×Ĳ
Ġ×©×ĺ ×Ļ×Ĺ×Ļ×Ŀ
Ġ×ª ×©×ª×Ļ×ķ×ª
Ġ×ľ×Ĳ×Ĺ×¨ ×Ļ×Ŀ
Ġ×ł×ª ×¤×¡
Ġhttp s
r am
Ġ×ĵ ×ķ×ķ×Ĺ
Ġ×ķ×ŀ ×Ļ×ĵ
Ġ×ª×§ ×ł×Ķ
Ġ×© ×£
×ķ×ľ×ķ×Ĵ ×Ļ×Ļ×Ŀ
Ġ×ł×¢ ×ľ×Ļ
Ġ×ŀ×Ľ ×Ļ×ľ×Ķ
Ġ×Ķ×ĳ×ĺ ×Ł
Ġ×Ķ×ª ×ķ×¤×¢×Ķ
×ĳ×ĺ ×ľ
Ġ×ķ×ĳ×Ķ ×Ŀ
×ķ×§×¨×Ĳ ×Ļ×ł×Ķ
or k
×Ļ×©×Ĳ×¨ ×ķ
×¦ ×ĳ×ª
Ġ×ĳ×Ĳ ×ķ×ª×Ŀ
×ŀ ×ł×¢
Ġ×ľ×ŀ ×¡×§×ł×Ķ
Ġ×ŀ×© ×ľ×Ŀ
Ġ×Ĺ ×ķ×ķ×Ķ
×Ļ×¢ ×§×ĳ
×Ļ×ĳ ×ķ×ľ
×ĳ×§ ×©×Ļ×Ŀ
×ŀ×©×ª ×ŀ×©
Ġ×¦ ×ķ×¨×ķ×ª
×ĳ×Ĺ ×ķ×¨
Ġ×ŀ×Ļ×Ļ×¦ ×Ĵ
Ġ×ĳ×Ļ×ª ×¨
×Ļ×ľ ×Ļ×Ļ×Ŀ
Ġ×ĺ×¢ ×ł×ª
×ł×Ĵ ×ł×ķ×Ł
Ġ×ĳ×ª ×ķ×ľ×ĵ×ķ×ª
×¦×¨ ×Ļ×Ľ×Ļ×Ŀ
Ġ×§×ķ×¨ ×Ĳ×ª
Ġ×Ķ×ĵ ×ľ×§
×Ļ×© ×Ļ×ª×ķ×£
Ġ×ĳ×Ļ×¦ ×¢
Ġ×ķ×¤ ×ł×Ĳ×Ļ
×Ĺ ×ĺ
Ġ×© ×ķ×¤×ĺ×Ļ×Ŀ
Ġ×Ĺ ×Ļ×ĸ×ķ×§
×Ľ×ķ ×ķ×Ł
×ķ×ŀ ×Ĺ×Ļ×Ŀ
×ķ×¡ ×Ĺ
×§×© ×Ł
Ġ×ĳ×¨ ×ľ×Ļ×Ł
Ġ×ľ×Ķ ×ķ×ĵ×¢×Ķ
Ġ×ľ×ĳ ×Ļ×ĺ×ķ×ľ
Ġ×ŀ ×ĺ×Ļ×Ļ×ľ×Ļ×Ŀ
Ġ×¨×¦ ×ķ
Ġ×Ķ×¢ ×ķ×¡×§×Ļ×Ŀ
Ġ×Ķ×ŀ×© ×ĳ×¨
×Ļ×ĵ ×ķ×©×Ļ×Ŀ
Ġ×ľ×Ĳ ×ł
Ġ×ľ×Ķ×ĺ ×Ļ×ľ
Ġ×§×¨ ×Ļ×Ĳ
Ġ×¨ ×Ĵ×Ļ×©
Ġ×ľ×¢×ĵ ×Ľ×Ł
×© ×ł×ķ
Ġ×ŀ×ª×§ ×ł×Ļ×Ŀ
Ġ×Ķ×ľ ×Ľ×ª
×Ľ×ķ×ľ ×ª
×Ļ×ĵ ×§×Ļ×Ŀ
Ġ×ĳ×ŀ ×ł
Ġ×©×ľ ×Ĺ×ķ
×ĳ×Ķ ×ª
Ġ×¤×Ļ×ĸ ×Ļ
×Ļ×§ ×ķ×ľ×Ļ×Ŀ
Ġ×ķ×¢ ×¨
Ġ×Ļ ×ķ×¤
Ġ×¢×ķ×¦ ×ŀ×Ķ
Ġ×Ĳ×ĸ×ķ×¨ ×Ļ
it h
Ġ×Ķ×¤ ×ĺ
Ġ×ľ×¢ ×ķ×¨
Ġ×Ķ×Ĵ ×ĳ×ľ×Ķ
Ġ×ľ×¤ ×ķ×¡×ĺ
Ġ×ľ×ĵ×¨ ×ķ×©
×Ļ×ŀ ×ł×ķ
Ġ×©×Ľ ×ĳ×ķ×ª
Ġ×ľ×© ×§×ķ×ľ
Ġ×Ļ ×Ļ×¨
Ġ×ľ×ĸ ×Ľ×ķ×Ļ×ķ×ª
Ġ×Ķ×ł ×ŀ×¦×Ĳ
Ġ×©×ĳ ×§
×¤ ×ķ×¥
Ġ×©×ķ×ĺ ×£
Ġ×ĳ×ĺ ×¢×ķ×ª
Ġ×ł ×ķ×ĺ×Ļ×Ŀ
Ġ×¡ ×¨×¦
c le
Ġ×Ĳ ×Ļ×ŀ×Ķ
Ġ×ł×ķ×Ķ ×Ĵ
Ġ×¤ ×ķ×ł×Ļ×Ŀ
Ġ×ľ×Ľ ×ķ×ľ×ł×ķ
Ġphot ol
Ġ×Ķ×ł ×ķ×£
×ŀ×¦ ×¢×Ļ×Ŀ
Ġ×ĳ×¨ ×Ļ×Ľ×ª
Ġ×Ķ×Ĳ ×ķ×¤×Ł
Ġ×Ķ×¨×Ĵ ×Ļ×ľ
Ġ×©×Ļ×Ĺ ×§
Ġ×Ķ×§×ķ×ĵ ×ŀ×Ļ×Ŀ
Ġ×Ĺ×Ļ×ľ ×ķ×¤×Ļ
Ġ at
Ġ×¦ ×ł
Ġ×Ķ×¨×Ĵ ×©×Ķ
×¦×Ļ ×ķ×ĵ
Ġphotol iga
Ġ×¦×Ļ×ľ ×ķ×ŀ×Ļ×Ŀ
Ġ×ĳ×¢ ×ķ×ŀ×¨
Ġ×Ľ×ķ×ľ ×Ł
×ĳ×ĺ ×Ĺ
Ġ×ĳ ×Ļ×Ľ×ķ×ľ×ª
r ou
Ġ×ŀ×Ļ×ł ×Ļ×ŀ×ķ×Ŀ
×¤×ķ×¨ ×ŀ×Ķ
×ķ×¦ ×Ĺ
Ġ×ľ×Ĳ ×ł×©×Ļ
8 5
Ġ×¢×¨ ×ķ×ļ
Ġ×¨×Ĳ×ķ ×Ļ×Ķ
Ġ×ł ×Ļ×ŀ
×ķ×ĺ ×ĺ
Ġ×ĳ×Ĳ ×ķ×ĺ×ķ×ĳ×ķ×¡
×¤ ×ĸ
Ġ×Ķ×ŀ ×ĸ×ķ
Hotel s
Ġ×Ķ ×ľ×Ĺ×¥
Ġ1 000
Ġ×ŀ×Ĺ ×ŀ×ĵ
Ġ×ľ×Ĵ ×Ļ×Ļ×¡
Ġ×¡ ×ķ×¤×Ļ
Ġ×ĺ ×Ļ×¤×Ķ
Ġ×ĳ×ŀ ×ĳ×ł×Ķ
Ġd o
Ġ×Ĳ×ĳ ×Ĺ×ķ×Ł
Ġ×ľ×ŀ×ĵ ×¢×Ļ
×¤ ×ķ×ĺ
Ġ×Ĳ×Ļ×¡ ×ķ×£
A D
Ġ×Ķ×ľ ×Ľ×ª×Ļ
Ġ×Ĵ×ĵ ×ķ×ľ×Ļ
×Ļ×¡×ĺ ×Ļ×Ļ×Ŀ
Ġ×ŀ×Ķ ×ķ×ª×Ļ
v er
Ġ×Ķ×§ ×¦×¨
Ġ×ľ×¦×¢ ×¨×Ļ
Ġ×Ķ×ŀ×¤ ×¢×ľ
Ġ×ľ×§ ×ķ
Ġ×¤×¨ ×¦
×¡ ×ĵ×¨
×ķ×ĵ ×©×ª
Ġ×ŀ×Ķ ×Ĳ×¨×¥
Ġ×©×Ĳ ×ľ×ķ
Ġ×¨×ķ×ĳ ×¨×ĺ
×Ļ×Ķ ×ķ×Ļ
Ġ×ª×§ ×ĳ×ľ
Ġ×Ĺ×© ×ķ×ĳ×ķ×ª
Ġ×©×Ķ ×ŀ×©
Ġ×ŀ×ĸ ×ŀ×Ļ×Ł
Ġ×ľ×¡ ×ĳ×Ļ×ª
Ġ×Ķ×¡ ×ª×Ŀ
Ġ×ŀ×ķ×¦ ×ľ×Ĺ×ª
Ġ×ľ×Ķ×Ĵ ×©×Ļ×Ŀ
×¤×ķ×¨ ×©
Ġ×ľ×Ļ ×Ļ×¢×ķ×¥
Ġ×ĳ×¨ ×¦×ľ×ķ×ł×Ķ
×ķ×Ľ ×Ĺ×Ļ×Ŀ
Ġ×ĳ×Ļ×ł ×Ļ×Ķ×Ł
Ġ×©×¨ ×¦×Ļ×ª
Ġ×ł ×ª×Ĺ×Ļ×ľ
×ł×Ļ×§ ×ķ×Ļ
Ġ×ĳ×¡ ×Ļ×Ľ×ķ×Ł
Ġ×ľ×§×ĳ ×ķ×¦×ķ×ª
Ġ×ĳ×ĵ ×ķ×§
×Ķ×¢ ×¨×Ķ
Ġ ×Ļ×ķ×ķ×Ł
Ġ×ľ×¢ ×ķ×¨×¨
×¢×ĵ ×Ļ×£
Ġ×ĳ ×ķ×Ĺ×¨
×¨×Ĵ ×ķ×ľ
Ġ×Ļ×ĵ ×ķ×¢×Ļ×Ŀ
Ġ×§ ×ŀ×Ĳ
p er
Ġ×ŀ ×ķ×¤×¨
×Ļ×Ļ×ĺ ×§
Ġ×ľ ×Ļ×ķ×ª×¨
Ġ×§×¨ ×ł×ķ×ª
Ġ×Ľ ×ĳ×©
Ġ×Ķ×© ×Ľ×ķ×ł×Ķ
Ġ×ŀ×© ×Ļ×Ĺ
Ġ×ķ×ª ×ŀ×Ļ×Ľ×Ķ
200 7
Ġ×ŀ×§×ķ×¨ ×Ļ×ª
Ġ×ľ×Ķ×¡ ×Ľ×Ŀ
Ġ×ľ×Ķ×¢ ×ŀ×Ļ×ĵ
×Ĳ ×ł×¡
Ġ×Ķ×©×ª ×ł×Ķ
Ġ×ĳ×ŀ ×ĵ×¨
Ġ×ŀ×Ķ ×Ĳ×Ļ
Ġ×Ľ×ĵ ×ķ×¨×Ļ×Ŀ
Ġ×ł×© ×Ľ×Ĺ
×Ĳ ×ŀ×Ļ×Ŀ
Ġ×ŀ×¨×Ĵ ×¢
Ġ×Ľ×¡ ×¤×Ļ×ª
ĠBlog ger
Ġ×¦×¨ ×¤×ª×Ļ
×¨×Ľ ×Ļ×©×ª
Ġ×ķ×ĺ ×ķ×ĳ
Ġ×ĵ×Ķ ×Ļ×Ļ×ł×ķ
Ġ×Ķ×ŀ×ķ×ĳ ×Ļ×ľ×ķ×ª
Ġ×ŀ×Ķ×Ĺ ×Ļ×Ļ×Ŀ
Ġ×Ķ×¡ ×ķ×Ľ×¨
Ġ×Ļ×¤ ×ª×Ĺ
Ġ×ľ×Ķ ×ŀ×ľ×Ļ×¥
Ġ×ŀ×¢ ×¦×¨
ĠD e
Ġ×ĳ ×Ļ×ł×Ļ×Ļ×Ŀ
Ġ×ĳ×ĳ×¨ ×Ľ×Ķ
Ġ×Ĵ×ĳ ×Ļ×ł×ª
Ġ×Ķ×Ĳ ×Ļ×ŀ×ķ×Ł
×ķ×Ĵ×¨ ×¤×Ļ
Ġ×ĳ×Ķ ×ł
Ġ×Ĺ ×ķ×ľ×Ļ
×Ļ×ķ ×ķ×Ķ
×Ľ×ł×ª ×Ĳ×ķ×ª
Ġ×ķ×Ķ ×ŀ×Ĺ
×Ķ ×¨×Ļ
Ġ×¢×¦ ×ķ×ŀ×Ķ
×Ĺ ×¦×Ļ
Ġ×©×ľ ×Ļ×Ĺ
Ġ×Ķ×¨×¦ ×¤×Ķ
Ġ×ŀ×Ĳ ×ķ×ł×Ļ×ĳ×¨×¡×Ļ×ĺ×ª
×Ļ×¡ ×ķ×£
Ġ×Ĳ×¤×ľ×Ļ×§ ×¦×Ļ×Ķ
Ġ×Ķ×© ×Ļ×ĳ
Ġ×Ķ×¤×ľ ×Ļ×ľ×Ļ
×ŀ ×¢×Ķ
Ġ×ľ×Ĳ ×¨×Ĵ×ķ×Ł
×¢×ľ ×Ļ×Ļ×Ŀ
Ġ×Ľ×© ×ł×Ķ
×Ļ×Ĵ ×ķ×ľ
×ķ×¡×ĺ ×ķ×Ł
Ġ×Ķ×¤×¡ ×ķ×§
×ķ×Ļ×§ ×Ļ×ł×ª×ķ×ł×Ļ×Ŀ
. ,
Ġ×ĳ×© ×Ļ×ĺ×Ķ
Ġ×ĵ×Ļ×Ĳ ×ĺ×Ķ
Ġ×¡ ×ķ
Ġ×Ĳ×Ļ×ł ×ĺ×ľ
Ġ×Ķ×¡ ×ķ×ľ
Ġ×ľ×¦ ×ŀ×¦×Ŀ
×ķ×ķ×Ĳ ×Ļ
Ġ×Ķ×© ×Ļ×¢×ķ×¨
Ġ×ľ×ł ×ķ×¢×¨
Ġ×¨ ×Ł
re w
Ġ×Ķ×ŀ×ĺ ×¤×ľ
Ġ×ª×©×ľ ×ķ×ŀ×Ļ×Ŀ
×© ×Ļ×¢×ķ×¨
Ġ×ľ×§ ×©×¨
Ġ×ľ×Ķ×©×ª ×ľ×ĳ
Ġ×ľ×Ĳ ×ĳ×ĵ
Ġ×ĳ ×Ļ×ĵ×ķ×¨
Ġ×ŀ×©×ª ×ł×Ļ×Ŀ
×ķ×Ļ×ĵ ×Ĳ×ķ
Ġ×¡ ×ľ×ķ×Ł
×ķ×Ĵ ×¨×ª
Ġ×ŀ×§×ľ ×ĵ×ª
Ġ×Ļ×ķ×¦ ×Ĳ×Ļ
Ġ×Ĵ×ľ ×Ĵ×ľ×Ļ×Ŀ
Ġ×Ķ×¤×¢ ×ķ×ľ×ķ×ª
Ġ×§×ł ×ĵ×Ķ
Ġ×Ĳ×Ĺ×ĵ ×ķ×ª
Ġ×Ķ×ª×Ĺ ×Ļ×ľ×Ķ
×Ķ×ĸ ×Ļ×ł×ķ
Ġ×ŀ×ĵ×¨ ×Ļ×ĵ
×ķ×ŀ ×ķ×¨
Ġ×Ķ×Ļ×¨ ×©×Ŀ
×Ļ×¢ ×¦×ķ×ª
Ġ×Ĵ ×Ļ×ł×Ķ
Ġ×ŀ×ŀ ×Ļ×ľ×Ĳ
Ġ×Ķ×Ķ ×Ľ×¨
Ġ×©×Ĳ ×ĵ×Ŀ
Ġ×©×Ķ ×ĺ
Ġ×ķ×ŀ ×ª×Ļ
×¤×¨×ĺ ×Ļ×ķ×ª
Ġ×Ĺ×ĳ×¨ ×ķ
Ġ×¦×ŀ×Ĺ ×Ļ
Ġ×Ķ×ŀ×¤×¨ ×¥
×Ĳ×ŀ ×ł×Ŀ
×Ļ×Ĵ ×Ļ×ķ×Ł
Ġ×Ķ×ª×© ×ķ×ĳ×ķ×ª
Ġ×ľ×Ĺ ×Ļ×¦×Ķ
Ġ am
×¢ ×ĵ×Ļ×Ļ×Ł
Ġ×ª ×ķ×¢×ľ×ª
Ġ×ĳ×ŀ ×ŀ×ķ×¦×¢
Ġ×ŀ×¢×ĵ ×Ļ×¤×Ļ×Ŀ
Ġ×Ķ×ŀ×ķ×ĸ ×Ļ×Ĳ×ķ×Ł
Ġ×ľ×Ķ×ª ×¤
×Ļ×¤ ×ª×Ĺ
Ġ×ĳ×Ĵ ×ĳ×¢×ª
×ĳ×Ĳ ×ķ×¤×Ł
Ġ×ŀ×Ķ ×ª×§
Ġ×ĵ×Ĳ ×Ĵ×Ķ
Ġ×ľ×ĳ×¨ ×ķ×Ĺ
Ġ×ª×¤ ×ķ×¦×Ķ
×Ļ×Ľ×¨ ×ķ×ł×ķ×ª
×Ļ×Ĺ ×ķ×¨
×ł ×ĳ×ľ
Ġ×©×¢ ×ķ×ľ×Ķ
Ġ×ŀ×§ ×¨×Ļ
×ŀ×¡ ×ķ×ł×Ĵ
Ġ×ķ×ł ×Ĺ
Ġ×ł×¤×¨ ×ĵ×ª
×ª ×ŀ
A tom
Ġ×ĳ×Ĵ ×ĳ
×© ×Ļ×ŀ×Ķ
Ġ×Ķ×ŀ×¢ ×ķ×ĵ
Ġ×ĳ ×¨×Ľ×ª
Ġ×ŀ×ķ×¨×Ľ ×ĳ×Ļ×Ŀ
×ŀ×ķ×ª ×ķ×ª
×Ļ×ĺ ×¦×Ļ×Ķ
×ĺ ×Ļ×§×Ķ
Ġ×©×Ķ ×ĵ×ĳ×¨
Ġ×¢×ķ×§ ×ĳ×Ļ×Ŀ
Ġ×ŀ×Ĳ×ķ×¨×Ĵ ×ł×Ļ×Ŀ
Ġ×ľ×Ķ ×¤×ľ
Ġ×ŀ×ª ×ł×Ĵ
Ġ×Ķ×¤×¡ ×ĵ
Ġ×Ķ×¢ ×¨×Ķ
Ġ×Ķ×¨ ×¡
Ġ×Ĺ ×ª×Ŀ
Ġ×Ķ×ŀ×ķ×¢ ×¦×ķ×ª
Ġ×Ķ×ª×¨ ×ķ×¤×ķ×ª
Ġ×ĸ ×Ļ×ľ
Ġ×Ķ×ª ×ŀ×ķ×ĵ×ĵ×ķ×ª
Ġ×Ļ×¦ ×ķ×¨
Ġ×Ķ×¦×ĳ×Ĳ ×Ļ×ª
Ġ×Ķ×Ķ×Ļ×¡×ĺ ×ķ×¨×Ļ
Ġ×Ķ×¢ ×©×¨×Ļ×Ŀ
Ġ×¨ ×ŀ×Ļ
Ġ×ĳ×¤ ×ľ
Ġ×ĵ ×Ļ×ľ
Ġ×©×§ ×Ļ×Ļ×Ŀ
×Ļ×ĺ ×§×ĺ
Ġ×¦ ×Ļ×¤
Ġ×Ķ×ª ×Ļ×§×ķ×Ł
Ġ×ĳ×Ĳ ×¡
Ġ×ķ×Ĺ ×¨
Ġ×ľ×Ķ×© ×ķ×ķ×ª
×ķ×ł×ª ×Ķ
Ġ×Ķ×ķ×Ľ ×Ĺ×Ķ
×Ļ×ŀ ×ĵ×Ļ×Ķ
Ġ×ľ×¤×ł×Ļ ×ķ
Ġ×ķ×ĳ ×ł×Ļ×Ļ×ª
Ġ×Ķ×Ĺ×¨ ×ĵ×Ļ×ª
×¢ ×¡×§×Ļ×Ŀ
×©×ľ ×ŀ×Ķ
Ġ×ľ×¤ ×Ļ×ķ
×Ľ ×ķ×ł×Ł
×Ķ ×Ľ×ª×ķ×ĳ×ª
Ġ×ĳ×ķ×ķ×Ļ×§ ×Ļ×©×Ļ×ª×ķ×£
Ġ×ľ×ĵ ×ĳ×¨×Ļ×Ŀ
Ġ×ĳ×¤×¨ ×Ļ×ĸ
×ķ×Ĳ ×ľ×Ļ×Ŀ
×¤ ×©×ķ
7 6
Ġ×©×Ķ ×ķ×©
Ġ×Ĳ×Ļ ×Ļ×¤×ķ×Ł
×ł×© ×ĺ×Ļ×Ļ×Ł
Ġ×ĳ×ª ×ķ
Ġ×§×ķ×§ ×ķ×¡
Ġ×¡ ×¢×ĵ
Ġ×Ķ×Ĳ×§×ĵ ×ŀ×Ļ
Ġ×ŀ×ª×§ ×Ł
×Ĵ×ľ ×Ĵ×ľ
Ġ×© ×ķ×©
Ġ×Ĳ ×Ļ×Ĺ×ķ×ĵ
×Ļ×Ĳ×ľ ×ķ×Ĵ
Ġ×Ľ ×§
Ġ×ķ×ŀ×¦ ×ĵ
Ġ×ľ×© ×ķ×Ŀ
Ġ×Ķ×¦×¤ ×ķ×ł×Ļ
×ķ×ŀ ×Ĺ
×© ×©
Ö¹ Ö¼
Ġ×©×ľ ×Ĵ
Ġ×Ķ×¦ ×¨×Ľ×Ł
×Ĵ×¢ ×Ļ
Ġ×¨×ĳ ×ł×Ļ×Ŀ
Ġ×Ľ ×Ļ×¨
Ġ×Ķ×¢×ķ×ĳ ×ĵ×ķ×ª
×ĳ×ľ ×ª×Ļ
Ġ×ª×ķ×Ľ ×ł×ª
Ġ×ľ×¨ ×ķ×ķ×Ĺ
×ŀ×¦ ×Ļ×Ĳ
Ġ×ŀ×¦ ×Ļ×¦×ķ×ª
Ġ×ł×ĳ×Ĺ×¨ ×Ļ×Ŀ
Ġ×ľ×Ķ×©×ª ×ł×ķ×ª
Ġ×ª ×ł×ķ×¢×ķ×ª
âĢª ,
Ġ×ª×¢ ×ľ×Ķ
×ŀ×ķ×ª ×ķ
Ġ×Ķ×ĳ ×ł×Ļ×Ķ
Ġ×ŀ ×Ļ×¨×Ļ
Ġc um
Ġ×ŀ×ĺ ×¤×ľ×Ļ×Ŀ
Ġ×ĳ×Ľ ×Ļ×ķ×ķ×Ł
×Ĳ ×ĳ×Ĳ
×ķ×¦ ×Ĵ
Ġ×ŀ×Ķ×¡ ×ķ×Ĵ
Ġ×ł ×¨×Ĺ
Ġ×Ķ×Ļ×¦ ×Ļ×Ĳ×Ķ
Ġ×Ķ×¤×¡ ×Ļ×Ľ
Ġ×Ķ×Ĳ×ľ ×ķ×¤×ķ×ª
×¤×ķ×¨ ×ĵ
Ġ×ķ×ĳ×¨ ×Ļ×Ĳ×ķ×ª
Ġ×ľ×¨ ×ŀ×ª
Ġ×Ķ×ł ×ĳ×Ļ×Ĳ
Ġ×ŀ ×ľ×Ļ×ķ×Ł
×Ļ×¤ ×ĺ
×ķ×ł ×Ļ×¡
Ġ×ŀ×¡×Ĺ×¨ ×Ļ×Ļ×Ŀ
Ġ×Ķ×ª ×Ĵ×Ļ×Ŀ
Ġ×ŀ×ª×§ ×ł×Ļ
Ġ×ķ×Ĺ ×©×ķ×ĳ
Ġ×ķ×¤ ×ľ
Ġ×Ķ×ĸ ×§×Ł
×Ķ×Ĳ ×ŀ×ª
Ġ×Ķ×Ĵ ×Ļ
Ġ×ĳ×¨×¦ ×Ļ×ł×ķ×ª
- âĢ¬
×ĳ×ª ×Ĺ
Ġ×Ķ×ĳ ×ķ×ľ×ĺ
×ł ×¦×Ļ×Ķ
Ġ×ĳ×¢ ×ŀ
×© ×ķ×¨×Ķ
Ġ×ķ×Ļ ×Ļ×¡
Ġ×¡ ×ķ×¡×Ļ×Ŀ
Ġ×ľ×ł ×ĵ
Ġ×Ķ×Ĳ ×¨×Ĵ
Ġ×ĳ×¡×¨×ĺ ×ķ×Ł
Ġ×ľ ×ĳ×ľ×ķ×Ĵ
Ġ×ĺ ×Ĺ
M L
×¦×ľ ×Ĺ×ª
×¢ ×¡
Ġ×ľ×Ķ×¨ ×ķ×Ĵ
Ġ×ķ ×Ļ×¦×Ļ×¨×ª
Ġ×© ×Ĵ×¨×ª
Ġ×ľ×¢ ×ĸ×¨×Ķ
Ġ×Ķ×ŀ×ķ×¤ ×Ļ×¢×Ļ×Ŀ
×¦ ×¤×ķ×Ł
Ġ×ķ×ķ ×Ļ×ľ
Ġ×©×ł×§ ×ĳ×¢
Ġ×Ķ×ŀ×ĺ ×ķ×¡
×ĳ ×ĵ×ķ×ª
Ġ×ľ ×ķ×Ĵ
Ġ×Ķ×ŀ×Ľ ×ķ×ł×Ļ×ª
Ġ×Ķ×ŀ ×ŀ×ķ×ł×Ķ
Ġ×Ļ×©×¨×Ĳ×ľ ×Ļ×ķ×ª
Ġ×Ĳ×ĸ×ķ×¨ ×Ļ×ª
Ġ×ł×¢×ľ ×Ŀ
×ķ×¨×¡ ×Ļ×Ŀ
" -
×ķ×ľ ×ĺ×Ķ
Ġ×©×¨ ×©×¨×ª
Ġ×ł ×Ĳ×ķ×ª
Ġ0 4
Ġ×ľ×© ×ķ×ĳ
Ġ×Ĳ×§×ĵ ×ŀ×Ļ
Ġ×ľ×¦×¨ ×£
1 50
Ġ×Ķ×¢ ×ķ×Ĵ×Ķ
×ľ×¤ ×¢×ŀ×Ļ×Ŀ
×Ĺ ×ĳ×¨×Ļ
Ġ×Ķ×¨ ×Ĺ×§
Ġ×¦×¤×ķ ×Ļ×Ļ×Ŀ
Ġ×Ĺ×ľ×§ ×ķ
×ĺ×Ĵ ×Ļ×Ķ
Ġ×Ķ×© ×ĺ
Ġ×Ķ×ª×§ ×ł×Ķ
Ġ×ł×ŀ ×ł
Ġ×ĳ×ª ×Ľ×ł×ķ×Ł
×ķ×ŀ×ĺ ×¨×Ļ×Ŀ
Ġ×ľ×Ķ ×§×©×Ļ×ĳ
×ķ×Ķ ×Ŀ
Ġ×Ķ×Ĵ×¨ ×ŀ×ł×Ļ
Ġ×ĳ×¢×¦ ×ŀ×Ļ
Ġ×ł×¤ ×Ĺ
Ġ×Ķ×ĳ ×Ļ×Ĳ×Ķ
H ome
Ġ×§ ×§
Ġ×ĺ×Ļ ×ķ×ľ×Ļ
Ġ×¤ ×ĵ
Ġ×ł×Ļ×¡ ×Ł
×Ĳ×ª ×ķ
Ġ×Ĳ×ľ×ŀ ×ł×ĺ×Ļ×Ŀ
Ġ×ŀ×ĵ×Ķ ×Ļ×ŀ×Ļ×Ŀ
Ġ×Ķ×ŀ×ĵ ×ķ×ĳ×¨
Ġ×Ĳ×ł ×ķ×ł
Ġ×©×ķ×ŀ ×¨×ª
Ġ×Ķ×ŀ×ª ×Ľ×ķ×Ł
×ľ×§ ×ķ×Ĺ
Ġ×Ĵ ×¡
Ġ×©×Ľ ×ļ
h one
Ġ×Ķ×ľ ×©
Ġ×Ķ×¡ ×¤×Ļ×§
Ġ×ŀ×ł ×¦×Ĺ
Ġ×Ĺ×Ļ ×ķ×ł×Ļ
Ġ×Ķ×Ĵ ×Ļ×ķ×¡
Ġ×ŀ×ª ×ĳ×¨×¨
Ġ×Ĳ×ł ×Ĵ×ľ×Ļ×Ķ
al k
Ġ×ŀ ×ķ×ĺ×Ļ
×ľ ×Ľ×ª×ķ×ĳ
Ġ×ķ×Ļ×ĺ ×ŀ×Ļ×Ł
Ġ×Ĵ ×ķ×ĵ
×ŀ×¨ ×Ļ×§×Ķ
Ġ×ŀ×Ĳ ×ķ×ª×ķ
Ġ×ľ×Ķ ×Ļ×Ĺ
×ķ×§ ×Ĺ
×Ĺ×© ×ĳ×Ļ×Ŀ
Ġ×¡ ×Ļ×ŀ×ķ×Ł
Ġ×Ĺ×¡ ×ĵ
Ġ×Ķ×©×¤ ×¢×ª
Ġ×ŀ×ŀ×© ×§
Ġ×¢×ĸ ×¨×Ĳ
Ġ×Ĺ×ľ×ĳ ×ķ×Ł
Ġ×ķ×ĳ ×Ļ
Ġ×Ķ×§ ×ķ×ĳ×¥
Ġ×ł×ķ×¡ ×¢
×ķ×ĸ ×Ļ×¦×Ļ×Ķ
Ġ×ŀ×ª ×ĳ×¦×¢
×Ĳ×ł ×Ĵ×ľ×Ļ×ª
Ġ×ĳ×Ļ×ŀ ×Ļ×ł×ķ
×ķ×¡ ×¡×Ļ×Ŀ
Ġ×¢ ×ĵ×Ļ×Ŀ
Ġ4 1
Ġ×¨×ĳ ×Ļ×ł×ķ
×ł ×Ĳ×ĳ×Ļ×¡
Ġ×Ķ×ŀ×© ×Ļ×Ľ×Ķ
Ġ×ª×ŀ ×ķ×¨×Ķ
×¢×ķ×¨ ×Ľ×Ļ
Ġ×ŀ×Ĳ ×ľ×Ķ
×ŀ ×ĵ×¨
Ġ×ĺ×Ľ×ł ×Ĳ×Ļ
s y
×Ļ×ľ×ķ×¡ ×ķ×¤×Ļ×Ķ
Ġ×Ľ×ķ×Ľ ×ĳ×ª
×ŀ ×ķ×ľ×Ķ
Ġ×ŀ ×Ļ×¡×Ļ×Ŀ
Ġ×ĵ×ŀ ×Ļ×ķ×Ł
Ġ×ľ×ĳ ×©×ľ
Ġ×Ķ×Ĳ×ŀ×¨×Ļ×§ ×ł×Ļ
×Ĳ ×¤×Ļ×ľ×ķ
Ġ×ŀ×ĵ×¨ ×Ļ×Ľ×Ļ×Ŀ
×Ķ ×§×ĺ
×ŀ×© ×Ķ×ķ
×ª ×Ļ×Ļ×Ŀ
×Ľ×© ×Ļ×¨×Ļ
Ġ×ĳ×§ ×ķ×©×Ļ
Ġ×ľ×Ĳ ×ķ×Ľ×ľ
Ġ×ª ×Ļ×ĳ×ª
×Ĳ ×Ľ×Ł
S h
Ġ×Ķ×Ķ×Ĵ ×¢×Ķ
Ġ×ĳ×¨ ×ķ×ĺ×ĳ
Ġ×§×Ļ ×ķ×ŀ×ķ
Ġ×Ķ×Ĺ ×Ĵ×Ļ×Ŀ
Ġ×©×ł ×ķ×Ľ×ľ
Ġ×Ķ×ŀ×Ĺ ×Ĳ×Ķ
×ł×ĵ ×ķ
×ŀ×ª ×Ķ
×¤ ×¦
×ĵ ×Ļ×ķ×ª
Ġ×ĳ×¤ ×ķ×¡×ĺ
Ġ×¢ ×ķ×ł×ķ×ª
Ġ×¡ ×¤×Ļ
Ġ×Ķ×ŀ×Ĵ ×ķ×¨×Ļ×Ŀ
×ķ×ĸ ×¨×ª
Ġ×ķ×ĳ ×Ļ×ĺ×Ĺ×ķ×Ł
Ġ×Ļ×¢ ×©×ķ
Ġ×ł×ĺ ×ķ
Ġ×ŀ×ĳ×Ĺ ×Ļ×ł×ª×Ļ
Ġ×ĳ×¤ ×Ķ
Ġ×Ķ×ª ×ľ×ŀ×Ļ×ĵ
t on
Ġ×§×ŀ ×ĺ×Ļ×Ŀ
Ġ×ľ×¨ ×¢×Ķ
Ġ: âĢ¬
Ġ×¨×Ĵ×© ×Ļ×ª
Ġ×ĳ×¦ ×ķ×ķ×ª
R E
Ġ×Ķ ×ķ×ĳ×Ļ×ľ
Ġ×ŀ×©×ŀ×¢×ķ×ª ×Ļ×Ļ×Ŀ
Ġ×¢ ×Ľ×©
Ġ×ķ×ĺ ×¢
Ġ×Ĳ×Ļ×© ×¨
Ġ×Ķ×ľ ×Ļ×Ľ×ķ×ĵ
Ġ×Ķ×§ ×ķ×¨×Ĳ
×¦ ×ĳ×Ļ
Ġ×ŀ×ķ×ĸ ×ŀ×Ł
Ġ×Ķ×ŀ ×ĸ×¨×Ĺ×Ļ
Ġ×ķ ×Ļ×Ĵ
H ow
Ġ×Ĵ×¨ ×Ļ×ł
Ġ×ŀ×ķ×¢ ×¦×Ķ
Ġ×ķ ×Ļ×ĵ×¢
Ġ×ķ×ľ ×¨
or y
Ġ×Ĳ ×©×ľ
Ġ×ŀ×¨×Ľ ×Ļ×ĳ
Ġ×ķ×ª ×¨
Ġ×Ĵ×ĳ ×Ļ×¢
Ġ×Ĳ ×ķ×ĳ×Ļ×Ļ×§×ĺ
Ġ×Ľ×ĵ ×ķ×Ĵ×ŀ×ª
×ķ×ĳ ×ª×ķ
Ġ×Ķ×¦×Ļ ×ķ×ł×ķ×ª
Ġ×ŀ×ķ×Ĵ ×ĵ×¨
Ġ×Ķ×¤×¨ ×Ķ
Ġ×ľ×¡ ×ķ×£
×Ľ×ł×ķ×ľ×ķ×Ĵ ×Ļ×ķ×ª
Ġ×¦ ×ķ×¤×Ļ×Ŀ
Ġ is
Ġ×ŀ×¦ ×¤×ķ×Ł
Ġ×ĳ×ŀ ×¤×¢×ľ
Ġ×ł ×¨×ķ×ª
Ġ×Ĵ ×ĵ×Ļ
Ġ×Ķ×ĵ ×Ĵ×ľ
Ġ×Ķ×ŀ×ĵ ×Ļ×ł×Ļ×ķ×ª
Ġ×ľ×Ĺ ×ĳ×¨×Ļ×Ŀ
Ġ×ĳ×ŀ×Ĵ ×ĸ×¨
×Ļ×Ĳ ×ķ×ľ×ķ×Ĵ×Ļ×Ķ
Ġ×ŀ×¡ ×ķ×ĵ×¨
Ġ×Ķ×ŀ×¨×Ľ ×Ļ×ĳ×Ļ×Ŀ
Ġ×¢×ĸ×¨ ×Ļ×Ĳ×ľ×Ļ
Ġ×ķ×Ķ ×Ļ×ķ×Ŀ
Ġ×ª×ŀ×¦ ×Ļ×ª
Ġ×ŀ×Ĳ ×Ļ×¤×Ķ
×ĳ ×ĳ×Ļ×ª
×¤×ľ ×¡×ĺ
Ġ×ľ×ĳ ×Ļ
Ġ×ķ×¤ ×Ĺ×ķ×ª
×Ķ×ĵ ×ĳ×¨
Ġ×§ ×ķ×ĺ
Ġ×ł ×©×¨
Ġ×ĳ×ª ×ł×ķ×¢×Ķ
Ġ×Ķ×¤ ×§×ķ×ľ×ĺ×Ķ
l in
Ġ×ł×ĸ×§ ×Ļ×Ŀ
Ġ×ķ×ĳ ×ŀ×Ķ
Ġ×ĳ×Ĳ ×ķ×Ľ×ľ
Ġ×Ļ×¢ ×ł×Ļ×Ļ×Ł
Ġ×ª×Ĺ ×ľ
Ġ×¤ ×ĸ
Ġ×ľ×Ķ×ĳ ×Ļ×¢
×ķ×ŀ ×Ľ×Ļ×Ŀ
×Ļ×© ×ľ
Ġ×ĳ×Ĳ ×ª×¨×Ļ×Ŀ
Ġ×Ĳ×Ļ×ł×ĺ ×¨×Ĳ
Ġ×ĳ×ľ ×Ļ×ķ×ķ×Ļ
×Ĳ ×¨×Ĵ×ķ×Ł
Ġ×ŀ×ķ×ł ×¢
×Ĳ×¤×©×¨ ×ķ×ª
ĠT ra
Ġ×ĳ×ŀ ×ķ×Ĺ
Ġ×ķ×Ĺ ×ª
Ġ×Ľ×© ×Ĳ×ª×Ķ
il f
Ġ×¢×¦ ×ķ×ĳ
Ġ×ķ×ŀ ×ķ×©
Ġ×§×ĳ×ľ ×Ł
Ġ×Ķ×ŀ×Ĳ×¤×©×¨ ×ª
Ġ×ŀ ×Ļ×ŀ×Ļ
Ġ×¨×¦ ×Ļ×ł×Ļ×ª
Ġ×ķ×ª ×ķ×ļ
×ł×Ļ ×ķ×ł×Ļ×Ŀ
Ġ×ķ×Ľ ×¢×ª
Ġ×Ľ×¨ ×ļ
Ġ×ĵ×ķ ×Ļ×ĵ
Ġ×ł ×Ĳ×ŀ
Ġ×©×ŀ×ª ×Ĳ
Ġ×Ĺ×ĳ ×Ļ×ľ×ª
Ġ×ľ×ŀ ×ķ×ķ×ª
Ġ×ª ×ķ×ŀ×¨
×¢×¨ ×ķ×Ľ×ķ×ª
×ľ ×ķ×ľ×Ļ
Ġ×©×Ĺ ×ķ×¨×Ķ
Ġ×ª×¤ ×Ļ×¡×Ķ
Ġ×ŀ×Ĺ×Ļ ×Ļ×ĳ×ª
×Ļ×Ķ ×Ļ×Ķ
Ġ×ľ×Ĺ ×ĳ×¨×Ļ
Ġ×ŀ×ł ×ķ×Ĺ×Ķ
Ġ×Ķ×ŀ×ĳ ×ķ×¡×¡
Ġ×ŀ×Ķ ×ŀ×©
ic h
Ġ×ķ×Ĳ ×Ļ×ľ×ļ
Ġ×ķ×ľ ×Ļ×Ķ
Ġ×Ķ×¦ ×Ļ×¢
Ġ×Ĳ×Ĵ ×ķ×ĵ×ª
Ġ×Ķ×Ĺ×§ ×ľ×Ĳ×ķ×ª
×Ļ×¡×ĺ ×Ļ×ķ×ª
ĠL e
Ġ×ŀ×ķ×¨×Ľ ×ĳ×ķ×ª
Ġ×ķ×ĳ ×Ľ×Ł
Ġ×Ķ ×ķ×ľ×Ŀ
Ġ×¡ ×ľ×ķ×ľ×¨
×¤×¨ ×¥
Ġ×Ķ×ŀ×ĵ ×ķ×Ļ×§
Ġ×©×Ķ×¤ ×ļ
×¤×ľ×Ļ×§ ×¦×Ļ×Ļ×ª
Ġ×§×ķ×ĵ ×ŀ×Ļ×Ŀ
×Ķ ×ŀ×Ĳ
Ġ×ķ×Ľ ×ĵ×Ļ
×ł ×ķ×ľ×ĵ
×ķ×§ ×§
old id
Ġ×ľ×¡ ×ĳ×Ļ×ĳ×Ķ
Ġ×Ĳ×Ľ ×ĸ
×Ļ×¢ ×ľ
Ġ×ľ×ŀ ×Ĵ×ķ×ķ×Ł
Ġ×©×ľ ×ĵ
Ġ×Ķ×¨×Ĳ ×ķ×Ļ
Ġ×Ķ×Ĳ ×Ķ×ķ×ĳ
Ġ×ľ×Ĺ ×§
Ġ×¡×Ļ ×ķ×¨×Ļ×Ŀ
ĠâĹ ı
Ġ×ŀ×ķ×Ĺ ×ŀ×ĵ
Ġ×ĳ ×Ļ×ĳ
Ġ×Ĵ×ĳ×¢×ª ×Ļ×Ļ×Ŀ
Ġ×ĳ×ª×Ĺ ×Ļ×ľ×Ķ
Ġ×Ļ×¡ ×ķ×ĵ×ķ×ª
×Ļ×ŀ ×¤×Ļ×Ĳ
Ġ×ª×¢ ×ĳ×ķ×¨×Ķ
×ķ×ĺ ×Ļ×§×Ķ
Ġ×Ĳ×ĳ ×Ļ×Ķ
Ġ×Ķ×© ×Ĵ
Ġ×Ļ×Ķ ×ķ×Ķ
Ġ×Ķ×Ĳ×¨ ×¦×Ļ
Ġ×¨ ×ŀ×ĸ
Ġ×Ķ×ŀ×¦ ×ķ×Ļ
Ġ×ł×Ļ×¦ ×ķ×ľ
Ġ×ŀ×ł×§ ×ķ×ĵ×ª
×ķ×ĸ ×ŀ×Ķ
×Ľ×¨ ×ĸ
Ġ×ķ×ŀ×Ľ ×Ĳ×Ł
×© ×Ĳ×ľ
Ġ×ľ×¤×¨ ×ĺ
ov e
Ġ×ŀ×§×ĳ ×ķ×¦×ª
Ġ×ľ×Ķ ×ķ×¨×ķ×ª
Ġ×ľ×ŀ ×ľ×ķ×Ł
Ġ×Ļ×ķ×¨ ×Ŀ
Ġ×¨ ×¢×ķ×ª
×Ĺ×Ļ×ª ×ķ×ª
Ġ×¤×ĺ ×Ļ×©
Ġ×Ķ×Ķ×ķ×¨ ×Ĳ×Ķ
Ġ×ľ×¡ ×ĳ×Ļ×ķ×ª
×Ĳ×ĳ ×ķ
Ġ×ª ×Ļ×¢×ķ×ĵ
Ġ×§×ĳ ×Ļ×¢×ª
Ġ×¡ ×ķ×¡
Ġ×ķ×ĳ×Ĳ ×ķ×¤×Ł
Ġ×Ķ×§×ĳ ×¦×Ļ×Ŀ
Ġ×Ĳ×¨ ×ĵ
Ġ×¢×¡×§ ×Ĳ×ķ×ª
Ġ×ķ×§ ×ĳ×ľ×ķ
Ġ×ĳ×Ķ×ĵ×¨ ×Ĵ×Ķ
Ġ×¨ ×ķ×ł×Ł
Ġ×ĳ×ĺ ×ķ×¨
Ġ×©×Ĺ×§ ×ł×Ļ×ª
Ġ×© ×ķ×ŀ×¨×Ļ×Ŀ
Ġ×Ķ×Ļ×Ĳ ×ľ×ķ×¨
Ġ×Ķ×¤×ķ×ľ ×Ļ×ĺ×Ļ
×ł×ĺ ×Ļ×§×Ķ
Ġ×ŀ×ł ×©×Ķ
Ġ×ľ×ĸ ×ķ×Ĵ
Ġ×ĳ×Ĺ ×¡×ķ×ª
Ġ×ĳ×Ĳ×ķ×¨ ×Ĺ
Ġ×ĸ×¨ ×¢
Ġ×§×ľ ×ķ×¨×Ļ×ķ×ª
Ġ×Ķ×Ĳ×ł ×ķ×©×ķ×ª
Ġ×Ľ ×ķ×Ĳ×ĳ
×ķ×Ĺ ×Ĺ
Ġ×ľ×Ķ ×ķ×ĵ×Ļ×¢
Ġ×Ļ×Ļ×Ĺ ×ķ×ĵ×Ļ×Ļ×Ŀ
Ġ×Ķ×¢×Ļ×¨ ×ķ×ł×Ļ
Ġ×ŀ×ŀ ×ķ×Ł
Ġ×Ķ×ł ×¤×ĺ
Ġ×Ķ×Ĳ×Ļ×© ×Ļ×ķ×ª
Ġ×ľ×Ķ×Ĵ ×©×ª
Ġ×¡×Ĵ ×Ļ×¨×ª
Ġ8 5
Ġ×Ĳ×ĸ ×Ļ
Ġ×ĸ×Ļ×Ķ ×ķ×Ŀ
Ġ×Ķ×¦ ×ŀ×Ĺ
×Ĺ×Ļ ×Ļ×ĳ×Ļ×Ŀ
Ġ×Ķ×© ×Ļ×ľ×ķ×ĳ
Ġ×ł×ĵ×¨ ×©×ª
Ġ×ķ×Ķ ×ŀ×¢
Ġ×Ķ×¢ ×ķ×ŀ×ĵ
Ġ×ŀ×ł ×ĵ×ľ
Ġ×Ĳ ×Ļ×ķ×Ŀ
×¨×¦ ×Ĳ×Ķ
×Ĺ ×£
Ġ×§ ×ķ×ķ×Ļ×Ŀ
... ]
Ġ×ľ×ª ×¨×ĳ×ķ×ª
t y
Ġ×Ķ×Ĵ×ĵ ×ľ×ª
Ġ×Ķ×Ĵ ×¢×ª
×ĳ×Ĺ ×ł×Ļ×Ŀ
Ġ×Ķ×¨ ×ĵ
×¢ ×ķ×Ĵ×ª
×Ĳ×¨ ×Ļ×ķ×ª
Ġ×© ×Ļ×Ĺ×ª
Ġ×ľ×Ĵ ×ķ×ĳ×Ķ
Ġ×Ķ×ŀ×Ĺ ×ľ
Ġ×Ķ×¤ ×§×ķ×ª
Ġ×ª×Ĵ ×Ļ×¢
×Ļ×ĸ ×¨×ķ
×Ľ ×Ľ×ľ
Ġ×Ļ ×ķ×©
Ġ×ĵ ×ķ×Ĺ×ķ×ª
Ġ×¤×Ļ×¨ ×ķ×§
Ġ×ĳ×Ĵ×ĵ ×ķ×ľ
Ġ×© ×¦×Ļ
Ġ×ŀ×¨×© ×Ļ×ŀ×Ķ
Ġ×ĳ×Ĳ ×Ĺ
Ġ×ĳ×ŀ×Ĺ ×ķ×ĸ
Ġ×ĳ×© ×Ļ×Ĺ×Ķ
Ġ×¤×¨ ×Ĺ
Ġ0 7
Ġ×Ķ×§ ×ķ×©×Ļ
Ġ×Ļ×Ľ ×ľ×ķ
Ġâĸ ł
×Ĺ ×ķ×ĵ×©
Ġ×¡×ĺ ×Ļ×ĳ
×ķ×ĵ ×Ļ×¢×Ļ×Ł
Ġ×ŀ×§ ×ķ×ķ×Ł
Ġ×Ĳ×ķ×¤ ×Ļ×¨
Ġ×Ķ×Ļ×Ĳ×ľ×ķ×¨ ×ķ×ł×Ļ×ª
Ġ×ķ×ª ×Ļ×§
Ġ×ŀ×¨×Ľ ×Ļ×ĳ×Ļ×Ŀ
Ġ×ŀ×Ĳ×ľ ×Ļ×ķ
Ġ×ª×Ļ ×Ļ×¨×Ļ×Ŀ
Ġ×ĳ×Ľ ×ķ×ª
Ġ×Ķ×ŀ×ķ×ĳ ×Ļ×ľ×Ķ
Ġ×© ×Ļ×ĵ×¢
Ġ×ŀ×ĺ ×ķ×¨
Ġ×ł ×ľ×§
Ġ×Ľ×ŀ×ķ ×Ļ×ķ×ª
Ġ×© ×¤×ķ×¨×¡
×Ĺ×§ ×Ļ×¨
Ġ×Ľ ×¨×Ĵ×Ļ×ľ
×Ĳ×¨ ×¦×ķ×ª
Ġ×¡ ×Ķ
Ġ×¡×Ļ×¤ ×¨×Ķ
p e
Ġ×§×¨ ×Ĺ
Ġ×Ķ×Ĳ ×Ĺ×ª
×© ×Ļ×Ļ×Ŀ
Ġ×ĳ×¢×Ļ×ł×Ļ ×Ļ
Ġ×ľ×Ļ ×Ļ×ĸ×¨
×ª×§ ×ł×ķ×Ł
Ġ×ŀ×¢ ×ª
T ag
Ġ×Ķ×© ×ĵ×Ķ
Ġ×ľ ×Ļ×¤
Ġ×ł ×ķ×Ĵ×¢
Ġ×Ķ×ª ×ķ×¨
Ġ×ŀ ×ľ×Ļ
Ġ×¤ ×ł×Ĳ×Ļ
×Ļ×ĳ ×Ļ×ĵ
Ġ×ĳ×Ľ ×Ļ×Ľ×¨
âĢĻ ,
Ġ×¤×¢ ×ķ×ľ×ª
Ġ5 2
Ġ×Ķ×ŀ×ķ×© ×ľ×ŀ×ª
Ġ×ĵ ×¨×Ľ×Ķ
Ġ×ĺ×¢ ×ŀ×Ļ×Ŀ
×¦ ×¨×Ļ×Ŀ
Ġ×Ķ ×ķ×ĵ×ķ×ª
×ŀ ×ķ×¦×¨×Ļ
×Ķ×Ķ×¦ ×ĺ×¨×¤×ķ×ª
Ġ×ķ×Ľ ×©×Ķ
Ġ×ĳ×ĵ ×§
Ġ×¤×ľ×¡×ĺ ×Ļ×ł×Ļ×Ŀ
×Ķ×© ×Ļ×¨×ķ×ª
Ġ×ŀ×Ļ×ª ×ķ×Ĵ
×¤ ×ķ×Ļ
T his
: )
Ġ×ĸ ×ķ×Ľ×Ļ×Ŀ
y le
Ġ×ľ×Ķ×Ľ ×Ļ×ľ
Ġ×¡ ×¦
Ġ×¢×ŀ ×ł×ķ
×ķ×¡ ×Ļ×Ļ×ª
Ġ×ľ×ĵ ×Ļ×ķ×ķ×¨
Ġ×ķ×Ķ ×Ķ×¨×©×ŀ×Ķ
Ġ×Ķ×¦ ×Ļ×Ĵ
Ġ×¦×ŀ ×Ļ×Ĺ×Ķ
×ľ ×Ļ×ľ×Ķ
Ġ×Ľ×ŀ ×ķ×ļ
Ġ×ĺ×ľ×¤ ×ķ×ł×Ļ
×ľ×ĳ ×ķ×¢
m in
Ġ×Ķ×¢ ×ł
Ġ×ŀ×ķ×ŀ×ľ ×¦×ķ×ª
Ġp m
Ġ×¢×© ×Ļ×¨×Ķ
Ġ×Ķ×Ĳ ×ĸ×¨×Ĺ×Ļ
Ġ×Ĳ×ĳ ×§
Ġ×ŀ ×©×¨×ķ×ª
Ġ×Ĳ×ĸ ×ķ×¨×Ļ×Ŀ
×ķ×¡×ĺ×¨ ×ľ×Ļ×Ķ
Ġ×Ľ ×Ĺ×ľ×ķ×Ł
×ķ×ķ ×Ļ×ľ
Ġ×Ĵ ×ľ×Ŀ
×§ ×ķ×ŀ
×Ļ×¤ ×ķ×ĵ
Ġ×ĳ×§×ĳ ×ķ×¦×ª
Ġ×¨×© ×ķ×ŀ×Ļ×Ŀ
S c
Ġ×ĳ×¨×¦ ×Ļ×¤×ķ×ª
×ŀ×ĳ ×ł×Ķ
Ġ×Ķ×ĸ ×§
Ġ×ĳ×¨ ×ŀ×ķ×ª
Ġ×ķ×ª ×ŀ×Ļ×ĵ
Ġ×Ķ×ķ×¨ ×Ļ×ķ
Ġ×Ĵ ×ł×Ļ×Ŀ
Ġ×ŀ×§×¨ ×¨
Ġ×ŀ×ª ×ĳ×¦×¢×ª
Ġ×Ķ×ł×Ļ ×Ļ×ĵ
P hoto
×©×ĳ×ķ×¢ ×Ļ×Ļ×Ŀ
Ġ×Ĺ ×Ļ×©×ķ×ĳ
Ġ×ŀ×Ľ×ľ ×ľ
Ġ×ľ×¢×¦×ŀ ×ļ
Ġ×ĳ×Ķ ×©×ª×ª×¤×ķ×ª
Ġ×ĳ×Ĺ ×ķ×ŀ×¨
Ġ×ĳ×¤ ×¡×§
×¤×ª ×Ĺ×Ļ×Ŀ
×©×¨ ×ķ×Ł
Ġ×Ļ×ª ×¨×Ķ
Ġ×Ķ×ŀ×Ĳ ×ŀ×Ł
×ķ×¤ ×ľ×ª
it es
Ġ×ĳ×© ×¤×ª
Ġ×Ķ×ª×§ ×ĵ×ŀ×ķ×ª
×Ļ×ł ×ļ
Ġ×ĳ×¡ ×Ļ×ŀ
Ġ×ª ×©×Ķ×ķ
inter est
R e
×ķ×Ľ ×ł×Ļ
Ġ×ľ×© ×ŀ×¨
Ġ×Ķ×¨×¤×ķ×Ĳ ×Ļ×ª
×ŀ ×ĺ×¨
Ġ×Ĵ×ľ ×ķ×ĳ×ľ
×Ļ ×Ļ×ŀ×¨
Ġ×©×Ķ ×ķ×¢
Ġ×©×ķ×ŀ ×¢×Ļ×Ŀ
Ġ×ĺ ×ķ×¢×Ķ
×Ĳ×ł ×ľ
" ...
Ġ×ŀ×Ļ ×ķ×¢×ĵ×ª
Ġ×Ķ×§×ľ ×¢×Ļ×Ŀ
Ġ×ĳ×ľ ×ķ×Ĺ
Ġ×Ķ×Ĺ ×ķ×Ŀ
Ġ×ŀ×Ľ×ľ ×ľ×ª
Ġ×ľ×Ĳ ×Ļ×Ľ×ķ×ª
Ġ×ĳ ×Ļ×ķ
Ġ×©×ł ×ŀ×¦×Ĳ×Ļ×Ŀ
Ġ×ĳ×ĳ×¢ ×Ļ×Ķ
Ġ×Ķ×ŀ×§ ×¡
Ġ×ľ×Ĺ ×Ļ×Ļ×ĳ
ng lish
×ĵ ×ķ×¨×Ķ
Ġ×Ķ×ŀ×Ĺ ×ĸ×ķ×¨
ĠAl l
Ġ×©×Ļ ×ķ×Ľ×ľ
Ġ×ĳ×© ×Ľ×ķ×ł×Ķ
Ġ×ĳ×© ×ķ×ķ×Ļ
Ġ×ķ×¨ ×Ľ
Ġ×¡×ķ×ľ ×ķ
Ġ×© ×Ļ×Ĵ×¨
Ġ×¢ ×Ļ×ł×Ļ×ķ
Ġ×ľ×Ļ×Ķ ×ķ×ĵ×Ļ×Ŀ
Ġ×Ķ×¤×ª ×ķ×Ĺ
×§ ×Ĳ
Ġ×¢ ×¨×Ľ×Ļ
6 00
Ġ×ŀ×Ĵ ×ľ×Ļ×Ŀ
Ġ×ľ×¨×©×ķ×ª ×Ľ×Ŀ
×ķ×ŀ ×ł×Ļ
ĠPhot ograph
Ġ×Ľ ×¦
Ġ×¢ ×ł×Ļ×Ł
×ŀ×¦ ×Ĳ×ķ×ª
Ġ×ŀ×Ĳ×ª ×ł×ķ
Ġ×Ķ×ŀ×© ×ľ×ķ×Ĺ
Ġ×Ķ×Ķ×¨ ×Ļ×ķ×Ł
×Ļ×¨ ×ķ×Ĺ
Ġ×ĳ×ŀ×¦ ×¨×Ļ×Ŀ
Ġ×©×Ľ ×ķ×ł×ª
Ġ6 7
Ġ×¢ ×ł×Ł
Ġ×¡×ľ ×¢
×ŀ×© ×ľ×ķ×Ĺ
Ġ×ľ×¤×ª ×¢
Ġ×ĵ ×ķ×¨×ķ×ª
Ġ×© ×¤×ķ×¨×¡×Ŀ
Ġ×ŀ×¨×Ľ×ĸ ×Ļ×Ļ×Ŀ
Ġ×Ķ×Ķ ×Ľ×ł×Ķ
Ġ×ŀ×¢×ķ×¦ ×ĳ×Ļ×Ŀ
Ġ×Ķ×Ĺ×ľ ×ķ×ŀ×ķ×ª
Ġ×Ķ ×ł×ķ×ª
Ġ×ŀ×¢×ķ×¨ ×ĳ×Ļ×Ŀ
Ġ×© ×Ľ×ª×ķ×ĳ
Ġ×ľ×© ×¢×Ķ
×Ľ ×Ļ×ª
×© ×Ļ×¨×Ļ×Ŀ
Ġ×ĳ ×ķ×ł×Ļ×Ŀ
Ġ×ķ×ľ ×¤×Ļ
Ġ×©×§ ×©×ķ×¨
×Ļ×¨ ×ķ×¥
Ġ×Ķ×¤ ×Ĺ×ķ×ª
×ŀ×ķ×ĸ ×Ļ×Ĳ×ķ×Ł
Ġ×ŀ×¡×¢ ×ĵ×ª
×Ķ×¡ ×¨×ĺ
Ġ×ľ×ª ×ķ×¦×Ĳ×ķ×ª
Ġ×ľ×Ķ×§×ľ ×Ļ×ĵ
Ġ5 8
Ġ×Ķ×¨×ķ×Ĺ ×ł×Ļ
×Ĵ ×ŀ
Ġ×ĳ×© ×Ļ×¨
×¨×Ĳ ×Ļ×ª×Ļ
Ġ×Ķ×ĵ×¨ ×ķ×©×Ļ×Ŀ
Ġ×Ķ×ĵ ×ĳ×¨×Ķ
Ġ×Ĺ×ĳ×¨ ×Ļ×ķ
Ġ×ķ×¢ ×ĵ×Ķ
Ġ×¤ ×ķ×¤
×¤×ķ ×Ļ×Ķ
âĢ ĺ
Ġ×ľ×© ×ĳ×ķ×¨
Ġ×Ķ×Ķ×¡ ×Ľ×ŀ×Ķ
Ġ×ķ×Ķ ×Ļ
Ġ×¢×ŀ×ĵ ×ķ
Ġ×Ľ ×Ľ
Ġ×¤×¡×Ļ×Ľ ×Ļ×Ĳ×ĺ×¨
Ġ×ĳ×ĳ ×Ļ×Ķ
Ġ×Ķ×Ķ ×©×ª
Ġ×Ķ×ŀ×©×ķ×ª ×¤×ª
×Ķ×¡ ×Ļ×¤×ķ×¨
Ġ×Ĺ ×ķ×ķ
Ġ×Ķ×ł ×ŀ×¦×Ĳ×Ļ×Ŀ
Ġ×Ķ×ŀ×Ĺ ×ķ×ĸ
Ġ×Ķ×ª×¤ ×Ļ×ľ×Ķ
×¦ ×¢×ª
×ķ×ŀ ×¨×Ķ
Ġ×©×¨ ×Ļ×¨
×Ľ×Ĳ ×ŀ×ķ×¨
Ġ×ĳ×¡×¤×¨ ×ķ
×ŀ ×ľ×Ĺ×ŀ×ª
×ĳ×¨ ×ķ×ļ
Ġ×ľ×Ķ×ª ×ŀ×§×ĵ
Ġ×ª ×ķ
Ġ×Ķ×© ×¢×ķ×Ł
Ġ×ĵ×ª ×Ļ×ª
Ġ×ĳ×ŀ×¢ ×¨×ĳ
Ġ9 9
Ġ×ł×¤ ×©×Ļ×ª
Ġ×Ķ×Ķ ×ķ×ľ
am e
Ġ×ĳ×ŀ ×ķ×©×ĳ
ĠF ree
Ġ×Ĵ ×ŀ×ķ×¨
Ġ×ľ×§ ×Ļ
Ġ×¤ ×ķ
P osted
×Ľ×ł×¡ ×Ļ×Ŀ
Ġ×Ķ×ĺ ×ĳ×ķ×ª
×Ļ×¡ ×§×ķ
Ġ×Ķ×¢ ×ľ×Ĳ×ª
Ġ×¤ ×ł×¡×Ļ×Ķ
×Ļ×© ×Ĵ
×ľ×ĺ ×¨×Ļ×Ŀ
Ġ×¢ ×¤×¨
×Ļ×¤ ×ķ×¥
ĠT r
×Ľ×ĳ ×ĵ
×¤×ª ×Ĺ×ª
Ġ×ľ×§ ×ķ×Ŀ
×ŀ×Ļ×ĵ ×Ļ×Ŀ
Ġ×Ļ×ł ×Ļ×ĳ
×¢ ×ľ×ķ×ª
Ġ×ł ×¨×¦
Ġ×©×ķ×ĺ ×¨×Ļ×Ŀ
Ġ×Ķ×Ĺ×ŀ ×Ļ×©×Ļ
Ġ×¨ ×ŀ×ĳ
Ġ×Ķ×Ķ×ª ×ł×Ķ×Ĵ×ķ×ª
Ġ×ĳ×ĳ×Ĺ ×Ļ×ł×ª
Ġ×ĳ×ĳ×Ļ×ª ×ķ
Ġ×ŀ×¢ ×Ļ×ĵ
Ġ×Ĳ×ĵ ×Ļ×ĳ
×ŀ×Ĳ ×Ļ×¨
×ķ×ŀ ×ķ×¡
Ġ×ľ×Ļ ×Ļ×¦×ķ×¨
×ľ×ĳ ×ĺ
Ġ×Ľ×¨ ×Ŀ
×Ļ×§×¨ ×ķ
Ġ×Ĺ×ª ×Ł
Ġ×Ĳ×ľ ×ķ×ľ
×¤×¨ ×©
Ġ×ł×¡ ×ķ
×ĳ ×Ĳ×ª×¨
×© ×£
Ġ×Ķ×Ľ×ľ ×Ļ
Ġ×Ķ×¤ ×Ļ×ĸ
Ġ×ĺ×¢ ×ł×ķ
Ġ×Ĺ×ľ ×Ļ×ľ×Ķ
Ġ×Ĺ ×ĸ×¨×ķ
Ġ×Ķ×¨×ĳ ×ł×Ļ×Ŀ
×ķ×Ľ ×Ĺ×Ķ
Ġ×Ķ×Ĺ×Ļ ×Ļ×ĳ
Ġ×ķ×Ķ ×Ķ×ª
×Ļ×© ×¢
Ġ×Ķ×Ĳ ×ĵ×¨
Ġ×ľ×Ķ×ª ×¤×ª×Ĺ
×ĳ ×Ĳ×ľ×ľ×Ķ
×©×ª ×Ŀ
Ġ×Ķ×¨×¦ ×Ĳ×Ķ
Ġ×¢×¦ ×ķ×ª
Ġ×§ ×Ŀ
Ġ×ĳ×¡ ×ķ×Ĵ
×Ķ ×ĳ×Ĳ
Ġ×Ķ×¨ ×¤×ķ×ĳ×ľ
Ġ×©×¢ ×ķ×ŀ×ĵ
Ġ×Ķ×Ĳ×Ķ ×ķ×ĳ×Ļ×Ŀ
Ġ×©×ľ ×ĳ×Ļ×Ŀ
il e
Ġ×Ľ×ķ×Ĺ ×ķ
m er
Ġ×Ķ×¤ ×¡×ĺ×Ļ×ĳ×ľ
Ġ×Ķ×ª×§ ×©×¨
×ķ×Ĳ ×Ļ×ĵ×Ļ×Ŀ
Ġ×Ķ×ŀ×ķ×© ×Ĵ
Ġ×ķ×ľ ×ŀ×¢×©×Ķ
Ġ×Ķ×Ķ×Ĵ ×ĵ×¨×Ķ
Ġ199 9
Ġ×Ķ×ł×Ľ ×¡×Ļ×Ŀ
Ġ×©×ł ×Ĵ
en s
Ġ×ľ×¨ ×¢
Ġ×ŀ×¡×ķ×Ĵ ×ľ×ª
Ġ×Ķ×¨ ×ŀ×Ķ
Ġ×¨ ×©×Ĳ×Ļ×ª
×¡ ×Ļ×§×ķ
Ġ×¢×ĸ ×ĳ
×´ ,
Ġ×ķ×ĳ×Ķ×ª ×Ĳ×Ŀ
×© ×Ļ×ĺ×ª
Ġ×Ļ×ŀ×© ×Ļ×ļ
Ġ×ĳ×ª×Ĳ ×ķ×ł×ª
Ġ×ŀ×Ĺ ×¦×Ļ×ª
Ö¸ ×ģ
Ġ×ª×© ×ŀ
×© ×ł
Ġ×Ķ×¤×ł ×Ļ×ŀ×Ļ×ª
Ġ×ĳ×ª ×ķ×§×£
âĢª, âĢ¬âĢ¬
Ġ×ķ×ĳ ×¤×¨×ĺ
×© ×ŀ×Ļ
Ġ×ľ×©×ľ ×ķ×©×Ķ
×ĺ ×Ĺ×Ļ
Ġ×Ķ×ª ×Ķ
Ġ×Ķ×¡ ×Ļ×¡
Ġ×Ķ×ŀ×ľ ×Ľ×ķ×ª
Ġ×ĸ ×Ļ×ķ×Ł
Ġ×¦×ĳ×Ĳ ×Ļ×ª
Ġ×ĳ×ŀ ×Ĺ×ľ×ķ×§×ª
Ġ×ķ×Ķ ×ŀ×¡
Ġ×§×ķ×¡ ×ŀ×ĺ×Ļ×§×Ķ
Ġ×Ĺ ×Ļ×ĸ
×ĳ×Ĺ ×ł×Ķ
Ġ×ľ×Ķ×ª ×¤×ª×Ĺ×ķ×ª
Ġ×¡ ×ķ×Ľ×¨×ª
Ġ ×Ļ×ŀ×ķ×ª
Ġ×ķ×Ķ ×©×ª
Ġ×Ķ×¨ ×Ĺ×ķ×§
Ġ×ŀ×Ĺ ×ķ×ĵ×©
Ġ×ľ×Ķ ×Ļ×¢×ĸ×¨
Ġ×Ķ×Ĳ ×Ļ×Ĵ×ķ×ĵ
Ġ×ķ×Ĳ ×Ļ×©
Ġ×Ķ×© ×ŀ×Ļ×Ŀ
×ĺ ×ķ×¤×¡
Ġ×Ķ×ŀ×©×¤×ĺ ×Ļ×ª
Ġ×Ķ×ŀ×ķ×ĵ×¨ ×ł×Ļ×ª
×ĳ×Ķ ×ŀ×©×ļ
×Ľ×ķ×ľ ×ł×ķ
×Ľ×ĳ ×Ļ×©
Ġ×Ķ×ĸ×Ķ ×ķ×ª
Ġ×ł×Ľ×ł×¡ ×ķ
Ġ×ľ×Ĵ ×¢×ª
×§×Ķ ×Ļ×ľ×Ķ
Ġ×Ķ×© ×Ľ×Ļ×¨×ķ×ª
Ġ×ĺ×¨ ×Ļ×Ļ×Ŀ
×Ķ ×ª×¨
Ġ×ŀ×Ĳ ×ķ
Ġ×ĳ×Ĺ ×Ļ×ł×ª
×ŀ×Ĺ×Ļ×¨ ×ķ×Ł
Ġ×©×ŀ ×ª×Ļ
Ġ×Ķ×¨×¦ ×ķ×Ļ
×Ļ×Ĵ ×Ł
Ġ×¦ ×ķ×¤×Ķ
Ġ×¢×ķ×ľ ×ŀ×Ļ×ª
Ġ×ľ×Ķ ×¨×Ĵ
Ġ×ª×ľ ×ķ×ł×ķ×ª
Ġ×ĳ×§ ×¤
Ġ×ŀ×Ĳ×ķ×¨ ×Ĵ×Ł
Ġ×ĳ ×Ĵ×¨×ķ×ª
Ġ×Ķ×¢ ×Ļ×Ľ×ķ×ľ
Ġ×Ļ×¦ ×Ļ×ĳ×ķ×ª
Ġ×Ĳ ×¤×Ļ×Ļ×Ķ
Ġ×§ ×ķ×ķ×Ļ×Ł
Ġ×ĳ×Ļ×¦×ķ×¢ ×Ļ×Ŀ
Ġ×ĳ ×Ļ×ĵ×ķ
×ŀ×ĵ ×Ļ×ł×ķ×ª
I n
Ġ×ŀ×Ķ×¢ ×ķ×ľ×Ŀ
Ġ×ķ×Ĳ ×ł×©×Ļ×Ŀ
Ġ×ľ×ŀ ×Ĳ×ŀ×¨
Ġ×Ļ×ŀ ×Ļ×ł×ķ
Ġ×ĳ×¤ ×ł×Ļ×ķ
Ġ×ł×Ľ ×ķ×ł×Ļ×Ŀ
Ġ×Ķ×ŀ×¡ ×ŀ×ļ
? ".
Ġ×ŀ×ª×Ĺ ×Ļ×ľ×ª
Ġ×Ķ×ŀ×© ×ĺ×¨
Ġ×ľ×ľ×ĳ ×ķ×©
Ġ5 4
×© ×ľ×ĳ
Ġ×ĳ×Ķ ×ķ×¦×Ĳ×ª
ic s
Ġ×Ľ×Ĳ ×ľ
Ġ×ŀ×©×ª ×ľ×Ŀ
Ġ×ľ ×Ļ×ŀ×Ļ
Ġ×Ķ×ŀ ×Ļ×ĵ×Ķ
Ġ×ł×© ×ķ×Ļ
Ġ×ĳ×Ķ ×ķ×¦×Ĳ×ķ×ª
Ġ×ŀ×©×ª×ŀ×© ×ª
Ġ×©×ŀ ×ľ×Ķ
Ġ×Ĳ×ŀ ×Ļ×ł×ķ×ª
Ġ×ķ×Ĳ ×ĵ
Ġ×ľ×ŀ×© ×¤×Ĺ×ª
Ġ×©×ŀ ×ŀ×©
×ĵ×Ļ×ķ ×ķ×Ĺ
Ġ×Ķ×ł ×§×¨×Ĳ
×ĳ×¨ ×ª×Ļ
×Ĵ ×ł×Ļ
Ġ×¨×¤ ×Ĳ×ľ
Ġ×Ĵ×ľ ×ķ×ĺ×Ł
Ġ×ŀ×¡ ×ŀ
Ġ×©×Ĳ ×Ĺ
Ġ×ľ×Ķ ×©×ľ
Ġ×ĳ×Ļ×§ ×©×Ķ
Ġ×ª×§ ×ľ×Ķ
Ġ×Ĺ×© ×ĵ
×Ķ×ŀ×© ×¤×ĺ
Ġ×Ĳ×ŀ ×ł×ķ×Ł
I V
×Ĳ ×ĺ×¨×§×¦×Ļ×ķ×ª
Ġ×ķ×Ĺ ×ĳ×¨×Ķ
×ķ×¨ ×Ĳ×Ļ×Ŀ
ul t
h at
×ª ×Ĺ×ª
×ķ×ł ×Ļ×ķ
×Ķ ×ŀ×¢
Ġ×ĳ×© ×§
Ġ×Ĺ×ķ×ĳ ×ĳ
Ġ×Ķ×¤×ľ×¡×ĺ ×Ļ×ł×Ļ
Ġ×Ķ×ŀ×© ×§×ľ
Ġ×Ķ×ł ×ĺ
Ġ×ĳ×Ĳ ×ķ×ķ×Ļ×¨×Ķ
×ķ×ĵ ×¢×Ļ×Ŀ
Ġ×¡×ľ ×Ļ×Ĺ×Ķ
×ŀ×¤ ×Ĵ×©
×ľ×Ķ ×Ļ×ķ×ª
Ġ×Ķ×ķ×¨ ×Ĳ×ª
Ġ×¢×¦ ×Ļ×ķ×Ł
Ġ×ª ×ķ×Ĳ
×¡ ×Ļ×Ļ×Ŀ
m e
Ġ×Ĵ ×ķ×ĺ
Ġ×ķ×ŀ ×ľ×Ĳ
Ġ×ķ×ĵ ×Ļ
Ġ×ķ ×Ļ×ľ×Ķ
Ġ×ĸ ×ķ×¨
Ġ×ł×Ķ ×ķ×Ĵ
Ġ×ŀ×©×§ ×Ĳ×ķ×ª
Ġ×¤ ×Ļ×¦×Ķ
×¢×ª ×Ļ×ĵ
Ġ×ŀ×ķ×ł ×Ĺ×Ļ×Ŀ
Ġ×©×Ķ ×ľ
Ġ×ĳ×ĺ ×ľ
Ġ×ľ×ª ×©
Ġ×Ķ×ĳ ×Ļ×ł×ķ
Ġ×Ķ ×¨×Ĳ×ķ
y right
Ġ×¦ ×ķ×ĵ
Ġ×Ĳ×ĳ ×Ļ×ĸ×¨×Ļ×Ŀ
7 00
Ġ×ł×¦ ×¨×ª
R O
×ľ×ķ ×ķ×Ĳ×ķ×ª
Ġ×Ķ×§×Ļ ×Ļ×ŀ×ª
Ġ×ĳ×¡ ×ľ
Ġ×Ĺ×ĺ ×Ĳ
Ġ×Ķ×¢ ×ł×Ļ×Ļ×ł×Ļ×Ŀ
×ł×Ĺ ×¡
Ġ×Ķ×ŀ ×¤×§
Ġ×ŀ×ķ×¨ ×©×Ķ
Ġ×¦×¢ ×Ļ×¨×ķ×ª
Ġ×Ķ×Ĵ ×Ļ×ĵ×ķ×ľ
rip t
Ġ×¡ ×ķ×Ľ×ķ×ª
×¨×Ĵ ×Ļ×ķ×ª
Ġ×ª×§ ×ľ×ķ×ª
Ġ×ŀ×Ĳ ×ķ×©×¨
Ġ×ľ×©×¨ ×ķ×ĵ
al e
Ġ @
Ġ×©×Ļ×¢ ×ĸ×¨×ķ
Ġ×ł×¤×ª ×ľ×Ļ
Ġ×¢×© ×Ļ×ł×ķ
Ġ×ľ×ł ×ķ×Ĺ
âĢı ,
Ġ×Ĵ ×ķ×¤×Ļ
×Ĺ×ĸ ×Ļ×§
Ġ×ľ×ŀ×ĺ ×ĳ×Ĺ
Ġ×ľ×§×ĳ ×ķ×¦×ª
7 4
Ġ×Ķ×Ĺ×ľ×ĺ ×ł×ķ
×ĳ×¨ ×Ľ×ķ×ª
Ġ×Ķ×¦×Ķ ×¨×ª
Ġ×Ķ×¢×ľ ×Ļ×ľ×Ķ
8 9
Ġ×ĺ ×ĳ×¨×Ļ×Ķ
Ġ×Ķ×Ľ ×Ļ×¨
Ġ×Ķ×Ĺ ×ķ×Ĵ
×¦×ľ ×Ŀ
Ġ×ķ×ĳ ×Ļ×ł
Ġ×ľ×Ĺ×ª ×ķ×Ŀ
Ġ×¤×ľ×Ĳ ×©
Ġ×ķ×ĳ ×Ł
×ķ×¤ ×©×ª
×ĸ×§ ×Ĳ×ľ
×Ļ×¤ ×Ļ×ª
Ġ×©×Ķ ×ķ×¨
Ġ×ŀ ×Ļ×ł×ķ×Ļ
×ķ×ľ ×ŀ×ķ×ª
Ġ×ŀ×ª×Ľ×ł ×ł×Ļ×Ŀ
Ġ×Ķ×Ĺ×Ļ×¦ ×ķ×ł×Ļ
Ġ×Ķ×ŀ×¢ ×©×Ķ
Ġ×ł ×ĺ×ľ
Ġ×ĳ×ª ×ł×ķ×¨
×Ķ ×©×Ĳ×ľ×Ķ
Ġ×ĳ×¡×ĳ ×Ļ×ĳ×ķ×ª
Ġ×ľ×¨ ×ķ×¤×Ĳ
Ġ×ķ×Ľ ×ķ×ľ×Ŀ
Ġ×ķ×© ×Ļ×ŀ×ķ×©
Ġ×Ķ×§×ķ×ŀ ×ķ×ł
×ĳ ×ķ×§×¨
Ġ6 9
Ġ×ŀ×ĺ ×¢×Ł
Ġ×ķ×Ľ ×Ļ×ķ×Ŀ
×¡×ĺ ×Ķ
×ķ×¨ ×¨×ķ×ª
×Ļ×ķ ×ķ×Ĵ
Ġ×¡×Ĵ ×ķ×ľ
Ġ×Ķ×Ķ×¦ ×Ĵ×Ķ
Ġ×¨×ķ×ŀ ×ł×ĺ×Ļ
Ġ×Ķ×Ķ ×ľ×ķ×ķ×Ĳ×Ķ
in a
Ġ×Ķ×ª×¢ ×¨×ĳ×ķ×ª
ur n
Ġ×ĳ×ł ×Ĵ
Ġ×ĸ ×ŀ×¨
×Ķ×Ĵ ×ł×Ķ
Ġ×Ľ ×Ļ×ª×ķ×ª
ig h
Ġ×ľ×Ĳ×ŀ ×¥
Ġ×ª×ľ ×ķ×ł×Ķ
Ġ×ĸ ×Ľ×Ļ
×ķ×ķ ×Ļ×ĸ
×ĺ ×Ĵ×Ļ
ĠPhotograph er
×¤ ×Ĳ×ķ×ª
Ġ×ŀ×Ľ ×Ļ×ł×Ļ×Ŀ
Ġ×ŀ×§×¡ ×Ļ×ŀ×Ķ
Ġ×Ķ×¨×Ĳ ×Ļ×ķ×ª
×§ ×¤×Ķ
Ġ×ĳ×ł ×§×Ļ×Ŀ
×Ĺ ×ł×Ķ
Ġ×Ķ×ŀ×© ×ŀ×©
Ġ×ĳ×ľ×Ļ ×Ļ×ĸ×¨
Ġ×Ķ×§×ķ×¨ ×Ĳ×Ļ×Ŀ
Ġ×ŀ×Ĺ ×©×ķ×ĳ
Ġ×ŀ×¢ ×ĺ×Ļ×Ŀ
Ġ×Ĳ ×ł×Ķ
Ġ×ł ×¤×ĺ
Ġ×ķ×ľ ×ĳ×¡×ķ×£
Ġ×ķ×Ĳ ×Ķ×ĳ×Ķ
Ġ×ŀ×¢×¨ ×Ļ×ĳ
Ġ×Ķ×¢×¨ ×¢×ķ×¨
×¡×Ļ ×ķ×¨
Ġ×Ķ×Ĺ ×©×ĳ
Ġ×ķ×Ĺ ×ķ×¡×¨
Ġ×ł×Ļ ×Ļ×¨×ķ×ª
Ġ×§×ľ×Ĳ ×¡×Ļ×ª
Ġ×ĵ×ķ×¨ ×©×Ļ×Ŀ
×ĳ×¢ ×Ļ×§×¨
×ķ×¤ ×ª×Ļ
×ķ×Ļ ×Ļ
×Ľ ×ĵ×ķ×¨×Ĵ×ľ
Ġ×Ĵ ×¨×Ļ
Ġ×Ķ×Ĺ ×ķ×ĵ×©×Ļ×Ŀ
×§ ×Ļ×©×ķ×¨
Ġ×ĺ×ĳ×¢ ×ª
Ġ×ĳ×ľ ×¢×ĵ×Ļ
Ġ×Ķ×Ķ ×ķ×¦×Ĳ×ķ×ª
Ġ×Ķ×¤ ×ķ×¡×ĺ×Ļ×Ŀ
Ġ×ĵ ×Ļ×ĳ×ķ×¨
Ġ×Ķ×ķ×ľ ×ł×ĵ
y net
×ķ×Ĵ ×ł×Ļ×ĺ
Ġ×Ĳ×Ļ×ł ×¥
×ķ×¤ ×¢×ª
Ġ×ķ×ł ×©×Ļ×Ŀ
Ġ×ľ×ŀ ×¨×Ĳ×Ķ
×Ļ×ľ ×ª×ķ
Ġ×ł ×ŀ×©×Ļ×ļ
×ķ×¨ ×¥
Ġ×Ľ×ľ ×ľ×Ļ×Ŀ
×ķ×ŀ×Ļ ×Ļ×Ł
Ġ×Ķ×Ľ×ª ×ķ×ĳ
×Ľ ×ĵ×Ĳ×Ļ
Ġ×Ĵ ×¨×ĳ
Ġ×ľ×ŀ ×ķ×¢×ĵ×ķ×Ł
×¢×ĵ ×Ľ×ķ×Ł
Ġ×Ķ×¤ ×¦
Ġ×ĳ×Ĺ×ķ×ľ ×ķ×Ł
×Ļ×ľ ×ĵ×Ķ
Ġ×ľ×© ×ĵ×Ķ
ir cle
Ġ×ª ×¨×Ĳ×ķ
×§×Ļ ×Ļ×ŀ×ķ
Ġ×ł×ķ×¢×ĵ ×ķ
×¦ ×Ļ×¦×Ļ×Ŀ
Ġ×Ķ×¨ ×Ĵ×©
Ġ×Ľ ×ŀ×ª
Ġ×ĸ×ŀ ×Ļ×ł×ķ×ª
2 50
×ĳ×¢ ×Ļ×ķ×ª
Ġ×ľ ×ķ×¨
> >
Ġ×¤ ×©×¢
Ġ×ŀ×ĺ ×ķ×¨×£
Ġ×©×Ľ ×Ĳ×©×¨
×ł×ķ×¢ ×¨
Ġ×ŀ×¢×¦ ×ĳ×Ļ×Ŀ
Ġ×ĳ×Ĳ ×ĵ×Ŀ
Ġ×¡ ×ķ×¤×Ļ×ª
Ġ×ķ×ŀ ×¨×Ľ×ĸ
am ster
×ĳ×ª ×ķ
×ķ×ł ×Ľ×Ŀ
Ġ×ľ×Ķ ×ŀ×ª×Ļ×Ł
Ġ×ľ×Ļ×Ļ×© ×Ŀ
Ġ×Ĵ ×Ļ×ł
×©×Ļ×ª ×ķ×¤×Ļ
×Ķ×¢ ×ķ×ľ×Ŀ
Ġ×ľ×ĳ ×ķ×©
Ġ×Ķ×ŀ ×Ļ×ĺ×Ķ
Ġ×ŀ×ł ×Ļ×Ĺ×Ļ×Ŀ
Ġ×Ķ×ª×§ ×©×¨×ķ
Ġ×ŀ×Ļ ×Ļ×§×ľ
ĠA n
l ow
Ġ×ĵ ×Ļ×Ľ×Ĳ×ķ×Ł
Ġ×©×Ķ ×ĵ
Ġ×Ĳ×¤×¨ ×Ļ×Ŀ
Ġ×Ĵ ×¨×Ĵ
Ġ×Ķ×ł ×ŀ×ķ×ļ
Ġ×ĳ ×Ļ×¦×Ļ×¨×ª
Ġ×ª×¨ ×ķ×¤×Ķ
Ġ×ĳ×ĳ×¨ ×ľ×Ļ×Ł
×Ļ×ľ ×Ŀ
Ġ×Ĵ×ĵ ×¢×ķ×Ł
Ġ×¡×§×¡ ×Ļ
Ġ×Ķ×© ×Ľ×ľ
Ġ×ķ×¡ ×ĺ
×ľ ×ķ×ľ×Ļ×Ŀ
Ġ×Ķ×¨ ×§×¢
Ġ×ķ×ľ×¤ ×Ļ×Ľ×ļ
ĠAg oda
Ġ×Ĳ×¨ ×¦×Ļ×ª
Ġ×¡ ×ķ×Ĺ
Ġ×¤×¨ ×ķ×Ļ×Ļ×§×ĺ
×¡×ŀ ×Ļ×ł×Ļ×Ŀ
Ġ×ķ×ĵ ×¨
×ķ×ŀ ×Ļ×ķ×Ŀ
Ġ×Ķ×Ľ ×Ļ×ĳ×ķ×©
×ł×§ ×Ļ
×Ķ ×ŀ×©×ļ
Ġ×Ķ×ŀ×Ļ×ķ×Ĺ ×ĵ×ª
×ľ×Ķ ×©×Ĳ×Ļ×¨
×ķ×§ ×ķ×¡
Ġ×ľ×ł ×ĸ×§
Ġ×ľ×ª×§ ×ł×ķ×ª
Ġ×ŀ×¨ ×ķ×ĳ
×ł×ĵ ×¡×ª
×ľ ×¦×Ļ×Ķ
Ġ×Ļ×Ļ×¦ ×ķ×Ĵ
ĠThe Marker
Ġ5 9
Ġ×ľ×Ĳ ×ľ×Ķ
Ġ×Ķ×ŀ ×ķ×¡×¨
Ġ×Ĳ ×ĸ×¨×Ĺ×Ļ×ª
×ķ×ľ ×©×Ļ×Ŀ
Ġ×Ķ×Ĳ ×Ļ×¤×ķ×¨
×Ķ ×©×ª
Ġ×Ķ×Ľ×¨ ×Ĺ×Ļ
Ġ×Ķ×ŀ ×ķ×Ľ
×ĳ ×ĵ×ª
Ġ×Ķ×ł×ķ×¡ ×¢×Ļ×Ŀ
×ĳ ×Ĵ×ľ×ľ
Ġ×¤ ×ķ×¤×ķ×ľ
Ġ×Ĳ×¦ ×ĳ×¢
Ġ×¨ ×Ļ×§×Ķ
Ġ×ª×Ķ ×Ļ×ķ
×ĸ ×Ļ×¨
×Ĳ×¤×©×¨ ×ķ×Ļ×ķ×ª
×Ļ×ķ×¨ ×§
Ġ×ķ×ł ×¢×Ļ×Ŀ
Ġ×ŀ×Ľ ×¡×Ķ
ĠIn ter
Ġ×ĳ×¢ ×ł×Ļ×Ļ×ł×Ļ
Ġ×ŀ×ª ×ŀ×ķ×ĵ×ĵ×Ļ×Ŀ
Ġ×Ķ×§ ×¡
Ġ×¢×Ļ×ª×ķ×ł ×Ĳ×Ļ×Ŀ
Ġ×Ķ×ł×Ļ×© ×ķ×Ĳ×Ļ×Ł
Ġ×©×© ×ŀ×¢
Ġ×ľ×Ķ ×Ļ×ķ×Ŀ
×Ļ×Ķ ×ł×ķ
Ġ×ł×Ĺ×© ×£
×Ļ×ł ×Ĵ×ľ
Ġ×ķ×Ĳ ×Ļ×ł×Ŀ
×¢ ×ĸ×¨
Ġ×ª×Ĳ ×Ĵ
Ġ×¤ ×ł×ķ×Ļ
×¦ ×ĳ×Ĳ
Ġ×Ķ×ĺ×ĳ×¢ ×Ļ×ª
×Ķ ×ķ×¨×Ļ×Ŀ
Ġ×ł×ĸ×§ ×Ļ
Ġ×¢×ķ×ĵ ×ĵ
Ġ×ľ×§×ķ×Ĺ×ķ×ª ×Ļ×ł×ķ
Ġ×ľ×¢×ĵ ×Ľ×ķ×ł×Ļ×Ŀ
Ġ×ª×ª×§ ×Ļ×Ļ×Ŀ
Ġ×¢×ĳ×¨ ×ª×Ļ
Ġ×ĳ×Ĳ ×Ļ×©×ķ×¨
f orm
P interest
Ġ×ŀ×ĳ×Ĺ ×ķ×¥
×¢ ×§×ķ×ĳ
Ġ×Ķ×Ķ×ľ ×Ļ×Ľ×Ļ×Ŀ
×¤×§ ×ĺ×Ļ×Ŀ
Ġ×¢×ķ×ĸ ×¨×ª
Ġ×ŀ×Ļ×§×¨ ×ķ×¡×ķ×¤×ĺ
Ġ×ĳ×Ĳ ×Ļ×ĺ×ľ×Ļ×Ķ
Ġ×ŀ ×Ļ×¡
Ġ×ľ ×ķ×Ĵ×ķ
Ġ×ĳ×¢ ×¨×Ļ×Ŀ
Ġ×§ ×ł×Ļ×Ļ×Ł
ĠB r
Ġ×¨×ķ×ĺ ×©×Ļ×ľ×ĵ
×ĳ×¨ ×§×ķ×ĵ
Ġ×ķ×¨ ×ĵ
×§ ×©×¨
Ġ×Ļ×ķ×Ĺ ×ł×Ł
Ġ×Ķ×¦ ×Ĵ×ķ×ª
Ġ×ķ×ľ×Ķ ×©
Ġ×ľ×ŀ ×ĵ×ķ
Ġ×ĳ×§ ×ķ×ŀ×Ķ
Ġ×Ķ×§ ×ķ×¡
Ġ×ľ×¢ ×ķ×ł×Ķ
Ġ×©×Ľ ×Ļ×¨×ķ×ª
Ġ×Ķ×ĸ ×ŀ×¨
Ġ×ķ×ł ×ķ×ª
Ġ×ł×© ×Ļ×ª
Ġ×Ĵ ×Ļ×ĳ×ķ×¨
Ġ×¨×ķ×ŀ ×Ĳ
Ġ×ł ×ķ×Ļ
Ġ×ł ×ŀ×¡
Ġ×¢×ĵ ×ķ×Ļ×ķ×ª
Ġ×ĳ×ª ×ķ×Ľ×Ł
Ġ×¨ ×©×Ŀ
Ġ×ĳ×¤ ×ł×Ļ×Ľ×Ŀ
Ġ×Ķ×ł ×Ļ×ª×Ł
Ġ×©×Ĳ ×¤×Ļ×ľ×ķ
×ķ×Ľ ×ŀ×Ķ
Ġ×Ķ×¨ ×ĵ×Ļ×ķ
×ŀ ×ĵ×Ļ
Ġ×ĳ×Ĺ ×Ļ×¤×ķ×©
×© ×Ļ×Ĺ
Ġ×ĳ×¨ ×ķ×¨×Ļ×Ŀ
Ġ×ĵ×Ļ×¡×§ ×¨×ĺ×Ļ
Ġ×Ķ ×ķ×Ľ×¨
Ġ×Ķ×§ ×Ļ×Ŀ
Ġ×¨ ×Ĵ×Ļ×©×ķ×ª
Ġ×ľ×Ķ ×Ľ×ł×ª
Ġ×ľ×© ×ĵ×¨
×ĸ×ĳ ×ĸ
Ġ6 00
×¨×Ĳ ×Ĵ
×©×ĺ ×ķ×ª
Ġ×ª×§ ×Ļ×ł×Ķ
k y
×ĺ×Ļ ×ķ×ľ×Ļ
Ġ×Ķ×¡ ×Ļ×ķ×Ŀ
×ĳ×© ×ľ×ĳ
Ġ×Ľ×¤×¨ ×Ļ
×¤×§×Ļ×ĵ ×ķ
Ġ×ĺ×Ļ×¤ ×ķ×¡
×ĵ ×ŀ×ª
×ŀ ×ķ×Ĺ
Ġ×ª×¢×¨ ×ķ×ĳ×ª
Ġ×¤ ×Ļ×ł×ķ×ª
Ġ×ŀ×¤ ×Ļ×§
Ġ×Ķ×Ļ ×ķ×¦×¨
×ķ×¨ ×¨×ª
Ġ×ľ×¢×¦×ŀ ×ł×ķ
Ġ×Ķ×ķ×¨ ×ĵ×Ķ
Ġ×Ķ×© ×ľ×ĺ
Ġ×ĺ×Ľ×ł×ķ×ľ×ķ×Ĵ ×Ļ
×Ľ×ľ ×ķ
Ġ×ķ×ľ×Ļ×Ķ ×ł×ķ×ª
Ġ×ŀ ×Ļ×¡×ķ×Ļ
Ġ×ĳ×¦ ×ĳ×¢×Ļ×Ŀ
Ġ×Ķ×ķ×¨ ×ĵ×ª
×ĳ×Ĺ ×Ļ×¨×ķ×ª
Ġ×ŀ×Ľ ×ķ×ķ×Ł
×¤×ª×Ĺ ×ķ
Ġ×ª ×¨×Ĳ×Ķ
Ġâ Ļ
Ġ×Ķ×Ĳ×ķ ×Ļ×ĳ
Ġ×Ĵ ×ķ×ķ×ł×Ļ×Ŀ
×ĳ×ķ×ĺ ×Ļ×ł×¡×§×Ļ
Ġ×ĳ×ª ×ŀ×ķ×¨×Ķ
×Ļ×ĳ ×ĺ×Ļ×Ŀ
Ġ×ŀ×Ĵ×ł ×Ļ×ĳ
Ġ×Ķ×ľ×Ĺ ×Ļ×ŀ×Ķ
Ġ×ľ×Ķ×Ļ×¨ ×Ĳ×ķ×ª
Ġ×Ľ ×ŀ×Ĺ
Ġ×ª ×ŀ×ľ×ķ×ľ
Ġ×ĳ×¡×ĳ ×Ļ×ĳ×ª
Ġ×Ķ×ŀ×¡ ×¤×¨×Ļ×Ŀ
Ġ5 1
Ġ×ĳ×¢ ×ŀ×§
Ġ×ŀ×ª ×¤
×Ĺ×¨ ×ķ×ł×Ķ
×ľ×ŀ×Ļ×ĵ ×¢
Ġ×Ķ×ĵ×¨ ×ķ×©
Ġ0 2
×ĺ ×ķ×¤
at a
Ġ×ľ×ł×§ ×ķ×ĺ
Ġ×ŀ×Ĳ ×ŀ×¦×Ļ×Ŀ
×ķ×ĳ ×¨×ķ×ª
Ġ×Ļ×¦ ×Ļ×ĳ
Ġ×ĳ ×¤×Ļ
Ġ×Ķ×¤×Ĵ ×Ļ×©×Ķ
Ġ×ŀ×ª×Ĺ ×ł×Ķ
Ġ×Ķ×Ĵ×¨ ×¡×Ķ
Ġ×ĳ×§ ×¦×Ķ
Ġ×¨ ×¦×ķ×¢×ª
Ġ×Ķ×Ĳ×Ĺ×¨ ×ķ×ª
Ġ×ľ×© ×Ļ×ª×ķ×£
Ġ×©×ķ×ľ×Ĺ ×ł×ķ×ª
Ġ×ŀ×ĳ ×¤×ł×Ļ×Ŀ
Ġ×Ķ ×Ļ×¤×Ļ×Ŀ
ĠA v
Ġ×Ķ×ĸ ×ķ×ľ
×¤×ª ×Ļ×Ĺ×ª
an a
Ġ×Ķ×ľ ×©×ķ×Ł
Ġ×Ķ×Ĵ×ĳ ×ķ×Ķ×Ļ×Ŀ
Ġ×Ĺ×©×ĳ ×ķ
Ġ×Ķ×ł×§ ×ķ×ĵ×Ķ
Ġ×Ļ ×ķ×¡
×ĵ ×Ļ×§
Ġ×ľ×¡ ×ľ
×§×ĳ ×ķ×¦×ķ×ª
Ġ×¡ ×£
×Ķ×ľ ×Ļ×Ľ×Ļ
Ġ×Ĳ×¨ ×ķ×ł×ķ×ª
Ġ×ĳ×Ĺ ×ķ×¡×¨
Ġ×ŀ×ª ×ł×ĵ×ĳ×Ļ×Ŀ
âĢ« âĢª
Ġ×©×ľ ×ŀ×Ļ×Ŀ
Ġ×ŀ×¤×¨ ×Ļ×¢
Ġ×ľ×ľ ×Ļ×ŀ×ķ×ĵ
Ġ×Ķ×Ķ ×ķ×ľ×ĵ×ª
Ġ×ķ×ĳ ×ŀ×§×ķ×Ŀ
Ġ×Ļ×¨ ×ķ×§×Ļ×Ŀ
Ġ×ĸ×¦ ×ķ×§
×Ļ×ł ×ķ×¨×ķ×ª
Ġ×©×ľ ×ķ×ŀ×Ļ
Ġ×ķ×¢×ĵ ×Ľ×ķ×ł×Ļ×Ŀ
Ġ×Ķ×ŀ×© ×Ĳ
Ġ×ª×¤ ×Ļ×¡×ª
Ġ×ł×Ľ×ł×¡ ×ª
Ġ×¨ ×¥
Ġ×Ķ ×ķ×ĵ×Ķ
Ġ×ĳ ×Ĺ×ª×ķ×ł×Ķ
Ġ×ŀ×ķ×Ĵ×ĳ×ľ ×ķ×Ļ×ķ×ª
Ġ×Ķ×¦×¢ ×Ļ×¨×Ķ
Ġ×ľ×Ķ×¨ ×ĳ×Ķ
Ġ×Ķ×Ķ ×ª×Ļ×Ļ×©
Ġ×ĳ ×ķ×Ĵ×¨×Ļ×Ŀ
Ġ×©×ł ×Ļ×¦
Ġ×Ĳ×ķ×¡×ĺ×¨ ×ľ×Ļ×Ķ
×Ľ ×Ĳ×ķ×¨×Ķ
ou se
Ġ×ŀ×§ ×ķ×ŀ×ķ
Ġ×Ķ×ł ×Ļ×¦×Ĺ×ķ×Ł
Ġ×ŀ ×Ļ×§×Ļ
Ġ×Ķ×ŀ ×Ķ×ľ×ļ
Ġ×ŀ×ł ×Ĵ×ĵ
Ġ×ľ×ĳ ×Ļ×ĺ×Ĺ×ķ×Ł
×ĵ ×§×Ķ
Ġ×©×ĳ ×Ļ×ľ
Ġ×ľ×Ĺ ×ķ×©
Ġ×Ľ×ĵ ×ķ×¨×¡×ľ
×ľ×¡ ×Ļ×Ľ×ķ×Ŀ
×Ľ×ł ×Ĳ×Ļ
Ġ×ŀ×Ĳ ×¤×Ļ×Ļ×ł×Ļ×Ŀ
Ġ×ł×¢ ×©×ª×Ķ
Ġ×Ķ×¢ ×ł×Ļ×§
Ġ×ľ ×Ļ×ŀ×Ļ×Ŀ
Ġ×ª ×Ĳ×Ļ×Ŀ
Ġ×ŀ×ª×Ļ ×Ļ×Ĺ×¡×ª
×¤×¡ ×Ļ×ĵ
Ġ×Ķ×Ľ×ľ ×Ķ
Ġ×§ ×Ļ×¦×ķ×¨
×ĸ ×Ļ×ķ×ª
Ġ×§ ×ķ×¤×ķ×ª
Ġ×ķ×ŀ ×¨×Ĵ
Ġ×ŀ×¡ ×Ļ×Ļ×¢
Ġ×ŀ×¤×¢ ×Ļ×ľ
×ĳ×ª ×Ĵ×ķ×ĳ×Ķ
Ġ×§ ×ľ×Ļ×Ļ×Ł
: "
Ġ×ª×© ×¢×Ķ
Ġ×Ķ×Ľ ×Ļ×¨×ķ
Ġ×Ķ×Ĺ ×ķ×¤×©×Ļ
Ġ×ŀ×ķ×¦ ×Ĳ×ª
Ġ×Ĵ ×¨×Ļ×Ŀ
Ġ×¡×¢ ×Ļ×¤×Ļ×Ŀ
×¨×Ĳ ×ª×Ķ
Ġ×ª ×Ļ×ŀ
Ġ×ŀ×ĳ ×ķ×Ĳ
Ġ×§ ×Ĺ×ķ
Ġ×Ķ×Ļ×ĵ ×Ļ×¢×Ķ
×ķ×ľ×ķ×Ĵ ×Ļ×Ŀ
Ġ×Ĳ ×¨×Ļ
Ġ×ĳ×Ĳ×ľ ×Ļ×¤×ķ×ª
Ġ×©×Ĺ ×ľ
Ġ×Ķ×Ľ ×ķ×¡
Ġ×Ķ×ŀ ×Ļ×ł×Ļ×Ŀ
Ġ×Ķ×¡ ×¨
×Ĺ×¨ ×ķ
Ġ×Ķ×§×© ×ķ×¨×ķ×ª
Ġ ~
×ª×Ĵ ×¨×Ļ×Ŀ
Ġ×Ķ×§×Ļ ×Ļ×ŀ×ķ×ª
×ľ×Ĳ ×ķ×ŀ×Ļ×ķ×ª
×ŀ ×¥
z oom
Ġ×ķ×ª ×©×ª×Ļ×ķ×ª
Ġ×ľ×¤ ×ª×¨×ķ×Ł
Ġ×ł ×ķ×ĳ×¢×ª
×ľ×ĵ ×¢×ª×Ļ
Ġ×ĳ×ŀ ×¨×Ĳ×Ķ
Ġ×¦×¨ ×Ļ×Ľ×ķ×ª
Ġ×Ķ×ŀ ×ł×ķ×ª
×ł ×Ļ×©
Ġ×Ĳ×Ķ ×Ļ×Ķ
2 000
Ġ×Ķ×Ļ ×Ļ×Ĺ×ķ×ĵ
×Ķ ×Ļ×ľ×ª
Ġ×ŀ×Ķ ×Ľ
Ġ×ĵ ×ķ×§×ĺ×ķ×¨
Ġ×Ĳ×ŀ×Ļ×ª ×Ļ×Ļ×Ŀ
Ġ×ŀ×ĸ×Ķ ×Ķ
×¢ ×Ļ×ĸ×¨×ķ
Ġ×ŀ ×ł×Ļ
×Ļ×¢ ×ĳ×ĵ
×§×ĺ×ķ×¨ ×Ļ×ķ×Ł
×ĳ×§ ×¨×Ļ×Ŀ
×© ×ŀ×ª
Ġ×Ľ×ľ×Ľ×ľ ×Ļ×Ļ×Ŀ
Ġ×ĳ ×ķ×¦×¢
Ġ×ª ×ķ×ķ×Ļ×Ŀ
×¨×Ľ ×ĳ×ª
Ġ ad
Ġ×©×Ĺ ×ķ×¨×Ļ×Ŀ
×Ļ ×Ļ×ĳ×ķ×ª
ar s
×ª ×ĸ×ķ×ł×Ķ
Ġ×ĵ ×ķ×ŀ×ķ×ª
×ķ×ĵ ×¨×Ļ×Ŀ
Ġ×ľ×Ķ ×ĸ×Ļ×Ł
Ġ×ľ×© ×Ľ×ķ×¨
×¡ ×ķ×ķ
Ġ×ŀ ×ĳ×ľ
Ġ×ĸ×Ľ ×Ĳ×Ļ×Ŀ
Ġ×ĸ×ŀ ×Ļ×ł×Ļ×Ŀ
Ġ×¨×ķ×Ĺ ×ĳ
Ġ×ľ×ª ×ķ×Ľ×ł×Ļ×ª
Ġ×Ķ×Ĺ ×Ļ×¡×ķ×Ł
Ġ×ĵ×¨ ×¢×Ļ
Ġ×¦ ×¤×Ķ
Ġ×Ķ×Ĺ×© ×ķ×ĵ
en ce
Ġ×ľ×ĺ×¢ ×ŀ×Ļ
×ĳ ×ŀ×©×ļ
Ġ×Ķ×¤ ×ł×¡×Ļ×Ķ
Ġ×Ķ×¡ ×ķ×¤×Ļ×ª
Ġ×ķ×ĳ ×Ľ
Ġ×ķ ×ķ×¨
Ġ×Ĺ×§ ×Ļ×§×Ķ
Ġ×Ķ×ŀ ×ŀ×©×ľ
Ġ×Ķ×Ĺ ×ķ×§×Ļ×Ŀ
Ġ×Ĳ×¡ ×ķ×Ł
Ġ×ĵ ×ķ×§
×¤×¨ ×ķ×¤×Ļ×ľ
×¦ ×¨×ª
×ŀ ×ķ×ł×Ļ×Ķ
Ġ×Ĳ×ĳ ×Ļ×ł×ķ
Ġ×ĳ×Ĳ ×ľ×ķ
Ġ×ł ×ĸ×Ļ×§×Ļ×Ł
7 1
×ª ×Ľ×ł×ķ×Ł
Ġ×ĸ ×ķ×ľ×Ķ
Ġ×§×¨ ×ķ×ĳ×Ķ
Ġ×ĳ×ŀ×Ĺ ×ł×Ķ
Ġ×ĳ×Ļ×ª ×Ļ×ª
Ġ×ķ×ĳ ×Ļ×ĵ×ķ×¨
Ġ×ľ×ŀ ×©×Ķ×ķ
Ġ×ŀ×ķ×ª ×§
Ġ×ł ×ł×Ļ×Ĺ
a i
×Ĳ×Ĺ×ĵ ×ķ×ª
×Ĳ×¨ ×ĸ
Ġ×Ķ ×Ļ×Ľ×ľ
×§×ĵ ×Ļ×©
y st
Ġ×Ĳ×ķ×¤ ×ł×ķ×¢
Ġ×¡×Ĵ ×ł
Ġ×Ĵ ×ĳ×¢
Ġ×Ķ×¡×Ļ×Ľ ×ķ×Ļ×Ļ×Ŀ
Ġ×Ķ×Ĵ ×ĵ×¨
Ġ×¨ ×Ĵ×ĳ
Ġ×ŀ×Ķ×Ĳ×Ļ ×Ļ×§×ķ×ł×Ļ×Ŀ
Ġ×Ķ×ª×Ĺ ×ķ×ŀ×Ļ×Ŀ
Ġ×ĳ×ĸ ×ŀ×ł×ķ
Ġ×ķ×Ĳ ×Ļ×ł×Ķ
×ª ×Ķ×ľ×Ļ×ļ
Ġ×ł ×ķ×ĺ×Ķ
×©×ľ ×ķ×Ĺ
×§×ĺ ×Ļ×Ł
×ŀ ×ķ×©
Ġ×ķ×ł ×ķ×Ĺ
Ġ×Ķ×Ĳ×ķ×¤ ×ł×Ļ×Ļ×Ŀ
Ġ×Ķ×Ĵ ×ĵ×¨×ª
Ġ×ķ×¨ ×¢
Ġ×¨×ķ×Ĺ ×ł×Ļ×ª
Ġ×ĳ×¢ ×ķ×¨
Ġ×ĳ×§ ×ł×Ķ
Ġ×ŀ×¢ ×ĳ×Ļ×¨
Ġ×ĳ×ĳ ×ķ×¨×¡×Ķ
×Ļ×ł×ª ×Ķ
Ġ×ª×© ×ł
×¤×¨ ×Ļ×¡
Ġ×Ķ×Ļ×Ļ×Ĺ ×ķ×ĵ×Ļ
Ġ×ª×ĳ ×Ļ×¢×ª
Ġ×Ķ×¦×¨×¤×ª ×Ļ×ª
Ġ×Ķ ×Ļ×ĺ×ľ
Ġ×ł×Ľ×© ×ľ×Ķ
Ġ×Ķ×¡ ×ķ×Ĵ×Ļ×Ŀ
×¤×¨ ×ķ×Ļ×§×ĺ×Ļ×Ŀ
Ġ×ĳ×ŀ×Ĳ ×ĳ×§
Ġ×Ķ×ŀ×¦ ×ķ×ķ×Ķ
Ġ×ĳ×Ĳ×ł ×Ĵ×ľ×Ļ×Ķ
×Ľ×ł ×¨×Ĳ×Ķ
Ġ×ĳ×Ĳ ×ł×©×Ļ×Ŀ
Ġ×¢ ×ŀ×Ķ
Ġ×¡×ĳ ×Ļ×¨×Ķ
×ĳ ×Ļ×ĺ
Ġ×¡×ĺ ×Ĳ×¨×ĺ
×ĵ ×ł×Ļ
×Ļ×ł ×Ļ×§×Ķ
Ġ×¤ ×Ļ×ł×¡
Ġ×Ĳ×ľ ×¢×ĵ
×Ĵ ×ķ×¨×Ļ×Ļ×ª
Ġ×ŀ×ª ×ķ×§×Ļ×Ŀ
Ġ×Ķ×¤ ×¢×¨
Ġ×Ķ×©×ª×ŀ×© ×ķ
×ķ×Ķ ×ł×Ķ
o h
Ġ×Ķ×¦×ĵ ×§
Ġ×ĳ×ĳ×Ĺ ×Ļ×¨×ª
Ġ×ľ×¢ ×ł×Ļ×Ł
Ġ×ķ×ŀ ×¢×ľ
Ġ×Ķ×§ ×¨×Ĺ
Ġ×ª×¢×¨ ×ķ×Ľ×ķ×ª
Ġ×ŀ×¦ ×Ĳ×ł×ķ
Ġ×Ľ ×ĳ×ľ
Ö¼ ,
×ķ×ľ ×ŀ×Ķ
Ġ×¡ ×ķ×Ľ×Ł
Ġ×¨×© ×Ļ×ŀ×ķ×ª
×¢ ×ľ×Ķ
Ġ×ĳ×¡×¨×ĺ ×Ł
ĠM icrosoft
Ġ×Ķ×¢ ×¨×Ľ×ª
Ġ×ľ×Ľ ×ĵ×Ļ
b right
Ġ×§×Ļ×ľ ×ķ×ŀ×ĺ×¨×Ļ×Ŀ
Ġ×Ĵ×ķ×¨ ×ŀ×Ļ
Ġ×ĳ×Ķ ×Ļ×¨×Ķ
×§ ×¨×Ļ
Ġ×¢ ×ķ×¦×¨×Ļ×Ŀ
Ġ×ķ×ŀ ×¡×ª
Ġ×Ĺ ×¨×ĵ
Ġ×ĵ×¨×Ľ ×Ŀ
Ġ×ĳ×ŀ ×ł×ķ×¢
×¤×¨ ×ķ×ª
Ġ×ľ×Ľ ×Ļ×ª×Ķ
×¢ ×©×¢
Ġ×ĳ×¢ ×ł×Ļ×Ł
Ġ×Ķ×ĵ×Ļ ×Ļ×¨×Ļ×Ŀ
Ġ×©×ľ ×ŀ×ĵ
Ġ×Ĳ×©×Ľ×ł ×ĸ×Ļ
9 6
Ġ×Ķ×¡×¨×ĺ ×ķ×Ł
Ġ×Ķ×ŀ ×ł×ķ×¢
Ġ×Ķ×§×ĺ ×ł×ķ×ª
×© ×ĳ×¢
×ľ×¤ ×Ĺ×ķ×ª
Ġ×Ľ×Ĺ ×¦×Ļ
Ġ×ķ×Ķ ×¨×¦
Ġ×Ķ×Ĳ ×ĳ×ĺ×Ĺ×Ķ
Ġ×ŀ×ĳ ×©
×Ļ×Ĳ×ľ ×Ļ×ª
Ġ×ľ×Ĺ ×¦×Ļ
Ġ×ŀ×ķ×¦ ×Ļ×Ĳ
×ŀ×Ļ×ľ ×Ĳ
Ġ×Ľ×ľ ×ķ×ľ
Ġ×¤ ×Ĵ×Ļ×©×ķ×ª
Ġ×ŀ×¨×Ķ ×Ļ×ĳ
Ġ×¤×¢ ×ŀ×Ļ
Ġ×ĳ ×Ļ×¨×ª
Ġ×Ķ×©×ª×ª ×£
Ġ×Ķ×ŀ×Ļ×ķ×Ĺ ×ĵ×Ļ×Ŀ
×ĵ×ķ×ª ×ķ
I M
×Ļ×¡ ×ķ×Ļ×Ļ×Ŀ
Ġ×Ķ×¢ ×ķ×ĳ×¨
Ġ×ķ×Ĺ ×ĳ×¨×ª
×ĳ ×Ļ×¥
Ġ×Ķ×Ĳ ×ķ×¤×Ļ
Ġ×Ķ×Ľ ×ķ×©×¨
Ġ×Ķ×¡ ×Ĺ
Ġ×Ķ×ŀ×©×¤ ×Ĺ×ª×Ļ
âĢĻ .
×ł ×¢×Ŀ
Ġ×Ľ×ŀ ×ķ×ł×Ļ
bright ness
Ġ×ª×Ļ×§ ×Ļ
×Ķ ×Ľ×ł×¡
Ġ×ŀ×¡ ×ķ×ĵ×¨×ª
Ġ×ĳ×Ķ ×ķ×ĵ×¢×Ķ
Ġ×ľ×Ĳ ×ľ×ķ
Ġ×Ķ ×Ļ×ŀ×Ļ×Ł
Ġ×ľ×ª ×¤
Ġ×ĳ×ĵ ×ķ
Ġ×Ķ×ĺ ×ĳ×¢×ª
Ġ×¢×ķ×ĵ ×£
Ġ×¡×ķ×¤ ×¨×Ļ×Ŀ
Ġ×ł×Ļ×¡ ×Ļ×ķ×ł×ķ×ª
Ġ×Ĵ×ĳ ×Ĳ×Ļ
Ġ×ĳ×Ľ×ľ ×Ĳ
Ġ×ľ×Ķ ×ĳ×ĵ×Ļ×ľ
Ġ×ķ×Ľ ×ľ×Ļ
×©×ľ ×ķ×©
Ġ×©×Ĵ ×Ļ×Ĳ×Ķ
Ġ18 0
×Ķ ×ĵ×¨
Ġ×¤ ×Ĵ×¢
Ġ×ķ ×Ļ×Ĺ×ĵ
Ġ×Ķ×ŀ×© ×Ļ×ĳ×Ļ×Ŀ
Ġ×ľ×¦ ×ĳ×Ĳ
×Ķ×ª×§ ×©×¨×ķ
Ġ×ŀ×¨×Ĺ ×ĳ×Ļ
Ġ×Ķ ×Ļ×ª×¨×ķ×Ł
×¨×Ĳ ×Ļ×ķ×Ł
Ġ×Ķ×ŀ ×§×¨×§×¢×Ļ×Ł
Ġ×ĳ×© ×ŀ×ķ
Ġ×Ľ×ł×¡ ×ķ
×ŀ×© ×¤×Ĺ×ª
Ġ×©×ĸ×Ķ ×ķ
Ġ×Ķ×© ×ŀ×Ł
Ġ×¤×Ļ×¨ ×ķ×ĺ
Ġ×Ķ×¤ ×§×Ķ
Ġ×Ķ×Ĺ×© ×Ļ×ĳ×ķ×ª
×Ļ×¤ ×ķ×ľ×Ļ×Ŀ
Ġ×ľ×Ķ×ª ×Ĺ×ª×Ł
×©×ĳ ×ª×Ļ
Ġ×ĳ ×ķ×§
Ġ×© ×ķ×ľ×ĺ
Ġ×Ļ×© ×¢
×¤×¢ ×ľ×Ļ×Ŀ
Ġ×Ĵ ×Ĵ×ķ×ª
Ġ×ľ×¨ ×Ĺ
Ġ×Ľ×ĵ ×ķ×¨×Ļ
Ġ×ĵ ×Ĺ×Ķ
Ġ×Ķ×Ĳ ×ł×ĺ
Ġ×ĳ×ª ×ĳ×Ļ×¢×Ķ
×Ļ×¤ ×ķ×Ļ×ķ×ª
Ġ×Ķ×ĳ ×Ĺ×ķ×¨
Ġ×©×ľ ×ķ×©×Ļ×Ŀ
Ġ×Ĳ×¨ ×ĳ×¢×ª
Ġ×ĳ×ŀ ×ĳ×Ĺ×Ł
Ġ×Ĳ×ĵ×¨ ×Ļ×Ľ×ľ×ķ×ª
Ġ×ŀ×Ķ ×Ĳ×ª×¨
×ĺ×¨ ×ķ×Ł
Ġ×ľ×¡ ×ĳ×ķ×ľ
Ġ×ķ×ŀ×¢ ×¨×ĳ
Ġ×¡ ×Ļ×ķ×Ł
ĠW eb
Ġ×Ķ×ĺ×Ļ×¤ ×ķ×ľ×Ļ×Ŀ
" ;
Ġ×¤×¨ ×©
Ġ co
Ġ×Ķ×ª ×ķ
Ġ×Ĵ ×¤×Ł
Ġ×ŀ×Ĵ ×¨×©
Ġ×Ķ×¢×Ļ×¨ ×ķ×ł×Ļ×ª
Ġ×ĳ ×Ļ×ł×ķ
Ġ×Ĳ×ª ×ķ
Ġ7 29
Ġ×ķ×¨ ×Ĳ×Ķ
Ġ×ŀ ×Ļ×ŀ×ķ×©
×¢ ×¡×§
×ĳ ×ĸ×ŀ×Ł
Ġ×©×¤×ª ×Ļ×Ļ×Ŀ
Ġ×ł×¤ ×ķ×¦×Ķ
Ġ×Ļ×¨ ×ĵ×Ł
Ġ×ŀ×ľ×Ľ×ª ×Ĺ×Ļ×ľ×Ķ
Ġ×Ķ×ĳ ×Ĵ×ĵ×Ļ×Ŀ
Ġ×ĳ×ķ×Ĵ ×¨×Ļ
Ã ©
×¨×Ĵ ×ľ×Ļ×Ŀ
Ġ×Ĺ×Ļ×¡ ×Ľ×ķ×Ł
Ġ×ŀ×Ĵ ×ľ
Ġ×©×ŀ ×Ļ×¨
Ġl ong
×ĳ ×Ļ×ŀ×Ļ×Ŀ
Ġ×Ķ×Ĳ ×ĸ×¨×Ĺ
×© ×ŀ×Ł
Ġ×©×ŀ×ª ×Ĳ×Ļ×Ŀ
Ġ×Ķ×Ļ×ķ×ª ×ķ
Ġ×Ķ×¦ ×ĺ
Ġ×Ķ×Ĳ×Ļ×ŀ ×¤×¨×Ļ×Ķ
×Ļ×© ×ķ×ŀ×Ļ×Ŀ
×ķ×¡ ×ĵ
×ķ×ĺ ×ª
×§×ĺ ×ľ×ķ×Ĵ
Ġ×Ļ×¨ ×Ļ
Ġ×ĳ×ĵ×¨ ×Ľ×ķ
Ġ×ĳ×ŀ ×ķ×©
Ġ×Ķ×Ļ×¨ ×Ĺ
×¤ ×ł
Ġ×ª×¦ ×Ĳ
×ķ×ľ ×ľ×Ļ×Ŀ
×Ļ×ķ ×ķ×ł×Ļ×Ŀ
Ġ×Ķ×¨×Ĳ×© ×ķ×ł×Ļ
Ġ×Ķ×§×ĵ ×ķ×©×Ķ
Ġ×ľ×¢ ×¨×ļ
Ġ×ŀ ×ľ×§
Ġ×Ķ×ŀ ×¨×Ĺ×ĳ
Ġ×Ķ×¤ ×¡×§
Ġ×Ĺ ×¤×¨
Ġ×ĳ×§ ×¨×Ķ
Ġ×ŀ×ĳ×¢ ×ľ×Ļ
Ġ×ľ×ŀ ×Ļ×ł
Ġ×ŀ×Ļ ×ķ×ŀ×ł×ķ×Ļ×ķ×ª
Ġ×Ķ×Ĵ×¨ ×ŀ×ł×Ļ×ª
×Ĺ ×Ļ×§
Ġ×ķ×ĳ ×Ĵ
Ġ×ľ×Ķ×¤ ×Ļ×¥
ou s
Ġ×ŀ×¦ ×Ĳ×Ķ
Ġ×ŀ×¦×ĳ ×Ļ×¢
Ġ×ł ×ķ×¢×ĵ×Ķ
Ġ×Ĵ ×ķ×¤×ķ
wik i
Ġ×©×ł×© ×Ĳ×¨
M oovit
Ġ×ľ×Ĵ ×ĳ×¨
Ġ×¨ ×ķ×ª×Ŀ
Ġ×ŀ×©×§ ×Ļ×¢
Ġ×©×§ ×ĵ×Ļ×Ŀ
Ġ×¦×ĳ×¢ ×ķ×ł×Ļ
Ġ×Ķ×ŀ×ĵ×Ķ ×Ļ×Ŀ
Ġ×ŀ×¦ ×ľ×ŀ×ª
B log
Ġ×ľ×Ĳ ×¨×Ĵ×Ł
ay s
×ĳ×Ĺ ×Ļ×¨×ª
×Ķ ×ĳ×ľ×ķ×Ĵ
×¦ ×Ļ×ľ
Ġ×Ĺ×ķ×ľ ×¦×ķ×ª
Ġ×Ķ×Ĳ×ĸ×ķ×¨ ×Ļ×ª
Ġ×ľ×ĳ ×Ļ×Ĳ
Ġ×ĳ×¡×Ļ×¡ ×Ļ×ª
Ġ×Ĺ×ķ×ĸ ×Ļ×Ŀ
Ġ×©×Ļ×ŀ×ķ×© ×Ļ×Ļ×Ŀ
×ª×§ ×Ł
Ġ×ľ×Ķ×Ĵ ×ł×Ķ
Ġ×ľ×ĳ×¨ ×ļ
Ġ×Ķ×© ×Ľ×ľ×Ķ
×ł×Ĵ ×ķ×£
Ġ×¡×ł ×Ļ×¤×Ļ×Ŀ
Ġ×¤ ×ł×Ļ×Ļ×Ķ
×ķ×ĸ ×Ļ×ľ×Ļ×Ķ
Ġ ....
Ġ×©×ŀ×Ĵ ×Ļ×¢×Ļ×Ŀ
×Ľ ×Ľ×Ķ
Ġ×Ķ×¨×¦ ×Ĺ
Ġ×©×¨ ×Ļ×¨×Ļ×Ŀ
Ġ×ľ×§ ×Ĺ×ķ
Ġ×ľ×¡ ×Ļ×¤×ķ×¨
×ĳ×ľ ×ĳ
Ġ×¢×Ļ×§×¨ ×Ļ×ķ×ª
Ġ×ł×Ĺ ×ķ×Ŀ
B B
Ġ×ľ×ª ×ĳ×ķ×¢
×Ķ×¨×¦ ×Ĳ×ķ×ª
Ġ×Ĵ×ķ×¤ ×ł×Ļ
Ġ×ĳ×ŀ×ķ×¡ ×ĵ×ķ×ª
Ġ×Ĺ×Ļ×ľ ×ķ×£
Ġ×ŀ×ł ×ķ×¡×Ķ
Ġ×¨×ľ×ķ×ķ×ł×ĺ ×Ļ×Ļ×Ŀ
Ġ×ł ×¢×¨×ķ×ª
Ġ×ľ×¦ ×¨×Ľ×Ł
Ġ×ĳ×© ×ĺ×Ĺ×Ļ×Ŀ
Ġ×ķ×¤ ×ķ×ľ
×Ĺ×© ×ĳ×Ķ
Ġ×ĳ×ŀ×Ķ ×¨×Ķ
Ġ×ĳ×ł ×ŀ×ľ
Ġ×ķ×ł ×Ļ×¡×Ļ×ķ×Ł
Ġ×ŀ×ķ×Ĵ ×ĸ
Ġ×Ķ×©×ŀ ×Ļ×Ļ×Ŀ
Ġ×ł×ª ×ł×Ķ
Ġ×ŀ ×¨×ĳ
Ġ×Ķ×Ķ ×ł×Ķ×ľ×Ķ
Ġ×ŀ×¦ ×¤×Ļ×Ŀ
Ġ×Ķ×ŀ ×ķ×ŀ×ľ
Ġ×ŀ×¡×ķ×Ļ ×Ļ×ŀ×Ļ×Ŀ
Ġ×Ķ×¦ ×¨×Ľ
Ġ×ľ×¡ ×Ļ
×ĵ ×ķ×ķ×Ĺ
×¤×ª ×¨×ķ×ł×ķ×ª
Ġ×ŀ×¡×ķ×Ļ ×Ļ×ŀ×ª
Ġ×Ķ×¡ ×Ļ×ķ×¨
Ġ×¡×Ļ×¤×ķ×¨ ×ķ
Ġ×Ľ×¨ ×Ļ×¡×ĺ
×¤ ×Ĳ×¨×§
×ķ×ł ×ľ
Ġ×ĳ×Ĺ ×ķ×ŀ×¨×Ļ×Ŀ
Ġ×¦×Ļ×ľ ×ķ×ŀ×Ļ
Ġ×©×¢ ×Ŀ
Ġ×ĳ×ŀ ×ĳ
Ġ×Ķ×Ĳ ×Ĺ×ķ×¨×Ļ
×ĵ ×ĳ×¨×Ļ
Ġ×ł×ŀ×¦ ×Ĳ×ķ×ª
Ġ×¡×ĵ ×ł×ª
×¨ ×Ļ×ķ×ª
Ġ×Ķ×ŀ×¢ ×ķ×ł×Ļ×Ļ×ł×Ļ×Ŀ
Ġ×ŀ×ľ×Ĳ ×Ľ×Ļ
Ġ×Ĺ×ķ×ŀ ×ķ×¡
Ġ×ŀ×¦×ķ×Ļ ×Ļ×ł×ª
Ġ×¤×¡×§ ×ĵ×Ļ×Ł
Ġ×ŀ×ª×§×Ļ ×Ļ×ŀ×Ļ×Ŀ
\ Ā
×Ľ×Ķ ×Ł
×Ļ×¨ ×ķ×ĳ
Ġ×Ĳ×Ļ×ª ×ķ×¨
Ġ×ľ×Ĺ ×©×ĳ
Ġ×Ķ×ŀ×©×¤ ×Ĺ×ķ×ª
×¤×ĺ ×Ł
×Ľ×ķ×ª ×ĳ
Ġ×©×ĺ ×Ĺ×Ļ
×ľ×ª ×ķ
Ġ×§×Ķ ×Ļ×ľ×ķ×ª
Ġ×©×Ĳ ×Ľ×Ł
×ľ×ĵ ×ĳ×¨×Ļ
Ġ×ŀ×©×ķ×ĳ ×Ĺ
I t
×Ļ×ł×¨ ×ľ×Ļ×Ŀ
Ġ×Ķ×ª ×Ļ×Ĳ×ĺ×¨×ķ×Ł
! âĢı
Ġ×ľ×¤×¢ ×ķ×ľ×Ķ
Ġ×©×ĳ ×Ļ×ª
Ġ×Ķ×ĵ ×ķ×¨×ķ×ª
Ġ×ľ ×¤×¨×¡
×Ļ×ł ×ľ
×Ĵ×ľ ×Ļ×ľ
ĠH T
Ġ×©×Ĳ ×Ł
Ġ×ľ×¤ ×ł×Ļ×Ŀ
Ġ×Ķ×ĵ ×ķ×§
Ġ×©×Ĺ×§ ×ł×Ļ
p t
Ġ×Ķ×Ľ×ª ×ķ×ĳ×ª
Ġ×ķ×© ×ķ×ŀ×¨×ķ×Ł
Ġ×ł×¤ ×ķ×¥
oo l
Ġ×ª×§ ×Ļ×¤×Ķ
Ġ×ŀ×ŀ ×Ĵ×ķ×ķ×Ł
Ġ×ĳ×ŀ×ª ×ł×Ķ
×Ĵ×ķ×¨ ×¨×Ļ×Ŀ
Ġ×ķ×ŀ×© ×ŀ×¢×ķ×ª
×ģ Öµ
Ġ×ĳ×Ļ×§ ×©×ķ
ĠTwitter ×©×ª×£
×¢ ×ł×Ļ×Ļ×Ł
Ġ5 6
×¡×¤×¨ ×ķ×ª
Ġ×Ķ×ª ×¨×Ĳ×Ķ
Ġ×ĳ×ŀ ×Ļ×ľ
×ķ×§ ×¨×Ķ
×Ķ×ĸ ×Ł
Ġ×ľ×Ķ×¡×ª ×Ļ×¨
Ġ×Ķ×§ ×ŀ×¤×Ļ×Ļ×Ł
Ġ×Ĺ×ĸ ×ķ×ª
Ġ×ª×¢ ×¡×ķ×§×Ķ
Ġ5 3
Ġ×Ķ×¤ ×Ļ×¡
Ġ×©×Ķ ×ķ×ª
Ġ×ł×© ×ķ×Ĳ×Ļ×Ŀ
Ġ×Ķ×ľ ×ŀ×Ļ×ĵ×Ķ
Ġ×¢×ĳ×ķ×¨ ×ł×ķ
Ġ×Ķ×ŀ×ł×Ķ ×ľ×Ļ×Ŀ
×Ļ×ĺ ×ķ×Ŀ
op yright
Ġ×Ķ×ł ×ĳ×Ĺ×¨×ª
Ġ×Ķ×ŀ×ł ×Ľ
Ġt ake
Ġ×Ķ×ĺ×¢ ×ł×ķ×ª
Ġ×ŀ×ĵ×ķ×Ļ×§ ×ª
Ġ×Ļ×¢ ×ĵ×Ļ×Ŀ
Ġs ex
Ġ×Ĵ ×ķ×ķ×Ł
×¡ ×Ļ×ŀ×ķ×Ł
×¢ ×©×¨×Ķ
Ġ×ľ×¢ ×ķ×ĳ×ĵ
×ĺ×¢ ×¨×Ļ×Ŀ
Ġ×Ĵ ×ĵ×¨
Ġ×ľ×Ĳ×¨ ×ķ×Ĺ×ª
Ġ×ľ×Ľ ×ķ×ª
Ġ×¢×Ļ×ª×ķ×ł ×Ĳ×Ļ
Ġ×©×Ļ×¤ ×ķ×¦×Ļ×Ŀ
×¤×ª ×Ĺ×Ķ
Ġ×ľ×© ×ĵ×¨×Ĵ
Ġ×¤×¨ ×ķ
Ġ×Ķ×¡ ×ķ×¦×Ļ×Ĳ×ľ
×ł×ª ×Ļ×ª
×ķ×Ľ ×Ŀ
Ġ×ľ×¢ ×Ļ×ª×ķ×ł×ķ×ª
Ġ×ĵ ×¤
Ġ×Ĵ×ŀ ×Ļ×¨×ķ×ª
Ġ×ŀ×ķ×¦ ×Ļ×Ĳ×Ļ×Ŀ
Ġ×Ķ×Ĺ ×ķ×¤×©×Ķ
Ġ×Ķ×ŀ×Ľ ×Ļ×ľ
×ŀ×© ×Ľ×ª
Ġ×§×¨ ×ľ
Ġ×ĳ×¢ ×Ļ×¦
Ġ×ł×©×Ĳ×¨ ×ķ
×Ļ×ĸ ×ķ×Ŀ
Ġ×ľ×ł ×ķ×Ľ×Ĺ
×ĳ×¨ ×ķ×¨
Ġ×Ĳ×ľ ×Ļ×¤×ķ×ª
Ġ×ĳ×ŀ×Ĺ ×¦×Ļ×ª
Ġ×ł×Ļ×Ľ ×¨×ª
×ķ×¡ ×ª
I G
Ġ×Ķ×ŀ×ŀ×ķ×§ ×Ŀ
×ķ×ŀ ×ł
s hot
Ġ×ľ×Ľ×ľ ×Ļ
×ŀ×©×ª ×ŀ×©×Ļ×Ŀ
Ġ×ĸ×ŀ ×Ļ×ł×Ķ
Ġ×Ķ×Ĳ ×ķ×ŀ×Ķ
Ġ×©×ª ×ķ×Ľ×ľ
Ġ×¢ ×ķ×ª
Ġ×Ķ×Ĵ ×Ķ
Ġ×ľ×ĵ ×ŀ×Ļ×Ļ×Ł
×ķ×Ĳ ×ł×Ķ
Ġ×ķ×¤ ×¡
Ġ×ĳ×§ ×¨×ª
×ķ×Ĺ ×Ŀ
Ġ×©×¤ ×©×ķ×ĺ
O D
×ŀ×ª ×§
×Ļ×¦ ×ķ×Ĵ
×ŀ ×¡×ª
Ġ×§×ĺ ×¢×Ļ×Ŀ
if e
Ġ×ĳ×ŀ ×¤×ķ×¨×©
Ġ×¨×¢ ×ĳ
Ġ×Ĳ ×§×ķ
×ķ×ĺ×¨ ×Ļ×ķ×Ł
Ġ×©×Ľ ×ĳ×ª
' ),
H amster
×Ķ ×ŀ×¡
Ġ×ŀ×Ĵ ×Ļ×¢×ķ×ª
Ġ×ĵ×ķ×ĵ ×ķ
Ġ×ĵ×Ĵ ×ŀ×Ļ×Ŀ
Ġ×ł×¢ ×¨×Ķ
Ġ×ľ×Ľ×ł×¡ ×ª
Ġ×ª×ķ×ŀ ×Ľ×Ļ×Ŀ
×ľ×Ĺ ×Ļ×¦×Ķ
Ġ×ĸ×¨ ×Ŀ
Ġ×Ĳ ×ķ×£
Ġ×ķ×© ×Ĳ
Ġ×ł×¢ ×©×ķ
-- --
Ġ×Ķ×ŀ×© ×Ļ×Ľ×ķ
re f
Ġ×Ĺ×ĳ ×Ļ×ĳ
Ġ×Ļ×ĳ ×Ļ×Ĳ
Ġ×Ķ×ł×© ×Ļ×ŀ×Ķ
Ġ×Ķ×Ľ ×¨×Ĺ
Ġ×ķ×¨ ×ĳ
Ġ×¡ ×Ļ×Ĵ
Ġ×ĳ×ĵ ×ŀ×ķ×ª
Ġ×¦ ×¨×Ľ×Ļ
Ġ×ľ×ª ×Ķ×ľ×Ļ×ļ
eb rew
Ġ×Ķ×ł×§ ×ķ×ĵ×ķ×ª
Ġ×ŀ×Ĳ ×Ļ×ĵ×ļ
Ġ×ľ×Ķ×ª ×Ĵ
Ġ×Ķ×ĵ×¨ ×ķ×ŀ×Ļ
Ġ×ŀ×Ĺ ×Ĳ×Ķ
Ġ×ľ×Ķ×¨ ×ķ×¡
Ġ×Ļ×¦ ×¨×ķ
Ġ×ŀ×ª ×Ļ×Ŀ
Ġ×§×Ļ×¦ ×ķ×ł×Ļ
Ġ×ŀ×ķ×¡ ×ª×¨×ķ×ª
Ġ×ľ×Ĵ ×ĵ×ķ×ľ
Ġ×ł×Ļ×ª ×ł×Ļ×Ŀ
Ġ×Ķ×ŀ×ĵ ×ĳ×¨
Ġ×¨×ķ×ŀ ×ł×ĺ×Ļ×ª
Ġ×ª×Ĵ×ķ×ĳ×ª ×ļ
Ġ×¤×¡ ×ķ×ľ×ª
Ġ×ŀ×ĺ ×ĳ×¢×ķ×ª
Ġ×ĳ ×ľ×§
Ġ×§×Ļ ×ķ×ŀ×Ķ
×¨ ×ŀ×ª
Ġ×ķ×ŀ ×ł×Ķ×ľ
Ġ×ŀ×Ķ ×ŀ×§×ķ×Ŀ
×ł ×ķ×Ĳ×ľ
Ġ×ľ×¤ ×Ķ
Ġ×Ķ×ŀ ×¨×§
Ġ×Ķ×¡×ª ×Ļ×Ļ×Ŀ
Ġ×ĳ ×Ļ×ĳ×Ļ
Ġ×Ķ×ŀ×¢ ×Ļ
×¤×ĺ ×ķ×ŀ×Ļ×Ŀ
Ġ×Ķ×¢×¡×§ ×Ļ×ª
Ġ×Ķ×ĵ ×ķ×Ĵ
Ġ×ĳ×ĳ×¨ ×Ļ×ĺ×ł×Ļ×Ķ
Ġ×ł×Ĺ ×ĸ×ķ×¨
Ġ×Ļ×ľ×ĵ ×Ļ×Ķ×Ŀ
Ġ×Ľ ×ł×¡×Ļ×Ŀ
Ġ×© ×¡×Ļ
\Ā \Ā
Ġ×ŀ×ª×¨×Ĺ ×©
Ġ×Ĳ×Ļ×ł×ĺ ×ł×¡
Ġ×Ķ×ŀ×¢ ×¡×Ļ×§
. âĢĿ
×Ĳ ×Ļ×Ļ×Ŀ
×Ķ×Ļ×¨ ×©×ŀ×ķ
×ķ×ĺ ×£
Ġ×Ĳ×ŀ×¦ ×¢
Ġ×ľ×¨ ×¦×ķ×ª
Ġ×ĳ×¨ ×ķ×ł×ĺ
×¦×¨ ×¤×ª
×ª ×ł×ķ
Ġ×¤×ľ ×ĵ
Ġ×Ķ×¦×Ļ ×ķ×ł×Ļ×ª
×Ļ×ł×¡×ĺ ×Ĵ×¨×Ŀ
Ġ×Ķ×¡ ×£
×¨×Ĵ ×©×ª×Ļ
Ġ×ĳ×ĵ ×§×ķ
Ġ×ŀ×Ĺ ×ĳ×¨×ķ×ª
Ġ×ŀ×Ľ ×ķ×ª
×Ķ ×ĳ×¢×Ļ×Ķ
Ġ×ŀ ×Ļ×ł×Ķ
Ġ×ĳ×Ĵ ×Ļ×ł×Ķ
×ķ×Ľ ×ļ
×¨×Ļ ×Ļ×Ķ
×ķ×Ķ ×ĵ×Ļ×Ŀ
Ġ×ĳ×ŀ×Ĺ ×ľ×§×Ķ
Ġ×ĳ×ª ×ķ×Ľ×Ķ
Ġ×ľ×Ķ×ª ×ł
Ġ×ł×ŀ ×ł×¢
Ġ×©×ĸ ×Ľ×Ķ
×Ĺ×ŀ ×Ļ×ŀ×ķ×ª
Ġ×Ķ×§ ×¡×Ŀ
×©×ľ ×Ļ×©×Ļ
Ġ×©×¢×© ×Ļ×ª×Ļ
Ġ×ª ×Ľ×ł
×Ļ×ŀ ×Ļ×ł×Ĵ
Ġ×ĵ×¢×ª ×ļ
Ġ×Ķ×Ľ ×ł×Ļ×¡
×¤×¨ ×ł×¡
Ġ×Ļ×ŀ ×Ļ×ł×Ķ
Ġ×¨ ×ŀ×ľ×Ķ
Ġ×ķ×ĳ×Ķ ×ŀ×©×ļ
Ġ×ĳ×ĸ ×Ľ×ķ×Ļ×ķ×ª
×Ķ×ķ×¨ ×Ĳ×ķ×ª
Ġ×©×ĺ ×Ĺ×Ļ×Ŀ
Ġ×ł ×¨×ĵ
Ġ×ŀ×¢×ĳ ×Ļ×¨×Ļ×Ŀ
Ġ×ľ×Ĳ ×Ļ×ĸ×Ķ
Ġ×Ķ×¤ ×Ĳ×¨×§
Ġ×Ķ×ŀ ×Ĳ×ŀ×¨×Ļ×Ŀ
×§×ķ ×Ļ×Ł
×Ľ×ľ ×ľ×ķ×ª
Ġ×Ķ×¡ ×ł
×¤×¡ ×ķ×Ł
Ġ×ŀ ×Ļ×¦
Ġ×©×Ķ ×ķ×ĸ
Ġ×ŀ×Ķ ×Ļ×¨×Ļ×Ŀ
Ġ×Ĳ×Ĺ ×ĵ×Ļ×Ŀ
Ġ×Ľ×¨ ×ŀ×Ļ×Ĳ×ľ
Ġ×Ĳ×Ļ×ŀ ×ķ×ł×Ļ×Ŀ
Ġ×Ķ×ŀ×ķ×ł ×Ĺ
×ł×§ ×ª
×Ļ×ĵ ×Ĵ
Ġ×Ķ×Ĺ ×ķ×¨
Ġ×ľ×ĳ ×§
Ġ×Ĳ×ķ×ľ ×ŀ×¨×ĺ
×ł ×Ĳ×ľ
×¨ ×Ļ×ª
Ġ×ŀ×© ×ĺ×¨
×ĺ ×ľ×¤×ķ×Ł
Ġ×ľ×ª ×ķ×©×ĳ×Ļ
Ġ×ĳ×ĳ×¢ ×Ļ×ķ×ª
×ķ×Ĳ ×ľ×Ķ
Ġ×Ķ×Ķ ×Ļ×Ĳ
Ġ×ķ×§ ×Ļ×ĳ×ľ
Ġ×ķ×§ ×ĳ×ľ×ª
Ġ×ķ×Ķ ×§×¨
Ġ×¦×¨×¤×ª ×Ļ×ª
Ġ×ª×Ĺ×ĸ ×ķ×§×Ķ
Ġ×Ĳ ×ĸ×¨×Ĺ×ķ×ª
en ter
×¡ ×ł×Ļ×£
a u
Ġ×Ķ×ł ×Ĳ×©
Ġ×ŀ×ĸ ×Ĵ×Ł
ĠOn line
×¤×ª ×¢×Ķ
Ġ×ŀ×¡ ×¨×Ļ×Ŀ
Ġ×ĺ×ĳ×¢ ×ķ×ª
Ġ×Ĵ×Ļ×ľ ×Ļ×ª×Ļ
Ġdo es
×ŀ ×Ĳ×Ķ
Ġ×ŀ×¢ ×Ļ
Ġ×Ĺ×Ļ×ł ×ŀ×Ļ
×Ķ×© ×¤
×ľ×Ĳ ×¡
Ġ×ĳ×ŀ×ĵ ×¢×Ļ
Ġ×ª ×Ļ×¢
Ġ×ľ×©×ŀ ×Ļ×¨×Ķ
Ġ×ĳ×¢ ×Ļ×Ļ×ª×Ļ
Ġ×ķ×ľ×Ķ ×ĳ×Ļ×Ł
Ġ×Ķ×ŀ×ľ×Ĳ ×Ļ×Ŀ
Ġ×Ĳ ×Ļ×¦×Ļ×§
Ġ×ŀ×§×¨×§ ×¢×Ļ
×ĳ×ª ×ķ×ļ
×Ĵ ×Ļ×¢×Ķ
Ġ×Ķ×ª×§ ×Ł
×ŀ×Ĺ ×¤×©
Ġ×ľ×ĳ ×ĵ×ķ
ĠO ne
Ġ×Ķ×© ×£
Ġ×ķ×ª×§ ×©×ķ×¨×ª
Ġ×ĳ×©×ľ ×ķ×©×Ķ
ĠUS B
×§×¡ ×ķ×Ł
Ġ: -)
Ġ×ľ×¡ ×¤
Ġ×Ķ×Ķ ×ĳ×ł×Ķ
Ġ×©×Ķ×ª×§ ×Ļ×Ļ×Ŀ
200 5
Ġ×ĳ×¨ ×¤×ķ×Ĳ×Ķ
Ġ×ĳ×ĺ ×¢×Ŀ
Ġ×ª×§ ×ĵ×Ļ×Ŀ
Ġ×Ķ×ŀ×¡ ×Ļ×Ŀ
×¨ ×ķ×Ĺ
Ġ×Ļ ×ķ×ł
Ġ×ŀ×ĳ ×ĵ
Ġ×ľ×Ķ ×Ĺ×ŀ
×ª×Ļ×Ļ×Ĺ×¡ ×ķ×ª
Ġ×ķ×ł×¡ ×Ļ×ķ×Ł
Ġ×Ĺ ×Ĵ×Ļ×Ŀ
Ġ×ľ×Ĺ×ľ ×ķ×§
Ġ×Ļ ×ķ×ŀ×Ļ×ª
Ġ×ķ×© ×ª×Ļ
×¡×¨ ×ķ×ł×ķ×ª
×ķ×ľ ×¦×Ļ×Ķ
Ġ×©×Ķ ×©×ª
Ġ×ľ×§ ×ķ×¨×¡
Ġ×ŀ×ķ×¦ ×§×Ļ×Ł
ĠP h
Ġ×Ĺ ×§×¨
Ġ×Ķ×Ĵ ×Ļ×Ļ×Ķ
Ġ×Ķ×¢ ×Ļ×¡×ķ×§
Ġ×ĵ ×ķ×ĵ×Ļ
Ġ×Ľ ×©×ª
an n
ran s
Ġ×Ľ×ķ ×ķ×ł×ª
Ġ×Ķ×ŀ×ķ×¢ ×ŀ×ĵ×Ļ×Ŀ
Ġ×Ļ ×Ļ×¢×ķ×ĵ
×¡ ×¤×Ļ
Ġ×Ķ×©×ķ×ĺ ×¨×Ļ×Ŀ
Ġ×Ĳ×Ļ ×Ļ×ľ×ķ×Ł
Ġ×©×ŀ ×Ľ
Ġ×ĳ×¡ ×ľ×ķ×Ł
×©×ľ ×Ľ×ķ×ª
×ķ×§×Ļ ×Ļ×ł×ķ×¡
Ġ×ľ×Ĳ ×ķ×ª×Ķ
Ġ6 8
Ġ×ĳ×¨ ×ķ×¡×Ļ×Ķ
×ķ×Ĳ×ľ ×Ļ×Ķ
×Ļ×ł ×Ĳ
Ġ×ķ×§ ×ĺ
×¡×ª ×Ŀ
Ġ×©×Ķ×ķ×¤ ×ļ
Ġ×ĳ×¡ ×Ļ
Ġ×ľ×Ķ×ª×¨ ×©×Ŀ
×Ĳ×ł ×©×Ļ
Ġ×ŀ×© ×¢×ŀ×Ŀ
×Ĺ×§ ×Ł
Ġ×ŀ×ł×Ķ ×Ļ×Ĵ×ķ×ª
Ġ×Ķ ×Ļ×Ľ×ķ×ľ×ķ×ª
×ŀ ×Ľ×ķ×Ł
Ġ×Ķ×¤×¨ ×Ĺ×Ļ×Ŀ
Ġ×ŀ×¦ ×ĺ×¨
Ġp r
Ġ×ľ×ª×Ĺ ×ł×ª
Ġ×ĳ×ŀ ×ĳ×ĺ
Ġ×Ľ×© ×ŀ×ĵ×ķ×ĳ×¨
Ġ×ŀ×Ķ ×ł×ĵ×¡
Ġ×¢×¦ ×Ļ
ĠI P
×ł×§ ×¡
Ġ×ª×ķ×¨ ×Ŀ
Ġ×Ķ×Ĵ ×ķ×¤
Ġ×ľ×Ĳ ×ª×¨×Ļ×Ŀ
×Ĺ×ª ×ķ
×ķ×¨ ×©×Ļ×Ŀ
×¢ ×ķ×©×Ļ×Ŀ
×ĳ×Ĺ ×Ļ×¨×Ķ
Ġ×Ķ×¤ ×©
Ġ×ĳ×ŀ ×Ľ×©×Ļ×¨
Ġ×Ķ×ĵ ×¡×Ķ
×Ļ×Ĳ ×§
Ġ×¤×ľ ×Ļ×ľ×Ļ×ª
Ġ×ŀ×ķ×¢ ×ŀ×ĵ×Ļ×Ŀ
Blog This
Ġ×Ķ×ŀ×§ ×ķ×ŀ×Ļ×Ļ×Ŀ
A d
Ġ×¢×Ļ×§×¨ ×Ļ×Ļ×Ŀ
Ġ×ª×¤ ×ķ×ĸ
Ġ×ŀ×¦ ×ĺ×Ļ
Ġ×ĺ×¢ ×Ļ×ŀ×Ķ
Ġ×ĳ×¡×¤×¨ ×ķ×ª
Ġ×Ļ×© ×ĳ
Ġ×ł×© ×ŀ×Ķ
Ġ×ľ×¤×¨ ×ķ×¥
×ł×© ×ŀ×Ĺ
×ķ×ŀ ×ł×ķ
Ġ×Ķ ×ľ×Ļ
Ġ×ĳ×Ĳ×Ļ×ŀ×Ļ×Ļ×ľ BlogThis
Ġ×Ķ×Ĵ×¨ ×ŀ×ł×Ļ×Ŀ
×Ļ×© ×ŀ×Ļ×ķ×ª
×ł×ª ×Ĺ
Ġ×§ ×¤×ľ
Ġ×Ĺ×Ĵ ×Ļ
Ġ×ķ×ĳ ×Ĺ×ķ
×ķ×¢ ×Ļ×ª
Ġ×Ķ×ĳ×¨ ×Ļ×ĺ×Ļ×ª
Ġ×Ĵ×ŀ ×Ļ×©×ķ×ª
f f
Ġ×Ļ×ĵ ×Ļ×¢×Ķ
Ġ×Ļ×Ļ×Ĺ ×ķ×ĵ×Ļ×ķ×ª
ĠâĤª ,
×ŀ×Ĳ ×ŀ×Ł
Ġ×Ķ×¢ ×ŀ×Ļ×Ŀ
×ŀ×¦ ×Ĳ×ª×Ŀ
×Ĳ ×ķ×ł×ĵ
×Ķ×©×Ĳ ×Ļ×¨×ķ
×ŀ×¨ ×Ł
×¤×ľ ×Ĵ×ª
Ġ×Ķ×ķ×Ĵ ×©
Ġ×ķ×ľ ×Ļ×¦×ķ×¨
Ġ×Ľ×Ļ ×ķ×Ł
×ķ×ĳ ×ĵ×Ł
Ġ×©×ł ×©×ľ×Ĺ
Ġ×Ľ×© ×ł
Ġ×¨ ×ķ×Ĳ×Ļ
Ġ×Ķ×ª×¨ ×ķ×¤×Ķ
Ġ×ľ×Ķ×¤×ľ ×Ļ×Ĳ
Ġ×ŀ×ŀ×ķ×§ ×ŀ×ª
Ġ×Ĳ×¦×ľ ×Ľ×Ŀ
Ġ×ĳ×¢ ×ĳ×Ļ×¨×ķ×ª
Ġ×ĳ×¢×¦ ×ŀ×Ķ
Ġ×¨×Ĵ ×©×Ļ
Ġ×Ķ×ł×¤ ×ľ×Ĳ
Ġ×ĳ×¨ ×ĵ×Ļ×ķ
Ġ×ķ×ŀ ×Ĳ×ŀ×¨×Ļ×Ŀ
×§ ×ķ×§
Ġ×Ľ ×Ļ×ĵ×ķ×¢
Ġ×¡ ×Ļ×ł×ķ×Ł
Ġ×¤×ķ×ľ×Ļ×ĺ ×Ļ×§×Ķ
Ġ×ŀ ×¨×Ĳ×Ļ×Ŀ
Ġ×ľ×© ×ĺ×Ĺ
Ġ×ľ×ŀ×Ĺ ×Ļ×¨
Ġ×Ĳ×Ĺ ×ķ×ĸ×Ļ
Ġ×ĳ×ª ×¨×ĳ×ķ×ª
Ġ×Ķ×©×ª ×ľ×ŀ×ķ×ª
ip edia
×Ļ×ĵ ×ķ×¨×Ļ×Ŀ
Ġ×Ķ×¨ ×Ĵ×Ļ×©
Ġ×ŀ×¢ ×©×Ļ×Ŀ
×Ĳ ×Ļ×ľ
×ķ×ķ×Ĳ ×ľ×Ķ
o ot
×ĸ ×Ľ×ķ×¨
Ġ×ľ×¤×¡ ×¤×¡
Ġ×Ķ×Ĳ ×ŀ×Ł
×ķ×Ĵ ×©
×Ķ×Ĺ ×ķ×§
Ġ×Ķ×ª×Ĺ ×ľ×Ķ
Ġ×ŀ×¤ ×ķ×Ĳ
Ġ×Ķ×©×ŀ ×ľ×Ķ
Ġ×¨ ×Ļ×Ľ
Ġ×Ķ×Ĵ ×Ļ×¨
Ġ×©×Ļ ×Ļ×Ľ×ķ×ª
Ġ×Ĺ×Ļ×ł ×ķ×Ľ×Ļ×ª
×¦×ľ×Ļ×Ĺ ×ķ
Ġ×Ķ×ŀ×§ ×¨×Ĳ
Ġ[ ...]
Ġ×Ķ×¦ ×Ļ×ķ×¨
×Ļ×ľ×ķ ×Ļ×Ļ×Ŀ
Ġ×Ĵ×¨ ×ŀ×Ķ
Ġ×ŀ×¤ ×ł×Ķ
Ġ×¢×¦×ŀ ×Ĳ×ķ×ª
Ġ×Ļ×ĵ ×¢×Ķ
Ġ×ĳ×ĵ×¨ ×Ľ×Ļ
Ġ×Ĺ×ª ×Ļ×ŀ×Ķ
Ġ×§×ķ×ĳ ×¦×Ļ
Ġ×Ķ×¦ ×Ĵ×Ķ
Ġ×Ļ×¨ ×Ĳ×ķ
Ġ×Ĳ×¦ ×ĳ×¢×ķ×ª
Ġ×¡ ×¤×ķ×ª
Ġ×Ĺ×ª ×ķ×ľ
Ġ×ķ×§ ×ĳ×ľ
Ġ×ĳ×ŀ×¢ ×ľ×Ķ
Ġ×ŀ×¨×ĺ ×Ļ×Ł
Ġ×Ķ×Ķ ×ĺ
re et
×ŀ×ķ×§×¨×ĺ ×Ļ
Ġ×ª×¢×©×Ļ ×Ļ×ª×Ļ
Ġ×Ķ×ŀ×Ķ ×ķ×ķ×Ķ
×ŀ×ķ×ĸ ×Ļ×§×Ķ
Ġ×Ķ×Ĳ ×ŀ×ł×Ļ×Ŀ
Ġ×Ĺ×ª ×ķ×ľ×Ķ
×Ĵ×ĳ ×Ļ×¢
×ŀ ×Ļ×¡
Ġ×ķ×ľ ×ł
Ġ×ĳ×ŀ×¢ ×ĺ
Ġ×§×ĵ ×ķ×©
p r
Ġ×ľ×ĳ×Ļ×ª ×ķ
Ġ×Ķ×Ĳ ×Ľ
Ġ×Ķ×Ķ ×ĳ×ĵ×ľ×Ļ×Ŀ
Ġ×¦×ĳ×¢ ×Ļ
Ġ×ķ×ª ×ķ×Ľ×Ł
Ġ×ŀ ×ł×ĺ
Ġ×Ķ×©×ŀ ×Ĺ×Ķ
Ġ×ª×Ĳ ×¤×©×¨
Ġ×Ķ×¢ ×ķ×ŀ×ĵ×Ļ×Ŀ
Ġ×Ķ×¡ ×Ľ×Ļ×Ŀ
Ġ×¤×©×ķ×ĺ ×ķ×ª
Ġ×ŀ×ŀ ×©×¨×ĵ
Ġ×Ķ×Ĳ×ķ×¤ ×¦×Ļ×Ķ
×ŀ×¦ ×ĵ
Ġ×Ĳ×Ļ×ł ×ĺ×¨×¡
Ġ×¤×ľ ×ķ×¨
Ġ×©×ŀ ×Ĳ×Ļ
Ġ×ľ×ĵ ×ķ×¨
p ace
Ġ×¨×ķ×ĳ ×ķ×ĺ
Ġ×Ĳ×Ļ×© ×¨×Ķ
Ġ×ľ×ĸ ×ķ
Ġ×ķ×¦ ×¨×Ľ
Ġ×ŀ×¢×¨×ĳ ×ĳ×Ļ×Ŀ
i el
Ġ×Ķ×ĳ×ķ×ľ ×ĺ×Ļ×Ŀ
Ġ×Ķ×Ļ×¡×ĺ ×ķ×¨×Ļ×ª
Ġ×Ļ×¢ ×ľ×ķ
Ġ×Ĳ×ľ ×Ļ×Ķ×Ł
Ġ×©×Ļ ×ķ×ĵ×¢
×ŀ×ķ×ª ×Ĵ
Ġ×ľ×¨ ×ŀ×Ķ
Ġ×¤×¡×Ļ×Ľ×ķ×ľ×ķ×Ĵ ×Ļ
Ġ×ĳ×Ĳ ×Ŀ
×Ļ×ł ×¨×Ļ
Ġ×ĳ×ŀ×¦ ×ĳ×Ļ×Ŀ
×Ľ×ł ×Ļ×§×Ķ
Ġ×Ķ×¤×ª ×ķ×Ĺ×Ķ
Ġ×ŀ×ķ×ĵ ×¢×ª
×Ļ×ł ×ķ×Ĺ
Ġ×ľ×ª ×ŀ×ķ×ł×Ķ
Ġ×Ĺ ×ł×Ļ×Ļ×Ķ
Ġ×©×ł ×Ĺ×©
Ġ×Ĺ×¡ ×Ļ×ĵ×Ļ
Ġ×Ķ×Ĺ ×Ŀ
Ġ×ª ×ł×ķ
H D
×Ľ ×¢×ª
Ġ×ŀ×Ĵ ×ĳ
×Ļ ×Ļ×ĵ
Ġ×ĵ×Ļ×¡×§ ×¨×ĺ×Ļ×ķ×ª
Ġ×ĳ×Ĺ×ĵ×¨ ×Ļ
×Ĳ×¨ ×Ļ×Ļ×Ŀ
Ġ×ľ×Ĳ ×ł×Ĵ×ľ×Ļ×ª
E O
Ġ×ŀ×ĳ ×ķ×ľ
Ġ×ŀ×© ×ŀ×©×ª
Ġ×¢×¤ ×ķ×ľ×Ķ
Ġ×Ķ×¨×¤×ª ×§×Ĳ×ķ×ª
V D
Ġ×ĵ×¨ ×ŀ×Ķ
t r
Ġ×§ ×ł×¡
Ġ×ĺ×ķ×¨ ×§×Ļ×Ķ
Ġ×¦ ×Ļ×ł×ķ×¨
×ķ×¢ ×Ł
Ġ×ľ×Ķ×ª ×¤×ľ×ľ
Ġ×Ķ×Ļ×© ×ł×Ķ
Ġ×©×Ķ ×ĳ×Ļ×Ĳ
Ġ×©×Ļ×ŀ ×ķ×¨
×Ĳ ×ł×Ķ
Ġ×ĳ×§ ×ĳ×ľ×ª
Ġ×ľ×Ĳ×ķ×¨ ×Ĺ×Ļ×Ŀ
Ġ×ķ×Ĳ ×ľ×Ķ
×¦ ×Ļ×Ł
×Ĥ Ö¸
×Ķ ×Ļ×ĵ
Ġ×ĵ ×ķ×ł×Ŀ
×§ ×ĳ×ľ×ª
Ġ×Ĵ ×Ļ×ĵ
Ġ×ł×ª ×Ļ×ĳ
Ġ×¡ ×ķ×Ļ×Ķ
×Ľ ×Ļ×Ļ×Ŀ
Ġ×Ķ×Ļ×ŀ ×ł×Ļ
×ķ×ª ×Ĺ
Ġ×ĳ×©×ľ ×ķ×©
Ġ×Ķ×ª ×Ļ×Ĳ
Ġ×¦×ĵ ×Ļ×§
Ġ×©×ŀ ×ĸ
Ġ×©×ŀ ×Ļ×¢×Ķ
Ġ×¨ ×¤×Ļ
Ġ×§ ×¨×Ļ×Ŀ
Ġ×Ķ×ŀ ×Ĵ×¨×©
Ġ×©×ł ×Ĵ×¨
Ġ×ķ×ł ×¦
Ġ×ĳ×ŀ ×Ļ×§×ķ×Ŀ
×ķ×ł ×Ĺ
×Ļ×¤ ×¨×Ļ×Ķ
ĠX Hamster
Ġ×©×ł×ª ×Ł
×ĳ×ł ×Ļ×Ĵ×ķ×ĵ
Ġ×ŀ×Ķ ×¤×¨
Ġ×ľ×§ ×Ļ×©×ķ×¨×Ļ×Ŀ
â Ļ
Ġ×ŀ×§ ×ľ×ĺ
Ġ×ķ×ĳ ×ł×Ļ×Ķ
Ġ×ĳ×ķ×Ĵ ×¨×ª
Ġ×ķ×ľ ×ŀ×¦
A l
av a
Ġ×ŀ×ľ×Ĺ ×ŀ×ķ×ª
Ġ Ð
Ġ×ľ×Ķ×Ĵ ×ĳ×Ļ×¨
Ġ×¦ ×¤×ª
Ġ×¦ ×Ĳ
Ġ×ľ ×ķ×Ķ
×¢×¨ ×Ļ×ĳ
Ġ×ª×ķ×ŀ ×Ľ×ª
×ķ×¦ ×Ĳ×Ļ
Ġ×ķ×Ļ×¦ ×Ĳ
×ŀ×¢ ×ł×Ļ×Ļ×Ł
×Ĳ ×ķ×¨×Ļ
Ġ×ĵ ×Ĳ×Ĵ
Ġ×©×ĺ×Ļ ×Ļ×ł
×ŀ×ª ×Ĺ×Ŀ
ak es
Ġ×ĳ×ª ×Ĺ×ª×Ļ×ª
Ġ×¨×¦ ×£
Ġ×ķ×Ķ×© ×ł×Ļ
Ġ×ŀ×©×§ ×¤×Ļ×Ļ×Ŀ
Ġ×¢ ×Ļ×ķ
Ġ×ĳ×Ĺ ×ķ×¨×ķ×ª
×Ķ ×©×ĳ×ķ×¢
Ġ×ŀ×¨ ×ķ×ĳ×Ķ
ation al
Ġ×Ĳ×ķ×Ķ ×ĵ
Ġ×§×Ķ ×Ļ×ľ×ª×Ļ
Ġ×ĳ×ĵ×Ļ ×ķ×ł×Ļ
Ġ×ľ×Ĳ ×Ĵ
×ľ ×ĺ×Ļ
Ġ×ķ×Ľ ×Ļ×ķ
Ġ×Ķ×ŀ ×Ķ×Ļ×¨
Ġ199 6
Ġ5 7
Ġ×§×© ×ķ×¨×ķ×ª
Ġ×¢×© ×Ļ×¨×Ļ×Ŀ
Ġ×Ķ×Ĳ ×ķ×¡
×¨×ĳ ×ķ
×ł×ĵ ×ĺ
Ġ×¤×ª ×Ĺ×Ķ
Ġ×Ķ×ŀ×¦ ×ķ×ķ×ª
Ġ×Ķ×©×ĳ×ķ×¢ ×ķ×ª
Ġ×Ķ×© ×ķ×ķ×Ĳ×Ķ
×¡ ×Ļ×¤×ķ×¨×Ļ×Ŀ
×Ĳ×¨ ×ķ×Ĺ×ª
×§×ľ ×Ļ×ĺ
×¤ ×Ľ×Ķ
Ġ×Ķ×ķ ×ķ×¢×ĵ
×ª ×ķ×¨
Ġ×Ķ×¦ ×ľ×Ķ
Ġ×ķ×¢ ×©
Ġ×ľ ×ľ×Ķ
Ġ×Ķ×Ĳ ×Ļ×¡
Ġ×ĳ×Ĳ ×ª
Ġ×© ×Ļ×©×¨×Ĳ×ľ
Ġ×ŀ×¦ ×Ķ
Ġ×Ĳ ×ŀ×Ļ
Ġ×Ĳ×ĳ ×Ļ×Ĵ
Ġ×ĳ×ķ ×ķ×ľ
Ġ×Ĳ ×Ĵ×Ŀ
Ġ×ĳ×ª ×ķ×Ĳ×¨
Ġ×Ķ×¤×ª ×¢×Ķ
×¨×Ĵ ×ķ
ĠM an
Ġ×ł×ĺ ×¢
Ġ×Ķ×Ľ ×¤
Ġ×ĳ×Ĳ×ŀ×¦ ×¢×Ļ×Ŀ
Ġ le
Ġ×¡ ×ķ×ĳ
Ġ×ŀ×Ķ ×¨×Ĵ×¢
Ġ×Ķ×ł ×ķ×¤×©
Ġ×©×Ļ×ª ×ķ×¤×Ļ
×ķ×§×ĺ ×ķ×¨×ĺ
Ġ×¨×© ×Ļ×ķ×Ł
×§×ĺ ×Ļ×ĳ×Ļ
Ġ×ŀ×ľ ×Ľ×Ķ
Ġ×Ļ×¦ ×Ļ×Ĳ×ª
×©×Ľ ×Ĺ×ª
Ġ×ŀ×© ×ķ×Ľ
Ġ×ŀ×¢×ł×Ļ ×Ļ×ł×ķ×ª
Ġ×Ķ×ľ×ķ ×ķ×Ĳ×Ļ
×Ķ×Ĳ ×Ļ×©
Ġ×ª×¢ ×©×Ļ×ķ×ª
Ġ×©×ª ×ª
Ġ×ŀ×ª×Ļ×Ļ×Ĺ×¡ ×Ļ×Ŀ
Ġ×ĺ×Ļ ×Ļ×ŀ×¡
Ġ×¤×¨ ×ĵ
×© ×ķ×¨×Ļ×Ŀ
Ġ×Ķ×ĳ×¨ ×Ļ×Ľ×Ķ
Ġ×Ķ×ŀ ×ª×Ĺ×Ŀ
Ġ×ŀ×ł ×Ļ×¢×ª
Ġ×ĳ ×ľ×ķ
Ġ199 8
Ġ6 6
Ġ×Ļ×Ķ×ľ ×ķ×ŀ×Ļ×Ŀ
×¨×Ĵ ×ł×Ļ×Ŀ
ĠT h
ĠA pp
Ġ×ŀ×ĸ×ŀ ×Ļ×ł×Ķ
Ġ×© ×©×Ŀ
Ġ×¢×© ×ķ×¨
Ġ×©×Ļ ×ķ×Ľ×ľ×ķ
×ķ×ĸ ×ª
Ġ×ł×ŀ×© ×Ľ×ª
Ġ×ĵ ×©×Ĳ
ĠQ u
Ġ×ĳ×§×¤ ×Ļ×ĵ×Ķ
Ġ×Ķ×¤ ×Ļ×§×ķ×Ĺ
Ġ×Ĺ×ķ×© ×£
Ġ×ľ×ĳ ×§×©×Ķ
Ġ×¤×¨×¡ ×ŀ×ķ
Ġ×§ ×ĳ×¨
Ġ×ĳ×Ļ×ł ×ķ×ł×Ļ×ª
) ?
×ķ ×ķ×¨
Ġ×© ×ĺ×¨×Ŀ
Ġ×¢×ŀ ×Ļ×¨
×Ļ×ĵ ×¨×©
×Ļ×ŀ ×ľ
Ġ×Ķ×ĳ ×ł×Ļ×Ŀ
l and
Ġ×ľ×ĳ ×§×©×ª
Ġ×ķ ×ķ×Ļ
Ġ×Ĺ×ª ×ķ×ł×ķ×ª
Ġ×ľ×Ĵ ×ĳ×ķ×ª
Ġ×ª×¢ ×©×ķ
×Ļ×§ ×Ĳ×Ļ×ª
Ġ×ľ×Ĳ ×ĳ
ub l
Ġ×Ĵ×ĵ ×ľ×Ķ
Ġ×ŀ×ķ×ĵ ×¨×ļ
Ġ×¤ ×Ļ×ĺ×¨
ook ie
×§×ĳ ×ķ×§
ĠD r
Ġ×ŀ×© ×ķ
×ķ×ľ ×Ļ×Ļ×Ŀ
ate g
Ġ×ĳ×¢×¦×ŀ ×Ľ×Ŀ
Ġ×Ĳ ×ĸ×Ķ×¨×Ķ
Ġ×ľ×¤×Ĵ ×Ļ×¢×Ķ
Ġ×ľ×© ×Ļ×¢×¨
Ġ×ŀ×¡ ×ķ×Ĵ×Ļ×Ŀ
×Ļ×© ×ª×ķ
Ġ×ŀ×ķ×ł ×Ļ×ĺ×Ļ×Ł
Ġ×¦ ×ĳ×Ļ×¢×Ķ
Ġ×ĳ×Ĺ ×ķ×¤×©
Ġ×ª×¨ ×¦×Ķ
×ł×ĺ ×ĸ×Ļ×Ķ
Ġ×ľ×ŀ ×ª×Ĺ
×Ļ×Ĺ ×ĸ×ķ×¨
Ġ×©×Ķ ×Ļ×Ļ×ª
×¦ ×ŀ×Ķ
Ġ×ĳ×¨ ×ķ×§
Ġ×ĸ×Ķ ×Ļ×¨×ķ×ª
×ķ×ł ×Ĳ×Ļ×Ŀ
Ġ×©×ł×ķ×ª ×¨
×ķ×ľ ×ľ×ķ×ª
Ġ×ĳ×Ĳ ×Ļ×ĸ×ķ
Ġ×©×ł×¢ ×©×ķ
×ŀ×ĺ ×ĳ×Ĺ
Ġ×Ķ×¢ ×Ľ×ĳ×¨
×Ĺ×Ļ ×Ļ×ĳ×ª
Ġ×ķ×ŀ×¢ ×ĳ×¨
×ĺ ×¨×Ĳ
Ġ ×Ļ×ª×Ł
Ġ×ĳ×Ĳ×¤×©×¨×ķ×ª ×ļ
×ķ×ľ×ĺ ×Ļ×ŀ×ĺ
Ġ×ŀ×Ĳ ×¡
Ġ×ľ×Ĺ ×Ļ×Ļ
×Ĺ ×ĳ×ľ
' "
Ġ×Ķ×Ķ ×Ľ×ł×¡×ķ×ª
Ġ×ł ×Ĵ×¨×Ŀ
Ġ×ľ×Ļ ×Ļ×ĳ
Ġ×Ĳ×ŀ×¨×Ļ×§ ×Ĳ×Ļ×ª
Ġ×ľ×Ķ×ª ×¢×ĵ×Ľ×Ł
Ġ×§ ×ł×Ļ×Ļ×Ķ
Ġ×ľ×ŀ×ĵ ×Ļ×ł×ª
Ġ×©×ľ ×ŀ×ķ×ª
Ġ×¨×Ĳ×© ×ķ
Ġ×ŀ×ª ×¢×ľ
Ġ×Ļ ×Ļ×ŀ
Ġ×ŀ×ľ ×ŀ×¢×ľ×Ķ
Ġ×ł×¤×ª ×Ĺ×Ķ
×ķ×¤×¡ ×Ĳ
Ġ×¨×Ĳ ×©×ľ
ra v
Ġ×Ķ×¨ ×ķ×¡×Ļ
Ġ×Ĵ×Ļ×ľ ×Ļ×ķ×Ł
×¡×¨×ĺ ×ķ×Ł
re t
×ĵ×ľ ×Ļ×§
Ġ×ľ×¦ ×Ķ
Ġ×ŀ×© ×ł×ķ×ª
×ĸ×ŀ ×ł×Ļ
Ġ×ľ×ŀ ×Ĺ×§×¨
9 7
×ł×Ĳ ×©×Ŀ
Ġ×Ĳ×¨ ×ľ
Ġ×©×Ļ×Ľ×ķ×ľ ×Ķ
Ġ×ĸ ×ķ×Ľ×¨×Ļ×Ŀ
Ġ×ķ×Ĳ×Ļ×Ľ×ķ×ª ×Ļ
Ġ×Ķ×¢ ×©×Ļ×¨
Ġ×ķ×Ķ ×ĵ×¨
Ġ×Ĺ×ľ ×ĳ×Ļ
Ġ×§×ķ×ľ ×§
Ġ7 2
×ķ×¡ ×ľ
Ġ×ĳ×¦ ×¨
Ġ×§×ķ×ł ×¦
Ġ×§ ×ŀ×Ķ
Ġ×Ĺ×Ļ ×Ļ×ľ×Ļ
Ġ×ŀ×ŀ×ľ ×Ľ×ª
Ġ×ŀ×¡×¤×¨ ×Ļ
Ġ×ľ×Ķ×¦ ×¢×ª
Ġ×©×Ĳ×ľ ×Ļ×ķ
Ġ×ĳ×Ļ ×ķ×ĳ
×ķ×Ľ ×ł×Ł
Ġ com
Ġ×Ķ×¢ ×ĳ×Ļ×¨
Ġ×Ĳ ×ķ×¨×ķ×ª
Ġ×©×Ļ×ķ×ķ×§ ×Ļ×ª
Ġ×¨ ×¢×Ļ×Ŀ
×ŀ×ª ×Ł
×ķ ×Ļ×Ł
×Ĳ×ª ×ŀ×ķ×ľ
×ŀ×Ĳ ×Ĵ×¨
×ĳ ×©×ĳ×Ļ×ľ
Ġ×Ļ×ĵ ×Ļ×ķ
×ŀ ×ķ×ĺ
×ĳ ×Ĵ×¨×ķ×ª
Ġ×Ķ×¨×ĳ ×Ļ×¢×Ļ×ª
Ġ×ĳ×Ľ ×ķ×ķ×ł×Ķ
Ġ×©×ľ ×Ļ×ľ×Ļ
Ġ×Ĳ×Ļ×¨ ×ķ×¡×Ļ×Ł
Ġ×Ĳ×ĵ ×ķ×ŀ×Ķ
Ġ×¤ ×Ļ×©×¨
Ġ×¤×¨ ×¡×Ļ
Ġ×Ķ×¤ ×Ļ×ľ
Ġ×ŀ×§ ×¨×ĳ
Ġ×ł ×Ļ×Ĵ×ķ×ĵ
Ġ--- -
Ġ×Ķ×ŀ ×Ľ×ª×ĳ
Ġ×ŀ×¢ ×©×Ļ×ª
Ġ×ŀ×ķ×ĵ×¨ ×ł×Ļ×ª
×Ļ×Ĵ×¨ ×Ļ×ķ×ª
Ġ×ľ×Ķ×¡×ª ×¤×§
Ġ×ŀ×ĺ ×ķ×¤×ľ×Ļ×Ŀ
Ġ×© ×ķ×ĺ×¨
Ġ×ľ×ĳ ×ł×§
×Ľ×ª ×Ļ×ĳ×Ķ
Ġ×©×Ľ×ľ ×ľ
Ġ×ĳ ×ķ×¨×Ĵ
×ķ×¦ ×¢×ķ
F rom
Ġ×ł×Ļ×¡ ×Ļ×Ŀ
Ġ×Ķ×ŀ×©×§ ×Ļ×¢×Ļ×Ŀ
×ķ×© ×ĺ
Ġ×ĵ×¢×ª ×Ķ
Ġ×§×¨ ×Ļ×ł×Ķ
Ġ×ŀ×Ĺ ×ķ×ĳ×¨×Ļ×Ŀ
Ġ×¨×ĳ ×ł×ķ
Ġ×ľ×ŀ×¨ ×ĳ×Ķ
Ġ×ª ×ŀ×©×Ļ×ļ
×Ķ×ŀ ×ĵ×¨×Ļ×ļ
Ġ×§ ×ķ×ľ×Ķ
Ġ×©×ŀ ×Ĳ×ľ×Ķ
Ġ×ķ×ŀ×¢ ×¨×Ľ×ķ×ª
Ġ201 9
×Ļ×Ĺ ×Ļ×ĵ×ķ×ª
×Ķ ×Ĵ×ĵ×ľ×ª
Ġ×Ķ×§ ×ķ×ķ×Ļ×Ŀ
Ġ×Ĳ×§×ĵ ×ŀ×Ļ×Ļ×Ŀ
Ġ×ĳ×¨ ×ĵ
Ġ×© ×Ľ×©
×Ĳ×ª ×¨×Ļ
Ġ×©×ł ×Ĵ×¨×Ŀ
×ŀ ×Ľ×Ķ
Ġ×©×ł ×Ľ×ª×ĳ×ķ
×¡ ×ĵ×¨×ª
Ġ×ł×Ļ×¦ ×Ĺ×Ķ
Ġ×Ĳ×ŀ×¦ ×¢×Ļ×Ŀ
Ġ×Ķ×Ĵ×¨ ×¢×Ļ×Ł
Ġ×Ķ×¡×¨×ĺ ×Ł
×¦ ×Ļ×ķ×Ł
×Ļ ×ķ×¡×£
Ġ×ĳ×© ×¢×¨
Ġ×Ĳ×Ļ×ĳ ×ĵ
Ġ×ķ×ľ×Ķ ×¤×ķ×ļ
Ġ×¨ ×ķ×¡×Ļ
Ġ×ŀ×¡ ×ķ×Ľ×ł×Ļ×Ŀ
Ġ×¢ ×©×¨×ª
Ġ×ķ×ĳ ×¨×Ĳ×©×ķ×ł×Ķ
Ġ×Ķ×Ķ ×ķ×¤×¢×Ķ
×Ļ×Ĳ ×ľ×Ķ
Ġ×Ķ×Ľ ×ĳ×ĵ
ĠâĢ İ
×ĵ ×Ļ×¨×ķ×Ĵ
Ġ×Ķ×¨ ×¦×ķ
Ġ×Ĵ ×Ļ×ĺ×¨×Ķ
×¤×§ ×ķ
Ġ×ķ×Ĳ ×Ĵ
Ġ×©×ª×Ļ ×Ļ×Ķ
Ġ×Ĳ×¦×ľ ×ļ
Ġ×ł×Ĵ ×Ļ×ł×Ķ
Ġ×ķ×§ ×©×Ķ
C T
Ġ×Ķ×ª×§ ×Ļ×Ļ×ŀ×Ķ
Ġ×ķ×ł ×ķ×¤×©
Ġ×Ķ×©×ľ ×Ľ×ķ×ª
Ġ×ł×Ĺ×© ×ĳ×Ļ×Ŀ
Ġ×Ķ×Ĳ×ķ×ľ ×Ļ×ŀ
×Ķ ×ķ×¤
Ġ×ľ×¦ ×ķ×¨×Ľ×Ļ
Ġ×ķ×¨ ×Ĵ
Ġ×ķ ×Ļ×ª×¨
Ġ×©×ľ ×Ļ×ľ×Ļ×ª
Ġ×ĳ×ŀ ×§×¨×¨
Ġ×ª×Ĺ×ª ×ķ×ł×Ķ
Ġ×ĳ×ŀ ×Ļ×©×ķ×¨
Ġ×Ķ×ª×Ĺ×ª ×Ļ×ª
Ġ×Ķ×© ×Ļ×Ĺ
×ŀ×Ķ ×ķ×ª
×Ļ×ķ ×ķ×ĵ
Ġ×Ķ×ª ×¨×©
Ġ×¤ ×Ł
Ġ×ĳ×Ľ ×ķ×Ĺ×ķ×ª
Ġ×¡×¤ ×ķ×¨×Ļ×Ŀ
Ġ×Ķ×Ĺ×ľ×§ ×Ļ×Ŀ
Ġ×ĳ×ł ×Ļ×ŀ
Ġ×¤×¨ ×¡×Ļ×Ŀ
Ġ×Ķ×ŀ×Ĵ ×ĸ×¨
Ö Ļ
Ġ×ŀ×ķ×ł ×Ĺ
×¤ ×¡×§
Ġ×ķ×ĳ ×ľ×ĳ×ĵ
Ġ8 00
Ġ×¢×© ×ķ×Ļ×ķ×ª
×Ļ×¦×¨ ×Ł
Ġ×¡×Ľ ×Ļ×Ł
×Ĵ ×ľ×ª
Ġ×ķ ×Ļ×ķ×Ŀ
×Ĳ ×ł×ĺ
ĠA nd
Ġ×ľ×ĸ ×Ľ×¨
Ġ×Ķ×ª×¤ ×Ļ×¡×Ķ
Ġ×Ķ×¡ ×ĳ×¨×Ļ×Ŀ
Ġ×Ĺ×© ×§
Ġ×ŀ×©×ŀ×© ×Ļ×Ŀ
Ġ×¤ ×ł×Ĺ×¡
Ġ×Ĳ×ĵ ×Ļ×¨×Ķ
Ġ×ł ×ķ×ĳ×ľ
×ª ×ŀ×Ļ×Ľ×Ķ
Ġ×Ĳ×¡ ×¤×§×ª
×ŀ ×ĺ×¨×ª
Ġ×ľ×¤×§ ×ķ×ĵ×ª
Ġ×Ķ×ŀ ×Ľ×©×Ļ×¨×Ļ×Ŀ
ĠT ag
Ġ×ŀ×¦ ×ĳ×Ļ
Ġ×ľ×ĺ ×ķ×¡
Ġ×ª×ĳ ×ķ×Ĳ
×ĳ×¢ ×ķ×ĵ
Ġcum shot
×ł×ĵ ×¡×Ļ×Ŀ
Ġ×¡×ŀ ×ł×Ľ
×ŀ ×ĳ×ĺ
Ġ×ĳ ×ľ×Ĺ×¥
Ġ×ŀ×© ×ŀ×¨
Ġ×ł×Ĺ ×Ļ×ª×Ķ
Ġ×ľ×ŀ×ĵ ×¢
×Ľ×ľ ×ķ×ª
Ġ×Ĵ×ķ×¨ ×ĵ×ķ×Ł
Ġ×Ķ×ŀ×¦ ×Ļ×¢
×Ľ ×ĳ×Ļ×Ŀ
Ġ×©×Ĳ ×ŀ
Ġ×Ķ×ŀ×© ×Ľ×ł×ª×Ĳ
Ġ×ĺ ×ķ×Ł
×ŀ×ķ ×ķ×ª
×§ ×Ļ×ĳ×ľ
Ġ×Ĳ×ķ ×Ļ×ĳ
×¢×ĵ ×Ľ×ķ×ł×Ļ×Ŀ
×ĳ ×Ļ×¦×ķ×¢
Ġ×ĵ ×Ĵ×Ł
Ġ×¢×© ×Ļ×ª
Ġ×ķ×¦ ×ĳ×¢
wik ipedia
Ġ×Ķ×¨ ×ķ×¡×Ļ×ª
Ġ×Ķ×¡ ×Ĵ
×Ļ×ĺ ×Ļ×ķ×ª
Ġ×Ķ×Ĺ ×ŀ×Ļ×Ŀ
er e
Ġ×Ľ×¢ ×¡
Ġ×ŀ×Ļ ×Ļ×§
Ġ×ª ×ķ×¤×¡
×Ĺ×ľ×ĺ ×ª
×Ĺ ×ĵ×¨×Ļ×Ŀ
Ġ×ĳ×¢ ×ĳ×ķ×ĵ×ķ×ª
Ġ×ľ×Ĳ ×ķ×ķ×Ļ×¨
×ł×ĵ×¨ ×ĺ×Ļ×Ŀ
Ġ×¢×ķ×¨ ×Ľ×ª
Ġ×Ľ ×ĺ
Ġ×Ķ×Ļ ×Ļ×ĺ×§
Ġ×Ķ×ľ ×Ľ×ķ
×ķ×Ľ ×Ļ×ķ×ª
Ġ×ľ ×¡×§
Ġ×ķ×Ľ ×Ľ×ľ
Ġ×ĳ×ĸ ×ķ×ľ
s che
Ġ×ª×ĸ ×ķ×ł×ª
×¨×ª ×Ļ×§
Ġ×¢ ×ķ×Ĵ×Ķ
Ġ×Ķ×Ĳ×¨ ×¦×Ļ×ª
Ġ×Ļ×ĸ ×¨×¢
Ġ×©×ŀ ×Ĺ×ª
×ķ×ľ ×ĵ×Ķ
×ª ×©×ķ×ĳ×Ķ
Ġ/ >
Ġ×ŀ×§×ķ×¨ ×Ļ×Ļ×Ŀ
Ġ×ĳ×© ×ŀ×Ł
×¨ ×Ļ×©×ķ×Ŀ
Ġ×ŀ×¤×ª ×Ĺ×ķ×ª
Ġ×¢×¦ ×¨
Ġ×Ĺ×ĵ×© ×ł×Ļ
Ġ×ľ×ľ ×Ļ×ľ×Ķ
is s
×Ľ ×ĸ×ĳ
Ġ×ķ×ĳ ×ĺ×Ĺ
×Ļ×Ĳ ×ł×ķ
Ġ×ķ×Ķ×¤ ×¢×Ŀ
×ľ ×Ļ×ł×Ķ
Ġ×ķ×§ ×¦×ª
Ġ×Ķ×ľ ×Ļ×Ľ×Ļ
Ġ×¤×Ļ×¨ ×¡
×ľ×Ķ ×ĳ
×ķ×¨×ª ×ķ
Ġ×ŀ×§ ×ķ×¨×Ķ
×Ĳ ×¡×ĺ
×¡ ×Ļ×Ľ×ķ×Ŀ
Ġ×ľ×Ķ×© ×Ĵ×ª
Ġ×ŀ×ª×Ĺ ×ķ×Ŀ
×¨×¦ ×Ļ×ª×Ļ
Ġ×ľ×© ×¢×¨
×ķ×¢ ×ł×Ļ×Ŀ
×¨ ×©×ķ×ª
Ġ×Ķ×¤×¨ ×Ļ×ĺ×Ļ×Ŀ
×ĺ ×ŀ×Ł
Ġ×ĳ×¢×ĵ ×Ļ×ł×ķ×ª
×ł×Ļ ×Ļ×ł×ķ×ª
Ġ×ĳ×Ķ×ª×Ĺ ×©×ĳ
×ª×§ ×©×ķ×¨×ª
Ġ×ľ×ŀ ×ķ×¦×¨
×ĵ×¨ ×ķ×©×Ļ×Ŀ
Ġ×Ķ×© ×ŀ×ķ×ª
Ġ×Ķ×ª ×Ĳ×Ļ×Ŀ
ĠL ED
Ġ×Ķ×ª ×¨×Ĵ×ķ×Ŀ
av e
×Ľ ×ĳ×Ķ
Ġ×Ķ×ł×Ļ ×Ļ×¨
Ġ×ķ×© ×ª
Ġ×Ķ×ŀ×¢ ×¨×Ľ×ķ×ª
Ġ×ł×Ļ×¦ ×ĳ
Ġ×© ×ĵ×ķ×¨
×ĳ×ª ×§
Ġ×ĺ×Ľ×ł×ķ×ľ×ķ×Ĵ ×Ļ×ª
×ķ×Ĳ×ľ ×Ļ×ķ×ª
×Ļ×ķ×ª ×Ŀ
Ġ×¦ ×Ĺ×ķ×§
Ġ×ŀ×ĺ ×ķ×¡×Ļ×Ŀ
×Ļ×¦ ×ķ×ľ
Ġ×Ķ×Ĳ ×ķ×ľ×Ŀ
×ķ×ĳ ×¢×ķ×ª
Ġ×ľ×¨×Ĳ ×©×ķ×ª
R A
×Ĺ×ĸ ×Ļ×¨
un g
ĠAir port
Ġ×ķ×Ļ×¨×ĺ ×ķ×Ĳ×ľ×Ļ×ª
Ġ×ĳ×¡ ×Ļ×¨
×Ĺ×§ ×Ķ
×ľ×Ĳ×Ĺ×¨ ×ķ×ł×Ķ
×¨×ĺ ×ķ×¨
Ġ×ľ×ĳ ×Ĵ
Ġ×ł×Ļ×¡ ×ķ×Ļ
×Ļ×§ ×ľ×Ļ×Ŀ
Ġ×Ķ×ŀ×Ĳ ×ķ×Ĺ
Ġ×ķ×Ľ ×ľ×Ķ
×Ľ ×Ĵ×ķ×Ł
Ġ×Ķ×Ĵ ×¢×ª×Ŀ
×ŀ ×ķ×¤
×§×¨×Ĳ ×ª×Ļ
Ġ×ŀ×ķ×¡ ×§
×ľ×ķ×ķ ×Ļ×ĸ
Ġ×ŀ×Ļ×¨ ×ĳ
×Ĳ×ŀ×¨ ×Ļ
Ġ×© ×Ĵ×¨×Ŀ
Ġ×Ĺ ×¦×¨
Ġ×ĳ×ŀ ×Ļ×ľ×Ķ
Ġ×Ķ×¡×ŀ ×Ľ×ķ×ª
×ľ ×ŀ×¢×©×Ķ
Ġ×Ķ×¦ ×ŀ×Ļ×Ĺ×Ķ
Ġ×Ļ×¢ ×ŀ×ķ×ĵ
Ġ×¡×¤×¦×Ļ×¤ ×Ļ×ª
Ġ×ŀ×Ľ×ª ×ĳ×Ļ×Ŀ
Ġ×ľ×Ķ×¨ ×©×Ŀ
Ġ×Ĺ×ĵ×© ×ł×ķ×ª
Ġ×ŀ×ª ×ŀ×§
Ġ×ĳ×ŀ×Ĺ ×ľ×§×ª
Ġ×ŀ×Ĺ ×ľ×§×Ķ
Ġ×Ķ×ŀ×¢ ×ķ×¨
Ġ×Ķ×¦×ĵ ×§×Ķ
×¤×¢ ×Ļ×ľ×ķ×Ļ×ķ×ª
×Ķ×ĵ ×ķ×¨×Ķ
8 6
Ġ×ĳ×ĳ ×§
×Ļ×Ĳ ×ķ×£
Ġ×¤×¨ ×ķ×Ļ×Ļ×§×ĺ×Ļ×Ŀ
Ġ×ĳ×¦ ×Ļ×¨×ķ×£
Ġ×Ķ×ł ×¢×¨
Ġ×Ķ×ĺ ×Ľ×ł×Ļ×ķ×Ł
Ġ×Ķ×ŀ×ķ×¡ ×ľ×ŀ×Ļ×Ŀ
Ġ×¢×ª ×Ļ×§
×¤×ª ×Ļ×Ļ×Ŀ
×Ĳ ×Ĺ×¨×Ļ×ķ×ª
Ġ×Ĳ×ķ×¤ ×§
×¢×¨ ×ķ×Ľ×ª
Ġ×¤×¨×¡ ×ķ×ŀ×ķ×ª
Ġ×ĳ×Ĺ ×Ļ×ľ
Ġ×Ĳ×Ļ×ĺ×ľ×§ ×Ļ
Ġ×¤ ×Ļ×§×¡
Ġ×ķ×Ķ×ª ×¢
×ŀ×¡×¢ ×ĵ×Ķ
Ġ×©×Ķ ×ķ×ľ
×Ĺ×ľ×ĺ ×ª×Ļ
Ġ×Ĳ×Ļ ×Ļ×ĸ
Ġ×¡ ×ķ×ĵ×ķ×ª
Ġ×ł×Ļ×ª×ķ×Ĺ ×Ļ×Ŀ
Ġ×¤×¨ ×Ļ×ŀ
Ġ×Ķ×ĳ×ľ ×¢×ĵ
Ġ×ŀ×¢×ĳ ×ĵ×Ķ
×Ĺ×ĵ ×ķ×ª
×Ĺ ×ĳ×¨×Ļ×Ŀ
×ª×§ ×ł×ķ×ª
Ġ×Ķ×ŀ ×ķ×ĵ×ľ
×ł×¨ ×ľ
Ġ×Ķ×Ĺ×ĸ×§ ×Ķ
×ľ×¢ ×ķ×ŀ×ª
Ġ×ķ×¦ ×Ļ×ķ×ĵ
Ġ×§ ×ł×Ļ×Ļ×ª
×Ĵ ×Ļ×Ĳ
×Ĳ×¡ ×ĺ×¨
Ġ×ķ×ŀ×Ĳ ×ķ×ĵ
Ġ×©×Ľ ×ĸ×ķ
Ġ×ł ×ľ×ŀ×ĵ
Ġ×¨×Ľ ×ĳ×Ļ
Ġ×¢×ľ ×Ļ×Ŀ
×ĸ ×ķ×Ķ×Ļ
Ġ×Ķ×©×¨ ×ª
Ġ×¤×ķ×ľ×Ļ×ĺ ×Ļ×Ļ×Ŀ
Ġ×Ķ×¦ ×¢×¨
Ġ×Ĳ ×Ĵ×¨×ķ×ª
×Ķ ×ŀ×ľ×¦×ķ×ª
Ġ×ĳ×ĵ ×ĳ×¨×Ļ
Ġ×¨ ×¢×Ļ
Ġ×Ĺ×ķ×¤ ×©×ª
×Ĳ ×Ļ×ł×ĺ×¨×ł×ĺ
Ġ×ł×§ ×Ļ×Ļ×Ŀ
Ġ×©×Ļ×¦ ×Ĳ×ķ
Ġ×Ĵ ×Ĳ×ķ×Ł
Ġ×Ķ×ª ×ŀ×§
Ġ×ł×¤×Ĵ ×¢×Ļ×Ŀ
Ġ×Ķ×Ķ ×ł×Ĺ×Ķ
Ġ×§×©×¨ ×Ļ
Ġ×Ķ×ł ×Ĺ×ª
Ġ×ľ×Ķ ×Ĳ×¨×Ļ×ļ
Ġ×ķ×ŀ ×Ĵ×ķ×ķ×Ł
Ġ×ĳ×Ľ ×¡×£
Ġ×ĳ×Ķ ×ķ×ĵ×ķ
Ġ×ŀ ×¤×¨×ĺ
Ġ×ĳ×¨ ×Ļ×Ĺ×Ķ
×¤ ×Ļ×Ł
Ġ×ķ×ľ×Ķ ×Ĵ×Ļ×¢
Ġ×ľ×ŀ×§ ×¨×Ķ
Ġ×ľ×ŀ×Ĵ ×ķ×¨×Ļ×Ŀ
Ġ×¨×Ĺ ×ŀ×Ļ×Ŀ
Ġ×©×ł ×Ľ×ª×ĳ
Ġ×Ķ×ĳ×¨ ×ĸ×ľ
Ġ×Ĺ×§ ×Ļ×¨×ķ×ª
Ġ×ķ×Ĳ ×ľ×ķ
Ġ×ĸ ×Ľ×ķ×¨
Ġ×Ķ×ĵ ×¢×ķ×ª
Ġ×ĳ×Ķ ×¤
Ġ×Ķ×ĺ×¨ ×ĵ×Ķ
Ġ×ª×ŀ ×ķ×ĸ
Ġ×ł×ĵ ×ĳ
Ġ×ĳ ×ķ×©×Ķ
Ġ×Ĳ×ķ×ŀ ×¥
Ġ×ŀ×¢×¦ ×ĳ×ª
Ġ×Ķ×¡ ×Ľ×¡×ķ×ļ
Ġ×¦×ľ ×Ļ×ľ×Ķ
Ġ×¤ ×ķ×¤×ķ×ľ×¨×Ļ×ķ×ª
Ġ7 9
Ġ×Ķ×Ĳ ×ĳ×Ļ×ĳ
Ġ×ł×Ľ ×ł×¡×Ķ
Ġ×ķ×Ļ×Ķ ×Ļ×Ķ
Ġ×¦×ķ ×ķ×Ĳ×Ķ
×ŀ×ľ ×Ļ×ª
×Ĺ×ł×ķ ×Ļ×ķ×ª
×ķ×ŀ ×ĵ×ķ×ª
Ġ×ľ×Ķ×¢ ×Ļ×ĵ
Ġ×ķ×¢ ×ĳ×ķ×ĵ×Ķ
×¢×¨ ×ł×ķ
Ġ9 5
Ġ×¤ ×ķ×¤×ķ×ľ×¨×Ļ×Ļ×Ŀ
Ġ×ĳ×ķ ×ķ×¨×ĵ×¤×¨×¡
×Ĵ×¨ ×Ļ×¨×ķ×ª
×¤ ×Ļ×ł
Ġ×ĳ×¨ ×§×¢
Ġ×ķ×Ĵ ×ĳ
Ġ×ľ×Ķ ×ĳ×Ķ×Ļ×¨
Ġ×© ×ķ×ķ×ª
Ġ×ł×¢ ×ł×¢
Ġ×ķ×Ľ ×Ĳ×Ł
Ġ×Ķ×Ļ×© ×Ļ×ĳ×ķ×ª
Ġ×ł ×¡×ª
Ġ×ŀ×§ ×Ļ×¤×Ķ
Ġ×ŀ×ł ×Ĵ
Ġ×ŀ×Ĺ×ľ ×Ļ×ĺ
Ġ×ŀ×¡×ľ ×ķ×ľ×Ļ×Ŀ
Ġ×Ľ×ĳ ×ĵ×Ļ×Ŀ
m as
Ġ×ĳ×ŀ×ľ ×ķ×Ĳ
Ġ×Ķ×ŀ ×ĺ×¨×ķ×ª
Ġ×Ķ×¡ ×Ļ×ķ×¢
Ġ×ŀ×Ĳ ×¡×ĺ×¨
×¦ ×¤×Ļ×Ļ×Ķ
Ġ×Ļ×ĵ ×Ķ
Ġ×ŀ×©×ľ×ķ×Ĺ ×Ļ×Ŀ
Ġ×ĳ×Ĺ×© ×ĵ
Ġ×¨ ×ĳ×§×Ķ
Ġ×Ķ×Ľ×ķ×ª ×ľ
×ŀ ×Ĳ×Ļ×Ŀ
Ġ×Ķ×ŀ ×ķ
Ġ×Ĺ×¨ ×ĵ×Ļ
Ġ×ŀ×¦ ×Ļ×Ĵ×Ļ×Ŀ
Ġ×ĳ×ĳ ×ł×Ļ×Ļ×ª
Ġ×ŀ×¢×ķ×ł×Ļ ×Ļ×ł×ª
Ġ×Ķ×ĵ ×ŀ×Ļ×ķ×Ł
Ġ×ĳ×Ķ ×ł×Ĺ×Ķ
Ġ×ŀ×Ľ ×Ļ×ľ×Ļ×Ŀ
Ġ×Ķ×Ĵ×Ĳ ×ķ×ľ×Ķ
Ġ×ŀ×Ĺ ×¡×ķ×¨
Ġ×ľ×ķ×Ĺ ×ŀ×Ļ
×ĳ×Ļ ×Ļ×©
Ġ×Ļ×Ķ ×¤×ķ×ļ
Ġ×Ķ×ª×§ ×ĳ×ľ
×© ×¢×¨
×ĳ×¢ ×ľ×ķ×ª
Ġ×Ķ×ł ×ķ×Ĺ×ķ×ª
Ġ×ķ×Ķ ×ĵ×ĳ×¨
Ġ×ĳ×Ĺ ×ĸ×Ļ×ª
Ġ×¤×¡×ĺ ×Ķ
Ġ6 2
Ġ×Ķ×Ĺ×© ×Ļ×ĳ×Ķ
Ġ×¨×¦ ×ķ×ł×ķ
Ġ×Ķ×Ľ×¨×ĺ×Ļ×¡ ×Ļ×Ŀ
Ġ×§ ×ĸ
Ġ×Ľ ×ł×Ķ
Ġ×¢ ×Ļ×¦×ķ×ĳ×Ļ×Ŀ
Ġ×ķ×Ĳ ×¡
Ġ×Ļ×¦×Ļ×¨×ª ×Ļ×ķ×ª
Ġ×©×¢ ×ķ×ĳ×¨
Ġ×ŀ ×Ļ×ŀ×Ļ×Ł
×ŀ×Ĳ ×ķ×ĵ
Ġ×ĳ ×Ļ×¤×ķ
Ġ×ľ×¤×¨ ×§×Ļ×Ŀ
ĠÂ «
×Ļ×¡ ×Ľ×ķ×Ł
×ĺ ×Ļ×¡×ĺ×Ļ×§×Ķ
×ĸ ×ķ×Ĵ
Ġ×Ķ×ŀ×Ĺ ×ĸ
×ŀ×¦ ×ĺ×¢×¨×Ļ×Ŀ
×ŀ×Ľ ×Ļ×¨×Ķ
Ġ×ª×Ļ×§ ×ķ×ł×Ļ×Ŀ
×© ×ĵ
×Ķ×ª×Ĺ ×ĳ×¨×ķ×ª
Ġ×ľ×ŀ×ķ×¡ ×Ļ×§×Ķ
Ġ×Ĵ ×¨×Ķ
Ġ×Ķ×¡ ×ª×Ķ
×© ×ł×ª
Ġ×Ķ×¤ ×Ļ×ĸ×Ļ
×Ļ×ĳ×ľ ×Ļ×Ł
le t
Ġ×Ķ×ķ×¡ ×Ļ×¤×ķ
Ġ×Ĳ×Ĺ×¨ ×Ļ×Ķ
Ġ×ľ ×Ļ×¢
Ġ×Ķ×©×ķ×§ ×ķ×ľ×ĵ
×Ļ×ĺ ×ĵ
Ġ×Ķ×¡ ×Ĵ×ł×ķ×Ł
×ķ×¢×¨ ×ļ
Ġ×©×¨×¦×Ļ×ª ×Ŀ
×ł×¡ ×Ļ×ª
Ġ×¨×Ĳ ×ķ×Ļ×Ļ×Ŀ
ĠT V
×Ļ×© ×ĳ
Ġ×©×ŀ ×¡×ª
Ġ0 6
Ġ×ª×¦ ×ĺ×¨×Ľ×ķ
Ġ×ķ×¡ ×ĵ×ł×Ĳ×ķ×ª
Ġ×Ĵ×ĵ ×ľ×Ļ×Ŀ
Ġ×ķ×ĳ ×¡×ķ×£
Ġ×¢×Ļ×¨ ×ķ×Ŀ
Ġ×ĸ ×ķ×ł×Ķ
×ł×Ĺ ×ľ×Ļ×Ŀ
Ġ×§ ×Ļ×ľ×ķ
Ġ×ĳ×ŀ ×ķ×¦×¨
×ķ×¦ ×ľ
Ġ×Ķ×¨×¦ ×ķ×Ĵ
Ġ×Ķ×Ĳ ×ł×Ĵ
×ķ×Ĵ ×¢×Ļ×Ŀ
×¨×Ĳ ×Ļ×Ļ×Ł
Ġ×Ķ×Ĺ×ľ ×ķ×Ł
Ġ×Ķ×ĵ ×Ļ×ĳ×ķ×¨
Ġ×©×ĳ ×ĵ×¨×ļ
Ġ×Ķ ×ķ×¨×Ļ
Ġ×¢ ×ķ×¦×¨
o int
×¡×ĺ ×ķ×ĵ×Ļ×ķ
Ġ×©×Ĵ×ķ×¨ ×Ŀ
Ġ×ĳ×ľ ×ķ×ł×Ļ×Ŀ
Ġ×ŀ×ĺ ×¤×ľ×ª
Ġ×ŀ×Ľ ×ŀ×Ķ
Ġ×Ķ×Ķ×ª×Ĺ ×ľ×Ķ
×¨ ×¤×Ļ×Ķ
âĢ Ķ
Ġ×ľ×¤×¡ ×Ĺ
Ġ×Ĵ×ķ×ľ×ĵ ×ĳ×¨×Ĵ
Ġ×ĳ×© ×Ĳ×¨
Ġ×ľ×Ĵ ×ĵ×ľ
×Ļ ×Ļ×¨×ķ×ª
Ġ×ľ×ª ×ķ×¨×Ķ
×¡ ×Ļ×Ł
Ö° ×Ĥ
Ġ×ĳ×§×ĳ ×ķ×¦×ķ×ª
Ġ×Ľ×¡ ×¤×Ļ×Ļ×Ŀ
Ġ×Ķ×§×© ×Ļ×Ļ×Ŀ
Ġ an
Ġ×ł ×ĺ×Ļ×Ļ×Ķ
Ġ×Ķ×ŀ×ª ×Ĳ×¨
Ġ×©×ķ×ª ×¤×ķ×ª
Ġ×Ķ×© ×Ļ×Ĳ
Ġ×Ķ×ĵ×Ļ×Ĵ×Ļ×ĺ ×ľ×Ļ
Ġ×ł×¡ ×¢
×©×ª ×¤×ķ
Ġ×Ĵ ×ľ×Ļ×Ŀ
Ġ×Ķ×ŀ×Ĵ ×ŀ×Ķ
Ġ×Ķ×¡×¤×¨ ×Ļ×Ļ×Ķ
×ģ Ö·
Ġ×Ĺ ×Ļ×ª×ķ×ļ
Ġ×Ķ×Ļ×ľ ×ĵ×ķ×ª
Ġ×ľ×Ķ ×Ļ×ª
×© ×Ļ×ķ
Ġ×Ķ×¦ ×ĺ×¨×¤×ķ×ª
Ġ×©×ł ×ĳ×Ĺ×¨
Ġ×Ķ×Ľ×¨ ×ª×Ļ
Ġ×Ķ×Ĺ×© ×©
Ġ×Ķ×¡ ×ķ×ĵ
Ġ×©×Ķ×Ĺ ×ĳ×¨×Ķ
×Ķ ×Ķ×ª
Ġ×ľ×Ľ ×ķ×ķ×Ł
×ķ×ł ×ķ×ŀ×Ļ
Ġ×ĳ ×Ĺ×ª
×ŀ×ľ ×Ľ×Ķ
Ġ×©×ŀ ×¡×¤×¨
Ġ×ŀ×¢ ×ľ×Ļ×Ŀ
Ġ×ŀ×Ľ ×Ĺ
Ġ×Ķ×ŀ×Ĺ ×ł×Ķ
Ġ×ĳ×ŀ×§ ×ķ×ŀ×ķ
or ld
Ġ×ª×Ĳ ×ķ×ł×Ķ
Ġ×ķ×Ļ×ĵ ×Ļ×Ĳ×ķ
Ġ×ŀ×ķ×ĳ ×Ļ×ĺ
Ġ×ŀ×ª×Ĳ ×Ļ×ŀ×ķ×ª
Ġ×¡×Ĳ ×ķ×ł×ĵ
×¨×ĺ ×Ķ
Ġ×ķ×Ĳ ×Ķ
×Ļ×ĵ ×Ļ×©
×Ĳ×¨ ×ķ×Ł
Ġ×Ķ×ª×¢ ×¡×ķ×§×Ķ
Ġ×ŀ×ľ ×ŀ×ĵ×ª
×Ļ×ŀ ×ĺ×¨
Ġ×¦×¨×Ľ ×ł×ķ×ª
Ġ×Ĺ×ľ ×ķ×§×Ķ
Ġ×Ĳ×ľ ×Ł
Ġ×Ļ×ŀ ×¦×Ĳ
Ġ×ľ ×ķ×¡
Ġ×Ķ×ŀ×Ĺ ×©×ĳ×Ļ×Ŀ
Ġ×© ×¨×Ļ×Ŀ
ĠS c
×Ļ×ĳ ×¡
Ġ×Ļ×ĵ×¢ ×ł×ķ
×Ļ×¦ ×Ĺ×§
Ġ×Ķ×ľ ×Ļ×Ľ×Ļ×Ŀ
Ġ×§ ×ĳ×¢×Ķ
Ġ×ŀ×ł ×ķ×¢×Ļ
ĠSu ites
Ġ×Ķ×Ĳ×ľ ×Ļ×ŀ×ķ×ª
Ġ×ª ×ľ×ķ×Ļ×Ļ×Ŀ
×ķ×ĵ ×ķ×¨
Ġ×ķ×ł ×ĺ
×ķ×ŀ ×ŀ×ª
Ġ×Ķ×Ķ×ª ×¤×ª×Ĺ×ķ×ª
Ġ×ŀ×¢ ×ł×Ļ×§×Ļ×Ŀ
Ġ×Ļ ×Ļ×¡
×ĳ×Ķ×ª ×Ĳ×Ŀ
Ġ×Ĵ×¨ ×¡×Ĳ×ķ×ª
Ġ×ĵ ×ķ×Ĺ×Ķ
Ġ×ķ×Ĵ ×ĳ×¨×Ļ×Ŀ
Ġ×Ĳ×Ļ×ł ×ĺ×¨
Ġ×Ķ×ŀ×ĵ ×Ļ×Ķ
Ġ×ľ×Ķ×ª×§ ×ĳ×ľ
Ġ×ŀ×Ļ ×Ļ×¡×ĵ
Ġ×ĺ×Ľ×ł ×Ļ×§×ķ×ª
×© ×ŀ×Ĺ
Ġ×ĵ×ŀ×ķ×ª ×ķ
Ġ×Ĳ×Ļ ×Ļ×ł×©×ĺ×Ļ×Ļ×Ł
×¡×ĺ×¨ ×ķ×ľ
Ġ×ĸ×Ľ×¨ ×ķ
×¡×Ļ×¡ ×Ļ
Ġ×ķ×ĺ ×Ļ×¤×ķ×Ĺ
Ġ×ŀ×ª×§ ×©×Ķ
Ġ×ĳ×ŀ ×ķ×¤×¢
Ġ×Ĳ ×Ĵ×¨
Ġ×©×Ĳ ×ķ×ŀ×¨×Ļ×Ŀ
at h
Ġ×ľ×ŀ×© ×ĺ×¨×Ķ
×Ľ ×©×¨×Ķ
Ġ×ª ×©×¨×Ļ
Ġ×ŀ×¦ ×ķ×Ķ
Ġ×ł×¤ ×Ĵ×©
Ġ×ľ×© ×Ļ×¨×Ļ×Ŀ
×Ļ×ĵ ×¡
Ġ×Ķ×ŀ×ĳ ×¦×¢×Ļ×Ŀ
Ġ×ľ×ŀ ×§×ķ×¨
Ġ×ĳ×ª×¢ ×©×Ļ×Ļ×Ķ
Ġ×ĳ×ĸ ×Ĳ×ª
Ġ×ĳ×Ĺ×¨ ×ª×Ļ
×Ļ×ĺ ×¡
Ġ×ľ×¤ ×ķ×¡×ĺ×Ļ×Ŀ
×Ļ×ª ×Ļ×ª
Ġ×ĳ×ĳ ×Ļ×¨×ķ×¨
×Ľ×ª ×ĳ×Ļ×Ŀ
Ġ×©×§×Ļ×ĳ ×ľ×ķ
Ġ×Ĺ×ķ×ĳ ×ĳ×Ļ
×ķ×ł ×¡×ķ×Ł
Ġ×§ ×ª
Ġ×ł×¢ ×ŀ×Ļ
N A
Ġ×ŀ×©×ķ×ŀ ×©×Ļ×Ŀ
×¨ ×©×ľ×ł×ķ×ª
Ġ×Ķ ×Ļ×§×ķ×Ŀ
ĠCook ies
Ġ×ĳ×ŀ ×Ļ×ĺ×Ķ
×Ļ×ł×ķ ×Ļ×ķ
Ġ×ľ ×ł×ĺ
×Ķ×Ĵ ×Ļ×¢
×Ĳ ×Ļ×©×Ķ
Ġ19 48
Ġ×ª×¤ ×ķ×Ĺ
ĠY ou
Ġ×¨×ķ×ķ×Ĺ ×Ļ×Ŀ
×¡×ĺ ×Ļ×Ł
Ġ×¡ ×ŀ×¡×ķ×ł×Ĵ
Ġ×Ķ×¤×¨ ×ķ×Ļ×Ļ×§×ĺ
Ġ×ŀ ×Ļ×ł×Ķ×ľ
Ġ×ĸ×ŀ ×Ļ×¨
Ġ×¡×ª ×Ļ×ķ
×ķ×ł ×ķ×ŀ×Ļ×Ķ
Ġ×Ķ×Ĺ ×ŀ×Ĳ×¡
Ġ×Ĳ ×ķ×ĵ
×ĵ ×ŀ×Ļ×Ŀ
Ġ×¤ ×ķ×¨×ª
Ġ×ĳ×Ĳ ×ŀ×¨×Ļ×§×Ķ
Ġ×©×¨×ķ×ª ×Ļ
Ġ×ĳ ×ĺ×Ļ×ķ×ľ
×©×Ļ ×Ļ
ĠI T
Ġ×Ĳ×¨ ×Ļ×ĸ×Ķ
Ġ×Ļ×©×¨×Ĳ×ľ ×Ļ×Ļ×Ŀ
Ġ×Ķ×© ×Ĺ×¨×ķ×¨
Ġ×ľ×© ×Ĳ×¨
Ġ×§×¨ ×Ļ×¡×ĺ
Ġ×ĳ×¦ ×Ķ×¨×Ļ×Ļ×Ŀ
Ġ×ª×ŀ ×Ĺ×§
×ĸ ×Ļ×ł×Ļ×Ŀ
×©×Ĳ ×ľ×ª
×¤ ×Ĳ×¨
Ġ×Ķ×Ĳ ×¨×Ľ
Ġ×ĳ×ª ×¤×¨×Ļ×ĺ
Ġ×Ĳ ×Ĳ×ķ×ĺ
Ġ×Ķ×¢ ×ĵ×¨
Ġ×Ķ×©×ľ ×ŀ×Ķ
Ġ×¨×Ĳ×Ļ ×ķ×ł×ķ×ª
Ġ×ĳ×§ ×Ļ
Ġ×Ķ×©×ľ ×ĳ×Ļ×Ŀ
×ľ×Ķ ×Ļ
Ġ×©×ĺ×¨ ×Ł
Ġ×ķ×¤×¢ ×Ļ×ľ×ķ×Ļ×ķ×ª
Ġ×¢ ×ķ×©×ķ×ª
Ġ×Ķ×¡ ×ķ×Ľ×ł×ķ×ª
Ġ×ĺ ×Ķ×ķ×¨
×Ļ×¤ ×Ĳ
Ġ×ł×Ļ×ķ×ĸ ×ľ×ĺ×¨×Ļ×Ŀ
Ġ×Ķ×¦ ×ķ×¨×Ķ
Ġ×Ķ×¦×ĵ ×Ļ×§
Ġ×ķ×ĳ ×Ļ×¦×ķ×¢
×Ļ×Ĵ ×Ļ×ª
Ġ×Ķ×¨×ĳ ×ł×ķ×ª
Ġ×ľ×ł ×Ļ×§×ķ×Ļ
Ġ×ĵ ×¤×ł×Ķ
×Ļ×¢ ×ĵ×¨
Ġ×ł×¤×¨ ×ĵ×Ļ×Ŀ
×Ĳ×ŀ ×Ļ×ł×ķ
u k
in s
Ġ×ĳ×Ĳ×ĵ ×Ļ×ĳ×ķ×ª
Ġ×Ķ×Ľ×¨ ×Ļ×ĸ
Ġ×Ķ×¢×¨ ×ķ×¥
Ġ×©×ĳ ×Ļ×¦
200 4
Ġ×ķ×ª ×Ļ×§×Ļ×Ŀ
Ġ×ķ×Ľ ×ŀ×¢×ĺ
Ġ×Ĳ×§×ĵ ×ŀ×Ļ×ª
×Ĳ×Ļ ×Ļ×ľ
×Ļ×¤ ×ķ×ľ×Ļ
Ġ×Ĳ ×©×Ŀ
Ġ×¢×§×¨ ×ķ×Ł
×§×ĺ ×Ļ×ĳ×Ļ×ª
×Ļ ×ķ×ł×Ļ×Ŀ
ĠM id
Ġ×Ĳ×Ļ×¨ ×ķ
×Ļ×ľ×ĵ ×ķ
Ġ×Ķ×ł×ķ×Ĵ ×¢×Ļ×Ŀ
×Ķ×¢ ×ĳ×ķ×ĵ×Ķ
Ġ×ľ×Ķ×ĵ ×¤×Ļ×¡
Ġ×ľ×Ķ ×Ĺ
Ġ1 01
×ŀ×Ĺ ×©×ĳ×Ļ×Ŀ
Ġ ×Ļ×Ľ×ľ
Ġ×Ķ×Ľ×ľ ×ľ×Ļ×Ŀ
Ġ×ł ×ķ×¤×ľ
×Ķ×¨ ×©×ŀ×ķ
Ġ×§ ×ł×Ļ×Ķ
×Ķ×ª ×ķ×ĳ×¢
Ġ×Ĳ×ª ×ľ×ĺ×Ļ
Ġ×©×Ĳ ×Ĺ×ĵ
' ?
Ġ×ľ×Ĺ ×ķ×£
Ġ×ŀ×Ľ ×¤×¨
Ġ×ł ×ľ×Ĺ
Ġ×ĳ ×ł×Ļ×ª×ķ×Ĺ
Ġ×ľ ×Ļ×ķ
Ġ×Ķ×ł×Ĳ ×¦×Ļ×Ŀ
×ķ×¢ ×ŀ×ĵ
Ġ×Ĳ×ľ×§×ĺ×¨ ×ķ×ł×Ļ×ª
Ġ×Ļ×ĵ ×Ļ×ĵ
Ġ×ķ×ŀ ×ķ×ª
×ł×§ ×ķ×ĵ×Ķ
Ġ×ľ×¦ ×Ļ×Ļ×¨
Ġ×Ķ×Ľ×ķ×ľ ×ľ×ķ×ª
×Ķ×¢ ×Ļ×¨
Ġ×ľ×ŀ×© ×¤×ĺ
×Ľ×ł ×Ļ×¡×ª
×ķ×Ľ ×Ĺ×ª
Ġ×Ķ×¤×¨×ĺ ×Ļ×ª
Ġ×ľ ×Ļ×Ĳ
Ġ×Ķ×¤×¨ ×ĵ×Ķ
Ġ×Ĳ×¤ ×ķ×Ĳ
Ġ×©×Ĳ ×ķ×Ľ×ľ
Ġ×Ķ×©×ľ ×ŀ×ª
Ġ×¨ ×ķ×ĸ×Ł
Ġ×ķ×ĳ ×ł×Ļ×Ļ×Ķ
×Ļ×ŀ ×ĵ
Ġ×ľ×¢ ×ķ×ĳ×ĵ×Ķ
Ġ×ŀ×Ĺ ×ķ×¡×¨
×Ķ ×Ľ×Ļ×¨×ķ
×ĳ ×ŀ×§
Ġ×©×ľ ×ĳ×Ļ
Ġ×ŀ×ĳ×ĺ ×Ĳ
at ch
Ġ×¨ ×ķ×¡
Ġ×ĳ×©×ĳ×ķ×¢ ×ķ×ª
Ġ×Ķ×Ĳ×ķ×¤ ×¨×Ķ
Ġ×ľ×ª ×ŀ×Ļ×Ľ×Ķ
Ġ×ĳ×Ľ ×ĵ×ķ×¨×Ĵ×ľ
×Ĳ ×ŀ×Ł
×Ķ×¤ ×Ľ×ķ
Ġ×ŀ×Ĳ ×ķ×©×¨×Ļ×Ŀ
Ġ6 1
Ġ×¡×Ĵ×ł ×ķ×ł×ķ×ª
Ġ×ĳ×¨ ×¡×ľ×ĳ
×§×ķ×¨×¡ ×Ļ×Ŀ
Ġ×ľ×© ×ķ×ľ×Ĺ×Ł
Ġ×Ĳ×¦×ľ ×Ŀ
×ķ×ľ ×¡
Ġ×Ķ×ĳ×ĺ ×Ĺ×ķ×Ł
×¡ ×Ļ×¤×ķ×¨×Ļ
Ġ×ľ×Ķ×¤ ×Ĵ
×Ļ×© ×ľ×ķ×Ł
Ġ×Ĳ×ł×ķ×© ×Ļ×ª
×ķ×ł ×Ĵ×ľ
Ġ×¢ ×Ľ
Ġ×ĳ×ŀ ×¤×Ĵ×©
×¨×ķ ×ķ×Ĺ
Ġ ch
Ġ×Ķ ×ķ×Ľ×Ĺ
ĠH ome
×ķ×ķ×Ĳ ×ķ
Ġ×Ľ×ķ×Ľ ×ĳ×Ļ
Ġ×Ļ×¦ ×Ĳ×ł×ķ
Ġ×Ķ×ŀ ×ķ×ľ×ĵ
×ĳ ×ķ×¨×Ļ
Ġ×Ķ×ŀ ×ķ×Ľ×¨×Ļ×Ŀ
Ġ×ķ×ľ×© ×ŀ×ķ×¨
Ġ×ŀ×§×¦×ķ×¢ ×ķ×ª
Ġ×© ×ķ×ĵ
8 2
Ġ×ľ×§ ×¨×ĳ
×Ļ×¤ ×ļ
×ª ×¨×ª
Ġ×¤ ×©×ĺ
Ġ×ŀ×ª×§×Ļ ×Ļ×ŀ×ª
Ġ×Ķ×¢ ×¦×Ļ×Ŀ
ĠS e
Ġ×ĳ×Ļ×ĺ ×Ĺ
Ġ×ĳ×Ĺ×ľ×§ ×ķ
Ġ×Ķ ×ķ×ł×Ĵ
Ġ×Ķ×¢×¦ ×ĳ×Ļ×Ŀ
Ġ×¨ ×Ļ×¤×ķ×Ļ
Ġ×¢ ×Ļ×ŀ×ķ
F i
Ġ×©×Ķ×Ĳ ×ĵ×Ŀ
×ª ×ł
Ġ×ľ×Ĺ×Ļ×ľ ×ķ×¤×Ļ×Ł
Ġ×ķ×ŀ×© ×¤×ĺ
Ġ×¦×ĵ ×§×Ķ
Ġ×¨×ķ×Ľ ×©×Ļ×Ŀ
Ġ×ŀ×ª×Ľ×ķ ×ķ×ł×Ļ×Ŀ
Ġ×ª ×¤×¨
Ġ×ķ×ľ×Ķ ×¦
×Ĵ×Ļ×ľ ×Ļ×ķ×Ł
×¤ ×ľ×Ļ
Ġ×Ĺ×ľ ×©
Ġ×Ľ ×Ļ×ĳ×ķ×Ļ
Ġ×ª×¤ ×Ļ×ľ×Ļ×Ł
Ġ×Ķ ×ł×Ļ×ķ×ķ×ĺ
Ġ×ĳ×ª ×Ļ×Ĳ×ĺ×¨×ķ×Ł
Ġ×ŀ×ŀ×© ×Ļ
×§×ĺ ×Ļ×§×Ķ
Ġ×Ķ×ŀ×ĵ ×£
Ġ×Ķ×¢ ×ķ×¨×ļ
Ġ×©×ł ×ķ×ľ×ĵ
Ġ×¤×Ļ ×Ļ×¨
Ġ×Ĳ×ĵ×¨ ×Ļ×Ľ×ľ×Ļ×Ŀ
Ġ×Ķ×¦ ×Ļ×ľ×ķ×ŀ×Ļ×Ŀ
Ġ×ľ×¨ ×§×ķ×ĵ
Ġ×ľ×Ķ ×Ļ×ĺ
Ġ×Ķ×§ ×¦×Ķ
Ġi P
Ġ×ł ×¨×Ľ
Ġ×ł×ĵ ×ĳ×¨
Ġ×Ľ×ĳ ×Ł
Ġ×Ķ×Ĵ ×©×Ŀ
Ġ×©×Ĺ ×ķ×¨×ķ×ª
×§×¨ ×ķ×Ł
Ġ×ķ×Ķ ×¨×Ļ
Ġ×Ķ×Ľ×ķ×ª ×ĳ
Ġ×ķ×ŀ ×ķ×¢×ĵ×Ļ×Ŀ
Ġ×ľ×§ ×Ļ×ķ×Ŀ
×Ķ ×ŀ×§×ķ×Ŀ
×ľ×Ĳ ×ķ
Ġ×Ķ ×¨×Ĳ×Ķ
Ġ×Ķ×ŀ×¡ ×Ĺ×¨×Ļ
Ġ×ŀ×Ĺ ×ĵ×ľ
Ġ×¢ ×ŀ×¨
Ġ×Ĺ×ķ×ľ ×¦×Ķ
Ġ×Ķ×Ĳ×¤×©×¨ ×Ļ
ĠE n
Ġ×¦ ×Ļ×¤×Ļ×ķ×ª
Ġ×Ķ×Ĳ ×ĺ
Ġ×¨ ×Ľ×Ķ
Ġ×ĵ×Ļ×¡ ×§×Ļ×Ŀ
j ob
Ġ×¨×ķ×ķ×Ĺ ×Ķ
Ġ×¤×¨×¡ ×ķ×ŀ×Ļ×Ļ×Ŀ
×¦ ×ŀ×ª
×ł×ķ×¡ ×Ĺ
Ġ×Ļ×¨ ×ĵ×ķ
Ġ Ġ
Ġ×ŀ×ķ×¢ ×ŀ×ĵ×ķ×ª
Ġ×Ķ×Ĵ ×ĳ×¨×ª
Ġ×ł ×Ĺ×¨
Ġ×ķ×¨ ×ķ×Ĺ
Ġ×ķ×¦ ×ķ×ķ×ª
Ġ×ľ ×Ľ×ª×ĳ
Ġ×Ķ×¢ ×ĳ×¨×Ķ
Ġ×¡×Ļ ×Ļ×ŀ×Ķ
Ġ×Ķ×Ļ×Ĺ ×Ļ×ĵ×Ļ
Ġ×ŀ×Ĳ ×ĸ×ķ×¨
Ġ×Ķ×©×¤ ×¢×ķ×ª
Ġ×ľ×¤×¨ ×ķ×Ļ×§×ĺ
ion s
Ġ×Ķ×¤×ª ×¢×ķ×ª
Ġ×Ķ×Ĺ ×ĸ×ķ×Ł
×Ļ×© ×Ĳ
Ġ×Ķ×Ĵ ×ĸ×¢
Ġ×Ĵ×ľ ×Ĵ×ľ
Ġ×ŀ×¤×¢ ×ľ×Ļ×Ŀ
×ķ×¡ ×§×ķ×ª
×ª×Ĺ ×ľ×Ķ
×ŀ×§ ×ķ×ľ×Ļ×Ŀ
Ġ×© ×ķ×Ľ×Ł
Ġ×ķ ×Ļ×ķ
×Ļ×¨ ×ĺ
Ġ×Ķ×© ×ķ×¨×Ķ
Ġ×Ķ×ŀ ×¤×ķ×¨
Ġ×ĳ×Ĺ ×Ļ×ł×Ķ
Ġ×Ļ ×Ļ×ª×Ł
Ġ×¦×Ļ ×Ļ×ł×ķ
×ķ×§ ×¨×ĺ
Ġ×©×ª ×ĵ
Ġ×ŀ×¡×§ ×ł×ķ×ª
Ġ×Ĳ×ķ×ľ ×ŀ×ķ×ª
Ġ×Ĳ ×¡×ĺ
ĠE nglish
Ġ×Ĳ×ľ×§×ĺ×¨ ×ķ×ł×Ļ×§×Ķ
Ġ×©×Ķ ×Ľ
Ġ×Ĳ×¤×¨ ×ª
×¡×ĺ ×Ļ×ĳ
×ł×ª ×ł×Ļ×Ķ×ķ
×©×ķ ×ķ×Ļ
Ġ×©×ł ×¦
Ġ×Ķ×¨ ×ĳ×ķ×ª
Ġ×Ķ×¢ ×Ļ×ĵ
Ġ×ķ×¨ ×ķ×ĳ
×Ļ×¤ ×ķ×©×Ļ×Ŀ
Ġ×Ļ ×ķ×©×ĳ×ª
Ġ×Ķ×ŀ×¨ ×Ĺ×§
×Ĳ ×§×¡
Ġ×¢×ŀ ×ł×ķ×Ĳ×ľ
×ĳ×Ĳ ×ŀ×¦×¢×ķ×ª
Ġ×Ļ×ª ×§×Ļ×Ļ×ŀ×ķ
Ġ×Ķ×¨×Ľ ×ĳ×Ļ×Ŀ
Ġ×ŀ×§ ×ĵ×Ŀ
Ġ×ª×¢×¨ ×ķ×Ľ×ª
Ġ×Ļ ×ķ×ŀ×Ł
×Ļ×ĸ ×ª
×ĳ×Ĳ ×ķ×Ŀ
×Ļ×Ĵ×¨ ×Ŀ
Ġ×ľ ×Ļ×Ĵ×Ķ
Ġ×Ķ×¢ ×ĵ×Ķ
Ġ×Ķ×¢×¦ ×ŀ×Ļ×ª
Ġ×Ķ×Ľ×ª ×ĳ×ķ×ª
Ġ×©×ŀ ×ľ×ª
Ġ×©×Ľ ×ĳ×Ķ
Ġ×Ķ×Ĺ ×ĳ
Ġ×ŀ×Ĺ ×ŀ×ª
Ġ×Ĵ×¨ ×ŀ×ł×Ļ
Ġ×Ķ×ķ×¤ ×¢×ª
Ġ×ª ×¤×¢×ķ×ľ
Ġ×ķ×§ ×Ļ×ĵ×ķ×Ŀ
Ġ×Ķ×Ĳ ×ķ×©×¨
Ġ×ĳ×Ķ ×¤×¨
Ġ×©×ŀ×© ×Ķ×ķ
Ġ×ľ×Ķ×¡ ×Ľ×Ļ×Ŀ
C ookie
Ġ×ª×¢×¨ ×ķ×Ľ×Ķ
Ġ×Ĵ ×ķ×ŀ×Ļ
Ġ×Ķ×© ×Ļ×¨×Ķ
Ġ×ľ×Ķ×¤ ×ł×ķ×ª
Ġ×Ĳ×ł ×Ļ×ŀ×¦×Ļ×Ķ
Ġ×Ķ×Ľ ×¨×ª
Ġ×Ķ×Ĳ×Ĺ ×¨×Ĳ×Ļ
Ġ×ľ×© ×Ļ×Ĺ×Ķ
Ġ×§ ×ķ×ĳ×¢×ª
×Ļ ×Ļ×§
×ķ×ķ×Ĳ ×ķ×ª
×¢ ×Ļ×¨×Ļ×Ļ×ª
Ġ×ª×§ ×ľ×Ļ×ĺ
Ġ×Ķ×ŀ×Ĵ ×Ļ×¢×Ļ×Ŀ
×ł×Ļ×§ ×Ļ×ķ×Ł
200 3
Ġin fo
×ĵ×¨ ×Ľ×Ļ
Ġ×¢×¡×§ ×Ļ×ķ×ª
×¤×¨×Ļ×¡ ×Ļ×Ł
Ġ×ŀ×Ĳ ×¤×Ļ
×ķ×§ ×Ļ×ķ
Ġ×ĳ×ŀ ×Ľ×ª×ĳ
Ġ×Ĺ×¨ ×Ļ×Ĵ
Ġ×ĳ×ľ ×ķ×Ĵ×Ļ×Ŀ
% )
×Ĳ ×ŀ×ķ×ª
Ġ×ĳ×¢ ×©×ķ×¨
Ġ×Ļ ×ķ×Ĳ×ľ
×Ļ×¡ ×ľ
Ġ×Ķ×Ĺ×© ×Ļ×¤×Ķ
×¤×Ļ×§ ×ķ×ĵ
Ġ×ķ×ĳ ×ĵ×¨×ļ
×ķ×ķ ×Ļ×ĺ×©
Ġ×ľ×¤×ª ×Ļ×Ĺ×ª
Ġ×ĳ×ª×§ ×¦×Ļ×ĳ
×Ķ ×¤×¢×ķ×ľ×Ķ
×ŀ ×ĳ×ľ
Ġ×ĳ×Ľ ×Ļ×¡
port al
Ġ×Ķ×ĵ×¨ ×Ļ×©×ķ×ª
Ġ×§ ×ł×Ļ×ª×Ļ
×ŀ×¦ ×Ķ
×§ ×ķ×ĺ
Ġ×ľ×Ľ×ĳ ×ķ×©
×Ļ×ĳ ×ª×ķ
×Ĳ ×¤×ľ×Ļ×§×¦×Ļ×Ļ×ª
Ġ×¤×¨ ×Ļ×ĵ×Ķ
×Ļ×¡ ×§×Ļ
Ġ×¤ ×ķ×§×¡
Ġ×¡ ×Ļ×¢×ķ×ĵ
G oogle
Ġ×ĳ×Ľ×ľ ×Ļ×Ŀ
Ġ×ĳ×© ×Ľ×¨
×ł×Ĺ ×ľ×ķ×Ļ×ķ×ª
Ġ×ľ×Ķ×Ļ×¤ ×ļ
Ġ×¡×Ļ×¨ ×ĳ
Ġ×Ķ×Ļ×¨ ×©
×ł ×ķ×ł×Ļ×Ŀ
×¢ ×ĳ×ķ×ĵ×ķ×ª
×ŀ×¤×¨×ĺ ×ķ×¨×ķ×ª
×Ĺ×Ĺ ×Ĺ×Ĺ
×ŀ×ĳ ×¦×¢×Ļ×Ŀ
Ġ×ĺ×§×¡ ×ĺ×Ļ×Ŀ
ĠA s
Ġ×ŀ×Ĳ ×Ļ×Ķ
×¨×Ľ ×ª×Ļ
Ġ×¢×ķ×ŀ ×¡
Ġ×Ľ×ķ×ľ ×ľ×ķ×ª
Ġ×Ĺ×ķ×ľ ×§
Ġ×Ķ×Ĵ ×ł
Ġ×ĳ×Ķ ×ķ×¤×¢×Ķ
Ġ×ľ×Ķ ×§×¨
Ġ×©×ľ ×Ļ×Ĺ×ª
×ķ×ŀ ×ª×ķ
×ł×Ļ ×ķ×Ŀ
Ġus ing
Ġ×ŀ×ĵ ×Ļ×ł×Ļ
×¨×© ×ķ×ŀ×ķ×ª
×Ļ×¦ ×ķ×¥
Ġ×ŀ×¢ ×ŀ×Ļ×§
×ł×§ ×ķ×ĵ×ª
×ĺ×¨×§ ×¦×Ļ×Ķ
Ġ×§×ĳ×ķ×¢ ×Ļ×Ŀ
Ġ×¢×ľ×Ļ ×Ļ×ļ
Ġ×Ĳ×ĸ ×¢
Ġ×ŀ×Ĵ ×ķ×ķ×ł×ķ×ª
Ġ×Ķ×ŀ ×Ļ×¡×Ļ×Ŀ
Ġ×Ĳ×ľ×ĳ ×ķ×ŀ×Ļ×Ŀ
×ĳ ×Ļ×ł
Ġ×ĵ×¢×ª ×Ľ×Ŀ
Ġ×ŀ×ĵ×Ķ ×Ļ×ŀ×ķ×ª
×ŀ×Ĺ ×ľ×§×ª
Ġ×§ ×ł×Ļ
Ġ×ľ×¡×¤×¨ ×ķ×ª
M A
Ġ×ŀ×ĳ×¨ ×Ļ×§
Ġ×ŀ×ķ×ĺ ×ľ×ª
Ġm ilf
Ġ×ķ×Ĵ ×ľ
Ġ×Ĵ×¨ ×ŀ×ł×Ļ×ª
Ġ×©×§×¨×Ĳ ×ª×Ļ
Ġ×ĳ×ŀ ×©×Ķ×ķ
Ġ×Ķ×Ĺ ×Ľ×Ŀ
Ġ×Ķ×ĳ×¨ ×Ļ×Ĳ×Ķ
Ġ×ķ×§ ×ķ×ľ
×ł×ª ×ķ×ł×Ļ×Ŀ
×ĵ ×ŀ×ķ
Ġ×ķ×ĳ×¡ ×ķ×¤×ķ
Ġ×¢×¦ ×ŀ×ķ×ª
×¨×Ĵ ×ľ×Ļ
Ġ×¤×ł ×Ļ×ŀ×Ļ×Ļ×Ŀ
Ġ×¦×ĵ ×ĵ×Ļ×Ŀ
Ġ×ª ×Ł
Ġ×Ķ×¤×ľ ×Ļ×ĺ×Ļ×Ŀ
Ġ×ľ×ĳ×ĵ ×Ļ×§×ª
Ġ×Ķ×Ĳ×¨ ×ķ×Ĺ×Ķ
Ġ×Ķ×Ļ×© ×ķ×ĳ
Ġ×ĳ×§×ĺ ×¢
Ġ×ĳ×ľ ×Ļ×§
×Ļ×§ ×ķ×ĵ×Ļ×Ŀ
×¡×§ ×ł×ķ×ª
Ġ×ľ×¤ ×ł×Ļ×Ľ×Ŀ
Ġ×ŀ×ª×Ľ×ķ ×ķ×ł×ª
Ġ×ŀ×ķ×ĺ ×Ļ×ĳ×¦×Ļ×Ķ
Ġ×ł×ĸ ×Ľ×¨
Ġ×Ľ ×Ļ×ĳ×ķ×©
Ġ×ĳ×ŀ ×©×Ĳ
Ġ×Ķ×¡ ×ŀ×ķ×ļ
Ġ×Ļ×ĸ×¨×¢ ×Ĳ×ľ
Ġ×ĳ×¨ ×ĳ×¢×ķ×Ł
×ĳ×Ĺ ×Ļ×ł×Ķ
Ġ×Ĳ×ª ×Ĵ×¨×Ļ×Ŀ
Ġ×ĳ ×Ļ×¦×Ķ
Ġ×Ķ×ŀ ×Ľ×©
Ġ×ł ×ķ×©×Ĳ×Ļ
Ġ×ŀ×Ĵ ×ĳ×ľ×ķ×ª
Ġ×Ľ×ľ ×Ĳ
12 0
Ġ×¨ ×ķ×¡×Ļ×ª
×ľ ×ķ×ł×ł×ª
Ġ×Ĺ×ŀ ×Ļ×©×Ļ×Ŀ
Ġ×ŀ×© ×Ļ×¨×ķ×ª
Ġ×Ķ×Ľ×ł×¡ ×Ļ×Ļ×Ķ
×Ļ×ł×ĺ ×ķ×Ł
Ġ×ķ×Ļ×¨ ×§×ķ×ª
×Ĺ×ĵ ×ľ
Ġ6 3
Ġ×Ķ×ĳ ×ŀ×Ĳ×Ļ
Ġ×ľ×ł ×Ĵ×Ł
Ġ×¢×ĵ ×Ļ×ł×Ķ
Ġ×ķ×© ×ķ×§
×Ļ×ĺ ×Ļ×Ļ×Ŀ
Ġ×ĳ×© ×Ļ×Ĳ
ĠG r
Ġ×ĳ×Ķ ×ĵ
×Ļ×ľ ×ķ×ĺ
Ġ×ĳ×¡ ×Ļ×ķ×¢
Ġ×©×Ľ ×ŀ×¢×ĺ
×§×ķ×ľ ×ł×ķ×¢
Ġ×©×Ķ×ª×Ĺ ×ľ×ª
Ġ×Ķ×ł×ĵ ×¡×ª
Ġ×ŀ×¢ ×¨×ĳ×Ļ
Ġ×Ĵ ×Ļ×ŀ×ķ×¨
×ķ×Ĳ ×©
Ġ×Ķ×Ĺ ×ĳ×Ļ×ľ×Ķ
Ġ×ĺ ×ķ×ľ
Ġ×ĳ×Ĵ ×ķ×ĵ
Ġ×Ķ×§×ĳ×ľ ×Ł
Ġ×ĺ×¨ ×ł×¡
Ġ×Ķ×ª×ł ×Ĵ×ĵ
Ġ×ł×¨ ×©×Ŀ
×Ļ×¨×ª ×Ķ
Ġ×Ĵ ×Ļ×ĳ×ķ×Ļ
Ġ×Ĺ×ķ×Ĵ ×Ĵ×Ļ×Ŀ
Ġ×ľ×¤ ×ķ×ľ
Ġ×ľ×Ķ×Ļ×¤ ×ĺ×¨
Ġ×Ķ×ŀ×ķ×¢ ×ŀ×ĵ
×Ļ×ĺ×¨ ×¡
Ġ×ľ×Ķ×¨ ×Ļ×ķ×Ł
Ġ×ŀ×¡×ķ×ĳ ×ļ
×ŀ×ª ×Ĺ×ª
Ġ3 65
Ġ×Ķ×ĳ×¡×Ļ×¡ ×Ļ
Ġ×ľ×ª ×Ľ×ł×Ļ×ª
Ġ×Ľ×© ×Ŀ
Ġ×Ķ×¢ ×ķ×ľ×Ļ×Ŀ
×ŀ×© ×ķ
Ġ×ľ×§ ×Ļ×¨
Ġ×©×§×Ļ×ĳ×ľ ×ª×Ļ
Ġ×Ļ×ª ×ĳ×¨×ļ
Ġ×Ļ×ķ×¦ ×Ĳ×ķ×ª
Ġ×Ĺ×Ļ×ł ×ķ×Ľ×Ļ
×ŀ×ª ×Ĳ×Ļ×Ŀ
ĠF l
P l
d e
Ġ×ŀ×¦ ×ĳ×Ķ
×Ļ×¦ ×ķ×£
Ġ×ľ×ª×§ ×ķ×£
Ġ×ŀ×ķ×ŀ×ľ ×¦×ª
Ġ×ŀ×Ĺ ×ķ×Ļ
Ġ×©×Ĳ ×ŀ×ķ×¨
×ķ×ŀ ×ł×Ļ×Ķ
Ġ×© ×ķ×ķ×Ĳ
Ġ×Ķ×¨×ľ×ķ×ķ×ł×ĺ ×Ļ×Ļ×Ŀ
Ġ×¡ ×ľ×ķ×ľ×¨×Ļ
×ĵ×ĳ×¨ ×Ļ×ķ
×ľ×ĺ ×ķ×¨
Ġ×Ĵ×ĳ ×¡
Ġ×ª ×ķ×Ĳ×Ŀ
Ġ×¢×ķ×ĸ ×¨×Ļ×Ŀ
×ŀ ×¨×Ĳ×Ķ
Ġ×Ķ×Ľ ×ĵ×ķ×¨×¡×ľ
Ġ×§×¨ ×ł×Ļ
Ġ×Ķ×ŀ×ķ×¦ ×Ĵ
b r
Ġ×ŀ×¡ ×ķ×¨×ª×Ļ
Ġ×ŀ×Ľ ×ķ×ľ×Ŀ
Ġ×ĳ×Ķ ×Ļ×ķ×ª×ķ
Ġ×ķ×ŀ ×ķ×¦
Ġ×§×ĳ ×¦×Ļ
Ġ×ĳ×ª ×ķ×¦×Ĳ×ķ×ª
Ġ×¡×Ļ×ľ ×ĳ×¨
Ġ×ª ×ŀ×Ķ
Ġ×ª×ł ×ķ×¨
Ġ×Ķ×¢×ª ×Ļ×§
I F
Ġ×ĳ×ķ ×ķ×ĵ×Ĳ×ķ×ª
Ġ×ª×Ĺ ×ķ×©×ķ×ª
×ķ×ŀ ×ĳ×Ļ
Ġ×ł×ª ×ķ×ł×Ķ
Ġ×ł×¢ ×¨×Ļ×Ŀ
×ŀ×ĵ ×ĳ×¨
×Ľ×ł×¡ ×ķ
Ö Ķ
Ġ×©×ŀ×¢ ×ķ×ľ×Ŀ
Ġ×Ĺ×ł ×ķ×ļ
Ġ×ŀ×Ķ×ŀ ×Ŀ
Ġ×©×§ ×ĳ×¢
Ġ×ŀ×Ĺ×ĸ ×Ļ×§×Ļ×Ŀ
Ġ×Ĳ ×¢
Ġ×Ķ×¤×¨×ĺ ×Ļ×Ļ×Ŀ
Ġ×Ķ×Ĺ ×ĸ×Ķ
×Ĳ ×Ļ×¤×ķ×¡
Ġ×¢ ×Ļ×Ľ×ķ×ĳ
Ġ×ľ×Ĺ ×ķ×ķ×Ļ×Ķ
Ġ×Ķ×ĵ ×ľ
Ġ×ĳ×¨ ×ł×¨
×ķ×Ĳ×¨ ×ĵ
Ġ×¤×ķ×¨×¡ ×ŀ×Ķ
Ġ×Ĺ×§×ľ×Ĳ ×Ļ×ª
Ġ×Ļ×Ĺ ×ĸ×§×Ĳ×ľ
Ġ×ª×Ļ×¨ ×¡
x ml
×ķ×ľ ×Ĳ×Ļ
×¦ ×¨×ķ×ª
Ġ×ŀ×Ľ ×Ļ×ł×Ķ
Ġ×ĳ ×Ļ×¢×¨
Ġ199 5
Ġ×Ķ×ĵ ×ŀ×ķ×§×¨×ĺ×Ļ×Ķ
×Ĵ×ķ×¨ ×Ŀ
Ġ×ľ×Ķ×ª×¢ ×¨×ĳ
×Ļ×¡ ×ķ×¡
Ġ×Ĳ ×ķ×§
'' .
Ġ×¡ ×ķ×ĳ×ľ×ª
Ġ×ŀ×§ ×ķ×ķ×Ļ×Ŀ
Ġ×Ļ ×Ļ×©×Ĳ×¨
8 7
Ġ×ŀ×ª×ķ×Ľ ×Ŀ
Ġ×ĳ ×ķ×©
×Ķ ×ŀ×Ļ×ĵ×¢
U R
×Ĳ×ĸ ×Ļ×Ł
Ġ×Ķ×¨×Ĳ ×Ļ×Ļ×Ķ
×Ķ×© ×ķ×¤×ĺ
Ġ×©×ŀ ×¨×Ļ×Ŀ
Ġ×ĳ×Ļ×© ×Ļ×ĳ×ª
×ķ×ľ ×£
Ġ×Ľ×© ×Ĳ×ª×Ŀ
Ġ×Ķ×¨ ×Ļ×Ĺ
re m
Ġ×Ķ×§ ×©×Ļ×Ŀ
Ġ×ĺ ×Ļ×ĳ
9 2
Ġ×Ĳ×ŀ ×ĳ×ĺ
Ġ×ĳ×ŀ ×Ľ×ľ×ľ×Ķ
Ġ×ŀ×¨×© ×Ļ×ŀ×ª
Ġ×ł×ŀ ×ķ×Ľ×ķ×ª
Ġ×ª×ľ ×ŀ×ķ×ĵ
Ġ×ł×¡ ×Ĵ×¨
us e
×© ×Ľ×¨
Ġ×ĵ ×ŀ×¢×ķ×ª
Ġ×©×Ĳ ×ķ×Ķ×ĳ×Ļ×Ŀ
×ł×ª ×Ŀ
Ġ×ķ×¢ ×ķ×©×Ķ
Ġ×ŀ×¢ ×ŀ×Ļ×§×Ķ
Ġ×Ķ×§×ķ×¨×¡ ×Ļ×Ŀ
Ġ×ª×ĳ ×Ļ×Ĳ
Ġ×ľ×Ķ ×Ļ×ĳ
Ġ×¤×¨×ł×¡ ×Ļ×¡×§×ķ
Ġ×ª×¨ ×ĵ
Ġ×ŀ×¦ ×ķ×¨
Ġ×ľ×¦ ×Ĺ×ķ×§
Ġ×©×Ķ ×Ļ×ķ×Ŀ
Ġ×ĳ×¨×Ľ ×ĳ×ª
Ġt akes
Ġ×©×§ ×ķ×£
×ľ×ĳ ×©
Ġ×Ķ×ĳ×ĵ ×Ļ×§×ķ×ª
Ġ×ľ×§ ×Ĺ×ª×Ļ
Ġ×¦×Ļ ×ķ×ł×Ļ
Ġ×¡×¨×ĺ ×ķ×ł×Ļ
t e
Ġ×ŀ×ª ×ŀ×ĺ×Ļ×§×Ķ
Ġ×ķ×ŀ×Ļ ×ķ×Ĺ×ĵ
×ľ ×ŀ×ķ
Ġ×Ķ×ķ×¨ ×©×¢
u x
Ġ×ĳ×ŀ ×Ķ×ľ
Ġ×ķ×Ĺ ×ĵ
Ġ×ł×Ĵ ×Ļ×ĵ
Ġ×¢ ×Ļ×ŀ
×ĳ ×©×ĳ×ķ×¢
â Ĥª
×ĳ×ª ×Ķ
×§×ĺ ×Ļ×ĳ
Ġ×ŀ×§ ×ķ×ķ×ł×ª
Ġ×Ĺ×¨ ×Ļ×¤×Ķ
Ġ×ŀ×¨ ×©×Ŀ
Ġ×Ĳ×¨ ×ĳ×¢×Ļ×Ŀ
Ġ×Ķ×¡×Ľ ×ŀ×Ļ
Ġ×ŀ×¡ ×ĳ×Ļ×¨×Ķ
Ġ×ľ×Ķ×ª ×ŀ×ķ×ĵ×ĵ×ķ×ª
Ġ×ĳ×Ĵ ×ķ×©
Ġ×ŀ×ĸ×Ĵ ×ł×Ļ×Ŀ
×Ļ×¡×ĺ ×Ķ
Ġ×ŀ×Ĳ ×Ľ×ľ
Ġ 00
Ġ×Ķ×¡ ×ķ×ĳ×ľ×Ļ×Ŀ
Ġ×Ļ×¨ ×Ĺ
×ķ×¢ ×ľ×ķ×ª
Ġ×Ķ×© ×ĵ×¨×Ķ
Ġ×ĳ×ª×Ĺ ×ł×ª
Ġ×ĳ×ĵ ×Ļ×ł×Ļ
Ġ×ľ ×Ļ×¤×ķ×ľ
Ġ×ķ ×ķ×ĵ
Ġ×ĵ ×Ļ×§
×Ĳ×ª ×Ĵ×¨
Ġ×ľ ×ł×Ļ×ª×ķ×Ĺ
Ġ×ľ×ł ×Ľ×Ļ×Ŀ
Ġ×Ķ×Ĳ ×ŀ×¦×¢×Ļ×Ŀ
Ġ×ª ×Ļ×ķ×ķ×ļ
Ġ×©×Ķ ×¡×ª
Ġ- âĢ¬
Ġ×Ĺ×ĸ×¨ ×ª×Ļ
×Ķ ×ŀ×Ĺ×Ļ×¨
Ġ×ľ×ŀ ×ķ×ĸ×Ļ×§×Ķ
Ġ×ĸ ×ķ×ķ×Ļ×ª
×Ļ×Ĺ ×Ļ×ĵ×ª
Ġ×ķ×Ķ ×¡×ª
×Ļ×¤ ×ĵ
Ġ×ł×¤ ×©×ķ
und er
×ĳ×¨ ×§
×ľ ×Ļ×ĵ
×Ľ×ł ×Ļ×§×ķ×ª
Ġ×©×ŀ ×§×ķ×¨
Ġ×ĳ×Ĺ ×§×Ļ×¨×Ķ
Ġ×ĳ×ĸ×Ķ ×Ļ×¨×ķ×ª
Ġ×ķ ×Ļ×Ľ×ķ×ľ×ª
Ġ×Ķ×¦ ×ĺ×Ļ×Ļ×ł×ķ×ª
×ľ ×ĵ×ª
Ġ×ŀ ×Ļ×ł×Ļ×ķ×ª
Ġ×ŀ×ĳ×ĺ ×Ļ×Ĺ×Ķ
Ġ×Ķ×ĳ ×Ļ×©×ķ×ľ
×ķ×ĳ ×ł×Ķ
Ġ×Ķ×ª ×ĳ×ł×Ļ×ª
Ġ×ŀ×ª×¨×Ĺ ×©×ª
Ġ×Ķ×ŀ×© ×ķ×ĳ
Ġ×ĳ×ª ×¢×¨×ķ×Ľ×Ķ
Ġ×ª×¨×Ĵ ×Ļ×ľ
n ames
Ġp ref
9 4
Ġ×¤ ×ķ×ĵ
Ġ×Ļ×¦ ×Ļ×ĳ×Ķ
a ir
Ġ×¢×© ×Ł
×©×Ĳ ×ķ×ľ
ĠI S
Ġ×Ĺ ×ĵ×Ķ
×Ļ×ĵ ×Ŀ
Ġ×ª ×Ķ×Ĳ
Ġ×ŀ×ª ×¤×©×¨
×¦×¢ ×¨×Ļ
Ġ×ĳ×ŀ×ķ×¡ ×ĵ
Ġ×Ĵ×ĳ×¨ ×Ļ×Ĳ×ľ
Ġ×©×Ĳ ×Ļ×¨
Ġ×ķ×Ĺ ×©×ĳ×ķ×Ł
Ġ×Ķ×Ķ×¡ ×ĳ×¨
×¤×© ×ĺ×ķ×ª
Ġ×ŀ×ľ×Ĳ ×Ľ×ª
Ġ×Ĳ×¡×ĺ×¨ ×ĺ×Ĵ×Ļ
B C
Ġ×©×Ķ ×Ļ×Ļ×ł×ķ
Ġ×Ķ×§ ×©×¨×Ļ×Ŀ
Ġ×ŀ×ŀ ×ľ×Ĳ
Ġ×ĳ×Ĳ ×ª×Ļ
×¦×Ķ ×¨×Ķ
Ġ×Ķ×¤×¨ ×¢×Ķ
Ġ×ĳ×©×¨ ×ķ×Ł
Ġ×Ĺ×ª ×ķ×ľ×Ļ×Ŀ
Ġ×ŀ×ª ×ł×Ĵ×ĵ
out line
Ġ×ĳ×ĵ ×ľ×ª
c ircle
Ġ×ķ×Ķ×© ×Ļ×¨×ķ×ª
Ġ×ĳ×Ļ ×Ļ×Ĺ×ķ×ĵ
L V
Ġ×ª ×ŀ×¦×Ĳ
Ġ×ŀ×Ķ×¢ ×ĳ×ķ×ĵ×Ķ
×¢ ×ľ×Ļ
Ġ×Ĳ×Ĺ ×Ļ×ĵ×Ķ
Ġ×Ķ×Ĳ ×ķ×¤×ĺ
Ġ×¤×¨×¡ ×ķ×ŀ×Ļ
Ġ×¡ ×Ļ×ĵ×ķ×¨
Ġ×¤ ×ł×ª×Ķ
Ġ×ŀ×©×Ľ ×ķ×¨×ª
×ķ×¤ ×ķ×¡
×ł×Ķ ×Ĵ×Ķ
Ġ×ĺ ×ĸ
Ġ×Ķ×Ļ×© ×Ĵ
Ġ×Ķ×Ļ×¨ ×ķ×©×ľ×ŀ×Ļ
×ł×ĺ ×ķ
N ew
×¨×Ľ ×ķ×©
Ġ×ľ×ł ×Ľ×ķ×Ł
Ġ×ĳ ×Ļ×¤×Ł
Ġ×Ĺ×ĳ×¨ ×ķ×Ł
Ġ×Ľ×ł ×¨×ª
Ġ×ŀ×Ĺ ×ĳ×ľ×Ļ×Ŀ
' ".
Ġ×ª ×¡×¨×Ļ×ĺ
Ġ×ĳ×ł ×ĵ×ľ
Ġ×ŀ×ĵ ×Ĵ×Ŀ
Ġ×ľ ×Ļ×§×ķ×Ļ
Ġ×Ļ×Ĵ ×¨×ķ×Ŀ
Ġ×Ķ×© ×Ļ×©×Ļ
Ġ×ª×¨×Ĵ ×ķ×ľ
Ġ×Ķ×¨ ×ķ×Ĵ×Ļ×Ŀ
Ġ×ŀ×Ĳ ×Ļ×Ł
A r
Ġ×¤ ×ł×Ļ×Ļ×ª
Ġ×Ķ×Ĳ×Ļ×ł ×ĺ×¨×¡×Ļ×Ŀ
×Ĳ×¡ ×ķ×¨
×ĳ×§ ×Ļ×¦×ķ×¨
Ġ×¤×¡×Ļ×Ľ×ķ×ľ×ķ×Ĵ ×Ļ×Ķ
Ġ×ķ ×Ļ×©×¨×Ĳ×ľ
Ġ×¤×ª×Ĺ ×ķ
×ķ×¨ ×Ļ×ĵ
Ġ×ľ×ª ×Ĵ×ķ×ĳ×Ķ
Ġ×Ķ×ĵ×¨ ×ķ×ŀ×Ļ×ª
Ġ×ĳ×ŀ×Ĺ ×Ļ×¨×Ļ
Ġ ×Ļ×ĸ×Ŀ
×Ķ ×ķ×¡
×ŀ ×ľ×ĳ×ĵ
Ġ×ľ×© ×Ķ×ķ×ª
Ġ×©×Ļ ×Ļ×Ľ×ª
×ķ×ŀ ×ł×ª
Ġ×ľ×ł ×ķ×¢
Ġb ig
Ġ×ľ×ŀ×Ĳ ×ĳ×§
Ġ×Ķ×¦ ×¦×Ķ
Ġ×ķ×ĳ ×¨×Ĳ×©
Ġ×ĳ×Ĺ ×ĺ
Ġ×ķ×¦ ×¢
Ġ×Ķ×Ĳ×ĸ×ķ×¨ ×Ļ
Ġ×ŀ×ŀ ×ķ×ľ
×¢ ×Ļ×ª×ķ×Ł
×Ĺ ×¥
×ŀ ×ĸ×¨×Ĺ
Ġ×ľ×©×Ļ×¨×ķ×ª ×Ļ×Ŀ
×ľ×§ ×ķ
Ġ×ĳ×¤ ×ķ×ľ×Ļ×Ł
Ġ×ĳ×Ļ ×Ļ×¦×ķ×¨
Ġ×ĳ×ª ×ŀ
Ġ×ŀ×¤×ľ ×Ĵ×Ķ
Ġ×Ľ×© ×Ĳ×ł×Ĺ×ł×ķ
×Ĳ×¨×ĺ ×¤×ķ×ł×Ļ×Ŀ
×Ĵ ×ł×ķ
Ġpref ix
Ġ×ŀ×§ ×ł×Ķ
Ġ×Ļ×¤ ×ł×Ļ×ª
Ġ×Ĳ×ł ×ľ
Ġ×ľ×Ĺ ×Ļ×ĸ×ķ×§
Ġ×Ľ ×ŀ×¢
Ġ×ĺ ×¡
Ġ×ª×¤ ×ķ×Ĺ×Ļ×Ŀ
×Ķ×©×Ĳ ×¨×ª
Ġ×Ķ×¨ ×§
names pace
×ķ×¨×ª ×ķ×ĵ
×ķ×ĳ×Ĳ ×ķ×ķ×Ļ×ĺ×©
×ª ×ķ×ļ
×ł ×¢×ķ×ª
Ġ×ķ×Ķ ×¨×ĳ
Ġ×ľ×ĵ ×ķ×ķ×Ĺ
Ġ×Ķ×ŀ×ĺ ×ĳ×¢
Ġ×Ĳ ×ķ×ĸ×Ł
×ĵ ×ķ×Ĺ
Ġ×ľ×Ĳ×¨ ×¦×ķ×ª
Ġ×©×¢ ×ŀ×ĵ
Ö¹ ,
as e
Ġ×Ĳ×Ķ ×ĳ
Ġ×ķ×ŀ×ª ×ķ×ļ
Ġ×Ķ×ŀ×ŀ×© ×ľ×ª
Ġ×ĳ×ķ×¦ ×¢×Ķ
×ŀ ×ľ×Ļ×Ŀ
×Ĳ ×Ĵ×ķ
Ġ×ĳ×ŀ ×ķ
×ķ×ľ ×Ľ×Ł
if t
Ġ×¨×Ľ ×Ļ×ĳ×Ļ×Ŀ
Ġ×Ķ×Ľ ×¤×ª×ķ×¨
Ġ×Ķ×¨ ×ŀ×ĺ×Ľ
Ġ×ķ×ĳ×ŀ×§ ×ĳ×Ļ×ľ
×¦ ×ŀ×Ĺ
×ķ×Ļ×§ ×Ļ×¤×ĵ×Ļ×Ķ
×ŀ×¡ ×ľ×ķ×ľ×Ļ
Ġ×©×Ļ ×ķ×¦×Ĳ×Ļ×Ŀ
Ġ×Ķ×Ĵ×ľ ×Ļ×©×Ķ
Ġ×ŀ ×ł×¡
Ġ×ĳ×ł ×Ľ×¡
Ġ×Ķ×ł×ĵ×¨ ×©×ª
Ġ×ŀ×¨×Ĵ ×©×ª
×Ļ×ŀ ×ķ×ł×Ķ
Ġ×Ķ×ĵ ×Ļ×ķ×ķ×Ĺ
Ġ×ĳ×ĳ ×Ļ×ĺ×ķ×Ĺ
Ġ×Ķ×ª ×¤×¨×Ļ×ĺ
Ġ×¨ ×Ļ×ĳ×ķ×Ļ
Ġ×Ķ×¢ ×ł×Ļ×Ł
×ĵ×¨ ×ķ×Ł
×Ĵ ×Ļ×¨
Ġ×Ķ×§×ľ ×ĵ×Ķ
Ġ×ª×ĳ ×ł×Ļ×ķ×ª
×¤ ×Ļ×¨×ķ×ª
Ġ×ĳ×ŀ ×ķ×ĵ×Ļ×¢×Ļ×Ł
Ġ×ľ×ĺ×¢ ×ł×ª×ķ
Ġ×ľ×Ķ×¦ ×ĺ
×§×¡ ×Ļ×Ŀ
×ŀ×Ĺ ×©×ĳ
Ġ×Ķ×ŀ×§ ×ķ×ĳ×ľ
×ĳ×Ĳ ×ŀ×ª
Ġ×Ĳ ×¤×Ļ
Ġ05 2
Ġ×© ×Ļ×¦×¨
Ġ×ĳ×Ĳ ×¤×ľ×Ļ×§×¦×Ļ×Ķ
Ġ×ķ×Ļ×¨×ĺ ×ķ×Ĳ×ľ×Ļ
Ġ×ŀ ×ķ×ł×ĺ
×ķ×ĺ ×Ļ×ķ×ª
Ġ×ķ×ľ ×¤×ł×Ļ
Ġ z
Ġ×©×ŀ ×ŀ×ł×ķ
×Ľ×ł×Ļ×¡ ×ķ
Ġ×Ļ ×Ļ×Ĳ
×ķ×¨ ×Ĺ×Ļ×Ŀ
Ġ×Ķ×ĵ ×Ĵ×Ŀ
Ġ×ĳ×©×ľ ×ĳ×Ļ×Ŀ
×Ļ ×ķ×¡×Ļ
Ġ×¤×¢ ×¨
Ġ×ŀ×Ľ×ł×Ļ×¡ ×Ļ×Ŀ
Ġ×ľ×Ķ×© ×Ľ×ľ×Ķ
Ġ×Ĳ×ŀ ×Ļ×¨×Ķ
Ġ×ľ×¦ ×Ļ×ľ×ķ×Ŀ
Ġ×ŀ×Ķ ×Ľ×ľ
Ġ×Ķ×¦ ×Ļ×Ĵ×Ķ
Ġ×Ļ×© ×ľ×Ŀ
Ġ×Ķ×§ ×Ļ×¨×ķ×ª
Ġ×ĸ ×Ļ×ľ×ł×ĵ
×¡×ĵ ×ł×Ĳ×ķ×ª
ent s
m icrosoft
Ġ×ľ×ĳ ×ĺ×Ĳ
Ġ×¡ ×ł×ĵ
Ġ×©×¨ ×ķ×Ĳ×Ļ×Ŀ
Ġ×Ķ ×Ļ×¢×¨
×¢ ×ĸ×¨×Ķ
Ġ×ľ×ł×© ×Ļ×Ĳ
×Ĺ ×ĳ×ª
×Ļ×© ×ł×Ļ×Ŀ
×Ļ×Ķ ×ķ×ĵ×Ļ
Ġ×ľ×ŀ×©×ª×ŀ×© ×Ļ×Ŀ
âĨ Ĳ
Ġ×ľ×¨×Ľ ×Ļ×©×Ķ
×ŀ×ª ×Ľ×ķ×Ł
Ġ×ľ×ĸ ×Ľ×¨×ķ
×ľ×Ĳ ×Ł
Ġ×ŀ×© ×ŀ×Ĳ×ľ
Ġ×ĳ×¡×¤×¨ ×ĵ
Ġ×ĳ×ĵ ×Ļ×¢×ĳ×ĵ
Ġ×ľ×ĺ ×ĳ×¢
Ġ×ĸ ×¨×ķ×ª
Ġ×ĳ×¨×Ĳ ×ķ×Ł
Ġ×Ļ×Ĺ ×ķ×ľ×ķ
Ġ×Ķ×ł×Ķ ×¨
Ġ×Ĳ ×§×¨
Ġ×ŀ×ķ×¡ ×Ļ×¤×Ķ
Ġ×©×¢ ×ľ×Ķ
×ł×Ĺ ×Ŀ
×Ĺ ×Ļ×¤×Ķ
Ġ×¡×ķ×¦×Ļ×Ĳ×ľ ×Ļ×ª
Ġ×ŀ×ł×¢ ×ķ×ľ×Ļ×Ŀ
Ġ×¤ ×Ļ×ĺ
Ġ×ľ×ĵ×¨ ×Ļ×©×ķ×ª
Ġ×ľ×¤ ×ł×Ķ
i er
Ġ×ľ×Ķ ×ķ×¨×Ĵ
Ġ×ľ×Ľ ×ĳ×Ļ×©
Ġ×ķ×ŀ×ĵ ×ķ×¢
Ġ×ł ×ķ×¦×¨×Ļ×Ŀ
×ŀ×ĸ ×Ĵ
Ġ×Ķ×ķ×¨ ×ĵ
Ġ×Ķ×Ķ ×Ľ×¨×Ķ
Ġ×Ķ×ŀ×Ĳ ×¤×Ļ×Ļ×ł×Ļ×Ŀ
×ŀ×Ļ×Ķ ×ķ
×Ĳ ×ķ×ł×Ļ×ĳ×¨×¡×Ļ×ĺ×ª
Ġ×ķ×ľ×ľ ×ŀ×ķ×ĵ
Ġ×Ķ×¨ ×ķ×§
Ġ×Ķ×¢ ×ĸ×¨×Ķ
×ŀ ×Ļ×ľ×ķ×Ł
Ġ×Ķ×Ļ×¨ ×Ļ×ĵ×Ķ
×Ķ×Ĳ ×Ĺ
ĠP orn
Ġ×ŀ×ķ×ĳ×Ķ ×§
Ġ×ķ×Ķ ×ŀ×¨
Ġ×©×¢ ×ķ×ĳ×ĵ
am s
Ġt h
×¡ ×ķ×¤×¨
Ġ×Ĵ×¨ ×ŀ×ķ
Ġ×ķ×ĳ×¨ ×ķ×¨
Ġ×Ķ×© ×ľ×Ŀ
Ġ×ĳ×ľ ×Ļ×Ĵ×ª
Ġ×ŀ×Ĵ ×ĵ×¨
Ġ×Ķ×¨×© ×ŀ×Ļ×ª
×Ĳ×ľ ×Ļ×Ļ×Ŀ
Ġ×ķ×ľ ×¢×ª×Ļ×Ŀ
Ġ×ŀ×ª ×Ĵ×ľ×Ķ
Ġ×ĵ×¢×ª ×Ŀ
×Ĳ ×Ļ×ŀ×ķ×Ł
Ġ×Ķ×Ĵ×Ļ×ľ ×Ĳ×Ļ×Ŀ
Ġ×ĳ×© ×ķ
M I
Ġ×§×ľ×Ĳ ×ĳ
Ġ×Ķ×ŀ×Ļ ×ķ×¢×ĵ×Ļ×Ŀ
×ŀ ×Ĵ×ĵ×ľ
Ġ×¤×ķ×ľ ×Ļ×©
Ġ×ŀ×ŀ ×ķ×©×ļ
×Ĺ×Ļ ×Ļ
Ġ×ª×¢ ×ł×ķ×Ĵ
×© ×Ļ×Ĳ
8 4
Ġ×ŀ×ĸ ×Ļ×§×Ļ×Ŀ
Ġ×Ķ×ª ×ķ×Ľ×ł×Ļ×ķ×ª
Ġ×ķ×Ĳ×¨ ×ķ×Ĺ×ª
Ġ×Ķ×ŀ×ĳ ×ķ×ĺ×Ĺ
Ġ×©×ľ ×ŀ×¨×ķ×ª
C H
Ġ×Ĳ ×Ļ×Ĵ
Ġ×Ķ×Ľ ×©×¨×ķ×ª
Ġ×ĺ ×ł×Ļ×¡
Ġ×ľ×ĸ×¨ ×ķ×§
Ġ×ł ×©×ľ
×ŀ ×ŀ×ķ×ª
×Ļ×ĳ ×ĵ
Ġ×ŀ×¨×ª ×§×ª
×Ķ ×¢×ľ
×©×ķ×ª ×£
Ġ×Ĺ×ķ×ĳ ×¨×ª
Ġ×¢ ×Ļ×ĵ×ķ
Ġ×ķ×Ľ ×ķ×ľ×ľ
Ġ×Ķ×ĳ ×Ļ×ª×Ļ
Ġ×ŀ×¡×Ľ ×Ļ×ŀ×Ļ×Ŀ
Ġ×ľ×Ľ×ª ×Ļ×ĳ×ª
Ġ×ŀ×©×ª ×ľ×ŀ×ª
×¤ ×ķ×©×ķ×ª
Ġ×ĳ×ŀ ×ł×Ķ
Ġ×©×Ķ ×ª×Ĵ
Ġ×Ķ×ŀ×ĳ ×ķ×¡×¡×ª
×Ĵ×¨ ×Ļ×ª
Ġ×Ĺ×ĳ ×Ļ×ľ×Ķ
Ġ×ķ×Ķ×¤ ×ļ
Ġ×©×¢ ×Ļ×¨
1 000
Ġ×¤×ĺ×¨ ×ķ×ĸ×Ļ×ľ×Ļ×Ķ
Ġ×ŀ×ľ×Ĳ ×ķ×ª
×ŀ×¦ ×ľ×ŀ×ķ×ª
Ġ×ľ×¨ ×ķ×Ĺ
il d
Ġ×Ķ×¨×ĳ ×ł×Ļ
×ĳ ×ĵ×Ļ×ķ×§
×ĵ ×ł×Ĳ
Ġ×¨×ĳ ×ł×Ļ
Ġ×Ķ×¡×ª×Ļ ×Ļ×ŀ×Ķ
Ġ×Ķ×¦ ×ĳ
×ĳ×© ×Ļ×ľ
Ġ×ķ×ŀ ×ķ×¤
×§ ×ķ×£
×ķ ×Ļ×ľ
Ġ×ŀ×Ĵ ×ŀ×Ķ
Ġ×ł×Ķ ×Ĵ×ķ
Ġ×Ķ×Ĳ×ŀ×¨×Ļ×§ ×ł×Ļ×ª
Ġ×ŀ×Ĺ×ķ ×Ļ×ĳ
Ġ×¨×Ĵ ×ķ×¢
Ġ×Ľ×ľ×ľ ×Ļ×Ļ×Ŀ
HE B
×Ļ×ł×ķ×§ ×ķ×ª
Ġ×ŀ×¢×ķ×¨ ×¨×ª
Ġ×ŀ ×Ļ×¢×ķ×ĺ
Ġ×ĵ ×Ļ×Ļ
Ġ×Ķ×ł×¤ ×©×Ļ
×Ļ×§ ×ĺ×Ļ×Ŀ
Ġ×©×Ĳ×Ļ×ł ×ł×ķ
Ġ×ĳ×ŀ ×Ļ×ł
Ġ×ľ×ŀ×¡ ×ľ×ķ×ľ
×Ľ×¡ ×ķ×Ľ×Ļ×Ŀ
×Ķ ×¤×§×ª
Ġ×ķ×ľ ×§×¨
×Ļ×© ×¨×Ĳ×ľ×Ļ×Ŀ
Ġ×ľ×ª×Ļ×ł×ķ×§ ×ķ×ª
el s
×¤ ×Ļ×ł×ª
Ġ×ķ×¢ ×¡×§×Ļ×Ŀ
Ġ×§ ×¥
Ġ×ĳ×¨ ×Ļ×Ľ×ķ×ª
Ġ×ŀ×¡×Ļ ×Ļ×¢×ª
ide os
Ġ×ł×Ļ×¦ ×Ł
Ġ×ŀ×¤×ķ×¨×¡ ×ŀ×Ļ×Ŀ
Ġ×ŀ×Ķ×¤ ×Ľ×Ķ
×Ĳ×Ĺ ×¡×ķ×Ł
Ġ×ĺ ×Ļ×ľ×Ļ×Ŀ
Ġ×Ĵ ×Ļ×ĳ
iz portal
Ġ×ĳ×Ĳ ×Ļ×¨×ķ×¢×Ļ×Ŀ
Ġ×Ĺ×Ļ ×Ļ×ļ
Ġ×ĳ×ŀ ×©×¨×Ķ
Ġ×ŀ×¦×ĳ ×Ļ×¢×Ļ×Ŀ
Ġ×©×Ĳ×ŀ×¨ ×ª×Ļ
Ġ×ķ×Ĳ ×ķ×¤
Ġ×ĳ×Ķ×© ×¨×Ĳ×ª
Ġ×Ķ×§ ×ĳ×¨×ķ×ª
Ġ×Ķ×ł ×Ļ×§×Ļ×ķ×Ł
c c
Ġn s
Ġ×ŀ×¤×¢ ×ľ×Ļ
Ġ×ķ×¨ ×ĳ×Ļ×Ŀ
×¨×Ĳ ×Ł
Ġ×Ķ×ª×§ ×ł×Ļ×Ŀ
Ġ×Ķ×Ķ ×¤×§×Ķ
Ġ×ĳ×¡×Ļ×¡ ×Ļ×Ļ×Ŀ
Ġ×Ķ×Ĳ×Ļ ×Ļ×¤×ķ×Ł
Ġ×Ķ×Ļ×¢ ×ĵ×¨
Ġ×ľ×Ķ×© ×Ĳ×¨
Ġ×© ×¨×ĳ×Ļ×Ŀ
Ġ×ŀ×¡ ×ķ×¨
×Ķ ×ķ×¨×ĵ
Ġ×Ķ×ŀ×§×¦×ķ×¢ ×Ļ×Ļ×Ŀ
Ġ×Ķ×¢ ×ľ×ķ×ª
Ġ×Ļ×© ×ķ
Ġ×Ķ×ĵ ×ĵ×Ļ×ª
Ö¸ ,
Ġ×ŀ×Ĺ ×ĳ×¨×Ļ
Ġ×Ĳ ×Ļ×ĺ×Ļ
Ġ×Ķ×Ķ×ª ×ł×Ĵ×ĵ×ķ×ª
Ġ×ľ×ŀ ×Ļ×ŀ×ķ×©
×ŀ×¢ ×ľ
Ġ×ľ×Ĳ ×Ļ×ĳ×ķ×ĵ
Ġ×ķ×Ĳ ×Ļ×ł
Ġ×ĳ×ŀ ×ķ×¢×¦×Ķ
Ġ×ĳ×ł ×Ĺ
Ġ×¢×ĳ×ķ×ĵ ×ª×Ŀ
Ġ×¦ ×Ļ×ĺ×ķ×ĺ
Ġ×Ķ×Ĳ×ķ×ª ×Ļ×ķ×ª
Ġ×ĳ×Ľ×ľ ×Ľ×ľ×Ķ
Ġ×ŀ×ŀ ×ķ×¢×ĵ
Ġ×Ļ×ĸ ×ŀ×ķ×ª
×ķ×¤×¡ ×Ĳ×ķ×ª
Ġ×ĳ×Ĺ ×ķ×ķ×ª
Ġ×ŀ×¢ ×ľ×Ļ×ª
Ġ×Ķ×ŀ×ľ ×Ľ×Ķ
Ġ×ķ×§ ×ķ×ĳ×¦×Ļ
×§×¡ ×Ŀ
×ķ×Ķ ×Ł
Ġ×¢ ×Ļ×§×¨×Ļ
×ĳ×ª ×Ļ×Ŀ
Ġ×ķ×¤ ×¨×ĺ
Ġ×Ķ×Ļ×¡×ĺ ×ķ×¨×Ļ×Ļ×Ŀ
Ġ×Ĺ ×Ļ×ķ
Ġ×ĳ×ª ×Ĺ×ª
Ġ×©×ĳ×¨ ×©×ķ×ª
×Ĳ×Ĵ ×Ļ×ĵ
×Ļ ×Ļ×ł×Ķ
Ġ×ľ×ĵ ×ķ×¨×ķ×ª
×Ķ ×ŀ×©×Ĺ×§
Ġ×Ķ×ŀ×ķ×ĵ ×Ļ×¢×Ļ×Ł
×ķ×© ×ľ×ª
Ġ×ķ×ĺ ×¢×Ļ×Ŀ
×Ļ×Ķ ×ķ×Ŀ
×ĺ ×Ĺ×Ķ
Ġ×Ĺ×§ ×ľ×Ĳ×Ļ
Ġ×Ĺ×© ×ķ×ĵ
Ġ×Ķ×ľ×© ×Ľ×Ķ
Ġ×ľ×© ×Ļ×ł×ķ×Ļ×Ļ×Ŀ
Ġ×ķ×ľ ×ł×¡×ķ×ª
Ġ×Ķ×¦ ×Ļ×¤×ķ×¨
Ġ×ł×¨×© ×ŀ×ķ
×ŀ ×Ĵ×ķ×ķ×Ł
Ġ×§×ľ ×Ļ×¤×ķ×¨×ł×Ļ×Ķ
Ġ×ł ×ķ×¤×Ļ×Ŀ
×¤×¡ ×Ļ×Ľ×ķ×ľ×ķ×Ĵ×Ļ×Ķ
×ŀ ×ł×ĺ×Ļ×Ŀ
Ġ×§ ×¡×ķ×Ŀ
Ġ×ľ ×Ļ×ĳ×ķ
Ġ×Ķ×ĳ ×¢×Ļ
Ġ×ĳ×¡×¨×ĺ ×Ļ×Ŀ
Ġ×ł×Ĳ ×¡
Ġ×ķ×§×ĳ ×¦×Ļ×Ŀ
Ġ×Ĺ×Ĵ ×Ļ×Ĵ×Ķ
Ġ×¦ ×¢×¨
Ġ×Ķ×¤×¨ ×§×Ļ×Ŀ
Ġ×Ķ×Ļ×¦×¨ ×Ł
Ġ×Ķ×ŀ×ķ×¦ ×Ĳ
Ġ×Ķ×¢×ķ×ł×© ×Ļ×Ł
×ĵ ×ŀ×Ļ
Ġ×© ×ł×ĺ
Ġ×ł ×ŀ×Ĳ×¡
Ġ×ľ×ķ×Ĳ ×Ļ×¡
×© ×ķ×ľ×Ĺ×Ł
Ġ×ľ×ŀ ×Ļ×ł×Ļ×Ķ×Ŀ
Ġ×ŀ×ŀ ×Ļ
9 3
Ġ×¨ ×Ļ×©×ķ×Ļ
×Ļ×Ĳ ×ł×Ĵ
Ġ×ŀ×© ×§×Ķ
Ġ×Ĳ×Ļ×ª ×ŀ×¨
Ġ×ŀ×¢×ķ×¦ ×ĳ×ķ×ª
Ġ×ł×ª×§ ×ľ
×¡×ĺ ×ķ×ĵ×ł×ĺ×Ļ×Ŀ
Ġ×Ĵ×ĳ ×Ļ×ł×ķ×ª
Ġ×Ķ×ĳ ×ķ×¨×¡×Ķ
Ġ×¢ ×ł×Ļ×Ļ×ł×Ļ
Ġ×ŀ×©×ª×ª ×£
ik e
Ġ×Ķ×ŀ×ª ×Ĺ×¨×Ļ×Ŀ
×Ľ×Ļ ×Ļ×Ķ
×ŀ×¡ ×Ļ×ĳ×ª
Ġ×Ķ×ª×§ ×ł×ķ×ª
Ġ×ľ×ŀ ×©×ª
Ġ×ł ×ķ×¢×Ķ
Ġ×ł×¤×Ĵ ×©×Ļ×Ŀ
Ġ×Ķ×¢ ×Ļ×Ļ×¨×Ķ
Ġ×ª×Ĳ ×Ļ×ľ×ł×ĵ
Ġ×ł×§ ×¨×Ĳ×ª
×ķ×ĺ ×¨×Ļ×Ŀ
Ġ×Ĺ×©×ŀ×ľ ×Ļ×ª
Ġ×ŀ×Ĳ ×Ľ×ľ×Ļ×Ŀ
Ġ×Ķ×ĳ ×ķ×ĺ
Ġ×Ķ×¦ ×ĺ×¨
×¡ ×¤×§
Ġ×Ľ×ł ×Ļ×¡
×Ĳ×¦×ľ ×ł×ķ
Ġ×Ķ×ĳ×ĵ ×ľ×Ļ×Ŀ
×¢ ×ķ×ľ
×ŀ×ľ ×Ľ×ª
Ġ×ŀ×©×¤ ×Ļ×¢×Ķ
×Ĵ ×©×Ļ×Ŀ
×Ĳ×ľ ×Ļ×ķ×ª
Ġ×ŀ×ł×Ķ ×Ĵ
Ġ×ľ×¨ ×Ĺ×ķ×ĳ
Ġ×ĳ×¢ ×ł×Ļ
Ġ×ľ×Ķ×¦ ×Ļ×ĳ
Ġ×Ĳ×Ĵ ×ķ×ĸ×Ļ×Ŀ
Ġ×ĳ×Ľ ×¡
Ġ×ŀ×ª ×ŀ×Ĺ×Ļ×Ŀ
Ġ×Ļ×¦×Ĳ ×ª×Ļ
Ġ×ŀ ×Ļ×ĸ×Ŀ
Ġ×¢×ĵ ×Ļ×¤×ķ×ª
Ġ×© ×©×¨
Ġ×© ×Ľ×ª×ĳ×ª
Ġ×ĳ ×ķ×ĳ×ķ×ª
Ġ×ŀ×¤×Ĺ ×Ļ×ĵ
Ġ×ĳ×Ĳ ×ľ×ĳ×ķ×Ŀ
×Ĺ×§ ×ł×Ļ×Ŀ
Ġ×§×ĵ ×ķ×©×Ķ
Ġ×ĳ×Ķ×Ĺ×ľ×ĺ ×Ķ
ag o
Ġ×§×ľ ×Ļ×ł×Ļ×ª
ĠTra in
Ġ×Ļ ×ķ×¤×Ļ×¢
Ġ×§×ĺ ×ľ×ķ×Ĵ
v i
Ġ×©×Ĳ ×ķ×ª×Ķ
Ġ×ĳ×Ķ ×ĸ
Ġ×ł×¤×ľ×Ĳ ×Ļ×Ŀ
Ġ×ķ×Ķ×© ×¤
Ġ×ĳ×ŀ×Ĺ ×ĸ×ķ×¨
ĠM y
Ġ×ŀ×¢×© ×Ļ×ķ
Ġ×©×Ĳ ×ķ×Ķ×ĳ
sche mas
Ġ×Ķ×©×¨ ×Ļ×¨×Ļ×Ŀ
? ",
×Ĳ×¡ ×£
Ġ×ĳ×¤ ×Ĵ×Ļ×©×Ķ
an c
Ġ×Ļ×Ķ ×ķ×ĵ×Ļ×Ļ×Ŀ
Ġ×¡×ĳ ×ķ×¨×Ļ×Ŀ
Ġ×ľ×ĳ ×ķ
Ġ7 7
Ġ×ķ×ŀ ×©×Ĳ
Ġ×Ķ×ª ×©×ŀ
Ġ×ĳ×Ĺ×¨ ×Ķ
×¦ ×ķ×£
×Ļ×ĺ×§×ĺ ×ķ×¨×Ķ
Ġ×ĳ×¡ ×¤×§
Ġ×Ķ×¨×Ĵ ×©×ķ×ª
Ġ×Ļ×¨ ×ķ×§×ķ×ª
Ġ×ľ×ĳ ×ł×Ļ×Ļ×Ł
×Ķ×© ×Ĳ×¨
Ġ×ķ×ŀ×© ×¤×Ĺ×ª
×Ĺ×ŀ ×Ļ×©×Ļ
×ĳ×¡ ×Ļ×¡
Ġ×ķ×Ķ ×Ļ×Ļ×ª×Ļ
us sy
Ġ×Ľ ×ķ×¢
Ġ×¤×¢×Ļ×ľ×ķ×ª ×ķ
×¨×Ľ ×Ļ×ĳ×Ļ×Ŀ
Ġ×ķ×ł ×ĵ
Ġ×ĳ×ł×¡ ×Ļ×¢×Ķ
Ġ×Ķ×ª ×ĸ×ķ×ł×Ķ
Ġ×¢×© ×ķ×¨×Ļ×Ŀ
Ġ×ľ×§×ķ×ľ ×ł×ķ×¢
Ġ×Ķ×¤×¢ ×Ļ×ľ×ķ×Ļ×ķ×ª
Ġ×ĳ×Ĵ×¨ ×¡×Ķ
Ġ×¢×¡×§ ×ª
Ġ×ĸ ×ĳ×ľ
Ġ×ĳ×§ ×ł×Ļ×ķ×Ł
Ġ×¢ ×ķ×ł
Ġ×Ĳ×ĵ ×ŀ×ķ×ª
Ġ×§×¦ ×¨×ķ×ª
Ġ×ŀ×© ×ŀ
Ġ×Ķ×ĳ ×ķ×Ĵ×¨×Ļ×Ŀ
ĠL a
Ġ×ŀ×Ĺ ×ķ×ĵ×©×ª
Ġ×¢ ×Ļ×ª×ķ×ł×ķ×ª
Ġ×ŀ×ĵ×¨ ×©
Ġ×ĳ ×Ľ×Ŀ
Ġ×Ķ×Ķ×ª×§ ×©×¨×ķ×ª
Ġ×¨×© ×Ĳ×Ļ×Ŀ
Ġ×Ķ×Ĺ×© ×ķ×ĳ×Ķ
Ġ×ĳ×ł×§ ×ķ×ĵ×Ķ
Ġ×ŀ×¡ ×ķ×£
Ġ×ĳ×ª×§ ×ķ×ķ×Ķ
Ġ×Ķ×Ķ ×ĵ×¨×Ľ×Ķ
Ġ×Ĺ ×ķ×ķ×Ļ×Ŀ
Ġ×ŀ×Ĳ ×¨×§
8 3
ĠâĢ ĭ
×© ×ĵ×¨×ķ×ª
×© ×ķ×£
Ġ×ŀ×Ľ ×ķ×ķ×ł×ª
Ġ×ĳ ×ķ×ĸ
Ġ×©×¤×ķ×¨×¡ ×ŀ×ķ
Ġ×ľ×Ĺ ×§×Ļ×¨×Ķ
Ġ ×Ļ×¤×ķ×¨
Ġ×ĳ×ĸ ×ŀ×ł×Ļ×Ŀ
×ķ×¤ ×¡×Ķ
Ġ×ŀ×¡×ª ×Ľ×ľ
Ġ×Ķ×ª×© ×¡
Ġ×Ļ×© ×ķ×¢
Ġ×ŀ×§×¡ ×Ļ×ŀ×ķ×Ŀ
Ġ×ĸ×§ ×ķ×§×Ķ
×ķ×¢ ×¨×ª
Ġ×§×ľ ×¤×Ļ×Ŀ
ĠO r
at t
Ġ×ľ×Ķ×ª ×ķ
ĠRes ort
Ġ×ŀ×Ľ×¨ ×ĸ
Ġ×ĳ×ŀ ×§×¨×§×¢×Ļ×Ł
Ġ×ŀ×ķ×ĳ ×Ļ×ľ×ķ×ª
Ġ×ŀ×¦×ķ×ŀ ×¦×Ŀ
Ġ×Ķ×Ľ ×ŀ×ķ×ª
Ġ×ĳ×ĺ ×Ļ×¨×ķ×£
×Ķ×¨×© ×ķ×ŀ×Ķ
×ķ×¦ ×Ļ×ª
Ġ×ł ×¨×§
Ġ×ŀ×ľ×Ĳ ×Ľ×Ķ
Ġ×Ķ×Ľ ×Ķ
Ġ×Ļ×¨ ×¦×Ķ
Ġ×ŀ×ŀ×ķ×© ×Ľ×ª
Ġ×©×ĳ ×Ĳ×ķ
Ġ×ĳ×Ĺ×Ļ ×Ļ×ł×ķ
×Ľ×ł ×ª×Ļ
×¢×ª ×Ļ×Ļ×Ŀ
Ġ×ľ×¤ ×ķ×¨×ķ×Ŀ
Ġ×ĳ×Ĳ ×£
×ŀ×©×ª ×ª
Ġ×ŀ×¢ ×ĳ×ĵ
×Ļ×¨ ×Ļ×ª
Ġ×¢×¨ ×ķ×¦×Ļ
×ĳ×¢ ×ĳ×¨
Ġ×ĳ×ŀ ×Ļ×ľ×ķ×Ļ
×¢ ×©×¨
Ġ×ĳ ×Ļ×Ľ×ķ×ľ
Ġ×Ľ×ª ×ĳ×ª
×¨ ×ķ×§
Ġ×Ĵ×¨×¢ ×Ļ×ł×Ļ
Ġ×ķ×© ×ľ×Ĳ
Ġ×¡×ķ×Ĵ ×Ļ×ķ×ª
Ġ×Ķ×§×Ļ×ĳ ×ķ×¦×Ļ×Ŀ
Ġ×©×Ĳ ×ĸ
×ķ×Ķ ×ľ×Ļ×Ŀ
×¢ ×ł
Ġ×Ļ×ĳ ×©×Ļ×Ŀ
Ġ×ª×§ ×ķ×¤×ķ×ª
Ġ×ŀ×¦ ×ķ×ª
Ġ×Ļ×Ķ ×Ĳ
Ġ×ľ×Ľ ×ĳ×ĵ
Ġ×Ĳ×ķ×ĺ×ķ×ĳ×ķ×¡ ×Ļ×Ŀ
Ġ×Ĺ×Ļ ×Ļ×Ĵ×ķ
out ube
Ġ×ĳ×ª ×ĳ×ł×Ļ×ª
Ġ×Ķ×¤ ×ĵ×¨
Ġ×ķ×ŀ ×ķ×ł
Ġ×§×ľ ×Ļ×ľ
Ġ×ľ×© ×ľ×ĺ×ķ×Ł
Ġ×ľ×Ķ×¢ ×ĳ×¨×ª
ĠP ark
Ġ×©×ĺ ×ķ×Ĺ
×Ĳ×ĳ ×Ł
×Ķ ×ŀ×§
Ġ×Ĺ ×Ļ×Ľ
ol og
Ġ199 7
Ġ×ŀ×Ļ×ľ ×ķ×Ł
×Ļ×¤×ľ ×ķ×ŀ×ĺ
Ġ×Ļ×ĸ ×ŀ×Ļ×Ŀ
×Ļ×ł ×Ĳ×Ļ
Ġ×ķ×Ĳ ×ŀ×ł×ķ×ª
Ġ×ķ×Ĺ×ľ×§ ×Ŀ
Ġ×¢ ×¨×Ľ×ķ
Ġ×ĳ×ł ×Ļ×Ł
Ġ×ŀ ×Ļ×ķ×Ł
Ġ×¦ ×ķ×¢
Ġ×©×ł×Ļ×ª ×ł×Ķ
Ġ×©×ľ ×Ľ×ľ
Ġ×ľ×§ ×¦
Ġ×ĳ ×ĺ×Ļ
Ġ×Ķ×¢×Ļ×ª×ķ×ł ×Ĳ×Ļ×Ŀ
×Ĳ×ĳ ×ĵ×ķ×ª
×¨×Ĵ ×Ļ×ľ×Ļ×Ŀ
Ġ×Ķ×Ĳ ×Ļ×©×ķ×¨
×ķ×Ĺ ×ľ×ª
Ġ×ĳ×ª ×Ļ×Ĳ×ķ×Ŀ
Ġ×¤×¨×¡ ×ķ×ŀ×Ļ×Ŀ
Ġ×ª ×Ļ×ŀ×Ł
ĠH P
×ŀ×Ļ×ĵ ×ª
Ġ×ŀ×¢×¨ ×Ļ×ļ
Ġ×ŀ×ł ×ķ×¨×Ķ
Ġ×ŀ×Ĺ×ĸ ×Ļ×§×Ķ
Ġ×ŀ×ª ×ŀ×©×ļ
Ġ×Ķ×ĳ×ľ×¢×ĵ ×Ļ×ª
Ġ×ŀ×ķ×© ×ļ
Ġ×Ķ×¢ ×¨×Ľ×ķ×ª
Ġ×¤ ×Ļ×ķ
Ġ×ŀ×ľ ×¤
Ġ×¤ ×Ļ×©
Ġ×¡×Ĵ ×ķ×¨×Ķ
c l
×¤ ×Ļ×¥
Ġ×Ĵ×¨ ×Ļ×Ł
âĢ¦ "
×ŀ×ľ×Ĳ ×ķ
×Ļ×ĺ ×ŀ×Ł
×Ĳ ×Ĳ
Ġ×Ķ×ĳ×¨ ×Ļ×ĺ×Ļ×Ŀ
×Ļ×ŀ ×ķ×ĳ×Ļ×¥
Ġ×©×ł ×ķ×¡
×ľ×ĺ ×¢×ł×ª
Ġ×ŀ×Ĵ×ĵ ×ľ×Ļ
Ġ×©×Ľ ×ķ×ľ×ł×ķ
Ġ×ł×ŀ ×Ľ×¨
Ġ×ŀ×¤ ×¢×Ŀ
Ġ×ľ×ĳ×ĵ ×Ļ×§×Ķ
Ġ×Ķ×¤×ľ ×©×ª
Ġ×Ķ×ŀ ×ľ×ķ×ķ×Ķ
Ġ×Ľ×ŀ ×ķ×Ķ×ķ
Ġ×ĵ ×ķ×ŀ×Ļ×ł
×Ļ×¨ ×ķ×Ļ×ķ×ª
Ġ×ĳ×¡ ×¤×ķ×¨×ĺ
ĠSt reet
ot e
Ġ×¢ ×¡
Ġ×Ķ×© ×ķ×ŀ×Ł
Ġ×ŀ×ķ×¡ ×ľ×ŀ×Ļ×Ŀ
Ġ×ł ×§×ĺ
Ġ×Ķ×Ļ ×Ļ×¢×ķ×¥
Ġ×¢×¦ ×Ķ
Ġ×¤×¢ ×ľ×ķ
Ġ×Ķ×ª×Ĺ×ľ ×ł×ķ
Ġ×©×ł ×Ľ×ª×ĳ×Ķ
Ġ×ŀ×ŀ×© ×ľ
×ĳ×ķ×ĵ ×ª×ķ
Ġ×Ķ×¢×¦ ×ķ×Ŀ
Ġ×Ķ×Ĺ×ª ×Ļ×ŀ×Ķ
Ġ×ŀ×©×ª ×ľ×ŀ×Ļ×Ŀ
Ġ×Ĳ×ĳ ×Ļ×ĸ×¨×Ļ
×¦×Ļ×ķ×ł ×ľ×Ļ
Ġ×ķ×ŀ×¢ ×¨×Ľ×ª
×Ķ×¨×¦ ×Ĳ×Ķ
×Ķ ×¢×ª
Ġ×¤×¨ ×Ĺ×Ļ
×Ĳ ×ķ×ľ×Ķ
Ġ×Ĵ×¨ ×£
ion ary
Ġ×Ķ×ŀ×ĳ ×ł×Ļ×Ŀ
Ġ×ĳ ×Ļ×ł×ķ×Ļ
Ġ×ŀ×ĵ ×ĳ×§×ķ×ª
Ġ×ª ×Ļ×ĳ×ķ×ª
Ġ×¦×¢ ×¦×ķ×¢
×ķ×¦ ×ķ
×Ķ×¤ ×¢×Ŀ
Ġ×©×ł×ķ×ª ×Ł
I A
Ġ×Ļ×ķ×§×¨×ª ×Ļ×Ļ×Ŀ
Ġ×Ĳ×Ļ ×Ļ×ľ×ª
Ġ×ľ×Ĺ×ľ ×ľ
×¤×ª ×Ķ
Ġ×Ķ×ª ×Ļ×Ĳ×ķ×¨
Ġ×©×ĳ×¡ ×ķ×¤×ķ
Ġ×¦ ×ŀ×ĵ
Ġ×Ķ×©×ĳ×ķ×¢ ×Ļ
Ġ×ĵ ×¨×Ļ
Ġ×ľ×ĺ ×ķ×ĳ
Ġ×ĳ×ķ×¢ ×ĸ
Ġ×Ĳ×Ļ×ª ×Ľ×Ŀ
Ġ×¤×ķ×ª ×Ĺ×Ļ×Ŀ
Ġ×Ķ×Ĳ ×ķ×¡×ĺ×¨
Ġ×ĳ×Ĺ ×ĸ×§×ª
Ġ×ŀ×ŀ ×Ĳ
×ķ×ŀ ×¦×Ķ
Ġ×¨ ×Ĳ×ª×Ķ
Ġ×ĳ×¡ ×ŀ×Ļ×Ŀ
Ġ×ĳ×ľ ×Ļ×ľ
Ġ×ŀ ×Ļ×ł×Ļ×Ŀ
Ġ×Ĳ×§×¡ ×¤×¨×¡
×ľ×Ĺ ×ŀ×ķ×ª
×Ĺ×§ ×ª
Ġ×ľ×Ļ×ŀ×ķ×ĵ ×Ļ×ķ
Ġ×Ļ×¦×¨ ×Ł
Ġ×ľ×Ķ×ķ×¨ ×ĵ×ª
Ġ×©×ĳ×ķ×¢ ×Ļ
Ġ×ķ×Ĳ ×Ļ×ł×ĺ
×ĸ×ŀ ×Ļ×ł×ķ
8 1
Ġ×ŀ×ķ×ª ×Ĵ×Ļ×Ŀ
×¡ ×ŀ×Ł
Ġ×ĳ×ķ×Ĺ ×Ł
Ġ×ŀ×ĸ ×ķ×Ķ×Ķ
Ġ×§×¨ ×ĵ×Ļ×ĺ
Ġ×ĳ×ķ×ľ ×ĺ×Ļ×Ŀ
×Ķ ×©×¨
Ġ×Ķ×ŀ×¢×ķ×ĵ ×Ľ×ł×Ļ×Ŀ
Ġ×¢ ×ĳ×Ķ
Ġ×ª ×ķ×ĳ×ł×ķ×ª
Ġ×ľ×©×Ļ×¨×ķ×ª ×Ļ
Ġ×¤×ľ ×ĵ×Ķ
Ġ×ĳ×Ļ ×Ļ×©×ķ×ĳ
Ġ×ľ×Ķ×¡×ª ×ķ×ĳ×ĳ
Ġ×ĸ×Ļ×ľ ×ĳ×¨
×Ľ ×Ļ×ķ×ķ×Ł
Ġ×¦ ×Ĺ
Ġ×Ķ×Ľ×ķ×ª ×ĳ×Ļ×Ŀ
×¨ ×¢×ķ×ª
×§×¨ ×ķ×ª
Ġ×Ĳ×¤ ×Ļ×Ķ
Ġ×ķ×¤×¨ ×¡
Ġ×Ķ×¢×¡×§ ×Ļ×Ļ×Ŀ
Ġ×Ķ×Ĳ ×ķ×Ļ×¨
Ġ×ł ×Ļ×ĵ
Ġ×Ļ ×Ļ×¤
Ġ×ł×ķ×ª ×¨×Ķ
S D
×Ļ×ķ×ª ×¨×Ļ×Ŀ
Ġ×ĳ×©×ł×ª ×Ļ×Ļ×Ŀ
Ġ×ľ×ĳ×¢ ×Ļ×Ķ
Ġ×¢ ×Ļ×ł
Ġ×ł×Ĵ ×Ļ×¢
Ġ×©×Ĳ ×ŀ×¨×ķ
Ġ×Ľ×ķ×ª ×ł×Ķ
Ġ×ŀ×§ ×ł×Ļ×ķ×Ł
Ġ×Ļ×¨ ×ķ×©×Ķ
Ġ×Ļ ×Ļ×ł×ķ×ª
×§ ×ķ×¡
Ġ×¢×ĳ ×ĵ×Ķ
Ġ×Ľ×© ×¢×Ķ
×ķ×© ×©
ĠâĨ Ĵ
Ġ×¤ ×Ĵ×Ļ×©×ª
Ġ×ł×¢ ×¨×Ľ×Ķ
Ġ×¦ ×Ļ×¤×ķ×¨×Ļ×Ŀ
Ġ×ŀ×ĳ ×ª×Ļ
Ġ×ª×ķ×¤ ×¢×ª
×Ķ×© ×ł×Ķ
Ġ×ķ×Ĺ ×ĵ×©
Ġ×Ķ×ª ×¦×ķ×Ĵ×Ķ
×ķ×ĺ ×Ļ×Ļ×Ŀ
Ġ×¤ ×ķ×¡×§
×¤×¡ ×Ļ
ĠBe ach
Ġ×Ķ×¡ ×Ļ×ł×Ļ
Ġ×©×ª ×¦
Ġg irl
Ġ×ķ×Ľ ×ķ×ª
×ŀ×§ ×ķ×ľ
Ġ×ª ×Ļ×ĳ×ķ×ľ
Ġ×ķ×ľ×Ķ ×ĳ×Ļ×Ĳ
Ġ×©×ĳ ×Ļ×¢×ķ×ª
Ġ×Ĳ×Ļ ×ķ×ŀ×Ļ×Ŀ
Ġ×Ķ×ŀ×¡×ķ×¨×ª ×Ļ×ª
Ġ×ĵ ×Ĳ×ĸ
Ġ×ŀ×ĺ×¢ ×ŀ×Ķ
Ġ×Ķ×ŀ×ŀ×ľ ×Ľ×Ķ
Ġ×Ķ×©×ķ×ª ×¤×Ļ×Ŀ
Ġ×ľ×ŀ ×ĳ×ł×Ķ
Ġ×ĸ×¨ ×Ļ×ŀ×ª
Ġ×Ķ×¢ ×§
Ġ×ŀ×¦ ×ķ×Ļ×Ļ×Ŀ
Ġ×ĺ×ĳ×¢ ×ķ×ł×Ļ
Ġ×§ ×¡×ĺ
Ġ×ķ×ľ×Ĳ ×¤×©×¨
Ġ×Ĳ×¡ ×Ļ
Ġ×ł×© ×ķ×Ĳ×Ķ
Ġ×Ķ×© ×Ĺ×¨
Ġ×Ķ×ķ×¤ ×Ļ×¢×Ķ
Ġ×Ķ×¤ ×Ļ×¦×ķ×Ļ
Ġ×Ķ×ŀ×¢×¨ ×¢×¨×ª
Ġ×ŀ×ĸ ×Ľ×Ļ×¨×Ķ
×ĳ×ķ×¨ ×Ĵ×¨
ĠC ol
Ġ×¤×¨ ×ĵ×¡
×ķ×ľ×Ĺ ×ł×ķ×ª
Ġ×ķ×Ļ ×ķ×¤×Ļ
×ľ×§ ×ŀ×Ł
Ġ×§ ×Ļ×¡×¨
Ġ×ĳ×© ×Ļ×ķ×ķ×§
Ġ×Ĵ ×Ļ×©×ķ×¨
×Ļ×¤ ×ķ×§
Ġ×Ķ×¨×Ĺ ×ĳ×ª
Ġ×Ķ×ŀ×¢ ×ŀ×ĵ
Ġ×ĵ×Ļ×ķ ×ķ×Ļ×ĵ
Ġ×Ĺ×ľ×§ ×Ł
Ġ×Ķ×Ĳ ×ĳ×ķ×ª
×ĺ ×§×¡
Ġ×¡ ×Ĵ×¨
×Ķ×¦ ×Ĵ×ª
Ġ×ł×Ļ×© ×ķ×Ĳ×Ļ×Ŀ
Ġ×ł×©×Ľ ×Ĺ×ª
Ġ1 10
Ġ×Ķ×ĸ ×ķ×Ĵ×Ļ×ķ×ª
Ġ×Ķ×ŀ ×¨×ĵ
×Ļ×¦ ×Ł
×Ķ×¦ ×¢×ª
Ġ×ł×¤ ×ľ×Ķ
Ġ×ĳ ×Ļ×¥
Ġ×ª×©×Ľ ×Ĺ×ķ
Ġ×ĳ×© ×Ļ×ł×ķ×Ļ
Ġ×ķ×ŀ ×ĵ×Ļ×Ķ
Ġ×ľ×Ķ×©×ª ×Ĺ×¨×¨
×Ļ×ĺ ×ŀ×Ļ×Ł
Ġ×©×Ľ ×ķ×ł×Ķ
Ġ×ķ×ĳ×Ļ×§ ×©
he d
Ġ×¦ ×Ļ×¤×ķ×Ļ
Ġ×§×¤×ľ ×Ł
×©×Ľ ×Ĺ×ª×Ļ
Ġ×Ķ×¡ ×§×¨
Ġ×ĳ×¢ ×Ļ×Ļ×¨×Ķ
Ġ×Ķ×¡×Ľ ×Ļ×ŀ×ķ
Ġ×Ķ×ł ×¨×Ļ
Ġ×ŀ×Ĺ ×ŀ×Ĳ×ķ×ª
Ġ×ĳ×Ķ ×ķ×ĵ
Ġ×Ľ×© ×ł×ª×Ļ×Ļ×Ŀ
Ġ×¤×ķ×ª ×Ĺ×ª
Ġ×©×§ ×ĺ×Ķ
Ġ×¢×ĳ ×ĵ×ķ
Ġ×Ĳ×ŀ×Ķ ×ķ×ª
Ġ×ķ×Ĺ ×Ĵ
Ġ×ĸ ×Ļ×§
Ġ×ĳ×Ļ×¢ ×Ļ×ľ×ķ×ª
Ġ×ł ×¨×Ĳ×ķ×ª
Ġ×© ×ĵ×ķ×ķ×§×Ĳ
Ġ×¨ ×Ļ×Ĵ
Ġ×ĸ ×ķ×ľ×ķ×ª
Ġ×ŀ×Ļ ×Ļ×ĳ×©
it al
Ġ×ĳ×Ĳ ×¦
Ġ×Ķ×ĳ ×Ķ×Ļ×¨
Ġ×Ĺ×ĸ×§ ×ķ×ª
Ġ×Ķ×ķ×ĵ ×Ļ×¢×ķ
Ġ×ķ×ĳ×¢ ×§×ĳ×ķ×ª
Ġ×©×ł×§ ×ĳ×¢×ķ
×Ļ×ĺ ×ķ×ĺ×Ļ×Ŀ
M P
Ġ×ķ×¦×¨×Ľ ×ł×ķ×ª
Ġ×ŀ×ĺ ×ķ×¤
Ġ×ķ×¤×¨ ×¡×ķ×Ŀ
Ġ×ĳ×Ľ ×ĵ×ķ×¨×¡×ľ
Ġ×ĳ×ł×Ļ ×Ļ×ł×Ļ×Ŀ
Ġ×¢×ľ ×Ļ×ķ×ª
Ġ×ķ×Ķ×Ĺ ×ĳ×¨×Ķ
Ġ×©×ŀ ×ĺ
×ŀ×ķ×§ ×ĵ
Ġ×ŀ×ĺ ×ķ×¡×Ļ
×¡×Ĵ ×Ļ×¨×ª
×Ļ×ĳ ×¡×§×Ļ
Ġ×¤×¨ ×Ļ×¦×ª
Ġ×ĳ×©×Ļ×¨×ķ×ª ×Ļ
Ġ×Ķ×ª×Ĵ ×ľ×Ķ
Ġ×Ķ×ª×¨×Ĺ ×©
×Ķ ×Ļ×Ľ×Ł
Ġ×©×Ĳ×Ļ×ł ×ļ
Ġ×©×Ļ ×Ļ×Ľ×Ļ×Ŀ
m p
×¤ ×ľ×ķ×ª
Ġ×Ķ×ŀ×Ķ ×Ļ×¨×Ķ
Ġ×¦ ×Ļ×ŀ×¨
Ġ×ľ×¨×© ×ķ×Ļ×ķ×ª
Ġ×ĳ×ĳ ×ĺ×Ł
Ġ×Ķ×ĳ×Ĺ ×Ļ×ł×Ķ
Ġ×Ķ×Ļ ×ķ×ŀ×Ļ×ķ×Ŀ
Ġ×©×ĺ ×ķ×Ļ×ķ×ª
Ġ×ĳ×Ĳ ×©×§×ľ×ķ×Ł
×ĳ×ĵ ×Ļ×§×ķ×ª
Ġ×§×ķ×¨ ×Ł
Ġ×Ĳ ×Ļ×ĳ×¨
Ġ×ŀ×Ĳ ×ķ×©×¨×ª
×ŀ ×Ĺ×¨
Ġ×ķ×¤×¢ ×Ļ×ľ×ķ×ª
ubl ic
×ł×§ ×¦×Ļ×ķ×ª
Ġ×Ķ×ŀ ×ķ×Ĵ×Ł
Ġ×¢×ª×Ļ×ĵ ×Ļ×Ļ×Ŀ
Ġ×ŀ×ŀ ×ķ×§×ĵ
Ġ×Ķ×ķ×¡ ×Ļ×¤×Ķ
Ġ×ĳ×¢ ×ł×Ł
" [
Ġ×ľ×Ķ×ª×¨ ×Ĺ×©
Ġ×ĳ×§×¨ ×Ļ×Ĳ×Ķ
Ġ×Ķ×¢×Ļ×§×¨ ×Ļ×ķ×ª
Ġ×¡ ×¢×¨
Ġ×Ķ×ª ×ķ×ĵ×¢×Ķ
Ġ×ŀ×ĵ×¨ ×ķ×Ŀ
×¨ ×¤×ķ×Ĳ×ª
Ġ×ĳ×ŀ ×Ĵ×¢
Ġ×Ķ×¦ ×ķ×¤×Ķ
×ķ×Ĵ×¨ ×¤×Ļ×ª
Ġ×ŀ×ľ ×¤×ł×Ļ
Ġ×Ķ×Ķ×ķ×¨ ×Ĳ×ķ×ª
Ġ×Ķ×Ĳ×Ļ×¨ ×ķ×¤×Ļ×ª
Ġ×Ķ×ŀ×ł ×ķ×Ĺ×Ķ
Ġ×Ļ×ĵ ×ł×Ļ×ª
Ġ×Ķ×Ĺ×Ļ ×ķ×ĳ
×ĸ×¨×ª ×ķ
Ġ×ĵ×Ļ×ķ ×ķ×Ĺ×Ļ×Ŀ
Ġ×ŀ×Ļ×Ļ×¦ ×¨×Ļ×Ŀ
Ġ×ķ×ľ ×Ļ×ķ×ķ×Ļ
Ġ×©×Ĳ ×ķ×ª×Ŀ
×Ķ×¦ ×ĺ×¨×£
ou nt
Ġ×¢×ķ×ľ ×ŀ×ķ×ª
Ġ×Ķ×ŀ ×ĺ×¨
×Ķ ×ľ×ĳ
×ķ×¨ ×ĵ×Ļ×Ŀ
×¤ ×©×ķ×ª
Ġ×ŀ×Ĺ×ľ ×Ļ×ĺ×Ļ×Ŀ
Ġp l
×Ķ×§×ĺ ×ł×ª
Ġ×ľ×Ĳ ×ª
Ġ×ķ×ª ×¤
Ġ×©×Ĺ ×©
×ł×ķ ×Ļ×Ķ
Ġ×ľ×Ľ ×ķ
Ġ×ķ×© ×ľ×Ĺ
Ġ×ĳ×ķ×ĵ ×§×Ļ×Ŀ
Ġ×ŀ×Ĳ ×ł×Ĵ×ľ×Ļ×ª
Ġ×ł×ķ×¡ ×ĵ×Ķ
Ġ×Ķ×Ĵ ×Ļ×Ĳ
Ġ×Ķ×ŀ×ĳ×ķ×§ ×©×ª
Ġ×¡ ×¤×Ķ
E W
Ġ×Ĳ×¡ ×¤×§×Ķ
Ġ×©×ĳ ×Ļ×ĺ
Ġ×ĺ ×Ļ×¢×ķ×Ł
×Ĵ ×ŀ×Ļ×Ŀ
Ġ×Ĵ×ľ ×Ļ×ĵ×Ķ
g ed
Ġ×ķ×¢ ×¨×ĳ
Ġ×Ļ×¦ ×Ļ×¨×ª×Ļ
×ŀ ×ŀ×Ķ
Ġ×Ķ×¤×¡ ×Ļ×Ľ×ķ×ľ×ķ×Ĵ
Ġ×ĺ×¢ ×Ļ×ŀ×ķ×ª
Ġ×Ķ×ŀ×¡ ×¢×ĵ×ķ×ª
×Ļ×Ľ×ª ×Ķ
×§ ×ł×ķ
Ġ×ľ×Ķ ×Ļ×ĵ
Ġ×Ľ×¡ ×¤×ª
Ġ×Ķ×ĳ×¨ ×Ľ×Ķ
×ª ×Ļ×Ĳ×ĺ×¨×ķ×Ł
Ġ×ķ×Ļ ×Ļ×¢×ķ×¥
Ġ×Ķ×ĸ ×ķ×Ľ×Ķ
Ġ×Ķ×Ķ ×ķ×ĳ×ľ×Ķ
Ġ×Ķ×¤ ×ķ×¤×ķ×ľ
Ġ×ĵ×¨ ×ŀ×ĺ×Ļ
Ġ×¤×§ ×Ļ×ĵ
Ġ×¢×¨ ×ķ×¦×Ļ×Ŀ
Ġ×ŀ×ŀ ×¡×¤×¨
Ġ×ľ ×ķ×ĺ
×¡×ĺ ×Ļ×§
×Ķ ×ķ×¦×Ĳ×ª
Ġ×Ķ×ķ×¢ ×ĳ×¨
Ġ×©×ķ×Ĳ ×ľ×ª
Ġ×ľ×Ľ ×¨
Ġ×©×ł×¢ ×¨×Ľ×Ķ
Ġ×ľ×Ľ ×ķ×ľ
×Ĵ ×ķ×Ŀ
Ġ×ĸ ×ķ×¢
×ł×¡ ×Ļ×ĳ×ķ×ª
Ġ×Ķ×ŀ×ª ×Ļ×Ŀ
Ġ×ĳ×©×ľ ×ľ
Ġ×Ķ×Ĺ×ĳ×¨×ª ×Ļ×Ļ×Ŀ
Ġ×Ĺ×ĵ ×Ļ×¨×Ķ
Ġ×Ĳ×Ļ×Ľ ×©×Ķ×ķ
×ł×Ļ ×Ļ×ł×ª
Ġ×Ķ×¤ ×ł×Ļ×Ļ×Ķ
×Ķ ×Ľ×¨
Ġ×ĳ×ł ×Ļ×¡
×Ķ×§ ×©×¨
Ġ×¢×ŀ ×Ŀ
M D
Ġ×Ķ×§×ĵ ×ķ×©×Ļ×Ŀ
Ġ×ķ×ĳ ×©×ľ
Ġ×© ×¨×Ĳ×Ķ
Ġ×ŀ×Ķ ×ŀ×§×¨×Ļ×Ŀ
Ġ×ķ×ŀ ×¨×ª
Ġp h
Ġ×ľ×ĵ×¨ ×ķ×Ŀ
Ġ×¢ ×Ĵ×ķ×ľ
×¡×ĺ ×ķ×Ł
Ġ×ŀ×ķ×© ×Ĵ×Ļ×Ŀ
Ġ×ķ×Ķ ×ª×¨
Ġ×Ĳ×ľ ×¢×ĸ×¨
Ġ×ľ×ŀ ×ŀ×Ł
Ġ×¡×ķ×ľ ×ľ×Ķ
ing s
Ġ×ŀ×¦ ×ĺ×¨×£
Ġ×Ķ×¡ ×Ļ×¨
Ġ×©×ľ ×¢
Ġ×ĳ×¤ ×ł×Ļ×ł×ķ
Ġ×©×¢ ×ľ×ķ
** *
Ġ×ķ×¨ ×ķ×¦×Ķ
Ġ×ķ×Ľ×ª ×ķ×¦×Ĳ×Ķ
Ġ×Ķ×ĵ×¨ ×Ļ×©×Ķ
Ġ ×³
Ġ×ľ×Ľ ×¡×ķ×ª
Ġ×ĳ×Ľ ×ķ×¨×Ķ
Ġ×ľ×¤ ×ķ×¨
Ö ĳ
Ġ×§ ×Ļ×ĵ×ķ×©
Ġ×©×Ĺ ×Ļ×Ķ
Ġ×Ķ×Ķ×¡ ×ĵ×¨
Ġ×ŀ×¡ ×ķ×Ľ×ł×ª
Ġ×Ļ×ķ×ĸ ×ŀ×Ķ
Ġ×Ķ×Ĳ×ª ×Ĵ×¨
Ġ×Ķ×ŀ×Ĵ ×Ļ×¢
×Ļ×§ ×Ļ×¤×ĵ×Ļ×Ķ
Ġ×ķ×Ĵ ×ķ
×ķ×¤×ķ×ľ×¨ ×Ļ×ª
Ġ×Ķ×Ķ ×ķ×¤×¢×ķ×ª
Ġ×ª×¨ ×ķ×ŀ×ª
Ġ×ŀ×ĳ ×ķ×ĺ
Ġ×ŀ×ŀ ×ķ×ŀ×Ł
Ġ×Ķ×Ļ×ĺ×ľ ×¨
×Ĺ ×Ĵ×Ļ×Ŀ
Ġ×ŀ×Ķ ×¢×Ļ×¨
Ġ×ĳ×¢ ×Ļ×ł×Ļ×ķ
Ġ×ŀ×ł×¢ ×ķ×ľ×Ł
Ġ×¦×ĵ ×Ļ×§×Ļ×Ŀ
Ġ×ķ×¨ ×ĵ×Ļ×Ŀ
Ġ×ŀ×Ĺ ×©×ĳ×ķ×Ł
Ġ×Ķ×ŀ×Ĺ×©×ĳ ×ķ×ª
Ġ×Ķ×©×ª ×Ł
×ĳ×¨ ×¦
×Ĵ ×ķ×ĵ×ľ
×Ļ×Ķ ×ķ×ĵ×Ļ×Ŀ
Ġ×ŀ×ĳ×ĺ ×Ļ×Ĺ×Ļ×Ŀ
Ġ×ľ×Ķ×©×ª ×ľ×ĺ
Ġ×¡ ×Ļ×ł×ĺ
Ð °
Ġ×Ķ×ª ×Ľ×ķ×ł×ķ×ª
9 00
l oad
×ľ×ĳ ×ķ×ª
Ġ×¡ ×ŀ×Ļ
Ġ×¤ ×©×¨×ķ×ª
Ġ×Ķ×©×ŀ ×ķ×ł×Ļ×Ŀ
Ġ×Ķ×Ĵ×ķ×ľ ×©
Ġ×ķ×ĳ ×ŀ×Ĺ×Ļ×¨×Ļ×Ŀ
Ġ×ĳ×ľ ×Ļ×ŀ×ķ×ĵ
×¨×ª ×ķ×¨
Ġ×ĳ×©×Ļ×¨×ķ×ª ×Ļ×Ŀ
×Ĵ ×ķ×Ĵ×ľ
Ġ×ľ×Ķ ×ŀ×¦×Ļ×Ĳ
×ľ×§ ×ľ
Ġ×Ļ×¦×¨ ×ł×Ļ×Ŀ
Ġ×¨×ķ ×ķ×§×ķ×ª
Ġ×Ķ×Ĺ ×ł×ķ×Ļ×ķ×ª
Ġ×Ķ×ł ×Ľ×ķ×ł×Ļ×Ŀ
×¨ ×Ł
Ġ×Ļ ×ķ×ł×Ļ×Ŀ
Ġ×ĳ×¢ ×©×¨×ķ×ª
Ġ×Ķ×Ĳ×¦ ×ĳ×¢
Ġ×ĵ ×ķ×§×Ĳ
Ġ×¤ ×Ļ×ĺ×ķ×¨×Ļ×Ŀ
Ġ×Ķ×Ĵ ×ľ×Ŀ
×ķ×Ĺ ×§×Ļ×Ŀ
Ġ×ľ×ª ×¨×Ĵ×Ŀ
Ġ×Ķ×¢ ×Ľ×©
×¨ ×ª×Ļ
ĠP C
Ġ×ĵ ×ł×Ł
Ġ×¨ ×ķ×¦×ķ×ª
Ġ×ª×Ĵ ×Ļ×ĵ
Ġ×ĳ×ľ ×Ļ×ŀ×ķ×ĵ×Ļ×Ŀ
Ġ×ª×ķ×¡ ×¤×Ļ
×ĵ ×ķ×§
×ĳ×ª×Ĺ ×Ļ×ľ×ª
×ŀ ×ĺ×Ļ×Ŀ
Ġ×ĳ×¤×¨ ×©×Ķ
Ġ×Ķ×Ķ ×Ľ×ł×¡×Ķ
Ġ×©×ĳ ×Ļ×ł×Ļ×Ķ×Ŀ
×ĳ×¨ ×ķ×Ł
Ġ×ŀ×¡×Ľ ×Ļ×ŀ×Ķ
Ġ×©×ł ×Ĳ×Ķ
Ġ×ŀ×ķ×¦ ×Ĵ
Ġ×¡×Ļ×ŀ ×ł×Ļ×Ķ
×Ĳ ×ŀ×ķ×¨
×Ķ ×ķ×¦×Ĳ×Ķ
Ġ×ŀ×Ļ×¨ ×ķ×©×ľ×Ļ×Ŀ
Ġ×ŀ ×ķ×ł×Ļ×ª
×ĳ×ĵ ×Ļ×§×Ķ
Ġ×ŀ×ķ×¨ ×Ĺ×ĳ
×ĸ×ŀ ×ķ×Ł
×ľ×ĺ×¤×ķ×¨ ×ŀ×ķ×ª
Ġ×Ļ×Ļ×© ×ķ×ŀ×Ļ×Ŀ
Ġ×ĳ×¦ ×ķ×ŀ×ª
Ġ×Ķ×ŀ×Ļ ×Ļ×¦
Ġ×ľ×Ķ×ª×§ ×¨×ĳ
Ġ×ĳ×ł ×ķ×Ľ×Ĺ×ķ×ª
Ġ×Ľ×¨ ×ķ×ļ
Ġ×©×ĳ ×Ļ×¦×¢
Ġ×ľ×ŀ×¢ ×¨×Ľ×ķ×ª
Ġ×ķ×Ĳ ×Ł
Ġ×§ ×ķ×ķ
Ġ×© ×ķ×ĳ×¨
Ġ×¤×ľ ×Ļ×ĺ×Ļ×Ŀ
ak o
Ġ7 00
Ġ×ĵ ×ĳ×§
Ġ×Ķ×Ĳ ×Ĺ×ķ×¨
×¤ ×Ļ×ľ×ĵ
Ġ×Ļ×ķ×¢ ×¦×Ļ×Ŀ
×ľ ×ķ×Ļ
Ġ×ĳ×¡×ĺ ×ķ×ĵ×Ļ×ķ
×Ķ ×ŀ×¨
×¤ ×ĺ×¨
ĠI N
×¢ ×¨×Ļ
Ġw ith
Ġ×Ķ×¦×¤ ×ķ×ł×Ļ×ª
Ġ×ª×ķ×Ľ ×ľ×Ļ
Ġ×Ķ×ŀ×ĸ×ķ ×Ļ×Ł
Ġ×Ķ×§×ķ×ĵ ×ŀ×ķ×ª
Ġ×¡×¤ ×ķ×¨×ķ×ª
Ġ05 4
Ġ×ŀ×© ×ķ×Ĺ×¨
ic a
Ġ×Ķ×ŀ×© ×ľ
Ġ×¡×Ļ×¤ ×ķ×¨×Ķ
Ġ o
Ġ×ķ×Ĳ ×ķ×Ľ×ľ
Ġ×Ķ×ŀ ×ķ×©×ĳ
Ġ×©×ľ ×©
Ġ×ŀ×Ĳ×¤×©×¨ ×ķ×ª
Ġ×ķ×ŀ×ĵ ×Ļ×ł×Ļ×ķ×ª
Ġ×ķ×Ķ ×ķ×ľ
Ġ×ľ×Ķ×ª ×ł×¡×ķ×ª
×Ĳ×ĳ×ľ ×ĺ
Ġ×¤×¨×¡ ×ŀ×Ķ
Ġ×ķ×Ľ ×ł×¨×Ĳ×Ķ
Ġ×ķ×ĳ×¢ ×¦×Ŀ
Ġ×ĳ×¡ ×Ļ×ŀ×Ł
Ġ×ĳ×§ ×Ļ×ĵ×ķ×Ŀ
Ġ×Ķ×¤×¡ ×Ļ×§×Ķ
Ġ×ŀ×© ×ľ×Ļ×Ŀ
×ĵ×ł ×Ļ×Ĳ×ľ
Ġ×Ķ×Ĳ ×ĳ×Ł
Ġ×Ķ×¤ ×Ĺ
Ġ×Ĳ ×¢×©×Ķ
or s
Ġ×ł×¢ ×¦×¨×ķ
×ŀ×¡ ×ĵ
Ġ×ľ×¤ ×ł×Ļ×ł×ķ
Ġ×ŀ×ĺ×¢ ×ŀ×ķ
×Ļ×ł×ķ×§ ×¡
Ġ×ĳ×ĵ ×¤×ĵ×¤×Ł
Ġ×ķ×Ľ×ľ ×ľ
Ġ×ĳ×§×ķ×ľ ×ł×ķ×¢
Ġ×¡ ×Ŀ
Ġ×Ķ×¢ ×ĸ
Ġ×Ķ×ŀ×ķ×¦ ×¢×Ļ×Ŀ
Ġ×ľ×ŀ ×¤×Ĵ×©
Ġ×Ķ×ķ×¤ ×Ļ×¢×ķ
Ġ×¨×ķ×ĳ ×Ļ×Ł
Ġ×¢×ĵ ×Ľ×ł×Ļ
Ġ×ľ×© ×Ľ
Ġ×Ļ×¤ ×¨
Ġ×Ĵ×¨ ×¤×Ļ×§×Ķ
Ġ×Ķ×ł ×Ļ×Ĺ
il ity
Ġ×¢ ×Ļ×ĵ×ķ×ĵ
an ce
×ŀ×Ķ ×Ŀ
Ġ×Ķ×ĳ×¡×Ļ×¡ ×Ļ×ª
Ġ×ĳ×Ĺ ×ĵ×¨×Ķ
Ġ×©×ŀ×ª×Ĺ ×Ļ×ľ×Ķ
Ġ×Ķ×ĳ×Ļ×§ ×ķ×©
×¤ ×Ŀ
Ġ×ĳ×Ĳ ×ŀ×ł×ķ×ª
Ġ×ĳ×ĵ ×Ļ×Ł
×ĵ ×Ļ×¨×ª
Ġ×¨ ×¦×ª×Ķ
Ġ×Ķ×ŀ×¦ ×¨×Ļ
Ġ×Ĵ ×ĺ
Ġ×ĺ×Ĺ ×Ļ×ł×Ķ
×¡ ×Ĳ×¤
Ġ×Ķ×¦ ×ķ
Ġ×ķ×¢ ×ª
×Ķ×Ĳ ×ĵ×Ŀ
Ġ×Ķ×¡ ×§
ight s
m a
Ġ×ĳ×© ×ŀ×Ļ×Ŀ
Ġ×ľ×© ×¢×ķ×ª
Ġ×©×Ĳ ×Ķ
Ġ×Ķ ×Ļ×ľ×Ķ
Ġ×ĳ×Ĳ ×§
Ġ×Ķ×¨×Ľ ×ķ×©
Ġ×ŀ×ª ×ł×Ķ×ľ
Ġ×©×Ķ ×ķ×ľ×ļ
Ġ×ķ×ĵ ×¨×Ľ×Ļ
Ġ×ł×ŀ×¦ ×Ĳ×Ķ
×ł ×Ļ×ł×Ĵ
Ġ×ĳ×Ĵ ×Ļ×©×Ķ
Ġ×¨×Ĳ×© ×ķ×ł×Ļ×ª
Ġ×Ĳ×Ĺ ×¨×Ĳ×Ļ×Ŀ
Ġ×ľ×Ķ ×§×ĵ×Ļ×©
Ġ×©×ł ×Ĺ×©×ĳ
er t
Ġ×Ĺ×¡ ×Ļ×ĵ
×ª ×Ľ×ł×Ļ×ķ×ª
Ġ×Ķ×¨×©×ª ×ķ×ª
×ŀ×ª ×ł×ķ×ª
×Ļ×Ĳ×ľ ×ľ×Ķ
Ġ×ĵ×Ĺ ×ķ×£
ap p
Ġ×Ĳ×¡ ×ĵ
×Ļ×Ĳ ×ŀ×Ļ
Ġ×Ķ×©×ĳ ×Ļ×¢×Ļ
Ġ×ĳ×¢ ×ĳ×Ļ×¨×Ķ
= =
Ġ×ł×Ķ ×ł×ķ
Ġ×Ķ×§ ×¦×ĳ
ul l
Ġ×Ľ ×¨×Ĳ×©
×ª×Ĺ ×ł×ª
Ġ×Ķ×¢ ×ķ×¡×§×ª
Ġ×ŀ×ª ×Ľ
×ŀ×Ĺ ×ĳ×¨
U T
ad e
×ł×Ĵ ×ķ×ľ
ĠPl ay
Ġ×Ķ×¦×ľ×Ĺ ×ł×ķ
Ġ×ĳ×ŀ×¢ ×ĳ×¨
Ġ×¦×Ļ ×ķ×¨×Ļ×Ŀ
Ġ×ĳ×Ľ ×ĵ×ķ×¨
Ġ×¡ ×¨×ĳ
Ġ×© ×¨×ĳ
Ġ×Ļ×Ķ×ľ ×ķ×Ŀ
Ġ×Ĳ×ķ×¨×Ĵ ×Ļ×Ķ
9 1
Ġ×ĳ×¢ ×ł
Ġ×ŀ×Ĺ×ķ ×Ļ×ĳ×ķ×ª
ĠE d
Ġ×ķ×ŀ×¦ ×Ļ×¢
ent al
Ġ×ĸ×ľ ×ŀ×Ł
Ġ×Ĳ×ķ×¨ ×Ļ×ª
Ġ×Ļ ×ķ×ĳ
Ġ×ĳ×Ĺ ×ķ×ĸ×Ķ
Ġ al
Ġ×¤×¡ ×ľ
Ġ×Ķ×ĵ ×ľ×§×ª
Ġ×©×ł×ª ×Ļ×ª
Ġ×©×Ľ ×Ĺ×ª×Ļ
Ġ×¨ ×ķ×ľ
Ġ×Ķ×ĳ ×ķ×¨×Ĳ
×ķ×Ĺ ×ĵ×Ļ×Ŀ
Ġ×¨ ×Ļ×ĳ×ľ×Ļ×Ł
Ġ×Ķ×Ĺ×ľ ×ķ×§×Ķ
×ł ×ĳ×Ĺ×¨×ª
Ġ×Ķ×Ĺ ×Ľ×ŀ×Ķ
a ut
Ġ×ľ×ĸ ×Ļ×Ļ×Ł
Ġ×ŀ×¢×ķ×¨ ×ĳ×ª
×ľ ×Ļ×ł×Ĵ
×ķ×Ľ ×©
Ġ×Ĺ×ĸ ×Ļ×ª
u y
ĠA m
Ġ×Ķ×Ļ×Ļ×Ĺ ×ķ×ĵ×Ļ×ª
Ġ×ŀ×¤ ×ķ×Ĳ×¨
×ŀ ×Ļ×Ľ×ľ
Ġ7 8
×ŀ×ª ×ļ
Ġ×§×¨ ×ŀ×Ļ×§×Ķ
Ġ×ĳ ×ľ×ĺ
Ġ×Ļ×ŀ×© ×Ļ×Ľ×ķ
Ġ×§×ł ×ĵ×Ļ
Ġ×Ķ×ķ×Ľ ×Ļ×Ĺ
×Ĳ×¨ ×Ļ×Ķ
Ġ×Ķ×ŀ×ĵ×¨ ×Ĵ×ķ×ª
Ġ×ľ×Ľ×ľ ×ĳ×Ļ×Ŀ
Ġ×ª ×Ľ×ľ×Ļ×ª
×Ĵ ×ª×Ļ
Ġ×ľ×Ĳ ×©
×Ķ ×ľ×Ķ
Ġ×©×ĳ ×Ĵ
Ġ×Ļ×¨ ×ķ×©×ľ×ŀ×Ļ
Ġ×ŀ×ĺ ×ķ×¤×ľ
Ġ×ľ×¦ ×ķ×ŀ×ª
Ġ×Ķ×ķ×ĳ ×ľ×ª
×ŀ ×ķ×ł×ĵ
×Ļ×Ľ ×ª×ķ
Ġ×ĳ×ł ×Ĳ×Ļ
Ġ×Ķ×¡ ×ķ×¨×Ļ
Ġ×ŀ×Ļ×ľ ×¨
Ġ×Ķ×Ķ ×ł
Ġ×ĵ ×Ļ×ĳ
Ġ×Ķ×© ×¢
Ġ×ķ×ĳ×Ĳ ×ŀ×ª
Ġ×ŀ×ķ×¡ ×¨×Ļ
Ġ×Ķ×ĵ ×Ĵ×Ļ×Ŀ
×ĳ×ª ×ķ×ª
Ġ×ĳ×¦ ×Ļ×ľ×ķ×Ŀ
Ġ×Ĳ×ľ×Ļ ×Ļ×ļ
Ġ×ľ×Ķ×ª×¢ ×¡×§
Ġ×©×ĳ×¢ ×ľ
Ġ×ł×¤×ª ×Ĺ×ª
Ġ×Ľ×Ľ×ľ ×Ļ
Ġ×¡ ×ĳ×¨
Ġ×ķ×ŀ ×ķ×¢
ot t
Ġ×Ķ×Ĳ×ŀ×¨×Ļ×§ ×Ĳ×Ļ×Ŀ
D S
Ġ×ĳ×¨×¢ ×ł×ł×Ķ
Ġ×ª ×Ľ×ķ×ł×Ķ
ĠW i
×ĳ×Ĺ ×ĸ×¨×Ķ
×Ļ×ĺ ×Ļ×¡
Ġ×¡×¤×¨ ×Ļ×Ļ×ª
Ġ×Ķ×Ķ×ª×§ ×ł×Ķ
Ġ×¤×¨ ×ŀ×ĺ×¨×Ļ×Ŀ
Ġ×ŀ×ľ ×ŀ×ĵ×Ļ×Ŀ
Ġ×ŀ×ĸ×ķ ×Ļ×Ł
Ġ×¤ ×ķ×¤×ķ×ľ×¨×Ļ
Ġ×Ķ×ŀ×© ×ķ×ľ
×ĵ ×ł×Ļ×Ŀ
Ö´ ×ģ
Ġ×ŀ ×ł×ķ×Ļ×Ļ×Ŀ
Ġ×ª×ŀ ×Ļ×¨
Ġ×©×ľ ×ķ×ķ×Ķ
×Ĵ ×Ĳ×ĵ×Ĵ
Ġ×§ ×ŀ×¤
Ġ×ľ×ĺ×¢ ×ķ×Ŀ
×§×ĺ ×ķ×¨×Ļ×Ŀ
Ġ×ľ×ª ×ľ×ŀ×Ļ×ĵ
Ġ×ŀ×Ĺ ×ľ×§×ķ×ª
Ġ×ľ×Ķ ×§×ĺ×Ļ×Ł
Ġ×Ķ×Ĳ ×Ļ×ĸ×ķ×Ł
×Ļ×ķ ×ķ×Ĺ×Ļ×Ŀ
×ķ×Ĳ×ľ ×Ļ×Ļ×Ŀ
Ġ×Ĳ×ķ×¨ ×ľ×Ļ
Ġ×Ķ ×Ļ×ĸ
Ġ×ľ×¦×¨ ×ķ×ļ
Ġ×¤×Ļ×ł ×ł×¡×Ļ×Ļ×Ŀ
Ġ×ł ×¨×Ĳ×ķ
×Ĵ×Ļ ×Ļ×¡
Ġ×ª×¢ ×ĳ×ķ×¨
Ġ×ķ×ŀ×ĳ ×¦×¢×Ļ×Ŀ
C l
Ġ×Ĳ ×ķ×ĵ×Ļ×ķ
Ġ×Ĳ×© ×ª×Ļ
Ġ×Ķ×ª×Ĳ ×ķ×¨×Ķ
×©×ķ×ª ×¤×Ļ×Ŀ
Ġ×ķ×© ×Ĳ×ľ
Ġ×ł×©×Ĳ ×¨×Ļ×Ŀ
Ġ×¢ ×¨×Ľ×Ķ
×ł×§ ×ķ×ª
Ġ×ĳ×¢ ×ķ×ĳ×ĵ×Ķ
×ĳ ×ķ×¨×ª
Ġ×¨ ×ķ×Ĵ
×¢ ×ķ×Ĵ×Ļ×ķ×ª
Ġ×ľ×ŀ×ĵ ×Ļ×ł×ķ×ª
Ġ×ľ×Ķ×¨ ×©×ķ×ª
Ġ×Ļ ×ķ×ŀ
en g
Ġ×Ķ×¨×Ĺ ×ķ×ĳ×ķ×ª
×ķ×ĸ ×ľ×Ļ×Ŀ
Ġ×ŀ×Ķ ×ķ×¨
×¨×ĵ ×Ļ×ķ
Ġ×ĵ×¨ ×Ļ×©×ª
Ġ×ł ×Ļ×ľ
Ġ×Ķ×Ķ ×¨×Ļ×Ŀ
×ķ×Ĵ ×¨×Ļ
Ġ×ĳ×ĵ ×ķ×¨
×Ķ×ĵ ×Ļ×Ł
Ġ×ķ×ĺ ×ľ×ķ×ķ×Ļ×ĸ×Ļ×Ķ
Ġ×ŀ×Ĳ ×ķ×ª×Ķ
Ġ×Ĳ×ŀ×Ļ×ª ×Ļ×ķ×ª
Ġ×ķ×ĺ ×Ļ
×¦×¨ ×Ļ×Ľ×Ķ
Ġ×Ķ×¡ ×Ĵ×ľ
Ġ×ĳ×Ļ×¨ ×ķ×¨
Ġ×ķ×©×Ļ×¨×ķ×ª ×Ļ
Ġ×ŀ×§ ×ĵ×©
Ġ×¡×¤×¨ ×ĵ×Ļ×ª
×Ĳ×¨ ×¡
Ġ×ķ×Ķ ×ŀ×¦
Ġ×Ķ×ª ×ľ×ĳ
Ġ×ĳ×¨×Ľ ×Ļ×©×ª
Ġ×©×ĳ ×ł×Ļ
Ġ×¤×ķ×¨ ×Ļ×ķ×ª
×Ķ ×Ļ×Ļ×Ķ
Ġ×©×ł ×ĵ
Ġ×¤×ľ×Ĳ ×¤×ķ×Ł
Ġ×¤ ×Ĵ×Ŀ
Ġ×Ķ×Ĵ×ĳ ×ķ×ľ×ķ×ª
Ġ×ľ×ŀ×¢ ×ĳ×¨
Ġ×Ľ×¡ ×Ĳ×ķ×ª
×ĳ×§ ×©×ķ
Ġ×ĳ×ª×¢ ×©×Ļ×Ļ×ª
Ġ×ĳ×ŀ ×Ľ×¨×ĸ
Ġ×ķ×ł ×ķ×ª×Ł
Ġ×Ļ×§ ×¨×ķ×ª
Ġ×Ķ×¡ ×ł×Ļ×£
Ġ×ĳ×Ķ ×ĸ×ŀ×ł×Ķ
Ġ×ľ×© ×Ĺ×ĸ×¨
Ġ×¨×Ĺ ×ķ×§×Ķ
Ġ×Ľ×© ×ĸ×Ķ
Ġ×¢×ķ×¨ ×¨
×ŀ×ĵ ×ķ×¨
×ķ×¨×§ ×Ļ×Ķ
×¡×ĵ ×ł×ª
×ĳ ×Ľ
Ġ×Ķ×Ĺ ×ł
Ġ×Ĳ×ł×ķ×ł ×Ļ×ŀ×Ļ
Ġ×ķ ×Ļ×ĸ×Ķ
×Ķ ×ĸ×ŀ×ł×ª
Ġ×Ķ×¨ ×¢×Ļ×ķ×ł×ķ×ª
×ŀ×ľ×Ĳ ×Ļ×Ŀ
Ġ×Ķ×ŀ×Ĵ ×ĸ×Ļ×Ł
Ġ×Ķ×ŀ×© ×ķ×¨×¨
×Ĺ×ľ ×£
Ġ×Ļ×ľ ×Ļ×ĵ
Ġy ou
Ġ×Ľ ×Ļ×Ķ×Ł
Ġ3 60
Ġ×Ľ×©×Ķ ×Ļ×Ķ
Ġ×ķ×ª×Ĺ ×ĳ×ķ×¨×Ķ
×Ĵ×ľ ×¨×Ļ×Ķ
×¤×ľ ×ľ×Ļ×Ŀ
, ...
ag es
Ġ×Ķ×ŀ×Ĳ×¤×©×¨ ×Ļ×Ŀ
×ĸ×ŀ ×Ļ×ł×Ļ×Ŀ
Ġ×Ķ×Ļ×ĳ ×ĺ×Ļ×Ŀ
×¡ ×Ļ×¨
Ġ×ĳ×ķ×ĵ ×§
Ġ×Ķ×Ļ×ĵ ×ķ×¢×Ķ
Ġ×ŀ×ª ×¢×ķ×¨
Ġ×¤×Ļ×ľ ×Ļ×¤
Ġ×ł×Ļ×¡ ×ķ×Ļ×Ļ×Ŀ
Ġ×Ļ×ĸ ×Ľ×Ķ
×Ļ×ĵ ×§
Ġ×ŀ×Ļ ×Ļ×¡
âĢ¦ )
Ġ×¢ ×Ļ×ľ×Ķ
Ġ ).
Ġ×ŀ×ķ×ĵ×¨ ×ł×Ļ×Ļ×Ŀ
Ġ×ł×ĺ ×Ļ×ľ×ª
Ġ×ķ ×Ļ×¤
Ġ×§×Ļ×ł ×ŀ×ķ×Ł
×ł ×ĳ×ķ
Ġ×ŀ×¦ ×¢
Ġ×Ķ×ª ×¤×ª×Ĺ
Ġ×ŀ×Ķ ×¨×Ķ
Ġ×ľ×¡ ×Ļ×ķ×¢
Ġ×©×Ķ×ķ×Ĵ ×©×Ķ
Ġ×Ĳ×Ľ ×Ļ×ľ×ª
Ġ×Ķ×ŀ ×ª×ķ
Ġ×ķ×ľ×Ķ ×ª×Ĺ×Ļ×ľ
Ġ×ķ×ľ ×ĳ×¦×¢
Ġ×ľ×Ĳ ×ŀ×Ĳ
Ġ×ķ×Ľ ×¤×Ļ
Ġ×ķ×ŀ×¢×¨×ĳ ×ĳ×Ļ×Ŀ
Ġ×ķ×ŀ ×Ľ×ľ
×¡×§ ×Ļ×¨×Ķ
Ġ×§×ķ×ľ ×ķ×ŀ
Ġ×ľ ×ł×Ļ×ķ
Ġ×Ķ×ª×§ ×ķ×ķ×Ķ
×Ļ×¢ ×ķ×ł×Ļ×Ŀ
×Ľ ×Ļ×ķ×ª
Ġ×ľ ×Ļ×¨×ķ×ª
Ġ×ł×Ļ×Ĵ ×©
×Ļ×ª ×ķ×Ļ
Ġ×ŀ×Ĺ×ľ ×Ļ×£
Ġ×ľ×Ļ×¨ ×Ļ×ĵ×Ķ
Ġ×¡×ŀ ×Ľ×ķ×Ļ×ķ×ª
D A
Ġ×©×ŀ ×ķ×¤
Ġ×Ķ×ľ×ĳ ×ł×Ķ
Ġ×©×Ļ×ľ ×Ŀ
ĠS erv
Ġ×¤ ×ľ×ĺ×¤×ķ×¨×ŀ×Ķ
Ġ×¤×¡ ×ł×ª×¨
×ľ×Ĳ ×ŀ×Ļ×ª
×ª×§ ×¦×Ļ×¨
Ġ×ķ×Ķ ×Ĺ×©
×Ļ×ł ×ķ×ĳ×Ļ×¥
×Ļ ×Ļ×ŀ×ķ×ª
×ķ×ł ×ķ×¡
Ġ×Ĳ×¡ ×ķ×¨×Ķ
×ĵ×¨ ×Ļ×©×ķ×ª
Ġ×ª×¤×§ ×ķ×ĵ
×¡ ×Ļ×ł
Ġ×Ķ×¨×Ĳ×© ×ķ×ł×Ļ×ª
Ġ×ľ×ĳ ×Ľ×ķ×ª
Ġ×ŀ×Ĵ ×Ļ×©
×© ×Ļ×ĳ
Ġ×Ķ×Ĺ ×ĸ×¨×Ķ
Ġ×ľ×§ ×¤×ķ×¥
Ġ×Ľ×ķ ×ķ×ł×ķ×ª
Ġ×¤×ľ ×Ĵ
Ġ×ľ×Ĺ ×ķ×ľ
Ġ×Ĺ ×ķ×ª×Ŀ
Ġ×ŀ×ķ×¡×¨ ×Ļ×ª
Ġ×Ķ×¤ ×ł×Ĳ×Ļ
Ġ×ķ×Ļ ×Ļ×Ĺ
×Ļ×ª ×ķ×ĳ
Ġ×ľ×¨×© ×Ļ×ŀ×Ķ
Ġ×Ĺ ×ŀ×ĵ
×Ķ×ł×Ķ ×ľ×ª
Ġ×©×ŀ ×ł×Ļ×Ŀ
Ġ×Ĳ×§ ×ĸ
Ġ×ľ×©×ľ ×ķ×©
×¦ ×¤×Ķ
Ġ×ł×Ķ ×ł×Ļ×ª
200 2
×¤ ×¨×Ĳ
×ĳ×Ĺ ×Ļ×ł×ª
f r
an k
Ġ×Ķ ×ķ×Ļ
Ġ×Ĺ×ķ×ĳ ×ĳ×ł×Ļ
×ĸ ×ķ×ĳ
Ġ×Ķ×ĳ×Ķ ×ķ×ĳ×Ļ×Ŀ
Ġ×ķ×Ķ ×Ĵ×Ļ×¢
Ġ×ľ×ŀ×ĵ ×Ļ×ł×Ļ×ķ×ª
Ġ×ľ×Ĳ ×¨×Ĺ
Ġ×Ķ×ŀ×ķ×¡ ×ĵ×ķ×ª
Ġ×ľ×ĳ ×Ļ×§×ķ×¨×ª
Ġ×Ķ×Ķ ×¨×Ĵ×©×Ķ
T F
Ġ×ľ×ŀ×ª×Ĺ ×Ļ×ľ×Ļ×Ŀ
Ġ×ł×© ×ķ×Ĳ
Ġ×Ĳ ×ķ×ł×¡
Ġ×ŀ×Ľ ×ķ×ĳ×ĵ
Ġ×Ĳ×Ļ×ŀ ×Ĳ
Ġ×© ×¢×¨×ļ
Ġ×Ķ×Ĺ×© ×ķ×ĳ×ķ×ª
Ġ×§×© ×Ļ×Ĺ
Ġ×ª×¤ ×Ļ×ľ×ª
Ġ×Ķ×ŀ ×ķ×ł×Ļ
Ġ×Ķ×¤ ×ª×¨×ķ×ł×ķ×ª
ĠC ont
×Ĳ ×ĳ×¨×Ķ×Ŀ
×ł×Ķ ×ĵ×¨×Ļ×Ł
Ġ×ŀ×¡ ×Ļ×¨×ª
Ġ×Ĺ×Ļ×ķ×ĳ ×Ļ×ķ×ª
Ġ×ķ×ľ×Ķ ×ŀ×©×Ļ×ļ
Ġ×ľ×© ×Ļ×ķ×ķ×§
Ġ×ķ×¤×ª ×Ĳ×ķ×Ŀ
×ĳ ×ķ×¡
Ġ×Ĵ ×ĵ×ķ×ª
Ġ×ķ×Ķ ×ŀ×§
Ġ×¤×Ļ×Ĵ ×ķ×¢
×ĳ×ľ ×Ļ×ł×Ļ×Ŀ
×ĵ ×Ļ×Ļ×Ŀ
×ķ×ł×ĺ ×ķ
×Ĳ×ķ×¨ ×Ĺ
×ĸ ×¨×Ļ
Ġ×ł ×ķ×Ļ×¨
×¤×ķ ×Ļ×Ļ×Ŀ
Ġ×ľ×ŀ×§ ×¦×ķ×¢
Ġ×©×¢ ×ķ×ĳ×ĵ×Ļ×Ŀ
×Ĳ×ĸ ×ł×Ķ
Ġ×Ķ×¡×¤×§ ×Ļ×Ŀ
Ġ×ĸ ×Ļ×ª×Ļ×Ŀ
Ġ×Ľ×¡ ×ľ×ķ
×¨ ×ķ×Ĵ
Ġ×Ĺ ×Ļ×ĵ
Ġ×Ķ×ª×Ĳ ×ŀ×ª
Ġ×ŀ×Ĵ×ĵ ×Ļ×¨
is e
Ġ×ĳ×§ ×¨×Ļ×Ļ×¨×Ķ
Ġ×Ķ×Ļ×Ĺ ×Ļ×ĵ×Ļ×Ŀ
×Ļ×ŀ ×ķ×¨×Ļ×Ŀ
Ġ×Ķ×Ĳ×Ķ ×ķ×ĳ×Ķ
Ġ×ŀ×ĵ ×ĳ×¨×Ļ
Ġ×ķ×ķ ×Ļ×ł×¨
Ġ×Ķ×Ĵ ×Ļ×©×ķ
Ġ×ĳ×¢ ×ķ×ł×ª
×Ĳ×Ķ ×ĳ×ª
Ġ×¦×ŀ ×ķ×ĵ×Ķ
×Ĵ×ĵ ×Ļ×¨
Ġ×ľ×¤ ×Ļ×¦×ķ×Ļ
Ġ×©×ĺ ×¨×Ĳ
Ġ×ł×¦ ×Ĳ
Ġ×¤ ×©×¨×Ķ
Ġ×ľ×¤×¨ ×ķ×©
Ġ×ª×¦ ×¤×Ļ×ª
Ġ199 4
Ġ×Ķ×ŀ×¦ ×¨×Ļ×Ŀ
Ġ×ŀ×¤×ª ×Ĺ×Ļ×Ŀ
×ª ×ķ×ª
Ġ×ŀ×§ ×Ļ×Ļ×Ŀ
Ġ×Ķ×§ ×ķ×ĳ×¢
Ġ×Ķ×ł ×Ĺ×©
Ġ×ľ×ķ×Ĺ ×ŀ×Ļ×Ŀ
Ġ×¡ ×Ļ×ł×Ĵ
×¡ ×ĳ×Ļ×¨
Ġ×ª ×Ľ×ľ
×ĳ×¨ ×Ĵ×¢
y n
×Ľ ×ķ×Ľ×Ļ×ª
Ġ×Ĳ×Ķ ×ķ×ĳ×Ķ
Ġ×ŀ×ķ×ł ×¢×ª
Ġ×Ķ×ŀ×§×¦×ķ×¢ ×Ļ×ķ×ª
Ġ×ķ×ŀ×ĵ ×ķ×ĳ×¨
Ġ×Ķ×ŀ×Ķ ×Ļ×¨×ķ×ª
Ġ×§ ×ķ×Ŀ
Ġ×Ķ×¡×Ļ×¡ ×ŀ×Ķ
×ŀ×ĺ ×§
Ġ×ĳ×ª ×Ļ×Ľ×ķ×Ł
Ġ×Ĺ×ķ×ĸ ×¨×ķ×ª
Ġ×ŀ×ŀ ×ķ×¦×Ĳ
Ġ×§ ×ķ×Ĵ×ł×Ļ×ĺ
×ľ×ĳ ×ķ×ŀ×Ļ×Ŀ
Ġ×Ļ×¦ ×ĺ×¨×ļ
×ŀ×Ľ ×Ļ×ķ×ķ×Ł
Ġ×Ļ ×Ļ×©×ķ×ĳ
Ġ×ŀ×¢×¨ ×Ļ×Ľ×Ļ×Ŀ
×Ķ ×ĸ×ŀ×Ł
Ġ×Ĳ×Ļ×ł×¡ ×¤×ķ×¨
Ġ×Ĵ×ŀ ×Ļ×©
×Ķ×ľ ×Ł
Ġ×ĺ ×Ľ×ł×Ļ×Ļ×Ŀ
Ġ×¦ ×ķ×§
Ġ×ª×© ×ķ×§×Ķ
Ġ×ľ×ł ×ŀ×ľ
×ŀ×¢ ×ŀ×ĵ
Ġ×ľ×ŀ ×ł×ķ×Ļ×Ļ×Ŀ
×¡ ×Ĵ×ķ×¨
Ġ×Ľ×ĵ ×ľ×§×ŀ×Ł
×Ĳ×Ļ×¨×ķ×¢ ×Ļ
Ġ×¤ ×ķ×§
×¤×ª ×ķ×Ĺ
Ġ×ľ ×Ļ×ĳ×Ķ
Ġ×ľ ×ľ×ķ×ķ×ª
Ġ×Ĳ×¡ ×¤×¨
) âĢı
Ġ×ŀ×§ ×ĺ
Ġ×Ļ×¦×Ļ×¨×ª ×Ļ×ª
Ġ×ĳ×ĸ ×ĳ
Ġ×Ķ×ª ×Ĺ×ĵ×©×ķ×ª
×¦ ×§×Ļ
×Ĳ×ľ ×ķ×Ķ×Ļ×Ŀ
Ġ×Ķ×Ķ ×Ļ×¨
Ġ×ľ×ķ×Ĺ ×Ŀ
Ġ×ĵ ×¢
×ķ×Ĵ ×¢×ª
Ġ×ŀ ×¨×Ĳ×ķ×ª
Ġ×ĳ×¡ ×ķ×¤
Ġ×ŀ×¢ ×Ļ×Ļ×Ł
×§ ×¨×Ĳ×ķ
Ġ×ŀ×ł ×Ļ×Ĺ×Ķ
Ġ×ķ×ŀ×Ĵ×ķ ×ķ×ł×Ļ×Ŀ
Ġ×©×¢×ľ ×ķ×ľ
Ġ×Ķ×¨ ×Ļ×ĳ
Ġ×ķ×Ĳ ×ŀ×¨×Ķ
Ġ×¢×ķ×ª ×§×Ļ×Ŀ
×ł ×Ĳ×Ŀ
Ġ×Ĳ×Ĵ ×ķ×ĸ×Ļ
Ġ×ĵ ×Ļ×ł×Ķ
Ġ×ĳ×ª ×Ķ
×ŀ×¡ ×ļ
Ġ×Ĳ×ª×Ļ ×ķ×¤×Ļ×Ķ
×Ĺ×ľ ×Ļ×ĺ
Ġ×Ķ×¨ ×ŀ×ķ×ª
Ġ×Ķ×Ĺ×ª ×ķ×ľ
×Ķ ×ĺ×¨
Ġ×ĳ×Ĵ×Ļ×ľ ×Ĳ×Ļ
Ġ×ŀ×ľ×Ĳ×Ľ×ķ×ª ×Ļ×ª
Ġ×Ķ×¢×ķ×ĳ ×ĵ×ª
Ġ×Ķ×¡ ×Ľ×ł×Ķ
×ķ×ł ×ĺ×Ļ×Ŀ
Ġ×ķ×ŀ ×ķ×¦×¨×Ļ
Ġ×¡ ×ľ×ĳ
Ġ×ŀ×ĵ×¢ ×Ļ×ª
Ġ×ľ×ŀ ×©×¨×Ķ
Ġ×ŀ×Ļ ×Ļ×¦×¨
Ġ×Ļ ×Ļ×ĳ
Ġ×©×ŀ×¢ ×ķ×ł×Ļ×Ļ×Ł
Ġ×Ķ×ŀ×ª ×Ľ×ķ×ł×Ļ×Ŀ
} }
Ġ×ŀ×¨×¦ ×ķ×Ł
×ķ×ł×¨ ×ĵ×ķ
Ġ×Ķ×ĸ ×ķ×Ķ×¨
×¤×ľ ×¦×Ļ×Ķ
Ġ×Ķ×Ĳ ×ŀ×ķ×Ł
Ġ×¢×ŀ×Ļ×ĵ ×ķ×ª
Ġ×©×ŀ ×Ļ×Ļ×Ŀ
×¨×Ľ ×Ļ×Ķ
ĠJ ava
Ġ×Ĳ ×ķ×ĵ×Ļ
Ġ×ŀ×ŀ ×§×ķ×¨
Ġ×ľ ×¨×ª
Ġ×Ķ×¨×Ĺ ×¦×Ķ
×ŀ×§ ×ķ×ķ×Ķ
Ġ×ľ×ĺ ×ľ×¤×ķ×Ł
Ġ×ķ×ľ×ŀ×¦ ×ķ×Ĳ
Ġ×ª ×¦×ľ
Ġ×Ķ×ĺ×Ľ×ł×ķ×ľ×ķ×Ĵ ×Ļ
Ġ×Ķ×ª ×Ĳ×¨×Ļ×ļ
Ġ×¤×¢×Ļ×ľ×ķ×ª ×Ķ
×Ķ ×ŀ×¦
Ġ7 1
Ġ×Ķ×© ×ķ×ĺ×¨
Ġ×©×Ķ ×Ļ×ľ×ĵ×Ļ×Ŀ
Ġ×ª×¦ ×ĺ×¨×ļ
Ġ×Ķ×§×¤ ×ĵ×Ķ
Ġ×ĳ×Ľ ×Ļ×£
Ġ×Ķ×Ĳ ×£
Ġ7 6
Ġ×ŀ×© ×ĳ
Ġ×ľ×© ×ķ×Ĺ×Ĺ
Ġ×Ĳ×Ļ×ł ×ĺ×¨×¡×Ļ×Ŀ
Ġ×ŀ×Ĳ ×©
Ġ×¤×¨ ×¢×Ķ
×ŀ×ĺ ×Ļ×Ļ×Ŀ
ĠC ity
×¤×¨×¡ ×ķ
Ġ×Ķ×¨ ×ŀ
Ġ×Ĵ×ķ×ľ ×£
×ª ×ķ×Ľ×ł×Ķ
Ġ×©×¢×© ×ķ×Ļ
×Ļ×ķ×ª ×Ķ
Ġ×¤ ×ķ×©
Ġ×ŀ×Ĳ ×¨×¥
Ġ×¡ ×ŀ×Ļ×ª
×ķ×© ×©×ķ×ª
×Ļ×§×ľ ×Ļ×Ļ×Ŀ
Ġ×Ľ ×¤×ľ
Ġ×Ľ ×ķ×Ĳ
Ġ×ľ×¡ ×Ļ×ķ×¨
×ľ×Ķ ×ª
Ġ×ŀ×©×¤ ×Ļ×¢×Ļ×Ŀ
Ġ×Ĺ×Ĵ ×Ļ×Ĵ×ķ×ª
Ġ×Ķ×ŀ ×¤×ķ×¨×ĺ
×Ķ×ĵ ×¤×¡
Ġ×ľ×ł×Ļ ×Ļ×ĵ
Ġ×Ĺ ×ł×Ł
Ġ×©×Ļ ×Ļ×§
Ġ×©×¢×ľ ×Ļ×Ķ
Ġ×ŀ×Ĳ ×ł×©×Ļ×Ŀ
Ġ×Ķ×© ×ĳ×¢×Ļ×Ŀ
×Ĵ×ķ×¨ ×ŀ×Ļ×Ŀ
Ġ×ĳ×Ķ ×¡×ª
Ġ×Ķ×ŀ ×Ļ×ł×Ļ
×ķ×ł ×Ĳ×ľ
×ŀ×Ĳ ×Ļ×ª
Ġ×Ķ×ł ×ł×Ļ
Ġ×ķ×¤ ×Ļ×¨×ķ×ª
Ġ×ľ×ª ×ķ×§×£
×© ×¢×Ķ
Ġ×ĳ×¨×¦ ×£
Ġ×¨×¤×ķ×Ĳ ×ª
Ġ×Ķ×ŀ×¡ ×ķ×¨×ª×Ļ
Ġ×§ ×¨×ĺ
Ġ×ľ×Ķ×¢ ×Ļ×¨
Ġ×©×ĸ ×Ĳ×ª
×ľ ×Ļ×ĺ×Ļ×Ŀ
Ġ×ĳ ×Ľ×ª×ķ×ĳ×ª
Ġ×Ĳ ×Ł
Ġ×ł×© ×ķ×Ĳ×ķ×ª
Ġ×ŀ×¡ ×Ĵ×¨×ķ×ª
Ġ×ľ×¤×Ļ ×Ļ×¡×ĳ×ķ×§
×Ķ×ľ ×Ľ×ķ×ª
Ġ×ł×¤ ×©×ķ×ª
Ġ×Ķ×¨ ×ŀ×ª
Ġ×¢×ľ ×ķ×ľ×ķ×ª
×Ĵ×ĵ ×ľ×Ļ×Ŀ
Ġ×Ķ×Ĳ ×ĸ×¨×Ĺ×Ļ×ª
Ġ×Ĳ×¨×Ĵ ×ķ×ł×Ļ×ª
Ġ×ŀ×ĳ×ķ×§ ×©
×¡×Ļ ×ķ×¢
×ŀ×© ×ł×Ķ
Ġ×Ĵ×ķ×¨ ×ľ
Ġ×ŀ×Ĳ ×ŀ×¦
Ġ×Ķ×ĵ ×¤×¡
Ġ×©×ĵ×¨ ×ķ×Ĵ
Ġ×ľ×Ķ ×¤×ª×Ļ×¢
Ġ×ķ×Ĺ ×ĵ×¨
Ġ×©×ª ×Ł
Ġ×ŀ×ª×§ ×ķ×¤×ª
Ġ×Ķ×ŀ×Ĺ×ľ ×ķ×§×ª
Ġ×ŀ×¦ ×Ļ×Ĳ×ª
×Ļ×© ×¨×Ĳ×ľ×Ļ
Ġ×Ķ×ŀ×ķ×¨ ×Ľ×ĳ
×ľ ×ķ×§
Ġ1 30
×¨×Ľ ×ĳ×Ķ
ĠE l
Ġ×¡ ×¤×ķ×¨
Ġ×ĳ×Ķ×§ ×ŀ×ª
âĢª -âĢ¬
Ġ×ĳ×Ķ ×¨×Ĺ×ĳ×Ķ
×Ĳ ×Ļ×ŀ×ķ
Ġ×Ĳ×ľ ×Ļ×Ŀ
Ġ×¤×¨ ×ł×¡×Ķ
Ġ×ķ×ł×© ×ŀ×Ĺ
×¡×ľ ×Ļ×Ĺ×Ķ
×ĳ ×Ļ×ł×ª×Ļ×Ļ×Ŀ
×ł×ķ ×ķ×Ķ
Ġ×ĳ×Ĺ×Ļ ×Ļ×Ķ×Ŀ
Ġ×Ľ ×ķ×ĳ×¢
×ĵ ×ŀ×Ļ×ª
Ġ×ķ×ª ×Ĺ×ĸ
×Ĵ ×ĵ×¨
Ġ×§×¨ ×§×¢×ķ×ª
ide o
ĠA p
Ġ×Ļ×Ĺ ×ķ×ľ
Ġ×Ķ×¦×¨×Ľ ×ł×Ļ×Ŀ
Ġ×ķ×Ķ ×ŀ×ľ×¦×ķ×ª
Ġ×ŀ×© ×ĵ×Ķ
Ġ×Ļ×¡ ×ª
Ġ×ŀ×¤×ł×§ ×ª
×Ļ×¡×Ļ ×ķ×ł×ķ×ª
Ġ×§×ķ×ł×¡ ×¤×ĺ
Ġ×©×¨ ×Ļ×¨×Ļ
Ġ×ŀ×Ķ ×ĸ
Ġ×ł×Ľ×ª×ĳ ×ķ
Ġ×ķ×ŀ×© ×¤×Ĺ×Ķ
Ġ×Ķ×¡ ×ķ×ĳ×Ļ
×ķ ×Ļ×ĳ
×ľ ×Ļ×ľ
Ġ×ŀ×ł ×ķ×Ĵ
Ġ×ľ×Ķ×¡ ×¨×ª
Ġ×Ķ×ŀ×ĳ ×§×¨
L E
×¢×¨ ×¢×¨
Ġ×Ĺ×¡ ×ķ×Ł
Ġ×ł×Ļ×¡ ×ª×Ķ
Ġ×Ķ×ķ ×Ļ×ĵ×Ĳ×ķ
Ġ×Ķ×ŀ×¡ ×Ĵ×¨×ª
Ġ×ĵ×¨ ×©
Ġ×ŀ×©×Ĳ ×Ļ×¨
Ġ×ĳ×ŀ×ĸ ×ķ×ŀ×Ł
r u
Ġ×ľ×ĳ ×Ļ×Ķ
Ġ×ŀ ×ľ×ķ×ķ×Ļ×Ŀ
Ġ×ł ×Ļ×ĳ
×ĳ ×Ĵ×¨
Ġ×Ĺ ×©×Ļ×Ŀ
Ġ×Ļ×ľ×ĵ ×Ļ×ķ
×Ļ×ŀ ×ķ×§×Ļ×Ŀ
Ġ×Ĺ×ķ×ŀ ×¨×Ķ
Ġ×Ķ×Ĳ×¨ ×ķ×Ľ×Ķ
Ġ8 8
Ġ×ĳ ×ķ×Ľ×Ķ
Ġ×ĳ×Ĳ×ŀ×¦ ×¢×Ļ
Ġ×ł×ĵ ×Ĺ×ª×Ķ
Ġ×§×Ļ×¨ ×ķ×¨
Ġ×Ķ×Ĺ ×ĸ×¨×ª
Ġ×¦×Ļ ×ķ×¨×Ļ
×ŀ ×Ĺ×§×¨×Ļ×Ŀ
Ġ19 67
Ġ×¤×Ļ×¨×ķ×© ×ķ
Ġ×Ĺ×Ĵ ×Ļ×Ĵ×Ļ
Ġ×Ĳ×ľ×ŀ ×ł×ĺ
×¨×© ×Ļ×ŀ×ķ×ª
Ġ×Ķ×Ľ ×ķ×Ľ×ĳ
Ġ×Ĺ×ķ×© ×©×Ļ×Ŀ
Ġ×Ķ×ª ×©×ľ×ķ×ŀ×Ļ×Ŀ
Ġ×ł×Ľ×ł×¡ ×ª×Ļ
Ġ×ĺ×Ľ×ł×ķ×ľ×ķ×Ĵ ×Ļ×Ļ×Ŀ
Ġ×Ļ×ĵ×Ļ×ĵ×ķ×ª ×Ļ
Ġ×Ķ×ŀ ×ĸ×¨×Ĺ×Ļ×ª
Ġ×ŀ×¡×ª ×Ľ×ľ×Ļ×Ŀ
Ġ×ľ×Ĺ×ª ×ķ×ļ
×Ľ ×ķ×Ľ×ĳ
Ġ×ķ×ľ ×ĳ×ĵ×ķ×§
Ġ×¤×¡×§ ×Ķ
Ġ×ŀ×ª ×ŀ×ĵ×ª
×¤×¢ ×ľ×ķ×ª
Ġ×ľ ×Ļ×ª×Ł
Ġ×ª ×ª×Ĺ
R L
Ġ×©×Ļ×§ ×ķ×ľ×Ļ×Ŀ
Ġ×ŀ×Ĳ ×¨×Ķ
Ġ×ľ×¦×¢ ×Ļ×¨×Ļ×Ŀ
Ġ×Ķ×Ĺ ×ľ×§×Ķ
Ġ×Ķ×Ĳ ×¨×Ĵ×ķ×ł×Ļ×Ŀ
Ġ×ľ×ĵ ×¤×ķ×§
Ġ×ķ×Ĺ ×ŀ
Ġ×©×Ķ×Ĵ ×Ļ×¢×Ķ
Ġ×ľ×© ×ł×Ļ×Ļ×Ŀ
Ġ×©×Ĳ ×Ļ×©
Ġ×ľ×ª ×Ļ×§
Ġ×ľ×¤×Ĵ ×Ļ×©×Ķ
Ġ×ĳ×Ķ×¢ ×ĵ×¨
×Ķ×ª ×Ĳ×ŀ×Ķ
Ġ×ĳ×Ĳ ×§×ĵ×ŀ×Ļ×Ķ
×ķ×ķ×Ļ×ĸ ×Ļ×ķ×Ł
×ĳ×© ×ľ×Ļ×Ŀ
Ġ×ķ×ĸ ×Ľ×ķ×Ļ×ķ×ª
Ġ×ĵ×Ļ ×Ļ×ķ
Ġ×Ĵ ×Ļ×ľ×Ļ
Ġ×ŀ×Ĺ ×ķ×¡
Ġ×ľ×Ķ ×¤×¡×Ļ×ĵ
×¢ ×ĸ×¢
Ġ×ľ×Ķ×Ļ×¤ ×¨×ĵ
Ġ×ŀ×ª ×ľ×ĳ
Ġ×ŀ×ķ×¦ ×Ĵ×Ļ×Ŀ
Ġ×ľ×Ķ×ª×Ĳ ×ŀ×Ł
Ġ×ķ×ĳ×¢ ×ľ×ª
Ġ×ľ×ª ×ķ×ĳ×¢×ª
×ŀ×Ľ ×¨×ķ×ª
×Ĵ×ł ×ķ×ł×ķ×ª
Ġ×ł×ĵ ×Ļ×¨×Ķ
Ġ×ŀ×§×¡ ×Ļ×§×ķ
Ġ×©×Ķ×¨ ×ĳ×Ķ
Ġ×Ķ×ĳ×ĺ ×Ļ×Ĺ
Ġ×¢×ľ×Ļ ×ķ×ł×Ķ
Ġ×ĳ×Ĳ ×¨×ķ×Ł
Ġ×ĳ ×Ļ×Ĵ
Ġ×Ķ×ŀ ×ķ×Ľ×¨×ª
×Ķ ×ŀ×Ķ
Ġ×ķ×Ĵ ×ĵ×ľ
Ġ×Ķ×Ķ ×ŀ×©×ļ
Ġ×ĳ×¤ ×Ļ×¨
Ġ×¤ ×¨×Ķ
Ġ×Ķ×ŀ×Ľ×¨ ×ĸ
Ġ×Ķ×Ļ×ĵ ×Ļ×¢×ķ×ª
×Ĳ×ķ×¤ ×ł×Ķ
Ġ×ĳ×ķ×ĺ ×ķ×§×¡
Ġ×ŀ×ŀ ×ĳ×ĺ
×ĳ×ŀ×§ ×ĳ×Ļ×ľ
Ġ×¨×Ĳ×© ×ķ×ł×ķ×ª
Ġ×Ķ×ł×¡ ×Ļ×ĳ×ķ×ª
l es
Ġ×Ĳ×Ĺ ×Ļ×ķ×ª
×Ķ×¦ ×ľ×Ĺ×Ķ
×Ļ×Ĵ ×ł×¦×Ļ×Ķ
Ġ×ĳ×¡ ×Ļ×ĳ×ķ×ĳ
×ľ×§×¨ ×Ļ×Ĳ×Ķ
Ġ×Ķ×© ×ĺ×Ł
Ġ×Ĺ ×ľ×¤×ķ
Ġ×ŀ×¤×ķ×¨×¡ ×Ŀ
×¦ ×Ĳ×ķ×ª
r on
Ġ×Ķ×Ĵ ×Ļ×ł×Ķ
Ġ×ĺ ×ĳ×ľ
×ŀ ×¢×¨×Ļ×ĳ
×ľ ×ķ×Ŀ
×ª ×ķ×Ľ×ł×Ļ×ķ×ª
Ġ×ŀ×¢×ĵ ×Ļ×¤×Ķ
Ġ×ł×ķ×ľ ×ĵ×ķ
×ķ×ĳ ×Ľ×Ł
Ġ×Ķ×Ĳ ×§×¡
×Ļ×Ĳ ×ł×Ļ×ª
Ġ×Ĵ×ķ×¨ ×Ł
Ġ×ĳ×¤×¨ ×ķ×¤×Ļ×ľ
Ġ×Ķ×ª×ľ ×ŀ×ķ×ĵ
Ġ×Ķ×Ĳ ×¤×ľ
Ġ×Ķ×ĵ ×Ļ×¨
×© ×ŀ×©
Ġ×ĵ×Ļ×¡ ×ł×Ļ
Ġ×ŀ×ª×§ ×¨×ĳ
Ġ×Ķ×ł×Ķ ×Ļ×Ĵ×Ķ
Ġ×ª×ķ×¨ ×ŀ×Ļ×Ŀ
Ġ×¡×ķ×ķ ×Ļ×ĺ×Ķ
×ł×Ķ ×Ļ×Ĵ
Ġ×ĳ×ĺ ×ķ×ĳ
Ġ×¡ ×Ļ×¢×ķ×ĵ×Ļ
Ġ×Ķ×ŀ×ĵ×Ķ ×Ļ×ŀ×Ķ
Ġ×ĳ×ĳ ×Ĳ
Ġ×¨×Ĺ ×ķ×§×Ļ×Ŀ
Ġ×¡×ĳ ×ķ×Ł
×Ĳ×ł ×¨×Ĵ×Ļ×Ķ
Ġ×ķ×Ļ×¢ ×Ļ×ľ
Ġ×ŀ×¡ ×ĵ×¨×ª
Ġ×©×Ĵ ×Ļ×Ĳ
Ġ×Ķ×ł ×ĸ
Ġ×ķ×Ĳ ×Ļ×ł×ĺ×¨×ł×ĺ
Ġ×¢ ×ķ×ĸ×Ļ
Ġ×Ķ×ª ×ĸ×ŀ×ķ×¨×ª
×Ķ×ķ×ĳ ×ľ×ķ×ª
Ġ×§×¨ ×Ļ×ĺ×Ļ
Ġ×ľ×¤ ×¢×Ŀ
Ġ×ŀ ×¨×Ļ
Ġ×ŀ×Ĳ ×ķ×ĸ
Ġ×ķ×¡ ×Ļ
a int
×ķ×ĳ ×ĳ×Ļ
×Ķ×¡ ×¨×ª
Ġ×ľ×Ķ×ª ×¤×©×¨
Ġ×Ĳ×¤×©×¨ ×Ļ×Ļ×Ŀ
×¡×¨×ĺ ×Ļ
Ġ×¢ ×ķ×ľ×ķ×ª
×Ĵ×ĵ ×Ļ×ľ
Ġ×©×ł ×©×Ĳ
Ġ×ĳ×ŀ×Ĺ ×ľ×Ķ
Ġ×¤×¨ ×Ļ×©×Ķ
Ġ×Ķ×Ĳ ×ķ×ľ×ĺ×Ļ×ŀ×ĺ
×ľ ×ķ×ŀ×Ļ×Ŀ
Ġ×©×ł ×Ĺ
Ġ×ĳ×§ ×ķ×¨
Ġ×ķ ×Ļ×Ľ×ķ×Ĺ
Ġ×ŀ×¨ ×Ļ×¨
Ġ×©×Ķ ×ķ×¡
Ġ×Ķ×¤×©×ķ×ĺ ×Ķ
×ŀ×Ĳ ×Ĺ×¨
Ġ×ľ×ŀ×ł ×Ľ
×¤ ×ĺ×Ļ
Ġ×Ĺ×ĸ ×Ł
?? ??
×ķ×ĳ×Ķ ×¨
Ġ×ŀ×ª ×Ĺ×¨×Ļ×Ŀ
Ġ×©×Ķ ×¤×¨
Ġ×ľ×ŀ×ĵ ×ł×ķ
Ġ×ł×Ĳ×ŀ ×ł×Ķ
×¨×ĳ ×Ļ×¢×Ļ
Ġ×ł ×Ľ×ľ
Ġ199 2
Ġ×Ķ×ŀ×©×¤ ×Ļ×¢×Ļ×Ŀ
Ġ×© ×ķ×Ĺ×ĵ
Ġ×Ĵ ×Ļ×ĳ×ķ×¨×Ļ
Ġ×¨ ×ķ×©
Ġ×ĳ×¡ ×Ł
Ġ×¡×Ļ ×Ļ×ĳ×¨
Ġ×©×¨×Ĳ ×Ļ×ł×ķ
Ġ×ľ×Ķ×Ľ×¨ ×Ļ×¢
Ġ×ķ×ĳ ×ł×ķ×ª
×ĳ×¡ ×ķ×¤×ķ
Ġ×Ķ×© ×Ļ×ĺ×ķ×ª
Ġ×ł×ª×§ ×ľ×ª×Ļ
Ġ×¤×§ ×ķ×ĵ×ª
Ġ×¢×ĸ ×ĳ×ķ
Ġ×ľ×ŀ×Ĺ ×ľ×ķ×ª
up er
Ġ×Ķ×¤ ×ķ×ł×§
Ġ×Ķ×Ķ ×ŀ×ľ×¦×ķ×ª
×© ×ĵ×Ķ
Ġ×ł×§ ×Ļ×Ļ×Ķ
Ġ×ŀ×ĵ ×Ļ×ĵ×Ķ
Ġ×Ļ×Ľ×ķ×ľ ×ª×ķ
Ġ×©×Ľ ×Ľ×ľ
Ġ×Ķ×ľ×ĳ ×©×Ķ
? '
×ª×Ĵ ×Ļ×ª
Ġ×ª×Ļ×Ĳ ×ķ×Ŀ
Ġ×ŀ×ľ ×Ľ×Ļ×Ŀ
Ġ×¢×ķ×¨ ×Ľ×Ļ×Ŀ
Ġ×ľ×© ×ł×Ļ×Ŀ
×© ×Ļ×¨×Ķ
Ġ×Ķ×ŀ ×¤×ľ
×Ļ×Ľ ×Ļ×Ļ×Ŀ
Ġ×ŀ×© ×ĵ×¨
Ġ×ľ×ŀ×Ĺ ×ł×Ķ
Ġ×ĳ S
Ġ×ľ×Ĳ ×©×Ķ
Ġ×ľ×¡ ×¢×Ļ×£
Ġ×Ĺ×ķ×© ×©
Ġ×§ ×¤×ĵ
Ġ×Ĺ×© ×ķ×ĵ×Ļ×Ŀ
×ĳ ×¡×¤×¨
Ġ×ĳ×¨×Ĳ×© ×ķ
Ġ×ķ×ĳ×ķ ×ķ×ĵ×Ĳ×Ļ
Ġ×ĳ×ŀ×©×Ĺ×§ ×Ļ×Ŀ
Ġ×ŀ×Ĳ×ķ×Ĺ ×¨×ª
×Ļ×ł ×¨×Ļ×Ŀ
Ġ×Ĳ×© ×ŀ×Ķ
Ġ×Ĳ×ŀ×¨×Ļ×§ ×Ĳ×Ļ×Ŀ
Ġ×ŀ×©×§ ×¤×Ļ
Ġ×ľ×Ķ ×Ļ×Ĳ
Ġ×ŀ×¢×ŀ×ĵ ×ķ
×ĺ ×Ľ×ł×Ĳ×Ļ
Ġ×ŀ×Ĳ ×ķ×¤×Ļ
Ġ×ķ×ŀ×¢ ×ķ×ľ×Ŀ
Ġ×Ķ×Ķ ×ŀ×ľ×¦×Ķ
Ġ×ĸ×Ľ×ķ×ª ×ķ
Ġ×Ĳ×¦ ×ľ×Ķ
Ġ×ķ×Ĺ ×ĸ×¨
Ġ×ŀ×ª ×ĳ×§×©
Ġ×Ķ×ķ×ĳ ×Ļ×ľ×Ķ
Ġ×©×ª×¨ ×¦×ķ
Ġ×Ķ×ŀ ×Ĳ×ŀ×¥
Ġ×ĳ×ŀ ×ł×Ķ×ľ
Ġ×ŀ×©×¤×Ĺ×ª ×Ķ
Ġ×ķ×ŀ×Ķ ×Ļ×¨
Ġ×Ķ×©×¨ ×Ļ×Ŀ
Ġ×©×ľ×Ļ×©×Ļ ×Ļ×Ķ
Ġ×ŀ×¢×¦ ×Ŀ
Ġ×ķ×Ĺ ×Ļ×ľ
Ġ×§ ×¤×ķ×Ĳ
×Ľ×¨×ĺ×Ļ×¡ ×Ļ
×Ļ×§ ×ł×Ļ×Ŀ
Ġ×ĺ×¨×Ĳ ×ķ×ŀ×Ķ
Ġ×Ķ×ŀ×¤×ķ×¨×¡ ×ŀ×Ļ×Ŀ
Ġ×Ĳ ×ŀ×ķ×ª
Ġ×Ķ×ĵ ×©×Ĳ
x x
Ġ×¢ ×Ľ×ĳ×¨
×ķ×Ĵ ×¨×ķ×ª
at er
×Ļ×© ×Ĵ×Ļ×Ŀ
Ġ×¤ ×Ļ×Ķ
Ġ×ķ×Ļ×ľ ×ķ×ł×ķ×ª
us ic
Ġ×Ķ ×Ļ×Ľ×ł×¡×ķ
×¢ ×ķ×ĳ×ĵ
×¦ ×¤×Ļ×ª
Ġ×ŀ×ķ×ª ×Ĳ×ŀ×ª
Ġ×§×ķ×ŀ ×Ļ×§×¡
Ġ×Ķ×©×ŀ×Ĳ ×ľ×Ļ×ª
×ľ ×Ļ×ŀ×ķ×ĵ
×¢ ×¥
Ġ×ľ×Ĵ×¨ ×ķ×¢
Ġ×ľ×¢×¨×ĳ ×ĳ
Ġ×ĳ×¤ ×Ļ×¨×ķ×©
Ġ×ĳ×ł ×ķ×¡×Ĺ
Ġ×ľ×Ķ×¡ ×Ļ×§
Ġ×Ľ×ŀ ×¤×ķ×¨×ĺ
×¦×¢ ×ķ
Ġ×§×ľ ×Ļ×¤
Ġ×ĳ×¤×¨ ×ĺ×Ļ×Ŀ
Ġ×ľ ×Ļ×ł×§
×ł×ĺ ×ķ×¨
Ġ×ķ×© ×ŀ×Ĺ×Ķ
Ġ×ľ×ŀ ×ķ×§×ĵ
Ġ×©×Ľ ×ķ×ľ×ľ
×ķ×ĳ ×Ļ×ľ×Ļ×Ŀ
Ġ7 4
Ġ×ŀ×Ľ ×¡
Ġ×ĳ×ĺ ×Ľ×ł×ķ×ľ×ķ×Ĵ×Ļ×Ķ
Ġ×ŀ×ķ×Ľ ×Ļ×Ĺ
Ġ×¤×ķ×¨ ×¥
×ł ×ĳ×Ķ
Ġ×ŀ×ª ×Ľ×ł×Ł
×Ĳ ×¤×Ļ×Ŀ
×Ļ×ĺ ×ķ×¨×Ļ×Ķ
×ĳ ×Ļ×©×¨×Ĳ×ľ
×ł ×Ļ×¥
Ġ×ľ×© ×Ĺ×¨×ķ×¨
Ġ×Ķ×Ľ ×Ĺ×ķ×ľ
Ġ×ľ×¤×¨ ×©
Ġ×ª ×ľ×ķ×ª
Ġ×Ķ×ĳ ×Ļ×ł×Ķ
Ġ×ľ×Ķ×Ľ ×ł×Ķ
×ŀ×ľ×Ĳ ×Ļ
Ġ×¨ ×ķ×ł×Ļ×ª
Ġ×Ļ×¨ ×ĵ×Ķ
Ġ3 50
er y
Ġ×ķ ×ķ×©×Ļ×ł×Ĵ×ĺ×ķ×Ł
ĠS m
Ġ×Ĳ×Ļ×ł×ĺ ×Ĵ×¨
Ġ×ł×Ĺ ×ľ×ª
×Ķ×ŀ ×ĺ×¨×Ķ
Ġ×ľ×Ķ×ª ×ĳ×ķ×ł×Ł
Ġ×Ķ×¦ ×ľ×ĳ
B S
Ġ×Ķ×ŀ ×Ļ×ĸ×Ŀ
Ġ×Ľ×ľ×ľ ×Ļ×ķ×ª
Ġ×Ķ ×©×¨×ķ×ª
Ġ×¤×¢ ×Ļ×ľ×Ļ
Ġ×Ķ×Ļ×¡ ×ķ×ĵ×Ļ
×ķ×¢ ×Ľ×©×Ļ×ķ
Ġ×ĳ×ŀ ×©×¨×ĵ×Ļ
Ġ×ł×Ľ ×¡×Ļ
Ġ×ķ ×Ļ×Ľ
p ress
×Ĳ ×ķ×Ļ
Ġ×ĳ×Ļ ×Ļ×ĳ
[ /
Ġ×ĳ×ŀ ×Ĵ×¨×©
Ġ×ľ×ª ×ł×ķ×¢×Ķ
Ġ×©×Ļ×¢ ×©×Ķ
Ġ×ľ×© ×Ļ×§×ķ×ľ
Ġ×ŀ×Ķ×Ĺ ×ĳ×¨×Ķ
Ġ×ľ×¢×¨ ×ķ×¥
Â ®
Ġ×Ķ×Ľ×ª ×ĳ
Ġ×ķ×ľ×§×¨ ×ķ×Ĳ
×ŀ×ķ×¡ ×ĵ×ķ×ª
Ġ×ŀ×©×¤×ĺ ×Ļ×ķ×ª
Ġ×¨×Ľ ×Ļ×ĳ
ĠâĢı (
b ox
×¢ ×ł×Ķ
Ġ×ł ×ķ×ĳ
Ġ×ķ×ł ×¤×©
Ġ×ľ×Ĵ ×Ļ×ł×Ķ
Ġ×ľ×ł ×Ĵ×ĵ
Ġ×ŀ×¨ ×ķ×ķ
Ġ×Ķ×¡×Ļ×ŀ ×ł×Ļ×Ŀ
×Ĳ ×ķ×¤×Ł
Ġ×ĳ×ª ×¨×Ĵ×ķ×Ŀ
Ġ×ĳ×Ļ×ĺ ×ķ×Ł
Ġ×ª×¨×ĳ×ķ×ª ×Ļ×ª
Ġ×ķ×Ĳ ×¨×Ĵ×ķ×ł×Ļ×Ŀ
Ġ×ĺ×ķ×¨ ×§
×ŀ×Ļ×ª ×ķ×ª
Ġ×ŀ×Ļ×Ļ×¦ ×¨×ª
Ġ×ŀ×¦ ×ķ×§×Ķ
Ġ×© ×Ļ×ķ×ķ×Ļ
Ġ×ª ×ķ×¢
Ġ8 4
Ġ×¡ ×Ľ×¡×ķ×ļ
×Ķ ×Ĵ×¨
Ġ×ŀ×ķ×Ľ ×©×¨
×ŀ ×ŀ×Ļ×Ŀ
Ġ×Ķ×Ķ×ª ×ĳ×Ĵ×¨×ķ×ª
Ġ×§×ĺ ×ł×ĺ
Ġ×ľ×Ļ ×Ļ×¦×Ĵ
Ġ×Ķ×Ĺ ×ķ×ĵ×©×Ļ
Ġ×Ķ×¨ ×Ĺ×Ŀ
Ġ×ł×ķ×ĸ ×ľ×Ļ×Ŀ
Ġ×ľ×ŀ ×ķ×©
Ġ×ł×© ×Ĳ×ľ
Ġ×Ļ×Ļ×§ ×Ĺ
Ġ×¤ ×Ĵ×©×ª×Ļ
×Ķ ×¨×Ķ
Ġ×ľ×ŀ×¦ ×Ļ×Ĳ×ª
×ĳ×¨ ×Ľ×Ķ
Ġ×ĳ ×ķ×ĺ×Ķ
Ġ×ľ×ª ×¤×¨×Ļ×ĺ
Ġ×ĳ×ľ×© ×Ľ×ª
Ġ×ľ×ł×© ×ķ×Ŀ
Ġ×ľ×¤ ×Ĺ×ĵ
Ġ×Ĺ×¡ ×¨×Ļ×Ŀ
Ġ×¦×Ļ ×Ļ×ł×Ķ
Ġ×©×ł×¢ ×¨×Ľ×ķ
Ġ×Ķ×ª ×Ľ
H T
Ġ×ĳ×ŀ ×ĵ×ķ×¨
×Ļ×¦ ×§×Ļ
Ġ×Ķ×¤ ×ł×Ļ×Ķ
Ġ×ł×ĳ ×Ļ×Ĳ
Ġ×ĵ×ŀ ×ķ×Ļ
Ġ×¨ ×Ļ×ŀ×ķ×Ł
Ġ×©×¢×ľ ×Ļ×Ķ×Ŀ
Ġ×Ļ×ķ×ł×Ļ ×Ļ×ĺ×ĵ
Ġ×ķ×ł ×Ĵ
×Ļ×Ľ ×ľ×Ļ
Ġ×Ķ×ĵ ×Ļ×¡×§
×ľ ×ŀ×¢×Ł
Ġ×Ļ×© ×ĳ×ķ
Ġ×¢ ×ŀ×ľ
Ġ×Ķ×Ĳ×ŀ×Ļ×ª ×Ļ×Ļ×Ŀ
Ġ×ĳ×ķ×¦ ×¢×ķ
Ġ×Ķ×ĳ ×Ľ×Ļ×¨
Ġ×¡×ĵ×¨ ×Ļ
×ĳ×Ķ ×¦
+ ]
Ġ×¢ ×©×Ļ×Ļ×ª
×ĳ×Ĺ ×ķ×ĵ×©
Ġ×ľ×Ķ×Ļ×ĸ ×Ķ×¨
Ġ×Ķ×Ľ ×ł×ª×Ļ
Ġ×ľ×Ķ×¡ ×ĵ×¨
×¢ ×ķ×¨×¨
Ġ×ŀ×ŀ×© ×ľ×ª×Ļ
×ŀ×¤×¨×ĺ ×ķ×¨×ª
×¨ ×ŀ×Ļ
×ĳ×Ļ×§ ×ķ×¨×ķ×ª
Ġ×ľ ×Ļ×ª×¨
Ġ×ĳ×Ľ ×ĳ
Ġ×Ķ×ŀ×¨×Ľ×ĸ ×Ļ×ķ×ª
Ġ×ľ×Ĵ ×ŀ×¨
×Ļ×ĺ ×Ļ×ł×Ĵ
Ġ×ĵ ×Ļ×ĳ×Ķ
Ġ×ľ×ĵ ×ľ×ª
Ġ×Ķ×Ĳ ×ĸ×ķ×¨×Ļ×Ŀ
Ġ×ľ×© ×Ļ×ŀ×ķ×¨
×Ļ×ĳ ×¨×Ļ×Ŀ
Ġ×ľ×§×¨ ×Ł
Ġ×ĵ ×Ļ×ľ×ĵ×ķ
Ġ×Ķ×¢ ×ľ×ķ
×Ĳ ×©×Ŀ
×ĺ ×£
Ġ×ĳ×¢ ×ķ×¦×ŀ×Ķ
ear ch
Ġ×ŀ×Ļ×ľ ×Ĳ
Ġ×Ķ×ĸ ×Ľ×Ļ×¨
×ķ ×Ļ×Ŀ
Ġ×¦ ×Ļ×¤×Ļ
Ġ×ķ×ľ×Ķ ×©×ª×ŀ×©
Ġ×ĳ×©×Ĳ ×ľ×ķ×ª
Ġ×Ļ×¦ ×¨×Ķ
Ġ×ŀ×ª ×Ļ×Ĺ×ª
Ġ×ľ×ľ ×©×ķ×Ł
Ġ×ŀ×ł ×Ĵ×ł
Ġ×§×ķ×ĵ ×ŀ×ª
Ġ×Ķ×ª ×ł×ĵ×ĳ×ķ×ª
Ġ×ľ×Ķ ×Ĺ×ľ×ĺ×Ķ
Ġ×Ĳ×ĳ×Ļ×Ĵ ×ĵ×ķ×¨
×ª×Ĺ ×ĳ×ķ×¨×Ķ
×ľ ×ĸ
Ġ×Ĺ×ķ×¤×© ×Ļ×Ļ×Ŀ
×Ķ ×©×Ŀ
Ġ×Ķ×Ĳ ×¤×§×ĺ
×ŀ×Ĳ ×Ł
Ġ×ŀ×ĵ ×Ĵ×Ļ×©
Ġ×ĳ×Ļ×§ ×©×ª×Ļ
Ġ×ľ×ŀ×ĵ ×ķ×ĵ
Ġ×¡×ľ ×ŀ×ķ×Ł
×ķ×Ĳ ×ķ×ľ×Ļ
Ġ×ľ ×ķ×ĸ
Ġ×ķ×ŀ×Ķ ×ł×Ķ
Ġ×©×ķ×ĺ ×¤×ª
Ġ×ľ×Ķ×¤×¨ ×Ļ×ĵ
Ġ×Ķ×¤×Ļ×ł ×ł×¡×Ļ
Ġ×Ķ×Ĵ ×Ļ×¨×ķ×©×Ļ×Ł
Ġ×Ķ×© ×Ľ×ł×Ļ×Ŀ
×ŀ ×Ļ×ł×Ļ
×ł ×ķ×¡×£
Ġ×Ĺ×ª ×Ļ×ŀ×ª
Ġ×Ķ×ŀ ×ĳ×¨
Ġ×ľ×© ×Ļ×ĵ×ķ×¨
Ġ×ł×ĺ ×ķ×ľ
Ġ×Ķ×¨ ×ķ×ŀ×Ł
Ġ×ł×ĵ ×¢
Ġ×ĳ×¡×Ļ×ŀ ×ł×Ļ×Ķ
Ġ×ŀ×§×ĵ ×Ļ×ŀ×Ķ
Ġ×¢×ª ×Ļ×§×Ķ
200 1
×ľ ×ķ×¡
Ġ×ŀ×¦×Ļ ×Ļ×ł×Ļ×Ŀ
Ġ199 3
Ġ×Ĺ ×ŀ×©×ª
Ġ×ª×¨×ĳ×ķ×ª ×Ļ
Ġ×¤×¨ ×ķ×¥
Ġ×ł ×¨×Ĳ×ª×Ķ
Ġ×Ķ×¨×Ĵ ×Ļ×ľ×Ķ
Ġ×ł ×Ĺ×ª×Ŀ
Ġ×¡×ĺ ×ł×ĵ
Ġ×ľ×Ķ×ª ×ĳ×¦×¢
Ġ×Ķ ×ķ×ª×§
×Ļ×¨ ×¡
Ġ×ķ×ŀ×ª ×Ĳ
Ġ×Ķ×© ×Ļ×ĳ×Ķ
Ġ×ĳ×ŀ ×¦×ľ
×Ĳ×ľ ×Ļ×ŀ×ķ×ª
×ķ×Ķ ×ķ×Ĳ
Ġ×ĳ×¦ ×ľ×Ĳ×ľ
×Ķ×§ ×ŀ×ª
Ġ×ĳ×ł ×¤×Ĺ
Ġ×Ķ×ª×§ ×Ļ×Ļ×ŀ×ķ
Ġ×ľ×ª×§ ×ķ×¤×ª
×¤×¨×¡ ×ŀ×Ķ
Ġ×Ķ×ĵ ×Ļ×¨×ķ×Ĵ
Ġ×ķ×Ķ×ª ×¨×ĳ×ķ×ª
Ġ×ĳ×ŀ×Ĳ ×Ĵ×¨
×Ļ×¤ ×ķ×ĵ×Ļ×Ŀ
Ġ×Ķ×Ķ×¦ ×ĳ×¢×Ķ
ĠL T
Ġ×Ķ×¡×¤ ×¦×Ļ×¤×Ļ
Ġ×ĳ×Ĺ ×Ļ×ł×ķ×ª
×ª×§ ×ķ×¤×ª
Ġ×ĳ×¢ ×ľ×ķ×Ļ×ķ×ª
×Ļ×Ľ ×Ĳ×ľ
×ŀ×§ ×ķ×¨×ķ×ª
Ġ×ĳ×¢ ×Ļ×ª×ķ×ł×ķ×ª
Ġ×ĳ×Ĺ ×ĵ×©×ķ×ª
Ġ×ĳ×Ļ×ĵ ×Ļ×ķ
Ġ×ķ×ŀ ×ł×¡×Ķ
Ġ×©×ķ ×ķ×¨×¥
Ġ×ĳ×Ĵ ×ŀ×¨
Ġ×Ľ ×Ķ×ľ×Ľ×Ķ
W ordPress
Ġ×Ķ×¤ ×Ļ×Ĵ×ķ×¢
Ġ×ª×¨×Ĵ ×Ļ×ľ×Ļ×Ŀ
ĠS T
Ġ×¤ ×ŀ×Ļ×ł
Ġ7 3
Ġ×ķ×ľ ×©×ŀ
Ġ×ĳ×ª ×Ĵ×ķ×ĳ×ķ×ª
Ġ×¤×ķ×Ĵ ×©
×Ĺ×ª ×ł×ķ
Ġ×Ķ×ª ×Ĺ×Ļ×Ļ×ĳ
Ġ×©×Ļ ×Ļ×ĺ
Ġ×ĺ ×ľ×Ļ
×§×Ļ ×Ļ×ĺ×¨×Ļ×ł×Ĵ
Ġ×ł×Ľ ×©×ľ
Ġ×¨×Ĵ ×ľ×Ļ
Ġ×¤×¨×¦ ×ķ×¤×Ļ×Ŀ
Ġ×ŀ×¢ ×Ļ×ĵ×Ķ
×ł ×¢×Ļ×Ŀ
Ġ×¨ ×Ļ×ķ
Ġ×© ×ķ×ł×Ĳ
×Ĺ×ĵ×¨ ×Ļ
Ġ×ĳ×Ļ ×ķ×ĸ
×¤ ×Ļ×¨×ķ×©
Ġ×ľ×ŀ ×Ļ×ĺ×Ķ
Ġ×Ĳ×ĳ ×ķ×ľ
Ġ×ŀ×©×ľ ×Ļ×ŀ×Ļ×Ŀ
L P
Ġ×ŀ ×Ļ×ķ×ª×¨×Ļ×Ŀ
s c
Ġ×©×ł ×ŀ×¦×Ĳ×ª
Ġ×ĳ×Ķ×ķ×¨ ×Ĳ×Ķ
Ġ×Ķ×ĵ ×¤×ķ×¡
×Ĺ×ª ×Ļ×Ŀ
Ġ×¦×ľ ×Ļ×ľ
Ġ×Ķ×Ĳ×Ļ×ł ×¡×ĺ
Ġ×§×ķ×¨×¡ ×Ļ
Ġ×© ×ķ×¤×¨
Ġ×Ļ×Ĺ ×ĸ×¨×ķ
Ġ×Ķ×§ ×Ļ×¡×¨
Ġ×Ķ×ł ×ŀ×ľ
Ġ×Ķ×©×ŀ×Ĳ ×ľ×Ļ
×ķ×ł ×ĸ
×Ļ×ŀ ×Ļ×§×ľ×Ļ×Ŀ
Ġ×ľ×Ĳ ×ŀ×ķ×¨
Ġ×ŀ×¨ ×ķ×§×ķ
Ġ×©×ķ×¨ ×©×Ļ×Ŀ
Ö¼ ×ģÖ¸
Ġ×ĳ×ŀ×¡×Ĵ×¨×ª ×ķ
×ķ×ł×ª ×Ŀ
×ľ×ĵ ×ķ×Ĵ×ŀ×Ĳ
Ġ×¢×¦ ×ĳ
Ġ×ľ×Ķ ×ķ×¤×¢×Ķ
×¤×¢ ×Ļ×ľ×Ķ
×Ĳ ×ľ×ĳ×ķ×Ŀ
×©×ŀ ×ķ×Ĳ×ľ
Ġ×ľ×¢ ×©×¨×ķ×ª
Ġ×§×Ļ ×Ļ×ĺ
Ġ×ľ ×Ļ×ĺ×ķ×ľ
Ġ×ł×¢ ×¨×Ľ×ķ
Ġ×¨×¦ ×¤×ª
Ġ×©×ł ×ĵ×¨×©
Ġ×ľ×Ĵ ×ķ×¤×ķ
Ġ×Ķ×ł ×Ļ×¡×ķ×Ļ
Ġ×¨ ×¡
×Ļ×Ĳ ×ľ×Ļ×Ŀ
Ġ×ķ×ľ×ĵ ×¢×ª
Ġ×ĳ×§×ĺ ×Ĵ×ķ×¨×Ļ×Ļ×ª
Ġ×¡×Ĵ ×ķ×ľ×Ķ
Ġ×Ľ×¡ ×Ĳ
×§ ×¨×ĳ
Ġ×ķ×Ĺ ×ķ×ľ
Ġ×¡×Ļ×ľ ×Ļ×§×ķ×Ł
×ķ×ĳ ×©×ª
×Ĺ×ĸ ×ķ×Ł
×© ×ł×Ļ×ª
Ġ×ŀ×Ľ×ľ ×ķ×ľ
Ġ×ķ×ł×¢ ×Ļ×ŀ×Ķ
Ġ×ŀ×ĵ×¨ ×Ĵ×Ķ
Ġ×©×Ķ ×ķ×§×Ŀ
Ġ×ķ×ª ×ķ×Ľ×ľ×ķ
×¢ ×ľ×ķ
Ġ×Ķ×ĺ ×¨×Ĳ
Ġ×ł×Ļ×¦ ×ķ×ľ×Ļ
ĠC o
Ġ×ĳ ×ķ×¨×¡×Ķ
Ġ×ŀ×ĳ ×¦×¢×ª
Ġ×Ķ×ŀ×¤×ķ×¨×¡ ×ŀ×ª
Ġ×Ļ×© ×ł×ķ×ª
×Ĳ×ŀ ×ķ×ł×Ķ
Ġ×¨ ×ķ×¤
Ġ×Ķ×ŀ×ĳ ×ķ×Ĵ×¨×Ļ×Ŀ
×ķ×¡ ×§×¡
Ġ×ķ×Ĳ ×ŀ×¨×ķ
Ġ×Ķ×Ĳ ×¤×ľ×Ļ×§×¦×Ļ×ķ×ª
Ġ×ŀ×ŀ ×ķ×ª
×ł×Ĵ ×Ł
×ķ×Ľ ×©×Ļ×Ŀ
Ġ×§ ×ķ×Ĳ
Ġ×Ĳ×Ļ×ĵ ×Ļ×Ĳ×ľ×Ļ
Ġ×ŀ×© ×Ĳ×Ļ×ª
Ġ×ľ×Ĵ ×ķ×ĵ×ľ
Ġ×¡×¤×¦×Ļ×¤ ×Ļ×Ļ×Ŀ
Ġ×Ĳ ×Ļ×Ļ×Ŀ
×Ĳ ×ł×Ļ×Ŀ
×¨×Ĺ ×Ļ×ĳ
Ġ×ľ×Ķ×¡×ª ×ŀ×ļ
Ġ×Ľ ×Ļ×¤×ª
Ġ×§ ×ķ×ł×ĵ
Ġ×Ĳ×¨×Ĵ ×ł×ĺ×Ļ×ł×Ķ
Ġ×ŀ×ľ ×ķ×Ľ×ľ
Ġ×Ĺ×¡ ×Ļ×ĵ×ķ×ª
Ġ×ľ×¡ ×ŀ×Ł
Ġ×©×ł×ķ×¢×ĵ ×ķ
Ġ×ķ×Ĳ ×Ļ×ĸ×Ķ
Ġ×ľ×Ķ ×ĵ×ľ×Ļ×§
×¨×ª ×ķ
Ġ×Ļ×§ ×Ļ×¨
×©×Ķ ×ķ×Ĳ
Ġ×ĳ×ķ ×ķ×¢×ĵ×ª
×Ļ×Ļ×ª ×Ľ×Ł
×ł×ĵ×¨ ×ĺ
×ľ ×Ļ×§
Ġ×ŀ×Ķ ×ŀ×ª
×ŀ×ł×Ķ ×ľ×ª
Ġ×Ļ×© ×ŀ×¢
Ġ×Ĳ×ķ×¤×ĺ ×Ļ×ŀ
Ġ×Ķ×¤×¨ ×ķ×Ļ×§×ĺ×Ļ×Ŀ
×Ĳ ×ł×Ļ×ª
Ġ×ł ×ķ×¦×¨×Ķ
Ġ×Ķ×Ĳ ×ķ×Ķ×ĵ×Ļ×Ŀ
×ķ×ł×Ļ ×ķ×¨
Ġ×Ķ×ŀ×© ×Ĳ×ĳ×Ļ×Ŀ
×Ľ ×¡×Ļ×Ŀ
Ġ×Ķ×ł×¡ ×Ļ×ļ
Ġ×ĳ×¨ ×ķ×ŀ×Ĳ
×ŀ×Ĳ ×Ĺ×ķ×¨×Ļ
×§ ×Ĺ
Ġ×Ķ×¦ ×ľ×Ŀ
Ġ×Ĵ ×Ĳ×Ļ×Ŀ
Ġ×ł×ĸ ×Ļ×ľ×ķ×ª
×¡×¨×ĺ ×ķ×ł×Ļ
Ġ×ľ×Ĺ ×ķ×¤×©
Ġ×ľ×Ķ ×Ļ×¡×ĺ×ķ×¨×Ļ×Ķ
Ġ×ľ×ł×ª ×Ĺ
Ġ×ĸ ×Ļ×Ľ×¨×ķ×ł×ķ×ª
×¤ ×Ļ×ľ×Ļ×Ŀ
Ġ×ŀ×¡ ×¨×ĺ
Ġ×ł ×ķ×ĸ×ľ
Ġ×ĳ×ŀ×ª ×ŀ×ĺ×Ļ×§×Ķ
×ĳ×ľ ×Ļ×ĺ
Ġ×¦ ×Ļ×ł×ķ×¨×ķ×ª
Ġ×ĳ×Ĵ ×ł×Ļ
×©×¨×ª ×Ļ×Ŀ
Ġ×Ķ×Ĵ ×ĳ×ľ×ª
Ġ×Ĺ ×ķ×Ĵ×Ļ×Ŀ
Ġ×Ĳ×ľ ×ķ×ł×Ļ×Ŀ
Ġ×Ļ×¢ ×ĳ×ķ×ĵ
Ġ×Ķ×¢ ×ŀ×ĵ×Ķ
×Ļ×¨×ķ×ª ×ķ
f acebook
Ð ¾
×Ĺ ×ķ×Ĵ
Ġ×ŀ×Ľ ×ł×Ķ
Ġ×ŀ×ķ×Ľ ×ł×ķ×ª
Ġ×ĳ×ĵ×¨ ×Ļ×©×ķ×ª
Ġ×ĳ×¨×ķ×ł×ĺ ×Ļ×ª
×Ķ ×§×¨
Ġ×ĳ×ª ×Ļ×Ķ
Ġ×ŀ×ķ×¤ ×¢×Ļ×Ŀ
×ķ×Ķ ×Ĵ
Ġ×ĺ×ľ×¤ ×ķ×ł×Ļ×ª
×Ľ ×ķ×¡
Ġ×ĳ×Ķ ×¨×Ľ×ĳ
Ġ×ŀ×¢×ķ×¦ ×ĳ×ª
Ġ×Ķ×ķ×¦ ×Ļ×Ĳ×Ķ
Ġ×¡ ×Ļ×ĺ
Ġ×¦ ×ŀ×¨
Ġ×Ľ×ľ×Ľ×ľ ×Ļ×ķ×ª
×ĸ ×ķ×§×Ķ
Ġ×Ĺ×¨ ×Ļ×Ĵ×Ļ×Ŀ
Ġ×ľ×ŀ ×Ĺ×©×ĳ×Ķ
Ġ×Ľ×Ļ×© ×ľ×ķ×Ł
Ġ×Ĺ ×¨×ĳ
Ġ×Ľ×Ļ×¡ ×Ĳ
Ġ×ķ×Ķ ×ĵ×¨×Ľ×Ķ
×ª ×ķ×¨×ª
[...]
