{
  "version": "1.0",
  "truncation": null,
  "padding": null,
  "added_tokens": [
    {
      "id": 0,
      "content": "<|endoftext|>",
      "single_word": false,
      "lstrip": false,
      "rstrip": false,
      "normalized": false,
      "special": true
    }
  ],
  "normalizer": null,
  "pre_tokenizer": {
    "type": "ByteLevel",
    "add_prefix_space": false,
    "trim_offsets": true,
    "use_regex": true
  },
  "post_processor": {
    "type": "ByteLevel",
    "add_prefix_space": true,
    "trim_offsets": false,
    "use_regex": true
  },
  "decoder": {
    "type": "ByteLevel",
    "add_prefix_space": true,
    "trim_offsets": true,
    "use_regex": true
  },
  "model": {
    "type": "BPE",
    "dropout": null,
    "unk_token": null,
    "continuing_subword_prefix": "",
    "end_of_word_suffix": "",
    "fuse_unk": false,
    "byte_fallback": false,
    "vocab": {
      "<|endoftext|>": 0,
      "!": 1,
      "\"": 2,
      "#": 3,
      "$": 4,
      "%": 5,
      "&": 6,
      "'": 7,
      "(": 8,
      ")": 9,
      "*": 10,
      "+": 11,
      ",": 12,
      "-": 13,
      ".": 14,
      "/": 15,
      "0": 16,
      "1": 17,
      "2": 18,
      "3": 19,
      "4": 20,
      "5": 21,
      "6": 22,
      "7": 23,
      "8": 24,
      "9": 25,
      ":": 26,
      ";": 27,
      "<": 28,
      "=": 29,
      ">": 30,
      "?": 31,
      "@": 32,
      "A": 33,
      "B": 34,
      "C": 35,
      "D": 36,
      "E": 37,
      "F": 38,
      "G": 39,
      "H": 40,
      "I": 41,
      "J": 42,
      "K": 43,
      "L": 44,
      "M": 45,
      "N": 46,
      "O": 47,
      "P": 48,
      "Q": 49,
      "R": 50,
      "S": 51,
      "T": 52,
      "U": 53,
      "V": 54,
      "W": 55,
      "X": 56,
      "Y": 57,
      "Z": 58,
      "[": 59,
      "\\": 60,
      "]": 61,
      "^": 62,
      "_": 63,
      "`": 64,
      "a": 65,
      "b": 66,
      "c": 67,
      "d": 68,
      "e": 69,
      "f": 70,
      "g": 71,
      "h": 72,
      "i": 73,
      "j": 74,
      "k": 75,
      "l": 76,
      "m": 77,
      "n": 78,
      "o": 79,
      "p": 80,
      "q": 81,
      "r": 82,
      "s": 83,
      "t": 84,
      "u": 85,
      "v": 86,
      "w": 87,
      "x": 88,
      "y": 89,
      "z": 90,
      "{": 91,
      "|": 92,
      "}": 93,
      "~": 94,
      "¡": 95,
      "¢": 96,
      "£": 97,
      "¤": 98,
      "¥": 99,
      "¦": 100,
      "§": 101,
      "¨": 102,
      "©": 103,
      "ª": 104,
      "«": 105,
      "¬": 106,
      "®": 107,
      "¯": 108,
      "°": 109,
      "±": 110,
      "²": 111,
      "³": 112,
      "´": 113,
      "µ": 114,
      "¶": 115,
      "·": 116,
      "¸": 117,
      "¹": 118,
      "º": 119,
      "»": 120,
      "¼": 121,
      "½": 122,
      "¾": 123,
      "¿": 124,
      "À": 125,
      "Á": 126,
      "Â": 127,
      "Ã": 128,
      "Ä": 129,
      "Å": 130,
      "Æ": 131,
      "Ç": 132,
      "È": 133,
      "É": 134,
      "Ê": 135,
      "Ë": 136,
      "Ì": 137,
      "Í": 138,
      "Î": 139,
      "Ï": 140,
      "Ð": 141,
      "Ñ": 142,
      "Ò": 143,
      "Ó": 144,
      "Ô": 145,
      "Õ": 146,
      "Ö": 147,
      "×": 148,
      "Ø": 149,
      "Ù": 150,
      "Ú": 151,
      "Û": 152,
      "Ü": 153,
      "Ý": 154,
      "Þ": 155,
      "ß": 156,
      "à": 157,
      "á": 158,
      "â": 159,
      "ã": 160,
      "ä": 161,
      "å": 162,
      "æ": 163,
      "ç": 164,
      "è": 165,
      "é": 166,
      "ê": 167,
      "ë": 168,
      "ì": 169,
      "í": 170,
      "î": 171,
      "ï": 172,
      "ð": 173,
      "ñ": 174,
      "ò": 175,
      "ó": 176,
      "ô": 177,
      "õ": 178,
      "ö": 179,
      "÷": 180,
      "ø": 181,
      "ù": 182,
      "ú": 183,
      "û": 184,
      "ü": 185,
      "ý": 186,
      "þ": 187,
      "ÿ": 188,
      "Ā": 189,
      "ā": 190,
      "Ă": 191,
      "ă": 192,
      "Ą": 193,
      "ą": 194,
      "Ć": 195,
      "ć": 196,
      "Ĉ": 197,
      "ĉ": 198,
      "Ċ": 199,
      "ċ": 200,
      "Č": 201,
      "č": 202,
      "Ď": 203,
      "ď": 204,
      "Đ": 205,
      "đ": 206,
      "Ē": 207,
      "ē": 208,
      "Ĕ": 209,
      "ĕ": 210,
      "Ė": 211,
      "ė": 212,
      "Ę": 213,
      "ę": 214,
      "Ě": 215,
      "ě": 216,
      "Ĝ": 217,
      "ĝ": 218,
      "Ğ": 219,
      "ğ": 220,
      "Ġ": 221,
      "ġ": 222,
      "Ģ": 223,
      "ģ": 224,
      "Ĥ": 225,
      "ĥ": 226,
      "Ħ": 227,
      "ħ": 228,
      "Ĩ": 229,
      "ĩ": 230,
      "Ī": 231,
      "ī": 232,
      "Ĭ": 233,
      "ĭ": 234,
      "Į": 235,
      "į": 236,
      "İ": 237,
      "ı": 238,
      "Ĳ": 239,
      "ĳ": 240,
      "Ĵ": 241,
      "ĵ": 242,
      "Ķ": 243,
      "ķ": 244,
      "ĸ": 245,
      "Ĺ": 246,
      "ĺ": 247,
      "Ļ": 248,
      "ļ": 249,
      "Ľ": 250,
      "ľ": 251,
      "Ŀ": 252,
      "ŀ": 253,
      "Ł": 254,
      "ł": 255,
      "Ń": 256,
      "×Ļ": 257,
      "×ķ": 258,
      "×ķ×": 259,
      "×Ļ×": 260,
      "×Ķ": 261,
      "×ľ": 262,
      "×ŀ": 263,
      "×Ĳ": 264,
      "×ĳ": 265,
      "×¨": 266,
      "×©": 267,
      "×ª": 268,
      "Ġ×Ķ": 269,
      "×¢": 270,
      "×ł": 271,
      "Ġ×ľ": 272,
      "×Ĺ": 273,
      "Ġ×ĳ": 274,
      "×Ľ": 275,
      "Ġ×ŀ": 276,
      "×ķ×ª": 277,
      "×Ļ×Ŀ": 278,
      "Ġ×Ĳ": 279,
      "×ĵ": 280,
      "×§": 281,
      "Ġ×©": 282,
      "×¤": 283,
      "×¡": 284,
      "×Ĵ": 285,
      "×ĺ": 286,
      "×Ŀ": 287,
      "×¦": 288,
      "Ġ×ķ×": 289,
      "Ġ×¢": 290,
      "×ķ×¨": 291,
      "×ĸ": 292,
      "Ġ×Ľ": 293,
      "×Ļ×ª": 294,
      "Ġ×©×ľ": 295,
      "×ķ×ľ": 296,
      "×Ł": 297,
      "×Ļ×¨": 298,
      "Ġ×ł": 299,
      "Ġ×Ĺ": 300,
      "×ķ×ĵ": 301,
      "Ġ×Ķ×ŀ": 302,
      "×Ļ×Ķ": 303,
      "×Ļ×ł": 304,
      "×ķ×ĳ": 305,
      "×ķ×ł": 306,
      "Ġ×Ĳ×ª": 307,
      "×ķ×Ł": 308,
      "Ġ×ª": 309,
      "×Ļ×©": 310,
      "×Ļ×ľ": 311,
      "Ġ×¨": 312,
      "Ġ×¤": 313,
      "×Ļ×ķ×ª": 314,
      "Ġ×§": 315,
      "×ĳ×¨": 316,
      "×ļ": 317,
      "Ġ×ľ×Ķ": 318,
      "×ł×Ļ": 319,
      "Ġ×¢×ľ": 320,
      "×Ļ×ĵ": 321,
      "×Ļ×Ł": 322,
      "Ġ×Ĵ": 323,
      "Ġ×ľ×Ĳ": 324,
      "×ķ×Ĳ": 325,
      "×ķ×Ŀ": 326,
      "×Ļ×§": 327,
      "Ġ×ĸ": 328,
      "×ķ×ŀ": 329,
      "×Ļ×ĳ": 330,
      "Ġ×¡": 331,
      "Ġ×ĵ": 332,
      "×Ļ×ŀ": 333,
      "×ķ×¤": 334,
      "×ķ×©": 335,
      "Ġ×Ķ×Ĳ": 336,
      "×ķ×¢": 337,
      "×ķ×§": 338,
      "×¨×Ĳ": 339,
      "âĢ": 340,
      "×Ļ×Ĳ": 341,
      "×ķ×¡": 342,
      "×¤×¨": 343,
      "×Ļ×¢": 344,
      "×ķ×Ĺ": 345,
      "Ġ×ĳ×ŀ": 346,
      "×©×¨": 347,
      "×Ļ×Ľ": 348,
      "×Ļ×Ļ×Ŀ": 349,
      "×ł×ķ": 350,
      "×ł×Ķ": 351,
      "×Ĺ×¨": 352,
      "×Ļ×¤": 353,
      "×ķ×¦": 354,
      "Ġ×Ķ×©": 355,
      "Ġ×ĳ×Ĳ": 356,
      "×ķ×Ĵ": 357,
      "Ġ×ľ×ŀ": 358,
      "×Ļ×¡": 359,
      "×Ļ×ĺ": 360,
      "×Ľ×ľ": 361,
      "Ġ×Ķ×ª": 362,
      "Ġ×¦": 363,
      "Ġ(": 364,
      "Ġ×Ķ×Ĺ": 365,
      "×Ļ×¦": 366,
      "×Ļ×ķ": 367,
      "Ġ×ŀ×Ķ": 368,
      "×ķ×Ľ": 369,
      "Ġ×ķ×Ķ": 370,
      "Ġ-": 371,
      "Ġ×Ķ×¢": 372,
      "×ĵ×¨": 373,
      "Ġ×ĺ": 374,
      "×ª×Ļ": 375,
      "Ġ×ĳ×¢": 376,
      "×ĳ×ľ": 377,
      "Ġ×ŀ×©": 378,
      "×Ļ×Ĺ": 379,
      "Ġ×Ľ×ľ": 380,
      "Ġ×©×Ķ": 381,
      "×£": 382,
      "×ŀ×Ķ": 383,
      "Ġ×Ĳ×ľ": 384,
      "Ġ×Ķ×¨": 385,
      "Ġ×Ļ": 386,
      "×¨×Ļ×Ŀ": 387,
      "Ġ×Ļ×©": 388,
      "Ġ×¢×Ŀ": 389,
      "Ġ×ķ×ŀ": 390,
      "Ġ\"": 391,
      "Ġ×ķ×ľ": 392,
      "Ġ×ŀ×Ĳ": 393,
      "..": 394,
      "×ĺ×¨": 395,
      "Ġ×ĸ×Ķ": 396,
      "×¨×Ľ": 397,
      "Ġ×Ķ×ĳ": 398,
      "×ł×Ļ×Ŀ": 399,
      "×ľ×Ķ": 400,
      "×ŀ×©": 401,
      "×ľ×Ĳ": 402,
      "ĠâĢ": 403,
      "Ġ×ŀ×ª": 404,
      "×ķ×ĺ": 405,
      "Ġ×Ķ×§": 406,
      "Ġ×ľ×¢": 407,
      "Ġ×ŀ×¡": 408,
      "Ġ×ķ": 409,
      "Ġ×ŀ×¢": 410,
      "×ĵ×Ļ": 411,
      "Ġ×Ķ×¡": 412,
      "Ġ×ķ×Ĳ": 413,
      "×ł×ķ×ª": 414,
      "Ġ×Ķ×ķ×Ĳ": 415,
      "Ġ×Ķ×ł": 416,
      "Ġ1": 417,
      "Ġ×ĳ×©": 418,
      "Ġ×ĳ×ª": 419,
      "Ġ×©×ŀ": 420,
      "×Ĳ×ª": 421,
      "Ġ×Ĳ×ķ": 422,
      "Ġ×ľ×©": 423,
      "Ġ2": 424,
      "×ĳ×¢": 425,
      "×ķ×Ļ": 426,
      "Ġ×Ķ×¤": 427,
      "Ġ×Ķ×Ĵ": 428,
      "Ġ×ĳ×Ķ": 429,
      "×ľ×Ļ": 430,
      "×Ļ×ļ": 431,
      "Ġ×ķ×ĳ": 432,
      "Ġ×ŀ×§": 433,
      "×Ļ×ķ×ª×¨": 434,
      "Ġ×ľ×¤": 435,
      "×ķ×Ķ": 436,
      "×©×Ķ": 437,
      "Ġ×ĳ×¨": 438,
      "Ġ×ľ×ĳ": 439,
      "×ķ×ł×Ķ": 440,
      "Ġ×Ķ×ĸ": 441,
      "Ġ×ľ×Ĺ": 442,
      "×ł×ª": 443,
      "Ġ×Ķ×Ķ": 444,
      "×©×ª": 445,
      "×¨×Ķ": 446,
      "Ġ×©×Ĳ": 447,
      "×Ļ×Ĵ": 448,
      "Ġ×Ĳ×ķ×ª": 449,
      "×ŀ×ª": 450,
      "×©×Ļ×Ŀ": 451,
      "×ĵ×Ļ×Ŀ": 452,
      "×¥": 453,
      "×ķ×ĸ": 454,
      "Ġ×Ķ×Ľ": 455,
      "Ġ×ŀ×Ĺ": 456,
      "×¨×ª": 457,
      "ĠâĢĵ": 458,
      "×ĳ×Ķ": 459,
      "×Ĺ×ª": 460,
      "Ġ×Ķ×¦": 461,
      "Ġ×ľ×§": 462,
      "×Ļ×¨×ķ×ª": 463,
      "Ġ×Ĵ×Ŀ": 464,
      "Ġ×¤×¨": 465,
      "×ķ×ļ": 466,
      "×ŀ×ķ": 467,
      "×ķ×ł×Ļ×Ŀ": 468,
      "Ġ×ĳ×Ĺ": 469,
      "×ķ×ł×ķ×ª": 470,
      "×¢×ķ×ª": 471,
      "×ŀ×¨": 472,
      "×ľ×Ļ×Ŀ": 473,
      "×Ļ×ĸ": 474,
      "Ġ×Ľ×Ļ": 475,
      "×ľ×§": 476,
      "×ł×¡": 477,
      "×¨×ĳ": 478,
      "Ġ×ŀ×¦": 479,
      "Ġ×Ĳ×Ĺ×¨": 480,
      "×ķ×¨×Ķ": 481,
      "×Ļ×ł×ķ": 482,
      "Ġ_": 483,
      "×Ľ×Ŀ": 484,
      "×Ļ×¨×Ķ": 485,
      "×¨×Ĵ": 486,
      "×ŀ×Ł": 487,
      "×¤×ª": 488,
      "×ŀ×¦": 489,
      "×ķ×£": 490,
      "×ľ×ķ": 491,
      "×Ļ×ł×Ķ": 492,
      "×¢×ª": 493,
      "×Ļ×ķ×Ł": 494,
      "Ġ×Ķ×ĵ": 495,
      "00": 496,
      "×¨×Ĳ×ľ": 497,
      "×ķ×ľ×Ŀ": 498,
      "×©×ķ×ª": 499,
      "Ġ×ķ×¢": 500,
      "Ġ×Ķ×Ļ×Ĳ": 501,
      "Ġ×ĳ×¡": 502,
      "×Ĳ×Ļ": 503,
      "×Ľ×ª": 504,
      "Ġ×Ķ×Ļ": 505,
      "×Ĺ×§": 506,
      "Ġ×©×ĳ": 507,
      "×Ĺ×ĵ": 508,
      "×ª×¨": 509,
      "×ĳ×Ļ×Ŀ": 510,
      "×¡×§": 511,
      "×ķ×ĵ×Ķ": 512,
      "×ĵ×Ķ": 513,
      "Ġ×Ľ×Ĳ": 514,
      "×Ļ×Ľ×ķ×ľ": 515,
      "×ķ×¨×Ļ×Ŀ": 516,
      "×ł×ĺ": 517,
      "Ġ×Ļ×ķ×ª×¨": 518,
      "×ĳ×Ļ": 519,
      "Ġ×ĳ×§": 520,
      "Ġ×ľ×ª": 521,
      "×Ĳ×¨": 522,
      "×ĸ×Ķ": 523,
      "Ö¼": 524,
      "Ġ×ŀ×ĳ": 525,
      "Ġ×ķ×Ľ": 526,
      "Ġ×ľ×Ļ": 527,
      "Ġ×Ķ×Ļ×Ķ": 528,
      "Ġ×Ķ×ŀ×©": 529,
      "Ġ×Ĳ×ł": 530,
      "×¨×Ĳ×©": 531,
      "Ġ×ŀ×Ľ": 532,
      "×ķ×ł×Ļ": 533,
      "×ľ×ª": 534,
      "Ġ×Ĳ×ł×Ļ": 535,
      "×¤×©×¨": 536,
      "×ľ×ĳ": 537,
      "×ľ×ķ×ª": 538,
      "×ł×Ļ×ª": 539,
      "Ġ×Ļ×ĵ": 540,
      "×¨×Ļ": 541,
      "×ķ×ĳ×Ķ": 542,
      "Ġ×ŀ×ĵ": 543,
      "×ŀ×Ļ×Ŀ": 544,
      "Ġ×ŀ×Ļ": 545,
      "×¨×ĺ": 546,
      "×ĳ×ª": 547,
      "×¤×§": 548,
      "×Ļ×ľ×Ķ": 549,
      "×Ĳ×Ļ×Ŀ": 550,
      "Ġ×Ĳ×Ŀ": 551,
      "×¤×Ļ": 552,
      "×ľ×Ĺ": 553,
      "Ġ×ĳ×ł": 554,
      "...": 555,
      "×Ĳ×ķ×ª": 556,
      "×¢×Ķ": 557,
      "Ġ×ŀ×Ĵ": 558,
      "Ġ×¨×Ĳ": 559,
      "01": 560,
      "Ġ×ŀ×ŀ": 561,
      "Ö¸": 562,
      "Ġ×©×ł": 563,
      "×ķ×ľ×Ķ": 564,
      "×ŀ×Ļ": 565,
      "Ġ×¢×ĳ": 566,
      "Ġ×ľ×¦": 567,
      "Ġ×¢×ĵ": 568,
      "×ķ×Ļ×ķ×ª": 569,
      "×Ĵ×ľ": 570,
      "×Ĳ×Ķ": 571,
      "×Ļ×§×Ķ": 572,
      "×ĺ×Ļ": 573,
      "×©×ĳ": 574,
      "×ŀ×ķ×ª": 575,
      "Ö°": 576,
      "Ġ×Ĳ×ĳ": 577,
      "Ġ×Ĳ×ĳ×ľ": 578,
      "Ġ×ĳ×ĳ": 579,
      "Ġ×Ķ×ĺ": 580,
      "Ġ×Ļ×Ľ×ķ×ľ": 581,
      "Ġ×ĳ×Ļ×Ł": 582,
      "Ġ×¤×¢": 583,
      "×ŀ×ĵ": 584,
      "×ĸ×¨": 585,
      "Ġ×Ĺ×ĳ×¨": 586,
      "Ġ×Ĺ×ĵ": 587,
      "Ġ×ķ×©": 588,
      "×ķ×¥": 589,
      "×ľ×ĺ": 590,
      "Ġ×¨×§": 591,
      "×ĵ×Ŀ": 592,
      "×Ĺ×Ķ": 593,
      "Ġ×ľ×Ľ": 594,
      "×¢×¨": 595,
      "Ġ×¢×¦": 596,
      "×Ĵ×¨": 597,
      "Ġ×ĳ×Ľ×ľ": 598,
      "×ķ×ķ": 599,
      "×¤×Ļ×Ŀ": 600,
      "×Ĺ×ķ×ª": 601,
      "Ġ×Ĳ×Ĺ×ĵ": 602,
      "×©×ľ": 603,
      "×ĺ×Ļ×Ŀ": 604,
      "Ġ×ķ×ł": 605,
      "Ġ×ĳ×Ľ": 606,
      "×ŀ×¢": 607,
      "Ġ×ľ×ĵ": 608,
      "Ġ3": 609,
      "\".": 610,
      "×Ļ×£": 611,
      "Ġ×Ļ×Ķ": 612,
      "Ġ×Ľ×ļ": 613,
      "×ŀ×Ļ×ĵ": 614,
      "×ŀ×ķ×ĵ": 615,
      "Ġ×ĳ×¤": 616,
      "Ġ×ľ×¡": 617,
      "Ġ×ŀ×¨": 618,
      "Ġ×Ĳ×¨": 619,
      "Ġ,": 620,
      "Ö·": 621,
      "Ġ×Ķ×Ŀ": 622,
      "Ġ×ľ×Ķ×ª": 623,
      "×Ļ×ĳ×Ķ": 624,
      "×Ļ×©×Ķ": 625,
      "Ġ×ľ×ķ": 626,
      "Ġ×ľ×Ĵ": 627,
      "×Ļ×¢×Ķ": 628,
      "×ĵ×ķ×ª": 629,
      "Ö´": 630,
      "×Ļ×¨×Ļ×Ŀ": 631,
      "×ĳ×ķ×ª": 632,
      "×Ļ×¤×Ķ": 633,
      "Ġ×Ļ×©×¨×Ĳ×ľ": 634,
      "Ġ×ĳ×¦": 635,
      "Ġ×Ľ×ĵ×Ļ": 636,
      "Ġ×Ķ×ľ": 637,
      "×¢×ľ": 638,
      "Ġ×ĳ×Ļ×ª": 639,
      "×¢×Ļ×Ŀ": 640,
      "Ġ×ŀ×¤": 641,
      "×ķ×ľ×Ļ×Ŀ": 642,
      "Ġ×Ľ×ŀ×ķ": 643,
      "×Ľ×Ł": 644,
      "×ĸ×ķ×¨": 645,
      "×Ľ×ł": 646,
      "×ķ×¨×ª": 647,
      "Ġ×ĳ×Ĵ": 648,
      "Ġ×ł×ķ×¡": 649,
      "×Ļ×ķ×Ŀ": 650,
      "×ŀ×Ĳ": 651,
      "×Ļ×ª×Ķ": 652,
      "×ķ×ŀ×¨": 653,
      "×ĵ×ª": 654,
      "×Ļ×ŀ×Ķ": 655,
      "×©×Ļ": 656,
      "Ġ×ĳ×ĵ": 657,
      "×Ļ×ª×Ļ": 658,
      "×Ķ×ľ": 659,
      "×ĳ×¨×Ķ": 660,
      ").": 661,
      "Ġ×ķ×ľ×Ĳ": 662,
      "Ġ201": 663,
      "×Ĳ×ķ": 664,
      "×§×¨": 665,
      "×Ĺ×Ļ×Ŀ": 666,
      "×¨×Ľ×ĸ": 667,
      "Ġ×ķ×ª": 668,
      "×ĳ×¨×Ļ×Ŀ": 669,
      "Ġ×¦×¨": 670,
      "Ġ×Ĺ×©": 671,
      "×ķ×¨×Ļ": 672,
      "Ġ×ķ×Ĺ": 673,
      "×ŀ×ľ": 674,
      "×ķ×¨×ķ×ª": 675,
      "Ġ×ŀ×ł": 676,
      "Ġ×ĳ×ľ": 677,
      "×¤×ĺ": 678,
      "Ġ×Ĵ×ĵ": 679,
      "Ġ×ĳ×Ļ×ķ×ª×¨": 680,
      "×Ľ×Ķ": 681,
      "×ª×Ĺ": 682,
      "Ġ×ĳ×ĺ": 683,
      "Ġ×©×ľ×Ĳ": 684,
      "×¨×ķ×ª": 685,
      "Ġ×Ĳ×Ļ×Ł": 686,
      "×ķ×ĳ×ķ×ª": 687,
      "Ġ×§×¨": 688,
      "×ķ×¦×Ķ": 689,
      "Ġ×Ĳ×ŀ": 690,
      "×Ĳ×Ŀ": 691,
      "Ġ×©×¢": 692,
      "×ķ×ľ×Ļ": 693,
      "×Ļ×¨×ª": 694,
      "×¤×ľ": 695,
      "×¨×Ĳ×Ķ": 696,
      "×Ļ×ł×Ļ×Ŀ": 697,
      "Ġ×Ĺ×Ļ": 698,
      "Ġ×Ķ×ŀ×§": 699,
      "×¤×ķ×¨": 700,
      "Ġ×ª×§": 701,
      "Ġ×ĳ×ķ": 702,
      "Ġ×Ļ×Ĺ": 703,
      "×ł×Ļ×Ķ": 704,
      "×Ĵ×ĵ": 705,
      "Ġ×Ķ×¨×Ĳ×©": 706,
      "×ķ×ķ×ª": 707,
      "×ķ×¨×ļ": 708,
      "Ġ×Ľ×ª": 709,
      "×Ļ×ª×Ł": 710,
      "×ł×§": 711,
      "×Ļ×Ľ×Ķ": 712,
      "×Ļ×ŀ×Ļ×Ŀ": 713,
      "×¡×ĺ": 714,
      "×¦×ľ": 715,
      "Ġ×ĸ×ķ": 716,
      "×Ļ×©×¨×Ĳ×ľ": 717,
      "Ġ×Ļ×¦": 718,
      "âĢ¬": 719,
      "Ġ×ľ×Ķ×Ļ×ķ×ª": 720,
      "×¦×Ķ": 721,
      "×ŀ×Ĺ": 722,
      "×Ľ×©": 723,
      "er": 724,
      "Ġ×¢×ķ×ĵ": 725,
      "Ġ×©×§": 726,
      "×¦×ķ×¢": 727,
      "Ġ×Ĳ×ķ×ª×ķ": 728,
      "×Ļ×ł×Ļ": 729,
      "×Ļ×ľ×ķ": 730,
      "×Ļ×ľ×ĵ×Ļ×Ŀ": 731,
      "Ġ×Ķ×¤×¨": 732,
      "×¤×Ķ": 733,
      "Ġ×ĵ×¨": 734,
      "×Ļ×ĵ×Ķ": 735,
      "in": 736,
      "×ķ×ŀ×Ļ": 737,
      "Ġ×Ĳ×Ļ×©": 738,
      "×Ĺ×ł×ķ": 739,
      "Ġ×¨×Ĳ×©": 740,
      "\",": 741,
      "Ġ×Ļ×¨": 742,
      "Ġ×ľ×¨": 743,
      "Ġ×Ķ×ĸ×Ķ": 744,
      "×Ľ×ķ×ª": 745,
      "Ġ×ĳ×ŀ×§": 746,
      "×Ĳ×ľ": 747,
      "Ġ×ķ×Ĵ": 748,
      "×Ļ×ľ×Ļ×Ŀ": 749,
      "Ġ×ľ×¤×ł×Ļ": 750,
      "×Ļ×Ķ×Ŀ": 751,
      "Ġ×ľ×Ĳ×Ĺ×¨": 752,
      "×Ļ×ł×ª": 753,
      "×ķ×ĳ×¨": 754,
      "×ķ×ķ×Ķ": 755,
      "Ġ×ŀ×Ĳ×ķ×ĵ": 756,
      "Ġ×Ĳ×Ļ×ł": 757,
      "×Ļ×ľ×ķ×ª": 758,
      "Ö¹": 759,
      "×¤×¡": 760,
      "Ġ4": 761,
      "Ġ×ľ×Ľ×ľ": 762,
      "×¤×ķ×ª": 763,
      "×Ļ×ŀ×ķ×©": 764,
      "Ġ×©×ľ×Ļ": 765,
      "Ġ×©×Ľ": 766,
      "Ġ×ķ×¨": 767,
      "Ġ×©×ľ×Ķ": 768,
      "Ġ×Ĳ×©×¨": 769,
      "Ġ×Ļ×ĵ×Ļ": 770,
      "),": 771,
      "×ķ×¤×Ķ": 772,
      "Ġ×ĺ×ķ×ĳ": 773,
      "Ġ×ĸ×Ĳ×ª": 774,
      "Ġ×Ĳ×ļ": 775,
      "×ŀ×§": 776,
      "×ķ×Ĺ×ķ×ª": 777,
      "×ķ×ŀ×Ķ": 778,
      "Ġ×Ĳ×¤×©×¨": 779,
      "Ö¶": 780,
      "×ª×§": 781,
      "×¨×Ľ×ª": 782,
      "Ġ5": 783,
      "Ġ×ł×©": 784,
      "×Ļ×ĵ×¢": 785,
      "×ķ×¤×Ł": 786,
      "âĢĿ": 787,
      "Ġ×§×ĺ": 788,
      "×©×ķ": 789,
      "Ġ×ľ×ł": 790,
      "Ġ×ŀ×ĸ": 791,
      "×ķ×ĵ×ķ×ª": 792,
      "×ł×Ļ×Ļ×Ł": 793,
      "×¨×¥": 794,
      "×Ĳ×ł×Ļ": 795,
      "Ġ×¡×¤×¨": 796,
      "×ĵ×¨×ļ": 797,
      "Ġ×ŀ×ĺ": 798,
      "×Ļ×¨×ķ×¢": 799,
      "×Ĺ×Ļ": 800,
      "×¦×Ļ": 801,
      "×ķ×Ĳ×¨": 802,
      "Ġ×Ľ×ĳ×¨": 803,
      "×ĸ×§": 804,
      "Ġ×ł×Ļ×ª×Ł": 805,
      "Ġ×ŀ×ľ": 806,
      "×Ļ×§×¨": 807,
      "Ġ×©×Ļ×©": 808,
      "×ĳ×§": 809,
      "Ġ×ª×ľ": 810,
      "Ġ×©×ľ×ł×ķ": 811,
      "Ġ×Ļ×¢": 812,
      "×ķ×Ľ×ľ": 813,
      "Ġ×©×ª": 814,
      "Ġ×ľ×Ķ×Ĵ": 815,
      "Ġ×Ķ×Ľ×ľ": 816,
      "Ġ×Ľ×ŀ×Ķ": 817,
      "Ġ×©×ľ×ļ": 818,
      "Ġ×©×Ŀ": 819,
      "×Ľ×¨": 820,
      "Ġ×ŀ×ŀ×©": 821,
      "×ķ×©×Ķ": 822,
      "Ġ×Ĵ×ĳ": 823,
      "Ġ×Ķ×ŀ×Ĺ": 824,
      "Ġ×ª×Ĺ": 825,
      "Ġ×Ķ×Ĳ×Ĺ×¨": 826,
      "×Ľ×Ļ×Ŀ": 827,
      "×ķ×ĵ×Ļ": 828,
      "Ġ×Ĵ×¨": 829,
      "×¢×Ŀ": 830,
      "Ġ×ķ×¤": 831,
      "Ġ/": 832,
      "Ġ×Ľ×Ĳ×Ł": 833,
      "Ġ×ľ×ł×ķ": 834,
      "Ġ×©×¨": 835,
      "×ķ×ŀ×Ļ×Ŀ": 836,
      "Ġ×ŀ×ķ×¦": 837,
      "×Ļ×¥": 838,
      "Ġ×ľ×Ľ×Ŀ": 839,
      "×ł×ķ×¢": 840,
      "×¦×¨": 841,
      "Ġ.": 842,
      "Ġ×ł×Ľ": 843,
      "×Ļ×¡×ĺ": 844,
      "×ĳ×Ĳ": 845,
      "×Ļ×ĳ×ķ×¨": 846,
      "×ķ×Ĳ×Ķ": 847,
      "Ġ×ķ×ľ×Ķ": 848,
      "Ġ×ĳ×ł×Ļ": 849,
      "Ġ×Ĺ×ľ×§": 850,
      "×¡×ª": 851,
      "Ġ×©×ľ×ķ": 852,
      "Ġ×©×Ķ×ķ×Ĳ": 853,
      "Ġ×ĵ×ĳ×¨": 854,
      "on": 855,
      "Ġ×ľ×ĺ": 856,
      "Ġ×Ĳ×ĸ": 857,
      "Ġ×Ķ×Ļ×ķ×Ŀ": 858,
      "×Ļ×ĳ×ķ×ª": 859,
      "×ł×ĵ": 860,
      "Ġ×ĳ×Ł": 861,
      "Ġ×Ļ×ķ×Ŀ": 862,
      "×§×¡": 863,
      "×ķ×¡×£": 864,
      "Ġ×ł×ª": 865,
      "Ġ×ľ×ľ×Ĳ": 866,
      "Ġ×Ľ×©": 867,
      "Ġ×ľ×ļ": 868,
      "Ġ×Ľ×ķ×ľ": 869,
      "×ŀ×¡": 870,
      "Ġ19": 871,
      "Ġ×Ķ×ŀ×¢": 872,
      "×Ļ×Ĳ×ķ×ª": 873,
      "×ª×ķ": 874,
      "×Ļ×¤×ķ×¨": 875,
      "Ġ×ł×¤": 876,
      "×ĳ×ķ×¢": 877,
      "×Ķ×¨": 878,
      "Ġ×ª×©": 879,
      "×Ļ×ł×ķ×ª": 880,
      "Ġ×©×ł×Ļ": 881,
      "Ġ×©×Ĺ": 882,
      "es": 883,
      "Ġ×ĳ×ª×Ĺ": 884,
      "Ġ×Ĳ×ĳ×Ļ×ĳ": 885,
      "Ġ×¢×¨": 886,
      "×©×Ŀ": 887,
      "×§×ĺ": 888,
      "Ġ'": 889,
      "Ġ×ŀ×¡×¤×¨": 890,
      "Ġ×¢×ĳ×ķ×¨": 891,
      "×¦×ª": 892,
      "Öµ": 893,
      "×Ļ×ŀ×Ļ": 894,
      "or": 895,
      "Ġ×Ĳ×ķ×¨": 896,
      "Ġ×©×ł×Ļ×Ŀ": 897,
      "om": 898,
      "×ķ×¨×¡": 899,
      "Ġ×ĳ×Ĳ×ŀ×¦": 900,
      "Ġ×ĳ×Ĳ×ª×¨": 901,
      "Ġ×Ķ×ĳ×Ļ×ª": 902,
      "Ġ×ª×ķ×Ľ": 903,
      "an": 904,
      "×ĳ×Ĺ": 905,
      "×Ľ×ĳ": 906,
      "×ķ×ŀ×ķ×ª": 907,
      "Ġ×ľ×ŀ×¢": 908,
      "Ġ×Ķ×ŀ×¡": 909,
      "×ķ×ł×Ļ×ª": 910,
      "×ķ×¢×ĵ": 911,
      "×Ļ×Ľ×ķ×ª": 912,
      "×©×ķ×ĺ": 913,
      "×ķ×ľ×ķ×Ĵ": 914,
      "×Ľ×ķ×Ļ×ķ×ª": 915,
      "×Ļ×ĺ×Ķ": 916,
      "×Ļ×ľ×ª": 917,
      "ĠS": 918,
      "Ġ×Ķ×Ļ×ķ": 919,
      "Ġ×ķ×§": 920,
      "Ġ×ª×ŀ": 921,
      "Ġ×Ķ×¨×ĳ×Ķ": 922,
      "Ġ×ª×Ĵ": 923,
      "×Ĺ×ľ": 924,
      "×Ļ×Ĺ×Ķ": 925,
      "×ł×Ļ×ķ×ª": 926,
      "Ġ×Ķ×ŀ×ª": 927,
      "×§×Ļ×Ŀ": 928,
      "Ġ×Ĳ×ľ×Ĳ": 929,
      "Ġ×Ľ×Ł": 930,
      "×Ļ×¡×Ķ": 931,
      "ĠC": 932,
      "×ķ×©×Ĳ": 933,
      "×¦×¢": 934,
      "Ġ×ľ×¢×©×ķ×ª": 935,
      "Ġ×¢×ķ×ĳ": 936,
      "×ľ×¤": 937,
      "Ġ×Ķ×ŀ×ĵ": 938,
      "Ġ×Ĳ×Ĺ×ª": 939,
      "×Ļ×ĵ×Ļ": 940,
      "Ġ×ĳ×ĸ": 941,
      "Ġ×¤×Ļ": 942,
      "×Ļ×¤×ķ×ľ": 943,
      "×Ĵ×¢": 944,
      "Ġ×ł×¢": 945,
      "Ġ×Ķ×ª×§": 946,
      "×ķ×Ĺ×ĵ": 947,
      "×ķ×ĵ×Ļ×Ŀ": 948,
      "×§×ķ×ª": 949,
      "×¦×ĳ": 950,
      "!!": 951,
      "×ĳ×ķ×ĵ×Ķ": 952,
      "Ġ×ĸ×ŀ×Ł": 953,
      "×Ļ×Ĳ×ľ": 954,
      "×ĳ×ĵ": 955,
      "Ġ×§×©×¨": 956,
      "×©×§": 957,
      "×¦×ķ×ª": 958,
      "×ķ×©×ľ×Ļ×Ŀ": 959,
      "×¦×Ļ×Ķ": 960,
      "ar": 961,
      "×Ľ×Ļ": 962,
      "×Ľ×ķ": 963,
      "×ķ×ĳ×Ļ×Ŀ": 964,
      "×ĺ×¨×ł×ĺ": 965,
      "Ġ×Ĳ×ŀ×¨": 966,
      "×©×¨×ĵ": 967,
      "Ġ×ľ×ľ": 968,
      "Ġ×¨×ĳ": 969,
      "×Ļ×ĳ×¨": 970,
      "Ġ×ŀ×©×¤": 971,
      "×ŀ×ķ×¨": 972,
      "×Ĵ×ķ×¨": 973,
      "Ġ×Ĳ×Ĺ": 974,
      "Ġ:": 975,
      "×¢×ĵ": 976,
      "×Ļ×ŀ×ª": 977,
      "Ġ×ľ×§×ĳ×ľ": 978,
      "×ľ×Ŀ": 979,
      "Ġ6": 980,
      "×ķ×ĳ×ª": 981,
      "×ĵ×©": 982,
      "×Ļ×ŀ×ķ×ª": 983,
      "Ġ×ł×§": 984,
      "×ĳ×¨×ª": 985,
      "Ġ×ĳ×Ĳ×ŀ×¦×¢×ķ×ª": 986,
      "Ġ×§×ķ×ĵ": 987,
      "×¤×¨×¡": 988,
      "×ķ×ľ×ķ×ª": 989,
      "Ġ×ķ×¢×ķ×ĵ": 990,
      "Ġ×©×ł×Ķ": 991,
      "Ġ×ķ×ĸ": 992,
      "Ġ×ľ×¤×Ļ": 993,
      "Ġ×ĳ×ĳ×Ļ×ª": 994,
      "Ġ×ŀ×©×Ķ": 995,
      "Ġ×Ĳ×ª×Ķ": 996,
      "Ġ×ĳ×Ĳ×ķ×¤×Ł": 997,
      "Ġ×Ĳ×Ļ": 998,
      "Ġ×Ķ×¡×¤×¨": 999,
      "Ġ×©×Ļ×¨×ķ×ª": 1000,
      "×ĳ×ĺ": 1001,
      "×§×ĳ": 1002,
      "Ġ×¢×¡×§": 1003,
      "×ķ×¦×¨": 1004,
      "âĢ¦": 1005,
      "Ġ×ĳ×Ļ×©×¨×Ĳ×ľ": 1006,
      "×Ļ×ł×Ĵ": 1007,
      "×ĳ×Ļ×¨": 1008,
      "Ġ×¨×Ĺ": 1009,
      "×Ļ×ĳ×ª": 1010,
      "×¨×Ĺ": 1011,
      "Ġ×Ĳ×¡": 1012,
      "Ġ×Ľ×Ĳ×©×¨": 1013,
      "Ġ×ł×¡": 1014,
      "×¨×ĳ×ķ×ª": 1015,
      "Ġ×¦×¨×Ļ×ļ": 1016,
      "Ġ×Ķ×Ĺ×ľ": 1017,
      "Ġ×ĳ×Ļ": 1018,
      "×Ĵ×Ŀ": 1019,
      "×¢×Ļ": 1020,
      "×Ļ×¨×Ļ": 1021,
      "×¤×ķ": 1022,
      "Ġ×ŀ×ľ×Ĳ": 1023,
      "Ġ×Ľ×ĵ": 1024,
      "×ķ×¤×Ļ": 1025,
      "×¨×Ĳ×ķ×ª": 1026,
      "×©×Ĳ": 1027,
      "Ġ×ķ×¡": 1028,
      "×Ļ×Ĳ×Ķ": 1029,
      "Ġ×Ķ×Ĵ×ĵ": 1030,
      "×Ļ×¦×ķ×ĳ": 1031,
      "Ġ×Ļ×ķ×ĵ": 1032,
      "×Ĳ×ł": 1033,
      "Ġ7": 1034,
      "Ġ×ŀ×§×¦×ķ×¢": 1035,
      "×ķ×©×Ļ×Ŀ": 1036,
      "Ġ>": 1037,
      "Ġ×Ķ×ĳ×¨": 1038,
      "ĠA": 1039,
      "×ģ": 1040,
      "il": 1041,
      "×ķ×ł×ª": 1042,
      "Ġ×Ķ×ŀ×ľ": 1043,
      "Ġ×Ĳ×ª×Ŀ": 1044,
      "ĠÂ": 1045,
      "Ġ×Ļ×ª": 1046,
      "Ġ×ĳ×ŀ×¡": 1047,
      "×ŀ×Ļ×ª": 1048,
      "en": 1049,
      "Ġ×ŀ×©×ª": 1050,
      "Ġ×Ĳ×Ĺ×¨×Ļ": 1051,
      "×Ļ×Ĺ×¡": 1052,
      "Ġ×Ĳ×ł×Ĺ×ł×ķ": 1053,
      "×ķ×¦×Ļ×Ŀ": 1054,
      "Ġ×Ķ×Ĳ×Ŀ": 1055,
      "×ĳ×ķ×¨": 1056,
      "Ġ×ł×Ĺ": 1057,
      "×ĵ×ľ": 1058,
      "×ķ×Ľ×Ķ": 1059,
      "Ġ×Ĳ×ĵ×Ŀ": 1060,
      "Ġ×Ĳ×ķ×ª×Ķ": 1061,
      "×§×Ķ": 1062,
      "×¨×ķ": 1063,
      "×¤×¢": 1064,
      "×ĳ×ķ×ĵ": 1065,
      "Ġ×ĵ×¨×ļ": 1066,
      "×ķ×§×¨": 1067,
      "Ġ×¨×©": 1068,
      "Ġ×¨×¦": 1069,
      "al": 1070,
      "Ġ×ŀ×Ļ×ľ": 1071,
      "×Ĵ×©": 1072,
      "Ġ×ķ×Ĵ×Ŀ": 1073,
      "×Ĳ×Ł": 1074,
      "Ġ×ľ×Ķ×Ŀ": 1075,
      "Ġ×Ľ×¡": 1076,
      "Ġ×Ĳ×Ļ×ļ": 1077,
      "×Ļ×ľ×ĵ": 1078,
      "âĢª": 1079,
      "Ġ×Ķ×¨×ĳ": 1080,
      "Ġ×Ĺ×ĵ×©": 1081,
      "Ġ×©×ľ×Ľ×Ŀ": 1082,
      "Ġ×Ľ×ł": 1083,
      "Ġ×¤×©×ķ×ĺ": 1084,
      "×Ĵ×Ļ×Ŀ": 1085,
      "×Ľ×ª×ĳ": 1086,
      "×Ļ×ł×Ŀ": 1087,
      "Ġ×Ĳ×ł×©×Ļ×Ŀ": 1088,
      "Ġ×Ĺ×Ļ×Ļ×Ŀ": 1089,
      "Ġ×Ĳ×ķ×ª×Ŀ": 1090,
      "Ġ×ĳ×ľ×ĳ": 1091,
      "×Ļ×©×Ļ": 1092,
      "Ġ×ł×Ķ": 1093,
      "×ķ×ŀ×ª": 1094,
      "Ġ×§×ľ": 1095,
      "Ġ×ª×¢": 1096,
      "×ķ×¡×ĺ": 1097,
      "×ķ×ĵ×©": 1098,
      "×Ļ×Ľ×Ļ×Ŀ": 1099,
      "×Ĵ×Ļ×©": 1100,
      "el": 1101,
      "Ġ×Ĳ×ĵ": 1102,
      "ĠT": 1103,
      "Ġ×ł×ŀ×¦": 1104,
      "Ġ×¢×ŀ": 1105,
      "Ġ200": 1106,
      "Ġ×©×Ĳ×ª": 1107,
      "×Ļ×Ľ×ª": 1108,
      "Ġ10": 1109,
      "Ġ×ŀ×ķ×¡": 1110,
      "Ġ×Ľ×ŀ": 1111,
      "it": 1112,
      "Ġ×Ĺ×ľ": 1113,
      "19": 1114,
      "Ġ×©×Ļ": 1115,
      "at": 1116,
      "Ġ×ĳ×ŀ×©": 1117,
      "Ġ×Ĵ×ľ": 1118,
      "Ġ×ľ×ŀ×¦": 1119,
      "Ġ×Ĵ×ĳ×ķ×Ķ": 1120,
      "Ġ×¤×ľ": 1121,
      "Ġ×Ĺ×ĵ×¨": 1122,
      "×Ļ×ª×ķ×Ĺ": 1123,
      "×Ļ×¤×Ļ×Ŀ": 1124,
      "×Ĳ×ŀ": 1125,
      "×Ľ×©×Ļ×ķ": 1126,
      "Ġ×Ļ×Ķ×Ļ×Ķ": 1127,
      "ĠM": 1128,
      "×ĳ×Ļ×ª": 1129,
      "ĠB": 1130,
      "Ġ×Ĺ×ĳ×¨×ª": 1131,
      "×Ļ×ĸ×Ķ": 1132,
      "×§×ĵ": 1133,
      "Ġ×Ĵ×ĵ×ķ×ľ": 1134,
      "×Ļ×¢×Ļ×Ŀ": 1135,
      "×ĺ×¨×Ķ": 1136,
      "Ġ×¢×ĳ×ķ×ĵ×Ķ": 1137,
      "×Ĳ×ĳ": 1138,
      "Ġ×©×Ĳ×ł×Ļ": 1139,
      "Ġ×Ĳ×¤": 1140,
      "×ķ×Ļ×§": 1141,
      "×§×ľ": 1142,
      "ĠP": 1143,
      "×Ķ×ŀ": 1144,
      "×Ľ×ķ×Ł": 1145,
      "Ġ×ĳ×Ļ×ĺ": 1146,
      "Ġ×Ķ×Ĺ×ĳ×¨×Ķ": 1147,
      "Ġ×Ĳ×£": 1148,
      "Ġ×¤×¢×Ŀ": 1149,
      "×©×ĳ×ķ×Ł": 1150,
      "×ķ×ķ×Ĺ": 1151,
      "×ķ×ĳ×Ł": 1152,
      "×Ĺ×ķ×Ł": 1153,
      "Ġ×Ķ×§×¨": 1154,
      "×Ļ×ł×ķ×Ļ": 1155,
      "×ķ×ķ×Ł": 1156,
      "Ġ×¨×ĳ×Ļ×Ŀ": 1157,
      "×¡×Ļ": 1158,
      "Ġ×Ĳ×ľ×Ķ": 1159,
      "×ª×Ķ": 1160,
      "Ġ×Ķ×ķ×ľ": 1161,
      "Ġ×Ķ×Ļ×©": 1162,
      "Ġ×ŀ×ª×Ĺ": 1163,
      "×ķ×§×Ķ": 1164,
      "Ġ×ķ×ĵ": 1165,
      "×´": 1166,
      "Ġ×Ļ×ķ×¦": 1167,
      "Ġ×¨×ķ×¦×Ķ": 1168,
      "×ĳ×ķ×§": 1169,
      "×Ļ×¤×ķ×©": 1170,
      "×¦×ķ": 1171,
      "×Ļ×Ļ": 1172,
      "×ķ×Ľ×Ł": 1173,
      "×ŀ×¢×ķ×ª": 1174,
      "Ġ8": 1175,
      "×¡×Ļ×Ŀ": 1176,
      "Ġ×Ķ×Ľ×Ļ": 1177,
      "Ġ×ŀ×§×ķ×Ŀ": 1178,
      "×ł×Ķ×ľ": 1179,
      "×Ļ×¦×ķ×¨": 1180,
      "Ġ×ł×ķ×¡×¤×Ļ×Ŀ": 1181,
      "×Ļ×¢×ķ×ª": 1182,
      "Ġ×ĳ×¢×ķ×ľ×Ŀ": 1183,
      "Ġ×ľ×Ķ×©": 1184,
      "×Ļ×ł×Ļ×Ļ×Ŀ": 1185,
      "Ġ×Ķ×¨×Ĳ×©×ķ×Ł": 1186,
      "×ķ×¢×ľ": 1187,
      "×ł×Ĳ×Ļ": 1188,
      "×Ļ×¦×Ķ": 1189,
      "Ġ×ł×Ĵ×ĵ": 1190,
      "×¦×Ļ×Ŀ": 1191,
      "Ġ0": 1192,
      "×Ķ×ª": 1193,
      "×ĸ×ŀ": 1194,
      "201": 1195,
      "×ł×Ļ×Ļ×Ŀ": 1196,
      "×¡×Ķ": 1197,
      "×ĳ×ķ": 1198,
      "Ġ×ŀ×ķ×ŀ": 1199,
      "Ġ×Ķ×¢×ķ×ľ×Ŀ": 1200,
      "×¤×©": 1201,
      "×Ĵ×Ķ": 1202,
      "×ª×Ŀ": 1203,
      "Ġ×©×Ļ×¢": 1204,
      "×ł×ķ×Ł": 1205,
      "Ġ×Ķ×Ļ×Ļ×ª×Ķ": 1206,
      "×Ļ×ĳ×Ļ×Ŀ": 1207,
      "Ġ×©×ľ×Ķ×Ŀ": 1208,
      "Ġ×Ľ×Ķ": 1209,
      "Ġ×Ľ×ľ×ľ": 1210,
      "Ġ×Ķ×¢×Ļ×¨": 1211,
      "×¡×¤×¨": 1212,
      "×ĵ×Ļ×Ļ×Ł": 1213,
      "Ġ[": 1214,
      "×ĳ×Ļ×ľ": 1215,
      "Ġ×ĳ×ŀ×§×ķ×Ŀ": 1216,
      "Ġ×Ķ×ª×Ĺ": 1217,
      "Ġ×ŀ×Ļ×ĵ×¢": 1218,
      "Ġ×Ĳ×¦×ľ": 1219,
      "×Ĳ×ĸ": 1220,
      "ĠH": 1221,
      "Ġ×ŀ×¨×Ľ×ĸ": 1222,
      "×Ĵ×¨×ª": 1223,
      "×ľ×ķ×ľ": 1224,
      "×ĺ×ľ": 1225,
      "×ķ×§×Ļ×Ŀ": 1226,
      "×ł×Ĵ": 1227,
      "Ġ×Ĳ×©": 1228,
      "×ĵ×ķ": 1229,
      "×¤×ª×Ĺ": 1230,
      "×Ļ×Ļ×Ł": 1231,
      "ot": 1232,
      "ic": 1233,
      "Ġ×©×Ļ×ŀ×ķ×©": 1234,
      "Ġ×Ķ×©×ľ": 1235,
      "Ġ×Ĳ×Ķ": 1236,
      "Ġ×ŀ×ķ×ĵ": 1237,
      "Ġ×Ķ×ķ×ĵ": 1238,
      "×ŀ×ĺ": 1239,
      "Ġ×ŀ×ķ×ľ": 1240,
      "Ġ×Ļ×ľ×ĵ×Ļ×Ŀ": 1241,
      "Ġ×Ĵ×ķ×¨": 1242,
      "×¤×ķ×Ĳ": 1243,
      "Ġ×Ķ×Ĳ×ª×¨": 1244,
      "Ġ×§×ĳ": 1245,
      "Ġ×ĳ×ŀ×Ĺ": 1246,
      "×©×ª×ŀ×©": 1247,
      "Ġ×Ĳ×ł×ķ": 1248,
      "×Ļ×ł×ĺ×¨×ł×ĺ": 1249,
      "Ġ×Ķ×ŀ×©×¤×ĺ": 1250,
      "×Ļ×ĺ×ª": 1251,
      "Ġ×¤×ķ×¨": 1252,
      "×ķ×ĳ×¢": 1253,
      "Ġâ": 1254,
      "×¨×©": 1255,
      "Ġ×Ĺ×©×ķ×ĳ": 1256,
      "×Ļ×Ļ×Ķ": 1257,
      "Ġ×ĳ×ŀ×Ļ": 1258,
      "Ġ×Ķ×Ł": 1259,
      "Ġ×Ķ×ŀ×Ĳ": 1260,
      "Ġ×©×ķ×ł×Ļ×Ŀ": 1261,
      "Ġ×ŀ×ķ×©": 1262,
      "Ġ×Ĳ×ķ×¤": 1263,
      "×¦×ŀ": 1264,
      "Ġ×Ĳ×ª×¨": 1265,
      "Ġ×©×©": 1266,
      "Ġ×ľ×Ķ×¢": 1267,
      "Ġ×Ĳ×ª×¨×Ļ×Ŀ": 1268,
      "×Ļ×§×Ļ×Ŀ": 1269,
      "Ġ×ĳ×Ļ×ł": 1270,
      "Ġ×Ĳ×ķ×ĺ": 1271,
      "Ġ×ĵ×Ļ×Ł": 1272,
      "Ġ×ľ×ĸ": 1273,
      "Ġ×ĳ×ª×Ĺ×ķ×Ŀ": 1274,
      "×ķ×Ĺ×Ķ": 1275,
      "Ġ×ĳ×ĵ×¨×ļ": 1276,
      "×Ļ×ĳ×ľ": 1277,
      "10": 1278,
      "Ġ×¡×ĺ": 1279,
      "Ġ×¤×¨×ĺ": 1280,
      "Ġ×ĳ×¢×ľ": 1281,
      "Ġ×ľ×Ķ×ĳ": 1282,
      "Ġ×Ĳ×ķ×Ķ": 1283,
      "Ġ×ŀ×Ľ×ľ": 1284,
      "Ġ×ĳ×ľ×ĳ×ĵ": 1285,
      "Ġ×ŀ×ł×ª": 1286,
      "×Ļ×ľ×ķ×Ŀ": 1287,
      "×ķ×¦×Ĳ×ķ×ª": 1288,
      "×Ļ×¨×ķ×¢×Ļ×Ŀ": 1289,
      "×Ĺ×ķ×¨": 1290,
      "Ġ×Ķ×©×ł×Ļ": 1291,
      "×§×Ļ": 1292,
      "Ġ×¨×Ľ": 1293,
      "Ġ×¤×¡": 1294,
      "Ġ×ľ×Ķ×¦": 1295,
      "Ġ×ľ×ŀ×¦×ķ×Ĳ": 1296,
      "×©×ľ×ķ×Ŀ": 1297,
      "×ĳ×¨×Ļ×ª": 1298,
      "×¤×§×Ļ×ĵ": 1299,
      "Ġ×Ĺ×¡": 1300,
      "Ġ×ŀ×ķ×ĸ": 1301,
      "Ġ×¤×¨×¡": 1302,
      "Ġ×Ĳ×ķ×ª×Ļ": 1303,
      "Ġ×ŀ×Ł": 1304,
      "Ġ×Ĺ×ķ×©": 1305,
      "Ġ×Ķ×ķ×¨": 1306,
      "Ġ9": 1307,
      "×ĳ×ľ×ª": 1308,
      "Ġ×ľ×¤×¨": 1309,
      "re": 1310,
      "×Ļ×ķ×ķ×Ł": 1311,
      "×Ķ×Ĳ": 1312,
      "Ġ×Ĳ×Ļ×ł×ķ": 1313,
      "×©×ķ×ĳ": 1314,
      "×Ļ×ł×ķ×ļ": 1315,
      "×¨×Ľ×Ļ×Ŀ": 1316,
      "×Ļ×ĵ×ķ×ª": 1317,
      "Ġ×Ľ×ķ×ľ×ľ": 1318,
      "×Ĵ×ķ×ª": 1319,
      "Ġ×ľ×Ķ×Ĵ×Ļ×¢": 1320,
      "×§×ķ": 1321,
      "Ġ×ŀ×§×ķ×¨": 1322,
      "Ġ×ľ×¨×Ĳ×ķ×ª": 1323,
      "×ĺ×Ĺ": 1324,
      "Ġ×ķ×ĺ": 1325,
      "×¤×ķ×¨×ĺ": 1326,
      "Ġ×¡×ķ×Ĵ": 1327,
      "×ķ×ŀ×Ļ×ª": 1328,
      "Ġ×©×ĳ×¢": 1329,
      "st": 1330,
      "âĢĻ": 1331,
      "×ĺ×Ķ": 1332,
      "Ġ×ŀ×ª×ķ×ļ": 1333,
      "Ġ×ľ×Ļ×ŀ": 1334,
      "Ġ×¡×¨×ĺ": 1335,
      "Ġ×Ĳ×ľ×ķ": 1336,
      "Ġ×Ķ×ĸ×Ľ×ķ×Ļ×ķ×ª": 1337,
      "×Ĵ×ĳ": 1338,
      "×Ļ×ľ×Ļ": 1339,
      "×ł×Ŀ": 1340,
      "Ġ×Ĳ×Ĺ×¨×Ļ×Ŀ": 1341,
      "Ġ×ŀ×ķ×¨": 1342,
      "Ġ×Ķ×ŀ×¦": 1343,
      "×ĳ×¨×ķ×ª": 1344,
      "×§×ª": 1345,
      "ĠI": 1346,
      "×ķ×ľ×ĵ": 1347,
      "×¢×ķ": 1348,
      "Ġ×ĵ×Ļ": 1349,
      "Ġ×¤×ª": 1350,
      "Ġ×ĳ×Ķ×ª": 1351,
      "×Ķ×ľ×Ļ×ļ": 1352,
      "Ġ×ŀ×©×Ķ×ķ": 1353,
      "Ġ×ľ×ŀ×©": 1354,
      "Ġ×ķ×¦": 1355,
      "Ġ×Ĺ×ķ×§": 1356,
      "×ķ×¤×¨": 1357,
      "Ġ×©×Ķ×Ŀ": 1358,
      "×ĳ×©": 1359,
      "Ġ×ĳ×Ķ×Ŀ": 1360,
      "Ġ×ĵ×§×ķ×ª": 1361,
      "Ġ×ŀ×©×Ĺ×§": 1362,
      "Ġ×ª×¨": 1363,
      "×¤×ķ×Ł": 1364,
      "Ġ×ĺ×¨": 1365,
      "Ġ×ĳ×Ļ×ķ×Ŀ": 1366,
      "×ĸ×¨×Ķ": 1367,
      "×ķ×Ĳ×ľ": 1368,
      "Ġ×ª×ŀ×Ļ×ĵ": 1369,
      "Ġ×ª×ķ×ļ": 1370,
      "ĠD": 1371,
      "×Ļ×ł×Ļ×ķ×ª": 1372,
      "×Ļ×Ĵ×Ķ": 1373,
      "×Ĵ×Ł": 1374,
      "×¨×ķ×Ł": 1375,
      "×ķ×¤×©": 1376,
      "Ġ×¢×Ľ×©×Ļ×ķ": 1377,
      "Ġ×§×ķ×¨": 1378,
      "×Ĺ×ľ×ĺ": 1379,
      "Ġ×ª×Ķ": 1380,
      "Ġ×ĳ×Ĳ×¨×¥": 1381,
      "Ġ×ª×Ĳ": 1382,
      "Ġ×©×Ķ×Ļ×Ĳ": 1383,
      "×Ķ×ľ×ļ": 1384,
      "Ġ×Ķ×Ĳ×ł": 1385,
      "×ķ×¨×Ļ×Ķ": 1386,
      "Ġ×ķ×¢×ľ": 1387,
      "Ġ×§×Ļ": 1388,
      "Ġ×Ķ×ĸ×ŀ×Ł": 1389,
      "le": 1390,
      "×ķ×Ĵ×ľ": 1391,
      "Ġ×ĳ×¤×¨": 1392,
      "Ġ×ĳ×¢×ľ×Ļ": 1393,
      "Ġ×©×ĸ×Ķ": 1394,
      "Ġ×ł×Ļ×¡": 1395,
      "he": 1396,
      "com": 1397,
      "Ġ×ľ×ŀ×Ķ": 1398,
      "×©×¨×ķ×ª": 1399,
      "×ķ×Ľ×¨": 1400,
      "ĠR": 1401,
      "Ġ×¢×©": 1402,
      "×Ļ×Ĺ×ķ×ª": 1403,
      "Ġ×ķ×Ĳ×ª": 1404,
      "Ġ×¨×Ĳ×©×ķ×Ł": 1405,
      "',": 1406,
      "×ķ×¤×ª": 1407,
      "Ġ×Ķ×ĵ×¨": 1408,
      "×ŀ×¢×ĺ": 1409,
      "×Ĵ×ª": 1410,
      "Ġ×ŀ×ĵ×ķ×ĳ×¨": 1411,
      "×Ļ×ĳ×Ļ": 1412,
      "×ŀ×ł×Ļ×Ŀ": 1413,
      "Ġ×©×ŀ×ķ×¨×ķ×ª": 1414,
      "×ķ×ĵ×ª": 1415,
      "000": 1416,
      "Ġ×ľ×§×¨": 1417,
      "Ġ×ĺ×¢": 1418,
      "×ķ×ª×ķ": 1419,
      "Ġ×Ľ×©×Ķ": 1420,
      "×©×¨×Ķ": 1421,
      "×ķ×ŀ×¨×Ļ×Ŀ": 1422,
      "×Ļ×¢×ķ": 1423,
      "Ġ×ĳ×©×ľ": 1424,
      "×¤×Ļ×§": 1425,
      "Ġ×Ļ×¨×ķ×©×ľ×Ļ×Ŀ": 1426,
      "Ġ×Ĳ×Ļ×ª": 1427,
      "Ġ×Ķ×©×ª": 1428,
      "×ľ×ķ×Ł": 1429,
      "Ġ×Ĳ×Ļ×¨": 1430,
      "×©×ķ×¨×ª": 1431,
      "Ġ×ĺ×ĳ×¢": 1432,
      "Ġ×ĳ×Ļ×§": 1433,
      "×Ľ×Ļ×¨": 1434,
      "×ŀ×©×ļ": 1435,
      "Ġ×ĳ×ĵ×Ļ": 1436,
      "×¨×Ľ×ķ×ª": 1437,
      "×¨×ĵ": 1438,
      "Ġ×ķ×Ļ": 1439,
      "Ġ×Ĺ×ĵ×©×ķ×ª": 1440,
      "×Ļ×¤×ķ×ª": 1441,
      "Ġ×¡×ĳ": 1442,
      "×ĳ×¨×Ļ": 1443,
      "Ġ×ĳ×ŀ×¢": 1444,
      "Ġ×ĳ×ľ×Ļ": 1445,
      "×Ķ×©": 1446,
      "×Ļ×ĳ×¨×¡": 1447,
      "Ġ×ĵ×¢×ª": 1448,
      "oo": 1449,
      "et": 1450,
      "Ġ×Ķ×ķ×¤": 1451,
      "×ķ×¦×Ĳ×Ķ": 1452,
      "×¨×ĺ×Ļ×¡": 1453,
      "Ġ×©×¢×ķ×ª": 1454,
      "Ġ×§×©×Ķ": 1455,
      "Ġ×©×ł×ª": 1456,
      "Ġ×Ķ×Ĺ×Ļ×Ļ×Ŀ": 1457,
      "Ġ×¢×¦×ŀ": 1458,
      "×ķ×ł×Ļ×ĳ×¨×¡": 1459,
      "Ġ×Ļ×Ľ×ķ×ľ×Ļ×Ŀ": 1460,
      "ĠÂ»": 1461,
      "Ġ×ľ×ĵ×¢×ª": 1462,
      "Ġ×ĳ×Ĵ×ľ": 1463,
      "×ķ×ĳ×ķ×¡": 1464,
      "×ķ×ĳ×ľ": 1465,
      "×¨×§": 1466,
      "×ĸ×ķ": 1467,
      "×Ļ×ł×Ļ×ª": 1468,
      "ĠL": 1469,
      "Ġ×¢×¦×ŀ×ķ": 1470,
      "Ġ×Ķ×ŀ×©×¤": 1471,
      "Ġ×¦×¢": 1472,
      "×Ļ×¡×ĳ×ķ×§": 1473,
      "Ġt": 1474,
      "×ĳ×Ĺ×¨": 1475,
      "×ķ×¤×Ļ×Ŀ": 1476,
      "Ġ×Ķ×Ľ×ł×¡": 1477,
      "50": 1478,
      "×¦×Ļ×ķ×ª": 1479,
      "×ķ×ŀ×Ł": 1480,
      "Ġ×ĳ×ŀ×Ķ×ľ×ļ": 1481,
      "Ġ×Ķ×©×ł×Ķ": 1482,
      "Ġ×Ķ×¢×ĳ×ķ×ĵ×Ķ": 1483,
      "×Ļ×ĺ×Ļ×Ŀ": 1484,
      "Ġ×Ľ×¨": 1485,
      "×Ķ×¦": 1486,
      "×ķ×ł×ĵ": 1487,
      "Ġ×§×¦×ª": 1488,
      "Ġ×¢×ĵ×Ļ×Ļ×Ł": 1489,
      "×¨×Ĳ×ľ×Ļ": 1490,
      "ĠG": 1491,
      "×ķ×¦×ķ×ª": 1492,
      "×ķ×ĵ×©×Ļ×Ŀ": 1493,
      "Ġ×ŀ×Ĳ×ŀ": 1494,
      "×ª×Ĵ": 1495,
      "Ġ×©×ķ×ĳ": 1496,
      "×Ĺ×ķ": 1497,
      "Ġ×¨×¢": 1498,
      "Ġ×Ķ×Ĳ×¨×¥": 1499,
      "Ġ×ķ×Ķ×ķ×Ĳ": 1500,
      "Ġ×©×ĳ×ķ×¢": 1501,
      "Ġ×¤×Ĺ×ķ×ª": 1502,
      "Ġ×¢×ľ×Ļ×ķ": 1503,
      "Ġ×ĳ×ŀ×Ļ×ķ×Ĺ×ĵ": 1504,
      "×Ļ×Ļ×ª": 1505,
      "âĢ«": 1506,
      "×Ļ×ĵ×Ļ×Ŀ": 1507,
      "Ġ×ķ×ŀ×¢": 1508,
      "ĠâĢľ": 1509,
      "Ġ×ª×¤": 1510,
      "Ġ×ĳ×¦×ķ×¨×Ķ": 1511,
      "Ġ×ŀ×ª×§": 1512,
      "Ġ×Ļ×ĳ": 1513,
      "Ġ×ĳ×ł×ķ×©×Ĳ": 1514,
      "×Ļ×Ľ×Ŀ": 1515,
      "Ġ×Ķ×ŀ×Ļ": 1516,
      "×Ļ×ŀ×ķ×Ł": 1517,
      "Ġ×Ķ×ª×¢": 1518,
      "×Ľ×ł×ķ×ľ×ķ×Ĵ": 1519,
      "Ġ×ŀ×ķ×Ĵ": 1520,
      "Ġ×ĳ×©×ł×ª": 1521,
      "×Ļ×©×ķ×¨": 1522,
      "Ġ×©×ĳ×Ķ": 1523,
      "Ġ×ł×¨×Ĳ×Ķ": 1524,
      "Ġ×ł×ŀ": 1525,
      "×Ľ×ŀ×Ķ": 1526,
      "Ġ×Ļ×§": 1527,
      "Ġ×ĵ×ķ": 1528,
      "×ķ×ĳ×Ļ": 1529,
      "ac": 1530,
      "×Ļ×ĺ×Ļ": 1531,
      "×Ļ×¦×ĵ": 1532,
      "Ġ12": 1533,
      "Ġ×ľ×ĳ×Ļ×ª": 1534,
      "Ġ×¨×Ĵ": 1535,
      "×ĵ×¨×Ķ": 1536,
      "Ġ×ĵ×ĳ×¨×Ļ×Ŀ": 1537,
      "Ġ×¤×ķ×ľ": 1538,
      "×ŀ×ķ×ł×Ķ": 1539,
      "Ġ×ł×Ļ": 1540,
      "Ġ×©×ĳ×ķ": 1541,
      "Ġ×ĳ×Ĳ×ŀ×ª": 1542,
      "''": 1543,
      "×ķ×©×¨": 1544,
      "ĠW": 1545,
      "ou": 1546,
      "Ġ×Ķ×ŀ×ĵ×Ļ×ł×Ķ": 1547,
      "×Ļ×¦×ķ×¢": 1548,
      "×ł×Ļ×§": 1549,
      "12": 1550,
      "×Ľ×ķ×ľ": 1551,
      "Ġ×Ĳ×ķ×ŀ×¨": 1552,
      "Ġ×ł×Ĳ": 1553,
      "×ľ×Ļ×ª": 1554,
      "×Ľ×ł×¡": 1555,
      "×ĸ×¨×Ĺ": 1556,
      "Ġ×ŀ×©×ŀ×¢×ķ×ª": 1557,
      "×ĳ×¢×ª": 1558,
      "Ġ×Ļ×¤": 1559,
      "Ġ×Ĳ×Ļ×Ľ×ķ×ª": 1560,
      "Ġ×Ķ×Ĺ×ĵ": 1561,
      "Ġ×Ĺ×ŀ": 1562,
      "×ľ×ķ×Ĺ": 1563,
      "Ġ2018": 1564,
      "×ķ×Ľ×Ļ×Ŀ": 1565,
      "Ġ×Ķ×Ļ×ª×Ķ": 1566,
      "Ġ×ŀ×¢×¨×Ľ×ª": 1567,
      "Ġ×Ķ×¤×¢": 1568,
      "Ġ...": 1569,
      "×ķ×ľ×¨": 1570,
      "Ġ×ĳ×¨×Ĺ": 1571,
      "Ġ×Ķ×ł×ª": 1572,
      "Ġ×¡×¤": 1573,
      "×Ļ×Ĵ×ķ×ĵ": 1574,
      "Ġ×Ĳ×¤×Ļ×ľ×ķ": 1575,
      "Ġ×Ķ×¢×¡×§": 1576,
      "×¢×ª×Ļ": 1577,
      "×Ļ×ŀ×ķ": 1578,
      "Ġ×ĺ×ķ×ĳ×Ķ": 1579,
      "Ġ×ł×ķ×¡×£": 1580,
      "×Ļ×©×ķ×¨×Ļ×Ŀ": 1581,
      "Ġ×Ľ×Ĺ": 1582,
      "×Ľ×¡": 1583,
      "Ġ×Ļ×Ĺ×ĵ": 1584,
      "×ĳ×ª×Ļ": 1585,
      "×ł×Ł": 1586,
      "×ĵ×Ļ×Ķ": 1587,
      "Ġ×ķ×Ķ×ª": 1588,
      "Ġ×ķ×ĳ×¢": 1589,
      "Ġ×ĸ×ķ×Ĵ": 1590,
      "Ġ×ĳ×Ļ×¨": 1591,
      "Ġ×¦×Ļ": 1592,
      "Ġ×¡×Ļ": 1593,
      "Ġ×ķ×¢×ĵ": 1594,
      "Ġ×Ķ×ĳ×Ļ×ĺ": 1595,
      "Ġ×Ĺ×¨": 1596,
      "Ġ×Ĳ×Ĺ×¨×ª": 1597,
      "Ġ×ŀ×ĳ×Ĺ": 1598,
      "×Ļ×ķ×ķ×§": 1599,
      "Ġ×¨×ĳ×ķ×ª": 1600,
      "Ġ×ľ×Ľ×ļ": 1601,
      "Ġ×ŀ×©×¨×ĵ": 1602,
      "×ŀ×ł×ķ×ª": 1603,
      "Ġ×¨×ķ×ĳ": 1604,
      "×Ĳ×Ļ×Ł": 1605,
      "Ġ20": 1606,
      "Ġ×ĳ×ª×ķ×ļ": 1607,
      "Ġ×Ļ×ŀ×Ļ×Ŀ": 1608,
      "×ľ×Ĺ×Ķ": 1609,
      "Ġ×ŀ×Ļ×ķ×Ĺ": 1610,
      "Ġ×Ķ×¨×Ĳ×©×ķ×ł×Ķ": 1611,
      "Ġ×ĳ×Ĳ×¨": 1612,
      "is": 1613,
      "×ķ×¢×¨": 1614,
      "×Ĳ×Ļ×ļ": 1615,
      "Ö¾": 1616,
      "Ġ×©×¤": 1617,
      "ĠF": 1618,
      "×ķ×ķ×Ļ": 1619,
      "Ġ×Ĳ×ķ×ľ×Ļ": 1620,
      "Ġ×§×ķ×ľ": 1621,
      "ed": 1622,
      "am": 1623,
      "×Ľ×ł×Ļ×ª": 1624,
      "×¡×Ŀ": 1625,
      "Ġ×ľ×ķ×§": 1626,
      "Ġ×ŀ×¨×Ĵ": 1627,
      "Ġ×ł×Ľ×ķ×Ł": 1628,
      "Ġ×Ķ×¢×ķ×ĳ": 1629,
      "×Ļ×¦×Ļ×Ŀ": 1630,
      "×ľ×ķ×ķ": 1631,
      "×¨×Ĵ×ķ×Ł": 1632,
      "Ġ×ŀ×ķ×¤": 1633,
      "Ġ?": 1634,
      "×ķ×¦×¨×Ļ×Ŀ": 1635,
      "Ġ×Ĺ×ª": 1636,
      "Ġ×ķ×Ľ×Ł": 1637,
      "Ġ×ķ×Ļ×©": 1638,
      "Ġ×ŀ×ķ×ª": 1639,
      "×Ļ×Ķ×ķ×ľ": 1640,
      "×ķ×ĵ×Ļ×ª": 1641,
      "Ġ×ŀ×ĵ×Ļ": 1642,
      "×¢×Ļ×£": 1643,
      "Ġ×ķ×ľ×Ľ×Ł": 1644,
      "Ġ×Ķ×ĵ×Ļ×Ł": 1645,
      "Ġ×ĳ×ĸ×ŀ×Ł": 1646,
      "Ġ×ª×Ĺ×ª": 1647,
      "Ġ×ŀ×ķ×ŀ×ľ": 1648,
      "Ġ×ķ×ŀ×Ķ": 1649,
      "Ġ×¢×ķ×ŀ": 1650,
      "Ġ×©×Ĳ×Ļ×Ł": 1651,
      "×Ļ×¢×ª": 1652,
      "Ġ×ĳ×ĵ×Ļ×ķ×§": 1653,
      "Ġ×¨×Ľ×ĳ": 1654,
      "Ġ×ŀ×¢×ĺ": 1655,
      "Ġ×Ķ×ľ×Ĳ": 1656,
      "Ġ×ĺ×Ļ": 1657,
      "×ĵ×ķ×¨": 1658,
      "Ġ×ŀ×ł×Ķ": 1659,
      "×ĵ×£": 1660,
      "Ġ×Ľ×ĸ×Ķ": 1661,
      "×ŀ×ĳ": 1662,
      "×ł×¢": 1663,
      "Ġ×¢×ª": 1664,
      "Ġ×Ľ×¤×Ļ": 1665,
      "Ġ×Ķ×ĳ×Ĳ": 1666,
      "×ķ×¤×ķ×ª": 1667,
      "Ġ×Ĺ×ĳ×¨×Ķ": 1668,
      "Ġ×ľ×Ĵ×ĳ×Ļ": 1669,
      "×ķ×Ĵ×¨": 1670,
      "×Ĵ×ľ×Ļ×ª": 1671,
      "×ł×¦": 1672,
      "Ġ×ŀ×©×¤×ĺ": 1673,
      "×Ļ×§×ķ×ª": 1674,
      "Ġ×Ļ×ķ×ĵ×¢": 1675,
      "Ġ×Ľ×ĳ": 1676,
      "Ġ×Ķ×ł×Ķ": 1677,
      "Ġ×ľ×ĳ×ĵ": 1678,
      "×Ľ×ķ×ł×Ļ×Ŀ": 1679,
      "×Ķ×¤": 1680,
      "Ġ×¡×ŀ": 1681,
      "Ġ×©×ķ×§": 1682,
      "Ġ×ĳ×¢×ª": 1683,
      "Ġ×¤×Ķ": 1684,
      "Ġ×ķ×Ĳ×ł×Ļ": 1685,
      "×ķ×Ļ×Ļ×Ŀ": 1686,
      "11": 1687,
      "×¨×ļ": 1688,
      "Ġ×ľ×Ķ×¤": 1689,
      "Ġ×¢×¨×ĳ": 1690,
      "×ł×ĺ×Ļ×Ŀ": 1691,
      "×ķ×ł×Ļ×Ļ×Ŀ": 1692,
      "Ġ×Ķ×Ĺ×©": 1693,
      "Ġ×ŀ×ľ×Ĺ": 1694,
      "×ĳ×ķ×¨×Ķ": 1695,
      "Ġ×Ķ×ŀ×¨×Ľ×ĸ": 1696,
      "×Ļ×Ľ×ķ×Ł": 1697,
      "Ġ×¢×ķ×¨": 1698,
      "Ġ×ķ×Ľ×ľ": 1699,
      "20": 1700,
      "Ġ×ł×ĵ": 1701,
      "×Ļ×ĺ×¨": 1702,
      "Ġ×ª×ĳ": 1703,
      "Ġ×ĸ×ŀ": 1704,
      "×¨×Ĳ×Ļ": 1705,
      "Ġ×ķ×ŀ×ª": 1706,
      "Ġ×Ķ×Ļ×¨": 1707,
      "Ġ×Ķ×ĳ×ľ": 1708,
      "Ġ×Ķ×Ĳ×ĵ×Ŀ": 1709,
      "×Ļ×ª×¨": 1710,
      "×Ĳ×ª×Ķ": 1711,
      "×Ķ×¡": 1712,
      "Ġ×Ľ×ŀ×¢×ĺ": 1713,
      "Ġ×Ĺ×ķ×ĵ×©×Ļ×Ŀ": 1714,
      "×ł×ķ×Ļ×ķ×ª": 1715,
      "\\\\": 1716,
      "Ġ×Ķ×©×¨": 1717,
      "Ġ×ĳ×ª×§": 1718,
      "×ķ×¨×Ĵ": 1719,
      "×ķ×Ĳ×Ļ×Ŀ": 1720,
      "Ġ×ŀ×©×ª×ŀ×©": 1721,
      "Ġ×ľ×¤×¢": 1722,
      "×Ĳ×ª×¨": 1723,
      "×ĳ×ľ×Ķ": 1724,
      "Ġ×ķ×ĸ×Ķ": 1725,
      "Ġ×Ķ×Ļ×Ļ×ª×Ļ": 1726,
      "Ġ×ĳ×Ľ×ľ×ľ": 1727,
      "Ġ×ĳ×ª×Ļ": 1728,
      "Ġ×©×ŀ×©": 1729,
      "Ġ×©×ĺ": 1730,
      "Ġ×Ķ×¨×©": 1731,
      "ĠE": 1732,
      "co": 1733,
      "×Ļ×ł×ķ×§": 1734,
      "Ġ×ł×ķ×ª": 1735,
      "Ġ18": 1736,
      "Ġ×Ķ×ĸ×ķ": 1737,
      "Ġ×¢×Ļ×¨": 1738,
      "Ġ×Ķ×ŀ×ĳ": 1739,
      "×¢×¨×Ļ×Ľ×ª": 1740,
      "Ġ×ľ×Ľ×ª": 1741,
      "×Ķ×¢": 1742,
      "×Ķ×ĵ": 1743,
      "×Ķ×Ĳ×Ŀ": 1744,
      "Ġ×ķ×Ķ×ŀ": 1745,
      "×Ļ×ª×ķ×£": 1746,
      "×ĸ×¨×ª": 1747,
      "Ġ×ŀ×Ĺ×Ļ×¨": 1748,
      "×ĵ×¨×ª": 1749,
      "30": 1750,
      "Ġ×Ĵ×Ļ×ľ": 1751,
      "×ķ×Ĺ×Ļ×Ŀ": 1752,
      "×§×ķ×¨": 1753,
      "Ġ×©×Ķ×Ļ×Ķ": 1754,
      "×ĵ×¨×ķ×ª": 1755,
      "Ö²": 1756,
      "×¨×Ĳ×ª": 1757,
      "×ķ×ł×Ļ×ķ×ª": 1758,
      "Ĥª": 1759,
      "×ł×Ļ×Ļ×Ķ": 1760,
      "'.": 1761,
      "Ġ×ł×©×Ļ×Ŀ": 1762,
      "×ĳ×Ļ×ĳ×Ķ": 1763,
      "Ġ×Ķ×Ĺ×ĵ×©": 1764,
      "Ġ×ŀ×¢×ľ": 1765,
      "Ġ×Ĺ×ĵ×©×Ļ×Ŀ": 1766,
      "Ġ×Ļ×¤×Ķ": 1767,
      "×ŀ×©×ľ×Ķ": 1768,
      "Ġ×ĳ×Ĵ×ľ×ľ": 1769,
      "Ġ×Ĺ×ĳ×¨×ķ×ª": 1770,
      "Ġ×Ķ×Ĺ×ľ×ĺ": 1771,
      "×¡×¨": 1772,
      "Ġ×ĳ×©×ĳ×Ļ×ľ": 1773,
      "Ġ×ŀ×ķ×ĳ": 1774,
      "Ġ×ł×ŀ×¦×Ĳ": 1775,
      "Ġ×Ķ×Ĵ×ĵ×ķ×ľ": 1776,
      "Ġ×¨×¤×ķ×Ĳ": 1777,
      "×ķ×¤×¡": 1778,
      "×§×ĳ×ķ×ª": 1779,
      "Ġ×©×ª×Ļ": 1780,
      "×Ĳ×ľ×Ķ": 1781,
      "×¤×ľ×Ļ×§": 1782,
      "×ĳ×¡": 1783,
      "×§×©": 1784,
      "Ġ×§×ĺ×Ł": 1785,
      "Ġ×Ĺ×ĵ×©×Ķ": 1786,
      "Ġ×¡×¤×§": 1787,
      "×Ĺ×©": 1788,
      "×§×¢": 1789,
      "Ġ×Ĵ×ĳ×ķ×Ķ×Ķ": 1790,
      "Ġ×Ļ×ŀ": 1791,
      "×ľ×Ļ×Ĺ": 1792,
      "18": 1793,
      "×Ļ×ĵ×ķ×Ŀ": 1794,
      "Ġ×ŀ×ķ×Ľ": 1795,
      "Ġ×©×ŀ×¢": 1796,
      "Ġ×Ĳ×ķ×ĺ×ķ×ĳ×ķ×¡": 1797,
      "Ġ×ĳ×¢×Ļ×§×¨": 1798,
      "×ľ×¤×ķ×Ł": 1799,
      "Ġ15": 1800,
      "×ķ×¡×¨": 1801,
      "Ġ×©×ķ×Ŀ": 1802,
      "Ġ×ĳ×¨×Ĳ×©": 1803,
      "Ġ×ŀ×Ĳ×ĵ": 1804,
      "Ġ×ª×Ĵ×ķ×ĳ×Ķ": 1805,
      "Ġ×ĳ×ŀ×ĵ": 1806,
      "Ġ×Ķ×¦×ĵ": 1807,
      "×ĳ×Ł": 1808,
      "Ġ×Ĺ×ķ×ĸ": 1809,
      "Ġ×Ļ×Ľ×ķ×ľ×Ķ": 1810,
      "Ġ×ľ×¨×Ľ": 1811,
      "Ġ×ľ×Ķ×¡": 1812,
      "Ġ×ĳ×ŀ×¡×Ĵ×¨×ª": 1813,
      "×¡×§×Ļ": 1814,
      "×Ĵ×ķ": 1815,
      "×©×¨×ª": 1816,
      "Ġ×©×Ľ×ľ": 1817,
      "×Ļ×ĵ×ª": 1818,
      "Ġ×ĳ×ľ×ª×Ļ": 1819,
      "×ķ×Ĵ×Ķ": 1820,
      "×ķ×ľ×Ĺ": 1821,
      "Ġ×¢×Ļ×¦×ķ×ĳ": 1822,
      "Ġ×¦×ĳ×¢": 1823,
      "Ġ×Ķ×Ķ×ª": 1824,
      "Ġ×ľ×§×¨×ķ×Ĳ": 1825,
      "Ġ×Ĺ×©×ĳ×ķ×Ł": 1826,
      "×ķ×§×Ĳ": 1827,
      "×Ļ×ĺ×ľ": 1828,
      "Ġ×ĳ×ª×ľ": 1829,
      "Ġ×Ļ×¡": 1830,
      "ĠâĤª": 1831,
      "Ġ×Ķ×§×ĺ": 1832,
      "Ġ×Ķ×ŀ×ĺ": 1833,
      "Ġ×ľ×ŀ×§": 1834,
      "Ġ×ľ×ŀ×ĵ": 1835,
      "Ġ×ŀ×Ķ×Ŀ": 1836,
      "Ġ×Ľ×ª×ĳ": 1837,
      "Ġ×ŀ×Ĳ×ĸ": 1838,
      "Ġ×Ĳ×ķ×ª×ļ": 1839,
      "Ġp": 1840,
      "Ġ×ŀ×¦×ĳ": 1841,
      "×¡×ķ×Ł": 1842,
      "Ġ×Ķ×ķ": 1843,
      "Ġ×§×©": 1844,
      "×Ľ×ķ×¨": 1845,
      "×Ĳ×ĳ×ľ": 1846,
      "as": 1847,
      "ing": 1848,
      "Ö¼Ö¸": 1849,
      "Ġ×ŀ×ķ×¢": 1850,
      "×Ķ×Ĺ": 1851,
      "Ġ×§×ķ": 1852,
      "Ġ×Ķ×Ļ×ľ×ĵ×Ļ×Ŀ": 1853,
      "×Ļ×Ĺ×ª": 1854,
      "×Ĵ×ķ×Ł": 1855,
      "Ġ×Ķ×§×ĳ": 1856,
      "Ġ×Ķ×©×ĳ×ķ×¢": 1857,
      "×ĳ×¨×ķ": 1858,
      "×¤×Ļ×Ķ": 1859,
      "Ġ×Ĳ×ķ×ª×ł×ķ": 1860,
      "×Ĵ×Ļ×©×ķ×ª": 1861,
      "×Ļ×§×ķ×Ŀ": 1862,
      "Ġ×ŀ×Ļ×Ŀ": 1863,
      "×Ĺ×¨×Ļ": 1864,
      "Ġ×§×¦": 1865,
      "Ġ×Ķ×Ĵ×ĳ": 1866,
      "Ġ×ª×Ĵ×ķ×ĳ×ķ×ª": 1867,
      "×ĳ×¢×Ķ": 1868,
      "×Ļ×ł×ķ×Ļ×Ļ×Ŀ": 1869,
      "×Ļ×©×Ķ×ķ": 1870,
      "Ġ×Ķ×Ĳ×¨": 1871,
      "×ł×Ļ×ª×Ł": 1872,
      "Ġ×Ļ×ķ×¨": 1873,
      "Ġ×Ľ×ĵ×Ĳ×Ļ": 1874,
      "×ł×Ļ×Ļ×ª": 1875,
      "Ġ×Ķ×ª×Ĳ": 1876,
      "×ķ×ł×ĺ": 1877,
      "Ġ×ľ×Ļ×ĵ": 1878,
      "Ġ×ŀ×¡×ķ": 1879,
      "×Ļ×ĳ×Ļ×ª": 1880,
      "×ł×ª×Ļ": 1881,
      "Ġ×Ķ×¨×Ļ": 1882,
      "Ġ×Ļ×Ĳ": 1883,
      "×ĳ×ľ×Ļ×Ŀ": 1884,
      "×ķ×ĵ×ľ": 1885,
      "Ġ×¨×ķ×¦×Ļ×Ŀ": 1886,
      "×Ĳ×Ļ×ª": 1887,
      "Ġ×ķ×ŀ×©": 1888,
      "Ġ×Ķ×Ľ×ķ×ľ": 1889,
      "Ġ×ľ×ŀ×©×ľ": 1890,
      "Ġ×ł×Ĵ": 1891,
      "Ġ×Ķ×¡×¨×ĺ": 1892,
      "Ġ×Ĳ×ľ×§": 1893,
      "Ġ×ĳ×ĵ×¨": 1894,
      "Ġ×ĳ×¢×¦": 1895,
      "×ŀ×©×Ļ×ļ": 1896,
      "Ġ×¢×ķ×©×Ķ": 1897,
      "Ġ×©×ķ×ł×ķ×ª": 1898,
      "×ķ×¦×ª": 1899,
      "Ġ×Ĳ×Ļ×©×Ļ": 1900,
      "Ġ×ĺ×Ļ×¤×ķ×ľ": 1901,
      "Ġ×¦×ĵ": 1902,
      "Ġ×¨×ĳ×Ķ": 1903,
      "×Ļ×¢×ķ×¥": 1904,
      "×ķ×ł×ķ": 1905,
      "×¨×Ľ×Ķ": 1906,
      "Ġ×Ķ×¤×¡": 1907,
      "Ġ×ķ×Ķ×©": 1908,
      "×Ļ×§×ķ×Ł": 1909,
      "Ġ×ŀ×ĸ×Ķ": 1910,
      "Ġ×Ľ×¡×£": 1911,
      "Ġ×ľ×Ĳ×ª×¨": 1912,
      "Ġ×¡×Ļ×¤": 1913,
      "ht": 1914,
      "×ķ×¤×ĺ": 1915,
      "×ŀ×ĳ×¨": 1916,
      "Ġ×Ĳ×Ļ×ł×Ķ": 1917,
      "×Ĳ×¡": 1918,
      "×ł×©×Ļ×Ŀ": 1919,
      "Ġ×Ĵ×ĵ×ķ×ľ×Ķ": 1920,
      "Ġ×©×Ķ×ª": 1921,
      "Ġ×ľ×Ľ×Ł": 1922,
      "Ġ×Ĺ×ķ×ľ": 1923,
      "×ķ×¡×Ļ×£": 1924,
      "Ġ×ľ×ª×ª": 1925,
      "Ġ×Ķ×ĵ×¨×ļ": 1926,
      "Ġ×Ķ×Ĳ×Ĺ×¨×ķ×Ł": 1927,
      "ad": 1928,
      "200": 1929,
      "×Ĳ×¤×©×¨": 1930,
      "Ġ×ŀ×Ļ×ľ×Ļ×ķ×Ł": 1931,
      "×Ļ×©×ķ×Ŀ": 1932,
      "ww": 1933,
      "×ķ×Ĵ×¢": 1934,
      "Ġ×Ķ×¦×Ļ×ĳ×ķ×¨": 1935,
      "Ġ×Ĳ×Ĵ": 1936,
      "Ġ×ľ×ŀ×¨×ķ×ª": 1937,
      "×ŀ×ķ×Ł": 1938,
      "ĠO": 1939,
      "âĢı": 1940,
      "15": 1941,
      "Ġ×Ĳ×ķ×Ľ×ľ": 1942,
      "ig": 1943,
      "×ł×Ĺ×ł×ķ": 1944,
      "Ġ×Ķ×©×Ļ×ŀ×ķ×©": 1945,
      "×Ĺ×ĸ": 1946,
      "×ķ×§×ĺ": 1947,
      "×Ļ×§×ª": 1948,
      "Ġ×Ķ×Ĵ×¨": 1949,
      "Ġ×Ĳ×ķ×ŀ": 1950,
      "×ŀ×¤": 1951,
      "Ġ×Ľ×ķ×ľ×Ŀ": 1952,
      "Ġ×ľ×ĳ×Ļ×Ł": 1953,
      "Ġ×ĳ×¢×Ļ×¨": 1954,
      "Ġ×ŀ×ĵ×¨": 1955,
      "Ġ×ĵ×ķ×ĵ": 1956,
      "Ġ×ł×¦": 1957,
      "Ġm": 1958,
      "Ġ×¤×¢×Ļ×ľ×ķ×ª": 1959,
      "Ġ×Ļ×Ĵ": 1960,
      "Ġ×©×ĳ×ª": 1961,
      "×©×¢": 1962,
      "Ġ×ľ×Ļ×ľ×ĵ×Ļ×Ŀ": 1963,
      "ol": 1964,
      "Ġ×¤×¢×ķ×ľ×Ķ": 1965,
      "Ġ×Ķ×¤×ľ": 1966,
      "Ġ×©×ł×ķ×ª": 1967,
      "Ġ×ľ×Ķ×©×ª×ŀ×©": 1968,
      "×Ļ×©×Ļ×Ŀ": 1969,
      "Ġ×Ķ×ľ×ĳ": 1970,
      "Ġ×ľ×ª×§": 1971,
      "ĠN": 1972,
      "Ġ×Ķ×ŀ×Ľ": 1973,
      "Ġ×¡×ķ×£": 1974,
      "×ł×Ĺ": 1975,
      "×Ļ×ĸ×Ļ×Ķ": 1976,
      "×ķ×©×ª": 1977,
      "×¨×Ĳ×ķ": 1978,
      "×Ĳ×ł×ķ": 1979,
      "Ġ×ª×ķ×Ľ×ľ×ķ": 1980,
      "Ġ×¨×ķ×Ĺ": 1981,
      "×Ļ×ĺ×ĳ": 1982,
      "Ġ×Ĳ×ķ×ľ×Ŀ": 1983,
      "Ġ×¢×¨×Ļ×Ľ×Ķ": 1984,
      "×ķ×Ĺ×¨": 1985,
      "Ġ×ª×ŀ×ķ×ł×ķ×ª": 1986,
      "×ĳ×ľ×Ļ": 1987,
      "Ġ×ľ×¢×¦": 1988,
      "×ł×¡×Ķ": 1989,
      "Ġ×Ĺ×Ļ×ł×Ŀ": 1990,
      "Ġ×ŀ×ĺ×¨": 1991,
      "Ġ×ŀ×ķ×§": 1992,
      "×Ļ×ł×ĺ": 1993,
      "ĠâĢ¢": 1994,
      "Ġ×Ķ×Ľ×¨": 1995,
      "×ķ×ķ×Ļ×Ŀ": 1996,
      "×Ļ×ĵ×ķ": 1997,
      "×ķ×¡×¤×ª": 1998,
      "×Ļ×¨×ķ": 1999,
      "×Ĺ×ķ×§": 2000,
      "Ġ×ł×ĺ": 2001,
      "Ġ×¦×ķ×¨×ļ": 2002,
      "×ķ×©×Ļ": 2003,
      "×ķ×©×Ĳ×Ļ×Ŀ": 2004,
      "us": 2005,
      "×Ļ×ĵ×ķ×¨": 2006,
      "Ġ×¡×ľ": 2007,
      "Ġ×ľ×¦×Ĳ×ª": 2008,
      "×ķ×ª×Ķ": 2009,
      "Ġ×ĳ×ŀ×Ķ": 2010,
      "Ġ×ĵ×ķ×¨": 2011,
      "Ġ×Ļ×ľ": 2012,
      "Ġ×Ľ×ķ×ª": 2013,
      "Ġ×ĳ×ŀ×©×ļ": 2014,
      "×Ĳ×ŀ×¨": 2015,
      "Ġ×Ľ×Ļ×ķ×Ŀ": 2016,
      "×ľ×ŀ×Ļ×ĵ": 2017,
      "Ġ×¢×ķ": 2018,
      "Ġ×Ľ×ŀ×ķ×ĳ×Ł": 2019,
      "×ķ×Ļ×§×ĺ": 2020,
      "Ġ×Ĳ×ľ×§×ĺ×¨": 2021,
      "Ġ×ľ×Ĺ×ľ": 2022,
      "×ĳ×ľ×ķ": 2023,
      "×¨×ĳ×Ļ": 2024,
      "id": 2025,
      "ow": 2026,
      "×¨×Ĵ×¢": 2027,
      "Ġ×¢×ķ×©×Ļ×Ŀ": 2028,
      "Ġ×Ķ×Ļ×Ĺ": 2029,
      "×Ĺ×¨×ķ×ª": 2030,
      "Ġ14": 2031,
      "Ġ>>": 2032,
      "×Ļ×Ľ×¨": 2033,
      "Ġ×Ķ×¨×¦": 2034,
      "Ġ×¢×ŀ×ķ×ĵ": 2035,
      "Ġ×ª×Ķ×Ļ×Ķ": 2036,
      "ion": 2037,
      "Ġ×ŀ×Ĳ×ª": 2038,
      "×Ļ×©×ķ×ª": 2039,
      "Ġ×ĳ×¡×Ļ×¡": 2040,
      "×Ľ×ļ": 2041,
      "Ġ×Ķ×©×§": 2042,
      "Ġ×Ĺ×Ĵ": 2043,
      "Ġ×Ķ×ŀ×Ĵ": 2044,
      "ra": 2045,
      "Ġ×ŀ×Ĳ×¤×©×¨": 2046,
      "×Ĳ×¨×Ļ×ļ": 2047,
      "×ł×ķ×¢×Ķ": 2048,
      "Ġ×ŀ×ŀ×ł×ķ": 2049,
      "Ġ×ĳ×Ķ×ª×Ĳ×Ŀ": 2050,
      "Ġ×ĵ×£": 2051,
      "Ġ×ľ×Ķ×¨": 2052,
      "Ġ×ľ×¤×Ĺ×ķ×ª": 2053,
      "Ġ×ª×ķ×ĵ×Ķ": 2054,
      "Ġ×Ĺ×ĳ": 2055,
      "×ŀ×ķ×§": 2056,
      "Ġ×¦×Ļ×ĳ×ķ×¨": 2057,
      "×ķ×¤×ķ": 2058,
      "×Ľ×ľ×Ķ": 2059,
      "×ł×Ļ×ķ": 2060,
      "Ġ×Ķ×ª×Ĵ": 2061,
      "Ġ×ŀ×¤×ª": 2062,
      "×ķ×©×ĳ": 2063,
      "Ġ×ĺ×Ļ×¤": 2064,
      "Ġ×¤×ł×Ļ×Ŀ": 2065,
      "Ġ×Ķ×ĵ×ĳ×¨": 2066,
      "Ġ×Ľ×Ļ×¦×ĵ": 2067,
      "ch": 2068,
      "Ġb": 2069,
      "Ġ×Ķ×ŀ×Ļ×ĵ×¢": 2070,
      "Ġ×ŀ×¡×ª": 2071,
      "Ġ×Ķ×¢×ª": 2072,
      "Ġ×Ķ×ª×ŀ": 2073,
      "Ġ×ª×ł×Ĳ×Ļ": 2074,
      "Ġ×Ķ×ľ×§": 2075,
      "Ġ×Ľ×Ľ×ľ": 2076,
      "Ġ×ľ×Ĺ×¥": 2077,
      "Ġ×Ĺ×Ļ×¤×Ķ": 2078,
      "Ġ×ľ×¨×Ĳ×©": 2079,
      "Ġ×¨×ŀ×ª": 2080,
      "×ķ×¡×Ļ×Ŀ": 2081,
      "×Ļ×ĺ×ķ×ª": 2082,
      "Ġ×ĳ×§×¨": 2083,
      "×ķ×ŀ×ķ": 2084,
      "×ķ×¦×Ļ×Ĳ": 2085,
      "Ġ×ľ×§×ķ×Ĺ×ķ×ª": 2086,
      "×Ļ×ĸ×Ŀ": 2087,
      "×ĵ×Ł": 2088,
      "Ġ×ŀ×Ķ×ŀ": 2089,
      "Ġ×Ķ×ĵ×ĳ×¨×Ļ×Ŀ": 2090,
      "×ķ×ľ×ĺ": 2091,
      "Ġ×Ķ×Ļ×ĵ": 2092,
      "Ġ×ĳ×Ĳ×ĸ×ķ×¨": 2093,
      "×ł×Ĳ": 2094,
      "Ġ30": 2095,
      "Ġ×¡×Ļ×ŀ": 2096,
      "Ġ×ľ×Ĳ×ķ×¨": 2097,
      "Ġ×ŀ×ª×Ļ": 2098,
      "Ġ×ł×Ļ×¦": 2099,
      "×Ļ×¦×¨": 2100,
      "×¢×ķ×ĵ": 2101,
      "Ġ×©×Ĳ×ª×Ķ": 2102,
      "Ġ×Ļ×Ļ×Ĺ": 2103,
      "×ľ×ŀ×Ķ": 2104,
      "Ġ×ŀ×§×¦×ķ×¢×Ļ": 2105,
      "×¤×¨×Ļ×ĺ": 2106,
      "Ġ×¢×¡×§×Ļ×Ŀ": 2107,
      "×¡×ĺ×¨": 2108,
      "Ġ×ľ×Ĳ×ķ×¨×ļ": 2109,
      "×Ķ×Ĵ": 2110,
      "×ķ×Ĵ×Ļ×Ŀ": 2111,
      "Ġ×ľ×ĳ×¨": 2112,
      "Ġ×ĳ×Ļ×¨×ķ×©×ľ×Ļ×Ŀ": 2113,
      "Ġ×Ĺ×ĸ×§": 2114,
      "Ġ×Ķ×Ĺ×ķ×§": 2115,
      "×ł×ĵ×¨": 2116,
      "×ľ×ļ": 2117,
      "Ġ×ľ×ĵ×ĳ×¨": 2118,
      "Ġ×¢×ķ×ľ×Ķ": 2119,
      "Ġ×Ķ×Ĳ×ľ": 2120,
      "Ġ×ľ×©×ł×ķ×ª": 2121,
      "Ġ×ĳ×ł×ķ×¡×£": 2122,
      "Ġ)": 2123,
      "Ġ16": 2124,
      "of": 2125,
      "iv": 2126,
      "×Ļ×Ķ×Ł": 2127,
      "Ġ,âĢ¬": 2128,
      "×Ļ×¡×ĺ×ķ×¨×Ļ×Ķ": 2129,
      "Ġ×Ĳ×Ĺ×¨×ķ×ª": 2130,
      "Ġ×¢×ķ×ľ×Ŀ": 2131,
      "×ł×¨": 2132,
      "Ġ×ķ×Ķ×¢": 2133,
      "×ķ×¨×£": 2134,
      "Ġ×§×ĵ": 2135,
      "Ġs": 2136,
      "Ġ×¡×¤×¨×Ļ×Ŀ": 2137,
      "Ġ×Ķ×ŀ×©×Ĺ×§": 2138,
      "Ġ×ĸ×¨": 2139,
      "Ġ×ķ×Ļ×§": 2140,
      "×ľ×Ł": 2141,
      "Ġ×¡×Ĵ": 2142,
      "Ġ×Ľ×¨×ĺ×Ļ×¡": 2143,
      "Ġ×Ĳ×ľ×Ļ×ķ": 2144,
      "×©×¨×Ļ×Ŀ": 2145,
      "Ġ×ľ×ľ×ŀ×ķ×ĵ": 2146,
      "Ġ×Ķ×§×ķ×ĵ": 2147,
      "×¤×ķ×¨×¡×Ŀ": 2148,
      "Ġ×Ķ×ĸ×Ĳ×ª": 2149,
      "Ġ×¤×ł": 2150,
      "Ġ×©×Ļ×Ķ": 2151,
      "×ķ×ĺ×¨": 2152,
      "Ö¼Ö°": 2153,
      "×ķ×ľ×ª": 2154,
      "×Ĳ×©": 2155,
      "×§×¡×ĺ": 2156,
      "Ġ×Ľ×¤": 2157,
      "Ġ×Ķ×ŀ×ŀ×©×ľ×Ķ": 2158,
      "Ġ×¢×¦×ŀ×Ļ": 2159,
      "Ġ×Ľ×ľ×Ļ": 2160,
      "Ġ×Ľ×Ĵ×ķ×Ł": 2161,
      "Ġ×¢×ķ×ĳ×ĵ": 2162,
      "×Ĳ×ľ×Ļ": 2163,
      "Ġ×ŀ×¨×Ĳ×©": 2164,
      "Ġ×ľ×ĳ×¦×¢": 2165,
      "×ķ×¨×¨": 2166,
      "Ġ×ķ×Ĳ×ĸ": 2167,
      "Ġ×Ĳ×Ļ×©×Ļ×ª": 2168,
      "Ġ×ª×¨×Ĵ": 2169,
      "Ġ×ľ×ĸ×Ķ": 2170,
      "Ġ×ŀ×ľ×ķ×Ł": 2171,
      "×ķ×ķ×Ĳ": 2172,
      "Ġ×Ķ×©×Ļ×¨×ķ×ª": 2173,
      "Ġ×ľ×Ķ×ª×Ĺ": 2174,
      "×ķ×ŀ×Ļ×Ļ×Ŀ": 2175,
      "×Ļ×Ĳ×ª": 2176,
      "Ġ×ŀ×Ĵ×ķ×ķ×Ł": 2177,
      "×Ĳ×Ĵ": 2178,
      "Ġ×ľ×Ķ×ĳ×Ļ×Ł": 2179,
      "Ġ×Ķ×Ľ×ª": 2180,
      "Ġ×ľ×ĳ×Ĺ×ķ×¨": 2181,
      "×Ļ×ŀ×Ļ×Ļ×ľ": 2182,
      "×¨×¦": 2183,
      "Ġ×¤×¢×ŀ×Ļ×Ŀ": 2184,
      "Ġ×ĳ×Ĳ×Ļ×ł×ĺ×¨×ł×ĺ": 2185,
      "ro": 2186,
      "Ġ×¤×¨×§": 2187,
      "17": 2188,
      "Ġ×Ķ×ŀ×ľ×Ĳ": 2189,
      "Ġ×ľ×ŀ×¡": 2190,
      "Ġ×Ķ×Ļ×©×¨×Ĳ×ľ×Ļ": 2191,
      "×©×ŀ": 2192,
      "×§×©×Ķ": 2193,
      "×Ľ×ł×Ļ×Ŀ": 2194,
      "×ľ×ķ×ķ×Ļ×ĸ×Ļ×Ķ": 2195,
      "×ķ×ł×¡": 2196,
      "×¤×Ļ×Ļ×Ķ": 2197,
      "×ķ×ķ×Ļ×¨": 2198,
      "ag": 2199,
      "×©×Ļ×¨×ķ×ª": 2200,
      "Ġ×ĳ×ŀ×¨×Ľ×ĸ": 2201,
      "×ķ×ĵ×¢×Ķ": 2202,
      "Ġ×ĳ×ŀ×§×¨×Ķ": 2203,
      "Ġ×¦×¨×Ļ×Ľ×Ļ×Ŀ": 2204,
      ".\"": 2205,
      "Ġ×ŀ×¢×ĳ×¨": 2206,
      "Ġ×ķ×Ļ×ĵ": 2207,
      "Ġ×Ĺ×Ļ×¤×ķ×©": 2208,
      "14": 2209,
      "Ġ×ª×©×¢": 2210,
      "×ķ×ł×Ł": 2211,
      "×Ľ×ł×ķ×Ł": 2212,
      "Ġ×ĳ×¨×ķ×¨": 2213,
      "Ġ×ŀ×©×§": 2214,
      "×Ļ×©×ª": 2215,
      "Ġ×ĳ×¢×§×ĳ×ķ×ª": 2216,
      "Ġ13": 2217,
      "Ġ×ĳ×¤×ł×Ļ": 2218,
      "×ł×©": 2219,
      "Ġ×ľ×ł×¡": 2220,
      "Ġ×ł×ª×ł×Ļ×Ķ": 2221,
      "Ġ×ķ×Ķ×¡": 2222,
      "Ġ×Ĺ×©×ĳ": 2223,
      "ter": 2224,
      "Ġ×ĳ×Ļ×ĺ×ķ×Ĺ": 2225,
      "Ġ24": 2226,
      "×Ļ×¦×Ļ×¨×ª": 2227,
      "×ķ×ĺ×Ļ": 2228,
      "×ķ×¡×Ļ": 2229,
      "×Ĵ×ķ×¨×Ļ×Ķ": 2230,
      "Ġ×Ķ×ŀ×ľ×ķ×Ł": 2231,
      "Ġ17": 2232,
      "Ġ×ŀ×ĵ×Ķ": 2233,
      "Ġ×ľ×Ļ×¦×ķ×¨": 2234,
      "Ġ×Ķ×Ĳ×ľ×Ķ": 2235,
      "Ġ×©×Ĳ×ª×Ŀ": 2236,
      "Ġ×Ļ×Ŀ": 2237,
      "×ĸ×ķ×Ł": 2238,
      "Ġ×ľ×ŀ×Ĺ": 2239,
      "Ġ×Ļ×ĵ×¢": 2240,
      "Ġ×©×Ļ×¨×ķ×ª×Ļ": 2241,
      "Ġ×Ķ×ĳ×¢": 2242,
      "×Ļ×Ľ×ľ": 2243,
      "....": 2244,
      "Ġ×ĸ×Ľ×ķ×Ļ×ķ×ª": 2245,
      "Ġ×¨×©×ª": 2246,
      "Ġ×ŀ×¦×ĵ": 2247,
      "Ġ×Ļ×ľ×ĵ": 2248,
      "Ġ×Ķ×Ĳ×Ĺ×¨×ķ×ł×ķ×ª": 2249,
      "Ġ×ķ×Ķ×Ĳ": 2250,
      "×ĳ×Ļ×¢×Ķ": 2251,
      "Ö¼Ö´": 2252,
      "Ġ×Ķ×ŀ×§×ķ×Ŀ": 2253,
      "Ġ×©×§×ľ": 2254,
      "Ġ×ŀ×ķ×¦×¨×Ļ×Ŀ": 2255,
      "Ġ×Ĵ×Ł": 2256,
      "×¤×ķ×Ĳ×Ķ": 2257,
      "×ł×ĺ×Ļ": 2258,
      "×Ļ×¡×ª": 2259,
      "Ġ×Ĺ×ķ×ĳ": 2260,
      "×ŀ×ļ": 2261,
      "16": 2262,
      "×ŀ×Ľ": 2263,
      "×Ļ×¤×ķ": 2264,
      "×Ĺ×ĳ": 2265,
      "×Ĺ×§×¨": 2266,
      "Ġ\\\\": 2267,
      "Ġ×§×ķ×ĵ×Ŀ": 2268,
      "×ķ×¢×Ķ": 2269,
      "Ġ×Ĳ×Ļ×ĸ×Ķ": 2270,
      "×ł×Ĳ×Ļ×Ŀ": 2271,
      "Ġ×ķ×Ĳ×£": 2272,
      "×ľ×Ļ×ķ×Ł": 2273,
      "Ġ×ĳ×Ľ×ļ": 2274,
      "×ķ×Ľ×ł×Ļ×ª": 2275,
      "Ġ×Ķ×ª×Ļ": 2276,
      "Ġ×©×Ĵ×Ŀ": 2277,
      "Ġ×ł×Ļ×§": 2278,
      "×ķ×¡×§": 2279,
      "Ġ×Ķ×ŀ×ķ×©": 2280,
      "Ġ×ŀ×Ľ×Ł": 2281,
      "×Ľ×ķ×Ŀ": 2282,
      "Ġ×ĵ×ķ×ķ×§×Ĳ": 2283,
      "Ġ×ľ×§×Ĺ×ª": 2284,
      "Ġ×ŀ×¡×¢": 2285,
      "13": 2286,
      "Ġ×ŀ×Ļ×ķ×Ĺ×ĵ": 2287,
      "Ġ×Ķ×Ĵ×Ļ×¢": 2288,
      "×¦×¨×Ļ×ļ": 2289,
      "×ķ×¤×Ĳ": 2290,
      "Ġ×Ķ×ĳ×Ĺ": 2291,
      "×©×ª×ª": 2292,
      "Ġ×¡×§×¡": 2293,
      "Ġ×Ķ×©×ł×Ļ×Ŀ": 2294,
      "×ł×Ļ×ķ×Ł": 2295,
      "×Ľ×ł×ª": 2296,
      "âĢĵ": 2297,
      "Ġ×Ĳ×Ļ×¨×ķ×¢×Ļ×Ŀ": 2298,
      "×ķ×Ĵ×¨×Ļ×Ŀ": 2299,
      "Ġ×ľ×¢×ĳ×ķ×ĵ": 2300,
      "Ġ×Ķ×Ĳ×ŀ": 2301,
      "Ġ×ľ×Ķ×ķ×¨": 2302,
      "×Ļ×¡×ķ×Ļ": 2303,
      "Ġ×¤×Ļ×¨": 2304,
      "×©×ķ×¨": 2305,
      "×Ĳ×©×¨": 2306,
      "×©×Ķ×ķ": 2307,
      "Ġ×ĳ×¨×©×ª": 2308,
      "Ġ×ł×Ļ×Ķ×ķ×ľ": 2309,
      "Ġ×Ĳ×ķ×ĵ×ķ×ª": 2310,
      "×ĵ×Ļ×ķ×Ł": 2311,
      "Ġ×ĳ×¡×¤×¨": 2312,
      "×ķ×¦×¢": 2313,
      "×Ķ×Ļ×ľ×Ķ": 2314,
      "Ġ×Ľ×¤×¨": 2315,
      "×Ļ×Ĺ×ĵ": 2316,
      "Ġ×Ľ×ķ×Ĺ": 2317,
      "×ķ×ł×Ĵ": 2318,
      "Ġ×ķ×Ĳ×Ŀ": 2319,
      "Ġ×¦×ķ×¨": 2320,
      "Ġ×Ķ×¨×Ĵ": 2321,
      "×Ĺ×ª×Ļ": 2322,
      "Ġ×Ķ×ŀ×ķ×¢": 2323,
      "Ġ×Ķ×ŀ×©×¤×Ĺ×Ķ": 2324,
      "Ġ×ĳ×¨×Ļ×Ĳ×ķ×ª": 2325,
      "Ġ×ł×ķ×¡×¤×ķ×ª": 2326,
      "Ġ×Ĳ×Ļ×ł×Ŀ": 2327,
      "Ġ×Ĳ×ª×Ľ×Ŀ": 2328,
      "Ġ×Ķ×Ĺ×Ļ": 2329,
      "×Ļ×ľ×ķ×ĳ": 2330,
      "Ġ×ŀ×ķ×ŀ×ľ×¥": 2331,
      "Ġ×¤×ª×¨": 2332,
      "×ķ×ł×Ļ×ĳ×¨×¡×Ļ×ĺ×ª": 2333,
      "Ġ×Ĺ×ķ×ķ×ª": 2334,
      "Ġ×ŀ×ł×Ķ×ľ": 2335,
      "×¨×ĳ×Ļ×ª": 2336,
      "Ġ×Ķ×ĳ×¨×Ļ×ª": 2337,
      "Ġ×¦×Ķ": 2338,
      "Ġ×©×¢×ľ": 2339,
      "×Ļ×Ĳ×ķ×¨": 2340,
      "×³": 2341,
      "Ġ×Ĵ×ĵ×ķ×ľ×Ļ×Ŀ": 2342,
      "Ġ2017": 2343,
      "Ġ×¢×ķ×ĳ×ĵ×Ļ×Ŀ": 2344,
      "Ġ×¢×ĳ×¨": 2345,
      "×ķ×Ľ×ķ×ª": 2346,
      "×ĸ×ľ": 2347,
      "×ł×Ļ×Ļ×ł×Ļ×Ŀ": 2348,
      "Ġ×©×ŀ×ª": 2349,
      "Ġ×Ĺ×ķ×ĵ×©": 2350,
      "×¤×¨×ĺ": 2351,
      "Ġ×¦×Ļ×ľ×ķ×Ŀ": 2352,
      "Ġ×ŀ×ª×Ĳ": 2353,
      "×ķ×ķ×Ļ×Ķ": 2354,
      "×ŀ×¦×Ĳ": 2355,
      "Ġ×Ļ×Ķ×ķ×ĵ×Ķ": 2356,
      "×ł×Ļ×¡": 2357,
      "Ġ×¡×¤×ķ×¨×ĺ": 2358,
      "×ŀ×¢×¨×Ľ×ª": 2359,
      "Ġ×ł×ķ×¡×¤×ª": 2360,
      "--": 2361,
      "Ġ×ľ×¢×ķ×ľ×Ŀ": 2362,
      "Ġ×ľ×¦×ĵ": 2363,
      "Ġ×ŀ×¡×ķ×Ĵ": 2364,
      "Ġ×Ĳ×ł×©×Ļ": 2365,
      "Ġ×ĳ×ŀ×¨": 2366,
      "×ķ×¢×ĵ×ķ×Ł": 2367,
      "Ġ×©×Ĵ": 2368,
      "Ġ×¤×¨×ĺ×Ļ": 2369,
      "×ķ×ĸ×Ļ": 2370,
      "Ġ×ķ×Ķ×Ļ×Ĳ": 2371,
      "Ġ×ł×ĳ": 2372,
      "Ġ×ľ×¤×ª": 2373,
      "Ġ×©×Ļ×¢×¨": 2374,
      "×Ľ×¨×ª": 2375,
      "Ġ×ĵ×§": 2376,
      "×ķ×ĸ×Ķ": 2377,
      "Ġ×Ķ×©×ŀ": 2378,
      "×ķ×¢×Ļ×Ŀ": 2379,
      "×©×ŀ×Ķ": 2380,
      "Ġ×ĳ×§×¨×ĳ": 2381,
      "Ġ×ŀ×Ĳ×©×¨": 2382,
      "×¡×Ļ×¡": 2383,
      "×ĳ×¢×Ļ×Ŀ": 2384,
      "×¤×Ĳ": 2385,
      "Ġ×ŀ×ķ×ł": 2386,
      "Ġ×ķ×Ľ×ķ": 2387,
      "×Ļ×Ľ×ł×¡": 2388,
      "×Ļ×Ĺ×Ļ×Ŀ": 2389,
      "×ķ×¨×Ĳ": 2390,
      "×¨×Ĵ×ľ": 2391,
      "×Ķ×ķ×Ĳ": 2392,
      "×ķ×Ĳ×ķ": 2393,
      "×ŀ×©×Ĺ×§": 2394,
      "×ŀ×¨×Ļ": 2395,
      "×ķ×Ĵ×Ļ×ķ×ª": 2396,
      "Ġ×ŀ×ĳ×ĺ": 2397,
      "×ł×¡×Ļ×Ŀ": 2398,
      "Ġ×Ķ×ĳ×Ĳ×Ļ×Ŀ": 2399,
      "Ġ×Ľ×ľ×ľ×Ļ": 2400,
      "Ġ×¡×Ļ×¤×ķ×¨": 2401,
      "Ġ×Ĺ×Ļ×ľ": 2402,
      "Ġ×ľ×©×ŀ": 2403,
      "Ġ×¤×Ĵ": 2404,
      "×¤×Ļ×ľ×ķ": 2405,
      "Ġ×©×Ľ×Ł": 2406,
      "Ġ×ľ×ķ×ŀ×¨": 2407,
      "Ġ×Ĳ×Ļ×¨×ķ×¢": 2408,
      "Ġ×§×Ļ×ĳ": 2409,
      "Ġ×Ķ×¨×¢": 2410,
      "Ġ×Ļ×Ĺ×¡": 2411,
      "Ġ×ĳ×Ĺ×¨": 2412,
      "Ġ×Ĵ×ķ×ľ": 2413,
      "Ġ×ŀ×Ĺ×ĵ×©": 2414,
      "Ġ×ĳ×©×Ŀ": 2415,
      "×¢×¨×ļ": 2416,
      "Ġ×ľ×Ĵ×¨": 2417,
      "Ġ×ª×Ķ×ľ×Ļ×ļ": 2418,
      "Ġ×ŀ×©×¤×Ĺ×Ķ": 2419,
      "Ġ×¨×Ĳ×©×Ļ": 2420,
      "×ķ×ĳ×¢×ª": 2421,
      "Ġ×Ĳ×Ļ×ł×ĺ×¨×ł×ĺ": 2422,
      "×¨×Ļ×Ķ": 2423,
      "Ġ×Ľ×ķ×Ľ": 2424,
      "×ķ×Ļ×¨": 2425,
      "×¤×ķ×¡": 2426,
      "×ĺ×Ļ×Ļ×Ł": 2427,
      "Ġ×Ķ×Ĺ×ĵ×©×Ķ": 2428,
      "ĠV": 2429,
      "×Ļ×ª×Ļ×Ŀ": 2430,
      "Ġ×Ķ×Ļ×©×¨×Ĳ×ľ": 2431,
      "×ľ×§×ª": 2432,
      "Ġ×Ĳ×¦": 2433,
      "ay": 2434,
      "Ġ×Ķ×ĸ×ŀ": 2435,
      "Ġ×©×¢×Ķ": 2436,
      "Ġ×§×ĳ×ľ×ª": 2437,
      "Ġ×ŀ×¡×¤×Ļ×§": 2438,
      "×ķ×¨×ĵ": 2439,
      "×Ĵ×Ļ": 2440,
      "Ġ×ŀ×©×ľ": 2441,
      "ir": 2442,
      "Ġ11": 2443,
      "!!!": 2444,
      "Ġ×Ķ×ª×©": 2445,
      "Ġ×©×¡": 2446,
      "Ġ×¦×ķ×ķ×ª": 2447,
      "Ġ×ķ×ŀ×§": 2448,
      "Ġ×ł×Ļ×¡×Ļ×ķ×Ł": 2449,
      "Ġ×Ķ×Ĳ×ĵ": 2450,
      "Ġ×Ĳ×¤×¨": 2451,
      "Ġ×Ļ×ķ×ĵ×¢×Ļ×Ŀ": 2452,
      "×ķ×Ĺ×ª": 2453,
      "Ġ×ĸ×§": 2454,
      "Ġ×ľ×§×¨×Ĳ×ª": 2455,
      "×ŀ×ª×Ļ": 2456,
      "Ġ×©×Ĺ×§": 2457,
      "Ġ×ľ×Ķ×ª×§": 2458,
      "Ġ×ľ×ĳ×Ł": 2459,
      "Ġ×¦×¤": 2460,
      "Ġ×ŀ×ŀ×ľ": 2461,
      "×¤×Ļ×Ļ×¡×ĳ×ķ×§": 2462,
      "×ĵ×¨×Ļ×Ŀ": 2463,
      "Ġ×ŀ×ķ×Ĺ": 2464,
      "Ġ×Ĵ×ķ×£": 2465,
      "Ġ×©×ľ×ķ×Ŀ": 2466,
      "Ġ×ĳ×ĳ×¨": 2467,
      "Ġ×ķ×Ĳ×Ļ×Ł": 2468,
      "×Ļ×§×ķ": 2469,
      "Ġ×Ķ×Ļ×ł×ķ": 2470,
      "Ġ×ĵ×ķ×ľ×¨": 2471,
      "Ġ×©×Ļ×¨": 2472,
      "Ġ×Ľ×Ķ×Ł": 2473,
      "×Ķ×§": 2474,
      "×ķ×§×ª": 2475,
      "×¦×Ļ×ľ×ķ×Ŀ": 2476,
      "Ġ×Ķ×Ĳ×¤×©×¨": 2477,
      "Ġ×Ķ×Ľ×¡": 2478,
      "Ġ×Ķ×Ĺ×Ļ×ł×ķ×ļ": 2479,
      "Ġ×ĸ×Ľ": 2480,
      "Ġ×Ķ×¨×Ľ": 2481,
      "Ġ×ķ×ŀ×¡": 2482,
      "×Ĳ×ł×Ĺ×ł×ķ": 2483,
      "Ġ×ĳ×Ļ×ĵ": 2484,
      "×ķ×Ķ×Ļ×Ŀ": 2485,
      "Ġ×ķ×ľ×¢": 2486,
      "Ġ×¨×ķ×Ĳ×Ķ": 2487,
      "×ŀ×Ļ×ĵ×Ķ": 2488,
      "Ġ×ŀ×Ĵ×Ļ×¢": 2489,
      "Ġ×Ļ×ķ×¡×£": 2490,
      "Ġ×Ļ×¦×Ĺ×§": 2491,
      "Ġ×ŀ×ª×Ĳ×Ļ×Ŀ": 2492,
      "Ġ×ŀ×©×¤×Ĺ×ª": 2493,
      "×ķ×ľ×Ĺ×Ł": 2494,
      "Ġ×Ķ×ŀ×ķ×¡": 2495,
      "Ġ×ľ×©×Ŀ": 2496,
      "×Ķ×ĳ×Ķ": 2497,
      "Ġ×ĳ×Ķ×¨": 2498,
      "×Ĺ×Ŀ": 2499,
      "×ĵ×ķ×ĵ": 2500,
      "×Ļ×§×ĺ": 2501,
      "Ġf": 2502,
      "×ŀ×ķ×ľ": 2503,
      "Ġ×ª×ª": 2504,
      "Ġ×ª×ķ×Ľ×Ł": 2505,
      "Ġ×Ĺ×ķ×ŀ": 2506,
      "Ġ×ĳ×Ķ×Ĺ×ľ×ĺ": 2507,
      "Ġ×¢×©×ķ": 2508,
      "Ġ×Ķ×Ķ×Ĵ": 2509,
      "Ġ×§×Ļ×ĳ×ľ": 2510,
      "Ġ×Ķ×Ĺ×¨": 2511,
      "×ķ×Ĳ×Ļ": 2512,
      "Ġ×ľ×ŀ×Ļ": 2513,
      "ook": 2514,
      "×ķ×ĳ×Ļ×ľ": 2515,
      "Ġ×Ķ×ŀ×©×ļ": 2516,
      "Ġ×ľ×¢×ĸ×ķ×¨": 2517,
      "×Ĳ×ķ×Ł": 2518,
      "Ġ×©×ŀ×Ĺ": 2519,
      "Ġ×Ķ×ĺ×ķ×ĳ": 2520,
      "Ġ×Ļ×¢×§×ĳ": 2521,
      "Ġd": 2522,
      "Ġ×Ľ×ľ×Ľ×ľ": 2523,
      "Ġ×ľ×ŀ×¢×©×Ķ": 2524,
      "Ġ×©×Ļ×ł×ķ×Ļ": 2525,
      "Ġ×ł×Ļ×ķ": 2526,
      "×ª×ķ×ĵ×Ķ": 2527,
      "×ķ×¢×ĵ×Ķ": 2528,
      "×ŀ×ķ×ļ": 2529,
      "Ġ×©×Ĳ×ł×Ĺ×ł×ķ": 2530,
      "×Ľ×ª×ķ×ĳ×ª": 2531,
      "Ġ×¡×Ļ×Ľ": 2532,
      "Ġ×§×¦×¨": 2533,
      "×ľ×¢": 2534,
      "Ġ×Ļ×ķ": 2535,
      "Ġ×ª×¤×§×Ļ×ĵ": 2536,
      "Ġ×Ķ×Ľ×ł×¡×ª": 2537,
      "×ľ×Ĺ×ŀ×Ķ": 2538,
      "Ġ×Ĵ×ķ×Ĵ×ľ": 2539,
      "Ġ×Ĳ×Ļ×ĸ": 2540,
      "×Ļ×¡×§": 2541,
      "Ġ×Ķ×Ĳ×Ļ×ł×ĺ×¨×ł×ĺ": 2542,
      "×¤×¡×Ķ": 2543,
      "Ġ×ª×ľ×ŀ×Ļ×ĵ": 2544,
      "×ŀ×§×ķ×Ŀ": 2545,
      "Ġ×¢×ľ×Ļ×Ķ": 2546,
      "×Ļ×Ĳ×ĺ×¨": 2547,
      "×Ļ×ŀ×ķ×ĵ×Ļ×Ŀ": 2548,
      "Ġ×Ĳ×ľ×Ļ×Ķ": 2549,
      "Ġ×Ķ×§×ĵ": 2550,
      "Ġ×Ľ×Ĳ×ľ×Ķ": 2551,
      "×ľ×¤×ł×Ļ": 2552,
      "×Ļ×¡×ķ×ª": 2553,
      "Ġ×ŀ×©×ķ×Ŀ": 2554,
      "×¤×Ĵ": 2555,
      "Ġ×©×ķ×ł×Ķ": 2556,
      "Ġ×Ķ×Ĵ×ķ×£": 2557,
      "Ġ*": 2558,
      "Ġ×ķ×Ķ×Ĺ": 2559,
      "×ķ×ŀ×ĺ×¨": 2560,
      "×Ļ×ł×¨": 2561,
      "×ŀ×Ļ×ĵ×¢": 2562,
      "Ġ×ĳ×¨×§": 2563,
      "Ġ×Ĳ×ĸ×ķ×¨": 2564,
      "×Ĳ×ķ×¨": 2565,
      "Ġ×Ķ×Ļ×ª×¨": 2566,
      "Ġ×¤×¨×ĺ×Ļ×Ŀ": 2567,
      "Ġ×ķ×©×ľ": 2568,
      "×¤×¨×¡×Ŀ": 2569,
      "Ġ×§×¨×Ĳ": 2570,
      "×Ļ×ł×¡": 2571,
      "Ġ×ŀ×©×ł×Ķ": 2572,
      "Ġ×Ķ×ľ×ľ×ķ": 2573,
      "Ġ×Ļ×Ķ×Ļ×ķ": 2574,
      "Ġ×¨×ĳ×Ļ": 2575,
      "×Ļ×ľ×ķ×Ļ": 2576,
      "Ġ×¢×ľ×Ļ": 2577,
      "×ķ×ľ×ķ×Ĵ×Ļ×Ķ": 2578,
      "Ġ×ĺ×ķ×ĳ×Ļ×Ŀ": 2579,
      "Ġ×ľ×¦×Ļ×ķ×Ł": 2580,
      "Ġ×ľ×©×ŀ×ķ×¨": 2581,
      "×ĸ×Ļ×Ŀ": 2582,
      "Ġ×ĳ×¢×ķ×ĵ": 2583,
      "Ġ×Ķ×Ĳ×Ĺ×¨×ķ×ł×Ķ": 2584,
      "Ġ×Ĳ×ľ×§×ĺ×¨×ķ×ł×Ļ": 2585,
      "×Ľ×¨×Ķ": 2586,
      "Ġ×ŀ×¡×¤×§": 2587,
      "×ľ×Ĳ×Ĺ×¨": 2588,
      "Ġ×Ķ×ĺ×ĳ×¢": 2589,
      "Ġ×ľ×¦×ķ×¨×ļ": 2590,
      "×Ĳ×ª×Ŀ": 2591,
      "Ġ×ŀ×Ĺ×©": 2592,
      "×¢×ķ×¨": 2593,
      "Ġ×ŀ×¢×¨×Ľ×ķ×ª": 2594,
      "×ķ×Ľ×Ĺ": 2595,
      "Ġ×ĳ×©×¢×Ķ": 2596,
      "×Ķ×Ķ": 2597,
      "×Ļ×ĺ×ķ×Ĺ": 2598,
      "Ġ50": 2599,
      "×Ļ×Ĳ×ķ×Ł": 2600,
      "Ġ×ľ×ŀ×¢×ľ×Ķ": 2601,
      "×ĳ×ł": 2602,
      "âĢ¢": 2603,
      "Ġ100": 2604,
      "Ġ×ł×¡×Ļ×¢×Ķ": 2605,
      "Ġ×ŀ×Ķ×¨": 2606,
      "Ġ25": 2607,
      "otel": 2608,
      "âĢ¬âĢ¬": 2609,
      "Ġ×Ķ×¨×Ľ×ĳ": 2610,
      "×Ľ×ł×ķ×ľ×ķ×Ĵ×Ļ×Ķ": 2611,
      "Ġ×Ļ×¦×Ĳ": 2612,
      "??": 2613,
      "Ġ×¢×¨×ļ": 2614,
      "Ġ×¤×ª×Ĺ": 2615,
      "Ġ×§×Ļ×Ļ×Ŀ": 2616,
      "Ġ×ª×¨×ĳ×ķ×ª": 2617,
      "Ġ×¦×¨×Ļ×Ľ×Ķ": 2618,
      "×¦×Ļ×ª": 2619,
      "Ġ×¢×ł×§": 2620,
      "×ķ×©×ĳ×Ļ×Ŀ": 2621,
      "×ĵ×ĳ×¨": 2622,
      "Ġ×©×Ĳ×ľ×ķ×ª": 2623,
      "Ġ×©×Ĺ×ķ×¨": 2624,
      "×ľ×ŀ": 2625,
      "×Ĵ×Ļ×¢": 2626,
      "Ġ×Ķ×Ļ×©×¨×Ĳ×ľ×Ļ×ª": 2627,
      "Ġ×ŀ×ľ×Ĳ×Ķ": 2628,
      "Ġ×ķ×ĳ×Ľ×ľ": 2629,
      "Ġ×Ĺ×©×ŀ×ľ": 2630,
      "×Ļ×©×Ļ×ª": 2631,
      "Ġ×©×Ļ×ķ×ķ×§": 2632,
      "×ķ×ĵ×¨": 2633,
      "Ġ×ĳ×ł×§": 2634,
      "Ġ×Ķ×ª×ķ×ĳ×¢": 2635,
      "×¨×Ĵ×Ļ×Ķ": 2636,
      "×Ĳ×¨×§": 2637,
      "Ġ×Ľ×ľ×ķ×ŀ×¨": 2638,
      "×ĳ×ľ×ķ×Ĵ": 2639,
      "Ġ×ł×ķ×©×Ĳ": 2640,
      "Ġ×Ĺ×§": 2641,
      "ent": 2642,
      "Ġ×Ĺ×ķ×©×ĳ": 2643,
      "×Ļ×ķ×ķ×Ļ": 2644,
      "Ġ×ª×¦": 2645,
      "Ġ×©×ľ×ķ×©×Ķ": 2646,
      "Ġ×§×ĺ×ł×Ļ×Ŀ": 2647,
      "Ġ×ľ×ĳ×¢": 2648,
      "×ķ×§×Ļ": 2649,
      "ĠÂ©": 2650,
      "×Ļ×ķ×¨": 2651,
      "Ġ×ŀ×Ļ×ĵ": 2652,
      "×ŀ×¨×Ļ×§": 2653,
      "×¨×Ľ×Ļ": 2654,
      "×Ĵ×ł×ķ×Ł": 2655,
      "Ġ×Ĵ×ĸ": 2656,
      "×ľ×§×Ķ": 2657,
      "Ġ×ķ×ŀ×Ļ": 2658,
      "Ġ×Ĺ×Ļ×Ļ×ĳ": 2659,
      "Ġ×ľ×Ļ×Ķ": 2660,
      "Ġ×¡×¢×Ļ×£": 2661,
      "Ġ×¢×ł×Ļ×Ļ×Ł": 2662,
      "Ġ×¢×ľ×Ļ×Ķ×Ŀ": 2663,
      "Ġ×ŀ×¦×ķ": 2664,
      "×ķ×¦×Ĳ×ª": 2665,
      "×ĳ×ķ×ľ": 2666,
      "Ġ×ķ×ŀ×¦": 2667,
      "Ġ×ĳ×ĸ×Ķ": 2668,
      "Ġ×ĳ×Ĺ×ķ": 2669,
      "Ġ×ŀ×Ļ×ķ×Ĺ×ĵ×Ļ×Ŀ": 2670,
      "×¢×Ł": 2671,
      "×Ļ×Ľ×ķ×ľ×ª": 2672,
      "×Ĺ×ĵ×©×ķ×ª": 2673,
      "Ġ×¢×¦×ŀ×Ķ": 2674,
      "Ġ×Ķ×ĺ×¨": 2675,
      "Ġ!": 2676,
      "Ġ×ľ×ķ×Ĺ": 2677,
      "×¡×§×Ļ×Ŀ": 2678,
      "Ġ×ŀ×©×Ĳ": 2679,
      "×ĳ×Ļ×ĳ": 2680,
      "×¤×ª×Ĺ×ķ×ª": 2681,
      "×Ľ×ķ×ł×Ķ": 2682,
      "×Ļ×Ĳ×ķ": 2683,
      "Ġ×ķ×Ļ×¨": 2684,
      "Ġ×§×ķ×¨×¡": 2685,
      "Ġ×Ĳ×¨×Ĵ": 2686,
      "Ġ×Ļ×ŀ×Ļ": 2687,
      "Ġ×Ķ×ł×Ĳ": 2688,
      "Ġ×Ķ×¡×ª": 2689,
      "×Ļ×¤×ª": 2690,
      "Ġ×ľ×¢×ŀ×ķ×ĵ": 2691,
      "25": 2692,
      "and": 2693,
      "Ġ×Ĳ×¤×©×¨×ķ×ª": 2694,
      "ess": 2695,
      "Ġ×¦×ľ": 2696,
      "Ġ×ĸ×Ķ×ķ": 2697,
      "Ġ×Ķ×ŀ×ķ×Ł": 2698,
      "Ġ×Ĺ×Ļ×¦": 2699,
      "×ŀ×Ļ×Ļ×Ŀ": 2700,
      "Ġ×¢×ŀ×ĵ": 2701,
      "Ġ×ĵ×ķ×Ĵ": 2702,
      "Ġ×¨×Ĺ×ĳ": 2703,
      "×¡×¨×ĺ": 2704,
      "Ġ×ĵ×Ķ": 2705,
      "×ł×Ĵ×ľ×Ļ×ª": 2706,
      "Ġ×Ķ×ª×¤": 2707,
      "Ġ×ª×Ļ×§": 2708,
      "Ġ×ª×ķ×¨×Ķ": 2709,
      "Ġ×ĳ×ŀ×Ļ×ĵ×Ķ": 2710,
      "Ġ×Ľ×ķ×¡": 2711,
      "Ġ×Ķ×©×¤": 2712,
      "Ġ×ľ×Ķ×Ľ": 2713,
      "×ĳ×¨×Ĵ": 2714,
      "Ġ×ĳ×¡×ķ×£": 2715,
      "Ġ×ķ×ľ×§": 2716,
      "×ľ×ª×Ļ": 2717,
      "Ġ×¤×¡×§": 2718,
      "×ĵ×¨×©": 2719,
      "Ġ×©×ŀ×Ł": 2720,
      "Ġ×Ķ×ŀ×¨": 2721,
      "×ŀ×¨×ķ×ª": 2722,
      "Ġ×Ĳ×ľ×£": 2723,
      "×©×Ļ×¨": 2724,
      "Ġ×ŀ×ĳ×Ļ×Ł": 2725,
      "×Ĵ×ķ×ķ×Ł": 2726,
      "Ġ199": 2727,
      "Ġ×Ķ×Ķ×¡": 2728,
      "Ġ×Ĳ×ľ×Ļ": 2729,
      "Ġ×ĳ×¨×Ĺ×ĳ×Ļ": 2730,
      "×ŀ×Ļ×Ķ": 2731,
      "Ġ×ĺ×ķ×¢": 2732,
      "Ġ×ľ×¤×ł×ķ×ª": 2733,
      "Ġ×ķ×ĳ×Ķ": 2734,
      "Ġ×ĳ×¤×Ļ×Ļ×¡×ĳ×ķ×§": 2735,
      "Ġ×Ĺ×ĳ×¨×Ļ×Ŀ": 2736,
      "×ł×Ļ×Ł": 2737,
      "Ġ×Ļ×ĸ": 2738,
      "Ġ×Ķ×Ĵ×ľ": 2739,
      "Ġ×ĵ×Ļ×¨×Ķ": 2740,
      "×ĸ×Ļ×Ł": 2741,
      "Ġ×Ķ×§×ľ": 2742,
      "×ķ×ĵ×ł×ĺ×Ļ×Ŀ": 2743,
      "×ĳ×ľ×ķ×ª": 2744,
      "Ġ×ŀ×¡×ľ×ķ×ľ": 2745,
      "Ġ×ŀ×¤×¨": 2746,
      "40": 2747,
      "×Ķ×ķ": 2748,
      "Ġ×ĳ×Ĵ×Ļ×ľ": 2749,
      "Ġ×ĵ×Ļ×Ĵ": 2750,
      "×Ĳ×ĵ": 2751,
      "Ġ×ŀ×Ļ×©×Ķ×ķ": 2752,
      "×Ĵ×¨×ķ×ª": 2753,
      "Ġ×ľ×ķ×§×Ĺ": 2754,
      "×ķ×©×ķ×ª": 2755,
      "Ġ×Ķ×¢×¨×ĳ": 2756,
      "Ġ×ĳ×ł×ķ": 2757,
      "Â©": 2758,
      "Ġ+": 2759,
      "Ġ×Ķ×ŀ×§×¦×ķ×¢": 2760,
      "×Ľ×ŀ×ķ": 2761,
      "Ġ×Ķ×¢×¦": 2762,
      "Ġ×§×Ļ×ľ": 2763,
      "×ĳ×§×©": 2764,
      "×¤×Ł": 2765,
      "×Ľ×Ļ×¨×Ķ": 2766,
      "Ġ×ľ×Ķ×ĳ×Ļ×Ĳ": 2767,
      "×ķ×Ľ×ľ×ķ": 2768,
      "×ķ×¨×ĺ": 2769,
      "×Ļ×ķ×ł×Ļ": 2770,
      "×ĵ×Ļ×ķ": 2771,
      "Ġ×ľ×Ķ×ĵ": 2772,
      "Ġ×ĳ×Ļ×¦×ķ×¢": 2773,
      "Ġ×Ľ×Ľ×Ķ": 2774,
      "×ŀ×Ĺ×Ķ": 2775,
      "Ġ×©×Ļ×¤": 2776,
      "Ġ×ŀ×©×ķ×ª": 2777,
      "Ġ×Ķ×Ĳ×ķ×¤": 2778,
      "×ķ×§×¡": 2779,
      "Ġ×Ķ×ł×©": 2780,
      "×ĸ×ŀ×Ļ×Ł": 2781,
      "Ġ×ľ×©×ľ": 2782,
      "×Ļ×§×ķ×¨": 2783,
      "Ġ×ľ×Ķ×ŀ×©×Ļ×ļ": 2784,
      "×§×ķ×ľ": 2785,
      "Ġ×ł×Ľ×ł×¡": 2786,
      "Ġ×Ķ×Ĳ×ŀ×¨×Ļ×§": 2787,
      "×©×Ļ×Ļ×Ķ": 2788,
      "×ĺ×Ļ×ķ×ľ": 2789,
      "×Ļ×¢×Ļ": 2790,
      "×¢×Ļ×¨": 2791,
      "×ķ×ĸ×Ļ×Ŀ": 2792,
      "Ġ×Ķ×ŀ×ł": 2793,
      "Ġ×Ļ×¦×Ļ×¨×ª": 2794,
      "Ġ×Ľ×ĵ×ķ×¨": 2795,
      "Ġ×ĳ×¢×ĳ×¨": 2796,
      "Ġ×§×Ļ×©×ķ×¨×Ļ×Ŀ": 2797,
      "Ġ×©×§×ľ×Ļ×Ŀ": 2798,
      "×ķ×ĳ×Ļ×¥": 2799,
      "Ġ×ĳ×Ķ×§": 2800,
      "Ġ×©×Ĳ×ľ×Ķ": 2801,
      "Ġ×Ĺ×ķ×ĳ×Ķ": 2802,
      "Ö¼Ö·": 2803,
      "Ġ×ķ×ĳ×Ĳ": 2804,
      "ĠâĢ«": 2805,
      "im": 2806,
      "×ŀ×ķ×ĳ×Ł": 2807,
      "Ġ×Ķ×ª×ķ×¨×Ķ": 2808,
      "×ķ×ĺ×Ļ×Ł": 2809,
      "×¦×Ļ×ĳ": 2810,
      "Ġ×Ĳ×ķ×Ķ×ĳ": 2811,
      "Ġ×ł×ĸ×§": 2812,
      "Ġ×ĳ×¨×Ĳ": 2813,
      "×ĺ×ķ×¨": 2814,
      "Ġ×ĳ×Ĳ×ķ×ª×ķ": 2815,
      "Ġ×ĳ×Ĵ×Ļ×Ł": 2816,
      "Ġ×ķ×ŀ×Ĺ": 2817,
      "Ġ×Ľ×ł×¨×Ĳ×Ķ": 2818,
      "×ŀ×Ļ×Ł": 2819,
      "Ġ×ĳ×©×¨": 2820,
      "Ġ×ŀ×ª×Ĺ×ª": 2821,
      "Ġ×ĳ×Ķ×¦": 2822,
      "Ġ×¤×¨×ĺ×Ļ×ķ×ª": 2823,
      "Ġ×Ķ×ŀ×ķ×¤": 2824,
      "Ġ×ĳ×¢×ĸ×¨×ª": 2825,
      "og": 2826,
      "Ġ×ķ×Ķ×¤": 2827,
      "×¡×ķ×£": 2828,
      "Ġ×Ķ×¤×¨×ĺ": 2829,
      "Ġ×ľ×Ļ×©×¨×Ĳ×ľ": 2830,
      "Ġ×ĳ×§×ĺ": 2831,
      "Ġ×Ķ×Ĳ×ķ×¨": 2832,
      "×Ķ×Ļ×Ķ": 2833,
      "Ġ×ľ×ĺ×¢": 2834,
      "Ġ×Ĳ×ķ×ª×Ł": 2835,
      "×¨×Ľ×ĳ": 2836,
      "Ġ×ķ×Ľ×ļ": 2837,
      "Ġ×ľ×Ķ×¡×ª": 2838,
      "Ġ×Ķ×¤×ª": 2839,
      "Ġ×¤×ł×Ļ": 2840,
      "Ġ×ľ×¢×ķ×ŀ×ª": 2841,
      "Ġ×ŀ×¤×ł×Ļ": 2842,
      "Ġ×¡×ł": 2843,
      "×Ľ×ķ×ł×ķ×ª": 2844,
      "Ġ×Ļ×Ķ×ķ×ĵ×Ļ": 2845,
      "Ġ×©×¦×¨×Ļ×ļ": 2846,
      "×ŀ×ķ×ł×ķ×ª": 2847,
      "×ĳ×Ļ×Ł": 2848,
      "ĠU": 2849,
      "×ŀ×ķ×ĵ×ĵ": 2850,
      "Ġ×Ķ×Ļ×Ŀ": 2851,
      "ie": 2852,
      "Ġ×ª×§×©×ķ×¨×ª": 2853,
      "Ġ×Ĺ×¦×Ļ": 2854,
      "×Ļ×ŀ×Ļ×Ł": 2855,
      "Ġ×Ķ×Ļ×ĺ×ĳ": 2856,
      "Ġ×ŀ×Ķ×©": 2857,
      "Ġ×Ĳ×Ķ×ĳ×Ķ": 2858,
      "Ġ×ľ×ĳ×ĵ×ķ×§": 2859,
      "Ġ×Ķ×ĳ×ĺ": 2860,
      "×Ļ×Ĵ×Ļ×Ŀ": 2861,
      "Ġ×Ľ×ľ×¤×Ļ": 2862,
      "×ł×Ļ×Ĺ": 2863,
      "×¦×Ĺ": 2864,
      "×¤×Ļ×Ļ×Ŀ": 2865,
      "Ġ×ŀ×¢×ķ×ľ×Ķ": 2866,
      "×ľ×ŀ×ª": 2867,
      "×ĸ×¨×Ĺ×Ļ": 2868,
      "Ġ×Ļ×ł": 2869,
      "Ġ2016": 2870,
      "×¦×¢×Ļ×Ŀ": 2871,
      "Ġ×¨×Ĵ×¢": 2872,
      "×ĳ×¨×Ķ×Ŀ": 2873,
      "×Ļ×©×ķ×ĳ": 2874,
      "Ġ×Ĳ×Ľ": 2875,
      "Ġ×ĳ×ł×Ļ×Ļ×ª": 2876,
      "Ġ×Ķ×©×ł×Ļ×Ļ×Ķ": 2877,
      "Ġ×ŀ×¢×ķ×¨": 2878,
      "Ġ×ľ×©×Ĳ": 2879,
      "Ġ×ĳ×©×ł×Ķ": 2880,
      "Ġ×Ķ×Ļ×ľ×ĵ": 2881,
      "Ġ×ĳ×©×ĳ×ķ×¢": 2882,
      "Ġ×Ķ×ª×Ĺ×ª": 2883,
      "Ġ×©×Ļ×§": 2884,
      "×Ĺ×ķ×¨×Ļ": 2885,
      "×Ļ×¨×ķ×©": 2886,
      "Ġ×ľ×Ļ×ŀ×ķ×ĵ": 2887,
      "Ġ×ĳ×¢×Ļ×Ķ": 2888,
      "Ġ×ł×Ĵ×Ļ×©×ķ×ª": 2889,
      "Ġ×¢×ķ×ĸ": 2890,
      "Ġ×Ķ×¦×ĵ×ĵ×Ļ×Ŀ": 2891,
      "Ġ×©×ľ×ķ×©": 2892,
      "Ġ×¡×ĳ×Ļ×ĳ": 2893,
      "×Ļ×Ļ×ª×Ļ": 2894,
      "×Ļ×ŀ×ķ×Ŀ": 2895,
      "Ġ×ª×ĸ": 2896,
      "×Ļ×ª×Ľ×Ł": 2897,
      "Ġ×ľ×Ĳ×ķ×ŀ×Ļ": 2898,
      "×ľ×¡": 2899,
      "×ķ×ŀ×ĺ": 2900,
      "Ġ×ľ×§×ł×ķ×ª": 2901,
      "×Ļ×¢×¨": 2902,
      "Ġ×Ķ×ĸ×ķ×Ĵ": 2903,
      "Ġ×Ľ×ŀ×ķ×ª": 2904,
      "×ĳ×¦×¢": 2905,
      "×§×¨×Ĳ": 2906,
      "Ġ×Ĳ×Ľ×Ł": 2907,
      "×¨×Ļ×Ļ×ª": 2908,
      "Ġ×Ĳ×Ĺ×¨×Ļ×ķ×ª": 2909,
      "Ġ×ŀ×Ĳ×ķ×ª": 2910,
      "Ġ×¤×¨×ķ×¤": 2911,
      "Ġ×§×¤×Ķ": 2912,
      "×Ļ×©×Ĳ×¨": 2913,
      "Ġ×ŀ×Ļ×ł×Ļ": 2914,
      "×ŀ×ĵ×Ļ×ł×Ļ×ķ×ª": 2915,
      "×©×Ļ×ª": 2916,
      "Ġ×Ľ×ª×ķ×ĳ×ª": 2917,
      "Ġ×ľ×ŀ×¢×Ł": 2918,
      "Ġ×ª×ķ×¦×Ĳ×ķ×ª": 2919,
      "Ġ×Ĺ×ķ×¤": 2920,
      "×ķ×ĺ×Ļ×Ŀ": 2921,
      "Ġ×§×ĺ×ł×Ķ": 2922,
      "Ġ×ľ×ŀ×§×ķ×Ŀ": 2923,
      "Ġ×©×ľ×ŀ×Ķ": 2924,
      "Ġ×¤×¨×¡×ķ×Ŀ": 2925,
      "×Ļ×ĳ×ķ×¨×Ļ": 2926,
      "×©×ª×Ļ": 2927,
      "Ġ×ŀ×Ĳ×ŀ×¨×Ļ×Ŀ": 2928,
      "×¢×¨×ķ×ª": 2929,
      "Ġ×Ķ×Ĳ×Ļ×¨": 2930,
      "Ġ×ĳ×©×ķ×§": 2931,
      "Ġ×©×ķ×ª": 2932,
      "ur": 2933,
      "×ķ×ĳ×ĵ": 2934,
      "Ġ×©×Ľ×ĳ×¨": 2935,
      "Ġ×ķ×Ķ×Ŀ": 2936,
      "×ľ×¦": 2937,
      "×Ļ×Ĵ×ª": 2938,
      "×Ļ×Ĳ×Ļ×Ŀ": 2939,
      "×Ļ×¤×Ļ": 2940,
      "×Ļ×Ĺ×ķ×ĵ": 2941,
      "×¢×ŀ": 2942,
      "Ġ×ŀ×Ĺ×©×ĳ": 2943,
      "Ġ×Ĳ×¦×ľ×ł×ķ": 2944,
      "×ĵ×ŀ×ł×ķ×ª": 2945,
      "×ŀ×ľ×ķ×Ł": 2946,
      "Ġ×Ķ×ķ×ľ×ĵ×ª": 2947,
      "Ġ×Ķ×©×Ŀ": 2948,
      "×ŀ×¨×Ļ×Ŀ": 2949,
      "×Ĥ": 2950,
      "Ġ×ĳ×ķ×§×¨": 2951,
      "Ġ×ľ×Ľ×ª×ķ×ĳ": 2952,
      "Ġ×ľ×Ķ×§": 2953,
      "Ġ×ĳ×¡×¨×ĺ": 2954,
      "Ġ×ľ×ľ×§": 2955,
      "×ĺ×¨×£": 2956,
      "Ġ×ķ×Ķ×¦": 2957,
      "Ġ×Ľ×Ĳ×Ļ×ľ×ķ": 2958,
      "Ġ×ĳ×¢×¦×Ŀ": 2959,
      "Ġ×Ķ×¡×ĺ": 2960,
      "Ġ×ľ×¤×Ĵ": 2961,
      "Ġ×ķ×¨×§": 2962,
      "×Ļ×¤×ķ×¨×Ļ×Ŀ": 2963,
      "×Ļ×ĵ×Ł": 2964,
      "Ġ×Ķ×ĺ×Ļ×¤×ķ×ľ": 2965,
      "un": 2966,
      "Ġ×Ķ×ŀ×Ļ×Ŀ": 2967,
      "×ķ×¤×¢×Ķ": 2968,
      "Ġ×ľ×¢×ĳ×ķ×¨": 2969,
      "eb": 2970,
      "Ġ×Ľ×Ĳ×ŀ×ķ×¨": 2971,
      "Ġ×©×Ļ×Ķ×Ļ×Ķ": 2972,
      "Ġ×Ľ×ł×¡": 2973,
      "Ġ×§×ķ×¨×Ķ": 2974,
      "Ġ×ŀ×Ĺ×ľ": 2975,
      "Ġ×©×Ķ×Ļ×ķ": 2976,
      "Ġ×ĵ×Ļ×ķ": 2977,
      "tp": 2978,
      "×©×Ĳ×ľ×ķ×ª": 2979,
      "Ġ×Ķ×Ĺ×ª": 2980,
      "×ķ×¡×ĺ×¨": 2981,
      "Ġ×Ĳ×Ļ×ľ": 2982,
      "×ľ×Ĺ×¥": 2983,
      "×¡×ķ×Ŀ": 2984,
      "Ġ×ľ×Ĵ×ŀ×¨×Ļ": 2985,
      "Ġ×ķ×ĳ×¨": 2986,
      "Ġ×Ķ×Ķ×¦": 2987,
      "Ġ×Ķ×©×¨×ķ×Ł": 2988,
      "Ġh": 2989,
      "60": 2990,
      "Ġ×©×ł×Ļ×ª×Ł": 2991,
      "Ġ×ŀ×ĵ×Ļ×ł×ª": 2992,
      "Ġ×ľ×Ĺ×ķ×§": 2993,
      "Ġ×ĳ×ŀ×¦": 2994,
      "×ķ×§×ĺ×ķ×ĳ×¨": 2995,
      "×Ļ×Ļ×¢": 2996,
      "Ġ×¡×§": 2997,
      "Ġ×ŀ×Ķ×ª": 2998,
      "Ġ×Ķ×ª×¨": 2999,
      "×ķ×¨×Ļ×ª": 3000,
      "Ġ×Ķ×Ĳ×Ļ×¨×ķ×¢": 3001,
      "Ġ×Ļ×ª×¨": 3002,
      "Ġ×ĳ×©×ł×Ļ×Ŀ": 3003,
      "Ġ×ŀ×§×¨×Ķ": 3004,
      "Ġ×Ķ×Ļ×ł×Ķ": 3005,
      "Ġ×¦×ķ": 3006,
      "//": 3007,
      "×Ľ×ł×Ķ": 3008,
      "×¨×Ĳ×ľ×Ļ×Ŀ": 3009,
      "×Ļ×ª×ķ×Ł": 3010,
      "Ġ×Ľ×¢×ª": 3011,
      "ĠJ": 3012,
      "Ġ×Ķ×ĳ×Ĳ×Ķ": 3013,
      "×ŀ×ł": 3014,
      "×ķ×ª×¨": 3015,
      "Ġ×Ķ×ĳ×Ļ×ł": 3016,
      "Ġ×§×ĳ×ķ×¢": 3017,
      "Ġ×Ķ×§×©×¨": 3018,
      "Ġ×ĳ×ķ×ĵ": 3019,
      "Ġ×Ķ×Ĵ×ĵ×ķ×ľ×Ķ": 3020,
      "Ġ×ŀ×ĵ×ķ×¢": 3021,
      "Ġ×ľ×Ļ×ķ×Ŀ": 3022,
      "Ġ×Ľ×¢": 3023,
      "×ł×Ķ×Ĵ×ķ×ª": 3024,
      "Ġ×¡×ķ×Ĵ×Ļ": 3025,
      "×ľ×Ĳ×ķ×ŀ×Ļ": 3026,
      "Ġ×©×ķ×ķ×Ķ": 3027,
      "×¤×©×Ļ×Ŀ": 3028,
      "Ġ×Ķ×ķ×ĳ": 3029,
      "Ġ×¡×ĵ": 3030,
      "×ķ×§×Ŀ": 3031,
      "Ġ×©×ĵ": 3032,
      "×¨×Ľ×Ļ×ķ×Ł": 3033,
      "Ġ×ķ×Ļ×ĵ×Ĳ×ķ": 3034,
      "×Ĳ×ĺ": 3035,
      "Ġ×©×Ļ×ª": 3036,
      "Ġ×ľ×Ķ×©×ª": 3037,
      "Ġ×ľ×Ļ×ľ×Ķ": 3038,
      "Ġ×Ĺ×ĸ": 3039,
      "Ġ×Ķ×¤×ł×Ļ×Ŀ": 3040,
      "Ġ×¡×ĵ×¨": 3041,
      "22": 3042,
      "Ġ×ľ×ľ×Ľ×ª": 3043,
      "Ġ×ľ×Ķ×ķ×¡×Ļ×£": 3044,
      "×Ļ×¢×ķ×¨": 3045,
      "×Ķ×Ļ×¨": 3046,
      "×¤×Ĺ×Ķ": 3047,
      "Ġ×¡×ķ×ľ": 3048,
      "×ĳ×¢×ķ×ª": 3049,
      "×ķ×¤×ķ×ľ": 3050,
      "×ŀ×ł×Ļ×Ķ": 3051,
      "Ġ×ķ×Ķ×¨": 3052,
      "Ġ×ª×©×ľ×ķ×Ŀ": 3053,
      "Ġ×Ķ×ĳ×¨×Ļ×Ĳ×ķ×ª": 3054,
      "http": 3055,
      "×ľ×ĵ": 3056,
      "×Ļ×§×¡": 3057,
      "Ġ×ľ×©×ª": 3058,
      "Ġ×ŀ×Ķ×ķ×ķ×Ķ": 3059,
      "Ġ×Ķ×ķ×ľ×ļ": 3060,
      "Ġ×ĳ×¨×ŀ×Ķ": 3061,
      "Ġ×ŀ×Ĵ×Ļ×¢×Ļ×Ŀ": 3062,
      "Ġ×Ķ×Ĳ×©": 3063,
      "Ġ×ķ×ľ×Ĺ": 3064,
      "×¤×¡×ª": 3065,
      "Ġ×ľ×¡×¤×¨": 3066,
      "×¤×ł×Ļ": 3067,
      "Ġ×Ļ×ķ×¦×Ĳ": 3068,
      "Ġ×Ķ×ŀ×¦×ĳ": 3069,
      "Ġ×ķ×ŀ×ĵ": 3070,
      "Ġ×ľ×¨×©": 3071,
      "Ġ×ĳ×Ĺ×ĵ×¨": 3072,
      "×ķ×ķ×Ļ×ª": 3073,
      "Ġ×ŀ×¤×ķ×ª": 3074,
      "Ġ×ķ×ľ×Ĳ×Ĺ×¨": 3075,
      "Ġ×ľ×©×ľ×Ŀ": 3076,
      "Ġ×Ĳ×ľ×Ļ×ł×ķ": 3077,
      "×ŀ×¨×Ĺ×§": 3078,
      "Ġ×ª×ŀ×ķ×ł×Ķ": 3079,
      "Ġ×ł×ĳ×Ĺ×¨": 3080,
      "Ġ×¢×§×ĳ": 3081,
      "Ġ×ĵ×¨×Ľ×Ļ×Ŀ": 3082,
      "Ġ×ľ×¢×ª": 3083,
      "Ġ×Ķ×Ļ×Ķ×ķ×ĵ×Ļ": 3084,
      "Ġ×Ĺ×ķ×¥": 3085,
      "Ġ×¤×Ļ×ª×ķ×Ĺ": 3086,
      "×ķ×¡×Ļ×Ķ": 3087,
      "×ĵ×¨×Ļ×ļ": 3088,
      "Ġc": 3089,
      "×ķ×ŀ×Ļ×ķ×ª": 3090,
      "Ġ×ŀ×Ķ×Ĳ": 3091,
      "Ġ×Ķ×¨×Ĺ": 3092,
      "Ġ×¢×¦×ŀ×Ŀ": 3093,
      "Ġ×Ĺ×ķ×¤×©": 3094,
      "ia": 3095,
      "Ġ×ĳ×Ķ×Ł": 3096,
      "Ġ×Ķ×¤×ķ×ľ": 3097,
      "Ġ×Ķ×©×ķ×ł×Ļ×Ŀ": 3098,
      "×ľ×Ĵ": 3099,
      "Ġ×ŀ×ķ×ĺ": 3100,
      "://": 3101,
      "Ġ40": 3102,
      "×ŀ×ł×ķ": 3103,
      "×ĺ×Ļ×Ļ×ľ": 3104,
      "×ŀ×Ľ×Ļ×Ŀ": 3105,
      "×ľ×Ĺ×ª": 3106,
      "Ġ×§×ł": 3107,
      "Ġ×ķ×Ķ×Ł": 3108,
      "×Ļ×§×ľ": 3109,
      "Ġ×ª×§×ķ×ķ×Ķ": 3110,
      "Ġ×ĵ×ķ×ŀ×Ķ": 3111,
      "×§×ķ×ĳ": 3112,
      "×ŀ×ĸ": 3113,
      "Ġ×¢×¥": 3114,
      "Ġ×ł×ĵ×ľ": 3115,
      "Ġ×ĳ×ŀ×¦×ĳ": 3116,
      "×ŀ×ķ×Ļ×ķ×ª": 3117,
      "×Ļ×¡×Ļ×Ŀ": 3118,
      "Ġ×Ĺ×ķ×ľ×Ļ×Ŀ": 3119,
      "Ġ×Ķ×§×©": 3120,
      "Ġ×ŀ×ĳ×Ļ×ª": 3121,
      "?\"": 3122,
      "Ġ×ł×Ĺ×©": 3123,
      "Ġ×¨×ķ×ŀ": 3124,
      "ak": 3125,
      "80": 3126,
      "Ġ×¨×Ĵ×ľ": 3127,
      "Ġ×ĳ×Ĳ×¨×Ķ": 3128,
      "Ġ×ĳ×ĺ×ķ×Ĺ": 3129,
      "Ġ×ŀ×¢×ķ×ł×Ļ": 3130,
      "×ł×Ļ×Ķ×ķ×ľ": 3131,
      "Ġ×ľ×Ķ×¢×ĳ×Ļ×¨": 3132,
      "×ŀ×©×ª": 3133,
      "Ġ×ľ×Ķ×Ĺ×ľ": 3134,
      "Ġ22": 3135,
      "Ġ×ľ×Ĺ×¦×ķ": 3136,
      "Ġ×ķ×ŀ×Ĳ": 3137,
      "Ġ×Ķ×ŀ×ķ×ĸ": 3138,
      "Ġ×§×ĳ×ķ×¦×ª": 3139,
      "Ġ×Ķ×Ĺ×ķ×ľ×Ļ×Ŀ": 3140,
      "Ġ×ŀ×Ķ×¢": 3141,
      "×ľ×Ļ×Ķ": 3142,
      "Ġ×Ĳ×Ļ×©×Ķ": 3143,
      "Ġ×ľ×ķ×Ļ": 3144,
      "×ĸ×¨×ķ": 3145,
      "Ġ×ľ×¦×Ļ×Ļ×Ł": 3146,
      "Ġ×ľ×Ĺ×ľ×ķ×ĺ×Ļ×Ł": 3147,
      "Ġ×ķ×Ĳ×Ĺ": 3148,
      "×ĳ×ł×Ķ": 3149,
      "Ġ×Ķ×Ĳ×ķ×Ľ×ľ": 3150,
      "Ġ×Ķ×ł×¡": 3151,
      "Ġ×©×Ļ×Ľ×ķ×ľ": 3152,
      "Ġ×©×Ķ×¢": 3153,
      "×Ļ×ľ×ķ×Ļ×ķ×ª": 3154,
      "Ġ×Ĺ×ĳ×¨×Ļ": 3155,
      "ut": 3156,
      "Ġ×ķ×Ĳ×¤×Ļ×ľ×ķ": 3157,
      "Ġ×ł×¢×©×Ķ": 3158,
      "×Ļ×Ĵ×¨": 3159,
      "Ġ2015": 3160,
      "×Ļ×ĺ×Ļ×ª": 3161,
      "×Ķ×ķ×¨": 3162,
      "×¨×Ĳ×Ļ×ª": 3163,
      "Ġ×ŀ×ĳ×ľ×Ļ": 3164,
      "Ġ×Ĵ×ĳ×¨": 3165,
      "Ġ×ĳ×¢×Ļ×ķ×ª": 3166,
      "×Ĳ×¨×ĺ": 3167,
      "Ġ×ŀ×©×Ĺ×§×Ļ×Ŀ": 3168,
      "×¨×Ĺ×ĳ": 3169,
      "Ġ×©×Ļ×Ĺ": 3170,
      "Ġ×Ĳ×ŀ×Ĳ": 3171,
      "×Ĳ×¤": 3172,
      "Ġ×ĳ×Ļ×©": 3173,
      "Ġ×©×Ļ×ŀ": 3174,
      "×Ķ×ĺ": 3175,
      "Ġ×Ķ×§×ķ×ľ": 3176,
      "Ġ×ł×ª×ł×Ļ×Ķ×ķ": 3177,
      "ĠâĢı": 3178,
      "×ķ×ª×Ŀ": 3179,
      "Ġ×¢×ľ×Ļ×ł×ķ": 3180,
      "Ġ21": 3181,
      "×ľ×ķ×ķ×Ķ": 3182,
      "Ġ×Ķ×§×ĳ×ķ×¦×Ķ": 3183,
      "×Ľ×©×Ļ×¨": 3184,
      "×ĺ×¨×§": 3185,
      "×Ļ×Ľ×Ļ": 3186,
      "Ġ×ŀ×¦×Ļ×¢": 3187,
      "Ġ×©×ĸ": 3188,
      "Ġ×Ĳ×§": 3189,
      "Ġ×ł×§×ķ×ĵ×ķ×ª": 3190,
      "Ġ×©×ķ×ŀ": 3191,
      "×Ķ×ł": 3192,
      "Ġ&": 3193,
      "Ġ×Ķ×¢×ľ×Ļ×ķ×Ł": 3194,
      "Ġ×ŀ×ŀ×ł×Ķ": 3195,
      "Ġ×Ĵ×ŀ": 3196,
      "×¡×ĺ×Ļ×ĳ×ľ": 3197,
      "Ġ×Ļ×Ļ×¢×ķ×¥": 3198,
      "Ġ×ŀ×ľ×ķ×ł×ķ×ª": 3199,
      "Ġ×Ļ×©×¨×Ĳ×ľ×Ļ": 3200,
      "Ġ×ŀ×Ķ×Ĺ": 3201,
      "Ġ×ľ×Ķ×©×Ļ×Ĵ": 3202,
      "×ķ×ĺ×Ķ": 3203,
      "Ġ×Ķ×ł×¤": 3204,
      "Ġ×ľ×©×Ļ×ŀ×ķ×©": 3205,
      "Ġ×ł×Ļ×ª×ķ×Ĺ": 3206,
      "×Ļ×ĸ×ķ×¨": 3207,
      "×ķ×ĵ×¢×ķ×ª": 3208,
      "Ġ×ĸ×Ľ×ķ×ª": 3209,
      "Ġ×ķ×ķ": 3210,
      "Ġ×ľ×Ĳ×Ĺ×¨×ķ×ł×Ķ": 3211,
      "Ġ×Ķ×¨×Ĳ": 3212,
      "Ġ×ª×ķ×Ľ×ł×Ļ×ª": 3213,
      "Ġ×ľ×ŀ×ł×ķ×¢": 3214,
      "×ķ×©×¨×Ļ×Ŀ": 3215,
      "×¢×ŀ×ķ×ĵ": 3216,
      "Ġ×ł×¤×¨": 3217,
      "ĠIn": 3218,
      "Ġ×Ķ×Ĳ×ŀ×ª": 3219,
      "×Ļ×¤×ĵ×Ļ×Ķ": 3220,
      "Ġ×¢×ķ×ŀ×ĵ": 3221,
      "×ĵ×§": 3222,
      "os": 3223,
      "âĢľ": 3224,
      "um": 3225,
      "×ķ×Ķ×¨": 3226,
      "×ģÖ¶": 3227,
      "Ġ×ľ×ĳ×ĺ×ľ": 3228,
      "×Ļ×©×ķ×Ł": 3229,
      "×©×ĺ": 3230,
      "Ġ×ŀ×Ļ×ł": 3231,
      "www": 3232,
      "Ġ×Ķ×¢×ķ×ĳ×ĵ×Ķ": 3233,
      "×ĸ×Ļ×§": 3234,
      "Ġ×ª×ķ×Ĳ×¨": 3235,
      "×ķ×¤×Ļ×ª": 3236,
      "Ġ×Ļ×Ķ×ķ×ĵ×Ļ×Ŀ": 3237,
      "×Ľ×ĵ×Ļ": 3238,
      "×©×ķ×Ł": 3239,
      "Ġ×Ķ×ŀ×ķ×¦×¨": 3240,
      "Ġ×¢×ĸ": 3241,
      "×Ļ×ĳ×ķ": 3242,
      "×Ļ×©×Ļ×ķ×Ł": 3243,
      "Ġ×©×Ĳ×Ļ×ł×ķ": 3244,
      "×ķ×©×ĳ×Ļ": 3245,
      "Ġ×Ķ×ŀ×¤": 3246,
      "×Ļ×Ľ×ķ×ľ×ķ×Ĵ": 3247,
      "Ġ×Ĺ×ĺ": 3248,
      "Ġ×ŀ×¢×ł×Ļ×Ļ×Ł": 3249,
      "×Ļ×§×ķ×ĵ": 3250,
      "Ġ×Ķ×©×Ĳ": 3251,
      "Ġ×Ķ×ĳ×Ļ×ĺ×Ĺ×ķ×Ł": 3252,
      "24": 3253,
      "Ġ×Ķ×ĳ×ł×§": 3254,
      "×ķ×Ĵ×ķ×¡×ĺ": 3255,
      "×ķ×¨×ķ×Ŀ": 3256,
      "Ġ×¨×ķ×Ĳ×Ļ×Ŀ": 3257,
      "Ġ×Ķ×Ĳ×ł×©×Ļ×Ŀ": 3258,
      "Ġ×Ķ×ŀ×¢×¨×Ľ×ª": 3259,
      "Ġ×Ķ×ķ×Ĵ": 3260,
      "Ġ×ľ×Ĺ×ĸ×ķ×¨": 3261,
      "Ġ×ĳ×Ļ×ĵ×Ļ": 3262,
      "×ŀ×¨×Ľ×ĸ": 3263,
      "Ġ×ŀ×ĳ×Ĺ×Ļ×ł×ª": 3264,
      "70": 3265,
      "ĠX": 3266,
      "×ķ×ĵ×¢": 3267,
      "Ġ×ľ×ª×Ĺ": 3268,
      "Ġ×Ķ×¤×ķ×¢×ľ": 3269,
      "Ġ×¢×ķ×¨×Ľ×Ļ": 3270,
      "Ġ×©×¦": 3271,
      "Ġ×¢×ķ×¨×ļ": 3272,
      "Ġ×ķ×Ĺ×¦×Ļ": 3273,
      "Ġ×Ĳ×ķ×ķ×Ļ×¨": 3274,
      "Ġ×©×ľ×Ļ×ĺ": 3275,
      "Ġ×ķ×Ļ×¦": 3276,
      "Ġ×ľ×¨×Ľ×ķ×©": 3277,
      "Ġ×ŀ×©×ª×ŀ×©×Ļ×Ŀ": 3278,
      "Ġ×ĳ×Ĺ×Ļ×Ļ×Ŀ": 3279,
      "×ķ×¤×ľ": 3280,
      "Ġ×ķ×Ľ×Ļ": 3281,
      "Ġ×¢×ĳ×ķ×ĵ×ķ×ª": 3282,
      "Ġ×Ļ×ķ×ĵ×¢×ª": 3283,
      "×¤×ª×Ļ": 3284,
      "Ġ×ľ×§×ĳ×ľ×ª": 3285,
      "Ġ×Ĺ×Ļ×ł×ķ×ļ": 3286,
      "×Ĳ×ª×Ļ": 3287,
      "Ġ×ª×¨×Ĵ×ķ×Ŀ": 3288,
      "Ġ×ķ×ª×©": 3289,
      "Ġ×Ĺ×ĵ×¨×Ļ×Ŀ": 3290,
      "Ġ×¢×©×¨×ķ×ª": 3291,
      "Ġ×ŀ×Ĺ×Ļ×¨×Ļ×Ŀ": 3292,
      "Ġ×ŀ×¢×ķ×ĵ": 3293,
      "90": 3294,
      "×¨×Ľ×ķ": 3295,
      "Ġ×¢×©×Ķ": 3296,
      "Ġ×©×ľ×Ļ×©×Ļ": 3297,
      "×¤×¨×¡×ķ×Ŀ": 3298,
      "2018": 3299,
      "×ķ×ŀ×ĵ": 3300,
      "×Ĺ×Ļ×¤×ķ×©": 3301,
      "Ġ×©×ķ×ľ": 3302,
      "Ġ×Ĳ×ŀ×ł×Ŀ": 3303,
      "Ġ×©×ł×¢": 3304,
      "×¦×ľ×Ļ×Ĺ": 3305,
      "×ŀ×ķ×§×¨×ĺ": 3306,
      "em": 3307,
      "Ġ×ľ×¢×ĳ×ķ×ĵ×Ķ": 3308,
      "Ġ×Ĳ×ķ×ľ": 3309,
      "×Ĺ×Ļ×ª": 3310,
      "Ġ×©×Ĳ×¤×©×¨": 3311,
      "Ġ×¨×©×ķ×ª": 3312,
      "×Ļ×ŀ×Ł": 3313,
      "Ġ×Ĳ×ľ×¤×Ļ": 3314,
      "×ĳ×Ļ×¨×Ķ": 3315,
      "Ġ×ĳ×Ļ×Ĺ×¡": 3316,
      "×¡×ľ": 3317,
      "Ġ×Ĳ×Ĺ×¨×ķ×ł×Ļ×Ŀ": 3318,
      "×Ļ×Ľ×¨×ķ×Ł": 3319,
      "Ġ×Ķ×Ļ×¢": 3320,
      "):": 3321,
      "Ġ×¢×ł": 3322,
      "×¨×ķ×ĳ": 3323,
      "×ķ×§×ķ×ª": 3324,
      "Ġ×ŀ×ķ×¦×¨×Ļ": 3325,
      "Ġ×©×ŀ×ĵ": 3326,
      "Ġ×Ĺ×ľ×ĳ": 3327,
      "Ġ×Ķ×ĺ×ķ×ĳ×Ļ×Ŀ": 3328,
      "Ġ×Ĵ×¨×Ŀ": 3329,
      "×ľ×Ļ×Ł": 3330,
      "×ĺ×ķ": 3331,
      "×Ļ×ĳ×ķ×©": 3332,
      "ĠK": 3333,
      "×ķ×ł×Ļ×ĳ×¨×¡×Ļ×ĺ×Ķ": 3334,
      "×ł×Ļ×¡×Ķ": 3335,
      "Ġ×ĳ×Ļ×Ĺ×ĵ": 3336,
      "×Ľ×ª×ĳ×Ķ": 3337,
      "Ġ×ĳ×Ĺ×Ļ×ł×Ŀ": 3338,
      "Ġ×ŀ×§×ĳ×ľ": 3339,
      "Ġ×ĳ×Ľ×ĵ×Ļ": 3340,
      "Ġ×ĵ×ª": 3341,
      "Ġ×Ļ×Ĺ×¡×Ļ×ª": 3342,
      "Ġ×ŀ×ĸ×ķ×Ł": 3343,
      "Ġ×¤×Ļ×ł": 3344,
      "×ŀ×Ĳ×ķ×ª": 3345,
      "Ġ×ľ×ł×¡×ķ×ª": 3346,
      "Ġ×Ķ×ŀ×Ĺ×Ļ×¨": 3347,
      "ĠHotel": 3348,
      "×ķ×ĳ×ŀ×ĳ×¨": 3349,
      "Ġ×Ĳ×Ļ×©×ķ×¨": 3350,
      "Ġ×ľ×¤×¨×ĺ×Ļ×Ŀ": 3351,
      "×ŀ×Ĺ×Ļ×¨": 3352,
      "×Ľ×ľ×Ļ×Ŀ": 3353,
      "Ġ×Ĳ×¨×Ķ": 3354,
      "Ġ×ķ×ĸ×Ĳ×ª": 3355,
      "Ġ×Ļ×Ľ×ķ×ľ×ª": 3356,
      "×ķ×ŀ×ļ": 3357,
      "Ġ×ŀ×Ĺ×ķ×¥": 3358,
      "Ġ×Ķ×Ļ×¦": 3359,
      "Ġ×¤×ķ×¢": 3360,
      "Ġ×ĺ×ķ×¨": 3361,
      "Ö¸Ö¼": 3362,
      "Ġ×Ķ×Ĳ×Ĺ×¨×ķ×ł×Ļ×Ŀ": 3363,
      "Ġ×Ĳ×ĳ×¨×Ķ×Ŀ": 3364,
      "23": 3365,
      "Ġ×ª×ķ×¨": 3366,
      "Ġ×ĳ×©×ľ×ĳ": 3367,
      "Ġ×©×Ļ×¦": 3368,
      "×Ļ×¤×ķ×Ļ": 3369,
      "Ġ×©×ĳ×Ĳ": 3370,
      "×Ļ×¦×ķ×ª": 3371,
      "Ġ×ĳ×Ķ×ŀ×©×ļ": 3372,
      "×Ĺ×¨×Ļ×Ŀ": 3373,
      "Ġ2014": 3374,
      "Ġ×ĳ×Ĳ×ķ×ª×Ķ": 3375,
      "Ġ×ŀ×§×¦×ķ×¢×Ļ×ª": 3376,
      "Ġ×Ĳ×ķ×Ķ×ĳ×ª": 3377,
      "×ª×Ł": 3378,
      "Ġ×Ķ×¢×ľ": 3379,
      "×Ļ×ľ×Ļ×ª": 3380,
      "Ġ×©×Ļ×ł×Ķ": 3381,
      "Ġ×ŀ×Ķ×¡": 3382,
      "×Ĳ×ķ×¨×Ķ": 3383,
      "×Ļ×§×ķ×¨×ª": 3384,
      "Ġ×ĳ×¨×ŀ×ª": 3385,
      "Ġ×¨×¤×ķ×Ĳ×Ļ": 3386,
      "Ġ×Ľ×ł×Ĵ×ĵ": 3387,
      "×¢×Ļ×Ł": 3388,
      "×Ļ×ŀ×ķ×ĵ": 3389,
      "Ġ23": 3390,
      "Ġ×ŀ×¨×Ĳ×Ķ": 3391,
      "×¤×ĺ×ŀ×ĳ×¨": 3392,
      "×©×ĳ×ķ×¢": 3393,
      "Ġ×Ķ×Ĳ×Ļ×©": 3394,
      "×Ļ×Ĵ×ķ×ª": 3395,
      "×Ļ×Ĳ×ĺ×¨×ķ×Ł": 3396,
      "×ķ×ĸ×ľ": 3397,
      "Ġ×Ĺ×ķ×¡×¨": 3398,
      "Ġ×§×¨×Ķ": 3399,
      "×Ķ×¨×©×ŀ×Ķ": 3400,
      "Ġ×©×Ĳ×¨": 3401,
      "×¢×ĳ×¨": 3402,
      "Ġ×ľ×Ķ×¤×ķ×ļ": 3403,
      "Ġ×ľ×ĳ×Ĺ": 3404,
      "×ŀ×Ĵ": 3405,
      "Ġ×§×¨×ķ×ĳ": 3406,
      "Ġ×Ĳ×Ĺ×¨×ķ×ł×ķ×ª": 3407,
      "×ľ×Ķ×ľ×Ł": 3408,
      "Ġ×ŀ×§×ķ×ŀ×ķ×ª": 3409,
      "×¤×Ļ×ª": 3410,
      "Ġ×ľ×¢×¨": 3411,
      "Ġ×Ķ×ĳ×ĵ": 3412,
      "×ķ×¡×¡": 3413,
      "×ĸ×ŀ×Ł": 3414,
      "Ġ×¤×§": 3415,
      "Ġ×Ķ×Ķ×ľ": 3416,
      "Ġ×©×Ľ×¨": 3417,
      "ex": 3418,
      "Ġ×ŀ×Ĺ×§×¨": 3419,
      "Ġ×Ļ×ķ×¨×§": 3420,
      "Ġ×Ĳ×ŀ×ª": 3421,
      "ort": 3422,
      "Ġ×©×Ĳ×Ŀ": 3423,
      "Ġ×Ķ×ª×¢×ķ×¤×Ķ": 3424,
      "21": 3425,
      "Ġ×Ķ×ŀ×ķ×ĳ": 3426,
      "Ġ×¢×ķ×ł×Ķ": 3427,
      "Ġ×ĺ×ľ×¤×ķ×Ł": 3428,
      "Ġ×Ķ×¢×¨": 3429,
      "Ġ×ľ×¢×¦×ŀ": 3430,
      "Ġ×©×ĳ×¨": 3431,
      "Ġ×ł×Ļ×ª": 3432,
      "×¢×Ļ×¦×ķ×ĳ": 3433,
      "Ġ×ª×Ļ": 3434,
      "Ġ×§×Ļ×ĵ×ķ×Ŀ": 3435,
      "Ġ×Ķ×¡×Ļ×¤×ķ×¨": 3436,
      "Ġ×Ķ×¡×ĳ×Ļ×ĳ×Ķ": 3437,
      "Ġ×Ĺ×Ļ×Ļ": 3438,
      "Ġ×ŀ×ľ×Ĺ×ŀ×ª": 3439,
      "Ġ×ĳ×ĸ×Ľ×ķ×ª": 3440,
      "×§×¨×Ļ×Ŀ": 3441,
      "Ġ×ľ×ĵ×ķ×Ĵ": 3442,
      "Ġ×Ķ×ĳ×Ļ×ĺ×ķ×Ĺ": 3443,
      "×ķ×Ķ×Ķ": 3444,
      "Ġ×ķ×ĳ×ª": 3445,
      "Ġ×Ķ×ľ×§×ķ×Ĺ": 3446,
      "Ġ×ŀ×¦×ķ×Ļ": 3447,
      "×©×ª×ķ": 3448,
      "×©×ª×£": 3449,
      "×Ĳ×¨×¥": 3450,
      "×Ĵ×ķ×ĳ×Ķ": 3451,
      "Ġ×Ķ×¨×ķ×Ĺ": 3452,
      "Ġ×Ķ×ĳ×ľ×ķ×Ĵ": 3453,
      "×Ļ×¢×Ļ×Ł": 3454,
      "Ġ×§×Ļ×ľ×ķ×ŀ×ĺ×¨": 3455,
      "Ġ×Ķ×ĳ×¢×Ļ×Ķ": 3456,
      "Ġ×ľ×Ķ×ª×Ļ": 3457,
      "ub": 3458,
      "Ġ×ľ×©×ŀ×ķ×¢": 3459,
      "×Ļ×Ĵ×Ļ": 3460,
      "ab": 3461,
      "Ġ×ĳ×¡×ĵ×¨": 3462,
      "×ķ×Ĵ×ķ×ª": 3463,
      "Ġ×Ķ×ľ×Ļ×Ľ×Ķ": 3464,
      "Ġ×ŀ×Ľ×ļ": 3465,
      "Ġ×ķ×¢×Ŀ": 3466,
      "×Ķ×¨×ĳ": 3467,
      "×Ļ×¨×Ļ×Ļ×ª": 3468,
      "Ġ×ľ×Ķ×ĸ×ŀ×Ļ×Ł": 3469,
      "×¤×ĵ": 3470,
      "Ġ×ĵ×Ĳ": 3471,
      "×Ĳ×ĳ×Ļ×ĳ": 3472,
      "×¤×§×ĺ": 3473,
      "Ġ×Ķ×¡×Ľ×Ŀ": 3474,
      "ind": 3475,
      "Ġ×ŀ×Ļ×ľ×Ļ×Ŀ": 3476,
      "Ġ×ŀ×§×¡": 3477,
      "Ġg": 3478,
      "Ġ×Ķ×¡×Ľ": 3479,
      "Ġ×ŀ×ķ×¦×¨": 3480,
      "×ĸ×Ļ": 3481,
      "×ķ×¤×¢×ķ×ª": 3482,
      "×ĺ×Ĵ": 3483,
      "×ľ×ŀ×Ļ×ĵ×Ļ×Ŀ": 3484,
      "Ġ×Ķ×¤×¢×Ŀ": 3485,
      "Ġ×Ķ×¦×Ļ": 3486,
      "Ġ×Ķ×¢×ĵ": 3487,
      "Ġ×ķ×Ķ×Ĵ": 3488,
      "Ġ×ĳ×¦×¤×ķ×Ł": 3489,
      "Ġ×Ķ×¨×¤×ķ×Ĳ": 3490,
      "×Ļ×ĳ×ķ×¥": 3491,
      "Ġ×Ķ×¢×Ŀ": 3492,
      "Ġ×ĵ×Ļ×¨×ķ×ª": 3493,
      "Ġ×ŀ×Ĳ×Ļ×¨": 3494,
      "×Ļ×ł×ĵ": 3495,
      "Ġ×ľ×Ĺ×©×ķ×ĳ": 3496,
      "×ŀ×ľ×Ĳ": 3497,
      "×ĳ×Ļ×Ĳ": 3498,
      "×¡×§×Ķ": 3499,
      "Ġ×Ķ×¢×Ļ×§×¨": 3500,
      "Ġ×ķ×ľ×©": 3501,
      "Ġ×Ĺ×ķ×ŀ×¨": 3502,
      "Ġ×ĳ×Ļ×ŀ×Ļ×Ŀ": 3503,
      "×ł×Ļ×Ĵ×ķ×ĵ": 3504,
      "×¦×ķ×¨": 3505,
      "Ġ×Ķ×ª×§×©×ķ×¨×ª": 3506,
      "Ġ×ķ×ĳ×Ļ×Ł": 3507,
      "Ġ×©×Ĺ×¨": 3508,
      "Ġ×Ĳ×¨×¥": 3509,
      "Ġ×ĳ×¢×ł×Ļ×Ļ×Ł": 3510,
      "Ġ×¢×Ļ×ł×Ļ×Ļ×Ŀ": 3511,
      "ice": 3512,
      "Ġ×ľ×Ĳ×Ľ×ķ×ľ": 3513,
      "×ķ×ŀ×ĵ×Ļ×Ŀ": 3514,
      "Ġ×§×ķ×ĳ": 3515,
      "×Ĳ×ķ×Ŀ": 3516,
      "Ġ×Ĳ×¨×ķ×ļ": 3517,
      "Ġ×Ķ×Ĳ×ķ×ķ×Ļ×¨": 3518,
      "Ġ×ł×ķ×¢×¨": 3519,
      "ĠSt": 3520,
      "Ġ×¢×§": 3521,
      "Ġ×ŀ×Ľ×ĳ×Ļ": 3522,
      "×ĵ×Ļ×ª": 3523,
      "Ġ×¤×ľ×Ĳ": 3524,
      "Ġ×Ķ×©×Ĳ×ľ×Ķ": 3525,
      "Ġ2013": 3526,
      "×¤×Ļ×Ļ×Ł": 3527,
      "Ġ×ŀ×¡×Ĺ×¨": 3528,
      "×ķ×¦×¨×ª": 3529,
      "Ġ×ĳ×¨×¦": 3530,
      "Ġ×ŀ×Ļ×ĵ×Ļ": 3531,
      "Ġ×¤×Ļ×¦": 3532,
      "Ġ×ł×ª×ķ×ł×Ļ×Ŀ": 3533,
      "29": 3534,
      "Ġ×ŀ×¦×ľ×Ļ×Ĺ": 3535,
      "×ł×Ĳ×ķ×ª": 3536,
      "Ġ×ľ×Ķ×©×§": 3537,
      "Ġ×Ĺ×ł": 3538,
      "Ġ×Ķ×Ĳ×Ĵ": 3539,
      "Ġ×ľ×ĳ×ł×ķ×ª": 3540,
      "Ġ×ĳ×Ĺ×ľ×§": 3541,
      "Ġ×§×ľ×Ĳ": 3542,
      "×¤×§×ª": 3543,
      "Ġ×ł×¤×ľ×Ĳ": 3544,
      "Ġ×Ķ×¦×ľ×Ļ×Ĺ": 3545,
      "Ġ×ľ×Ķ×Ĵ×Ļ×ĵ": 3546,
      "×¨×ĳ×Ļ×Ŀ": 3547,
      "Ġ×ª×ĵ": 3548,
      "Ġ×Ķ×Ļ×Ļ×ł×ķ": 3549,
      "×ķ×Ķ×Ļ": 3550,
      "Ġ×Ĳ×¨×Ĵ×ķ×Ł": 3551,
      "Ġ×Ļ×ķ×¦×¨×Ļ×Ŀ": 3552,
      "ip": 3553,
      "Ġ×Ķ×ŀ×Ĳ×Ķ": 3554,
      "Ġ×Ķ×ŀ×Ķ": 3555,
      "Ġ×ŀ×Ļ×Ł": 3556,
      "Ġ×Ľ×ĸ×ķ": 3557,
      "ik": 3558,
      "×¢×ķ×Ł": 3559,
      "Ġ×ĳ×Ĺ×ĳ×¨×Ķ": 3560,
      "Ġ×ľ×ĵ×¨": 3561,
      "Ġ×ĳ×§×©×Ķ": 3562,
      "×ł×ª×Ķ": 3563,
      "×Ļ×§×Ļ": 3564,
      "Ġ×§×ŀ": 3565,
      "×ĳ×Ĺ×Ł": 3566,
      "Ġ×¤×ľ×¡×ĺ": 3567,
      "×¦×ŀ×ĳ×¨": 3568,
      "ov": 3569,
      "×Ĳ×§": 3570,
      "Ġ×¤×Ļ×Ļ×¡×ĳ×ķ×§": 3571,
      "Ġ×Ĳ×ĵ×¨": 3572,
      "Ġ×©×ĳ×ķ×¢×ķ×ª": 3573,
      "Ġ×ĺ×ĳ×¢×Ļ": 3574,
      "Ġ×ľ×¤×¢×ŀ×Ļ×Ŀ": 3575,
      "Ġ×ľ×Ĺ×ª": 3576,
      "Ġ×Ķ×ķ×ĵ×¢×Ķ": 3577,
      "Ġ×Ĳ×ķ×ŀ×¨×ª": 3578,
      "Ġ×Ļ×©×Ļ×¨×ķ×ª": 3579,
      "Ġ×ĵ×Ŀ": 3580,
      "Ġ×Ĳ×Ļ×ª×ķ": 3581,
      "Ġ×Ķ×ĵ×Ļ": 3582,
      "Ġ×ľ×©×Ĺ×§": 3583,
      "Ġ×ľ×Ĳ×¨": 3584,
      "×ķ×ĵ×Ļ×ķ": 3585,
      "Ġ×ŀ×ĵ×Ļ×ł×Ļ×ķ×ª": 3586,
      "×Ĺ×ľ×ĺ×Ķ": 3587,
      "Ġ×ĺ×Ľ×ł×ķ×ľ×ķ×Ĵ": 3588,
      "Ġ×ĸ×Ľ×¨": 3589,
      "Ġ×¤×ĺ": 3590,
      "Ġ×ĳ×§×ľ×ķ×ª": 3591,
      "Ġ×ŀ×Ķ×Ļ×¨": 3592,
      "Ġ×¦×Ļ×ķ×Ł": 3593,
      "Ġ×ł×¤×©": 3594,
      "Ġ×ľ×Ķ×ª×Ĺ×Ļ×ľ": 3595,
      "Ġ×ľ×¨×ķ×ĳ": 3596,
      "Ġ×ĳ×Ļ×§×ķ×¨×ª": 3597,
      "×ŀ×Ĳ×ľ": 3598,
      "net": 3599,
      "Ġ×ŀ×Ļ×ķ×Ŀ": 3600,
      "Ġ×§×ķ×ŀ": 3601,
      "Ġ×ĳ×¤×ķ×¢×ľ": 3602,
      "×ķ×§×ĵ": 3603,
      "×Ļ×ŀ×Ļ×ª": 3604,
      "Ġ×ĳ×§×ĳ": 3605,
      "Ġ×Ķ×Ľ×ľ×Ľ×ľ": 3606,
      "Ġ×ľ×¡×¤×§": 3607,
      "×Ļ×©×¨": 3608,
      "×ķ×Ļ×§×ĺ×Ļ×Ŀ": 3609,
      "Ġ×©×Ļ×ł×Ļ×Ļ×Ŀ": 3610,
      "Ġ×¨×Ĳ×Ķ": 3611,
      "Ġ×Ļ×Ļ×ª×Ľ×Ł": 3612,
      "Ġ×ĳ×Ĺ×©×ĳ×ķ×Ł": 3613,
      "Ġ×¦×Ļ×ĳ×ķ×¨×Ļ×ª": 3614,
      "Ġ×ĳ×ķ×Ĺ": 3615,
      "×Ļ×¢×ķ×ĵ": 3616,
      "×ª×Ĵ×Ļ×ķ×ª": 3617,
      "Ġ×Ķ×ŀ×ķ×¦": 3618,
      "Ġ×Ķ×¦×ķ×¨×ļ": 3619,
      "Ġ×Ľ×Ļ×ķ×ķ×Ł": 3620,
      "Ġ×Ľ×ľ×Ļ×Ŀ": 3621,
      "×Ľ×ĳ×¨": 3622,
      "×ŀ×ķ×¡": 3623,
      "Ġ×©×¢×ĳ×¨": 3624,
      "Ġ×ĳ×Ĺ×ķ×ĵ×©": 3625,
      "Ġ×ĵ×Ĵ": 3626,
      "Ġ×ĳ×ŀ×¨×Ĺ×§": 3627,
      "×ŀ×Ĳ×ª": 3628,
      "Ġ×Ķ×©×ĳ×ª": 3629,
      "ĠThe": 3630,
      "×ĺ×ķ×Ł": 3631,
      "×Ĵ×ķ×¨×Ļ×ķ×ª": 3632,
      "hot": 3633,
      "Ġ×Ľ×Ļ×£": 3634,
      "×¨×Ĳ×Ļ×Ŀ": 3635,
      "Ġ×ŀ×ł×¡×Ķ": 3636,
      "×Ļ×Ļ×ĳ": 3637,
      "Ġ×ŀ×©×ŀ×¢×ķ×ª×Ļ": 3638,
      "Ġ×ĳ×ŀ×¢×¨×Ľ×ª": 3639,
      "Ġ×ŀ×Ļ×ķ×Ĺ×ĵ×ª": 3640,
      "Ġ×ľ×Ķ×ª×ŀ×ķ×ĵ×ĵ": 3641,
      "Ġ×ĳ×Ļ×¦": 3642,
      "Ġ×Ĺ×¡×¨": 3643,
      "×¡×ķ×¨": 3644,
      "Ġ×ŀ×ª×Ĺ×Ļ×ľ": 3645,
      "×ĸ×Ĳ×ª": 3646,
      "×ĺ×¢": 3647,
      "av": 3648,
      "Ġ×Ķ×ŀ×©×ª×ŀ×©": 3649,
      "Ġ×ŀ×¤×¢": 3650,
      "×¤×ķ×ľ": 3651,
      "Ġ×¢×ķ×ľ": 3652,
      "Ġ×Ĳ×Ļ×ł×ĺ": 3653,
      "×Ļ×¡×Ļ×ķ×Ł": 3654,
      "×Ļ×Ĳ×Ł": 3655,
      "Ġ×Ĵ×ķ×¨×Ŀ": 3656,
      "Ġ×ŀ×ĳ×¨": 3657,
      "×Ļ×ŀ×ķ×ĵ×Ļ": 3658,
      "×Ķ×ª×Ĺ": 3659,
      "Ġ×ŀ×¢×¦": 3660,
      "Ġ×ŀ×ķ×ĸ×ŀ×ł×Ļ×Ŀ": 3661,
      "est": 3662,
      "×ŀ×ĵ×Ķ": 3663,
      "×©×ľ×Ĺ": 3664,
      "Ġ×ŀ×ĵ×Ķ×Ļ×Ŀ": 3665,
      "×¨×Ĵ×Ļ×©": 3666,
      "Â»": 3667,
      "×Ľ×ł×Ļ×¡×Ķ": 3668,
      "×ľ×ŀ×ķ×ª": 3669,
      "Ġ×ľ×Ķ×Ļ×Ľ×ł×¡": 3670,
      "Ġ×¤×¨×©×ª": 3671,
      "×¡×ķ×§": 3672,
      "Ġ×ľ×Ĵ×¨×ķ×Ŀ": 3673,
      "Ġ×ŀ×ŀ×Ķ": 3674,
      "Ġ×ĳ×Ĵ×¨": 3675,
      "Ġ×ľ×Ķ×Ľ×Ļ×¨": 3676,
      "Ġ×Ķ×¢×ĳ×¨×Ļ×ª": 3677,
      "Ġ×Ķ×ķ×Ľ": 3678,
      "Ġ×¨×Ĳ×©×ķ×ł×Ķ": 3679,
      "×Ļ×ķ×¡": 3680,
      "Ġ×Ķ×ľ×Ļ×ŀ×ķ×ĵ×Ļ×Ŀ": 3681,
      "×§×ķ×ĵ": 3682,
      "Ġ×©×ŀ×¦": 3683,
      "×ķ×Ľ×ł×ķ×ª": 3684,
      "×Ķ×ĳ": 3685,
      "×©×ĺ×Ļ×Ļ×Ł": 3686,
      "Ġ×Ķ×ª×ĳ×Ļ×¢×Ķ": 3687,
      "Ġ×Ķ×Ĺ×Ļ×¤×ķ×©": 3688,
      "×Ļ×ĳ×ķ×ĵ": 3689,
      "Ġ×¦×Ļ×¦×Ļ×Ŀ": 3690,
      "×ķ×Ľ×Ļ×ª": 3691,
      "×ķ×ŀ×ľ": 3692,
      "×Ļ×ª×ķ×ł": 3693,
      "Ġl": 3694,
      "Ġ×ĳ×¨×Ĵ×¢": 3695,
      "×ĺ×¨×ª": 3696,
      "Ġ×ª×ķ×Ľ×ľ": 3697,
      "].": 3698,
      "Ġ×Ĵ×ķ×ĵ×ľ": 3699,
      "Ġ×ľ×¨×Ĳ×©×ķ×ł×Ķ": 3700,
      "×Ĳ×Ĺ×ĵ": 3701,
      "×ŀ×ł×Ķ": 3702,
      "ap": 3703,
      "Ġ×¤×ķ×¨×¡": 3704,
      "×ķ×¡×ĺ×Ļ×Ŀ": 3705,
      "×ķ×§×£": 3706,
      "Ġ×Ĳ×¤×ľ×Ļ×§": 3707,
      "Ġ×Ķ×Ĵ×ķ×ľ": 3708,
      "×¤×§×ĵ": 3709,
      "Ġ×ĳ×Ļ×ł×Ļ×Ķ×Ŀ": 3710,
      "Ġ×Ķ×ŀ×ĸ": 3711,
      "Ġ×ŀ×¦×ķ×ķ×Ķ": 3712,
      "×ķ×Ĳ×ª": 3713,
      "ive": 3714,
      "op": 3715,
      "×ŀ×¡×¢": 3716,
      "Ġ×Ĳ×ŀ×Ļ×ª×Ļ": 3717,
      "×©×ª×Ķ": 3718,
      "Ġ×¨×ķ×ķ×Ĺ": 3719,
      "Ġ×Ľ×ķ×©×¨": 3720,
      "Ġ×§×ķ×ł": 3721,
      "Ġ×¨×§×¢": 3722,
      "Ġ×Ķ×Ĵ×Ļ×¢×ķ": 3723,
      "Ġ×Ļ×©×Ļ×¨×Ķ": 3724,
      "×ľ×ĳ×ĵ": 3725,
      "Ġ×Ľ×ķ": 3726,
      "Ġ×¤×Ļ×ľ": 3727,
      "Ġ×ŀ×ĺ×¢×Ŀ": 3728,
      "Ġ×Ĳ×Ļ×ŀ": 3729,
      "Ġ×©×Ķ×Ĵ": 3730,
      "Ġ×ĳ×Ĺ×Ļ": 3731,
      "Ġ×ĳ×ŀ×Ĺ×Ļ×¨": 3732,
      "Ġ×ŀ×ĵ×ĳ×¨": 3733,
      "×ŀ×Ĳ×ŀ×¨×Ļ×Ŀ": 3734,
      "Ġ×Ķ×Ļ×Ĺ×¡": 3735,
      "Ġ×ĳ×¢×ľ×ª": 3736,
      "Ġ×ĺ×¨×Ĳ": 3737,
      "Ġ×¦×Ļ×ķ×ĵ": 3738,
      "Ġ×©×ŀ×Ķ": 3739,
      "Ġ×ĳ×ŀ×Ķ×Ļ×¨×ķ×ª": 3740,
      "×Ļ×¡×ķ×§": 3741,
      "Ġ×ŀ×ķ×¢×ĵ": 3742,
      "Ġ×©×ĺ×Ĺ": 3743,
      "Ġ×ľ×§×ĳ": 3744,
      "Ġ×ŀ×¡×ļ": 3745,
      "Ġ×ł×ŀ×¦×Ĳ×ª": 3746,
      "Ġ×ľ×Ĺ×Ļ×ķ×ª": 3747,
      "Ġ×ŀ×©×¨": 3748,
      "Ġ×ł×ŀ×¦×Ĳ×Ļ×Ŀ": 3749,
      "×¦×ľ×Ļ×Ķ": 3750,
      "×ĵ×¤×Ļ×Ŀ": 3751,
      "Ġ2012": 3752,
      "×ķ×Ĳ×ķ×ª": 3753,
      "×Ĺ×ľ×§": 3754,
      "Ġ×Ķ×ķ×ĵ×¢×ķ×ª": 3755,
      "Ġ×Ĳ×ķ×ŀ×¨×Ļ×Ŀ": 3756,
      "×Ļ×ĵ×ķ×ľ": 3757,
      "Ġ×Ĳ×§×ĵ": 3758,
      "×Ĺ×ĳ×¨×ª": 3759,
      "Ġ×Ķ×Ĺ×§": 3760,
      "Ġ×ŀ×¤×ľ": 3761,
      "Ġ×¢×¨×ķ×¥": 3762,
      "×ķ×ŀ×Ŀ": 3763,
      "Ġ×´": 3764,
      "×ĵ×Ļ×Ł": 3765,
      "Ġ×ł×¢×ľ": 3766,
      "Ġ×ŀ×ł×Ľ": 3767,
      "Ġ×¨×Ľ×ĳ×ª": 3768,
      "Ġ×ª×Ļ×ł×ķ×§": 3769,
      "Ġ×¢×©×ķ×Ļ": 3770,
      "âĢª.": 3771,
      "Ġ×ª×Ĺ×ķ×Ŀ": 3772,
      "Ġin": 3773,
      "Ġ×ŀ×¡×ķ×Ļ×Ŀ": 3774,
      "Ġ×©×ĳ×Ķ×Ŀ": 3775,
      "Ġ×©×Ļ×¨×ķ×ª×Ļ×Ŀ": 3776,
      "×ķ×ĳ×¡": 3777,
      "Ġ×Ĳ×ķ×ł": 3778,
      "×Ļ×Ļ×¡": 3779,
      "Ġ×Ķ×¤×ľ×¡×ĺ": 3780,
      "Ġ×Ĵ×ĳ×Ļ": 3781,
      "Ġ×ĳ×Ļ×Ķ": 3782,
      "×ŀ×ķ×ª×Ķ": 3783,
      "×Ļ×ŀ×¨": 3784,
      "Ġ×Ĳ×Ļ×ł×ĵ": 3785,
      "Ġ×Ķ×©×ķ×¤×ĺ": 3786,
      "Ġ×ĳ×ŀ×©×Ĺ×§": 3787,
      "Ġ×Ļ×©×ł×Ŀ": 3788,
      "Ġ×¦×¤×ķ": 3789,
      "Ġ×Ĳ×ŀ×¨×Ļ×§": 3790,
      "Ġ×ĳ×ĵ×ĳ×¨": 3791,
      "Ġ×¦×¢×ĵ": 3792,
      "Ġ×¨×Ĳ×ķ": 3793,
      "×ķ×¤×Ļ×Ķ": 3794,
      "Ġ×§×Ķ": 3795,
      "Ġ×¡×ª×Ŀ": 3796,
      "Ġ×§×ĳ×¢": 3797,
      "Ġ×ŀ×ĵ×Ļ×ł×Ķ": 3798,
      "Ġw": 3799,
      "Ġ×Ĳ×ķ×¨×Ĵ": 3800,
      "Ġ×ľ×ł×§": 3801,
      "Ġ×Ķ×Ļ×Ķ×ķ×ĵ×Ļ×Ŀ": 3802,
      "Ġto": 3803,
      "Ġ×ĳ×¡×ļ": 3804,
      "×Ļ×Ĳ×ľ×Ļ": 3805,
      "×ľ×ĳ×ķ×Ŀ": 3806,
      "Ġ×ľ×ĺ×Ļ×¤×ķ×ľ": 3807,
      "×Ļ×¡×ĺ×Ļ×ª": 3808,
      "×¢×©": 3809,
      "Ġ×Ĳ×Ļ×¤×Ķ": 3810,
      "Ġ×ĺ×ľ": 3811,
      "Ġ×Ķ×ª×¨×ĳ×ķ×ª": 3812,
      "Ġ×Ļ×ĵ×ķ×¢": 3813,
      "Ġ×©×Ķ×¦": 3814,
      "Ġ×ľ×Ĳ×ł×©×Ļ×Ŀ": 3815,
      "Ġ×Ķ×Ĺ×ŀ": 3816,
      "Ġ×Ĳ×ľ×ĳ": 3817,
      "Ġ×ľ×Ķ×ķ×¦×Ļ×Ĳ": 3818,
      "×Ľ×ł×Ļ×¡": 3819,
      "×ķ×¢×ĵ×ª": 3820,
      "×Ļ×Ļ×ĺ": 3821,
      "Ġ×Ķ×Ĺ×ĳ×¨×ª": 3822,
      "Ġ×Ķ×ł×Ĺ": 3823,
      "×ķ×ĺ×ľ": 3824,
      "×Ķ×ķ×ĳ": 3825,
      "Ġ×ĵ×ŀ×Ļ": 3826,
      "Ġ×Ķ×ŀ×Ĺ×©×ĳ": 3827,
      "Ġ×ł×ķ×¨": 3828,
      "Ġ×Ĳ×ŀ×ł×ķ×ª": 3829,
      "×ĳ×Ļ×©": 3830,
      "×¤×Ĺ×ķ×ª": 3831,
      "ail": 3832,
      "Ġ×©×Ļ×Ĺ×Ķ": 3833,
      "Ġ×ľ×©×ľ×ķ×Ĺ": 3834,
      "Ġ×©×Ĳ×ł×ķ": 3835,
      "Ġ×Ĳ×ķ×Ķ×ĳ×Ļ×Ŀ": 3836,
      "×Ļ×¨×Ļ×Ļ×Ķ": 3837,
      "×ĳ×ł×Ļ": 3838,
      "Ġ×Ĳ×Ļ×¨×ķ×¤×Ķ": 3839,
      "Ġ×¢×ľ×Ķ": 3840,
      "×Ĵ×¨×Ŀ": 3841,
      "Ġ×ķ×Ķ×ł": 3842,
      "×ŀ×¦×Ĳ×ķ": 3843,
      "Ġ×ľ×Ļ×¨": 3844,
      "×Ļ×Ľ×Ł": 3845,
      "Ġ×Ļ×Ľ×ķ×ľ×ķ×ª": 3846,
      "Ġ×ĳ×ª×ķ×¨": 3847,
      "×ķ×¢×¥": 3848,
      "×ĳ×Ľ×ľ": 3849,
      "Ġ×Ļ×©×Ļ×¨": 3850,
      "Ġ×ĳ×ĳ×¢": 3851,
      "×ŀ×¨×ķ": 3852,
      "Ġ×Ķ×Ĳ×Ĺ": 3853,
      "Ġ×ķ×Ľ×ĵ": 3854,
      "Ġ.âĢ¬": 3855,
      "Ġ×ķ×Ķ×§": 3856,
      "ul": 3857,
      "Ġ×ķ×Ĳ×ľ": 3858,
      "45": 3859,
      "Ġ×ľ×Ĳ×¤×©×¨": 3860,
      "×ł×Ļ×Ĵ×ķ×ĵ×Ļ×ķ×ª": 3861,
      "Ġ×Ĺ×¤": 3862,
      "Ġ×Ĳ×¨×¦×ķ×ª": 3863,
      "×Ĳ×Ĺ×¨×Ļ": 3864,
      "Ġ×Ķ×ł×ĵ": 3865,
      "ck": 3866,
      "Ġ×¡×ĳ×Ĳ": 3867,
      "Ġ×§×¨×Ł": 3868,
      "Ġ×Ĳ×ĳ×Ļ": 3869,
      "×Ĳ×¨×Ļ": 3870,
      "Ġ×Ķ×¢×ķ×¨": 3871,
      "Ġ×ĺ×ķ×ĳ×ķ×ª": 3872,
      "Ġ×©×ł×ª×Ļ×Ļ×Ŀ": 3873,
      "ct": 3874,
      "Ġ×©×Ļ×ľ": 3875,
      "Ġ×§×Ļ×Ļ×ŀ×ª": 3876,
      "Ġ×Ĳ×ŀ×¦": 3877,
      "×Ļ×ĵ×¨": 3878,
      "Ġ×Ļ×Ĺ×¡×Ļ": 3879,
      "Ġ×ŀ×Ĵ×Ļ×ĳ": 3880,
      "Ġ×©×ķ": 3881,
      "Ġ×Ĵ×ķ×¤": 3882,
      "×¡×ŀ": 3883,
      "Ġ×Ķ×©×ľ×Ļ×©×Ļ": 3884,
      "Ġ×ŀ×ª×¢": 3885,
      "Ġ×¦×ŀ": 3886,
      "Ġ×Ķ×Ķ×ķ×¨×Ļ×Ŀ": 3887,
      "Ġ×Ľ×ĳ×ķ×ĵ": 3888,
      "Ġ×ŀ×ĵ×Ļ×ł×ķ×ª": 3889,
      "×ŀ×Ĳ×¡": 3890,
      "×ĳ×Ĳ×Ļ": 3891,
      "Ġ×Ĳ×¡×ĺ×¨": 3892,
      "Ġ×Ķ×¤×ł": 3893,
      "Ġ×ĳ×ł×ķ×ª": 3894,
      "Ġ×Ķ×¢×ķ×ł×Ķ": 3895,
      "26": 3896,
      "×ŀ×ĵ×ª": 3897,
      "Ġ×¨×ķ": 3898,
      "Ġ×ŀ×Ĳ×Ļ": 3899,
      "Ġ×Ķ×¢×ķ×ľ": 3900,
      "×Ļ×¨×ķ×¤×Ķ": 3901,
      "×Ľ×ł×ķ": 3902,
      "Ġ×Ĺ×Ļ×Ļ×ĳ×Ļ×Ŀ": 3903,
      "Ġ×ľ×Ļ×ĵ×Ļ": 3904,
      "Ġ×ŀ×ª×Ł": 3905,
      "×Ľ×ª×ķ×ĳ": 3906,
      "×ķ×ĳ×ĵ×Ļ×Ŀ": 3907,
      "ord": 3908,
      "Ġ×Ķ×¨×Ĳ×©×ķ×ł×Ļ×Ŀ": 3909,
      "Ġ×Ĳ×Ļ×©×Ļ×Ļ×Ŀ": 3910,
      "×ł×ĺ×Ļ×ª": 3911,
      "Ġ×ª×§×ķ×¤×Ķ": 3912,
      "Ġ×ķ×¤×¨": 3913,
      "Ġ60": 3914,
      "Ġ×©×Ĳ×ľ": 3915,
      "×¤×¨×§": 3916,
      "Ġ×ŀ×ª×ł×Ķ": 3917,
      "×ĳ×¨×ķ×Ĳ×¨": 3918,
      "Ġ×Ĳ×Ļ×¡": 3919,
      "Ġ×Ķ×¤×Ĵ": 3920,
      "×Ļ×Ľ×ķ": 3921,
      "Ġ×ĳ×¢×¨": 3922,
      "Ġ×ĳ×ª×Ĺ×Ļ×ľ×ª": 3923,
      "×ķ×ŀ×ł×Ļ×Ŀ": 3924,
      "×Ĳ×ķ×ĵ×ķ×ª": 3925,
      "Ġ×ŀ×¢×¨": 3926,
      "Ġ×ľ×©×Ļ×Ŀ": 3927,
      "×ľ×ĺ×ķ×Ł": 3928,
      "Ġ×Ķ×ŀ×ķ×¢×¦×Ķ": 3929,
      "Ġ×ŀ×Ľ×Ļ×ķ×ķ×Ł": 3930,
      "Ġ×Ľ×ľ×ķ×Ŀ": 3931,
      "Ġof": 3932,
      "Ġ×ŀ×Ľ×¨": 3933,
      "Ġ×¦×¢×Ļ×¨": 3934,
      "Ġ×ľ×©×¢×ĳ×¨": 3935,
      "Ġ×ľ×¨×ĳ×ķ×ª": 3936,
      "Ġ×ł×ĸ": 3937,
      "×ķ×Ĳ×ĳ": 3938,
      "Ġ×Ķ×Ĳ×§×ĵ": 3939,
      "Ġ×ķ×Ķ×ĳ": 3940,
      "Ġ×ŀ×ª×§×ĵ": 3941,
      "Ġ2011": 3942,
      "Ġ×ĳ×ķ×¨": 3943,
      "Ġ×Ĳ×ŀ×Ļ×ª": 3944,
      "Ġ×ĳ×¡×ķ×¤×ķ": 3945,
      "Ġ×Ķ×Ļ×ľ": 3946,
      "Ġ×Ľ×ķ×ľ×ķ": 3947,
      "Ġ×Ľ×ª×ķ×¦×Ĳ×Ķ": 3948,
      "Ġ×ł×ķ×ª×Ł": 3949,
      "Ġ×Ķ×ŀ×ķ×ª": 3950,
      "×ķ×ĵ×Ĳ×Ļ": 3951,
      "Ġ×Ľ×ł×Ļ×¡×Ķ": 3952,
      "×©×Ļ×Ļ×ª": 3953,
      "Ġ×©×¢×¨": 3954,
      "Ġ×Ĳ×ĵ×ķ×Ŀ": 3955,
      "×¨×Ĳ×©×Ļ": 3956,
      "Ġ×ľ×Ķ×Ĵ×ĵ": 3957,
      "×ª×Ĺ×Ļ×ľ": 3958,
      "Ġ×ľ×ĺ×ķ×ĳ×ª": 3959,
      "Ġ×ĳ×ĳ×ķ×§×¨": 3960,
      "Ġ×Ķ×ŀ×ľ×ļ": 3961,
      "Ġ×Ĵ×ĳ×¨×Ļ×Ŀ": 3962,
      "Ġ×ľ×Ĳ×¨×¥": 3963,
      "Ġ×Ķ×ĳ×ķ×§×¨": 3964,
      "Ġ×ł×©×Ĳ×¨": 3965,
      "Ġ×ľ×ķ×§×Ĺ×ª": 3966,
      "Ġ×©×Ķ×ŀ": 3967,
      "Ġ×Ļ×©×ł×Ķ": 3968,
      "Ġ×ª×Ľ×ł×Ļ×ª": 3969,
      "Ġ×ĵ×Ļ×Ĵ×Ļ×ĺ": 3970,
      "Ġ×ŀ×¨×ª": 3971,
      "Ġ×ľ×Ļ×Ķ×ł×ķ×ª": 3972,
      "Ġ×ľ×Ķ×Ĺ×ĸ": 3973,
      "Ġ×Ķ×ĺ×ķ×ĳ×Ķ": 3974,
      "Ġ×ĵ×¨×ķ×Ŀ": 3975,
      "Ġ×Ķ×¢×ķ×ĳ×ĵ×Ļ×Ŀ": 3976,
      "×ķ×Ľ×¨×ª": 3977,
      "×¤×Ĺ×ª": 3978,
      "×ķ×ĺ×ł×¦": 3979,
      "×ķ×Ĳ×Ł": 3980,
      "Ġ×Ļ×¦×¨": 3981,
      "Ġ×Ĺ×ĵ×¨×Ļ": 3982,
      "×ķ×¨×Ŀ": 3983,
      "Ġ×ķ×ª×©×ķ×ĳ×ķ×ª": 3984,
      "×ķ×¨×©": 3985,
      "Ġ×¤×ķ×¨×ł×ķ": 3986,
      "×ĺ×¨×¤×ķ": 3987,
      "Ġ×§×ľ×Ķ": 3988,
      "Ġ×Ķ×ŀ×©×ĺ×¨×Ķ": 3989,
      "')": 3990,
      "Ġ×©×Ļ×Ĳ": 3991,
      "Ġ×ĳ×Ļ×ĺ×ķ×Ļ": 3992,
      "Ġ×¢×ĳ×ķ×¨×Ľ×Ŀ": 3993,
      "Ġ×Ĺ×ĸ×¨×Ķ": 3994,
      "Ġ×¡×ĺ×¨": 3995,
      "Ġ×©×ķ×§×ķ×ľ×ĵ": 3996,
      "Ġ#": 3997,
      "Ġ26": 3998,
      "×ł×ķ×Ļ": 3999,
      "Ġ×Ķ×ª×ł": 4000,
      "\")": 4001,
      "×¢×Ļ×ķ×ł×ķ×ª": 4002,
      "Ġ×Ķ×©×ª×ª": 4003,
      "×Ķ×ĸ": 4004,
      "×ĺ×¨×Ŀ": 4005,
      "Ġ×ŀ×Ĳ×Ĺ×ķ×¨×Ļ": 4006,
      "Ġ×ŀ×Ĳ×ķ×Ĺ×¨": 4007,
      "Ġ×ķ×ĳ×©": 4008,
      "×¢×¨×Ķ": 4009,
      "Ġ×Ļ×ķ×Ľ×ľ": 4010,
      "âĢª.âĢ¬âĢ¬": 4011,
      "Ġ×¢×Ļ×Ł": 4012,
      "Ö¼Öµ": 4013,
      "Ġ×ŀ×¢×ķ×ľ×Ŀ": 4014,
      "Ġ×ĳ×ĳ×Ĺ": 4015,
      "od": 4016,
      "Ġ×ŀ×¢×ł×Ķ": 4017,
      "Ġ×©×Ľ×ª×ĳ": 4018,
      "Ġ×ŀ×ķ×©×ľ×Ŀ": 4019,
      "Ġ×Ķ×©×Ĳ×¨": 4020,
      "Ġ×ĳ×¦×ĵ": 4021,
      "×Ļ×ĸ×¨": 4022,
      "Ġ×ĳ×¨×Ĺ×ķ×ĳ": 4023,
      "×©×Ĳ×Ļ×¨": 4024,
      "Ġ×Ķ×ľ×ķ": 4025,
      "Ġ×ł×ª×Ł": 4026,
      "Ġ×Ĳ×ĳ×ĺ": 4027,
      "Ġ×Ľ×ķ×Ĺ×ķ×ª": 4028,
      "Ġ×ł×Ľ×ķ×ł×Ķ": 4029,
      "Ġ×©×Ķ×©": 4030,
      "×Ļ×ĳ×ķ×Ļ": 4031,
      "×Ļ×¨×ķ×Ĵ": 4032,
      "×ĸ×¨×Ĺ×Ļ×Ŀ": 4033,
      "Ġ×ķ×ľ×ª": 4034,
      "×¤×Ļ×¦×Ķ": 4035,
      "×Ĺ×ŀ": 4036,
      "×ķ×ł×ĵ×ķ×Ł": 4037,
      "×ĺ×ķ×ĳ": 4038,
      "Ġ×Ķ×Ľ×ķ×ª": 4039,
      "×ľ×Ļ×Ļ×Ł": 4040,
      "ine": 4041,
      "SS": 4042,
      "Ġ×ľ×Ķ×Ļ×¤": 4043,
      "×Ľ×ª×Ļ": 4044,
      "Ġ×Ķ×¨×©×ª": 4045,
      "×ĺ×¨×§×¦×Ļ×ķ×ª": 4046,
      "Ġ×Ķ×Ĳ×Ļ×©×Ļ": 4047,
      "Ġ×Ķ×§×ķ×ĵ×Ŀ": 4048,
      "ation": 4049,
      "Ġ×ĵ×Ļ×ł×Ļ": 4050,
      "Ġ×ĳ×¢×ĳ×ķ×ĵ×Ķ": 4051,
      "Ġ×ĳ×¢×ĳ×¨×Ļ×ª": 4052,
      "Ġ×ķ×ŀ×Ľ": 4053,
      "Ġ×Ķ×Ķ×¨": 4054,
      "Ġ×©×Ļ×¨×Ļ×Ŀ": 4055,
      "Ġ×Ķ×ŀ×ł×Ķ": 4056,
      "Ġ×Ķ×ł×Ĳ×©×Ŀ": 4057,
      "Ġ×ª×¢×¨": 4058,
      "Ġ×ľ×Ķ×Ļ×ŀ": 4059,
      "Ġ×ŀ×ĳ×¦×¢": 4060,
      "Ġ×Ķ×Ļ×Ĺ×Ļ×ĵ×Ķ": 4061,
      "×ĺ×¨×ķ×ª": 4062,
      "×ķ×ĸ×Ł": 4063,
      "Ġ×©×Ķ×Ĳ": 4064,
      "Ġ×¤×ª×¨×ķ×Ł": 4065,
      "Ġ×Ķ×¦×ĳ×Ĳ": 4066,
      "×Ļ×ª×Ŀ": 4067,
      "Ġ×Ķ×¡×ŀ": 4068,
      "Ġ×Ķ×ŀ×ª×§": 4069,
      "×ľ×ŀ×Ļ×Ŀ": 4070,
      "Ġ×ł×ª×§": 4071,
      "Ġ×Ķ×©×ķ×§": 4072,
      "Ġ×ł×ŀ×ķ×ļ": 4073,
      "Ġ×ķ×Ľ×ŀ×ķ×ĳ×Ł": 4074,
      "Ġ×ŀ×Ĳ×Ĺ×¨": 4075,
      "Ġ×Ĳ×ķ×¨×Ĺ×Ļ×Ŀ": 4076,
      "Ġ×ŀ×¢×ŀ×ĵ": 4077,
      "Ġ×¦×¢×Ļ×¨×Ļ×Ŀ": 4078,
      "Ġ×©×Ļ×©×Ļ": 4079,
      "×ķ×¡×Ķ": 4080,
      "×¤×¨×Ļ×Ŀ": 4081,
      "Ġ×ľ×¢×Ļ×ª×Ļ×Ŀ": 4082,
      "Ġ×ľ×©×¤×¨": 4083,
      "Ġ×ĵ×ľ×ª": 4084,
      "Ġ×©×Ĳ×Ļ×ł×Ŀ": 4085,
      "Ġ×ľ×Ĳ×Ļ×¨×ķ×¢×Ļ×Ŀ": 4086,
      "Ġ×ľ×¦×¤×ķ×ª": 4087,
      "Ġ×Ķ×¦×¢×ª": 4088,
      "Ġ×ĵ×ķ×Ĳ": 4089,
      "×ķ×¦×Ĳ": 4090,
      "Ġ×Ķ×Ĳ×Ļ": 4091,
      "×ķ×ĺ×ĳ": 4092,
      "Ġ×©×ŀ×ķ×ª": 4093,
      "Ġ×§×Ļ×¨": 4094,
      "Ġ×§×ĳ×ķ×¦×ķ×ª": 4095,
      "Ġ×Ķ×Ĵ×ĵ×ķ×ľ×Ļ×Ŀ": 4096,
      "Ġ×¤×ª×¨×ķ×ł×ķ×ª": 4097,
      "55": 4098,
      "99": 4099,
      "Ġ×¦×ĳ×Ĳ": 4100,
      "×¤×Ĺ": 4101,
      "×Ļ×ľ×ķ×Ł": 4102,
      "Ġ×ĵ×ł": 4103,
      "Ġ×Ķ×Ĺ×ľ×Ļ×ĺ": 4104,
      "×Ľ×ł×Ļ": 4105,
      "Ġ×ŀ×¢×ľ×Ķ": 4106,
      "×ł×ł×Ķ": 4107,
      "Ġ×Ķ×ŀ×ĳ×§": 4108,
      "Ġ×ĳ×Ľ×ª×ĳ": 4109,
      "×Ĳ×ķ×ľ×Ļ": 4110,
      "×ķ×¤×ķ×ľ×¨": 4111,
      "Ġ×¨×¤×ķ×Ĳ×Ļ×ª": 4112,
      "Ġ×ĵ×Ł": 4113,
      "Ġ×Ķ×§×ŀ×ª": 4114,
      "×ľ×Ĺ×ŀ×ª": 4115,
      "×ĳ×ķ×ĵ×ķ×ª": 4116,
      "Ġ×ŀ×©×ŀ×¢×ķ×ª×Ļ×ª": 4117,
      "×¦×Ļ×Ļ×ª": 4118,
      "×Ļ×Ļ×ª×Ķ": 4119,
      "Ġ×ĳ×ŀ×©×§": 4120,
      "×ĺ×ķ×ª": 4121,
      "Ġ×Ķ×¤×ļ": 4122,
      "Ġ×ĳ×ª×ķ×Ľ": 4123,
      "×ľ×Ĳ×ķ×ª": 4124,
      "27": 4125,
      "Ġ2010": 4126,
      "Ġ×ĳ×ŀ×©×¨×ĵ": 4127,
      "Ġ×ľ×ł×Ļ": 4128,
      "Ġ×¡×¨×ĺ×Ļ×Ŀ": 4129,
      "×Ķ×Ļ×Ĳ": 4130,
      "Ġ×ł×ķ×£": 4131,
      "Ġ×ĳ×ł×ķ×Ĵ×¢": 4132,
      "×Ĵ×ķ×ľ": 4133,
      "Ġ×Ķ×ķ×¨×Ĳ×ķ×ª": 4134,
      "Ġ×ĳ×¢×Ļ×ł×Ļ": 4135,
      "×ĳ×ĺ×Ļ×Ĺ": 4136,
      "Ġ×Ķ×¢×ł×Ļ×Ļ×Ł": 4137,
      "Ġ×ŀ×§×ĳ×ľ×Ļ×Ŀ": 4138,
      "Ġ×Ķ×Ĺ×ĳ×¨×ķ×ª": 4139,
      "Ġ27": 4140,
      "Ġ×ĳ×¨×©": 4141,
      "×ŀ×ĵ×Ļ×Ŀ": 4142,
      "×¨×¢": 4143,
      "×ķ×ł×Ļ×Ķ": 4144,
      "Ġ×¡×ķ×Ľ×¨": 4145,
      "Ġ28": 4146,
      "×Ķ×ŀ×©": 4147,
      "\":": 4148,
      "×Ľ×Ĺ": 4149,
      "Ġ×ĳ×ľ×ķ×Ĵ": 4150,
      "Ġ×ľ×ĵ×£": 4151,
      "Ġ×ķ×Ļ×ķ×ª×¨": 4152,
      "Ġ×ª×ŀ×Ļ×Ľ×Ķ": 4153,
      "Ġ×ł×¢×Ļ×Ŀ": 4154,
      "100": 4155,
      "Ġ×Ķ×Ļ×ŀ×Ļ×Ŀ": 4156,
      "Ġ×Ķ×¦×¢": 4157,
      "Ġ×©×ŀ×Ĳ": 4158,
      "×ŀ×ķ×ĸ": 4159,
      "Ġ×Ķ×Ľ×¡×£": 4160,
      "×Ķ×Ĳ×ª×¨": 4161,
      "Ġ×ĳ×©×ĺ×Ĺ": 4162,
      "ight": 4163,
      "×ķ×ĺ×ķ": 4164,
      "Ġ×©×ŀ×ķ": 4165,
      "Ġ×Ĵ×Ļ×©×Ķ": 4166,
      "Ġ×ĳ×Ķ×¦×ľ×Ĺ×Ķ": 4167,
      "Ġ×¢×ĸ×¨": 4168,
      "×Ĵ×¨×¡": 4169,
      "Ġ×Ķ×ł×ķ×Ľ": 4170,
      "×ľ×ľ": 4171,
      "Ġ×¡×Ļ×ĳ×Ķ": 4172,
      "×ķ×¤×Ĳ×Ļ×Ŀ": 4173,
      "Ġ×¤×Ļ×ĸ": 4174,
      "Ġ×ĵ×ĳ×¨×Ļ": 4175,
      "Ġ(\"": 4176,
      "×ĳ×ł×Ļ×Ļ×ª": 4177,
      "28": 4178,
      "×ŀ×Ļ×§": 4179,
      "Ġ×ľ×¤×ª×ķ×Ĺ": 4180,
      "×ľ×¤×Ļ": 4181,
      "Ġ×ķ×¢×ĵ×ª": 4182,
      "×ķ×¦×Ļ": 4183,
      "×ķ×ľ×ĵ×ķ×ª": 4184,
      "Ġ×Ķ×ľ×Ļ×ľ×Ķ": 4185,
      "Ġ×Ķ×ª×ŀ×ķ×ł×Ķ": 4186,
      "×ķ×ł×©": 4187,
      "Ġ×Ķ×Ļ×¡": 4188,
      "Ġ×ķ×Ķ×Ķ": 4189,
      "×ķ×©×Ŀ": 4190,
      "×Ļ×ĺ×ľ×Ļ×Ķ": 4191,
      "Ġ×Ķ×ķ×¢": 4192,
      "Ġ×ľ×Ļ×ŀ×ķ×ĵ×Ļ": 4193,
      "Ġ×ĳ×ĳ×§×©×Ķ": 4194,
      "×ķ×Ĵ×ª": 4195,
      "Ġ×ĺ×¢×Ŀ": 4196,
      "Ġ×Ķ×©×Ĺ×§": 4197,
      "Ġ×ĵ×Ļ×¡×§": 4198,
      "×¨×Ĵ×ķ×Ŀ": 4199,
      "×©×ķ×ĳ×Ķ": 4200,
      "ĠâĢ¬": 4201,
      "ĠY": 4202,
      "Ġ×Ķ×Ĺ×ľ×§": 4203,
      "Ġ×§×ĺ×ł×ķ×ª": 4204,
      "33": 4205,
      "Ġ×Ķ×ł×ķ×©×Ĳ": 4206,
      "Ġn": 4207,
      "Ġ×¡×ķ×¤×¨": 4208,
      "Ġ×Ķ×¤×¢×Ļ×ľ×ķ×ª": 4209,
      "Ġ×Ķ×¡×Ļ×ĳ×Ķ": 4210,
      "Ġ×ŀ×Ĺ×¨": 4211,
      "Ġ×Ķ×ĵ×¢×ª": 4212,
      "ĠâĢª": 4213,
      "Ġ×ł×Ļ×©": 4214,
      "×¡×Ļ×§": 4215,
      "×©×Ļ×ł×ķ×Ļ×Ļ×Ŀ": 4216,
      "Ġ×©×ŀ×ĵ×ķ×ĳ×¨": 4217,
      "Ġ×Ĺ×Ŀ": 4218,
      "Ġ×ŀ×¨×Ľ×ĸ×Ļ": 4219,
      "×Ľ×ŀ×Ļ×Ŀ": 4220,
      "×Ĳ×ŀ×Ķ": 4221,
      "Ġ×ĳ×ł×¡": 4222,
      "Ġ×Ķ×Ļ×Ķ×ķ×ĵ×Ļ×ª": 4223,
      "Ġ×Ķ×ŀ×ª×Ĳ": 4224,
      "Ġ×Ķ×Ķ×ķ×Ł": 4225,
      "Ġ×Ľ×ķ×ª×ĳ": 4226,
      "Ġ×Ķ×ł×ª×ķ×ł×Ļ×Ŀ": 4227,
      "Ġ×Ĺ×©×Ļ×ĳ×ķ×ª": 4228,
      "Ġ×¤×ª×ķ×Ĺ": 4229,
      "Ġ×©×¤×ª": 4230,
      "Ġy": 4231,
      "Ġ×Ļ×©×ķ×ĳ×Ļ×Ŀ": 4232,
      "Ġ×¡×ĳ×Ļ×¨": 4233,
      "Ġ×©×ķ×ĺ": 4234,
      "Ġ×ľ×¢×Ļ×ľ": 4235,
      "Ġ×©×Ļ×¢×ķ×¨": 4236,
      "Ġ×ł×©×ŀ×¢": 4237,
      "Ġ×Ķ×ª×ķ×ĳ×¢×ª": 4238,
      "×Ļ×Ľ×ķ×Ļ": 4239,
      "Ġ×¡×ķ×¤": 4240,
      "Ġ×Ĳ×ŀ×ķ×¨": 4241,
      "Ġ×ŀ×¨×Ľ×ĸ×Ļ×ª": 4242,
      "Ġ×Ķ×¤×¨×ĺ×Ļ×Ŀ": 4243,
      "Ġ×ĳ×ł×Ļ×Ĵ×ķ×ĵ": 4244,
      "×¡×ķ": 4245,
      "Ġ×Ķ×ĵ×£": 4246,
      "Ġ×ŀ×Ļ×¨": 4247,
      "Ġ×¦×ŀ×Ĺ": 4248,
      "Ġ×Ķ×Ļ×§": 4249,
      "Ġ×Ķ×Ĳ×ĸ×ķ×¨": 4250,
      "Ġ×Ĳ×¤×©×¨×ķ×Ļ×ķ×ª": 4251,
      "×¤×§×Ķ": 4252,
      "×Ľ×©×Ļ×¨×Ļ×Ŀ": 4253,
      "Ġ×Ķ×ĳ×¡×Ļ×¡": 4254,
      "Ġ×©×ľ×ĳ": 4255,
      "×ł×©×Ļ": 4256,
      "Ġ×¢×¡×§×Ļ": 4257,
      "Ġ×ĳ×ŀ×§×¨×Ļ×Ŀ": 4258,
      "×§×ķ×¨×¡": 4259,
      "Ġ×ľ×¤×¢×ķ×ľ": 4260,
      "Ġ×ĺ×Ļ×ķ×ľ": 4261,
      "×ĸ×Ļ×ª": 4262,
      "Ġ×¤×¨×Ļ": 4263,
      "×ķ×ľ×ľ": 4264,
      "Ġ×§×ĳ×ķ×¦×Ķ": 4265,
      "Ġ198": 4266,
      "Ġ×©×Ļ×ĳ": 4267,
      "Ġ×¤×ĺ×¨": 4268,
      "Ġ×Ķ×¢×ŀ×ķ×ĵ": 4269,
      "×ķ×¤×Ļ×¢": 4270,
      "Ġ×ŀ×Ķ×ŀ×¢×¨×Ľ×ª": 4271,
      "Ġ×§×Ļ×©×ķ×¨": 4272,
      "Ġ=": 4273,
      "Ö´Ö¼": 4274,
      "Ġhttp": 4275,
      "Ġ×ª×§×ķ×¤×ª": 4276,
      "×Ķ×¦×Ķ": 4277,
      "Ġ×Ĳ×ĳ×Ł": 4278,
      "×Ļ×ĳ×Ļ×ķ×ª": 4279,
      "Ġ×Ĺ×Ļ×ł": 4280,
      "Ġ×ľ×Ĺ×ĳ×¨": 4281,
      "Ġ×ľ×ª×ķ×ļ": 4282,
      "Ġ×Ķ×ķ×¨×Ļ×Ŀ": 4283,
      "Ġ×©×Ķ×Ĺ": 4284,
      "Ġ×Ķ×ķ×ŀ": 4285,
      "Ġ×Ķ×Ĳ×¡": 4286,
      "Ġ×Ĺ×ķ×Ŀ": 4287,
      "×ª×¨×Ļ×Ŀ": 4288,
      "Ġ×©×Ķ×¤": 4289,
      "Ġ×Ĳ×ª×ŀ×ķ×ľ": 4290,
      "Ġ×ŀ×ĵ×¢": 4291,
      "Ġ×Ļ×Ľ": 4292,
      "×¡×Ł": 4293,
      "×ľ×ŀ×Ļ": 4294,
      "Ö°Ö¼": 4295,
      "Ġ×Ķ×ŀ×ľ×Ĺ×ŀ×Ķ": 4296,
      "Ġ×ł×ķ×ľ×ĵ": 4297,
      "×ķ×¨×ŀ×Ļ×Ŀ": 4298,
      "Ġ×ľ×Ľ×ķ×ľ×Ŀ": 4299,
      "×ł×Ļ×Ļ×ł×Ļ": 4300,
      "×¨×¤×ª": 4301,
      "×ķ×ĵ×ķ": 4302,
      "×¤×¨×ĺ×Ļ×Ŀ": 4303,
      "Ġ×Ĳ×ŀ×¨×Ķ": 4304,
      "Ġ×ľ×Ķ×Ľ×Ļ×Ł": 4305,
      "×¤×Ļ×ĵ": 4306,
      "Ġ×Ķ×ľ×§×ķ×Ĺ×ķ×ª": 4307,
      "Ġ×ľ×Ĳ×ĵ×Ŀ": 4308,
      "×ĳ×ŀ": 4309,
      "Ġ×ľ×ŀ×¨": 4310,
      "Ġ×Ĺ×ķ×ĸ×¨": 4311,
      "×ķ×ľ×ķ": 4312,
      "Ġ×ŀ×Ĳ×¨": 4313,
      "Ġ×Ķ×ŀ×ľ×¦×ķ×ª": 4314,
      "Ġ×Ĳ×ł×Ĳ": 4315,
      "Ġ×©×ŀ×Ĺ×Ķ": 4316,
      "Ġ×Ĳ×ķ×ĳ": 4317,
      "Ġ×Ķ×ĳ×Ļ×ª×Ķ": 4318,
      "Ġ×¢×ĸ×¨×Ķ": 4319,
      "Ġ×ŀ×Ľ×©": 4320,
      "Ġ×Ķ×¨×ķ×ķ×Ĺ": 4321,
      "Ġ×Ĳ×¡×ķ×¨": 4322,
      "×Ļ×Ĵ×ķ": 4323,
      "Ġ×ĸ×Ķ×ĳ": 4324,
      "×ķ×Ľ×ĳ": 4325,
      "Ġ×Ĺ×Ļ×Ļ×ķ": 4326,
      "Ġ×Ķ×Ļ×Ĺ×Ļ×ĵ": 4327,
      "Ġ×ŀ×Ĵ×ĵ": 4328,
      "×ĳ×¨×¨": 4329,
      "×ĸ×¨×Ļ×Ŀ": 4330,
      "Ġ×Ĳ×ª×¨×Ļ": 4331,
      "Ġ×Ķ×ŀ×ķ×¦×¨×Ļ×Ŀ": 4332,
      "Ġ×©×ľ×Ĺ": 4333,
      "Ġ×¤×¢×ķ×ľ×ķ×ª": 4334,
      "Ġ×Ľ×ķ×Ľ×ĳ×Ļ×Ŀ": 4335,
      "Ġ×Ķ×ŀ×¦×Ļ×Ĳ×ķ×ª": 4336,
      "Ġ×ķ×Ļ×§×Ļ×¤×ĵ×Ļ×Ķ": 4337,
      "Ġ×ķ×ŀ×ł": 4338,
      "Ġ×ĳ×ķ×ĺ": 4339,
      "Ġ×ŀ×©×¤×ĺ×Ļ": 4340,
      "Ġ×ĳ×¤×¢": 4341,
      "ers": 4342,
      "Ġ×Ĺ×ł×ķ×ª": 4343,
      "Ġ×¢×Ļ×§×¨": 4344,
      "Ġ×ŀ×ĳ×§": 4345,
      "Ġ×ľ×Ķ×ª×¢": 4346,
      "×ķ×ĳ×ĳ": 4347,
      "Ġ×Ķ×Ĳ×¨×ĵ": 4348,
      "×Ļ×Ļ×ł×ķ": 4349,
      "Ġ×ŀ×Ķ×¦": 4350,
      "Ġ×¡×Ļ×¡": 4351,
      "Ġ×¦×¨×¤×ª": 4352,
      "Ġ×Ķ×ł×ª×ĳ×¢": 4353,
      "Ġ×ŀ×¨×Ľ": 4354,
      "×ķ×ķ×ł×Ļ×Ŀ": 4355,
      "Ġ×Ķ×©×Ļ×¨": 4356,
      "Ġ×§×¨×Ļ×Ĳ×Ķ": 4357,
      "Ġ×Ķ×ĵ×ª": 4358,
      "Ġ×ĳ×ŀ×ª": 4359,
      "Ġ×Ĳ×ľ×Ļ×Ķ×Ŀ": 4360,
      "×ŀ×ĺ×Ļ×§×Ķ": 4361,
      "Ġ×Ķ×ĺ×¢": 4362,
      "Ġ×¢×ĳ×ĵ": 4363,
      "âĢĿ.": 4364,
      "Ġ×ŀ×ĸ×Ĵ": 4365,
      "Ġ×¨×¦×ķ×Ł": 4366,
      "Ġ×ŀ×Ķ×¤": 4367,
      "Ġ×Ĳ×Ļ×ª×Ļ": 4368,
      "Ġ×ľ×¤×¡": 4369,
      "Ġ×¤×¨×ĺ×Ļ×ª": 4370,
      "×¨×Ļ×Ļ×¨×Ķ": 4371,
      "Ġ×ŀ×ĳ×¢": 4372,
      "Ġ×¢×ķ×¦": 4373,
      "Ġ×ŀ×¨×§": 4374,
      "Ġ×Ķ×¤×¨×ĺ×Ļ×ķ×ª": 4375,
      "×ķ×ĳ×¢×Ļ×Ŀ": 4376,
      "Ġ×ķ×ª×§": 4377,
      "×ĸ×ĳ": 4378,
      "×©×Ĳ×ľ×Ķ": 4379,
      "Ġ×Ĺ×ķ×ŀ×¨×Ļ×Ŀ": 4380,
      "Ġ×Ķ×Ķ×©×§": 4381,
      "Ġ×¤×Ĳ": 4382,
      "×ł×ķ×¢×ª": 4383,
      "Ġ×ľ×Ķ×¦×Ļ×Ĵ": 4384,
      "Ġ×ľ×Ĵ×ľ×ķ×ª": 4385,
      "Ġ×ĳ×ľ×Ĳ": 4386,
      "Ġ×Ķ×¡×¤": 4387,
      "Ġ×¢×ŀ×ķ×§": 4388,
      "Ġ×Ķ×ŀ×§×ķ×©×¨×Ļ×Ŀ": 4389,
      "×¦×¨×ķ": 4390,
      "Ġ×Ĺ×ĳ×¨×ª×Ļ×ª": 4391,
      "Ġ×Ĵ×Ļ×Ĳ": 4392,
      "×Ļ×¡×ĺ×Ļ": 4393,
      "×Ľ×ł×ķ×ª": 4394,
      "Ġ×ł×ķ×Ķ": 4395,
      "×Ľ×ł×Ļ×ķ×ª": 4396,
      "Ġ×Ķ×¨×Ĳ×©×Ļ": 4397,
      "Ġ×ŀ×Ļ×Ļ×¦": 4398,
      "Ġ×Ĳ×Ĺ×ķ×ĸ": 4399,
      "×Ľ×Ļ×¦×ĵ": 4400,
      "Ġ×ķ×ķ×ľ": 4401,
      "Ġ×ĳ×¢×¨×ļ": 4402,
      "Ġ×ŀ×§×¨": 4403,
      "×Ļ×Ĳ×¨×ĵ": 4404,
      "Ġ×Ķ×§×Ļ": 4405,
      "05": 4406,
      "Ġ×Ķ×ĵ×Ļ×ķ×Ł": 4407,
      "×¢×ª×Ŀ": 4408,
      "Ġ×Ĵ×ķ×¨×ŀ×Ļ×Ŀ": 4409,
      "Ġ×¢×ķ×ĳ×¨": 4410,
      "Ġ×¤×¨×ĺ×Ļ×Ļ×Ŀ": 4411,
      "×Ľ×Ĳ×©×¨": 4412,
      "×ľ×©": 4413,
      "Ġ×Ĳ×ĳ×Ĳ": 4414,
      "×ŀ×ª×ķ×ļ": 4415,
      "Ġ×ŀ×ŀ×©×ľ×ª": 4416,
      "×Ļ×ª×ķ×ª": 4417,
      "×§×ķ×Ŀ": 4418,
      "Ġ×ĳ×¢×¦×ŀ": 4419,
      "Ġ×ľ×©×Ĳ×ķ×ľ": 4420,
      "Ġ×Ĵ×ĵ×ķ×ľ×ķ×ª": 4421,
      "ðŁ": 4422,
      "×ĺ×Ļ×¤×ķ×ľ": 4423,
      "Ġ×ĳ×§×ĺ×Ĵ×ķ×¨×Ļ×Ķ": 4424,
      "Ġ×Ĳ×ł×ķ×©": 4425,
      "×ĳ×¦": 4426,
      "Ġ×ĳ×ŀ×ľ×ķ×Ł": 4427,
      "×ĸ×ŀ×ł×Ķ": 4428,
      "Ġ×ŀ×©×§×ľ": 4429,
      "Ġ×ŀ×Ľ×Ļ×¨": 4430,
      "Ġ×ŀ×ķ×¨×Ľ": 4431,
      "Ġ×ĺ×ķ×¢×Ł": 4432,
      "×ķ×ł×§": 4433,
      "Ġ×ĳ×¢×ĵ": 4434,
      "Ġ×ľ×ĳ×ł×Ļ": 4435,
      "35": 4436,
      "×Ļ×ł×Ł": 4437,
      "Ġ×©×ŀ×Ļ": 4438,
      "Ġ×Ĳ×Ļ×Ľ×ķ×ª×Ļ": 4439,
      "Ġ×Ķ×ŀ×©×¨×ĵ": 4440,
      "Ġ×©×ľ×Ŀ": 4441,
      "Ġ×Ķ×ł×Ľ×ķ×Ł": 4442,
      "Ġ×Ķ×©×§×¢×ķ×ª": 4443,
      "Ġ×ĺ×ľ×ķ×ķ×Ļ×ĸ×Ļ×Ķ": 4444,
      "Ġ×ľ×Ľ×Ĳ×Ł": 4445,
      "Ġ×ª×©×ķ×ĳ×Ķ": 4446,
      "Ġ×ĳ×ŀ×Ĳ×Ļ": 4447,
      "×ľ×ĺ×ķ×ª": 4448,
      "Ġ×Ķ×§×Ķ×Ļ×ľ×Ķ": 4449,
      "Ġ×Ķ×ł×ª×ĳ×¢×ª": 4450,
      "Ġ×ľ×Ĳ×ľ": 4451,
      "×ł×¡×Ļ": 4452,
      "Ġ×Ĳ×ķ×ł×Ļ×ĳ×¨×¡×Ļ×ĺ×ª": 4453,
      "Ġ×Ļ×¨×ķ×§": 4454,
      "Ġ×Ĺ×ĸ×¨": 4455,
      "Ġ×¨×Ĳ×Ļ×ª×Ļ": 4456,
      "Ġ×Ĳ×Ļ×ª×ł×ķ": 4457,
      "Ġ×ł×Ļ×ķ×ķ×ĺ": 4458,
      "if": 4459,
      "Ġ×©×Ļ×ª×ķ×£": 4460,
      "×ŀ×¦×Ĳ×Ļ×Ŀ": 4461,
      "Ġ×Ķ×§×¨×ķ×ĳ": 4462,
      "Ġ×ĳ×ŀ×¡×¤×¨": 4463,
      "Ġ×¤×ķ×¡×ĺ": 4464,
      "×ķ×ĸ×ľ×ĺ×¨": 4465,
      "×ķ×Ĳ×Ļ×Ł": 4466,
      "×Ķ×ª×§": 4467,
      "Ġ×ľ×©×ª×£": 4468,
      "Ġ×Ķ×ª×Ĵ×ķ×ĳ×Ķ": 4469,
      "×ľ×Ļ×Ĺ×Ķ": 4470,
      "Ġ×ľ×ŀ×ł": 4471,
      "Ġ×ĵ×ķ×Ĳ×¨": 4472,
      "×ľ×ķ×Ļ×ķ×ª": 4473,
      "art": 4474,
      "Ġ×ŀ×ķ×Ľ×Ł": 4475,
      "Ġ×ĳ×¨×Ľ": 4476,
      "Ġ×ĳ×ŀ×ĺ×¨×Ķ": 4477,
      "Ġ×ĳ×ª×Ĳ×¨×Ļ×ļ": 4478,
      "×Ĺ×¨×¨": 4479,
      "Ġ×ľ×Ķ×Ļ×¨": 4480,
      "Ġ×¦×ĳ×¢×Ļ×Ŀ": 4481,
      "Ġ×Ķ×ŀ×ķ×Ĺ": 4482,
      "Ġ×Ķ×Ĺ×ľ×ĺ×Ķ": 4483,
      "Ġ×ľ×¡×Ļ×Ļ×¢": 4484,
      "gle": 4485,
      "×Ļ×¡×Ļ": 4486,
      "Ġ×Ķ×Ĺ×ĳ×¨": 4487,
      "Ġ×Ķ×ĸ×ĵ×ŀ×ł×ķ×ª": 4488,
      "×Ļ×ª×ķ×ł×ķ×ª": 4489,
      "×ŀ×©×ľ": 4490,
      "×¤×ķ×ļ": 4491,
      "ĠâĢ¦": 4492,
      "Ġ×ł×Ľ×ª×ĳ": 4493,
      "Ġ×Ĳ×¨×ķ×Ĺ×ª": 4494,
      "Ġ×Ĳ×¨×ķ×Ľ×Ķ": 4495,
      "Ġ×Ķ×ŀ×ķ×©×ľ×Ŀ": 4496,
      "×Ļ×¡×ĺ×Ļ×Ŀ": 4497,
      "Ġ×ľ×ł×©×Ļ×Ŀ": 4498,
      "Ġ2009": 4499,
      "ew": 4500,
      "Ġ×ŀ×Ĺ×ķ": 4501,
      "Ġ×Ķ×Ľ×ķ×ľ×ľ": 4502,
      "Ġ×ķ×ľ×Ķ×ª": 4503,
      "Ġ×Ķ×Ĵ×ł×Ķ": 4504,
      "Ġ×Ķ×Ļ×ŀ": 4505,
      "Ġ×ŀ×¢×ĵ": 4506,
      "Ġ×ķ×Ĳ×ķ×ľ×Ļ": 4507,
      "×ŀ×ł×Ļ×ª": 4508,
      "×Ļ×ĵ×ķ×©": 4509,
      "ress": 4510,
      "×ĵ×ķ×¨×Ĵ×ľ": 4511,
      "Ġ×Ķ×¡×¤×¨×Ļ×Ŀ": 4512,
      "Ġ×¨×©×Ļ×ŀ×ª": 4513,
      "Ġ×Ķ×Ĳ×¨×Ĵ×ķ×Ł": 4514,
      "Ġ×ĳ×©×Ļ×¨×ķ×ª": 4515,
      "×ķ×©×Ĳ×Ļ": 4516,
      "Ġ×ŀ×ĳ×Ĺ×Ļ×ł×Ķ": 4517,
      "Ġ×Ĳ×ķ×¨×Ĺ": 4518,
      "Ġ×ľ×©×ľ×ĳ": 4519,
      "×©×¤": 4520,
      "Ġ×ľ×ª×ķ×Ľ×Ł": 4521,
      "×Ĺ×ĵ×¨": 4522,
      "Ġ×ŀ×©×ł×ª": 4523,
      "Ġ×Ĳ×¨×ĳ×¢": 4524,
      "Ġ×ŀ×ķ×ŀ×Ĺ×Ķ": 4525,
      "Ġ38": 4526,
      "Ġ×¢×ª×Ļ×ĵ": 4527,
      "Ġ×Ľ×¨×Ĵ×¢": 4528,
      "Ġ×Ĳ×Ķ×¨": 4529,
      "×ģÖ°": 4530,
      "×Ļ×¦×Ļ×Ķ": 4531,
      "×Ļ×ł×ķ×Ł": 4532,
      "Ġ×ľ×Ķ×ĸ": 4533,
      "Ġ×Ķ×Ļ×ķ×ª": 4534,
      "Ġ×ª×ł": 4535,
      "Ġ×¤×ķ×ª": 4536,
      "Ġ×ĳ×ĳ×ª×Ļ": 4537,
      "×ķ×ĳ×¨×ª": 4538,
      "48": 4539,
      "×¡×ĵ": 4540,
      "Ġ×Ľ×©×Ķ×ķ×Ĳ": 4541,
      "×Ĺ×ĵ×©": 4542,
      "Ġ×ľ×©×ł×ª": 4543,
      "Ġ×¡×Ľ×ķ×Ŀ": 4544,
      "Ġ×ŀ×ķ×ŀ×ľ×¦×Ļ×Ŀ": 4545,
      "all": 4546,
      "Ġ×Ķ×ķ×¡": 4547,
      "×Ķ×¨×Ļ×Ļ×Ŀ": 4548,
      "Ġ×ľ×ŀ×Ľ×Ļ×¨×Ķ": 4549,
      "×ŀ×ľ×Ļ": 4550,
      "Ġ×©×ŀ×ķ×Ĳ×ľ": 4551,
      "Ġ×Ķ×Ĳ×¨×ĵ×§×ķ×¨": 4552,
      "Ġ×ľ×¢×ł×Ļ×Ļ×Ł": 4553,
      "×ŀ×Ļ×ķ×ª": 4554,
      "Ġ×ł×ķ×Ĺ": 4555,
      "Ġ×©×Ļ×ĵ": 4556,
      "×Ĺ×¨×Ļ×ķ×ª": 4557,
      "Ġ×ł×Ļ×¨": 4558,
      "Ġ×ķ×Ĳ×¨": 4559,
      "Ġ×Ļ×Ļ×¦": 4560,
      "×ľ×ĺ×ª": 4561,
      "Ġ×Ķ×¨×©×ķ×ª": 4562,
      "âĢŃ": 4563,
      "Ġ×ľ×©×Ļ×¨×ķ×ª": 4564,
      "Ġ×¡×Ļ×¨": 4565,
      "×¡×ķ×ª": 4566,
      "Ġ×Ĺ×Ļ×ķ×ĳ": 4567,
      "out": 4568,
      "×ŀ×ķ×ĵ×ĵ×ķ×ª": 4569,
      "Ġ×Ķ×¢×¦×ŀ": 4570,
      "×ŀ×¦×ĳ": 4571,
      "Ġ×ĳ×¢×ľ×ķ×ª": 4572,
      "Ġ×¨×ľ×ķ": 4573,
      "Ġ×Ķ×ª×Ļ×Ľ×ķ×Ł": 4574,
      "×¦×Ŀ": 4575,
      "×ķ×¡×§×Ļ×Ŀ": 4576,
      "×ľ×Ļ×Ļ×Ķ": 4577,
      "×¦×Ĳ": 4578,
      "Ġ×ª×ľ×ķ×Ļ": 4579,
      "Ġ×¢×ĳ×¨×Ļ×ª": 4580,
      "Ġ×©×ł×§": 4581,
      "×ĳ×ĵ×ľ": 4582,
      "Ġ×Ķ×ª×ł×ķ×¢×Ķ": 4583,
      "Ġ×Ĳ×ķ×¨×Ļ": 4584,
      "Ġ×Ķ×Ļ×¡×ĺ": 4585,
      "Ġ×Ĺ×Ļ×¦×ķ×ł×Ļ×Ļ×Ŀ": 4586,
      "Ġ29": 4587,
      "07": 4588,
      "×ŀ×ľ×ķ×ł×ķ×ª": 4589,
      "Ġ×ŀ×Ĺ×¤×©×Ļ×Ŀ": 4590,
      "Ġ×ł×Ĺ×©×ĳ": 4591,
      "Ġ×ĳ×¨×Ļ×Ĳ": 4592,
      "×ķ×¢×Ļ": 4593,
      "×ŀ×Ķ×ľ×ļ": 4594,
      "Ġ×Ĵ×ł": 4595,
      "Ġ×ĳ×ĵ×¨×ķ×Ŀ": 4596,
      "ĠCom": 4597,
      "×Ľ×ľ×ľ×Ķ": 4598,
      "Ġ×Ķ×Ĳ×Ļ×©×Ķ": 4599,
      "Ġ×Ľ×ľ×©×Ķ×ķ": 4600,
      "Ġ×ľ×§×ĳ×ķ×¢": 4601,
      "Ö¼Ö¶": 4602,
      "Ġ×ĳ×ŀ×Ĵ": 4603,
      "Ġ×ĳ×Ľ×¤×¨": 4604,
      "×ŀ×ĵ×ķ": 4605,
      "×Ĵ×Ļ×ľ": 4606,
      "Ġ×ŀ×©×ľ×ķ×Ĺ": 4607,
      "×ŀ×Ļ×Ľ×Ķ": 4608,
      "×Ļ×ĺ×ķ×ľ": 4609,
      "×ķ×ĳ×ľ×Ļ×Ŀ": 4610,
      "Ġ×ķ×Ĳ×Ļ×ľ×ķ": 4611,
      "×ľ×Ĳ×Ļ": 4612,
      "Ġ×¨×Ĺ×ķ×ĳ": 4613,
      "Ġ×©×ľ×Ļ×ĺ×Ķ": 4614,
      "×ł×Ļ×ª×Ļ": 4615,
      "×¦×ķ×Ĵ×Ķ": 4616,
      "Ġ×Ķ×¤×Ļ": 4617,
      "×Ļ×¤×ķ×Ł": 4618,
      "oogle": 4619,
      "Ġ×Ĳ×Ļ×ĳ": 4620,
      "×ķ×ŀ×Ļ×ł": 4621,
      "ark": 4622,
      "Ġ×ĳ×Ĳ×ľ": 4623,
      "×¤×ľ×Ļ×§×¦×Ļ×Ķ": 4624,
      "×Ļ×ª×ł×ķ": 4625,
      "Ġ×ŀ×©×¤×ĺ×Ļ×ª": 4626,
      "Ġ×Ļ×¤×ķ": 4627,
      "Ġ×Ĳ×Ķ×ĳ×ª×Ļ": 4628,
      "Ġby": 4629,
      "×¤×¢×Ļ×ľ": 4630,
      "Ġ×ľ×Ļ×ŀ×ķ×ĵ×Ļ×Ŀ": 4631,
      "Ġ×ª×ĳ×Ļ×¢×Ķ": 4632,
      "Ġ×ł×ķ×©×Ĳ×Ļ×Ŀ": 4633,
      "×¤×Ļ×ľ": 4634,
      "Ġ×ķ×Ķ×Ļ×Ķ": 4635,
      "ost": 4636,
      "ph": 4637,
      "Ġ×Ķ×ł×§": 4638,
      "Ġ×ĳ×¡×¢×Ļ×£": 4639,
      "Ġ×ĳ×Ļ×ŀ": 4640,
      "Ġ×ľ×ľ×§×ķ×Ĺ×ķ×ª": 4641,
      "×ķ×Ĵ×Ļ": 4642,
      "×¤×¡×Ļ×§": 4643,
      "Ġ×ĸ×Ļ×Ķ": 4644,
      "×©×ĳ×ª": 4645,
      "Ġ×Ķ×©×ķ×ł×ķ×ª": 4646,
      "×Ļ×Ľ×ķ×ĸ": 4647,
      "Ġ×ŀ×¢×ķ×¦": 4648,
      "Ġ×ĸ×Ķ×Ķ": 4649,
      "Ġ×ª×ł×Ĳ×Ļ×Ŀ": 4650,
      "Ġ×¨×Ĳ×ķ×Ļ": 4651,
      "Ġ×ĸ×Ļ×Ł": 4652,
      "Ġ×©×Ļ×ł×ķ×Ļ×Ļ×Ŀ": 4653,
      "Ġ90": 4654,
      "Ġ×Ļ×§×¨×Ķ": 4655,
      "×Ľ×¨×ķ": 4656,
      "Ġ×Ĳ×¤×©×¨×Ļ": 4657,
      "Ġ×Ľ×ª×ķ×ĳ": 4658,
      "Ġ×ľ×Ĺ×©": 4659,
      "Ġ×Ķ×¤×ķ×¡×ĺ": 4660,
      "Ġ×ľ×ŀ×¦×ĳ": 4661,
      "Ġ×Ľ×ķ×ľ×ľ×ª": 4662,
      "×¢×ĵ×Ķ": 4663,
      "×ķ×ĺ×ł×¦×Ļ×Ĳ×ľ": 4664,
      "Ġ×ŀ×ķ×§×ĵ": 4665,
      "org": 4666,
      "×ŀ×ł×Ļ": 4667,
      "Ġ×ľ×ŀ×ª": 4668,
      "Ġ×ĳ×¡×Ĵ×ł×ķ×Ł": 4669,
      "×ķ×ª×Ļ": 4670,
      "Ġ×ł×¤×ķ×¦×ķ×ª": 4671,
      "Ġ×ĳ×ł×ª": 4672,
      "ob": 4673,
      "Ġ×ŀ×¢×ĳ": 4674,
      "×Ļ×§×¨×Ļ": 4675,
      "Ġ×ľ×Ķ×ł×Ļ×Ĺ": 4676,
      "Ġ×ĺ×Ļ×¤×Ļ×Ŀ": 4677,
      "×Ĳ×¨×Ľ×Ļ×ķ×Ł": 4678,
      "×ŀ×¡×¤×¨": 4679,
      "×ŀ×©×¨×ĵ": 4680,
      "×ķ×ĵ×Ĳ": 4681,
      "Ġ×Ķ×¦×ķ×ķ×ª": 4682,
      "×Ľ×Ĳ": 4683,
      "Ġ×Ļ×©×Ļ×ĳ×Ķ": 4684,
      "×¤×ķ×£": 4685,
      "×ķ×ĵ×Ļ×Ļ×Ŀ": 4686,
      "Ġ×©×ĵ×Ķ": 4687,
      "Ġ×ĳ×¤×¢×Ŀ": 4688,
      "Ġ×ĳ×¦×ĳ×¢": 4689,
      "Ġ×ŀ×ª×Ľ×ķ": 4690,
      "×ķ×¤×Ļ×ľ": 4691,
      "×ķ×ĺ×ķ×ĳ×ķ×¡": 4692,
      "×ķ×ķ×Ļ×¨×Ķ": 4693,
      "×ķ×¦×¨×Ļ": 4694,
      "Ġ×Ķ×¨×Ĵ×ľ": 4695,
      "Ġ×¡×Ļ×ķ×Ŀ": 4696,
      "?!": 4697,
      "Ġ×¡×Ļ×Ľ×ķ×Ļ": 4698,
      "×ķ×ł×Ŀ": 4699,
      "Ġ×ķ×ŀ×ĳ": 4700,
      "Ġ×©×Ĺ×Ļ": 4701,
      "Ġ×ĸ×Ľ×Ķ": 4702,
      "Ġ×Ľ×©×ľ": 4703,
      "×ŀ×Ŀ": 4704,
      "Ġ×Ķ×ł×ķ×¢×¨": 4705,
      "Ġ×Ķ×ľ×Ĳ×ķ×ŀ×Ļ": 4706,
      "Ġ×§×ķ×¨×Ĳ×Ļ×Ŀ": 4707,
      "Ġ×ŀ×©×¤×Ĺ×ķ×ª": 4708,
      "Ġ×¦×¤×ķ×Ł": 4709,
      "Ġ×Ķ×ĵ×Ļ×¨×Ķ": 4710,
      "Ġ×ľ×ł×ª": 4711,
      "×ķ×Ľ×ª": 4712,
      "×ŀ×Ļ×ł": 4713,
      "Ġ×Ļ×Ļ×©": 4714,
      "Ġ×¡×Ĳ": 4715,
      "Ġ×Ķ×ŀ×Ĳ×¤×©×¨": 4716,
      "×ķ×¨×Ļ×ķ×ª": 4717,
      "Ġ×©×ŀ×ķ×ł×Ķ": 4718,
      "Ġ×ª×Ļ×§×ķ×Ł": 4719,
      "Ġ×ķ×ĳ×¢×Ļ×§×¨": 4720,
      "Ġ×Ľ×ľ×©×Ķ": 4721,
      "Ġ×ŀ×ķ×ĸ×Ļ×§×Ķ": 4722,
      "Ġ×ĳ×ŀ×ĵ×Ļ×ł×Ķ": 4723,
      "Ġ×Ķ×ķ×©": 4724,
      "Ġ×ŀ×Ķ×Ł": 4725,
      "**": 4726,
      "Ġ×©×Ķ×¡": 4727,
      "×Ĵ×ľ×Ļ×Ŀ": 4728,
      "×Ĳ×Ĺ": 4729,
      "Ġ×ľ×©×ĳ×ª": 4730,
      "×Ľ×Ļ×¨×ķ×ª": 4731,
      "Ġ×ŀ×Ļ×ľ×Ķ": 4732,
      "Ġ×Ķ×ŀ×©×§": 4733,
      "Ġ×ĳ×Ĳ×ŀ×¦×¢": 4734,
      "Ġ×¨×ķ×¤×Ĳ": 4735,
      "Ġ×ĳ×Ĳ×ł×Ĵ×ľ×Ļ×ª": 4736,
      "Ġ×ķ×Ķ×ĵ": 4737,
      "Ġ×Ķ×ķ×§": 4738,
      "08": 4739,
      "Ġ×Ĳ×ĺ": 4740,
      "Ġ×¦×ķ×ŀ×ª": 4741,
      "Ġ×ľ×Ĺ×ĳ×¨×ª": 4742,
      "Ġ×Ķ×ŀ×Ĺ×§×¨": 4743,
      "06": 4744,
      "Ġ×¦×ĳ×Ļ": 4745,
      "Ġ×ŀ×©×Ĺ×§×Ļ": 4746,
      "Ġ×Ĳ×ķ×¤×Ł": 4747,
      "Ġ×¡×Ļ×ŀ×Ł": 4748,
      "Ġ×Ļ×ķ×§": 4749,
      "Ġ×Ķ×ľ×Ĺ": 4750,
      "fice": 4751,
      "Ġ×¢×ĳ×ķ×ĵ×ª": 4752,
      "Ġ×Ķ×Ļ×Ľ×ķ×ľ×ª": 4753,
      "Ġ×ŀ×Ĳ×ŀ×¨": 4754,
      "Ġ×Ĳ×ľ×ķ×Ķ×Ļ×Ŀ": 4755,
      "Ġ×ŀ×ķ×Ľ×¨": 4756,
      "Ġ×ŀ×¢×ľ×ķ×ª": 4757,
      "Ġ×§×¨×Ļ×ª": 4758,
      "Ġ×Ķ×ŀ×ľ×Ĺ": 4759,
      "Ġ×¤×¨×ķ×Ļ×§×ĺ": 4760,
      "Ġ×Ľ×©×¨": 4761,
      "Ġ×ľ×Ĺ×¤×©": 4762,
      "Ġ×¢×Ļ×¨×Ļ×Ļ×ª": 4763,
      "Ġ×ľ×¨×©×ķ×ª": 4764,
      "Ġ×Ļ×Ļ×Ł": 4765,
      "ï»": 4766,
      "×Ĳ×ł×©×Ļ×Ŀ": 4767,
      "Ġ×Ķ×©×ĳ": 4768,
      "Ġ×ŀ×ĸ×ľ": 4769,
      "ï»¿": 4770,
      "Ġ×ŀ×Ľ×ķ×Ł": 4771,
      "Ġ×Ķ×ł×©×Ļ×Ĳ": 4772,
      "Ġ×Ķ×Ĺ×ĵ×¨": 4773,
      "Ġ×ĳ×ª×§×ķ×¤×Ķ": 4774,
      "×Ļ×¢×ĸ×¨": 4775,
      "Ġ×ĳ×Ķ×¡": 4776,
      "Ġ:)": 4777,
      "×Ļ×ŀ×¡": 4778,
      "×Ľ×ķ×ł×ª": 4779,
      "Ġ×ľ×Ķ×Ĵ×Ļ×©": 4780,
      "Ġ×¢×ĵ×Ľ×ķ×ł×Ļ×Ŀ": 4781,
      "Ġ×ľ×ŀ×¢×¨×Ľ×ª": 4782,
      "Ġ×ŀ×§×¨×§": 4783,
      "Ġ×ŀ×Ĳ×¤×©×¨×ª": 4784,
      "Ġ×ŀ×Ĺ×©×ĳ×Ļ×Ŀ": 4785,
      "Ġ×©×ŀ×¡": 4786,
      "Ġ×§×ĳ×ľ": 4787,
      "Ġ×ĳ×§×©×¨": 4788,
      "Ġ197": 4789,
      "Ġ×ľ×ĳ×ķ×Ĳ": 4790,
      "×ľ×§×ĺ×¨": 4791,
      "Ġ×Ķ×§×ķ×¨×¡": 4792,
      "Ġ×ŀ×ķ×ª×¨": 4793,
      "Ġ×¢×ľ×ķ×ľ": 4794,
      "Ġ×©×ķ×Ĳ": 4795,
      "ce": 4796,
      "199": 4797,
      "Ġ×ĳ×ķ×ľ": 4798,
      "×ķ×Ļ×ĵ": 4799,
      "rom": 4800,
      "Ġ×§×ķ×¤": 4801,
      "Ġ×ĳ×Ķ×ľ": 4802,
      "×ľ×Ļ×ĺ": 4803,
      "Ġ×ª×Ľ×ł×ķ×Ł": 4804,
      "×©×Ł": 4805,
      "Ġ×ĳ×©×ĳ×ª": 4806,
      "Ġ×ĳ×©×ł×Ļ": 4807,
      "Ġ×Ĺ×ŀ×©": 4808,
      "Ġ×§×ķ×¨×Ĳ": 4809,
      "×ł×ĸ": 4810,
      "×ķ×ĳ×¨×Ļ×Ŀ": 4811,
      "×Ķ×Ŀ": 4812,
      "Ġ×Ķ×ŀ×ķ×¨": 4813,
      "×Ķ×ł×Ķ": 4814,
      "×Ļ×§×ķ×Ļ": 4815,
      "Ġ×Ķ×ķ×¦": 4816,
      "Ġ×ķ×Ľ×ª": 4817,
      "Ġ×Ļ×§×¨": 4818,
      "×ŀ×©×Ĺ×§×Ļ": 4819,
      "Ġ×Ĳ×ŀ×¨×Ļ×§×Ķ": 4820,
      "Ġ×ŀ×§×ķ×ķ×Ķ": 4821,
      "Ġ×ķ×ķ×Ĳ": 4822,
      "×¤×¨×Ļ×ľ": 4823,
      "×ĵ×Ļ×¨×ķ×ª": 4824,
      "×Ļ×ŀ×ķ×¨": 4825,
      "Ġ×ľ×Ĺ×Ļ×Ļ×Ŀ": 4826,
      "Ġ×ĳ×ŀ×ĺ": 4827,
      "Ġ×ŀ×ķ": 4828,
      "×Ľ×ķ×Ķ": 4829,
      "Ġ×ĳ×ª×Ķ×ľ×Ļ×ļ": 4830,
      "Ġ×ķ×Ļ×¢": 4831,
      "Ġ×Ľ×ķ×ľ×ł×ķ": 4832,
      "Ġ×ŀ×Ĺ×ĸ": 4833,
      "Ġ×¤×¨×Ĺ×Ļ×Ŀ": 4834,
      "Ġ×ŀ×¨×Ĺ": 4835,
      "×ķ×¢×ķ×ª": 4836,
      "Ġ×Ĺ×ķ×§×Ļ": 4837,
      "×Ĵ×©×ª": 4838,
      "Ġ×ŀ×Ĵ×ķ×¨×Ļ×Ŀ": 4839,
      "×ķ×¢×ĵ×Ļ×Ŀ": 4840,
      "Ġ×©×Ķ×ª×§": 4841,
      "Ġ×Ĳ×ł×Ĵ×ľ×Ļ×ª": 4842,
      "Ġ×Ĺ×ķ×©×ĳ×Ļ×Ŀ": 4843,
      "Ġ×ľ×©×¨": 4844,
      "×ľ×¦×¤×Ļ×Ķ": 4845,
      "Ġ×ŀ×¦×Ļ×¦×Ķ": 4846,
      "×Ķ×Ļ×ķ×Ŀ": 4847,
      "Ġ×Ļ×ķ×Ľ×ľ×ķ": 4848,
      "Ġ×Ķ×Ĺ×ķ×¤×©": 4849,
      "×Ļ×ŀ×¨×Ļ×Ŀ": 4850,
      "Ġ×Ļ×ķ×¤×Ļ": 4851,
      "Ġ×¢×©×¨": 4852,
      "Ġ×¤×ķ×¨×ķ×Ŀ": 4853,
      "×Ļ×ĺ×ķ×ĺ": 4854,
      "×ķ×Ĳ×Ŀ": 4855,
      "×Ĵ×¨×Ļ×Ŀ": 4856,
      "Ġ×ľ×Ķ×ķ×¨×Ļ×ĵ": 4857,
      "Ġ×©×ķ×ķ×Ļ": 4858,
      "Ġ×ĳ×¢×¨×ĳ": 4859,
      "Ġ×ĳ×Ĺ×Ļ×¤×Ķ": 4860,
      "Ġ×ŀ×Ĳ×ŀ×Ļ×Ł": 4861,
      "Ġ×Ĳ×Ļ×ĺ": 4862,
      "âĢİ": 4863,
      "×©×ķ×ķ×Ĳ×ª": 4864,
      "Ġ×Ķ×¡×ĵ×¨": 4865,
      "Ġ2008": 4866,
      "Ġ×ł×Ļ×Ļ×ĵ×Ļ×Ŀ": 4867,
      "ĠâĢĶ": 4868,
      "Ġ×Ķ×ĸ×¨": 4869,
      "Ġ×ŀ×Ķ×Ļ×¨×Ķ": 4870,
      "Ġ×Ķ×ª×Ķ×ľ×Ļ×ļ": 4871,
      "Ġ×ª×©×ľ": 4872,
      "Ġ×ĳ×¢×ŀ×ķ×ĵ": 4873,
      "Ġ×Ķ×ĳ×Ĺ×Ļ×¨×ķ×ª": 4874,
      "Ġ×ª×ł×ķ×¢×Ķ": 4875,
      "Ġ×Ľ×ľ×ľ×Ļ×ª": 4876,
      "Ġ×ŀ×ĵ×ķ×Ļ×§": 4877,
      "×ķ×Ľ×Ĺ×ķ×ª": 4878,
      "×ĳ×¨×ķ×Ľ×Ļ×Ŀ": 4879,
      "×ĳ×ł×ķ×¡×£": 4880,
      "×Ļ×ĵ×Ļ×ª": 4881,
      "Ġ×ĺ×Ļ×ķ×ľ×Ļ×Ŀ": 4882,
      "×ķ×¤×©×Ķ": 4883,
      "×ł×Ļ×ł×ķ": 4884,
      "Ġ×ľ×Ĺ×ĳ×¨×Ķ": 4885,
      "65": 4886,
      "Ġ×©×ĳ×Ļ×Ł": 4887,
      "Ġ×ľ×¢×ľ×ķ×ª": 4888,
      "×Ľ×ķ×ł×Ļ": 4889,
      "×©×§×ľ×ķ×Ł": 4890,
      "Ġ×ľ×¢×¡×§×Ļ×Ŀ": 4891,
      "Ġ×ķ×Ĳ×ŀ×¨": 4892,
      "Ġ×Ĳ×©×ĵ×ķ×ĵ": 4893,
      "Ġ×Ĺ×ķ": 4894,
      "×¤×¨×¡×ŀ×ķ": 4895,
      "Ġ×ĳ×©×¢×ķ×ª": 4896,
      "×Ĳ×ķ×¤": 4897,
      "Ġ×ŀ×¡×¨": 4898,
      "×¢×ł×ķ": 4899,
      "Ġ×Ĳ×ĵ×ŀ×Ķ": 4900,
      "×ķ×ľ×Ĳ": 4901,
      "Ġ×Ķ×ª×Ļ×Ļ×Ĺ×¡": 4902,
      "Ġ×ķ×©×ķ×ĳ": 4903,
      "×Ľ×ª×Ķ": 4904,
      "×Ĵ×ĵ×ľ": 4905,
      "Ġ×ĳ×Ĳ×Ļ×ĸ×ķ×¨": 4906,
      "Ġ×ķ×ĳ×ķ": 4907,
      "Ġ×§×Ļ×¦": 4908,
      "×ł×£": 4909,
      "Ġ×Ķ×ª×ŀ×ķ×ł×ķ×ª": 4910,
      "Ġ×Ķ×ķ×¦×Ĳ×ª": 4911,
      "Ġ×Ķ×ŀ×Ļ×Ļ×ľ": 4912,
      "Ġ×©×ķ×ľ×Ĺ×Ł": 4913,
      "Ġ×Ķ×ĳ×ł×ª×Ļ": 4914,
      "Ġ×¨×Ĳ×Ļ": 4915,
      "×ł×¡×Ļ×Ķ": 4916,
      "Ġ×Ķ×¨×¤×ķ×Ĳ×Ļ": 4917,
      "Ġ×Ĳ×¨×ĳ×¢×Ķ": 4918,
      "Ġ×ķ×Ļ×ľ": 4919,
      "Ġ×ŀ×¤×ª×Ĺ": 4920,
      "Ġ×ª×Ĺ×ķ×ŀ×Ļ": 4921,
      "×¡×§×ª": 4922,
      "×Ļ×ª×ķ": 4923,
      "Ġ×ª×ķ×©×ĳ×Ļ": 4924,
      "×ķ×Ľ×Ļ": 4925,
      "×Ļ×¤×¨": 4926,
      "×§×Ļ×©×ķ×¨×Ļ×Ŀ": 4927,
      "Ġ×ķ×Ķ×ĺ": 4928,
      "×ł×¡×ķ×ª": 4929,
      "Ġ×ŀ×ĸ×ķ": 4930,
      "Ġ×ŀ×¤×Ķ": 4931,
      "Ġ×ŀ×ĺ×¨×Ļ×Ŀ": 4932,
      "×ł×Ķ×ľ×ķ×ª": 4933,
      "×Ĵ×ľ×Ķ": 4934,
      "×ķ×Ľ×ł×Ķ": 4935,
      "Ġ×©×Ķ×Ł": 4936,
      "×¤×ł×Ļ×Ŀ": 4937,
      "Ġ×ŀ×©×ķ×ľ": 4938,
      "Ġ×ŀ×Ĺ×¤×©": 4939,
      "Ġ×ª×Ļ×Ļ×¨×ķ×ª": 4940,
      "×ķ×Ľ×¨×Ļ×Ŀ": 4941,
      "Ġ70": 4942,
      "×ķ×ľ×ĵ×ª": 4943,
      "Ġ×ª×ķ×ŀ": 4944,
      "Ġ×Ĺ×ķ×ķ×Ļ×Ķ": 4945,
      "×Ļ×ł×§": 4946,
      "Ġ×Ķ×Ļ×ĳ": 4947,
      "Ġ×ŀ×ľ×ļ": 4948,
      "Ġ×ł×§×ĳ×¢": 4949,
      "Ġ×ľ×ŀ×©×ļ": 4950,
      "Ġ×ŀ×©×ŀ×©": 4951,
      "ell": 4952,
      "Ġ×Ķ×Ĳ×¤×©×¨×ķ×ª": 4953,
      "×Ĳ×ŀ×ł×ķ×ª": 4954,
      "Ġ×ŀ×Ļ×Ľ": 4955,
      "Ġ×ŀ×ĵ×ĳ×¨×Ļ×Ŀ": 4956,
      "Ġ×Ļ×Ķ×ķ×ĵ×Ļ×ª": 4957,
      "Ġ×¢×§×¨": 4958,
      "Ġ×ĳ×ľ×Ļ×ľ×Ķ": 4959,
      "Ġ×Ķ×Ĳ×ķ": 4960,
      "Ġ×§×ķ×§": 4961,
      "Ġ×ŀ×ĳ×ł×Ķ": 4962,
      "Ġ×Ķ×§×Ķ×ľ": 4963,
      "Ġ×Ķ×ł×Ĺ×Ķ": 4964,
      "×Ļ×Ķ×ķ": 4965,
      "Ġ×ŀ×§×ĵ": 4966,
      "×¨×©×ŀ×Ķ": 4967,
      "Ġ×Ķ×ŀ×©×ķ×ª": 4968,
      "Ġ×ŀ×¨×Ĵ×Ļ×©": 4969,
      "Ġ×ŀ×ķ×ĵ×¨": 4970,
      "Ġ×¤×©×ķ×ĺ×Ķ": 4971,
      "Ġ×¢×ľ×Ļ×ļ": 4972,
      "Ġ×ľ×Ķ×§×ľ": 4973,
      "Ġ×ķ×ĳ×Ĺ": 4974,
      "×ķ×ķ×ł×Ķ": 4975,
      "×¨×Ĺ×ķ×ĳ": 4976,
      "×Ļ×ĳ×Ļ×Ļ×Ŀ": 4977,
      "Ġ×ĳ×ł×Ļ×ķ": 4978,
      "Ġ×Ľ×Ĳ×ľ×ķ": 4979,
      "Ġ35": 4980,
      "×Ĵ×ķ×ĳ×ķ×ª": 4981,
      "Ġ×ł×ĵ×¨": 4982,
      "Ġ×ł×Ĳ×ŀ×¨": 4983,
      "×ł×Ļ×ª×ķ×Ĺ": 4984,
      "Ġ×ľ×Ķ×ª×¨": 4985,
      "Ġ×¢×ĳ×ķ×ĵ": 4986,
      "Ġ×Ķ×Ĳ×ķ×¦×¨": 4987,
      "Ġ×ŀ×ŀ×Ĺ": 4988,
      "Ġ×ľ×Ķ×ĺ": 4989,
      "Ġ×ŀ×¡×¢×ĵ×ķ×ª": 4990,
      "Ġ×ķ×Ľ×ŀ×Ķ": 4991,
      "Ġ×Ķ×ª×ł×Ķ×Ĵ×ķ×ª": 4992,
      "Ġ×ĳ×Ļ×§×ķ×¨": 4993,
      "Ġ×ŀ×ł×Ļ×ķ×ª": 4994,
      "×ĳ×ĺ×Ļ×Ķ": 4995,
      "×©×Ļ×¨×ķ×ª×Ļ": 4996,
      "-'": 4997,
      "Ġ×§×Ļ×Ļ×ŀ×Ļ×Ŀ": 4998,
      "×Ĳ×ŀ×Ļ×Ł": 4999,
      "Ġ×ĳ×©×ł×ķ×ª": 5000,
      "Ġ×¤×Ļ×§": 5001,
      "37": 5002,
      "Ġ×ª×ķ×Ľ×ł×Ķ": 5003,
      "Ġ×Ķ×ª×ķ×Ľ×ł×Ļ×ª": 5004,
      "Ġ×ľ×¦×¤×Ļ×Ļ×Ķ": 5005,
      "Ġ×Ķ×Ľ×ł×¡×Ķ": 5006,
      "Ġ×ĳ×Ĺ×ķ×¥": 5007,
      "Ġ×ĵ×ľ": 5008,
      "Ġ×ł×©×Ĳ": 5009,
      "Ġ×Ķ×Ĺ×ĵ×©×ķ×ª": 5010,
      "Ġ×ľ×¤×¨×¡×Ŀ": 5011,
      "Ġ×©×Ļ×ľ×ķ×ĳ": 5012,
      "×Ķ×¦×Ĵ": 5013,
      "Ġ×ł×ķ×Ľ×ľ": 5014,
      "Ġ×Ĺ×Ļ×ķ×ª": 5015,
      "Ġ×ĵ×Ĺ": 5016,
      "Ġ×ķ×ĳ×Ľ×ļ": 5017,
      "Ġ×Ķ×ŀ×Ļ×ķ×Ĺ": 5018,
      "Ġ×ĳ×Ĳ×Ļ": 5019,
      "×Ķ×Ľ×ľ": 5020,
      "Ġ×Ĳ×ķ×¤×Ļ": 5021,
      "×Ļ×Ľ×ļ": 5022,
      "Ġ×ľ×ĳ×§×¨": 5023,
      "Ġ×Ĳ×ķ×¤×ł×Ķ": 5024,
      "Ġ×Ķ×ł×ķ×Ľ×Ĺ×Ļ": 5025,
      "Ġ×ĳ×¢×ª×Ļ×ĵ": 5026,
      "Ġ×Ķ×Ĵ×Ļ×¢×Ķ": 5027,
      "×Ĵ×©×ª×Ļ": 5028,
      "Ġ×ĳ×¨×ķ×ĳ": 5029,
      ".[": 5030,
      "Ġ×Ĳ×ľ×Ļ×Ľ×Ŀ": 5031,
      "Ġ×ŀ×¢×©×Ķ": 5032,
      "Ġ×¢×ĵ×Ļ×£": 5033,
      "Ġ×©×¨×§": 5034,
      "×ķ×Ĵ×Ł": 5035,
      "×Ĳ×Ķ×ĳ×ª×Ļ": 5036,
      "Ġ×¦×Ļ×ľ": 5037,
      "×Ĺ×Ĺ": 5038,
      "Ġ×ŀ×ĺ×¢": 5039,
      "×ŀ×ķ×¦×¢": 5040,
      "Ġ×Ķ×ŀ×¨×Ľ×ĸ×Ļ": 5041,
      "Ġ×ľ×Ķ×Ļ×©×Ĳ×¨": 5042,
      "Ġ×ŀ×Ļ×ľ×Ļ×Ĳ×¨×ĵ": 5043,
      "×ķ×Ļ×Ķ": 5044,
      "×ª×Ĵ×ķ×ĳ×ķ×ª": 5045,
      "×ľ×Ĳ×ķ×ŀ×Ļ×ª": 5046,
      "Ġ×¢×¦×ŀ×Ļ×ª": 5047,
      "Ġ×Ļ×©×¨×Ĳ×ľ×Ļ×Ŀ": 5048,
      "Ġ×ľ×¨×Ľ×ĳ": 5049,
      "Ġ×ŀ×Ķ×ĵ": 5050,
      "Ġ×Ľ×ª×ĳ×Ķ": 5051,
      "Ġ×ľ×Ĺ×ľ×§": 5052,
      "Ġ×ľ×¢×ĸ": 5053,
      "×¤×Ļ×¢": 5054,
      "Ġ×ľ×ĳ×Ļ×¦×ķ×¢": 5055,
      "Ġ×ĳ×ĳ×ľ×ķ×Ĵ": 5056,
      "×ķ×ĸ×¨": 5057,
      "Ġ×ľ×Ķ×Ł": 5058,
      "Ġ×ĳ×Ļ×ľ": 5059,
      "Ġ×ĳ×Ĳ×Ļ×¨×ķ×¤×Ķ": 5060,
      "×Ľ×ķ×Ķ×ķ×ľ": 5061,
      "×¤×¨×©×ª": 5062,
      "Ġ×ĵ×Ļ×ķ×Ł": 5063,
      "Ġ×Ľ×¨×ĺ×Ļ×¡×Ļ×Ŀ": 5064,
      "Ġ×Ķ×ł×Ļ": 5065,
      "Ġ×Ĺ×ŀ×Ļ×©×Ļ": 5066,
      "×ł×ĳ": 5067,
      "×ª×¨×ķ×Ł": 5068,
      "Ġ×ŀ×§×¦×ķ×¢×Ļ×Ļ×Ŀ": 5069,
      "Ġ×Ķ×¢×¦×ŀ×Ĳ×ķ×ª": 5070,
      "Ġ×Ĳ×ŀ×¨×ķ": 5071,
      "Ġ×§×¨×ĳ": 5072,
      "×©×ª×ª×£": 5073,
      "×ķ×Ľ×Ļ×Ĺ": 5074,
      "Ġ×ľ×Ĺ×Ļ": 5075,
      "×Ļ×ĸ×ķ×§": 5076,
      "Ġ×Ķ×ľ×Ķ": 5077,
      "×¦×Ļ×ķ×ł": 5078,
      "Ġ×Ļ×©×¨": 5079,
      "×Ļ×ĳ×ķ×ĳ": 5080,
      "Ġ×¡×Ļ×¤×ķ×¨×Ļ×Ŀ": 5081,
      "Ġ×ŀ×¦×Ļ×¢×Ķ": 5082,
      "Ġ×ł×©×Ļ×Ĳ": 5083,
      "Ġ×¤×Ļ×ł×ª": 5084,
      "Ġ×§×Ķ×ľ": 5085,
      "Ġ×ĳ×Ľ×ł×¡": 5086,
      "Ġ×Ļ×Ĺ×Ļ×ĵ×ķ×ª": 5087,
      "Ġ×¨×Ĵ×Ļ×ľ": 5088,
      "×ĸ×Ļ×Ķ": 5089,
      "Ġ×Ĺ×ķ×¨": 5090,
      "×ķ×¢×ľ×ª": 5091,
      "Ġ×ľ×Ķ×¨×Ĵ×Ļ×©": 5092,
      "Ġ×Ķ×Ķ×Ĺ×ľ×ĺ×Ķ": 5093,
      "Ġ×Ķ×©×ľ×ķ×Ŀ": 5094,
      "Ġ×ľ×ŀ×©×Ĺ×§": 5095,
      "Ġ×ł×Ĺ×ŀ×ĵ": 5096,
      "Ġ×Ĳ×ľ×ķ×Ł": 5097,
      "×ĸ×¢": 5098,
      "Ġ×ĳ×Ķ×ª×Ĺ": 5099,
      "Ġ×Ĺ×ķ×©×ĳ×ª": 5100,
      "×Ļ×ł×Ļ×Ķ×Ŀ": 5101,
      "Ġ×ľ×ĺ×¤×ľ": 5102,
      "Ġ×¨×ķ×ĸ": 5103,
      "×Ļ×ĺ×ł×Ļ×Ķ": 5104,
      "Ġ×ķ×Ĳ×Ļ×ļ": 5105,
      "Ġ×ĳ×Ļ×ŀ×Ļ": 5106,
      "Ġ×ľ×¢×ĵ": 5107,
      "×¢×ķ×¨×ļ": 5108,
      "×Ļ×¢×ĵ": 5109,
      "Ġ×ķ×ľ×ľ×Ĳ": 5110,
      "×§×Ł": 5111,
      "×¤×ª×ķ×¨": 5112,
      "Ġ×Ĺ×ł×ķ×Ļ×ķ×ª": 5113,
      "Ġ×¡×ª": 5114,
      "Ġ×ĳ×ŀ×Ĵ×ķ×ķ×Ł": 5115,
      "Ġ×ŀ×ķ×¨×Ķ": 5116,
      "Ġ×ľ×Ķ×©×Ľ×¨×Ķ": 5117,
      "Ġ×ĺ×¢×ķ×ª": 5118,
      "iz": 5119,
      "Ġ×Ĳ×ł×¨×Ĵ×Ļ×Ķ": 5120,
      "×Ļ×ł×ª×Ļ×Ļ×Ŀ": 5121,
      "×ŀ×§×¨×Ķ": 5122,
      "Ġ×ª×Ĺ×¨×ķ×ª": 5123,
      "×ł×Ĵ×ĵ×ķ×ª": 5124,
      "×ķ×ľ×ķ×Ĵ×Ļ": 5125,
      "Ġ×Ķ×ł×¤×©": 5126,
      "×©×ª×Ļ×ķ×ª": 5127,
      "Ġ×Ķ×ŀ×§×ķ×ŀ×Ļ×ª": 5128,
      "Ġthe": 5129,
      "Ġ×Ķ×ķ×¤×ļ": 5130,
      "Ġ×¤×ķ×¨×¡×Ŀ": 5131,
      "×Ļ×ĺ×Ĺ×ķ×Ł": 5132,
      "Ġ×ľ×Ľ×Ļ×ķ×ķ×Ł": 5133,
      "Ġ×Ķ×¦×¤": 5134,
      "Ġ×ŀ×Ľ×Ļ×¨×ķ×ª": 5135,
      "×ł×ĵ×Ķ": 5136,
      "Ġ×¢×¨×Ľ×Ļ×Ŀ": 5137,
      "×ŀ×ĵ×Ļ×ł×Ķ": 5138,
      "Ġ×ĳ×¤×ķ×¨×ķ×Ŀ": 5139,
      "Ġ×Ľ×ª×ĳ×ķ×ª": 5140,
      "×ķ×¤×ĺ×Ļ×Ŀ": 5141,
      "Ġ×ŀ×Ľ×Ļ×¨×Ļ×Ŀ": 5142,
      "Ġ×ĳ×Ĵ×ķ×£": 5143,
      "Ġ×ĳ×Ĺ×ķ×Ŀ": 5144,
      "×¨×Ĵ×Ļ×ľ": 5145,
      "Ġ×Ķ×ĵ×ķ×¨": 5146,
      "×¤×ľ×Ĵ×Ķ": 5147,
      "Ġ×¤×ķ×¢×ľ": 5148,
      "Ġ×Ķ×Ĳ×Ļ×ł": 5149,
      "Ġ×ĵ×ŀ": 5150,
      "×ľ×§×ķ×ª": 5151,
      "Ġ×Ĺ×Ļ×Ļ×ĳ×ª": 5152,
      "Ġ×Ĺ×©×ķ×ĳ×Ķ": 5153,
      "Ġ×ĳ×¦×ľ": 5154,
      "×ª×ľ": 5155,
      "Ġ×ĳ×¨×ķ×¨×Ķ": 5156,
      "Ġ×ĳ×ª×Ĳ": 5157,
      "Ġ×Ķ×¤×¢×ķ×ľ×Ķ": 5158,
      "Ġ×ŀ×ĳ×¦×¢×Ļ×Ŀ": 5159,
      "Ġ×ŀ×ł×ķ×ª": 5160,
      "×¢×©×Ķ": 5161,
      "Ġ×Ķ×Ĺ×©×ŀ×ľ": 5162,
      "Ġ×ľ×Ĳ×Ĺ×ĵ": 5163,
      "Ġ×Ķ×ŀ×Ĺ×Ļ×¨×Ļ×Ŀ": 5164,
      "Ġ×©×Ķ×ĳ": 5165,
      "Ġ×¡×¤×¨×ķ×ª": 5166,
      "×ł×Ķ×Ĵ": 5167,
      "Ġ×ĳ×ŀ×§×ĳ×Ļ×ľ": 5168,
      "×Ķ×¤×¨": 5169,
      "Ġ×Ķ×Ĳ×ŀ×ķ×¨": 5170,
      "Ġ×¡×¨": 5171,
      "Ġ×ª×Ļ×Ĳ": 5172,
      "×ķ×ĵ×Ļ×ķ×ª": 5173,
      "×Ļ×ľ×ł×ĵ": 5174,
      "×Ļ×ĺ×ķ×¨": 5175,
      "Ġ×Ķ×ŀ×ķ×ŀ": 5176,
      "Ġ×Ķ×§×Ļ×¥": 5177,
      "Ġ×ŀ×¡×Ľ×Ļ×Ŀ": 5178,
      "Ġ×¨×Ĺ×ķ×§": 5179,
      "Ġ×ķ×Ĳ×ł×Ĺ×ł×ķ": 5180,
      "Ġ×ŀ×Ľ×Ļ×¨×Ķ": 5181,
      "Ġ×Ĳ×ł×ĺ": 5182,
      "Ġ×ĳ×©×Ļ×ª×ķ×£": 5183,
      "×ķ×ŀ×§": 5184,
      "Ġ×¤×ķ×Ĵ": 5185,
      "Ġ×ĺ×§×¡": 5186,
      "×ķ×Ľ×ĳ×Ļ×Ŀ": 5187,
      "Ġ×Ķ×Ĳ×ĳ": 5188,
      "Ġ×Ĳ×ľ×ŀ": 5189,
      "Ġ×ŀ×Ĳ×Ļ×ª×ł×ķ": 5190,
      "×©×ľ×ł×ķ×ª": 5191,
      "Ġmin": 5192,
      "Ġ×ŀ×ķ×§×ĵ×Ŀ": 5193,
      "Ġ×§×ķ×ĵ×ŀ×ķ×ª": 5194,
      "×©×ł×Ļ": 5195,
      "Ġ×¤×Ļ×¨×ķ×ª": 5196,
      "Ġ×Ķ×ŀ×Ļ×ľ×Ķ": 5197,
      "Ġ×Ķ×Ĺ×ķ×ŀ×¨": 5198,
      "Ġ×ŀ×ĺ×ĳ×Ĺ": 5199,
      "Ġ×Ķ×ł×©×Ļ×Ŀ": 5200,
      "09": 5201,
      "44": 5202,
      "Ġ×Ĺ×Ł": 5203,
      "Ġ×Ķ×ĳ×Ļ×ł×ľ×Ĳ×ķ×ŀ×Ļ": 5204,
      "×ŀ×¨×ª": 5205,
      "Ġ×Ĳ×Ļ×©×Ļ×ķ×ª": 5206,
      "×ľ×ł×ĵ": 5207,
      "Ġ×¨×¤": 5208,
      "Ġ×ĳ×ł×ķ×ĳ×ŀ×ĳ×¨": 5209,
      "Ġ×ľ×Ķ×¢×ľ×ķ×ª": 5210,
      "×ķ×ĳ×ĵ×Ķ": 5211,
      "Ġ×Ĳ×ł×ĵ×¨": 5212,
      "Ġ×ľ×Ĺ×Ĵ": 5213,
      "×Ļ×ĸ×ķ": 5214,
      "Ġ×ĳ×Ĵ×ķ×Ĵ×ľ": 5215,
      "Ġ×ĳ×Ĳ×ķ×§×ĺ×ķ×ĳ×¨": 5216,
      "ity": 5217,
      "Ġ×ľ×¡×ĺ": 5218,
      "Ġ×ŀ×¤×Ĵ": 5219,
      "×Ľ×ª×ĳ×ķ×ª": 5220,
      "Ġ×ľ×ŀ×ĺ": 5221,
      "Ġ×ĳ×¨×ķ×ļ": 5222,
      "Ġ×ķ×ł×©": 5223,
      "Ġ×¤×Ĵ×Ļ×¢×Ķ": 5224,
      "Ġ×§×ķ×ľ×ł×ķ×¢": 5225,
      "Ġ×ł×Ĳ×ľ": 5226,
      "×ł×¤": 5227,
      "Ġ×¡×¤×¨×Ļ": 5228,
      "Ġ×§×ĵ×Ļ×ŀ×Ķ": 5229,
      "×Ĺ×¨×ª": 5230,
      "Ġ×ŀ×¦×ķ×Ļ×Ł": 5231,
      "Ġ×ĳ×§×¨×ķ×ĳ": 5232,
      "Ġ×Ķ×ŀ×¢×¨": 5233,
      "Ġ×ľ×Ľ×Ĳ×ķ×¨×Ķ": 5234,
      "Ġ×ľ×¢×ĳ×¨": 5235,
      "Ġ×Ķ×¨×Ľ×ĳ×ª": 5236,
      "Ġ×Ķ×ķ×ķ×¢×ĵ×Ķ": 5237,
      "Ġ×Ĺ×Ľ×Ŀ": 5238,
      "×§×Ļ×ĵ×ķ×Ŀ": 5239,
      "×ĵ×ķ×Ł": 5240,
      "×ĳ×Ļ×ķ×Ŀ": 5241,
      "Ġ×¨×©×Ĳ×Ļ": 5242,
      "×Ļ×ł×ķ×¡": 5243,
      "Ġ×ľ×¢×Ļ×¨": 5244,
      "×Ľ×ł×ª×Ĳ": 5245,
      "×©×¨×ķ": 5246,
      "ate": 5247,
      "×ł×Ļ×ķ×ķ×ĺ": 5248,
      "Ġ×ĳ×ŀ×§×ķ×ŀ×ķ×ª": 5249,
      "Ġ×Ķ×ŀ×ľ×Ĳ×Ķ": 5250,
      "Ġ×¢×ķ×ĳ×ĵ×ª": 5251,
      "Ġ×ĺ×¨×Ļ": 5252,
      "Ġ×ł×¤×ª": 5253,
      "Ġ×Ķ×Ĺ×ĳ×¨×Ļ×Ŀ": 5254,
      "Ġ×Ĳ×Ļ×ª×Ŀ": 5255,
      "Ġ×ĺ×ľ×¤": 5256,
      "Ġ×§×ķ×ŀ×Ķ": 5257,
      "×ª×Ĺ×Ŀ": 5258,
      "Ġ×ŀ×ĳ×Ĺ×¨": 5259,
      "Ġ×Ķ×©×ŀ×©": 5260,
      "×§×ĺ×ķ×¨": 5261,
      "×ķ×ķ×Ļ×Ł": 5262,
      "Ġ×ľ×ĳ×Ļ×ĺ×ķ×Ĺ": 5263,
      "×ŀ×ª×ķ": 5264,
      "39": 5265,
      "Ġ×¢×ķ×Ĵ×Ļ×ķ×ª": 5266,
      "×ķ×¡×Ļ×Ļ×Ķ": 5267,
      "Ġ×Ķ×ª×ķ×¦×Ĳ×ķ×ª": 5268,
      "Ġ×Ķ×ª×Ľ×ł×Ļ×ª": 5269,
      "Ġ×ķ×Ķ×ŀ×©": 5270,
      "×Ļ×ķ×¢": 5271,
      "×Ļ×ł×Ļ×ķ": 5272,
      "×ĳ×Ļ×Ķ": 5273,
      "Ġ×ľ×Ĵ×Ļ×ľ": 5274,
      "×ŀ×ķ×¨×Ķ": 5275,
      "Ġ×ĳ×Ĳ×ķ×¨": 5276,
      "Ġ×Ĳ×ķ×¤×ł×Ļ×Ļ×Ŀ": 5277,
      "×ķ×ĳ×ľ×ª": 5278,
      "Ġ×Ķ×¨×¢×Ļ×ķ×Ł": 5279,
      "ĠâĨ": 5280,
      "Ö·Ö¼": 5281,
      "Ġ×Ļ×ķ×ł×Ļ": 5282,
      "×ŀ×¡×¨": 5283,
      "Ġ×ľ×¤×Ĵ×ķ×¢": 5284,
      "Ġ×ĸ×¦": 5285,
      "Ġ×Ĺ×ĳ×ľ": 5286,
      "Ġ×ķ×©×Ŀ": 5287,
      "Ġ×¤×ķ×ľ×Ļ×ĺ": 5288,
      "Ġ×ĸ×Ļ×ª": 5289,
      "×¢×¨×ķ×Ľ×Ķ": 5290,
      "×Ļ×ŀ×Ļ×ķ×ª": 5291,
      "Ġ×ł×¨": 5292,
      "×ķ×ŀ×ł×ķ×ª": 5293,
      "×ķ×ĵ×ĵ": 5294,
      "Ġ×ľ×ĸ×Ľ×ķ×¨": 5295,
      "Ġ×ł×ķ×¤×©": 5296,
      "×ķ×ķ×ł×ª": 5297,
      "×Ĵ×Ļ×ĵ": 5298,
      "Ġ×ŀ×ĵ×¨×Ļ×ļ": 5299,
      "Ġ×ľ×ĵ×¢×ª×Ļ": 5300,
      "Ġ×Ĳ×ł×Ĳ×ľ×Ļ": 5301,
      "×¤×Ļ×Ļ×ł×Ļ×Ŀ": 5302,
      "Ġ×ľ×¢×¦×ŀ×ķ": 5303,
      "Ġ×Ĳ×Ļ×ª×Ł": 5304,
      "Ġ×ĳ×ª×¤×§×Ļ×ĵ": 5305,
      "Ġ×ĺ×¨×Ŀ": 5306,
      "Ġ×ª×ľ×ŀ×Ļ×ĵ×Ļ×Ŀ": 5307,
      "×ľ×Ļ×ķ×ª": 5308,
      "×Ĳ×Ļ×¨": 5309,
      "Ġ×Ķ×¦×ľ×Ĺ×Ķ": 5310,
      "Ġ×ĳ×ł×Ļ×ŀ×Ļ×Ł": 5311,
      "Ġ×ľ×Ĺ×ĵ×¨": 5312,
      "×ŀ×¢×©×Ķ": 5313,
      "Ġ×ŀ×Ľ×Ļ×ľ": 5314,
      "×ŀ×¤×¨×ĺ": 5315,
      "500": 5316,
      "×Ļ×¡×ķ×Ł": 5317,
      "Ġ×¢×ľ×Ļ×Ľ×Ŀ": 5318,
      "Ġ×Ķ×ª×©×ķ×ĳ×Ķ": 5319,
      "Ġ×ĸ×ķ×Ķ×Ļ": 5320,
      "Ġ×ĳ×ŀ×ľ": 5321,
      "Ġ×ŀ×©×ª×ª": 5322,
      "Ġ×ł×¤×Ĵ": 5323,
      "Ġ×ĳ×ŀ×Ļ×Ļ×ľ": 5324,
      "×ĵ×ŀ×ķ×ª": 5325,
      "×Ĺ×Ļ×ľ": 5326,
      "mail": 5327,
      "Ġ×¨×Ļ": 5328,
      "Ġ×Ķ×Ĺ×ľ×Ķ": 5329,
      "Ġ×ĳ×Ķ×§×ĵ×Ŀ": 5330,
      "Ġ×Ķ×ŀ×ĺ×¨×Ķ": 5331,
      "Ġ×ĳ×Ļ×ĺ×Ĺ×ķ×Ł": 5332,
      "36": 5333,
      "Ġ×Ķ×ª×Ĺ×ľ": 5334,
      "Ġ×Ķ×¡×¤×ķ×¨×ĺ": 5335,
      "×ĳ×Ļ×ĺ×ķ×Ĺ": 5336,
      "Ġ×ĳ×¡×¤×ĺ×ŀ×ĳ×¨": 5337,
      "×ł×§×Ļ×Ŀ": 5338,
      "Ġ×¡×Ļ×ľ": 5339,
      "×¢×ª×ķ": 5340,
      "×ł×Ĺ×Ķ": 5341,
      "log": 5342,
      "Ġ×ŀ×ķ×ĵ×Ļ×¢×Ļ×Ł": 5343,
      "Ġ''": 5344,
      "Ġ×ĳ×Ļ×ķ×ľ×Ļ": 5345,
      "×ľ×ŀ×¨×ķ×ª": 5346,
      "×ª×¤×¨×Ļ×ĺ": 5347,
      "Ġ×ŀ×ŀ×ł×Ļ": 5348,
      "Ġ×Ĵ×ķ×ĳ×Ķ": 5349,
      "Ġ×Ķ×Ľ×ł×Ļ×¡×Ķ": 5350,
      "Ġ×©×ł×Ļ×ª": 5351,
      "Ġ×Ķ×ĸ×ŀ×ł×Ļ×Ŀ": 5352,
      "Ġ×ŀ×¡×ķ×Ļ×ŀ×Ļ×Ŀ": 5353,
      "Ġ×ł×Ķ×ĵ×¨": 5354,
      "Ġ×Ĳ×ľ×Ļ×ļ": 5355,
      "Ġ×Ķ×ľ×Ľ×Ķ": 5356,
      "×ł×¡×Ļ×¢×Ķ": 5357,
      "Ġ×ĳ×¤×¨×ĺ": 5358,
      "2017": 5359,
      "Ġ×§×ł×Ļ×ķ×Ł": 5360,
      "Ġ×ĳ×Ļ×ķ×ł×Ļ": 5361,
      "Ġ×¢×©×¨×Ķ": 5362,
      "Ġ×ł×ķ×¦×¨": 5363,
      "Ġ×ĳ×ŀ×Ĳ": 5364,
      "!!!!": 5365,
      "×ķ×¡×¡×ª": 5366,
      "Ġ×¢×ĸ×Ķ": 5367,
      "Ġ×Ļ×ķ×¢": 5368,
      "×Ķ×ķ×¡×£": 5369,
      "Ġ×Ķ×ŀ×ķ×ł": 5370,
      "×¤×¨×ĵ": 5371,
      "Ġ×ł×§×ķ×ĵ×ª": 5372,
      "Ġ×ķ×Ļ×Ķ": 5373,
      "Ġ×Ĺ×ķ×¤×©×Ļ": 5374,
      "Ġ×Ĺ×ľ×§×Ļ": 5375,
      "×Ľ×ķ×Ĺ": 5376,
      "Ġ×ł×Ļ×§×Ļ×ķ×Ł": 5377,
      "03": 5378,
      "×ķ×©×¢": 5379,
      "Ġ×ŀ×¦×Ĺ": 5380,
      "Ġ×¢×ĳ×¨×ķ": 5381,
      "×¨×©×Ļ×ŀ×ª": 5382,
      "Ġ×ľ×©×ł×Ļ": 5383,
      "Ġ×Ĳ×Ļ×ŀ×Ļ×Ļ×ľ": 5384,
      "×ŀ×Ļ×¨": 5385,
      "Ġ×ĳ×Ĳ×Ķ": 5386,
      "Ġ×ľ×Ķ×©×§×Ļ×¢": 5387,
      "×¨×ķ×¦×Ķ": 5388,
      "×ķ×¢×ľ×Ļ×Ŀ": 5389,
      "ows": 5390,
      "×§×Ļ×Ł": 5391,
      "×¦×Ļ×¤": 5392,
      "Ġ×ľ×©×ķ×Ł": 5393,
      "Ġ×¦×ĵ×§": 5394,
      "Ġ×©×ł×©": 5395,
      "Ġ×ŀ×¨×ĵ": 5396,
      "Ġ×ĳ×ĵ×Ļ×§×ª": 5397,
      "Ġ×Ķ×¨×¦×ľ×Ļ×Ķ": 5398,
      "Ġ×Ķ×¢×Ļ×¦×ķ×ĳ": 5399,
      "Ġ×ĳ×Ĳ×Ĺ×ĵ": 5400,
      "Ġ×ª×¡": 5401,
      "Ġ×Ĵ×ķ×¨×Ļ×ķ×Ł": 5402,
      "Ġ×Ķ×ł×¨×Ĳ×Ķ": 5403,
      "×ķ×¤×ľ×Ļ×Ŀ": 5404,
      "Ġ×ª×ŀ×¦×Ĳ×ķ": 5405,
      "×ĳ×ł×Ļ×ª": 5406,
      "Ġ×Ķ×Ľ×ĳ×ķ×ĵ": 5407,
      "×Ļ×¦×ķ×Ļ": 5408,
      "×ŀ×§×ĵ": 5409,
      "×Ļ×¨×ķ×£": 5410,
      "Ġ×Ĵ×Ĳ": 5411,
      "Ġ×©×ľ×Ķ×Ł": 5412,
      "×ĺ×¨×Ļ": 5413,
      "×Ļ×ª×¨×ķ×Ł": 5414,
      "Ġ×ŀ×ª×Ĺ×Ļ×ľ×Ļ×Ŀ": 5415,
      "Ġ×ĳ×Ļ×ł×ķ×Ĳ×¨": 5416,
      "Ġ×ľ×¢×ª×Ļ×Ŀ": 5417,
      "Ġ×Ľ×Ĺ×ľ×§": 5418,
      "Ġ×¨×¢×Ļ×ķ×Ł": 5419,
      "Ġ×¢×ľ×ķ×ª": 5420,
      "Ġ×ĳ×ĺ×Ĺ": 5421,
      "Ġ×Ĳ×Ĵ×ĳ": 5422,
      "×ĺ×¨×¤×ķ×ª": 5423,
      "Ġ×ķ×©×Ļ×¨×ķ×ª": 5424,
      "Ġ×Ķ×¦×Ļ×ĳ×ķ×¨×Ļ×ª": 5425,
      "×Ļ×¨×ķ×©×Ļ×Ł": 5426,
      "Ġ×ŀ×ķ×ķ×ª": 5427,
      "Ġ×ľ×ŀ×Ļ×ĵ×Ķ": 5428,
      "Ġ×Ķ×ª×ľ×ŀ×Ļ×ĵ×Ļ×Ŀ": 5429,
      "Ġ×ľ×Ļ×ľ": 5430,
      "×ĵ×ŀ": 5431,
      "Ġ×ŀ×§×ľ": 5432,
      "...\"": 5433,
      "Ġ×Ļ×©×¨×Ĳ×ľ×Ļ×ª": 5434,
      "Ġ×ľ×Ļ×ľ×ĵ": 5435,
      "×¦×ķ×ķ×ª": 5436,
      "×ĸ×ķ×ł×Ķ": 5437,
      "Ġ×ķ×©×ķ×ª": 5438,
      "ard": 5439,
      "Ġ×Ķ×Ĳ×ľ×ķ": 5440,
      "Ġ×ł×Ķ×¨": 5441,
      "Ġ×Ľ×¡×¤×Ļ": 5442,
      "âĢ¦]": 5443,
      "ack": 5444,
      "Ġ×Ĺ×Ļ×ĳ×ķ×¨": 5445,
      "×ķ×ķ×Ļ×Ĺ": 5446,
      "Ġ×Ķ×§×©×ķ×¨": 5447,
      "×Ĵ×¨×Ķ": 5448,
      "Ġ×¢×ķ×¡×§": 5449,
      "×ĸ×¨×Ĺ×Ļ×ª": 5450,
      "Ġ×ĳ×ķ×ķ": 5451,
      "Ġ×ĳ×Ĳ×©": 5452,
      "Ġ×ľ×ł×©": 5453,
      "Ġ×Ķ×¦×¢×ķ×ª": 5454,
      "×Ĺ×ĸ×ķ×¨": 5455,
      "×ķ×ĵ×©×Ļ": 5456,
      "×ģÖ¸": 5457,
      "Ġ×ŀ×ŀ×ļ": 5458,
      "Ġ×ľ×Ĳ×Ļ×¨×ķ×¢": 5459,
      "Ġ×Ĵ×ĳ×ķ×Ķ×Ļ×Ŀ": 5460,
      "04": 5461,
      "×ľ×Ľ×ľ": 5462,
      "Ġ×Ľ×ł×¡×ª": 5463,
      "se": 5464,
      "Ġ×©×¢×©": 5465,
      "×Ĳ×ĵ×Ŀ": 5466,
      "×ł×Ļ×£": 5467,
      "×Ĵ×¨×¡×Ķ": 5468,
      "Ġ×¤×¢×ŀ×Ļ×Ļ×Ŀ": 5469,
      "×¦×ķ×¢×Ļ×Ŀ": 5470,
      "Ġ×ľ×¤×ª×Ĺ": 5471,
      "ĠAr": 5472,
      "Ġ×Ķ×Ļ×ĵ×¢": 5473,
      "×Ĵ×ł": 5474,
      "Ġ×ŀ×ľ×Ĺ×ŀ×Ķ": 5475,
      "×ķ×ķ×Ļ×ĺ×¨": 5476,
      "×ŀ×Ļ×ľ": 5477,
      "Ġ×ŀ×¢×Ļ×Ł": 5478,
      "Ġ×ł×ŀ×ķ×Ľ×Ķ": 5479,
      "×ĵ×Ĳ×Ļ": 5480,
      "×Ļ×ĳ×Ĳ": 5481,
      "Ġ×ľ×ŀ×ľ×Ĳ": 5482,
      "Ġ×Ķ×¤×¨×ķ×Ļ×§×ĺ": 5483,
      "Ġ×ľ×Ķ×Ĺ×ľ×Ļ×£": 5484,
      "Ġ×ķ×ĳ×¡": 5485,
      "Ġ×ĳ×ĺ×Ļ×Ĺ×ķ×ª": 5486,
      "Ġ×¤×ª×Ļ×Ĺ×ª": 5487,
      "×¢×ľ×Ŀ": 5488,
      "×§×ĳ×ľ": 5489,
      "Ġ×ĵ×Ļ×Ĵ×Ļ×ĺ×ľ×Ļ": 5490,
      "×ŀ×ľ×Ķ": 5491,
      "×ŀ×¡×Ĵ×¨×ª": 5492,
      "Ġ×ŀ×ĳ×§×©": 5493,
      "Ġ×ŀ×¦×Ļ×Ĳ×ķ×ª": 5494,
      "×ĳ×Ļ×¢×ķ×ª": 5495,
      "Ġ×ŀ×ķ×¢×ĵ×ķ×Ł": 5496,
      "×©×ķ×ķ×Ĳ×Ķ": 5497,
      "×Ĺ×Ļ×Ļ×Ŀ": 5498,
      "Ġ×ĵ×ŀ×ķ×ª": 5499,
      "×ĵ×ķ×Ĳ×¨": 5500,
      "Ġ×ł×ķ×¢×ĵ": 5501,
      "×Ĳ×Ļ×ĸ×Ķ": 5502,
      "×Ľ×ł×Ł": 5503,
      "Ġ×Ķ×ĳ×ª": 5504,
      "Ġ×Ĺ×ĳ×¨×ª×Ļ": 5505,
      "Ġ×ľ×Ĳ×ĺ": 5506,
      "Ġ×¤×Ĳ×¨": 5507,
      "×ĸ×ª": 5508,
      "Ġ×Ĳ×§×¡": 5509,
      "Ġ×Ĳ×Ļ×ľ×ª": 5510,
      "Ġ×ķ×ĳ×§": 5511,
      "×¤×Ļ×ª×ķ×Ĺ": 5512,
      "×ŀ×ĵ×ķ×ĳ×¨": 5513,
      "Ġ×Ķ×¦×Ķ": 5514,
      "×¤×ķ×¨×¡": 5515,
      "Ġ×Ĳ×ŀ×¨×ª×Ļ": 5516,
      "×ŀ×ķ×ª×ª": 5517,
      "Ġ×ľ×ĳ×Ĺ×ķ×Ł": 5518,
      "Ġ×Ķ×ķ×ĸ": 5519,
      "Ġ×©×¨×ķ×Ł": 5520,
      "Ġ×ĳ×ĵ×£": 5521,
      "Ġ×¦×¤×ķ×Ļ": 5522,
      "Ġ×ľ×ŀ×Ĵ": 5523,
      "×ķ×¤×¢": 5524,
      "31": 5525,
      "Ġ×ŀ×¨×©": 5526,
      "Ġ×ľ×¡×¨×ĺ": 5527,
      "Ġ×Ĺ×©×ķ×ĳ×Ļ×Ŀ": 5528,
      "Ġ×Ļ×ķ×ŀ×Ļ": 5529,
      "Ġ×ŀ×©×ķ×ĳ": 5530,
      "wit": 5531,
      "×ķ×ľ×ķ×Ĵ×Ļ×ª": 5532,
      "×¢×¨×ĳ": 5533,
      "Ġ×ľ×ĵ×¨×ļ": 5534,
      "×¤×ľ×Ļ×Ŀ": 5535,
      "Ġ×ľ×§×Ļ×Ļ×Ŀ": 5536,
      "Ġ×Ķ×ª×¤×ª×Ĺ×ķ×ª": 5537,
      "Ġ×Ĳ×Ļ×ł×ł×ķ": 5538,
      "Ġ×ĳ×ĵ×Ļ×§×Ķ": 5539,
      "Ġ×ķ×ľ×§×ĳ×ľ": 5540,
      "Ġ×ĳ×ł×Ļ×Ļ×Ķ": 5541,
      "Ġ×ľ×ĳ×§×©": 5542,
      "Ġ×Ķ×Ĺ×ĸ×§": 5543,
      "Ġ×Ķ×ł×ķ×¡": 5544,
      "×©×ŀ×ķ": 5545,
      "×ĸ×ķ×¨×Ļ×Ŀ": 5546,
      "Ġ×Ķ×Ĺ×ľ×ĺ×ķ×ª": 5547,
      "×§×Ļ×Ļ×Ŀ": 5548,
      "Ġ×ľ×Ķ×¦×Ļ×¢": 5549,
      "Ġ×ĺ×§×¡×ĺ": 5550,
      "×ĺ×Ł": 5551,
      "ĠðŁ": 5552,
      "×Ĳ×ļ": 5553,
      "Ġ×ľ×Ķ×ľ×Ł": 5554,
      "Ġ×Ķ×Ĺ×Ĵ": 5555,
      "Ġ×Ķ×Ĺ×ª×ķ×ł×Ķ": 5556,
      "ont": 5557,
      "Ġ×Ķ×ŀ×Ĳ×ŀ×¨": 5558,
      "Ġ×Ĳ×ľ×Ļ×Ķ×ķ": 5559,
      "Ġ×ŀ×ĸ×ŀ×Ł": 5560,
      "×©×ł×ķ×ª": 5561,
      "Ġ×Ĵ×¨×ŀ×ł×Ļ×Ķ": 5562,
      "Ġ×ª×Ĺ×Ļ×ľ×ª": 5563,
      "ĠComm": 5564,
      "×ľ×Ĳ×Ķ": 5565,
      "×ĸ×ķ×ª": 5566,
      "Ġ×Ķ×ķ×¦×Ĳ×ķ×ª": 5567,
      "Ġ×ĳ×¢×Ļ×¦×ķ×ĳ": 5568,
      "Ġ×ľ×Ķ×¡×ĳ×Ļ×¨": 5569,
      "Ġ×Ķ×§×ķ×¨": 5570,
      "Ġ×Ĳ×Ļ×ľ×ķ": 5571,
      "Ġ×Ļ×Ļ×¦×ķ×¨": 5572,
      "×ĳ×ķ×Ł": 5573,
      "×¡×£": 5574,
      "Ġ×ŀ×§×¨×Ļ×Ŀ": 5575,
      "Ġ×ŀ×©×ķ×ª×£": 5576,
      "Ġ×ĳ×§×ķ×ľ": 5577,
      "Ġ×ŀ×ŀ×ķ×§×Ŀ": 5578,
      "Ġ×ķ×ŀ×¨": 5579,
      "×ĳ×¢×ľ×Ļ": 5580,
      "Ġ×ĵ×Ļ×Ĳ": 5581,
      "Ġ×©×¢×ĳ×¨×Ķ": 5582,
      "Ġ×©×ł×¤": 5583,
      "×ķ×¦×Ļ×Ĳ×ľ": 5584,
      "×ľ×ĺ×Ķ": 5585,
      "Ġ×ĸ×ķ×ľ": 5586,
      "Ġ×¢×Ļ": 5587,
      "Ġ×Ķ×ŀ×©×ŀ×¢×ķ×ª": 5588,
      "Ġ×ľ×Ĺ×©×ĳ×ķ×Ł": 5589,
      "67": 5590,
      "Ġ×ŀ×Ĳ×ľ": 5591,
      "Ġ×ľ×Ĺ×¡": 5592,
      "×Ļ×¨×ª×ķ": 5593,
      "×ĳ×©×ł×ª": 5594,
      "Ġ×ŀ×Ķ×ķ": 5595,
      "Ġ×ľ×ª×¨": 5596,
      "Ġ×ķ×¤×©×ķ×ĺ": 5597,
      "Ġ×Ķ×Ķ×ª×§": 5598,
      "×ķ×Ĺ×Ļ": 5599,
      "Ġ×ľ×§×ľ": 5600,
      "Ġ×Ļ×Ļ×¢": 5601,
      "Ġ×ŀ×ĳ×Ļ×Ĳ": 5602,
      "Ġ×ľ×Ķ×Ĵ×Ļ×ĳ": 5603,
      "Ġ×¨×Ĳ×©×Ļ×ª": 5604,
      "×ł×ĵ×ľ": 5605,
      "×ķ×Ľ×ł×Ļ×Ŀ": 5606,
      "38": 5607,
      "Ġ×¡×ĳ×ľ": 5608,
      "Ġ×Ķ×Ĺ×ĵ×©×Ļ×Ŀ": 5609,
      "Ġ×Ĳ×Ĺ×¨×Ļ×ł×ķ": 5610,
      "Ġ×ĺ×¢×ł×Ķ": 5611,
      "Ġ×Ķ×¤×Ļ×Ļ×¡×ĳ×ķ×§": 5612,
      "×ŀ×Ļ×ł×Ļ×Ŀ": 5613,
      "Ġ×ĳ×ķ×Ĳ×ķ": 5614,
      "Ġ×ĺ×¨×Ĳ×ŀ×¤": 5615,
      "×ľ×Ļ×£": 5616,
      "Ġ×ª×Ķ×ľ": 5617,
      "×¨×Ĵ×©": 5618,
      "Ġ×ł×Ļ×§×ķ×Ļ": 5619,
      "Ġ×¢×©×Ļ×¨": 5620,
      "34": 5621,
      "Ġ×Ķ×Ĵ×Ļ×©×Ķ": 5622,
      "Ġ×¨×¦×Ļ×ª×Ļ": 5623,
      "!\"": 5624,
      "×ł×¨×Ĳ×Ķ": 5625,
      "Ġ×ĳ×¨×Ľ×ĳ": 5626,
      "Ġ×ŀ×Ľ×©×Ļ×¨": 5627,
      "×ĺ×ª": 5628,
      "Ġ×Ķ×¢×Ļ×¨×Ļ×Ļ×Ķ": 5629,
      "Ġ80": 5630,
      "Ġ×ŀ×ķ×Ĵ×ĳ×ľ": 5631,
      "Ġ×ĳ×Ľ×¤×ķ×£": 5632,
      "×Ļ×Ľ×ķ×Ŀ": 5633,
      "Ġ×ľ×Ļ×Ļ×¦×¨": 5634,
      "ast": 5635,
      "Ġ×ŀ×ª×§×ĵ×Ŀ": 5636,
      "Ġ×ľ×Ļ×ķ×ķ×Ļ": 5637,
      "Ġ×ĳ×Ĳ×ķ×Ĵ×ķ×¡×ĺ": 5638,
      "Ġ×§×ķ×¡": 5639,
      "Ġ×ŀ×¡×ŀ×Ľ×Ļ×Ŀ": 5640,
      "Ġ×ľ×Ķ×ª×Ĳ×Ļ×Ŀ": 5641,
      "Ġ×Ĺ×ĸ×Ķ": 5642,
      "Ġ×ł×Ļ×Ļ×¨": 5643,
      "Ġ×©×Ļ×Ĵ": 5644,
      "Ġ×Ķ×ŀ×ķ×ĵ×¨": 5645,
      "Ġ×Ķ×¦×Ĵ": 5646,
      "Ġ×Ĳ×Ļ×ĵ": 5647,
      "×ľ×ª×Ķ": 5648,
      "Ġ×ľ×Ķ×Ľ×ł×Ļ×¡": 5649,
      "Ġ×Ļ×ķ×¡×Ļ": 5650,
      "Ġ×ĳ×ĵ×¦×ŀ×ĳ×¨": 5651,
      "Ġ×ĸ×ķ×Ĵ×Ļ": 5652,
      "Ġ×Ĳ×ł×Ĵ": 5653,
      "×ł×ķ×¨": 5654,
      "Ġ×¡×ĵ×¨×ª": 5655,
      "Ġ×Ķ×ª×Ĺ×Ļ×ľ": 5656,
      "âĢĿ,": 5657,
      "Ġ×Ĳ×Ļ×ŀ×ķ×Ł": 5658,
      "Ġ×Ķ×Ĳ×ķ×¨×Ĺ×Ļ×Ŀ": 5659,
      "Ġv": 5660,
      "Ġ×©×Ļ×ķ×ª×¨": 5661,
      "Ġ×¨×Ļ×©×ķ×Ŀ": 5662,
      "Ġ×Ĳ×©×¨×Ĳ×Ļ": 5663,
      "Ġ×ł×¤×ª×Ĺ": 5664,
      "Ġ×Ĳ×Ļ×ł×ĵ×§×¡": 5665,
      "Ġ×ŀ×Ĺ×Ļ": 5666,
      "×ķ×¨×¡×Ķ": 5667,
      "Ġ×Ļ×¢×ķ×¥": 5668,
      "Ġ×©×Ĵ×¨": 5669,
      "Ġ×ł×ķ×¨×Ĳ": 5670,
      "×Ļ×ł×ª×Ļ": 5671,
      "Ġ×¤×¢×Ļ×ľ×ķ×Ļ×ķ×ª": 5672,
      "Ġ×ł×§×¨×Ĳ": 5673,
      "×©×Ľ": 5674,
      "Ġ×Ľ×ĵ×ķ×¨×Ĵ×ľ": 5675,
      "×ķ×¨×¡×ľ": 5676,
      "Ġ×ľ×¨×©×Ļ×ŀ×ª": 5677,
      "\"?": 5678,
      "Ġ×ŀ×¢×¨×ĳ": 5679,
      "Ġ×ľ×¦×Ļ×ĳ×ķ×¨": 5680,
      "Ġ×Ķ×Ķ×Ĵ×ł×Ķ": 5681,
      "×Ĵ×¨×©": 5682,
      "Ġ05": 5683,
      "Ġ×Ķ×¦×Ļ×ĳ×ķ×¨×Ļ": 5684,
      "Ġ×ľ×Ļ×¦": 5685,
      "Ġ×ŀ×ķ×¦×ľ×Ĺ": 5686,
      "Ġ×©×Ļ×ĺ×ª": 5687,
      "Ġ×¡×Ļ×ĺ×Ļ": 5688,
      "Ġ×Ĺ×ķ×£": 5689,
      "Ġ×ĳ×ª×§×ķ×¤×ª": 5690,
      "×ķ×¡×Ļ×ª": 5691,
      "Ġ×ŀ×¡×ķ×Ļ×ŀ×ª": 5692,
      "×¤×©×¨×ķ×ª": 5693,
      "Ġ×Ĺ×ŀ×Ļ×Ŀ": 5694,
      "Ġ45": 5695,
      "×ł×ķ×¡": 5696,
      "ons": 5697,
      "Ġ×ķ×¤×¢": 5698,
      "×ľ×ķ×ľ×¨": 5699,
      "Ġ×ĳ×Ĳ×©×¨": 5700,
      "Ġ×©×ĸ×ķ": 5701,
      "198": 5702,
      "Ġ×Ļ×Ĺ×¡×Ļ×Ŀ": 5703,
      "×ķ×¢×Ŀ": 5704,
      "×ķ×ĵ×§": 5705,
      "×ĳ×ª×Ĳ": 5706,
      "Ġ×ŀ×Ľ×ª×ĳ": 5707,
      "Ġ×¨×©×ª×ķ×ª": 5708,
      "×Ĵ×ľ×Ļ×Ķ": 5709,
      "Ġ×ľ×¤×ķ×¢×ľ": 5710,
      "×ĳ×ł×ķ×ª": 5711,
      "ĠRe": 5712,
      "Ġ×Ķ×Ķ×Ļ×¡×ĺ×ķ×¨×Ļ×Ķ": 5713,
      "Ġ×Ķ×¡×ĵ×¨×Ķ": 5714,
      "×ķ×ŀ×ľ×¥": 5715,
      "Ġ×ĺ×Ľ×ł": 5716,
      "×ķ×ŀ×ĺ×Ļ": 5717,
      "Ġ×Ķ×Ľ×ķ×Ĺ": 5718,
      "×©×ĳ×Ķ": 5719,
      "×¨×Ĵ×ķ×ł×Ļ×Ŀ": 5720,
      "ore": 5721,
      "Ġ×§×©×ķ×¨": 5722,
      "Ġ×ľ×ŀ×Ĳ": 5723,
      "Ġ×Ķ×¨×ŀ×ĳ": 5724,
      "Ġ×ĳ×Ĳ×¤×¨×Ļ×ľ": 5725,
      "Ġ×¢×¤": 5726,
      "Ġ×ŀ×ķ×©×Ĵ": 5727,
      "Ġ×ŀ×Ļ×§×¨": 5728,
      "Ö±": 5729,
      "Ġ×ľ×Ļ×ĵ×Ķ": 5730,
      "×¤×Ļ×¨": 5731,
      "Ġ×ŀ×Ļ×ŀ": 5732,
      "Ġ×ŀ×Ĳ×ķ×¨": 5733,
      "Ġ×¡×§×¨": 5734,
      "Ġ×Ĺ×ĸ×§×Ķ": 5735,
      "×¤×¡×Ļ×Ŀ": 5736,
      "×Ĺ×Ļ×Ļ×ĳ": 5737,
      "Ġ×ľ×Ķ×ĵ×¤×¡×Ķ": 5738,
      "×ķ×¨×§": 5739,
      "Ġ×ĳ×Ĺ×ķ×§": 5740,
      "Ġ×©×§×ĺ": 5741,
      "Ġ×¢×ķ×ŀ×ĵ×Ļ×Ŀ": 5742,
      "Ġ×¢×¦×ŀ×ļ": 5743,
      "Ġ×©×Ķ×Ļ×Ļ×ª×Ķ": 5744,
      "Ġ×Ľ×©×Ļ×©": 5745,
      "Ġ×ĳ×¨×ĸ": 5746,
      "×Ľ×ľ×ľ": 5747,
      "×Ĵ×ĳ×ł×Ļ×ķ×ª": 5748,
      "Ġ×ŀ×ª×Ĳ×Ļ×ŀ×Ķ": 5749,
      "Ġ×Ķ×©×ķ×Ĳ×Ķ": 5750,
      "×Ĺ×©×ķ×ĳ": 5751,
      "indows": 5752,
      "Ġ×Ķ×§×ĺ×Ł": 5753,
      "Ġ×Ķ×ĵ×¨×Ľ×Ķ": 5754,
      "Ġ×ĳ×Ĳ×¨×¦×ķ×ª": 5755,
      "Ġ×Ĺ×©×ĳ×ª×Ļ": 5756,
      "Ġ..": 5757,
      "×Ļ×¦×ª": 5758,
      "×ĳ×Ļ×¨×ķ×ª": 5759,
      "Ġ×ľ×ł×Ķ×ľ": 5760,
      "×ķ×§×ķ": 5761,
      "Ġ×ŀ×Ķ×Ļ": 5762,
      "Ġ×ĳ×ķ×Ĵ": 5763,
      "02": 5764,
      "Ġ×ľ×Ĺ×Ŀ": 5765,
      "×ª×ķ×Ľ×Ł": 5766,
      "×ķ×Ĵ×¨×¤×Ļ×Ķ": 5767,
      "×¨×ķ×¦×Ļ×Ŀ": 5768,
      "Ġ×Ķ×¢×ĳ×¨×ª": 5769,
      "Ġ×ŀ×¢×©": 5770,
      "×ł×Ļ×Ķ×Ŀ": 5771,
      "Ġ×ŀ×¦×Ļ×¢×Ļ×Ŀ": 5772,
      "Ġ×Ľ×ķ×ľ×Ķ": 5773,
      "×Ļ×ĸ×¨×Ļ×Ŀ": 5774,
      "Ġ×ª×ķ×Ľ×ł×Ļ×ķ×ª": 5775,
      "Ġ×Ķ×ķ×ľ×Ľ×Ļ×Ŀ": 5776,
      "Ġ×¤×¡×Ļ×Ľ×ķ×ľ×ķ×Ĵ": 5777,
      "Ġ×ŀ×Ĵ×Ļ×¢×Ķ": 5778,
      "Ġ×ķ×ŀ×§×¦×ķ×¢": 5779,
      "Ġ×ŀ×ķ×ĵ×¢×ķ×ª": 5780,
      "×ĵ×ľ×Ĵ": 5781,
      "Ġ×ŀ×ľ×ĳ×ĵ": 5782,
      "Ġ×Ľ×Ĳ×ĳ": 5783,
      "Ġ2007": 5784,
      "Ġ×¤×ª×Ĳ×ķ×Ŀ": 5785,
      "Ġ×ŀ×ŀ×ª": 5786,
      "Ġ×ľ×Ķ×¦×ĺ×¨×£": 5787,
      "×Ļ×©×Ł": 5788,
      "Ġ×ª×©×ķ×ŀ×ª": 5789,
      "Â·": 5790,
      "×Ļ×ł×ª×ķ×ł×Ļ×Ŀ": 5791,
      "Ġ×ľ×ĳ×¢×ľ×Ļ": 5792,
      "Ġ×ľ×Ļ×¦×Ļ×¨×ª": 5793,
      "Ġ×Ľ×ª×ĳ×ķ": 5794,
      "×ķ×¡×§×ª": 5795,
      "Ġ×ĳ×ª×Ļ×§": 5796,
      "×ª×Ļ×Ļ×Ĺ×¡": 5797,
      "×©×Ļ×ª×ķ×£": 5798,
      "×ĺ×¨×ļ": 5799,
      "Ġ×Ĺ×ľ×§×Ļ×Ŀ": 5800,
      "Ġ×ŀ×ķ×¨×Ľ×ĳ": 5801,
      "Ġ×ľ×ª×¤×§×Ļ×ĵ": 5802,
      "Ġ×ŀ×¦×Ļ×Ĵ": 5803,
      "×ķ×¤×ĵ×Ļ×Ķ": 5804,
      "ĠCre": 5805,
      "Ġ×Ľ×ĸ×Ĳ×ª": 5806,
      "Ġ×ľ×ŀ×ĺ×Ķ": 5807,
      "Ġ×©×ķ×ŀ×¨": 5808,
      "Ġ×Ķ×ª×ķ×¦×Ĳ×Ķ": 5809,
      "Ġ×Ľ×ľ×Ľ×ľ×Ļ×ª": 5810,
      "×ķ×Ļ×Ļ×§×ĺ": 5811,
      "Ġ×ľ×¢×¦×ŀ×Ļ": 5812,
      "Ġ×Ļ×ķ×¦×Ĳ×ª": 5813,
      "Ġ×ĳ×ł×Ļ×Ļ×Ł": 5814,
      "Ġ×Ĳ×Ļ×ĸ×ķ": 5815,
      "Ġ×ŀ×¦×¨×Ļ×Ŀ": 5816,
      "ies": 5817,
      "Ġ×¨×Ľ×Ļ×©×ª": 5818,
      "Ġ×ŀ×ķ×¦×Ĳ": 5819,
      "Ġ×¡×Ļ×¤×¨": 5820,
      "Ġ×ĳ×Ķ×¨×ĳ×Ķ": 5821,
      "Ġ×¨×Ĺ×ķ×ĳ×ķ×ª": 5822,
      "×ĺ×Ļ×ķ×ľ×Ļ×Ŀ": 5823,
      "Ġ×ª×ķ×¡×¤×ª": 5824,
      "Ġ×Ĵ×ĳ×¢×ª": 5825,
      "×Ļ×ŀ×Ļ×Ļ×Ŀ": 5826,
      "Ġ×ľ×Ķ×§×Ļ×Ŀ": 5827,
      "Ġ×§×¤": 5828,
      "Ġ×Ĳ×¨×Ļ×Ķ": 5829,
      "Ġ×ŀ×©×¤×Ĺ×ª×Ļ": 5830,
      "×ķ×ł×ª×Ł": 5831,
      "Ġ×Ķ×ĸ×Ľ×ķ×ª": 5832,
      "Ġ×Ķ×ł×ĵ×ľ": 5833,
      "Ġ×ľ×Ķ×¤×¨": 5834,
      "our": 5835,
      "Ġ×Ķ×Ļ×¡×ĺ×ķ×¨×Ļ×Ķ": 5836,
      "×¢×ĵ×Ļ": 5837,
      "Ġ×ŀ×ĳ×Ļ×ł×Ļ×Ŀ": 5838,
      "Ġ×©×ł×Ļ×Ķ": 5839,
      "Ġ×ĳ×Ĳ×Ļ×Ľ×ķ×ª": 5840,
      "×Ļ×ķ×ķ×¨": 5841,
      "Ġ×¤×¨×ķ×Ļ×§×ĺ×Ļ×Ŀ": 5842,
      "Ġ×ŀ×¦×Ĳ×ª×Ļ": 5843,
      "Ġ×ŀ×ľ×Ķ": 5844,
      "Ġ×ľ×Ĺ×ķ": 5845,
      "Ġ×©×Ĺ×§×ł×Ļ×Ŀ": 5846,
      "Ġ×ŀ×¡×Ĺ×¨×Ļ": 5847,
      "Ġ×Ĳ×Ļ×ł×Ł": 5848,
      "Ġ×Ķ×ŀ×¨×Ľ×ĸ×Ļ×ª": 5849,
      "Ġ×ľ×ŀ×Ľ×ķ×¨": 5850,
      "Ġ×Ĳ×ŀ×¦×¢×Ļ": 5851,
      "Ġ×ľ×§×ĵ×Ŀ": 5852,
      "Ġ×Ĺ×ķ×ŀ×¨×Ļ": 5853,
      "Ġ×ĺ×¢×Ł": 5854,
      "Ġ×ĳ×ĵ×Ļ×§×ķ×ª": 5855,
      "Ġ×Ļ×Ļ×Ĺ×ķ×ĵ×Ļ": 5856,
      "Ġ×©×ŀ×¢×ķ×Ł": 5857,
      "Ġ×Ķ×ķ×Ł": 5858,
      "Ġ×ľ×Ĵ×ľ": 5859,
      "DF": 5860,
      "×ł×Ļ×§×Ķ": 5861,
      "ER": 5862,
      "×ŀ×Ĺ×Ļ×Ŀ": 5863,
      "×ĺ×¨×¡": 5864,
      "Ġ×Ķ×ŀ×ĵ×¢": 5865,
      "Ġ×Ķ×©×ª×ŀ×©": 5866,
      "×Ķ×Ł": 5867,
      "Ġ×ª×Ĳ×¨×Ļ×ļ": 5868,
      "Ġ×¤×ľ×¤×ľ": 5869,
      "Ġ×ľ×ł×Ļ×ķ×ĸ×ľ×ĺ×¨": 5870,
      "Ġ×Ķ×ĵ×Ŀ": 5871,
      "Ġ×Ķ×©×¤×¢×Ķ": 5872,
      "×ľ×Ĳ×ª": 5873,
      "47": 5874,
      "Ġ×ĵ×ł×Ļ×Ĳ×ľ": 5875,
      "ros": 5876,
      "Ġ×©×Ķ×ķ×¤": 5877,
      "one": 5878,
      "×Ĳ×ķ×Ĵ": 5879,
      "Ġ×ľ×Ķ×Ļ×ŀ×ł×¢": 5880,
      "Ġ×Ĳ×ķ×ĺ×ķ×ŀ×ĺ": 5881,
      "Ġ×Ļ×¦×Ļ×¨×Ķ": 5882,
      "Ġ×¤×¢×Ļ×ľ": 5883,
      "Ġ×¢×ķ×£": 5884,
      "Ġand": 5885,
      "Ġ×ł×Ļ×Ĵ": 5886,
      "Ġ×©×¨×Ķ": 5887,
      "Ġ×Ķ×¢×ĳ×¨": 5888,
      "Ġ2004": 5889,
      "×ķ×ĵ×Ŀ": 5890,
      "Ġ×Ķ×ķ×¡×£": 5891,
      "×ķ×¨×ķ": 5892,
      "Ġ×ŀ×Ļ×Ļ×ľ": 5893,
      "Ġ31": 5894,
      "Ġ×ĵ×Ļ×ĳ×¨": 5895,
      "Ġ×ĳ×ľ×ķ×ł×ĵ": 5896,
      "Ġ×ľ×ª×§×Ł": 5897,
      "×ĵ×¨×Ľ×Ķ": 5898,
      "×Ľ×ª×Ļ×ĳ×ª": 5899,
      "×Ĺ×ķ×ľ": 5900,
      "Ġ×Ĳ×ķ×¤×ĺ": 5901,
      "Ġ×Ķ×ŀ×ª×Ĳ×Ļ×Ŀ": 5902,
      "Ġ×©×§×Ļ×ĳ×ľ": 5903,
      "Ġ×¡×¢": 5904,
      "×©×ª×ª×¤×ķ×ª": 5905,
      "ist": 5906,
      "×Ľ×Ļ×ķ×Ŀ": 5907,
      "×ł×Ĵ×ĵ": 5908,
      "×ķ×ľ×Ł": 5909,
      "Ġ×¢×ª×Ķ": 5910,
      "Ġ×ª×Ĺ×ķ×©×Ķ": 5911,
      "Ġ×ķ×Ķ×Ľ×ľ": 5912,
      "Ġ×ĳ×ķ×Ĺ×¨×Ļ×Ŀ": 5913,
      "Ġ×ĳ×Ĺ×Ļ×Ļ": 5914,
      "qu": 5915,
      "Ġ×ľ×ĸ×Ľ×ķ×ª": 5916,
      "Ġ×ŀ×Ĳ×ķ×ĳ": 5917,
      "ang": 5918,
      "Ġ×ľ×Ķ×¢×ł×Ļ×§": 5919,
      "Ġ×ł×Ķ×Ĵ": 5920,
      "Ġ×Ķ×ĳ×ľ×ª×Ļ": 5921,
      "Ġ×ľ×Ķ×¨×Ĺ": 5922,
      "×Ļ×ĸ×¦×Ļ×Ķ": 5923,
      "Ġ×Ķ×¢×ª×Ļ×§×Ķ": 5924,
      "×ŀ×¢×ľ×Ķ": 5925,
      "Ġ×ľ×©×ŀ×©": 5926,
      "Ġ×Ķ×ŀ×ĸ×ķ×Ł": 5927,
      "Ġ×Ķ×ª×¤×§×Ļ×ĵ": 5928,
      "Ġ×ĳ×Ĵ×ĵ": 5929,
      "Ġ×Ķ×ª×Ĺ×ĳ×ķ×¨×Ķ": 5930,
      "Ġ×Ķ×¡×¤×§": 5931,
      "Ġ×ľ×Ļ×ł×Ķ": 5932,
      "Ġ{": 5933,
      "ome": 5934,
      "×ķ×ł×ĺ×Ļ": 5935,
      "Ġ×ŀ×Ļ×ł×Ļ×ª": 5936,
      "Ġ×Ķ×ª×Ĵ×ķ×ĳ×ķ×ª": 5937,
      "Ġ×ľ×Ķ×ł": 5938,
      "Ġ×ĳ×Ĳ×ķ×ł×Ļ×ĳ×¨×¡×Ļ×ĺ×ª": 5939,
      "Ġ×©×¢×ª": 5940,
      "Ġ×Ķ×ĳ×Ĳ×ķ×ª": 5941,
      "Ġ×Ĳ×Ļ×ª×Ķ": 5942,
      "Ġ×ŀ×¢×ķ×ł×Ļ×Ļ×ł×Ļ×Ŀ": 5943,
      "Ġ×ŀ×§×ķ×¨×ķ×ª": 5944,
      "Ġ×©×ķ×ŀ×Ł": 5945,
      "Ġ×ŀ×ª×ķ×§": 5946,
      "Ġ×©×ŀ×Ĳ×ľ": 5947,
      "Ġ×Ķ×¦×¢×Ļ×¨": 5948,
      "×Ļ×¨×ķ×Ŀ": 5949,
      "Ġ]": 5950,
      "Ġ×ł×ĵ×¨×©": 5951,
      "Ġ×ŀ×©×ŀ×¢": 5952,
      "×Ľ×ł×¢": 5953,
      "×ĳ×ķ×¨×Ĵ": 5954,
      "Ġ×ŀ×ķ×¤×Ļ×¢": 5955,
      "Ġ×¢×¦×Ŀ": 5956,
      "Ġ×ľ×ķ×ķ×ª×¨": 5957,
      "Ġ×Ķ×Ĳ×Ļ×¨×ķ×¢×Ļ×Ŀ": 5958,
      "Ġ×¤×©": 5959,
      "Ġ×Ķ×Ĺ×ķ×ľ": 5960,
      "Ġ×Ľ×ĳ×ĵ": 5961,
      "×ŀ×ĵ×ķ×ª": 5962,
      "Ġ×¤×Ĳ×¨×§": 5963,
      "Ġ×ŀ×¦×Ĳ": 5964,
      "Ġ×ľ×Ķ×ķ×¨×ĵ×Ķ": 5965,
      "Ġ×Ĳ×Ĺ×¨×Ĳ×Ļ": 5966,
      "Ġ×Ĳ×ĳ×ķ×ª": 5967,
      "Ġ×Ķ×ª×Ļ×ł×ķ×§": 5968,
      "Ġ×Ķ×Ĵ×¢×Ķ": 5969,
      "Ġ×ľ×¢×¨×ķ×ļ": 5970,
      "Ġ×¢×ķ×ĳ×ĵ×Ļ": 5971,
      "Ġ×ľ×Ļ×ĳ": 5972,
      "Ġ×ª×ķ×¡": 5973,
      "Ġ×ª×Ĺ×ķ×©×ª": 5974,
      "Ġ×ĳ×ŀ×Ļ×Ŀ": 5975,
      "Ġ×Ķ×ķ×¨×Ĳ×Ķ": 5976,
      "Ġ×§×¦×¨×Ķ": 5977,
      "Ġ×¤×¡×§×Ļ": 5978,
      "Ġ×Ķ×ŀ×ķ×¢×ĵ": 5979,
      "Ġ×Ĳ×Ļ×¨×ķ×Ĺ": 5980,
      "Ġ[âĢ¦]": 5981,
      "Ġ×ł×©×§": 5982,
      "×ŀ×Ĳ×ŀ×¨": 5983,
      "ish": 5984,
      "Ġ×Ķ×ŀ×Ļ×ľ×Ļ×Ŀ": 5985,
      "Ġ×Ĳ×ĳ×Ļ×ķ": 5986,
      "Ġ×ĸ×ķ×Ĵ×ķ×ª": 5987,
      "Ġ×ŀ×ĳ×ķ×¡×¡": 5988,
      "Ġ×Ķ×ŀ×ĳ×§×©": 5989,
      "Ġ×©×ĵ×ķ×ª": 5990,
      "Ġ×ķ×Ĳ×Ĺ×¨": 5991,
      "Ġ×ł×ķ": 5992,
      "×ŀ×Ļ×ķ×Ĺ×ĵ": 5993,
      "Ġ×Ķ×©×ķ×ķ×Ĳ": 5994,
      "Ġ×Ĳ×¡×ĺ×¨×ĺ×Ĵ": 5995,
      "Ġ×ĳ×¤×¡": 5996,
      "×¦×Ļ×¨": 5997,
      "×ł×ł×Ļ×Ŀ": 5998,
      "Ġ×ķ×ŀ×Ĵ": 5999,
      "Ġ×Ķ×¢×ª×Ļ×ĵ": 6000,
      "Ġ×¨×Ļ×©×Ļ×ķ×Ł": 6001,
      "Ġ×Ĺ×ķ×ľ×ķ×Ł": 6002,
      "Ġ×Ķ×Ĳ×Ĺ×¨×Ļ×Ŀ": 6003,
      "×Ļ×¤×ľ": 6004,
      "×¤×ķ×¡×ĺ×Ļ×Ŀ": 6005,
      "Ġ×¦×Ļ×ĳ×ķ×¨×Ļ": 6006,
      "Ġ×ĳ×ĺ×ľ×¤×ķ×Ł": 6007,
      "Ġ×Ķ×ŀ×§×¨×Ļ×Ŀ": 6008,
      "witter": 6009,
      "Ġ×Ķ×Ķ×ķ×¨": 6010,
      "Ġ×Ļ×¡×ķ×ĵ": 6011,
      "×¨×Ľ×Ł": 6012,
      "Ġ×Ķ×Ľ×ľ×Ļ×Ŀ": 6013,
      "Ġ×Ĵ×ķ×ľ×ĵ": 6014,
      "Ġ×ŀ×©×Ŀ": 6015,
      "×ŀ×©×§": 6016,
      "Ġ×ľ×ł×Ļ×Ķ×ķ×ľ": 6017,
      "Ġ×ŀ×¢×ł×Ļ": 6018,
      "ST": 6019,
      "Ġ×ľ×§×ķ×Ĺ": 6020,
      "Ġ×©×¤×Ļ×¨": 6021,
      "Ġ×¢×ķ×ŀ×ĵ×ª": 6022,
      "Ġ×ª×ĸ×ķ×ł×Ķ": 6023,
      "Ġ×Ķ×Ĺ×ķ×ĵ×©": 6024,
      "Ġ×Ĳ×Ĺ×¡×ķ×Ł": 6025,
      "Ġ×Ļ×ĳ×ķ×Ĳ": 6026,
      "×ķ×Ĳ×ľ×Ļ": 6027,
      "Ġ×ĳ×Ķ×Ľ×¨": 6028,
      "Ġ×¡×ĺ×ķ×ĵ×ł×ĺ×Ļ×Ŀ": 6029,
      "Ġ×ĳ×Ļ×ĺ×ķ×ľ": 6030,
      "×¤×Ļ×ķ×ª": 6031,
      "Ġ×ĳ×Ľ×ŀ×Ķ": 6032,
      "Ġ×©×¤×Ķ": 6033,
      "Ġ×ľ×Ķ×¤×¡×Ļ×§": 6034,
      "Ġ×Ĵ×Ļ×¨": 6035,
      "×¢×ĳ×ķ×¨": 6036,
      "×¤×¢×Ļ×ľ×ķ×ª": 6037,
      "Ġ×Ĳ×ŀ×Ļ×ª×Ļ×ª": 6038,
      "Ġ×ĳ×¤×ª×Ĺ": 6039,
      "Ġ×ĳ×Ĺ×©": 6040,
      "49": 6041,
      "Ġ×ķ×Ĳ×Ļ×Ľ×ķ×ª": 6042,
      "Ġ×ľ×¨×Ĵ×¢": 6043,
      "Ġ×Ķ×ĳ×Ĺ×Ļ×¨×Ķ": 6044,
      "Ġ×¨×¢×Ļ×ķ×ł×ķ×ª": 6045,
      "×ĺ×Ĳ": 6046,
      "Ġ×©×ł×Ļ×Ļ×Ķ": 6047,
      "Ġ×ŀ×ŀ×©×Ļ×ļ": 6048,
      "Ġ×ŀ×ł×Ĺ×Ŀ": 6049,
      "Ġ×ĺ×¢×ł×ķ×ª": 6050,
      "×ķ×Ĳ×Ļ×ĵ": 6051,
      "×Ķ×Ľ": 6052,
      "port": 6053,
      "×ĳ×Ļ×ľ×Ķ": 6054,
      "×ķ×Ķ×ľ": 6055,
      "Ġ×ŀ×Ļ×ĵ×Ķ": 6056,
      "Ġ×ŀ×ķ×©×ľ×ŀ×ª": 6057,
      "ne": 6058,
      "Ġ×§×Ĳ": 6059,
      "Press": 6060,
      "Ġ×Ķ×Ĺ×ķ×¥": 6061,
      "Ġ×ŀ×Ķ×§": 6062,
      "Ġ×Ľ×¡×¤×Ļ×Ŀ": 6063,
      "×Ļ×ł×ķ×¨": 6064,
      "Ġ×ľ×Ķ×ĳ×ĺ×Ļ×Ĺ": 6065,
      "Ġ×Ķ×Ĺ×¡": 6066,
      "Ġ×Ļ×ľ×ĵ×Ķ": 6067,
      "×ŀ×ľ×¦×ķ×ª": 6068,
      "Ġ×Ķ×ĳ×§×©×Ķ": 6069,
      "Ġ×Ķ×ĺ×ľ×ķ×ķ×Ļ×ĸ×Ļ×Ķ": 6070,
      "Ġ×Ķ×©×ĺ×Ĺ": 6071,
      "Ġ×ľ×ŀ×ĳ": 6072,
      "Ġ×¡×Ĵ×ķ×¨": 6073,
      "Ġ×Ĳ×ľ×Ľ×¡": 6074,
      "×Ĺ×ķ×ĳ": 6075,
      "Ġ×ĳ×Ļ×§×©": 6076,
      "Ġ×©×Ļ×Ĺ×ķ×ª": 6077,
      "Ġ×ĳ×Ĺ×Ļ×¨×Ķ": 6078,
      "Ġ×Ķ×Ķ×ķ×ĵ×¢×Ķ": 6079,
      "Ġ×ª×¨×ķ×¤×ķ×ª": 6080,
      "×Ľ×ľ×ª": 6081,
      "Ġ×Ķ×ĳ×Ķ": 6082,
      "Ġ×ĵ×ĳ": 6083,
      "nd": 6084,
      "Ġ×ŀ×ª×Ľ×ķ×ł×Ļ×Ŀ": 6085,
      "Ġ×§×Ļ×¥": 6086,
      "Ġ×©×Ĺ×§×Ł": 6087,
      "×ĺ×Ĺ×Ļ×Ŀ": 6088,
      "Ġ×¡×Ļ×ł×Ļ": 6089,
      "\").": 6090,
      "Ġ×ĳ×¢×¦×ŀ×ķ": 6091,
      "×Ķ×ł×¡×Ļ×¢×Ķ": 6092,
      "Ġ×ĸ×ķ×Ľ×¨": 6093,
      "×ł×ª×¨": 6094,
      "Ġ×Ķ×Ĵ×ĳ×ķ×Ķ": 6095,
      "Ġ×Ĳ×¤×ľ": 6096,
      "Ġ×Ķ×¢×Ļ×Ł": 6097,
      "Ġ×Ķ×¢×Ļ×§×¨×Ļ": 6098,
      "×ĺ×Ļ×¤": 6099,
      "Ġ×ŀ×Ļ×Ľ×ľ": 6100,
      "Ġ×¤×¡×Ĺ": 6101,
      "×ĳ×Ĺ×¨×ª": 6102,
      "Ġ×ŀ×ĺ×¨×Ķ": 6103,
      "Ġ×§×ŀ×Ĺ": 6104,
      "Ġ×¡×Ľ": 6105,
      "ĠSh": 6106,
      "Ġ×Ķ×Ĵ×ĳ×ķ×Ķ×Ķ": 6107,
      "Ġ×ŀ×ł×Ķ×ľ×ª": 6108,
      "Ġ×¨×¤×ķ×Ĳ×Ķ": 6109,
      "Ġ×ŀ×Ĺ×ľ×ķ×ª": 6110,
      "Ġ×ĳ×ĺ×ķ×Ĺ×Ķ": 6111,
      "Ġ×ĳ×¤×¨×¡": 6112,
      "Ġ×ŀ×§×¨×§×¢×Ļ×Ł": 6113,
      "Ġ×ķ×Ľ×ĵ×ķ×ŀ×Ķ": 6114,
      "Ġ×ľ×Ķ×Ĵ×Ł": 6115,
      "×ľ×ĺ×¤×ķ×¨": 6116,
      "Ġ×ĳ×ł×ķ×©×Ĳ×Ļ×Ŀ": 6117,
      "×Ķ×¡×¤×¨": 6118,
      "Ġ×ľ×Ķ×Ĺ×ĸ×Ļ×¨": 6119,
      "Ġ×ĵ×Ĵ×Ŀ": 6120,
      "Ġ×©×Ļ×¤×ķ×¨": 6121,
      "×Ļ×§×Ĳ×Ļ×Ŀ": 6122,
      "Ġ×ŀ×Ļ×ª": 6123,
      "Ġ×ľ×ł×Ķ": 6124,
      "Ġ×ĸ×ŀ×ł×Ļ": 6125,
      "×Ļ×Ľ×¨×ķ×ª": 6126,
      "Ġ×ĳ×¤×ĳ×¨×ķ×Ĳ×¨": 6127,
      "×ŀ×ķ×ł×Ļ×Ŀ": 6128,
      "Ġ×ķ×ľ×¦": 6129,
      "Ġ×Ķ×ł×¢": 6130,
      "Ġ×Ļ×¦×Ĳ×ķ": 6131,
      "×ľ×§×ķ×Ĺ×ķ×ª": 6132,
      "×ŀ×ķ×ł": 6133,
      "Ġ×ĵ×ķ×¤×Ł": 6134,
      "Ġ×Ķ×ĸ×Ķ×ĳ": 6135,
      "Ġ×ŀ×ĵ×Ķ×Ļ×ŀ×Ķ": 6136,
      "Ġ×Ķ×ª×ķ×Ľ×Ł": 6137,
      "Ġ×¡×ł×ĺ": 6138,
      "Ġ×Ķ×Ĵ×ĵ×ķ×ľ×ķ×ª": 6139,
      "×ª×¢": 6140,
      "Ġ×Ķ×Ĳ×ľ×§×ĺ×¨": 6141,
      "Ġ×¤×ķ×¡×ĺ×Ļ×Ŀ": 6142,
      "Ġ×ŀ×¡×¤×§×ª": 6143,
      "Ġ×Ķ×Ĺ×ķ×¦×Ķ": 6144,
      "Ġ×ķ×Ĺ×ľ×§": 6145,
      "âĨ": 6146,
      "Ġ×ľ×ĳ×ľ": 6147,
      "Ġ×Ļ×Ĺ×Ļ×ĵ": 6148,
      "ib": 6149,
      "Ġ×Ĳ×ķ×§×ĺ×ķ×ĳ×¨": 6150,
      "×Ĳ×Ļ×¤×Ķ": 6151,
      "Ġ×¨×ķ×§": 6152,
      "Ġ×Ĳ×ĵ×ŀ×ķ": 6153,
      "×ľ×ŀ×ĵ": 6154,
      "Ġ×ł×ª×ķ×ł×Ļ": 6155,
      "Ġ×Ĳ×ķ×¨×ļ": 6156,
      "Ġ×ŀ×Ĺ×ķ×ĸ": 6157,
      "Ġ×ŀ×ª×Ļ×Ļ×Ĺ×¡": 6158,
      "Ġ×Ķ×Ļ×Ļ×ª": 6159,
      "Ġ×ĳ×ĳ×Ĳ×¨": 6160,
      "are": 6161,
      "Ġ×ł×¤×¨×ĵ": 6162,
      "Ġ×Ķ×¦×ľ×Ĺ": 6163,
      "Ġ×ĳ×ŀ×¨×¥": 6164,
      "Ġ×Ķ×ŀ×§×ķ×¨×Ļ": 6165,
      "Ġ×ŀ×¨×ĳ×Ļ×ª": 6166,
      "×Ķ×Ĺ×ľ": 6167,
      "×ĺ×Ļ×Ļ×ľ×Ļ×Ŀ": 6168,
      "Ġ×Ļ×ª×¨×ķ×Ł": 6169,
      "Ġ×¨×Ĵ×Ļ×ľ×Ķ": 6170,
      "Ġ×ķ×ĳ×ł": 6171,
      "Ġ×Ĳ×ĳ×ĺ×Ĺ×Ķ": 6172,
      "Ġ×ĳ×Ĳ×Ļ×¨×ķ×¢": 6173,
      "×¦×Ļ×§×ľ": 6174,
      "Ġ×Ķ×Ĵ×©×ª": 6175,
      "Ġ×¨×¢×ł×ł×Ķ": 6176,
      "×Ĵ×ĳ×¨": 6177,
      "Ġ×ĳ×ĺ×¢": 6178,
      "×Ļ×ł×©×ĺ×Ļ×Ļ×Ł": 6179,
      "Ġ×ŀ×¡×ĳ×Ļ×ĳ": 6180,
      "Ġ×ĵ×ķ×ľ": 6181,
      "Ġ×©×¨×Ĳ": 6182,
      "Ġ×ĳ×Ĵ×Ł": 6183,
      "Ġ×Ķ×¡×ĳ×¨": 6184,
      "Ġ×¨×Ļ×§": 6185,
      "ordPress": 6186,
      "Ġ×Ľ×ľ×Ľ×ľ×Ļ": 6187,
      "×ŀ×§×ķ×¨": 6188,
      "oft": 6189,
      "ill": 6190,
      "Ġ×Ķ×Ĺ×ľ×ķ": 6191,
      "Ġ×Ķ×ķ×ľ×Ľ×ª": 6192,
      "Ġ×¨×ĳ×Ļ×¢×Ļ": 6193,
      "Ġ×ľ×ĵ×ķ×Ĵ×ŀ×Ķ": 6194,
      "×ľ×Ĳ×Ļ×Ŀ": 6195,
      "Ġ×ŀ×ł×¢": 6196,
      "Ġ×Ķ×Ĳ×ŀ×Ļ×ª×Ļ": 6197,
      "Ġ×Ķ×§×¤": 6198,
      "Ġ×ŀ×ª×ŀ×Ĺ×Ķ": 6199,
      "Ġ×ł×Ľ×¡×Ļ×Ŀ": 6200,
      "Ġ×Ĳ×Ļ×ľ×Ł": 6201,
      "×ķ×Ĵ×ķ": 6202,
      "Ġ500": 6203,
      "Ġ×Ķ×§×ķ×ľ×ł×ķ×¢": 6204,
      "Ġ×ĸ×ŀ×Ļ×Ł": 6205,
      "×ľ×ĺ×Ļ×Ŀ": 6206,
      "Ġ×ĳ×Ĵ×ķ×ĵ×ľ": 6207,
      "Ġ×ķ×Ļ×ĺ": 6208,
      "×ķ×ľ×Ļ×Ł": 6209,
      "Ġ×ľ×ŀ×ķ×¢×ĵ": 6210,
      "Ġ×©×ł×Ļ×Ļ×Ŀ": 6211,
      "Ġ×Ļ×Ĳ×Ļ×¨": 6212,
      "Ġ×ĵ×ķ×ŀ×Ļ×Ŀ": 6213,
      "Ġ×ľ×ĸ×Ķ×ķ×ª": 6214,
      "Ġ×ŀ×ª×ķ×Ľ": 6215,
      "×§×¨×Ł": 6216,
      "×ĳ×ŀ×Ķ×ľ×ļ": 6217,
      "×§×ĺ×Ĵ×ķ×¨×Ļ×Ķ": 6218,
      "Ġ×Ķ×ľ×Ĳ×Ķ": 6219,
      "Ġ×©×¨×ķ×ª": 6220,
      "Ġ×¡×Ļ×Ľ×ķ×Ł": 6221,
      "Ġ×©×¨×ª": 6222,
      "Ġ×ŀ×¤×Ĵ×©": 6223,
      "Ġ×©×¤×¨": 6224,
      "Ġ×ķ×ľ×¡": 6225,
      "Ġ×Ļ×ķ×¦×Ĳ×Ļ×Ŀ": 6226,
      "Ġ×©×ĺ×¨": 6227,
      "Ġ×©×Ļ×¨×Ķ": 6228,
      "×ł×ķ×Ļ×Ļ×Ŀ": 6229,
      "×Ĳ×ĳ×Ļ": 6230,
      "Ġ×Ķ×§×¨×§×¢": 6231,
      "ID": 6232,
      "Ġ×§×¨×ķ×ĳ×ķ×ª": 6233,
      "Ġ×ĳ×Ĺ×Ļ×¨×ª": 6234,
      "×Ļ×ł×¡×§×Ļ": 6235,
      "Ġ×Ļ×¨×§×ķ×ª": 6236,
      "Ġ×ĳ×ª×Ļ×Ŀ": 6237,
      "Ġ×ľ×ĵ×ķ×Ĵ×ŀ×Ĳ": 6238,
      "Ġ×Ķ×ĵ×ķ×Ĳ×¨": 6239,
      "Ġ×Ķ×©×Ļ×¨×ķ×ª×Ļ×Ŀ": 6240,
      "Ġ×Ķ×©×Ľ×¨×ª": 6241,
      "Ġ×ĳ×¨×©×ķ×ª": 6242,
      "Ġ×Ķ×©×¤×Ķ": 6243,
      "Ġ×¡×¤×Ĳ": 6244,
      "×ķ×ĵ×ł×ĺ": 6245,
      "Ġ×Ķ×©×§×¢×Ķ": 6246,
      "Ġ×¨×Ķ": 6247,
      "Ġ×Ķ×ª×§×ķ×¤×Ķ": 6248,
      "Ġ×ŀ×Ľ×Ĳ×Ł": 6249,
      "Ġ×Ķ×¤×§": 6250,
      "Ġ×ĳ×ł×ķ×©×Ĳ×Ļ": 6251,
      "Ġ×Ļ×ķ×¦×¨": 6252,
      "Ġ×Ķ×ŀ×¡×Ĺ×¨": 6253,
      "Ġ×Ķ×ł×ĵ×¨": 6254,
      "×§×¨×§×¢": 6255,
      "Ġ×ķ×ĳ×ŀ": 6256,
      "Ġ×ŀ×Ļ×§×ķ×Ŀ": 6257,
      "Ġ×ŀ×ķ×¡×Ļ×§×Ķ": 6258,
      "Ġ×Ķ×ĺ×ľ×¤×ķ×Ł": 6259,
      "×¡×ķ×§×Ķ": 6260,
      "Ġ×¨×¦×ķ×Ļ": 6261,
      "Ġ×ķ×ľ×ĵ": 6262,
      "Ġ×ŀ×ł×¦": 6263,
      "77": 6264,
      "Ġ×ľ×ľ×ĳ": 6265,
      "Ġ×Ĳ×©×ª×ķ": 6266,
      "Ġ×Ķ×Ĳ×Ķ×ĳ×Ķ": 6267,
      "×Ķ×¦×ĺ×¨×¤×ķ": 6268,
      "Ġ×ĳ×ł×Ļ×Ķ": 6269,
      "Ġ×ľ×§×Ķ×ľ": 6270,
      "Ġ×ŀ×§×¡×Ļ×Ŀ": 6271,
      "×ª×ŀ×ķ×ł×ķ×ª": 6272,
      "×©×ª×Ļ×ª": 6273,
      "IN": 6274,
      "Ö»": 6275,
      "×ŀ×ķ×§×¨×ĺ×Ļ×Ķ": 6276,
      "Ġ×Ķ×¤×Ľ×Ķ": 6277,
      "Ġ×Ĳ×Ļ×ª×ļ": 6278,
      "Ġ×ķ×ĳ×ĺ": 6279,
      "Ġ×Ĺ×Ļ×Ķ": 6280,
      "Ġ×ľ×Ķ×ª×Ĳ": 6281,
      "Ġ×ŀ×Ķ×ĳ×Ļ×ª": 6282,
      "Ġ×ľ×ķ×ķ×ĵ×Ĳ": 6283,
      "Ġ×Ķ×ĸ×ŀ×ł×ª": 6284,
      "×Ĳ×¨×ĵ": 6285,
      "Ġ×ķ×ł×¢": 6286,
      "Ġ×¡×Ļ×Ł": 6287,
      "Ġ×§×Ļ×ķ×Ŀ": 6288,
      "Ġ×Ĳ×¨×Ļ×Ĳ×ľ": 6289,
      "Ġ×¡×¨×ĺ×Ļ": 6290,
      "Ġ×Ĺ×ŀ×Ļ×©×Ķ": 6291,
      "Ġ×©×Ķ×¨": 6292,
      "×¡×§×¡": 6293,
      "Ġ×Ķ×ł×¦": 6294,
      "Ġ×ŀ×ķ×Ľ×ł×Ļ×Ŀ": 6295,
      "×¤×¢×ľ": 6296,
      "×ĸ×Ľ×ķ×ª": 6297,
      "Ġ×Ķ×Ķ×¡×Ľ×Ŀ": 6298,
      "Ġ×Ĺ×ķ×ĸ×Ķ": 6299,
      "Ġ×Ķ×Ķ×ĳ×ĵ×ľ": 6300,
      "32": 6301,
      "×ĸ×§×Ļ×Ŀ": 6302,
      "Ġ×ķ×ŀ×ª×Ł": 6303,
      "×ĸ×§×ª": 6304,
      "Ġ×Ĳ×Ļ×¤×ķ×¨": 6305,
      "×ĺ×¨×§×ĺ": 6306,
      "ud": 6307,
      "Ġ×ķ×Ĳ×ª×Ŀ": 6308,
      "Ġ×Ķ×ľ×Ĳ×ķ×ŀ×Ļ×ª": 6309,
      "Ġ×Ķ×ľ×Ļ×ŀ×ķ×ĵ": 6310,
      "Ġ×ĳ×ª×ł×Ĳ×Ļ": 6311,
      "×Ļ×ĳ×ķ×¨×Ļ×Ŀ": 6312,
      "Ġ×Ľ×ľ×©×Ķ×Ļ": 6313,
      "Ġ×Ĳ×ľ×Ĺ": 6314,
      "Ġ×¢×Ĵ": 6315,
      "Ġ×©×ŀ×¨": 6316,
      "Ġ×ł×¢×Ļ×ŀ×Ķ": 6317,
      "×ĳ×¢×ķ": 6318,
      "Ġ×¢×Ļ×¡×ķ×§": 6319,
      "Ġ×¢×¨×Ļ×Ŀ": 6320,
      "Ġ×§×Ļ×ł": 6321,
      "Ġ×ķ×Ļ×ª": 6322,
      "Ġ×ķ×Ķ×¡×ĳ×Ļ×ĳ×Ķ": 6323,
      "×Ĺ×ª×Ķ": 6324,
      "×ŀ×Ļ×§×Ķ": 6325,
      "Ġ×ŀ×ķ×¡×¨": 6326,
      "Ġ×Ķ×ŀ×¤×¨": 6327,
      "Ġ×Ĳ×¤×¨×Ļ×§×Ķ": 6328,
      "Ġ×ĺ×Ļ×¡×Ķ": 6329,
      "Ġ×¢×ķ×§": 6330,
      "Ġ×ŀ×¡×Ļ": 6331,
      "Ġ---": 6332,
      "×ª×¦×ķ×Ĵ×Ķ": 6333,
      "Ġ×Ķ×ŀ×ł×Ķ×ľ": 6334,
      "Ġ×ľ×Ĺ×ķ×ĵ×©": 6335,
      "Ġ×ĺ×¢×Ļ×Ŀ": 6336,
      "Ġ×¤×Ļ×Ĵ": 6337,
      "Ġ×ľ×ŀ×ĵ×Ļ": 6338,
      "Ġ×Ķ×Ĺ×ķ×ŀ×¨×Ļ×Ŀ": 6339,
      "Ġ×ľ×§×Ļ×ĵ×ķ×Ŀ": 6340,
      "Ġ×Ĺ×¦": 6341,
      "Ġ×¨×Ĵ×©": 6342,
      "Ġ×Ķ×§×¦": 6343,
      "Ġ×ŀ×ķ×¡×ĵ×ķ×ª": 6344,
      "Ġ×ĳ×ŀ×Ĳ×Ķ": 6345,
      "Ġ×¢×¦×ŀ×Ĳ×Ļ": 6346,
      "×Ĳ×ķ×ķ×Ķ": 6347,
      "Ġi": 6348,
      "Ġ×ĳ×ĵ×ķ×Ĳ×¨": 6349,
      "Ġ×Ķ×¤×¨×¡×ķ×Ŀ": 6350,
      "Ġ×ľ×Ķ×©×Ĳ×Ļ×¨": 6351,
      "Ġ×ķ×ŀ×¢×ľ×Ķ": 6352,
      "Ġ×©×Ĳ×ķ×ľ×Ļ": 6353,
      "Ġ×Ĳ×¤×ľ×Ļ×§×¦×Ļ×ķ×ª": 6354,
      "×ª×Ĳ": 6355,
      "ĠCook": 6356,
      "×ľ×ľ×Ĳ": 6357,
      "×Ļ×ĵ×ķ×ĵ": 6358,
      "Ġ×ķ×ľ×ŀ": 6359,
      "×Ľ×ľ×Ļ": 6360,
      "Ġ×Ĳ×ķ×ķ": 6361,
      "Ġ×Ķ×ŀ×¡×ļ": 6362,
      "Ġ×Ĳ×©×§×ľ×ķ×Ł": 6363,
      "Ġ×ĳ×ª×©×ľ×ķ×Ŀ": 6364,
      "Ġ×Ķ×ŀ×©×¤×ĺ×Ļ": 6365,
      "Ġ×Ķ×Ĳ×ŀ×¨×Ļ×§×Ĳ×Ļ": 6366,
      "Ġ×Ķ×Ļ×Ĺ×¡×Ļ×Ŀ": 6367,
      "×ĵ×¡": 6368,
      "×¡×¤×¨×Ļ×Ŀ": 6369,
      "Ġ×Ķ×¦×¨": 6370,
      "×Ļ×¤×¡": 6371,
      "×Ļ×ľ×ķ×Ĵ": 6372,
      "Ġ×©×Ĳ×Ļ×ł×Ķ": 6373,
      "×ª×¨×ĳ×ķ×ª": 6374,
      "Ġ×Ķ×ª×ľ": 6375,
      "×ĳ×Ĵ": 6376,
      "Ġ2000": 6377,
      "Ġ×Ķ×Ľ×ķ×ķ×ł×Ķ": 6378,
      "ach": 6379,
      "Ġ×ª×ł×ķ×¢×ª": 6380,
      "Ġ×¤×ķ×¢×ľ×Ļ×Ŀ": 6381,
      "×Ľ×¨×ķ×ª": 6382,
      "Ġ×Ĳ×©×ŀ×Ĺ": 6383,
      "Ġ×Ķ×Ļ×ķ×ŀ×Ļ": 6384,
      "×ĸ×Ķ×ķ": 6385,
      "Ġ×Ķ×ķ×¡×Ļ×£": 6386,
      "Ġ×©×ł×Ļ×ķ×ª": 6387,
      "×Ļ×©×ķ": 6388,
      "Ġ×Ķ×©×Ļ×¢×¨": 6389,
      "Ġa": 6390,
      "Ġ×Ķ×Ĺ×ķ×£": 6391,
      "68": 6392,
      "Ġ×¦×¨×Ľ": 6393,
      "Ġ×ł×Ķ×¨×Ĵ": 6394,
      "age": 6395,
      "×Ĺ×ĸ×¨": 6396,
      "Ġ×ĳ×©×¤×Ķ": 6397,
      "Ġ×Ľ×ķ×ľ×ľ×Ļ×Ŀ": 6398,
      "×ª×Ļ×§×ķ×Ł": 6399,
      "ĠAl": 6400,
      "Ġ×§×ĳ×ľ×Ķ": 6401,
      "ant": 6402,
      "âĹ": 6403,
      "Ġ×ľ×¢×¦×ķ×¨": 6404,
      "Ġ×ĳ×Ļ×ł×ľ×Ĳ×ķ×ŀ×Ļ": 6405,
      "×¢×Ľ×©×Ļ×ķ": 6406,
      "Ġ×ŀ×¨×Ķ": 6407,
      "up": 6408,
      "Ġ×¡×ĺ×ł×ĵ×¨": 6409,
      "×ł×Ļ×Ľ×Ŀ": 6410,
      "×ķ×ĸ×Ļ×Ĳ×ķ×Ł": 6411,
      "Ġ×Ķ×Ļ×Ľ×Ł": 6412,
      "Ġ×ľ×¦×¨": 6413,
      "×ª×ł×Ĳ×Ļ": 6414,
      "Ġ×ĳ×ª×¢": 6415,
      "×Ļ×§×Ĳ×Ļ": 6416,
      "Ġ×ĳ×Ľ×Ļ×¨": 6417,
      "Ġ×ĵ×Ļ×ķ×ķ×Ĺ": 6418,
      "Ġ×ŀ×ķ×Ĵ×©": 6419,
      "ace": 6420,
      "×ĵ×ŀ×Ķ": 6421,
      "×ķ×ĳ×Ļ×Ļ×§×ĺ": 6422,
      "Ġ×Ĺ×Ļ×¡": 6423,
      "Ġ×Ķ×Ļ×©×Ļ×ĳ×Ķ": 6424,
      "Ġ×ŀ×¢×ķ×ł×Ļ×Ļ×Ł": 6425,
      "×ķ×ĵ×¢×ª": 6426,
      "Ġ×ŀ×¡×ķ×Ĵ×ľ": 6427,
      "Ġ×ĸ×ŀ×ł×Ļ×Ŀ": 6428,
      "×Ļ×ĸ×ķ×Ĵ": 6429,
      "×ŀ×ł×ª": 6430,
      "Ġ×Ķ×¨×Ĺ×ĳ": 6431,
      "Ġ×ŀ×ł×Ķ×ľ×Ļ×Ŀ": 6432,
      "Ġ×ķ×ª×Ĺ": 6433,
      "Ġ×ŀ×Ļ×Ľ×Ĳ×ľ": 6434,
      "Ġ×Ķ×Ľ×¤×¨": 6435,
      "Ġ×Ĺ×ķ×Ĵ": 6436,
      "×ŀ×¢×ª": 6437,
      "Ġ×ĵ×¢×ķ×ª": 6438,
      "×Ķ×Ļ×Ļ": 6439,
      "Ġr": 6440,
      "Ġ×ŀ×¡×¤×¨×Ļ×Ŀ": 6441,
      "Ġ×ł×Ļ×Ļ×ĵ": 6442,
      "×ķ×¤×§": 6443,
      "Ġ×Ķ×Ļ×¤": 6444,
      "Ġ×ŀ×¦×ķ×ķ×ª": 6445,
      "Ġhd": 6446,
      "×ĵ×ĳ×¨×Ļ×Ŀ": 6447,
      "Ġ×©×Ĳ×£": 6448,
      "Ġ×ŀ×Ĵ×¢": 6449,
      "×Ļ×Ĺ×ķ": 6450,
      "×ĺ×Ļ×ª": 6451,
      "Ġ×Ĳ×Ĺ×¨×Ļ×ķ": 6452,
      "×¢×§×ĳ": 6453,
      "Ġ×ľ×ŀ×ķ×¡": 6454,
      "×ª×Ĵ×ķ×ĳ×Ķ": 6455,
      "Ö¼Ö¹": 6456,
      "Ġ×§×¨×Ļ": 6457,
      "Ġ×ŀ×ķ×¢×¦×ª": 6458,
      "Ġ×Ļ×ĵ×¢×ª×Ļ": 6459,
      "Ġ×©×Ķ×§": 6460,
      "Ġ×¡×¨×ĺ×Ł": 6461,
      "Ġ×ľ×ķ×Ĺ×ķ×ª": 6462,
      "Ġ×ĳ×¡×ĳ": 6463,
      "×ª×©": 6464,
      "Ġ×ª×¤×§": 6465,
      "Ġ×ķ×ĳ×Ľ×ľ×ľ": 6466,
      "Ġ×Ľ×Ļ×¡": 6467,
      "Ġ×ĳ×Ĺ×ĳ×¨×ª": 6468,
      "Ġ×¤×ľ×Ļ×ľ×Ļ": 6469,
      "Ġ×Ķ×ŀ×ľ×¦×Ķ": 6470,
      "×ĳ×§×Ķ": 6471,
      "Ġ×ŀ×Ĳ×Ĺ×ķ×¨": 6472,
      "69": 6473,
      "ĠGoogle": 6474,
      "Ġ×Ķ×¨×ķ×¤×Ĳ": 6475,
      "Ġ×ĺ×¨×ķ×¨": 6476,
      "×ķ×¢×¦×Ķ": 6477,
      "×Ĳ×£": 6478,
      "Ġ×Ķ×Ľ×ľ×Ľ×ľ×Ļ": 6479,
      "×ł×ª×ķ": 6480,
      "Ġ×§×ķ×ĳ×¢": 6481,
      "×ķ×¦×¨×ķ×ª": 6482,
      "Ġ×ŀ×Ĺ×§×¨×Ļ×Ŀ": 6483,
      "×ķ×ŀ×¨×Ļ": 6484,
      "Ġ×Ľ×£": 6485,
      "Ġ×ŀ×ŀ×¦": 6486,
      "Ġ×©×¨×ķ×¦×Ķ": 6487,
      "Ġ×Ķ×ķ×ł": 6488,
      "ide": 6489,
      "Ġ×ĳ×ł×Ķ": 6490,
      "Ġ×ľ×¦×¢": 6491,
      "Ġ×ĳ×¡×ĺ": 6492,
      "Ġ×Ľ×ª×Ļ×ĳ×Ķ": 6493,
      "×Ļ×ĺ×¨×Ļ×ł×Ĵ": 6494,
      "Ġ×ĵ×¨×Ľ": 6495,
      "Ġ×Ķ×Ľ×ª×ĳ×Ķ": 6496,
      "Ġ×ŀ×ª×¨×Ĺ": 6497,
      "×Ļ×§×£": 6498,
      "Ġ×ķ×¤×Ļ×ª×ķ×Ĺ": 6499,
      "Ġ×¢×©×ķ×Ļ×Ķ": 6500,
      "Ġ×ľ×ł×¦×Ĺ": 6501,
      "Ġ×Ķ×Ķ×ĸ": 6502,
      "×Ĳ×ĳ×Ļ×¡": 6503,
      "×ķ×¤×ķ×ľ×¨×Ļ×ķ×ª": 6504,
      "×ķ×¦×¥": 6505,
      "Ġ×Ĳ×ķ×¡": 6506,
      "×Ĳ×ŀ×¨×Ļ×Ŀ": 6507,
      "×Ĺ×ķ×ĳ×Ķ": 6508,
      "Ġ×ŀ×ĵ×ĵ": 6509,
      "×¤×¢×Ŀ": 6510,
      "Ġ×ĳ×ŀ×ķ×¡": 6511,
      "Ġ×Ĳ×Ĺ×ķ×ª": 6512,
      "×Ļ×Ļ×¦": 6513,
      "Ġ×ª×§×¦×Ļ×ĳ": 6514,
      "Ġ×ŀ×¡×ĳ×Ļ×¨": 6515,
      "×Ľ×Ĳ×Ł": 6516,
      "×§×¨×¨": 6517,
      "Ġ×¤×¡×Ļ×Ľ": 6518,
      "Ġ×ŀ×ł×¡×Ļ×Ŀ": 6519,
      "Ġ×Ķ×§×ķ×ŀ": 6520,
      "Ġ×ĳ×¨×Ĳ×©×Ļ×ª": 6521,
      "Ġ×ŀ×¨×Ł": 6522,
      "Ġ×ŀ×ĸ×Ľ×Ļ×¨": 6523,
      "Ġ×¢×Ļ×ª×ķ×ł": 6524,
      "Ġ×¢×©×ķ×Ļ×Ļ×Ŀ": 6525,
      "Ġ×Ĳ×ľ×Ļ×ŀ×ķ×ª": 6526,
      "Ġ×ŀ×Ĺ×ľ×§×ª": 6527,
      "Ġ×ª×Ĳ×ķ×¨×Ķ": 6528,
      "Ġ×Ķ×ŀ×Ľ×©×Ļ×¨": 6529,
      "Ġ×ľ×©×ł×Ķ": 6530,
      "Ġ×ª×Ļ×¨": 6531,
      "×¤×¢×ŀ×Ļ×Ŀ": 6532,
      "Ġon": 6533,
      "Ġ×ľ×Ķ×¨×Ĳ×ķ×ª": 6534,
      "×Ķ×ŀ×Ĺ": 6535,
      "Ġ×§×ł×Ļ×ķ×ª": 6536,
      "Ġ×ľ×¢×ł×ķ×ª": 6537,
      "×Ķ×©×Ľ×¨×ª": 6538,
      "×¤×ķ×¨×ķ×Ŀ": 6539,
      "Ġ×§×¨×Ļ×Ļ×ª": 6540,
      "×©×ĳ×ķ×ª": 6541,
      "Ġ×ľ×§×Ĺ": 6542,
      "2016": 6543,
      "Ġ×Ķ×¤×¨×ĺ×Ļ": 6544,
      "Ġ×ł×Ĺ×ľ": 6545,
      "Ġ×§×¨×§×¢": 6546,
      "ong": 6547,
      "Ġ×ĳ×ĳ×ª": 6548,
      "Ġ×ĳ×Ķ×Ľ×¨×Ĺ": 6549,
      "Ġ×Ļ×¨×Ļ×ĵ×Ķ": 6550,
      "×Ķ×Ļ": 6551,
      "Ġ×Ķ×ľ×Ļ×ļ": 6552,
      "×¦×Ļ×§×ľ×ķ×¤×ĵ×Ļ×Ķ": 6553,
      "Ġ×Ķ×ķ×Ĺ": 6554,
      "Ġ×ĳ×¨×Ľ×Ķ": 6555,
      "Ġ×¡×Ļ×ĳ×ķ×ª": 6556,
      "Ġ×Ĺ×ķ×¡": 6557,
      "×Ĳ×ł×Ĳ": 6558,
      "Ġ×©×Ĳ×ŀ×¨": 6559,
      "Ġ×Ķ×©×Ľ": 6560,
      "ative": 6561,
      "Ġ×ª×ķ×Ŀ": 6562,
      "Ġ×¡×ļ": 6563,
      "Ġ×ŀ×Ķ×Ļ×¨×ķ×ª": 6564,
      "Ġ×Ķ×©×Ļ×ķ×ķ×§": 6565,
      "×Ĺ×§×¨×Ļ×Ŀ": 6566,
      "Ġ×¦×ŀ×ķ×ĵ": 6567,
      "Ġ×Ķ×ĵ×ľ×ª": 6568,
      "Ġ×§×©×ķ×¨×Ļ×Ŀ": 6569,
      "Ġ×Ķ×¢×ķ×ĳ×ĵ": 6570,
      "Ġ×¢×ķ×ĳ×¨×Ļ×Ŀ": 6571,
      "Ġ×ª×ŀ×¨": 6572,
      "Ġ×¢×ŀ×Ļ×ĵ": 6573,
      "Ġ×Ķ×Ĵ×Ļ×ľ": 6574,
      "×ķ×¤×ķ×ľ×¨×Ļ": 6575,
      "Ġ×¦×¨×ķ": 6576,
      "Ġ×ŀ×Ľ×Ŀ": 6577,
      "Ġ×ł×§×Ļ": 6578,
      "Ġ×Ķ×ĳ×Ļ": 6579,
      "Ġ×¢×ł×Ļ×Ļ×ł×Ļ×Ŀ": 6580,
      "ĠBus": 6581,
      "Ġ×Ľ×Ļ×Ľ×¨": 6582,
      "Ġ×¢×¦×ŀ×Ĳ": 6583,
      "×¤×¢×ķ×ľ": 6584,
      "×Ļ×¢×¥": 6585,
      "×ĳ×¨×Ļ×Ķ": 6586,
      "Ġ×Ľ×Ĺ×ķ×ľ": 6587,
      "Ġ×©×ª×§": 6588,
      "×ª×ª": 6589,
      "Ġ×ŀ×©×ª×ł×Ķ": 6590,
      "Ġ×Ķ×ŀ×ķ×¡×ĵ": 6591,
      "Ġ×ł×ķ×Ĺ×Ķ": 6592,
      "×ŀ×¨×Ķ": 6593,
      "Ġ×ŀ×ŀ×ķ×¦×¢": 6594,
      "Ġ×ľ×¤×§": 6595,
      "Ġ×ŀ×ª×ł×ķ×ª": 6596,
      "rael": 6597,
      "×ķ×Ļ×Ļ×§": 6598,
      "×Ķ×ĵ×¤×¡×Ķ": 6599,
      "×ķ×¨×ĵ×¤×¨×¡": 6600,
      "':": 6601,
      "Ġ×Ķ×©×ł×Ļ×Ķ": 6602,
      "Ġ×Ķ×ĳ×ł×Ļ×Ļ×Ķ": 6603,
      "Ġ×ĳ×Ĵ×ĵ×Ļ×Ŀ": 6604,
      "Ġ×ĳ×©×ķ×Ŀ": 6605,
      "Ġ×ĳ×ª×Ĺ×ĳ×ķ×¨×Ķ": 6606,
      "âĢĭ": 6607,
      "Ġ×ľ×©×Ļ×ł×ķ×Ļ": 6608,
      "Ġ×ª×¢×ķ×ĵ×ª": 6609,
      "Ġ×ŀ×§×ķ×ŀ×Ļ×ª": 6610,
      "Ġ×ĳ×ª×Ĺ×ķ×ŀ×Ļ": 6611,
      "Ġ×¡×ķ×Ĵ×Ļ×Ŀ": 6612,
      "Ġ×ŀ×Ļ×ķ×Ĺ×ĵ×ķ×ª": 6613,
      "Ġ×Ķ×¤×¨×§": 6614,
      "Ġ×Ķ×¢×¡×§×Ļ×Ŀ": 6615,
      "Ġ×ľ×Ķ×ª×Ļ×Ļ×Ĺ×¡": 6616,
      "Ġ×ĳ×ŀ×©×§×ľ": 6617,
      "ĠCh": 6618,
      "×ķ×ľ×ł×ķ": 6619,
      "Ġ×ľ×Ĳ×Ļ": 6620,
      "Ġ×ľ×ĸ×¨": 6621,
      "Ġ×ķ×Ľ×Ĳ×©×¨": 6622,
      "Ġ×Ķ×ŀ×©×ª": 6623,
      "Ġ×Ķ×ĺ×Ļ×¤": 6624,
      "Ġ×Ľ×Ĳ×Ĺ×ĵ": 6625,
      "Ġ×Ķ×§×¨×ķ×ĳ×Ķ": 6626,
      "Ġ×Ķ×§×¨×Ļ×Ĳ×Ķ": 6627,
      "Ġ×ĸ×Ķ×ķ×ª": 6628,
      "×Ļ×¡×¨": 6629,
      "Ġ×Ĳ×ķ×Ľ": 6630,
      "Ġ×Ĵ×ĳ×Ļ×ł×Ķ": 6631,
      "×Ĺ×ķ×¨×ª": 6632,
      "Ġ×ĳ×ĺ×Ļ×¤×ķ×ľ": 6633,
      "Ġ×Ĵ×Ļ": 6634,
      "Ġ×ł×¤×Ĵ×¢": 6635,
      "×©×ĳ×Ļ×Ŀ": 6636,
      "Ġ2006": 6637,
      "Ġ×ŀ×ķ×ł×Ķ": 6638,
      "×ķ×Ľ×ł×ª": 6639,
      "×ł×ĵ×Ļ": 6640,
      "Ġ×Ĺ×ķ×¤×©×Ļ×ª": 6641,
      "×Ĺ×Ł": 6642,
      "×ľ×Ļ×ŀ×ķ×ĵ×Ļ": 6643,
      "Ġ×¢×ľ×Ļ×Ļ": 6644,
      "Ġ×ŀ×ĳ×ł×Ļ": 6645,
      "Ġ×Ķ×¢×Ļ×ł×Ļ×Ļ×Ŀ": 6646,
      "Ġ×Ķ×©×ķ×ķ×Ĳ×ª": 6647,
      "Ġ×ŀ×¨×ĵ×Ľ×Ļ": 6648,
      "×ł×ķ×¢×ķ×ª": 6649,
      "Ġ×Ķ×ŀ×§×ķ×¨": 6650,
      "Ġ×ĸ×ķ×Ľ×Ķ": 6651,
      "Ġ×¡×ŀ×ķ×ļ": 6652,
      "Ġ×Ķ×Ĳ×ŀ×Ļ×ª": 6653,
      "×©×ķ×Ŀ": 6654,
      "Ġ×¨×ĵ": 6655,
      "Ġ×Ķ×ĸ×ŀ×ł×Ķ": 6656,
      "Ġ×Ķ×ŀ×ĳ×ķ×§": 6657,
      "Ġ×Ķ×Ĳ×Ĺ×¨×Ļ×ķ×ª": 6658,
      "Ġ×¡×¨×Ĵ×ľ": 6659,
      "Ġ×ľ×Ĳ×ŀ": 6660,
      "Ġ×¡×ĺ×ĺ": 6661,
      "Ġ×ŀ×¨×Ĺ×§": 6662,
      "Ġ×ľ×ķ×ŀ×ĵ×Ļ×Ŀ": 6663,
      "Ġ×Ķ×ŀ×ĳ×ł×Ķ": 6664,
      "Ġ×ĺ×ķ×¤×¡": 6665,
      "×ķ×ŀ×Ĳ": 6666,
      "Ġ×ŀ×ĺ×Ķ": 6667,
      "×ŀ×ŀ×©": 6668,
      "×ĳ×¢×ľ": 6669,
      "Ġ×ŀ×Ķ×Ķ": 6670,
      "Ġ×ŀ×©×Ľ": 6671,
      "Ġ×ŀ×ķ×¡×Ļ×¤×Ļ×Ŀ": 6672,
      "Ġ×Ķ×ľ×ļ": 6673,
      "Ġ×§×Ļ×ĳ×ľ×ķ": 6674,
      "Ġ×Ķ×ĳ×ŀ×Ķ": 6675,
      "×Ľ×ł×¡×ķ×ª": 6676,
      "×¡×Ļ×¤×ķ×¨": 6677,
      "Ġ×ª×§×ĳ×ľ×ķ": 6678,
      "×Ļ×Ľ×ķ×ľ×ķ×ª": 6679,
      "Ġ×¤×ª×Ļ×Ĺ×Ķ": 6680,
      "Ġ×Ĺ×©×©": 6681,
      "Ġ×ŀ×¡×ľ": 6682,
      "×Ľ×ŀ×ª": 6683,
      "×ľ×ķ×Ĵ": 6684,
      "Ġ×ĵ×¢×ª×ķ": 6685,
      "Ġ×¨×©×ķ×ŀ×ķ×ª": 6686,
      "Ġ×©×Ķ×ª×Ĺ": 6687,
      "Ġ×ĳ×Ĺ×ķ×¨": 6688,
      "×ľ×ķ×ķ×Ļ×Ŀ": 6689,
      "Ġ×ľ×Ĳ×Ł": 6690,
      "ix": 6691,
      "Ġ×ŀ×ĸ×¨": 6692,
      "×Ĳ×ŀ×ª": 6693,
      "×ķ×ª×§": 6694,
      "×ľ×¨": 6695,
      "Ġ×Ķ×Ĳ×¦": 6696,
      "×Ĳ×ĳ×Ļ×Ŀ": 6697,
      "Ġ×¨×ķ×ĺ": 6698,
      "Ġ×¢×ľ×Ļ×ķ×Ł": 6699,
      "Ġ×ŀ×Ĵ×Ł": 6700,
      "Ġ×Ķ×©×ľ×Ļ×ĺ×Ķ": 6701,
      "×ķ×Ĵ×Ŀ": 6702,
      "Ġ×ŀ×ª×ķ": 6703,
      "Ġ×¨×Ĺ×¦×Ķ": 6704,
      "×Ĳ×Ļ×©": 6705,
      "Ġ×Ķ×ŀ×©×Ļ×ĳ": 6706,
      "Ġ×¨×ķ×Ľ": 6707,
      "75": 6708,
      "Ġ×Ķ×Ĳ×ķ×ł×Ļ×ĳ×¨×¡×Ļ×ĺ×Ķ": 6709,
      "Ġ×Ĳ×¤×§×ĺ": 6710,
      "Ġ×ŀ×Ĳ×¡×¨": 6711,
      "Ġ×ĵ×ķ×¨×©": 6712,
      "Ġ×ĸ×¨×Ļ×Ŀ": 6713,
      "Ġ×ĳ×Ļ×ľ×ķ×Ļ": 6714,
      "Ġ×Ĳ×Ļ×ĺ×ľ×Ļ×Ķ": 6715,
      "Ġ×¤×Ĺ×ĵ": 6716,
      "Ġ×¢×ŀ×ĵ×Ķ": 6717,
      "Ġ×Ķ×©×Ļ×¨×Ļ×Ŀ": 6718,
      "Ġ×ŀ×ŀ×ķ×§": 6719,
      "Ġ×ķ×ĳ×¢×ľ×Ļ": 6720,
      "Ö¸Ö": 6721,
      "×ķ×©×ļ": 6722,
      "Ġ×ŀ×©×ķ×ª×¤×ª": 6723,
      "ass": 6724,
      "×Ļ×Ĳ×¨": 6725,
      "Ġ×Ķ×ŀ×Ĺ×ķ×ĸ×Ļ": 6726,
      "Ġ×ŀ×ŀ×ľ×Ļ×¦×Ļ×Ŀ": 6727,
      "Ġ×Ľ×¤×ķ×ª": 6728,
      "×Ĳ×ľ×ķ": 6729,
      "Ġ×©×ķ×¨": 6730,
      "Ġ×Ķ×Ĺ×ľ×ĺ×ª": 6731,
      "Ġ×ŀ×Ĳ×ŀ×Ļ×ł×Ļ×Ŀ": 6732,
      "Ġ×ĳ×©×¤×ķ×ª": 6733,
      "ebook": 6734,
      "Ġ×Ķ×ª×Ĺ×ĳ×¨": 6735,
      "×ķ×¨×Ļ×Ļ×ª": 6736,
      "Ġ×¨×ķ×¡×Ļ×Ķ": 6737,
      "×Ĺ×ĳ×¨": 6738,
      "Ġ×Ĺ×ĳ×¨×ª×Ļ×ķ×ª": 6739,
      "×ŀ×Ļ×§×ķ×ŀ×ļ": 6740,
      "Ġ×Ĵ×ķ×©": 6741,
      "Ġ×ĳ×ŀ×Ĺ×Ļ×¨×Ļ×Ŀ": 6742,
      "Ġ×¡×Ĵ×ł×ķ×Ł": 6743,
      "Ġ×Ķ×ŀ×Ľ×¨": 6744,
      "Ġ×©×ŀ×Ļ×Ŀ": 6745,
      "×ł×ķ×©×Ĳ": 6746,
      "Ġ×ľ×Ľ×ĳ×ķ×ĵ": 6747,
      "Ġ×Ķ×©×¨×Ĳ×Ķ": 6748,
      "Ġ×¨×Ĺ×ĳ×Ļ": 6749,
      "Ġ×Ķ×ª×Ļ×§": 6750,
      "Ġ×ª×Ļ×Ĳ×ĺ×¨×ķ×Ł": 6751,
      "×Ķ×ŀ×ľ×ķ×Ł": 6752,
      "Ġ×§×¡": 6753,
      "×Ļ×¢×Ļ×ª": 6754,
      "Ġ×©×¤×ķ×ª": 6755,
      "Ġ×ŀ×Ĺ×ŀ": 6756,
      "Ġ×ĸ×Ļ×Ľ×¨×ķ×Ł": 6757,
      "Ġ×ĸ×Ľ×Ĳ×Ļ": 6758,
      "Ġ×Ķ×ŀ×¢×¨×ĳ×Ļ": 6759,
      "Ġ×Ļ×¢×Ļ×ľ": 6760,
      "×Ĳ×ķ×ĺ": 6761,
      "Ġ×ľ×Ķ×ķ×Ľ×Ļ×Ĺ": 6762,
      "Ġ×ľ×ŀ×©×ª×ŀ×©": 6763,
      "×§×Ļ×¨×Ķ": 6764,
      "Ġ×Ľ×ľ×Ķ": 6765,
      "Ġ×ŀ×Ļ×ŀ×ķ×Ł": 6766,
      "Ġ×ķ×¢×Ľ×©×Ļ×ķ": 6767,
      "Ġ×Ĵ×Ĵ": 6768,
      "Ġ×¤×¨×Ļ×ĺ×Ļ×Ŀ": 6769,
      "Ġ×ľ×ŀ×©×¨×ĵ": 6770,
      "Ġ×§×¦×ĳ": 6771,
      "×Ļ×¡×ĺ×Ļ×§×Ķ": 6772,
      "Ġ×Ĳ×¦×ľ×Ļ": 6773,
      "Ġ×Ĵ×ķ×ľ×Ł": 6774,
      "×¤×ľ×ª": 6775,
      "Ġ×Ķ×§×©×Ķ": 6776,
      "×Ļ×ł×Ķ×ľ": 6777,
      "×ł×ķ×©×Ĳ×Ļ×Ŀ": 6778,
      "Ġ×ĵ×Ĵ×©": 6779,
      "×ķ×Ķ×ķ": 6780,
      "×ľ×ķ×Ļ×Ķ": 6781,
      "Ġ×ľ×ĳ×Ĺ×Ļ×¨×ª": 6782,
      "Ġ×ŀ×§×ĳ": 6783,
      "Ġ×ŀ×Ĺ×Ļ×¨×Ļ": 6784,
      "Ġ×ķ×ľ×¤": 6785,
      "Ġ×ľ×ĵ×Ĳ×ķ×Ĵ": 6786,
      "Ġ×ł×ķ×Ĺ×ķ×ª": 6787,
      "Ġ×ł×ķ×Ĵ": 6788,
      "Ġ×Ķ×¢×¨×ļ": 6789,
      "Ġ×Ĳ×ľ×ĳ×ķ×Ŀ": 6790,
      "Ġ×Ķ×¤×ķ×¨": 6791,
      "Ġ×©×ŀ×§": 6792,
      "Ġ×ł×ĳ×ł×Ķ": 6793,
      "Ġ×ľ×Ķ×ª×Ĺ×ĳ×¨": 6794,
      "Ġ×ĺ×Ľ×ł×ķ×ľ×ķ×Ĵ×Ļ×Ķ": 6795,
      "Ġ×Ķ×ŀ×¦×ľ": 6796,
      "Ġ×Ķ×Ľ×ľ×ľ×Ļ": 6797,
      "Ġ×§×©×ķ×ª": 6798,
      "Ġ×ª×Ĺ×ł×Ķ": 6799,
      "ĠHotels": 6800,
      "Ġ×ľ×Ķ×©×ª×ª×£": 6801,
      "Ġ×ł×Ķ×Ļ×Ĵ×Ķ": 6802,
      "Ġ×ľ×Ĺ×ĳ×¨×ķ×ª": 6803,
      "Ġ×Ļ×Ĵ×Ļ×¢": 6804,
      "ev": 6805,
      "Ġ×Ļ×ķ×ĳ×ľ": 6806,
      "Ġ×ľ×Ĳ×ķ": 6807,
      "×¡×Ļ×ª": 6808,
      "×ĳ×¡×ķ×£": 6809,
      "×Ļ×Ķ×ķ×ĺ": 6810,
      "Ġ×Ĺ×©×ĳ×ķ×ł×ķ×ª": 6811,
      "Ġ×Ĺ×Ļ×Ļ×ľ×Ļ×Ŀ": 6812,
      "Ġ×Ļ×ķ×Ĺ": 6813,
      "Ġ×ŀ×Ľ×ª": 6814,
      "Ġ×Ķ×ŀ×§×ĵ×©": 6815,
      "×Ľ×ŀ×ķ×ª": 6816,
      "Ġ×ľ×ŀ×¡×¤×¨": 6817,
      "×ĳ×Ļ×§": 6818,
      "×ĵ×ŀ×ł×ķ×Ļ×ķ×ª": 6819,
      "Ġ×Ķ×¨×©×ŀ×Ļ": 6820,
      "Ġ×ĳ×Ĵ×ķ×ĳ×Ķ": 6821,
      "Ġ×ķ×ł×¡": 6822,
      "Ġ×ŀ×ª×Ĳ×¨": 6823,
      "Ġ×ĳ×ŀ×ķ×¢×ĵ": 6824,
      "ĠâĢĺ": 6825,
      "Ġ×Ķ×¨×ĳ×Ļ": 6826,
      "Ġ×Ķ×¨×Ļ×ķ×Ł": 6827,
      "Ġ×ľ×Ļ×ľ×ķ×ª": 6828,
      "×ĳ×ł×ķ": 6829,
      "Ġ×ķ×ł×Ļ×Ķ×ķ×ľ": 6830,
      "Ġ×Ķ×¦×ĳ×¢": 6831,
      "Ġ×Ļ×¤×Ļ×Ŀ": 6832,
      "Ġ×©×§×¨": 6833,
      "×Ĵ×Ļ×©×Ķ": 6834,
      "Ġ×¡×ĵ×ł×Ĳ×ķ×ª": 6835,
      "pl": 6836,
      "acebook": 6837,
      "Ġ×Ķ×Ĳ×ĵ×ŀ×Ķ": 6838,
      "Ġ×Ķ×ĳ×Ł": 6839,
      "Ġ×ª×Ļ×Ĳ×ķ×¨": 6840,
      "AR": 6841,
      "×Ĺ×©×ĳ": 6842,
      "×Ĺ×ª×Ŀ": 6843,
      "Ġ×ĳ×ķ×Ĵ×¨": 6844,
      "Ġ×ŀ×Ĺ×ĸ×ķ×¨": 6845,
      "Ġ×Ķ×Ĳ×ľ×ĳ×ķ×Ŀ": 6846,
      "×Ĳ×¨×ķ": 6847,
      "Ġ×Ķ×Ĳ×Ļ×ŀ": 6848,
      "Ġ×©×ķ×ª×¤×Ļ×Ŀ": 6849,
      "Ġ×¢×¦×ŀ×ł×ķ": 6850,
      "Ġ×Ļ×ķ×ľ×Ļ": 6851,
      "×Ļ×Ĺ×Ļ": 6852,
      "×¨×Ĵ×Ł": 6853,
      "Ġ×Ķ×¢×¨×ķ×ª": 6854,
      "×©×ª×ª×¤×Ļ×Ŀ": 6855,
      "Ġ×Ķ×ł×Ľ×ķ×ł×Ķ": 6856,
      "Ġ×ŀ×ķ×ĳ×Ļ×ľ": 6857,
      "Ġ×ĳ×¢×Ļ×Ļ×ª": 6858,
      "Ġ×Ķ×Ľ×ľ×ľ": 6859,
      "×Ľ×©×Ļ×ĺ×Ļ×Ŀ": 6860,
      "Ġ×Ĳ×ŀ×ĳ×ĺ×Ļ×Ķ": 6861,
      "×¢×ĵ×ķ×ª": 6862,
      "Ġ×©×Ļ×ĺ×ķ×ª": 6863,
      "Ġ×ĺ×Ļ×¤×ķ×ľ×Ļ×Ŀ": 6864,
      "×Ļ×ĸ×Ļ": 6865,
      "Ġ×¡×Ļ×ķ×¢": 6866,
      "een": 6867,
      "Ġ×ķ×¢×Ļ×¦×ķ×ĳ": 6868,
      "Ġ×ŀ×ķ×ŀ×Ĺ×Ļ×Ŀ": 6869,
      "Ġ×Ļ×©×Ł": 6870,
      "Ġ×Ķ×Ĺ×ĳ×¨×ª×Ļ×ª": 6871,
      "×ĥ": 6872,
      "46": 6873,
      "×ĳ×¨×Ļ×Ĳ×ķ×ª": 6874,
      "Ġ×Ĳ×ĳ×ķ": 6875,
      "×ķ×§×ķ×ľ": 6876,
      "Ġ×¤×¨×¡×Ŀ": 6877,
      "Ġ×ĵ×Ĵ×Ļ×Ŀ": 6878,
      "×ĳ×ª×Ŀ": 6879,
      "Ġ×ł×ķ×ª×ł×Ļ×Ŀ": 6880,
      "ĠOf": 6881,
      "×¤×¨×ķ×¤": 6882,
      "Ġ×Ķ×§×ĵ×ķ×©": 6883,
      "×Ļ×Ľ×ľ×ķ×ª": 6884,
      "Ġ×Ķ×©×ł×Ļ×Ļ×Ŀ": 6885,
      "int": 6886,
      "Ġ×Ĺ×ľ×§×Ŀ": 6887,
      "Ġ×§×Ķ×Ļ×ľ×ª": 6888,
      "×Ĺ×ª×ķ×ł×Ķ": 6889,
      "Ġ×Ķ×ľ×Ļ×ĵ×Ķ": 6890,
      "Ġ×©×Ĳ×Ļ×ł": 6891,
      "Ġ×ł×ŀ×¦×Ĳ×ķ": 6892,
      "42": 6893,
      "Ġ×Ķ×ł×Ľ×¡": 6894,
      "Ġ×Ķ×©×Ĳ×ľ×ķ×ª": 6895,
      "Ġ×Ĳ×ķ×¡×ĺ×¨": 6896,
      "Ġ×©×Ļ×©×ł×Ŀ": 6897,
      "Ġ×ł×¦×Ļ×Ĵ": 6898,
      "Ġ×Ķ×ŀ×ķ×ĸ×Ļ×§×Ķ": 6899,
      "Ġ×ĳ×©×Ļ×ŀ×ķ×©": 6900,
      "Ġ×©×ĳ×ĺ": 6901,
      "Ġ×ķ×Ļ×¨×ĺ": 6902,
      "×Ĳ×Ļ×ķ×ª": 6903,
      "Ġ×Ļ×Ļ×Ĺ×ķ×ĵ×Ļ×ª": 6904,
      "Ġ×Ķ×ŀ×©×Ĺ×§×Ļ×Ŀ": 6905,
      "×¦×ľ×ķ×ł×Ķ": 6906,
      "Ġ×Ķ×ł×Ķ×ľ×ª": 6907,
      "Ġ×Ķ×ŀ×¡×ľ×ķ×ľ": 6908,
      "Ġ×Ļ×¨×ĵ": 6909,
      "Ġ×ŀ×¦×ķ×Ļ×Ļ×Ł": 6910,
      "Ġ×Ļ×Ļ×Ĺ×ķ×¡": 6911,
      "Ġ×ķ×Ĳ×Ļ×ł×ķ": 6912,
      "×ĳ×Ĺ×Ļ×Ŀ": 6913,
      "Ġ×ĳ×ŀ×§×ķ×¨": 6914,
      "Ġ×Ķ×ª×¨×Ĺ": 6915,
      "Ġ×Ĳ×Ļ×¡×ķ×¨": 6916,
      "×Ľ×©×Ķ": 6917,
      "az": 6918,
      "×ĳ×ĺ×Ĳ": 6919,
      "×Ļ×ľ×Ł": 6920,
      "Ġ×ľ×¢×Ļ×¦×ķ×ĳ": 6921,
      "Ġ×ľ×Ĳ×Ĺ": 6922,
      "×ĸ×Ľ×ķ×Ļ×ķ×ª": 6923,
      "Ġ×¨×¦×Ķ": 6924,
      "×ł×Ĳ×Ķ": 6925,
      "Ġ×Ķ×§×¨×ĳ": 6926,
      "Ġk": 6927,
      "Ġ×Ļ×¢×©×Ķ": 6928,
      "×ł×ĵ×¡": 6929,
      "×ł×Ļ×ĺ": 6930,
      "×©×¨×Ļ": 6931,
      "Ġ×ķ×Ķ×Ĺ×ľ": 6932,
      "×¤×ł×Ķ": 6933,
      "Ġ×Ķ×Ķ×Ļ×¡×ĺ": 6934,
      "Ġ×Ļ×ķ×©×ĳ": 6935,
      "Ġ×¢×ŀ×Ļ×ª": 6936,
      "Ġ×ŀ×Ĺ×ĳ×¨": 6937,
      "Ġ×ĺ×ķ×ķ×Ĺ": 6938,
      "Ġ×ĳ×Ĳ×ĳ": 6939,
      "×ł×ĺ×ľ": 6940,
      "Ġ×ľ×Ļ×©": 6941,
      "Ġ×©×ľ×ľ": 6942,
      "Ġ×ĸ×Ľ×ª×Ķ": 6943,
      "Ġ×ª×ķ×¤": 6944,
      "Ġ×¨×¦×Ļ×£": 6945,
      "Ġ×ŀ×ĵ×¢×Ļ": 6946,
      "Ġ×Ļ×ŀ×Ļ×Ł": 6947,
      "×ķ×©×ĳ×ª": 6948,
      "×ŀ×¢×ĳ×¨": 6949,
      "Ġ×¤×¦": 6950,
      "Ġ×ŀ×©×ł×Ļ": 6951,
      "Ġ×ķ×ŀ×ĺ": 6952,
      "Ġ×ĳ×ĳ×ľ": 6953,
      "Ġ×¡×Ļ×ł": 6954,
      "Ġ×ĳ×¨×Ļ×ª": 6955,
      "×¡×§×¨": 6956,
      "Ġ×Ķ×ŀ×§×¦×ķ×¢×Ļ": 6957,
      "×¡×¤": 6958,
      "Ġ×¢×ķ×ľ×Ļ×Ŀ": 6959,
      "Ġ×¨×ķ×Ĺ×ł×Ļ": 6960,
      "Ġ×ľ×Ļ×ĳ×¨": 6961,
      "Ġ×ŀ×ł×ķ×¢": 6962,
      "Ġ×ŀ×ª×Ĺ×Ŀ": 6963,
      "Ġ×ŀ×¡×ķ×¨×ª": 6964,
      ",\"": 6965,
      "Ġ×Ķ×©×Ĺ×§×ł×Ļ×Ŀ": 6966,
      "Ġ×ķ×Ĳ×Ĺ×¨×Ļ": 6967,
      "Ġ×Ķ×ĵ×Ļ×Ĵ": 6968,
      "Ġ×§×©×Ļ×Ŀ": 6969,
      "Ġ×ŀ×¡×¤×§×Ļ×Ŀ": 6970,
      "×¤×ĺ×Ļ×Ŀ": 6971,
      "Ġ×Ķ×¨×Ĵ×¢": 6972,
      "×¨×ĺ×Ļ": 6973,
      "Ġ×Ķ×Ĵ×ĸ": 6974,
      "Ġ×Ķ×ł×Ļ×ª×ķ×Ĺ": 6975,
      "Ġ×ĳ×§×©×ª": 6976,
      "Ġ×Ķ×ĺ×Ļ×ķ×ľ": 6977,
      "Ġ×©×ª×Ķ×Ļ×Ķ": 6978,
      "×Ļ×¤×Ļ×ķ×ª": 6979,
      "Ġ×¢×Ĵ×ĳ×ł×Ļ×ķ×ª": 6980,
      "×¤×¢×ľ×Ķ": 6981,
      "],": 6982,
      "Ġ×ŀ×ľ×ķ×ķ×Ķ": 6983,
      "Ġ×ĳ×§×ľ": 6984,
      "Ġ×Ķ×ķ×¤×¢×ķ×ª": 6985,
      "Ġ×ĳ×Ĳ×ł": 6986,
      "×ķ×ĳ×¦×Ļ": 6987,
      "Ġ×Ķ×¡×ĺ×ķ×ĵ×ł×ĺ×Ļ×Ŀ": 6988,
      "×Ĳ×ľ×Ļ×ª": 6989,
      "Ġ×ĳ×©×Ļ×¢×ķ×¨": 6990,
      "Ġ×¢×ĳ×¨×Ķ": 6991,
      "oc": 6992,
      "×Ķ×ķ×¨×ĵ×Ķ": 6993,
      "×Ĳ×ŀ×¥": 6994,
      "Ġ×ľ×Ķ×ķ×ĵ×ķ×ª": 6995,
      "Ġ×ĳ×Ķ×Ĵ": 6996,
      "×ķ×ª×Ł": 6997,
      "Ġ×ĳ×Ĺ×ķ×¨×Ķ": 6998,
      "×Ļ×§×ķ×ľ": 6999,
      "×ķ×ĺ×ķ×ª": 7000,
      "Ġ×ŀ×ª×Ĺ×Ļ×ľ×Ķ": 7001,
      "Ġ×ł×¨×Ĺ×ĳ": 7002,
      "Ġ×Ļ×¢×ľ×Ķ": 7003,
      "Ġ×Ķ×Ľ×ķ×ľ×ľ×ª": 7004,
      "Ġ×ĵ×ľ×ª×ķ×ª": 7005,
      "Ġ×ŀ×¨×¦": 7006,
      "Ġ×Ĳ×§×ĺ": 7007,
      "Ġ×ŀ×ĳ×ł×Ļ×Ŀ": 7008,
      "Ġ×ķ×Ĳ×ł×ķ": 7009,
      "Ġ×Ļ×ķ×ĸ": 7010,
      "Ġ×Ĵ×ĳ×ķ×ľ×ķ×ª": 7011,
      "Ġ×Ķ×Ĳ×Ķ": 7012,
      "×©×Ĺ×¨": 7013,
      "Ġ×Ķ×§×ĺ×ł×Ļ×Ŀ": 7014,
      "×ĵ×¨×ķ×Ŀ": 7015,
      "Ġ×Ķ×¢×ķ×ľ×ŀ×Ļ": 7016,
      "Ġ×Ķ×©×ľ×ĺ×ķ×Ł": 7017,
      "Ġ×ľ×ŀ×¨×Ľ×ĸ": 7018,
      "×§×ĺ×Ĵ×ķ×¨×Ļ×ķ×ª": 7019,
      "×¤×Ļ×Ĳ": 7020,
      "Ġ×ŀ×ŀ×¢": 7021,
      "×ķ×Ķ×ĳ": 7022,
      "Ġ×ŀ×¤×¢×ľ": 7023,
      "×ª×ķ×ķ×Ļ×ķ×ª": 7024,
      "Ġ×Ķ×ŀ×Ļ×ķ×Ĺ×ĵ": 7025,
      "Ġ×©×Ķ×Ķ": 7026,
      "Ġ×Ķ×§×ķ×ĵ×ŀ×ª": 7027,
      "Ġ×©×ķ×ľ×Ļ×Ļ×Ŀ": 7028,
      "×ª×©×¢": 7029,
      "Ġ×Ķ×§×ķ×ł": 7030,
      "×ŀ×¤×Ļ×Ļ×Ł": 7031,
      "ĠWindows": 7032,
      "Ġ×ĵ×Ļ×¡": 7033,
      "×ĳ×Ļ×ķ×ª": 7034,
      "Ġ×Ĺ×Ļ×Ļ×Ķ×Ŀ": 7035,
      "ng": 7036,
      "Ġ×ķ×§×¨": 7037,
      "×ŀ×©×Ļ×Ŀ": 7038,
      "Ġ×ľ×Ĺ×ª×ķ×ł×Ķ": 7039,
      "Ġ×ķ×Ķ×ľ": 7040,
      "Ġ×ľ×ŀ×Ľ×©×Ļ×¨×Ļ×Ŀ": 7041,
      "Ġ×¤×Ļ×¦×ķ×Ļ": 7042,
      "×ķ×ĳ×©": 7043,
      "Ġ×Ķ×ŀ×¢×ĳ×¨": 7044,
      "Ġ×Ķ×¤×ª×¨×ķ×Ł": 7045,
      "Ġ×ª×ª×§": 7046,
      "Ġ×Ķ×Ĳ×ŀ×ł×ķ×ª": 7047,
      "Ġ×ľ×¨×ĵ×ª": 7048,
      "Ġ×ŀ×Ĺ×ķ×ľ": 7049,
      "×¤×Ĳ×Ķ": 7050,
      "Ġ×¢×ľ×Ļ×Ļ×Ķ": 7051,
      "Ġ×Ĳ×Ļ×Ľ×ķ×ª×Ļ×Ļ×Ŀ": 7052,
      "Â´": 7053,
      "Ġ×ŀ×ĺ×¨×ķ×ª": 7054,
      "×ł×Ļ×¨": 7055,
      "Ġ×ł×¨×Ĳ×Ļ×ª": 7056,
      "Ġ×Ķ×¨×¦×ķ×Ł": 7057,
      "Ġ×Ķ×§×ĺ×ł×Ķ": 7058,
      "Ġ×Ķ×¤×Ķ": 7059,
      "Ġ×ł×©×ľ×Ĺ": 7060,
      "Ġ×ĳ×¡×ĳ×Ļ×ĳ×Ķ": 7061,
      "Ġ×ĳ×ª×Ĵ×ķ×ĳ×Ķ": 7062,
      "×ķ×ĳ×¥": 7063,
      "Ġ×ĳ×¨×Ĺ×ķ×ĳ×ķ×ª": 7064,
      "×Ĺ×Ļ×Ļ×Ķ": 7065,
      "×¤×ļ": 7066,
      "Ġ×ķ×Ĳ×Ĺ×ĵ": 7067,
      "Ġ×Ķ×ŀ×¡×ķ×¨×ª": 7068,
      "old": 7069,
      "×ķ×Ĳ×ľ×Ļ×ª": 7070,
      "Ġ×¢×¡×§×Ļ×Ļ×Ŀ": 7071,
      "Ġwww": 7072,
      "Ġ×¨×Ļ×Ĺ": 7073,
      "Ġ×©×ł×ŀ×¦×Ĳ": 7074,
      "Ġ×ľ×Ĺ×¡×ķ×ļ": 7075,
      "×Ľ×¡×ķ×ļ": 7076,
      "×ĵ×¨×Ļ": 7077,
      "Ġ×ŀ×ĸ×¨×Ĺ": 7078,
      "Ġ×ķ×ĳ×ŀ×§": 7079,
      "Ġ×ķ×Ļ×Ĳ": 7080,
      "Ġ×§×¨×Ŀ": 7081,
      "×Ļ×ĳ×©": 7082,
      "Ġ×ŀ×Ļ×ķ×ª×¨": 7083,
      "×ķ×ł×Ļ×Ļ×ł×Ļ×Ŀ": 7084,
      "Ġ×ľ×ª×ķ×Ĳ×¨": 7085,
      "Ġ×ĳ×Ĺ×ł×ķ×ª": 7086,
      "Ġ×ķ×Ķ×ª×§": 7087,
      "Ġ×Ķ×¤×ķ×¢×ľ×Ļ×Ŀ": 7088,
      "Ġ36": 7089,
      "Ġ×Ĺ×ª×ķ×ł×Ķ": 7090,
      "Ġ×Ľ×ĳ×Ļ×©": 7091,
      "Ġ×ŀ×ŀ×ľ×Ļ×¥": 7092,
      "Ġ×ĳ×¤×ł×Ļ×Ŀ": 7093,
      "59": 7094,
      "Ġ×ŀ×¡×ķ×Ļ": 7095,
      "Ġ×Ķ×¦×ľ": 7096,
      "×¨×Ĵ×©×ķ×ª": 7097,
      "ĠZ": 7098,
      "Ġ×¢×ľ×ķ×ľ×Ķ": 7099,
      "ian": 7100,
      "×ĳ×ĺ×Ĺ×Ķ": 7101,
      "Ġ×Ķ×¤×Ľ×ķ": 7102,
      "ĠCreative": 7103,
      "Ġ×ĵ×Ļ×ķ×¨": 7104,
      "Ġ×Ļ×©×ł×ķ": 7105,
      "Ġ×Ķ×©×Ļ×ĺ×Ķ": 7106,
      "Ġ×ķ×Ķ×ª×Ĺ": 7107,
      "Ġ×ŀ×¤×¡": 7108,
      "Ġ×Ķ×ł×ķ×Ľ×Ĺ": 7109,
      "Ġ×Ķ×ª×©×ľ×ķ×Ŀ": 7110,
      "×¤×¨×ª": 7111,
      "Ġ×ŀ×Ĺ×©×ĳ×Ķ": 7112,
      "Ġ×ľ×Ķ×ķ×ĳ×Ļ×ľ": 7113,
      "Ġ×ŀ×ķ×¤×¢": 7114,
      "Ġ×ª×Ĺ×ĳ×ķ×¨×Ķ": 7115,
      "Ġ×Ķ×ŀ×ĵ×Ļ×ł×ķ×ª": 7116,
      "Ġ×Ķ×ŀ×ĸ×¨×Ĺ": 7117,
      "Ġ×§×©×ª": 7118,
      "Ġ×¢×ķ×ĸ×¨": 7119,
      "Ġ×ĳ×¡×ķ×¤×¨": 7120,
      "Ġ×Ķ×Ķ×§": 7121,
      "Ġ32": 7122,
      "×Ļ×Ľ×Ĳ×ķ×Ł": 7123,
      "Ġ×©×§×ķ×¨×Ķ": 7124,
      "×Ļ×ķ×ł×ķ×ª": 7125,
      "Ö¶×ģ": 7126,
      "Ġ×ĵ×¨×Ľ×ķ": 7127,
      "×ª×Ļ×Ļ×©": 7128,
      "58": 7129,
      "Ġ×ķ×ĸ×ķ": 7130,
      "×Ķ×ĳ×Ķ×¨×Ķ": 7131,
      "Ġ×Ļ×ĵ×Ļ×Ļ×Ŀ": 7132,
      "Ġ×ł×ŀ×ľ": 7133,
      "×Ļ×¦×ĳ": 7134,
      "Ġ×Ķ×§×ķ×ĵ×©": 7135,
      "Ġ×¦×ĳ×Ĳ×Ļ": 7136,
      "Ġ×ª×ŀ×ķ×¨×ª": 7137,
      "Ġ×¨×ŀ×ķ×ª": 7138,
      "×ķ×¤×¡×ķ×¨": 7139,
      "Ġ×ĸ×Ľ×ķ×Ľ×Ļ×ª": 7140,
      "×Ľ×ĸ": 7141,
      "Ġ×ĳ×ŀ×Ļ×ľ×Ļ×Ŀ": 7142,
      "Ġ×ĳ×ŀ×ĸ×¨×Ĺ": 7143,
      "Ġ×ĳ×Ķ×¢": 7144,
      "×Ļ×ķ×ķ": 7145,
      "orn": 7146,
      "Ġ×Ķ×¢×ł×§": 7147,
      "Ġ×ĺ×Ļ×¡×ķ×ª": 7148,
      "Ġ×ł×ķ×ľ": 7149,
      "Ġ×ľ×Ķ×¤×¢×Ļ×ľ": 7150,
      "Ġ×©×ŀ×Ļ×¨×Ķ": 7151,
      "Ġ×Ķ×¨×©×ŀ×Ķ": 7152,
      "×ĳ×ķ×Ĳ×ķ": 7153,
      "Ġ×¢×¦×ķ×Ŀ": 7154,
      "×¢×ĳ×¨×Ļ×ª": 7155,
      "×ł×Ľ": 7156,
      "Ġ×Ķ×Ĺ×ľ×ĺ×ª×Ļ": 7157,
      "Ġ×ŀ×¤×ķ×¨×ĺ": 7158,
      "Ġ×ĵ×§×Ķ": 7159,
      "×¤×Ĵ×©": 7160,
      "Ġ×Ĳ×¨×Ĵ×ķ×ł×Ļ": 7161,
      "Ġ×ľ×¨×Ĳ": 7162,
      "Ġ×ĳ×Ĺ×ľ": 7163,
      "×ł×ľ": 7164,
      "Ġ×Ķ×¨×Ĳ×©×ķ×ł×ķ×ª": 7165,
      "Ġ×Ķ×ĳ×Ļ×Ł": 7166,
      "Ġ×ľ×ª×Ĵ×ķ×ĳ×ķ×ª": 7167,
      "Ġ×¦×ĳ": 7168,
      "Ġ×ŀ×Ķ×ľ": 7169,
      "Ġ×Ķ×ĳ×ł×Ļ×Ļ×Ł": 7170,
      "Ġ×Ķ×Ĳ×Ļ×Ľ×ķ×ª": 7171,
      "Ġ×ľ×Ķ×Ĳ×ŀ×Ļ×Ł": 7172,
      "Ġ×¢×ŀ×ķ": 7173,
      "×Ļ×ľ×ķ×¡": 7174,
      "×¢×ĸ": 7175,
      "×©×ł×Ķ": 7176,
      "line": 7177,
      "Ġ×Ķ×Ĺ×Ļ×¦": 7178,
      "Ġ×¡×Ĺ": 7179,
      "×¤×ĵ×¤×Ł": 7180,
      "Ġ×Ķ×Ľ×ĳ": 7181,
      "×ŀ×ľ×ķ×ľ": 7182,
      "×Ļ×¦×Ĺ×ķ×Ł": 7183,
      "Ġ×Ķ×Ľ×ľ×Ľ×ľ×Ķ": 7184,
      "Ġ×©×Ķ×Ĵ×Ļ×¢": 7185,
      "Ġ×¤×¨×ł×§": 7186,
      "Ġ×ª×Ĺ×ł×ª": 7187,
      "×Ļ×Ľ×ķ×ĵ": 7188,
      "Ġ×Ĺ×Ļ×¤": 7189,
      "Ġ×Ļ×ª×Ľ×Ł": 7190,
      "Ġ×©×ķ×ľ×Ĺ": 7191,
      "×ŀ×Ļ×Ļ×ľ": 7192,
      "Ġ×Ķ×ŀ×Ĺ×ľ×§×Ķ": 7193,
      "×Ļ×ł×¡×ĺ": 7194,
      "Ġ×ķ×Ķ×ł×Ķ": 7195,
      "Ġ×Ĵ×ľ×ķ×ĳ×¡": 7196,
      "×ĳ×ķ×ĵ×ª": 7197,
      "Ġ×Ĳ×ķ×ĺ×ķ×ŀ×ĺ×Ļ×ª": 7198,
      "Ġ×ĳ×Ĳ×ķ": 7199,
      "Ġ×Ķ×¤×¨×¡": 7200,
      "io": 7201,
      "×¢×ĵ×Ľ×Ł": 7202,
      "ĠÂ·": 7203,
      "×Ĺ×Ļ×ķ×ª": 7204,
      "Ġ×ĳ×ª×Ĺ×ķ×ŀ×Ļ×Ŀ": 7205,
      "Ġ×ĺ×Ļ×¤×ķ×ľ×Ļ": 7206,
      "Ġ×©×ľ×ĺ": 7207,
      "Ġ×ľ×¤×Ļ×ª×ķ×Ĺ": 7208,
      "×ł×ļ": 7209,
      "wik": 7210,
      "ree": 7211,
      "Ġ×Ĳ×ķ×Ĵ×ķ×¡×ĺ": 7212,
      "Ġ×Ķ×¨×ľ×ķ": 7213,
      "Ġ×ŀ×©×¨×ĵ×Ļ": 7214,
      "×Ķ×©×ķ×ķ×Ĳ×ª": 7215,
      "icros": 7216,
      "Ġ×ŀ×Ĵ×ľ×Ķ": 7217,
      "Ġ×ķ×ľ×Ľ×ľ": 7218,
      "×Ĳ×ľ×ķ×Ł": 7219,
      "Ġ×¢×ĳ×Ļ×¨×ķ×ª": 7220,
      "Ġ×ľ×ª×§×ķ×¤×Ķ": 7221,
      "×ķ×§×¨×ª×Ļ": 7222,
      "×ĳ×Ļ×¢": 7223,
      "×ĺ×¨×ķ": 7224,
      "Ġ×ľ×Ļ×Ŀ": 7225,
      "×¢×ĳ×ķ×ĵ×Ķ": 7226,
      "Ġ×Ķ×Ķ×ĸ×ŀ×ł×Ķ": 7227,
      "\"),": 7228,
      "Ġ×Ĺ×ł×Ķ": 7229,
      "Ġ×ľ×¤×ª×ķ×¨": 7230,
      "×¤×ķ×ĸ": 7231,
      "Ġ×ľ×Ĺ×Ľ×ķ×ª": 7232,
      "Ġ×©×ł×Ļ×Ķ×Ŀ": 7233,
      "Ġ×ĳ×§×ĳ×ķ×¦×Ķ": 7234,
      "Ġ×ľ×Ķ×¦×ľ×Ĺ×Ķ": 7235,
      "×ŀ×¦×Ŀ": 7236,
      "Ġ×ĳ×ĵ×¤×Ļ×Ŀ": 7237,
      "Ġ2005": 7238,
      "Ġ×ľ×Ľ×ª×ĳ×Ķ": 7239,
      "×ķ×ĳ×Ĳ": 7240,
      "Ġ×©×ľ×Ĳ×Ĺ×¨": 7241,
      "Ġ×ľ×¨×Ĵ×ľ": 7242,
      "Ġ×ª×§×Ļ×Ł": 7243,
      "×ĳ×Ļ×¨×ķ": 7244,
      "×ł×ĺ×Ļ×ķ×ª": 7245,
      "×Ļ×ĺ×¨×Ķ": 7246,
      "Ġ×Ķ×ĳ×Ļ×Ĳ": 7247,
      "41": 7248,
      "Ġ×ľ×Ķ×©×¤×Ļ×¢": 7249,
      "Ġ×ŀ×ª×§×Ļ": 7250,
      "%.": 7251,
      "Ġ×ĳ×ŀ×Ľ": 7252,
      "×Ĺ×ľ×ĺ×ķ×ª": 7253,
      "Ġ×¢×Ļ×ķ×Ł": 7254,
      "×ĵ×¨×Ĵ": 7255,
      "Ġ×Ĳ×ķ×ĺ×ķ×ŀ×ĺ×Ļ": 7256,
      "Ġ×ĳ×Ķ×§×©×¨": 7257,
      "Ġ×ŀ×¦×¨": 7258,
      "Ġ×§×ķ×ĳ×¥": 7259,
      "The": 7260,
      "×§×¤×Ļ×¦×Ķ": 7261,
      "Ġ×§×Ļ×ĳ×ķ×¥": 7262,
      "Ġ×¡×ķ×ķ": 7263,
      "×ł×ĳ×¨×Ĵ": 7264,
      "×¤×Ļ×§×Ķ": 7265,
      "Ġ×ķ×Ļ×ĸ": 7266,
      "Ġ×Ĳ×ĸ×¨×Ĺ×Ļ": 7267,
      "Ġ×Ķ×©×Ļ×ł×ķ×Ļ": 7268,
      "Ġ×Ķ×¢×¡×§×Ķ": 7269,
      "ĠTwitter": 7270,
      "Ġ×ĵ×ł×Ļ": 7271,
      "×ķ×ł×ł×ķ×ª": 7272,
      "×¤×ľ×Ķ": 7273,
      "ite": 7274,
      "×Ĺ×ķ×ķ×ª": 7275,
      "Ġ×ª×¤×¨×Ļ×ĺ": 7276,
      "Ġ×ĳ×©×Ļ×ľ×ķ×ĳ": 7277,
      "×ŀ×ĵ×ķ×¢": 7278,
      "×Ľ×¨×ĺ×Ļ×¡": 7279,
      "×Ļ×ŀ×ķ×Ļ": 7280,
      "Ġ×ł×¡×Ļ×¢×ķ×ª": 7281,
      "icrosoft": 7282,
      "Ġ×Ĳ×Ļ×ł×ł×Ķ": 7283,
      "Ġ×Ķ×§×ĳ×ķ×¢": 7284,
      "×ķ×Ľ×ł×Ļ×ķ×ª": 7285,
      "Ġ×Ķ×ª×Ĺ×Ļ": 7286,
      "Ġ×©×Ĳ×Ļ": 7287,
      "×ķ×¤×Ļ×Ł": 7288,
      "Ġ300": 7289,
      "×ŀ×Ĳ×Ļ": 7290,
      "×ł×Ļ×¡×Ļ×ķ×Ł": 7291,
      "Ġ×ŀ×Ļ×ľ×ķ×Ļ": 7292,
      "×ĸ×ķ×ľ": 7293,
      "Ġ×ŀ×Ĵ×ĵ×ľ": 7294,
      "Ġ×ĳ×Ĳ×Ļ×ĸ×Ķ": 7295,
      "×ķ×ĵ×Ļ×¢": 7296,
      "Ġ×Ķ×Ľ×ł×Ķ": 7297,
      "Ġ×Ķ×¦×ĳ×Ĳ×Ļ": 7298,
      "Ġ×ŀ×ŀ×ľ×Ļ×¦×Ķ": 7299,
      "Ġ×Ķ×©×ľ×Ļ×©×Ļ×ª": 7300,
      "Ġ×ľ×¢×¡×§": 7301,
      "×Ĺ×Ļ×Ļ×ª": 7302,
      "Ġ×©×Ļ×ŀ×©": 7303,
      "Ġ×Ķ×¢×¨×ĳ×Ļ": 7304,
      "Ġ×ľ×Ļ×©×ķ×Ł": 7305,
      "Ġ×¨×ĵ×Ļ×ķ": 7306,
      "Ġ×Ķ×ĳ×ł×Ķ": 7307,
      "Ġ×Ļ×¢×ĵ": 7308,
      "Ġ×ª×Ľ×ķ×ł×ķ×ª": 7309,
      "×Ķ×¨×¦": 7310,
      "×Ļ×ĵ×Ĳ×ķ": 7311,
      "×ª×¨×Ĺ": 7312,
      "×ŀ×¡×¢×ĵ×ķ×ª": 7313,
      "Ġ×Ķ×ĵ×Ļ×¨×ķ×ª": 7314,
      "Ġ×Ķ×Ļ×¢×ĵ": 7315,
      "Ġ×ł×ª×ķ×Ł": 7316,
      "Ġ×ķ×¨×¦": 7317,
      "Ġ×ĳ×ľ×Ķ": 7318,
      "Ġ×Ķ×Ĵ×Ļ×ĳ": 7319,
      "Ġ×ĸ×Ĳ×ĳ": 7320,
      "Ġ×¨×ľ×ķ×ķ×ł×ĺ": 7321,
      "Ġ×ł×Ķ×ĵ×¨×ª": 7322,
      "Ġ×Ķ×¦×¢×Ķ": 7323,
      "Ġ×Ķ×ŀ×ĵ×Ķ": 7324,
      "Ġ×©×ľ×ķ×©×ª": 7325,
      "43": 7326,
      "Ġ×ĳ×¨×©×ª×ķ×ª": 7327,
      "Ġ×ĳ×¤×¢×Ļ×ľ×ķ×ª": 7328,
      "Ġ×§×Ļ×ĳ×ľ×Ķ": 7329,
      "Ġ×Ĳ×ĺ×¨×§×¦×Ļ×ķ×ª": 7330,
      "Ġ×Ľ×©×Ĳ×ł×Ļ": 7331,
      "66": 7332,
      "Ġ×Ĺ×Ļ×¦×ķ×ł×Ļ": 7333,
      "×ķ×Ļ×Ļ×Ł": 7334,
      "×©×ĳ×Ļ×ľ": 7335,
      "Ġ×¤×ł×Ķ": 7336,
      "Ġ×ŀ×Ĺ×©×ĳ×ķ×ª": 7337,
      "Ġ×Ķ×§×ķ": 7338,
      "Ġ×Ķ×Ĺ×ĸ": 7339,
      "sh": 7340,
      "Ġ×Ķ×Ĳ×Ĺ×ĵ": 7341,
      "Ġ×Ķ×Ķ×¡×ª": 7342,
      "Ġ×ĵ×ľ×§": 7343,
      "Ġ48": 7344,
      "Ġ×¢×ŀ×§": 7345,
      "Ġ×ŀ×Ĵ×ĸ×Ļ×Ł": 7346,
      "Ġ×ľ×©×Ļ×¨": 7347,
      "right": 7348,
      "Ġ×ĳ×ª×ķ×Ľ×ł×Ļ×ª": 7349,
      "ĠðŁĻ": 7350,
      "Ġ×Ķ×§×¨×ķ×ĳ×Ļ×Ŀ": 7351,
      "Ġ×Ĺ×Ļ×¨×ķ×Ŀ": 7352,
      "Ġ×ª×©×ķ×ĳ×ķ×ª": 7353,
      "Ġ×¢×Ļ×©×ķ×Ł": 7354,
      "×¡×§×ł×Ķ": 7355,
      "Ġ×¢×¡×§×Ļ×ª": 7356,
      "Ġ×ł×Ļ×Ľ×¨": 7357,
      "×ķ×ŀ×Ļ×ł×Ļ×ķ×Ŀ": 7358,
      "Ġ×ĳ×¨×Ĳ×©×ķ×Ł": 7359,
      "Ġ×ĳ×ª×ķ×Ŀ": 7360,
      "Ġ×ĳ×Ļ×Ŀ": 7361,
      "Ġ×¢×ĳ×Ļ×¨×Ķ": 7362,
      "Ġ×Ķ×¢×ŀ×ķ×ª×Ķ": 7363,
      "Ġ×ŀ×§×ĳ×ľ×ª": 7364,
      "Ġ×©×Ĳ×ķ×ľ": 7365,
      "Ġ×Ľ×¨×ĺ×Ļ×¡×Ļ": 7366,
      "Ġ×ª×©×¡": 7367,
      "×Ľ×ķ×ľ×ľ": 7368,
      "Ġ×ķ×Ĳ×ª×Ķ": 7369,
      "Ġ×ŀ×§×Ļ×£": 7370,
      "Ġ×ŀ×Ĳ×ŀ×¥": 7371,
      "Ġ×¢×¨×ĳ×Ļ×Ŀ": 7372,
      "Ġ×ĳ×Ļ×ł×ª×Ļ×Ļ×Ŀ": 7373,
      "Ġ×ľ×¤×¨×¡×ķ×Ŀ": 7374,
      "×Ķ×¦×Ķ×¨×ª": 7375,
      "Ġ×ĳ×©×ª×Ļ": 7376,
      "Ġ×ķ×ĳ×¢×ķ×ľ×Ŀ": 7377,
      "Ġ×ŀ×ª×Ĳ×Ļ×ŀ×Ļ×Ŀ": 7378,
      "×ŀ×ł×Ķ×ľ": 7379,
      "Ġ×ĳ×¦×ķ×¨×ª": 7380,
      "ĠPl": 7381,
      "gmail": 7382,
      "Ġ×ĺ×Ľ×ł×ķ×ľ×ķ×Ĵ×Ļ×ķ×ª": 7383,
      "×ŀ×Ľ×ª": 7384,
      "Ġ×¤×¨×¥": 7385,
      "×¦×§": 7386,
      "×ĳ×§×ķ×ª": 7387,
      "Ġ×ĳ×ŀ×ľ×Ĺ×ŀ×ª": 7388,
      "×Ļ×ĺ×ķ": 7389,
      "×Ĵ×¨×¡×Ĳ×ķ×ª": 7390,
      "Ġ×¨×ķ×ª": 7391,
      "Ġ×Ķ×Ļ×ł×Ŀ": 7392,
      "Ġ×Ķ×¦×ľ×Ļ×Ĺ×ķ": 7393,
      "Ġ×ŀ×ª×§×ĵ×ŀ×Ļ×Ŀ": 7394,
      "Ġ×Ĵ×Ļ×ĵ×ķ×ľ": 7395,
      "Ġ×ĳ×ŀ×Ĳ×ŀ×¨": 7396,
      "Ġ×ŀ×Ķ×Ĵ": 7397,
      "Ġ×ĳ×ŀ×ĸ": 7398,
      "×Ľ×ľ×Ļ×ª": 7399,
      "×¦×ķ×¢×ª": 7400,
      "Ġ×Ķ×Ĳ×Ļ×©×Ļ×ª": 7401,
      "Ġ×ŀ×©×¤×Ĺ×ª×ķ": 7402,
      "Ġ×Ķ×Ĺ×ķ×¤×©×Ļ×ª": 7403,
      "×ł×Ļ×Ļ×ł×ķ": 7404,
      "Ġ×ķ×Ķ×Ľ": 7405,
      "Ġ×ŀ×ķ×ĸ×¨": 7406,
      "×ķ×ł×ª×Ļ": 7407,
      "×ķ×ł×ª×ķ": 7408,
      "Ġ×ĳ×Ĺ×ĸ×¨×Ķ": 7409,
      "×¡×¤×¨×Ļ": 7410,
      "Ġ×§×¦×¨×Ļ×Ŀ": 7411,
      "Ġ×ĳ×Ļ×ª×Ļ": 7412,
      "Ġ×Ĳ×Ļ×Ľ": 7413,
      "Ġ×Ĺ×Ľ×ŀ×Ļ×Ŀ": 7414,
      "ÖµÖ¼": 7415,
      "Ġ×Ļ×¦×Ļ×¨×ķ×ª": 7416,
      "Ġ×§×ĺ×Ĵ×ķ×¨×Ļ×Ķ": 7417,
      "Ġ×ķ×Ĳ×Ļ": 7418,
      "Ġ×Ķ×§×ł×Ļ×ķ×ª": 7419,
      "Ġ×¢×©×Ļ×ª×Ļ": 7420,
      "Ġ×Ķ×ķ×¦×Ĳ×Ķ": 7421,
      "×ŀ×¦×Ļ×Ŀ": 7422,
      "Ġ×¨×¦×Ĺ": 7423,
      "Ġ×Ķ×Ĳ×¤×ľ×Ļ×§×¦×Ļ×Ķ": 7424,
      "×Ĵ×Ļ×©×Ļ×Ŀ": 7425,
      "Ġ03": 7426,
      "×¤×©×ª": 7427,
      "Ġ×¢×ŀ×ķ×ĵ×Ļ×Ŀ": 7428,
      "Ġ×Ĳ×¡×£": 7429,
      "Ġ×¤×¡×ĺ": 7430,
      "Ġ×§×Ļ×ĳ×ľ×ª×Ļ": 7431,
      "Ġ×Ĵ×ĸ×¢": 7432,
      "Ġ×Ĵ×ķ×ľ×©×Ļ×Ŀ": 7433,
      "×¤×¢×ķ×ľ×Ķ": 7434,
      "Ġ×ĳ×Ĳ×¨×Ĵ×ķ×Ł": 7435,
      "Ġ×ĳ×Ļ×©×ķ×ľ": 7436,
      "Ġ×§×ķ×¨×¡×Ļ×Ŀ": 7437,
      "AN": 7438,
      "Ġ×¤×Ļ×¨×ķ×©": 7439,
      "Ġ×ĳ×Ĺ×ķ×ľ": 7440,
      "Ġ×ĺ×ķ": 7441,
      "Ġ×©×ł×Ĳ×ŀ×¨": 7442,
      "Ġ×¢×ķ×ĳ×ĵ×ķ×ª": 7443,
      "×ĳ×ł×§": 7444,
      "Ġ×Ĳ×Ļ×¨×Ĳ×Ł": 7445,
      "×Ļ×¨×ķ×¨": 7446,
      "Ġ×ª×ķ×©×ĳ": 7447,
      "Ġ×Ķ×Ķ×ĵ": 7448,
      "Ġ×ŀ×¡×Ļ×ĳ×ķ×ª": 7449,
      "Ġ×§×ķ×ĵ×©": 7450,
      "Ġ×Ĳ×ĸ×¨×Ĺ": 7451,
      "Ġ×Ĳ×Ļ×Ļ×ľ": 7452,
      "Ġ×ŀ×¨×Ĵ×Ļ×©×Ķ": 7453,
      "Ġ×Ķ×Ĺ×©×ķ×ĳ×Ļ×Ŀ": 7454,
      "Ġ×Ķ×ŀ×ĺ×ĳ×Ĺ": 7455,
      "Ġ×Ĵ×ŀ×¨": 7456,
      "Ġ×©×ł×¨×Ĳ×Ķ": 7457,
      "Ġ×Ľ×ª×Ļ×ĳ×ª": 7458,
      "×¢×§": 7459,
      "×¨×Ĳ×©×ķ×Ł": 7460,
      "Ġ×¨×Ľ×©": 7461,
      "Ġ×Ķ×Ĺ×©×ķ×ĳ": 7462,
      ");": 7463,
      "Ġ×Ĳ×ĳ×¨": 7464,
      "Ġ×Ķ×©×ķ×ľ×Ĺ×Ł": 7465,
      "Ġ×Ĵ×ĵ×ľ": 7466,
      "×ł×Ľ×ķ×Ł": 7467,
      "×Ļ×Ļ×¨×Ķ": 7468,
      "Ġ×ĵ×Ļ×Ĵ×Ļ×ĺ×ľ": 7469,
      "Ġ×¨×ĳ×Ļ×Ł": 7470,
      "Ġ×ĳ×ķ×ľ×ĺ": 7471,
      "Ġ×Ķ×ŀ×ķ×Ĵ": 7472,
      "×ĳ×¢×ķ×Ł": 7473,
      "Ġ×Ķ×§×ĳ×ľ×Ķ": 7474,
      "×ķ×¡×ķ×ª": 7475,
      "×ķ×ķ×Ļ×Ļ×ª": 7476,
      "Ġ×©×Ķ×Ļ×Ļ×ª×Ļ": 7477,
      "Ġ×¦×¢×Ļ×¨×Ķ": 7478,
      "Ġ×Ķ×¡×Ļ×Ľ×ķ×Ł": 7479,
      "Ġ×©×ĳ×Ĺ": 7480,
      "×¨×©×ª": 7481,
      "ĠIs": 7482,
      "Ġ×¤×ł×Ļ×ŀ×Ļ": 7483,
      "Ġ×Ľ×ķ×Ľ×ĳ": 7484,
      "ĠRSS": 7485,
      "×Ļ×Ĺ×Ļ×ĵ×Ķ": 7486,
      "Ġ×ŀ×¦×ľ×ŀ×ķ×ª": 7487,
      "Ġ×Ķ×Ĳ×ł×ķ×©×Ļ": 7488,
      "Ġ×ķ×ŀ×ķ×¡": 7489,
      "Ġ×ŀ×Ķ×ķ×ª": 7490,
      "Ġ×ķ×Ĳ×ĳ": 7491,
      "Ġ×©×ĳ×ķ×¢×Ļ×Ļ×Ŀ": 7492,
      "Ġ×Ķ×ĸ×Ļ×Ľ×¨×ķ×Ł": 7493,
      "×ķ×ł×¨": 7494,
      "Ġ×ł×ŀ×©": 7495,
      "PDF": 7496,
      "Ġ×ľ×¨×©×ª": 7497,
      "×ŀ×ĵ×¨×Ļ×ļ": 7498,
      "ĠðŁĻĤ": 7499,
      "×Ļ×¡×ĵ": 7500,
      "×¢×§×ĳ×ķ": 7501,
      "Ġ×Ĵ×Ļ×ķ×¡": 7502,
      "×Ļ×Ĳ×ľ×Ļ×§": 7503,
      "Ġ×Ķ×ĵ×ķ": 7504,
      "Ġ×ĳ×Ĺ×Ļ×¨×ķ×ª": 7505,
      "×Ĳ×ĸ×ľ": 7506,
      "×ŀ×Ĳ×ĸ": 7507,
      "Ġ×ľ×Ķ×Ĺ×ľ×Ļ×ĺ": 7508,
      "Ġ×ĳ×¢×¨×ķ×¥": 7509,
      "Ġ×Ķ×ĺ×Ľ×ł×ķ×ľ×ķ×Ĵ×Ļ×Ķ": 7510,
      "×¤×Ļ×¡": 7511,
      "Ġ×©×Ķ×¨×Ļ": 7512,
      "Ġ×¨×©×Ļ×ŀ×Ķ": 7513,
      "Ġ×ľ×ł×ķ×©×Ĳ": 7514,
      "Ġ×Ĳ×¨×ķ×Ľ×ķ×ª": 7515,
      "Ġ×ĳ×Ľ×ª": 7516,
      "Ġ55": 7517,
      "Ġ×¡×ķ×ĵ": 7518,
      "Ġ×Ļ×ķ×¦×Ĵ": 7519,
      "×Ķ×Ĺ×ĳ×¨×Ķ": 7520,
      "ran": 7521,
      "Ġ×©×ł×§×¨×Ĳ": 7522,
      "×¢×¨×ª": 7523,
      "Ġ×ľ×Ķ×Ĵ×ĵ×Ļ×ľ": 7524,
      "×¡×Ļ×Ķ": 7525,
      "ash": 7526,
      "Ġ×Ĺ×ķ×ĸ×¨×ª": 7527,
      "×ķ×©×ľ": 7528,
      "Ġ×ĳ×ł×Ļ×Ķ×ķ×ľ": 7529,
      "Ġ×ĳ×Ľ×ķ×Ĺ": 7530,
      "Ġ×ĳ×Ĳ×Ļ×Ŀ": 7531,
      "ON": 7532,
      "×Ļ×ŀ×¦×Ļ×Ķ": 7533,
      "×Ļ×Ľ×ķ×ĳ": 7534,
      "Ġ×ķ×©×Ļ×ķ×ķ×§": 7535,
      "Ġ×ł×ĵ×ŀ×Ķ": 7536,
      "Ġ×ľ×Ķ×Ļ×¢": 7537,
      "Ġ×ľ×§×ĺ": 7538,
      "×Ļ×§×ľ×Ļ": 7539,
      "Ġ×¤×ľ×ķ×¡": 7540,
      "Ġ×ľ×ŀ×¢×ĺ": 7541,
      "ĠWordPress": 7542,
      "Ġ×¨×©×ŀ×Ļ": 7543,
      "Ġ×Ĳ×ķ×ŀ×ł×ķ×ª": 7544,
      "ĠâĢº": 7545,
      "Ġ×ĳ×ŀ×ĵ×Ļ×ł×ª": 7546,
      "Ġ×¢×ĵ×Ł": 7547,
      "×¦×Ļ×¤×Ļ": 7548,
      "Ġ×Ķ×ĵ×Ĵ": 7549,
      "Ġ×Ļ×Ķ×ĵ×ķ×ª": 7550,
      "Ġ×ľ×ľ×Ĺ": 7551,
      "Ġ×¨×¦×Ļ×ł×Ļ": 7552,
      "Ġ×Ļ×ķ×ŀ×Ļ×Ļ×Ŀ": 7553,
      "×Ļ×ĸ×ķ×Ł": 7554,
      "Ġ×©×ĳ×Ķ×Ł": 7555,
      "2015": 7556,
      "Ġ×ľ×Ķ×ŀ×©×ļ": 7557,
      "Ġ×Ĺ×ķ×ĸ×¨×Ļ×Ŀ": 7558,
      "×Ļ×ľ×Ļ×Ķ": 7559,
      "Ġ×¢×ľ×ķ×ľ×Ļ×Ŀ": 7560,
      "×Ļ×¦×Ĵ": 7561,
      "×ľ×§×ĳ×ľ×ª": 7562,
      "×ĳ×Ļ×§×ķ×¨×ª": 7563,
      "Ġ×ĳ×¤×ķ×¨": 7564,
      "×ł×¨×ª": 7565,
      "ge": 7566,
      "Ġ×ĳ×¡×ŀ×ķ×ļ": 7567,
      "Ġ×ĳ×§×Ļ×¥": 7568,
      "Ġ×Ĺ×ľ×ķ×Ŀ": 7569,
      "Ġ×ĵ×ŀ×ķ×Ļ×ķ×ª": 7570,
      "Ġ×ľ×¨×Ļ×©×Ļ×ķ×Ł": 7571,
      "×¦×ĳ×Ļ×¢": 7572,
      "Ġ×©×Ķ×ķ×Ĵ": 7573,
      "Ġ×ķ×ľ×ķ": 7574,
      "×ł×Ķ×ľ×ª": 7575,
      "×ķ×ķ×Ĳ×Ķ": 7576,
      "Ġ×Ļ×¢×ľ": 7577,
      "Ġ×ĳ×ĺ×ķ×Ĺ×Ļ×Ŀ": 7578,
      "Ġ×©×Ļ×Ķ×Ļ×ķ": 7579,
      "×Ļ×ł×Ĵ×ĺ×ķ×Ł": 7580,
      "Ġ×©×ŀ×Ĵ": 7581,
      "×©×ł×Ļ×Ŀ": 7582,
      "Ġ×ª×ķ×¨×ª": 7583,
      "Ġ×ł×¢×¨×ļ": 7584,
      "Ġ×Ķ×Ĳ×ł×¨×Ĵ×Ļ×Ķ": 7585,
      "Ġ×¨×Ĺ×ĳ×Ķ": 7586,
      "Ġ×Ķ×Ĺ×ķ×ĳ×Ķ": 7587,
      "Ġ×Ķ×§×Ļ×Ļ×Ŀ": 7588,
      "Ġ×Ķ×¤×ł×Ļ×ŀ×Ļ": 7589,
      "Ġ×Ĳ×ķ×¨×Ĵ×ł×Ļ": 7590,
      "Ġ×Ķ×¨×Ĵ×©×ª×Ļ": 7591,
      "Ġ×©×¤×¢": 7592,
      "Ġ×Ķ×©×Ļ×ĵ×ķ×¨": 7593,
      "Ġ×Ĵ×ķ×¤×ł×Ļ×ª": 7594,
      "Ġ×ŀ×Ĺ×ľ×Ķ": 7595,
      "×Ķ×¢×¨×ķ×ª": 7596,
      "56": 7597,
      "Ġ×Ķ×ĺ×ķ×ĳ×ķ×ª": 7598,
      "Ġ×Ĺ×©×Ļ×ĳ×Ķ": 7599,
      "Ġ×Ķ×§×Ļ×©×ķ×¨×Ļ×Ŀ": 7600,
      "×Ļ×ĵ×ķ×¢": 7601,
      "ĠCommons": 7602,
      "Ġ×Ļ×ĵ×ķ": 7603,
      "×ķ×ĸ×Ļ×§×Ķ": 7604,
      "Ġ×ĳ×ĳ×ĵ": 7605,
      "!)": 7606,
      "Ġ×©×Ľ×ª×ĳ×ª×Ļ": 7607,
      "×ľ×Ĺ×¦×ķ": 7608,
      "Ġ×ª×Ĺ×Ļ×ľ×Ķ": 7609,
      "×§×¨×§×¢×Ļ×Ł": 7610,
      "×Ļ×Ļ×¢×ķ×¥": 7611,
      "Ġ×ĳ×ª×ķ×¡×¤×ª": 7612,
      "Ġ×Ķ×Ľ×¨×ĺ×Ļ×¡": 7613,
      "79": 7614,
      "Ġ×ŀ×ŀ×©×Ļ×Ľ×Ļ×Ŀ": 7615,
      "×ķ×ł×ļ": 7616,
      "×ĳ×Ĺ×ķ×Ł": 7617,
      "Ġ×©×Ļ×¦×Ĳ": 7618,
      "Ġ×©×ĵ×¨": 7619,
      "Ġ×ķ×ķ×Ĳ×ľ×Ķ": 7620,
      "Ġ×ŀ×¨×Ĵ×Ļ×©×Ļ×Ŀ": 7621,
      "Ġ×¤×¡×ĺ×Ļ×ĳ×ľ": 7622,
      "Ġ×Ĳ×Ļ×Ļ×¨": 7623,
      "Ġ×Ĳ×ľ×Ļ×¢×ĸ×¨": 7624,
      "Ġ×ľ×ľ×ŀ×ĵ": 7625,
      "Ġ×¡×¤×¨×ĵ": 7626,
      "×ª×¨×Ĺ×©": 7627,
      "×ł×Ļ×§×Ļ×Ŀ": 7628,
      "×Ķ×ĵ×Ĵ×©×ª": 7629,
      "Ġ×Ļ×ª×¨×ķ×ł×ķ×ª": 7630,
      "×ĸ×ŀ×ł×ķ×ª": 7631,
      "Ġ×¤×ķ×ĺ×ł×¦×Ļ×Ĳ×ľ": 7632,
      "×¢×¦": 7633,
      "Ġ×ĳ×ĺ×¨×Ŀ": 7634,
      "Ġ×¢×ĵ×ķ×ª": 7635,
      "Ġ×ľ×Ĺ×Ļ×¤×ķ×©": 7636,
      "Ġ×ķ×¢×ĵ×Ļ×Ļ×Ł": 7637,
      "Ġ×ľ×Ľ×ŀ×Ķ": 7638,
      "Ġ×ĳ×ķ×ķ×ĵ×Ĳ×Ļ": 7639,
      "×©×Ļ×Ķ": 7640,
      "×ľ×Ĳ×ķ×ŀ×Ļ×Ļ×Ŀ": 7641,
      "Ġ×Ĳ×ľ×Ľ×ķ×Ķ×ķ×ľ": 7642,
      "Ġ×Ļ×ŀ×©": 7643,
      "×Ļ×§×ķ×Ĺ": 7644,
      "Ġ×ĳ×§×ĳ×ķ×§": 7645,
      "Ġ×ľ×Ķ×Ĳ": 7646,
      "×ŀ×ľ×Ļ×¥": 7647,
      "×Ľ×Ļ×¨×Ļ×Ŀ": 7648,
      "Ġ×Ĳ×ł×ĺ×Ļ": 7649,
      "Ġ×Ĳ×ķ×Ł": 7650,
      "×Ļ×Ĵ×ľ": 7651,
      "×¢×¨×ķ×¥": 7652,
      "Ġ×Ķ×ŀ×ĵ×¨": 7653,
      "×¡×¨×Ļ×ĺ": 7654,
      "×Ĳ×Ĺ×ª": 7655,
      "Ġ×¨×©×ķ×Ŀ": 7656,
      "Ġ×Ľ×Ļ×©": 7657,
      "×ķ×ľ×ŀ×ķ": 7658,
      "Ġ×ł×§×ķ×ĵ×Ķ": 7659,
      "Ġ×ķ×Ĵ×¨": 7660,
      "Ġ150": 7661,
      "Ġ×Ķ×ł×ķ×Ĵ×¢": 7662,
      "Ġ×Ķ×Ĳ×ĵ×ķ×Ŀ": 7663,
      "×Ĳ×ķ×ª×ķ": 7664,
      "Ġ×ŀ×Ĳ×ĳ×§": 7665,
      "×ķ×Ĺ×¨×Ļ×Ŀ": 7666,
      "Ġ×ŀ×ķ×ª×ķ": 7667,
      "Ġ×ŀ×ĳ×ķ×Ĵ×¨×Ļ×Ŀ": 7668,
      "Ġ×ĺ×ĳ×¢×Ļ×Ļ×Ŀ": 7669,
      "Ġ×¤×ķ×¢×ľ×ª": 7670,
      "Ġ×©×ŀ×Ĳ×¤×©×¨": 7671,
      "Ġ×ŀ×¢×¨×ļ": 7672,
      "Ġ×ľ×Ļ×ŀ×ķ×Ł": 7673,
      "×¢×¨×Ļ×Ŀ": 7674,
      "Ġ×ŀ×Ĵ×Ļ×ľ": 7675,
      "Ġ×©×Ĵ×ķ×¨": 7676,
      "Ġ×Ķ×ŀ×§×ķ×ŀ×Ļ": 7677,
      "Ġ×ľ×¤×¢×Ļ×ľ×ķ×ª": 7678,
      "Ġ×Ķ×Ĵ×ķ×ľ×©×Ļ×Ŀ": 7679,
      "×Ļ×ĺ×Ļ×§×Ķ": 7680,
      "Ġ×Ķ×ŀ×Ĺ×ľ×Ķ": 7681,
      "Ġ×Ķ×¤×ķ×Ľ×Ķ": 7682,
      "Ġ×Ķ×Ľ×ĳ×Ļ×©": 7683,
      "Ġ×ĳ×¡×ĵ×¨×Ķ": 7684,
      "Ġ×¡×ŀ×Ľ×ķ×ª": 7685,
      "×ł×ĺ×Ķ": 7686,
      "tit": 7687,
      "Ġ×ľ×ł×¡×ķ×¢": 7688,
      "Ġ×ľ×©×Ļ×¤×ķ×¨": 7689,
      "Ġ×Ķ×ª×Ľ×ł×ķ×Ł": 7690,
      "Ġ×ľ×Ĵ×ĳ": 7691,
      "Ġ×ĳ×¨×Ļ×Ľ×Ķ": 7692,
      "Ġfrom": 7693,
      "Ġ×ŀ×¤×Ĺ": 7694,
      "Ġ×Ļ×ĳ×©": 7695,
      "Ġ×ŀ×¨×Ĵ×©": 7696,
      "Ġ×Ļ×ľ×ĵ×Ļ": 7697,
      "Ġ×Ķ×ŀ×©×ª×ª×¤×Ļ×Ŀ": 7698,
      "×ķ×ŀ×ł×ķ×Ļ×ķ×ª": 7699,
      "Ġ×Ķ×ł×¡×Ļ×¢×Ķ": 7700,
      "Ġ×ĳ×ĺ×ķ×¤×¡": 7701,
      "2012": 7702,
      "×ŀ×Ļ×ķ×Ł": 7703,
      "×ľ×ª×Ŀ": 7704,
      "×¢×ķ×ľ×Ŀ": 7705,
      "Ġ×Ķ×Ĺ×ķ×¨×£": 7706,
      "×ĳ×ļ": 7707,
      "×Ĺ×Ĵ": 7708,
      "×ł×ĺ×¨": 7709,
      "Ġ×ĳ×ª×§×©×ķ×¨×ª": 7710,
      "Ġ×¤×ķ×¨×ĺ": 7711,
      "Ġ×ŀ×ĳ×Ĺ×Ł": 7712,
      "Ġ×Ķ×¨×¦×Ĳ×ķ×ª": 7713,
      "Ġ×ķ×¦×¨": 7714,
      "Ġ×ĳ×¨×ĸ×ľ": 7715,
      "Ġ×ķ×ľ×Ķ×¢": 7716,
      "Ġ×ŀ×ª×Ľ×ķ×ł×Ļ": 7717,
      "Ġ×Ķ×Ĵ×ĳ×ķ×ľ": 7718,
      "Ġ×ĸ×§×ķ×§×Ļ×Ŀ": 7719,
      "Ġ×Ķ×ª×ł×Ĳ×Ļ×Ŀ": 7720,
      "×Ĳ×ľ×Ĳ": 7721,
      "×ķ×¨×Ł": 7722,
      "Ġ×ĳ×¢×ĳ×ķ×¨": 7723,
      "Ġ×Ķ×ª×ĳ": 7724,
      "Ġ×ĸ×ķ×Ķ×¨": 7725,
      "Ġ×Ķ×©×Ĺ": 7726,
      "Ġ×©×Ķ×Ļ×ª×Ķ": 7727,
      "Ġ×ľ×ĺ×ķ×ķ×Ĺ": 7728,
      "×ľ×Ĺ×ķ×ª": 7729,
      "Ġ×Ķ×©×¢×ķ×ª": 7730,
      "Ġ×ŀ×Ĳ×Ķ": 7731,
      "Ġ×ŀ×Ĺ×Ľ×Ķ": 7732,
      "Ġ×ŀ×ł×Ķ×ľ×Ļ": 7733,
      "×¨×Ĳ×©×ķ×ł×Ķ": 7734,
      "Ġ×ľ×¨×ĳ": 7735,
      "×Ĵ×ľ×ľ": 7736,
      "×Ļ×Ĳ×ĺ": 7737,
      "Ġ×ĳ×ķ×Ĳ": 7738,
      "×¦×Ļ×ĺ×ķ×ĺ": 7739,
      "Ġ×ł×ŀ×¡×¨": 7740,
      "×ŀ×ª×ł×Ķ": 7741,
      "×¦×ķ×¢×Ķ": 7742,
      "×Ĳ×¦": 7743,
      "Ġ×Ķ×ľ×ĳ×Ł": 7744,
      "Ġ×¦×Ļ×¨": 7745,
      "Ġ×ł×©×Ļ×ŀ×Ķ": 7746,
      "Ġ×Ķ×ŀ×ľ×ķ×ł×ķ×ª": 7747,
      "Ġ×ķ×Ĳ×¤×©×¨": 7748,
      "×Ķ×¦×Ķ×¨×Ķ": 7749,
      "Ġ×ŀ×ª×¨×Ĵ": 7750,
      "×ª×Ĺ×ķ×ŀ×Ļ": 7751,
      "Ġ×Ļ×ľ×ĵ×ķ×ª": 7752,
      "×ŀ×Ĺ×ķ×ª": 7753,
      "×ķ×ĳ×¡×§×Ļ": 7754,
      "×Ļ×ł×ª×Ł": 7755,
      "Ġ×ŀ×ķ×ĸ×Ļ×Ĳ×ķ×Ł": 7756,
      "Ġ×ĳ×ĺ×¨": 7757,
      "Ġ×ĳ×Ļ×¡": 7758,
      "Ġ×ŀ×¤×ķ×¨×¡": 7759,
      "Ġ×ľ×Ĵ×ķ×£": 7760,
      "Ġ×ĵ×ķ×ĳ": 7761,
      "×Ľ×¤×Ļ": 7762,
      "×Ļ×ķ×ĵ": 7763,
      "ED": 7764,
      "Ġ×ŀ×©×Ľ×ł×ª×Ĳ": 7765,
      "Ġ×Ķ×©×ķ×ĺ": 7766,
      "×ĳ×Ĳ×ł×Ĵ×ľ×Ļ×ª": 7767,
      "×¤×Ļ×ľ×Ķ": 7768,
      "×Ĺ×¨×ķ×¨": 7769,
      "×ķ×ł×Ļ×§×Ķ": 7770,
      "Ġ×Ľ×©×ĳ": 7771,
      "Ġ×ł×¡×Ķ": 7772,
      "Ġ×ŀ×©×¨×ĵ×Ļ×Ŀ": 7773,
      "Ġ×ŀ×ª×Ľ×ķ×Ł": 7774,
      "Ġ×ľ×Ĺ×ķ×ķ×ª": 7775,
      "Ġ×Ķ×ŀ×ĵ×¨×Ļ×ļ": 7776,
      "Ġ×¤×¨×Ĳ": 7777,
      "Ġ×ĳ×Ķ×©": 7778,
      "Ġ×ŀ×Ķ×ľ×ļ": 7779,
      "Ġ×ľ×¢×¡×ķ×§": 7780,
      "×¤×ķ×¨×ĺ×ľ": 7781,
      "Ġ×©×ķ×¨×Ķ": 7782,
      "Ġ×ĳ×ł×¡×Ļ×ĳ×ķ×ª": 7783,
      "Ġ×ľ×ŀ×ĵ×Ļ×ł×Ķ": 7784,
      "Ġ×Ķ×Ļ×¤×Ķ": 7785,
      "Ġ×Ķ×¨×ķ×ķ×Ĺ×Ķ": 7786,
      "Ġ×Ķ×Ľ×ľ×ľ×Ļ×ª": 7787,
      "×ķ×¤×Ĳ×Ļ": 7788,
      "Ġ×ĳ×¨×Ĵ": 7789,
      "Ġ×Ĳ×ª×Ļ": 7790,
      "Ġ×ŀ×Ľ×ķ×ł×ķ×ª": 7791,
      "×¡×Ĳ×ķ×ª": 7792,
      "Ġ×Ķ×ŀ×¨×Ĳ×Ķ": 7793,
      "Ġ×ŀ×ķ×¦×Ĳ×Ļ×Ŀ": 7794,
      "Ġ×ĳ×Ľ×ª×ĳ×Ķ": 7795,
      "×Ĵ×¢×ª×Ļ": 7796,
      "Ġ×ŀ×Ļ×ķ×¢×ĵ": 7797,
      "Ġ×ľ×©×ķ×§": 7798,
      "Ġ×ľ×¢×§×ķ×ĳ": 7799,
      "Ġ×Ķ×Ĳ×ł×¦×Ļ×§×ľ×ķ×¤×ĵ×Ļ×Ķ": 7800,
      "×Ķ×ľ×Ľ×Ķ": 7801,
      "ĠBe": 7802,
      "Ġ×¡×Ĵ×Ł": 7803,
      "Ġ×ĳ×ŀ×¨×Ĺ×ĳ": 7804,
      "×¤×¥": 7805,
      "×ĸ×Ľ×¨": 7806,
      "Ġ×ŀ×ĵ×Ļ×Ķ": 7807,
      "×¤×¨×Ļ×§×Ķ": 7808,
      "Ġ×Ĵ×Ļ×ľ×ķ×Ļ": 7809,
      "×ķ×ķ×§×Ļ×Ŀ": 7810,
      "Ġ×Ķ×ĳ×ĵ×ľ": 7811,
      "Ġ×Ľ×ł×Ļ×¡×ª": 7812,
      "Ġ×ĳ×Ļ×ł×ķ×ł×Ļ": 7813,
      "Ġ×ĸ×ľ": 7814,
      "Ġ×ŀ×ķ×¨×Ļ×Ŀ": 7815,
      "×¤×¨×Ļ": 7816,
      "Ġ×Ķ×ŀ×¤×ľ×Ĵ×Ķ": 7817,
      "×Ļ×Ļ×¦×ķ×Ĳ": 7818,
      "×Ķ×ĺ×§×¡×ĺ": 7819,
      "Ġ×Ĳ×Ļ×ł×¡×ĺ": 7820,
      "Ġ×Ķ×ł×ĸ×§": 7821,
      "Ġ×Ĳ×©×ª": 7822,
      "Ġ×ľ×Ķ×ķ×¨×Ļ×Ŀ": 7823,
      "Ġ×ª×ľ×ŀ×Ļ×ĵ×Ļ": 7824,
      "×ł×ĵ×ĳ×ķ×ª": 7825,
      "Ġ×Ķ×¦×¢×Ļ×¨×Ļ×Ŀ": 7826,
      "Ġ×Ķ×ķ×ĵ×Ļ×¢": 7827,
      "Ġ×Ķ×Ĳ×ķ×ª": 7828,
      "Ġ×¡×Ļ×Ľ×ķ×Ŀ": 7829,
      "×Ľ×ª×ĳ×ķ": 7830,
      "×Ļ×ł×ĵ×§×¡": 7831,
      "Ġ×ª×¤×§×Ļ×ĵ×Ļ×Ŀ": 7832,
      "Ġ×Ľ×¤×ª×ķ×¨": 7833,
      "×¢×ª×Ļ×§": 7834,
      "×ķ×¦×Ĳ×Ļ×Ŀ": 7835,
      "Ġ×Ķ×ŀ×ķ×§×ĵ": 7836,
      "ect": 7837,
      "ake": 7838,
      "×ŀ×ł×Ļ×ķ×ª": 7839,
      "Ġ×©×¢×©×ķ": 7840,
      "IT": 7841,
      "Ġ×ŀ×ŀ×§": 7842,
      "Ġ×Ļ×ĵ×Ļ×¢×ķ×ª": 7843,
      "Ġ×Ķ×Ĳ×©×¨×Ĳ×Ļ": 7844,
      "×Ļ×Ľ×ķ×ľ×ķ×Ĵ×Ļ×Ķ": 7845,
      "Ġ×ŀ×ķ×ĵ×Ķ": 7846,
      "Ġ×Ķ×Ĳ×ķ×¤×ł×Ķ": 7847,
      "Ġ×Ķ×¨×ĳ×Ļ×Ŀ": 7848,
      "Ġ×Ĳ×ŀ×ķ×ł×Ķ": 7849,
      "Ġ×ĳ×¤×ª": 7850,
      "Ġ×ķ×ĳ×ĵ": 7851,
      "×ĺ×¨×¡×Ļ×Ŀ": 7852,
      "Ġ×ŀ×¤×§×ĵ": 7853,
      "×Ļ×ĺ×Ļ×Ł": 7854,
      "Ġ×Ķ×ŀ×ķ×¨×Ķ": 7855,
      "Ġ×Ķ×ł×Ļ×¡×Ļ×ķ×Ł": 7856,
      "Ġ×©×Ľ×ĵ×Ĳ×Ļ": 7857,
      "Ġ×¢×ĳ×¨×Ļ": 7858,
      "Ġ×¢×¦×ŀ×Ľ×Ŀ": 7859,
      "Ġ×ŀ×¢×ķ×ĵ×Ľ×ł×Ļ×Ŀ": 7860,
      "Ġ×Ķ×©×Ļ×ł×Ķ": 7861,
      "Ġ×ł×ķ×¡×¢×Ļ×Ŀ": 7862,
      "Ġ×Ĳ×ķ×¨×Ł": 7863,
      "Ġ×ĵ×ķ×Ĵ×ŀ×Ĳ×ķ×ª": 7864,
      "Ġ×ª×¢×ķ×¤×Ķ": 7865,
      "Ġ×ŀ×§×ķ×ŀ×Ļ": 7866,
      "Ġ×Ĵ×ĸ×¨": 7867,
      "Ġ×ľ×Ĳ×ĸ×ķ×¨": 7868,
      "Ġ×ª×ķ×§×£": 7869,
      "Ġ×Ķ×ĳ×¨×Ļ×ĺ×Ļ": 7870,
      "2014": 7871,
      "Ġ×Ķ×ŀ×ķ×ª×Ĵ": 7872,
      "Ġ×ķ×ĳ×¦": 7873,
      "Ġ×Ķ×¨×Ķ": 7874,
      "Ġ×ĳ×ĳ×Ļ×¦×ķ×¢": 7875,
      "Ġ×ĵ×Ļ×Ļ×Ł": 7876,
      "Ġ×ł×ķ×ª×¨": 7877,
      "Ġ×Ĺ×ķ×ĳ×ĳ×Ł": 7878,
      "Ġ×ľ×ĳ×ª": 7879,
      "×Ļ×ĵ×ķ×Ł": 7880,
      "57": 7881,
      "âĹĦ": 7882,
      "Ġ×ĳ×Ĺ×ľ×ķ×Ł": 7883,
      "×Ľ×ķ×ľ×Ŀ": 7884,
      "Ġ×ľ×ĵ×Ļ": 7885,
      "Ġ×§×Ļ×Ļ×ŀ×ķ×ª": 7886,
      "×Ĵ×Ļ×Ķ": 7887,
      "×Ļ×§×ķ×ł×Ļ×Ŀ": 7888,
      "Ġ×ľ×Ĵ×ķ×¨": 7889,
      "Ġ×ĳ×¨×Ĵ×ľ": 7890,
      "Ġ×Ķ×ŀ×§×ķ×ŀ×ķ×ª": 7891,
      "×¦×¤×ķ": 7892,
      "Ġ×Ķ×ŀ×©×¤×ĺ×Ļ×Ŀ": 7893,
      "Ġ×Ĳ×Ĺ×ķ×ĸ×Ļ×Ŀ": 7894,
      "Ġ×Ķ×ª×Ľ×ķ": 7895,
      "×ĳ×ĳ": 7896,
      "Ġ×ĸ×Ļ": 7897,
      "Ġ×Ķ×ľ×ķ×Ĺ": 7898,
      "Ġ×Ķ×¡×¨×ĺ×Ļ×Ŀ": 7899,
      "Ġ×¡×ķ×ĳ×ľ": 7900,
      "×Ĳ×ķ×ľ": 7901,
      "×Ļ×ĺ×ķ×Ĳ": 7902,
      "×ĵ×ķ×¨×¡×ľ": 7903,
      "Ġ×ŀ×Ĺ×ł×Ķ": 7904,
      "Ġ×Ķ×ª×ķ×©×ĳ×Ļ×Ŀ": 7905,
      "×ĸ×ŀ×ł×ª": 7906,
      "×Ļ×¢×ķ×¨×Ļ": 7907,
      "Ġ×©×Ļ×Ľ": 7908,
      "×ķ×§×ĺ×ķ×¨": 7909,
      "Ġ×Ķ×Ķ×©": 7910,
      "Ġ×Ĺ×ķ×ĵ×©×Ļ": 7911,
      "×¤×ľ×ľ": 7912,
      "×Ļ×ŀ×©": 7913,
      "Ġ×Ķ×©×¢×Ķ": 7914,
      "Ġ×Ķ×ŀ×¨×Ľ": 7915,
      "Ġ×ª×ķ×¤×¢×ķ×ª": 7916,
      "Ġ×ľ×¤×Ļ×Ķ": 7917,
      "Ġ×ŀ×Ĵ×ł": 7918,
      "Ġ×¡×ĺ×ķ×ĵ×Ļ×ķ": 7919,
      "Ġ×¢×ĵ×Ļ×Ł": 7920,
      "Ġ×Ĺ×ķ×¤×©×Ķ": 7921,
      "Ġ×Ķ×Ļ×©×¨×Ĳ×ľ×Ļ×Ŀ": 7922,
      "Ġ×Ķ×ŀ×Ķ×¤": 7923,
      "Ġ×ŀ×¦×Ļ": 7924,
      "×¦×Ļ×Ĵ": 7925,
      "Ġ×ľ×¢×ĸ×ķ×ĳ": 7926,
      "Ġ×Ĳ×Ĺ×¨×ķ×ł×Ķ": 7927,
      "ec": 7928,
      "Ġ×ŀ×¨×ķ×¦×Ļ×Ŀ": 7929,
      "Ġ×Ĳ×ķ×ķ×Ļ×¨×Ķ": 7930,
      "Ġ×ª×Ľ": 7931,
      "Ġ×Ķ×ĺ×¢×Ŀ": 7932,
      "Ġ×Ķ×¢×Ļ×§×¨×Ļ×ª": 7933,
      "Ġ×ľ×Ļ×ł": 7934,
      "Ġ×ŀ×ŀ×¡": 7935,
      "Ġ×ĳ×Ĺ×Ļ×ł×ķ×ļ": 7936,
      "'s": 7937,
      "Ġ×ľ×ŀ×Ľ": 7938,
      "×ŀ×©×Ķ": 7939,
      "Ġ×ľ×Ķ×Ĵ×ĵ×Ļ×¨": 7940,
      "Ġ×Ļ×Ķ×ķ×©×¢": 7941,
      "×ł×ª×Ļ×Ļ×Ŀ": 7942,
      "Ġ×Ķ×ŀ×Ľ×ķ×Ł": 7943,
      "×¦×ķ×¢×ķ×ª": 7944,
      "×ľ×Ľ×Ł": 7945,
      "Ġ×ľ×Ķ×Ľ×¨": 7946,
      "Ġ×ŀ×ķ×ĳ×Ł": 7947,
      "Ġ×ĳ×ĺ×ĳ×¢": 7948,
      "×Ĵ×¨×Ļ×Ķ": 7949,
      "ure": 7950,
      "Ġ×ĳ×ł×Ļ×Ŀ": 7951,
      "Ġ×ŀ×¢×¦×ĳ": 7952,
      "Ġ×ª×Ľ×ł×Ļ×Ŀ": 7953,
      "Ġ×ĳ×ĺ×ķ×ķ×Ļ×ĺ×¨": 7954,
      "×¢×ŀ×Ŀ": 7955,
      "Ġ×ŀ×¡×¢×ĵ×Ķ": 7956,
      "Ġ×Ķ×ĺ×Ľ×ł×ķ×ľ×ķ×Ĵ": 7957,
      "Ġ×¦×Ļ×Ļ×Ł": 7958,
      "×ķ×Ĵ×Ļ×Ķ": 7959,
      "Ġ×Ķ×ķ×¨×Ķ": 7960,
      "Ġ×ķ×ł×ª": 7961,
      "Ġ×ķ×ľ×ŀ×Ķ": 7962,
      "×©×ĳ×ķ": 7963,
      "Ġ×©×Ĳ×ł×©×Ļ×Ŀ": 7964,
      "Ġ×Ķ×ŀ×ª×Ĺ": 7965,
      "Ġ×Ķ×ª×Ĳ×ŀ×Ķ": 7966,
      "×ķ×ĺ×Ļ×ª": 7967,
      "Ġ×ŀ×¤×ł×§": 7968,
      "Ġ×Ķ×ª×Ĺ×¨×ķ×ª": 7969,
      "Ġ×ŀ×¡×ŀ×ļ": 7970,
      "Ġ×Ķ×ĳ×¢×ľ": 7971,
      "Ġ×Ķ×Ĺ×ĳ×¨×ª×Ļ×ķ×ª": 7972,
      "Ġ×Ľ×ľ×ĳ×Ļ×Ŀ": 7973,
      "Ġ×ľ×ª×Ĳ×¨": 7974,
      "Ġ×ŀ×¦×ĺ": 7975,
      "Ġ×ª×Ĵ×Ļ×ķ×ª": 7976,
      "×ķ×ľ×ļ": 7977,
      "×Ļ×Ĵ×ķ×Ł": 7978,
      "Ġ×Ĳ×¨×Ľ×Ļ×ķ×Ł": 7979,
      "×ķ×Ĳ×ł×Ļ": 7980,
      "Ġ×Ķ×Ķ×ª×Ĺ": 7981,
      "×ŀ×ª×Ŀ": 7982,
      "×ķ×ķ×Ļ×¥": 7983,
      "Ġ×ĳ×ķ×ķ×Ļ×§": 7984,
      "×§×ķ×ĵ×Ŀ": 7985,
      "Ġ×ľ×ŀ×ĸ": 7986,
      "Ġ×Ķ×¡×Ļ×ŀ": 7987,
      "Ġ×Ķ×Ĺ×ķ×ĳ": 7988,
      "Ġ×ĳ×Ĳ×Ĺ×ª": 7989,
      "Ġ×ŀ×ĸ×¨×Ĺ×Ļ": 7990,
      "×Ľ×Ļ×¨×ķ": 7991,
      "Ġ×©×Ļ×Ļ×ļ": 7992,
      "Ġ×ľ×Ľ×ª×ķ×ĳ×ª": 7993,
      "uck": 7994,
      "Ġ×ĳ×Ļ×Ĳ×ľ×Ļ×§": 7995,
      "Ġ×Ĳ×ķ×©": 7996,
      "Ġ×Ķ×¡×Ľ×ķ×Ŀ": 7997,
      "×ĺ×Ļ×Ļ×Ķ": 7998,
      "Ġ×Ĳ×Ļ×©×ķ×Ŀ": 7999,
      "Ġ×¡×ł×Ļ×£": 8000,
      "Ġ×©×ĳ×¡": 8001,
      "Ġ×Ļ×ł×ķ×Ĳ×¨": 8002,
      "Ġ×Ķ×¢×ŀ×§": 8003,
      "Ġ×¡×Ĵ×ľ": 8004,
      "Ġ×ķ×§×ĳ": 8005,
      "×¤×¡×ķ": 8006,
      "×©×Ļ×ķ×ª": 8007,
      "Ġ×ľ×Ķ×Ļ×©": 8008,
      "×ľ×¤×¨×ĺ×Ļ×Ŀ": 8009,
      "Ġ×Ķ×ª×Ĺ×ľ×ª×Ļ": 8010,
      "Ġ×ŀ×ķ×¡×ĵ": 8011,
      "Ġ×Ķ×ŀ×¦×ķ": 8012,
      "×Ĵ×ĵ×Ļ×Ŀ": 8013,
      "Ġ×ĳ×Ķ×Ļ×¡×ĺ×ķ×¨×Ļ×Ķ": 8014,
      "Ġ×Ķ×ŀ×ķ×ĵ": 8015,
      "×Ĵ×ķ×¨×¨": 8016,
      "Ġ×¨×Ĵ×©×ķ×ª": 8017,
      "Ġ×Ķ×Ĳ×ľ×§×ĺ×¨×ķ×ł×Ļ": 8018,
      "×Ļ×ľ×¨": 8019,
      "×¤×ł×ķ×ª": 8020,
      "×ĳ×¡×¡": 8021,
      "Ġ×ķ×ł×Ļ×ª×Ł": 8022,
      "×§×©×ª": 8023,
      "Ġ×Ĳ×ŀ×¨×Ļ×§×Ĳ×Ļ": 8024,
      "Ġ×¦×ķ×¨×Ķ": 8025,
      "Ġ75": 8026,
      "Ġ×Ķ×ŀ×Ĳ×ĳ×§": 8027,
      "Ġ×Ķ×Ĳ×Ļ×©×ķ×Ŀ": 8028,
      "Ġ×ľ×ķ×ł×ĵ×ķ×Ł": 8029,
      "×Ĺ×ª×Ļ×ª": 8030,
      "×§×ķ×ĸ×Ļ": 8031,
      "×ŀ×ĺ×Ļ": 8032,
      "Ġ×ŀ×ķ×ĵ×ľ": 8033,
      "Ġ×ª×Ĳ×ķ×ł×ķ×ª": 8034,
      "Ġ×Ķ×Ĵ×¢×ª×Ļ": 8035,
      "Ġ×ĸ×ķ×ľ×Ļ×Ŀ": 8036,
      "Ġ×ķ×Ĳ×Ĺ×¨×Ļ×Ŀ": 8037,
      "×ķ×ĵ×¨×ª": 8038,
      "×ľ×§×ĺ": 8039,
      "Ġ×ķ×ĳ×ł×Ļ": 8040,
      "Ġ×¢×Ļ×ĵ×Ł": 8041,
      "Ġ×ĺ×ĳ×¢×Ļ×ª": 8042,
      "Ġ×ķ×Ľ×ŀ×ķ": 8043,
      "Ġ×Ķ×Ĺ×ł×ķ×ª": 8044,
      "Ġ×ª×ķ×¦×¨×ª": 8045,
      "Ġ×ŀ×Ļ×Ļ×ĵ×Ļ": 8046,
      "Ġ×ĳ×ĵ×¨×Ľ×Ļ×Ŀ": 8047,
      "×ķ×§×¨×Ĳ": 8048,
      "Ġ×ľ×ĵ×Ļ×ķ×Ł": 8049,
      "Ġ×©×ŀ×ª×Ĺ": 8050,
      "Ġ×Ĳ×Ļ×¨×ķ×¢×Ļ": 8051,
      "Ġ×Ĵ×Ļ×¨×ķ×©×Ļ×Ł": 8052,
      "Ġ×ª×Ļ×Ľ": 8053,
      "Ġ×ĳ×¤×¨×§": 8054,
      "×¡×Ĵ": 8055,
      "×¤×¨×Ķ": 8056,
      "Ġ×ķ×Ľ×ĳ×¨": 8057,
      "Ġ×Ĺ×ľ×Ķ": 8058,
      "Ġ×ŀ×ķ×Ĺ×ľ×ĺ": 8059,
      "Ġ×Ķ×¤×¢×ľ×Ķ": 8060,
      "Ġ×ª×Ļ×ł×ķ×§×ķ×ª": 8061,
      "Ġ×ª×§×ł×ķ×Ł": 8062,
      "Ġ×¨×ķ×ŀ×Ł": 8063,
      "×¤×§×Ļ×Ŀ": 8064,
      "×¤×ķ×¡×ĺ": 8065,
      "Ġ×Ķ×¢×ľ×Ļ": 8066,
      "Ġ×ķ×Ķ×Ĳ×Ŀ": 8067,
      "ĠâĨĲ": 8068,
      "Ġ×ķ×Ļ×¡": 8069,
      "Ġ×©×Ľ×ł": 8070,
      "Ġ×ľ×ª×Ĺ×ķ×Ŀ": 8071,
      "Ġ×ŀ×Ķ×ł×Ķ": 8072,
      "Ġ×Ķ×§×Ļ×ĳ×ķ×¥": 8073,
      "Ġ×Ķ×ķ×¤×Ľ×Ļ×Ŀ": 8074,
      "Ġ×ĳ×Ĳ×Ļ×ľ×ª": 8075,
      "Ġ×ª×ķ×ª": 8076,
      "Ġ×Ĳ×Ķ×ĳ×ª": 8077,
      "Ġ×Ķ×§×©×ķ×¨×Ļ×Ŀ": 8078,
      "Ġ×Ķ×ŀ×ķ×ķ×ª": 8079,
      "ick": 8080,
      "Ġ×ķ×ĺ×¨": 8081,
      "Ġ×Ķ×Ĳ×ª": 8082,
      "Ġ×ĳ×Ļ×¦×Ļ×Ŀ": 8083,
      "Ġ×Ķ×¦×¢×ĵ": 8084,
      "Ġ×Ĳ×ķ×ĸ": 8085,
      "Ġ×Ĺ×ŀ×Ķ": 8086,
      "×ĺ×¨×Ľ×ķ": 8087,
      "Ġ×ŀ×ķ×Ľ×¨×Ļ×Ŀ": 8088,
      "×Ĵ×ľ×Ļ": 8089,
      "Ġ×Ĳ×¨×¦×Ļ": 8090,
      "Ġ×ŀ×¦×ľ×Ļ×Ĺ×Ļ×Ŀ": 8091,
      "×ľ×Ļ×Ĵ×ª": 8092,
      "Ġ×ľ×ª×¨×ķ×Ŀ": 8093,
      "Ġ×Ķ×ĳ×Ļ×ł×Ļ×Ļ×Ŀ": 8094,
      "Ġ×ľ×ŀ×ķ×ª": 8095,
      "Ġ×Ķ×ł×ŀ": 8096,
      "Ġ×Ķ×ł×ķ×Ľ×Ĺ×Ļ×ª": 8097,
      "Ġ×ŀ×ŀ×©×ľ×Ķ": 8098,
      "Ġ×ŀ×ª×ĳ": 8099,
      "×ª×¨×Ĵ×ķ×Ŀ": 8100,
      "Ġ37": 8101,
      "×Ĺ×¡": 8102,
      "Ġ×¡×ł×ĺ×¨": 8103,
      "Ġ×¨×Ļ×ĳ": 8104,
      "Ġ×Ķ×¦×¤×ķ×Ł": 8105,
      "Ġ×Ĺ×ŀ×Ĳ×¡": 8106,
      "Ġ×ĳ×¨×ķ×Ĺ": 8107,
      "ube": 8108,
      "Ġ×ŀ×¤×§": 8109,
      "Ġ×Ķ×Ĵ×ĵ×¨×ķ×ª": 8110,
      "Ġ×¢×ŀ×ķ×¡": 8111,
      "×ŀ×¨×§": 8112,
      "×ĳ×¢×Ļ×Ķ": 8113,
      "Ġ×§×©×ĳ": 8114,
      "×ķ×ĺ×Ļ×ķ×ĳ": 8115,
      "Ġ×ĵ×¨×ķ×©": 8116,
      "Ġ×Ķ×§×¤×Ķ": 8117,
      "Ġ×¢×ĳ×ķ×ĵ×ª×ķ": 8118,
      "Ġ×Ĺ×ķ×ª": 8119,
      "Ġ×Ķ×©×Ľ×¨": 8120,
      "Ġ×ľ×ľ×§×ķ×Ĺ": 8121,
      "×ķ×ł×Ļ×ĳ×¨×¡×Ļ×ĺ": 8122,
      "×©×ŀ×¢": 8123,
      "×¡×Ĳ": 8124,
      "×Ľ×ł×Ļ×ķ×Ł": 8125,
      "Ġ×Ĳ×ł×¨×Ĵ": 8126,
      "Ġ×Ĺ×ķ×ľ×Ķ": 8127,
      "Ġ×ĳ×©×ŀ": 8128,
      "Ġ×ľ×ĳ×¨×¨": 8129,
      "Ġ×ĵ×ĳ×©": 8130,
      "Ġ×Ĳ×ŀ×Ł": 8131,
      "Ġ×§×Ļ×ł×Ĵ": 8132,
      "×Ļ×ł×Ĵ×¨": 8133,
      "Ġ×Ķ×¢×¨×ĳ×Ļ×Ŀ": 8134,
      "Ġ×ŀ×¡×¤×¨×ª": 8135,
      "Ġ×ľ×Ķ×Ļ×¨×©×Ŀ": 8136,
      "Ġ×Ĺ×ķ×ĳ×ķ×ª": 8137,
      "Ġ×ŀ×Ľ×Ļ×¨×ª": 8138,
      "Ġ×ľ×Ķ×©×ľ×Ļ×Ŀ": 8139,
      "__": 8140,
      "Ġ×Ĳ×ķ×ł×ľ×Ļ×Ļ×Ł": 8141,
      "×ķ×Ĵ×ŀ×ª": 8142,
      "erv": 8143,
      "Ġ×Ĺ×ł×ķ×Ľ×Ķ": 8144,
      "×¤×ľ×Ļ×§×¦×Ļ×ķ×ª": 8145,
      "Ġ×ľ×Ķ×ł×ķ×ª": 8146,
      "Ġ×Ķ×ĺ×§×¡×ĺ": 8147,
      "Ġ×Ļ×§×¨×Ļ×Ŀ": 8148,
      "Ġ×Ķ×ŀ×ķ×ĳ×Ļ×ľ×Ļ×Ŀ": 8149,
      "×ĳ×ĵ×Ķ": 8150,
      "×©×¨×ĵ×Ļ": 8151,
      "Ġ×ľ×ł×¦×ľ": 8152,
      "×Ļ×ĸ×ķ×ª": 8153,
      "Ġ×Ķ×Ķ×¢": 8154,
      "Ġ×Ķ×ŀ×ĳ×ĺ": 8155,
      "Ġ×Ĳ×Ļ×ł×¡": 8156,
      "Ġ×ĳ×ĳ×ł×Ļ": 8157,
      "Ġ×Ķ×ł×Ĵ": 8158,
      "Ġ×ķ×Ļ×ľ×ĵ×Ļ×Ŀ": 8159,
      "Ġ×¡×ĳ×Ļ×ĳ×ª": 8160,
      "Ġ×Ĳ×ŀ×ķ×¨×Ķ": 8161,
      "Ġ×§×ķ×¨×ķ×ª": 8162,
      "Ġ×¡×Ļ×¡×ŀ×Ķ": 8163,
      "Ġ×Ľ×Ļ×¡×ķ×Ļ": 8164,
      "×Ĺ×ł×ķ×ª": 8165,
      "Ġ×Ĳ×¡×Ļ×Ķ": 8166,
      "Ġ×ŀ×Ĺ×ĸ×Ļ×§": 8167,
      "Ġ×Ķ×Ĳ×ł×ķ×©": 8168,
      "ue": 8169,
      "Ġ×ª×¤×§×Ļ×ĵ×ķ": 8170,
      "Ġ×©×ŀ×¢×ª×Ļ": 8171,
      "Ġ×ŀ×©×ļ": 8172,
      "Ġ×ĵ×¨×Ľ×Ļ": 8173,
      "Ġ×Ķ×ŀ×ŀ×©": 8174,
      "×ł×ĵ×ĳ×Ļ×Ŀ": 8175,
      "Ġ×Ĵ×ľ×Ļ": 8176,
      "rip": 8177,
      "Ġ×§×ķ×©×Ļ": 8178,
      "Ġ×Ķ×ķ×§×Ŀ": 8179,
      "Ġ×ł×Ļ×¡×Ķ": 8180,
      "Ġ×¦×Ļ×ķ×¨": 8181,
      "Ġ×¢×ľ×ª×Ķ": 8182,
      "×¦×Ļ×Ļ×Ł": 8183,
      "Ġ×ķ×Ĺ×Ļ": 8184,
      "Ġ×Ķ×Ĵ×ķ×¨×ŀ×Ļ×Ŀ": 8185,
      "×Ĳ×ŀ×ł×Ļ×Ŀ": 8186,
      "Ġ×¢×Ļ×ľ×Ļ×ª": 8187,
      "Ġ×¨×©×ľ×ł×ķ×ª": 8188,
      "Ġ×ŀ×Ľ×ķ×ł×Ļ×ķ×ª": 8189,
      "Ġ×ľ×¢×ł×Ļ×Ļ×ł×Ļ": 8190,
      "Ġ×ŀ×¦×¤×Ķ": 8191,
      "Ġ×ľ×Ķ×¦×Ļ×ľ": 8192,
      "Ġ×¢×ľ×ķ": 8193,
      "Ġ×Ĺ×©×ŀ×ľ×Ļ": 8194,
      "Ġ×ľ×ĵ×ĳ×¨×Ļ×ķ": 8195,
      "Ġ×Ķ×©×ķ×ŀ×¨": 8196,
      "Ġ×Ķ×§×¨×ķ×ĳ×ķ×ª": 8197,
      "Ġ×¡×ĺ×Ļ×Ļ×ľ": 8198,
      "Ġ×ŀ×¨×©×Ļ×Ŀ": 8199,
      "ear": 8200,
      "Ġ×Ķ×ª×Ļ×Ļ×¨×ķ×ª": 8201,
      "×Ļ×Ĳ×ķ×Ŀ": 8202,
      "Ġ×ŀ×Ĳ×¤×©×¨×Ļ×Ŀ": 8203,
      "Ġ×ľ×¤×Ļ×Ľ×ļ": 8204,
      "Ġ×Ķ×¡×ķ×£": 8205,
      "300": 8206,
      "×ķ×ł×ł×ª": 8207,
      "×Ķ×©×Ĳ": 8208,
      "×ŀ×¦×¢×Ļ": 8209,
      "Ġ×©×¢×¨×Ļ×Ŀ": 8210,
      "Ġ×Ĳ×ķ×©×¨": 8211,
      "×ĳ×ŀ×¡×Ĵ×¨×ª": 8212,
      "Ġ×¡×ĺ×¨×Ļ×ĺ": 8213,
      "Ġ×ľ×Ķ×¦×ľ×Ļ×Ĺ": 8214,
      "×¤×¨×Ļ×Ķ": 8215,
      "Ġ×¨×Ļ×¦": 8216,
      "Ġ×ŀ×¦×Ĺ×Ļ×§": 8217,
      "Ġ×Ľ×ĳ×Ļ×¡×Ķ": 8218,
      "Ġ×¡×¤×¦×Ļ×¤": 8219,
      "Ġ×Ĳ×ĸ×¨×Ĺ×Ļ×Ŀ": 8220,
      "×ľ×ķ×Ļ×Ļ×Ŀ": 8221,
      "th": 8222,
      "Ġ×Ķ×Ļ×¡×ķ×ĵ": 8223,
      "×Ĺ×ľ×ķ×Ł": 8224,
      "×ĳ×ķ×ĺ": 8225,
      "×Ļ×ŀ×ľ×Ļ": 8226,
      "Ġ×ŀ×Ķ×ĺ": 8227,
      "Ġ×ĳ×ª×ķ×Ľ×ķ": 8228,
      "Ġ×Ĺ×Ļ×Ļ×ł×ķ": 8229,
      "Ġ×Ļ×§×ĳ×ľ": 8230,
      "Ġ×Ķ×ŀ×©×ķ×ª×£": 8231,
      "Ö½": 8232,
      "×¢×Ļ×ķ×Ł": 8233,
      "2011": 8234,
      "Ġ×Ķ×ĳ×Ļ×§×ķ×¨×ª": 8235,
      "Ġ×ŀ×¢×ł×Ļ×Ļ×ł×Ļ×Ŀ": 8236,
      "×Ķ×ķ×¡×¤×ª": 8237,
      "Ġ×ľ×ĸ×ŀ×Ł": 8238,
      "×ķ×ł×ł×ķ": 8239,
      "×Ķ×Ĳ×Ļ×ŀ×Ļ×Ļ×ľ": 8240,
      "Ġ×ĳ×Ĳ×ķ×¤": 8241,
      "Ġ×¨×ĸ": 8242,
      "Ġ×©×ł×¢×¨×ļ": 8243,
      "'-": 8244,
      "Ġ×ľ×¢×¦×ŀ×Ķ": 8245,
      "2013": 8246,
      "Ġ×ĳ×ŀ×Ĺ×©×ĳ": 8247,
      "Ġ×¤×ł×ķ": 8248,
      "Ġ×ĳ×¦×Ķ": 8249,
      "Ġ×Ķ×Ļ×Ļ×Ĺ": 8250,
      "×Ļ×¡×ķ": 8251,
      "×§×Ĳ×ķ×ª": 8252,
      "×ŀ×ª×Ľ×ķ×ł×Ļ×Ŀ": 8253,
      "×Ļ×¨×ķ×©×ľ×Ļ×Ŀ": 8254,
      "Ġ×Ķ×ĵ×ª×Ļ": 8255,
      "Ġ×Ķ×Ĺ×§×Ļ×¨×Ķ": 8256,
      "×§×Ļ×Ķ": 8257,
      "Ġ×Ķ×ª×Ĳ×ķ×ł×Ķ": 8258,
      "Ġ×Ĵ×ĳ×ķ×ľ": 8259,
      "Ġ×Ķ×ŀ×§×¨×Ķ": 8260,
      "Ġ×Ĳ×Ļ×¤": 8261,
      "Ġ×Ļ×©×Ļ×ĳ×ª": 8262,
      "×¡×§×ķ": 8263,
      "×ĵ×¨×ķ": 8264,
      "Ġ×Ĳ×©×Ķ": 8265,
      "Ġ×©×ł×Ľ×ł×¡": 8266,
      "Ġ×Ķ×Ľ×¡×¤×Ļ×Ŀ": 8267,
      "×ķ×Ĺ×ĸ×¨": 8268,
      "Ġ×Ķ×Ĺ×Ļ×ľ": 8269,
      "×Ļ×¢×ķ×Ł": 8270,
      "Ġ×ŀ×¡×Ĵ×¨×ª": 8271,
      "Ġ×Ĳ×Ļ×Ľ×ķ×ª×Ļ×ª": 8272,
      "Ġ×Ķ×Ĺ×ķ×ķ×Ļ×Ķ": 8273,
      "âĢ¦.": 8274,
      "Ġ×ŀ×ķ×ĳ×Ļ×ľ×Ļ×Ŀ": 8275,
      "Ġ×ł×ķ×¢×Ŀ": 8276,
      "×Ķ×ķ×ª": 8277,
      "Ġ×Ķ×Ĵ×ľ×Ļ×ľ": 8278,
      "Ġ×¤×ł×ĺ": 8279,
      "Ġ×Ĵ×ĳ×ķ×Ķ×ķ×ª": 8280,
      "Ġ×ĸ×§×ķ×§": 8281,
      "×ķ×¢×ĵ×ķ×ª": 8282,
      "×Ķ×Ĳ×¨×¥": 8283,
      "Ġ×Ķ×¤×Ļ×ª×ķ×Ĺ": 8284,
      "Ġ×Ļ×Ķ×ľ": 8285,
      "Ġ×ľ×¡×Ļ×Ļ×Ŀ": 8286,
      "×ķ×§×Ł": 8287,
      "Ġ×¢×ŀ×ķ×ª×ª": 8288,
      "Ġ×ŀ×ķ×¡×ŀ×ļ": 8289,
      "Ġ×Ĳ×ŀ×Ķ": 8290,
      "Ġ×ł×Ļ×©×ķ×Ĳ×Ļ×Ł": 8291,
      "Ġ×¨×Ľ×Ļ×©×Ķ": 8292,
      "Ġ×ľ×ŀ×ł×Ļ×¢×ª": 8293,
      "Ġ×Ķ×ª×Ĺ×Ļ×Ļ×ĳ×ķ×ª": 8294,
      "Ġ×Ķ×¢×©": 8295,
      "Ġ×¡×Ļ×ķ×¨": 8296,
      "Ġ×ŀ×ľ×ŀ×ĵ": 8297,
      "Ġ×ĳ×Ľ×¨": 8298,
      "ox": 8299,
      "Ġ×©×Ĺ×©×ķ×ĳ": 8300,
      "Ġ×©×Ľ×ķ×ľ×Ŀ": 8301,
      "Ġ×Ķ×Ĺ×ľ×ľ": 8302,
      "Ġ×ķ×ĳ×ľ": 8303,
      "Ġ×ķ×Ļ×ł": 8304,
      "Ġ×ŀ×©×¨×Ķ": 8305,
      "×Ļ×¤×ķ×Ĺ": 8306,
      "Ġ×Ķ×ĳ×Ļ×ĺ×ķ×Ļ": 8307,
      "Ġ×ŀ×Ļ×§": 8308,
      "Ġ×ĳ×ĵ×Ļ×¨×Ķ": 8309,
      "Ġ×ķ×ŀ×Ĳ×¤×©×¨": 8310,
      "Ġ×ŀ×ķ×¨×Ľ×ĳ×ª": 8311,
      "Ġ×ķ×Ļ×Ľ×ķ×ľ": 8312,
      "Ġ×ŀ×ľ×Ĳ×Ļ×Ŀ": 8313,
      "×ŀ×¨×ĺ": 8314,
      "Ġ×ª×Ĺ×ĸ": 8315,
      "Ġ×Ļ×ĵ×¢×ķ": 8316,
      "Ġ×Ķ×¤×ķ×ļ": 8317,
      "Ġ×Ļ×©×ł×Ł": 8318,
      "Ġ×ŀ×©×ľ×ĳ": 8319,
      "Ġ×ĸ×§×Ł": 8320,
      "Ġ×ŀ×Ĳ×Ĵ×¨": 8321,
      "Ġ×ł×ķ×ĳ×ŀ×ĳ×¨": 8322,
      "Ġ×¨×Ļ×Ĳ×ľ": 8323,
      "???": 8324,
      "×§×¦×Ļ×Ķ": 8325,
      "×©×¢×ķ×ª": 8326,
      "×Ļ×¡×ķ×¨": 8327,
      "Ġ×ŀ×Ļ×ĺ×ĳ": 8328,
      "×Ķ×Ļ×¨×©×Ŀ": 8329,
      "Ġ×Ķ×Ĵ×Ł": 8330,
      "Ġ×ľ×ĺ×Ļ×ķ×ľ": 8331,
      "×ł×Ĺ×Ļ×ķ×ª": 8332,
      "×Ĳ×ŀ×Ĳ": 8333,
      "Ġ39": 8334,
      "Ġ×Ķ×ķ×ķ×ª": 8335,
      "×ķ×ĸ×¨×Ļ×Ŀ": 8336,
      "Ġ×Ķ×¤×ķ×¨×ķ×Ŀ": 8337,
      "×Ĳ×Ķ×ĳ×Ķ": 8338,
      "Ġ×ĳ×Ĳ×¤×©×¨×ķ×ª": 8339,
      "×Ĵ×ľ×ķ×ª": 8340,
      "×ľ×Ĵ×ĳ×Ļ": 8341,
      "Ġ×ľ×¢×ĳ×¨×Ļ×ª": 8342,
      "Ġ×ŀ×¦×ľ×Ļ×Ĺ×Ķ": 8343,
      "Ġ×Ľ×©×Ķ×Ŀ": 8344,
      "Ġ×Ķ×ŀ×¡×¤×¨": 8345,
      "Ġ×Ķ×Ĺ×ľ×Ļ×ĺ×Ķ": 8346,
      "Ġ×Ĳ×ł×ĵ": 8347,
      "Ġ×¤×ķ×¨×ĺ×ľ": 8348,
      "×ĸ×¨×Ĺ×ķ×ª": 8349,
      "Ġ×Ĳ×Ķ×ĳ×ķ": 8350,
      "Ġ×ľ×Ķ×Ĺ×ĸ×Ļ×§": 8351,
      "Ġ×ŀ×Ĺ×Ļ×Ļ×ĳ": 8352,
      "ah": 8353,
      "Ġ×ĺ×ķ×¢×ł×Ļ×Ŀ": 8354,
      "Ġ×ĳ×©×ĵ×Ķ": 8355,
      "Ġ×¤×Ļ×ª": 8356,
      "Ġ×ŀ×ŀ×¨": 8357,
      "Ġ$": 8358,
      "×ŀ×Ľ×ķ×ª": 8359,
      "Ġ×Ķ×ŀ×¢×¨×¢×¨": 8360,
      "Ġ×Ķ×¦×ľ×Ļ×Ĺ×Ķ": 8361,
      "Ġ×Ļ×ĵ×Ļ×ĵ×ķ×ª": 8362,
      "Ġ×Ļ×©×ª": 8363,
      "Ġ×Ķ×ķ×ĵ×ķ": 8364,
      "×Ĺ×ĸ×¨×Ķ": 8365,
      "Ġ×¢×Ļ×¡×ķ×Ļ": 8366,
      "Ġ×ľ×ĳ×ł×Ļ×Ŀ": 8367,
      "Ġ×Ķ×Ĳ×Ĵ×ķ×ĵ×Ķ": 8368,
      "Ġ×Ķ×ª×ķ×Ľ×ł×Ķ": 8369,
[...]
