#version: 0.2
Î ±
Î ¿
Ï Ħ
Î ¹
Î µ
Î ½
Ï ĥ
Ï ģ
Î º
Ï Ģ
Î ·
Ï Ĥ
Ï ħ
Î ¼
Î »
Ġ ÏĦ
Î ¯
Î ¬
Ï Į
Î¿ Ïħ
Î Ń
Î ³
Î ´
Ġ ÏĢ
Ġ Îº
Ġ Ïĥ
Ï ī
Î ®
Ġ Î±
Î± Î¹
Ï ĩ
Ġ Îµ
Ġ Î¼
Î ¸
Î¹ Îº
Ï į
Îµ Î¹
Î½ Î±
Î¹ Î±
Ï Ĩ
ĠÏĦ Î·
Ï İ
ÏĦ Î±
ÏĦ Î¿
Ġ Î´
ĠÎº Î±Î¹
Ïģ Î¿
Î ²
Ïģ Î±
ÏĦ Îµ
ÏĦ Î·
ĠÏĦ Î¿
ĠÏĦ Î¿Ïħ
ÏĢ Î¿
Î¼ Î±
Ïĥ Î·
Î¯ Î±
Î ĳ
Ïī Î½
Ġ Î³
Ġ Î¿
Ïģ Î¹
Î ķ
ĠÎ¼ Îµ
Ġ Î½Î±
Î ¾
Î½ Î¿
Î¼ Îµ
Ġ ÎŃ
ÏĦ Î¹Îº
ĠÏĦÎ· ÏĤ
Î» Î¿
Î ¶
Î £
ÏĢ ÏĮ
ÏĦ Î¹
Î ł
Î ¤
Îµ Î¯
ĠÏĦÎ· Î½
Îµ ÏĤ
ĠÎº Î±
Î¯ Î½
Î¿ Ïį
Î Ł
Î± Î½
Ġ ÏĮ
Î ļ
ĠÎ³ Î¹Î±
Ïİ Î½
Î¹ Ïĥ
Î» Î»
Ġ Î¸
ĠÎ± ÏĢÏĮ
Ġ Ïĩ
ĠÏĢ Î¿Ïħ
Ġ Î·
Î ľ
Ïģ Î¬
ÏĦ Î¬
ĠÏĥ Ïħ
Ġ Îĳ
Ïģ Î¯
ÎŃ ÏĤ
ĠÏĥ ÏĦÎ¿
ÏĦ Î±Î¹
Îµ Î½
Ġ Îķ
Î¿Ïħ Î½
Ïģ ÏĮ
ĠÏĦ Î±
Î¹ Î¿
ĠÏĢ ÏģÎ¿
ĠÎµ ÏĢ
Ġ Îł
Ïĥ ÎµÎ¹
. .
ĠÏĥ ÏĦÎ·
Î± ÏĤ
Î Ķ
Î¬ Î½
Î¼ Î¿
Î® ÏĤ
Ġ Î²
Ġ ÏĨ
Ïģ Î³
Î¼ ÎŃ
ĠÏĥ Îµ
Î Ĺ
Î» Î±
Î» Î·
Î» Îµ
Î Ļ
ĠÏĢ Î±
Ġ Îļ
ĠÎ± Î½
Ïī ÏĤ
Ġ Î£
Ġ Ïħ
Î¯Î½ Î±Î¹
ĠÏĦ ÏīÎ½
Î½ Î·
Ïĥ Îµ
ÏĦ Î®
ÏĦ ÏĮ
Ïģ Îµ
Ġ Î¤
Î¿ Î»
ĠÎµ Î¯Î½Î±Î¹
Ġ Îľ
Î Ŀ
Ġ (
Î¿Ïħ ÏĤ
Îº Îµ
Î¿ Î½
ĠÎ± Ïħ
ĠÎ¸ Î±
Ï Ī
â Ģ
ĠÏĥÏĦÎ· Î½
ĠÏĢ Îµ
ĠÏĦÎ¿ Î½
Ïģ Ïī
Î¯Î± ÏĤ
Î ĵ
ĠÏĦÎ¿Ïħ ÏĤ
Î¹ Î¬
Ïģ Î·
ĠÏĦ Î¹
Ġ ÎĶ
ÏĥÎ· ÏĤ
Â »
Â «
Ġ Î¬
Îº Î±
Î¸ Î·
Î¹Îº ÏĮ
ĠÎ´ Î¹Î±
ĠÎ± ÏĢÎ¿
Î½ Îµ
Ġ Î»
Î¸ Îµ
ÏĥÎµÎ¹ ÏĤ
ÏĢ Î±
Î¿ Î¹
Ġ 2
ĠÎ´ ÎµÎ½
Ġ 1
Ġ Î®
Ïĩ ÎµÎ¹
ĠÎ¿ Î¹
Î¹Îº Î®
Ïĥ Î±
ĠÏĦÎ¹ ÏĤ
Ïģ Ïİ
Ġ Â«
ÏģÎ¹ Ïĥ
Î¯ Î´
Î¼ ÏĮ
Ġ ÎŁ
ÏĢ Îµ
ĠÎ± Î½Î±
ĠÎ¼ ÎŃ
Ïģ ÎŃ
Î¼ Î¬
Î± Ïĥ
Î¿ ÏĤ
Î Ľ
ĠÎµ Îº
ÏĦÎ± Î½
Î»Î» Î¬
ĠÎµ Î½
Ïģ Ïĩ
Î»Î¿ Î³
Î ¥
Î ¡
Ïĥ ÏĦÎµ
Ïĥ Î¹
Î´ Î¿
ÏĦ Î¯
Ġ Îĵ
ĠÎŃ Î½Î±
.. .
ĠÎµÏĢ Î¹
ĠÏĮ ÏĦÎ¹
ÏĢ Î¿Ïħ
ÏĦ ÎŃ
Î Ĵ
Îº Î¿
ÏĨ Î¿
Î¼Î± ÏĦÎ±
ÏĦÎ¹Îº ÏĮ
ĠÎº Î¬
Îº ÏĮ
Ġ Î½
ĠÎ¼ Î±ÏĤ
Î» Î®
Î¹Îº Î¬
Î¿Ïħ Î¼Îµ
Î· Î½
Îµ ÏĦÎ±Î¹
Î» Î¬
Î» ÎŃ
ĠÏĢ Î¿Î»
ÏĦÎ¹Îº Î®
Ïģ Î®
Î¾ Îµ
Î· ÏĤ
ÏĦÎ± ÏĤ
ÎŃ Ïģ
Ïĩ Îµ
Î¼ Î²
Ġ ÎĿ
Î §
Î´ Î±
ÏĦÎ¿ ÏĤ
Ïį Î½
ĠÏĥÏħ Î½
Î¬ Î»
ÏĦ Ïħ
Î ĺ
ÏĦÎ¹Îº Î¬
Ïĥ Î¿
Î¼ Î·
ĠÏĥ ÏĦÎ±
ĠÎµ Î¯
ĠÎ¼ Î¹Î±
Î¹ Î´
ĠÏĢ Î¿
Ġ ÎĹ
ÏĢ Î¬
ÏĦ ÏģÎ¿
ĠÏĢÏģÎ¿ Ïĥ
Ġ -
ÎµÎ¹ ÏĤ
ĠÎµ Î¾
Ġ ÎĴ
ĠÎ´ Î·
ÏĦÎµ ÏĤ
Ġ2 0
ĠÏĢÎ± ÏģÎ±
ÏĢÎ¿ Î¹
ĠÏĢÎµ ÏģÎ¹
ÎµÎ¹ Î±
Î± Î»
Î ¦
Ġ Î¶
Î³ ÏģÎ±
Î¯ Ïĥ
ĠÎºÎ± ÏĦÎ±
Ïģ Î¹Î±
Î³ Îº
ĠÏĥ ÏĦÎ¹
ĠÎ¿ ÏĢÎ¿
ĠÎ¼ Î±
Î¸ ÎµÎ¯
Ïģ ÎµÎ¯
Ïģ Î¿Ïħ
Î¼ ÏĢ
ĠÎ± Î³
Î½ ÏīÎ½
Ġ ÎĻ
Ïİ ÏĤ
ĠÎ± ÏĢ
Ġ âĢ
Îµ Ïħ
ĠÎ¼ ÏĢÎ¿
Î Ī
ĠÎµ Ïħ
Î¯ Î¿Ïħ
ĠÎŃ ÏĩÎµÎ¹
Î¯ Î¶
Î¹ Î½
Ïħ Ïĥ
ĠÏĢ ÏģÏĮ
e r
ĠÎ¼ Î¿Ïħ
ĠÎ¸ ÎŃ
Îµ Ïģ
Î¹Îº Î¿
ÏĮ ÏĦÎµ
ÏĮ ÏĤ
Î¯ ÎµÏĤ
Ïģ ÎµÏĤ
ÏĦ Ïī
Ïĥ ÏĦÎ·
Îµ Î»
Î¾ Î·
ĠÎ± Î»Î»Î¬
ĠÎ±Ïħ ÏĦÏĮ
Î± Ïģ
Î¯ Îº
ĠÎºÎ± ÏĦÎ¬
Ïħ Î½
ĠÎŃ Ïĩ
ĠÏħ ÏĢÎ¿
Ġ Î§
ĠÏĥÏĦÎ¿ Î½
Î¼ Î¹
ÏĦ ÏİÎ½
Î¹Îº Î®ÏĤ
0 0
ĠÏĥ Î±ÏĤ
ÏĮ Î½
ĠÏĥÏĦÎ¹ ÏĤ
ÏĮ Î³
Î¿Ïį Î½
Î¼ ÏĨ
ÏĦÎ· ÏĦÎ±
ÎŃ Î½
ÏĦ Î¿Ïħ
Î¼ Î®
Ġ ÎĽ
Î½ Ïī
ÏĦ ÎŃÏĤ
Ïį ÏĦÎµ
Î´ Î·
ĠÎ´ Î¹
Ġ Îĺ
ÏĢ Î·
Ïģ Î¯Î±
ÏĦ ÏīÎ½
Î¹Îº Î¿Ïį
ÏĢ ÎµÎ¹
Ïĥ Ïī
Î»Îµ Ïħ
ÏĪ Î·
Ïĥ Î¯Î±
Ï Ĭ
Î½Î¿ Î¼
ÏģÎ¹ Î½
Î¼ÎŃ Î½Î¿
Î» Î¹
Î Į
Î¤ Î¿
ÏģÎ± Î³
Î¸Î· ÎºÎµ
Î± Î³
Î¼ Î¿Ïį
ĠÏĥ Î·
Ïİ ÏģÎ±
Ġ20 1
Î¯ Î¿
ÏĢ ÏīÏĤ
Ïĥ ÏĦÎ±
Î² Î±
ÏģÎ¿ ÏĤ
i n
Î¼ÎŃ Î½
Î³ÏģÎ± ÏĨ
ĠÏĥ Ïĩ
ĠÎ¼Îµ Î³
ÏĦÎ¿ Ïį
ĠÎº Ïħ
Î¿ Ïģ
Ġ Î¦
ĠÎºÎ± Î¸
Ġ Î¹Ïĥ
ĠÎ´ Îµ
ÏĦ ÏģÎ±
Î¬ Ïģ
Î»Î¿ ÏĤ
Ïħ Î½Î±
ÏģÎ¿ Ïį
Ïĩ Î½
ĠÎł Î±
Î´ Î¹Î±
Ġ "
ĠÎ± Ïĥ
Ïĥ Î±Î½
ĠÎ¼Îµ ÏĦÎ±
Î¸ Î®
ÏĢ Î¹
âĢ ¦
Î¼Î± ÏĦÎ¿ÏĤ
ĠÏĦ Îµ
Ġ ÎĪ
Î¹Îº ÎŃÏĤ
ĠÎ½ ÎŃ
Ïģ Îº
Î» ÎµÎ¹
Î»Î» Î·Î½
ÏģÎ¯ Î¿Ïħ
Ġ Î¾Îµ
Î±Î¹ Î´
Ïĩ Î±
Î ©
Î»Î¿ Î¹
Ġ 3
ĠÏĥ Ïį
ĠÎº ÏĮ
ÏģÎ¹ Î¿
Îº Î±Î½
ÏĦ Î¿ÏħÏĤ
Ïĥ Î¿ÏħÎ½
ĠÎº Î¬Î½
Î· ÏĥÎ·
ĠÎº Î¹
Î¿Î½ ÏĦÎ±Î¹
ĠÎ® ÏĦÎ±Î½
ĠÎº Î¿Î¹
ĠÏĩ ÏģÏĮ
ĠÎļ Î±
Ïĩ Î®
ĠÎ¼ ÏĮ
Î´ Î®
Î³ Î¿
Îº Î¬
Î¹Îº ÏİÎ½
Ïĥ ÎºÎµ
Î¸ ÎŃ
! !
Îº Î¹
Î¯Î½ ÎµÎ¹
Î½Î¿ Î½
Ïī ÏĥÎ·
o n
ĠÎ¬ Î»Î»
ĠÎ¤ Î¿
a n
ĠÏĢ ÏģÏİ
ĠÎµÏĢ Î¯
ÏĦÎ¹Îº ÎŃÏĤ
ÏĦÎ¹Îº Î®ÏĤ
ĠÎ¸ Îµ
ÏĨ Î±
ÏĦÎ¹ Ïĥ
Î»Î¿ Î½
ĠÎ´ Î¹Î¬
ĠÏĩ Î±
ÏģÎ¿ Î½
ĠÎ±Î½ Î¬
Ġ Î¹Î´
Ġ ÏīÏĤ
ĠÎŃÏĩ Î¿ÏħÎ½
ĠÏĥ Î¿Ïħ
Î¼Î± Î½
ĠÎ¼ÏĢÎ¿ ÏģÎµÎ¯
ĠÏĢÎ¿Î» Ïį
Ïĥ Î¹Î±
Î³ Îµ
Î´ Îµ
Î² Î¬
Î¼Îµ Î½Î¿
ĠÎ± Îº
Ġ Î¾
Ġ S
Ïĥ ÏĦÎ¿
ĠÎ´ Ïį
ÏĦÎµ Î¯
ĠÏĢÎ¿Î» Î¹
ĠÏĥÏħ Î½Îµ
Î¶ ÎµÎ¹
ĠÎķ Î»Î»Î¬
Î» Ïħ
ĠâĢ ĵ
ĠÏĮ ÏĢÏīÏĤ
ÏĦÎ· ÏĤ
ĠÏĢÎ± ÏģÎ¬
e s
ĠÎ± ÏģÏĩ
Î¼ÎŃ Î½Î·
ÏĥÎµ ÏīÎ½
Î Ĩ
Î» ÎµÎ¯
a r
Ġ Î¥
ÏĦ Ïİ
ÏģÎŃ ÏĢÎµÎ¹
ÏĨ Î®
Îº Î®
ĠÏĦ ÎŃ
ĠÏĢÎµ ÏģÎ¯
Ïģ Ïħ
ÏĦÎ· ÏĥÎ·
ĠÎ±Ïħ ÏĦÎ®
ĠÏħ ÏĢÎ¬
ĠÏĢ ÏĮ
Î½ Î¹Î±
ĠÎ±Î½ ÏĦÎ¹
o r
Î½ ÏĮ
âĢ Ļ
ĠÎµ ÏģÎ³
Î³ Î®
ÎŁ Î¥
ĠÏĢ Î¹Î¿
ĠÏĢ ÏģÏī
ÏĦ Î¹Î±
Ïģ Î¸
ÏĦÎ¹Îº Î¿Ïį
Î¼ÏĮ ÏĤ
Î» Î¿Ïħ
Î³ Î³
Î½ Î®
Ïĩ Î¿
ĠÎºÎ± Î»
Î¹Î¿ ÏĤ
ĠÏĩ Ïī
ĠÏĢ Î¬Î½
Ġ ÏĪ
ĠÎĳ Î½
ĠÎ¼Îµ ÏĦÎ¬
ĠÎľ Îµ
ĠÏĢ ÏīÏĤ
Ġ Î¡
Î»Î¿ Ïį
ĠÎ¿ Î¹ÎºÎ¿
Ġ A
ÎµÎ¯ Î¿
Î¼ Î¼Î±
ÏĦÎ¹Îº ÏİÎ½
ÏĦ Ïģ
Î¹ Î»
ĠÏĨ Î¿
ĠÏĢ Î»Î·
Ġ 4
Î½Î± Î½
ÏĦÎ¿ Î½
ĠÎ´Î· Î¼Î¿
Îº Î»Î·
ÏĦ Î®ÏĤ
Î¼ÎŃ Î½Î±
Ġ C
ĠÎ¼ÏĮ Î½Î¿
Î¼ ÏīÏĤ
ÎĻ Îĳ
Ïĩ Î¹
Îµ Ïį
ÏĨ ÎŃÏģ
ÏĢ Î¹Ïĥ
ĠÏĢ ÏģÎŃÏĢÎµÎ¹
ĠÎ± ÎºÏĮ
ĠÏĢ Î±Î¹Î´
ĠÎº Î¿
Ġ Î¯Î´
Î ĸ
Î¼ Î¿Ïħ
ÏĢÎ¿Ïħ ÏģÎ³
Ïħ ÏĦÏĮ
Ġ Î¬Î½
Î» Ïī
ĠÎ´ Î¹Îº
a l
ĠÏĥ ÏĩÎµ
Î³ ÏģÎ¬
ĠÎ» ÏĮÎ³
Ġ 5
Î³ Î±
Î½Î± ÏĤ
ĠÏĥÏħ Î¼
Î»Î» Î·
Ġ M
ÏĢÎ¿ Î¯
Ïĥ ÏĦÎ¬
ÎŁ Î¹
ĠÏĥ ÏĦÎ¿ÏħÏĤ
Ïĩ Î±Î½
Â» .
ĠÎµÏĢ Î¹Ïĥ
ÏģÎ±Î³ Î¼Î±
ĠÎºÎ¬ Î¸Îµ
Ġ B
Îº ÏģÎ¹
e n
ÏģÎ± Îº
ĠÏĢÎµ ÏģÎ¹Ïĥ
Î´ ÎµÏĤ
ÏĨ Î·
Î¸ Î¿ÏįÎ½
ÎµÎ¯ ÏĤ
Î½Î¿ Ïį
Ïĥ ÏĮÏĦÎµ
ÏĢ Î¯
ĠÎ¶ Ïī
Î¼Î¬ ÏĦÏīÎ½
ĠÏĦ ÏĮ
Ġ ÎĮ
Î® Î¼Îµ
Ġ Î½Îµ
Î¸ Î½
Ġ Î»Î±
Ġ ÎĨ
ĠÎķ Ïħ
ĠÎĶ Î·
Ġ P
ÏĨ Îµ
Î½Î¿ ÏĤ
ÏĥÎ¹ Î¼Î¿
Î¹ Ïİ
ÏĢ Î®
ĠÏĮ Î»
ĠÎľ Î±
ĠÎ¼ Î·
g r
Ġ1 9
ĠÎ¿ÏĢÎ¿ Î¯Î±
ĠÎĺ Îµ
Î¯Î´ Î±
ÏģÎ¯ Î¶
Î¬ Î¶
ĠÎ» ÎŃ
ĠÎ±Ïħ ÏĦÎ¿
ĠÏĢÎµÏģÎ¹ Î¿
ĠÎµÎ½ Ïİ
i t
ÏĦ ÏĥÎ¹
) .
Ġ T
ĠÎķÎ»Î»Î¬ Î´Î±
ĠÏĩ ÏģÎ®
Î½ ÎµÏĤ
ĠÎ£ Ïħ
ĠÎ¼ÎŃ ÏĥÎ±
Î´ Ïħ
Î¯ ÏīÎ½
ÏĦÎµ Ïģ
Îº Î·
Ïĩ Î·
Ïĥ ÏĦÎ®
ĠÏĩÏģÏĮ Î½Î¹Î±
ĠÏĮ Î¼ÏīÏĤ
ĠÎ¼ÎµÎ³ Î¬
Î½Î· ÏĤ
ĠÎ¹Ïĥ ÏĦÎ¿
Ïģ ÎµÎ¹
ĠÏĩ ÏģÎ·
ÏĢ ÎŃ
ĠÎ± Ïģ
ĠÎµ Î³
) ,
ÏĦÏĮ ÏĤ
Â» ,
2 0
Î´ Î¹Îº
Ġ F
ÏģÎ¯ ÏĤ
Î®Î¼Îµ ÏģÎ±
ĠÎ±ÏĢÎ¿ ÏĦÎµ
ĠÎµÎ¯ ÏĩÎµ
ÏģÎ± ÏĤ
ĠÎ´Ïį Î¿
ÏĨ ÎŃ
ĠÎºÏĮ Ïĥ
Ïį ÏĢ
ĠÏĢ ÏģÎ±Î³Î¼Î±
ÏĨÎ¿ ÏģÎ¬
Î» Ïİ
ĠÏĢÏģÎ¿ ÏĤ
Î· Î³
ĠÎ± Î¾
ÏĦ ÎµÎ¹
Ïģ ÏİÎ½
Î¿Ïħ Î»
Î½ Ïİ
Î¸ Ïħ
ĠÎ¼ Î·Î½
Î³ Î¹
ĠÎ¼ Î®
Î´ ÏĮ
Î¯Î½ Î·
Îº ÏģÎ±
Îĳ Î£
ĠÏĢÎµÏģÎ¹Ïĥ ÏĥÏĮÏĦÎµ
Î¿Ïħ ÏģÎ³
ĠÏĢ Î¬
ÏĥÎºÎµ Ïħ
Î´ Î¹
ĠÎºÎ¬ ÏĢÎ¿
Ïĩ Ïī
Î» Î¯
ĠÎŁ Î¹
Î¿Î½ ÏĦÎ±ÏĤ
Îº ÎµÎ¹
Îº ÎŃ
ĠÏĮ ÏĦÎ±Î½
ÏĦÎ¿ Î¹
a t
s t
Îľ Îµ
o o
Î¶ Î¯
Î´ Ïİ
ĠÏĩ Ïİ
Ïĩ ÏģÎ¹
Î¿Ïį Î¼Îµ
Î´ ÏģÎ¿
ĠÎ¤ Î±
Ïĥ Î¿ÏħÎ¼Îµ
Î¯Î½ ÎµÏĦÎ±Î¹
ĠÎ» Î¯
ÏĥÎµ ÏĦÎµ
Î¾ ÎµÎ¹
Ġ Î»Îµ
Î¸Îµ ÏĥÎ·
Î» Î¹Î±
ĠÎµ Î»Î»Î·Î½
ĠÏħ ÏĢÏĮ
Î± Î½Î±
Î¯Î¶ ÎµÎ¹
ÏģÎ¿ ÏįÎ½
ĠÎ² Î¬
ĠÎ¼ Î¹Îº
ÏĨ Ïħ
Î¼Î¹ Î¿ÏħÏģÎ³
ĠÏĥÏħ Î¼Î²
Î» ÏĮ
ĠÎ³ Îµ
ĠÎ¼ Î¯Î±
ĠÏĮ Î»Î±
ĠÎ³ Î½Ïī
Ġ Ïİ
Ïĥ Î¼Î±
ĠÏĦ ÏģÏĮ
ÏĦÎ· ÏĦÎ±ÏĤ
ĠÎºÎ±Î¸ ÏİÏĤ
Ïĥ Î¯Î±ÏĤ
ĠÏĢÏģÎ¿ Î²
ĠÎºÎ± Î½
Î¤ Î±
i l
Ġ ,
Î¼Î¿ ÏĤ
âĢ Ŀ
ĠÎ¿ Î¼Î¬
Îº Î¿Ïį
ÏģÎ¯ ÎµÏĤ
á ½
ĠÎµÏĢ Î¹Îº
ĠÎ± ÏĨ
Î¹ Î²
Îº Î±Î¹
Î¼ Î±Î¹
o m
Î´ Î¹Î¿
ĠÎºÏħ Î²
Î´ Î±ÏĤ
ĠÏĥÏħ Î³
ĠÎµÎº ÎµÎ¯
Î ŀ
ÏĥÏĦÎ± ÏĥÎ·
ÏĦÎµ Ïį
Ïī Î½Î±
Î¸ ÏģÏī
ÏĦÎ¿Ïħ ÏģÎ³
ĠÎł ÏģÎ¿
Ġ 6
ĠÎ´ ÏħÎ½Î±
e l
ĠÏĩ ÏİÏģÎ±
Î»Î· ÏĤ
ĠÎ£ Îµ
Îµ ÏĦÎµ
Ïĥ ÏĦÏĮ
e t
i c
Ïĥ Î¯
ĠÎŃ Îº
Ïĩ Ïħ
ĠÎ¬ Î»
Ġ Î½Î¿
ÏĮ ÏĦÎ·ÏĦÎ±
Î±Î½ Îµ
ĠÏĥ Î®Î¼ÎµÏģÎ±
Î¹ÎºÏĮ ÏĤ
Î¸Î· ÎºÎ±Î½
ĠÎºÎ¿Î¹ Î½ÏīÎ½
ĠÎ± ÏĢÎ±
ĠÏĩÏī ÏģÎ¯ÏĤ
ĠÎ¼ Î¿
ÎŁ Î£
Î¹ ÏİÎ½
ĠÏĥÏĩ ÎŃ
ĠÏĮ ÏĩÎ¹
Î»ÎµÏħ ÏĦÎ±
ĠÎ¼ÎŃ ÏĩÏģÎ¹
ĠÎ¼ Î¬
ÎĻ Îļ
Ïģ Î¿ÏħÏĤ
Ïģ Ïį
Îķ ÎĻ
Ïĥ Î¹Î¿
ĠÎł Îµ
Î´ ÎµÎ¹
ÏĢÎ· ÏģÎµ
ĠÎ´Î· Î¼Î¹Î¿ÏħÏģÎ³
ÏĦÎµ Ïħ
Ïģ ÏĩÎµÎ¹
Î¾ Î·ÏĤ
ĠÎ² ÏģÎ¯
ĠÏĢ ÎŃ
Ġ G
ĠÎµ Î¹Ïĥ
ĠÏĥÏħÎ½ ÎŃ
a c
ĠÏĨ Ïī
Î½ Î¬
ÏĨ ÏĮ
ĠÏĢÎ± ÏģÎ¿Ïħ
Ġ L
l o
Ġ E
ĠÎ² Î±
r o
Î³ Î¼Î±
ÏĢ ÏģÎ¿
ĠÎ¿Î¹ÎºÎ¿ Î½Î¿Î¼
Îĵ Î¹Î±
ĠÏĢ ÏģÎ¬
Î¼Î± ÏĥÏĦÎµ
Î¸ Î±
Î¾ ÎµÎ¹ÏĤ
ÎµÎ¹ ÏĦÎ¿ÏħÏģÎ³
ĠÎ±Ïħ ÏĦÎ¬
ĠâĢ ľ
Î» Î¹Î¿
Î¼ÎŃ Î½ÏīÎ½
ÏĦÏħ Ïĩ
ÎĹ Î£
Ïĥ ÏĥÎ±
ĠÎ³ ÏģÎ±
Î½Î¿ Î¹
ĠÎĵ Î¹Î±
Î³ Ïī
ÏĨ Î±Î»
Ïĩ ÏģÎ¿
ÏĢÎ¿ ÏĤ
Î»Îµ Îº
Îº Î¿Î»
Îĳ ÎĻ
ÏĦ ÏģÎŃ
ÎŃÏģ Î½Î·
i s
ĠÎ±Î½ ÏĦÎ¯
ĠÎ´Î¹ Îµ
ĠÎ³Î¹Î± ÏĦÎ¯
Ïħ Î¼Î±
Î² Îµ
ĠÎºÎ¬Î½ ÎµÎ¹
ÏĥÎ¹Î¼Î¿ ÏĢÎ¿Î¹
Ïģ ÏīÎ½
ĠÎ³ ÎµÎ½
Î» ÏĮÎ³
Ġ D
Î»Î» Î±
Ïī Î¼Î±
Ġ R
Î¯ ÏĦÎµ
ÏĮ Î¼Îµ
Î±Î¹ Î¿
ÎµÎ¯ ÏĦÎµ
ĠÎļ Ïħ
ĠÏĦÎµ Î»ÎµÏħÏĦÎ±
ĠÎºÎ±Î» ÏįÏĦÎµ
ÏĦ Ïĥ
ĠÎļ Î±Î¹
ĠÎµ Î¹Î´
ĠÎ² Î¿
Î¸ ÏģÏİ
Î³ Î·
Ïĥ Î¼
r e
ÏģÎ¿ Î¹
ÏĦÎ¿ ÏįÎ½
ĠÎ» ÎµÎ¹ÏĦÎ¿ÏħÏģÎ³
Î´ ÎŃ
â ĸ
Ġ H
Îļ Î±
ĠÎµÏħ ÏģÏİ
Î¼ Î¼
Î½Î¿Î½ ÏĦÎ±Î¹
Î¿Î¹ Î½ÏīÎ½
ÏĨÎ¿ Ïģ
Î¼ÎŃÎ½ Î¿Ïħ
Î¼ÏĨ ÏīÎ½Î±
Ïĥ Îº
ÏĦÎ· Î½
ĠÏĢ Î»Î±
Î±Î½ Î¬
Ġ 7
Î³ Î¬
ĠÏĢ ÏģÎ¹Î½
Î³ ÎµÎ¹
20 1
ĠÏĦ ÎµÎ»
ĠÎķ Îº
Î¹ Îµ
Î±Ïĥ Î¯Î±
ĠÏĥÏħ Î³Îº
a m
Î¼Î¿ Ïģ
ÏĢÎ¿Î¯ Î·ÏĥÎ·
ĠÎ´ Î¿
Îł Îĳ
ĠÎĳ Ïħ
ĠÏĢÏģÏĮ Ïĥ
ĠÏĥÎ· Î¼Îµ
Î² Î¿Î»
Î¼Î² ÏģÎ¯Î¿Ïħ
ÏĦ Ïį
Î½ ÎµÎ¹
Î»Î· Î¼Î±
Ġ1 0
ĠÎł Î¿Î»
ÏĦ Î¯Î±
Î¡ ÎĻ
Ïħ Ïĩ
ĠÎĶ ÎµÎ½
âĸ º
ĠÎ¿ÏĢÎ¿ Î¯Î¿
Î¸ ÎµÎ¹Î±
Ïĥ Î¹Î¬
ÏĦ Î¶
ÎŃ Î±
ĠÏħ ÏĢÎµ
ĠÎŃÎ½Î± Î½
ÏĦÎ® ÏĥÎµÎ¹ÏĤ
ÏĥÏĦÎ· Î¼Î±
Î» Î¹Ïĥ
Î¸ Î¿
ĠÎ½ÎŃ Î±
ĠÏĮ ÏĢÎ¿Ïħ
Ġ _
ÏĪ Îµ
ĠÏħÏĢÎ¬ ÏģÏĩÎµÎ¹
Î» Î¯Î±
ÏĨ Î¬Î»
ÏģÎ³ Î±Î½
ĠÏĦ Î¯
ĠÎ¼Î± Î¶Î¯
ÏĨÎŃÏģ ÎµÎ¹
ĠÎŃ Î½
Ġ ...
Ïĩ ÎµÎ¯
ĠÏĥÏħÎ¼ Î¼Îµ
Î»ÎŃ Î¿Î½
ÏīÎ½ Î¹Ïĥ
o u
Î¹Ïĥ Îµ
Ġ 8
Ïĥ Ïį
Î¹Î½ Î®
Î¯Îº Î·
ÏģÎ¹ Î¬
Ïĥ Î®
ĠÏĩÏģÎ· ÏĥÎ¹Î¼Î¿ÏĢÎ¿Î¹
Î¼ ÏĢÎ¿
Ġ N
ÏģÏĩ Î¿ÏħÎ½
ĠÎµ Î´Ïİ
ĠÎ¿ÏĢÎ¿ Î¯
Î» Î¹Îº
Î¼ Î¯
ĠÎ±Î½ Î¸ÏģÏİ
Ġ Î¿Ïħ
Ġ Ïī
ĠÎµ ÏĦÎ±Î¹
ĠÎ±Î½ Îµ
Ġ s
ĠÎ±ÎºÏĮ Î¼Î±
ĠÎºÎ¬ ÏĦÎ¹
ÏĪ ÎµÎ¹
Ïī ÏĥÎµ
ĠÎĳ Î½Î±
ĠÎŃÎ½Î± ÏĤ
t er
Î¾ Ïį
Î»Î» Î±Î³
Î´ Î¹Î¬
Î¤ Îķ
ÏģÏī ÏĥÎ·
ÏĦÎ¿ ÏĢÎ¿Î¹
ÏĢÎ¿ ÏĦÎµ
ÏģÎ¿ ÏĨÎ¿
Ġ Îĸ
ĠÎ½ ÏĮ
Î³ÏģÎ¬ ÏĨ
Îº Î¿Ïħ
ĠÏĥÏĦÎ¹ Î³
ĠÏĦÏĮ ÏĥÎ¿
ÏĦÎ¹Îº Î¿
ĠÎ¼ÎµÎ³ Î±Î»
Î¤ Îĳ
ĠÎº ÏģÎ±
ĠÏĥÏħ Î¼ÏĨ
Î¼Î¿Ïį ÏĤ
Î¸ ÏħÎ½
ĠÎµ ÏĨ
Î¼ Î¯Î±
i d
ÏģÏī ÏĢÎ±
ĠÎĶ Î¹Î±
ĠÎĳ Î³
ĠÎ¶ Î·
ĠÎŃ ÏģÎ³
ĠÎ±ÏĢÎ¿ ÏĨ
Ġ c
Î³ÏģÎ± Î¼Î¼Î±
ĠÎķ ÏĢÎ¹
ĠÎ´ Î¹Î¿
ĠÏĢ Î¹
ĠÏĥÏĦÎ¿ Î¹
ĠÎºÏħÎ² ÎŃÏģÎ½Î·
ĠÎ´ Î®
a s
Î»Îµ Ïį
Î³ Î¿Î½
ĠÎ¶Ïī Î®
Î¤ ÎŁ
ÎºÎµ ÎºÏģÎ¹
ĠÎº Î¿Ïħ
ĠÏĥ ÏĦÏģÎ±
ĠÎµ Î¼ÏĢ
Î³ Î½Ïī
ĠÏĢÏģÎ¿Ïĥ Ïī
Î»Î± Î¼Î²
ĠÎ² Î±Ïĥ
ĠÏĩÎ± ÏģÎ±Îº
Ïĥ ÏĦ
ÏĢ Î¬Î½
Î» Ïį
ĠÎĶÎ· Î¼Î¿
ĠÏĥÏĩ Î¿Î»
Ġ Î»Î¿Î³
ĠÎ· Î¼ÎŃ
ĠÏĥÏħÎ½Îµ Ïĩ
ÏģÎ· ÏĤ
ÏĦÎ· ÏĦÎµÏĤ
Ġ201 8
Î¯Î½ Î¿ÏħÎ½
ĠÏĢÎ¬Î½ Ïī
Ġ Ïį
ĠÏĥ ÎºÎ¿
ĠÏĢ Î±Î¹
ĠÏĥ Î±Î½
Ïĩ Ïį
ÏĦÏī ÏĥÎ·
Î¼ÎŃÎ½ ÎµÏĤ
Îĳ Î½
ĠÏĨ ÏħÏĥ
ĠÎ± Î¹
ĠÏĥÎ· Î¼Î±Î½
Î» ÏİÎ½
ĠÏĨÎ¿ ÏģÎ¬
ĠÏĢ Î¹Ïĥ
Î² Î¬Î»
ÏĦÎ¹ Î¬
oo k
ÏģÎ± Î½
Î¸ ÎµÎ¹
ÎĶ ÎµÎ½
ĠÎ±ÏĢÎ¿ Îº
ĠÏĦ ÏİÏģÎ±
ĠÏħ ÏĢÎ·ÏģÎµ
Î¼ ÎµÎ¹
ÏĦÎ¿ Î³ÏģÎ±ÏĨ
Î½Î¿Î½ ÏĦÎ±ÏĤ
ÏĢ ÏĦÏħ
ÏĦÎ¹ÎºÏĮ ÏĤ
ĠÎĳ ÏĢÏĮ
ĠÏĢÎ±Î¹Î´ Î¹Î¬
ĠÎĿ Î¿
ĠÏĢÏģÏİ ÏĦÎ·
ĠÎµÎº ÏĢ
l e
ĠÏĦ ÏģÎ¿
ĠÎµ Î¼ÏĨ
ÏĢ Ïī
ĠÎ¬Î½ Î¸ÏģÏī
ÏģÏĮ ÏĤ
ĠÎĿ Î±
ĠÎķ Î»Î»Î·Î½
ĠÎ±Î½ ÎŃ
Ïĩ ÏĮ
Îł Î±
Ġ .
Î¼Îµ Î¯
ĠÎº Ïį
Ġ 9
Î¶ Î·
ĠÎµ Î½Î·
ÏģÎ· ÏĥÎ·
ĠÎ± ÏĢÎµ
Îº Î®ÏĤ
ĠÎµÎ½ ÏĮÏĤ
00 0
Î¡ Îĳ
ÏģÎµ Ïħ
ĠÎ±ÎºÏĮ Î¼Î·
ĠÎ» Î¹
Îº Î¹Î±
Î¼ÎŃÎ½Î¿ ÏĤ
ÏĩÎµ Î¯Î±
ÏĢ Î±Î½
ĠÏħ ÏĢÎ¿ÏħÏģÎ³
ĠÎ¤ Î¿Ïħ
Î»Îµ ÏĥÎ¼Î±
ĠÎ» Î¬
Ġ20 0
ÏģÏīÏĢÎ± ÏĬ
Ïĥ ÎºÎ¿
ĠÎ³ Î¯Î½ÎµÎ¹
Î¾ Î¹
ĠÏĥ ÏįÎ½
ÎµÎ¯ Î¿Ïħ
Îķ Î£
ÏģÎµ Î¯Î±
Î¸ Î¿ÏĤ
ĠÎ¼ÎµÏĦÎ± Î¾Ïį
Îº Î¯Î½Î·
ĠÎµÏĢÎ¹ ÏĩÎµÎ¹
Îº ÏİÎ½
ĠÎ¿ Î´Î·
Ġ :
ĠÎµÏģÎ³ Î±Ïĥ
ĠÏĥ ÏĦÏĮ
in g
m a
ĠÎ¼ÏĢÎ¿ ÏģÎ¿Ïį
ĠÏĦ ÏģÎ±
Î¼Îµ Ïģ
Ïĩ Î¿ÏĤ
ĠÏĥÏħÎ½Îµ ÏģÎ³
ÎµÎ¯ ÏĦÎ±Î¹
ĠÏĥ Î¿
Î»Î¿ ÏįÎ½
Ġ I
ĠÎ¸Îµ Ïī
ĠÏĢ Î¿Î¹
Î½ Î¿Ïħ
ĠÏĥÏħ Î½Î¿
ĠÏĢÏģÎ¿ÏĥÏī ÏĢ
Ïĥ Î±Î¹
Ġ t
Î¼Î¿ Î½
ĠÏĥÎ· Î¼Î±
ÏĨ Î¹
ĠÎ¸ÎŃ Î¼Î±
lo g
Îµ Î´
ĠÏħÏĢÎ¬ ÏģÏĩÎ¿ÏħÎ½
ĠÎµ ÎºÎ±
ÏĬ ÏĮÎ½
ĠÎµ Î¾Îµ
ĠÎ¬ ÏģÎ¸
Î» Î¿ÏħÏĤ
Îł ÏģÎ¿
Î¬Î½ ÎµÎ¹
ÏĪ ÎµÎ¹ÏĤ
ĠÏĮ ÏĥÎ¿
ĠÏĢÎ± ÏģÎŃ
ĠÎ· Î»ÎµÎº
Î¿ ÏģÎ¬
ĠÎ² Î¹Î²
Ġ b
ÏģÎ± Ïĥ
Î® ÏĦÎ·
ĠÏİ ÏĥÏĦÎµ
Ġ &
ĠÎ¸ÎŃ ÏĥÎ·
ÏĢÎ¿ Ïį
Ïĥ ÏĦÎ¹
Î³ Î¿Ïħ
Îº Ïħ
ĠÎĶ Îµ
Îľ Îķ
ÎŃ ÏģÎ³
ĠÎ´Î¹Î± Î´Î¹Îº
ĠÏĢ Î±Î½
ĠÎºÎ± Î¸Î·
ĠÎ´ ÎµÎ¯
ĠÏĢ Î»Î®
Î² Î±Î¹
ĠÏĦÏģÏĮ ÏĢÎ¿
Îº Î·ÏĤ
Î½Î¿ Î¯
ÏĢ Î¿ÏħÏĤ
ĠÏĩ Î¬
ĠÎŃ Î³Î¹
ĠÎ¼ÎµÎ³Î±Î» ÏįÏĦÎµ
ÏĦ Î¯Î±ÏĤ
!! !
ĠÏĥÏħÎ³ ÎºÎµÎºÏģÎ¹
Ïĩ Î®ÏĤ
Îĳ Î½Î±
ĠÎŃ ÏĦÏĥÎ¹
ĠÎµ Î¹
Î¹Îº Î±
Ġ p
ÏİÎ½ ÏĦÎ±ÏĤ
Ïģ Î¯Î±ÏĤ
ÏĢÏĮ Î½
ĠÎ¿Î¼Î¬ Î´Î±
Ġ 0
ĠÎµÏĢÎ¯ ÏĥÎ·ÏĤ
Â Ń
e d
Î Ħ
Ġ ÏİÏģÎ±
.. ..
Îµ Îº
Î³ÏģÎ±ÏĨ Î®
Îł ÎŁ
Î£ Îµ
ĠÎ¼ÎŃ ÏĥÏī
ĠÎĶ Î®
Îµ ÏģÎ¿
ĠÎ¬Î» Î»Î¿
ĠÏĨ Î¯
o t
ĠÏĢÎ¬Î½ ÏĦÎ±
ĠÎ´ÏħÎ½Î± ÏĦÏĮ
ĠÎµ ÏĢÎ¿
Î¬ Ïĥ
Â µ
ĠÏĦ ÏĮÏĦÎµ
Î¹ Ïī
Ġ Î»Î¿Î¹
ĠÎ±Ïħ ÏĦÎ¿Ïį
ĠÏĢÎ¿ Î»Î»Î¬
á ¼
Î»Î¿Î³ Î¯Î±
ĠÎķ Î¯Î½Î±Î¹
ĠÏĨ Î¿Ïģ
ĠÏĩ ÎµÎ¹
ĠÎ»Îµ ÏĢ
Î¹ÎºÎ¿Ïį ÏĤ
Ġ W
Î¼ ÏİÎ½
ĠÏĢÎ»Î· ÏģÎ¿ÏĨÎ¿
Î¸ ÎµÎ½
Î» ÏĢ
ĠÎºÏĮÏĥ Î¼Î¿
ÏĢ ÏĦÏīÏĥÎ·
ÏĢÎµ Î¶
Î£ Ïħ
ĠÎ¼ Î¿Î½
ĠÎ²Î± Î¸
ĠÎ¬Î»Î» Î±
ĠÎļ Î¿
ĠÎº Îµ
Î¯Î´ Î¹
Î´ Î¿ÏĤ
ĠÏĨ Î±
ĠÏĢÏģÎ¿ ÏĬÏĮÎ½
ĠÏĥ ÏĦÎµ
ÏģÎµ Ïį
Î¿Ïį ÏĤ
Î´ Î¿Ïħ
Ġ1 8
Î© ÎĿ
ĠÎµÏĨ Î±Ïģ
Î¼Î± ÏĦÎ¿
ĠÎŃ ÏīÏĤ
Ġ O
Î± ÏģÎ¯Î¿Ïħ
Î¶ Î¿ÏħÎ½
ĠÎº ÏģÎ¯
ÏĥÎºÎµ ÏĦÎ±Î¹
Î» Î±Î½
Îĳ ÎĿ
ÏĨ ÏīÎ½
ĠÎºÎ± ÏĦÎ·
Ïĥ Ïĥ
ĠÏĢÎ±Î¹ ÏĩÎ½
Ġ1 5
o l
Î³ ÎµÎ½
ĠÎµ Ïį
Î¯Î¶ Î¿ÏħÎ½
e b
ÏĦ ÏīÏĤ
ĠÎł ÏģÏĮ
ĠÎ¿ ÏįÏĦÎµ
ĠÎµ Ïĥ
Î¿ Î´Î¿
Î±Î³ Î³
ĠÎºÎ± Î»Î¬
ĠÏĢ Ïħ
Î® ÏĥÎµÎ¹
1 9
1 0
ĠÎŃÏĩ Î¿ÏħÎ¼Îµ
Î¹Î¿ Î¹
ĠÎµÏģÎ³ Î±
ĠÎ± Î´
ĠÎ¯Î´ Î¹Î±
ĠÎĳ Î¸Î®
Î¶ ÏĮ
Ïĩ Î¹Ïĥ
Î¾ Ïī
ĠÎ¼ÎµÎ³Î¬ Î»Î·
Î¼ ÎŃÏĤ
ÏĦÏģÎ¿ Î½
ÏĦ ÏģÎ¹
ĠÏĮ Ïĥ
ĠÏĦ Î¬
Îļ Î±Î¹
Î´ ÏīÎ½
ĠÎ± Î¯
ĠÏĨ Î¹
Î¼ÎŃÎ½Î¿ Î¹
ĠÏĢ Î®
Ïİ ÏĥÎµÎ¹
a d
ĠÏĢÎµ Ïģ
ĠÎ² Î»ÎŃ
Ïĩ ÎŃÏĤ
Î³ Î¼Î±ÏĦÎ±
ĠÎ½ÎŃ Î¿
ĠÏĥÎµ Î»
ĠÎ±Î³ Î¿ÏģÎ¬
ĠÏĥÏĦÎ¹Î³ Î¼Î®
ĠÎµÎ¯ ÏĩÎ±Î½
Î»Î» Î®
Ġ ÏĪÎ·
Ïİ Î½Î±
ĠÎ£ ÏħÎ½
ĠÏĦ ÏģÎ±Î³
Î» Î¹Î¬
ÏĦÎ® ÏģÎ¹Î¿
Îĳ ÏĢÏĮ
Î¼ ÏīÎ½
ĠÎ£ Î±
ĠÎ¿ Î»Î¿
ĠÎ±ÏĨ Î¿Ïį
Î»Îµ Î³
ĠÎºÎ± Ïģ
Î¿Ïħ Ïĥ
ÏĦÎ· ÎºÎµ
Î² Î¿
ÎµÏģ Î¼Î±Î½
h e
ĠÎµÎ½ Î´Î¹Î±
Î½Î¿ Î´Î¿
ĠÏĢ Î¬Ïģ
ĠÎºÎ¹ Î½Î·
ÏİÎ½ ÎµÎ¹
Î» ÎµÏĤ
Î ī
ĠÏĩÏģÏĮ Î½Î¿
o s
ÏĥÎ± Î¼Îµ
ĠÎ³ ÏħÎ½Î±
Î¼Îµ ÏĥÎ±
ĠÏĨ Ïį
ĠÎ±Î³ Î±
Î³ ÎŃÎ½
Ïĥ Î¼Î±ÏĦÎ±
ĠÏĥ Ïī
Î»Î± Î´Î®
ĠÏĢ Î»ÎŃÎ¿Î½
ÏĢÎ¿Î¯ Î·
i on
Î¶ Îµ
ĠÎ´ Ïħ
Î¯Î¶ ÎµÏĦÎ±Î¹
Î¾ Î±Î½
ĠÎº ÏģÎ¬
ĠÎ³ Î½Ïİ
ĠÏĨ Ïħ
Î½Î¿ Î¼Î±
ÏģÎ¹ Î¸
Îľ Îĳ
Ġ e
ĠÎ³ Î¯Î½ÎµÏĦÎ±Î¹
ĠÎ£ Ïį
ÏĨ Î±Î½
ĠÎµ Î¯Î´
Î¹Î¿ Î½
ÏĦÎŃ ÏģÎ±
ĠÎ±Ïħ ÏĦÎŃÏĤ
Î¹Îº Î·
ĠÎ´ Ïī
ĠÎºÏħÎ²ÎŃÏģÎ½Î· ÏĥÎ·
ĠÏĮÎ» ÎµÏĤ
Î³ ÏĮ
ĠÎ±Î¾ Î¹Î¿
ÏĦÎ± ÏĥÎ·
Î³ Î®ÏĤ
ĠÎ³ ÏģÎ¬
Î¹Ïĥ Î¼ÏĮ
ÏĩÎµÎ¹ Î±
ÏĦÏģÎ¿ ÏĨ
Ïĥ Ïĩ
ÏĦÎ® ÏĥÎµÎ¹
Ïī ÏĥÎ·ÏĤ
Î¹ Î¿Ïį
ĠÏĨ ÏĮ
ĠÏĥ ÏĢÎ¯
ĠÎ²ÏģÎ¯ ÏĥÎºÎµÏĦÎ±Î¹
ĠÎ±ÏĢ ÎŃ
Î»Î¿Î³ Î®
a g
Î¸ Î±Î½
ĠÏĨÏī ÏĦÎ¿Î³ÏģÎ±ÏĨ
ĠÎ»ÏĮÎ³ Ïī
Ġ1 2
e w
Ïħ Î¼
Ïĥ Î¯ÎµÏĤ
Îº ÎµÏĤ
Î¼Îµ Î½Î±
ĠÏĢ Î¯Ïĥ
Î¸ Ïį
ĠÎ¼ÏĢÎ¿ ÏģÎ¿ÏįÎ½
ĠÎ´ Î¿Ïħ
ĠÏĩ ÏģÎ¿Î½
Î¹Ïĥ ÏĦÎ±
Î¹ ÏĮ
Î¡ ÎŁ
ĠÎľ Î±Ïģ
ÎŃ Î½Î±
ÏĦÏħ Î½Î¿Î¼
ĠÏĩ ÏģÎµÎ¹
ĠÎ´ ÏģÏĮ
Î¹Îº Î±Î½
Îº ÎŃÏĤ
Î» ÏīÎ½
ĠÎ¼Î¹Î± ÏĤ
Ġ m
ÏģÎ¯ Î¶ÎµÎ¹
ĠÎĺÎµ ÏĥÏĥÎ±
ĠÏĢÎµÏģÎ¹Î¿ ÏĩÎ®
ÎºÎ± ÏĦÎ±
Îº ÏĦÎ·
Ïĩ Ïİ
ĠÎµ ÏĢÏĮ
ĠÎº Î¿Î½
ĠÎ³Îµ Î³Î¿Î½
ĠÎ±Î½ÏĦÎ¹ Î¼Îµ
Î¼ Î¹Ïĥ
ÎµÎ¹ Î±ÏĤ
ĠÏĥÏĩ ÏĮ
Î´ Î¬
Ġ V
ĠÏĥ Îº
Î² Î´Î¿
Î ¨
ĠÎºÎ± ÏĦÎ¿
ĠÎĳ ÏģÏĩ
Î¬Î» Î¹
ĠÏĢÎµÏģÎ¯ ÏĢÏĦÏīÏĥÎ·
i a
ĠÏĢÎ¿ Î»Î»
ĠÏĥÏħ Î½Î±
ĠÏĥ ÎµÎ¹
Î¯ ÏĥÎµÎ¹
ĠÏĥÏħÎ¼ÏĨ ÏīÎ½
ÏĦÎ¹ÎºÏĮ ÏĦÎ·ÏĦÎ±
ĠÏĦÎ· Î»Îµ
ĠÏĮÎ» Î¿ÏħÏĤ
ĠÎ´ ÏħÏĥ
ÏĥÎºÎµÏħ Î®
ĠÎ¼ Î¬Î»
Î½Îµ ÏģÎ³
ĠÎ»Î¯ Î³Î¿
ĠÎ±Ïģ ÎºÎµ
ÏĢÎ¿ Î½
ÎŃ Î»
ĠÎ²Î¿ Î·
ĠÏĥ Î±
ĠÎ¬Î»Î» Î·
ÏĢ Î»Î±
ĠÏĥÏį Î¼ÏĨÏīÎ½Î±
Î´Î® ÏĢÎ¿ÏĦÎµ
ĠÎķÏħ ÏģÏİ
ĠÏĦÎŃ Î»Î¿ÏĤ
ÏĨÎŃ ÏģÎ¿Î½
ĠÎłÎ± ÏģÎ±
Î¼ Î¹Î±
ĠÎ» Ïį
ĠÎµÎ¯ ÏĢÎµ
ĠÎ¼Î¿Ïħ Ïĥ
ÎŃ ÏģÎ±
ĠÎĳ ÏħÏĦÏĮ
Ïĥ ÏĮ
Î»Î¬ Î²
Ġ Îŀ
ÏģÎ¬ ÏĤ
ÏĦÎ¹ÎºÎ¿Ïį ÏĤ
ĠÎ±Î½ ÏĦÎ±
ĠÎ£ Î¥
ĠÏĩÎ±ÏģÎ±Îº ÏĦÎ·
ĠÎ´ ÏģÎ¬
Ïĥ Ïħ
ĠÎ´ Î¯
Î±Î¹ Î½
ĠÎ»Î¿Î¹ ÏĢÏĮÎ½
ÏĥÏĦÎµ ÏĤ
ĠÎ¼ Î¹
ĠÎ±ÏĢÎ¿ÏĦÎµ Î»ÎµÎ¯
ĠÎµÏĢ ÎµÎ¹
ĠÎ¼ ÏĢ
ĠÎłÎµ ÏģÎ¹
ĠÎ±ÏĢÎ¿ ÏĦÎŃ
ĠÎºÎ±ÏĦÎ· Î³Î¿
ĠÎ¿ ÏģÎ³Î±Î½
ĠÎ´Î· Î¼ÏĮ
ĠÏĮ Î»Î¿Î¹
Îº Î»Î¿
Ïĩ Î¬
ÏĥÏĦÎ· ÎºÎµ
Î»Î¬ ÏĩÎ¹Ïĥ
ÏĢ ÏīÎ½
Î³ ÏīÎ½Î¹Ïĥ
Î¼Îµ ÏĤ
ĠÎ´Î¹Î± ÏĨÎ¿
Îķ ÎĽ
ÏĢ ÏĦÎµ
Î£ ÏĦÎ¿
ĠÎŃÎ³Î¹ Î½Îµ
Î»Î» Î¹
ÎĹ ÎĿ
ĠÏĥÏħ Î¼ÏĢ
ĠÎłÎ¿Î» Î¹
ĠÎ¤ Îµ
Î¹Î¬ ÏĤ
ÏĦÏģÎ¿ ÏĨÎ®
Î´ Î¯Î±
ĠÎ§ ÏģÎ¹Ïĥ
ÎŃÎ½ ÏĦÏģÎ¿
ĠÎ´Îµ ÏįÏĦÎµ
ĠÏĢÏģÎ¿Ïĥ ÏĢÎ¬
Î¤ Î¹
ĠÎµÎ¾ Î±
Î¹Ïĥ Î¼Î¿Ïį
ÎµÎ´ ÏģÎ¿ÏĤ
ĠÎ´ ÏģÎ±
ÎŁ Îļ
i v
ĠÎ¼Î± Î¸Î·
ĠÎĳ Ïĥ
Î¹ÎºÎ¿ Î¯
ĠÎĵ Î¹
ĠÎ´Î¹Î¬ ÏģÎº
Î¶ ÎµÏĦÎ±Î¹
Î³ Î¹Î±
Î¼Îµ ÏģÎ¯
Îł ÏģÎ¹Î½
ĠÎµ Î¹ÎºÏĮ
Ïĩ Î¿ÏħÎ½
ĠÏĦÎ± Î¾
ĠÎľ ÎŃ
ÎºÎ±Î½ Îµ
ĠÎ±Î½Î¬ Î³Îº
Î¼ÎµÎ¯ ÏĤ
ĠÎ¹Î´ Î¹Î±
ĠÏĩÏģÎ® ÏĥÎ·
Ġ f
ÏĢÎµ ÏģÎ¹
Î±Î¹ ÏģÎµ
ĠÎ±Î½ ÏĦÎ¹Îº
ĠÏĢÎ¿ ÏĦÎŃ
ĠÏĥÏĦÎ¿Î¹ ÏĩÎµÎ¯Î±
Î¼Îµ ÏģÎ¹Î½
Î¿ ÏĢ
Î¬Î½ Î¹
ĠÎĺ Î±
ĠÏĩÏİ ÏģÎ¿
ĠÏĢÎ±ÏģÎ¿Ïħ ÏĥÎ¯Î±
w w
ĠÎķ Î¸Î½
ĠÏĢÎ¿Î» Ïħ
ĠÎ´Î¹Îº Î±Î¹
ÏĦÎ· ÏĥÎ·ÏĤ
ĠÎ¼ Ïħ
ÏĦÎ® ÏģÎ¹Î±
ĠÎł Î¿
ĠÎ´Îµ Î´Î¿
ĠÎµ Î³Îº
Î» Î¹ÎºÎ¬
ĠÎµÎ¾ ÎŃ
ÏģÏħ Î¸
ĠÎ¦ Îµ
ĠÎ® Î´Î·
Ġ á¼
Ïģ ÎµÎ¹ÏĤ
Ġ K
ĠÎµ Î¸Î½
Î² Î·
ÏĨ ÎµÎ¹
ĠÎ¤ Î¹
ĠÎ¼Î¿ Î½Î±
Ġ /
ĠÎ¸ Î¬
ĠÎĳ ÏĢ
ÎºÎµÎ¹ ÏĦÎ±Î¹
Î½ Î¹
ĠÎºÎ¬Î½ Î¿ÏħÎ½
Ïĥ Î¼ÏĮ
ÏĨ ÎµÏģ
ÏĦÎ¿ Î¼Î±
ÏħÎ½ Î¬
ĠÎ¹Î´Î¹Î± Î¯ÏĦÎµ
ĠÎ¼ Î¹Ïĥ
ĠÎµ Î²Î´Î¿
ĠÎł Îĳ
ĠÏĢÎ¿Î»Î¹ ÏĦÎ¹ÎºÎ®
Ïħ ÏĥÎ·
Î¸ Î¬
Î Ĳ
Î¼Î¿Ïģ ÏĨ
Î· Î¸ÎµÎ¯
Î» ÏīÏĥÎ·
ÏĢÎµ Î´Î¿
Î±Î¹Î´ ÎµÏħ
ĠÎ¿ÏĢÎ¿Î¯ Î¿ÏĤ
ĠÎĳ ÏĢÎ¿
ĠÎ¾ ÎŃ
Î´Î¿ ÏĥÎ·
ĠÎ± Î»
ĠÎµÏĢ ÎŃ
ĠÏĢÏģÎ±Î³Î¼Î± ÏĦÎ¿ÏĢÎ¿Î¹
ĠÏĢÏģÏī ÏĦÎ¿
ĠÎ¼ÎŃ ÏģÎ¿ÏĤ
ÏĦÎµ Î¿
ĠÎ·Î»ÎµÎº ÏĦÏģÎ¿Î½
ĠÏĢ ÎµÎ¹
Î¼Î² Î±
Î´ Ïī
Ġ1 1
ÏĦ ÏģÎ¹Î±
Î¶ Î¿
ĠÏĢÏģÎ¿Ïĥ ÏĦÎ±
Î¸ Î»Î·
ĠÎ¼ ÏĢÎ±
ÏĢ Î»Î·
h t
ĠÏĦÎµÎ»ÎµÏħÏĦÎ± Î¯Î±
ĠÎĺÎµÏĥÏĥÎ± Î»Î¿Î½
Ġ ÏģÎµ
ĠÏĥÏĩÎŃ ÏĥÎ·
Î¿Ïħ Î»ÎµÏħ
ĠÎľ Î·
Î® ÏĥÎµÎ¹ÏĤ
Î¼Î¿ Î¹
ĠÏĢÎ»Î± Î¯Ïĥ
Î¿ÏħÎ» Î¯Î¿Ïħ
ĠÎµÎ¼ÏĨ Î±Î½
ĠÎ¯Î´ Î¹Î¿
Î»ÎŃ Î³
Î» Î®ÏĤ
ĠÎ±ÏĢÎ¿ÏĦÎŃ Î»ÎµÏĥÎ¼Î±
Î±Î½Îµ ÏĢÎ¹Ïĥ
ĠÏĢÎ±ÏģÎ± Î³Ïī
i g
ĠÎ¿Î´Î· Î³
ÎµÎ½ ÏĦÏģ
ĠÏĦ Ïį
ĠÎŃ ÎºÎ±Î½Îµ
ĠÏĦ Ïħ
ĠÏĢÏģÏİ ÏĦÎ¿
ÏĨÎµ ÏģÎµ
ĠÎº Î¿Ïģ
Ġ Î½Î¿Î¼
Î¶ Î®
Ì ģ
ĠÏĥ ÏĦÎ¬
ĠÎ¹ÏĥÏĦÎ¿ ÏģÎ¯Î±
Î±Î³Î³ ÎµÎ»
ÎĶ Î¹Î±
Ïĥ ÏĦÎ¹ÎºÎ¬
ÏĥÏĦÎµ Î¯
Î»Î¿Î³ ÎŃÏĤ
ÎĻ ÎĿ
Î¹ÎºÎ¿ Î½Î¿Î¼
Ïĩ Î¿Î»
Ïİ ÏĥÎµÎ¹ÏĤ
ĠÏĢÎ»Î·ÏģÎ¿ÏĨÎ¿ ÏģÎ¯ÎµÏĤ
ma il
ĠÎµÏĨÎ±Ïģ Î¼Î¿
ĠÎ£ ÏĦÎ±
ĠÎºÎ± ÏĦÎŃ
ĠÎµÎ¾ Ïī
Î½ ÏİÎ½
ĠÏĢÎ±ÏģÎ¿Ïħ ÏĥÎ¹Î¬
ÏĦÎµ ÏģÎ±
ÎºÎ¿ Î¯Î½
Î» Î±Î¹
Î¬Î¶ ÎµÏĦÎ±Î¹
Î¿ÏįÎ½ ÏĦÎ±Î¹
ĠÎ´Î¹Î¬ÏģÎº ÎµÎ¹Î±
Ġ d
ÏĦÎ¹ÎºÎ¿ Î¯
ĠÎĽ Î±
Ġ201 7
Ġ- -
ĠÎ¼ ÎµÎ¹
Ġ Î½Î·
ĠÎ± ÏģÎ¹Î¸
ĠÏĢÏģÏĮ Î³ÏģÎ±Î¼Î¼Î±
ÏĢÎµ Ïģ
ĠÎ³ Ïį
ĠÏĦ ÏģÎ¯
ĠÎ´Î¹Î±ÏĨÎ¿ ÏģÎµ
ĠÎ´Î· Î»Î±Î´Î®
Ïĩ Î½Î¿
Î¹Ïĥ Î¼ÏĮÏĤ
ĠÎ± ÏĨÎ®
Î»Î® Î¼Î±ÏĦÎ±
ĠÏĩ Î¿
Î´ Î¿Î½
ÏģÎ· Î¼Î±
Ġ [
ĠÎµÎ¯ ÏĦÎµ
ĠÎ´ ÎŃ
Ġ '
á ¿
Î¯Î´ ÎµÏĤ
ĠÎŃÏĩ Ïī
Îķ Îļ
ĠÏĮ Î»Î¿
ĠÏĢÎ± Î¯
ĠÏĢÎ± Î³
ĠÏĥÏħÎ½ÎŃ ÏĩÎµÎ¹Î±
ÏĢÎ± Î¯Î´
ĠÏĥ Ïİ
ĠÏħ ÏĪÎ·
u s
ĠÏĥ ÎºÎŃ
ĠÎµÎ²Î´Î¿ Î¼Î¬
Î´ ÎµÎ¯
Î¯Î½ ÏĦÎµÎ¿
ĠÎ¼ÎµÎ³Î¬ Î»Î¿
ĠÎ¤ ÎŁ
Ġ J
ĠÎ±ÏĢÏĮ ÏĨÎ±
ĠÎ± Ïį
3 0
ĠÎ±Î½Î¬ ÏĢÏĦÏħ
ĠÎºÎ¬ÏĢÎ¿ Î¹Î±
ĠÎŃ ÏĢ
ÏģÎ³ Î¬Î½
ÏĨ Î±Î¹
ÏģÎ¹ ÏĮ
ĠÎļ Î¬
Îķ ÎĿ
Î» Î¯Î¿Ïħ
ĠÎ¥ ÏĢÎ¿ÏħÏģÎ³
ĠÏĥÏĩÎµ ÏĦÎ¹ÎºÎ¬
Ï ĭ
ÏģÎ± ÏĥÎ·
ĠÏĢ Î¯
ĠÏĢÏģÎ¿ Î·Î³
ÏĩÎµ ÏĦÎµ
ĠÎ±Îº ÏģÎ¹
Î¿Î» Î¿Ïħ
ÎºÏĮ ÏĤ
ĠÏĢÎ¿Î»Î» ÎŃÏĤ
ĠÏĨÎ¿Ïģ ÎŃÏĤ
Î´ Î¹ÎºÏĮ
Î¾ Î±
e c
ÏĦÎµ ÏĩÎ½
ĠÏĢÎµÏģÎ¹ÏĥÏĥÏĮÏĦÎµ ÏģÎ¿
ĠÎºÎ¬ ÏĦÏī
ĠÎ´Î¹Î± Î¸ÎŃ
ĠÎ¤Î¿Ïħ ÏģÎº
ĠÎ¸ÎŃ Î»
Î¾ Î¿ÏħÎ½
ĠÏĩÏİÏģÎ± ÏĤ
ÏĦ ÏģÎµ
ĠÎ± Î»Î»Î±Î³
Ġ ÏģÏĮ
ĠÎ±ÏĢ Î±Î¹
ÏģÎ¯ ÏīÏĤ
ĠÎ»ÎŃ ÎµÎ¹
ĠÎĳÎ¸Î® Î½Î±
Î¼ Î¼Î±ÏĦÎ±
Î¬Î½ ÏĦÎ·ÏĥÎ·
Î¯Î´ Î¹Î±
ĠÏĢÎ± ÏģÎµ
ÏģÎ± Î¯
ĠÎľ Î¬
o p
ĠÎķÎ»Î»Î¬ Î´Î±ÏĤ
ĠÏĥÏĢÎ¯ ÏĦÎ¹
ĠÏİ ÏģÎµÏĤ
Ïĥ Î¿Ïħ
ÏģÎ¹Ïĥ ÏĦÎµ
Î¼Îµ Î½
Î²Î¬Î» Î»Î¿Î½
ĠÏĦÎ¿ ÏĢÎ¿
ÎĻ Î£
ÏģÎ¹Î± ÎºÎ®
Î£ ÏĦÎ·Î½
eb ook
ÏģÏĮ Î½
ĠÎ± ÎµÏģÎ¿
ĠÏĥÏħÎ¼Î¼Îµ ÏĦÎ¿
ĠÏĢÎµÏģÎ¯ ÏĢÎ¿Ïħ
Ïģ Î½
Î´ Î¯
ÎµÏħ ÏĥÎ·
Îº Î¹Î½Î®
ÏĦÎ¯ Î¿Ïħ
Î²Î¿Î» Î®
ĠÎ²Î¬ ÏĥÎ·
ĠÎ· Î»Î¹Îº
i r
Î³ ÎºÎ±
ĠÎ¼ÎµÎ³ Î¬Î»
Ïģ ÏħÏĥ
Ïĥ ÏĦÎ±Î½
Î³Î³ ÎµÎ»
ÏĩÎ± ÏģÎ¹Ïĥ
Ġ3 0
ÏĥÎµ Î»
ĠÏĢÏģÏĮ Î²
ĠÎµÎº ÏĦÏĮÏĤ
Î¼Îµ Î½Î·
ĠÏĢ Î»ÎµÏħ
Î½Îµ ÏĦÎ±Î¹
ÏĥÏĦÏĮ ÏĥÎ¿
ĠÎ³ Î¹
ĠÎłÎ± Î½Î±
" .
Î¼Î¿ Î¯
es t
ĠÏĦÎ¿ ÏĢ
ÏĦÎµ Î¯Î±
ÏĨ Ïį
Ġ2 5
ac ebook
o f
Î»ÎµÏį Î¸Îµ
1 2
ÏĦ ÏģÏĮ
Î¼ Î¿ÏħÏĤ
ĠÎ¼Î® Î½ÎµÏĤ
ĠÎ± Î¹Ïĥ
Î»Î¹ ÏĤ
Î½Î¿Ïį ÏĤ
ÏĮÏĦÎµ ÏģÎ±
Ïĩ Î¿ÏħÏĤ
Î»Î¿ Î¯
ĠÏħ ÏĢ
Îĳ ÏĢÎ¿
ĠÎºÎ±Î¸Î· Î¼ÎµÏģÎ¹Î½
Î¶Î® ÏĦÎ·ÏĥÎ·
ĠÎºÎ±ÏĦÎ¬ ÏĥÏĦÎ±ÏĥÎ·
Ïģ Î¹ÎºÎ®
ĠÏĢÏģÎ¿ ÎŃ
Î¶ Î±
ĠÏĨ Î±Î½
ĠÏĢÎ¯Ïĥ Ïī
ĠÏĮ Î»Î·
ĠÎĵ ÎµÎ½
Î¸ÏħÎ½ ÏĥÎ·
ĠÏĢÏģÎ¿ ÎºÎ±
ew s
u r
ÏĦ ÏĥÎ±
ĠÎ¼ÎŃ ÏģÎ±
ĠÎµ Î½ÎµÏģÎ³
ÎºÎ¿Î» Î¿Ïħ
Ïģ Î±Î¹
ÏģÏĩ ÎµÏĦÎ±Î¹
Î»Î» ÎµÎ¹
ÏģÎ¹ ÏİÎ½
ĠÎ¾Îµ Î½Î¿Î´Î¿
Î¤ Î·Î½
ĠÎ¶Ïī Î®ÏĤ
ÏĦÎµ ÏģÎ¿
Î¿Î¹ ÏģÎ±
ĠÎ± ÏĨÎ¿ÏģÎ¬
ĠÏĨ Î¬
a y
Îķ Î¯Î½Î±Î¹
ĠÎ· Î¼Îµ
ĠÎŃ ÏģÎµ
ĠÏĦÎŃ ÏĦÎ¿
ÎºÏĮ ÏĥÎ¼
Î® Î¼Î±
ÎĿ Î±
ĠÏħ ÏĢÎ®
Îµ ÏģÎ³
ÏĦÏģÎ¿ ÏĢÎ®
ÏĢÎ¿Ïħ Î»Î¿ÏĤ
ĠÎ£ ÏĦÎ¿
Î¶ Î±Î½
an d
ĠÎĻ Ïĥ
Î» Î»Î¿Î½
Î´ Ïį
ĠÏĥÏį ÏĥÏĦÎ·Î¼Î±
ĠÎ±Î½Î± ÎºÎ¿Î¯Î½
Î¬ ÏĤ
ĠÏĥÏĩÏĮ Î»Î¹Î±
Îĳ Ïħ
ĠÎµÎ½ ÎŃÏģÎ³
ĠÎ±Îº Î¿Î»Î¿Ïħ
ÏģÎµÎ¯ ÏĦÎµ
ĠÎ´Î·Î¼Î¿ ÏĥÎ¹
ĠÎ¿Î¹ÎºÎ¿ Î³ÎŃÎ½
ĠÎļ ÎĳÎĻ
ÏĦ ÏĤ
ĠÎºÏħ ÏģÎ¯ÏīÏĤ
ĠÎł Î¬
ĠÎ´Î¹ ÎµÏħ
ĠÎ¼ Î¿Ïģ
ÏĦÎ¹ Î¿
i m
ĠÏĢÏģÎ¬ Î³Î¼Î±ÏĦÎ±
ĠÎ¬Î»Î» ÎµÏĤ
ÎĽ Îĳ
ĠÎ¬ÏģÎ¸ ÏģÎ¿
ĠÎºÎ±Î½ ÎµÎ¯ÏĤ
ĠÎ±ÎºÏģÎ¹ Î²
ÏĦ ÏģÎ¬
ĠÎ¼Î· ÏĩÎ±Î½
ĠÏĦ Î±Î¹Î½
ĠÎ±Ïĥ ÏĦÏħÎ½Î¿Î¼
ĠÏĨÎ¹ Î»Î¿
Î» ÎŃÏĤ
ĠÎ±ÏĢÎ¿ ÎºÎ±
Î»Î»Î·Î½ ÎµÏĤ
Î±Î½ Î¿Ïħ
ĠÎ²ÏģÎ¯ ÏĥÎº
Ġ1 4
ÏģÎ¹ ÏĥÎ·
ÏģÎ® ÏĥÎµÎ¹ÏĤ
Ïĩ ÎµÎ¯Î¿
ĠÎºÎ¿Î¹ Î½ÏĮ
ĠÎŁ Îº
ÏģÎ¯ ÏīÎ½
ĠÎĵ Îµ
ĠÏĢÎ¹ Î¸Î±Î½
Î± Î¯
ĠÎķÏħ ÏģÏīÏĢÎ±ÏĬ
Î´ ÏĮÎ½
en t
ĠÎĴ Î±Ïĥ
ÏģÎ± ÏĢÎµ
Ġ2 4
ĠÎ¿ ÏģÎ¹Ïĥ
ĠÎºÎ± Î»Î¿
ĠÏĨ Î¹Î»
Î¹Î½ Î¬
Î¸Î· ÏĥÎ·
Î³ Î¿Ïį
Î¾ Î¿
Î· Î¼Î±
ĠÎµÏĢÎ¹Îº Î¿Î¹Î½ÏīÎ½
ĠÎ¸ Ïħ
ĠÏĩÎ±ÏģÎ±ÎºÏĦÎ· ÏģÎ¹Ïĥ
Ġ Îī
ĠÏħ Î³Îµ
ĠÎĹ ÎłÎĳ
Ïĩ Î¿Ïħ
Îº Î¿Î¹
ĠÎµÎ³ Ïİ
ĠÎŃÏģÎ³ Î¿
Î² ÏģÎ¿Ïħ
ĠÎ£Ïħ Î¼Î²
ĠÏħÏĢÎ¿ Ïĩ
ĠÎŃ Î´
Î® ÏĨ
Îº Ïį
Î¼ Î¹Î¿
ĠÎµ ÏģÏī
ÏĨÎ· Î¼ÎµÏģÎ¯
ÏĦÏģÎ¿ ÏĢ
ĠÎºÎ±Î¸ Î±
Î¸ÎŃ ÏĥÎµÎ¹ÏĤ
ĠÎ± ÏģÎ³
Ġ Â»
ĠÏĢÏģÎ¿Ïĥ ÏĢÎ±
id e
Î½Îµ Ïį
ÏĦÎ¹Ïĥ Î¼Î¿Ïį
ĠÏĥÎ· Î¼ÎµÎ¹
Î»Ïħ Î¼ÏĢ
ĠÏĮÎ» ÏīÎ½
ĠÏĦÎ¿ Ïį
Ġ Î¹
Î¼ÎµÎ½Î¿ Î¹
ÏĨ Î¯
ĠÎł ÎŃ
ĠÎ³ÎµÎ³Î¿Î½ ÏĮÏĤ
Ġ1 7
ĠÏĢÎŃ ÏģÎ±
ĠÎ´Î¿Ïħ Î»ÎµÎ¹
Ġ1 6
Î¼ Î·ÏĤ
Î® Î¸Î·ÎºÎµ
ÏĥÏī ÏĦÎµÏģ
Î¼Î¿ ÎºÏģÎ±
ĠÎµÎºÏĢ Î±Î¹Î´ÎµÏħ
u n
1 1
ĠÎ±ÏĢÏĮÏĨÎ± ÏĥÎ·
ÏĢÎ¿ ÏĦÎ±
Î¶ Î¹
ÏģÎ¬ ÏĢÎµÎ¶
ĠÎ¸ ÎµÏģ
ĠÎ² Î¹Î¿
ĠÎºÎ¿ Î¼
ĠÎº Î¯Î½
ĠÏĢÎµÏģÎ¹ÏĥÏĥÏĮÏĦÎµ ÏģÎ±
ÏĦÎ· ÏĥÎµ
Ïģ Î¹ÎºÎ¬
Î» Î»Î¿Î³
ĠÎµ ÏĦÏİÎ½
Î¯Î´ Î±ÏĤ
Î±Î³ Ïī
ĠÎĳ Î¼ÎµÏģ
c h
ÏĥÏĦÎ¿ Î»Î®
ÏĥÏĦÎµ Î¯ÏĦÎµ
ĠÎµÏį ÎºÎ¿
ĠÎ² ÏģÎ¬
ĠÎĵ ÎµÏģÎ¼Î±Î½
Ġ1 3
ÏĥÎ¹ ÏİÎ½
Î»Ïİ ÏĥÎµÎ¹ÏĤ
ĠÎ¼Î¹Îº ÏģÏĮ
ĠÎ§ Î±
ÏĮ ÏĦÎ·ÏĦÎ±ÏĤ
ĠÎ±Î³ ÏİÎ½Î±
ĠÎĳ Î¹
ĠÎķ ÏĢ
Î¹Î½ Î±Î¹
Ïĥ ÏĨÎ±Î¹
ĠÎ¼Î® Î½
Î¯ ÏīÏĥÎ·
Îĳ ÏħÏĦÏĮ
Ġ Î©
" ,
Îł Îķ
ĠÏĨÎ± Î¯Î½ÎµÏĦÎ±Î¹
ĠÏĢ ÏİÏĤ
ĠÎµÎ½Î· Î¼ÎŃ
Î¸Ïħ ÏĢÎ¿ÏħÏģÎ³
ĠÏĢÏģÏĮÎ² Î»Î·Î¼Î±
ĠÎµÎ¯ ÏĩÎ±
ĠÏĥÏħÎ½ ÏĦÎ±
ĠÎł ÏģÏī
ÏĦÎ¬ Ïģ
Ïĥ ÏĥÎµ
ÏģÎµ ÏĦÎ±Î¹
ĠÎ£ Î¬
ĠÎ¹Ïĥ ÏĩÏħ
ĠÏĢÎ»Î±Î¯Ïĥ Î¹Î¿
in e
ĠÎ»ÏĮÎ³ Î¿
Ïĥ ÎµÏĤ
Îĺ Î±
ÏĦÎ¿Ïį Î¼Îµ
ÎºÎµÎ¹ Î¼ÎŃÎ½Î¿Ïħ
ÏģÎ¹ Î¿ÏĤ
ĠÎºÏħ ÎºÎ»Î¿
ĠÎ³ Î±
ÏĢÎ¯ ÏĥÎ·ÏĤ
ĠÏĪ Ïħ
a p
ĠÎ¬Î½Î¸ÏģÏī ÏĢÎ¿Î¹
ÏĢ Î¹Î±
Î» Î¹ÎºÏĮ
Î¡ÎĻ Îĸ
Î¼ Î¼Î±ÏĦÎ¿ÏĤ
ĠÏĢ Ïī
Îķ Î³
ĠÎ±ÏĢÎ¿ÏĦÎµ Î»ÎŃ
Îł Îµ
ÏĪ Î·ÏĤ
ĠÏĨ ÎŃÏģ
ĠÏĥÎµÎ» Î¯Î´Î±
ĠÎµÏĢ Î±Î½Î±
ĠÎºÎ¿Î½ ÏĦÎ¬
ĠÎ´ÏģÎ± ÏĥÏĦÎ·
Î¼ÎµÎ½Î¿ ÏĤ
ÏĦÎ¯ ÎµÏĤ
ĠÎĻ Î±Î½Î¿Ïħ
ÏĢ ÏģÏĮ
Îł Î¿
ĠÎ³ Î¿Î½
ĠÎµÏĢÎµÎ¹ Î´Î®
ÏĦÏİ ÏĥÎµÎ¹ÏĤ
Ïģ ÎŃÏĤ
Ïĥ Î¿Î½
ĠÎ¿ÏĢÎ¿ Î¯ÎµÏĤ
ÏĦ Î¿ÏħÎ½
ĠÎ¿ ÏĦÎ¹
ĠÎ² ÏģÎ±
Î¹Î» Î¹Î¬
u m
ĠÎ¤ ÎŁÎ¥
ĠÎļ ÏįÏĢ
ĠÏĢÏģÏĮ ÏĥÏī
ÏĥÏĦÎ¬ ÏĥÎµÎ¹ÏĤ
Î¹Ïİ ÏģÎ³
ĠÎµÏħ ÎºÎ±Î¹
Î² Î±Ïĥ
Îº Î¿ÏĤ
ĠÏĨ ÏĦÎ¬
Ïĩ Î¸ÎµÎ¯
ÏĨ ÏģÎ¬
ĠÎĿ Îĳ
Î¼ÎŃÎ½ Î¿ÏħÏĤ
ÏĦÎ· Î¼Î±
ÏĦÎ® ÏģÎ¹
Î± ÏħÏĦÏĮ
ĠÎ±ÏħÏĦÏĮ ÏĤ
ĠÎ´Ïħ Î¿
Î² Î²Î±
ĠÎ´Î® Î»Ïī
ĠÎµ Î½Î±
ÏģÏī Î¼Î±
ĠÎĵ Î±
ĠÎµÎ½Î· Î¼Îµ
ĠÎ±ÏĢ Î±Î½
c om
ĠÏĢ Î¬Î»Î¹
ĠÎ¼Î¬Î» Î¹ÏĥÏĦÎ±
ÏģÏī ÏĥÎ·ÏĤ
ĠÎºÏħÎ² ÎµÏģ
ÏĦÎ¹ ÏĤ
ĠÎº ÏģÎ¹
ĠÏĢÏģÎ¿Î² Î»Î®Î¼Î±ÏĦÎ±
ÎŁ ÎĽ
Ġ ÏģÎ¿
ĠÎ´Î·Î¼Î¿ ÏĥÎ¹Î¿
ĠÏĢÏĮ Î»Î·
ĠÏĥÏħÎ¼ ÏĢÎµÏģÎ¹
Î¯Îº ÎµÏĤ
Îļ Îĳ
Î¸Î· Î¼Î±
ĠÎ¦Îµ Î²ÏģÎ¿Ïħ
ĠÎºÎ±ÏĦÎ± Ïĥ
Ġ Î¯Ïĥ
ĠÎ¸ÎŃ Î¼Î±ÏĦÎ±
ÏģÎ¯Î¶ Î¿ÏħÎ½
ÎŁ ÎĿ
ĠâĢ ¦
Îĳ ÏģÏĩ
ĠÎ´ Ïİ
Î±Ïĥ Î¯Î±ÏĤ
ĠÎµÎ¼ÏĢ ÎµÎ¹
ÎºÎµ Î´Î¿Î½
ĠÎ¹Ïĥ ÏĩÏį
Î¸ ÏĮ
ĠÎµÎ¯ Î¼Î±ÏĥÏĦÎµ
ĠÎ±Î½ÏĦÎ¹Î¼Îµ ÏĦÏī
ĠÏĢÎ±Î¹ÏĩÎ½ Î¯Î´Î¹
ĠÎ±Îº Î¿Ïį
ĠÎ·Î¼ÎŃ ÏģÎµÏĤ
ĠÎ² ÎµÎ»
Ïĥ ÏĦÎ¿Ïħ
Î¤ ÎĻÎļ
ĠÏĥÎµÎ¹ ÏģÎ¬
ĠÎµ Î¹Î½Î±Î¹
ĠÎĪ Î»Î»Î·Î½ÎµÏĤ
ÏĢÎ¬Î½ Ïī
Î² Î±Î½
ĠÎŁ Î»ÏħÎ¼ÏĢ
ĠÎµÏģÎ³Î±Ïĥ Î¯Î±ÏĤ
ĠÎº ÎµÏģ
ĠÎ¾ ÎŃÏģ
ĠÏħÏĢÎµ Ïģ
Î£ Ïį
ĠÎ¼ÎŃ ÏģÎµÏĤ
ĠÎ´Î¹Î¬ ÏĨÎ¿
ÏĦÎ® Î¼Î±ÏĦÎ±
Î¤ ÎĹ
ĠÎµÏĢ Î±
Î¯ ÎºÎ±
ĠÏĢÏģÎ¿ ÎºÎµÎ¹Î¼ÎŃÎ½Î¿Ïħ
Î¯ Î³Î¿Ïħ
ĠÎ¿Î»Î¿ ÎºÎ»Î·
ĠÎļ Î¹
ĠÎµÏĢ Îµ
Ïħ ÏĢ
ĠÎŁ Î¹ÎºÎ¿Î½Î¿Î¼
Î³ ÎµÏĤ
Ïī Î¸ÎµÎ¯
ĠF acebook
i k
ÏĦÎ¹Ïĥ Î¼ÏĮ
ĠB log
Î© Î£
ĠÎĶ Î¹
Î¼Î¹ ÏĥÎ·
ĠÎ¬Î»Î» ÏīÎ½
ĠÏĢÎ¿Î» Î¯
ĠÎºÎ±Î» ÏĮ
ÏĦÎ® Î¸Î·ÎºÎµ
Î¯Îº Î·ÏĤ
Ïĥ Î¬
Î»ÎµÏħ Î¸Îµ
ĠÎ±Î½ Î®
ĠÎ¸ÎŃ Î»ÎµÎ¹
ĠÎ´ÎµÎ¯ ÏĩÎ½
Î» Î¯Î±ÏĤ
ĠÏĦÎ¯ ÏĦ
ĠÎŃ Ïĥ
ÏĦÎ¿ Î¼Î¼
Î¿Î¹ÏģÎ± ÏĥÏĦÎµÎ¯ÏĦÎµ
Î¸ Î¹
Î¶ Î¿Î½ÏĦÎ±Î¹
ĠÎ´Î¹Î±Î´Î¹Îº Î±ÏĥÎ¯Î±
ÎºÎµ Î¼Î²ÏģÎ¯Î¿Ïħ
Î»Î»Î· Î»Î±
Î»Î¿Î³ Î¯Î±ÏĤ
ĠÎ¼ÎŃ ÏĦÏģÎ±
Ïģ Î¹ÎºÏĮ
1 8
Ïĩ ÏģÎ¿Î½
ĠÏĥÎ·Î¼Î±Î½ ÏĦÎ¹ÎºÏĮ
Î¼Îµ Î¯Î¿
ÎŃ Î²Î±Î¹
Î» ÎµÎ¹Î±
ĠÎĳ Î¸Î·
ÏĢÎ¿Î¹ Î·
Î»Î¬ÏĩÎ¹Ïĥ ÏĦÎ¿Î½
ĠÎµÏĢ Î±Î³Î³ÎµÎ»
ÏĦÏħÏĩ Î¯Î±
ĠÎ·Î¼ÎŃ ÏģÎ±
ĠÎļ Îĳ
ĠÎ¼ÏĢÎ¿ÏģÎµÎ¯ ÏĦÎµ
ĠÎµÎ»Î»Î·Î½ Î¹ÎºÎ®
ĠÏĦ Î¼Î®
ÏĦÎ¬ ÏĥÎµÎ¹ÏĤ
ĠÎ¶ Î®ÏĦÎ·
ĠÏĦÎ¿ÏĢÎ¿ Î¸Îµ
ĠÏĨ ÎŃ
ĠÎµÎ½Î´Î¹Î± ÏĨÎŃÏģÎ¿Î½
Îķ Îº
Î· Î³Î®
ÏĢÏĦÎµ Î¼Î²ÏģÎ¯Î¿Ïħ
ÏĥÎ¯ ÏĢ
i es
ÏĮ ÏĦÎ¹
ĠÎĶÎ·Î¼Î¿ ÎºÏģÎ±
ĠÏĩ ÏģÎŃ
Î¡ÎĻÎĸ Îĳ
ĠÎµÏĢÎ¹ Î²
ĠÎºÎ¿Ïģ Ïħ
Î¼ Î®ÏĤ
ÏĨ ÎŃÏĤ
ĠÎ´ ÏĮ
â Ĥ
ĠÏĨÎ¿ ÏģÎ¿
ĠÎºÎ¬ ÏĢÎ¿Î¹
ĠÎ£ ÏĦÎ·Î½
âĤ ¬
ĠÎµÎ¾Ïī ÏĦÎµÏģ
ÏĦÎ¿ Î¯
ĠÎķÏħÏģÏİ ÏĢÎ·
ĠÎ¼ ÏĢÏģÎ¿
ĠÏĢÏģÎ¿ Ïĭ
ĠÎ³ Î¬
ĠÎļ ÏĮ
Ïĥ ÏīÏĤ
ĠÎ¼ÎŃ Î»Î·
ĠÎ§ ÏģÎ®
ĠÎºÎ± Î»Î®
ĠÏĪ ÏħÏĩ
ĠÎĶÎµ ÎºÎµÎ¼Î²ÏģÎ¯Î¿Ïħ
ĠÎ´ ÏħÎ½Î¬
ÏĨ Î¿ÏĤ
ĠS t
Ïĥ ÏĦÎ¹ÎºÎ®
Î»ÎµÎ¹ Î¿
Ġ201 6
ĠÏĮ ÏĥÎ±
o w
Î¯Î¶ Ïī
ĠÎłÎ± ÏĢÎ±
Î²Î± ÏĥÎ·
Î´ Î¹ÎºÎ®
ĠÎŃ ÏĩÎµÏĦÎµ
Ġ Î¨
ĠÏĦ ÏģÎŃ
Î¹Î½ ÏĮ
Î¯Îº ÏĦÏħ
ÏĥÏĦÎ¿ Î¹
Ïĥ Î¯Î¿Ïħ
ĠÎ´Îµ ÎºÎ±
or t
ĠÎµÏĢÎ±Î³Î³ÎµÎ» Î¼Î±
ĠÎķ Î½
ĠÏĢÎ±ÏģÎ± ÏĢÎ¬Î½Ïī
Î¹Î± ÏĤ
ÏĥÎµ ÏīÏĤ
ĠÎ²Î¹Î² Î»
ĠÎ¼Î®Î½ ÏħÎ¼Î±
ĠÎ± Î»Î®
ĠÎ±Ïĥ ÏĨÎ±Î»
ĠÎ£Îµ ÏĢÏĦÎµÎ¼Î²ÏģÎ¯Î¿Ïħ
ĠÎ±ÏħÏĦÎ¿Ïį ÏĤ
ĠÏĢÎ±Î¹Î´ Î¯
ĠÎł Î±Î½ÎµÏĢÎ¹Ïĥ
Ġ2 1
ĠÏĢÎ¹Ïĥ ÏĦÎµÏį
Î¼ÎŃÎ½Î· ÏĤ
ĠÎŃ Î»ÎµÎ³
ĠÏĦ ÏģÎµÎ¹ÏĤ
Ġ ÏģÏħÎ¸
ĠÎ´Î¹Î± ÏĢ
Î²Î²Î± ÏĦÎ¿
ĠÎĵ Î¹ÏİÏģÎ³
ĠÎķ ÎĽ
ĠÎĳ ÎĿ
ĠÎ»ÎµÏĢ ÏĦÎ¬
ĠÏĥÏħ ÏĩÎ½
ÏĢ Î·ÏĤ
ÏĨÎ¿Ïģ ÎŃÏĤ
ĠÎ´Ïį ÏĥÎºÎ¿
ÏĨ ÎµÎ¯
ĠÎ±ÏħÏĦÎ® Î½
ĠÏĢ Î»Î¬
ĠÏĥÎ·Î¼Î± Î¯Î½ÎµÎ¹
ĠÎ£Î¥ Î¡ÎĻÎĸÎĳ
ÏĨ Î¬
ar t
ĠÎ²Î¬ ÏģÎ¿ÏĤ
Î¼ ÏĢÎ¬
Î¸ Ïİ
Ġ U
u t
ĠÎĿ ÎŃ
ĠÏħ ÏĢÎŃ
ÏĢÎ± Ïģ
ĠÎ´ÏħÎ½Î±ÏĦÏĮ ÏĦÎ·ÏĦÎ±
ĠÎ±Î³ ÏīÎ½Î¹Ïĥ
ĠÎµÎ¯ Î¼Î±Î¹
es s
ÏĥÏĦÎ® ÏģÎ¹
ĠÎ±ÏĢ Î»Î¬
Ġ l
ĠÎµ Î¼ÏĢÎ¿
ĠÏħÏĢÎ¿ Î»Î¿Î³
ĠÎ² ÏģÎµ
ĠÏĥÏį Î³
ÏĪ Î¿ÏħÎ½
ĠÎµÎ½ ÏĦÎ¿
ĠÎĿ ÎŃÎ±
Î³ Î½Ïİ
Îº Ïģ
Îľ Î±
ĠÏĩÏİ ÏģÎµÏĤ
ĠÎ´Î¹Î± ÎºÎ¿
ĠÏĦÎµ ÏĩÎ½
ĠÎ¿ Î»ÏĮ
ĠÏĩÎ± Î¼Î·
ĠÏĩ ÏģÏİ
ĠÎ¼ Î½Î·
Î´ Î·ÏĤ
o c
ÏĦÎ¹ Ïī
ĠÎŃÏģÎµ ÏħÎ½Î±
Î¸Î® ÎºÎµÏĤ
ĠÎĵÎ¹ Î¬Î½
Ġ *
Î´Îµ Î¹Îº
ĠÎĳ Î»
Î¯Î¶ Î¿Î½ÏĦÎ±Î¹
Î¿Ïħ ÏĥÎ±
ĠÎ±Î³ Î¬
Î² Î¹
Î¼ Î¹ÎºÏĮ
ĠÎľ ÏĢÎ¿
ÎĶ Î·
ÏīÎ½ ÏĥÏĦÎ±Î½
Î¼Î· ÏĥÎ·
ĠÎ¿ Î¼Î¿
ĠÎ´Ïį Î½Î±
ÏĮ Ïģ
Î Ĭ
ĠÏĥÎ·Î¼Îµ Î¯Î¿
ÏĦ ÏģÎ¯
ÏĥÎ¿ ÎºÎ¿
Î»Îµ Î¯Î±
ĠÎ¹ÏĥÏĦÎ¿ ÏĥÎµÎ»
ĠÎĻÎ±Î½Î¿Ïħ Î±ÏģÎ¯Î¿Ïħ
ÏģÎ¿Ïį ÏĤ
ĠÎµÏĢÎ¹Ïĥ ÎºÎŃ
Î¼ ÏĢÎ±
Ïĥ ÏĦÏİÎ½
ĠÏħÏĢÏĮ Î»Î¿Î¹
Î±Î¹ Ïĥ
ĠÎ±ÏģÏĩ Î®
ĠÏĦÎµ ÏĩÎ½Î¿
ÏĮÏĦÎµ ÏģÎ¿
Î½Î¿ ÏįÎ½
Î¿Ïį Î»Î¹Î¿
ĠÎĶ Î¹Îº
5 0
ĠÏĥ ÏĦÎŃ
ÏģÎ· ÏĥÎ·ÏĤ
ĠÎ¦ÎµÎ²ÏģÎ¿Ïħ Î±ÏģÎ¯Î¿Ïħ
Î»Î± Îº
ĠÎŃÏĩÎµÎ¹ ÏĤ
u e
ĠÎŃ ÏĨ
ĠÎµ Î»ÎŃÎ³
Î± ÏģÎ¹Î±
Î¶ ÏĮÎ¼Îµ
Ġ1 00
ÏĦÏī Î²
ĠÎĶ ÎµÏħ
ÏĦÎ¹ Î½
ĠÎ¾ Î±Î½Î±
ĠÏħÏĢÎ¿Ïĩ ÏģÎµ
Î¼ÎŃÎ½ ÎµÎ¹
ĠÎ±Î½Î¸ÏģÏİ ÏĢÎ¿ÏħÏĤ
ĠI n
ÏģÎ® Î³Î¿
ĠÎ¤ ÏĥÎ¯ÏĢ
ĠÏĢÎµÏģÎ¹ Î»Î±Î¼Î²
ĠÎ´Î¹Î± Î²Î¬
Îº Î»Î®
Ïĥ ÎŃ
ĠÎ½Îµ ÏģÏĮ
ĠÎ¼ÏĢÏģÎ¿ ÏĥÏĦÎ¬
ĠÎ¤ ÏģÎ¯
ĠÏĦÎ¯ ÏĢÎ¿ÏĦÎ±
ĠÏĥÎ¿ Î²Î±
Î» ÏİÏĤ
ĠÎ±ÏħÏĦÏĮ Î½
ĠÎ¼ÏĮ Î»Î¹ÏĤ
i p
er s
ĠÏĥÏħÎ¼Î² Î±
ĠÎŁÎ»ÏħÎ¼ÏĢ Î¹Î±
ÎŃÏģ Î¹Î±
Î³ Î¿ÏħÎ½
u p
ÎŃÎ²Î±Î¹ Î±
ĠÏĥÏħ ÏĥÏĦÎ®
Ġ201 5
ĠÏĢÎ¿ ÏĥÎ¿
Î³ ÎµÏĦÎ±Î¹
ĠÎ´Î¿ÏħÎ»ÎµÎ¹ Î¬
ĠÏĦ ÏģÎ¹
Ïĩ ÏİÎ½
Îľ Î¹Î±
Ïĩ Î¿Î¹
ĠÏĦÎµÎ» Î¹ÎºÎ¬
ĠÎ® Î¸Îµ
ĠÎ¹Î´Î¹Î±Î¯ÏĦÎµ ÏģÎ±
ĠÎ±Î³Î± ÏĢÎ·
ÏĢ ÏĦÏİÏĥÎµÎ¹ÏĤ
Î¯ Î½Î±
ÏĢ ÎµÎ¯
ÎºÎ± ÏĦÎ¬
ĠÏĢÏģÎ¿ Î³ÏģÎ¬
ĠÎ±Î½Î¬ÏĢÏĦÏħ Î¾Î·
Ïĩ ÏīÎ½
ĠÎ² Î¯Î½ÏĦÎµÎ¿
ÏģÎµÎ¯ ÏĤ
ÎŃÎ½ ÏĦ
Ïĥ ÏĢÎ±
ĠÎ¼ÎŃ Î»Î»Î¿Î½
ÎµÎ¯ Î¼ÎµÎ½Î¿
ÏĦÏīÎ² ÏģÎ¯Î¿Ïħ
ĠÎ¹Î´ Î¹Ïī
Î¼Îµ Î¯Î¿Ïħ
ĠÏĢÏģÏĮ ÎµÎ´ÏģÎ¿ÏĤ
Î¬ ÏĥÎµÎ¹ÏĤ
ĠÎ¯Ïĥ ÏīÏĤ
ĠÏĥÏĩÎµ Î´ÏĮÎ½
u b
ide o
ĠÏĮ Î½Î¿Î¼Î±
Î¼Î± ÏģÏĩ
ĠÎº ÎŃÎ½ÏĦÏģÎ¿
ĠÎ± ÏĨÎ¿
ĠÏĦÎ¹ Î¼Î®
r a
Î¯Ïĥ Î¿ÏħÎ½
Îļ Îķ
ĠÎµÏĢÎ¯ ÏĢÎµÎ´Î¿
ÏģÎ¯Î¶ ÎµÏĦÎ±Î¹
ÏĥÏĦÎµ Ïħ
ÎµÏį Î¸ÏħÎ½ÏĥÎ·
ÏĮÎ½ Î¹
ĠÎ³Ïį ÏģÏī
ĠÏĥÏį Î½Î¿
ĠÎµ Î»ÎµÏįÎ¸Îµ
ĠÎ£ ÏĩÎ¿Î»
ÏĮ Î´Î¿Ïħ
ÎĪ Î½Î±
ĠÏĢÏģÏī ÏĦÎ±
ĠÏĢÎµÏģÎ¯ Î¿Î´Î¿
Îł Î¿Î»
ĠÎ²Î¿ Î®
Î¼ ÏĢÎµ
ĠÎ±ÎºÏģÎ¹Î² ÏİÏĤ
Ġ5 0
ĠÎ± Î¸Î»Î·
Î½ Î¿ÏħÏĤ
Ïĥ Î¼ÏĮÏĤ
ĠÎºÎ±ÏĦÎ± ÏĥÎºÎµÏħ
ÎºÎ¬ ÏĦÏī
ĠÎľ Îķ
ÏĦÎ· Î³
Î»Î¿Ïį ÏĤ
Ïģ Î¹ÎºÎŃÏĤ
ĠÏĢÎµ ÏģÎ¬
ĠÎ»Î¿Î³ Î±ÏģÎ¹Î±
ĠÎ±Î½ Î¬Ïģ
ĠÎµ ÏĥÏīÏĦÎµÏģ
Îº ÏģÎ¿
ÏĨÎŃÏģ Î¿ÏħÎ½
Î¸ Ïī
ÎŃÎ½ ÏĦÎµ
ĠÏħ ÏĢÎ±
ĠÎ±Ïĥ ÏĨÎ¬Î»
ÏĩÎ· Î¼Î±
ĠÏĢÏģÎ¿ ÏĥÎµ
ĠÏĥ ÏĢÎ¿Ïħ
ĠÎľÎ±Ïģ ÏĦÎ¯Î¿Ïħ
Î´ ÎµÎ½
Î½Ïī ÏĥÎ·
ĠÎ±ÏħÏĦÎ¿ Î¯
ĠÎµ ÏĨÎ·Î¼ÎµÏģÎ¯
ĠÏĥ ÎºÎµ
Î¸ ÎµÏĤ
ĠÎ² ÏģÎŃ
ÏİÎ½ ÎµÏĦÎ±Î¹
ĠÏĥ Î¯Î³Î¿Ïħ
ĠÏĢÎµÏģÎ¹ Îµ
ĠÎ¡ Ïī
ĠÎµÎ¾ Î±Î¹ÏģÎµ
ĠÏĢÏģÏĮ ÎºÎµÎ¹ÏĦÎ±Î¹
ĠÎºÎ±Î»ÏįÏĦÎµ ÏģÎ±
ĠÎ´Î®Î»Ïī ÏĥÎµ
ĠÎµÏĢÎ¹ Î¸Ïħ
Î¹Î¿ Ïģ
ĠÏĦÎ± ÏħÏĦÏĮ
ĠÎŁÎº ÏĦÏīÎ²ÏģÎ¯Î¿Ïħ
Î¬Î½ Î¿ÏħÎ½
ÏĢÎ¿Î¯Î· ÏĥÎ·ÏĤ
Î»Î· ÏĪÎ·
Î¬Î» Ïħ
Î»Î¿Î³ Î¹ÎºÎ®
ÎµÎ¹ ÎµÏĤ
ĠÏĢÏģÏī Î¸ÏħÏĢÎ¿ÏħÏģÎ³
ĠÏĢÎµÏģÎ¹ Î²Î¬Î»Î»Î¿Î½
ĠÎµÎ¯ ÏĥÎ±Î¹
ĠÎµÏĢ ÎµÎ½
Î³ Î±Î½
ĠÏĥ Î¹
ĠÏĥÏħÎ½ Î´Ïħ
ĠÎ¤ Î·Î½
u l
ĠÎµÎ¹ÎºÏĮ Î½Î±
w it
ĠÎ´ Î±Î½
ĠÏĥÏħÎ¼Î¼ÎµÏĦÎ¿ ÏĩÎ®
ĠÎ¿Î»ÏĮ ÎºÎ»Î·
ĠÎ¬ ÏĦÎ¿Î¼Î±
ĠÎ¬ Ïĥ
Î¿ÏħÎ½ Î¯Î¿Ïħ
Î¯ Î½Î¿Î½ÏĦÎ±Î¹
ÏģÎµÎ¯ ÏĦÎ±Î¹
Î¿Î¹ Î½Î¿
ĠÏħÏĢÎ¿ ÏĥÏĦÎ·
Îķ ÏĢÎ¹
ĠÎ³ ÏģÎ®Î³Î¿
ĠÎºÎ¬ÏĢÎ¿ Î¹Î¿ÏĤ
ĠÎ¼Î¿Î½ Î¬
Ïį ÎµÎ¹
âĢ ¢
ĠÎ±ÏĢÎ¿ÏĨ Î±Ïĥ
ĠÎ³ Ïħ
Î³ ÎŃÏĤ
ĠÎŃ ÎºÎ±
ÎµÏħ ÏĥÎ·ÏĤ
Î¯Î½ Î¿Ïħ
ĠÎļ Î¿Ïħ
ĠÏĥÎ·Î¼Îµ ÏģÎ¹Î½
ÏħÎ½ Î±Î¹
ÏĮ Î»
ÏģÎµ Î¬Î½
ĠÏĥÏħ Î½Î±Î½
ĠÎº Ïī
ĠÎº Î»ÎµÎ¯
e m
ĠÏĢÏģÎ¿ÏĥÏĢÎ¬ Î¸ÎµÎ¹Î±
1 5
ĠÎ±ÏĢÎ¿Îº Î»ÎµÎ¹
ĠÎ³ Î»Ïİ
Î¸ Î¿ÏįÎ¼Îµ
ÏĨ Î¹Î±
Î¿Î» Î¬
ĠÏĢÏģÏİ Î·Î½
ĠÎ±Ïħ ÏĦÏİÎ½
Î½ Î¿ÏħÎ½
ĠÏĥÏħÎ½ Î®
Î½Î± ÏĦÎ¿
ĠÎ±Î½Î± ÏĢ
ÏİÎ½ ÎµÏĤ
ÎķÎĻ Î£
ĠÏħÏĢÎ·ÏģÎµ ÏĥÎ¯ÎµÏĤ
Î³ Î¹Î¿
ĠÏĦÎ¿Ïħ Î»Î¬ÏĩÎ¹ÏĥÏĦÎ¿Î½
ĠÎ¼Îµ Î»ÎŃ
Î» Î¹ÎºÎ®
Î¼Î¬ ÏĤ
ĠÎ¼ ÏħÏĥ
Îº ÏģÎ¬
Î¼ Î·Î½
ÏģÎ¹Ïĥ Î¼ÏĮ
Îµ Î¯Î±
ÏĦÏħÏĩ ÏİÏĤ
Ġ2 2
ĠÎ¼ÏĢÎ¿ÏģÎ¿Ïį ÏĥÎµ
Î¸ Î¹Ïĥ
ÏĪ Î±Î½
ĠÎ²Î¹Î²Î» Î¯Î¿
ĠÎŁ Ïħ
ĠÎ±Ïį Î¾Î·
ĠÎºÏģÎ¯ ÏĥÎ·
ĠÎ½Î¿ Î¼Î¿
ĠÎµÏĢÎ¿ ÏĩÎ®
ĠÎ»ÎµÎ¹ÏĦÎ¿ÏħÏģÎ³ Î¯Î±
ĠÎ±ÏĢÏĮ Î»Ïħ
Î¯Ïĥ ÏĦÎ±
ĠÎµÎ¾ Î¿Ïħ
Î»Îµ ÏĦÎµ
ĠÎ¹Î´ Î¹Î¿
Ïĥ ÏĦÎ¹ÎºÏĮ
ĠÎµ Î¼ÎµÎ¯ÏĤ
ĠÏĥÏħÎ½ÎµÏģÎ³ Î±ÏĥÎ¯Î±
Î½ Î¹Î¿
ĠÎµÏħ ÏģÏīÏĢÎ±ÏĬ
Îµ Î¼Î²ÏģÎ¯Î¿Ïħ
Î´ÎµÎ¹ Î³Î¼Î±
Îľ Î¿Î¹ÏģÎ±ÏĥÏĦÎµÎ¯ÏĦÎµ
ÏģÎ® ÏĥÎµÎ¹
ĠÎ±ÏĢÎ± ÏģÎ±Î¯
ĠÎ±Î½Îµ Î¾
ĠÎº Î¹Î½
ĠÎ² Î¿ÏħÎ»ÎµÏħ
ĠÎ³ Î»Ïħ
ÏĪÎ· ÏĨ
ĠÎµÏħÎºÎ±Î¹ ÏģÎ¯Î±
ĠÎĻ Î¿ÏħÎ½Î¯Î¿Ïħ
ĠÏĥÎºÎ¿ ÏĢÏĮ
ĠÎ´ Î±
ĠÎ¤Î¿ÏħÏģÎº Î¯Î±
. ,
Î¶ Ïī
ÏĢ Î»ÎŃÎ¿Î½
Î¸ ÏįÎ½
Ġ Î¹Î±
ĠÎµÏħ ÏĩÎ±ÏģÎ¹Ïĥ
Ïĥ Î¼Î¿Ïį
ĠÎ±Î½Î¬ Î¼ÎµÏĥÎ±
ÎŁ ÎĻ
ĠÎľ ÏĮ
Ïİ Î¼Î±ÏĦÎ±
ĠÎļÏħ ÏģÎ¹Î±ÎºÎ®
ĠÏĩÏģÎµÎ¹ Î¬Î¶ÎµÏĦÎ±Î¹
ĠÎ±ÏħÏĦÎ¿ ÎºÎ¯Î½Î·
ÏģÎµ Î¯Î±ÏĤ
ĠÎºÏĮÏĥ Î¼Î¿Ïħ
ÎµÎ½ ÏĦ
ĠÎł Î±Î¹Î´
ĠÎľÎ± ÎºÎµÎ´Î¿Î½
ĠÎµ Î¬Î½
ĠÏĨ Îµ
Î¯ ÏģÎ¹
ĠÏĢÏĮ Î»Î·ÏĤ
ĠÎ´Î¹Î¬ ÏĥÏĦÎ·Î¼Î±
Î¬Î½ Îµ
ĠÎ³ÏģÎ± ÏĨ
ĠÎ¼Î® Î½Î±
ĠÎ²ÏģÎ¯ÏĥÎº Î¿Î½ÏĦÎ±Î¹
ĠÎ±ÏģÏĩ ÎŃÏĤ
ÎµÎ¯ ÏīÎ½
Î²Î¬ ÏĥÏĦÎµ
ĠÎ³ÏħÎ½Î± Î¯ÎºÎµÏĤ
ÏĮ Î»Î¿Ïħ
ÏĥÏĦÎ± ÏĥÎ·ÏĤ
ĠÎķ Îķ
ÏģÎ· ÏĥÎµ
ĠÎ±Ïħ Î¾
ĠÎ±ÏĢÎ¿ÏĦÎµÎ»ÎŃ ÏĥÎ¼Î±ÏĦÎ±
ĠÎ´ Î¯Î½ÎµÎ¹
ĠÎŃ Î¾Ïī
ĠÎķ ÏģÎ³
Îļ Î¬
ĠÎ´Î·Î¼Î¿ÏĥÎ¹ ÎµÏį
Î£Ïį Î¼ÏĨÏīÎ½Î±
ĠÎµÏĦÎ±Î¹ ÏģÎµÎ¯Î±
Ġ )
Î»Î· ÏĥÎ·
ĠÎºÎ± Î¼Î¯Î±
Î¯ÎºÏĦÏħ Î¿
Î½Î±Î½ ÏĦÎ¹
ÏģÎµ ÏĢÎµ
ĠÏĢÏģÎ¿Î² Î»ÎŃ
Î¸Î® ÎºÎ·
ĠÎ´Î¿ ÎºÎ¹
ĠÎ¾Îµ ÎºÎ¯Î½Î·
ĠÎ³ÏħÎ½Î± Î¯ÎºÎ±
Î¼ ÏĢÏĮ
ĠÎĵ ÏģÎ±
ÎºÎ¿ Î»Î¿Ïį
Î¼ÎŃ Î±
ĠÎ´ Î¹ÎºÎ®
ĠÎĽ Îµ
ĠÎ´Î¹Î± Ïĥ
ĠÎķ Î¹Î´
ĠÎµÏħ Î¸Ïį
Îł ÏģÏĮ
Î¼ Î¹ÎºÎ®
ĠÎ±Î½Î¬Î³Îº Î·
ĠÎ±Î½Î± Î¼ÎŃ
ĠÎ¿ÏĢÎ¿Î¯ Î¿Î¹
ĠÎĿÎ¿ ÎµÎ¼Î²ÏģÎ¯Î¿Ïħ
Î® Î»
ĠÎŃ Î³Îº
Ġ201 4
ĠÎĶ Î¹Î¿
ÏĦÏİÎ½ ÏĦÎ±ÏĤ
ĠÏĨÏħÏĥ Î¹ÎºÎ¬
ĠÎ´ ÎµÎ¹
Ïĩ Î½Î·
ĠÎ±Ïħ ÏĦÎ®ÏĤ
Î¯Ïĥ ÏĦÎ·ÎºÎµ
ĠÎ¬Î»Î» Î¿ÏħÏĤ
Ïį Ïĩ
ĠÏĢ ÏģÎ±Îº
ĠÎµ Î½Î¿
ĠÏĩÏģÎ® ÏĥÎ·ÏĤ
Î½Î· ÏĥÎ·
ÏĦÎ± Î¾Î·
Î¤ ÎĻ
ĠÎ±ÏģÎºÎµ ÏĦÎ¬
ÏĢÎ¿ Î»Î¯
ĠÎºÎ¬ÏĢÎ¿ Î¹Î¿
Î® ÏĥÎ¿ÏħÎ½
ÏĦÎ¬ ÏĤ
ĠÎł Î±Î½
Îķ Îł
Ïī ÏģÎ³
ĠÏĥÏħ Î¶Î·
ĠÎĻ Ïī
ĠÏĢÏģÎ¿Ïĥ ÏĨÎŃÏģÎµÎ¹
ĠÎºÎ¬Î½ Î¿ÏħÎ¼Îµ
Î½Î¿ Î¼Î¬
Î´ ÏİÎ½
Î¾ ÏĦÎµ
ÏĦÏģ ÏīÎ½
Î¼Î¿ Î½Î®
ĠÏĦÎ± ÏĩÏħ
ÏĥÏį Î½Î·
ÏĥÎ· Î¼Î±
; ;
ĠÎ²ÏģÎ¬ Î´Ïħ
Î´ Î¹ÎºÎ¬
o v
ĠÎ´ Î¹ÎºÏĮ
ĠÎ´Î¹Îº Î±Ïĥ
ĠÎµÎº ÏĢÎ±Î¯Î´
ĠÎµÏĨÎ±ÏģÎ¼Î¿ Î³Î®
ÏĨ Î¬Î½
Îº ÏĦÎ¹ÎºÎ®
ĠÎľ ÏĢ
ĠÎµÎºÎ± ÏĦÎ¿Î¼Î¼
ÏĦÎ® ÏģÎ±
ĠÎµÏĢÎ¹ Î»Î¿Î³Î®
Ġ19 9
Î³ Î·ÏĥÎ·
ĠâĢ ĺ
ĠÎ´ÏģÏĮ Î¼Î¿
Î¿Ïħ Î»Î®
ĠÎļ ÏīÎ½ÏĥÏĦÎ±Î½
ĠÏĢÎ± ÏģÎ¿
ĠÎ± Î½Î¿Î¯
ĠÎľ Î¿ÏħÏĥ
Î¸ ÎŃÎ½
Î¼ ÎµÎ¹ÏĤ
ĠÏĪ Î¬
ĠÎºÎ±Î»ÏįÏĦÎµ ÏģÎ·
ĠÎĳÎ½ Î¬
ÏĨ Ïī
Ġ in
ĠÎµÎº Î»Î¿Î³ÎŃÏĤ
Ġ2 3
ĠÏĩ Î¹Î»Î¹Î¬
Ġ ÏģÏī
Î² ÎµÎ¹
ĠÎ¤ Î¿Ïį
ÎŃ Î»Î¿ÏĤ
wit ter
ÏĦÎ±Î½ Î¬
ĠÎ²Î¿Î· Î¸Î®
Î¸ÎµÎ¯ ÏĦÎµ
ĠÏĢÎ¿ ÏģÎµÎ¯Î±
ĠÏĢ Î¹Î±
ĠÎķ Î¯
ÎµÏħ Î¼Î±
ĠÏĢÎ¬Ïģ ÎµÎ¹
ĠÎºÎ± Î»Î»Î¹
ĠÏĩ ÎŃÏģÎ¹Î±
ĠÎľÎµ ÏĦÎ±
ĠÏĢ Î»Î¿Ïį
Î´ ÏģÎ±
Î½Î¿Î¹ Ïĩ
ĠÎµÏĢÎ¹ ÏĩÎµÎ¯
ÏĦÎŃ Ïģ
ĠÎºÎ±Î¸ Î¿
ĠÎµÎ³ ÎºÎ±ÏĦÎ±
ĠÏĨÏīÏĦÎ¿Î³ÏģÎ±ÏĨ Î¯ÎµÏĤ
Î® Î¼Î±ÏĦÎ±
Ġ v
ĠÎ² Î³
ĠÎ¸Îµ ÏģÎ±ÏĢÎµ
t h
ĠÎĻ Î¿ÏħÎ»Î¯Î¿Ïħ
Î¼Î± Ïģ
ÏĦÎ· Î¼Î¿Î½
ĠÎ±Î½Î± Ïģ
ĠÎµÎºÎ± ÏĦ
ÏĦÏħ ÏĢÏī
ĠÎ´ Î¹Ïĥ
ĠÏĥÏĩÎµ Î´Î¹Î±
Îº ÏĦÎ¿
Î´ ÏģÏĮ
o d
ĠÎµÎ²Î´Î¿Î¼Î¬ Î´Î±
ww w
ĠÎĶÎ® Î¼Î¿Ïħ
a k
ÏĦÎ® ÏĦÏīÎ½
ÏĩÏĮ Î¼ÎµÎ½Î¿
Ïĩ ÎµÏĦÎ±Î¹
ĠÎ´Î¹ ÏĢ
Î´ Î¯Î´
ĠÏĢÎ»ÎµÏħ ÏģÎ¬
ĠÏĥÏħÎ½ Î¸Î®ÎºÎµÏĤ
ĠÎł ÏĮ
ĠÎ´Î¹Î± ÏĦÎ·
ĠÎ½ÎŃ ÎµÏĤ
ĠÏĢÎ±ÏģÎ± ÎºÎ¬ÏĦÏī
Î¼Î¬ ÏĦÎ¹
ÏģÎ¹Ïĥ Î¼Î±
Ïħ ÏģÎ¿
ÏĨÎŃ ÏģÎµÏĦÎ±Î¹
ĠÎ´ÎµÎºÎ± Îµ
ĠÎ¿ ÏģÎ³Î¬Î½
ĠÏĨ ÏīÎ½
ĠÎ±Î»Î® Î¸ÎµÎ¹Î±
Î¼Î· ÏĩÎ±Î½
Î´Î® Î»ÏīÏĥÎ·
Î½Îµ ÏħÎ¼Î±
Î±Î» ÏĮ
ĠÏĢÏģÎ¿ÏĬÏĮÎ½ ÏĦÎ±
ĠÎ¬ Î³
Î´ ÏģÎ¿Ïħ
ÎĶ Îĳ
ĠÏĢÏģÏĮÏĥ ÏĨÎ±
ĠÏĢÏģÎ¿Ïĭ ÏĢÎ¿
ĠÏĢ Î¿Ïį
ÎĳÏģÏĩ Î¹ÎºÎ®
Ïį ÏģÎ¹Î±
ĠÏĦÏģÎ±Î³ Î¿Ïį
ĠÏĥÏİ Î¼Î±
ĠÎ± Î½Î¿
1 6
ĠÏĢÏģÏī Î¯
u ro
ÎľÎµ ÏĦÎ¬
ĠÎĵ ÎĻÎĳ
Î¯Î´ Î·ÏĤ
ĠÎ´Î¹Îº Î±Î¯
ĠÎ¸ÎŃ ÏĥÎµÎ¹ÏĤ
ĠÏĢÏģÎ¿Ïĥ ÎŃ
ĠÏĢÏģÎ¿Î·Î³ Î¿ÏįÎ¼Îµ
Î² Î±Î»
ĠÎ¬Î½Î¸ÏģÏī ÏĢÎ¿ÏĤ
ĠÏĢÏģÎ¿ ÏĩÏī
ĠÎĵÎ¹Î± ÏĦÎ¯
ĠÎł ÎĳÎ£
t p
ĠÎ¯Î´ Î¹Î¿ÏĤ
ĠÏĢÏģÏİ ÏĦÎ±
ĠÏĢÏģÎ¿ÏĥÏīÏĢ Î¹ÎºÏĮ
ĠÎ» Î®
ĠÎĳ Î»ÎŃ
ĠÎ±Î½Î± Î³Î½Ïī
ĠÎľ Î¹Î±
ĠÎµÎ¾ Î®ÏĤ
ĠÎ¿Î¼Î¬ Î´Î±ÏĤ
Î»Î± Ïĥ
ĠÎ¥ ÏĢÎ¿
ĠÎ¤ Î¶
ĠÎ¼ÎµÎ³Î±Î»ÏįÏĦÎµ ÏģÎ·
ĠÎĳ Î»Î»Î¬
ÏģÏĩ Î¿Î½ÏĦÎ±Î¹
ĠÎ´Î¹Îµ Î¸Î½
ĠÏĢÏģÎ¿ Îµ
ĠÎºÎµ ÏĨÎ¬Î»
Ġ ÏģÎ±
2 00
ĠÎµ Î±ÏħÏĦÏĮ
Î»Î¿Î³ Î±
ĠÏĥÏħÎ¼ÏĨÏīÎ½ Î¯Î±
ĠÏģÏĮ Î»Î¿
ĠÎµÎº Î´Î·
ÏģÎ¹ Î»Î¯Î¿Ïħ
ÏĦÏģÎ¿ÏĢ Î®ÏĤ
ĠÎ±ÏĢ ÎµÎ¹
Ïĥ ÏĦÎŃÏĤ
ÏģÎŃ ÏĥÎµÎ¹
Î¯Î½ ÎµÏĦÎµ
Ġ of
ĠÏĥÏĦÏĮ ÏĩÎ¿
Î²Î¬ Î¸
Î´ ÏģÎŃ
1 7
Î½Î¿ Î¹Î±
ĠÎºÎ± ÏĦÎµ
ĠÎ¶ Ïİ
ÏĢ ÎŃÏĤ
ĠÎ»Ïį ÏĥÎ·
ÏĮ ÏĦÎ±
ĠÎ±Î³Î¬ ÏĢÎ·
/ /
a b
Î¯Î¶ Î¿Î½ÏĦÎ±ÏĤ
ĠÏĨ Î±Î¹
Î¯Î½ Î¿ÏħÎ¼Îµ
Î¸ ÏĮÎ½
ÏĦÏħ ÏĢ
ĠÎļÎ± ÏĦÎ±
ÎĮ ÏĦÎ±Î½
ĠÎĺÎµÏĥÏĥÎ±Î»Î¿Î½ Î¯ÎºÎ·ÏĤ
ĠÎº ÎµÎ½ÏĦÏģ
ĠÎ¬ ÏģÏĩ
Îķ Î¯
ĠÎ±Î½Î± ÏĨÎŃÏģÎµÎ¹
ĠÎĳÏĢ ÏģÎ¹Î»Î¯Î¿Ïħ
ĠÎºÏħÎºÎ»Î¿ ÏĨÎ¿
i e
Îľ ÎŃ
ĠÏĢÎ¬ ÎµÎ¹
ĠÎĪ ÏĦÏĥÎ¹
Î» Î¹Î½
Î³ ÏīÎ½
ĠÎĳ ÎłÎŁ
ÏĦÎ¬ Î¾ÎµÎ¹ÏĤ
Î¬ ÎºÎ¹
ĠÎĳ ÏĦ
ĠÏĢÎ± Î¯Îº
Î¯ ÏīÏĤ
Î»Î± Î²Îµ
ĠÏĢÎ¿Î»Î¹ ÏĦÎ¹ÎºÎ®ÏĤ
ĠÏĢÎ± Ïģ
Î¹Îº Î¿Î¹Î½ÏīÎ½
ĠÎ½ Î¯ÎºÎ·
ĠÏĩÏģÎ· Î¼Î±ÏĦÎ¿
Ġ !
ĠÎ¼ÏĢÎ¿ÏģÎ¿Ïį Î¼Îµ
ĠÎ¬ Î¼Îµ
ĠÏĦ ÏĮÎ½
Î»Î¿Î³ Î¹ÎºÏĮ
Î¾Îµ ÏīÎ½
ĠÎĮ ÏĦÎ±Î½
ĠÏĦÎµ ÏģÎ¬
ĠÎĳ ÏĨ
ÏĦÎ¹Ïĥ Î¼ÏĮÏĤ
ĠÎ±Ïĥ Î¸ÎµÎ½
ĠÎºÎ±Î¹ ÏģÏĮ
ht tp
ĠÎļ ÏģÎ®
ĠÎº Î»ÎµÎ¹
ĠÏĢÎµÏģÎ¹ÏĥÏĥÏĮÏĦÎµ ÏģÎµÏĤ
ar d
!! !!
1 3
ĠÎµÎ¼ÏĢÎµÎ¹ ÏģÎ¯Î±
ÏĢÎ± ÏģÎ¬
Î¼ Ïī
Ġ n
ĠÎ± ÏĤ
ĠÎ² Î¬Î»
Î² Î®
ĠÎºÎ¿Î¹Î½ÏīÎ½ Î¯Î±
ĠÏĢÎ¿Î»Î¯ ÏĦÎµÏĤ
ĠÎ¿ Î¹Îº
ÏģÏĮ ÏĦÎ·ÏĦÎ±
ÏĮ ÏĦÎ·ÏĦÎµÏĤ
ĠÎĶÎ· Î¼Î®
Â ·
ĠÎłÎ±ÏģÎ± ÏĥÎºÎµÏħÎ®
Îķ Î½
ĠÎ±Î½ÏĦÎ¹Î¼ÎµÏĦÏī ÏĢ
ĠÎ»Î¹ Î³
Î»Î»Î® Î½ÏīÎ½
1 4
ÏĩÏģÎ¿ Î½Î·
ĠÎ±Î½ÏĦÎ¯ ÏĥÏĦÎ¿Î¹
Ïį Î¼Î±ÏĦÎ±
ĠÎºÏħÎ²ÎŃÏģÎ½Î· ÏĥÎ·ÏĤ
ĠÏĥÏħÎ¼Î¼Îµ ÏĦÎŃ
al l
Ġ4 0
Î¬Î½Î¹ ÏĥÎ·
ĠÎĻ ÏĦÎ±
: //
Ïģ ÏĦÎ±
ÎŃ ÏģÎ¿Î½
Îº ÏĦÎ®
ĠÎĽ Î¬
ĠÏĮ Î¼Î¿Ïģ
Î³Î¿Ïį ÏĥÏĦÎ¿Ïħ
ĠÎĻ Îµ
Î»Î» ÏĮÎ³
ĠÎµÏĢÎ¹ Î»ÎŃ
ĠÎ±ÏĢÎ¿ Ïģ
ĠÎ´Î¹Îº Î±Î¹Î¿
ÏİÎ½ Î¿ÏħÎ½
Î½Î±Î½ ÏĦÎ¯
ĠÎ±ÏįÎ¾Î· ÏĥÎ·
ĠÏĥÏĦÏģÎ± ÏĦÎ¹Ïī
Ġ on
ĠÎľ Î¹
ÏĦÎŃ ÏģÎ±ÏĤ
ĠA n
ĠÎ±ÏĢÎŃ Î½Î±Î½ÏĦÎ¹
ĠÎ½Îµ Î¿
Ġe mail
ÎķÎ³ Î³ÏģÎ±ÏĨÎ®
ĠÎ¼Î¿Ïģ ÏĨÎ®
Ïĥ ÏĦÏģÎ±
Îĺ ÎŃ
ĠÎºÎ± Î½Î¿Î½
ĠÏĦÎ¿ Î¼ÎŃÎ±
at ion
ÏĦÎ¿Ïį ÏĤ
ĠÏĢÏĮ ÏĥÎ¿
Î¬Î½ Ïī
ĠÏħÏĢÎ¿ ÏĥÏĦÎ®ÏģÎ¹
Î¹Ïĥ Î¼Î±
Î¯Îº Î·ÏĥÎ·
Î¸ ÏīÏĤ
ÎŃ Î½Î±ÏĤ
ĠÎ¼Î¹ Î»Î¬
ĠÎŃÏĢ ÏģÎµÏĢÎµ
Î» Î»Î¿
ĠL e
ĠÎ¼Î¿ Î½Î¿
ĠÏĥÏĦÎ± Î¸Îµ
ĠÎ»Î± Î¼Î²
ĠÎ¤ ÎĹÎ£
201 8
ĠÏį ÏĪ
ĠÏĢÏĮ Î»Îµ
ĠÎ³ Î¹Î¿Ïģ
ĠÎ¾ÎµÎ½Î¿Î´Î¿ ÏĩÎµÎ¯Î¿
Î½ Î±Î¹
Î½Î± ÏĬ
ĠÎ± ÏģÎ¹ÏĥÏĦÎµ
Ġ g
ĠÎĿ ÎĶ
ĠÏĦÎ±ÏĩÏħ Î´ÏģÎ¿
ĠÏĢ Î»Î¿
Ïĩ Î¸Î·ÎºÎµ
Î· Ïĥ
ĠÎ¸ÎŃÎ» Î¿ÏħÎ½
ÏĨ ÏİÎ½
ÎĽ ÎĹ
Î¬Î½ ÎµÏĦÎ±Î¹
Î¬Ïģ ÏĦÎ·
ĠÎºÎ¿Î¹ Î½Î¿
ÎŃ ÏģÎ¹
ĠÏĢÎ±ÏģÎ¬ Î´ÎµÎ¹Î³Î¼Î±
ĠÏĢÏģÎ±Î³Î¼Î± ÏĦÎ¹ÎºÎ¬
ÏĩÏģÎ¿ Î½Î¿ÏĤ
ÎĮ ÏĢÏīÏĤ
Î´ Î¿Ïį
ĠÎ± Î¼ÎŃ
ĠÎķÎº ÎºÎ»Î·
ĠÎµÎ½ ÏĦÏĮÏĤ
ĠÎºÎ± Î¸Îµ
Ïĩ Î¿ÏħÎ¼Îµ
Î¯Î¶ Î¿ÏħÎ¼Îµ
ĠÎ¿Î¼Î¬ Î´ÎµÏĤ
ĠÎºÎ±Ïģ Î´Î¹Î¬
ĠÎ´ÏįÎ½Î± Î¼Î·
ÏĢ Î»Î¿
ÏĨÎ± Î¯
ĠÎµÎ»Î»Î·Î½ Î¹ÎºÏĮ
ÎĶ ÎµÎ¯ÏĦÎµ
ĠÎĺÎµÏĥÏĥÎ±Î»Î¿Î½ Î¯ÎºÎ·
ÏĩÏģÎ¿ Î½Î±
ĠÏĥÏĦÎ± Î¸
ĠÎº Î»ÏĢ
ĠÎ¼Î¬ ÏĦÎ¹Î±
ĠÎ´Î·Î¼Î¹Î¿ÏħÏģÎ³ Î¯Î±
ĠÎ² Îµ
ÏģÏİ ÏĥÎµÎ¹
Î¸Î® Î¼Î±ÏĦÎ±
Î»Îµ ÏĢ
ÏĦÎ¿ Î³
Ïģ Î¼Î±
Î´ ÏģÎ¬
ÏĢÎ¿ Î¼ÏĢ
ĠC h
ĠÎłÎ± ÏģÎ¬
ĠÎ»ÏĮÎ³ Î¹Î±
ÏģÎµÏħ Î½Î·
ĠÏĢÎ±Î³ ÎºÏĮÏĥÎ¼
ĠÏħÏĢ ÎŃÏģ
ĠÎļ Ïİ
ĠÎ³Î½Ïī ÏģÎ¯Î¶
Î£ ÏĦÎ·
ĠÎµÎº ÏĦÎµ
ĠT witter
ÏĢÎ¿ Î»Î·
Ġ ÏģÎ¯
Î· ÏĥÎµ
ĠÎ±ÏĢÎµ Ïħ
Îķ Î¡
ĠÏĦÎ¿Ïħ ÏģÎº
ĠÏĢÎµÏģÎ¹Î¿ ÏĩÎŃÏĤ
ÎĮ ÏģÎ¿Î¹
ĠÎµ Î»ÏĢ
ĠÎ¤ Ïį
ĠÎĳÏħ Î³Î¿ÏįÏĥÏĦÎ¿Ïħ
ĠÎĿ Î¯Îº
ĠÎķ ÏĢÎ¯ÏĥÎ·ÏĤ
Î¸Îµ ÏĥÎ·ÏĤ
ÏģÎ¹ Î¿Ïį
ĠÎµÏĢÎ¹ÏĩÎµÎ¹ ÏģÎ·Î¼Î±
ĠÏĢÏģÎ±Î³Î¼Î± ÏĦÎ¹ÎºÏĮÏĦÎ·ÏĦÎ±
ĠÎĶ Î¹Îµ
g er
Î¾ ÎµÎ½
Î¼ Î¯Î¿Ïħ
Î¼ÏĢ ÏĦÎ·
ĠÏĦ ÏģÎ¬ÏĢÎµÎ¶
Ġ2 8
ĠÎ± Î¼ÏĨ
ÏĪ Î±
Îº ÎºÎ¹
ĠÏĮÏĥ Î¿ÏħÏĤ
ĠÎĪ Î½Î±
Ġ ÎĬ
ÏģÎ¹Ïĥ ÏĥÏĮÏĦÎµ
ÏĥÏĦÎ· ÎºÎ±Î½
ĠÎ¼Î¹Îº ÏģÎ¿
Î½ ÏĦÎ±
ĠÎ±ÏĢ Ïİ
Ġ201 2
ĠÎµÎ¾ Î±Ïĥ
ÏĪ Î®ÏĨ
Î»Îµ Î¯Î±ÏĤ
ĠÎĶÎµÏħ ÏĦÎŃÏģÎ±
ĠÎ¾ Î±Î½Î¬
ĠÏĨ Î¿Î¹
ĠÎ»ÎŃ Î½Îµ
Ġ201 3
ĠÏĥ ÏĦ
ÎĻÎĳ Î£
Î¼ Î¹Î¬
ĠÏħÏĢÎ¿ÏħÏģÎ³ ÏĮÏĤ
ĠÏĦÎŃ ÏĥÏĥÎµ
Ïĥ ÏĩÎµ
ÎĵÎ¹Î± ÏĦÎ¯
Î¿Î» ÏĮÎ³
ĠÎ² ÎŃÎ²Î±Î¹Î±
ĠÎµ Î³Î³
ĠÎ´ ÏİÏĥÎµÎ¹
ĠÎº ÏģÏį
Î½ ÏĦ
ÏĮÏĦÎµ ÏģÎµÏĤ
Ïī ÏģÎ¯ÏĤ
Î¼Î²Î± ÏĥÎ·
ĠÏī ÏĥÏĦÏĮÏĥÎ¿
Î¼ Î¬Î½
Î² Î¯
ÏģÎ¿Ïį Î¼Îµ
ĠÎĵÎ± Î»Î»
ĠÎ¤ Îĳ
ĠÎ¸ Î·
Î¯Î´ Î·
ĠÎµ ÏģÏİ
ĠÎ´ ÎµÎ¯ÏĦÎµ
ĠÏħÏĢÎ® ÏģÏĩ
Î¹Ïĥ Î±Î½
ĠÎ¿Î¹ÎºÎ¿Î½Î¿Î¼ Î¹ÎºÎ®
Ïħ Î³
ĠÎĻ ÏĥÏĦÎ¿
Î¹Ïĥ ÏĦÎ¬
ĠÎ¿ ÏĨÎµÎ¯
ÏģÎ¹ ÏĤ
ÏģÎ¹Ïĥ Î¼Î¿Ïį
el l
ĠÏĥÎº Î·Î½
Î¼Î± ÏĦÎ¬
ĠÎ¾Îµ ÎºÎ¹Î½Î®
ĠÎºÏĮÏĥ Î¼Î¿ÏĤ
ĠÏĥÏĩÎŃ Î´Î¹Î¿
ĠÏĦÎ¯ÏĦ Î»Î¿
ĠÏĥ ÎºÎ»Î·
ĠÎµÎº ÏĨÏģÎ¬
ĠÎ´Î·Î¼ÏĮ ÏĥÎ¹Î±
Î¼ Î¿ÏħÎ½
ĠÎºÎ± ÏĦÎ±Î½
ĠÎĳ Ïģ
ĠÎºÎ±Î»ÏįÏĦÎµ ÏģÎ¿
Î¯ Î»Î·
ĠÏĨÎ±Î½ ÏĦÎ±
Î® ÏĥÏĦÎµ
Î² Î¿Ïħ
ĠÏĩ Î±Ïģ
Î± Ïħ
Î´ÎµÎ¹Îº Î½
ĠÎ¤Îµ ÏĦÎ¬Ïģ
ĠÏħÎ³Îµ Î¯Î±
ĠÎ± Î¼ÎµÏģ
ĠÎł Î±Î³
ĠÏĨ Î±Ïģ
ÏĦÎ· Î¸ÎµÎ¯
ĠÎº ÎŃÏģ
ÏĦÎ® ÏĥÎ¿ÏħÎ½
Ïħ Îº
Î± ÏĦÏģ
ÏĦÎµÎ¯ ÏĦÎ±Î¹
ĠÎķ Î»Î»Î®Î½ÏīÎ½
ĠÎļ Î±Ïģ
ĠÎ¥ Î³Îµ
ĠÏĩÎ±ÏģÎ±ÎºÏĦÎ·ÏģÎ¹Ïĥ ÏĦÎ¹ÎºÎ¬
ĠÏĢÎ±ÏģÎµ Î»
ĠÏĩÎ± ÏģÎ¬
Î¾Îµ ÏģÎ³
a v
ĠÎ´ Î¹Î´
ĠÏĢ ÎŃÎ½ÏĦÎµ
Îµ Î¯Î±ÏĤ
Ġ Âµ
ĠÎł ÎµÎ¹
ĠÎ¼Îµ Î¯ÏīÏĥÎ·
ĠÎµÏĢÎ¹Ïĥ ÎºÎµ
ĠÎµÏĢÎ¹ ÏĦÏħÏĩÎ¯Î±
Î¹Ïĥ ÏĦÎµÎ¯
ĠÎ´Î¹ ÏĮÏĦÎ¹
ĠÎ±ÏĢ Î¬Î½ÏĦÎ·ÏĥÎ·
ÏįÏĢ ÏĦÎµÎ¹
ĠÎ£Î¬ Î²Î²Î±ÏĦÎ¿
ĠÎ´ÎµÎ´Î¿ Î¼ÎŃÎ½Î±
Îķ Î¥
ĠÏĢÎµÏģÎ¹ ÎŃ
ĠÎ¬Î» Î»Î¿Î¹
i st
ÏĢ Î¿ÏħÎ½
Îµ Î¿
Î³ ÎŃ
ĠÎ´Î¹ ÎŃ
Ïģ ÏĨ
ĠÎºÏģÎ¬ ÏĦÎ¿ÏĤ
ĠÎ±Î½ Î¸ÏģÏī
ÏĨÎ¿ÏģÎ¬ ÏĤ
Îº ÏīÎ½
ĠÎµ Î»Î±
Î¾ Î¿ÏħÎ¼Îµ
ĠÎ³ÏģÎ± Î¼
Ġ h
ÏĦÎ¯ Î¸Îµ
ĠÎĳÎ¸Î· Î½ÏİÎ½
ÏĦ ÏĥÎ¿
ĠÏħ Î»Î¿
Î² Î¿Ïį
ĠÎµÎ¹ ÏĤ
iv e
ÏĦÎ· ÎºÎ±Î½
ĠÎŃÏģÎ³ Î±
ĠÎµÏĢÎ¹Ïĥ ÏĦÎ®
Î»Îµ ÏĥÎµ
Îº Ïī
Ïİ Î¸Î·ÎºÎµ
ĠÏĥ ÏīÎ¼Î±
ĠÎ´Î·Î¼Î¿ ÎºÏģÎ±
ĠÎºÎ¯Î½ Î´Ïħ
Îľ ÏĢÎ¿
ÏĥÏĩ ÎŃ
ĠÏĥÏħÎ½ Î´ÎŃ
ĠÎ±Î½Î± Î³Î½Ïİ
ĠÎµÎ¾ÎŃ Î»Î¹
ĠÎº Î¹Î½Î®
ÎŃÎ½ ÏĦÎµÏħ
Ġ w
Î¶ Î¿ÏħÎ¼Îµ
ĠÏĦÏģÎ± ÏĢÎµÎ¶
ĠÎ¬ Î¼ÎµÏĥÎ±
Î¾ Î¯Î±
ĠÎ¼Î± Ïį
ĠÎĶÎ·Î¼Î® ÏĦ
ĠÏĦÎµÎ»ÎµÏħÏĦÎ± Î¯Î¿
Ġc ook
ĠÎ±Î½Î± ÎºÎ¿Î¹
ĠÎ¶ ÏīÎ½
ĠÎ´ÎµÏįÏĦÎµ ÏģÎ·
ĠÎºÎ¬Î½ ÎµÎ¹ÏĤ
ĠÏĥÏħÎ½Îµ Î´
ĠÏĮ ÏĢÎ¿
ĠÎĺÎµ Î¿
Îł ÏİÏĤ
ĠÏħÏĢÏĮ Î¸ÎµÏĥÎ·
ĠÎŃÎ½ ÏĦÎ¿
2 1
Ġ Î¹Îµ
Î´ Î¯Î¿Ïħ
ĠÎµÏĢÎ¹ ÏĦÏģÎŃ
ĠÏĥÎµ Î¾
ĠÎºÎ¬Î½ Ïī
ĠÏĦÎ¹ Î¼ÎŃÏĤ
Î² ÏĮ
ĠÏĢÎ¿ Î´Î¿
Î²Î¬ Î»Î»
ĠÏĥÏħÏĩÎ½ Î¬
Î¿Ïį ÏĥÎµ
ĠÎ±Î½Î¸ÏģÏİ ÏĢÎ¹
ĠÏĩÎ¹Î»Î¹Î¬ Î´ÎµÏĤ
ÎłÎ± ÏģÎ±
ĠÎ¼Î± Î¶
ĠÎ¿Ïħ ÏĥÎ¹Î±
Îº Î±ÏĤ
ĠÎľ ÏĢÎ±
ĠÎ¬ ÏĢÎ¿
ÎµÎ½ Î¬
Î¹ ÏĥÎ·
Î³ Î¹Î¬
Î¾ Î¹Î¿
ĠÏĢÎ¿ ÏĥÏĮ
ÏĦ ÏĦÎ±
ĠÎ± Î»Î»Î·
ĠÎºÎ±ÏĦÎ·Î³Î¿ ÏģÎ¯Î±
Îº ÏĦÎ¿Î½
ĠÎ£ Î¿
ÎĿ Îĳ
Îķ Ïħ
ĠÎ± Î¹Ïİ
ĠÎ´ÏħÎ½Î¬ Î¼ÎµÎ¹ÏĤ
ĠÎ·Î¼Îµ ÏģÎ¿
Î¹Ïĥ ÏĦÎ¹ÎºÎ®
ĠÎ¤ ÎĹÎĿ
Ïĥ Î¼Îµ
ĠÏĢÎ±ÏģÎµÎ» Î¸ÏĮÎ½
ĠÎµÏĢÎ¹Ïĥ ÏĦÏģÎŃ
ĠÎļÎ± ÏģÎ±
ĠÎ±ÏĢÎ¿ÏĦÎµ Î»Î¿ÏįÎ½
Î»Î¿Î³ Î¿
Ġ Î¹ÎºÎ±
on e
Î»Î¬Î² ÎµÎ¹
ĠÏĨ ÏĦÎ¹Î¬
ĠÎ¸Î¬ Î»Î±
ÏĢÎµ Î´Î±
ĠÎ¼ ÏĢÎ¬
ĠÏĦÎŃÏĦÎ¿ Î¹Î±
ĠÏĩÏģÎ¿Î½ Î¹Î¬
ĠÎ±Î½ÏĦÎ¹Î¼Îµ ÏĦÏİ
ÏĢÎ¿ Î»Î¹
Î¸ ÏħÏĥ
ĠÎ´Î·Î¼Î¿ ÏĥÎ¯
ĠÎºÎ¬Î½ ÎµÏĦÎµ
ĠÎ¾Îµ ÏĩÏī
ĠÎ¼Î±Î¸Î· ÏĦÎŃÏĤ
âĢ ĵ
ĠÎµ Î½Î±Î½ÏĦÎ¯
ĠÎ±Î½Î± ÎºÎ±
c e
ĠÏī ÏģÎ±
ĠÎ³ ÏħÎ½Î±Î¹
ĠÏħÏĢÎ·ÏģÎµ ÏĥÎ¹ÏİÎ½
ÎµÎ¹ Î¿
ÏĢÏģÎ¿ Ïĥ
ĠÎ½ÎŃ Î¿Ïħ
' '
ĠÎµÎ¾ Î¿
ĠÎº Î»Î¬
Ïģ Î¸Îµ
Î¼ Î¹ÎºÎ¬
it e
ĠA l
Î¯Î½ Ïī
ÏģÎ¯ ÏĥÎµÎ¹
Ġ2 7
Î¼Î¬ ÏĦÎ¹Î±
ĠÎ»Î± ÏĬ
ÏģÎ¹ ÏĥÎµ
Î² ÎŃÏģÎ½Î·
ĠÎ´Ïī ÏģÎµÎ¬Î½
ĠÏĢÎ±ÏģÎ± Î´Î¿
an t
ĠÎ³ Î¯Î½Î¿Î½ÏĦÎ±Î¹
Ġ2 6
Ïĩ Î¸
Î¿Î½ ÏĦÎ±Î½
ĠÎĴ Î±
Î£ ÏĦÎ±
ĠÏĢÏģÎ¿ ÏĥÎ±
ĠÎ³Î½Ïī ÏĥÏĦÏĮ
ĠÏĦÏģÎ± ÏħÎ¼Î±
Î¬Î¶ Î¿Î½ÏĦÎ±Î¹
? ?
ĠÎŃ ÏģÏĩÎµÏĦÎ±Î¹
ÏĢÎµ ÏĦÎ±Î¹
ĠÎķ ÏĢÎ¹Ïĥ
ĠÎļ Î¿Î¹Î½ÏīÎ½
ĠÏĦÎ±Î¹Î½ Î¯Î±
l ine
ĠÏĢÎ± ÏģÏĮ
Î¼Îµ ÏĦÎ±
ĠÎ·Î»ÎµÎºÏĦÏģÎ¿Î½ Î¹ÎºÎ¿Ïį
ĠÎĿ ÏĮ
ĠÎº ÏģÎµ
ĠÏĥÏħÎ½Î´Ïħ Î±Ïĥ
2 4
ĠÎºÎµÏģ Î´
ÏĦÎµ ÏģÎ·
Î½ ÎŃ
ĠÎ¼ÎŃ Î»Î¿ÏĤ
ĠÎµÏĢÎ¹ÏĩÎµÎ¹ ÏģÎ®ÏĥÎµÎ¹ÏĤ
ÏĦÎ¿ Î»Î®
Î¸ÎµÎ¹ ÎµÏĤ
ÎŁÎ¥ Î£
ÏģÎ¹Ïĥ Î¼ÏĮÏĤ
ĠÎ´Î¹ÎºÎ±Î¯ ÏīÎ¼Î±
Ïĥ ÎºÎ±
ĠÏĢÏģÎ¿ Î¿
ĠÏĥ ÎºÏĮ
Î¾ Î®
ĠÏĦÎ±Î¾ Î¹Î´
ĠÎ´Î¹Î± ÏĩÎµÎ¯
ĠÏĦ ÏģÎ¯Î±
ÏĢ Î¹Î½
Î»Î¿Î³ Î¹ÎºÎ¬
ĠÎµÎ¹Î´ Î¹ÎºÎ¬
ĠÏĥÏħÎ³ Î³ÏģÎ±ÏĨ
Î´ÏĮ ÏĥÎµÎ¹ÏĤ
Î± ÏĢÏĮ
ÏģÎµ ÏĦÎµ
Î¶ Î¿Î½ÏĦÎ±ÏĤ
ĠÏĢÎ±ÏģÎ± ÎºÎ¿Î»Î¿Ïħ
Î½Ïī ÏĥÎ·ÏĤ
ĠÎ±Î³ ÏīÎ½
ĠÎ¹ÏĥÏĦÎ¿ÏĥÎµÎ» Î¯Î´Î±
ÏĥÎ± ÏĦÎµ
Î² Î»Î·
ĠÏĢÏģÎ¿ ÏĦÎµ
ĠÎŃ ÏĦÎ¿Î¹
ĠÎº Î»Î¯
ĠÏĢÎ¿Î»Î¹ ÏĦÎ¹Ïĥ
Îĳ ÎĽ
ĠÎµÎ½ Î¹Ïĥ
ĠÎ¼Î¿ÏħÏĥ Î¹ÎºÎ®
ĠÎ¸ ÏģÎ·
ĠÎ¤Î¿Ïį ÏģÎº
. )
ĠÎ±Î½Î¬Î³Îº ÎµÏĤ
Î»Î± Î²Î±
ĠÎºÎ±ÏĦÎ± Î½Î±
Î»Î¿Î³ Î·
ĠÎµÎ½Î±Î½ÏĦÎ¯ Î¿Î½
ĠÏĢÏģÏĮ ÏĦÎ±ÏĥÎ·
ĠÎłÎĳÎ£ ÎŁÎļ
ÏĮÎ¼Îµ Î½Î·
ĠÎ±Î½Î±ÎºÎ¿Î¯Î½ ÏīÏĥÎ·
ĠÎ´ÏģÎ¬ ÏĥÎ·
ĠÎ´Î¹ ÎµÏįÎ¸ÏħÎ½ÏĥÎ·
ĠÎĳÎ½ ÏĦÎ¹
Î· ÏĥÎ·ÏĤ
Î¿Ïį Ïģ
ĠÎ±Î³ Î³
ĠÏĢÎµÏģÎ¹ ÏĢÏĦÏİÏĥÎµÎ¹ÏĤ
ĠÎ¼Î¹Îº ÏģÎ®
ĠÏĢÎ® ÏģÎµ
ĠÏĢ ÎµÎ¯
ĠÎĨ Î½
Ïĥ Î¼Î¿
p h
Î»Î® Î¼Î±ÏĦÎ¿ÏĤ
Î¡ ÎŁÎ£
ÎºÎ»Î· ÏĥÎ·
Î»Î± Î²
ĠÎ±Î½Î¸ÏģÏİ ÏĢÏīÎ½
Î£ ÏħÎ½
ĠÎ¼ÎµÎ³Î±Î»ÏįÏĦÎµ ÏģÎ¿
ÎĻ ÎŁ
ĠÏĢÎ±ÏģÎ± ÏĦÎ·
ĠÎĽ Î¹
Î¤ Îµ
Î¸Î· Î½Î±ÏĬ
ÎµÏģ Î¼Î±
ĠÎ¼ÎµÎ³Î¬Î» ÎµÏĤ
ĠÎµÏĢÎ¹ÏĥÎºÎŃ ÏĢ
ĠÎµÏĢÎ¯ Î¸ÎµÏĥÎ·
ĠÎ´ÎµÏįÏĦÎµ ÏģÎ¿
ĠÎŃ ÏģÎ¸
ĠÎ»ÏĮÎ³ Î¿ÏĤ
ĠÎĳÎ³ Î¯Î¿Ïħ
Ġ201 1
ĠÎĺ ÎŃ
ĠÎ´Î¿ Î»Î¿
ĠÎł Î±Î»
ÏģÎ± Î²
ĠÎĽ ÎŃ
ÎºÎ± Î¯ÏģÎ¹
ĠÎ± Î½Î¿Î¹Ïĩ
Î½Îµ ÏĦÎµ
Î¬Î¶ Î¿ÏħÎ½
ĠÎ· Î³Îµ
o st
ĠÎ³Î¿Î½ ÎµÎ¯ÏĤ
ĠÎ¸ÎŃ Î±
ĠÏĦÏį ÏĢÎ¿Ïħ
ĠÎ¿Î»Î¿ÎºÎ»Î· ÏģÏī
Î»Î» Î¿Ïħ
Ġ Î¹ÎºÎ±Î½
ĠE uro
Î¬Î½ ÏĦÎ±
ĠÎŃÎº Î¸ÎµÏĥÎ·
ĠÎ±Ïĥ ÏĨÎ±
Î¼ Ïį
ÏĨÎµÏģ ÎµÎ¹Î±
ÏĢÏĮ ÏĦÎµ
ĠÎ´ Î¿ÏįÎ¼Îµ
ĠÏħÏĢÎ¬ Ïģ
Î¹Ïĥ ÏĦÎ¹ÎºÏĮ
ĠÎºÎ±Î½ ÎŃÎ½Î±
ĠÎµÏĢÎ¹Ïĥ ÏĦÎ·Î¼Î¿Î½
2 2
ĠÎ² ÏģÎ®
ÏĩÏģÎ¿ Î½Î¿
ĠÏĩ Î¸ÎµÏĤ
ĠÎĴ ÏģÎµ
Î¼ÎŃÎ½ Î¿ÏħÎ½
ĠÎŃÎ´ ÏīÏĥÎµ
ĠÎº Î¯Î½Î·
ÏĢÎ¹ ÏĥÎ·
Îķ ÏĢ
ĠÏĩÏģÏĮ Î½Î¿Ïħ
ĠÏĩÏģÎ® Î¼Î±ÏĦÎ±
ĠÎĶ Îķ
ĠÎµÏĢ Î·
Î¼ Ïİ
Î³ÏģÎ± ÏĪÎµ
ĠÎ±ÏĢÎ¿ÏĦÎµ Î»ÎµÏĥÎ¼Î±
Î³ Î¿Î½ÏĦÎ±ÏĤ
Î¸Îµ ÏĥÎµ
Î¸Î· ÏĥÎµ
ĠÎ½ÎŃ ÏīÎ½
ÎĿ Î¤
Î¹Ïĥ ÏĦÎŃÏĤ
ĠÏĢÎ± ÏģÏĮÎ½
ĠÎ´ÎµÎ¯ÏĩÎ½ ÎµÎ¹
ÏĦÎŃ ÏģÏī
ĠÎŃ Î²
ĠÏĥÏĦÏģÎ± ÏĦÎ·Î³
Î¸Î· ÏĥÎ±Î½
ĠÎº ÏģÏħ
ĠÎµÎº ÎºÎ»Î·
ĠÎµÎºÎµÎ¯ Î½Î·
ĠÎ³ ÎŃ
ĠÏĦÏģÎ±Î³ Î¿Ïħ
ĠÎµÏįÎºÎ¿ Î»Î±
i o
ĠÎľÎµ ÏĦÎ¬
Î¬Î½ Î·
ĠÎ¼Î¬Î» Î»Î¿Î½
ĠÎµÎº Î´Î®Î»ÏīÏĥÎ·
ĠÎļÎ± ÏĦÎ¬
Îµ Î´ÏģÎ¿
ĠÎ¬ Î½Î¿Î¹
Î¼ÏĮ ÏĦÎ·ÏĦÎ±
p ort
ĠÏĢÏģÎ¬ Î³Î¼Î±
ĠÎ½Î¿ ÏĥÎ¿ÎºÎ¿
ÏĨ Î¸ÎµÎ¯
ĠÎµÎ½ Î´Îµ
ĠÎ¹ÎºÎ± Î½Î¿
ĠÏĢÎ¿Î» Î»Î¿Î¯
ĠÎľ Î¿Î½
ĠÎ±Î½Î±Î¼ÎŃ Î½ÎµÏĦÎ±Î¹
ÏĨÎµ ÏģÏĮ
ĠÎĻ Î½
Î¯Ïĥ Î¿ÏħÎ¼Îµ
ĠÎ±Î½ÏĦÎ¹Îº Î±
ĠÎŃÎº Î´Î¿ÏĥÎ·
ĠÎĳÏħ ÏĦÎ®
ĠÏĥÏĩÎŃ ÏĥÎµÎ¹ÏĤ
ĠÎ¼Î¿Î½ ÏĦÎŃ
ĠÎ¤ Î¼Î®
Î´ Î¿ÏħÏĤ
Î¼ÎŃÎ½ ÏīÏĤ
Ïĥ ÏĦÎ¹Î±
ĠÎµÎ¾ Ïħ
ĠÎ±Î¹Ïİ Î½Î±
ĠÎ±Î»Î»Î±Î³ ÎŃÏĤ
Î¾Îµ ÏĦÎµ
ĠÏĨÎŃ ÏĦÎ¿ÏĤ
Ġ Y
2 5
ĠÎ¦ Î¹
Îº Î¹Î½
ÏĦÎ¿Î¹ Î¼Î¬
ĠÏĨ ÏģÎ¿Î½
ÏģÎ± Î¼Î±
Î¹Ïĥ ÏĦÎ¿
ĠÎļ Ïį
ĠÎµÏĢÏĮ Î¼ÎµÎ½Î·
ĠÎµÎº ÏĦÎ¹
ĠÎ·Î»Î¹Îº Î¯Î±
ĠÎĴ Î¿ÏħÎ»
ĠÎ±Î»Î»Î±Î³ Î®
ĠÎ±Î½Î± Î¶Î·
ÏĦÎµ Î¯Î±ÏĤ
ĠÎ¿ Î¼Î¹
ĠÎľ Î¿
Ġ http
g e
Î¹Îº Î¿Î½
ÏĦÏħ ÏĢÎ¿
ĠÎ¶Î®ÏĦÎ· Î¼Î±
ĠÎµÏĢÎµ Î¾ÎµÏģÎ³
Î¼Îµ Î½ÎµÏĤ
Î¯Ïĥ ÏĩÏħ
ĠÎµ ÏĥÏį
ÏĦ ÏįÏĢ
ĠÏĢÏģÎ¿ ÏĢÎ¿
ĠÏĢÏģÏĮÏĥÏī ÏĢÎ¿
ÏĢ ÏİÎ½
ÏģÏī ÏĥÎµ
ĠÎ¤ÎµÏĦÎ¬Ïģ ÏĦÎ·
o b
ĠÎ¿ÏĢÎ¿ Î¹Î±
ĠÎºÎ±Î¸Î· Î³Î·
ĠÏĨÎ¿Î¹ ÏĦÎ·
ÏĢÏģÎ¿ ÏĥÏī
ĠÎķ Îļ
ĠÎ³ ÎµÏį
ac k
ĠÎ£ ÏĦÎ·
t om
ĠÎļ Îµ
ĠÏĢÎµÏģÎ¹Î¿ ÏĩÎ®ÏĤ
ĠÎłÎ±Î½Î± Î³
Î¼Î¯ ÏĥÎµÎ¹ÏĤ
ĠÏĢÎ±Î¹Î´ Î¹ÏİÎ½
Î¼ Î¯Î±ÏĤ
ĠÎµÎ½ ÏĦÏħÏĢÏī
Î½Îµ Ïħ
Î±Ïĥ ÏĦÎµÎ¯
ĠÎ»Î¬ Î¸Î¿ÏĤ
ĠÏĦÎ¼Î® Î¼Î±
ĠÏĢ Î½ÎµÏħÎ¼Î±
ĠÎ³ Î¯Î½Î¿ÏħÎ½
ĠÎµÏĢÎ¹ Î²Îµ
ĠÎµÎº ÏĢÎ¿Î¼ÏĢ
ĠÏĢÏģÎ¿Ïĥ Î¸ÎŃ
ÎºÏģÎ¹ Î¬
ĠÎµÎ¾Îµ Î»Î¯
ĠÏĥÏħÏĥÏĦÎ® Î¼Î±ÏĦÎ¿ÏĤ
ĠÎ´ Î¯Îº
i f
ĠÎ»ÏĮÎ³ Î¿ÏħÏĤ
ÏĨ ÏģÎ±
Îº ÏģÎ¯
ĠÎľ ÎĳÎ£
ĠÏĢÎ¿ Î¹Î¿
ÏĦÎ¹Îº Î±
ÏĦÎ¹ÎºÏĮ ÏĦÎ·ÏĦÎ±ÏĤ
ĠÎ³ÏģÎ®Î³Î¿ ÏģÎ±
ĠÏĢ Î·Î³
Î² Î¿ÏħÎ»
Î¯Î½ Î·ÏĤ
ĠÎ¼ Ïį
Îº Î¯
ÏģÎ¹ ÏĥÎ·ÏĤ
ĠÏĥ ÏĦÎ®ÏģÎ¹
Ġ st
ÎĻÎļ ÎĹ
ĠÎ½ Î¹Ïİ
Î¸ Î»Î·Î¼Î±
ĠÎ¼ÏĢÎ¿ÏģÎµÎ¯ ÏĤ
ĠÏĢÎ± Î»Î¹
Î¹Î¬ Î¶ÎµÎ¹
ÏģÎ® ÏĥÎµÏīÎ½
Ïį Î¸Ïħ
ĠÎ³ Î·
Îµ ÏĥÎ·
ĠÎ² Î¬Ïģ
ĠÏĢ Î¹Î¬
ÏģÎ¿ Î¯
Î´Îµ Ïį
ÏģÎŃ Î±
ÎµÎ¹ Î¬
Ïģ Î¹ÎºÎ®ÏĤ
ĠÎ¼ Î½Î®
a st
Î¶ ÏĮÎ½
ĠÎ²Î¿Î® Î¸ÎµÎ¹Î±
Ġcook ies
ĠÎµÎ¯ ÏĥÏĦÎµ
ĠÎĵÎµÏģÎ¼Î±Î½ Î¯Î±
ÎµÎ¯ Î¼ÎµÎ½Î±
ĠÎµÏĢÎ¯ ÏĥÎ·
ÏĥÏį Î½Î·ÏĤ
or e
ĠÎ±Î¼ÎŃ ÏĥÏīÏĤ
ĠÎłÎµÎ¹ ÏģÎ±Î¹
ĠÏĦÎ±ÏĩÏħÎ´ÏģÎ¿ Î¼ÎµÎ¯Î¿Ïħ
Î£ ÏĦÎ¹ÏĤ
ĠÏĢÎ±Î¹ÏĩÎ½ Î¯Î´Î¹Î±
ÏĨ Î®ÏĤ
ĠÎĳ Î»Îµ
Î¼Îµ Î¯Î±
ĠÎ¬ Ïģ
ÎŁ Îĵ
Îķ Îĳ
ĠÎµÎ¾ÎŃÎ»Î¹ Î¾Î·
ĠÎºÎ± ÏģÎº
Î³ ÎµÏħÎ¼Î±
ÏĦÎ® ÏĥÏĦÎµ
ĠÎµ Î¼Î¬ÏĤ
ĠÎ´Î¹Îµ Î¸
ĠÎłÎŃ Î¼ÏĢÏĦÎ·
Ïģ Î¼Î·
ĠÎĶÎ· Î¼ÏĮ
ĠÎºÎ¬ÏĢÎ¿Î¹ ÎµÏĤ
Ïĥ Î¿ÏĤ
ĠÏĥÏħÎ½ Î¬Î½ÏĦÎ·ÏĥÎ·
ÏħÎ½ ÏĥÎ·
ĠÏĦÏģÏĮ ÏĢÎ¿ÏĤ
ĠÎ¿Î¹ÎºÎ¿Î³ÎŃÎ½ ÎµÎ¹Î±
ÎĲ Î¿Ïħ
ÏĦ ÏĥÎ¹Î±
ĠÏĢÎ¿ÏĥÎ¿ ÏĥÏĦÏĮ
Î´ ÎµÎ¹Î±
Î¼Î¿ Ïĥ
ĠÏĥÏħÎ¼ÏĢ Î»Î·
ĠÏĢ Î·
ĠÎ½ ÏįÏĩ
Ïĩ ÎŃ
Îļ Î¹
ĠÎµ ÏģÎµÏħÎ½Î·
ĠÏĥÏħ Î¶Î®ÏĦÎ·ÏĥÎ·
ĠÎ¿Î¹ÎºÎ¿Î½Î¿Î¼ Î¯Î±
ĠÎºÎ±Î¹ Î½Î¿Ïį
ĠÎĮ ÏĢÏīÏĤ
Î¡ Î©
ĠÎķ Î¾
ig ht
ĠÎĴ Î¿ÏħÎ»Î®
ĠÎ³Î»Ïİ ÏĥÏĥÎ±
Î±Ïĥ Î¯ÎµÏĤ
ĠÎ±Î½ ÏĦÎ¹Ïĥ
ĠÎŃ Î¾
ĠÎ³ ÏħÎ¼
ÏĨÎ±Î» Î®ÏĤ
ĠÏĥÏĦÎ¬ ÏĥÎ·
e x
ĠÏĥÎ·Î¼Î± ÏĥÎ¯Î±
ÏĮ ÏĦÎ±Î½
ĠÎ¹Ïĥ ÏĦÏĮ
ĠÏĨ ÏīÏĤ
ÏĦÏħ Î±
ÏĦÎ· ÏģÎ¯Î¿Ïħ
ĠÎ¾ÎŃ ÏģÏī
ĠÏĩÏģÏİ Î¼Î±
Ïĩ ÎµÏĤ
ĠÏĥÏħÎ¼Î²Î± Î¯Î½ÎµÎ¹
ÏĦÏģÎ¿ÏĨ Î®ÏĤ
ÏĨ Î¿ÏħÏĤ
ĠÏĦÎµÎ» ÎµÎ¹
ĠÏĦ ÏĥÎ¹
ĠÎĽ ÎµÏħ
ĠÏĢÏģÎ¿ÏĬÏĮÎ½ ÏĦÏīÎ½
Î¿ Î¯
ĠÏĥÏħÎ½ ÎŃÎ½ÏĦÎµÏħ
ÏĨÎ¿Ïģ Î¼Î®
ĠÏħÎ³Îµ Î¯Î±ÏĤ
ĠÎ´Î¹Îµ Îº
ĠÎ£ ÏĦÏģÎ±
ĠÎķ Îł
ĠÏĩ ÎŃÏģÎ¹
Î¹ÎºÏĮ ÏĦÎµÏģÎ±
ĠÎłÎ±Î½ÎµÏĢÎ¹Ïĥ ÏĦÎ·
ĠÎĵÎ¹ÏİÏģÎ³ Î¿ÏĤ
Îķ ÎĶ
ĠÏĥÏħ ÏĥÎºÎµÏħ
ĠÎºÎ± ÏĦ
Îº ÏĦÎ¹ÎºÎ¬
ĠÎ¼ÏĢÎ¿ ÏģÏİ
Ġ2 9
ĠÎºÎ±Î»Î¿ ÎºÎ±Î¯ÏģÎ¹
Ġ i
ĠÎ³ ÎµÏģÎ¼Î±Î½
ĠÎ£ ÏįÎ½
Î¾ Î¹Î¬
ĠÏĨÎ±Î¹ Î½ÏĮ
ĠÏĢÎ¿Î»Î¹ ÏĦÎ¹ÎºÏĮ
ĠÎ±Ïģ Î½Î·
ĠÎ¥ ÏĢÎ·ÏģÎµ
Ïī ÏĥÏĦÎµ
ĠÏĪÎ· ÏĨ
Î»ÎµÏħ ÏĥÎ·
Î¼ Î½Î·
ĠÎºÎ±ÏĦÎ¿ Î¹Îº
ĠÎľ Îĳ
ĠÎľÎ± ÎĲÎ¿Ïħ
ĠÎĪ Î»Î»Î·
ÏĥÏĦÎ· ÏĤ
Ïĥ ÏĦÎ¿ÏĤ
ÏĥÎ¹ Î¼Î·
ÎºÎ¿Ïį ÏĤ
ÏİÎ½ Î·
ĠÏħÏĢÎ® Ïģ
ĠÎ±Î½ ÏĦ
Î³ÏģÎ±ÏĨ Î¯Î±
á½ ¶
ĠÎ¼Î± Ïģ
ĠÎµÎºÎ±ÏĦÎ¿Î¼Î¼ ÏįÏģÎ¹Î±
ĠÏĢÎ±Î¯ Ïģ
Î³ ÏİÎ½
Î»Îµ Ïĥ
Î¿Î» Î®
4 0
Ġ201 0
ag ue
ĠÏĢÎ¿ Î»Îµ
ĠÎµÏĢÎ· ÏģÎµ
ÏĦÎ® Î¼Î¹Î¿
ĠÏĥÏĦÎ± Î¼Î±
ĠÎŃÎ»ÎµÎ³ ÏĩÎ¿
Ġ âĤ¬
ĠÏħÏĢÎŃ ÏģÎ¿
ÏģÎµ Ïĥ
ĠÎŃÎºÎ± Î½Î±Î½
2 3
ĠÎ´Î¹ÎºÎ±Î¹ ÏİÎ¼Î±ÏĦÎ±
ÎĹ Îľ
ĠÎ±Î³ Î¿Ïģ
ĠÎłÎ±Î½Î± Î¸Î·Î½Î±ÏĬ
ÏģÎ±Î³ Ïī
ĠÎ±Î½Î± Î³ÎºÎ±
ÏģÏį Î¸
h is
ĠÎ±Î¼ÎµÏģ Î¹ÎºÎ±Î½
Î® ÏĥÎµÏĦÎµ
ĠÎº Î»Î·
ĠÏĢÏģÎ¿ Î³ÏģÎ±Î¼Î¼Î±
ĠÎķÎ»Î»Î¬ Î´Î¿ÏĤ
ĠÎ±Î½ÏĦÎ± Î³ÏīÎ½Î¹Ïĥ
ĠÏĥÏĩÎ¿Î» ÎµÎ¯Î¿
ĠÎ±Î³ ÏİÎ½ÎµÏĤ
ĠÎ´Î¹Î¿ ÏģÎ³Î±Î½
ÏĮ Î´Î¿
ĠÎ¤ ÏģÎ±
ĠÎ±Ïģ Î¼ÏĮ
Ïģ ÏĦÎ®Î¸Î·ÎºÎµ
ĠÎ´Î·Î¼Î¿ÏĥÎ¹Î¿ Î³ÏģÎ¬ÏĨ
Î³ÏģÎ± Î¼
ĠÏĨÎ¯ Î»Î¿ÏħÏĤ
ĠÎ±ÏģÎ³ ÏĮÏĦÎµÏģÎ±
ĠÎ¾ÎµÎºÎ¯Î½Î· ÏĥÎµ
ĠÎĶÎ·Î¼Î¿ÎºÏģÎ± ÏĦÎ¯Î±ÏĤ
ĠÏĩÎµÎ¹ ÏģÏĮ
Î´ÏģÎ¿ Î¼Î®
ÎŁÎ¥ ÎĿ
ĠÎ³ Î®
Î»Î¿ÏįÎ½ ÏĦÎ±Î¹
Îļ ÎŁ
ĠÎ² Ïħ
ĠÏĨ Î±Î³
ĠÎ¬Î½ Î´
ĠÎ¹Ïĥ Î¿
Î´Îµ ÏĥÎ·
ÎºÎ± Î¼Îµ
ĠÎĳÎ¹ Î³Î±
ÏĦÎ· ÏĦÎ¬
ĠÏĥÏħÎ½ ÎµÎ¹
ĠÎ¥Î³Îµ Î¯Î±ÏĤ
ÏĢÎ¿Ïħ Î»Î¿
ĠÎ² ÏģÎµÎ¯ÏĦÎµ
ĠÎĴ ÎµÎ½
Î»Î»ÏĮÎ³ Î¿Ïħ
ÏģÏĮ ÏĥÏī
ĠÎµÏĢ Î±Î½
Î»ÏĮÎ³ Î¹Î¿
ĠÎ±ÏĢ Î¬Î½
Î´ Î¯Î±ÏĤ
ĠÎµÎ»Î»Î·Î½ Î¹ÎºÎ®ÏĤ
Ġ19 8
Î¸ Î¿Ïħ
ĠÏĢÏģÎ¿ÏĥÏĦÎ± ÏĥÎ¯Î±
ÏĢ ÏģÎ¬
ĠÏĢÎ»Î· ÏģÏī
ĠÏĥÏįÎ½Î¿ Î»Î¿
Îļ Î¿Î¹Î½Î¿
ĠÏĢ Î»Î±Î½
ÏĨ Î¿Î½
ÎłÎ± ÏģÎ¬
ĠÏĨÏīÏĦÎ¿Î³ÏģÎ±ÏĨ Î¯Î±
ĠÎ¯Î´ Î¹
ÏĦÎ¬ ÎµÎ¹
ĠÎĻÏī Î¬Î½
Î¿Ïį Î¼ÎµÎ½Î¿
ĠÎºÏĮÏĥ ÏĦÎ¿ÏĤ
ĠÎ±ÏģÏĩ Î±
ĠÎ¥ ÏĢÎ¬
il l
ĠÎĵÎµ ÏīÏģÎ³
ÏĦÏį Î¿Ïħ
Ġb log
ĠÎ£ Î¤ÎŁ
ĠÎ¸ÎŃ Î»ÎµÏĦÎµ
ÏĢ ÎµÏĤ
ĠÎ¼Î± Î³
Ïĩ Î½Î·ÏĤ
ĠÎ´ÎµÎ´Î¿ Î¼ÎŃÎ½ÏīÎ½
Ġ á½
ĠÏĦÎŃÏĦÎ¿ Î¹Î¿
ĠÎ§ÏģÎ® ÏĥÎ·ÏĤ
ÎĳÏĢÎ¿ ÏĥÏĦÎ¿Î»Î®
ĠÎ´ÏģÎ±ÏĥÏĦÎ· ÏģÎ¹ÏĮ
ĠÎŃÏĨ ÏĦÎ±
ĠÎ´Î· Î»ÏİÏĥÎµÎ¹ÏĤ
Î¶ Î®ÏĦÎ·
ĠÎ± Î»Î·
ÏĢÎ¿ Ïģ
Ġá¼ Ĳ
ĠÏĥÏħÎ¼ÏĨ ÎŃÏģÎ¿Î½
ÎĳÎ½Î± ÏģÏĦÎ®Î¸Î·ÎºÎµ
Î»ÏĮÎ³ Î·ÏĥÎ·
ĠÎ´Î¹Î±Î¸ÎŃ ÏĦÎµÎ¹
ĠÎ±ÏħÏĦÎ¿ÎºÎ¯Î½Î· ÏĦÎ¿
ĠÎĳ ÏģÎ³
ĠÎĳÎ¸Î® Î½Î±ÏĤ
ĠÏĢÎ»Î· Î¸ÏħÏĥ
Î¬Ïģ Î¼Î±
ĠÎ»ÎµÎ¹ÏĦÎ¿ÏħÏģÎ³ Î¯Î±ÏĤ
ĠBlog ger
ĠÎµÎ½Î·Î¼ÎŃ ÏģÏīÏĥÎ·
ĠÎ±ÏĢÎ¿ Î´Î¿
ĠÎ´Î¯ ÏĢÎ»Î±
ÏĮÎ½ ÎµÏĤ
ÎĶÎ¹Î± Î²Î¬ÏĥÏĦÎµ
ĠÎºÎ¯Î½ Î·ÏĥÎ·
ĠÎ± ÏĨÎ¿ÏģÎ¼Î®
ĠÎŃ Î³
ĠÎŃ ÏĦÎ¿ÏĤ
ĠÎ±Ïħ Î¾Î·
ĠÎº ÎµÎ¯Î¼ÎµÎ½Î¿
ĠÎ£ Î¤
Ġ Î»ÎµÏħ
ĠÎ¸ÎŃ Î»Ïī
ĠÏĥÏħÎ³ÎºÎµÎºÏģÎ¹ Î¼ÎŃÎ½Î¿
ÎºÎµ Ïħ
ĠÎ´Î¹Î± ÏģÎº
ĠÎ¼ÎµÎ³Î¬ Î»Î±
Ïĥ ÏħÎ½
ĠÎµ Î»Î¬ÏĩÎ¹Ïĥ
ĠR e
ĠÎµÏĨÎ±Ïģ Î¼ÏĮ
Ġ Î»Î·
ĠÎĶ Ïħ
ĠÎķÏħÏģÏİ ÏĢÎ·ÏĤ
ÏĢÎ¿Ïħ Î»Î¿Ïħ
Ïĥ Î¿Î¹
ĠÎļ Î±Î»
Î» Î±ÏĤ
ĠÎļ Î±Ïĥ
ĠÏĢÏģÎ¿Î³ÏģÎ¬ Î¼Î¼Î±ÏĦÎ¿ÏĤ
ĠÎ½Îµ Îº
ĠÎ±ÏĨÎ¿ ÏģÎ¿ÏįÎ½
Î» Î¯ÎµÏĤ
ĠÏĩ Î¹
ĠÎŃ Î»Îµ
ĠÎ£ ÎºÎ¿
ĠÎŁÎ¹ÎºÎ¿Î½Î¿Î¼ Î¹ÎºÏİÎ½
ĠÎķÏĢÎ¹ ÏĦÏģÎ¿ÏĢÎ®
âĢĿ ,
Î´ ÎµÏħ
Î± ÏĨ
Î¬Î½ ÏĦÎ¹Î±
ÏģÎ¬ Î½
ĠÎ»Î¯ Î³ÎµÏĤ
ĠÎ¤ ÎŃ
ĠÎµÏħÎ¸Ïį Î½Î·
ÏģÎµÎ¯ ÎµÏĤ
ĠÎĽ Î¿
ÏĦ ÏģÎ¿Ïħ
ĠÎ´Î¹Î± ÏĨÎ¿ÏģÎ¬
ĠÎµÎ½ÎŃÏģÎ³ ÎµÎ¹Î±
Î¾ Î¹Î±
Î¼ÏĢ Î¹
Ïģ Î¹Îº
ĠÎ±Î³ ÏģÎ¿
ĠÏĢÎ±ÏģÎ±Î´Î¿ ÏĥÎ¹Î±
âĢĿ .
ĠÎ¤ÏģÎ¯ ÏĦÎ·
ĠÎ±Î½ÎŃ ÏĨÎµÏģÎµ
ĠÎ»ÎµÏĢ ÏĦÎ¿
ĠÎºÎ±Î¸Î·Î¼ÎµÏģÎ¹Î½ Î¬
ĠÎµ Î»ÎµÏħÎ¸Îµ
ĠÎ£ÏħÎ½ ÎŃ
ÏĨÎ¿Ïģ Î¯Î±ÏĤ
ÎºÎ¿ ÏĥÎ¼
ÎļÎ± ÏĦÎ¬
Î¯Î½ ÎµÏĤ
ĠÎķ Î£
ĠÎµÎºÏĢ ÏģÏĮÏĥÏī
ÏĥÎ¿ ÏĩÎ®
ĠÎµÏĢ Î¯Î´
ĠÏĥÏħÎ½Î® Î¸ÏīÏĤ
ĠÏĥÏħÎ½ Î±Î¹Ïĥ
Î¿Î½ ÏĦÎ±
ĠÎµÏĢ Î¯Ïĥ
ĠÏĢÎµÏģÎ¹Î»Î±Î¼Î² Î¬Î½ÎµÎ¹
ĠÎ§ ÏģÏħÏĥ
ÏĢÎµÎ¹ ÏĦÎ±
ĠÏĢÏħ ÏģÎ¿
ĠÏĥÎ·Î¼Îµ Î¯Î±
ÏĢ Î½
Î¹ ÏīÎ¼Î±
ĠÎ±ÏĢÎ¿ÏĨ Î¬Ïĥ
ĠÎ¼ÎµÎ»ÎŃ ÏĦÎ·
A tom
ĠÎ±ÏĥÏĨÎ±Î» Î¹Ïĥ
ĠÎµÎ½Î·Î¼ÎŃ ÏģÏīÏĥÎ·ÏĤ
ĠÎ±Î½Î± ÏĨÎŃÏģÎµÏĦÎ±Î¹
ĠÎ´ ÎŃÏģ
ĠÎ½Î± Ïħ
ĠÎ´ ÎµÏħ
ĠÎ¹Î´ Î±Î½
Ïĥ Î¼Î¿ÏįÏĤ
ĠÎ¬ÏĢÎ¿ ÏĪÎ·
ĠÎľ Î¬Ïģ
ĠÎºÎ±ÏĦÎ± Î»Î®
ĠÎłÎĳ ÎŁÎļ
Î» Î¹ÎºÎ®ÏĤ
Ġ Â
ÏĦÎ¿ Î¹Îº
ĠÏĢÎµ ÏģÎ±Ïĥ
Î³ ÎµÏģ
Îŀ Îµ
ĠÎľ Î±Î½
ÏĦÎµÏħ ÏĥÎ·
ĠÎºÎ±ÏĦÎ¬ Î»Î»Î·
ĠÏĢÎµÏģÎ¹Îµ ÏĩÏĮÎ¼ÎµÎ½Î¿
ĠÎ¼ Î±Î½
6 0
ÎļÎ¿Î¹Î½Î¿ ÏĢÎ¿Î¯Î·ÏĥÎ·
Î¼ Î¿ÏįÎ½
ÏĨÏīÎ½ Î¿
ĠÎłÏģÏĮ ÎµÎ´ÏģÎ¿ÏĤ
ĠÏĢÎ±ÏģÎ±Î³Ïī Î³Î®
ĠÏĩ ÏģÎ¹Ïĥ
ĠÏĦÏĮÎ½ Î¹ÏĥÎµ
ĠÎ² Î®Î¼Î±
Î³ ÎºÎ¿
ĠÎ²ÎµÎ» ÏĦÎ¹
ÏĪ Î¹
ĠÏĥÎ¯Î³Î¿Ïħ ÏģÎ±
ĠÏħ Î³Î¹
ĠÎ¦ Ïī
ÏĨÎµ ÏģÎ±Î½
ĠÏĥÏħÎ³ÎºÎµÎºÏģÎ¹ Î¼ÎŃÎ½Î±
ĠÎ´Î¹Î± Î³ÏīÎ½Î¹Ïĥ
n et
Î¿ÏĢ Î»Î¹Ïĥ
ĠÎµÏĦÎ±Î¹ ÏģÎµÎ¯Î±ÏĤ
ÏĦÎ¬ Î¸Î»Î·Î¼Î±
Ïģ ÏīÏĤ
ÏĢÎ¿ Î»Î·ÏĤ
ĠÎºÏħ ÏģÎ¹Î±
ĠÎºÎ»Î¯ Î¼Î±
ĠÎ¤Ïį ÏĢÎ¿Ïħ
ĠÎ³ ÎºÎ¿Î»
ÎĳÏħ ÏĦÎ®
ĠÎ±ÏĢÎ±ÏģÎ±Î¯ ÏĦÎ·
Î² ÎµÏģ
ÏģÏİ ÏĥÎµÎ¹ÏĤ
ĠÎ¼Î± Î»Î»
ĠÏĥ ÏĦÎ®
e k
ĠÏĩ ÏģÎµ
ĠÎ£ Î¿Ïħ
âĢ ľ
ĠÎŃ Î»Î»ÎµÎ¹
ÏĦÎ® ÏĥÎµÏīÎ½
ĠÎ¹ÏĥÏĦÏĮ ÏĦÎ¿
ar k
Î¯ Î¿ÏĤ
u d
Î¹ Î¶
Ïĥ ÏīÎ½
Î¾ ÎŃ
ĠÎļÏįÏĢ ÏģÎ¿
ĠÎ¿ÏĢÎ¿ Î¯ÏīÎ½
ĠÎ±ÏģÎ¹Î¸ Î¼ÏĮ
Ġ X
ĠÎļ ÎŃÎ½ÏĦÏģÎ¿
ĠÎ¼Î± ÎºÏģÎ¹Î¬
ĠÎ´Î·Î¼ÏĮ ÏĥÎ¹Î¿
Î» Î¹Î¿ÏĤ
ĠÎ»Î¿Î³Î±ÏģÎ¹Î± ÏĥÎ¼ÏĮ
ĠÏĥ ÏĢÎ¹
Îµ ÏĨÎ±Î»Î®ÏĤ
ĠÏĮÏĥ Î¿Î¹
ĠÎĪ ÏĩÎµÎ¹
ĠÎ± Î¯Ïĥ
Î¶Î¿ Î¼ÎŃÎ½ÏīÎ½
ĠÎ§ Î±Î»
Ġ19 7
) :
ĠÎĳÏħ ÏĦÎ¿
ĠÎ±ÏĢÎ¿ Î»Ïį
ĠÎľ Î¿Ïħ
Ïģ Î¿ÏħÎ½
ĠÎ¿ ÏģÎ¸
ĠÎ±Î½Î± Î³Îº
ÏĨ Î¯Î±
ÏĩÏĮ Î»Î¹Î±
ĠÎ® ÏģÎ¸Îµ
Îº ÏĦÎ¹ÎºÏĮ
ou r
ĠÏĢÎ¿Î´Î¿ ÏĥÏĨÎ±Î¹
Î»Î± Î¯Î¿Ïħ
E R
ÏģÏİÎ½ ÎµÎ¹
ÏģÎµ ÏĥÎ·
ĠÏĢÎ¿Î»Î¹ ÏĦÏİÎ½
ĠÎĳ ÎķÎļ
ÏĢ Î»Î¬
ĠÎ¾Îµ Îº
Î¼ÏĮ ÏģÏĨ
ĠÎ¹Î´ ÎŃÎ±
Î´ÎµÎ¹ Î¾Î·
ĠÎµÎ¯ÏĩÎ± Î¼Îµ
ĠÏĢÎ¿Î» Î»Î¿ÏįÏĤ
Î»Î® ÏĨ
ĠÎµÏģÎ³ Î¿
ÏĮ ÏĥÎ¿
ĠÎł Î»Î·
ĠÏĢÎ±ÏģÎ¿ÏħÏĥÎ¯Î± ÏĥÎ·
Î¼ ÏħÎ½Î±
ĠÎ¬Î¼Îµ ÏĥÎ·
ÏģÎ¯Î¶ Î¿Î½ÏĦÎ±Î¹
ÏĥÏĦÎ¹ Î²Î¬Î»
Î¯ÎºÎ· ÏĥÎ·ÏĤ
ÏĨ Î±Ïĥ
ĠÎ²Î±Î¸ Î¼ÏĮ
Î¼Î¿ Î½ÎµÏĤ
ĠÎĴ Î¿
ĠÏĥÏħ Î»Î»Î¿Î³
ĠÎķÎ»Î»Î·Î½ Î¹ÎºÎ®
Î¬ Î½Î¿Î½ÏĦÎ±Î¹
Î² ÎŃ
ÏĩÎµÎ¯ ÏīÎ½
Î¼ ÏĢÎ¿Ïħ
Î½ Î®ÏĤ
ĠÎ³Îµ Î¼Î¬
ĠÎµÏĢÎµÎ½ Î´Ïį
ÎĮ Î»Î±
Ïİ ÏĦÎ±
ĠÎ´Î±Î½ ÎµÎ¹
ĠÏĩÎ±ÏģÎ±Îº ÏĦÎ®ÏģÎ±
ĠÎ½Î¿Î¼Î¿ Î¸Îµ
ĠÎ¿ Î½ÏĮ
Î¼ÏĨ ÏīÎ½
ĠÏĦÎ±Î¾ Î¯Î´Î¹
ÏĦÎ¹ ÏİÎ½
ÏģÎ³ Î±
Îº ÏĦÎ±
ĠÏĢÏģÏİ ÏĦÎµÏĤ
Î±Î³Ïī Î³Î®
ĠÎ¤ÏĥÎ¯ÏĢ ÏģÎ±ÏĤ
ÏĨÏĮ ÏĥÎ¿Î½
â Ĩ
ĠÎĳÏĥ ÏĦÏħÎ½Î¿Î¼
ÏĢÎ¿Ïį Î»Î¿Ïħ
201 7
Ġ6 0
ĠÏĩ ÏģÏħÏĥ
ĠÏĥÏħÎ³ÎºÎµÎºÏģÎ¹ Î¼ÎŃÎ½Î·
ĠÎĳ Î³Î³
ĠÎº Î»Î¹
i an
ĠÏħÏĢÎ¿ÏĩÏģÎµ Ïī
ĠÎ¹Î± ÏĦÏģ
ĠÎ¿ÏĢÎ¿Î¹Î± Î´Î®ÏĢÎ¿ÏĦÎµ
Î¡ÎĻ Î£
ĠÎ¼ÎŃ ÏĥÎ¿
ĠÏĢÎµ Î»Î¬
Î¼Î² Î¿Ïħ
ĠÎ´Î¹Î¬ Î¸ÎµÏĥÎ·
ĠÏĢÎµÏģÎ¬ ÏĥÎµÎ¹
ĠÎºÎ±ÏĦÎ¿ Î¯Îº
ĠÎĶ ÎķÎĿ
ĠÎ¼ Ïī
ÎŃÎ½ ÏĦÏģÎ±
ĠÎ£ÏħÎ¼Î² Î¿ÏįÎ»Î¹Î¿
ĠÏĢÎ± Î»Î±Î¹
ĠÎ´ ÏģÎ¿
ĠÎĶ ÎµÎ¯ÏĦÎµ
Î» Î¹ÎºÎ¿Ïį
Ïİ Î½Î±ÏĤ
ĠÎµÎ½Î¹Ïĥ ÏĩÏį
ÏĦÎ± Î¯
ĠÏĥÎ·Î¼Î±Î½ ÏĦÎ¹ÎºÎ®
ĠÎºÏĮ Î¼Î¼Î±
Î³Î³ Ïį
ÏĢ ÏģÎ±
ĠÎŃÎ½Î± Ïģ
ĠÏĥÏį Î³Îº
ĠÏĪÏħ ÏĩÎ¿
ĠÎ¤ÏĥÎ¯ÏĢ ÏģÎ±
Î¼Î¹ Î¿Ïį
ĠÏĩÏī ÏģÎ¹ÏĮ
ĠÎŃÏģÎ³ Î¿Ïħ
ĠÎºÏħÎ²ÎµÏģ Î½Î·
ĠÎ±ÏĢÎ± Ïĥ
ÏģÎ¹Ïĥ ÏĦÎ¿
Î´ÎŃ Î»
ĠÎ²Î¹Î² Î»Î¯Î±
in ter
ÏĮÏĦÎµ ÏģÎ·
ÏģÎ¹Ïĥ ÎºÏĮ
ÏģÎ¹Î± ÎºÎ®ÏĤ
Î½Î® Î¸Î·ÎºÎµ
ĠÎ±Î½Î±ÏĢ ÏĦÏį
ĠÎ± ÏģÎŃÏĥÎµÎ¹
ÎºÎ± Î´Î·
ĠÏĢÎ¿ Ïģ
ĠÎºÎ¿Î¼ Î¼Î¬ÏĦÎ¹
Î¬ ÏĦÎµÏĤ
ĠÎ§ Î¬
ÏĥÎ¹ Î¼Î±
ĠÎ£ÏħÎ¼Î² Î¿ÏħÎ»Î¯Î¿Ïħ
ĠÎ±ÏĢÎ¿ÎºÎ»ÎµÎ¹ ÏĥÏĦÎ¹ÎºÎ¬
Î¯Î´ ÏīÎ½
Î¹Ïĥ ÏĦÎ®
ĠÎ±Î½ÏĦÎ¯ Î¸Îµ
at e
ĠÏĢ Î»Îµ
ĠÎµÎ¾Î±Ïĥ ÏĨÎ±Î»
ÎŁ Î¡
ĠÎ¤ ÏģÎ¬ÏĢÎµÎ¶
A R
Ġ' '
ĠÎµÏĨÎ·Î¼ÎµÏģÎ¯ Î´Î±
ĠÏĨÎ±Î³ Î·
ĠÏĢÏģÎ¬ Î¾Î·
ÏĦÎµ ÏģÏĮ
ÎĿ ÎŃÎ±
Î»Î¿Ïį Î¼Îµ
ĠÏĢÎ±ÏģÎ± Î¼ÎŃÎ½ÎµÎ¹
ÏĦÎ¯ Î¿
ĠÎ£Î± Î¼Î±
ĠÎ³Îµ Ïī
ĠÎ¬ ÏĨÎ·
ĠÎ¸ÎµÏģ Î¼Î¿ÎºÏģÎ±
ĠÏĦÎŃ ÏĦÎ¿Î¹
ĠÎľÎµ Î³Î¬
ĠÏĢ ÏĦÏİ
ĠÎłÎ±Î» Î±Î¹
ÏĦÎ¿Î¹ Î¼Î±
ĠÎ±Î¾ Î¯Î±
Î»ÎµÎ¯ ÏĦÎ±Î¹
ĠÎµÏĢÎ¹ Î´
Ġt he
ĠÎ¤ Î·
ĠÎķÎº ÏĢÎ±Î¯Î´
ÏģÎ¬ ÎºÎ¹
ĠÏĢÏģÏĮÏĥ Î²Î±ÏĥÎ·
ĠÎŃÏĢ Î±Î¹
Ïħ Î¼Î¿
ĠÎķÎº ÎµÎ¯
ĠÏĮ ÏģÎ¿ÏħÏĤ
ĠÏĢÎ»Î® ÏģÎ·
ĠÎŃÎ³Î¹ Î½Î±Î½
ĠÎ´Î¹Î± ÏĢÎ¹Ïĥ
ĠÎ³Î½Ïİ Î¼Î·
ĠÎ¸Î¬Î»Î± ÏĥÏĥÎ±
ĠÎµÎ»Î»Î·Î½ Î¹ÎºÎ¿Ïį
ĠÎ» Î¿Ïħ
ĠÎŀ Îµ
ÏĦ ÏģÎµÏĤ
ĠÎ´Î¹Î± Î¼Î¿ÏģÏĨ
om e
ĠÎŁ ÏģÎ³Î±Î½
i al
Î¼ Î¹ÎºÎ¿Ïį
ĠÎ±Î½Î±Ïģ ÏĦÎ®ÏĥÎµÎ¹ÏĤ
ĠÎ±ÏĢÏĮ Î³ÎµÏħÎ¼Î±
ĠÏħÏĢÎ¿ÏħÏģÎ³ ÎµÎ¯Î¿
ĠÎ¼Îµ ÏĦÎŃ
ĠÎ´Î¹Î¬ÏĨÎ¿ ÏģÎ±
i x
ĠÎµÎ¹ÎºÏĮ Î½ÎµÏĤ
ĠÏĢÎ¬ ÏģÎ±
ĠÏĨÎ¬ ÏĥÎ·
ĠÎ»ÎµÎ¹ÏĦÎ¿ÏħÏģÎ³ ÎµÎ¯
ÎŃ ÎµÏĤ
ĠÏĦÎ±ÏħÏĦÏĮ ÏĩÏģÎ¿Î½Î±
ĠÎ¿Î¹ÎºÎ¿ Î³ÎµÎ½
ĠÎ¸Ïħ Î¼Î¬
ĠÎºÎ¬ÏĢÎ¿ Î¹Î¿Î¹
ĠÏĢÎ±ÏģÎ¬ Î»Î»Î·Î»Î±
ĠÎ±ÏĢ Î¯
ĠÏĢÎ¬Î½ ÏĦÏīÏĤ
Ïĥ ÏĦÎ±ÏĤ
Ġ3 1
ĠÎ±Î´ ÏħÎ½Î±
ĠÎµÏĢÎ¹Îº ÎµÏĨÎ±Î»Î®ÏĤ
ĠÎĴÏģÎµ ÏĦÎ±Î½
ĠÎłÎ± ÏĢÎ±Î½
ĠÎķÏĢÎ¹ ÏĦÏģÎ¿ÏĢÎ®ÏĤ
ĠÎ±Ïį ÏģÎ¹Î¿
ĠÎ±Î³Î¿ÏģÎ¬ ÏĤ
ĠÏĪ Î®ÏĨ
ĠÏħÏĢÎ¿ Î´Î¿
it y
ÏĦÎ¿ Î¼Î¿
ĠÎ·Î¼ÎµÏģÎ¿ Î¼Î·Î½
Î¶ Î¬
ĠÎ¶ Îµ
ĠÎµÎ½ÏĦÏħÏĢÏī ÏĥÎ¹Î±
ÏģÎµ ÏĥÎµ
ĠÎ² Î±Ïģ
ĠÎķ Î¡
ĠÏĨÎŃÏģ ÎµÎ¹
ĠÎ¿ Î½Î¿Î¼Î±
ĠÎ»Î± Î¿Ïį
ÏģÎ¬ Îº
ÏĦÎ± Î³Î¼Î±
ÏģÎ¿ÏįÎ½ ÏĦÎ±Î¹
Î²Î¿Î» Î®ÏĤ
ĠÎłÎ±Î¹Î´ ÎµÎ¯Î±ÏĤ
ĠÎµÏħ ÏģÏī
Î± ÏĢÎ¿
a f
ĠÏĩ ÏĦÏħ
ĠÏĦÏģÎ¿ ÏĢÎ¿
ĠÎ¼Ïħ Î±Î»ÏĮ
ÏĢÎµ ÏģÎ¬
Î»Î¬ ÎºÎ¹
ĠÎµÎ½ ÏĦÎµ
or d
ÏĢÎ»Î· ÏģÏī
ĠÏĢÎ±Î¯Îº ÏĦÎµÏĤ
ĠÎ½Îµ Î±
ĠÎ´ Î¬
ÏĥÏĦÎ¿ ÏįÎ½
Î³ Î¿Î½ÏĦÎ±Î¹
Î¼ Î¹Îº
ÏĦÎ¯ Î¶ÎµÎ¹
ÎŃ Î±ÏĤ
ĠÎµÏĢÎ¯ ÏĢÎµÎ´Î±
Î´ÏĮ ÏĦÎ·ÏĥÎ·
ĠÎ¸Î¬ Î½Î±ÏĦÎ¿
Î¹Ïĥ Î¼Î¿ÏįÏĤ
ÏĢÎ¹ ÏĦÎ±
ÏĦÏħ ÏĩÎ·
ĠÎ¿ ÏĢ
ĠÎµ Î¿Ïģ
Î¹ ÎŃ
ĠÎµÎ½ Î¯ÏĥÏĩÏħ
Î¼ÎŃ ÏģÎ±
ĠÎµÎ¾ÏīÏĦÎµÏģ Î¹ÎºÏĮ
ĠÏĮ Î½ÎµÎ¹
Ïģ ÏģÎ¿
ĠÏĨÎ±Ïģ Î¼Î±
Î¬ Î¶ÎµÎ¹
Î¯ ÏīÏĥÎµ
ĠÏĦÎ·Î»Îµ ÏĮ
ĠÏĢÎ±ÏģÎŃ ÏĩÎµÎ¹
ĠÏĢÏģÎ¿ÏĢÎ¿ Î½Î·
ĠÎĪ Î½ÏīÏĥÎ·
ÏĦÎ¯Î¸Îµ ÏĦÎ±Î¹
Î¸ÎµÎ¹ Î±ÏĤ
ĠÎµÎ¯Î´ Î¿ÏħÏĤ
Î²Î± Î»Îµ
ÏĨÎ¯ Î»
ĠÏĥÏĩ Î¿
ĠÎ±Î½Î¬ÏĢÏĦÏħ Î¾Î·ÏĤ
ĠÎ¬Î½Î¸ÏģÏī ÏĢÎ¿
ĠÎ¿Î»Î¿ ÎºÎ»Î®
ĠÎķÎ¸Î½ Î¹ÎºÎ®ÏĤ
ĠÎĽ Î¯
Ġ k
ÏĪ Î¿ÏħÎ¼Îµ
Ïĩ Î±Ïĥ
ĠÎ±ÏĢÎµ ÏģÎ³
ĠÎµÎ¼ÏĨ Î¬Î½Î¹ÏĥÎ·
ÎºÎ¹ Î½Î·
Î³Î½Ïī ÏĥÎ·
ĠÎŃ Î¼ÏĢ
ĠÎµÎ¾ Î¿ÏĢÎ»Î¹Ïĥ
Î´Î¿ ÏĥÎ·ÏĤ
ÏĥÏĦÎµ ÏģÎ±
ĠÏĢÎµÏģ Î½Î¬
ĠÎ¤ Î¿Î½
ĠÎłÎ±Î³ ÎºÏĮÏĥÎ¼
ĠÎµÏģÎ³ Î±ÏĥÎ¯Î±
ĠÎ¿ Î´Î®
ĠÎķ Î³
Î» Î¼
ĠÎķÎ¸Î½ Î¹ÎºÎ®
Ġ ÏģÎ¹
ĠÏĢÎ¿Î»Î¹ ÏĦÎ¹ÎºÎŃÏĤ
ĠÎĮ Î»Î±
ĠÎ¾ Ïį
ĠÎµÎ¹Ïĥ Î¹
Î¸ ÏģÎ¿
ÏĦÎ® ÏģÎ·ÏĥÎ·
ĠÎµÏģÎ³Î± Î¶ÏĮ
ĠÎ± Î»Î»Î±
ĠÎķ ÏĦÎ±Î¹
ĠÎµÎºÏĢÎ±Î¯Î´ ÎµÏħÏĥÎ·
T his
ĠÏĢÏģÏīÎ¸ÏħÏĢÎ¿ÏħÏģÎ³ ÏĮÏĤ
in d
ĠÎºÎ± ÎºÏĮ
ĠÏħÏĢÎ¬Ïģ Î¾ÎµÎ¹
ĠÎ³ÏģÎ± Î¼Î¼
ĠÎµÏĢÎ¹Îº Î¯Î½
ĠÎ¿Î´Î· Î³Î®
Ïį Î¼Î±
Î´ Î¯ÎºÏĦÏħÎ¿
ĠÏĦÎ± ÏĩÏį
ĠÎ±ÏĢÎ¿ÏĨ Î¬ÏĥÎµÎ¹ÏĤ
Î»Î· ÏĢ
ĠÎ·Î»Î¹Îº Î¯Î±ÏĤ
ĠÏĨÎ¿ÏģÎ¿ Î»Î¿Î³
ĠÎ¼Î± ÏĦÏĤ
á¿ ¦
ĠÎ³ ÎµÎ¹
ÏĢ Î±Î¹
ĠÏħ Î»Î¹ÎºÏĮ
ĠÏĢÎ¿ Î¹Îº
ĠÏĢÎ±ÏģÎ±Î³Ïī Î³Î®ÏĤ
ĠÎĽ Î¿Ïħ
ĠÎ¡ Ïİ
ĠÎ»Î¯ Î³Î±
Î¼Î±ÏģÏĩ Î¿ÏĤ
Î»Îµ Ïģ
ĠÏĨ ÏģÎ¬
ĠÏĦÎ·Î»Îµ Î¿ÏĢ
ĠÎ²Î¹Î¿ Î¼Î·ÏĩÎ±Î½
ĠÎ£ Î·
ĠÎºÏį Îº
ĠÎĺÎµ ÏĮ
ĠÏħÏĢÎ®ÏģÏĩ Îµ
ĠÎłÎ±Î½ÎµÏĢÎ¹ÏĥÏĦÎ· Î¼Î¯Î¿Ïħ
ÏĪ Ïī
ĠÎ½Î· ÏĥÎ¯
ĠÎºÏħÏģÎ¹Î± ÏģÏĩ
Ïĥ ÎºÏĮ
ĠÎºÏģÎ¯ ÏĥÎ·ÏĤ
ĠÎŃ Î´ÎµÎ¹
ĠÎºÎ±ÏĦÎ± Î½Î¿
ÏĦÎ¿Î³ Î¬Î½
ĠÏĥÏħÎ³Îº ÎµÎ½ÏĦ
ÏģÏİ Î¼Î±ÏĦÎ±
ĠÏĩÏģÎ·ÏĥÎ¹Î¼Î¿ÏĢÎ¿Î¹ ÎµÎ¯
ÏĦÏģÎ¿ Ïį
Îº ÏģÎ¹Î½
ĠÎ¬Î½ Ïī
ĠÏĥÎ·Î¼Î±Î½ ÏĦÎ¹ÎºÎ¬
Î¼ Ïħ
ĠÎ¶ ÎµÏħ
ĠÎ´Î¹Î¿ Î¹ÎºÎ·
ĠÎµ ÏĩÎ¸
Î· Î¸Î¿ÏįÎ½
ĠÎ´Î· Î»ÏİÎ½
ĠÎĻÏĥ ÏģÎ±
ĠÎ¼Îµ ÏģÎ¹ÎºÎŃÏĤ
ĠÎ¡ Îµ
ĠÏĢÎµÏģÎ¹Î¿ ÏģÎ¹Ïĥ
ÎĶ Îµ
Î»Î· ÏĥÎ·ÏĤ
ĠÎ¿Î¹ÎºÎ¿Î½Î¿Î¼ Î¹ÎºÎ¬
ÏģÎµÎ¯ Î¿
ĠÎł ÏİÏĤ
ĠÎ±ÏĥÏĨÎ¬Î» ÎµÎ¹Î±
ĠÎ±Î½Î±ÎºÎ¿Î¯Î½ ÏīÏĥÎµ
Î¯Î½ Î¹
ÏĨÎ¬Î½ ÎµÎ¹Î±
Î»Ïī Î¼Î±
ĠÏĢ Î±Î½ÎµÏĢÎ¹Ïĥ
ĠÏĥÏħÎ½ Î´Îµ
ĠÏĢÏģÎ¿ ÏĦÎ¹
ÏĥÏĥ Î±ÏĤ
Ġ200 9
ĠÎ² ÏĮ
ĠÏĢÎµÏģÎ¹ Î¿Ïħ
ĠÏĢÎ¿ Î¹Î±
Î¸ÎµÎ¯ ÏĤ
ĠÏĥÎºÎŃ ÏĨ
Î¯ ÏĥÎµÎ¹ÏĤ
Î»Î»Î±Î³ Î®
ĠBlog This
ÏģÎ½ ÏĦÎ¿Î³Î¬Î½
ÏģÎ· ÏĥÎ¹Î¼Î¿ÏĢÎ¿Î¹
ĠÎ· Î¸Î¿
ĠÏĢ Î»ÎµÎ¹Î¿
ĠN ews
ĠÎ²ÏģÎŃ Î¸Î·ÎºÎµ
ĠÎĿ Îµ
Î® ÏĥÎ¿ÏħÎ¼Îµ
ĠÎĶ ÎĻÎĳ
ĠÎºÎ± Î¯
ĠÎº Î»Î±
ÏĥÏĦ ÏģÎµ
ĠÎº Î»Î¹Îº
ĠÏĥÎ·Î¼ÎµÏģÎ¹Î½ Î®
en s
ĠÎµÏĢÎ¹ ÏĢÎ»ÎŃÎ¿Î½
Î´ÎµÎ¹ÎºÎ½ Ïį
ĠÎŃ ÏĢÎµ
ĠÎµÎ¾ Î±Î¹
Î² Î¹Î±
ĠÏĢÏģÏīÏĦÎ¿ Î²Î¿ÏħÎ»
ÏĢÎ¿Î¯Î· ÏĥÎµ
ĠÎ£Ïħ Î½Îµ
Î»Îµ Î³Î³Ïį
ĠÎ±Î¾ Î¹ÏīÎ¼Î±
Î¯Î½ ÎµÎ¹ÏĤ
Î¾Ïī ÏĦÎµÏģ
ÏĦ ÏģÎŃÏĢÎµÎ¹
ÏĥÎº Î·ÏĥÎ·
ĠÏĦÏģÎ¬ÏĢÎµÎ¶ ÎµÏĤ
ĠÎ£ ÏĩÏĮÎ»Î¹Î±
Ġ ;
ĠÎł ÎŁÎ¥
ÎĿ ÎŁ
ĠÎ¼Îµ ÏĥÎ·
ĠÎ¿ ÏĢÏĮÏĦÎµ
ĠÎ¼Î¹ Î»Î®
ĠÏĢÏģÏĮÏĥÏī ÏĢÎ±
ĠÎ±ÏĢÏĮ ÏĪÎµÎ¹ÏĤ
ĠÎºÎ± ÎºÎ¿
Ïİ Î½Î¿Î½ÏĦÎ±Î¹
ÏĢÏģÎ¿Ïĥ Ïİ
ĠÎ¬ Î´ÎµÎ¹Î±
ĠÎĵÎ¹Î¬Î½ Î½Î·ÏĤ
ĠÎĿÎŃ Î±ÏĤ
ĠÎ´ÏħÏĥ ÎºÎ¿Î»
ĠÎ¸ ÏħÎ¼
ĠÎºÏĮ ÎºÎºÎ¹
Î»ÎŃ ÏĥÎµÎ¹
Î¯Î½ Î·ÏĥÎ·
ĠÎ±Î¹Ïĥ Î¸Î·
ĠÎ§ÏģÎ¹Ïĥ ÏĦÎ¿Ïį
ĠÎ¡Ïī ÏĥÎ¯Î±
Î´ ÎµÎ»
ĠÎµÎ»Î»Î·Î½ Î¹ÎºÎ¬
ĠÏĢÎ±ÏģÎ± ÎºÎ±
ÏĦÎ¿Ïį ÏĥÎµ
m g
Î¸ ÏİÎ½
ĠÏĥÏħ Î½Î·
r ess
ĠÎµÎ½Î·Î¼Îµ ÏģÏī
Î» Î±Î¹Î¿
ĠÎ½ ÏĦÎ¿
ÏģÏİ Î¸Î·ÎºÎµ
ĠÎ´ Î¹ÎºÎ¬
ĠÎĪ Î½ÏīÏĥÎ·ÏĤ
ĠÎµÏĦÎ±Î¹ ÏģÎµÎ¯ÎµÏĤ
ĠÎ¾ÎµÎº Î¹Î½Î¬
ĠÎĨ Î³
ĠÎ±Î¯ Î¸
ĠÎµÎº Î»Î¿Î³
ĠÎµ Î¼ÏĢÏĮ
ĠÎ´Îµ ÎºÎ¬
ÎºÏĮ Î¼Î±
ĠÏĥÏĦÎµ Î»ÎŃ
Î£ ÏĩÎµ
ĠÎºÎ¿ÏģÏħ ÏĨÎ±
Ïħ ÏĢÎ¿
ĠÎĳÎ½Î¬ ÏĢÏĦÏħ
Ïģ ÎµÎ¹Î±
Î¼Îµ ÏĦÎ¬
ĠÎ½ Î±Î¹
ĠÎ¾ÎµÏĩÏī ÏģÎ¹Ïĥ
Î½ ÏĮÏĤ
ĠÎļ Ïī
Î£ Î®Î¼ÎµÏģÎ±
ĠÎ¬Î½ Îµ
ĠLe ague
ĠÎ¼ÎµÎ³ Î±
ĠÎº ÏĦÎ¯
ĠÎ±ÏħÏĦÎ¿ ÎºÎ¹Î½Î®
ĠÎ¿ ÏĨÎµÎ¹
ĠÏĢÏģÎ¿ ÏĦÎ¬ÏĥÎµÎ¹ÏĤ
ĠÏĨÏī ÏĦÎ¹Î¬
ÎļÎ± ÏĦÎ±
ĠÎ¦ ÏħÏĥ
ĠÎĶ Î¹Î¬
ĠÏĢÎ± ÏĦÏģÎ¯
ĠÎ»Î± ÏĮ
ÏĦ Î¿ÏħÎ¼Îµ
ĠÎµÎ½ÎŃÏģÎ³ ÎµÎ¹Î±ÏĤ
ĠÎ´ÎµÎ¯ÏĩÎ½ Î¿ÏħÎ½
b er
ĠÎ±Î½Î¬ Î»Î¿Î³Î±
ÎĪ ÏĦÏĥÎ¹
ĠÎ£Ïį Î¼ÏĨÏīÎ½Î±
Î»Î¬ Ïĥ
on t
ĠÎ¼Î¬ ÏĩÎ·
ĠÎ¼ ÏĢÎ¿Ïħ
ĠÎ£ Îķ
inter est
ÎºÏģÎ¹ ÏĥÎ·
ĠÎºÏģÎ¬ ÏĦÎ¿ÏħÏĤ
ĠÎº ÏģÎŃ
Î¥ ÏĢÎ¬
ĠÏĢÎ¿Î» ÎŃ
% .
ĠÎµÏĢÎ¯Ïĥ ÎºÎµ
ĠÎļ ÎµÎ½ÏĦÏģ
ĠÎµÎ¾Îµ ÏĦÎ¬
ÏĨÏħ Î³Îµ
ĠÎµÎ¾ÎµÎ»Î¯ Î¾ÎµÎ¹ÏĤ
ĠÎ© ÏĥÏĦÏĮÏĥÎ¿
ĠÎµÏĢÎ¹ Î»Î¿Î³ÎŃÏĤ
Î¼Î¬ Î´Î±
Î» Î¬Î½
ĠÎ±Î»Î»Î¬ Î¾ÎµÎ¹
ÎºÎ· Î½Î¿
Î´Î¿ ÏĢÎ¿Î¹
ĠÎ³ÏģÎ¬ ÏĨ
ÏįÎ½ ÎµÎ¹
Îĺ Îµ
ĠÎºÎ¿Î¹Î½ÏīÎ½ Î¹ÎºÎ®
ĠÎº Î·
Î½ Î¯
ÏĢ ÎµÎ¹Î±
ĠÎļ Î¿Î¹
ĠP interest
ĠÏħÏĢÎ·ÏģÎµ ÏĥÎ¯Î±
Îķ ÏĢÎ¯ÏĥÎ·ÏĤ
ĠÏĢÎ»ÎµÎ¹Î¿ ÏĪÎ·ÏĨ
ĠÎł ÎŁÎĽ
ĠÏĥ ÏĦÎµÎ¯
ĠÎ¼ Î¿Î¹
ĠÏĪÎ· ÏĨÎ¿
Îķ ÎĻÎĳ
ĠÎºÎ± ÏĨÎŃ
ĠÎ±ÎºÎ¿Î»Î¿Ïħ Î¸Î®
ĠÏĥÏĩÎ¿ Î»ÎµÎ¯Î±
ĠÏĥÏĩÎµ ÏĦÎ¹ÎºÎ®
Î¬Î» ÏħÏĥÎ·
Î² Î¿ÏħÎ½
ĠÎŃÏĥ ÏĦÏī
Î¼Î² ÏģÎ¹Î¿
ĠÎ±Î½ÏĦÎ¹ Î´ÏģÎ¬
Ïĥ Î±ÏĤ
Î·Ïĥ ÏħÏĩ
ĠÎµÏĢÎ¹ Î¸Îµ
ĠÎ´Î¹Î± ÏĩÎµÎ¹
ĠÎµÎ½ Î¬Î½ÏĦÎ¹Î±
ĠÎ¼Î· ÏĦÎŃÏģÎ±
Ïģ Î¹ÎºÏİÎ½
Î·Î³ ÏĮ
ĠÎ³ÏģÎ±Î¼ Î¼Î®
ĠÎ¬ÏģÎ¸ ÏģÎ±
Î¹ÎºÏĮ ÏĦÎ·ÏĦÎ±
ĠÏĩÎ¬ ÏģÎ·
ÏģÎ¹ ÏĮÏĦÎ·ÏĦÎ±
ÏĦÎ¹ Î¿Ïį
ĠÎ±ÏģÎ¹Î¸ Î¼ÏĮÏĤ
ĠÎĹ Î½Ïī
ĠÏħÏĢÎµ ÏįÎ¸Ïħ
ĠÏĩÏİ ÏģÎ¿ÏħÏĤ
ĠÎ¼Îµ ÏĦÎ±Î½Î¬
Î¸Îµ ÏĦÎµ
ĠÎ±Î½Î¬Ïģ ÏĦÎ·ÏĥÎ·ÏĤ
g le
ĠÎºÏħ ÏģÎ¯Î±
ĠÎ¹ÏĥÏĩÏį ÎµÎ¹
ĠÎĿÎ¯Îº Î¿ÏĤ
ĠO n
Ġ #
ĠÎ±Î½Î± Î»Ïħ
ĠÎ» ÎµÏĤ
ĠÎ»Î¹Î³ ÏĮÏĦÎµÏģÎ¿
ÏĦÏģÎ± ÏĤ
ĠÎŃÎ½Î±Î½ ÏĦÎ¹
Îĳ Î¡
ĠÎ±ÏĢÎ¿ Ïĥ
ĠÎ»Î± ÏĮÏĤ
ĠÎ±ÏĢÎ¿ Î´ÎµÎ¯
ĠÎµÏĢÏĮ Î¼ÎµÎ½Î¿
ĠÎºÎ±Î¸ ÏĮÎ»Î¿Ïħ
Î´ ÏģÎ¹Î¿
Ġ3 5
Î³ Î¼Î±ÏĦÎ¿ÏĤ
ÏĩÎ± ÏģÎ·
Î´ÏģÎŃ Î¿Ïħ
ĠÏĥÏĩ Î·Î¼Î±
ÏĢ Ïİ
Î¿Î½ ÏĦÎµÏĤ
ĠÏĢÏĮ Î´Î¹Î±
ĠÎ¬ÏģÎ¸ ÏģÎ¿Ïħ
ĠÎĴÎ±Ïĥ Î¯
ĠÏĢÎ±ÏģÎ± Î¼Îµ
á½ ¸
Î® Î¸Î·ÎºÎ±Î½
ĠÏĢ ÎµÎ½
ĠÏĢÎ¿ Ïĥ
ĠÎ´ÏįÏĥÎºÎ¿ Î»Î¿
ĠÎŃ ÏĦÎ¿ÏħÏĤ
ĠÏĦÎµÎ»ÎµÏħÏĦÎ± Î¯ÎµÏĤ
ÏĦÎµÎ¯ ÏĦÎµ
ĠÏĪÏħ ÏĩÎ®
ĠÎ±Î´ ÎµÎ»
ÏĦ ÏĥÎµ
ec t
ĠÎ´ÎŃ ÎºÎ±
Î¸ Î¿ÏħÏĤ
ĠÏĦÎ¿Ïħ ÏģÎ¹Ïĥ
ĠÎĺÎµ Î¿Ïį
ĠT he
ĠÎ´Î¹Î± ÏĨÎ·
ĠÎ±Î³Î¿Ïģ ÎŃÏĤ
ĠÎ´Î¿Î»Î¿ ÏĨÎ¿Î½
ĠÎµÎ¯ ÏĥÎ¿
ĠÏį ÏĢÎ±Ïģ
ĠÎļ Î±Î½
Ïĩ Î¿Î½ÏĦÎ±Î¹
ĠÎłÏģÏī ÏĦÎ¿
ĠÎ±Î½ Î·ÏĥÏħÏĩ
ĠÎ¿ Î½Î¿Î¼Î¬
ĠÎĮ Î¼ÏīÏĤ
ĠÎºÎ¯Î½Î´Ïħ Î½Î¿
ĠÏĥÏħÎ³Îº ÎŃÎ½ÏĦ
Î´ ÏħÎ½Î±
ĠÏĢÎ¯ Î½Î±
ÏĦÎ¿ ÏĢÎ¿Î¯Î·ÏĥÎ·
ĠÏĨÏħÏĥ Î¹ÎºÏĮ
Ġ Î¯
ÏĨ Î¿Ïħ
Ġ8 0
ĠÎ¼ÏĮ Î½Î·
ĠÎºÎ±ÏĦÎ±Î½ Î¬Î»
ĠÎ´ Î±Ïĥ
Î¬Î» Î¹ÏĥÏĦÎ±
ĠÏĩÏģÏĮ Î½Î¿ÏĤ
ÏħÎ½ ÎµÏĤ
ÏĢÎ± ÏģÎ±
Ïī Î¼Î¬ÏĦÏīÎ½
ĠÎ¿Ïħ ÏĥÎ¯Î±
ĠÏĥÎºÎµ ÏĨ
ĠÏĢÏģÎ¿ÏĭÏĢÎ¿ Î»Î¿Î³
ĠÎµ Î¯Î´Î±
Îº Î¬Î»Ïħ
ÏĨ ÏĦÎ¬
ĠÎ² ÏģÎ¿
ĠÎµÎ²Î´Î¿Î¼Î¬ Î´ÎµÏĤ
ĠÎĵÏģÎ± Î¼Î¼Î±
Ġ Î¾Î·
ĠÎ±ÏĢÎ¿ Î´Îµ
ĠÎºÎ¿ ÏģÎ¯
ĠÎ»ÎŃ Î¾Î·
ĠÎ¼ Î±Ïĥ
ĠÏĢÎµÏģÎ¹Ïĥ ÏĦÎ±
ĠÎ´Î¹Î±ÏĢ ÏģÎ±Î³Î¼Î±
Îķ Îķ
ĠÏĢÎ¿ Î¹Î¿ÏĤ
Îº ÏģÏħ
ĠÎºÎ¬ÏĢÎ¿ Î¹Î¿Î½
ĠÎµÏģÎ³Î± Î¶Î¿Î¼ÎŃÎ½ÏīÎ½
ĠÏĦÎ· Î»ÎŃ
ĠÎ´Î¹Î¬ÏĨÎ¿ ÏģÎµÏĤ
ĠÎ² ÏģÎµÎ¹
ĠÏĨÎ¹Î»Î¿ Î¾ÎµÎ½
ĠÎŃ Î¾Î¹
ÏĪ Î®
ĠÎ± ÏģÎº
Î¬Î½ ÏĦÎµ
ĠÎ¼Î¹Îº ÏģÎ¬
ĠÎµÎ¾ Î¬
2 8
ĠÎ» Î¯ÏĥÏĦÎ±
ĠÎ¼ Î¬Ïģ
ĠÏĦ ÏģÎµ
ĠTwitter ÎľÎ¿Î¹ÏģÎ±ÏĥÏĦÎµÎ¯ÏĦÎµ
ĠÏĨÏħ Î»Î±
ĠÏĦÎ¬ Î¾Î·
Î½Î® ÏĥÎµÎ¹ÏĤ
ĠÏĢÏģÎ¿ ÏĨÎ¯Î»
ÏģÏĩ Î·
ic s
Ïİ ÏĥÎ¿ÏħÎ½
Î¯Ïĥ Ïī
ĠÎ²Î¬Ïģ Î¿ÏħÏĤ
ĠÎķ ÏĢÎ±
ĠÎ±ÏĢÎ¿ ÏĥÏĦÎ¿Î»Î®
ĠÎļÏįÏĢ ÏģÎ¿Ïħ
ĠÎºÎ±ÏĦÎ±Î½Î± Î»Ïī
ÏĥÎ¹ Î¼ÎµÏĤ
ĠÏĢÎµÏģÎ¹ÏĥÏĥÏĮÏĦÎµ ÏģÎ¿Î¹
a z
ĠÎŃÏģÎ¸ ÎµÎ¹
ĠÎ¼ÎŃ ÏģÎ·
ĠÎ³Î½Ïī Ïĥ
ĠÏĦÏģÎ±Î³Î¿Ïį Î´Î¹
ĠÎ² Î¬Î¶
ĠÎĳÏĦ ÏĦÎ¹ÎºÎ®ÏĤ
ĠÎµÎ½ Î½Î¿
ÏĢ ÏĦÎŃ
ÏĦÎ± Î¾Î·ÏĤ
ĠÎ´ÏħÎ½Î±ÏĦÏĮ Î½
ĠÏĢÏģÎ¿Î³ÏģÎ¬ Î¼Î¼Î±ÏĦÎ±
Î¹ ÎŃÏĤ
ĠÎķ ÏģÎ½ÏĦÎ¿Î³Î¬Î½
ĠÎĳ ÏģÎ¹ÏĥÏĦÎµ
ĠÎºÎ±ÏĦÎ± ÏĥÏĦÎ®
ĠÏĥÏĩÎŃ Î´Î¹Î±
ĠÎĻÏĥ ÏĢÎ±Î½
ĠÎī ÏĦÎ±Î½
ĠÏħÏĢÎ®Ïģ Î¾Îµ
v ideo
ĠÎ¿ Î¼Î±
ĠÏħÏĢÎ¿ ÏĪÎ®ÏĨ
Ïģ ÏįÏĦÎµ
ĠÏĢÏģÎ¿ ÏĨÎ±Î½
ĠÏĨÏī ÏĦÎ¿
ÏĢÎ· ÏģÎŃ
ĠÎĿÎ± Ïħ
oo gle
Î¿Ïħ Î±Î»
Î¸Î· ÎºÎ±
Î£ Î·
ĠÏĥÏħÎ½ÎµÎ´ ÏģÎ¯Î±
ĠÎ½ÎŃ Î±ÏĤ
ĠÎ± ÏĦ
ĠÎ±Î½ÏĦÎ¹Î¼ÎµÏĦÏİ ÏĢÎ¹ÏĥÎ·
Î»Î±Î¼Î² Î¬Î½ÎµÎ¹
Î¹ ÏĤ
ĠÏĢÏģÎ¿Ïĥ Ïİ
ĠÎ¼Îµ ÏĦ
Î¸Ïħ ÏģÎ¿
ĠÎ²Î³ Î¬Î»
ĠÎ¿Î´Î® Î³Î·
ÏĦÏĥÎ¿ ÏĦÎ¬
ĠÎ®Î¸Îµ Î»Î±
ĠÏĢÎ¿Î¹ ÏĮÏĦÎ·ÏĦÎ±
ĠÎłÎ±Î½ÎµÏĢÎ¹Ïĥ ÏĦÎ®Î¼Î¹Î¿
Î¼ÏĢÎ¿ Ïį
Ïĥ Î¯ÏīÎ½
4 5
ĠÎķ ÎĿ
Î³ÏģÎ± ÏĨÎ¿
ĠÎ² Î³Î±
ÏĦÎ± Î¼
ĠÎ¤Î¿ÏħÏģÎº Î¯Î±ÏĤ
ĠG re
ĠÎ³ÎµÎ³Î¿Î½ ÏĮÏĦÎ±
ĠÏĦÏĮ ÏĢÎ¿
ĠÎ³ÏģÎ¬ ÏĨÎµÎ¹
ĠÏĢÏģÎ¿ÏĥÏĦÎ± ÏĦÎµÏį
ĠÎ± ÏĦÏĮ
Ïĥ Î¹Î¿ÏĤ
ĠÏĥÏĦÎ¹Î³ Î¼ÎŃÏĤ
as s
ĠÎµÏĢÎ¿ ÏĩÎ®ÏĤ
Î¤ ÎĹÎ£
ÏĦÏħ ÏĢÎ±
ÏģÎ¬ ÎºÎ·
ÎĪ Î½Î±ÏĤ
ĠÎļ Î¿Ïģ
r an
Î» ÏĮÏĤ
- -
Î»Î»Î¹ ÏİÏĤ
ĠÎ²ÎµÎ» ÏĦÎ¯
ĠÎĶÎ¹Î¿ Î¹ÎºÎ·
ĠÎµÎ¾Î¿Ïħ ÏĥÎ¯Î±
Î¯ Î¿ÏħÏĤ
ÏĮÏģ ÎµÎ¹Î±
ĠÎľÎ±ÎºÎµÎ´Î¿Î½ Î¯Î±ÏĤ
ĠÏĩÎµÎ¹ ÏģÎ¿
ĠÎ¼ ÏĮÎ½Î¹
ÏĦÎ¹Îº Î·
ĠÏĢÎ±ÏģÎ±Î³Ïī Î³
Î³ÏģÎ±ÏĨ ÎŃÏĤ
ĠÎµ Î¼Î²
ĠÎµÏĢÎ¹ÏĥÎºÎŃÏĢ ÏĦÎµÏĤ
ĠÎµÏĢÎ¹ÎºÎ¿Î¹Î½ÏīÎ½ Î¯Î±ÏĤ
ĠÎ· Î¸
Î´ Î¯ÏīÎ½
ĠÎ¸ÎµÏī ÏģÎµÎ¯ÏĦÎ±Î¹
ĠÎĶ Ïį
ĠÎµÏĢÎµÎ½ Î´Ïħ
ĠÏĨ Î¬ÏģÎ¼Î±
ĠÎ±ÏĢÏİ Î»ÎµÎ¹Î±
ĠÎľ ÎľÎķ
ĠÎ½ÎŃ Î¿ÏħÏĤ
ÏģÎ¹ÏĥÏĥÏĮÏĦÎµ ÏģÎ±
ĠÎºÎµ ÏĨÎ±
ĠÎłÏģÎ¿ Ïĥ
l et
Î¸Îµ ÏĥÎ¹
ĠÏĨ Î±Ïĥ
Î¼Î± ÏĦÎ¹ÎºÎ®
ĠÎ¬Î» Î»Î¿ÏĤ
ĠÎ¼Î¿Î½Î± Î´Î¹ÎºÏĮ
ĠÎº Î¿Î»
ÏĮ Î¼Î±ÏĥÏĦÎµ
ĠÏĢÏģÎ¿ Îº
ĠÎµÏĢÎ¹ÏĩÎµÎ¯ ÏģÎ·ÏĥÎ·
ĠÎ´Î¿ÎºÎ¹ Î¼Î¬
Î¼ÎµÎ¹ Î½Îµ
ĠÏĢÏģÎ¿ÎºÎ± Î»ÎµÎ¯
ĠFacebook ÎļÎ¿Î¹Î½Î¿ÏĢÎ¿Î¯Î·ÏĥÎ·
ÎłÏģÎ¿ Ïĥ
ĠÏĢÏģÎ¿Î² Î»Î·Î¼Î±
ĠÎµÏĥ ÎµÎ¯ÏĤ
ĠÎ¹Î´Î¹Î¿ ÎºÏĦÎ®
ĠÏĢÎ± Î»Î¹Î¬
Î»Î± Ïį
ĠÎºÎ±ÏĦÎ± ÏĥÎºÎµÏħÎ®
ĠÎ¸ Î±Î½Î¬
ĠÎ±Ïĥ ÏĩÎ¿
Îº Î¿ÏħÎ½
ĠÎķ Î¾ÏīÏĦÎµÏģ
âĢ¦ .
ĠÎ£ ÏĦÎ¹ÏĤ
ĠÏĥÏħ Î³Î³
ĠÎķ ÎĻÎĿ
ÏģÎ¹Î± ÎºÏĮ
ĠÎŃÏĩ Î¿Î½ÏĦÎ±ÏĤ
ĠÏĩÏģÎŃ Î¿ÏħÏĤ
ĠÏĢÏģÎ¿ÏĥÎ± Ïģ
ĠÎł Î¹
ÏĨÎ¿ ÏģÎ¯Î±
ĠÎ± ÎŃÏģÎ±
ĠÏĢ Ïİ
ÏĩÏİ ÏģÎ·ÏĥÎ·
ĠÎ¼ÎŃ ÏĦÏģÏīÎ½
ÏģÎ· Î½
ĠÎ´Î¹Î¿ ÏģÎ³Î¬Î½
ĠÎ»ÎµÏĢÏĦÎ¿ Î¼ÎŃ
ĠÎĶ ÎĿÎ¤
ĠÎķÏħ ÏģÏī
ĠÏĩÏģÎŃ Î¿ÏĤ
ÎŃ Î»Î±
Î® Î³Î·
Î¿Ïį ÏĥÎ±Î½
ĠÎĴ Î¹Î²
ĠÎ´Î·Î¼ÏĮ ÏĥÎ¹
ĠÎ¼ Î¹Î»
ĠÏĨÎ¿ ÏģÎµÎ¯ÏĤ
Î» ÎµÎ¹ÏĤ
Î¸ Î±Ïģ
ĠÎ·Î»ÎµÎº ÏĦÏģ
ĠÎ²Î¿Î·Î¸Î® ÏĥÎµÎ¹
ĠÎ£ ÏĦÎŃ
ĠÎµÏģÎ³Î± Î¶ÏĮÎ¼Îµ
Îº Î»Î±
ĠÎķÏħÏģÏīÏĢÎ±ÏĬ ÎºÎ®
ic e
ĠÎ±Î³ Ïī
ĠA r
ĠÎµÎ³ ÎºÎ±
ĠÎĶÎ¹ ÎµÏħ
Î»ÎµÎ¯ Î¿Ïħ
ĠÏĥÏĩÏĮ Î»Î¹Î¿
Î¼Îµ ÏīÎ½
ĠÎ¿ Î¼Î¿ÏģÏĨ
ĠÎ¤ Î¬
ÎºÎµ Ïģ
ĠÎ´Î¹Îµ Î¾
Î¸ Î¿ÏħÎ½
ĠÏĢÎ±ÏģÎ¬ Î³Î¿Î½
ĠÏĢÏģÏİ ÏĦÎ¿ÏĤ
ĠÎķÎĻÎĿ ÎĳÎĻ
ĠÏħ Î»Î¹ÎºÎ¬
ĠÏĦÎµÎ» Î¹ÎºÏĮ
ĠÎ³ÎµÎ¹ ÏĦÎ¿Î½
ĠÏĥÏĢÎ¯ ÏĦÎ¹Î±
ĠÎ¸ÎµÏģÎ±ÏĢÎµ Î¯Î±
ĠÎ£ ÏĦÎµ
ÏĨÎŃÏģ ÎµÎ¹Î±
ĠÏĢÏģÎ±Î³Î¼Î±ÏĦÎ¿ÏĢÎ¿Î¹ Î®Î¸Î·ÎºÎµ
ĠÏĢÎ· Î³Î±
ĠÎº ÎµÎ½
ĠÏĥ ÎºÎ¬
Î£Ïħ Î½Îµ
ĠÎ±Î½Î¬Ïģ ÏĦÎ·ÏĥÎ·
Î¶ÏĮ ÏĦÎ±Î½
ĠÎ¾ÎµÎºÎ¹Î½Î® ÏĥÎµÎ¹
ÏĢÎ¿Ïħ Î¼Îµ
ĠÎ²Î¿Î· Î¸Î¬
ÏģÏįÎ¸ Î¼Î¹ÏĥÎ·
ĠÎºÎ± á½¶
8 0
ĠÏĥÏħÎ½Î¿ Î»Î¹ÎºÎ¬
Î¶Î®ÏĦÎ· ÏĥÎ·ÏĤ
Ġ ÏģÎ¿Ïį
ĠÎĳÎ½Î± ÏĦÎ¿
ĠÎ¬ÏģÏĩ Î¹ÏĥÎµ
Î¤ Î¿Î½
ĠÎľÎµ Ïĥ
Îº Î¿ÏħÏĤ
ĠÏĥÎµ Î¶ÏĮÎ½
ĠÎĸ Ïī
ÎłÎ¿Î» Î¹
ĠÎ· Î³ÎŃ
2 7
ÏĪ ÏĦÎµ
ÏģÎ¹ ÏĥÎ±
ĠÎµ ÏĨÏĮÏĥÎ¿Î½
ro s
ĠÎļÏģÎ® ÏĦÎ·ÏĤ
ÏģÎ¬ ÎºÎ·ÏĤ
ĠÎ¿Î¹ÎºÎ¿Î½Î¿Î¼ Î¹ÎºÎ®ÏĤ
ĠÎ¸ÎŃÎ» Î¿ÏħÎ¼Îµ
ĠÎµÎ¾Î±Î¹ÏģÎµ ÏĦÎ¹ÎºÎ¬
ĠÎļ ÎļÎķ
Î½ Î¹Î¬
ĠÏĢÎ¿ Î»Î»Î±
ĠÎķÎ»Î»Î·Î½ Î¹ÎºÎ®ÏĤ
ĠÎł Î±Î½Îµ
ĠÎ±Î½ ÏĦÎŃ
ÏĨÎ¿ ÏģÏİÎ½
ÎĺÎŃ Î¼Î±
Î³Î¿ ÏģÎµÏį
ÏĢÎ¿Ïį ÏĤ
Î¸Îµ Î»Î¿Î½
ĠÎ±Î½ÏĦÎ± ÏĢÎ¿
ĠÎľ Î¹Îº
ÏģÏĩ Î·ÏĤ
Î³Ïī Î³
ĠÎ±ÏĢ Î»ÏİÏĤ
ĠÏĥÏħÎ¼Î¼Îµ ÏĦÎµÎ¯
ĠÎµ ÏĦÎ¿Î¹Î¼Î¬
ĠÎ±Î½Î± ÏĨÎ¿ÏģÎ¬
ĠÏĥÏħÎ½ Î¬
Î¥ Î£
ĠÏĥÏħÎ½ÎŃÎ½ÏĦÎµÏħ Î¾Î·
ĠÎ½ÎŃ Î¿ÏĤ
Ġ r
ĠÎľ Î®
ĠÎ¬ Î³Î½Ïī
ĠÎ·Î¼ÎŃ ÏģÎ±ÏĤ
Ġ >
ĠÎ´ÏģÏĮ Î¼Î¿ÏħÏĤ
ĠÎ±Î»Î· Î¸
c t
ĠÎºÎ¿Î¹Î½ÏīÎ½ Î¯Î±ÏĤ
ĠÎ±ÏĢÏĮ ÏĥÏĦÎ±ÏĥÎ·
ĠÏĢÎ¿Î¹ Î·
ÏĦÎ¹Îº ÎŃ
ĠÏĥÏħÎ½ ÏĦÎ¬
ĠÏĩÏİ ÏģÎ¿Ïħ
ĠÏĨÏį ÏĥÎ·
Î² Î¿ÏĤ
ĠÎ´Î® Î»ÏīÏĥÎ·
ĠÏĪ Î®
ĠÏĢ Î½ÎµÏį
ÏĪ ÎµÏĦÎµ
2 6
ĠÎ¼ÎŃ Î½Î±
ĠÎ±Î½Î¸ÏģÏİ ÏĢÎ¿Ïħ
Î» Î»Î¿Î³Î®
Î½ ÎŃÏĤ
ĠÎ´ Î¯Î½Î¿ÏħÎ½
Î±Ïĥ ÎºÎ±
Î²Î¬Î¸ Î¼Î¹Î±
ĠÎºÎµÏĨÎ¬Î» Î¹
Ġ ..
ĠÎ·Î¸Î¿ ÏĢÎ¿Î¹
Î³ÏģÎ¬ ÏĨÎ·
ĠÎ´ÏħÎ½Î± ÏĦÎ®
ĠÎµÎºÎ´Î· Î»ÏİÏĥÎµÎ¹ÏĤ
ĠÎ¼ÏĮÎ½Î¿ ÏĤ
ĠÎºÎ¬ Î»Ïħ
as h
Îº Î¿Î½
ĠÎµÏĢ Î±Î½Î¬
ĠÎµÏħ ÏģÏįÏĦÎµ
Ġon line
ĠÏĥÏĢÎ¿Ïħ Î´
ÏĦÎ® ÏĥÎ¿ÏħÎ¼Îµ
2 9
ÏĦ ÎµÎ¹Î±
ÏĢÎµÎ¹ Î´Î®
ĠÎ±ÏĢÎ¿ Î´ÎŃ
ĠÎ± Î´Î¹Î±
ĠÎ´Îµ ÏĥÎ¼Îµ
ĠÎ½ÏĮ Î¼Î¹
ÏĦÎ¯ Î¶ÎµÏĦÎ±Î¹
ĠÏĦÎµÏģÎ¬ ÏĥÏĦÎ¹
ĠÎ²ÏģÎ± Î²
Ïĩ Î¸Î¿ÏįÎ½
ĠÏĥ ÎºÎ±
ĠÎ¼ÏĮ Î½Î¿Î½
ĠÏĥÎº Ïį
Ïģ ÎºÎ±
ĠÏĢÏģÏī ÏĦÏĮ
Ïĥ Î®ÏĤ
Î²Î¬ Î»Î»ÎµÎ¹
ĠÎ´Î¹Î±ÎºÎ¿ ÏĢÎŃÏĤ
ÏĦÎ¬ Î¼Îµ
Ïģ Î¹ÎºÎ¿Ïį
ĠÎ´Î¹Î± Î¼Î±Ïģ
ĠÎ³ ÎŃÎ½
Ïī ÏģÎ¯
T o
ĠÎ±Î½Î® ÎºÎµÎ¹
ĠÎ±Î´ Ïį
ĠÎ´Î¹ Î±Î¹
ÏģÎµÏħ ÏĥÎ·
ĠÎ¼Îµ ÏģÎ¹ÎºÎ¬
ĠÎµ ÏģÎ¼Î·
ĠÎ´Î¹Î± ÏĦÏģÎ¿ÏĨÎ®
ĠÎ¡ Î¿
Ġs ite
ĠÏĢÎ±ÏģÎ± Î²
ĠÏĦÎŃÏĥÏĥÎµ ÏģÎ¹ÏĤ
e p
ĠÎµÎ½ÏĦÎµ Î»ÏİÏĤ
Î¸ÎŃ ÏĦÎ·ÏĥÎ·
ĠÎºÎ¿ Ïĥ
Ïĩ ÏĦÎ·ÎºÎµ
Îľ ÏĮ
ĠÎ´Î¹Î± ÏĦÎ±
Î´ÏģÏĮ Î¼Î¹Î¿
ÏĬ ÎºÎ®
ĠÏĪ ÎµÏħ
Î»Î» ÎµÏĤ
ĠÎ¡ Î±
ĠÏĥÏī ÏĥÏĦÎ¬
ÏĦÎ¹ Î½Î®
ĠÎ´ ÎµÎ»
ĠÏĢÎ± Î¯Î¶ÎµÎ¹
ĠÎºÎ±ÏĦÎ¬ ÏĨÎµÏģÎµ
ĠÎ¥ÏĢÎ¿ÏħÏģÎ³ ÎµÎ¯Î¿
ĠÎµ ÏĩÎµÎ¹
ĠÎ£ Î±Î½
ĠÎŁ ÎĽ
Î»Î¿Ïį ÏĥÎµ
ÏĮÎ¼Îµ Î½Î±
ĠÏħ ÏĨ
ÏĦÎ¯ Î½Î±
ĠÎ½Îµ ÏģÎ¿Ïį
ĠÏĩÏİ ÏģÎ¿ÏĤ
ĠÎµÎº Î´Î¿
Ġ ÏįÏĢ
Î»ÎµÎº ÏĦÏģÎ¿Î½
ĠÎºÎ¿Î¹Î½ÏīÎ½ Î¹ÎºÎ®ÏĤ
ĠÎ»Î¿Î³ Î¿
ĠÏĥÎµ Î²Î±Ïĥ
ĠÎ¿Î¹ÎºÎ¿Î½Î¿Î¼ Î¯Î±ÏĤ
ĠÎķ Ïį
ÎµÎ¯ Î´Î·
ĠÎ²Î¹Î² Î»Î¹Î¿
ĠÏĢ ÏĮÏĦÎµ
ĠÏĨÎ¿ ÏģÎŃ
ĠÏĦÎµÎ» ÎµÎ¯
Î´ ÏįÎ½
ĠÏĦÎµÏģÎ¬ ÏĥÏĦÎ¹Î±
Ġ ÏģÎµÏį
ĠÎ² Î¹
up er
ÎŃÎ½ÏĦ ÏģÎ¿Ïħ
Ïħ Î¼Î¬
ĠÎ´Î· Î»Ïİ
Î² ÏģÎ±
ĠÎºÎ± ÏĦÏĮ
ĠÏħÏĢÎ¿ÏĥÏĦÎ®ÏģÎ¹ Î¾Î·
ĠÎł Îķ
Î¼Î¿Ïĥ ÏĢÎ¿Î½
Ïī ÏģÎ·
ĠÎ£Ïį Î»Î»Î¿Î³
ĠÎ±Î½Î± ÏĦÎ¿
ĠÎ± Îµ
Î¾ Î¯
Î´ ÏīÏĥÎµ
ÎĻÎļ ÎŁ
ĠÎ± ÏĦÎ¿
s p
ĠÎ¹Î´ ÎµÎ¿
Î¤ ÎŃÎ»Î¿ÏĤ
ĠÎĺÎµ ÏĮÏĤ
ĠÎ¿ÏħÏĥÎ¹Î± ÏĥÏĦÎ¹ÎºÎ¬
ĠÎ»ÎŃ Î¾ÎµÎ¹ÏĤ
ĠÎĵÎ±Î»Î» Î¯Î±
ĠÎł ÏģÏİ
ĠÏĢÏģÏī ÏĦÎ¬Î¸Î»Î·Î¼Î±
er v
Î¤ Î¿Ïħ
Î²ÎŃÏģÎ½Î· ÏĥÎ·
ÏĢÎ¹ÏĦÎ± Î»Î¹Ïĥ
ĠÏĢÎ¿Î»Î¹ ÏĦÎ¹ÎºÏİÎ½
ĠÎĳ Î¥
ĠÏĢ Î¿Î½
ĠÎłÎ±ÏĢÎ±Î½ Î´ÏģÎŃÎ¿Ïħ
ĠÎµÏĢÎµÎ¹ ÏĥÏĮ
ĠÎ±ÏĥÏĨÎ± Î»ÎµÎ¯Î±ÏĤ
Ïĥ ÏĦÎ¹ÎºÎ®ÏĤ
ĠÎĳÎ¼ÎµÏģ Î¹ÎºÎ±Î½
ĠÎĴ Î±Î»
ĠÏĢÏģÎ±Î³Î¼Î±ÏĦÎ¿ÏĢÎ¿Î¹ Î·Î¸ÎµÎ¯
ÏĢ Î¯Î±
ÏĮ ÏĢÏīÏĤ
ĠÏħ Î¹Î¿
ĠÏĢÏģÎ¿Îµ ÏĦÎ¿Î¹Î¼Î±
Î±Î¹Ïĥ Î¸Î·
ĠÎ£ ÎµÏģ
ĠÎĶÎķ ÎĹ
ĠÏĢÎ±Î¯Ïģ Î½ÎµÎ¹
ĠÏĥ ÎºÎ·Î½Î¿
Î½ ÏĦÎ¿
ĠÎ¼Îµ ÏĦÎ¿
ĠÎ» Ïħ
ĠÏĦÏģÎ¿ Î¼Î¿ÎºÏģÎ±
ĠÏĢ ÏĮÎ½
ÏĦÎ· ÏģÎ¯ÏīÎ½
ĠÎµÏĢÎ¹Î²Îµ Î²Î±Î¹
ĠÏįÏĪ Î¿ÏĤ
Î¸ÎŃ Î±
ĠÎµÎ¯Î´ Î¿ÏĤ
ĠÎŃÎ½Î±Ïģ Î¾Î·
ĠÎ±Î½Îµ ÏģÎ³
ĠÏĥÏĦÎµÎ»ÎŃ ÏĩÎ·
ĠÏĩÎ¿ ÏģÎ·
ĠÎ¬Î½Î´ ÏģÎµÏĤ
Î¼ Î¼Îµ
ĠÎµÎ¯Î´ Î·
ÏĩÏİ ÏģÎ·ÏĥÎµ
Îķ ÏĢÎ¹Ïĥ
ou t
ĠÎļÎ± Î»Î±
ÏĨÎŃÏģ Î¸Î·ÎºÎµ
ĠÏĥÏį Î¶
ĠÏĩ ÏģÎ¿
Î½ Î¿ÏħÎ¼Îµ
ĠÏĥÏĦÏĮ ÏĩÎ¿ÏĤ
Î¡ ÎĻÎĳ
ĠÎļÏħ ÏĢ
I S
Î¼Î· Î½Î¿
ĠÎ´Î¹Î±ÏĩÎµÎ¯ ÏģÎ¹ÏĥÎ·
I N
ĠÎ»ÎŃ Ïī
ÏĦÎŃ ÏģÏīÎ½
ĠÎµÎ¾ Î±Ïģ
ĠÎ½ÏĮ Î¼Î¿Ïħ
ĠÎĳ ÏħÏĥ
ĠÏĢÎŃÏģÎ± ÏĥÎµ
O S
ĠÎµÏĢÎ¹Ïĥ ÏĦÏģÎ¿ÏĨÎ®
Î¬Î½ Î·ÏĤ
% ,
Î¼ÎŃ ÏģÎ¹
ĠÎµÏĢÎ¹ÏĩÎµÎ¹ ÏģÎ®ÏĥÎµÏīÎ½
ĠÎºÎ± Î»Î»
ĠÎ£ Ïī
en d
3 6
ĠÎ¼Îµ Î»ÏİÎ½
ĠÎµÎ½ÎµÏģÎ³ Î¿
ÏĦÏįÏĢ ÏīÏĥÎ·
i z
ĠÎ± Î¼
Î¯Î½ Îµ
ĠÎ±Î½Î±ÎºÎ¿Î¹ Î½Ïİ
ĠÏĢÏģÎ¿ ÏĥÎ¿ÏĩÎ®
Î¶ÏĮ Î¼Î±ÏĥÏĦÎµ
ĠÎ¼ ÏĢÎ®
ĠÎºÎ±ÏĦÎ·Î³Î¿ ÏģÎ¯ÎµÏĤ
Î¸Î· ÏĥÎ·ÏĤ
ÏĢ Î®ÏĤ
ĠÎŁ ÏģÎ¸
ÏĢ ÎµÎ½
ĠÎ³Î½Ïİ ÏĥÎ·
ĠÎº Î»Î®
ĠÎ±Î¯ Î¼Î±
Î¸ Î¹Î±
ÏĦÎ¬ Î¾ÎµÎ¹
ĠÏĢ Î·Î³Î®
ĠÏĢÏģÎ¬ ÏĥÎ¹
ĠÏĥ ÏĦÎ¯
ĠÎ¿ÏĢÎ¿ Î¹Î¿
o x
ĠÎºÎ±ÏĦÎ± Î»Î¬Î²
ĠÎ¬ ÏĥÎºÎ·ÏĥÎ·
Ïī ÏĥÎ±Î½
ĠÏĩÏģÎ¹Ïĥ ÏĦÎ¹Î±
ĠÎ¶Î· ÏĦÎ®Î¼Î±ÏĦÎ±
ĠÎĵÎ¹Î¬Î½ Î½Î·
ĠÎķÏĢ Î¹ÎºÎ¿Î¹Î½ÏīÎ½
ÎłÎµ ÏģÎ¹
ĠÎĳ Îĵ
ĠÏĢÏĮÎ»Îµ Î¼Î¿
Î³ Î¹Ïĥ
ĠÎµÎ¯ ÏĢÎ±
ĠÎ² ÏģÎ¹ÏĥÎºÏĮ
ĠÏĥ Î¿Ïį
. Â»
ĠÎ¼Îµ Î¯Î½ÎµÎ¹
Î±Î¹ ÏĮÏĦÎ·ÏĦÎ±
Ġ www
ĠÎºÎ±Î»Î¿ ÎºÎ±Î¹
ÏĦÎ¿ÏįÎ½ ÏĦÎ±Î¹
ĠÏĩÏģÎ® ÏĥÏĦÎ·
ĠÎķ Î¹Ïĥ
ĠÎķÏħÏģÏīÏĢÎ±ÏĬ ÎºÎ®ÏĤ
ĠÏĦÎ·Î»ÎµÏĮ ÏģÎ±ÏĥÎ·
Î±Î¹ Î±
ĠÎ´Î¹ÎµÏħ Î¸ÏħÎ½
ĠÎĶÎ·Î¼Î®ÏĦ ÏģÎ·ÏĤ
O R
Ïĩ ÏģÎ·
ĠÏĨÎ¯ Î»Î¿Î¹
ĠÎº Î®
ĠÎŃ ÏģÏĩÎ¿Î½ÏĦÎ±Î¹
ÏĨÎŃÏģÎ¿Î½ ÏĦÎ±Î¹
Î³ ÎºÎµÎºÏģÎ¹
Îĳ ÏĤ
ĠÎµÎ½ ÏĦÎ±
Ġ x
ÎºÏĮ Î¼Î·
ÏģÎµ ÏħÎ½
ÏĨ ÏģÎ±ÏĥÎ·
Îĳ Îł
ĠÏĢÎ±ÏģÎ¿ÏħÏĥÎ¹Î¬ Î¶ÎµÎ¹
ĠÎºÎ± ÏĦÎµÏį
3 5
ÏĦÎ± Ïģ
ÏģÎµÎ¹ ÎµÏĤ
Î¼ Î¹ÎºÎ®ÏĤ
ĠÎ¿ÏģÎ³Î¬Î½ ÏīÏĥÎ·
Î³Î³ÎµÎ» Î¼Î±
Î³Îµ Î¸Î¿ÏĤ
ĠÏĥÏħÎ½ÎµÏĩ ÏİÏĤ
ĠÎºÎ¿ Î¼Î¼Î±
Î¬Î» Î¹Î±
201 6
ar e
Ïİ Î¼Î±ÏĦÎ¿ÏĤ
ĠÎľÎ· ÏĦÏĥÎ¿ÏĦÎ¬
ĠÎ³Î½Ïī ÏĥÏĦÎ®
ĠÎķ Î¬Î½
ĠÎľ ÏĢÎ¬
Î¾Î±Î½ Î´
ÏĮ Î»Î±
Î® ÏĥÎµÏīÎ½
ĠÎ³ÏģÎ± Î¼Î¼Î±
Î»Î¿Î³ Î¯ÎµÏĤ
ĠÎºÎ¿Î¹ Î½Î®
ĠÎº Î¿Ïį
Î²Î±Î» Î»Î¿Î½
Î¤ ÎĳÎ£
ĠÏĢÎ¬Î½ Îµ
ĠÎļÏģÎ® ÏĦÎ·
ĠÎĻÏĦÎ± Î»Î¯Î±
ĠÏĢÎ·Î³ ÎŃÏĤ
Îļ Î±Î»
ÏĩÎ¿ Î¼Î±Î¹
Î¯Î½ ÏīÎ½
ĠÎ¤ ÏĥÎ±
an n
ĠÎ¶ÎµÏħ Î³Î¬
ĠÎ´Î¹Î± ÏĦÎ¬Î¾ÎµÎ¹ÏĤ
ĠÎµÎ¹Ïĥ Î¿
ÏĢÎŃ ÏģÎ±
ÏĦÎ¿ÏĢÎ¿Î¹ Î·
ĠÎŃ ÏģÏī
Î¸Îµ Î¯Î±ÏĤ
Îļ Ïħ
Îĳ Î»Î»Î¬
ĠÎ¾ÎŃÏģ ÎµÎ¹
ĠÎµÎ¸Î½ Î¹ÎºÎ®
ÏģÎ¸ ÏģÎ¿
ĠÎ¿ÏĢÎ¿Î¯ Î¿ÏħÏĤ
Îº ÏĦÎ·ÏĥÎ·
ĠÎ»Îµ Ïī
ÎºÏĮ Ïĥ
ÏģÎµ Î¼Î±
ĠÎ±Î½ÏĦ Î¯Î´
Ġ +
ed ia
ĠÏĢÎ±ÏģÎ¬ ÏĥÏĦÎ±ÏĥÎ·
ÏĨÎŃÏģ Î¿ÏħÎ¼Îµ
Î¼Îµ ÏģÎ±
ÏģÎ± ÏĥÎ¹
ĠÎºÎ± Î¼Î¹Î¬
ĠÎľÎ±ÎºÎµÎ´Î¿Î½ Î¯Î±
ĠÎµÎºÏĢÎ±Î¯Î´ ÎµÏħÏĥÎ·ÏĤ
ĠÎº ÎµÎ¹
ÏĢÎ¿ Î¹Î¿ÏĤ
ÏĦÎŃ Î»Î¿ÏħÏĤ
Î»ÎµÏħ Î¸ÎŃ
ÏĨÎµ Î¯Î±
ĠÏĦÏģÎ±Î³Î¿Ïį Î´Î¹Î±
ĠÏĥÏįÎ½ ÏĦÎ¿Î¼Î±
ÏĦÎµÏħ ÏĥÎ·ÏĤ
ĠÎĽ Î¿Î½
ĠÏĦÎ¿ÏĢÎ¿Î¸Îµ ÏĥÎ¯Î±
ĠÏĥ ÏĨ
Î¼Î¼ Î¿ÏħÎ½
Ġ7 0
ĠÏĢÎ»Î±Î¯Ïĥ Î¹Î±
Î¿Ïģ ÏģÎ¿
Î²Î± Î¸
ĠÎºÎ¿ÏģÏħ ÏĨÎ®
ĠÎ³ÏģÎ±ÏĨ ÎµÎ¯Î¿
Î¼ Î¯ÎµÏĤ
á½ Ĳ
ĠÎºÎ± ÏĦÎµÏħ
ĠÎ´Î¹Î±ÏĨÎ¿ÏģÎµ ÏĦÎ¹ÎºÎ¬
ÎŁÎ¥ ÎľÎķ
ĠÏĢÏģÎ¿Ïĥ ÏĨÎ¿ÏģÎ¬
ÎĹ ÎľÎĳ
Ġ5 00
ÏĥÏĦ ÏİÏĤ
ĠÎĳ Î¡
ĠÎµÏĢÎ± ÏĨÎ®
Ġ200 8
ĠÎĶÎ® Î¼Î¿
ĠÎ¼ÎŃ ÏģÎ¿ÏħÏĤ
Î¤ Î·
Î² Î¹Î¿
ĠÏĦ Ïī
0 1
Ġ and
Î»Î¿Î³ Î¹ÎºÎŃÏĤ
ĠÎ´Î¹ÎµÎ¸ Î½Î®
Î³ÏģÎ¬ÏĨ ÎµÎ¹
Î² Î¿ÏħÎ»ÎµÏħ
ĠÎ¤ÏģÎ± Î¼ÏĢ
ĠÏĢÎ±Î¯ ÏģÎ½
Î¼Î¹Î¿Ïį ÏģÎ³
ĠÏĩÏģÎ¿Î½ Î¹ÎºÏĮ
ÏģÎ¿Ïħ ÏģÎ³
ĠÎ¼ Î¯Î»Î·
ĠÎ»Î¿Î³ Î¹ÎºÎ®
Î½Î± Î»
ĠÎĹ ÏģÎ±Îº
ĠÎºÎ±ÏĦÎ± Î¸ÎŃ
Îł ÎŁÎ¥
ĠÎ£Ïħ Î»Î»ÏĮÎ³Î¿Ïħ
ĠÏĢÏģÎ¿ÏĥÏīÏĢ Î¹ÎºÎ®
ĠÎ¿Î´Î·Î³ ÎµÎ¯
ĠÎ¤ ÏİÏģÎ±
ĠÎ¹Î´ ÎŃÎµÏĤ
ĠÏĥÏħÎ½Î´ÏħÎ±Ïĥ Î¼ÏĮ
ĠÎ»ÎŃ Î¼Îµ
Î¹ ÏĦÎµ
ĠÎµÏĥÏīÏĦÎµÏģ Î¹ÎºÏĮ
ĠÎ¼ ÏĢÎ¬Î½
ĠÎĴ ÏĮ
ĠÏĩ Î·
ĠÏĨÏĦÎ¬ ÏĥÎµÎ¹
ĠÏĥÏħÎ¼ÏĢÎµÏģÎ¹ ÏĨÎ¿ÏģÎ¬
ĠÏĮ ÏģÎ¹Î±
ĠÎºÎ±ÏĦÎ± Î»Î±Î²Î±
ĠÎĳÎ» Î²Î±Î½
ĠÏĢÎ¿Î¹ ÏĮÏĦÎ·ÏĦÎ±ÏĤ
ÏĦÎ· ÏĥÎ±Î½
ĠÎºÎ¿Î¹Î½ÏīÎ½ Î¹ÎºÏİÎ½
ĠÏĥÏħÎ½ÎµÏĩ Î¯Î¶ÎµÎ¹
ĠÏĢÎ»Î® ÏģÏīÏĤ
ĠÎ±ÎºÎ¿Î»Î¿Ïħ Î¸ÎµÎ¯
r y
ĠÎŃÎ´ ÏģÎ±
Î³ Î¿ÏħÎ¼Îµ
Î¹Î» Î¯Î±
ĠÎºÎ±Î¹Î½Î¿Ïį ÏģÎ³
ĠÎ±Î½ Î¬Î»ÏħÏĥÎ·
ÏĦÎŃ Î»Îµ
ĠÎ´ÏģÎ±ÏĥÏĦÎ·ÏģÎ¹ÏĮ ÏĦÎ·ÏĦÎµÏĤ
ÏĦÎ¯ Î¼Î·ÏĥÎ·
ĠÎł Î»Î±
ĠÎ¿ÏģÎ³Î±Î½ Ïī
Ïģ Î¯Î½
Î±Î¹ ÏĦÎŃÏģÏī
ĠÎļ Î¿Î¹Î½Î¿
ĠÎŃÎ½ Î½Î¿Î¹Î±
ĠÎĴ Î±Ïģ
or n
ĠÏĥÏħ ÏĥÏĦÎ±
ĠÎ¼ÎµÏĥÎ· Î¼ÎŃÏģÎ¹
Î³Îµ ÏĦÎµ
Î¾Î¹ Î¿Ïį
ĠÎµÎ¾Ïħ ÏĢÎ·ÏģÎµ
Ïĥ ÏĦÎ¹ÎºÎŃÏĤ
ĠÏĥÏħÎ½ÎµÎ¹ Î´Î·
Îķ Î¹Î´
ĠÎľÎ· ÏĦÏģÎ¿
ĠÏĢÎ»Î±Î½ Î®ÏĦÎ·
ÏģÎ¿Ïį ÏĥÎµ
ĠS p
Î¥ ÏĢÎ¿
ĠÏĢÏģÏĮÏĥÏĨÎ± ÏĦÎ±
ĠÏĢÎ±ÏģÎ¬ Î´Î¿ÏĥÎ·
ĠÎ¼Î¿Î½Î± Î´Î¹ÎºÎ®
Î³ÎºÎµÎºÏģÎ¹ Î¼ÎŃÎ½Î±
ĠÎłÏģÏĮ ÎºÎµÎ¹ÏĦÎ±Î¹
ĠÎĸ Î±
Îķ Î´Ïİ
oo d
ĠÎ¿Î¹ÎºÎ¿Î³ÎµÎ½ ÎµÎ¹Î±
Î¤ ÎĳÎĻ
ĠÏĥÎºÎŃ ÏĪÎ·
ÏĦÎ¯ ÏĥÎµÎ¹
ĠÎ½Î¿Î¼ Î¯Î¶Ïī
ĠÎ¼Î½Î· Î¼ÏĮ
s h
ĠÏĥÏĦÎ¿Î¹ ÏĩÎµÎ¯ÏīÎ½
ĠÏĢÏģÎ¿ Î¿ÏĢ
ĠÎ¶ÏīÎ½ ÏĦÎ±Î½
ĠÎ±ÏģÏĩ Î¹ÎºÎ¬
Îº ÏĦÎ·ÏĤ
ÏĦÎ¯ Î¶Î¿ÏħÎ½
ĠÎ§ Î±Î½
Ġ Z
Î¯ ÎºÎ¿
o g
19 9
ĠÏĥÎµÎ¾ Î¿ÏħÎ±Î»
f f
ĠÎµÏĢÎ¹Îº ÏģÎ±
ĠÎ± Î»Î»Î¹ÏİÏĤ
ĠÎº Ïģ
ÏĩÎ½ ÎµÎ¹
a in
Î¡ ÎĳÎ£
Î´Î¹Îº Î±
Î¼ Î¹ÎºÏİÎ½
ĠÎºÎ¹Î½ Î´ÏįÎ½
ĠÏĦÎ±Î¹Î½ Î¯ÎµÏĤ
Ïĥ ÎºÎ¬
ĠÎ²Î±Î¸ Î¼Î¿
ÏĦÎ¬ Î¶
ÎºÎ® ÏģÏħ
ĠÏĩÏģÎ® ÏĥÏĦÎµÏĤ
ĠÎ¿ÏĢÎ¿ Î¯Î¿Ïħ
ĠÎ±Îº ÏģÎ¿
ÏĢ Î±Î¹Î´ÎµÏħ
e v
ĠÎµÎ¹Î´ Î¹ÎºÏĮ
ĠÎ§Î±Î» Îº
ĠÎĶ Ïī
ÎµÎ¹ ÏİÎ½
ĠÎ§Î± ÏĦÎ¶
Î¼ÎµÎ½ Î¿ÏħÏĤ
E S
ĠÎł Î¡ÎŁ
Î¡ Îķ
ÎºÎ¿ Î¯
ĠÎłÎµÎ¹ÏģÎ±Î¹ Î¬
ĠÎĻ Î±
ĠÎ±ÏĢ Î»Î®
s c
ĠÎ±Î» Î»Î¿
ĠÎĳ Î¯
Îľ ÎŁÎ£
ĠÏĩ Î»Î¼
ĠÎ£ Î®Î¼ÎµÏģÎ±
ĠÎºÎ±Î¸Îµ ÏĥÏĦÏİÏĤ
ĠÎĶÎ·Î¼Î¿ÎºÏģÎ± ÏĦÎ¯Î±
ĠÎµÎ½Î¯ÏĥÏĩÏħ ÏĥÎ·
Î İ
ĠÎ®Î¸Îµ Î»Îµ
Î´ Î¯Î¿
ĠÎ² Î¿Ïħ
ĠÎĺ Îĳ
ĠÎĮ ÏĩÎ¹
ÎºÎ± Ïģ
ĠÎºÎ±Î»ÏįÏĦÎµ ÏģÎµÏĤ
ĠÎĻÏĥÏģÎ± Î®Î»
ĠÏĨÏīÎ½ Î®
ĠÎ±ÏĢÎ¯ ÏĥÏĦÎµÏħ
Î´ Î¹ÎºÎ¿Ïį
ÏģÎ· Î¸ÎµÎ¯
ĠÎł Î¿Ïħ
ou n
ĠÏĢÎµÏģÎ¹ÎŃ ÏĩÎµÎ¹
ĠÏĦÎ·Î»Îµ ÏĨÏīÎ½
ĠÏĢÎ±ÏģÎ± Î»Î¯Î±
ĠÎºÎ±Î¹ ÏģÏĮÏĤ
ÏĩÏģÎ¿Î½ Î¿Ïħ
ĠÎ¬ Î´ÎµÎ¹
ĠÎ¹Î´ ÏģÏį
ĠÎµÏĢÎ¹ ÏĥÎ·Î¼Î±
am p
ÏĩÎ½ Î¬
ÏĦÎ± ÏĥÎ·ÏĤ
Î»ÎµÏħÏĦÎ± Î¯Î±
ĠS h
ĠÎ¼Î½Î® Î¼Î·
ĠÏĢ Î¿ÏįÎ¼Îµ
ĠÏĥ ÎŃ
ĠÏĩÏģÏİ Î¼Î±ÏĦÎ±
ĠÏĥ ÎºÎ¿Ïħ
ĠÎ»Ïį ÏĥÎµÎ¹ÏĤ
ĠÎ¼ÎµÏĦÎ± Ïģ
Î£ Î±ÏĤ
ĠÎłÎ¿Î» Ïħ
ĠÎ¼ÏĢÎ¿ÏģÎ¿Ïį ÏĥÎ±Î½
Î¹Îµ ÏģÏī
ĠÎľÏĢÎ¿ ÏģÎµÎ¯
ĠÏĥÏħÎ½ ÏĦÎµ
Î¯Ïĥ ÎºÎ¿
ÏģÎ¹Î½ Î®
c k
Î¼ Î¹ÎºÎŃÏĤ
ĠÏĢÏģÎ¿ ÎµÎ¹
ĠÎķ Î¥
ĠÎµÏĥ Î¬ÏĤ
Ïģ Î®ÏĤ
Î¯ Î¿Î¹
ĠÎµÏħÏĩÎ±ÏģÎ¹Ïĥ ÏĦÏİ
ÎĳÎ½Î± Î¶Î®ÏĦÎ·ÏĥÎ·
ĠÎ¼Î±Î»Î» Î¹Î¬
ÏĩÎ½ ÎµÏĤ
ÏģÎ¹Î½ Î¬
Ġá¼ Ģ
Î¼Î¹ ÏĥÎ·ÏĤ
ÏĦÎ¿Î½ ÏĦÎ±ÏĤ
Î¹Î± ÎºÏĮ
ÏĥÏī ÏĢ
Î¹Ïĥ ÏĦÎµÏį
ÏĥÎ¹ Î½
ĠÏĢÎ±Î³ÎºÏĮÏĥÎ¼ Î¹Î±
ĠÎµÏĢÎ¹Ïĥ ÏĦÎ¿Î»Î®
Ïĥ ÏĦÏģÎ¿
ĠÎ½ÏįÏĩ ÏĦÎ±
ĠÎ¹Î´ Î¹ÏĮ
ĠÏĢÎ±ÏģÎŃ Î±
e y
Î¹Ïĥ ÏĦÎ®ÏĤ
Îº ÏģÎ·
ĠÎ·Î¼ÎµÏģÎ¿Î¼Î·Î½ Î¯Î±
ĠG oogle
Î£ ÏĦÎ¿Î½
Îĵ ÎµÎ½
ÏĦÏģ ÏİÎ½
ÏĮÎ½ ÏĦÏīÎ½
ĠM ar
ĠÏĢÎ»ÎµÎ¹Î¿ÏĪÎ·ÏĨ Î¯Î±
ĠÎĪ Î½Î±ÏĤ
ĠÎ±ÏĢÎ¿ÏĨÎ¬Ïĥ Î¹ÏĥÎµ
ÎĶÎ· Î¼Î¿
ĠÎµÏĢ Î¯Îº
Ïį Î³Î¿Ïħ
ĠÎ¹Î´Î¹Î±Î¯ÏĦÎµ ÏģÎ·
ĠÎľÎ±Ïģ Î¯Î±
e g
Î»Ïī ÏĥÎ·ÏĤ
ĠÎµÎ³ ÎºÎ±ÏĦÎ¬
ĠÏĢÎ»Îµ Î¿Î½
ĠÎ³ÎµÎ½ Î¹ÎºÎ¬
ĠÎµÎ¾ Î·Î³
Î±ÏĨ Î½
ĠÎłÎµÏģÎ¹ ÏĨÎµÏģÎµÎ¹Î±
ĠÏĪÎ· ÏĨÎ¹Î±
Î¿ÏħÏĥ ÎµÏĤ
ĠÎ´ Î¬Ïĥ
ĠÎ´Î¹Î¿ Î¯ÎºÎ·ÏĥÎ·
ĠÏĢÏģÎ¿ ÎºÎ¬
ÏĢÎµ Ïħ
ÏĦÏħ Î»
Î² Î±Ïģ
ĠÏĥÏī ÏĥÏĦÎ®
Ġ9 0
ĠÎ¼ÎµÏĦÎ± Î½Î±
ĠÏĮ ÏģÎ¿
ÏĦÏģÎŃ ÏĨ
Î¹Ïĥ ÏĦÎ¿ÏįÎ½
ĠÎ£ ÎµÎ»
ĠÎµÎºÏĢÎ¿Î¼ÏĢ Î®
A N
at h
ĠÎ±Î¾ Î¹ÏĮ
Î¬Î½ Î¹Î±
ĠÎ´Î¹Î± Î´Î¯ÎºÏĦÏħÎ¿
ĠÏĥÏħÎ¼Î¼ÎµÏĦÎ¿ ÏĩÎ®ÏĤ
ÏģÏĮ Î½Î¹Î±
Ġ4 5
ĠÎ±ÏģÏĩ Î·Î³
Îł ÏīÏĤ
ou s
Ġ o
ĠÎ±ÏģÏĩ Î¯ÏĥÎµÎ¹
Îľ Î·
Îº ÏģÎµ
ĠÏĥ ÎµÎ½Î¬
r i
Î¼ÏĮÏģÏĨ ÏīÏĥÎ·
an k
Ïİ ÏĥÎµÏīÎ½
ĠÎķÎ¾ÏīÏĦÎµÏģ Î¹ÎºÏİÎ½
ĠÎŃ Î³ÏģÎ±ÏĪÎµ
ĠÎºÎ±ÏĦÎ¬ Ïģ
Ġ19 6
ĠÎ±ÏĢ Î»ÏĮ
ÏĦÏİ Î¼Î±ÏĦÎ±
ĠÎ±Î½ÏĦÎ¹Îº ÎµÎ¹
ĠÏħÏĢÎ± Î»Î»Î®
ĠÏĮÏĥ Î¿Î½
Î¼ÎŃÎ½ Î¿ÏħÎ¼Îµ
ĠÎ¥ÏĢÎ¿ÏħÏģÎ³ ÎµÎ¯Î¿Ïħ
ĠÎºÎ±ÏĦÎµÏį Î¸ÏħÎ½ÏĥÎ·
ĠÏĢÎµ ÏĦÏį
Îµ ÏĢÎ¹
ÏĦÎ¹ Î´Î±
ĠÏĥÏĦÎ¿Î¹ ÏĩÎµÎ¯Î¿
ĠÏĢÎ±Î³ ÎºÎ¿ÏĥÎ¼
l ay
ĠÎ± Î¹ÏİÎ½
ÏĦÎ® Î¼Î±ÏĦÎ¿ÏĤ
ĠÎł Î¿Ïį
ÏĨÏį Î»Î±
ĠÎ±ÏģÎºÎµ ÏĦÎŃÏĤ
Î¼Î± ÏĤ
Î¼ÏĮ ÏĦÎ·ÏĦÎ±ÏĤ
ÏģÎº Ïī
ĠÎ±ÏĥÎ¸ÎµÎ½ ÎµÎ¯ÏĤ
Ïİ Î½Î¿Î½ÏĦÎ±ÏĤ
ĠÎ³Î® ÏĢÎµÎ´Î¿
ÏģÏİ ÏĥÎ¿ÏħÎ½
ÎĻ ÎĶ
ÏĦÎ¬ ÏĥÏĦÎ±ÏĥÎ·
ĠÏĨ ÏĦÏī
ĠÏĦÎ¬ Î¾Î·ÏĤ
ĠÏĦ Î±Î¹
Î³Î¹ Î¬Î½
ĠÎļ Î¥
ĠÎ¿ Ïģ
Î¸Ïħ Î¼
ĠÎľ Ïħ
ĠÎ¡ ÏĮ
ÎŃÏģÎ³ ÎµÎ¹Î±
ĠÎłÏģÎ¿ ÏĥÏĦÎ±
ĠÏĢÏģÏīÏĦÎ± Î³ÏīÎ½Î¹Ïĥ
ĠÎ±ÏĢÎ¿ÎºÎ± Î»
ĠÎº Ïİ
ĠÎĶÎ¹Îµ Î¸Î½
Î´Î· Î³
ĠÏĢÎ±ÏģÎ¿ ÏĩÎ®
ĠÎµÎ½Î± Î»Î»Î±
ĠÎ± ÏĥÏĦÎµ
ĠÎ´Î¹Î±Î´Î¹Îº Î±ÏĥÎ¯ÎµÏĤ
ĠÎķÎºÎºÎ»Î· ÏĥÎ¯Î±
7 0
ÏĦÎµ Î¯ÎµÏĤ
ÏĦÎ¿Î½ ÏĦÎ¬
ĠÏĥÏħÎ¼Î² ÎµÎ¯
ĠÏĢÏģÏĮ ÎµÎ´ÏģÎ¿
ĠÎºÏį ÏģÎ¹
Î½Î± Î¼Îµ
Ġ a
ĠÎ¼Î¿Î½Î¬ Î´ÎµÏĤ
ĠÎ±ÏĢÎ¿Îº Î¬Î»Ïħ
ĠÎµÏģÏİ ÏĦÎ·Î¼Î±
Î¤ ÎŁÎ£
ĠÎ½ÏĮ Î¼Î¿
ĠÎ¹ÏĥÏĦÎ¿ ÏģÎ¯Î±ÏĤ
Î¹Ïİ ÏĦÎ·ÏĤ
ÎºÎµ Î»
ĠÎķÏĢÎ¹ ÏĩÎµÎ¹
ÏĨÏĮ Ïģ
ÎºÎ¬ Î¸Î±
ĠÎļ ÏģÎ¬
ĠÎ£ ÏĩÎµ
ĠÏĢÏģÎ¿ÏĥÏīÏĢ Î¹ÎºÎ¬
Î´ Î¹ÎºÏĮÏĤ
ĠÎ±Î½ÏĦÎ¹ ÏĢÎ¿Î»Î¯
ĠÎ±Î½ Î´
Î¸ Î»Î¹
ĠÎºÎ±Î¹ Î½Î¿
ĠÎ¿ ÏĢÎ±
Î»Î»Î· Î½Î¿
ĠÎ»Îµ ÏĨÏĦÎ¬
Ïİ ÏĦÎµÏĤ
ĠÎ´ÎŃÏģ Î¼Î±
ĠÎ¸ÏģÎ· ÏĥÎºÎµÏħ
Î±Ïģ Î¯Î±
ĠÎµÏģÏİ ÏĦÎ·ÏĥÎ·
ĠÏĥÏħÎ½Î¿ Î¼Î¹
ĠÎ¼Îµ Î»Îµ
ĠÏĥÏħÎ¼Î² Î¬
ĠÎ·Î¼Îµ ÏģÏİÎ½
c o
ĠÏĥÏħ Î»Î»Î¿Î³Î®
ĠÎ²ÎµÎ»ÏĦÎ¯ ÏīÏĥÎ·
ÏĦÎ· Î³Î¿
ĠÎ²Î±Î¸ Î¼Î¿ÏįÏĤ
ĠÎ´ÏģÎ±ÏĥÏĦÎ· ÏģÎ¹Î¿
Î³ÏģÎ¬ÏĨ Î¿Ïħ
ĠÏĢÎ¹ÏĥÏĦÎµÏį Ïī
Î´Î· Î¼Î¿
Î¼Î² Î¿
ĠÎ£Îµ ÏĢÏĦÎŃ
ĠÎ²Î±Ïĥ Î¹ÎºÏĮ
ÏĢÎ± ÏģÎ±Î³Ïī
4 4
ĠÎ±Î³ ÏĮ
ic k
ĠÎŃÎ»Îµ Î³Îµ
ĠÏĢÎ¿Î´Î¿ÏĥÏĨÎ±Î¹ ÏģÎ¹Ïĥ
ĠÏĥÎ¿Î²Î± ÏģÎ¬
Î´Ïī ÏĥÎ±Î½
ĠÎŁ Î¼Î¿ÏĥÏĢÎ¿Î½
ĠÏĥÏħÎ¼ÏĢÎµÏģÎ¹ Î»Î±Î¼Î²
ÏĢÎ¿ ÏįÎ½
ĠÎ¼ÎŃ ÏĥÎ·
ĠÎ´Î¹Î±Î¼Î±Ïģ ÏĦÏħ
ÏĨ Î¸Î¿
Ïĩ ÏĦÎµÎ¯
Î³ Î¿Ïģ
ĠÎ£ ÏĢ
ÎŃ ÏīÎ½
ĠÎ¼ÎŃ Î³ÎµÎ¸Î¿ÏĤ
ÏĬ ÎºÏĮ
u st
Î¼ Î¬Î½Î¹
ĠÎĶ ÏģÎ¬
ÏįÏĢ ÏĦÎ¿ÏħÎ½
Î¼Îµ ÏģÎ¿
ĠÏĨÏħÏĥ Î¹Î¿
Î»ÏĮÎ³ Î·ÏĥÎ·ÏĤ
Ïĩ Î¯Î±
ĠÎºÎ±ÏĦÎ±Ïĥ ÏĦÏģÎ¿ÏĨÎ®
ĠÎ´Î· Î¼Î¹Î¿ÏįÏģÎ³
ĠÏĥÏħÎ½ ÏĦÎ¿Î½
ÏĦÎ¿Î½ ÏĦÎ±Î¹
ĠÎµÏĢÎ¹ Î»Î¿Î³
ÏĦÎ· ÏĥÎ®
ĠÏĦÎµ Î»Îµ
ĠÏĢÎ± ÏĦÎŃÏģÎ±
Ïį ÏģÎ±
ĠÎ¿ Î¼ÏĮ
ĠÎºÎ±Î¸ ÎŃÎ½Î±ÏĤ
ĠÎµÎ¾Î± ÎºÎ¿Î»Î¿Ïħ
ĠÎĳÎ½ ÏĦÏİÎ½
Î»Î¬ ÎºÎ¹Î±
.. ...
ĠÏĦÎŃ Î»Î·
Î¬Î½ Î´Î±
ĠÎ¼ÎŃ Î¸Î¿
ĠÎ¤ ÏĮ
ÏĦÎ® ÏĥÏī
ĠÎĳ ÎĽ
ÏĦÎµ ÏģÎµÏĤ
ĠÎºÎ¿Î¹Î½ÏīÎ½ Î¹ÎºÏĮ
ĠÏīÏģÎ± Î¯Î±
ÎŁ Îľ
ĠÏĢÎ±Î¹ÏĩÎ½ Î¹Î´
ĠÎ±ÏĥÏĦÏħÎ½Î¿Î¼ Î¯Î±
Î¸Îµ ÏģÎ±ÏĢÎµ
ĠÎ£ Î¹
ĠÎ¶Î®ÏĦÎ· ÏĥÎµ
ĠÎ²Î»ÎŃ ÏĢÏī
ĠÎºÏĮ Î¼Î¼Î±ÏĦÎ±
ĠÎ¿Î»ÏĮÎºÎ»Î· ÏģÎ·
ÏħÏĥ ÏĦÏħÏĩÏİÏĤ
ÏĥÎºÎ¿ ÏĢ
ĠÎĳÎ½Î¬ÏĢÏĦÏħ Î¾Î·ÏĤ
ĠÎĳ ÏĤ
ĠÏĢÎ±ÏģÎ± ÎºÎ¿Î»Î¿Ïį
ĠÏĢÏģÎ¿ÏĥÏīÏĢ Î¹ÎºÎ¿Ïį
ĠÏĩÏī ÏģÏİÎ½
ĠÎ± ÎºÎ¿Î»Î¿Ïį
Î´Îµ Ïĥ
ĠÏĢÏĮ Î»ÎµÎ¹ÏĤ
ÎµÎ½ ÎµÏģÎ³
ĠÎ´ÏģÎ±ÏĥÏĦÎ· ÏģÎ¹ÏĮÏĦÎ·ÏĦÎ±
ĠB l
ĠÎĶÎ¹Îµ Î¸
ĠÎ±Î¯Ïĥ Î¸Î·ÏĥÎ·
ĠÎ£Ïħ ÏģÎ¯Î±
ĠÎ±Ïħ ÏĥÏĦÎ·
ĠÎ¤Î¼Î® Î¼Î±
Î¬ ÎºÎ¹Î±
ÎĻÎļ Îĳ
ĠÎ´Î¹Î±ÏĢÏģÎ±Î³Î¼Î± ÏĦÎµÏį
ÏĮ ÏĢÎ¿ÏħÎ»Î¿ÏĤ
ĠÎ¼Î¿Î½ÏĦÎŃ Î»Î¿
ĠÎµ ÏĦÎ®
ĠÏħÏĢÎ¿ÏħÏģÎ³ ÎµÎ¯Î¿Ïħ
ĠÎµÏĢÎ¹ ÏĦÏģÎŃÏĢÎµÎ¹
ĠÎµÏĢÎ¹ÏĥÏĦÎ® Î¼Î¿Î½ÎµÏĤ
ÏĥÏĦÎµ Ïģ
ĠÎļ Î¿Î½
ÏĨ Î¿Î¹
ĠÎľ Î·Î½
Î²Î± ÏĥÎ·ÏĤ
m an
ĠÎ» ÎµÎ¯
ÏĢÏģÏĮ Î¸Îµ
ÏİÎ½ ÏīÎ½
ĠÎ´Î·Î¼Î¹Î¿ÏħÏģÎ³ ÎµÎ¯
Îº ÏĦÎµÏĤ
A S
ĠÏĢÎ»Î® ÏģÎ¿ÏħÏĤ
ĠÎķÏģÎ³ Î±ÏĥÎ¯Î±ÏĤ
ÏĮÎ½ Î¹Î±
ĠÏĢÎ¬Ïģ Î¿ÏħÎ½
ÎºÎ± Î»Î¹Î¬
ĠÎ¿ ÏģÎ³
ĠÎ³Î½Ïī ÏģÎ¯Î¶ÎµÎ¹
ÏĨ Î¿Ïį
ĠÎ´Î¿Ïħ Î»ÎµÏį
ĠÏĦÏģÏĮ ÏĢÎ¿ÏħÏĤ
ĠÏĨÎ±Î³Î· ÏĦÏĮ
ĠÎ± Î»Î»
ĠÎ¬Î»Î» ÏīÏĥÏĦÎµ
* *
ĠÎµÏĦÎ±Î¹ ÏģÎ¯Î±
0 2
ĠÏĢÎ»Î± ÏĦÎµÎ¯Î±
ĠÎ¼Î±Î¸Î· ÏĦÏİÎ½
ĠÏĦÎµÏĩÎ½Î¿ Î»Î¿Î³Î¯Î±
ĠÎ±Î¾ Î¯Î¶ÎµÎ¹
ĠÎµÎº ÏĢÏģÎ¿ÏĥÏİ
ĠÏĢÎµÏģ Î±Î¹ÏĦÎŃÏģÏī
ĠÎ¶ Î®
ĠÎ¼ÏĢÎ¿ ÏģÎŃ
Î±Î³Î³ ÎŃ
ĠÎ½Îµ ÎºÏģÎ¿
ĠÎ²ÏģÎµ Î¸ÎµÎ¯
ĠÏĥÏħÎ½ÎŃ Î²Î·
ĠÎ´Î± ÏĢÎ¬Î½
ĠÎĵ ÏħÎ¼
Î± Î½Î¿
ĠÏĥÏĦÎŃ Î»
ĠÎ¬ ÏĦÎ¿Î¼Î¿
ĠÎĳÎ»Îµ Î¾
ĠÎķÎ»Î»Î·Î½ Î¹ÎºÏĮ
ĠÎ¸Î¬ Î½Î±
ĠÎ½Î· ÏĥÎ¹
ĠÎ¼Îµ ÏĥÎ±
ĠÎĪÎ»Î»Î· Î½Î±ÏĤ
ĠÏĥÏĦÎ®ÏģÎ¹ Î¾Î·
ĠÏĥÎºÎ¿ Ïģ
ĠÏįÏĪ Î¿ÏħÏĤ
ĠÎ¡ Î¬
ĠÏĥÎµÎ» Î¯Î´Î±ÏĤ
ĠÎ´ Î¯ÎºÏĦÏħÎ¿
Î¹ÎºÏĮ Î½ÎµÏĤ
ÏĦÎ¯ Î¶Î¿Î½ÏĦÎ±Î¹
ĠÏĦÏħ ÏĩÎ±
ĠÏĦÎŃÏĥÏĥÎµ ÏģÎ±
ÏĦÎ® ÏĥÎµÏĦÎµ
Î¼Î± ÏĦÎ¹ÎºÎ¬
ĠÏĢÏģÏīÏĦÎ± Î¸
á½ °
ac h
0 9
ÎłÏģÎ¿ Î²Î¿Î»Î®
ĠÎŃ ÏĢÎµÎ¹ÏĦÎ±
ĠÎµÎ½ÎµÏģÎ³ ÎµÎ¹Î±
ĠÎ»Î¬ Î²ÎµÎ¹
Î¬ ÏĥÏĦÎ·ÎºÎµ
Î§ Î±
ĠÏĢÏģÎ¿Ïĥ ÏĨÏħ
ĠÏĥÏħÎ½ÎµÏģÎ³ Î±ÏĥÎ¯Î±ÏĤ
ĠÏĨ ÏģÎ¿Ïį
l y
ĠÎ¼Î± ÎºÏģÎ¿
Î¼ Î¼ÎŃÎ½Î¿
ĠÎ±Î½ÏĦÎ¯ ÏĢÎ±
ĠÎ½ Î¹ÎºÎ·
ÏĩÎ® Î¼Î±ÏĦÎ±
ÎŃ Î½Î±Î½
ĠÏħÎ»Î¿ ÏĢÎ¿Î¹
ĠÎ´Î¹ÎºÎ±Î¹ Î¿Ïį
ĠÎ±Î½Î± Ïĥ
ĠÎŃ Î¾Î¿
ĠÎ³ÏħÎ¼ Î½Î±
ĠÎµÏģÎ³Î±Î¶ÏĮ Î¼ÎµÎ½Î¿Î¹
ĠÎ¿Î»ÏĮÎºÎ»Î· ÏģÎ¿
Î»Î¿Î³ Î¿ÏĤ
Î»Î· Î¸ÎµÎ¯
ÏĦ ÏģÎ·ÏĥÎ·
ĠÏĢÎ±ÏģÎ± Î³Î³ÎµÎ»
ĠÎ¼Î¹Ïĥ Î¸
q u
ĠÏĢÏģÎ¿Î² Î¿Î»
ĠÎĳ Î£
Î³Îº Ïħ
ĠÎ¶Î· ÏĦÎ¬
ĠÎµ ÏģÏĩ
ÎºÎ± Î¸Î±
ĠÏĥ ÏĢÎ¬Î½
ĠÎ² Î¿Ïį
Î½Î¿ Î¼Î¿
ĠÏĢÎµ Î´Î¯Î¿
ĠÎł Î±Ïģ
Ġ ÏģÎ·
Ġ re
ÏĮÎ¼Îµ Î½ÎµÏĤ
ĠÎ¦ Î¿
ĠÎ¹Ïĥ Î¿ÏģÏģÎ¿
ĠÎºÎ± ÏĢÎ¹ÏĦÎ±Î»Î¹Ïĥ
ĠÎļÎ¬ Î¸Îµ
ĠÎºÎ±Î» Ïį
ĠÎºÎ¬ Î½Î¿Î½ÏĦÎ±ÏĤ
ĠÎķÎºÎºÎ»Î· ÏĥÎ¯Î±ÏĤ
Î»Î¿Î³ Î¹ÎºÎ®ÏĤ
ĠÏĢÎŃ ÏĨ
ĠÎµÎ»ÎŃÎ³ ÏĩÎ¿Ïħ
Î´ Î¹ÎºÎŃÏĤ
ĠÎºÎ¿Ïħ Î¶Î¯
ĠÎĴÎµÎ½ Î¹Î¶
ĠÎ½Î¿ÏĥÎ¿ÎºÎ¿ Î¼ÎµÎ¯Î¿
ĠÎ¼Î·Î½ ÏįÎ¼Î±ÏĦÎ±
Îł Î¬
ĠÎ¤ Î©ÎĿ
Î»Ïħ ÏĥÎ·
ĠÎķ Î»
ĠÎµÎ¼ÏĨÎ±Î½ Î¯Î¶ÎµÏĦÎ±Î¹
ĠÎ±ÏĢÎ¿ ÏĥÏĦÎ¿
ĠÎķ ÎĶ
ĠÎºÏģÎ¹ ÏĦÎ¹ÎºÎ®
ĠÎµ Î»
ÏĦÎ® ÏģÎµÏĤ
Î½Î± Îº
ĠÎ¼ ÏĢÎµÎ¹
ĠÎ± ÏĢÎ¿Ïħ
Ġ Î¹Î½
ÎĽ ÎĹÎĿ
ĠÏĥÏİ Î¼Î±ÏĦÎ¿ÏĤ
ĠÎķ Î¹
Î±Î³ Î³Îµ
Îľ ÎĹ
Ġ !!!
ĠÎµÏģÎ³Î±Ïĥ Î¯ÎµÏĤ
ÏĮ Î¼ÎµÎ½Î¿
ĠÏĨÎ¹Î»Î¿ ÏĥÎ¿
Î»ÏĮÎ³ Î¿Ïħ
ĠÎ¹Î´Î¹Î¿ ÎºÏĦÎ·
ÏĥÎ¹Î± Î»Î¹Ïĥ
ĠÎ¾ÎŃÏģ ÎµÎ¹ÏĤ
ĠÏĩ Ïħ
ĠÏĥ ÎºÏħ
ĠÎļÏİ ÏĥÏĦÎ±ÏĤ
Î³ÏģÎ±ÏĨ Î±
Î¼ÏħÎ½Î± ÏĤ
ĠÏĥ ÏĢÎ±
ĠÎľÎ¿ÏħÏĥ ÎµÎ¯Î¿
ĠÎ²Î»ÎŃ ÏĢÎ¿ÏħÎ¼Îµ
ĠÎĳÎ½ Î´ÏģÎŃ
ĠÎ¼Îµ Î¯
Î¸ Î±Î½Îµ
ĠÎµÏįÎºÎ¿ Î»Î¿
a x
ĠÎµÎ³Îº Î»Î·Î¼Î±
ĠÎ¦Îµ ÏĥÏĦÎ¹Î²Î¬Î»
ĠÎĵ Î¿Ïħ
ĠÎĶÎ® Î¼Î¿ÏĤ
ĠÎ¤ÎŁ ÎĿ
Î¹Ïĥ ÏĦÎ¹ÎºÎ¬
Î¯Ïĥ ÏĦÎ·ÎºÎ±Î½
ĠÏĢÎ±ÏģÎ¬ Î¸ÏħÏģÎ¿
Î³ Î±Î¹
ĠÏĦÏģÎ± ÏĢÎŃ
Î¯Î¶ ÎµÎ¹ÏĤ
ĠÎºÎ±ÏĦÎ±ÏĥÎºÎµÏħ Î±Ïĥ
ĠÏħÏĢÎ¬ Î»Î»Î·
Î¼ÏĢ Î±Î½
ÏĦÏĥ Î±ÏĤ
ĠÎºÎ¹ Î»Î¬
Ïī ÏĥÎ®
ĠÏĢÎ± ÏĦÎŃÏģÎ±ÏĤ
ÏģÎ· ÏĥÎ±Î½
ÎĻ ÎĽ
on d
Î¹Ïĥ ÏĦÏİÎ½
ĠÎŃÏĨÏĦÎ± ÏĥÎµ
ÏģÎ® ÏĥÎ¿ÏħÎ½
Î³ÏģÎ¬ÏĨ Î¿ÏĤ
Î² ÎŃÎ½
in k
ĠÎ³ÏģÎ± ÏĨÎµÎ¯Î±
ĠÎ±Î½ Ïī
ĠÏĢÎ± ÎºÎŃ
Ïĥ Î´Î®ÏĢÎ¿ÏĦÎµ
ÏĥÎ¼ ÏİÎ½
ĠÎµÎ½ÎŃÏģÎ³ ÎµÎ¹ÎµÏĤ
ÏĨÎŃÏģÎµÎ¹ Î±ÏĤ
ÏİÎ½ Î·ÏĤ
ĠÎł ÏģÎ¬
ĠÏĩÏģÎµÎ¹ Î±ÏĥÏĦÎµÎ¯
ĠÎ¯Î´ Î¹Î¿Î¹
Î¼ Î¹Î½Î¬
Î¼Î¬ ÏĦÎ¹Î¿
ĠÏĢ ÏģÎµ
ĠÎ´ÏįÏĥÎºÎ¿ Î»Î·
Ïį ÏģÎ¿ÏĤ
ÏĦÏĮ ÏĦÎ·ÏĦÎ±
ĠÎ³Î± Î»Î»
ĠÎĿ Î¹Îº
. :
ĠÎ¬ ÎºÎ¿Ïħ
Î¾Î± Î¼Îµ
ÏĢÎ± Î³
ĠÎµÏģÏī ÏĦÎ®ÏĥÎµÎ¹ÏĤ
ĠÎĪ Îº
P h
ĠÎ´ÎµÎºÎ¬ Î´ÎµÏĤ
ĠÎĴ Î¬
ĠÎµÏĢÏĮ Î¼ÎµÎ½ÎµÏĤ
ĠÎ² Î³Î®
ĠÎ»Î¬ Î¸Î·
ĠÎ¼Î± Î¸Î®Î¼Î±ÏĦÎ±
Î£ Î¥
Î¸Î® ÏĥÎµÎ¹ÏĤ
ĠÏĦ ÏģÏİ
Î¸ Î±Î»
ter net
Î£ÏĩÎµ ÏĦÎ¹ÎºÎ¬
ĠÏĨ ÏģÎŃ
Î²Î¬Î»Î» ÎµÏĦÎ±Î¹
ĠÎ£Î¤ ÎĹÎĿ
ÏĦÏħ ÏĩÎµ
ĠÎ±Î³ ÏİÎ½Î±ÏĤ
ĠÏĢÎ¿Î»Î¹ ÏĦÎ¹ÎºÎ¬
ĠÏĦ ÏģÎ¹ÏİÎ½
Î¹ ÏĥÎ·ÏĤ
ĠâĢ Ļ
ĠÎºÎ¿Î¹ Î½Î¿Ïį
ĠÎľ ÏĢÎ¿Ïħ
Î¸ ÏİÎ½ÏĦÎ±ÏĤ
o y
ĠÏĢÎ¹ ÎŃ
ĠÎ±Î»Î»Î¬ Î¶ÎµÎ¹
Î¼ÎµÏĦÎ± Î»Î»
is s
ĠÏĥÏĩÎµ Î´Î¹Î¬
ÏĦÎ¿ ÏĦÎµ
ĠÎ³ ÏīÎ½
ĠÎł Î¿Î¹
ĠÎºÏĮ Î¼Î¼Î±ÏĦÎ¿ÏĤ
ĠÏĢÎ® Î³Îµ
ĠÎºÎ±Î»Î»Î¹ ÏĦÎŃ
ĠÎºÏį ÏģÎ¹Î¿
ÏĨÏħ Î³ÎµÏĤ
ĠA p
ĠÎ¼ ÏĢÏĮ
ĠÎµÏĢÎ¯ÏĥÎºÎµ ÏĪÎ·
ĠÎķÎºÏĢÎ±Î¯Î´ ÎµÏħÏĥÎ·ÏĤ
ĠÎµÎºÎµÎ¯ Î½Î¿
ÏģÎ¯ Î½Î±
ĠÎºÎ¬ ÏĦÎ¿Î¹Îº
ĠÏĢÏģÎ¿Î·Î³Î¿ÏįÎ¼Îµ Î½Î·
ĠÏĢÎµÏģÎ¹Îµ ÏĩÎ¿
ĠÏĢÎ¿ Î¯
ĠÎĴ Î¹Î¿
I D
Î´Î± ÏĨÎ¿ÏĤ
ÏĦÏį ÏĢÎ·
ĠÎ±Î³ Î¿
ĠÎ±ÏĢÎ±Ïĥ ÏĩÏĮ
ÏģÎµÎ¯ Î¿Ïħ
ĠÎ´ÏħÏĥ ÏĦÏħÏĩÏİÏĤ
ĠÎ²Î¿ÏħÎ»ÎµÏħ ÏĦÎŃÏĤ
ĠÎµ Î¸ÎµÎ»Î¿Î½
ĠÎ²Î¬Î» ÎµÎ¹
ĠÎ² Î¹Ïİ
ĠÏĪ ÎŃ
Î¶ ÎµÏĦÎµ
ĠP ro
Î¼ÏĢ ÎŃ
ĠÎĿÎ¿ ÏĥÎ¿ÎºÎ¿
ĠÎŃÎ»Î»ÎµÎ¹ ÏĪÎ·
ÎłÎ¿Î» Ïį
ÏģÎ® ÏĦÎ¿Ïħ
ĠÎµÎ¾Î±Î¹ ÏĦÎ¯Î±ÏĤ
ĠÎķ Î»ÎŃ
Î»Î· ÏĥÎµ
ÏĦÏĥ ÎµÏĤ
ĠÎ® ÏģÎ¸
ĠÎĴÎ¿ÏħÎ» Î®ÏĤ
Î³ Î»Î¿Ïħ
ĠÎ´ ÎµÎ¹ÏĤ
ĠÎºÎ±Î½ ÏĮÎ½ÎµÏĤ
Ġ ï
ĠÎµÏĥ ÏĦÎ¹Î±
ÏĨ Î¹Î»
ÏĨÏĮ ÏģÏīÎ½
ĠÎľ Î½Î·
Î¾ Î¹ÎºÏĮ
ÎĿ Î¿
ĠÎ¦ Î±
ĠÎºÎ± Î»Î±
Îķ Î¬Î½
Î¿ÏħÎ» ÎŃÏĤ
ĠÏħÏĪÎ· Î»Î®ÏĤ
ĠÎļ Î¯Î½Î±
Î¤ ÏİÏģÎ±
ĠÎ±Î³ÏīÎ½Î¹Ïĥ ÏĦÎ¹ÎºÎ®
ĠÎ¿ Î¸ÏĮ
ĠÎµÎ½ ÏĥÏī
ĠÏĢÎ±ÏĦÏģÎ¯ Î´Î±
ĠÎ±ÏĢÎ¿ Î»Î±Ïį
ĠÎ²Î»ÎŃ ÏĢÎµÎ¹
ĠÏĥÏĦÏģÎ± ÏĦÏĮ
ĠÎ±ÏĢÏĮÎ»Ïħ ÏĦÎ±
ĠÏĩÎ¬ ÏĥÎµÎ¹
Î½Î¿ Î¼Î®
Î»Î± Î²Î±Î½
ĠÎ² Î³ÎµÎ¹
Î¼Î· ÏĥÎ·ÏĤ
ĠÏĢÏģÎ¿ÏĥÏĦÎ± ÏĥÎ¯Î±ÏĤ
3 3
ĠÎ³Î½Ïī ÏģÎ¯Î¶Î¿ÏħÎ½
ĠÏĢÏģÎ¿ÏĥÎŃ Î³Î³
ĠÎ½Î· ÏĥÎ¹Î¬
0 5
p e
ÏĥÏĦÎ¬ ÏĥÎµÏīÎ½
ĠÎ´Î¹ÎºÎ±Î¹ ÏīÎ¼Î¬ÏĦÏīÎ½
ĠÏĥÏĢÎ¿Ïħ Î´Î±
ĠÏĢÎ±ÏģÎ¬Î³Î¿Î½ ÏĦÎµÏĤ
ag e
Ïī ÏģÎ¿
ÏĢ Î±ÏĤ
ĠÎ±ÏĢÎ¿ Î¼Î±
Î»Î¿Î³ Î¯Î¿Ïħ
ĠÎĳÏĥ ÏĨÎ¬Î»
ĠÎ±Î½ÏĦÎ¹Îº ÎµÎ¯Î¼ÎµÎ½Î¿
Î± ÏĥÎµ
âĢ¦ ]
ĠÎ±Ïĥ ÎºÎ®
ÏģÏĩ Î¯Î±
ĠÏĮ ÏģÎ³
Ġ3 00
ĠÎ¡ Î¿Ïħ
ĠÏĢÎ¯ ÎµÏĥÎ·
ĠÎł Î¿Ïģ
Ġ ÏģÎ¬
Î» Î¹ÎºÏİÎ½
ÏĦÎ± ÏĦÎ¿
0 6
ÏĢÎŃ Î´Î¿Ïħ
ĠÎº ÏĮÎ½
ĠÎĶÎ·Î¼Î¿ ÏĦÎ¹ÎºÏĮ
ĠÏĢÎ±Î¹Î´ Î¹Î¿Ïį
ĠÏĢÎ»Î· ÏģÎ¿
ĠÎĳÎ¼ÎµÏģ Î¹ÎºÎ®
ÏĮ ÏģÎº
ĠÎºÏĮ ÏģÎ·
ĠÏĢÎµ ÏĦÏģÎµ
ĠÏĦÎŃ ÏĩÎ½Î·
ÏģÎ® Î¼Î±ÏĦÎ±
ĠÎ¹Î´ Î¹
Î²Î± Î¯Î½ÎµÎ¹
ÏģÎ¹Î½ ÏĮ
Î³Î¿ Î¯
ÏĥÏĥÎµ ÏĦÎ±Î¹
ub e
Ïį ÏģÎ¹Î¿
ĠÎ²Î¹Î² Î»Î¯Î¿Ïħ
Ïĥ Î²Îµ
Ġ3 6
ĠÏĦÎ¹ Î¼Ïī
Î»Îµ ÏĦÎ±Î¹
ÏĨ ÏīÎ½Î±
ĠÏĢÏĮ ÏģÏĦÎ±
ÏĦÎ¹ ÏĥÎ·
Î´ÎŃ ÏĩÎµÏĦÎ±Î¹
ĠÏĦ ÏħÏĩ
Î»Î® ÏĥÎµÎ¹ÏĤ
Îº Î¯Î½Î·ÏĥÎ·
ĠÎ½Î¿ Î¼Î¹
Ïĥ Î¼Î±ÏĦÎ¿ÏĤ
ĠÏĢÏģÎ±Î³Î¼Î± ÏĦÎ¹ÎºÎ®
0 3
ĠÏĥÎºÎŃ ÏĪÎµÎ¹ÏĤ
Î´Î¹ ÏĮ
ĠÏĦÎµÎ» Î¹ÎºÎ®
ĠÎºÎ±ÏĦÎ± ÏģÎ³
ĠÏĢÏģÎ¿ÏĥÏĢÎ¬ Î¸ÎµÎ¹ÎµÏĤ
ÎºÏĮ Ïģ
ĠÎĵÎ¹Î± Î½
ĠÎ¸ÎŃÎ» ÎµÎ¹ÏĤ
port s
ĠÎ¼Î® ÏĢÏīÏĤ
Îķ Î¾
Î»Î» Î±Î½
ĠÎµÎ»Î± ÏĨ
Î¸ÎŃ ÏĦÎµÎ¹
ÏģÎ¯Î¶ Î¿Î½ÏĦÎ±ÏĤ
Ġ201 9
ĠÎ¿Î¼Î¹ Î»Î¯Î±
Î´Î¹Îº Î±Î»
ÏĦ ÏģÏĮÏĤ
ĠÎ¼ÎµÏĦÎ± ÏĨÎ¿ÏģÎ¬
0 7
O N
ÏĩÏģÎ¿ Î½Î·ÏĤ
ĠÏģÏī Ïĥ
Î»ÎµÎ¹ Î±ÏĤ
ĠÏĦÎ¿ Î¯
ÎµÎ¯ Î½Î±Î¹
ĠÎ±Î¯Î¸ Î¿ÏħÏĥÎ±
ĠÎºÎ± ÏģÎ¹
ÏĦÎ¬ ÎºÎ¹Î±
ĠÎ²ÏģÎŃ Î¸Î·ÎºÎ±Î½
ÏĦÎ¹ÎºÎŃ ÏĦÎµÏĤ
ĠÎ±Î½ Ïİ
ĠÎ¶Ïī Î³ÏģÎ±ÏĨ
ĠÎ¿ÏĢÎ¿Î¹Î¿ Î´Î®ÏĢÎ¿ÏĦÎµ
ĠÏĢÏģÎ¿ÎŃ Î´ÏģÎ¿Ïħ
ĠÎľÎµ ÏĥÎ¿
ÎľÏĢÎ¿ ÏģÎµÎ¯
ĠÏĥ ÏĢ
ĠÏĢÎµÏģÎ¹ ÏĮÎ´Î¿Ïħ
ĠÎĿ ÏĦÏĮ
Î¹ ÏĮÎ½
ĠÎ£Î± Î²
Î¹Ïĥ Î¼ÎŃÎ½Î·
ĠÎ¤ Î¯
ĠÏħÏĢÏĮÎ»Î¿Î¹ ÏĢÎ±
ÏħÏĥ Î±Î½
ÏĪÎµ ÏīÎ½
ĠÎ´ Î¿Î»Î¬
ĠÎ£ ÏĦÎ¬
ĠÎºÎ±ÏģÎº Î¯
ĠÏĢÏĦÏİ ÏĥÎ·
ÎĶ Îķ
ĠÎŁ ÎĻ
ĠÎ±ÏģÏĩ Î¯Î¶ÎµÎ¹
ĠÎ¤Îµ ÏĩÎ½Î¿
Î¹Ïİ ÏĦÎ·
ĠÎ±Î½Î± Î»Ïį
ĠÎµÏĢÎ¹Î´ Î¹Ïİ
ÏĦÎ¹ Î½Î¿Ïį
Î® Î³Î·ÏĥÎ·
ĠÎ´ÏħÎ½Î¬ Î¼ÎµÏīÎ½
Î§ ÎĻ
ĠÎºÏħ Î½Î·
ĠÎ±ÏĢÎ¿ Î¶Î·
ÏģÎ¬ ÎºÎ¹Î±
ĠÏĦÎ¼Î® Î¼Î±ÏĦÎ±
ĠÎµÏĢÎ¹ÎºÎ¿Î¹Î½ÏīÎ½ Î¯Î±
ÏĥÏĩÎŃ Î´Î¹Î¿
ĠÏĢÎ± ÏģÎ¿Ïį
ĠÎ±Î½Î± Î¶Î®ÏĦÎ·ÏĥÎ·
ĠÎ»ÎµÏĢÏĦÎ¿Î¼ÎŃ ÏģÎµÎ¹ÎµÏĤ
ĠÎºÎ±ÏĦÎ¬ ÏģÎ³
ĠÎ´ÎµÎºÎ±Îµ ÏĦÎ¯Î±
ĠÎķ Î´Ïİ
ĠÎ²Î±Î¸ Î¹Î¬
ĠÎµÏĢÎ¯ÏĥÎ· Î¼Î·
Ġv ideo
ĠÎ¿Î½ÏĮ Î¼Î±ÏĦÎ±
ĠÎ±Î¼ÏĨ Î¹Ïĥ
ĠÏĥÎ¹ Î³Î¬
ĠÏĥÏħÎ½ Î¬Î½
ĠÎºÎ¹Î½Î® ÏĥÎµÎ¹ÏĤ
ĠÎ® ÏģÏī
ÏĥÎ¹Î± ÏĤ
ÎķÏĢ Î¹ÎºÎ¿Î¹Î½ÏīÎ½
Î»Î¹ ÏİÎ½
ĠÎ´Î¹Î±Î´Î¹Îº ÏĦÏħÎ±
ĠÎ±Î³ ÏģÏĮ
Î» Î¹ÎºÎŃÏĤ
ĠÎ±ÎµÏģÎ¿ Î´ÏģÏĮÎ¼Î¹Î¿
ÏģÎ³ Î¿
ĠÏĢÎµÏģÎ¹Î¿ Î´Î¹ÎºÏĮ
ĠÎľÏĮ Î½Î¿
Ïģ ÎºÎ¿
ĠÎĵ ÎµÏģÎ¼Î±
ÏĨÎ¿Ïģ Î¹ÎºÎ¬
ĠÎ¾ÎµÎ½Î¿Î´Î¿ ÏĩÎµÎ¯Î±
ÎĶ ÎĻÎĳ
ÏĥÏĩ Î¿Î»
Ïĥ ÏĦÎ®ÏĤ
ĠÏį ÏĥÏĦÎµÏģÎ±
ĠÎ¼Î±Ïģ ÏĦÏħ
ĠÎµÎ½ ÏĮ
Î³Ïī Î³Î®
ÏģÏİÎ½ ÏĦÎ±ÏĤ
ĠÏĮ Î½
Ïĩ Î¹Î±
ĠÏĦÏģÎ¯ ÏĦÎ¿
ĠÎµÏģÎ³Î±Î¶ÏĮÎ¼Îµ Î½Î¿ÏħÏĤ
ĠÎ±ÏĢÎ¿Îº Î»ÎµÎ¯
ÏĨÏĮ ÏģÎ¿
ÏĦÏİ Î²
ĠÎµÏĢÎ¹ÎºÎ¯Î½ Î´Ïħ
Î´ÏĮ ÏĦÎ·ÏĥÎ·ÏĤ
ĠÏĢÏģÎ¿ÏĥÏĢÎ± Î¸ÎµÎ¯
ĠÎºÎ±ÏĦÎ± Ïģ
ĠÏĩÏģÎ¿ Î½Î¿
ĠÏĢÎ¿Î»ÎŃ Î¼Î¿Ïħ
ĠÎµÎºÎ± ÏĦÎ¿Î½ÏĦÎ¬
ĠÎ¼Î¯Î»Î· ÏĥÎµ
ĠÏĦÏģÎ±Î³Î¿Ïħ Î´
ĠÎ»ÎµÏĢ ÏĦÏĮ
ĠÏĢÎ¬ Î¼Îµ
ĠÏĩ ÏģÏī
ĠÎµÎ¼ÏĢ Î¹ÏĥÏĦÎ¿
ĠÏĦ Î®ÏĤ
ĠÎŁÎ»ÏħÎ¼ÏĢÎ¹Î± ÎºÏĮÏĤ
ĠÎºÎ±ÏĦÎ± Î³Î³ÎµÎ»
ĠÎ¤ ÏģÎ¿
ĠÏĢÏģÎ¿Ïĥ ÏĨÎŃÏģÎ¿ÏħÎ½
ĠÏĢÏģÎ±Î³Î¼Î± ÏĦÎ¹ÎºÏĮ
3 8
Î½Î· Î¼ÎŃ
ĠÎ´ÏħÎ½Î±ÏĦÏĮ ÏĦÎ·ÏĦÎµÏĤ
ĠÎĶÎ·Î¼Î®ÏĦ ÏģÎ·
ĠÎµÎº ÏĦÎŃÎ»Îµ
Î» Î¯Ïĥ
á¿ ¶
ĠÎ¶Ïİ Î±
ĠÏĥÏħÎ½ÎµÎ´ÏģÎ¯Î± ÏĥÎ·
ÏĥÎ¹ ÎµÏį
ĠÎ±ÏĢÎ±Î½ ÏĦÎ®ÏĥÎµÎ¹ÏĤ
ĠÎŃÏĥ ÏĦÎµÎ¹
ĠÏĢÎ±Î½ Î·Î³
ĠÎºÎ±ÏĦÎ±Ïĥ ÏĦÏģÎ¿ÏĨ
ĠÎŃ Î´Î±ÏĨÎ¿ÏĤ
ĠÎ¼Îµ Î½
ĠÎºÎ±ÏĦÎ±Î½Î¬Î» ÏīÏĥÎ·
ĠÎ¶ ÎµÎ¹
ĠÎµÏĢÎ¹Îº ÏģÎ¬
Âµ Î±
ÏĨÎ·Î¼ÎµÏģÎ¯ Î´Î±
0 8
Î»Îµ Î³Îº
Îµ Î¾
ÏģÏİÎ½ Î¿ÏħÎ½
ĠÏĥÏħÎ¼ÏĨÎŃÏģÎ¿Î½ ÏĦÎ±
Îº ÏĦÎ¹ÎºÎŃÏĤ
ĠÏĢÏģÎ¿ÏĭÏĢÎ¿ Î¸ÎŃÏĥÎµÎ¹ÏĤ
ĠÎ±ÏĢÏĮ Î´Î¿ÏĥÎ·
Î¿ Î¼Î±Î¹
ĠÎ¼Î¿Î¹ ÏģÎ¬
ÏĦÎ· ÏģÎ¯Î±
ĠÎļÎ± Î¸Î·
ĠÏĥÏħÎ¼Î¼ÎµÏĦÎŃ ÏĩÎ¿ÏħÎ½
ĠÎ´Î·Î¼Î¹Î¿ÏħÏģÎ³ Î®ÏĥÎµÎ¹
ÏģÎ¹Ïĥ ÏĦÎµÎ¯
ÏĦÎ¿Ïį ÏĥÎ±Î½
ĠÏĥ Î®
Ïħ Î¸
ĠÎ¶ Î¬
ĠÎµÎ¹Î´ Î®ÏĥÎµÎ¹ÏĤ
ĠÏĩÎ¹ Î»Î¹
5 00
ĠÏĥÏħÎ½Î± Ïħ
ĠÏħÏĢÏĮ ÏĪÎ·
ĠÎł ÏģÎŃÏĢÎµÎ¹
ĠÎĳ Îł
ĠÏĥ Î¹Î´
ĠÎ¿ Îº
Î± Î±
ĠÎ±ÎºÏĮ Î»Î¿Ïħ
ĠÎ±Î¾Î¹Î¿ Î»ÏĮÎ³Î·ÏĥÎ·
ĠÏĢÎ¿Î»Î» ÏİÎ½
ĠÎ¯Î´ ÏģÏħ
Ïī Î¸Î¿ÏįÎ½
ĠÎŃÏĢÎµ ÏĥÎµ
ÏĦÎ· ÏĦÎŃÏĤ
ĠÏħÏĢÎ¿ Î³ÏģÎ¬
ĠÏĢÏģÎ¿ ÏĦÎµÏģ
Î¼Î²Î¿Ïħ Î»Î¿ÏĤ
ĠÏĥÎºÎ·Î½ Î®
Î½ÏĮ ÏĦÎ·ÏĦÎ±
ĠÏĨÎŃÏģ Î½ÎµÎ¹
ĠÏĥÏħÎ¼ÏĢ Î»Î®
ĠÏĨÎ±Î¹Î½ÏĮ Î¼ÎµÎ½Î¿
ĠÎ³ Î¿
ĠÎķÎ»Î»Î·Î½ Î¹ÎºÎ¿Ïį
t on
ĠÎ±ÏĦ Î¼ÏĮ
ĠÎ§ÏģÎ¹Ïĥ ÏĦÎ¹Î±
ĠÏĥÏĩ Î®Î¼Î±
ĠÎ±Î³Î± ÏĢÎ¬
ĠÏĩÏģÎ·ÏĥÎ¹Î¼Î¿ÏĢÎ¿Î¹ Î¿ÏįÎ½
Î¯Ïĥ Î¸Î·
ĠÎ´ÏģÎ¬ ÏĥÎµÎ¹ÏĤ
Î¤ Î¡ÎŁ
Î³ ÎµÎ¹Î±
ĠÎºÎ±Î»Î»Î¹ ÏĦÎµÏĩÎ½
ĠÏħÏĢÎµÏģ Î²Î¿Î»
in ews
Ïĥ Î¿Ïį
ĠÏĢ ÎŃÏģ
Îľ Î¬
ĠÎµÎ»ÏĢ Î¯Î´Î±
ĠÎµÏĢÎ¹ ÏĦÏħÏĩ
Ïĥ ÏħÏĩ
ĠÎ±Î´Ïį Î½Î±
ĠÎĿÎĳ Î¤ÎŁ
ĠÎľÎŃ ÏĥÎ±
k y
Î»ÎµÎ³Î³Ïį Î·ÏĤ
ĠÎºÎ¿Î¼ Î¼Î¬ÏĦÎ¹Î±
ÎŃÏģ Î¼Î±Î½
ĠÏĥÏħÎ³Îº ÏģÎ¿
ec e
ĠÎľ ÎŃÏģ
Î¤Îķ Î£
Î´ ÏĮÏĤ
Î¸Î® ÏĥÏĦÎµ
ĠÎŃÏģÎµ ÏħÎ½ÎµÏĤ
ĠÎµÎ³ ÎºÎµ
ĠÎ±Î³ Î½Î¿
ĠÎķÎ¡ Î¤
ĠÎµÎ¾Îµ ÏĦÎ¬ÏĥÎµÎ¹ÏĤ
ĠÎłÎ± Ïį
Îĺ Îķ
ĠÎ¿Ïħ ÏģÎ±
ĠÎ¾ Î±ÏĨÎ½
ĠÎ±ÏĢÎ¿Î»Ïį ÏĦÏīÏĤ
ot el
h n
ĠÏĥÏħÎ½ÎµÏģÎ³ Î¬ÏĦÎµÏĤ
ĠÏĢÎ±Î½ ÏĦÎ¿Ïį
Î³ ÎµÎ¯
Îº ÏĦÏĮ
ĠÎ² Î¯Î±
á½ ·
ĠÎ·Î³Îµ ÏĥÎ¯Î±
ÏĦÎ¯ Î½Î¿ÏĤ
ĠÎ´Î¹Î´ Î±ÏĥÎºÎ±
Î± Î»Î»Î¬
ĠÎµÎºÏĢ Î»Î·
ĠÎķÎ¹Î´ Î®ÏĥÎµÎ¹ÏĤ
Ïħ ÏģÏĮ
Îº Î»ÎµÎ¹
ÏģÎ¹Ïĥ ÏĦÎ·
ĠÎºÎ± Î½Î±
Ġ ÏģÏįÎ¸Î¼Î¹ÏĥÎ·
ÏĨÎ¯ Î¼ÏīÎ½
ĠÎł Ïį
Îĵ Îĳ
ÎŃ Î¶
ÏģÎµ ÏħÎ½Î±
ÎĽ ÎĻ
ÎĶ Î¹
Î»Î® ÏĪÎµÎ¹ÏĤ
ĠÎĶÎ·Î¼Î¿ ÏĦÎ¹ÎºÎ¿Ïį
ĠÎ³ÏħÎ½Î±Î¹ ÎºÏİÎ½
Ġf or
ĠÎ±Î¯ ÏĦÎ·Î¼Î±
ĠÎ±Îº Î¯Î½Î·
ÏĢ ÏİÏĤ
ĠÏĢÏģÏīÏĦÎ¿Î²Î¿ÏħÎ» Î¯Î±
ÏĦÎ¿ ÏĩÎ®
ĠÎ£ ÏħÏĥ
ÎľÎµ ÏĦÎ±
ĠÎ¹ÏĥÏĦÎ¿ ÏģÎ¹ÎºÏĮ
Îµ ÏĥÏĦÎµ
ĠÏĥ ÏĢÎ¬
ĠÎµÏģÎ³ Î±Î»
ĠÎ±Î½ÏĦÎ¹ ÏĢÏģÎ¿ÏĥÏī
ĠÎµÎ»Î»Î·Î½ Î¹ÎºÎŃÏĤ
ĠÎ´Î¿ Î¸ÎµÎ¯
ĠÎĻ Î´
ĠÎ¼Î± Î¸Î±
Îº Î¬Ïģ
Î³ÏģÎ±ÏĨ Î®ÏĤ
ĠÎ´Î·Î»ÏİÎ½ ÎµÎ¹
ĠÎµÎ³Î³ Ïħ
Ïĩ Î¿Î½ÏĦÎ±ÏĤ
ĠÎ´Î¹Î±ÏĨÎ¿ÏģÎµ ÏĦÎ¹ÎºÎŃÏĤ
Î¹Ïĥ Î¼ÏİÎ½
ĠÎµÎ½ÏĦÎ¿ ÏĢ
ĠÎ±Î¾ Î¯Î±ÏĤ
ĠÎµÎ¾ ÎµÎ¹
ÎºÎµ ÏħÏĥÎ·
ĠÎµÎ¾Î± ÏĨÎ±Î½
ĠÎ¸ ÏħÏĥ
ÏĢÎ¯ ÏĥÎµÎ¹
ĠÎłÎµ Î»Î¿
ĠÎµÎºÏĢÏģÏĮÏĥÏī ÏĢÎ¿ÏĤ
ÎłÎ¿Î»Î¹ ÏĦÎ¹ÎºÎ®
Ïİ Î´Î·
201 5
ĠÎ¾Îµ ÎºÎ¬Î¸Î±
ĠÎµ Î¼ÎŃÎ½Î±
ĠÎºÎŃÏģ Î´
ĠÎ±ÏĢÎµÏħ Î¸ÎµÎ¯Î±ÏĤ
ÏĦÎ· ÏģÎ·
ÏĦÎ¯ ÏīÎ½
ĠÏĦÏį ÏĩÎ·
ĠÏĥÏħÎ¼Î² Î¿Î»
ĠÏĦÏĮ ÏĥÎ±
ĠÎ´Î¹Î±ÏĨÎ¿ÏģÎµ ÏĦÎ¹ÎºÏĮ
Î¸Îµ ÏĥÎ®
Ġ gr
ĠÎĶÎ¹Îº Î±Î¹Î¿
Î´ÏģÎ¿ Î¼Î¿
ĠÏĥÏĩÎ¿Î» Î¹Î±
ÎĿ ÎĹ
ĠÎ§ ÏīÏģÎ¯ÏĤ
ĠÎ² Î¯
ĠÎºÎ±Î½ ÎŃÎ½Î±Î½
ĠÎ±ÏģÎ³ Î¬
Îľ Î·Î½
ĠA ir
Î½Î¿ Î¹Îº
ĠÎ¿ Î¼Î¯
Î¸ÎŃ ÏĥÎµÏīÎ½
ĠÎµÏħ ÏĩÎ¬
ĠÎ±Î½Î± ÎºÎ¬Î»Ïħ
ĠÏĪ Î±
ĠÎ±Ïĥ ÏĩÎ¿Î»
Îĵ Î¡Îĳ
ĠÏĢÏģÎ¿ÎºÎ± Î»ÎŃÏĥÎµÎ¹
Î¼Î® ÏĥÎµÎ¹ÏĤ
ĠÎ±ÏĢÏĮÎ»Ïħ ÏĦÎ·
Î¤ÎĻÎļ ÎĹ
ĠÎ¤ ÎµÎ»
ĠÏĥÏħÎ½ÎŃ ÏĢÎµÎ¹
ĠÏĥÏħ Î¼Î¼Î±
ĠÎ½ ÏĦÎµ
ĠÎ´Î¹Î´ Î¬
Î´Î¯Î´ ÎµÎ¹
ĠÏĢÎµÏģÎ¹ÎµÏĩÎ¿ Î¼ÎŃÎ½Î¿Ïħ
Ïĩ Î·ÏĤ
ĠÎ±Î½Î± Î»Î¬Î²ÎµÎ¹
ĠÎ¿Î¼Î¬ Î´ÏīÎ½
ĠÏģÎ¿Ïį ÏĩÎ±
ĠÎŃÏģÎ³ ÏīÎ½
ĠÎ±Î¯ ÏĦÎ·ÏĥÎ·
ĠÎ¿ÏĢÎ¿ Î¯Î±ÏĤ
ĠÎº ÎµÎ¯Î¼ÎµÎ½Î±
ÏĢÎ¿ Î¹Î±
ĠÏĢ Ïį
ĠÎĳÎ¹Î³Î± Î¯Î¿Ïħ
ÎĮ ÏĩÎ¹
ĠÎ´Î¹ Î´Î±
ÏĦ Î¯Î½Î¿Ïħ
Î¯ ÏĦÎ·
ÏĢ ÎµÎ¹ÏĤ
ĠÎ¼Î¹Îº ÏģÎŃÏĤ
ĠÎ² Î®Î¼Î±ÏĦÎ±
ĠÎº Î»Î±Ïĥ
ÏĦÏģÎ¹ ÎµÏĤ
ĠÎĶ ÎĹÎľ
Î»Î®ÏĨ Î¸Î·
Îĵ Î¹
Ïİ Î¸Î·ÎºÎ±Î½
! )
ĠF or
Â» :
ĠÎ²Î¬ Î¸Î¿ÏĤ
ĠÏĥÏĦÏĮ Î¼Î±
ĠÎĶÎ·Î¼ÏĮ ÏĥÎ¹Î¿
Îº ÏģÏĮ
ÎĪ ÏĩÎµÎ¹
ĠÎ¼Î¿ Î¹Î¬Î¶ÎµÎ¹
ou p
ÎļÎ¬ Î¸Îµ
ĠÎ³ÎµÎ½ Î½Î®Î¸Î·ÎºÎµ
ĠÎ¼Îµ ÏģÎ¯
ĠÏĥÏħÎ½ ÏĦÎ¬Î¾ÎµÎ¹ÏĤ
ĠÎłÏģÎ¿ ÎŃ
ĠÎ¶ Î¿ÏħÎ½
ÎŁ Îł
ĠÎµ ÏĨÎ·
b log
ĠÏĥÏįÎ½ Î´ÎµÏĥÎ·
ĠÏĢÎµÎ»Î¬ ÏĦÎµÏĤ
ĠÎµÎ¹ÏĥÎ¿ Î´Î®
Î¼Îµ Î»Î·
Î±Î³Î³Îµ Î»ÎŃ
ĠÎ±Ïħ ÏĦÎ±
ĠÏĥÏĦÏĮ ÏĩÎ¿ÏħÏĤ
ĠÏĥÏħÎ¼ ÏĢÎ±
Î²Î¹ ÏĦÏĤ
ĠÂµ Îµ
ĠÎ²Îµ Î²Î±
ĠÎ´Ïī Î¼Î¬ÏĦÎ¹Î±
Îł ÏģÏİ
ĠÎ¿Î´Î·Î³Î® ÏĥÎµÎ¹
Ïī Î¼ÎŃÎ½Î·
ĠÏĦÏĮ ÏĢÎ¿Ïħ
Ïį Î¿ÏħÎ½
ĠÎµÎ½Î¿ Ïĩ
ĠÎļ Î¿Ïį
ĠÎ¼ÎµÎ³Î¬ Î»Î¿ÏĤ
ÏĢÎ¿Î¹ ÎµÎ¯
ĠÎµÎºÎ´Î· Î»Ïİ
Î¡ Îĵ
ĠÎ¤Îµ ÏĩÎ½
ÎĹ ÎľÎķ
ĠÎ¬ÏĨÎ· ÏĥÎµ
Â» !
Î´ Î¹ÎºÏİÎ½
Î±Î³Ïī Î³
ĠÎ¸Î±Î½Î¬ ÏĦÎ¿Ïħ
Î¼Î¿Î½ Î®ÏĤ
ĠÎµÎº Î¼ÎµÏĦÎ±Î»Î»
Î¸ÎµÎ½ ÏĦÎ±Î¹
ĠÏĢÏģÏī ÏĦÎµÏį
Ġp ro
ĠM ic
ĠÏĩÎ± Î»Î±
ĠÏĥÎ·Î¼Îµ Î¯ÏīÏĥÎµ
ĠÎºÎ»Î· ÏģÎ¿
ĠÎŃÎº Î»ÎµÎ¹
ĠÎ±Ïĥ Î¸ÎŃÎ½
ĠÏĥÎ·Î¼Î±Î½ ÏĦÎ¹ÎºÎŃÏĤ
ÏģÎ¹Î¬ ÏĤ
ĠÎ±ÏģÎ¹ÏĥÏĦÎµ ÏģÎ¬
3 1
Î³ Î¿ÏĤ
ÏĥÏĦÎ¹ ÏĦÎ¿Ïį
ĠÏĨÎ¿Î¹ÏĦÎ· ÏĦÎŃÏĤ
ĠÏĥÏħÎ³Î³ÏģÎ±ÏĨ ÎŃÎ±ÏĤ
ĠÎ´Î¹ Ïİ
ĠÏĩÏģÏĮ Î½ÏīÎ½
ĠÏħÎ¹Î¿ Î¸Îµ
Î¼Îµ Î½Îµ
ĠÎ³ÏģÎ±Î¼Î¼ ÎŃÏĤ
ĠÏĢÏħ ÏģÎºÎ±
ĠÏĥÎºÎ¿ ÏĦÏİ
ÏĨ Î±Ïģ
ĠÎ¦ Î¯
Î´Î¿ Î¾
ĠÏĮÎ¼Î¿Ïģ ÏĨÎ·
Îł Î»Î·
Îĳ Îļ
Î½ Î¯Î±
Î»ÎµÏħ ÏĥÎ·ÏĤ
201 3
ÏģÎ¯Î¶ Î¿ÏħÎ¼Îµ
Ïĥ ÏĥÎµÎ¹
ĠÏĦÏģÎ¯ ÏĦÎ·
ĠÏħÏĢÎ¿ÏĥÏĦÎ· ÏģÎ¯Î¶ÎµÎ¹
Î¤ Î©ÎĿ
0 4
Ïģ ÏĦÎµÏĤ
ĠÏĨÏħÏĥ Î¹ÎºÎ®
ĠÎĴÎ±Ïĥ Î¹
ĠÎµÏĢÎ¹ ÏĨÎ¬Î½ÎµÎ¹Î±
ĠÎľ ÎµÎ»
ĠÎ¿Î¹ÎºÎ¿Î³ÎŃÎ½ ÎµÎ¹Î±ÏĤ
Ïĥ ÎºÎµÎ¹
ĠÎ¬ ÏģÎµÏĥÎµ
ĠÎ§ÏģÎ¹Ïĥ ÏĦÏĮ
ĠÏĦ ÏĥÎ±
ĠÎºÎ±Î¸Î·Î¼ÎµÏģÎ¹Î½ Î®
Îķ Î»Î»Î·Î½
ĠÎ±Î½Î± Î½Îµ
ĠÎ¾Îµ ÏĢÎµÏģ
ÏĨ Î¸Î¿ÏįÎ½
ĠT h
Ġd e
ĠÎ±ÏĦÏĮ Î¼ÏīÎ½
ĠÏĥÏħÎ½ÎŃ ÏĢÎµÎ¹Î±
ĠÎºÏī Î´Î¹ÎºÏĮ
ÎĳÏħÏĦÏĮ ÏĤ
ĠÎĳÎ¹Î³Î± Î¯Î¿
ĠÎµÎºÎµÎ¯ Î½Î¿ÏĤ
ĠÎ´Î¹Î¬ ÏĥÎ·
Î¹Î± ÎºÎ®
ÏģÎ¯ ÏĥÎ¿ÏħÎ½
Î¼ Î¼ÎŃÎ½Î±
Îµ ÏĥÎ±Î¹
Ïį Îº
ĠÏĥ Î¬
ĠÎ¦Î¹ Î»Î¿
ĠÎŃÏģÎµÏħÎ½Î± ÏĤ
ÎŃÏģÎ³ ÎµÎ¹Î±ÏĤ
ĠÎ±ÏģÏĩ Î±Î¹Î¿
Î³Ïī Î³Î®ÏĤ
Î® Î½
ĠÎ¿Î¹ÎºÎ¿Î½Î¿Î¼ Î¹ÎºÏĮ
Î»Î»Î±Î³ ÎŃÏĤ
ĠÎ± Î´Î¹Î¬
ĠÏĦÎ±ÏĩÏį ÏĦÎ·ÏĦÎ±
ĠÏĢÎµÏģÎ¯ ÎµÏģÎ³
ĠÎĻ Î±ÏĦÏģ
ĠÎ´Î¯ Ïĩ
ĠÏħÏĪÎ· Î»
ĠÎºÎ»Î¹ Î¼Î±
ĠÎºÎ±Î½ ÎŃÎ½Î±ÏĤ
ĠÎĶ Î¿
y r
ÎĹ Îķ
a il
ĠÏĥ Î¹Ïī
ĠÎłÏģÏī Î¸ÏħÏĢÎ¿ÏħÏģÎ³
Î´ Î¿Î¹
ĠÏĥÏħÎ³ÎºÎŃÎ½ÏĦ ÏģÏīÏĥÎ·
ow s
ĠÎºÎ±ÏĦÎ± ÏĥÏĦÎ¬ÏĥÎµÎ¹ÏĤ
ĠÏĢÏģÎ¿ ÎµÎ´
ĠÏĪ Ïī
ÏĢ Î»ÏīÎ½
ÏĦÏģÎ¿ ÏĤ
ĠÎ¥ ÏĮÏģÎº
ĠÎºÎ¯Î½Î· Î¼Î±
ĠE n
Î¬ ÏģÎ¹
ĠÎ±Î½Î±ÎºÎ± Î»Ïį
ĠÏĢÏģÎ¿ Ïİ
ĠÎĿÎ¿ ÎŃ
ĠÏħÏĢÎ¿Î»Î¿Î³ Î¹ÏĥÏĦÎ®
ĠÎłÎ¿Î»Î¹ ÏĦÎ¹ÎºÎ®
ĠÎ±Î½Î± Î¼Îµ
ĠÎ½ÎŃ Î¿Î¹
Ġ200 7
ĠÎĶÎ¹Îº Î±Ïĥ
ĠÎ¥ÏĢÎ¬ ÏģÏĩÎ¿ÏħÎ½
ĠÏĩÏģÎ·ÏĥÎ¹Î¼Î¿ÏĢÎ¿Î¹ ÎµÎ¯ÏĦÎ±Î¹
Î¿ Î´Î¿ÏĤ
ĠÎ¼ÎµÎ³Î¬Î» ÏīÎ½
ĠÎłÎ¿Î»Î¹ ÏĦÎ¹ÏĥÎ¼Î¿Ïį
; Â»
ĠÎ²Î¹ ÏĦÎ±Î¼
ĠÎµÎ³ÎºÎ±ÏĦÎ± ÏĥÏĦÎ¬ÏĥÎµÎ¹ÏĤ
ĠÎ® Î¾Îµ
ĠÏħ Î³
Î¹Îµ ÏģÎ³
ĠÎ¼ÎµÏĦÎ±Î½Î¬ ÏĥÏĦÎµÏĤ
ÎĽ Î¯
ĠÏĦÏħÏĩ ÏĮÎ½
ĠÎ±Î½Î± ÏĢÏĦÏħ
Î¬Î½ ÏĦÏīÏĤ
ĠÎ±Ïģ Î¼Î¿
ĠÎ¸ÎµÏģÎ¼Î¿ÎºÏģÎ± ÏĥÎ¯Î±
Î½Î¿ÏįÎ½ ÏĦÎ±Î¹
ĠÎµÎº Î´ÏĮ
ĠÏĩÏģÎ· Î¼Î±
ĠÏĦÎ·Î»ÎŃ ÏĨÏīÎ½Î¿
Îĳ Îĵ
Ïĥ Î¼Î¿Ïħ
Î¯Ïĥ Î¼Î±ÏĦÎ±
ĠÎºÎ±Î¸ Î®
Î¯Î± Î½
ĠÎµÏĢÎ¹ ÏĦÎµ
ĠÎ¾Îµ ÏĩÎ¬
ĠÏĦÎµ Îº
ÎłÏģÏĮ Ïĥ
ÏĢÏĮ Î¼ÎµÎ½Î¿
ĠÎ´Î¹Î±ÏĨÎ¿ÏģÎµ ÏĦÎ¹ÎºÎ®
Ïĥ ÎµÎ½
Î³ÎµÎ¹ Î¿
4 6
Î¸ ÎµÎ¹ÏĤ
ĠÏĥÎ¿Î²Î± ÏģÏĮ
Îº Î¹Î¬
ÎĹÎ£ ÎĹ
ĠÎłÎ¿Î» Ïį
ĠÎ¸Îµ Î±ÏĦÏģ
ĠÎĿ Î¹ÎºÏĮ
Î¤Îķ ÎŁ
ĠÎ® Î¼Î¿ÏħÎ½
ĠÏĨ Î¸
ÏģÎ® Î½Î·
Î¬ ÏģÎ¹Î¿
ÏĦÎ¿Ïħ Î³ÎµÎ½
4 8
ĠÎ¸Îµ Î±
ĠÂ ©
ĠÎŁÎº ÏĦÏİÎ²
Î¹Î» ÏĮ
ĠÎ´Îµ Î¾Î¹Î¬
ÏĦÎµÏģÏĮ Î»ÎµÏĢ
ÏģÎ¿ÏĨÎ¿ ÏģÎ¯ÎµÏĤ
ĠÎºÎ¬ ÏĢÎ¿Ïħ
ĠÎ¸ÎµÏī ÏģÎµÎ¯
ĠÎ½Î¿ ÏĥÎ·
Î¸ ÏģÎ±
ĠÎĿ Î¬
Î³Îµ Î¯Î±
ĠÎ¿Î»Î¿ÎºÎ»Î® ÏģÏīÏĥÎ·
ĠÎ±Î½ÏĦÎ¯ÏĥÏĦÎ¿Î¹ ÏĩÎ±
ĠÎļÏİ ÏĥÏĦÎ±
ÎºÎ± ÏĦÎ¿Î¼Î¼
3 7
ĠÎ¿ Î´ÏĮ
ĠÎľÎµ Î³
ĠÏĥÏħÎ³Î³ ÎµÎ½
Î¤Îµ Î»ÎµÏħÏĦÎ±Î¯Î±
ĠÎ´ÏģÎ¬ ÏĥÎ·ÏĤ
ĠÎĳ Î¸Î»Î·
Î½ÏĮ Î·
ĠÎ´Î¿Î»Î¬ ÏģÎ¹Î±
ÏĦ ÏģÎ¹Î¬
ĠÎºÎ±Î¸ Ïħ
ÏĥÏĦÎ· Î¼Î¬ÏĦÏīÎ½
ĠÎŃ ÏĦÎ·
ĠÎ³ÏģÎ¬ ÏĪÎµÎ¹
ĠÎ± ÏĨÎµ
ÏĦÎ¹ Î½Î¿
ĠÎµÏĢ ÏĦÎ¬
ĠÎºÎ±ÏĦÎ¿Î¯Îº Î¿ÏħÏĤ
ĠÏħÏĢÎ¿Ïĩ ÏģÎŃ
Î»Î· ÏĪÎ·ÏĤ
Î²Îµ Î¯Î±
ĠÎĴ ÏģÎ±
ĠÏĩÎ± Î»Î¬
ÏĦÎ¹ Î¼Î¿
r on
ĠÏĨÎ±Î½ ÏĦÎ¬
of t
ĠÏĢ Î»ÎµÎ¹
Î¦ Ïī
ĠÏĦÎ¯ ÏĢÎ¿ÏĦÎµ
Î³ÏģÎ±ÏĨ Î¹ÎºÏĮ
Î³Îº Î¹
ĠÎ±ÏĦÎ¼ÏĮ ÏĥÏĨÎ±Î¹
ĠÎµÎ¯ÏĥÎ¿ Î´Î¿
ĠÎ´ÏįÏĥÎºÎ¿ Î»Î±
ĠÎļ ÎŃÏģ
ĠÎµÎ»ÎµÏħÎ¸Îµ ÏģÎ¯Î±
ĠÏĩÏģÎµÎ¹ Î¬Î¶Î¿Î½ÏĦÎ±Î¹
ĠÎ¼ÏĢÎ¬ Î»Î±
ĠÎ¼Îµ ÏĥÎ¿
ĠÎ±Î½ÎµÎ¾ Î±Ïģ
ÏĨÎŃ Î»Î·
ĠÎ´Î¹Îº Î·Î³ÏĮ
ĠÎµÏģÎµÏħÎ½Î· ÏĦÎŃÏĤ
ÏĨ Î¸Î·ÎºÎµ
ĠÎļ Î¯
ĠÎºÎ¿Î¹ ÏĦÎ¬
ĠÎºÎ±ÏĦÎ± Îº
ĠÎ¼ÎµÏĦÎ± ÏĦÏģÎŃ
ĠÎ±Î½Î± Î¸Îµ
ĠÎ±ÏħÏĦÎ¿ÎºÎ¯Î½Î· ÏĦÎ±
ĠÎ¹ ÏĦÎ±
ÏģÎ± ÏĥÎ·ÏĤ
ĠÎºÎ¬ÏĢÎ¿ ÏĦÎµ
ÎĳÎ½ ÏĦÎ¹
ĠÎŃÎº ÏĦÎ±
ĠÎĳÏħ ÏĦÎ¬
ĠÏįÏĢÎ±Ïģ Î¾Î·
ĠÏĥÏħÎ³Îº ÏģÏĮ
Î¼Î¿ Î¹Î±
ĠÎ²ÏģÎ® ÎºÎµ
ĠÏĢÏģÎ¿Îº ÏįÏĢÏĦÎµÎ¹
in a
ĠÎ´ÏħÎ½Î± Î¼Î¹ÎºÏĮ
Ġ19 5
ĠÎ£ÎµÎ» Î¯Î´Î±
ĠÎķ Ïĥ
ĠÏĩ Î¬ÏģÏĦÎ·
ĠÏĢÏģÎ¿ÏĩÏī ÏģÎ®ÏĥÎµÎ¹
ÏģÎ¹ Î¼
ĠÎ²Î¿ÏħÎ»ÎµÏħ ÏĦÎ®ÏĤ
ÏĦÎ¬ ÏĦÎ±Î¹
Î² Î»Î®
ĠÎµÎ¹Î´ Î¹ÎºÎ®
ĠÎ´Î¹Îº ÏĦÏįÎ¿Ïħ
ÏĦ Î»
Î¯Ïĥ ÏĦÏģÎ¹Î±
ÏĩÎ±ÏģÎ¹Ïĥ ÏĦÏİ
ĠÎ³Î¬ Î»Î±
Îº ÎµÎ¯
ĠÎ¼Îµ Î»Î»Î¿Î½
ĠÎºÎ± Î»Ïħ
ĠÏĨÏĦÎ¬ Î½ÎµÎ¹
ÏĦ Î¯Î´Î±
ĠÎ½Î± ÏģÎºÏī
ĠÎ±Î½ÏĦÎ¯Î´ ÏģÎ±ÏĥÎ·
ĠÎ² Î¿ÏħÎ½
ÏĦÎ· Î¸Î¿ÏįÎ½
ĠÎłÏģÏĮ Î³ÏģÎ±Î¼Î¼Î±
Î´ÏĮ ÏĥÏĨÎ±Î¹
ĠÎľ Î¬Î»Î¹ÏĥÏĦÎ±
ÏĦÎ¹ Î½ÏĮ
Î± ÏĥÎ·
ÏĢÏĮ ÏĤ
ĠÎ¼Î± Î³Î±
gr am
ĠÎĻÏĥÏĦÎ¿ ÏģÎ¯Î±
ĠÎ»Î¹ Î¼Î¬Î½Î¹
ĠÎ´ÏģÏĮ Î¼Î¿ÏĤ
Î¼Î² Î¬ÏĥÎµÎ¹ÏĤ
ÏĦÎŃ Î±ÏĤ
ĠÏĥÏĦÎ± Î´Î¹Î±
Î¼Î²Î± ÏĥÎ·ÏĤ
ĠÎµÎ½ Ïħ
ÏĢÎ¿Î¹ Î·Î¸ÎµÎ¯
ĠÎºÎ± Î¼ÏĢ
Î²Î¬Î» ÎµÎ¹
ÎŃÎ± ÏĦÏģÎ¿
Î© Î¤ÎŁ
ĠÎĶÎµ ÎºÎŃ
e a
ĠÏĥÎµÎ» Î¯Î´ÎµÏĤ
Î²ÎŃÏģÎ½Î· ÏĥÎ·ÏĤ
Î¯Îº Î±ÏĤ
ĠÎ³Î½ÏīÏģÎ¯Î¶ Î¿ÏħÎ¼Îµ
ĠÎ¼ÎµÎ³Î¬ Î»Î·ÏĤ
Ġ[ âĢ¦]
ĠÏĢÏģÎ¿Ïĥ Î´Î¹Î¿
ÏĨÎµÏģ ÎµÎ¹Î¬
ĠÎ¸ÎŃ Î¼Î±ÏĦÎ¿ÏĤ
ĠÎ² Î±Î»
H ome
Î² ÎµÎ½
Î²Î¬Î»Î» Î¿ÏħÎ½
ĠÎµÎºÏĢÎ±Î¹Î´ÎµÏħ ÏĦÎ¹ÎºÏİÎ½
ĠÏĨÎ¬ÏģÎ¼Î± ÎºÎ±
ÎĿ Î±Î¹
ĠÎµÎ½ ÏĦÎ¬
ÏĢÏĮ Î¸ÎµÏĥÎ·
ĠÏĢÎµÏģÎ¹ Î²Î±Î»Î»Î¿Î½
ĠÎłÎ± ÏģÎ¯
ĠÏĪÎ· Î»Î¬
Ġ ÏģÎ¿Ïħ
. "
ĠÏĩÏģÎ·ÏĥÎ¹Î¼Î¿ÏĢÎ¿Î¹ ÏİÎ½ÏĦÎ±ÏĤ
ĠÎ±ÏĢÎ¿ÎºÎ± Î»Ïį
T he
ÎĶ ÎŁ
ĠÏĥÏħÎ½ Î´Î¹ÎºÎ±Î»
ĠÎ±Î½ÏĦÎ¹ÎºÎ± ÏĦÎ±
Ïī Î¼ÎŃÎ½Î¿
Î³Î± Î¼Îµ
ĠÎ±ÏĢÎ¿ÏĨ Ïį
ĠÏĢÎµÏģ Î¹ÎºÎ¿
ĠU n
ĠÎ¿Î´Î·Î³ Î¯ÎµÏĤ
ĠÎ³ÎµÏį ÏĥÎ·
ĠÎ£Î¥ ÎĿ
ĠÎłÎµÏģÎ¹ Î²Î¬Î»Î»Î¿Î½
ĠÏħÏĢÎµ ÏģÎ±Ïĥ
ĠÎ±ÏĨ Î±Î¹
ĠÏĦÏģÎ±ÏĢÎŃ Î¶Î¹
Îł Î·Î³Î®
ĠÎµÎ¾Î¿Ïħ ÏĥÎ¯Î±ÏĤ
ĠÎłÎ±Î½Îµ Î»Î»Î®
Î»Î¹ ÎŃÏĤ
ÏĦÎµÎ¹ Î½ÏĮ
Î ª
Î´ÏĮÏĥÏĨÎ±Î¹ ÏģÎ¿
ĠÏĩÎµÎ¹ ÏģÎ¿ÏħÏģÎ³
ĠÎ¹ÏĥÏĩÏħ ÏģÏĮ
Ïĩ Î¸Î·ÎºÎ±Î½
ÎµÎ½ ÏĮÏĤ
Î½Î¿ Î¼Î·
ĠÏĥÏħÎ½ ÎµÎ¯Î´Î·
ÏīÏģÎ¯ ÏĦÎµÏģÎ±
ĠÏĢÏģÎ¿Ïĥ ÏĨÎ¿ÏģÎŃÏĤ
Î§ ÏģÎ·ÏĥÎ¹Î¼Î¿ÏĢÎ¿Î¹
ĠÎ´ Î¹ÎºÎŃÏĤ
ĠÏĢÏģÎ¿Î²Î»ÎŃ ÏĢÎµÎ¹
ĠÎ¾ Ïħ
ĠÎŃ ÏĨÎµÏģÎµ
Î¬Î½ Î¸Î·
ĠÎ´ÎµÎºÎ±Îµ ÏĦÎ¯ÎµÏĤ
ÏģÎ¹Î¬ Î¶ÎµÎ¹
ĠÎ¤ÏģÎ¬ÏĢÎµÎ¶ Î±
Î¯ ÏĢ
Ïĥ Î¼ÎŃÎ½Î¿
201 4
ĠÎºÎ±Î¸Ïħ ÏĥÏĦÎµ
ĠÎĳÏģÏĩ Î¹ÎºÎ®
ĠÏĥÏħÎ¼Î¼Îµ ÏĦÎ¬
ĠÏĥÎ· Î¼Î¬
ĠÎ¸ Ïį
ÏĢ Î¹Î¿
ĠÏĦÎ± Ïħ
ĠÎ´Ïį Ïĥ
ĠÎ»Î¿Î³ Î¹Ïĥ
ĠÎĳÎ¼ÎµÏģ Î¹ÎºÎ®ÏĤ
ĠÎºÏĮÎ½ ÏĦÏģÎ±
Î¹Î» Î¹Îº
ĠÏĢ Î±Î½Îµ
ĠÎ±Î½ÎµÎ¾ Î¬ÏģÏĦÎ·
Ïİ ÏģÎ³
ĠÎ´ÎµÏħ ÏĦÎµÏģÏĮÎ»ÎµÏĢ
Î² ÎµÏĦÎ±Î¹
ĠÏĢÏģÏĮÏĥ ÏĨÏħÎ³ÎµÏĤ
Î¸ Î±Î½Î±
ĠÎ¤Î¿ ÏĢ
ĠÎ±ÏĢÎ±Î¹ ÏĦÎµÎ¯ÏĦÎ±Î¹
ĠÎºÎ± Ïį
ĠÎķÎ³ Ïİ
Î¯Î´ Î¿Ïħ
ĠÎŁ Îĳ
ĠÎ±Î³ ÎºÎ±Î»Î¹Î¬
9 0
ÏĥÎºÎµ ÏĦ
ĠÎĳÎ³ ÏģÎ¿
T E
ÎĳÏħ ÏĦÎ¬
ĠÎºÎ±Î¸Î± ÏģÎ¬
ĠÎķÎ¸Î½ Î¹ÎºÏĮ
Ïħ ÏĥÎ·ÏĤ
Î ı
Îº Î¬Î»
Î² ÎŃÏģ
ĠÏĢÏģÎ¿ÏĦÎµ Î¯Î½ÎµÎ¹
ĠÎµÎ½ÏĦÎ¿ Î»Î®
ĠÎ´Î¹ ÏĤ
ĠÎ¸ÎŃÎ± ÏĦÏģÎ¿
ĠÎ»ÎµÎ¹ÏĦÎ¿ÏħÏģÎ³ Î¿ÏįÎ½
Î²Î¬Î¸ Î¼Î¹ÏĥÎ·
ĠÎĳÎ½ ÏĦÎ¯
Î³ÎµÎ½ Î½Î±
ĠÎķÏħ ÏģÏīÏĢÎ±
ÏĦÎŃ ÏģÎ¿Ïħ
ĠÏĥÏħÎ½ÎŃÏĢÎµÎ¹ ÎµÏĤ
ĠÎ´Ïİ ÏĥÎ¿ÏħÎ½
Î¯ Î½Î¿Î½ÏĦÎ±ÏĤ
v i
ĠÏĥÏħÎ½ÏĦÎ± Î¾Î¹Î¿Ïį
ĠÎµÏįÎºÎ¿ Î»Î·
ĠÎ§ Î¿
ĠÎ£ ÏĮ
ĠÎ²Îµ Î²Î±Î¹
ĠÎĳÎ»ÎµÎ¾ Î¬Î½
ĠÎķ ÏĥÏīÏĦÎµÏģ
ĠÏĩÏģÎ·Î¼Î±ÏĦÎ¿ Î´Î¿
ĠÎ½Îµ ÏģÎ¬
ĠÎ´Î¹Î±ÏĩÎµÎ¯ ÏģÎ¹ÏĥÎ·ÏĤ
ĠÏĢÎµ Î´Î¯Î±
ĠÎ¼Îµ ÏĦÎµ
ÎĶ Ïį
ĠÎµÏĢÎ¯Î´ Î¿
ĠÏĢÎµÏģÎ¹ ÏĨÎµÏģÎµÎ¹Î±
ÏĢÎµ ÏĦÎµ
Ġ ....
Î¼Î¿ Î½Î±
ĠÏĥÏħÎ¼ÏĢ ÏĦÏİÎ¼Î±ÏĦÎ±
ĠÎºÎ±ÏĦÎ±ÏĥÏĦÎ® Î¼Î±ÏĦÎ±
Î³ Î±ÏĤ
ÏĢ ÏĦÏħÏĩ
ĠÎļÎ± Î¼
ÎĴ Î±Ïĥ
ÏĦÎ¿ÏħÎ³ÎµÎ½ Î½Î¹Î¬
ĠÎºÎ¹Î½Î· ÏĦÏĮ
ĠÎ£ ÏĩÎŃ
ÏģÎ±Î³ Î¼Î¬
A L
ĠÎ±Î½Î¿ Î¹Îº
Î¹ÏĦÎµ ÎºÏĦÎ¿Î½
ĠÏħÏĢÎ®ÏģÏĩ Î±Î½
ĠÎ¤ÎŁÎ¥ Î£
Î¬ ÎºÎ·
ĠÏĥÏħÏĥÏĦÎ® Î¼Î±ÏĦÎ±
Ïģ ÏįÏĢ
ÏĦ ÏģÎµÏį
ĠÎ»ÎµÏī ÏĨÎ¿
ĠÎºÏģÎ¬ ÏĦÎ·
ÏģÎ¯ ÏĥÏĦÎ·ÎºÎµ
ĠÎ¤ ÏĮÏĦÎµ
Î¶ ÎµÎ¹ÏĤ
ĠÎ±Î¹ ÏĦÎ¯Î±
ĠÎķÎ»Î»Î·Î½ Î¹ÎºÎ¬
ĠÏĢÏģÎ¿ÏĥÏİ ÏĢÎ¿Ïħ
Ġ ÏģÎ±Î½
ĠÎ¼Î± Î¼Î¬
ĠÏĩ Î¹Î»
ĠÎ³ Î¹Î½ÏĮ
ĠÎľÎ· ÏĩÎ±Î½
ĠÎ´ÏģÎ¿ Î¼Î¿
ÏĦÎ¬ ÎºÎ¹
ÏĦÏĮ ÏĩÎ¿ÏĤ
ĠÎºÎ¬ÏĦÎ¿Î¹Îº Î¿Î¹
st er
ĠÎķ ÏĢÎ¯
ĠÏĢÏģÏİ ÏĦÎ·ÏĤ
âĨ ³
ĠÎ² ÏĮÎ»
in t
am e
ĠÎ£ ÏĦÎ¿Î½
ÏģÎ¿Ïħ ÏĥÎ¯Î±
ĠÎµÎ¾ ÏĮ
Î³ Î¿ÏħÏĤ
ĠÏĥÏħÎ½ÎµÏĩ Î¯ÏĥÎµÎ¹
m ent
Î»Î· Î¼Î¬ÏĦÏīÎ½
Ïİ ÏĥÎ¿ÏħÎ¼Îµ
Î´Î¿ Îº
ĠÎķÏĢ Î¹Îº
ÏĢÎ· ÏĥÎ·
ĠÎ¤ ÏģÎ¹
ÏģÏĩ Î¿Ïħ
Î»ÏĮÎ³ Î¹Î±
ĠÏĩÎ±Î¼Î· Î»
ĠÎ½ÏĮ Î·Î¼Î±
ĠÏĥÏįÎ½Î¿ ÏģÎ±
ac e
ÎŃ Î¹
ÏģÎ± Î¼Îµ
ÎĮ Î»ÎµÏĤ
is h
ĠÎµÏĢ Î¬Î½Ïī
ĠÎºÎ¬Î»Ïħ ÏĪÎ·
ĠÎºÎ±ÏĦÎŃ Î»Î·
ÏĦÏī ÏĥÎ·ÏĤ
ĠÏĥÏħÎ½ ÎµÎ½
Î¯Î½ Î¹Î±
ĠC l
o k
ĠÎ¼Î¬ Î¸Î·Î¼Î±
ĠÎ´Î¹Î± Î´ÏģÎ¿Î¼Î®
ÏģÎ¹Ïĥ Î±ÏĤ
ĠÎŃ ÏĥÎ¿
ĠÎ¹ÏĥÏĦÎ¿ ÏģÎ¹ÎºÎ®
3 9
ĠÎļÏħ ÏģÎ¹Î±ÎºÎ®ÏĤ
ĠÎ® ÏĦÏĦÎ±
ĠÎ¼Î± ÏĦÎ¹Î¬
ĠÎºÎµÎ½ÏĦÏģ Î¹ÎºÎ®
ĠÎķ Î¼ÏĢÎ¿
Î¶ Î¿Ïħ
ĠÎĵ Îº
ĠÎ²Î¬ ÏĥÎµÎ¹
ĠÎ±Ïĥ Ïį
ĠÎŁÎ»ÏħÎ¼ÏĢÎ¹Î± ÎºÏĮ
Î±Î½ ÏĦÎ±
ĠÎºÎ±ÏĦÎ¬ ÏĥÏĦÎ·Î¼Î±
Î¿Ïģ ÎµÎ¹Î¿
ĠÎĳÏħÏĦÏĮ ÏĤ
ĠÎµÎ³ Ïī
Îļ Î¿
Ġ Ġ
ĠÎŃÏĩ Î±ÏĥÎµ
Îł ÎŃ
ĠÎķÏĢÎ¹ ÏĢÎ»ÎŃÎ¿Î½
ĠÏĥÎ·Î¼ÎµÎ¹ ÏīÎ¸ÎµÎ¯
ĠÎµÏħ ÏĦÏħÏĩ
ÎłÏģÏĮ ÎºÎµÎ¹ÏĦÎ±Î¹
Î² Î¯Î±
Î»Î® ÏĥÎµÎ¹
ÎĿ Îµ
Î¤ Î£
ĠÏĢÎ¿Ïĥ ÏĮÏĦÎ·ÏĦÎ±
ĠÎ´Ïİ ÏģÎ¿
ĠÎ¤Î¼Î® Î¼Î±ÏĦÎ¿ÏĤ
ĠÎ´Î¹Î± Î´Î·
ĠÏĢÎµ Î»Î±
Î» Î¯Îº
ĠÎµÏħ Î±Î¹ÏĥÎ¸Î·
Î³Îµ Î»Î¿
ĠÎ¼Î± Î³ÎµÎ¹
ĠÎ¿ Ïį
Ġ3 8
ĠÎŃÎº ÏĢÎ»Î·
ĠÎ»Î® ÏĪÎ·
ĠÏĨ ÎµÏį
Î³Î³ ÎŃ
ĠÏĦÎŃÏĦÎ¿Î¹ ÎµÏĤ
Î¼ÎµÏĦÎ¬ Î»Î»
ÏģÎ¹Ïĥ Î¼Î¿ÏįÏĤ
ĠÎµ Î¼
Îľ Î¯Î±
ÎĻÎĿ Î¤ÎķÎŁ
ĠÎ© ÏĤ
ÏĢÎ¿Ïģ ÏĦÎ¬Î¶
ĠÎµÎ¸Î½ Î¹ÎºÎ®ÏĤ
ÏģÎ¹Ïĥ ÏĦÎ¹ÎºÎ¬
ĠÎ¶ÎµÏħÎ³Î¬ ÏģÎ¹
ĠÎ¿ÏĨÎµÎ¯ Î»ÎµÏĦÎ±Î¹
ÎłÏģÎ¿ Î·Î³
Î¹ Î¿Ïħ
Ïĥ Î¼Î·
Î¹Ïĥ Î±
Ïĥ Î¼Î¿Î¯
ĠÏĢÎµÏģÎ¹ Î¼ÎŃÎ½ÎµÎ¹
ĠÏĦÎ¿ Î¼ÎµÎ¯ÏĤ
ul t
Î½Îµ ÏħÏĥ
ÏĦÏī Î¼Î±
Î´Î¯ Î½Î¿
ĠÎµÏĢÎ¹ÏĦÏģÎŃ ÏĢÎµÏĦÎ±Î¹
ĠâĢ ¢
ÏĥÏĦÎ· Î½
ĠÎºÏģÎ¹ ÏĦÎ®ÏģÎ¹Î±
ĠÎºÎ±Î¸Î·Î³Î· ÏĦÎ®ÏĤ
Îľ Îł
Î¹Ïĥ Î¼Î¿Î¯
ĠÏĮÎ¼Î¿Ïģ ÏĨÎ¿
ĠÎ¼ Î¿Ïį
ĠÎ»Î¿Î³Î¿ ÏĦÎµÏĩÎ½
3 2
ĠÎ³ÎµÎ½ Îµ
ÏĥÎºÎµ ÏĪÎ·
ĠÏĦÎŃ ÏĩÎ½Î·ÏĤ
ĠÎķÎº ÏĢÎ±Î¹Î´ÎµÏħ
ĠÏĥÏĦÎ¬ Î´Î¹Î¿
ĠÏħÏĢÎ¿ÏĩÏģÎµ ÏİÏĥÎµÎ¹ÏĤ
ĠÎ½ÏĮ Î¼Î¿ÏĤ
ĠÎĽÎ¬ ÏģÎ¹ÏĥÎ±ÏĤ
Ġ3 2
ĠÎ±Î½Î± ÏĨÎŃÏģÎ¿ÏħÎ½
Î±Î½ Î¸
Î¶ Î¹Î¬
ĠÎ³Î¹Î¿Ïģ ÏĦÎ®
ĠÎºÎ¿ ÏĢÎŃ
Î© ÏĤ
ĠÎłÎ±ÏģÎ¬ Î»Î»Î·Î»Î±
ĠÎ±Î½ÏĦÎ¯ Î¸ÎµÏĥÎ·
ĠÎ±ÏĢÎ±Î¹ ÏĦÎ®ÏĥÎµÎ¹ÏĤ
ĠÏĢÎ® ÏģÎ±Î½
Î´ÎµÎ¹ÎºÎ½ ÏįÎµÎ¹
ĠÎµÏĢÎ±Î³Î³ÎµÎ»Î¼Î± ÏĦÎ¯ÎµÏĤ
ĠÎ¼Î® ÎºÎ¿ÏĤ
Î´ Î¿ÏįÏĤ
ĠÏĮÎ¼Î¿Ïģ ÏĨÎ±
Î¬Î½ Î¿Ïħ
ĠÏĢÏģÏĮÏĥ Î¸ÎµÏĥÎµ
ĠÎ±Îº Î¹Î½Î®
ÎºÎµ Î¯Î±
m l
Î´Ïħ ÏĥÎ·
ĠÎ¼Î±Ïį ÏģÎ¿
ĠÎĳÎ³ Î¯Î±ÏĤ
ĠÎµÎ¸Î½ Î¹ÎºÏĮ
ÎŃ ÏĦÎ±Î¹
ĠÎµÎ½Î´Îµ ÏĩÏĮÎ¼ÎµÎ½Î¿
ig n
ĠÎ±Î½ÏĦÎ¹Î´ÏģÎ¬ ÏĥÎµÎ¹ÏĤ
Î¸Î® ÎºÎ±Î¼Îµ
ĠÎł ÎµÏģ
ĠÏĢ ÏģÎ±
ĠÏĢÎ¯Ïĥ ÏĦÎ·
ĠÎłÎµÏģÎ¹ ÏĨÎŃÏģÎµÎ¹Î±
Î´Î¹ Ïī
ĠÎ´Î¹Îº ÏĦÏį
ĠÎŃ Î»Î±Î²Îµ
ĠÏĥÏħÎ½Î± Î´ÎŃÎ»
ĠÎ³ Î·ÏĤ
ĠC om
ĠÎµÎ»ÎµÏįÎ¸Îµ ÏģÎ·
ĠÎ´Î¹Î±Ïĥ ÏĨÎ±Î»
er t
ĠÎµÎ¼ÏĨÎ±Î½ Î¯Î¶Î¿Î½ÏĦÎ±Î¹
ÏĢ ÏĦÎ¿
Î¬Î½ ÎµÎ¹Î±
ĠS uper
ĠÎ´Ïī Î¼Î¬ÏĦÎ¹Î¿
ĠÏĢÏģÎ¿Î·Î³ Î¿ÏįÎ¼ÎµÎ½Î¿
Î©Î£ ÎĹ
Ġ ÏģÎ®
ol d
Î¯ÏĥÏĦÎ± ÏĦÎ±Î¹
ÎķÎ³ Ïİ
ĠÎ²Î±Ïĥ Î¹ÎºÎ¬
ĠÎŃ Î¼ÏĨ
ĠÎ¿ Î½ÎµÎ¹
Î´Î· Î¼Î±
Î¼ ÏĪÎ·
ĠÎĵÎµÎ½ Î¹ÎºÎ®
ĠÎ»Î± ÏĩÎ±Î½
ĠÎĶ Î±
ÏĢ ÏĦÎ¹ÎºÎ®
ĠÎ±Î½ Î·
ĠÏĮ Î½Î¿Î¼Î¬
Î¯ Î»Î¹Î±
E W
ĠÏĥÎµ Ïģ
ĠÎ¤ ÏĥÎ¹
ĠÎ¼ Î¿Î»
ĠÏħÎ³Î¹ ÎµÎ¹
ÎķÎĻ Î¤Îķ
ÏĦÏģ Î¹ÎºÎ®
ĠÎŁ Î¹Îº
ĠÏĥÏĦÎ±Î¼Î± ÏĦÎ®ÏĥÎµÎ¹
Îº ÏĦÎ±ÏĥÎ·
ĠÎµÏĢÎ¹ ÏĦÎŃÎ»Î¿ÏħÏĤ
ĠÎ±ÏĢÎµÏħ Î¸Ïį
ĠÎµÏĢÎ¯ ÏĥÎ·Î¼Î±
ĠÏĥÏĦÎ¹Î³ Î¼Î®ÏĤ
ĠÏĢÎ»Î® Î¸Î¿ÏĤ
ĠÎĽ ÎµÎ¹ÏĦÎ¿ÏħÏģÎ³
ĠÏĢÎ¹Ïĥ ÏĦÏī
ÏģÎ¹Ïĥ ÏĦÎ¹ÎºÏĮ
ĠÎµÎºÎ±ÏĦÎ¿Î½ÏĦÎ¬ Î´ÎµÏĤ
Î¤ Î¥
Î¿ÏħÏĥ Î±ÏĤ
ĠÏĢÎ±ÏģÎ± Î¼ÎŃÎ½Î¿ÏħÎ½
ĠÎ¹ÏĥÏĦÎ¿ ÏģÎ¯ÎµÏĤ
ÏĦÏī ÏĥÎµ
ĠÎ¼Î¹Î»Î¬ Î¼Îµ
ĠÎĶ ÎµÎ»
Î½Î· ÏĥÎµ
Î³ÏģÎ¬ ÏĨÎ¿
ÎľÎµ Î³Î¬
ĠÎµÎºÎºÎ»Î· ÏĥÎ¯Î±
ĠÎ£ Î±ÏĤ
ÏĥÎ¹ ÎµÏĤ
ĠÎ±Î½ÏĦÎ¹Îº ÎµÎ¯Î¼ÎµÎ½Î±
Î¤ÎĻÎļ Îĳ
ĠÏĩÎ¹Î»Î¹ ÏĮÎ¼Îµ
ĠÎĸ Î¬
ĠÏĥÏħ Î»Î»
ÏİÎ½ Ïħ
Î¿ÏħÎ¼Îµ Î½
ĠÎ´Î¹Î± ÏĨÏīÎ½
Î¯Î¶ ÎµÏĦÎµ
ĠÎĴ ÏģÏħ
ĠÎ²Î±Ïģ Ïį
ÏĨÎ¹ Î¼Î±
ĠÎŃÎºÎ± Î½Î±
Î¯ ÏģÎµ
E N
ĠÎŃÎ½ÏĦÎ¿ Î½Î·
ĠÎµÎ½ Î´Î¿
Î´Ïİ ÏĥÎµÎ¹
ĠÎºÎ±ÏĦÎ¬ÏģÎ³ Î·ÏĥÎ·
ÎĿ ÎŃ
ĠÏĢÏģÎ±Î³Î¼Î± ÏĦÎ¿
Î¶ Î¹Î±
ĠÏĦÎ¿ÏĢ Î¹ÎºÎ®
ĠÎķÏģÎ³ Î±
Î¬Ïģ ÏīÎ½
ÏĢÎ¿Î¹ ÎµÎ¯ÏĦÎ±Î¹
Î£Ïħ Î½Î¿
ĠÎºÏĮÎºÎºÎ¹ Î½Î¿
ĠÏĦÎŃ ÏĦÎ±Ïģ
ĠÏĢÎ±ÏģÎ¿Ïħ ÏĥÎ¹Î±
ĠÏĢÏģÎ¿ÏĨÎ±Î½ ÏİÏĤ
ĠÎ»ÎŃ Î³Î¿Î½ÏĦÎ±ÏĤ
ĠÎŃ ÏĢÎ±
ĠÎ±ÎµÏģÎ¿ ÏĢÎ¿
Î¯ ÏĦÎ·ÏĥÎ·
Îµ Î¸Î½
Ïį ÏģÎ¿Ïħ
ĠÎĳ Î½Îµ
ĠÎ£Î±Î¼Î± ÏģÎ¬
Î²Î¬Î¸Î¼Î¹Î± ÏĤ
Î´Ïħ Î½ÎµÏį
ĠÏĢÏģÎ¬ Î¾ÎµÎ¹ÏĤ
ĠÎµÎ½ Î¹Î±
Î½Îµ Î¯Î±
ĠÎºÎ±ÏĦÏĮ ÏĢÎ¹Î½
Î¹Ïĥ ÏĦÎ¹ÎºÎŃÏĤ
ĠÏĥÏħÎ½Î¿ Î´ÎµÏį
ĠÏĥÏĦÎ±Î¸ Î¼ÏĮ
4 7
ĠÎ²Î»ÎŃ ÏĢÎ¿ÏħÎ½
ĠÏĥÏħÎ½ÏĦÎ± Î³Î®
ĠÎķ Ïģ
ĠÎ±ÏĥÏĨÎ¬Î» ÎµÎ¹Î±ÏĤ
ĠÎ±Î½Î® ÎºÎ¿ÏħÎ½
Î¹ Î»Î¿
ĠÎł Î¬Ïĥ
ĠÎļÎ±ÏģÎ± Î¼Î±Î½
Î½Î· ÏĥÎ·ÏĤ
ÏĦÎŃ Î±
ĠÎºÎ¿Î¹Î½ÏĮ ÏĦÎ·ÏĦÎ±
ĠÎĳ ÎºÎ±Î´Î·
ĠÎ¥ÏĢÎ¬ ÏģÏĩÎµÎ¹
ĠÎ£ÏįÎ»Î»Î¿Î³ Î¿ÏĤ
ĠÏĢÏģÎ¿ ÎµÎº
ĠÎµÏĢÎ¹ ÏĦÎ±
an g
ĠÎµÏĢ ÎµÎº
ÏĢÎ¬ Ïģ
ĠÎ±ÏĨÎ® Î½ÎµÎ¹
ÏĢÎ¿Î½ ÏĦÎ±Î¹
ĠÎ¼ÎµÏĦÎ±Ïģ ÏģÏħÎ¸
Îļ Î±Î½
Î¯ ÏĦ
ĠÎĨ Î³Î¹Î¿
ĠÎ¼Î¿ Î¯
ĠÏĢÏģÎ¿ ÎºÎ»Î®
ĠÎ´ÎµÎ» ÏĦÎ¯Î¿
ĠÎ¸ÎµÏī ÏģÎ¿ÏįÎ½
Î² Î»ÎŃ
ĠÎ¼ÎŃ ÏĦÏģÎ¿
Î»Î¬ ÏĦÎ¹
ĠÎŃÎ½ ÏĦÎ±ÏĥÎ·
ÏĦÎ® ÏģÎ±ÏĤ
Î¼Î² ÏģÎ·
un d
Î´ Î¹ÎºÎ®ÏĤ
ÏģÎ¹ ÎµÏĤ
Î»Î» ÏīÏĥÏĦÎµ
ÎŃ ÏĨÎ±
ĠÎµÎ½ Î¸Î¿Ïħ
ĠÎ¿Î¸ÏĮ Î½Î·
Ïĩ Î±Ïģ
ĠÎºÏĮ Î»
ĠÎĮ Î»Î¿Î¹
Ġ Îİ
ĠÏĢÏģÎ¿ Î¼Î·
ĠÎ±ÏĢÎ±ÏģÎ±Î¯ ÏĦÎ·ÏĦÎ±
Ïİ ÏģÎ·ÏĥÎ·
ĠÎ¬Î»Î» Î¿Ïħ
ĠÎľÎŃÏģ ÎºÎµÎ»
ĠÎĵÎµÏģÎ¼Î±Î½ Î¯Î±ÏĤ
ĠÎºÎ± ÏĢÎ½
ÏĨÏħ ÏĢÎ¿ÏħÏģÎ³
ĠÎºÎ± Î»ÎµÎ¯
ĠÏģÎ± Î´Î¹Î¿
ĠÎĶÎ¹ÎµÏħ Î¸ÏħÎ½
ÏģÎ· Î³Î¿
ĠÎŁ Î»Î¿
ĠÎ´Î¹Î±ÏĢÎ¹Ïĥ ÏĦÏİ
ĠÎĳÎ³ Î¯Î±
ĠÎºÎ¿ Î¼Î¼Î¿ÏħÎ½
ĠÎłÎµÏģÎ¹ ÏĨÎŃÏģÎµÎ¹Î±ÏĤ
ĠÏĢÎ½ÎµÏį Î¼Î±
ĠÎŁÎ»ÏħÎ¼ÏĢÎ¹Î± ÎºÎ¿Ïį
ĠÎĮ ÏĥÎ¿
Î²Î±Î» Î±Î½
ĠÎµÏĢÎµÎ½Î´Ïį ÏĥÎµÎ¹ÏĤ
ÏģÏİ Î½Î¿Î½ÏĦÎ±Î¹
ĠÎłÎ¿Î»Î¹ ÏĦÎ¹Ïĥ
ĠÎ±ÏĢÏĮÏĨÎ± ÏĥÎ·ÏĤ
ĠÎ±Î¼ ÏħÎ½
ĠÏĥÏĦÏģÎ±ÏĦÎ·Î³ Î¹ÎºÎ®
ÏįÎ½ Î´ÎµÏĥÎ·
Ïİ ÏĦÎ·ÏĤ
ĠÎ¹ÎºÎ±Î½Î¿ ÏĢÎ¿Î¹Î·
ĠÏĮÏģÎ³ Î±Î½Î±
ÏĦÎµ Î»
ĠÎ±ÏĢÎ±Î¹ ÏĦÎµÎ¯
i b
ĠÎ±ÏĢÎµ Î»ÎµÏħÎ¸ÎŃ
ĠÎµÏĢÎ¹Îº Î±Î¹
Î¯Ïĥ Î¼Î±ÏĦÎ¿ÏĤ
Î¸Îµ ÏĥÎ¼
ĠÏĦÎ¿ Î»
Î´ Î¹ÎºÎ¿
ÎĶ Î¹Î¬
ĠÎµÏĢÎ¹Î»Î¿Î³ Î®ÏĤ
ĠÎ´ Î¹ÏĥÎµ
ĠÎµÏĢ Î±Î½Îµ
ĠÎĽ Îĳ
ĠÎº Î»ÎŃ
ĠÎ±Î´ ÎµÏģ
ĠÏĢÎµÏģÎ¹ Î¸Ïİ
ĠÏĮ ÏĢÎ»Î±
Î³ÏģÎ¬ÏĨ ÎµÏĦÎ±Î¹
ĠÏĩ Î±Î»
Î¹Ïĥ Î¼ÎŃÎ½Î¿
ĠÎµÎºÎ»Î¿Î³ ÏİÎ½
ĠÎ¼Î·Î½ ÏİÎ½
ĠÏĢÎŃ ÏĥÎµÎ¹
ÎºÏģÎ± ÏĦÎ¿
Î¼Î¿ Î½Î¹Î±
Î½Î¿Î½ ÏĦÎ±Î½
Î¼Îµ Î½ÏīÎ½
ĠÏĥÏĦÎ¿ ÏĩÎµ
Îĳ Î³
ĠÎ¼ÎµÏĦÎ± Î»Î»
ĠÎºÎ± Î½ÏĮ
ĠÎ½Î·ÏĥÎ¹ Î¿Ïį
ĠÏĢÏģÎ¿ÎºÎ¬ Î»ÎµÏĥÎµ
ÏĦÎ± Î¾Îµ
ĠÎ±ÏħÏĦÎ¿ÎºÎ¹Î½Î® ÏĦÎ¿Ïħ
ĠÎ¹ÎºÎ±Î½ ÏĮÏĦÎ·ÏĦÎ±
Î¼ÏĢ Î»Îµ
ĠÏĢÎ»Î± ÏĦ
ĠÏħÏĪÎ· Î»Î®
ĠÏĥÏħÎ½Î± Ïģ
ĠÎ¸ÎŃ ÏĥÎµÏīÎ½
ĠÎ¬Î½ ÏĦÏģÎµÏĤ
Ġ ÎĦ
ĠÎļÎ± ÏĦÎµ
ĠÎ´Î® Î¸ÎµÎ½
Ïĩ Î¸Î·
Î¹Î¬ Î¶Î¿ÏħÎ½
ÏĦÎµ Î²Î¿Ïį
ĠÎĶÎ· Î¼Î¹Î¿ÏħÏģÎ³
ĠÏĥÏħ Î»Î»Î±
ĠÎºÎŃÏģ Î´Î·
ĠÏĥÏħ Ïĥ
ic a
ÎµÎ½ ÏĦÏģÎ¿
ÎľÎĳ Î¤Îĳ
ĠÎµÏĢÎ¹ÏĥÎºÎµ ÏĨ
ĠÎĵÎ¹ÏİÏģÎ³ Î¿Ïħ
Î¼Î± ÏĥÏĦÎ±Î½
ĠÎ¡ Î¯
ĠÎ¸Î± Î»Î¬Ïĥ
Î¼Î¹Ïĥ Î¼Î±
3 4
ĠÎ±ÏĢÎ¬Î½ ÏĦÎ·ÏĥÎµ
ÎĮ ÏĥÎ¿
Î²Î± ÏĥÎµ
ĠÎ±ÏĦÎ¼ÏĮÏĥÏĨÎ±Î¹ ÏģÎ±
ĠÎŃ Î¼ÎµÎ¹Î½Îµ
Î© ÏĥÏĦÏĮÏĥÎ¿
ĠÏĢÎ±Î¯ÏģÎ½ Î¿ÏħÎ½
st a
u re
ĠÎł ÎĳÎĿ
ĠÎ¼ÎŃ ÏĥÏīÎ½
Î¤ÎĻÎļ ÎŁ
ĠÎ±ÏĢÎ¿ Î³Î¿
Ġs h
ion s
m er
ÎºÎ¿ Î¼
ĠÎ±ÏģÎº ÎµÎ¯
ĠÎºÎ¿ÏģÏħÏĨÎ± Î¯Î±
E O
ÏĦÎ¬ Î½
ĠÎ¾ÎŃÏģ Î¿ÏħÎ¼Îµ
ĠÏĢÎ¹Î¸Î±Î½ ÏĮ
ĠÎ´Î¹Î±Î¸ÎŃ ÏĦÎ¿ÏħÎ½
ĠÎº ÎŃÎ½ÏĦÏģÎ±
sp ot
ĠÎł Î±Î¹
Ġ ÏģÏİ
ĠÎµÎ³ Î³ÏģÎ±ÏĨÎ®
ĠÏĢÎ±Î½ÎµÏĢÎ¹Ïĥ ÏĦÎ·
ĠÎ·Î»ÎµÎºÏĦÏģÎ¿Î½ Î¹ÎºÎ®
ÏģÎ±Îº ÏĦÎ·
ĠÏĢÏģÎ¿Î² Î¿Î»Î®
ĠÎºÎ¬Î½ ÏĦÎµ
ĠÏĩÎ± Î¼ÏĮ
Î¬ ÏĥÎµÎ¹
ĠÏĩ ÏĦÏįÏĢÎ·
ĠÎºÎ±Î» ÎŃÏĤ
ĠÎ½ Î¿Ïħ
Î¸Îµ Ïħ
Î¬ ÎºÎ·ÏĤ
ĠÏĢÎ±ÏģÎ±ÎºÎ± Î»Ïİ
ĠÎ´Î¹Î± ÏĦÏģÎ¿ÏĨÎ®ÏĤ
ĠÎ±ÏĢÎ¿ Î´ÎµÎ¹ÎºÎ½Ïį
ĠÎµÎ¯Î´ Îµ
ÎĶ Îľ
ĠÎºÎµÎ½ÏĦÏģ Î¹ÎºÏĮ
ĠÎ´Î¹ÎµÎ¸Î½ ÎµÎ¯ÏĤ
ĠÎľÎ¹ ÏĩÎ¬
ÏĦÎ¯ Î¸ÎµÎ½ÏĦÎ±Î¹
ĠÎ±Î½Î± ÏĢÎ»Î·ÏģÏī
ĠÎ±ÏĢÎ± Î³Î¿ÏģÎµÏį
Îľ ÎŁ
Î¸ Î¿ÏħÎ¼Îµ
ĠÎºÎ±Î»Î» Î¹ÎµÏģÎ³
ĠÎµÎ»Î»Î·Î½ Î¹ÎºÏİÎ½
Î¸Î® ÏĥÎµÎ¹
201 2
Î³ÏģÎ±Î¼ Î¼Î¬ÏĦÏīÎ½
Îī ÏĦÎ±Î½
Î¸ ÏİÏĤ
ĠÎ±Î¾Î¹Î¿ ÏĢ
Ġ y
ĠÏĢÎµÏģÎ¹ÏĥÏĥÏĮÏĦÎµ ÏģÎ¿ÏħÏĤ
âĢ¦ âĢ¦
ĠÎ¾Îµ ÏĩÎ½Î¬
Î£ Î¿
ĠÏĥÏĦÎ· ÏģÎ¯
Îł ÏģÏī
ĠÏĥÏī ÏĥÏĦÏĮ
ĠÎµÏĢÎ¹ Î¸ÎŃÏĥÎµÎ¹ÏĤ
Î»ÎŃ Î½
ĠÎº Î»Î¹Î½
or k
ĠÏħ Î´ÏģÎ¿
ĠÎµÎ¾Ïħ ÏĢÎ·ÏģÎŃ
ÏĦ ÏģÎ·
ĠÎķÎĽ ÎĽÎĹÎĿ
ĠÎļÎ¹ Î½Î·
ĠÎ·Î¸Î¿ÏĢÎ¿Î¹ ÏĮÏĤ
u g
ĠÎ¼ÎµÎ³ ÎŃ
a h
ĠÎ¬ ÏģÎ±
Î§ ÎķÎĻ
ÏĪ Î¯Î±
1 00
Î»Î± ÏĥÎ·
ĠD e
Î»Î¹ Î¿Ïį
ĠÎŃÏĥÎ¿ Î´Î±
ÏĩÎ½ Î¿ÏħÎ½
ĠÏĢÏİ Î»Î·ÏĥÎ·
ĠÎ´Î¹Î±Î´Î¹Îº Î±ÏĥÎ¯Î±ÏĤ
Î³ ÎºÎµ
Î¼Î¬ ÏĦÎ±
ĠÎ£ Î¯
ĠÏĥ ÎŃÎ½Î±
ĠÎ±Î½Î± ÏģÏī
ĠÎķ ÏĨÎ·Î¼ÎµÏģÎ¯Î´Î±
Î¿Î»Î¬ Î¿Ïħ
ĠÏĥÏħ Ïģ
ĠÎ²ÏģÎ¹ÏĥÎºÏĮ ÏĦÎ±Î½
Î¬ ÏĥÎµÏīÎ½
ĠÏĥÏħÎ³Îº Ïħ
ĠÏĢÎµÏģÎ¹ Î¼ÎŃ
ÏģÎ¹Ïĥ Î±Î½
ĠÎ¿ÏģÎ³Î±Î½ Î¹ÏĥÎ¼ÏĮ
ÎĮ Î»Î¿Î¹
Îµ ÏĦÎ¯Î±
Ġt o
ĠÎ²Î±Ïĥ Î¹Î»
Î¸ÏħÎ½ ÏĥÎ·ÏĤ
ĠÎłÏģÏĮ ÎµÎ´ÏģÎ¿
ĠÎłÏģÎ¿ÏĥÏĦÎ± ÏĥÎ¯Î±ÏĤ
Ġ4 00
ĠÎ¾ ÎŃÎ½
ÎĴ Îĳ
ĠÏħÏĢÎ¿ÏħÏģÎ³ ÏĮ
ĠÏĦÎ± Îº
ĠÎµÏĢÎµÎ¾ÎµÏģÎ³ Î±ÏĥÎ¯Î±
ĠÎµÎ¿Ïģ ÏĦÎ±
ĠÏĨÏĮ ÏģÎ¿Ïħ
Î³ÏģÎ± Î¼Î¼
ĠÎ³ÏģÎ± ÏĢ
ĠÏĦÎµÏĩÎ½Î¿ Î»Î¿Î³Î¯Î±ÏĤ
let ter
ÎºÏĦÎ· ÏĥÎµ
ĠÎ¿Î¹ÎºÎ¿Î³ÎŃÎ½ ÎµÎ¹ÎµÏĤ
ĠÎµÎ³ÎºÎ±ÏĦÎ± Î»ÎµÎ¯
ÏĨÎ¿ Î¯
ĠÎł Î¬Ïģ
Ïĥ Î¿ÏħÏĤ
ĠE x
ĠÎŃÎ¾ ÏħÏĢ
ĠÎĺ ÎŃÎ±ÏĦÏģÎ¿
ÎºÏį ÏģÎ¹Î±
ÏĢ ÏģÏī
ÏĨ Î¯Î±ÏĤ
ĠÏĢÏģÏİ ÏĦÎ¿Ïħ
Î¼Î· ÏĥÎµ
ind ows
ĠÏĢÏģÎ¿Ïĥ ÏĨÏį
âĢ Ķ
ĠÎ¸ÎµÏģÎ±ÏĢÎµ Ïħ
ĠÎ¼ÎŃ Î½ÎµÎ¹
ĠÎ´ÎµÏĥÎ¼Îµ Ïį
ĠÎ³ÎµÎ½ Î¹ÎºÏĮ
ÏĦÎµ ÏĦÎ±Î¹
ĠÎłÏģÎ¿ ÏĥÏīÏĢ
ĠÎŃÎ´ÎµÎ¹ Î¾Îµ
ĠÎ¸ ÏįÎ¼Î±ÏĦÎ±
oc k
ĠÎĴ Îµ
ĠÎ´Î·Î¼Î¿ÎºÏģÎ± ÏĦÎ¯Î±
Îº Î¹Î¿
ĠÎ± ÎºÎ±Î´Î·
Ġ Q
ÏĢÏĮ Î»Îµ
Ïĥ ÏĦÏİ
Ġ15 0
Î¼ ÏİÎ½Î±
ÎĻ ÏĥÏĦÎ¿
ĠÎ´Î¹ÎµÏħ Î¸ÏįÎ½
ÏģÏİÎ½ ÎµÏĦÎ±Î¹
ĠÏĥÏĩÎµ ÏĦÎ¹ÎºÏĮ
ĠÎĳÏĢÎ¿ Ïģ
Ġ20 00
i re
Î¬Î½ Î¿ÏħÎ¼Îµ
Î³Î³ Ïħ
ĠÎŁ Î¹ÎºÎ¿
Î½Î¿Î¼ Î±Î¹
ĠÎ±ÏĢ ÏģÏĮ
ĠÎ±Î¯ Î¼Î±ÏĦÎ¿ÏĤ
ac t
Îĵ ÏģÎ¬
ĠÎĽÎŃ Ïĥ
ĠÏĦÎ¬ ÏĥÎ·
ÏĢÎ¿Î½ ÏĦÎ±ÏĤ
ÏģÎ¹ÏĥÏĥÏĮÏĦÎµ ÏģÎµÏĤ
Ġ: )
ĠÏĢÏģÎ¿ÏĥÏĢÎ± Î¸Î¿ÏįÎ½
ĠÎ´Î¹Î±ÏĦÎ± ÏģÎ±
ĠÎĻÎ½ ÏĥÏĦÎ¹ÏĦÎ¿Ïį
ĠÎ´ÎµÎ¯ Î¾ÎµÎ¹
ĠÎłÎ¿Î»Î¹ ÏĦÎ¹ÎºÎ®ÏĤ
ĠÎ± á½Ĳ
ĠÎł Î¡ÎŁÎ£
Î»ÏİÎ½ ÏĦÎ±ÏĤ
Î¹Î± ÎºÎ¬
ÎºÎ®ÏģÏħ Î¾Î·
ĠÎĴ ÎŃ
ĠÎĳ ÎµÏģÎ¿
ĠÎ±ÏģÏĩÎ± Î¯Î±
Ïİ ÏĥÎµÏĦÎµ
ĠÏĢÏģÎ¿ÏĥÏĦÎ± ÏĦÎµÏħ
ĠÏĩÎ±ÏģÎ±ÎºÏĦÎ·ÏģÎ¹Ïĥ ÏĦÎ¹ÎºÏĮ
ĠÎ¿ Î¾
ĠÎµÎ½Î´Î¹Î± ÏĨÎµÏģÏĮ
Îļ Î¬Î½ÏĦÎµ
ĠÎ¼ÎµÎ³Î±Î»ÏįÏĦÎµ ÏģÎµÏĤ
ĠÎ¥ÏĢÎ¿ÏħÏģÎ³ ÏĮÏĤ
ĠÎĻÏĥÏĢÎ±Î½ Î¯Î±
ĠÎ¾ÎŃÏģ Î¿ÏħÎ½
ÎłÎ±ÏģÎ¬ Î»Î»Î·Î»Î±
ĠÎ£ÏĩÎ¿Î» Î®
ÏģÎ¿Ïħ ÏĥÎ·
ĠÎĶÏħ ÏĦÎ¹ÎºÎ®ÏĤ
ĠÎºÎµÏģ Î´Î¿
Î»ÏĮÎ³ Î¿ÏĤ
Î² ÎµÎ¹Î±
ĠÏĢÎ¿ Î´ÏĮÏĥÏĨÎ±Î¹ÏģÎ¿
ĠÏĮÏĥ ÏīÎ½
ĠÏĥÏĩÎ¿Î» ÎµÎ¯Î¿Ïħ
Î¹Îº ÏİÏĤ
ĠÎļ ÏģÎ±
ĠÎ·Î»ÎµÎº ÏĦÏģÎ¿
ĠÏĢÏģÎ¿ÎºÎ± Î»Î¿ÏįÎ½
ĠÎµÏĢÎ¹ ÏĢÏĦÏİÏĥÎµÎ¹ÏĤ
ĠÎłÎ¬Ïĥ ÏĩÎ±
ĠÎ¡Ïī ÏĥÎ¯Î±ÏĤ
ĠÎºÎ¿Î¹Î½ÏīÎ½ Î¹ÎºÎŃÏĤ
ĠÎ´Î·Î¼Î¿ ÏĨÎ¹
ĠÎ¬Î» Î»Î¿Î½
ÏįÎ½ Î¿ÏħÎ½
Î¼Î± ÏĦÎ¿Î³ÏģÎ±ÏĨ
ĠÎµÏĨÎ±ÏģÎ¼Î¿ Î³Î®ÏĤ
ĠÏĢÎ± ÏĦÎ¬
ĠÎµÏĢÎ¹ ÏĦÏģÎ¿ÏĢÎ®
I A
ÏĥÏĥ ÎµÏĤ
ĠÎĶÎµ Î´Î¿
ĠÎĵ Î·
ĠÎºÎµÏĨÎ¬Î» Î±Î¹Î¿
ĠÎºÎ¹Î½Î· ÏĦÎ¿ÏĢÎ¿Î¹
4 9
ĠÏĩÎ¿ ÏģÎ®
ÎŃ ÏģÎ±ÏĤ
ÏĥÏĥ Î¿Î½ÏĦÎ±Î¹
ÏģÎ¿Ïį ÏĥÎ±Î½
ĠÎ±ÏĢÎ¿ÏĨ ÎµÏį
Î³Î± ÏĢÎ·
4 3
ĠÎ¤ ÎŃÎ»Î¿ÏĤ
ĠÎµ Î»Î±Î¹
Î¯ ÏĥÎµÏĦÎµ
Î³ Î¿Î¹
ĠÏĦÏģÎ±ÏĢÎµÎ¶ ÏİÎ½
ĠÎºÎµ ÏĨÎ±Î»
ĠÏĢÎ±ÏģÎŃ Î¼Î²Î±ÏĥÎ·
ĠÎ´Î¹Î± ÏĨÎ®
ĠÎĶÎ· Î»Î±Î´Î®
ĠÎľÎµÎ³Î¬ Î»Î·
ĠÏĢÎ»Î·Î¸ÏħÏĥ Î¼Î¿Ïį
ÏĦÎ¹Ïĥ Î¼Î¿ÏįÏĤ
ĠÎ±ÏĢÎ¿ ÏĩÏī
ÏĮ ÏĩÎ¹
Ġ j
ĠÎŃÎ´ ÏģÎ±ÏĤ
ĠÏĥÏĩÎµÎ´Î¹Î± ÏĥÎ¼ÏĮ
ĠÎ¼ Î¿Î¹ÏģÎ±
ÎķÎ¯ Î¼Î±Î¹
v id
ĠÎ½Î¿ Î¹ÎºÎ¿
ĠÎºÎ¿Î¹Î½ÏīÎ½ Î¹ÎºÎ¬
ĠÎ²ÏģÎµ ÏĦÎ±Î½
ĠÎ³Î¹Î¿Ïģ ÏĦÎ¬
Î¿ Î¹ÎºÎ¿Î½Î¿Î¼
ĠÎº ÏĦÎ·
Î· ÏĥÎ±Î½
ĠÎĽÎ¿Î½ Î´Î¯Î½Î¿
Î»ÎµÎ¯ Î¿
ĠÎĽ Ïħ
ĠÏĦÎµÏĩÎ½ Î¹ÎºÎ®
ĠÎ± Î´ÎµÎ¹
á¿ ĸ
ÏĦ ÏģÏİ
ĠÎ´Î¯ Î±Î¹
ĠÎ¿ ÏĨÎŃÎ»Î·
ĠÎ¼Îµ Î¸ÏĮ
ĠÎºÎ±ÏĦÎ± ÏĢÎ¿
ĠÎ±Îº ÏģÎ¯
ĠÎ¿ Î¯Îº
ĠÎµÎ¾ÎµÎ¹ Î´Î¹Îº
Î»Î¿Î³ Î¹ÎºÏİÎ½
Î²Î²Î±ÏĦÎ¿ ÎºÏįÏģÎ¹Î±
ĠÏĩÎ¬ ÏĥÎµÏĦÎµ
ĠÎºÏį ÏģÎ¹Î±
m i
ĠÎ¼ÎµÎ³Î¬Î» Î¿Ïħ
Î¼Î¿ Î¹Î²
ÏģÎ±Î³ Îµ
ĠÎ± ÏĨÎ·
ĠÎŃÎ»ÎµÎ³ ÏĩÎ¿ÏĤ
ĠÎµÎ½Î¿ Î¹Îº
ÎĮ Î¼ÏīÏĤ
Ïĥ Î¼ÎŃÎ½Î·
ĠÎ½ ÏīÏģÎ¯ÏĤ
ÏĮ Î½Î±
ĠÎĻ Î¿ÏįÎ½
ĠÎ¼Î¹Î»Î¬ ÎµÎ¹
oo m
ĠÎ¸Îµ ÏĥÎ¼
ĠAn d
ĠÎķ Î½Ïİ
ĠÎºÎ»ÎµÎ¯ ÏĥÎµÎ¹
ĠÏĥÏħ ÏĥÏĦÎ·Î¼Î±
ĠÎº ÏĦÎ»
ĠÎŃ Î´ÏīÏĥÎ±Î½
ĠÏĢÎµÏģ ÏĢÎ±
ĠÎ² Î¹Î±
ĠÎ´Î¹Î±ÏĩÎµÎ¹ ÏģÎ¹Ïĥ
ĠÏĥÏįÎ³ ÏĩÏģÎ¿Î½Î·
ĠÎ¼Î¹Ïĥ ÏĮ
ĠÎ¼Î¿ÏħÏĥ Î¹ÎºÎ®ÏĤ
Îĵ ÎĶÎľ
á¿ Ĩ
;; ;
ĠÏĩÎ¿ÏģÎ· Î³
Î»Î» ÏīÎ½
ĠÎºÏħÎºÎ»Î¿ ÏĨÎ¿ÏģÎ¯Î±ÏĤ
! Â»
ĠÏĦÏħ ÏĢ
5 5
ĠÎ¼Îµ Ïģ
ĠÎľ ÎŁÎ¥
ÏĢÏĮ Î½Î·ÏĥÎ·
Îĳ Î½Î¿Î¯
ĠÎºÎ±Î½Î¿Î½ Î¹ÎºÎ¬
ĠÎµÎ½ Î®
Î¦ ÏħÏĥ
Î»Î± Î¼Îµ
ĠÏĩÏģÎ¿Î½ Î¹Î¬ÏĤ
Î³ Ïĩ
ĠÏĨÏį Î³ÎµÎ¹
ĠÎ¤ ÎĹ
ĠÎºÎµ ÏģÎ±
ÏģÎµÎ¹ ÏİÎ½
ĠÎķ Î»ÎµÏħÎ¸Îµ
ÎłÎ¿ Î¹Î±
ĠÏĢÎ»Î¿Ïį ÏĥÎ¹Î±
ĠÎŃÎ¾ Î¿Î´Î¿
ÏĦÎ±Î¹ Î³
ĠB r
ĠÎł ÏīÏĤ
ĠÎłÎĳ Îķ
ĠÏĢÏĮ Î½Î¿
ĠÎ±Îº Î¿Ïħ
Î¤ ÎŁÎ¥
ĠÎĵÎ¹ÏİÏģÎ³ Î¿
ĠÎļÏħ ÏģÎ¹Î¬
Î´Îµ Î¯Î±
ĠÎ¼ÎµÎ³Î± Î»Î¿
ĠÎ¸Î± ÏħÎ¼Î±
ÏĦÎµ Î½
ĠÎ· Î¼Î¹
Î² ÎµÏĤ
ĠH otel
ÏĦÏİÎ½ ÎµÎ¹
ĠÎ±Î½Î± ÏĨÎŃÏģÎ¸Î·ÎºÎµ
ĠÎ¬ ÎºÏģÎ·
ÏĦÎ¹ ÏĥÎµ
4 1
Î´Î¹Îº Î±Ïĥ
ĠÎ¼Î¿Ïģ ÏĨÎŃÏĤ
ĠÏĩ ÎµÎ¯
ÏĦÏį ÏĩÎ·Î¼Î±
ĠÎ¤Î¿ÏįÏģÎº Î¿Î¹
ĠÎ± Î¼Î±Ïģ
ĠÎłÎ±ÏģÎ± ÏĥÎºÎµÏħ
Î±Ïĥ Î±Î½
ĠÎŃÎ½ÏĦÎ¿ Î½Î±
ÏģÎ¹Ïĥ ÏĦÎ±
Î¬ Î½Î¿Î½ÏĦÎ±ÏĤ
ĠÏĢÎ¬Î½ ÏĦÎ¿ÏĦÎµ
ĠÎĿ ÏĦÎ±
ĠÎºÎŃÏģÎ´ Î¹ÏĥÎµ
ĠÎ¿ ÏģÎµÎ¹
Î¹ Ïĩ
ÏĥÎ¹Î± ÎºÏĮ
Î£ Î±Î½
Îķ ÏĦÎ¹ÎºÎŃÏĦÎµÏĤ
ĠÏĢÎ»Î· ÏĥÎ¹Î¬
ÏħÎº ÎµÎ¯Î¿Ïħ
ĠÎµÎ¾ Î·Î³Î®
Ph one
ĠÎĵÎµ ÏİÏģÎ³
ĠÎłÏģÎ¿ÎŃ Î´ÏģÎ¿Ïħ
Î»Î¿Ïį ÏĥÎ±Î½
ĠÎºÎ±ÏĦÎ¿Î¯Îº ÏīÎ½
ĠÎ±ÏĢÎ¿ÏĦÎµÎ»ÎµÎ¯ ÏĦÎ±Î¹
ĠÎĻÏī Î±Î½
or g
ĠÏĦ Î¶
ĠÏĢÎµÏģÎ¹Î²Î¬Î»Î»Î¿Î½ ÏĦÎ¿ÏĤ
ĠÏħÏĢÎ¬ ÏģÏĩ
ĠÏħÏĪÎ· Î»ÏĮ
ĠÏĮ ÏģÎ¹Î¿
ĠÎļ ÎŃÎ½ÏĦÏģÎ¿Ïħ
ĠÎ»ÎŃ Î³ÎµÏĦÎ±Î¹
Îł ÏģÎŃÏĢÎµÎ¹
ĠÏģÏĮ Î»Î¿ÏĤ
ĠÎ£ÏħÎ½ÎŃ Î´ÏģÎ¹Î¿
Îº ÏģÏį
sta gram
ÏĦÎ· Î¼Î¬ÏĦÏīÎ½
ĠÏģÏħÎ¸ Î¼Î¯ÏĥÎµÎ¹ÏĤ
Î¸ÏįÎ½ ÎµÏĤ
l d
ÎĴ Î¯Î½ÏĦÎµÎ¿
ĠÎºÎ±ÏĦÎ± Î»Î¬Î²ÎµÎ¹
ĠÎłÎ±ÏģÎ¯ ÏĥÎ¹
ĠÎµ á¼
ĠÎĳÎ»ÎŃ Î¾Î·ÏĤ
ĠÎºÎ¿ÏħÎ¶Î¯ Î½Î±
ĠÎ¼ÎµÎ»ÎŃ ÏĦÎµÏĤ
ĠÎĪÎ»Î»Î· Î½Î±
Î¼ÏĨ Î¬Î½Î¹ÏĥÎ·
ĠÎ¾Î±ÏĨÎ½ Î¹ÎºÎ¬
ĠÏĢÎ±ÏģÎ± Î¼Ïį
ĠÎ¹Î´ ÏģÏħ
Ïħ ÏģÎ¯ÏīÎ½
ĠÎ´ÏħÏĥÎºÎ¿Î» Î¯ÎµÏĤ
ĠÏĢÏģÎ¿ÎŃ ÏģÏĩÎµÏĦÎ±Î¹
ĠÏĥÏĦÏģÎ± ÏĦÎ¹
p le
ĠÎļÎŃÏģ ÎºÏħ
ÏĦÏĮ ÏĦÎ·ÏĦÎ±ÏĤ
ĠÎ±Î³ÏģÏĮ ÏĦÎµÏĤ
Îł Î¿Î¹
ĠÏĢÏģÎ¿ÏĥÎŃÎ³Î³ Î¹ÏĥÎ·
ĠÎµ Î¹Î»Î¹Îº
Ïħ ÏĩÎ¿
ĠÎºÎ±ÏģÎºÎ¯ Î½Î¿
ĠÎµÏĢÎ¹ ÏĦÏħÏĩÎ·
ĠÎĶÎ¹Î± Î²Î¬ÏĥÏĦÎµ
ĠÎºÎ±ÏĦÎ± ÏĨÎŃÏģÎµÎ¹
ĠÎľÎŃ ÏĩÏģÎ¹
ĠÎ´Î¿ÎºÎ¹ Î¼Î±
ÏĦÎ¹ ÏĥÏĦÎµÎ¯
ÎĽ Î±
ĠÎµÏĥÏĦÎ¹Î± ÏĦÏĮ
ĠÎĳÎ½Î± ÏĥÏĦÎ±
Î¼Î¯ ÏĥÎµÏīÎ½
ĠÎºÎ¿ÏģÎ¯ ÏĦÏĥÎ¹Î±
ĠÎĴÎ¹Î² Î»Î¹Î¿
ĠÏĥÏĢÎ¹ ÏĦÎ¹Î¿Ïį
ÏĦÎ¯ ÏĥÏĦÎ·ÎºÎµ
ĠÎłÎ±Î½Î±Î¸Î·Î½Î±ÏĬ ÎºÏĮÏĤ
ĠÏĥÏħÎ³ÎºÎµÎºÏģÎ¹ Î¼ÎŃÎ½ÎµÏĤ
ĠÏĢÎµÏģÎ¹ ÏĢÎŃ
on s
ĠÎĳÎ»ÎŃ Î¾Î·
ĠÎºÎ¬ÏĢÎ¿Î¹ Î¿ÏħÏĤ
ĠÎµ ÏģÎ±ÏĥÎ¹
ĠÎĴ Î¹
Ïĩ ÏĦÏħ
ĠÏģÎ± ÏĦÏĥ
Î¤ ÎµÎ»
Î³ÏģÎ±ÏĨ ÎµÎ¯ÏĦÎµ
ĠÎĴ Î¿Ïį
ĠÎ² Î»Î¬Î²
ĠÏĨÎ¿ Î²
ĠÎ´ÎµÏħÏĦÎµÏģÏĮÎ»ÎµÏĢ ÏĦÎ±
ĠÎµÏĢÎŃ ÏĥÏĦÏģÎµ
ĠÏĦÏģÏĮ ÏĨÎ¹Î¼Î±
ĠÏĢÎ±Î³ÎºÏĮÏĥÎ¼ Î¹Î¿
ĠÎ±ÎµÏģÎ¿ ÏĥÎºÎ¬
ĠÎ¿Î»Î¿ÎºÎ»Î·ÏģÏī Î¸ÎµÎ¯
Î£ Îķ
ĠÎµÎ½ÏĥÏī Î¼Î±
ĠAl l
ĠÎºÎ±ÏĦÎµ Î²Î¬
ĠÎĳ ÎķÎł
ÏĢÎ¿Î¹ Î®ÏĥÎµÎ¹
Î² Î±ÏĤ
ĠÎŁ ÎĹÎķ
ÏĨ Î¬Î½ÎµÎ¹
ĠÎĿ ÎµÎ¿
EW S
ÏĦÎ¶ Î±
ĠÎ±ÏĢÎ¿ Ïĩ
ĠÏĢÎ»Î·ÏģÎ¿ÏĨÎ¿ ÏģÎ¹ÏİÎ½
S t
á½ ³
ĠÎºÎ±Ïģ Î´Î¹Î±
ĠÏģÎµ ÎºÏĮÏģ
ĠÎ±Î¾Î¹Î¿ Î»ÏĮÎ³Î·ÏĥÎ·ÏĤ
ĠÎµÎ¾Î±Î¹ÏģÎµ ÏĦÎ¹ÎºÎ®
ÏĦÏģÎ¿ Î¯
at t
ĠÎķÎĽ ÎĽÎĳ
ĠÎĳ ÏģÎ¹ÏĥÏĦÎ¿
ÏĩÎ± Î½Î¿
ĠÎ´Î·Î¼Î¿ÏĥÎ¯ ÎµÏħÏĥÎ·
ĠÏĢÎ±Î½ ÎŃ
ĠÎ´Î·Î¼Î¿ÏĥÎ¹Î¿ Î½Î¿Î¼
ĠÎ³Î»Ïħ ÎºÏĮ
ĠÎµÎ¹Ïĥ ÏĮ
ĠÏĨÎ¯ Î»Î¿ÏĤ
ik e
ĠÎĨÎ³ Î¹Î¿ÏĤ
ĠÎĴ Ïħ
ĠÎµÎ¹ÎºÏĮ Î½Î±ÏĤ
ÏģÎ¹ Î¶Îµ
ĠÏĥÏħÎ¶Î· ÏĦÎ®ÏĥÎµÎ¹ÏĤ
ĠÎ±ÏĢÎ±ÏģÎ±Î¯ÏĦÎ· ÏĦÎ·
Ġ3 3
ĠÎµ ÏĨÎ¿
ĠÎ½ Î¬
ĠÏĨÏĮ ÏģÎ¼Î±
ĠÎ¯Î´Î¹ ÎµÏĤ
Î² Î»Îµ
ĠÏĥÏħÎ¼Î¼ÎµÏĦÎŃ ÏĩÎµÎ¹
ĠÎµÎº Î¼ÎµÏĦÎ¬Î»Î»
Ġ4 8
e ar
ĠÎ¸ ÎµÏĤ
ĠÏĦÏħ ÏĩÎµ
Î¥ÏĢÎ¬ ÏģÏĩÎ¿ÏħÎ½
ĠÏĩ Î¸ÎµÏĥÎ¹
ÏĦÎ® Î¸Î·ÎºÎ±Î½
ĠÎµÏĢÏĮ Î¼ÎµÎ½Î±
ĠÎ¿Î¼Î¿ÏģÏĨ Î¹Î¬
ĠÎ² ÏģÎµÎ¹ÏĤ
ĠÎ±Î½Ïī ÏĦÎŃÏģÏī
Î»Î¬ ÎµÎ¹
ĠÏĢÎ¿Î»Î¹ ÏĦÎ¹ÎºÎ¿Ïį
ĠÎºÎ¯Î½Î´Ïħ Î½Î¿ÏĤ
m p
Î®Î¼Îµ ÏģÎ¿
ÏħÎ½ Î®
á¿¶ Î½
ÏĦÎ¿ ÏĢ
Î´ÏģÎ¿ Î¼ÎŃÏĤ
ÏĢ ÏĦÎ¹ÎºÏĮ
ĠÎ£ ÎºÏĮ
Î¼ÏĢ Î¯
ĠÎł ÎŁ
ĠÎľ Î¯
Î»ÎµÎ¯ ÏĤ
ĠÎµÏĢÎ¹ Î´ÏĮ
ĠÏĥ ÏĦÏħÎ»
ĠÏĩÏī ÏģÎ¹Î¬
Ġ3 7
ĠÏħÏĢÎ¿ÏħÏģÎ³ Î¿Ïį
ĠÎ´ ÎŃÎ½
ĠÎºÎ»Î·ÏģÎ¿ Î½Î¿Î¼
ĠÎ¿ÏģÎ³Î¬Î½ ÏīÏĥÎ·ÏĤ
ĠÎĴÎ¿ÏħÎ» Î³
ĠÏĢÎ¹Î¸Î±Î½ ÏĮÏĦÎ·ÏĦÎ±
ĠÏĢÎ¯Î½Î± ÎºÎ±
Î¬Î½ ÎµÏĦÎµ
ĠÎºÏģÎ± ÏĥÎ¯
ĠÏĢÏĮÎ»Îµ Î¼Î¿ÏĤ
ÎºÎ¿Î» ÎµÏĤ
ĠÎµÎ¯Î´ Î·ÏĥÎ·
Ġ ÏģÎ¯Î¶
Ġ â
Î»ÏĮÎ³ ÏīÎ½
ĠÎĨ ÏģÎ·
ĠÎĳ ÎºÏĮÎ¼Î±
Î¼ Î¹Î½
ĠÎŃÎ³Îº Ïħ
ĠÎ¬Î½Î¿Î¹ Î¾Îµ
ĠÎķÏħÏģÏīÏĢÎ±ÏĬ ÎºÏĮ
ĠÎ³ÎµÎ½ Î¹ÎºÎ®
ĠÎºÏħÎºÎ»Î¿ÏĨÎ¿ ÏģÎ¯Î±
ĠÎĶÎ¹ ÎµÏįÎ¸ÏħÎ½ÏĥÎ·
ĠÎºÏģÎµ Î²Î¬
ĠÎŃ Î½Î¿
ĠÏħÏĢÎ¿ Î³ÏģÎ±ÏĨÎ®
ĠÎ³Î½ÏīÏĥ ÏĦÏĮÏĤ
R O
Î» Î¿ÏħÎ½
Ïĩ Î¹ÏĥÎµ
Ïİ ÏĦÎ·
ĠÎ¦ Î¬
ĠÎ¾Îµ ÏĢÎµÏģÎ¬
Ïį ÏģÎ¿
ĠÎ±Î½Î± ÏĨÎŃÏģÎ¿Î½ÏĦÎ±Î¹
ĠÎ±Î½Îµ Î²Î¬
ĠÎļÏħ Î²ÎŃÏģÎ½Î·ÏĥÎ·
ĠÏħÎ»Î¿ ÏĢÎ¿Î¯Î·ÏĥÎ·
ĠÏĩÎ¹Î»Î¹ÏĮÎ¼Îµ ÏĦÏģÎ±
Î´ ÎµÎ¹ÏĤ
ĠÎŃ Î²Î±Î»Îµ
ÏĦÏī ÏĢÎ¿
ĠÎ² Î¿Î»
Î¼Î· ÏĦ
Î² Î®ÏĦÎ·
Î´Î¹ ÏİÎ½
ĠP h
r ip
ĠÎ¼ Î¬Î¶
ÎļÎ± Î»Î·
ĠÎ¦ Î¹Î»
ĠÎ¿ ÏĢÎ¿Î¹
ĠÎ±Î½Î± Î¶Î®ÏĦÎ·ÏĥÎ·ÏĤ
ĠÎ±Î½ÏĦÎ¹Î¼ÎµÏĦÏīÏĢ Î¯Î¶ÎµÎ¹
x it
ĠÎķÎ»ÎŃ Î½Î·
ÎĶ ÎĻ
ĠR es
ÏĦÎµ ÏģÎ¿ÏĤ
Ïĥ ÏĩÎµÎ¹
ĠÎ±ÏĢÎ±ÏģÎ±Î¯ÏĦÎ· ÏĦÎ¿
ĠÎŃÏĥÏĦÎµÎ¹ Î»Îµ
ĠÎ±Î³ ÏİÎ½ÏīÎ½
Î¥ÏĢÎ¬ ÏģÏĩÎµÎ¹
Î¼Î¹ ÏİÎ½
201 1
ĠÏĢÏģÏī ÏĦÎµ
ĠÎ¿ÏģÎ¹Ïĥ Î¼ÎŃÎ½ÎµÏĤ
Î¿Ïģ Ïħ
Îº ÏĦÏİÎ½
ĠÏĢÎ± Î¯Î¶Î¿ÏħÎ½
Îĳ Î½Î¬
Î¯ ÏĦÎµÏĤ
ĠÎĴ ÎµÏģÎ¿
ĠÎ²Î±Ïĥ Î¹
ĠÎ´ Î¬Î½ÎµÎ¹Î±
v iv
ĠÏĥÏħÎ½Î±Î¹Ïĥ Î¸Î·Î¼Î±
ĠÎ¿Î¹ÎºÎ¿Î½Î¿Î¼ Î¹ÎºÏİÎ½
ÎľÎŃ ÏĥÎ±
ĠÎĳÎ¸Î· Î½Î±
ĠÏĥÏħÎ¼Î¼ÎµÏĦÎµÎ¯ ÏĩÎ±Î½
ÎķÎº ÎµÎ¯
ÏĨÏĮ ÏģÎ¼Î±
ĠÎ²Î¿Î·Î¸Î® ÏĥÎ¿ÏħÎ½
ĠÎµÏħ Î¸ÏįÎ½ÎµÏĤ
or y
á½ ´
ĠÎ»Îµ Î³
ĠÎ±Î»Î»Î¿ Î´Î±
Ġ =
ĠÏĢÏģÎ¿ Ïī
Î³ ÏħÏĢ
ĠÎ´Î¹ÏĥÎµ ÎºÎ±ÏĦÎ¿Î¼Î¼
Î¯ ÏģÎµÏĥÎ·
ĠÏĢ ÏģÎµÏĥ
ĠÎ´ Î¯Ïĥ
Î»Îµ Î¾Îµ
ĠÎ±Îº Ïħ
ĠÎµÎ½ ÏĮÏĦÎ·ÏĦÎ±
ĠÎ½Î¿Î¼Î¿ ÏĥÏĩÎŃÎ´Î¹Î¿
ĠÏĢÎ±ÏģÎ±Î¼Îµ Î¯Î½ÎµÎ¹
ĠÎĻ Î·Ïĥ
ĠÏĦÎµÏģÎ¬ÏĥÏĦÎ¹ Î¿
ĠÎ¼Î± ÏĩÎ·
Î¸Îµ ÏĥÎ¯Î±
ĠÎºÎ±ÏĦÎ· Î³Î¿Ïģ
ÏĦÏĥ ÎŃ
Îķ ÏĢÏĮÎ¼ÎµÎ½Î¿
ĠÎºÎ¿Î¹Î½ÏīÎ½ Î¹ÎºÎ¿Ïį
ĠÎľÎ± Îº
Î¹Ïİ ÏĦÎµÏĤ
ĠÎŃ Î¼Î±
ĠÎĳÏĢ ÏģÎ¯
ÎĶÎ· Î¼Î¹Î¿ÏħÏģÎ³
ĠÎ´Î¹Î±Î¹ ÏĦÎ·
ĠÎĳ ÏįÎ³Î¿Ïħ
ĠÏĢÏģÏĮÏĥÏĨÎ± ÏĦÎ·
Î»Î¹ Î¿Ïħ
ĠÎ¼Ïī ÏģÏĮ
Î»Î¹Ïĥ Î¼ÏĮ
ĠÏĥÏħÎ¼ÏĢÎµÏģÎ¹Î»Î±Î¼Î² Î±Î½Î¿
ĠÏĢÏģÎ¿ ÎºÎ»Î·
ĠÎŃ Î»
Î¼Î¬ ÏĦÎ±Î¹
ÎºÎµ ÏĦÎ±Î¹
Ïĥ Î¬Î½
ĠÎ´Î¹Î¿ ÏģÎ¸
ÏĨÎ¹ ÏĥÎ·
ĠÎľÎ·ÏĦÏģÎ¿ ÏĢÎ¿Î»Î¯
ĠÎµÎ¾ÎŃ ÏĨÏģÎ±
I C
ĠÎ»Î¯ ÏĢÎ¿ÏĤ
Ïĥ Î¼ÎŃÎ½Î±
ÎµÏį ÎµÎ¹
ĠÎºÎµÏģÎ´ Î¯ÏĥÎµÎ¹
ĠÎ±Î» Î»Î¿Ïį
a w
ĠÎµÏģÎ³Î±Ïĥ Î¹ÏİÎ½
ĠÎ¿Îº ÏĦÏİ
ĠÎĴÎ±ÏĥÎ¯ Î»Î·ÏĤ
ĠÎĺ Î¬
ĠÎµÎº Î´ÏĮÏĥÎµÎ¹ÏĤ
ĠÎ´ Î¿Ïį
ĠÎ¬ÏģÏĩ Î¹ÏĥÎ±Î½
ĠÎ¼ÏĮÎ½Î¿ Î¹
ĠÎºÎ¬ ÏģÏĦÎ±
ĠÎĹ Î»ÎµÎºÏĦÏģÎ¿Î½
Î²Îµ Î²Î±Î¹
m art
ĠÎ± Î´Î¹Îº
Î»Î® Î½Î·
ĠÎļÎ¿Î¹Î½ÏīÎ½ Î¹ÎºÎ®ÏĤ
ĠÏĥÏįÎ½ ÏĦÎ±Î¾Î·
ĠÎµ Î´Î¬
Î¯Î± ÏĥÎ·
ĠÎµÏħ Î½Î¿
A T
Î§ Îĳ
ĠÎ±ÏħÏĦÎ¿ÎºÎ¹Î½Î® ÏĦÏīÎ½
ĠÏĥÏħÎ¼Î² Î¿ÏħÎ»ÎŃÏĤ
ĠÎ±Î½Îµ ÏĢÎ¹
ĠÎµÎ½Î® Î»Î¹Îº
ĠÎ²Î»ÎŃ ÏĢÎµÎ¹ÏĤ
ĠÎ¦ ÎłÎĳ
ĠÎºÎ±ÏĦÎ¿ ÏĩÎ®
ĠÎļÎ¿ Î¶
ÏĩÎµÎ¯ Î¿Ïħ
E T
ÎµÎ½ Îµ
ĠÎµÏĢ ÎŃÎ½
ĠÎ±Î½Î¿Î¯ Î¾ÎµÎ¹
Î¦ ÎĹ
ĠÎŀ Î¬Î½Î¸Î·
ĠÏĥÏħÎ¼ÏĨÏīÎ½ Î¯Î±ÏĤ
it al
ĠÎĳÏħÏĥ ÏĦÏģÎ±
ĠÎĶ ÎĻ
ĠÏĥÏĩÎŃ ÏĥÎµÏīÎ½
ĠÏĢÎ¿Î»Î¹ ÏĦÎ¹ÏĥÎ¼Î¿Ïį
Î¼Î¿ Î½Ïī
ĠÎºÏħ ÏĢ
ĠÎĿ Î±Î¹
Ïĥ ÏĨÎ±Î¯
ĠÎłÏģÎ¿ Î³ÏģÎ¬
ĠÎ½ ÏīÏģÎ¯ÏĦÎµÏģÎ±
ĠÎ½ ÏĦÏĮ
ĠÎºÏį ÏģÎ¹Î¿ÏĤ
Î¿ ÎºÎ¿
ĠÎ½ÎµÎºÏģÎ¿ Î¯
Î¸Î® ÎºÎ·ÏĤ
ÎĴ ÎĳÎ£
ĠÎ±ÏĨÎ® ÏĥÎµÎ¹
ĠÎ½Î¿Î¹ÎºÎ¿ ÎºÏħ
ĠÎ·Î»ÎµÎºÏĦÏģÎ¿Î½ Î¹ÎºÏĮ
ĠÎ±Î¹ Ïĩ
ĠÎ¿Î½Î¿Î¼Î± ÏĥÎ¯Î±
ĠÏĢÏģÎ¿ÏĥÎ±Ïģ Î¼Î¿
ĠÏĢÏģÎ¿ÏĥÏīÏĢ Î¹ÎºÏİÎ½
ĠÎľÏĢÎ¿ ÏģÎµÎ¯ÏĦÎµ
ĠÎºÏħÎ²ÎµÏģ Î½Î®
Î¹Î² Î±Ïĥ
19 8
ĠÎ¸ÎµÏī ÏģÎ¯Î±
ĠÎºÎ±ÏĦÎ±ÏĥÎºÎµÏħ Î®ÏĤ
Î¤ ÎĻÎĳ
ĠÎ¶Î¬ ÏĩÎ±ÏģÎ·
Î¬Î» Î»Î¿Î½
Î´Î¿ ÏĥÎ¯Î±
Ġn ews
ÎĪ ÏĩÏī
ĠÏĨ ÏĦÏİ
ÏħÏĥ Î¯
ĠÏĮÎ½ÎµÎ¹ ÏģÎ¿
ÏģÏĩ Î¯Î±ÏĤ
ĠÎĽ Ïį
ĠÎ§ÏģÎ¹ÏĥÏĦÎ¿Ïį Î³ÎµÎ½Î½Î±
ÏĨ ÎµÏį
Î»Ïī ÏĥÏĥ
ĠÎĳÎ½ Î´
Î¼Î¼ Ïį
ÏĦÎŃ Î»ÎµÎ¹
Î± Î¯ÏĥÎ¸Î·
Ġ200 4
Ġc h
ĠÎµÏħ ÎºÎ¿Î»
ĠÎ´Î¹ÏĢ Î»ÏīÎ¼Î±
ÏĮ Î¼ÎµÎ½Î¿ÏĤ
ĠÎ´Î¹Î± ÎºÏħ
ĠÎ´Î¹ÎµÎ¸ Î½Î¿ÏįÏĤ
Î§ ÎĹ
ĠÏĩ Îµ
ĠÏĢÎ¿Î»Î¹ ÏĦÎ¹ÎºÎ¿Î¯
ĠÏĥÏį Î»Î»Î·
ĠÏĢÎ¿Ïģ ÏĦÎ¿
ĠÎļ ÎĳÎĿ
ĠÎ¼ÏĢÎ® ÎºÎµ
Ïģ Î¹ÎºÏĮÏĤ
ĠÎ±Î½Î¿Î¯ Î³ÎµÎ¹
ÏĥÏħ Î³Îº
ĠÎµÎºÎµÎ¯ Î½Î±
ĠÎĹ Î¼ÎŃÏģÎ±
Î¾Î¹ Î¼Î¿
Î· ÏģÎ¿
ĠÎ¿Î´Î·Î³ Î¿ÏįÎ½
ĠÎ¼ Î¯Î±ÏĤ
ĠÎµÏģÏī ÏĦÎ®Î¼Î±ÏĦÎ±
Î¯ ÏīÏĥÎ·ÏĤ
ĠÏĢ Î»ÎŃ
gr oup
ĠÎ±Î½Î± ÏĢÎ·
im e
Î¾ Î¯Î±ÏĤ
ĠÎºÎ±ÏģÎ¹ ÎŃÏģÎ±
ĠÎ¸ÎµÏī ÏģÎ·
ĠÏĥÏį Î»Î»Î¿Î³
ĠÎ§ ÎµÎ¹
ÏĥÏĢÎ± ÏĥÎ¼Î±
Ġ al
Î± ÏģÏĩ
ĠÎ±ÏĢÎµÏģÎ³ Î¯Î±
ĠÏĢÎµÏģÎ¹ÏĥÏĦÎ± ÏĦÎ¹ÎºÏĮ
Î³ÏģÎ±ÏĨ Î¹ÎºÎ®
ÎŃÎ» Î¸ÎµÎ¹
ÏĢÎ¿Î¹ Î®ÏĥÎµÎ¹ÏĤ
ĠÎ±Î½Î¸ÏģÏİÏĢÎ¹ Î½Î·
ÎłÎ¿ Î¹Î¿ÏĤ
ĠÎ±Î½Î± Î´ÎµÎ¯
Î»Î¹ ÏĢ
ĠÎŃÎ² Î³Î±
Î¸ÎµÎ¹ Î¬
ĠÏĦÏģÎ±Î³ Ïī
ĠÎ¨ ÏħÏĩ
Ġi Phone
ÏģÎ® Î¸Î·ÎºÎµ
ĠÏĢÏģÏīÏĦÎ±Î¸ Î»Î®Î¼Î±ÏĦÎ¿ÏĤ
ĠÎº ÏĦÎ¹
ÏħÏĥ ÏĦÎŃ
ĠÏĢÎµÏĦÏģÎµ Î»Î±Î¯Î¿Ïħ
ĠÎ³Ïħ Î±Î»
Î»Î¿Î³ Î¹ÎºÎ¿Ïį
ĠÎ£Ïħ Î½Î¿
ĠÎ¬Ïĥ ÎºÎ·
201 0
ÏĨÎµÏģ Î¸ÎµÎ¯
ĠÏģÏħÎ¸ Î¼ÏĮ
Î¹Îº Î¬Î½
I T
ĠÏĢÎµÏģÎ¹ Î¼ÎŃÎ½Î¿ÏħÎ½
ĠÎºÎ¹Î½Î· Î¼Î±ÏĦÎ¿
ĠÏĩ ÏģÎµÎ¹Î±
Î§ ÏīÏģÎ¯ÏĤ
ĠÎ¾ ÏħÏĢ
ÏĦÎ¹ ÏĥÎ·ÏĤ
Î¡ ÎķÎ£
ĠÏĥÏĦÎµ Î»Îµ
ĠÎ¶Î· ÏĦÎ®ÏĥÎµÎ¹
ĠÎºÎ¿Ïħ ÏĦÎ±
in i
ÏĦÎµÎ¹ Î¿
ĠÏĮÏĢÎ¿ Î¹Î±
ĠÎľ Î±Î³
ĠÎµÎºÎµÎ¯ Î½Î¿ÏħÏĤ
ĠÎĳ ÎłÎķ
ĠÎ±Î½Î±Î³Î½Ïİ ÏĥÏĦÎµÏĤ
ÏĨÎŃÏģÎ¿Î½ ÏĦÎ±ÏĤ
ÎłÏģÎ¿Î·Î³ Î¿ÏįÎ¼ÎµÎ½Î¿
ĠÎŃ ÏĨÏħÎ³Îµ
ÏģÎµ Î¬
ĠÎ£ ÏĢÎ¿Ïħ
Ïģ Î½Î¬
Ïĥ ÎºÎ¹
' s
ĠÏĢ ÏĦÏħÏĩ
ĠÎĿ Î·
ĠÎ±Î» ÎºÎ¿
ĠÎ¶Î· ÏĦÎ¿ÏįÎ½
ĠÏħÏĢÎ¿ÏĩÏģÎµÏī ÏĦÎ¹ÎºÎ¬
ĠÎĳÎ½Î± Ïģ
ĠÎºÎ±ÏĦÎ± ÏĨÎŃÏģ
ĠÎ±ÏĢÎµÎ¹ Î»Î®
ĠÎŁ ÏįÏĦÎµ
Ïħ ÏģÎ¯
ĠÏĨÏħÎ»Î± ÎºÎ®
ĠÏĢÎ¿Î»Î¹ ÏĦÎ¹ÎºÎ¿ÏįÏĤ
et t
ĠÎ¿Î´Î·Î³ ÏĮÏĤ
ĠÎ£ ÏĦ
ĠÎ¼Î·ÏĩÎ±Î½ Î®
ÏģÎ³ Î¿Ïħ
ĠÎĴÏģÎµÏĦÎ±Î½ Î¯Î±
ĠÎºÎ¿ÏģÎ¯ ÏĦÏĥÎ¹
ĠÏĨÏģÎ¬ ÏĥÎ·
ĠÏĢÏģÎ¿Î² Î»Î·Î¼Î¬ÏĦÏīÎ½
ĠÏĥÏħÎ½Î´Îµ Î´Îµ
ĠÎĻÏīÎ±Î½ Î½
ĠÎĳÎ¼ÎµÏģ Î¹ÎºÎ±
ĠÏĢÎ¬ Ïī
ĠÎµÎ¯ ÏĢÎ±Î½
ĠÎ¸Îµ ÏĦÎ¹ÎºÎ¬
ĠÎłÏģÏĮ Ïĥ
Î¼ Î¯Î´ÎµÏĤ
ĠÎ¿Î´Î®Î³Î· ÏĥÎµ
ĠÎºÎ¬ ÏĢÏīÏĤ
ĠÎ² Î¯Î±ÏĤ
ĠÎŃÏģÏī ÏĦÎ±
Îº Ïİ
ĠÏĢÎ±ÏģÎ¿ÏħÏĥÎ¯Î± ÏĥÎµ
Î´Î¹ ÎŃ
ĠÎ²Î¬ Î¶ÎµÎ¹
Î»Î±Î¼Î² Î¬Î½Î¿ÏħÎ½
ĠÎµÏħÎºÎ±Î¹ ÏģÎ¯ÎµÏĤ
ĠÏĦÎ¿Î½ Î¯Î¶ÎµÎ¹
ĠÎºÎ¹Î½ Î´ÏħÎ½ÎµÏį
ĠÎºÏĦÎ¯ ÏģÎ¹Î¿
ĠÏĢÎµÏģÎ¹ Î¼ÎŃÎ½Î¿ÏħÎ¼Îµ
ĠÎ²Î³Î± Î¯Î½ÎµÎ¹
Î¹Ïĥ ÏĦÎ¹ÎºÎ®ÏĤ
Ïĥ ÏĦÎ¿Ïį
ÏģÏī Î¸ÎµÎ¯
ĠÎķ Î¼ÎµÎ¯ÏĤ
ĠÎ² Î³Î¬
Ġp ost
ĠÎµ ÏĩÏī
ĠÏĢÎ¿Î¹ Î½
ĠÏĨÎ¿ Î²Î¬
ĠÏħÏĢÎ¿ÏĩÏģÎŃ ÏīÏĥÎ·
ĠÎĴ Î¿Ïħ
ĠÏĩÏģÎ·Î¼Î±ÏĦÎ¿ Î´ÏĮÏĦÎ·ÏĥÎ·
ĠÎºÏħÎ²ÎµÏģ Î½Î®ÏĥÎµÎ¹ÏĤ
ĠÎ³ÎµÎ½ Î¹ÎºÏĮÏĦÎµÏģÎ±
ĠÎ±Î½ÏĦÎ¹ Î»Î±Î¼Î²
ĠÏĢÎ± ÏĦÏģÎ¹
s s
ĠÎľ Î¯Î±
ĠÎĳ ÏģÎ±Î²
Î£ Î±
ĠÏĥÎµÎ½Î¬ ÏģÎ¹Î¿
n e
ĠÎľ ÏĢÎŃ
ÏĪÎ®ÏĨ Î¹ÏĥÎ¼Î±
ĠÏĢ ÏģÎ±Î³
Î¼ÎŃ Î»ÎµÎ¹Î±
Î¡ÎŁ ÎĿ
ĠÎ±ÏĢÎ¿ Î¸Î·ÎºÎµ
Î»ÎŃ Î¾ÏĦÎµ
Î² Î¯Î½ÏĦÎµÎ¿
ĠÏĢÎµÏģÎ½Î¬ ÎµÎ¹
Î¹ÏĥÏĦÎ¬ Î½
ĠÎ´Î¹Î± Î¼ÎŃ
Î¼ÏĮ Î½Î¹
ĠÏĢÏģÏĮÏĥ Î¸Îµ
ĠÏĢÎ¹ÏĥÏĦÎµÏį Î¿ÏħÎ½
Ïĥ ÏĩÎ±
ĠÎ» Î±Î¹
ÏĨÏħ Î³Î®
ÎĽ ÎŁ
á½ ±
ÏĥÏĦÎ± Î»
ĠÎ¿Î¹ÎºÎ¿Î½Î¿Î¼ Î¹ÎºÎŃÏĤ
ÏĢÎµ ÏģÎ¯
ĠT V
ĠÎ´Î¹Î¿ÏģÎ³Î¬Î½ ÏīÏĥÎ·
ĠÎºÎ±Î¹ ÏģÎ¿Ïį
ĠÎļÏīÎ½ÏĥÏĦÎ±Î½ ÏĦÎ¹Î½Î¿Ïį
blog spot
ĠÎ´Î¹Î± ÏĨÎ¸Î¿
Îĳ Ïĥ
ĠÎµÎ¸Î½ Î¹Îº
ĠG r
ĠÏĢÎµ Î¸
ĠÎ³Î½Ïİ ÏĥÎµÎ¹ÏĤ
ĠÎ´Î·Î¼Î¿ÏĥÎ¹ ÎµÏħ
ĠÏĥÏħÏĥÎºÎµÏħ ÎŃÏĤ
E D
ĠÎ½Î¿ Î·
ĠÎł ÏģÎ¹Î½
ĠÏĥÏįÎ½ Î´Îµ
Î¼Î² ÏģÎ¹Î¿ÏĤ
ĠÎķÎ¯ Î¼Î±ÏĥÏĦÎµ
ĠÎµ ÏĦÎ±Î¯
ÏĬ ÎºÎ®ÏĤ
ĠÎ´Î¹Îº Î±
ÏĦÏĥ Î¬
ĠÏĢÎ± ÏĢÎ¿Ïį
ĠÎ¼Î¹Ïĥ Î¸Î¿
ĠÏĩÎµÎ¹ Î¼ÏİÎ½Î±
ĠÎµÏĢÎ¹ Î»ÎŃÎ³
ĠÎ£ÏįÎ½ ÏĦÎ±Î³Î¼Î±
ĠP r
G R
ĠÏĢ ÎµÎ¹ÏĤ
ĠÎ¼Îµ Î¯Î½ÎµÏĦÎµ
j ect
E L
Î´ ÏģÏħ
ĠÎ´Î¿Î»Î¿ÏĨÎ¿Î½ Î¯Î±
ĠÎ² ÏģÎ¿ÏħÎ½
ĠÏĥÏħÎ½Î¬ Î´ÎµÎ»
Î¼ÏĢ ÎµÎ¹
Î± Î¼Îµ
ĠÎ¼Î¬ Î½Î±
ĠÎľ ÏĢÏĮ
ĠÏĢÎ»Î¿ Î¯Î¿
ÏĩÎ¬ ÏĥÎ±ÏĦÎµ
ĠÎĺ Îķ
ĠÎ¿ Î½
ĠÎºÏį ÎºÎ»Î¿
ĠÏĢÎµ Î¶Î¿
ĠÎĳ ÏĢÎ±
ĠÏĢÎ±Î»Î¹ ÏĮ
ĠÎ±Î¾ Î¯ÎµÏĤ
Îķ ÏĢÎ¯
ĠÎĺÎµÎ¿ Î´Ïī
ÏģÎ¹ Îµ
ĠÎ±Î» ÏħÏĥ
ĠÏĦÎ¿ÏħÏģÎº Î¹ÎºÎ®
ĠÎĬ ÏĥÏīÏĤ
ĠÎĻ ÏģÎ¬Î½
ĠÎ¼Î¬ ÏĦÎ¹
Î¶ÏĮÎ¼Îµ Î½Î±
ĠÎºÎ± Ïħ
ĠÏģÎ±Î½ ÏĦÎµÎ²Î¿Ïį
ĠÏĢÏħ ÏģÎ·Î½
ĠÏĩÏĦÏħ ÏĢÎ®
ĠÎłÎ¿ Î¹Î¿ÏĤ
ĠÎµÎ½ ÎŃ
Ġb y
ĠÎ³ÎµÎ½ Î½Î·
Î¼Î¯ ÏĥÎµÎ¹
ĠÎ±Î¸Î»Î· ÏĦÎŃÏĤ
ĠÏĢÏģÎ¿Î²Î»ÎŃ ÏĢÎµÏĦÎ±Î¹
re am
ĠÎĴ ÎµÎ»
ĠÏĢÏģÎ¿ Î±Î½Î±
ĠÎºÎ± ÏĦÎ±Î¹Î³
ĠÎ£Î±Î¼Î± ÏģÎ¬ÏĤ
ĠÎµÎºÎµÎ¯ Î½Î¿Î¹
ÎºÎ¿Î» Î¬
ĠÎµÏĢ Î±Ïģ
ĠÎ´Î¹Î± ÎºÏģÎ¹
ĠÎĶÎ¹Îº Î±Î¹
ĠÏĦÎ± ÎºÏĦÎ¹ÎºÎ®
Î¼ÎµÏģÎ¯ Î´Î±
ĠÎĳÏĢÎ¿Ïģ ÏģÎ®ÏĦÎ¿Ïħ
ĠÏĨ Î¸Î·
ÏĨÏħ Î»Î±Îº
ĠÎĻÎµ ÏģÎ¬
ĠÎ±Î½ÏĦÎ¹ÎºÎµÎ¹ Î¼ÎµÎ½
Î¼ Î¹ÏĥÎµ
ĠÎŃÎºÏĢÎ»Î· Î¾Î·
ĠÏĦÎ¼Î® Î¼Î±ÏĦÎ¿ÏĤ
ĠÏĥÎºÎ·Î½Î¿ Î¸ÎŃ
ĠÎ³Ïį ÏģÎ¿
ĠÏĢÏģÎ¿ÎŃ ÎºÏħ
ÏģÎ¿ Î¼Î±Î¹
ĠÎĵÏģÎ± ÏĨ
ĠÎ¤ ÎķÎĻ
ÎłÎµ ÏģÎ¹ÏĥÏĥÏĮÏĦÎµÏģÎ±
Ïģ ÎµÎ½
ĠÎ±ÎºÎ¿Î»Î¿Ïħ Î¸Î¿ÏįÎ½
ĠÎĺ ÏģÎ·
ĠÏĥÏħÎ½Î±Î¹Ïĥ Î¸Î®Î¼Î±ÏĦÎ±
Ġ ?
Ġf acebook
ĠÎ± ÏģÎµ
ĠW indows
Î¸Î· ÎºÏİÎ½
ÏģÏĮ ÏĦÎ·ÏĦÎ±ÏĤ
ĠÎ¼ Î¯Ïĥ
ĠÎ£Ïħ Î¼ÏĨÏīÎ½
ĠÎ³Î¹Î½ÏĮ ÏĦÎ±Î½
ÎľÏĮ Î½Î¿
ÏĦÎ¬ Î³Î¼Î±ÏĦÎ¿ÏĤ
ÎĶÏį Î¿
Î³Î³ ÎµÎ¹
ĠÎµÎ¾ÎµÎ¹Î´Î¹Îº ÎµÏħ
ĠÎ£ÏĩÎ¿Î» Î®ÏĤ
ĠÎºÎ±Î¸ ÏħÏĥÏĦÎŃ
ĠÏĢÏģÏīÎ¸ÏħÏĢÎ¿ÏħÏģÎ³ Î¿Ïį
ĠÎ³Îµ ÏīÏģÎ³
ÎºÎ± Î»Ïİ
ĠÏĮ ÏģÎ¿ÏĤ
Ïģ ÎºÎµ
ĠÎŁ Î»Î»Î±Î½
ĠÏĥÎµÎ¹ ÏģÎ¬ÏĤ
ÏĢ ÏĦÏĮ
ÏĬ ÎºÎ¿Ïį
ĠÎµ Î¸
Ïħ ÏĩÎ®
ĠÎµÎ½ ÏĦÏįÏĢÏīÏĥÎ·
ĠÎĵÏħÎ¼ Î½Î±
ĠÎł Î±Ïĥ
oc ial
ÏģÎµÎ¹ Î¿
ÎºÎ¬ ÏģÎ¹
Îĳ ÎºÎ¿Î»Î¿Ïħ
ĠÎĽ ÏĮÎ³
ĠÎ¸Îµ Î¼Îµ
ĠÏĥÎ·Î¼ÎµÎ¹ ÏİÎ½ÎµÎ¹
Î¸ÎµÎ½ Î¬
ÏĦÎ¯Î¸Îµ ÏĦÎ±
4 2
ĠÏĥÏħÎ½ÎµÏĩ Î¯Î¶ÎµÏĦÎ±Î¹
ĠÎºÏģÎŃ Î¼Î±
Ġ6 9
ĠÎ´Î·Î¼Î¿ÏĥÎ¯ ÎµÏħÎ¼Î±
âĢ¦ Â»
Î¼ÎŃÎ½Î¿ Î½
ĠÎĿÎ¹ÎºÏĮ Î»Î±
ĠÏĢÎ¿ ÏĦÎ±
ĠÏĥÎºÎ¿Ïħ ÏĢ
ÎľÏĢÎ¿ ÏģÎµÎ¯ÏĦÎµ
ĠÎĨ Î»
ĠÏĨ Î¿ÏįÏģ
ĠÎ´Î¹Î± Î½
ÏĪ Î¿
ÏģÎŃ Î±ÏĤ
ĠÎ´Î·Î¼Î¹Î¿ÏħÏģÎ³ Î¿ÏįÎ½
ĠÏĢÎ±Î¯ Î¾ÎµÎ¹
ĠÎ¼ÎµÏĦÎ± Î²Î¿Î»
ÏĢÎ¿ Î¹Î¿
Î¼Îµ Î¯ÏīÎ½
ĠÏĢÎ® Î³Î±Î¹
ÏĥÏĨÎ±Î¯ ÏģÎ¿Ïħ
p l
ĠÎ¶ Î¿ÏįÎ¼Îµ
ĠÏĥÏįÎ¶ ÏħÎ³
Î¬Î» ÎµÎ¹
ĠÎ¸ ÎŃÏģÎ¼Î±Î½
ĠÎ´Î® Î¼Î±ÏģÏĩÎ¿ÏĤ
Îł ÏĮ
ĠN ov
ÎľÎŃ ÏĩÏģÎ¹
ĠÏĥÏħÎ½ÏĦÎ± Î³Î¼Î±
ĠÏĢÎ¿Î¹Îº Î¹Î»Î¯Î±
ĠÎ±Î½ÏĦÎ¹ ÏĢÏģÏĮ
ĠÎºÎ¿ ÏģÎ¹
ĠÎŃ Î¶Î·
ĠÎ¸ÏģÎ· ÏĥÎºÎµ
ĠÏĥÎ¿ Î²Î±Ïģ
ĠÎºÎµÏĨÎ± Î»Î±Î¯Î¿Ïħ
ĠÎ¹Î´Î±Î½ Î¹ÎºÏĮ
Î±Î½Î± ÏĦÎ¿
Î´Î¹ ÎŃÏĤ
ĠÏĮÏĢÎ¿ Î¹Î¿ÏĤ
ĠÎ¼ÏħÏĥ ÏĦÎ¹ÎºÎ¬
Î¬Î» Î¿Ïħ
ÏĨÎµ Î»Î¿ÏĤ
ÏĦÎµ Î¯Î¿
ĠÏħÏĢÎ¿ ÏĪÎ·
ĠÎĿÎ¯Îº Î¿Ïħ
ĠÎłÎ¿ Î¹Î±
Îµ Î»Î»Î·Î½
Î´Î¹ Î¿Ïį
ĠÎ±ÏĢÎ¿Îº ÏĦÎ®ÏĥÎµÎ¹
Î»Î¯ Î½Î¿
ĠÎķÎ¸Î½ Î¹ÎºÎ¿Ïį
ĠÏģÎµÏį Î¼Î±
ĠÎ³ÎµÎ½ Î¹Î¬
Î¼Îµ Î½Î·ÏĤ
ĠÎ´Î¹ÎµÎº Î´Î¹ÎºÎ®
ĠÏĦÎ± Î»Î±Î¹
ĠÏĨÎ¿ÏģÎŃ ÏīÎ½
ĠÎ±ÏģÏĩ Î¹ÏĦÎµÎºÏĦÎ¿Î½
ĠÎ¼Î¹Î» ÏİÎ½ÏĦÎ±ÏĤ
ĠÎ´Î¹Î± ÎºÏģÎ¯
Îĵ Îļ
ĠÎ»Î¬ Î´Î¹
ĠÏĩÏģÎ·ÏĥÎ¹Î¼Î¿ÏĢÎ¿Î¹ Î¿ÏįÎ½ÏĦÎ±Î¹
ĠÎ¼Î¬ Î¸ÎµÎ¹
Î±Î½ ÏĦ
ÏĢÎ¿ Î¹Î¿Î¹
ĠÎµÏĢÎŃ ÎºÏĦÎ±ÏĥÎ·
ĠÎłÎµ ÏģÎ¯
ĠÏĮÎ½ ÏĦÏīÏĤ
ĠÏĥÏħÎ³Îº ÏģÎ¿Ïį
ĠÎºÎ± ÏĦÏİ
ĠÏĨÎ±Î¹Î½ÏĮ Î¼ÎµÎ½Î±
Î»Î» ÎŃÏĤ
ĠÏĩÏģÎ· ÏĥÎ¹Î¼Î¿
ÏĦÎŃ Î¸Î·ÎºÎµ
Ġ7 5
ÏĨ ÏĮÏĤ
Ġ200 6
ÏĮ ÏĦÎ·ÏĦÎ¬
ĠÎ±ÎºÏģÎ¯ Î²ÎµÎ¹Î±
Î»Î» ÎµÎ¯
op yr
ĠÎļÎ± Î½Î±
ÎłÎµ ÏģÎ¯
ĠÏĦÏģÎ¿ ÏĩÎ±
ĠÎ±Î³Î±ÏĢÎ· Î¼ÎŃÎ½Î¿
ĠÏĨÏħÏĥ Î¹ÎºÎ¿Ïį
Î¸ÎŃ ÏĦÎ¿ÏħÎ¼Îµ
ĠÎ¼ÎµÏĦÎ±Î½Î± ÏĥÏĦÏİÎ½
Ïħ ÏĥÎ¹
Î½Î¿ Î¹Î±ÏĤ
ĠÎ±Î½ÏĦÎ¹ÏĢÏģÎ¿ÏĥÏī ÏĢÎµ
e f
ĠÎ´Î¹Î±ÏĢ Î¯Ïĥ
ĠÏĦÎ±Î¹Î½ Î¯Î±ÏĤ
ĠÎµ Î¹ÎºÎ¿Î½
ĠÎµ Î¹ÎºÎ¿
ĠÎµÎºÏĦÎŃÎ»Îµ ÏĥÎ·
ĠÎ²Î³Î® ÎºÎµ
opyr ight
ÎŃÏģÎ± ÏĥÎ¼Î±
ĠÎµÎ³ÎºÎ±ÏĦÎ¬ ÏĥÏĦÎ±ÏĥÎ·
ĠÎ¿ÏģÎ¸ Î¿
ĠÏĥÏĦÎ± ÏĦÎ¹Ïĥ
Î³Îº Î¿Ïħ
Îľ Î¿Ïħ
ĠÏĢÎ¹ÏĥÏĦÎµÏį ÎµÎ¹
Îĵ ÎĻÎĳ
ÏĢÎ¿Î¹ ÎµÏĤ
Î³ÏģÎ¬ÏĨ Î¿Î½ÏĦÎ±Î¹
Î»Î¿ ÎºÎ®
ĠÏĥÏĩÎ¿Î» Î¹Î¬
ĠÎķÏĥÏīÏĦÎµÏģ Î¹ÎºÏİÎ½
ĠÏĦÏģÎ¿ ÏĨÎ¯Î¼ÏīÎ½
ĠÏĢÎ¿ ÏĦÎ¬
Î±Î³Ïī Î³Î®ÏĤ
ĠÏĢÎ»Î¿Ïį ÏĥÎ¹Î¿
ÏģÎ¹Î± ÎºÎ¿Ïį
ÏĨÏħ Î»Î¬
Î» ÏħÎ½
ĠÎ¤ ÎĻ
ĠÎļ Î¿Î»
ĠÏĢÏģÎ¿ÎµÏĦÎ¿Î¹Î¼Î± ÏĥÎ¯Î±
ĠÏĢÏģÏĮÏĥ Î²Î±ÏĥÎ·ÏĤ
Î¸ Î±Î½Î¬
ĠÎ¤Î¹ ÏĤ
ĠÏĩÏī ÏģÎ¹Î¿Ïį
ÏĢ Ïħ
ĠÎ¸Îµ ÏĦÎ¹ÎºÎ®
ĠÎĵÎµ Ïī
ĠÎ´Î¹ ÏĮ
ĠÏĢÏģÎ¿Î¿ÏĢ ÏĦÎ¹ÎºÎ®
Î½Î¿Ïį ÏĥÎµ
ĠÎµÏĢÎµÎ¹ÏĥÏĮ Î´Î¹Î¿
ĠÎ¿Î¹ÎºÎ¿ Î´Î¿
ÏĢÎ¿Î¹ Î¿ÏįÎ½ÏĦÎ±Î¹
ĠÎļ ÎŁ
ĠÎ±Î¾Î¹ÏīÎ¼Î± ÏĦÎ¿Ïį
ĠÎĻÎ± ÏĢÏīÎ½
ĠÎłÎµÏģÎ¹Î²Î¬Î»Î»Î¿Î½ ÏĦÎ¿ÏĤ
Î¹ÎºÎ¿Î½ ÏĮ
ĠÎľÎ¿Î½ Î¬
Î»Îµ Î»ÎµÏįÎ¸Îµ
ĠÏĥÏħÎ½ ÏĮ
ĠÏĥÏħÏĥÏĦÎ± ÏĦÎ¹ÎºÎ¬
ĠÎļÏīÎ½ÏĥÏĦÎ±Î½ ÏĦÎ¯Î½Î¿ÏĤ
ĠÎĳÎ½Î±Ïģ ÏĦÎ®ÏĥÎµÎ¹ÏĤ
ĠÎµÎº Î´Î®
ĠÎ³Î½Ïī ÏĥÏĦÎ¿
ĠB re
ĠÎ² ÏģÏī
ĠÎºÏħ ÏģÎ¹Î¿
ĠÏĦ ÏģÏħ
ĠÎļ Îķ
ÏĮÎ³ ÎµÎ¹Î¿
ĠÎĶÎ® Î¼Î±ÏģÏĩÎ¿ÏĤ
ĠÏĢÎ±Î³ÎºÎ¿ÏĥÎ¼ Î¯ÏīÏĤ
ĠÎĽÎ¬ ÏģÎ¹ÏĥÎ±
ĠÏĢÏģÎ¿Î² Î»Î®Î¼Î±ÏĦÎ¿ÏĤ
ĠÏĢ Î±ÏĤ
ĠÎ² Î»Î¬
ÏĥÏĦÎ¬ ÏĥÎ¹Î¿
oo l
Î»Ïħ ÏĦÎ¹ÎºÎ¬
ĠÎ± ÏĢÎ¬
A C
ĠÏĥÏį Î¼Î²Î¿
ĠÏĢÎ±ÏģÎ¿Ïį ÏĥÎ±
ÎºÎ· ÏģÏį
Î¤ Î©
Î³Î± ÏģÎ¿
ĠM an
ĠÎºÎ±ÏĦÎ¬ ÏĥÏĦÎ±ÏĥÎ·ÏĤ
ĠÏĢÏģÎ¿ÏĥÎµ Î³Î³
Ġ3 9
ĠÏĦÎ¿ÏĢÎ¿ Î¸ÎŃÏĦÎ·ÏĥÎ·
ĠÎ¾ÎŃ ÏģÎµÏĦÎµ
ĠÎ±ÏĢÎ± ÏģÎ¬
Î¡ ÎŁÎ¥
ĠÎ¼ÎµÏĦÎ± ÏĨÎ¿ÏģÎ¬ÏĤ
Î³ÏģÎ±ÏĨ ÎµÎ¯
Î¤Î¹ ÏĤ
ĠÏĢÏģÎ¿Ïİ Î¸Î·ÏĥÎ·
ÏĩÎ± ÏĩÎ±
ĠÎµÎ¹ ÏĥÎ·
ĠÎ´Î¹Î±Î³ÏīÎ½Î¹Ïĥ Î¼ÏĮ
Î½Î·Î¼ÎŃ ÏģÏīÏĥÎ·
Îº Î¿ÏįÎ½
ĠS P
ÏĩÎ· Î¼Î¬ÏĦÏīÎ½
5 6
ĠÎ²Î±Ïĥ Î¹ÎºÎŃÏĤ
p er
Î½Ïİ Î¼Î·
Î¹ ÎµÏĤ
ĠÎºÎ±ÏĦÎ±Î½ ÏĮ
ĠÎµÏĢÎ¹ÏĥÏĦÏģÎŃ ÏĨÎµÎ¹
Îº ÏĦÏģÎ¿
ĠÏīÏģÎ± Î¯Î¿
ĠÏĥÏħÎ½ Î¹ÏĥÏĦÎ¬
ĠÎµÏĢ Î¬
ĠÎ¼Î¬Ïģ ÏĦÏħ
ĠÏĥÎ± ÏĨ
ĠÏĢÎ»Î¬ ÏĦÎ·
ĠÏĢ Î»Î±Î¹
ĠÏĨÏĮ Î²Î¿
ĠÏĥÏħ Î»Î»ÏĮÎ³Î¿Ïħ
ĠÏĨ Î¿Ïħ
ĠÎµ Î±Ïħ
ĠÎŁÏħ ÎºÏģÎ±
Ïİ ÏĥÏĦÎµ
ĠÎµÎ¾Îµ ÏĦÎ±
ĠÎ® Î»Î¹Î¿
ĠÎ³Î¹Î± ÏĦÎ¹
ÎĽ Îķ
ĠÎ¼Î¿ÏħÏĥ Î¿ÏħÎ»
Î¹Ïĥ ÏĦÎ¹ÎºÎ¿Ïį
ĠÏĥÏħ ÏĥÎºÎµÏħÎ®
Î³Îº Î¬
ĠÎĳÏģÏĩ Î¹Îµ
ĠÎµÎ¼ÏĢÎ¿ Î´
ĠÎµÎºÏĨÏģÎ¬ Î¶ÎµÎ¹
ĠÎĻ Î£
ÏĦÎ® ÏģÎ·ÏĥÎ·ÏĤ
ÏĢ Î»Î®
Î»Î± Î¯Î±
ĠÎ±Î¼ÏĨÎ¹Ïĥ Î²Î·
ĠÎŃ Î´Î¹
ĠÏĢÏģÎ¿ Î¸ÎµÏĥÎ¼
ĠÎ´ÏħÎ½Î± Î¼Î¹ÎºÎ®
ĠÏĢÎ± ÏģÎ±Î¹
ĠÎµÎ½Î´Î¹Î± ÏĨÎŃÏģÎµÎ¹
ĠÎºÏħÎºÎ»Î¿ÏĨÎ¿ ÏģÎµÎ¯
Î»Î»Î¬ Î´Î±
s on
ĠÎ±Î³Î¬ ÏĢÎ·ÏĤ
ĠÎ´ÏĮ ÏĥÎ·
ĠÎ¥ÏĢÎ·ÏģÎµ ÏĥÎ¯Î±
ÎĻ ÎŁÎ¥
Î¼ÏĮ Î½ÏīÎ½
ĠÎ±Î½Î¸ÏģÏī ÏĢÏĮ
ĠÎ±Î¼ÏĨ Î¹Î²
ĠÏĢÏģÏīÎ¸ÏħÏĢÎ¿ÏħÏģÎ³ ÏĮ
ĠÎµÏħÏģÏīÏĢÎ±ÏĬ ÎºÎ®
ĠÎ±Î½ ÏĦÎµ
ÎłÎ±ÏģÎ± ÏĥÎºÎµÏħÎ®
Î² Î¿ÏįÎ»Î¹Î¿
ĠÏĪ ÎµÏį
ĠÎ´Î¬Ïĥ ÎºÎ±
ĠÎ´Î¹Î± ÏĨÎ¿ÏģÎŃÏĤ
ĠÎ²ÏĮÎ» ÏĦÎ±
Îł ÏĮÏĥÎ¿
ĠÎµÏģÎ³Î± Î»ÎµÎ¯Î±
ĠÎµÏĢÎ¹ÏĩÎµÎ¯ ÏģÎ·ÏĥÎ·ÏĤ
ĠÏĩ Î¬Ïģ
ĠÎ¹Î´ Îµ
ĠÎµÏĢÎ±Î½Î¬ ÏĥÏĦÎ±ÏĥÎ·
ĠÎµÏĢÎ¹Î²Îµ Î²Î±
ĠÏĢÎ¿Î»Ïį ÏĦÎ¹
ĠÎļÎµÎ½ÏĦÏģ Î¹ÎºÎ®ÏĤ
ÏĥÏĦÎ· ÏģÎ¹Î±
ĠÏĮ ÏĨÎµÎ»Î¿ÏĤ
Îµ ÏĢÎ¹Ïĥ
ĠÏĢÏģÎ¿ÏĥÏĨÏį Î³ÏīÎ½
ĠÏĩÎ±Ïģ ÏĦÎ¯
Î¹Ïĥ Î¼ÎŃÎ½Î¿Î¹
ĠÎ³Î½Ïī ÏĥÏĦÎ¬
ĠÏĢÎ±Î¹ÏĩÎ½Î¹Î´ Î¹Î¿Ïį
ĠÎłÎ¿Î»Ïħ ÏĦÎµÏĩÎ½
ĠÏĦÎµ ÏĦÏģÎ¬
ĠÎĿ Î¯ÎºÎ¿
Î´ ÎŃÎ½
ĠÎļÎ± Î»Î»Î¹
ĠÎ²ÏģÎ±Î² ÎµÎ¯Î¿
ĠÏĥÏħÎ½Îµ ÏĩÎ®
il e
ĠÎ±Î½ÏĦÎ¹Ïĥ ÏĦÎ¿Î¹
ĠÎ±Î½ÏĦÎ¹Î¼ÎµÏĦÏī ÏĢÎ¯ÏĥÎµÎ¹
ĠÎ±Îº ÏģÎ±
ĠÎ´Î¯Ïĩ ÏīÏĤ
ĠÎ½Îµ Ïħ
ĠÎĿÏĮ ÏĦÎ¹Î±
ĠÏĦ ÎµÎ¯
ĠÎ»ÏĮÎ³ Î¿Ïħ
5 9
Î¹ÏĮ ÏĦÎ¹
ĠÏĢÏģÎ¿ ÎºÏį
ĠÎľ ÎµÏģ
ĠÎ´Î® Î¼Î¿Ïħ
ĠÎłÎ±ÏĢÎ± Î´ÏĮ
ĠÎµÏĨÎ±ÏģÎ¼Î¿ Î³ÎŃÏĤ
ĠÎ²Î±Ïĥ Î¯Î¶ÎµÏĦÎ±Î¹
ĠÏĥÏħÎ½ÎŃ Î´ÏģÎ¹Î¿
ÏĦ ÏģÏī
ĠÎ¼Î¿Î¯ ÏģÎ±
ĠÎµÎº Î¬
ĠÎ± ÏģÎŃ
ĠAn t
Î»ÎŃ ÏĦÎ±
ĠÏĢÎµÏģÎ±Ïĥ Î¼ÎŃÎ½Î¿
ĠÎ´ÏģÏĮ Î¼Î¿Ïħ
ĠÎµÎ¹Î´ Î¹ÎºÎŃÏĤ
Î½ ÎŃÎ±
Î»Î· ÏĨÎ¸ÎµÎ¯
ĠÎ´Î¹Î± ÏĦÎ®ÏģÎ·ÏĥÎ·
ĠÏĢÎ»Î±ÏĦ ÏĨÏĮÏģÎ¼Î±
ĠÎ¼ÏħÏĥ ÏĦÎ¹ÎºÏĮ
ÎĽ ÎŁÎĵ
ĠÏĢÎ¬ Î¸Î¿ÏĤ
ĠÎºÎ¿Î¼ Î¼Î¬ÏĦÏīÎ½
ÎĻ ÎķÎ£
ĠÎĨ Î¼ÏħÎ½Î±ÏĤ
ĠÎ±Î½Î± ÏĨÎŃ
Î³Îµ Î»Î¿ÏĤ
ĠÏģÎµ ÏĢÎ¿ÏģÏĦÎ¬Î¶
ÎºÎ¿Î¯Î½ ÏīÏĥÎ·
ĠÎµÏĢÎ¯ ÏĦÎµÏħ
ur viv
ĠÎĶÎ·Î¼Î¿ ÏĥÎ¯Î¿Ïħ
ĠÎµÏĢÎ¹ Î´Î¿
ĠÏĢÎ±Î¹Î´ ÎµÎ¯Î±
ĠÏĢÏģÏİ ÏĦÎ¿Î¹
Î£Ïħ Î³ÎºÎµÎºÏģÎ¹Î¼ÎŃÎ½Î±
Ġ âĨ
ĠÎ½ÏĮ ÏĦÎ¹Î±
ĠÏħÏĢÏĮÎ»Î¿Î¹ ÏĢÎ¿
ĠÎ´Î¯Îº Î±Î¹Î¿
ĠÎķ Î¦
ĠÎ±ÏĥÏĨÎ± Î»Î®
ĠÎµÏĦÎ±Î¹ ÏģÎµÎ¹ÏİÎ½
ĠÎ²ÏģÎ¯ ÏĥÎºÎµÎ¹
ÏĢÎµÎ¹ ÏģÎ±
ĠÎ¿Î½Î¿Î¼Î¬ Î¶ÎµÏĦÎ±Î¹
ĠÎ»ÎµÏħ ÎºÏĮ
ĠÏĢÏģÎ¿ÎŃ ÏģÏĩÎ¿Î½ÏĦÎ±Î¹
ark et
ĠÏĢÏģÎ±Îº ÏĦÎ¹ÎºÎ®
ĠÏĥÏį Î¼Î²Î±ÏĥÎ·
ĠÏĨÎ¯ Î»Î¿
ĠÎµÎº ÏĢÏģÎ¿ÏĥÏī
ĠÏĥÎµ Î¼Î¹Î½Î¬
Îķ Î¸Î½
ÏģÏģÎ¿ Î®
ĠÎ¼ÎµÎ³Î±Î»ÏįÏĦÎµ ÏģÎ±
ÎµÎ¹ Î´Î®
Ã ©
Îł ÎĹ
ĠÎºÎ±Î» ÏĮÏĤ
ĠÏĢÏģÎ¿ Î´Î¹Î±
ĠÎľ ÏĢÎµ
ĠÎ±Î½Î± ÏĨÎ¿ÏģÎŃÏĤ
ĠÏĢÏģÎ¬Î³Î¼Î± ÏĦÎ¹
ÏĢÎ¿Î¯Î· ÏĥÎ±Î½
ÏĢ ÏĦÎ¹ÎºÎ¬
ĠÏĩÏģÎ® Î¼Î±
Î½ Î¯Î±ÏĤ
ĠÏĦÎŃ Î»ÎµÎ¹Î±
Ïĩ Î±Î¹
Î¤ ÎŃ
ÏĨ ÏħÏĥ
ĠÎ±Î´ÏħÎ½Î± Î¼Î¯Î±
ĠÎµÎº ÏĥÏĦÏģÎ±
ĠÏĥÏĩÎµ Î´Î¯Î¿Ïħ
ĠÎ³Î¬ Î¼Î¿
ĠÎ¤ Î¿ÏħÏĤ
ĠÎ´ÎµÎºÎ±Îµ ÏĦÎ¯Î±ÏĤ
ĠÎ¤ÏģÎ¬ÏĢÎµÎ¶ Î±ÏĤ
ĠÏĦÎ±ÏħÏĦÏĮ ÏĦÎ·ÏĦÎ±
ĠÏĦÏģÎ¬ÏĢÎµÎ¶ Î±
ĠÎ±Î½Î¸ÏģÏİÏĢÎ¹ Î½Î¿
ĠÏĥÎµÎ²Î±Ïĥ Î¼ÏĮ
ÏĥÎ· Î¼Î¿
ĠÏħÏĢ ÎµÎ½
ĠÎ²Î³Î¬Î» ÎµÎ¹
ĠÏĦÎ±Î»Î±Î¹ ÏĢÏī
ĠÎļÎ±Ïĥ ÏĦÎ¿
A M
ĠÎ²ÏģÎ± Î´Î¹Î¬
Ïĥ ÏĢÎ¬
ĠÎľ ÏĢÎ±Ïģ
ĠÏĨÎ±Ïģ Î¼Î¬
ĠÎµÏĢÎ¹Î¸Ïħ Î¼Î¯Î±
ĠP l
Î»Î»Î±Î³ Î®ÏĤ
ÏĦÎ¶ Î®
Î¯Î´ Î¹Î¿
ĠÎµÏĢÎµÎ¹ÏĥÏĮ Î´Î¹Î±
f o
Î½ÏĮ ÏĦÎ·ÏĦÎ±ÏĤ
ĠÎľÎ·ÏĦÏĥÎ¿ÏĦÎ¬ ÎºÎ·ÏĤ
Î£ÏħÎ½Îµ Ïĩ
ĠÎ±Î½ÎµÏģÎ³ Î¯Î±
ÎĿ Îķ
ĠÎķÎº ÏĦÏĮÏĤ
ĠÎµÎ¹Ïĥ Î±Î³ÏīÎ³Î®
ÏĦÎµÎ¯ ÏĤ
ĠÎĳÎ½Î± ÏĦÎ¿Î»Î®
ĠÎ´Î¹ÎµÏħÎ¸ÏħÎ½ ÏĦÎ®ÏĤ
ĠÏĢÎ¿Î»Î¹ ÏĦÎ¹ÎºÏĮÏĤ
ĠÎ§Î±ÏĦÎ¶ Î·
ĠÏĦÏĮ ÏĢÎ¿ÏĤ
ĠÎ´Î¯ Î½Î¿Î½ÏĦÎ±ÏĤ
ÏĦÎ· ÎºÎ±
Î¬Ïģ ÏĦÎ·ÏĦÎ±
ÏģÎ¯ ÏĥÎ¿ÏħÎ¼Îµ
ĠÏĢÎ¿Î»Î¯ ÏĦÎ·
ĠÎµÏĢÎŃ Î¼Î²Î±ÏĥÎ·
Î¹Î± ÎºÎŃÏĤ
ĠÎ¹Î´Î¹ÏĮ ÏĦÎ·ÏĦÎµÏĤ
ĠÎ¼ Î¯
ÏĨÏĮ ÏģÎ·ÏĥÎµ
ÏĢ ÏĦÏİ
ĠÏĢÏģÎ¿ Î¼Î®
Îł Î¿Ïħ
ĠÎľÎ¹ ÏĩÎ±
ÏĢÎ± ÏģÎº
Ġ5 5
Î»Î±Î½ Î´Î¯Î±
ÏĥÎŃ Î»Î¹
ĠÎ±Î½ÎµÏģÎ³ Î¯Î±ÏĤ
Îļ ÎĹ
ÎŃ ÏĥÏĦÎµ
ĠD r
ĠÏĮ Î¼Î¿ÏģÏĨ
ĠÎ¿ÏģÎ¹Ïĥ Î¼ÎŃÎ½Î±
ĠÎµÏħ Î±Î¯ÏĥÎ¸Î·
ĠÎ±ÏĨ Î¹ÎµÏģÏī
ÎºÎµÎ¹ Î¿
ĠÎ±ÏĢÎ±Ïĥ ÏĩÎ¿
ÏĮÎ» Î±ÏĤ
ĠÏĢÏģÎ¿ÏĬÏĮÎ½ ÏĦÎ¿ÏĤ
ĠÎ´Î·Î¼Î¹Î¿ÏħÏģÎ³ Î¯Î±ÏĤ
ĠÎ´Î¯Îº Î¹Î¿
Îļ Î¿Î¹Î½ÏīÎ½
ĠÎĶÎ¹Î± ÏĩÎµÎ¯
ĠÎ±ÏĢÎ¿ÎºÎ±Î» ÏįÏĢÏĦÎµÎ¹
ĠÎĻÏīÎ¬Î½ Î½Î·ÏĤ
ĠÏĩÏģÎ¹ÏĥÏĦÎ¹Î± Î½
Î¡ ÎĹ
ĠÏĥÏħÎ½Î¿ Î»Î¹ÎºÎ®
ĠÎºÎ±ÏĦÎ·Î³Î¿Ïģ Î¯Î±ÏĤ
ĠÎ£ ÏħÎ½Î±
ĠÎ¿ÏĨÎµÎ¯ Î»ÎµÎ¹
Î²Î¬ ÏĦÎµÏĤ
ĠÎļ Î·
ĠÎ³ÏħÎ½Î± Î¯ÎºÎ±ÏĤ
ĠÏĥÏĦÎµ Î³
ĠÏĥÎ¿ ÏĥÎ¹Î±Î»Î¹Ïĥ
ÏĪÎ¹ Î¼Î¿
Î»Î¬ ÏĤ
ĠÏĢ Î»Î¿Ïħ
Îĺ Îĳ
ĠÎ£Î± Î²Î²Î±ÏĦÎ¿ÎºÏįÏģÎ¹Î±
ĠÎ´Î¹ÎµÎ¾ Î¬
a i
ĠÎł Î»Î¬
ĠÎķÏĢÎ¹ Î¼ÎµÎ»Î·
ĠÏĦ á½¸
S c
ĠÎµÎ¹ÏĥÎ¹ ÏĦÎ®ÏģÎ¹Î±
ĠÎ´Î¹Î±ÏĢÏģÎ±Î³Î¼Î±ÏĦÎµÏį ÏĥÎµÎ¹ÏĤ
ÏģÎµÎ¹ Î±ÏĤ
ĠÎµÎ½ÏĦÎ¿ ÏĢÎ¹Ïĥ
Ïħ Î¼Î¬ÏĦÏīÎ½
ÏĩÎµÎ¹ ÏĤ
ĠÎ¼ÏĢÎ¬ ÏĥÎºÎµÏĦ
u c
ĠÎ¼ÏĢÎ± Î¯Î½ÎµÎ¹
ĠÎ¬Î³ ÏĩÎ¿ÏĤ
ĠÏĥÎ·Î¼ÎµÏģÎ¹Î½ ÏĮ
ĠÏĥÏħÎ¼Î² Î¿Ïį
ĠÏĢÎµÎ¹ ÏģÎ¬
ĠÎ±ÏģÏĩ ÎµÎ¯Î¿
ĠÎ±Î½Î¸ÏģÏİ ÏĢÎ¹Î½
ÎķÎ¯ Î¼Î±ÏĥÏĦÎµ
ĠÎ¹ÏĥÏĩÏħ ÏģÎ®
ĠÎµÎ¾ÎŃ ÏĦÎ±ÏĥÎ·
Îµ ÏĢ
Î¯Î³Î¿Ïħ ÏģÎ±
ĠÏĮ Î¼Î¹
ĠÎĳÏģÏĩ Î±
ĠÎ½Î¿Î¼Î¿Î¸Îµ ÏĥÎ¯Î±
ĠÎľ Î±ÏĤ
ĠÏĦÎ¿ á¿¦
ÎĶ ÎĹ
ĠÎł ÎĳÎĻ
Î¶ ÎŃ
Îķ ÏĢÎµÎ¹Î´Î®
ĠÏĢÎ¬Ïģ Î¿ÏħÎ¼Îµ
ĠÏĨÏĮ Ïģ
ĠÎķÎĶ Î©
ĠA d
ĠÎ² ÏĮÏģÎµÎ¹Î±
ĠÎ±ÏĢÎ¿ÎºÎ± ÏĦÎ¬ÏĥÏĦÎ±ÏĥÎ·
ĠÎĪ ÏģÎµÏħÎ½Î±
Ġ3 4
ĠÎĿ ÎķÎĳ
ĠÎ¿ÏĦÎ¹ Î´Î®ÏĢÎ¿ÏĦÎµ
ĠÎ£ Î§
ÏĩÎ½ Î¿ÏħÎ¼Îµ
Î»Î· ÏĦÎ®ÏģÎ¹Î¿
an c
ÏĥÏĩ Î¿ÏħÎ½
ĠÏĩÏģÎµ Î¿ÎºÎ¿
Î»Ïħ Î¼Î±
ol l
ÏĦÎŃ ÏģÎµÏĤ
ĠÎ¼Î½Î·Î¼ÏĮ Î½Î¹Î¿
ÏĢÎ¯ ÏĥÏĦÎµÏħ
ĠÎ±ÎºÎ¹Î½Î® ÏĦÏīÎ½
ĠÎµÏĢÎ¹ÏĥÏĦÎ·Î¼Î¿Î½ Î¹ÎºÎ®
ÏĨÎ® ÏĥÏĦÎµ
ĠÎ´Î·Î¼Î¿ÏĥÎ¹Î¿Î³ÏģÎ¬ÏĨ Î¿ÏĤ
ĠÎ²ÎµÎ²Î± Î¯ÏīÏĤ
Î¾ÎŃ Î»Î»ÎµÏĤ
Î³Î¹Î¬Î½ Î½Î·
Î³ Î±Î»
ĠÎľ ÎŁÎĿ
ĠÎłÎ¬ ÏĦÏģÎ±
ĠÎ´ Î¿ÏħÎ½
i er
ĠÎºÎ±Î¹Î½Î¿ ÏĦÎ¿
ĠÏĢÎ± Î³Ïī
ĠÎ£ ÎĳÎ£
ĠÎµÏĥÏīÏĦÎµÏģ Î¹ÎºÎ®
ĠÎµÎ¹ Î´Î¿ÏĢÎ¿Î¹
ĠÎ± Î¸
ĠÏĩ Î¿Ïģ
ĠÎ´Îµ Î¾Î¹
ĠÎ¶ ÏİÎ½Î·
ĠÏĢÏģÎ¿ÎµÎ¹ Î´Î¿ÏĢÎ¿Î¹
ĠÎµÏģÎ³Î±Î» ÎµÎ¯Î¿
ÎºÏĮÏĥ Î¼Î¹
ÎļÎ± Î»Î®
ĠÏĢÏģÎ¿Ïĭ ÏĢÏĮÎ¸ÎµÏĥÎ·
ĠÎ³Î»Ïİ ÏĥÏĥÎ±ÏĤ
ÎºÎ± Î¸Î¬
ĠÎ´Î·Î¼Î¹Î¿ÏįÏģÎ³ Î·ÏĥÎµ
ÏĢ Î½Î¿
ĠÏĩÏģÎŃ Î·
ĠÎ£ÏįÎ½ Î´ÎµÏĥ
ĠÎ² Î¹ÏİÎ½
ĠÎµÎ¾ Î¯Ïĥ
Î¸ Î±Î¹
ĠÎŃÎ¼ÏĨ Î±ÏĥÎ·
Ïĩ Î¿Î½ÏĦÎµÏĤ
ÏĩÎ¿ Î¼ÎŃÎ½ÏīÏĤ
ÏĢÎ¿ Î»Ïį
ĠÏĢÎ¹Î¸Î±Î½ ÏĮÎ½
ĠÎºÏģÎ± ÏĦÎ¬
ĠÎºÎ± ÏģÎ±
ĠÎĴÎ±Ïĥ Î¯Î»Î·
ĠÎµÏĢÎ±Î½Î± ÏĥÏĦÎ±
ĠÎłÎ±Î³ÎºÏĮÏĥÎ¼ Î¹Î¿
Î¹Ïĥ Î¼ÎŃÎ½Î¿ÏĤ
Î³Îº ÏĦÎ¿Î½
ĠÎ¼ÏĢÎ± ÏĦÎ±
ĠÏĥÏįÎ½ Î¸ÎµÏĥÎ·
ĠÏħÏĢÎ·ÏģÎµ ÏĥÎ¯Î±ÏĤ
ÏįÏĦÎµ ÏģÎ·
Î¼Ïį Ïģ
p t
ĠÎ·Î»Î¹Îº Î¹Ïī
Ġ25 0
ĠÎºÏħ ÏģÎ¹
ĠÏĢÎ±ÎºÎŃ ÏĦÎ¿
ĠÎ§ Îĳ
ĠÏĢÎ±ÏģÎ± Î¼Î¿Î½Î®
ĠÎ±Î½ÏĦÎ¹Î¼ÎµÏĦÏīÏĢ Î¯Î¶Î¿ÏħÎ½
ĠÎ· ÏģÎµ
Ġs p
ĠÎķÏį Î²Î¿
Îľ Î®
ÏĥÏĦÎ· ÏĥÎµ
ĠÎ± Î¼Î¿Î¹Î²
Î´Î· Î¼Î¿ÎºÏģÎ±
ĠÎ¼Ïħ Î¸Î¹Ïĥ
ĠÎºÎ± ÎºÎ®
ĠÎ¹ÏĥÏĦÎ¿ Î»Î¿Î³Î¯Î¿Ïħ
ĠÎ±ÏĢÎ¿Ïģ ÏģÎ¯
ÎĳÎ½Î¿Î¯ Î³ÎµÎ¹
ĠÏĩÏģÎµÎ¹ Î¬Î¶
Ġ1 20
ĠÏĥÏħÎ½ Î¸ÎŃ
ĠÎľÎ¿ Î½Î±
% )
Î¯ Ïī
ĠÎ´Î¹Î±ÏĦÎ· ÏģÎµÎ¯
ĠÏĩÎ± ÏģÎ¿Ïį
ĠÎĽ ÏħÎºÎµÎ¯Î¿Ïħ
Î¾ Î¯Î¶ÎµÎ¹
Î¹Î± ÎºÏİÎ½
ĠÎ· ÏģÏī
ĠÎĴÎ±Ïĥ Î¹Î»
ĠÎºÎ¹Î½Î´ÏįÎ½ Î¿Ïħ
ĠÎ±ÎºÎ¿Î»Î¿ÏħÎ¸Î® ÏĥÎµÎ¹
Î´Î± Î³ÏīÎ³
Â ©
y n
ĠÏĢÎ¿Ïħ Î¸ÎµÎ½Î¬
ÏĢÎµ Î»Î»Î¿
ĠÏĢÏģÎ¿Î³ÏģÎ±Î¼Î¼Î± ÏĦÎ¹Ïĥ
ar i
ĠÎ£Î¿Ïħ Î·
ĠÎµÎ¼ÏĢÎ¹ÏĥÏĦÎ¿ ÏĥÏįÎ½Î·
ĠÎ±ÏĢÎ± ÏĥÏĩÎ¿Î»
ĠÎŃÎ³ Î³ÏģÎ±ÏĨÎ¿
ÏģÎ¬Îº Î»ÎµÎ¹Î¿
ĠÎ¦ Ïį
ation al
ĠÎµÏĦÎ±Î¹ ÏģÎ¯Î±ÏĤ
Î¾Î±Î½Î´ ÏģÎ¿ÏĤ
ĠÎ»Î¯ Î³Î·
ĠÎķ ÏĢÎ¿
ĠÎºÎ±ÏĦÎ¬Î»Î»Î· Î»Î·
ĠÏĦÎ¿ÏĢ Î¹ÎºÎŃÏĤ
ĠÏĢÎ»Î¿ Î¯Î±
ĠÎľÎ·ÏĦÏĥÎ¿ÏĦÎ¬ ÎºÎ·
ÏģÎ¹Î± ÎºÎŃÏĤ
ĠÎ´Î¹Î± ÏĩÏģÎ¿Î½
ĠÎ´Î¹Î± ÏĥÎºÎµ
Î¼Î±Î½ ÏĦÎŃÏģ
Î± ÏĦÎµ
ĠÎ½Îµ ÏĨ
ĠÎºÏģÎµÎ²Î¬ ÏĦÎ¹
ĠÏĦÎ¿Ïį ÏĦÎ¿Ïħ
ĠÏĦÏģÎ¿ ÏĨÎŃÏĤ
Î¶ Ïį
ĠÎ¼Î½Î· Î¼Î¿Î½
ĠÎ±Î¹Ïĥ Î¸
Î½Î· Î¼Îµ
ÏĢÏģÎ¬ ÏĥÎ¹
ĠÎĶÎ¹ÎµÎ¸ Î½Î¿ÏįÏĤ
ĠÎºÎ±ÏĦÎ± Î´Î¹ÎºÎ¬
ĠÎ¾ ÎµÎ½
urviv or
ĠÎµÏĢÎ¹Î´ ÎµÏģ
ĠÎ´Î¹Î± ÏĩÏī
ĠÏĥÎ·Î¼Î± Î¯Î±
ĠÎļÎµ ÏĨÎ±
Î´ ÏģÎ¯
ĠÎ±Î¹ ÏĦÎ®ÏĥÎµÎ¹ÏĤ
Î¼ ÏĢÎµÏģ
ĠÏĢÎµÏģÎ¯ ÏĨÎ·
ÎºÎŃ Î´Î±
ĠÎ¿ ÏĩÎ®Î¼Î±ÏĦÎ±
ĠÎµÎºÏĢ Î»Î®
7 5
ĠÎ»ÏĮÎ³ Î¿Î¹
ÎµÏį Î¸ÏħÎ½ÏĥÎ·ÏĤ
âĢĻ âĢĻ
Î¤Îĳ ÎĿ
ĠÎķ ÎłÎĳ
ÎµÎ¯ ÎµÏĤ
ÎĽ Î¥
ÏĢÎŃ Î»Î»Î¿Ïħ
ĠÏĥÏĩÎµ ÏĦÎ¹ÎºÎŃÏĤ
ĠÏĥÏĦÎ±Î´Î¹Î± ÎºÎ¬
ĠÎ¼ÏĢ Î»Îµ
ĠÎ¦Ïī ÏĦÎ¿Î³ÏģÎ±ÏĨ
ÏĦÏģÎŃ ÏĪÎµÎ¹
ĠÏĥÏħÎ³Îº Î»Î¿Î½
ÎºÎ¹ Î½Î¿ÏįÎ½
ĠÎ´Î¹ÎºÎ±Î¹Î¿ Î»Î¿Î³Î·
ĠÎĵÎµÏīÏģÎ³ Î¯Î¿Ïħ
Îļ ÏĮ
ĠÎµÏĢÎ¹ÏĥÏĦÏģÎŃ ÏĪÎµÎ¹
Î¯ÎºÏĦÏħ Î±
Ġ !!
ot os
ĠÎ²Î±Ïĥ Î±Î½
ĠÎ´Î¹Î± Î¼Î¿Î½Î®
ĠÎĳÏħ Î³Î®ÏĤ
ÎºÎ± Î»ÎµÎ¯
ĠÏĦÎ¹ Î¼Î®ÏĤ
ĠÏĦ ÏĥÎ¬
Î¼ÏĢÎµ ÏģÎ¹Î±
ĠÎ±Ïĥ ÏĦÏģÎ¿
Ïģ ÏħÎ½ÏĥÎ·
ĠÎ´ Î¯Î´
ĠÏĢÏģÎ¿Î²Î¿Î» ÎŃÏĤ
ĠÎĳ ÎºÏĮÎ¼Î·
ĠÎľ Ïį
ĠÎ¹Î´Î¹ Î±Î¹
ĠÎ£Ïħ Î³Îº
Ġ ant
ĠÎĳÏĦ ÏĦÎ¹ÎºÎ®
r om
ĠÎ¡ ÎŃ
ĠÎķÎºÏĢÎ±Î¯Î´ ÎµÏħÏĥÎ·
ĠÎ´Î¹Î±ÏĢ ÏģÎ±Î³Î¼Î¬
ĠÎł Î®
ĠÎºÎ¹Î½Î· Î¼Î±ÏĦÎ¿Î³ÏģÎ±ÏĨ
ĠâĢ Ķ
ĠÎĿ ÏĦÎ¬
ĠÎļÎ¿Ïģ Ïħ
ĠÎ±ÏģÏĩ Î¹ÎºÎ®
ĠÎĶ ÏħÎ½Î¬
ÏģÏİ Î¸Î·ÎºÎ±Î½
ĠÎķÎł ÎĻ
ÎķÎĻ ÎŁ
ĠÎµÏĢÎ¹Î¸Ïħ Î¼Î¿ÏįÎ½
ĠÏĢÎ»ÎµÏħ ÏģÎ¬ÏĤ
ĠÏĢÎµÏģÎ¯ Î¿Î´Î¿ÏĤ
Î³Î· ÏĥÎ·ÏĤ
ĠÏħÏĢÎ¿ÏĥÏĦÎ· ÏģÎ¯Î¶Î¿ÏħÎ½
ĠÏĥÏħÎ³Î³ÏģÎ±ÏĨ ÎŃÎ±
ĠÎ³ Îº
ĠÎ´Î¹ÎºÎ±Ïĥ ÏĦÎ®ÏģÎ¹Î¿
ĠÎ¹Î´Î¹Î±Î¯ÏĦÎµ ÏģÎ¿
ĠÏĨÎŃÏģ Î¿ÏħÎ½
ĠÎłÎµ ÏģÎ¹ÏĥÏĥÏĮÏĦÎµÏģÎ±
ĠÏĩÎ± Î¼Î¿
ĠÎ´Î¹Î¿ÏģÎ³Î±Î½ ÏİÎ½ÎµÎ¹
ĠÎ§ÏģÎ® ÏĥÏĦÎ¿ÏĤ
ĠÏĨÎ±Î¹ Î½Î¿
ĠÎºÎ± Îº
ÎĳÎĿ Îĳ
ÏĥÏĦ ÏģÎ¹Î±
ĠÎµÎºÎ´Î·Î»Ïİ ÏĥÎµÏīÎ½
ÎºÏģÎ¹ Î²
ĠÎ¬Î½ ÎµÏģÎ³
ĠÏĮ ÏĢÎ»Î¿
Î¡ ÎĹÎ£
Î¸ Î½Î¿ÏĤ
ĠÎ· ÏĦÎ±Î½
ĠÎ¼Î± Î¸Î®
ĠÎ±ÏĢÎ¿ÏĦÎµÎ»ÎŃ ÏĥÎµÎ¹
ĠÎºÎ±ÏĦÎ¬ ÏĨÎµÏģÎ±Î½
ĠÎ´ÏħÎ½Î± ÏĦÎ¬
_ _
Î¼ Î¯Î¶Ïī
ĠÎ£ ÏīÎ¼Î±
ÏĢÎ¹ ÏĥÎ·ÏĤ
ĠÎµÎ¹ÏĥÏĮ Î´Î·Î¼Î±
Î³ Ïİ
ÏģÎŃ Ïĥ
Ïī ÏģÎ±
ÏĩÎ±ÏģÎ· ÏĦÎ®ÏģÎ¹Î±
en ce
ĠÏĪÏħÏĩ Î®ÏĤ
ĠÏĢÏģÏĮ ÎºÎ»Î·ÏĥÎ·
ĠÎµÎ¾ Î±Î³
ĠÏĥÎ¿Î²Î± ÏģÎ®
ĠÎºÎµÎ½ ÏĮ
ĠJ o
ĠÎĵ ÏħÎ½Î±Î¹
ĠÎĳ Îķ
ĠN EWS
ĠÏĥÏħÎ½Î· Î¸Î¹Ïĥ
ĠÏĥÎ·Î¼Î± ÏĥÎ¯Î±ÏĤ
ĠÏĢÎ¿ÏĥÎ¿ ÏĥÏĦÎ¬
ĠT r
ÏĦ ÏĦÎ¬
Î¦ ÎĻÎĳ
Îķ Î¹Ïĥ
ĠÎĶ Î±Î½
Î½Î¿Î¼ Î¯Î±
ĠÎºÎ¬ Î¼ÎµÏģÎ±
ĠÏĥÏį Î¼Î²Î¿ÏħÎ»Î¿ÏĤ
ĠÎĳ ÎŁ
ĠÎµÎ³Îº ÏħÎ¼Î¿
ÏĥÎ¹ ÏĤ
Î¼Î±ÏģÏĩ Î¿
ĠÏĨÎ¹Î»Î¿ Î¾Îµ
ĠÎł ÎµÎ½
ĠÎ±ÏĢÎ± Î³ÏĮ
ĠÎµÏħÏģÏīÏĢÎ±ÏĬ ÎºÏĮ
ĠÎĳ Î»Î»Î·
ĠÎ¤ ÏĥÎ¬
ĠÎ´Î·Î¼Î¹Î¿ÏħÏģÎ³ Î·Î¸ÎµÎ¯
ĠÏĢÏģÎ±Îº ÏĦÎ¹ÎºÎŃÏĤ
ĠÎºÎ±ÏģÎ´Î¹Î¬ ÏĤ
ĠÎŁÏħ Î¬
ÏĮÎ´Î¿ Î¾
Î¶ Î¿Î½
ĠÏĦÎ±Î¹ ÏģÎ¹Î¬Î¶ÎµÎ¹
Ïħ Î³ÏĮ
ĠÎ´Î¹Î± ÎºÏĮ
ĠÎķ Îľ
ĠÎµÏĨÎ·Î¼ÎµÏģÎ¯ Î´Î±ÏĤ
ow n
ĠÎµ Î»Î»ÎµÎ¯
ĠÎľÎ® ÏĢÏīÏĤ
ÏĨÏĮ ÏģÎ±
ĠÎ¬Î»Î»Î± Î¾Îµ
ĠÎ±Îº ÏĦÎ¹Î½Î¿
ÏĦÎ¹Îº ÎµÏĤ
ÎłÎŁ ÎĻ
ĠÎĳÎ¹ Î³
ĠÏĩ Î¿Î½
ĠIn stagram
ĠÎĺÎµ Ïī
Î³Î· ÏĦÎ®ÏĤ
Î»ÎµÎ¹ ÎµÏĤ
ÎķÎº ÏĦÏĮÏĤ
ĠÎµÎ²Î´Î¿Î¼Î¬ Î´Î±ÏĤ
Î¶Î¿ Î¼Î±Î¹
ĠÎ´Î¹ÎºÎ±Î¹Î¿ ÏĥÏįÎ½Î·
ĠÎµÎ½Î´Î¹Î± ÏĨÎŃÏģ
ĠÏĥÏħÎ½ÎµÏģÎ³ Î¬
Î»ÎµÏį ÎµÎ¹
ÏģÎ¹Ïĥ ÏĦÎ¹ÎºÎ®
ĠÎµÎ¹Ïĥ Î±Î³Î³ÎµÎ»ÎŃ
ĠÎ´Î¹Î± Î»Ïį
ĠÎĳ Îļ
ĠÎºÏħ Îº
I n
ĠÎ±ÏĢ ÏģÎ¿
ÏĮÎ¼Îµ Î½ÏīÎ½
ĠÎ±ÏģÎ¼ÏĮ Î´Î¹
ĠÎ´Î±ÏĢÎ¬Î½ ÎµÏĤ
Ġá½ ģ
ĠÎŃÎ¾Î¿ Î´Î±
Îķ Î¼ÎµÎ¯ÏĤ
ĠÏĥÏįÎ³Îº ÏģÎ¹ÏĥÎ·
ĠÎļ Î¹Î½
s ports
Ïĥ ÏĩÏĮ
ĠÎ´Î¹Î± ÏĦÎ¬
Ġ0 8
ĠÎķÎ¯ Î¼Î±Î¹
Î³ Î¼ÎŃÎ½Î·
ĠÏĢÎµÏģÎ¹Î¿Ïħ ÏĥÎ¯Î±
ĠÎłÎŁÎĽ ÎĻ
ĠÏħ Î²
ĠÎĸ Î·
Î² Î¬Î½
ĠÎ¿ÏħÏģÎ± Î½ÏĮ
ĠÏĢÎ¹Ïĥ ÏĦÎ¿ÏĢÎ¿Î¹Î·
ĠÎ´Î¹Îµ Î¾Î±
ĠÎ¥ÏĮÏģÎº Î·
ĠÏĦÏģÏĮ ÏĢÎ¿Î¹
ĠÎ¬Î½Î´ ÏģÎ±ÏĤ
ĠÎĶ Î£
ĠÎ³ ÎºÎ±
ĠÎ±ÏĢÎµ Î»ÎµÏħÎ¸Îµ
Ïĩ ÏģÏī
Î¸ Î¿ÏįÏĥÎµ
ĠÎ³Î½Ïī ÏģÎ¹
ÏĦÏĥ Î¿Ïħ
ĠC ar
ÏĦÎ¹ Î¿ÏĤ
ĠÎ±ÎºÎ¿Ïį ÏĥÎµÎ¹
Î¼Î¹ ÎŃÏĤ
Ġc l
ĠÎ±Î½Î± ÏĦÏģÎ¿ÏĢÎ®
Î ĩ
ÎłÎ¿ Î¹Î¿Î¹
ĠÎ¶ Î±
ĠÎķÏħÏģÏīÏĢÎ±ÏĬ ÎºÎ¿Ïį
ĠÎ²Î¿ Î¼Î²
Î² Î·ÏĤ
Î¼ÎµÎ¹ Î½Î±Î½
ĠÏĢÎ»ÎµÏħ ÏģÎŃÏĤ
ĠÏħ ÏĪ
ĠÏĩÏģÏħÏĥ ÏĮ
ĠÎ±Î½ÏĦÎ¯ Î»Î·ÏĪÎ·
ĠÏĥÏħÎ½ÏĦÎµ Î»Îµ
ÏģÎ¿ÏħÏĥÎ¯Î± ÏĥÎ·
ĠÎ±ÏģÏĩ Î±Î¹
Î¶ ÏİÎ½Î·
ĠÎĵ ÏģÎ¬
Ïĥ Î¼ÎŃÎ½Î¿ÏĤ
Î´ÎµÎ¯ Î¾ÎµÎ¹ÏĤ
ĠÏĢÏģÎ¿ Î³ÏģÎ±Î¼Î¼Î¬ÏĦÏīÎ½
ĠÏĥÏħÎ½Î´ÎŃ ÎµÏĦÎ±Î¹
ĠÏĢÏģÏīÏĦÎµÏį Î¿ÏħÏĥÎ±
ĠÎºÎ±Î» Ïī
Ïĥ ÏĢÎ¿Î½
ĠÏĢÎŃ Î¸Î±Î½Îµ
ĠÎ²Î»ÎŃ ÏĢÎµÏĦÎµ
ĠÎ£ Î¼ÏįÏģ
ĠÎ² Î¿ÏģÎµÎ¹Î¿
ÏĦÎ¬ ÏĥÎµÏīÎ½
ĠÎľ Î¬Î½
ĠÏħÏĢÎ¿ Î²Î¿Î»Î®ÏĤ
ĠÏĢÎµÏģÎ¹ÎŃ ÏĩÎ¿ÏħÎ½
ĠÎ´Î¹Î± Î»ÎŃ
ÏģÏİÎ½ Î¿ÏħÎ¼Îµ
Î»Î» Î¿ÏħÎ½
ĠÎ± ÏģÎ¸
ĠÏĨÏį Î»Î»Î±
ĠÏĢÎ±ÏģÎ± Î´ÎµÎ¯
ĠÏħÏĢÎ¿ Î²Î¿Î»Î®
ÏģÎ® ÏĥÎ¿ÏħÎ¼Îµ
ĠÎķ Îŀ
ĠÎ¸ ÏįÎ¼Î±
ÏĦ ÏģÎ¯Î±
Ïħ ÏģÎ¿Ïį
ÎķÏĢÎ¹ÎºÎ¿Î¹Î½ÏīÎ½ Î®ÏĥÏĦÎµ
ĠÎ½ ÏħÏĩ
ĠÎĴÏģÏħ Î¾ÎŃÎ»Î»ÎµÏĤ
ĠÏĢÏħ Îº
ĠÎłÎ¿Ïį ÏĦÎ¹Î½
Ġ Î½Î¿Ïį
ĠÏħÏĢÎ¿ ÏĦÎ¹
ÏģÏĮ Î»Î±
ow er
ĠÎ¹Î´Î¹Ïī ÏĦÎ¹ÎºÏĮ
ĠÎµÏĢÎ¹Î² Î±Ïģ
ĠÎ³Î¹Î± ÏĦÏģÏĮÏĤ
ĠÎ±Î³Î±ÏĢÎ· Î¼ÎŃÎ½Î±
ĠÏĥ Î®Î¼Î±
ĠÎķÎ½ ÎŃÏģÎ³ÎµÎ¹Î±ÏĤ
ĠÏĢÏĮÎ½ ÏĦÎ¿ÏħÏĤ
Î²Î»Î· Î¸ÎµÎ¯
ĠÎĶÎ¹ÎµÎ¸Î½ ÎŃÏĤ
ĠÏĢÏģÎ¿Ïĥ Î´Î¿Îº
á½ ¹
ÏĢÎµÎ¯ ÏģÎ¿Ïħ
ĠÎ¼ÏĢ Î»Î¿
ÎºÎ± Î»Î±
ÎŃ Ïĥ
ĠÎ´Î¹ÎµÎ¸Î½ ÎŃÏĤ
ĠÎ¼Î¿Î½Î¬ Î´Î±
Î±Î½ ÏĮ
ĠÏĨÎŃ ÏģÎµÏĦÎ±Î¹
ĠÎ¼Î¹Îº ÏģÏĮÏĤ
ĠÎ±Î³ÏīÎ½Î¹Ïĥ ÏĦÎ¹ÎºÎ®ÏĤ
ĠÏĢÎ± ÏĢ
un g
ĠÎłÏĮ Î»Îµ
ĠÏĨÎ±ÏģÎ¼Î± ÎºÎµÏħ
Î¼Î·ÏĦ ÏģÎ¯Î¿Ïħ
. ).
. ),
ÏģÎ® Î½Î·ÏĤ
ĠÎ¼ÏĢÎ± Î»
ĠC r
ĠÏĦÎ¹ Î¼Î·
ÎĻ ÎĶÎĳ
ÏģÎ¿Î½ ÏĦÎ±Î¹
ĠÎ´Î¹ÎºÎ±Î¹ ÏİÎ¼Î±ÏĦÎ¿ÏĤ
ĠÎº ÎŃ
ĠÎ´ÎŃ ÏĩÎµÏĦÎ±Î¹
ĠÏĢÎ¿Î»Î¹ ÏĦÎ¹ÏĥÎ¼ÏĮ
ĠB e
ĠÏĮÎ½ÎµÎ¹ ÏģÎ±
ĠÎ±ÏĢÎ¿Î¼Î± ÎºÏģ
ĠÎłÎ±Î½Î±Î¸Î·Î½Î±ÏĬ ÎºÏĮ
ĠÎ¿ ÏģÎ±
ĠÎĳÏģÎ¹ÏĥÏĦÎµ ÏģÎ¬ÏĤ
ĠÎ³ Î¹Î¿
ĠÎµÎº ÏĦÎ¯Î¼Î·ÏĥÎ·
ĠÎŃÎ³Îº ÏģÎ¹ÏĥÎ·
ĠÏĢÎµÏģÎ¬ ÏĥÎ¿ÏħÎ½
ĠÎ±Î½Î± ÏĨÎµÏģÏĮ
ĠÎ±Î½ÏĦÎ¹ÏĢÎ¿Î»Î¯ ÏĦÎµÏħÏĥÎ·
ĠÏĦÎµÏĩÎ½ Î¹ÎºÎŃÏĤ
ĠÎ´ÏħÏĥ ÎºÎ¿
ĠÏĢÏģÎ¿ÏĭÏĢÎ¿Î»Î¿Î³ Î¹ÏĥÎ¼Î¿Ïį
ĠÎ´Î¹Î± ÏĥÏĦÎ¬ÏĥÎµÎ¹ÏĤ
ÏģÏĮÎ½ ÏĦÏīÎ½
ĠÎ²Î±Ïĥ Î¹ÎºÎ®
ĠÎłÎµÎ»Î¿ ÏĢÎ¿Î½
ĠÎķ ÏĢÎµÎ¹Î´Î®
Î® ÏĥÏī
ĠÏĨ Î±Î½Îµ
ĠÏĥÏĢÎ¿Ïħ Î´ÏİÎ½
ÎĨ Î³
ÏĦÎµÏģ Î½Îµ
ÎķÏĢÎ¹ ÏĢÎ»ÎŃÎ¿Î½
ÏĨÎ± ÏĥÎ·
l l
ÏĢÏģÏĮ Ïĥ
Î´Î¿ Î¯
Î»Î±Î¹ Î±
Ġ ma
ÏĦÎµ Î¯Î¿Ïħ
ĠÎŃÎº ÏĦÎ±ÏĥÎ·
Î¹Î± Î½
ĠÎ£ÎµÏĢÏĦÎŃ Î¼Î²ÏģÎ¹Î¿
ĠÎ§ÏģÏħÏĥ Î®ÏĤ
ÎĿÎµ ÏĮÏĦÎµÏģÎµÏĤ
Ġ6 5
ĠÎ¸Îµ Î¿
Î³Î¹Î± ÏĦÎ¯
ÏĢÎ¯ ÏīÎ½
Î² Î¹Îµ
ĠÎ´Î¿ Î¼Î®
Î¥ Îĵ
ĠÎķÏĢÎ¹Ïĥ ÏĦÎ®
ĠÎ±Ïħ Î¸ÎµÎ½
ĠÏĢÏģÏī Î¹Î½ÏĮ
Î´ Î±Ïĥ
ÏĦÎ· ÏĦÎ¬ÏĤ
Î¯ ÏīÎ¼Î±
ĠÎºÏĮÏĥ ÏĦÎ¿ÏħÏĤ
ĠÏĨÏį ÏĥÎ·ÏĤ
ĠÎŃÏĨ ÏĦÎ¹Î±
ĠÎŃÎ³Îº Î»Î·Î¼Î±
ĠÏĥÏħÎ½ ÏĦÏģÎ¹
ÏĥÎ¹Î± ÎºÎ¬
ĠÎ´Î± ÏĢÎ±Î½
ĠÎ¼Îµ ÏĦÏģÎ¬
ĠÎĴ ÏĮÏģÎµÎ¹Î±
ĠÏĢÏģÎ¿Î²Î»ÎŃ ÏĪÎµÎ¹ÏĤ
ÏĦÏģÎ¿ÏĢ ÎŃÏĤ
ÎºÏĦÎ¿Î½ Î¯Î±
ĠÏĢÎ¿ ÏĥÎ¬
ĠÎ±Î½ÎŃ Î»Î±Î²Îµ
á ¾
ĠÎºÏģÎ± ÏĦÏİÎ½
ĠS c
ĠÎĨ Ïģ
ĠÏĥ ÏĮ
ĠÏĥÎ¿ ÎºÎ¿Î»Î¬
Î¿ÏħÎ» ÏĦÎ¿Ïį
ĠÏĥÏħÎ¼Î²Î± Î¯Î½Î¿ÏħÎ½
Î³Îµ Î³ÏģÎ±Î¼
ĠÎ¤ Î·ÏĤ
ĠÏĥÎº Î¬Î½Î´Î±
ĠÎ£ ÎŃÏģ
ĠÎ±Î½Î¿Î¹Ïĩ ÏĦÎ¬
ĠÎ´ÏĮ Î¸Î·ÎºÎµ
ĠEuro group
ĠÏįÏĢ Î½Î¿
ĠÎºÎ¹ ÏĮÎ»Î±ÏĤ
ĠÎ¤Î± Î¼ÎµÎ¯Î¿
ĠÎ´Î·Î¼Î¹Î¿ÏħÏģÎ³ Î®Î¸Î·ÎºÎµ
ĠÎº Î»Î¿
Î³ Ïħ
Ïĩ ÏģÎµ
ĠÏĦÏį ÏĢÎ¿
ĠÎ£ Î¿Ïį
ÎŃÏģ Î¼Î±
ros oft
Î¬Î» ÎµÏĤ
ĠÎµÎ¼ÏĢÎµÎ¹ ÏģÎ¯ÎµÏĤ
ĠÎĨ Î³ÎºÏħ
ĠÎºÎ±ÏģÎº Î¯Î½Î¿Ïħ
ĠÎºÎ± ÏĦÎ¹
ĠÎ²Î»ÎŃ Î¼Î¼Î±
ĠS ky
Î¯ ÏĦÎ±
ĠÎºÎ¿Ïħ Î²ÎŃÎ½
Î¬ ÏĦÏģÎ¿Ïħ
ĠÎ¹ÏĥÏĦÎ¿ÏĥÎµÎ» Î¯Î´Î±ÏĤ
Ïĥ ÏĦÎ¹ÎºÏİÎ½
ÏĥÏĦÎ¿ Î½
ĠÏĦ ÏĥÎŃ
Î² Î¿Î½ÏĦÎ±Î¹
ÏĢ ÏĦÎ·
ÏĨÎ¿ ÏģÎ¿
ÏģÎ¹ Î¿Ïħ
ĠÎ²Î¿Î· Î¸Î¿ÏįÎ½
ĠÎ² ÎŃ
ÏĬ ÎºÎ¬
Ïĩ Î½Îµ
ĠÏĩÎ¹Î» Î¹Î¿
ĠÎ±Î½Î±ÏĢÏĦÏħ Î¾Î¹Î±
ĠÎµÏħÎ¸Ïį Î½Î·ÏĤ
ĠÏĩÏī ÏģÎ¬
ĠÎ´Î·Î¼Î¿ ÏĪÎ®ÏĨÎ¹ÏĥÎ¼Î±
ĠÎłÎ¿Î»Î¹ ÏĦÎµÎ¯ÎµÏĤ
ĠÎ´Ïİ ÏĥÎ¿ÏħÎ¼Îµ
ĠÎºÎ¹Î½ ÎµÎ¯ÏĦÎ±Î¹
ĠÎŃÎ² Î»Îµ
ĠÎ¼Îµ Î¸Î¿
ĠÏĦ ÎµÏģÎ¼Î±
ĠÎĴÏģÎ± Î¶
ĠÎ£ÏħÎ½Îµ Î´
ĠÎłÎ»Î· ÏģÎ¿
ÏĥÏĦÎ¿ ÏĦÎµ
ĠÏħÏĢÎŃÏģÎ¿ ÏĩÎ¿
ÎºÎ¯Î½Î· ÏĥÎ·ÏĤ
ĠÎ±Î¾Î¹ÏĮ ÏĢÎ¹Ïĥ
ĠÎĳ ÏĢÎ¿ÏĦÎµ
Ġw eb
ĠÎ´Î±Î½ÎµÎ¹ ÏĥÏĦÎŃÏĤ
Î»ÎµÎº ÏĦÎ¹ÎºÎ¬
Î¬Î¶ Î¿Î½ÏĦÎ±ÏĤ
ter n
ĠÎ³ Î¹Î¿ÏĤ
ĠÏĩ Î±Î¹ÏģÎµ
ĠÎ±Î³ Î¹Î¬
ÏĨÎ¿Ïģ Î¹ÎºÎ®ÏĤ
ĠÎ±Î½Î±Î³Î½Ïİ ÏģÎ¹ÏĥÎ·
ĠÎ¸ÏħÎ¼Î¬ Î¼Î±Î¹
ĠÏĦÎ¿ÏĢ Î¹ÎºÎ¬
ĠÎºÎ¿ÏĢÎŃ Î»Î±
ĠÎ¸Î¬Î½Î± ÏĦÎ¿ÏĤ
ĠÎĳÏħ Î³Î®
ĠÎ³Îµ Î¼
ĠT o
ÏĦÏħ ÏĢÎ·
ĠÏĮ ÏĩÎ·Î¼Î±
ĠÎ£ Î¤Îĳ
ĠÎ±ÏĥÏĦÏħÎ½Î¿Î¼ Î¹ÎºÎ¿Î¯
Î³ÏģÎ±ÏĨ Î¯Î±ÏĤ
ĠÎĻÎ´ ÏģÏį
Î² Î¿ÏħÏĤ
ĠÎłÎ¿ Î»Îµ
ĠÎłÎ±Î³ÎºÏĮÏĥÎ¼ Î¹Î±
ĠÎĳ Î³Î³ÎµÎ»
ĠÎ´Î¹ÎµÏħ ÎºÎ¿Î»
ĠÏĨÎ±Î½ÏĦÎ± ÏĥÎ¯Î±
ĠÎµÎ¾Î·Î³ ÎµÎ¯
ĠÎ¸Î± ÏħÎ¼Î¬
ĠÎļÎµÎ½ÏĦÏģ Î¹ÎºÎ®
ĠÏĢÎ±ÏĢÎ¿Ïį ÏĦÏĥÎ¹Î±
ĠÎ¹Î´ Î¯ÏīÏĤ
ĠÎ´Î¹Î±Î²Î¬ ÏĥÎµÎ¹
ĠÎ´Î¯Î±Î¹ ÏĦÎ±
ĠÎºÎ±Î¸Î± ÏģÏĮ
ĠÎ»Î¿Ïħ Î»Î¿Ïį
ĠÏĥÏħÎ¼Î² Î¿Î»Î®
ĠÏĥÏĩÎµ ÏĦÎ¯Î¶Î¿Î½ÏĦÎ±Î¹
ĠÎ±Î½Î¿Î¹Ïĩ ÏĦÏĮ
ÏĮ Î´ÏīÎ½
ÏĢÎ¬ ÏĤ
ÏĦÎ¿Î³ Î±Î»
ex t
ĠÎµÏĦÎ±Î¹ ÏģÎ¯ÎµÏĤ
ĠÎ¼Î¹Î»Î® ÏĥÎµÎ¹
Î¤Îķ ÎĽ
ĠÏĦÏħ ÏĨ
ĠÎ±Î½Î± Î²Î¬Î¸Î¼Î¹ÏĥÎ·
ĠÏĢÏģÎ¿ÏĢÎ¿Î½Î· ÏĦÎ®ÏĤ
Î¹ Î¬Î½
ĠÏĢÏģÎ¿ ÏĬ
ĠÎ´ÏĮ ÏĥÎµÎ¹ÏĤ
ĠÏĢÏģÎ¬ÏĥÎ¹ Î½Î¿
ĠÏĥÏħÎ¼Î¼ÎµÏĦÎµÎ¯ ÏĩÎµ
ÎŃ ÏĩÎµÎ¹
ĠÎļÏįÏĢ ÏģÎ¿ÏĤ
ÏĮÏĦÎ± ÏĦÎ±
ĠÎºÎ±Î¹ ÏģÎ¿ÏįÏĤ
ĠÏĨÏģÎ¿Ïį ÏĦÎ±
ÏĥÏħ Î³
ĠÏĩÏģÎ·ÏĥÎ¹Î¼Î¿ÏĢÎ¿Î¹ ÎµÎ¯ÏĦÎµ
Î¼ Î¯Î´Î±
Î¹Îº Î±Ïĥ
ĠÏĥÏħÎ¼Î² Î¿ÏįÎ»Î¹Î¿
Î½ ÏİÎ½ÎµÎ¹
ĠÎ´Î¹Î¿ Î¯ÎºÎ·ÏĥÎ·ÏĤ
ĠÏĥÏįÎ³Îº ÏģÎ¿ÏħÏĥÎ·
Î¼Î¹ ÎŃÏģÎ±
om b
ÏĢÎµ ÏģÎ±
ĠÏĢÎ±ÏģÎ± ÏĩÏī
ĠÎµ Î»Î¬
ĠÎł ÏģÎµÏĥ
ĠÎ±Î½ÎµÎ¾Î±Ïģ ÏĦÎ·
ĠÎ¥ ÎłÎķ
ĠÎµÎ¹Ïĥ Î¬
ĠÎŃÎ½ ÏĦÎ±Î¾Î·
ĠÏĢÎŃ ÏģÎ±Î½
Î» ÏĦÎµ
ĠÎµÎºÎ´Î® Î»ÏīÏĥÎ·ÏĤ
9 9
ĠÎ´Î¹Î± ÏĦÎµ
Î´Î¯Î´ ÎµÏĦÎ±Î¹
ĠÎµÏĢÎ¹ ÏĦÏħ
ĠÎ± ÏĨÎ±Î¯
ĠÎ¸ÎµÏī ÏģÏİ
ÏĦÎŃÏģ Î¼ÏĢÎ¹
Î¼Îµ ÏģÎ®
ĠÎµÎºÎ¬ ÏĥÏĦÎ¿ÏĦÎµ
ĠÎ¶Ïİ ÏīÎ½
Î»ÎµÎ¹ ÏĦÎ¿ÏħÏģÎ³
ÏĨ Î¹Ïĥ
ĠÏĢÎµ Î¸Î±
ĠÎĳÎ»Îµ Î¾Î±Î½Î´
ĠÎłÎ±Î»Î±Î¹ ÏĮÏĦÎµÏģÎµÏĤ
ĠÎ±ÏĢÎ±Î½ ÏĦÎ¬
ĠÎ±ÏħÏĦÎ¿ Î´Î¹Î¿
ĠÎĳ Î³Î¿
ĠÎ´Î¹ÎºÎ± Î¯Î¿Ïħ
ÎºÎ¹ Î¼Î±Î½ÏĦÎŃÏģ
ĠÎ½ ÏĦÎ¿Ïħ
ĠÎķÎĽÎĽÎĳ ÎĶÎĳ
I V
ÏįÏĦÎµ ÏģÎ¿
ĠÎ´ ÏİÏģÎ±
ÏĦÎ¿ Ïģ
ic h
ÏĦÎ¿Î½ ÎµÏĤ
Î¹ Î½Î·
Ïį Î¾Î·
ĠÏĢÏģÎ¿Î¿ ÏģÎ¹ÏĥÎ¼ÏĮ
ĠÎ¿ÏģÎ³Î±Î½ ÏİÏĥÎµÎ¹ÏĤ
ĠÎłÎ±ÏģÎ±ÏĥÎºÎµÏħ Î®ÏĤ
ĠÎµÏĢÎ¹ÏĥÎ·Î¼Î± Î¯Î½ÎµÎ¹
Î»ÎµÎ³Î³Ïį Î·
ÎľÎķ ÎĿ
ĠÏĢÎ±Î¯Îº ÏĦÎ·ÏĤ
ĠÎ®Î¸Îµ Î»Î±Î½
ĠÎ´ Î¯ÎºÎ·
Ġhttp s
Î¡ÎĻ ÎŁ
ĠÎ¼ÏĢÎ¿ ÏģÎŃÏĥÎµÎ¹
ÏĦÏģÎ± ÏĢÎµÎ¯
ĠÎłÎµÎ¹ÏģÎ±Î¹ ÏİÏĤ
ĠÎ¤ Ïĥ
ĠÎºÎ±Î½ Î¬Î»Î¹
ĠÎ¾ÎµÎºÎ¯Î½Î· ÏĥÎ±Î½
ĠÏĢÎ±ÏģÎ¿ÏħÏĥÎ¹Î¬ Î¶Î¿ÏħÎ½
Îĵ Îµ
ĠÎ±ÏĢÎ¿Ïħ ÏĥÎ¯Î±
Îº Î¿Î½ÏĦÎ±Î¹
ĠÎµÎ³Î³ ÏģÎ¬
ĠÎ¤ ÏĥÎµ
ĠÏħ Î»Î¹ÎºÎ¿Ïį
ĠÎ·Î»ÎµÎºÏĦÏģÎ¿Î½ Î¹ÎºÎ¬
ĠÏĢÏģÎ±Îº ÏĦÎ¿
ĠÎ´Î¹ÎµÏħ ÎºÏģÎ¹Î½
ĠÎ¶ÏīÎ½ ÏĦÎ±Î½Î¬
ĠÎ±ÏģÏĩ Î®ÏĤ
ĠÎĳÏģÎ¹ÏĥÏĦÎµ ÏģÎ¬
ÏĦÎ· ÏĥÎ±
ĠÎ±ÏĢÎµÎ»ÎµÏħÎ¸ÎŃ ÏģÏīÏĥÎ·
ĠÎĺÎµÏĥÏĥÎ± Î»Î¯Î±ÏĤ
Î± ÏĢÎ±
ĠÎ³ Î¯
ĠÏĥÏħÎ½ÎµÏĩ Î¯Î¶Î¿ÏħÎ½
ĠÎ¦ÏħÏĥ Î¹ÎºÎ¬
ĠÏĢÏģÎ¿Î² Î»Îµ
ÏĥÎµ ÏĦÎ±Î¹
ĠÎ±Î½Î¬ Î´ÎµÎ¹Î¾Î·
ĠÎ»Î® Î¾Î·
ĠÎ±ÎºÎ±Î´Î· Î¼Î±
ĠÏĩÏģÎ·ÏĥÎ¹Î¼Î¿ÏĢÎ¿Î¹ Î·Î¸ÎµÎ¯
ĠÏĢÏģÎ¿Î¼Î· Î¸ÎµÏħ
Ġm edia
ĠÎ·Î³ÎŃ ÏĦÎµÏĤ
ĠÎĻÎ¿ÏįÎ½ Î¹Î¿
ĠÏĢÎ¿Î¹ ÎµÏĤ
ĠÎĳÏħ ÏĦÎ¿Î¯
ĠÎ· Î¼Î¯
Î£ ÏĩÎ¿Î»
ĠÏĥÎºÎ¿ ÏĦÎµÎ¹
ÏĩÎ± ÏģÎ¯
ik i
ĠÎŃÎ³ Î³ÏģÎ±ÏĨÎ±
ĠÏĥÏħÎ½ Î´ÏģÎ¿
ÏĢÏī ÏģÎ¿
ĠÏĢÎ±Î½Î·Î³ Ïħ
ĠÏĢÏģÏīÏĦÎ± Î¸Î»Î·
ĠÎ³ Î¿Ïħ
ĠÎ³Î¹Î± ÏĦÏģÎ¿Ïį
Î»ÏİÎ½ ÎµÎ¹
ĠÎ´Î¹Î± Î»ÏĮÎ³Î¿Ïħ
ĠÎ±ÏĥÏĦÏħÎ½Î¿Î¼ Î¹ÎºÎ¿ÏįÏĤ
Ġ200 5
ĠÎĴ Î±Î³Î³ÎŃ
p a
Îĳ ÏĢ
Î± ÏĢ
ĠÎµÎ½Î´Î¹Î±ÏĨÎŃÏģÎ¿Î½ ÏĦÎ¿ÏĤ
ĠÎµ Î»ÎµÎ³
] .
ĠÏĦÎµ ÏĦÏģÎ±
ĠÎºÎ¬ Î½Î±Î¼Îµ
ĠÏĥÎ¿Ïį ÏĢÎµÏģ
Î±Ïĥ Î¹ÏİÎ½
ÎºÏĦÎ· Î¼Î±
ĠÏĥÏĦÎµÎ»Îµ ÏĩÏİÎ½
ĠÎĳÏģÏĩ Î®
ĠÎ¿ Î¾Ïį
ĠÏģÏħÎ¸ Î¼Î¿ÏįÏĤ
ĠÎ±ÏģÏĩÎ·Î³ ÏĮÏĤ
ĠÎļÎ¿ Î»Î¿
ĠÏĢÎµ ÏĦÎ¬
ĠÎ»Î± Î¼ÏĢ
ĠÎºÎ±Î» ÏįÏĢÏĦÎµÎ¹
ĠÎ¬ Î½Î¿Î´Î¿
ÎłÎŁ Î¡
ĠÎ¤ ÏģÏĮ
ĠÎ¬Î»Î»Î¿ ÏĦÎµ
ÏĨÏħ Î»Î±
5 3
ĠÎķÏĢÎ¹ÎºÎ¿Î¹Î½ÏīÎ½ Î¯Î±
ĠÏĥÏĦÎ± Î¼Î¬
ĠÎºÎ±ÏĦÎ¬Î»Î»Î· Î»Î¿
ĠÎ¼Î¹Îº ÏģÎ¿Ïį
ĠÎ±ÏģÏĩ ÎµÎ¯Î±
ĠÏĦÎ¿Ïį ÏĦÎ¿
ĠÎĴ ÏĮÎ»Î¿Ïħ
ÏĦÏĦÎ± ÏģÎ±
ÏĥÏĦÎ± Î¸ÎµÎ¯
Î´ÎµÎ¹ Î¾Îµ
Î¼Î¬ ÏĦÎ±ÏĤ
ĠÎºÎ¹Î½Î® Î¼Î±ÏĦÎ¿ÏĤ
Î£ Î¬
ĠÎ³Î½ÏīÏģÎ¯Î¶ ÎµÏĦÎµ
ĠÎ½ Î¹ÎºÎ®
ÏĥÎ¹ Î¿Ïħ
ĠÎµÎºÎµÎ¯ Î½ÎµÏĤ
ÏģÎ¹ Î¶Î±
ÏĨ ÎµÎ»
ÏģÏİ ÏĥÏĦÎµ
Î»Î± ÏĦÎ¿
ĠÎ±ÏħÏĦÎ¿ ÎºÎ¹Î½Î·
v er
ÏįÏĦÎµ ÏģÎ±
ĠÎ£ ÎŁÎ¥
ĠÎłÏģÏī ÏĦÎ±
ĠÏĢÎµÏģÎ¹Î»Î±Î¼Î² Î¬Î½Î¿Î½ÏĦÎ±Î¹
Î¹Î¿Î½ Î´Î®ÏĢÎ¿ÏĦÎµ
Î´Ïį Î½Î±
ĠÎŃ ÏģÎ¹
ĠÏħÏĢÎ±Î»Î»Î® Î»ÏīÎ½
ĠÎµÏĢÎ¹ÏĩÎµÎ¹ ÏģÎ·
ĠÎĳÏģÏĩ Î±Î¹Î¿
ĠÏĨ ÏĦÎ±Î¯
Î¼ÏĢÎµÏģÎ¹Î± Î»Î¹Ïĥ
ĠÏĥÏħÎ½Î±Î½ ÏĦÎ®ÏĥÎµÎ¹ÏĤ
ĠÎ± ÏģÎ¹Ïĥ
ĠÎ¸ÏħÎ¼ Î¯Î¶ÎµÎ¹
ĠÎĶÎ¹ÎºÎ±Î¹Î¿ ÏĥÏįÎ½Î·ÏĤ
ĠÎºÎ¿Î¹Î½Î¿ Î²Î¿ÏħÎ»ÎµÏħ
V ideo
Îľ Î¹Îº
Ġt h
Î¡Îĳ Îĵ
ÏĪ ÏħÏĩ
ĠÏĢÎµÏģÎ¹Î»Î±Î¼Î² Î¬Î½Î¿ÏħÎ½
ĠÎºÎ± ÏģÎŃ
ĠÎ´Î·Î¼Î¿ÏĥÎ¹ ÏĮÏĦÎ·ÏĦÎ±
ĠÎ¼Î¿Î½Î¬ Î´ÏīÎ½
ĠB ar
ĠÏĦÎµÎ»ÎµÎ¹ ÏİÏĥÎµÎ¹
ĠÎµÎ¹Ïĥ ÏĢÏģÎ¬
ĠÎºÎ±Î»ÏįÏĦÎµ ÏģÎ¿ÏĤ
Î¼Î± ÏĦÎ¹ÎºÏĮ
ĠÎ¦ Î±Ïģ
Î£Ïħ Î³Îº
ĠÎĳÏĨ Î¿Ïį
ĠÏħÏĢÎ¿ ÏĪÎ·ÏĨ
ro w
ĠÎ²Î¿Î·Î¸Î¬ ÎµÎ¹
ĠÎĪ ÏĩÎ¿ÏħÎ¼Îµ
Î¸ÎµÏģÎ±ÏĢÎµ Î¯Î±
ĠÏĦ ÏģÎ¿ÏĨÎ¿
ĠÎ¼Î¿Î½ÏĦÎŃ Î»Î±
ĠÎĵ Î½Ïī
Î© Î¡Îĳ
Î¦ Î©Î¤ÎŁ
ÏģÎ³ ÏīÎ½
ÏĥÎ¹Î± ÎºÎ®
ĠÎ³ÎŃ ÏĨÏħ
ĠÏģÎµ ÏħÏĥ
ĠÎ¼Î½Î® Î¼Î·ÏĤ
ĠÎ¿ ÏĩÎ·Î¼Î¬ÏĦÏīÎ½
ĠÎµÏĢÎ¯Îº ÎµÎ½ÏĦÏģÎ¿
ĠÏĥÎºÎ»Î· ÏģÏĮ
ĠÎµÏħ Î³ÎµÎ½
en a
ÏĥÏĦÎµ Î¯Î±
Ïį ÏģÏī
ÏģÎº ÎµÎ¹Î±
ĠÎ¼ÎŃ Î»Î¹
ĠÏĥÏħÎ½ÎµÎ¯Î´Î· ÏĥÎ·
ĠâĨ Ĵ
Î¹Ïĥ Î®
Î½Î® ÏĥÎ¿Ïħ
ĠÏĥÎºÎ»Î· ÏģÎ®
ÏĦÎ¬ ÏģÎ¹Î±
ĠÎ´Î¹Î± ÏĦÏģÎ¿ÏĨ
Î· ÏĦÎµÏħ
ĠÎ£ÎµÏģ ÏģÏİÎ½
ĠÎ±ÏĢÎ± Ïģ
ĠÎ±ÏĢÎ¿ ÏĦÏħÏĢ
ĠÎ´Î·Î¼ÏĮÏĥÎ¹Î± ÏĤ
ÏĦÎ¬ ÏģÎ¹
ĠÏĨÎµ ÏĥÏĦÎ¹Î²Î¬Î»
Î¼Î¬ Ïģ
ĠÎ±Î½Î± ÏĨÎ¿ÏģÎ¹ÎºÎ¬
ĠÏĢÎ¿Î»Ïħ ÏĦÎµ
ĠÎ§ÏģÎ¹Ïĥ ÏĦÏĮÏĤ
ÏĨ ÎµÏħ
ĠÎ³ÎµÎ³Î¿Î½ ÏĮ
Î³Î³ Î±
ÏİÎ½ Î¿ÏħÎ¼Îµ
ĠÎ¸Îµ ÏĦÎ¹ÎºÏĮ
ĠÏĢÎµÏģÎ¹ÏĥÏĥÏĮÏĦÎµ ÏģÎ·
; )
ĠÎºÎ±ÏĦÎ± ÏĢÎ»Î·
ÏģÎ¯ ÏĥÎ¼Î±ÏĦÎ±
ĠÎµÎ³Î³ Ïį
ĠÏĪÏī Î¼Î¯
ĠÏĥÏħÎ½ÎµÏģÎ³ Î±
Î¬ Î»Î»Î¿Ïħ
ĠÏĢÎ½ÎµÏħÎ¼Î± ÏĦÎ¹ÎºÎ®
Î²Î¬ ÏĦÎ¿Ïħ
ĠÎ¼Î¿Î½ ÏĮ
ĠÏĢÏģÎ¿ ÏĢÏĮÎ½Î·ÏĥÎ·
ĠÎ±ÏģÎºÎµ ÏĦÏĮ
ĠÎ»Î±Î¼Î² Î¬Î½ÎµÎ¹
ĠÎ§Î±Î»Îº Î¹Î´
Î¸ ÏģÎ±Îº
Îķ Î¤Îķ
ĠÎ³ÎµÎ¼Î¬ ÏĦÎ·
ĠÏĦÎµÎ»ÎµÎ¯ ÏīÏĤ
ĠÎ¼ÎµÎ¹ Î¿Î½
ĠÎķ Î»ÏĢ
ĠÎ±Î½Î± ÏĢÏĮ
ĠÏĢÏģÎ±Î³Î¼Î±ÏĦÎ¿ÏĢÎ¿Î¹ ÎµÎ¯ÏĦÎ±Î¹
ÎľÎ± ÎºÎµÎ´Î¿Î½
ÎŃÎ½ ÏĦÎ±
ÎĻÎļ ÎĹÎ£
ĠÏĨ Î¬Î½Î·
Î¼Î¬ ÏģÏĩÎ¿Ïħ
ĠÏĢÏģÎ¿ÏĥÏİ ÏĢÏīÎ½
ĠÎ±Î»Î»Î· Î»ÎµÎ³Î³ÏįÎ·ÏĤ
ĠÏĥÏħÎ¼ÏĨ Îµ
ĠÏĦÎ¿ÏĢ Î¯Î¿
ĠÎ¼ÏĢÎ¬Î½ Î¹Î¿
ĠÏĢÏī Î»Î®ÏĥÎµÎ¹ÏĤ
ĠÎļ ÏģÎ¯
ĠÎŁÎ¹ÎºÎ¿Î½Î¿Î¼ Î¯Î±ÏĤ
ĠÎ£ÏħÎ½ ÏĦÎ¬Î³Î¼Î±ÏĦÎ¿ÏĤ
ĠÏĨ ÏĦÎ¹Î±
Î¹ ÏĦ
Îł Î±Î½
ĠÏĦÎ¹ Î¼ÏİÎ½
ĠÎ»Î±ÏĩÎ±Î½ Î¹ÎºÎ¬
ĠÏĢÎ¹Î¸Î±Î½ ÏĮÏĦÎ·ÏĦÎµÏĤ
ÏĢ ÏĦÎµÎ¹
ĠÎĿ ÏĦÎ¹
ĠÎ±Î½Î± ÏĢÎ±ÏģÎ±Î³Ïī
ĠÎµÎºÎ±ÏĦÎ¿Î¼Î¼ ÏħÏģÎ¯ÏīÎ½
ĠÎ¨ Î·
ĠÎµÏĢÎ¹ ÏĢÎŃÎ´Î¿Ïħ
ĠÏĨÎ¹Î»Î¿ÏĥÎ¿ ÏĨÎ¯Î±
ĠÎĹÏģÎ±Îº Î»ÎµÎ¯Î¿Ïħ
ĠY ou
ĠÏĢÎŃÏģ ÏħÏĥÎ¹
ÏīÎ½ Î¯Î±
ĠÏĥÏħÎ½ÏĦÎ¬ Î¾ÎµÏīÎ½
ĠÎķÎ» Î²Îµ
am es
ĠÎŁ Î¼Î¬Î´Î±
er n
C O
ÎŃ ÏģÎ¹Î¿
ĠÎµÏĢÎ¹ÏĥÏĦÎ® Î¼Î·
ĠÎ± ÎºÎ¿
ĠÎł ÏħÏģÎ¿
ĠÎ¤ ÎĻÎ£
ÎĴ ÏģÎ¯
ĠÎµÎ¹Î´ ÏİÎ½
ĠÎĻÏĥÏĦÎ¿ ÏģÎ¯Î±ÏĤ
ĠÎłÎ±Î½Î±Î¸Î·Î½Î±ÏĬ ÎºÎ¿Ïį
ĠÎķÏĦÎ±Î¹ ÏģÎµÎ¯Î±
Î¯Ïĥ Î±Î¹
ĠÎŀ ÎŃ
ĠÏĥ Î±Î»
ĠÏĢÏģÎ¿Ïĥ ÏĨÎŃÏģÎ¿ÏħÎ¼Îµ
ĠÎ±Î½Î¬Î³Îº Î·ÏĤ
ÏĨÎ±Î½ ÏİÏĤ
Ïĥ ÏĢÎ¹Ïĥ
ĠÎ±Î½Î±Î¼ÎŃ ÏĦÏģÎ·ÏĥÎ·
ĠÎŃÎº ÏģÎ·
ĠÎ¹Î´Î¹Î¿ÎºÏĦÎ® ÏĦÎµÏĤ
Îº ÏħÏĥ
Ġ Â·
Î¶ ÏİÎ½Î·ÏĤ
ĠÎºÏģÎ¬ ÏĦÎ·ÏĥÎ·
ĠÎ´Î¹Î±ÏģÎº ÏİÏĤ
á¿Ĩ ÏĤ
ĠÏĢÎ±ÏģÎµ Î¼Î²Î¬ÏĥÎµÎ¹ÏĤ
ĠÎ²Î¹Î¿Î¼Î·ÏĩÎ±Î½ Î¯Î±
ĠÎ³Î¹Î± ÏĦÏģÎ¿Î¯
ĠÏĢÏģÎ¿ÏĥÎ± Î½Î±ÏĦÎ¿
ĠÏĢÎŃÏĨ ÏĦÎµÎ¹
ĠÎµÎ¹Ïĥ ÎŃ
ĠÏĢÎ±ÏģÎ±ÎºÎ¿Î»Î¿Ïħ Î¸Î®
Î»Îµ ÏĥÎ±Î½
ĠÎ±Î½ Ïħ
ĠÎ£ÏĩÎ¿Î» ÎµÎ¯Î¿
ĠÎµÏģÎ±ÏĥÎ¹ ÏĦÎµÏĩÎ½
ÏģÎµÏħ ÏĥÎ·ÏĤ
ÏģÎ¹Î± ÎºÎ¬
ÏĦÎµ ÏģÎ¬
ĠÎ´ÎŃÏģ Î¼Î±ÏĦÎ¿ÏĤ
Ġ0 9
ĠÎ±ÎºÎ¿Î»Î¿Ïį Î¸Î·ÏĥÎµ
ÎºÏģÎ¹ Î½Îµ
ĠÎ³ ÎµÎ¯
ĠÎĳÏħÏĦÎ¿ Î´Î¹Î¿
ĠÎµÏĢÎ¹ Î»ÎµÎ³
Î¼Îµ Î½Î¿Ïħ
ĠÎ± ÎºÎ±
ĠÏĩÏģÎ® ÏĥÏĦÎ·ÏĤ
ĠÎµÏĢÎ¹ Î´ÎµÎ¯
ĠÏĢÏģÏĮÏĥ ÎºÎ»Î·ÏĥÎ·
ĠÎµÎ½Î´Îµ ÏĩÎ¿Î¼ÎŃÎ½ÏīÏĤ
ĠÎ£Ïħ Î³ÎºÎµÎºÏģÎ¹Î¼ÎŃÎ½Î±
ĠÏĥÏįÎ½ ÏĦÏģÎ¿
ĠÎ±ÏĢÎ¿ÎºÎ¬Î»Ïħ ÏĪÎµ
ÏĨÏįÎ»Î± Î¾Î·
Ïĥ ÏĦÎŃ
ĠÎ±ÏĢÎ¿ÏĨÎ±Ïĥ Î¯ÏĥÎµÎ¹
ĠÎµÎ¼ÏĨÎ±Î½ Î¯ÏĥÎµÎ¹ÏĤ
ĠÏĩÎ±Ïģ ÏĦÎ¿
ÏģÎ³Î± Î½Î¿
Î¸ Î¿Ïį
ĠÎ¬ Î¼ÏħÎ½Î±
ĠÎ±Î½Î±Î¼Îµ Î½ÏĮ
ĠÎ³Î¹Î± ÏĦÏģÏĮ
ÎºÎ± ÏĦÎ¿Î¹Îº
ĠÎ±Î¾Î¹Î¿ ÏĢÎ¿Î¯Î·ÏĥÎ·
ĠÎĽ Î¿Ïį
ĠÎ´ Î¹ÎºÎ¿
ĠÏĩÎ±ÏģÎ±Îº ÏĦÎ®ÏģÎ¹
ÏģÏİ ÏĤ
ĠÎ¹Î±ÏĦÏģ Î¹ÎºÎ®
ÏĨÏĮ ÏģÎ¿ÏĤ
f or
ÏĥÏħ Ïģ
Î³ÎµÏģ ÏĥÎ·
ĠÎŃÎº ÏĨÏģÎ±ÏĥÎ·
ĠÎĳÎ½Îµ Î¾
ĠÏĥÏįÎ³ ÏĩÏģÎ¿Î½Î¿
ĠÎ´Î¹ÎµÎº Î´Î¹Îº
ĠÏĦÎ¿Ïħ Ïģ
ĠÏĦÎµÎº Î¼Î·
ÏĢ Î¹Î¬
ÏĦÎ® Î¼Î¹Î±
ĠÎĬ Î´ÏģÏħ
Î± ÏģÎ¹ÏĥÏĦÎµ
p ics
ĠÎ±Î½ÏĦÎ¹ ÏĢ
ĠÏĦÎ± ÏĢÎµÎ¹
ÏģÏİ ÏĥÎµÏĦÎµ
ĠÎĵÎ±Î»Î» Î¯Î±ÏĤ
ĠÏĢÎ»Î· ÏģÏİÏĥÎµÎ¹
ĠÎłÏģÎ¿ ÏĬÏĮÎ½
ĠÎĳÏįÎ³Î¿Ïħ ÏĥÏĦÎ¿
ĠÎ´Î¹Î±Î¸ÎŃ ÏĥÎ¹Î¼Î¿
ĠÎ´Î¹Î±Ïĥ ÎºÎŃÎ´Î±
ĠÏħÏĢÎ¿ÏĪÎ®ÏĨ Î¹Î¿ÏĤ
ĠÎŃÎºÎ»ÎµÎ¹ ÏĥÎµ
ĠÎºÎ±Î¸Îµ ÏĥÏĦÏİ
ÏĨÎ¬Î» Î¹ÏĥÎ·
ÏĦÏĥ Î¿Ïį
ĠÎµÏħÏģÏįÏĦÎµ ÏģÎ·
ĠÏĥÎ·Î¼Î¬ Î´Î¹Î±
ĠÎ±ÏĢÏĮÎ»Ïħ ÏĦÎ¿
ĠÎºÎ±Î¸Î® ÎºÎ¿Î½
ĠÎŃÎº Î¸ÎµÏĥÎ·ÏĤ
ĠÎ¿Î¹ÎºÎ¿Î³ÎŃÎ½ ÎµÎ¹Î¬
6 6
ĠÏĨÏģÎ¿Î½ ÏĦÎ¯Î´Î±
ĠÎ±ÏĢÎ¿ Î¸Î®
ĠÏĦÏį ÏĢÎ¿ÏĤ
ĠÎ±Î½ÏĦÎ¯ÏĥÏĦÎ¿Î¹ ÏĩÎ¿
ĠÎ±Î½Î±Î»Ïħ ÏĦÎ¹ÎºÎ¬
Îĳ Î³Î±ÏĢÎ·
Îľ Î¬Î»Î¹ÏĥÏĦÎ±
ĠÏĢÎ¹Ïĥ ÏĦÎŃ
ÎºÏģÎ¬ ÏĦÎµÏĤ
ĠÎµÏĢÎ¹ÎºÎ±Î¹ ÏģÏĮÏĦÎ·ÏĦÎ±
ĠÎµÏĢÎ¹ Î²Î±
Î¸Ïį Î¼Î·
ĠÎµÎ¹ÏĥÎ¿Î´Î® Î¼Î±ÏĦÎ¿ÏĤ
ĠÏĥÏĦÎ¿Î¹ ÏĩÎµÎ¹
ĠÏĥÏħÎ¼ ÏĢÎµÏģÎ¬
ĠÎłÎ± ÏĢ
5 8
ĠÎµÏĢÎ±Î³Î³ÎµÎ»Î¼Î± ÏĦÎ¹ÎºÎ®
ÎµÎ¹ Î´
ĠÎ±Î½ÏĦÎ¹ÏĢÎ¿Î»Î¯ ÏĦÎµÏħÏĥÎ·ÏĤ
ÏģÎ¯ ÏĥÎµÎ¹ÏĤ
ĠÎ´Î·Î¼Î¿ ÏĥÎ¯Î¿Ïħ
ĠÎ´Î¹Î±Î´Î¹Îº ÏĦÏįÎ¿Ïħ
ĠAp ple
Î»ÎŃ ÏĦÎµÏĤ
ĠÎ¸ ÎµÎ»
ĠÏĢÎ¿Î´Î¿ ÏĥÏĨÎ±Î¯ÏģÎ¿Ïħ
Î¯ Î¸
á½ »
ĠÏĥÏĦÎ¬ Î¸
Î· Î»
ĠÎĳÏĥ ÏĨÎ±
ĠÏĢÏģÎ¿ ÏĩÏİÏģÎ·ÏĥÎµ
ĠÎĶÎ¹Î¿ Î¯ÎºÎ·ÏĥÎ·ÏĤ
ĠÎµÎ»Î±Î¹ ÏĮÎ»Î±
ĠÎºÎ±ÏĦÎŃÎ»Î· Î¾Îµ
Î³ Î¼ÎŃÎ½Î¿
ĠÎķÏĢÎ± Î³Î³ÎµÎ»Î¼Î±
ÏģÏĩ Î¿
y l
ĠÎ´Î¹Î¬ ÏĦÎ±Î¾Î·
Îľ ÎĴ
ĠÎ±Ïĥ Ïħ
Î¬ Î³
ĠÏĦ Î®
ĠÏĢÏģÎ¿Î·Î³Î¿ÏįÎ¼Îµ Î½ÎµÏĤ
ĠÏĦ ÎµÏģ
Î¼ÎŃ ÏĦÏī
ĠÏĨÏį Î»Î±
ĠÎ¾ÎµÎºÎ¹Î½Î¬ ÎµÎ¹
er r
ĠOn sports
Î¼ÏĢÎ¬ Î¼Î±
ĠÎľÎ¬ Î¹Î¿
ĠÎ³ ÎºÎ¬
ĠÎ±ÏĢÏĮ ÎºÏĦÎ·ÏĥÎ·
ĠÎ· Î»Î¹Î±
ĠÎ¼ÎµÎ³Î¬Î» Î¿ÏħÏĤ
ĠÎºÎ»ÎµÎ¯ ÏĥÎ¹Î¼Î¿
ĠÎµÎ½Î¹Ïĥ ÏĩÏħ
ĠÎĪ Î½
ĠÎ´Î¹Î´Î±ÏĥÎºÎ± Î»Î¯Î±
ĠÎµÏĢÎ¹ ÏĥÎ·
ĠÎ±Îµ ÏģÎ¯Î¿Ïħ
ÏĥÎ¿Ïħ Î¬Ïģ
ĠÏĩÏģÎ· ÏĥÏĦÏİÎ½
ĠÎºÎ± Î»Î·
ĠÏĥÏħÎ½Î· Î¸
ĠÎĵ Î¬Î»
Ġ4 4
ÏĨ ÏģÎ±Ïĥ
Ġ4 2
ĠÎł Ïħ
ĠÎ½ ÏĦÎŃÏģÎ¼ÏĢÎ¹
Îº Î»Î¬
ĠÎ´Î¹Î¬ ÏĥÏī
ĠMic rosoft
Î´Î¹Î± Î¯ÏĦÎµ
ĠÎºÎ±ÏĦÎ± Î²Î¿Î»Î®
Î» Î¿ÏħÎ¼Îµ
ĠÎ±Î½Î±Î³Îº ÏİÎ½
ÏĩÏģÎ¿Î½ ÎµÏĤ
ĠÎµÎº ÎºÏģÎµ
Ïį ÏģÏīÏĥÎ·
ĠÏĥÎºÎ·Î½ Î¹ÎºÏĮ
Îº ÎµÎ¯Î¿
ĠÎ§ ÏģÎ·ÏĥÎ¹Î¼Î¿ÏĢÎ¿Î¹
ĠÎĴÎµÎ½Î¹Î¶ ÎŃÎ»Î¿ÏĤ
Îļ ÎĽ
Ïĩ Î½Î¿Î½ÏĦÎ±ÏĤ
Î´Î¿ Î¾Î¯Î±
ĠÎł ÏģÎ±Îº
lo w
ĠÎĽ Î¹Î²
ĠÎĽÎµÏħ ÎºÏī
ĠÏĥÏħÎ½ÎŃ ÏĩÎ¹ÏĥÎµ
ub l
ĠÎŃ Î²Î±
ĠÏĢÏģÏīÏĦÎ¿ ÏĥÎŃÎ»Î¹
ĠÏĥÏħÎ½Î±Ïħ Î»Î¯Î±
ĠÎ¼ÏĢÎ¿ÏģÎ¿Ïį ÏĥÎ±
Îĵ Î½Ïī
ĠÏģÎµ Î±Î»
ÏĮ ÏģÎ±
ĠÎ£ÎºÏĮ ÏĢÎ¹Î±
ĠÎŁÎ¹Îº Î¿ÏħÎ¼ÎµÎ½
a ir
ĠÏĢÏģÎ¿ÎµÎ¹ Î´Î¿
ĠÎµÏĢÎ±Î½Î± Î»Î±Î¼Î²
ĠÏĦÎµÎ»ÎµÏħÏĦÎ± Î¯ÏīÎ½
ĠÎµÎ¾Î±ÎºÎ¿Î»Î¿Ïħ Î¸ÎµÎ¯
ĠÎķ Î³Îº
ĠÎĳÎ½Î´ÏģÎŃ Î±
ĠÏĥÏħÎ½ ÏĦÎ·ÏģÎ·
ÏģÏħ ÏĥÎ¿
Î»Ïī Î²
or ld
Â» ;
Î½Î¿Î¼ Î®ÏĤ
ĠÎ±ÏģÏĩ ÏİÎ½
ĠÏĢÎµÏģÎ±Ïĥ Î¼ÎŃÎ½Î·
ĠÎ±Î½Î± Î½ÎŃ
ro id
ĠÎµÎ¾ÎŃÏĨÏģÎ± ÏĥÎµ
ÏģÎ¬ Î½ÏĦÎ±
ĠÎµÏĥ ÎŃÎ½Î±
ÎĺÎŃ Î»Ïī
ĠÎ¤Î¿ÏįÏģÎº Î¿ÏħÏĤ
ĠÏĥÏĢÎ¿ÏħÎ´ ÎŃÏĤ
ÎĶ ÎµÎ»
Î½ ÎµÎ¹ÏĤ
ĠÏĥ Î¬Î»
ĠÎļÏīÎ½ÏĥÏĦÎ±Î½ ÏĦÎ¯Î½Î¿Ïħ
ĠÎ±ÏģÎ¼ÏĮ Î´Î¹Î±
ĠÎµÎ½ÏĦÏħÏĢÏīÏĥÎ¹Î± ÎºÏĮ
ÎŃÏģÎ³ ÎµÎ¹ÎµÏĤ
ĠÎĹÎ½Ïī Î¼ÎŃÎ½ÎµÏĤ
ĠÏĥÎ·Î¼ÎµÎ¹ ÏİÎ¸Î·ÎºÎµ
Îĺ ÎĹ
ÏĦ ÏģÎ±Î³
Î¬Î¶ Î¿ÏħÎ¼Îµ
Îł ÏģÎ¬
ĠÏĢÎµÎ½ ÏĦÎ±
ĠÎĳÎ³Î³ Î»Î¯Î±
ĠÎµÏĥ ÏĦÎ¯Î±
ĠÎ¥Î³Îµ Î¯Î±
ĠÏĦÏĥÎ¹ Î³Î¬
ĠÏĢÏģÎ¿ ÏĢÎ±Î³
ĠÎ¹Î´Î¹Ïī ÏĦÎ¹ÎºÎ¿
ĠÏĦÎµ ÏĩÎ½Î·
5 7
ĠÎ± Î»Î¬ÏĦÎ¹
ĠÎ² Î¹Î½
ĠÎ§ÏģÏħÏĥ Î®
ÏģÏĩ Î¿ÏĤ
Ïī Î¾Î·
Î´ÏĮ ÏĦÎµÏĤ
ĠÎ´ÏįÏĥ ÎºÎ¿Î»ÎµÏĤ
ÏĥÏĦ ÏģÎ¬
ĠÎµ ÏģÎµ
ĠÎµÎ¾ÏħÏĢÎ·ÏģÎŃ ÏĦÎ·ÏĥÎ·
ĠÎĺÏģÎ· ÏĥÎºÎµÏħ
ĠÎ¼Î± ÏĩÎ±
ĠÎ±Î¹ Î¼Î¿
ĠÏĩÏģÎ·ÏĥÎ¹Î¼Î¿ÏĢÎ¿Î¹ Î·Î¸Î¿ÏįÎ½
ĠÏĪÏħ Î³
il d
ĠÏĥÏĢÎ¬Î½ Î¹Î±
ĠÎ±ÏĢÎ±ÏĥÏĩÏĮ Î»Î·ÏĥÎ·ÏĤ
ĠÎ²Î³Î¬ Î¶ÎµÎ¹
ĠÎ¬ ÏģÎ±Î³Îµ
ĠÎ±Î³Î¹Î¬ Î¶Î¹
ĠÎºÎ±ÏĦÎ± Î³Î³ÎŃ
ĠÏħÏĢÎ¿ Î³ÏģÎ±Î¼Î¼
ĠA R
ĠÎŃÎ¼ÏĢ ÎµÎ¹
ĠÎĺ Î±Î½Î¬
ÏĨÎ¬Î» Î¿Ïħ
Î¿Î»ÏĮÎ³ Î¿ÏĤ
Ġl ive
ĠÎ±ÏĢÎ¿ Î»Î¿Î³
ĠÎŁ Î§ÎĻ
ĠÎµÎ³ ÏĩÏİ
ĠÎ¿Î»Î¿ÎºÎ»Î· ÏģÏİÎ¸Î·ÎºÎµ
ĠÏĥÏħÎ½ÏĦÎ± Î¾Î¹Î¿
ĠÎºÎ»Î¬ Î´Î¿
ĠÎ±ÏħÏĦÏĮ Î¼Î±ÏĦÎ±
F A
ĠÎļ Î¬Ïģ
ĠÎºÏħÏģÎ¹Î±ÏģÏĩ Î¯Î±
ĠÎ£Ïħ Î½ÎµÏģÎ³
Îµ ÏĨ
ĠÎ¿Ïħ ÏĥÎ¯ÎµÏĤ
ĠÎ³ÎµÎ¼Î¬ ÏĦÎ¿
ĠÎ¬Î½ ÏĦÏģÎ±ÏĤ
Î¬ ÏģÎ·
ĠÏĢÎ±Î¹Î´ Î¹ÎºÎ®
ĠÎ¿ÏģÎ³Î±Î½ Î¹ÏĥÎ¼Î¿Ïį
ĠÎ³ ÎµÏħ
ĠÎł Î¿Î½
ĠÎĻÏīÎ¬Î½ Î½Î·
ĠÎµ Î»Î»Î·Î½Î¿
ĠÎķÎļ Î¤
ÎºÏģ ÏīÏĤ
Îº ÎºÎ¹Î½
ot o
Î»Î¹Î¬ ÏĤ
ĠÎ±ÏĢÎ¿Ïĥ ÏĢÎ¬
Ġ0 7
ĠÎºÏģÎŃ Î±ÏĤ
Î´ ÏħÏĥ
ĠÎĿ Îķ
ĠÏĨÎ¿ ÏģÎŃÎ±
ĠÏĢÎ±ÏģÏĮÎ½ ÏĦÎ¿ÏĤ
ĠÏĢÎ±ÏģÎ± ÏĥÏĦÎ¬ÏĥÎµÎ¹ÏĤ
ĠÎºÏģÏį Î¿
ĠÎĳÎ½Î´ÏģÎŃ Î±ÏĤ
ĠÎ±Î½ ÏİÏĦÎ±
ÎłÎ»Î· ÏģÎ¿ÏĨÎ¿ÏģÎ¯ÎµÏĤ
ĠÎ³ÎµÏģÎ¼Î±Î½ Î¹ÎºÎ®
Îł ÏģÎ¿ÏĤ
ÎĶ Î¹Îµ
ÏĦÏģÎ¹Î± ÏĤ
Ġ( Â«
ĠÎµÎ¯Î´Î± Î¼Îµ
ĠÎµÎ¾Îµ Î»Î¹
Î´Îµ ÏįÎµÎ¹
ÏĦÎ¿Ïį Î¼ÎµÎ½Î¿
ĠÏĦÎ±Î¾Î¹Î´ ÎŃ
Î¼Îµ ÏĦÏģÎ¿
ĠÏĥÏĦÏģÎ±ÏĦÎ¹Ïī ÏĦÎ¹ÎºÎ®
ÏģÎ³ Îº
ĠÎĺÎŃ Î¼Î±
ÏĢ Î¹Î¿Î½
ĠÎķ ÏģÏī
ĠÏĢ ÏĦÎ®ÏĥÎµÎ¹ÏĤ
Ġc om
ĠÎ´Î¹Î± ÏĨÏĮÏģÏīÎ½
ĠI S
ĠÎ±Ïĥ ÏĦÎŃ
ÎłÎµ ÏģÎ¹ÏĥÏĥÏĮÏĦÎµÏģÎµÏĤ
ĠÎŃÎ³Îº Î±Î¹
ĠÎµ Î´
ĠÎ´ÎŃ ÏĥÎ¼Îµ
ĠÏĢÏģÎ¿ÏĢÎ¿Î½Î· ÏĦÎ®
ĠÎ±ÏĢÎ¿Ïģ ÏģÎ¿
ĠÏĥÏħÎ¼Î¼ÎµÏĦÎŃ ÏĩÎ¿Î½ÏĦÎµÏĤ
ĠÎºÎ¬ÏĢÎ¿Î¹ Î¿Ïħ
ĠÎ» ÎµÎ¹
oo t
ÏĩÏī ÏģÎ¯ÏĤ
Î³ Î»Ïħ
ĠÎľÎ½Î· Î¼ÏĮ
ĠÏħÏĢÎ¿ ÏĥÏĩÎŃ
ĠÎ´Î¹Î± Î½Î¿
Î»Î® Î¸Î·ÎºÎµ
ÎºÎ¿Î¹ Î½Ïİ
ĠÎ»Î±Î¼Î² Î¬Î½Î¿ÏħÎ½
ĠÎ±ÏĢÎ¿ Î´ÎµÎ¹
ĠÎ¯Î´Î¹ Î¿Ïħ
ĠÎµÏĢÎ±Î½ ÎŃ
ĠÏĮÏĢÎ¿ Î¹Î¿Î½
ĠÎĹ ÏģÎ¬ÎºÎ»ÎµÎ¹Î¿
Ïį ÏĥÎµÎ¹
Î½Î¿Ïħ Î¬
ĠÎ´Î¹Î¬ Î»Î¿Î³Î¿
ÏĦÏģ Î¹ÎºÏĮ
ĠÎºÎ±ÏĦÎ¬ Î¸ÎµÏĥÎ·
ÎĻ Ïĥ
ĠÏĥÏħÎ¼ÏĢ ÎŃÏģÎ±ÏĥÎ¼Î±
ĠÏĢÏģÎ¿ ÎºÎ±ÏĦÎ±
ĠÎŁÎºÏĦÏİÎ² ÏģÎ¹Î¿
ÏĮÎ» Î±Î¹Î¿
ÎĴ Î±
ĠÎ± Î´Î¹ÎŃ
ÎºÎ¿ ÏĥÎ¹
ĠÎ¼ÎµÎ»ÎŃ ÏĦÎ·ÏĤ
ĠÎ´Î¹Î±ÎºÎ¿ ÏĢÎ®
Î£Ïħ Î¼ÏĢ
ĠÎ´Î¿ÏħÎ»ÎµÎ¹ ÎŃÏĤ
ĠÎµÎ½ÏĮ ÏĪÎµÎ¹
ĠÎłÎµÎ»Î¿ÏĢÎ¿Î½ Î½Î®ÏĥÎ¿Ïħ
Î¹Î½ ÎŃÏĤ
ÏĩÎµ ÏĥÏĦÎµ
ĠÎµÎºÏĢÏģÏĮÏĥÏī ÏĢÎ¿Î¹
ĠÏĢÎ»Î·ÏģÎ¿ÏĨÎ¿ ÏģÎ¯Î±
ĠÎĳÏĥÏĦÏħÎ½Î¿Î¼ Î¯Î±
ÏģÎµÏį ÎµÎ¹
ĠÎĹ ÏĢÎµÎ¯ÏģÎ¿Ïħ
ÎĴ ÏģÎµÎ¯ÏĦÎµ
ĠÏĢÎ±ÏģÎ¿ÏħÏĥÎ¹Î¬ ÏĥÎµÎ¹
ÏĦÎ¹ Î´Î±ÏĤ
ĠÏĦÏģÎŃ Ïĩ
ĠÎ¼ÎµÏĦÎ± ÏĨÎŃÏģÎµÎ¹
Î¾Îµ ÏīÏĤ
ĠÎºÎ±ÏĦÎ¬ Î¸Î»Î¹
ĠÎµÎºÏĢÎ±Î¹Î´ÎµÏħ ÏĦÎ¹ÎºÏĮ
ĠÎµÏĢÎ¹Î¸Ïħ Î¼ÎµÎ¯
Ïİ ÏģÎ¿Ïħ
ĠÎºÎ±Î¸ÏħÏĥÏĦÎŃ ÏģÎ·ÏĥÎ·
.... ..
ĠÎµÎºÎ¼ÎµÏĦÎ±Î»Î» ÎµÏħ
ĠÎ² ÎµÎ½
ĠÎ¹ ÏĢ
6 8
ĠÎłÎ±Î½Î±Î³ Î¹ÏİÏĦÎ·ÏĤ
ĠÏĨÏħ ÏĦÎ¬
ĠÏĩÎµÎ¹ÏģÏĮ ÏĦÎµÏģÎ¿
Î¼Î· Î¼Î¬ÏĦÏīÎ½
ĠÏĦÎ·Î»Îµ ÏĨÏİÎ½
ĠÎĴÎµÎ½Î¹Î¶ ÎŃ
er g
ĠÎŁÏģÎ³Î±Î½ Î¹ÏĥÎ¼Î¿Ïį
ĠÎµÏĢÎ¹ ÏĦÏģÎ¿ÏĢÎ®ÏĤ
ĠÎ¿ Î´Î¿Ïį
Î¶ÏĮÎ¼Îµ Î½Î·
ĠÎ±ÏĢÎ¿ÏĨ Î¬ÏĥÎµÏīÎ½
Î»Î¿Î³ ÎµÎ¯
Î¯ ÏĦÏĥÎ±
ĠÎĳÏĥÏĦÏħÎ½Î¿Î¼ Î¯Î±ÏĤ
?? ?
ĠÎ¿ ÏĨ
ĠÏĦÎµÎ»Îµ ÏĦÎ®
ĠÎµÎ½Î¸Î¿Ïħ ÏĥÎ¹Î±
ÎĶ ÎŁÎ£
ĠÏĦÎ± Ïĩ
ĠÏĥÎ· Îº
ĠÎ±Î½Î¸ÏģÏī ÏĢÎ¿
Ïģ ÏĦÎ¶
Ïĥ ÏĢÎ¿
N A
ĠÎµÎ¾ÏīÏĦÎµÏģ Î¹ÎºÎ®
ĠÎ² ÏģÎ¿ÏįÎ¼Îµ
if e
Ġ0 5
ĠÎĳÏģÎ³ ÎµÎ½
ĠÎ¿Î¼Î¿ ÏĥÏĢÎ¿Î½
ĠÎ¼Î·Î½ Î¹Î±
ĠÎ±Î³Ïī Î³Î®
ĠÏĢÎ±ÏģÎ± ÏĢÎŃ
ĠÎĳÎ¥ Î¤ÎŁ
Î½Î¿ Î®
ĠÏĦÎ±Î¾ Î¯Î´Î¹Î±
ĠÏĢÎ±ÏģÎ± Î»Î¯ÎµÏĤ
ĠÏĪÎ¬ ÏģÎ¹Î±
ĠÏĢÎŃÏģÎ± ÏĥÎ±Î½
ĠÏĦÎµ Î¸ÎµÎ¯
Î´Î¬ ÎºÎ¹
ÎºÎ± ÏĦÎµ
Î¹ÎºÏĮ ÏĦÎ·ÏĦÎ±ÏĤ
Î»Î® Î¸ÎµÎ¹Î±
ĠÏĦ Î¶Î±
ĠÎĵÎ¹ Î¿Ïħ
ĠÎļÎ¬ ÏĦÎ¹
ĠÎĶ Î¹Î¿Î½
ĠÎ» ÏĮ
Î¤ ÎĻÎ£
ĠÏħÏĢÎ¿ Îº
ĠÎĻ ÏģÎ¬Îº
ĠÎµÏħ ÏģÏį
ĠÎºÎ±Î» ÏįÏĢ
Î³ÏģÎ±ÏĨ Î¹ÎºÎ¬
ĠÎ»Î±ÏĬ ÎºÎ®
ĠÏĢÏģÎ¿ÏĥÏĢÎ± Î¸Î®
Î®Î» Î¸Îµ
Î² Î¿ÏħÎ¼Îµ
ĠÎ±Î½ÎµÎ¾ Î¬ÏģÏĦÎ·ÏĦÎ±
ÎºÎ® Î½Î¹Î¿
ĠÎ±ÏĨ ÎµÎ½
v ent
ĠÎµÎ³Îº ÎŃÏĨÎ±
ÏĦÎ± Î½Îµ
ĠÎ¼Î· Î´ÎµÎ½
ĠÏĢÎ¿ Î¹Î¿Î¹
Î¸ÏģÏī ÏĢ
Ïį Î¸
ĠÎ´Î±Î½ ÎµÎ¯ÏīÎ½
ĠÏĦ ÏĥÎµ
ĠÏĢÏĮ ÏģÏīÎ½
ĠÏĢÏģÎ¿Ïĥ ÏĦÎ¬
Î¼Î· Î¼Î±
ĠÎ³Î¹Î± Î³Î¹Î¬
ĠÎº Î¯
ĠÎµÎ½ Ïī
ÏģÏİ Î½Î¿Î½ÏĦÎ±ÏĤ
ĠÎ¸ÎŃ ÏĥÎ·ÏĤ
ĠÎ®ÏģÎ¸ Î±Î½
Îŀ ÎĹ
Î» Î¯ÏīÎ½
ĠÏĢÎ±Î½ÎŃ Î¼Î¿Ïģ
ĠÏĦ Ïĥ
ĠÏĥÏħÎ½ÎŃ ÏĩÎ¹
ĠÎ³ Î¹Î¬
ĠÎºÏģÎ± ÏĦÎ®ÏĥÎµÎ¹
ĠÏĦÎ¬ ÏĥÎµÎ¹ÏĤ
ĠÏĥÎ± ÏĨÎŃÏĤ
Ġ6 00
ÏĦÎµÏģÎ½Îµ ÏĦ
ĠÎĶ ÏħÏĥÏĦÏħÏĩÏİÏĤ
ÎľÎ® ÏĢÏīÏĤ
ĠÎ½Î¿Î¼Î¹ Î¼Î¿
ĠÏĥÏĦÎ±Î¸Îµ ÏģÎ®
ĠÏĥÏħÎ½Î¿ Î»Î¹ÎºÏĮ
Î´ Î±Î½
ĠÎ¦ ÏĮ
ĠÎĳÎ»ÎŃ Î¾Î±Î½Î´ÏģÎ¿ÏĤ
ÏĨ ÎµÎ½
ÏģÎµÏħÎ½ ÏİÎ½
Ġ0 6
ÏĢÎ± Î½Î±
ĠÏħÏĢÎ¿ Î¸ÎŃÏĥÎµÎ¹ÏĤ
ĠÏĢÎ»ÎµÎ¹ ÏĥÏĦÎ·ÏģÎ¹Î±
ĠÎ±Î³ÏīÎ½ Î¯Î±
ÏĢÎµÎ¹ ÏģÎ¿
ĠÏĨÎ± Î¯Î½Î¿Î½ÏĦÎ±Î¹
ĠÎ£ÏĢÎ¿Ïħ Î´ÏİÎ½
ĠÎ±Î¼ÏĨÎ¹Î² Î¿Î»
ĠÎ³ÏģÎ¬ Î¼Î¼Î±ÏĦÎ±
ĠÏĢ ÏĦÎ®
am s
ĠÎ¶ÏīÎ½ÏĦÎ±Î½ Î®
ĠÎ¸ÏħÎ¼Î¬ ÏĥÎ±Î¹
ĠÏħ Î³ÏģÎ±
ĠÎ§ÏģÎ¹Ïĥ ÏĦÎ¿Ïħ
ĠÎº Î¿ÏħÎ»ÏĦÎ¿Ïį
ĠÏĨÎ¿ÏįÏģ Î½Î¿
ĠÏĩÏĦÏħ ÏĢÎ¬
ĠÎĵ ÎºÎ±
ÎŁ Î»Î¿
ÎŁÎĽ ÎŁÎĵ
Îĳ ÏĨÎ¿Ïį
ĠÏĢÏģÎ¿ÎºÎ»Î® ÏĥÎµÎ¹ÏĤ
ĠÎĿÎŃ Î¿
ĠÎ¹Î´Î±Î½ Î¹ÎºÎ®
ĠÎ¸Î± ÏįÎ¼Î±
Îļ ÎĳÎĻ
ĠÎ¾Ïį Î»Î¿
ĠÏħÏĢÎ¿ÏĪÎ®ÏĨ Î¹Î¿Î¹
ĠÏĢÎ±ÏģÎ¬ Î³ÎµÎ¹
ĠÏĢÎ»ÎµÏħ ÏģÏĮ
ĠÏĦÏģÎ¿ ÏĨÎ®
ĠÎĳ Î¼Î±
ĠÎķÏĢ Î±Î½Î¬
ĠIn ternet
ÎĶ ÏħÏĥÏĦÏħÏĩÏİÏĤ
ĠÎŀÎµ Î½Î¿Î´Î¿
ÏĥÎ¯ ÏīÏĤ
ĠÎ¼ÎµÎ³Î¬ Î»Î¿Î¹
Îĵ Î±
in o
Ïĩ Î¯Î±ÏĤ
ĠÎŃÏĢÎ±Î¹ Ïģ
ĠÎµÎ»ÎµÏįÎ¸Îµ ÏģÎ±
ĠÎ¼Î¿Î½Î¿ ÏĢÎ¬
ÏĨÎ±Ïģ Î¼Î¿
ĠÎ¥ Îł
ĠÏĩÎ±Î¼Î· Î»ÏĮ
ĠÏĦ ÏįÏĢ
Î³Î³ Î¹
ĠÎ³ÏģÎ®Î³Î¿ ÏģÎ·
ÏĪÎ± Î¼Îµ
ÏĦ ÏģÎµÏħ
ĠÏĪÎŃ Î¼Î±ÏĦÎ±
Î¼ Î¼ÎŃÎ½Î·
ĠÎ¹ÏĥÏĦÎ¿ ÏģÎ¹ÎºÎ¬
Î¬Î½ ÎµÎ¹ÏĤ
ÏĦÏĮ ÏĢÎ¿ÏħÎ»Î¿
ĠÎ¸ÎµÎ¼Îµ Î»Î¹
ÏĦÏģÎ¹Î± ÏģÏĩ
ĠÎ´Î¹Î¬ÏģÎº ÎµÎ¹Î±ÏĤ
ĠÎĳÏĨ ÏģÎ¹ÎºÎ®
ĠÏĥÎµÎ¾Î¿ÏħÎ±Î» Î¹ÎºÎ®
ĠÎ´ Î¯Î½ÎµÏĦÎ±Î¹
ÎĻÎĿ Î©ÎĿ
7 8
ul l
ĠÎ±Î½Î±Î³ÎºÎ± Î¯Î±
ÎĪ ÏĩÎ¿ÏħÎ¼Îµ
ĠÎł ÏĮÎ½
ĠÏĢÏģÎ¿ÏĦÎµÏģ Î±Î¹ÏĮÏĦÎ·ÏĦÎ±
ĠÎµÎºÏĢÎ±Î¹Î´ÎµÏħ ÏĦÎ¹ÎºÎ¿ÏįÏĤ
ĠÏĥÏħÎ»Î» ÎŃ
ĠÎ±ÏĥÎºÎ® ÏĥÎµÎ¹ÏĤ
ÏģÎ¯ Î´Î·ÏĤ
ÏĦÏĮ Î½
ĠÎ±Î½ Î¸Îµ
ÏģÎ· Î³ÏĮ
Î¾ Î¿Ïħ
... "
ĠÎĳÎ½ÏĦÏİÎ½ Î·ÏĤ
Î¾ Î¿Î´Î¿
ĠÏĢÏģÎ¿ÏĥÏĨÏħ Î³
ÏĥÏĦÎ® ÏģÎ¹Î¿
ĠÏĥÏį Î¼ÏĢÎ±Î½
Î· Î¼Îµ
ĠÎ±ÏĨ Î¹ÎŃ
ĠÎ² ÏģÏİ
Î¼Î® ÏĥÎµÎ¹
e ek
ÏĦ ÏģÎ·ÏĥÎ·ÏĤ
ĠÎĶ Î¹Î´
ĠÏħÏĢÎ¬Î»Î»Î· Î»Î¿Î¹
ĠÎ±ÏģÎ¼Î¿ Î´Î¹
ĠÏĢÏģÎ¿ÏĥÏīÏĢ Î¹ÎºÎŃÏĤ
ĠÎ±Î½ÏĦÎ¯Î¸Îµ ÏĦÎ±
ÏĥÎ± ÏģÎº
ĠÏĩÎ¿ÏģÎ® Î³Î·ÏĥÎ·
ĠÎ±Î¹ÏİÎ½ ÎµÏĤ
ap p
Î²Î¬Î» Î¿ÏħÎ½
ar s
ĠÏĢÎ¯ Îµ
Î¹Ïĥ ÏĦÎ¹ÎºÏİÎ½
Î¼Î¿ Î½Î¿
Îķ Î»Î»Î¬Î´Î±
ĠÏĥÎºÎ¿ÏĢÏĮ ÏĤ
ĠÎ¾Î· Î¼Îµ
ĠÎļÎ± Î½Î¿Î½
ĠÏĥÏħÎ¼ÏĨÎµ ÏģÏĮÎ½ÏĦÏīÎ½
ĠÏĢÎŃ ÏĦÏħÏĩÎµ
OR T
ĠÎĵ Î»Ïħ
ĠÏĦÎ± Î¼ÎµÎ¯Î±
ĠÎºÎ±ÏĦÎ±Î»Î® Î³ÎµÎ¹
ĠÎ¹ÏĥÏĩÏį Î¿ÏħÎ½
ĠÎĪ ÏĩÏī
ĠÎĵÎµÏİÏģÎ³ Î¹Î¿ÏĤ
ĠÎ¬Î½ ÏĦÏģÎ±
Î²Î¬Î»Î»Î¿Î½ ÏĦÎ±Î¹
ĠÎ»Î¹ Î³Î¿
ĠÎ¥ÏĢÎ¿ÏħÏģÎ³ ÏĮ
ÎĿÎŃ Î¿
Îł Î¬Î½ÏĦÏīÏĤ
ÏĩÎ® Î¼Î±ÏĦÎ¿ÏĤ
ĠÎ¾Îµ ÎºÎ±Î¸Î±
ĠÎ±ÏĢÎ±ÏģÎ±Î¯ ÏĦÎ·ÏĦÎµÏĤ
Î³ÎŃÎ½ Î½ÏīÎ½
ÎĹ Î»ÎµÎºÏĦÏģÎ¿Î½
ĠÏĦÏģÎ¿ Ïĩ
ĠÎ¬Î³ ÏģÎ¹Î±
ĠÏĢÎ¯ ÏĥÏĦÎµÏħ
ĠÎ¥ÏĢÎ¿ÏħÏģÎ³ Î¿Ïį
ÏĦÎ±Î½ ÏĮ
5 2
ĠÎ´Î¹ ÎµÎ½ÎµÏģÎ³
ĠÏĨ ÏģÎ¿Ïħ
ĠÎ¾ÎŃ Î½ÏīÎ½
ĠÎ±Î½Î± Î»Î±Î¼Î²Î¬Î½ÎµÎ¹
ĠÎĵÎµÏģÎ¼Î± Î½Î¿Î¯
Î¹Ïĥ Î¼ÎŃÎ½Î±
ĠÏĢÏģÎ¿ÏĥÏĢÎ¬ Î¸Î·ÏĥÎµ
ÏĢÏĮÎ»Îµ ÏīÏĤ
ĠÏĥ ÎºÎ¹
ĠÎºÎµÎ¹ Î¼ÎŃÎ½Î¿Ïħ
Ïĥ ÏĦÎ¿ÏħÏĤ
Î½Î¿ Î´Î¿ÏĤ
p ress
an s
ĠÎ±Î½Î´ ÏģÏİÎ½
U S
ĠÎµÎ¼ÏĨÎ±Î½ Î¯ÏĥÏĦÎ·ÎºÎµ
ĠÏĥÏħÎ½ÎµÎ¹Î´Î· ÏĦÎ¿ÏĢÎ¿Î¹
ĠÎ¦ Ïħ
ĠÎ±ÏĢÎ¿ÏĥÏĦÎ¿ Î»Î®ÏĤ
T ube
á½ ²
ĠÏĥÎ¯Î³Î¿Ïħ ÏģÎ¿
Î¸ÎŃ ÏĦÏīÏĤ
ĠÎ´Î¹Î± ÎºÏģ
Î¼Îµ ÏĥÎ·
ĠÏĦÏģÎ±Î³Ïī Î´Î¯Î±
ĠÎĿ ÏĦÎµ
ĠÏĢ ÎµÎ¯ÏĦÎµ
ĠÎĳÎ»Î²Î±Î½ Î¯Î±
ĠÏĦ Î¶Î¹
ĠÎ±Î½ ÏĦÎ¿ÏĩÎ®
ĠÎµÎ¾ÏīÏĦÎµÏģ Î¹ÎºÎ¿Ïį
ĠÎ±ÏħÎ¾ Î¬Î½ÎµÎ¹
ĠÎĶÎµÎ´Î¿ Î¼ÎŃÎ½ÏīÎ½
ĠÎ¼Î± Î»Î±
ÏģÎ¹Ïĥ Î¼ÎŃÎ½Î¿
ĠÎ¦ ÏģÎ±Î½
Îļ Î¿Ïħ
ÏĦÎ· ÏģÎ¹
oun d
Î¼ÏĨ Î±Î½
ĠÎĿÎ¿ÏĥÎ¿ÎºÎ¿ Î¼ÎµÎ¯Î¿
ĠÎ´ ÏģÎ±Ïĥ
ĠÎ³Î»Ïİ ÏĥÏĥÎµÏĤ
Î¼Î± ÏĦÎ¹ÎºÎŃÏĤ
ĠÏĨ Î±Î½Î±
ĠÎºÎ± ÏĨÎµ
ĠÎ£ÏħÎ½ÎŃ Î»ÎµÏħÏĥÎ·
Î² ÏīÎ½
ĠÏĢÎ¿Ïħ Î½
ĠÎ±ÏĢÎ¬Î½ ÏĦÎ·ÏĥÎ·ÏĤ
ĠÏĢÎ¿Î¹ Î½Î®
ĠÏĥÏĨ Î±Î³
ĠÎ¼Îµ Î»Î±
ÎµÎ¹Î± ÎºÎ®
ĠGre ece
M W
Î» ÏĢÎ¹Ïĥ
re e
Î¿Ïħ Î´Î®ÏĢÎ¿ÏĦÎµ
ĠÏĢ Î¹Îº
Î¬Ïģ ÏĦÎ·ÏĥÎ·
ĠÏĥ ÏĨÎ±Î¯
ĠÎºÎ±Î»Î»Î¹ÏĦÎŃ ÏĩÎ½ÎµÏĤ
ĠÎµÎ¾Î±Ïģ ÏĦÎ¬ÏĦÎ±Î¹
Î»Î®ÏĨ Î¸Î·ÏĥÎ±Î½
ĠÎ½Î¿ ÏĦÎ¹Î¿
ĠÎ±Î½ÏĦÎ¯Î¸Îµ ÏĦÎ¿
ĠÏĢÎµÏĦÏį ÏĩÎµÎ¹
ĠÎ±Î½Î±ÏģÏī ÏĦÎ¹
ĠÎĶÎ¹Î¿ Î¯ÎºÎ·ÏĥÎ·
Ïĥ Î¼ÎŃÎ½Î¿Î¹
ĠÎļ ÏģÎ¹
ÏĨ ÏģÎ¿
ĠÎļÎ¿ ÏĦÎ¶
ĠÎ¹ÏĥÏĩÏį Î¿ÏĤ
ĠÎ¿ÏĢÎ¿ Î¹Î¿Î½Î´Î®ÏĢÎ¿ÏĦÎµ
Ġ ÏģÏħ
. -
ĠÏĩ ÏģÏīÎ¼Î±
ĠÎľÎµÏĥ ÏĥÎ·
ĠÎĶÏī ÏģÎµÎ¬Î½
ĠÎķ Î»Î»Î·Î½Î¿
ĠÎ±ÏĥÎ¸ÎµÎ½ ÏİÎ½
ĠÏĢÎµÎ»Î± ÏĦÏİÎ½
ĠÎ´Î·Î»Ïİ ÏĥÎµÎ¹
ĠÎµÏĢÎ·ÏģÎµ Î¬Î¶ÎµÎ¹
er c
ĠÏĦÎŃ Î»ÎµÎ¹
ĠÎ²ÏģÎ® ÎºÎ±Î½
es ign
ĠÎ¬Î½ Î´ÏģÎ±
ĠÎºÎ¿Î¹Î½ÏĮ ÏĦÎ·ÏĦÎ±ÏĤ
ĠÎ±Î³Î±ÏĢÎ· Î¼ÎŃÎ½Î·
en n
Î¤ÎµÎ» Î¹ÎºÎ¬
ĠÏĥÏħÎ³Î³ÎµÎ½ ÎµÎ¯ÏĤ
ĠÏħ ÏĨÏħÏĢÎ¿ÏħÏģÎ³
ĠÎķ Î¾Îµ
ĠÏĥÏħÎ³ÎºÎµÎ½ÏĦ ÏģÏī
ĠÎłÎĳ Î¡Îĳ
ĠÏĦÏħÏĩÎ± Î¯Î±
ĠÎ¼ÏĢÎ± Ïģ
ĠÎŃÏĢ Î¹Î±
ĠÎĴ Î¿ÏħÎ»ÎµÏħ
ĠÎµÏħÏģÏīÏĢÎ±ÏĬ ÎºÎŃÏĤ
ĠÎ»ÎµÎ¹ÏĦÎ¿ÏħÏģÎ³ Î®ÏĥÎµÎ¹
ĠÎĿÎ± ÏĮ
ĠÎ´Î¿Ïħ Î»ÎŃ
ĠÎłÎ±Î½Î±Î³ Î¯Î±ÏĤ
ĠÏĨÎµ ÏĦÎ¹Î½Î®
ĠÎĳÏĥÏĨÎ± Î»ÎµÎ¯Î±ÏĤ
ÏĦÎ·Î³Î¿ ÏģÎ¯Î±
ĠÎļÎĳ Î¤Îĳ
ĠÎ±ÏĢÎ¿ Î»Ïħ
ĠÎµÏĢÎ¹ ÏĦÎµÏħ
ĠÎ²Î±Ïĥ Î¯
ĠÏĥÏĦÎ¿ Î¯
ĠÎ¼Î¹ Î»Î¿ÏįÎ½
ĠÏĢÏģÏĮ ÏĦÎµÎ¹
ÏģÎµÎ¹ Î¬Î¶ÎµÏĦÎ±Î¹
ÏĨÎµ ÏĥÎ·
ÏģÏĩ Î®
ĠÎļÎ±ÏĦÎµ ÏģÎ¯Î½Î±
ĠÎŃÏĦÎ¿Î¹ Î¼Î¿Î¹
ĠÎµÎ½ Î´ÎŃÏĩÎµÏĦÎ±Î¹
ĠÎ½ Î¯ÎºÎµÏĤ
Î¬Ïĥ Î¼Î±ÏĦÎ±
Î³ Î¼ÎŃÎ½Î±
ÏĥÏĥ Î¬ÏģÏīÎ½
ĠÎ¾ÎµÏĢÎµÏģ Î½Î¬
ÏĦÎ¿ Î¼Î·
ĠÎ´Î·Î¼Î¿ÎºÏģÎ± ÏĦÎ¯Î±ÏĤ
Î§ ÏģÎ¹Ïĥ
ĠÎ·Î¼Îµ ÏģÎ®
ĠÎłÏĮ ÏĥÎ¿
H am
ĠÏĨÎ¯ Î»Î·
ĠÎº ÎµÎ¯
ĠÏĢÎ¿ Î´Î·
ĠÎĶÏį Î¿
ĠÎ§ÏģÎ¹ÏĥÏĦÎ¿Ïħ Î³ÎŃÎ½Î½ÏīÎ½
ĠÏĩÎ±Î¼Î· Î»Î¬
ĠÎĻ Î¿Ïį
ĠÎŁ Î¼ÏĢÎ¬Î¼Î±
ĠÏĢÎµÏģÎ¹ÏĥÏĥÏĮÏĦÎµ ÏģÏīÎ½
ĠÏħÏĢÎ¿ Î¼Î¿Î½Î®
ĠÏĢÏģÎ¿ÏĭÏĢÎ¿Î»Î¿Î³ Î¹ÏĥÎ¼ÏĮ
ĠÏĥÎºÎŃ ÏĪÎ·ÏĤ
ÏĮÎ¼Îµ Î½Î·ÏĤ
ĠÎĴÏħ Î¶Î±Î½
ĠÎľÎ¿Î½ Î®
ÏģÎ¹ ÎŃÏĤ
ĠÎµÏĢÎ¿ Î¼ÎŃÎ½ÏīÏĤ
ĠÎ¼Î¿Î½ ÏĦÎŃÏģ
ĠÎµÎ¼ÏĨ Î¬Î½
ÏĦÎ¹ ÏĥÏĦÎ·
ĠÏĦÎ¹ Î¼Î¿
ight s
Î¼Î¬ Î´Î±ÏĤ
ĠÏĦÎµ ÏĥÏĦ
ĠÎĳ Î¼ÏĨ
ÏģÎ³Î¬Î½ ÏīÏĥÎ·
Ġ2 10
ĠÏĢÎ¿Î¹Îº Î¯
ĠÎŃÎ»ÎµÎ³ Î±Î½
ĠÎŃÏģÎ¸ Î¿ÏħÎ½
ÏĦÎ· Î¼ÏİÎ½
ĠÏĦÎµ Ïį
ĠÏĥÎºÎ¿ ÏĢÎ¿ÏįÏĤ
ĠÎµÏĢÎŃÎ½ Î´ÏħÏĥÎ·
ĠÎ¼ÎµÎ¯ Î³Î¼Î±
ĠÎ¶ Î®ÏĥÎµÎ¹
ĠÏĩ Î¬Î½ÎµÎ¹
Ïĥ Î¼Î¿ÏĤ
ĠÏĥ ÎºÎ¿Ïį
ĠÏĢÏģÎ¿Îµ ÏĦÎ¿Î¹Î¼Î¬
ĠÎ£Î±Î²Î²Î±ÏĦÎ¿ÎºÏįÏģÎ¹Î± ÎºÎ¿
ĠÏĦÎ¯ÏĦ Î»Î¿ÏĤ
ID EO
ĠÎķ Î²
ĠÎ±ÎµÏģÎ¿ ÏĢÎ»Î¬
ĠÎ³Î»Ïħ ÎºÎ¬
ĠÎĶ Î¹ÏĮÏĦÎ¹
ĠÎ¡ ÏĮÎ´Î¿Ïħ
ÎĪ Îº
ĠÎĳ Î¼
ĠÎŃÎ»Îµ Î³Î±
ĠÏģÎ¯Î¶ ÎµÏĤ
ĠÎ¶Îµ ÏĥÏĦÏĮ
ÏĨÏĮ ÏģÎ¿Ïħ
ĠÎºÎ±Î¸ ÎŃÎ½Î±
ĠÎ»ÎµÎ¹ÏĦÎ¿ÏħÏģÎ³ Î¯ÎµÏĤ
ÎľÎµÎ³Î¬ Î»Î·
ĠÎµÏĢÎ¯Î´ ÏģÎ±ÏĥÎ·
ĠÏĥÏĦÏģÎ±ÏĦÎ¹ ÏİÏĦÎµÏĤ
ĠÏħ Î´Î±
Îķ Î§
ĠÏĥ ÏĢÏĮ
ĠÎ£Î±Î² Î²Î¬ÏĦÎ¿Ïħ
ĠÏĢÏģÎ¿ÏĩÏī ÏģÎ¬
ĠÎ±Î½Î±Ïĥ ÏĨÎ¬Î»
ĠÏĩ Î¹Î¿
ĠÎ±ÏģÎ½Î· ÏĦÎ¹ÎºÎ¬
Î»ÏİÎ½ ÎµÏĦÎ±Î¹
Î¹Î½ÏĮ ÏĢÏīÏģÎ¿
ĠÏĦ ÏģÎ¬
ĠÏģÎµÏį Î¼Î±ÏĦÎ¿ÏĤ
ĠÏĥÏħ ÏĥÏĦÎ·Î¼Î¬ÏĦÏīÎ½
ÏģÎ¹Î½ Î®ÏĤ
ĠÎ² Î´Î¿
ĠÎ¼ÎŃ Î½Î¿ÏħÎ½
ÏģÎ¯Î¶ Ïī
ÏĨÎ¿ Î²
ÏĥÏĢÎ± ÏĥÎµ
ĠÎ£ Î±Ïģ
ÏĦÎ¿ Î¼Î±Î¹
ĠÎĴÎµÎ½ Îµ
ĠÎº Î¿ÏħÎ½
ĠÎºÎ±ÏĦÎ±Î½Î±Î»Ïī ÏĦÎŃÏĤ
ĠÎ¹ÏĥÏĦÎ¿ Î»ÏĮÎ³Î¹Î¿
Îł Î±Î¹Î´
ĠÎ½Î±ÏģÎºÏī ÏĦÎ¹ÎºÏİÎ½
ĠÎĳÏĢ Î»Î¬
ĠÎ±ÏĢÎ±ÏģÎ¬ Î´Îµ
ĠÎ´Î¹ÎµÎ¸Î½ Î®ÏĤ
ĠÎ³ÎµÎ½ ÎŃ
Î¯ ÏĥÏĦÎµ
ĠÎµÎ¹Î´ Î®ÏĥÎµÏīÎ½
ĠÎķÏģÎ³ Î±Ïĥ
ĠÎĪÎº Î¸ÎµÏĥÎ·
ÏħÏĦÏĮ ÏĩÏģÎ¿Î½Î±
ĠÎĿ ÏĦÎŃ
ĠÎµÎ¾ Î±Î½ÏĦ
6 5
ĠÎ±ÏĥÏĩÎ¿ Î»Î·
Ïİ Î´ÎµÏĤ
ÎºÏĮ Î½
ĠÏĥÏĦÎ®ÏģÎ¹ Î¾Î·ÏĤ
Î±Î½ ÏĦÎ¹
7 7
Îł Î±Î³
Î²Î¹ Î²Î¬
Î³ÎµÎ¹Î¿ Î½Î¿Î¼
ĠÎ¿ ÏģÎ¿
ĠÎ´ ÏĮÎ½
ĠÎľ ÏĢÎ¹
ĠÏĢÎµÎ¹ ÏģÎ±Î¼Î±
ĠÎ±ÏĢÎ¿Î´Î¿ ÏĩÎ®
Îĵ ÎĹ
ĠÏĥÏħÎ¼Î² Î¬ÏĥÎµÎ¹ÏĤ
Ġ4 3
Î¼Î¹Ïĥ Î¹ÏĮÎ½
Ïĥ ÏĦÎ¹ÎºÎ¿Ïį
Î½Î· ÏĥÎ¿
ĠÏĩÏģÎ·ÏĥÎ¹Î¼Î¿ÏĢÎ¿Î¹ Î®ÏĥÎµÏĦÎµ
ÏĦÏħÏĢ ÏİÏĥÎµÎ¹ÏĤ
ĠÎ´Î¹Î± Î¼ÏĮÏģÏĨÏīÏĥÎ·
ĠÎ¾ÎµÏĩÏīÏģÎ¹Ïĥ ÏĦÎ®
ĠÏĥÎ¿Î²Î±Ïģ ÎŃÏĤ
Î¼ ÏĤ
ĠÏĢÎ±Ïģ ÎµÎ½
ÏģÏĩ ÎµÏĤ
ĠÏĢÏħ ÏģÎ®
ĠÎĶ ÏģÏĮ
Îĳ ÎºÏĮÎ¼Î±
ĠÏĩÎµÎ¹ÏģÏĮ ÏĦÎµÏģÎ±
ĠÎĨ Î»Î»ÏīÏĥÏĦÎµ
ĠÎł Î¡Î©
Î´Îµ ÎºÎ±
m m
p r
ĠÎºÎ¬ ÏĦÎ¿
ĠÎ¼Î½Î· Î¼Î¿Î½Î¹Î±
ĠÎµ Ïģ
ĠÎ¾ÎµÎ½Î¿Î´Î¿ ÏĩÎµÎ¯Î¿Ïħ
ĠÎ¼ÏĢ Î¿ÏħÎ½
ÏĢÎ¿Î¹ Î®Î¸Î·ÎºÎµ
ĠÎµÎ¾Î± Î¯ÏģÎµÏĥÎ·
ĠÎºÎ±Î¸Î·Î³Î· ÏĦÎ®
ĠÎºÎ± ÏĦÏĥÎ±
ĠÎµÏĢÎ¹Î»ÎŃ Î¾ÎµÏĦÎµ
ĠÏĥÏħÎ½Î±Ïģ ÏĢÎ±
ÎĻ Îľ
ĠÎ¦ Î±Î½ÏĦÎ±
ÏĦÏİÎ½ ÎµÏĦÎ±Î¹
Î³ ÏĮÎ½
ĠÏĢÎµÏģÎ¹Î¿ ÏĩÏİÎ½
ĠÎ±Î³Î¿ ÏģÎ±
ip s
Î¯Îº Î¿ÏĤ
Î´ ÏģÎ±ÏĤ
ĠÏĥÏħ Î»Î»Î·
ĠÏĥÎ±ÏĨ ÏİÏĤ
ÎĨ Î½
ĠÎµÏĢÎ¹ ÏĦÏĮ
ĠÏħÏĢÎ¬Ïģ Î¾Î¿ÏħÎ½
ĠÎĻÏīÎ±Î½Î½ Î¯Î½ÏīÎ½
ĠÏĨÎ¿ Î²Îµ
ĠÏĨ Î¿Ïį
ĠÎ¶Ïī ÎŃÏĤ
I L
ĠÏĥÏĩÎ¿Î» ÎµÎ¯ÏīÎ½
ÎĶÎ·Î¼Î¿ ÏĥÎ¹ÎµÏį
ĠÏī ÏģÎ¹
ĠÏĩÏģÎ® ÏĥÎ¹Î¼Î¿
ĠÎ´Î¹Î±ÏĨÎ¿ ÏģÎ¿
ĠÎµÎ»Î±Î¹ÏĮÎ»Î± Î´Î¿
ÎºÏį Îº
Î¹Î¬ Î»
ĠÎ±ÏĢÎ¿ÎºÎ± Î»Ïħ
at a
ÏĦÎ¬ ÎºÎ·
ĠÎ±ÏĥÏĦÏħÎ½Î¿Î¼ Î¯Î±ÏĤ
ÏĢÎ¿Î¯ Î¸Î·ÏĥÎ·
ĠÎµÏģÎ³ Î¬
ĠÏĢÎ±ÏģÎ¬ Î»Î»Î·
ĠBre xit
ĠÎķ ÎłÎŁ
ĠÎ¿Ïħ ÏģÎ¬
ÏģÏİ ÏĥÎ¿ÏħÎ¼Îµ
Î¤ Î¯
ĠÏĥÏħÎ¼Î² ÏĮÎ»Î±Î¹Î¿
ĠÏĢÎ±ÏģÎ¿ ÏĩÎ®ÏĤ
ĠÎºÎ±ÏĦÎ±ÏĢÎ¿ Î»ÎŃ
ĠÎľÏĮ Î»Î¹ÏĤ
ÏĥÎºÏĮ ÏĢÎ·ÏĥÎ·
Î¦ ÎŁ
Î² Î·Î³
ÏĢÏĦÎµ ÏĦÎ±Î¹
Î»ÎŃ ÏĦÎ·
ĠÎµÎ¾Î¿ÏĢÎ»Î¹Ïĥ Î¼ÏĮ
ÏģÎ¹Ïĥ ÏĦÎ¬
Î¦ ÏĮÏģ
ĠÎ¼Ïħ ÏģÏī
ĠÎºÎ±Î¹Î½Î¿ ÏĦÏĮ
ĠÎ´Î¹Î¬ÏĨÎ¿ ÏģÎ¿ÏħÏĤ
ÎºÏĮ ÏĢÎ¿ÏħÎ»Î¿ÏĤ
Ġá¼ ¡
ĠÎ¼ÎŃ Î³Î¹Ïĥ
ĠÎ¼ÎŃ ÏĦÏīÏĢÎ¿
ĠÎ±ÎºÏģÎ¿ Î´Îµ
Îľ Î¿
ĠÏĥÏĦÎ±Î¸Îµ ÏģÎ¬
n ews
ĠÎºÎ±Î»Î¬ Î¸Î¹
ĠO ff
ĠÎŁ Î´Î·Î³
ĠÎ±ÏĢÎµÏħÎ¸Ïį Î½ÎµÏĦÎ±Î¹
ÎĽ Îµ
ÏĨÎµÏģÎµÎ¹Î¬ ÏģÏĩÎ·ÏĤ
ÏĢ ÏĦÎµÏĤ
ĠÏĦÎ¿ Î¾
ĠÏĢÏģÏĮ Î»Î·ÏĪÎ·
ĠÎ²Î¬ ÏĥÎµÎ¹ÏĤ
ĠÎ±Î¹ ÏĦÎ®ÏĥÎµÏīÎ½
et s
ĠÎ³Î¬ Î¼Î¿Ïħ
ĠN ew
ĠÎ¬ÏĥÎºÎ· ÏĥÎ·ÏĤ
ĠÎłÎ± ÏĦÏģÎ¹Î¬
ĠÎ¬ ÎºÏģÏīÏĤ
ĠÎ¼ÎŃÎ¸Î¿ Î´Î¿
Î±Î³ Îµ
ĠÎµÎºÎ´Î¿ ÏĩÎ®
ĠÎ¶Î· Î¼Î¹ÎŃÏĤ
ĠÎ¸ ÏģÎµ
ĠÎ¸ÎµÏģ Î¼Î¯Î´ÎµÏĤ
ĠÎµÏĢÎ¹ Î²Î¿Î»Î®
ĠÎ±ÏĢÏĮ ÏĪÎµ
Ham ster
ĠÎ§ÏģÎ¹Ïĥ ÏĦÎ¿
ĠÎŃÎ½ Î´ÎµÎ¹Î¾Î·
ĠÎ¬ ÏģÏīÎ¼Î±
Î»Î· ÏĥÎ±Î½
ĠC ol
Îĳ ÏĢÎ±
ĠÎ¸Ïħ Î¼Î·
ĠÎµÎ¹Î´ Î¹ÎºÏİÎ½
ĠÎµÎ³ÎºÎµ ÏĨÎ±Î»
ĠÎ´Î¹Î¬ Î²Î±
ĠÎ±Î½Î± Î²Î±Î¸
ĠÎºÎ±Î¸Î·Î³Î· ÏĦÎŃÏĤ
ĠÎĬÎ´ÏģÏħ Î¼Î±
Î¾Î¯ Î¼Î¿Ïħ
ĠÎµÎºÎºÎ»Î· ÏĥÎ¹Î±
ĠÏĢÏģÎ¿Î·Î³ Î¿Ïħ
ĠÎłÏģÎ¿Î³ÏģÎ¬ Î¼Î¼Î±ÏĦÎ¿ÏĤ
ĠÎłÎ¿ Î»Î»Î¬
ĠÎ±ÏĢÏĮ Ïģ
Î¼ÎŃ ÏĥÏīÏĤ
ĠÎµ ÏĦÎ¿Î¹
ĠÏĢÏĮ Î´Î¹
ĠÏħÏĢÎ¿ÏĪÎ· ÏĨÎ¹
Ïī ÏĦÎ¹ÎºÏĮ
ÏĨ ÏĦÎ±
ĠÏĢÏģÎ±Î³ Î¼Î¬ÏĦÏīÎ½
Î¯Î± ÏĥÎµ
ĠÏħÏĢÎŃÏģÎ¿ ÏĩÎ·
Ġx Hamster
ĠÎ´ ÏīÎ¼Î±
ĠÏħÏĢÎ¿ÏĥÏĦÎ®ÏģÎ¹ Î¾Î·ÏĤ
ĠÎ¸Î± Î½Î±
g el
ĠÎºÎ±Î½ Î¬Î»Î¹Î±
Î´ Î¯ÎµÏĤ
ĠÎ±ÏħÏĦÎ¿ Î½ÏĮÎ·
Î»Î¬ Î¼Îµ
Âµ Îµ
ĠÎķ Î§
ÎļÎ± Î»Î¬
ĠÎĳ ÏģÎº
ĠÎ¿ÏĢÎ¿Î¹ Î¿ÏħÎ´Î®ÏĢÎ¿ÏĦÎµ
ÏĦÏģ Î¹ÎºÎ®ÏĤ
ĠÏĨ Î¸Î¬
ĠÎ±Î½ ÏĦÎ¬
ĠÎĳÎ½ÏĦÏİÎ½ Î·
Î· Î¼Î¬ÏĦÏīÎ½
ĠÏĦÎ¿Ïħ ÏģÎ¯
6 9
ĠÎ»Î± Î¸ÏģÎ¿
ÎºÏį ÏģÏīÏĥÎ·
ĠÎ±Î»ÎºÎ¿ ÏĮÎ»
Î¤ ÏģÎ¯
Ïİ Î´Î·ÏĤ
ĠÎµÎ¾Î¯Ïĥ Î¿Ïħ
ĠÎ±Î½Î·ÏĥÏħÏĩ Î¯Î±
Î»ÎµÏĥ Î¼Î¬ÏĦÏīÎ½
ÏĦÎ¹Ïĥ ÏĦÎ®ÏģÎ¹Î¿
ĠÏħÏĢÎ¿ ÏĩÏī
ĠÎµÎºÎ± ÏĦÎ¿
Î¬ ÏģÎµ
ĠÎ´Î¹Î±ÎºÎ¿ ÏĢÏİÎ½
ĠÎµÏĨÎ·Î¼ÎµÏģÎ¯ Î´ÎµÏĤ
Î¦ÏħÏĥ Î¹ÎºÎ¬
ĠÎ³ÎµÎ½ Î½Î®
ĠÎ³Î¹Î¿Ïģ ÏĦÎŃÏĤ
ĠÎ´ÎµÏħ ÏĦÎµÏģÎ¿
ĠÏĢÏģÏĮÏĥ Î»Î·ÏĪÎ·
ÏģÏįÎ¸ Î¼Î¹ÏĥÎ·ÏĤ
ÎµÏħ ÏĥÎµ
ĠÎļ ÏģÎ·
ĠÎŃÎ½ÏĦÎ¿ Î½Î¿
R E
ĠÏĢÎ±ÏģÎŃ ÏĩÎ¿ÏħÎ½
ĠÎķÏħ Î±Î³Î³ÎµÎ»
ĠÎ±Ïħ Î³Î¬
ĠÎ± ÏĦÏįÏĩÎ·Î¼Î±
Î¼Î± ÏĦÎ·
ĠÎµÏħ ÏĩÎ±ÏģÎ¯
ÏĦ ÏĥÎ·ÏĤ
Ġ0 1
ÏģÎ¯ ÏĥÎµÏĦÎµ
ÏĩÎ½ Î¯Î´Î¹Î±
as k
ĠÎ¯Î´ÏģÏħ ÏĥÎ·
ĠÎ¼ÎµÏĦÎ¬ Î»Î»
im es
ĠÎĮ ÏĦÎ¹
ĠÎ²Î± ÏģÎ¹Î¬
ĠÎĵÎµÎ½ Î¹ÎºÎ®ÏĤ
ĠÎĶÎ¹ÎµÎ¸ Î½Î®
ĠÏĨÏĮ ÏģÎ¿ÏħÏĤ
ĠÎ¼Î¿Î½Î± Ïĩ
ÏĦÏī ÏĥÎ±Î½
le y
ÏĦÎ¯ Î½Î¿
ĠÎķÎ¯ ÏĩÎµ
Î³ ÎµÎ¹ÏĤ
ÏĩÎ±ÏģÎ¹Ïĥ ÏĦÎ¿ÏįÎ¼Îµ
ĠÎºÎ±Î¸Î·Î¼ÎµÏģÎ¹Î½ ÏĮÏĦÎ·ÏĦÎ±
ÏģÎ³ Î¿ÏħÏĤ
ĠÎŁÎ¼Î¿ÏĥÏĢÎ¿Î½ Î´Î¯Î±ÏĤ
ĠÏĥÏħÎ³ÎºÏģÏĮ ÏĦÎ·Î¼Î±
ÏĩÏĮ Î¼Î±ÏĥÏĦÎµ
ĠÎ¸ÎŃ ÏĦÎµÎ¹
ĠÎ± Î¾Îµ
Ïĩ ÏĦÎ·ÎºÎ±Î½
ĠÎ¼Î¹ÏĥÎ¸ Î¿ÏįÏĤ
ÏĩÎ± Î¼Îµ
Î® Î¼Î±ÏĦÎ¿ÏĤ
ĠÎ¹ÏĥÏĦÏĮÏĦÎ¿ ÏĢÎ¿ÏĤ
ĠÎµÏĢÎµÎ¾ÎµÏģÎ³ Î±ÏĥÎ¯Î±ÏĤ
ĠÎľÎ¬Ïģ ÏĦÎ¹Î¿
ĠÎ¸Îµ Î¼Î¬ÏĦÏīÎ½
ĠÎĿÎ¹Îº Î¿Î»Î¬Î¿Ïħ
ÏģÏī ÏĥÎ±Î½
ĠÎ±ÏĢÎ¿ÏĦÎµÎ»ÎµÏĥÎ¼Î± ÏĦÎ¹ÎºÎ®
ĠÎµÏģÎ¼Î· Î½ÎµÏį
ĠÎĴ ÎŃÎ²Î±Î¹Î±
ĠÏĨÎ¯ Î»
ÏĦÎ® ÏĥÎ±Î¼Îµ
ĠÎ±Î¯Ïĥ Î¸Î·Î¼Î±
ĠÎµÏĢÎ¹ÎºÏģÎ± ÏĦÎµÎ¯
ĠÎ¿ Î»Î±
ĠÎµÏĢÎ¯Î´Î¿ Î¼Î±
ĠÎ§ ÏĮ
ĠÎĮ ÏģÎ¿Î¹
ÎłÏģÎ¿Ïĥ Î¸Î®ÎºÎ·
ÏĬ Î½
ĠÎ´Î¬ ÎºÏģÏħ
ÏĦ ÏĥÎ·
ÏĦÎ· Î¼ÎŃÎ½Î¿
ĠÎľÏĮ ÏĥÏĩÎ±
ĠÏĢÎ±Î³ÎºÏĮÏĥÎ¼ Î¹Î±ÏĤ
Î¼Îµ Î½Î±Î½
Ġ200 3
ĠÎ´Î¹Î± Î¸ÎµÏĥÎ¹
ĠÎľÎŃ Î³Î±ÏģÎ¿
ĠÎµÎ¾ÎŃ Î´ÏīÏĥÎµ
Ġ ]
Îķ Î¼ÏĨÎ¬Î½Î¹ÏĥÎ·
ĠÏĢÎ±ÏģÎ±ÎºÎ¿Î»Î¿Ïį Î¸Î·ÏĥÎ·
ĠÎ²Î¹Î²Î» Î¯ÏīÎ½
Î³Îº Î±ÏĤ
ĠÏĢÎ±ÏĦÎ¬ ÏĦÎµÏĤ
ĠÏħÏĢÎµ ÏģÎ¬
or s
ÏħÏĥ Î®
is e
Î¼Î¼ Î¹ÏĥÎµ
ĠÏĥÏħÎ½Î´ÏģÎ¿ Î¼Î·
ĠÎºÎ±ÏĦÎ± ÏĨÏį
ĠÎµÎº Î´
ĠÎ¿Î´Î· Î³ÏĮ
ĠÎµÏĢÎµÎ½Î´Ïħ ÏĦÎŃÏĤ
ĠÎµÎ½ ÏĦÏĮ
ĠÎľ Î±Ïĥ
ĠÎ´Î¹ÏĢ Î»ÏĮ
ra v
ĠÏħÏĢÎ¿ÏĥÏĦÎ· ÏģÎ¹Îº
ĠÎ»Î¬ Î²Î¿ÏħÎ½
Î³ÏģÎ± ÏĪÎ±Î½
ĠÎ¹Ïĥ Î»Î±
ĠÎĵÎµÎ½ Î¹ÎºÏĮ
ĠÎ±Î½Î¬ ÏĥÎ±
ĠÏĢÎµÏģÎ¹ÎºÎ¿ ÏĢÎŃÏĤ
ĠÎłÏģÎ¿ ÎµÎ´
ĠÎ£ Ïİ
B C
ĠÏĨÏīÎ½ ÎŃÏĤ
Î¯ ÏĦÎ·ÏĤ
ĠÎļÎ¿Î¶ Î¬Î½Î·ÏĤ
ĠÎ´ ÎŃÎ½ÏĦÏģÎ¿
ĠÎµÏĦÎ® ÏĥÎ¹Î±
ĠÎ¥ ÎłÎŁ
ĠÎ¼ÎµÏĦ ÏģÎ·
ĠÎ¼Î·Î½ ÏħÎ¼Î¬ÏĦÏīÎ½
ĠÎ´Î¹Î± Î¼Îµ
ÏĦÏī Î¸ÎµÎ¯
Î¼ Î¯ÏīÎ½
ĠÎ½Î¿ÏĥÎ¿ÎºÎ¿ Î¼ÎµÎ¯Î±
Î´ ÏģÎ±Ïĥ
ĠÏĦÏģÎ±ÏħÎ¼Î± ÏĦÎ¯ÎµÏĤ
ĠÎ±ÎºÎ¿Ïį Î³ÎµÏĦÎ±Î¹
ĠÏĨÎ¯ Î»Îµ
ĠÎ¥ ÏĢÎµ
ĠÎ´Î¹Î±ÏĨÎ· Î¼Î¹Ïĥ
ĠÎ´ÏģÎ±ÏĥÏĦÎ·ÏģÎ¹Î¿ ÏĦÎ®ÏĦÏīÎ½
ÏĦÎ¹Î½ Î®ÏĤ
Îĳ ÎłÎŁ
ĠÏĢÎ¿ÏĥÏĮ ÏĦÎ·ÏĦÎµÏĤ
ĠÎ£ÏĦÎ± Î¸
ĠÏĢÎµÏģÎ¹ Î³ÏģÎ¬ÏĨÎµÎ¹
Î³ÎŃÎ½ ÎµÎ¹Î±
ĠÏĮÏĥ ÎµÏĤ
ĠÎºÏĦÎ· Î½Î¿
Î»Î¬ ÎºÎ·
Î³ÏģÎ¬ÏĨ Î¿ÏħÎ½
ÏĥÏĦÎ® ÏĥÎµÎ¹
ĠÏĢÎ¬ ÏĥÎ±
ĠAnt inews
ĠÎĺ ÏģÎ¬ÎºÎ·ÏĤ
ÏĢÏĦÎµ ÏģÎ¿
ĠÎĿ ÎµÎº
ĠÎ±Î½ÏĦÎ±ÏĢÎ¿ ÎºÏģÎ¹
ĠÏĩÎ±Î¼Î· Î»Î®
ĠÎ´ Î¯ÎºÏĦÏħÎ±
ĠÏĥÏĦÎ· ÏģÎ¯Î¶ÎµÎ¹
ĠÎĵ Î»Ïİ
ĠÎłÎ¿Ïģ ÏĦÎ¿Î³Î±Î»
ĠÎ´Î¹Î¬ ÏĥÏĦÎ±ÏĥÎ·
ÎĴ ÎĻÎĿÎ¤ÎķÎŁ
ĠÏĥÎ¿Ïħ ÏĦ
ĠÏĩÏİ ÏģÏīÎ½
ÎłÎĳ Îł
ĠÏĢÎ¿Î´Î¿ÏĥÏĨÎ±Î¹ÏģÎ¹Ïĥ ÏĦÎŃÏĤ
ĠÎµ Î´Ïī
ÏģÎ¹Î½ ÎŃÏĤ
ĠÎ´Î·Î¼Î¿ÏĥÎ¹ÎµÏį ÏĥÎµÎ¹ÏĤ
Î§ Îķ
ĠÏĢÏĮ ÏģÎ¿ÏħÏĤ
ÎľÏĮ Î»Î¹ÏĤ
Îµ Îµ
Î»Î¬Î² Î¿ÏħÎ½
ĠÏģÎ±Î´Î¹Î¿ ÏĨÏīÎ½
Î¹Îº Î¿Ïħ
ĠÎ¸ Î»Î¯
S S
ÏĥÎ¹ Î¼ÏĮÏĦÎ·ÏĦÎ±
ĠÏĢÏħ ÏģÎ±
ĠÏħÏĢÏĮÎ»Î¿Î¹ ÏĢÎµÏĤ
ĠÎķÏĦÎ±Î¹ ÏģÎµÎ¯Î±ÏĤ
ĠÎ±Î½ÏĦÎ¯ ÏĥÏĦÎ±ÏĥÎ·
Îļ Î±Î»ÏĮ
ĠÎµÏĥ ÏĮÎ´ÏīÎ½
ĠÎłÎ± Ïħ
ĠÏĢÎ±ÏģÎ¬ ÏĦÎ±ÏĥÎ·
ĠÎ¬Î½Î¿Î¹ Î¾Î·
Î¦ Îĳ
ĠÎĳ Ïĩ
ĠÎľÎ± ÏģÎ±
ĠÎ±ÏĢÎ¿Î¶Î· Î¼Î¹
ĠÎ¯Î´Î¹ Î¿ÏħÏĤ
ĠÎµÏĢÎŃÏĥÏĦÏģÎµ ÏĪÎµ
Î³Î® ÏĥÎµÎ¹ÏĤ
ÏĢ ÏģÏİ
ĠG u
Î»Îµ ÏĬ
ĠÎĳ Î¾Î¹Î¿
ĠÎºÏħÎºÎ»Î¿ ÏĨÏĮÏģÎ·ÏĥÎµ
ĠÎĳÏĥ ÏĨÎ±Î»
ĠÎ§ ÏİÏģÎ±
ĠÎ£ ÏĢÎ¯
Ġ Î»Î¿
Î»Î¬ ÏĦÎ±
Îľ ÏĢ
ĠÏħÏĢÎ±Î»Î»Î® Î»Î¿ÏħÏĤ
ĠÎĶ Ïģ
ÎºÎ± Î»Î¿ÏįÎ¼Îµ
Î§ÏģÎ·ÏĥÎ¹Î¼Î¿ÏĢÎ¿Î¹ Î¿ÏįÎ¼Îµ
ĠÎ¼Î¹Îº ÏģÎ¿ÏįÏĤ
ĠÎ±Î½ÏĦÎ¯ÏĢÎ± Î»Î¿
Ġt r
Ïĩ Î½Î±
ĠÎµÏĢÎ¿ ÏĩÎŃÏĤ
ĠÎ±Î»Î»Î¬ Î¶Î¿ÏħÎ½
ĠÎ¸ÎŃ ÏĥÎµÎ¹
ĠÏĨÎ±ÏģÎ¼Î¬ ÎºÏīÎ½
Î¸ ÏīÎ½
ĠÎµÎ»Î¬ÏĩÎ¹Ïĥ ÏĦÎ±
ĠÏĦÎµ ÏĥÏĥÎ¬ÏģÏīÎ½
ĠÎ´ÎµÎ´Î¿ Î¼ÎŃÎ½Î¿
ĠÎļÏģÎ¬ ÏĦÎ¿ÏħÏĤ
ĠÎŃÎºÏģÎ· Î¾Î·
ĠÎĻÎ±Î½Î¿Ïħ Î¬ÏģÎ¹Î¿
ĠÎļÎ± Î»Î®
ĠÏĨÎ¬Î½Î· ÎºÎµ
ĠÎĳÏĢ Î»ÏĮ
ĠÎ£ÎºÎ¿ ÏĢÎ¹Î±
ĠÏħÏĢÎ¿ ÏĥÏĦÎµÎ¯
ÎłÎ± ÏĦÎ®ÏĥÏĦÎµ
ÏĦÎ¿ ÏĢÎ¿Î¯Î·ÏĥÎ·ÏĤ
ĠÎ¨ ÏħÏĩÎ¿
ĠÎ´Î·Î¼Î¿ ÏĦÎ¹ÎºÏĮ
ĠÏĥÏįÎ»Î»Î· ÏĪÎ·
ÏĨÎ¬Î½ÎµÎ¹ Î±ÏĤ
ĠÏĦÏģÎ¯ Î¼Î·Î½Î¿
ĠÎĳ Îĺ
" ...
ĠÎĳÎ³ÏģÎ¿ ÏĦÎ¹ÎºÎ®ÏĤ
ÏĥÏĦÎ® Î¼Î±ÏĦÎ±
ÏĨÎ± ÏĦÎ±
Î½Î¿Î¹ ÎµÏĤ
ĠÎ±Î½ÏĦÎ¯ÏĥÏĦÎ¿Î¹ ÏĩÎ·
ÎłÎ¿ Î¹Î¿
ĠH e
ĠÏĢÎ¿ Î»Î»Î®
lo s
ĠÎ±ÏĢÎ¿Î¶Î· Î¼Î¯
ĠÏĢÏģÏĮ Î¸ÎµÏĥÎ·
ĠÎŃ Î¸Î¹
ĠÎ±Î¼ÎµÏģÎ¹ÎºÎ±Î½ Î¹ÎºÎ®
ÏģÎ¹ Î¶Î±Î½
Î¼ÎŃ Î±ÏĤ
ÎŁÎ¥ ÎĽ
ÏĮ Î´Î¿ÏħÏĤ
Ïī ÏĦÎ¹ÎºÎ®
Î´Î¯Î´ Î¿ÏħÎ½
Î¼Î¬ Î´ÎµÏĤ
ĠÏĥÏħÎ½ÏĦÎ± Î³ÎŃÏĤ
ĠÎ¤ÎŃ ÏĩÎ½Î·ÏĤ
ĠÎ±ÏĢÎ¿ ÏĥÏĦÎ±
ÏĢ Î¯Î±ÏĤ
Î¬ ÏģÎ¹Î¿ÏĤ
ÏĢÏī ÏĥÎ´Î®ÏĢÎ¿ÏĦÎµ
ĠÎ¬ Î¾Î¿
ĠÎ¡ ÏīÎ¼Î±
Î»Î± Î¯ÏīÎ½
ĠÎ´Î·Î¼ÏĮÏĥÎ¹ Î¿Ïħ
Îļ Ïį
ĠÎĻ Î¿ÏįÎ»Î¹Î¿
ĠÏĥÎ¿ Îº
ĠÎºÎ¬ Î»ÎµÏĥÎµ
Î»ÎŃ ÏĥÎ¼Î±ÏĦÎ±
T Î±
ÏĢÎ¿Î¹Î· Î¸Î¿ÏįÎ½
Î³ÏģÎ¬ÏĨÎ· Î¼Î±
ĠÏĦÎ¿ÏĢ Î¹ÎºÎ®ÏĤ
ĠÎ¾Îµ ÏĨÏį
ĠÏħÏĢÎ¿ÏĥÏĦÎ· ÏģÎ¯
Ġ ro
Ïģ ÏħÎ½
ĠA th
ĠÎ½ÏĮ Î¼Î¿ÏħÏĤ
ĠÎł Î½ÎµÏį
Î® Î¸ÏīÏĤ
ĠÎļÎ±Î¼ Î¼ÎŃÎ½Î¿ÏĤ
ĠÎµÎ½Ïİ ÏĢÎ¹Î¿Î½
ĠÎ½ÎµÎº ÏģÎ¿ÏįÏĤ
ĠÏħÏĢÎµÏįÎ¸Ïħ Î½Î¿ÏĤ
5 4
ĠÏĨÎ¬ ÎºÎµ
u x
ĠÏĢÏģÏĮ ÏĦÏħÏĢÎ±
ÏĥÎºÎµ ÏĥÏĦÎµ
ĠÎĴÎŃ ÏģÎ¿
ĠÎºÎ»Î¬ Î´Î¿Ïħ
ĠÏĥÏĨ ÏģÎ±Î³
ÏĦÎ± Ïĩ
ĠÎĴÎµÏģÎ¿ Î»Î¯Î½Î¿
ĠÎ¤ Î£
ĠÎµÎ»ÎµÏįÎ¸Îµ ÏģÎ¿
ĠÏĢÎµÏģÎ¹Î¼ÎŃ Î½ÎµÏĦÎµ
ĠÏĥÏĦÏģÎ± ÏĦÎ¿Ïį
Ġ ÏģÏįÏĢ
ĠÏĢÎµÏģÎ¹Î¸Ïİ ÏģÎ¹Î¿
Î¼Î¿ ÏĥÏįÎ½Î·
Î½Î· Î¼Î±
ĠÎĺÎŃ Î¼Î±ÏĦÎ±
Îº Î»Î¹
ĠÎºÎ±Î¹Î½Î¿ÏįÏģÎ³ Î¹Î¿
ĠÎļÏīÎ½ÏĥÏĦÎ±Î½ÏĦÎ¹Î½Î¿Ïį ÏĢÎ¿Î»Î·
ĠÎĻÏĦÎ± Î»Î¯Î±ÏĤ
6 7
ĠÏĥÏħ Î¶
ĠÎ¿ ÏģÎ¯Î¶ÎµÏĦÎ±Î¹
ĠÏĥÎµÏģ Î²Î¯
ĠÎ¸Ïħ Î¼ÏĮ
ĠÎ§Î±Î½ Î¯ÏīÎ½
ĠÎºÎ±ÏĦÎ±Î½ÏĮ Î·ÏĥÎ·
ĠÎļÏħ ÏĢÎŃÎ»Î»Î¿Ïħ
ĠL a
ĠÎºÎ±ÏĦÎµÏħ Î¸ÏįÎ½
Î¦Ïī ÏĦÎ¿Î³ÏģÎ±ÏĨ
ĠÎ±ÏĢÏİ Î»ÎµÎ¹ÎµÏĤ
g mail
ĠÏĢÎ¿Î»Î»Î± ÏĢ
Ïĭ ÏĢÎ¿
Î¼ÏĨ Î¹Ïĥ
ĠCh amp
Â °
ĠÎ¼ÎµÏĦÎ¬ ÏĨÏģÎ±ÏĥÎ·
ĠÎ¼Î¹Îº ÏģÏİÎ½
ĠÎĪ ÎºÏĦÎ±
ÎĶ Î®
ÏģÎ® ÏĨÎ±
ann er
ĠÎ´Î¹Î±Î¼Î±ÏģÏĦÏħ ÏģÎ¯Î±ÏĤ
ĠÎķÎ£ ÎłÎĳ
ĠÎ±Î½ÎµÏĢÎ¹ Î¸ÏįÎ¼Î·
ĠÎĳ ÎĶ
ĠÎµÏĢÎ¯ÏĦÎµÏħ Î¾Î·
ĠÎºÎ±Î»Ïį ÏĪÎµÎ¹
Îĺ ÎĿ
ĠÎ±Î¹Ïĥ Î¹Î¿
ĠÎļÎ±ÏģÎ±Î¼Î±Î½ Î»Î®
ĠÎµÏĨÎ·Î¼ÎµÏģÎ¯ Î´ÏīÎ½
Ġ200 1
l and
ĠÎµ ÏĩÎ¿ÏħÎ½
Î£Î· Î¼ÎµÎ¹
ĠÎ¼ÎµÏĦÎ±ÏģÏģÏħÎ¸ Î¼Î¯ÏĥÎµÎ¹ÏĤ
ĠÎĻÎ·Ïĥ Î¿Ïį
ĠÏĦÎ± Î»ÎŃ
ĠÎ± ÏģÎ¸ÏģÎ¿
ÏĥÎ¯ ÎµÏħÏĥÎ·
Î²Î· ÎºÎµ
ÏĦÎ¹ Î½Î¬
Î³ÏģÎ±ÏĨ Îµ
ar a
ĠÎ±ÏģÏĩ Î¹
ĠÏħÏĢÎ¿ÏĥÏĦÎ®ÏģÎ¹ Î¾Îµ
u al
ÏĥÏħÎ³ ÏĩÏģÎ¿Î½
ÏģÎŃ Î¹
ÏģÎŃ ÏĢÎµÎ¹Î±
ÏĦÏģÎµ ÏĪÎµ
ĠÎ¿ ÏģÎ¹
ĠÎ³ ÏģÎ¯
ĠÎ¸ÎµÏī ÏģÎ¿ÏįÎ½ÏĦÎ±Î¹
ĠA ut
Î¸ Î¯Î±ÏĤ
ĠÎ¼Î¬Ïģ ÎºÎµ
ĠÎ±ÏĨÎ® Î½Î¿Î½ÏĦÎ±ÏĤ
ĠÎµÎ¯Î´ Î±Î½
ĠÎĮ Î»ÎµÏĤ
ĠÎ³ÏģÎ± ÏĨÎµÎ¹
ĠÎ¼ÏĢ Î»Î¿Î³
ÎŁ Î¹ÎºÎ¿Î½Î¿Î¼
ĠÏĥÎºÎ»Î· ÏģÎ¬
ĠÎºÎ±ÏĦÎŃ Î¸ÎµÏĥÎµ
ĠÎł ÏĮÏĦÎµ
Ġ @
ĠÎµÎ»Î¬ÏĩÎ¹Ïĥ ÏĦÎ¿
ĠÎµÏħ ÏĦÏħÏĩÎ¯Î±
ĠÎ±Î»Î»Î±Î³ Î®ÏĤ
ĠÎµÏģÎ¼Î· Î½ÎµÎ¯Î±
ĠÏĥÏħÎ¼ÏĢÎµÏģÎ¬ ÏĥÎ¼Î±ÏĦÎ±
it a
Ġ20 20
ÎºÏģÎ± ÏĦÎ¯Î±
ĠÏĥÏĩÎµ Î´Î¯Î±
ÏĦÎ¹ ÎŃÏĤ
Î»ÎŃ ÏĥÎ¿ÏħÎ½
ĠÎ¼Î¿Î½Î¬ ÏĩÎ±
Ġ Î¯Î½
ĠÏĢÎ¬ ÏģÏī
ĠÎºÎ¯Î½Î· ÏĥÎ·ÏĤ
Î´ÎµÎ¹Îº ÏĦÎ¹ÎºÎ¬
ÏĨÎ¿Ïģ Î¹ÎºÎ®
ĠÎ£ Î¤ÎĹ
ĠÏĮ ÏģÎ±Î¼Î±
ĠÏĩÏģÎ¿Î½ ÏİÎ½
on g
ĠS ch
ĠÎ± Î¼Î±
ĠÎ´Î¿ Î»Î±
Îķ Î½Î±
ĠÏĢÎ»Î·ÏģÏī Î¼Î®
Ïī ÏĦÎ¿
p s
ĠÏĨÏį Î»Î»Î¿
ĠÏĩÎ¹Î»Î¹Î¬ Î´ÏīÎ½
ĠÏĨÎ¹Î» Î¹ÎºÏĮ
ĠÏĢÏģÎ¿ÎŃÎºÏħ ÏĪÎµ
ÎķÎ½ ÏĦÎ¬Î¾ÎµÎ¹
ĠÎ±ÏĥÏĩÎ¿Î» ÎµÎ¯ÏĦÎ±Î¹
at ch
ĠÎ±ÏħÎ¾ Î¬Î½ÎµÏĦÎ±Î¹
ĠÎ¼Î¹Ïĥ Î¸Ïī
ĠE d
ĠÏĥÏħÎ¼ÏĨÏīÎ½ ÎµÎ¯ÏĦÎµ
ĠÎ¼Î¹Ïĥ Î®
ÎŃ ÎºÏĦÎ·Î¼Î±
Î² Î¿Î¹
ĠÏĦÏħ ÏģÎ¯
ĠÎ±ÏĢÎ¿Î´ÎŃ ÏĩÎµÏĥÏĦÎµ
ĠÎºÏį ÏĦÏĦÎ±ÏģÎ±
ÎºÎ¿ ÏĢÎ®
ĠÎ¿Î´Î®Î³Î· ÏĥÎ±Î½
ĠÎµÎ¼ÏĢÏĮ ÏģÎ¹Î¿
ter s
Î´Î¿ ÏĩÎ®
ĠÎ»Î±Î¹ Î¼ÏĮ
ĠÎķ Î¹ÎºÏĮÎ½ÎµÏĤ
ĠÏĦÎŃÏĦÎ¿Î¹ Î¿Ïħ
ĠÎľÎµÏĥ ÏĮÎ³ÎµÎ¹Î¿
ĠÎĶ Î¿Ïį
ĠÎ±Î»Î»Î¬ Î¾Î¿ÏħÎ½
Î£ÏħÎ½Î¿ Î»Î¹ÎºÎŃÏĤ
Ïĥ Î¸Î·ÎºÎµ
Î³ Î½
Ġá¼ Ķ
ĠÏĢÏģÏĮ ÏĦÏħÏĢÎ¿
w e
ĠÎĵÎµÎ½ Î¹ÎºÎ¿Ïį
l es
Î³Î¿ ÏģÎµÏħ
ĠÎ±Ïģ Î¼Î¿Î½
ĠÎµÏĢÎ¹Î»ÎŃ Î¾ÎµÎ¹
ÏĢÎ· Î¼Î±
» ¿
ÎĻÎļ ÎŁÎĿ
ĠÏĢÎ± ÏģÎµÏħ
re et
it s
ĠÎµÏĢ Ïī
ĠÏħÏĨ Î¹ÏĥÏĦÎ¬
b all
ĠÎĵ Î¬
rip t
Î³Î¹ ÎŃÏĤ
ĠÏĢÏģÎ¿Î¿ Î´ÎµÏħ
ĠÏĢÏģÏīÏĦÎµ ÎĲ
ĠÏĦÎ¿ÏĢ Î¹ÎºÏĮ
ÏĢÎ¹Î± Î³ÏīÎ³
ĠÎłÎ¿Î» ÎŃ
ĠÏĥÎµÎ½Î¬ ÏģÎ¹Î±
ĠÎºÎ± ÏĢ
ĠÎµÏħ ÎµÏģÎ³
ĠÏĢÏģÏīÏĦÎ¿ ÏĢÎ¿
ĠÏĢÎ»Î¬ ÎºÎ±
ĠÏĨ Î¿Î½
ÏĢÎ¹Ïĥ ÎºÏĮ
ĠÏĩÏģÎ·ÏĥÎ¹Î¼Î¿ÏĢÎ¿Î¹ Î¿ÏįÎ¼Îµ
ĠÎºÎ±Î¹Î½Î¿ÏįÏģÎ³ Î¹Î±
Î¸Ïī Î¼Î±Î½
ÎŀÎµ ÏĩÎ¬ÏĥÎ±ÏĦÎµ
m in
Îº ÏħÎ½
ĠÎµÏĢÎ± ÏĨÎŃÏĤ
ĠÏĥÏĦÎ± Î¼Î±ÏĦÎ¬
ĠÎ±Î½Î±ÎºÎ¿Î¯Î½ ÏīÏĥÎ®
ĠÎ¼ÏĢÎ¿ Ïį
á½ µ
ĠÎŃÏĦÎ¿Î¹ Î¼Î·
ÏĨ Î½
ĠÎµÎ¾Î± ÏĦÎ¿
ĠÎºÎ¹Î½Î´ÏįÎ½ Î¿ÏħÏĤ
ak e
ÏĥÏĥÎ± Î»Î¿Î½
ĠÎ±ÏģÎ¹Î¸ Î¼Î¿Ïį
ĠÎĳÎ¼ÎµÏģÎ¹ÎºÎ±Î½ ÏĮÏĤ
ĠÎľ Î¿ÏħÎ½
Îĳ Î¥
Î¹ÏĥÏĦÎµÏį Ïī
ÏĦÎ¹Ïĥ Î¼ÎŃÎ½Î¿
ÏĢÎµÎ¹ ÏģÏī
ÏģÎŃ Î¸Î·ÎºÎµ
ĠÎ±ÏĢÏĮ Î´ÎµÎ¹Î¾Î·
ĠÎºÎ¬ ÏģÏĦÎµÏĤ
ÏĮÎ´Î¿ Î¾Î·
on es
ÏģÎ¹ Î½Î¿Ïį
ĠÏĥÏħÎ½Î±Î´ÎŃÎ» ÏĨÎ¿ÏħÏĤ
Ġ ~
ĠÎĳÎ½ ÏĦÎ¯Î¸ÎµÏĦÎ±
ĠÎ´Î±ÏĢÎ±Î½ ÏİÎ½
Î»Î» Î±ÏĤ
ĠÎºÏĮ ÏĢÎ¿
Îĳ ÏĨÎ®ÏĥÏĦÎµ
ĠÏĢÎµÏģÎ¹Î¿Ïħ ÏĥÎ¯Î±ÏĤ
Î½Î±Î» Î½ÏĦ
Ġs ocial
ĠÏĪÏħÎ³ ÎµÎ¯Î¿
ĠÎµÎ¹Î´ Î¹ÎºÏĮÏĦÎµÏģÎ±
ĠÎ±ÏĢÎ¿ÏĦÎµ Î»ÎµÏĥÎ¼Î¬ÏĦÏīÎ½
ĠÏĩ Ïį
ĠÎ± Î»Î±
Î¼ÏĮÏģÏĨ ÏīÏĥÎ·ÏĤ
ĠH D
Î² ÎµÏĦÎµ
ĠÎ¸ÏģÎ·ÏĥÎºÎµ Î¯Î±
ĠÎ±ÏģÎŃ ÏĥÎ¿ÏħÎ½
ĠÎ¸ÎµÏģ Î¼Î¿
ĠÎļÎ±Î½Î± Î´Î¬
ĠÎµÎº ÏĦÎ¿
Ġ ÏģÎŃ
ĠÎºÎ± ÏħÏĥÎ¯
ĠÎ¿ÏģÎ³Î¬Î½ ÏīÎ½
ĠÎ¼Î±Ïį ÏģÎ·
ÏĩÏİ ÏģÎ·ÏĥÎ·ÏĤ
Ïĩ Î½Ïī
ĠÎµÎ¾ Ïİ
ĠÎ¾ÎµÏĩÎ½Î¬ Î¼Îµ
Î³ÏģÎ¬ ÏĪÎµÎ¹
Î³ÏīÎ½ Î¿
ĠÎ±Ïĥ Î¸Îµ
Î² ÏģÎ¿
ĠÏĨÏĦÎ¬ Î½Î¿ÏħÎ½
Î½Î¹ Î½Î±
ĠÏĢÏģÎ±Î³Î¼Î±ÏĦÎ¿ ÏĢÎ¿Î¯Î·ÏĥÎµ
ĠÎ´Î¹ÎºÏĦÏį ÏīÎ½
ĠÎ³ Î»ÏīÏĥÏĥ
ĠÎļÏħ Î²ÎµÏģ
ĠÎ±ÏĢÎ± Î»Î»Î±Î³
C opyright
ĠÎ´Î·Î¼Î¹Î¿ÏħÏģÎ³ ÏİÎ½ÏĦÎ±ÏĤ
Îĳ ÏĢÎ¿ÏĦÎµ
ĠÏĢÎµÎ¹ Î¸Î±
ĠÎ±Î½Î¿Î¹Ïĩ ÏĦÎ®
ÏģÎµ ÏĥÎ±Î½
Î±Î³Ïī Î³ÎŃÏĤ
ĠÎµÏĢÎ¯ÏĥÎ· Î¼Î¿
ĠÎ·Î¸ Î¹ÎºÎ®
Î²Î± Î¯Î½Î¿ÏħÎ½
ĠÎļÎŃÏģÎºÏħ ÏģÎ±
ĠÎĻ Ïģ
ĠÎ±Î³Î¿Ïģ ÏİÎ½
Î¸ Î¿Î½
Î»Îµ ÏĪÎµ
ĠÎłÎµ ÏģÎ¹Î¿
ĠÎµÏĢÎ¯ Î¸ÎµÏĥÎ·ÏĤ
Îł Î¡ÎŁÎ£
ĠÏħÏĢÎ®Ïģ Î¾Î±Î½
ĠÏģÎ¿ Î®
ĠÏĦÎ±Î¾Î¹Î´ Î¹Ïī
ĠÎºÎ¿ ÏĥÎ¼Î¿
Îľ Î±ÏĤ
ĠÏĢÎ¬ ÏģÎµÏĦÎµ
ĠÎ¤Î± Î¾
ÏĢÏī Î»ÎµÎ¯Î¿
ĠÎ±Î½ Î¹Ïĥ
ÎĳÎ½Î± ÎºÎ¿Î¯Î½ÏīÏĥÎ·
ÏĦÎ¯ ÏĥÎ¿ÏħÎ½
ĠÎĳÏħ ÏĦÎŃÏĤ
Î»Î» Îµ
Ġs mart
ĠÎŁ Ïģ
ĠÏĥÏĦÎµÎ¯ Î»ÎµÎ¹
ĠÎ³Î½Ïİ Î¼Î·ÏĤ
ĠÎŃÎº Î´Î¿ÏĥÎ·ÏĤ
ĠÎ¬Î½Î¿Î¹ Î³Î¼Î±
ĠÎ±Î½Î±ÎºÎ¿Î¹ Î½Ïī
ÏĦÎ¹ Î²
ĠH ell
ĠÏħÏĢÎ¿ Î²
ĠÏĢÎ¯Î½Î± ÎºÎµÏĤ
ĠÎ´ÎµÏĥÎ¼Îµ Ïħ
ĠÎ¬Î½ ÎµÏĥÎ·
ĠÏĢÎ»Î® ÏģÎ·ÏĤ
ÏģÎ¬ Î²Î¿
Îĳ ÎºÏĮÎ¼Î·
Îľ Î¹
ĠÎ² Î»Î±
ĠÎºÎ¿Î¹ Î½Î¬
ĠÎĳÎ½ ÏĦÏīÎ½
ĠÎºÏįÎº Î»Î¿ÏĤ
l a
ĠÏĥÏħÎ½Î± Î¯Ïĥ
Ġ an
ĠÏĢÏģÎ¿ÏĥÎµ ÏħÏĩÎ®
Î¬Î½ ÏĦ
ĠÎľÎ± Î¾Î¯Î¼Î¿Ïħ
Î² Ïī
e e
ĠÎ±ÏĢÎ±Î½ ÏĦÎ®ÏĥÎµÎ¹
ĠÏĥÏħÎ½ÎµÎ¹ Ïĥ
ĠÎ±ÏĢÎ¿ÏĦÎµÎ»ÎµÏĥÎ¼Î± ÏĦÎ¹ÎºÎ¬
Î»Î¬ ÎºÎ·ÏĤ
ĠÎ¬Î½ ÎµÏħ
ĠÎµÎºÏĢÏģÎ¿ÏĥÏİ ÏĢÎ¿ÏħÏĤ
ĠÎĸÏī Î®
ĠÏģÎ¿ Î¼Î±Î½
ĠÎ¸Î· ÏĥÎ±
ĠÏĦÏĮ ÏĢÎ¿ÏħÏĤ
ĠÎ²Î±Î¸Î¼Î¿ Î»Î¿Î³Î¯Î±
ÏĦÏģÎ¿ÏĨ ÎŃÏĤ
ÏĦÎ¹ ÏĦ
ÏĥÏĦÎ¹ ÏĤ
ĠÏĢÎ±ÏģÎ¿ÏħÏĥÎ¹Î¬ Î¶ÎµÏĦÎ±Î¹
ĠÎ±Î¹Ïĥ Î¸Î¬
Î§ ÏģÎ®
ĠÎ¶ Ïį
ĠÎ¯Î´Î¹Î± ÏĤ
ÏĢÎ¿ Î»Îµ
ĠÎµÏħ ÏĩÎŃÏĤ
ĠÏĥÏħÎ½ ÏĮÎ»Î¿Ïħ
ĠÎ±ÏĢÎµÎ¹ Î»ÎŃÏĤ
ÏĮÎ½ ÏĦÎ±
Ġ ÏģÎ±Î³
... )
ĠÎ¹ÏĥÏĦÏĮÏĦÎ¿ ÏĢÎ¿Ïħ
ĠÏĢÎ»Î· ÏģÏİÏĥÎ¿ÏħÎ½
ĠÎ³ Î±Ïĥ
A D
ĠÎ´Î¹ÎµÎ¾Î± ÏĩÎ¸ÎµÎ¯
e am
ĠÏĥÏĦÎµ ÏģÎµ
ĠÎ¼ÎµÏĦÎ± ÏĢÏĦÏħÏĩ
Îº Î¬Î½
Î² Î±Î¹Î¿
ĠÎ²ÏģÎ¿ ÏĩÎŃÏĤ
ÏĦÏĥ Î¬ÎºÎ¹
ĠÎ²ÏģÎ® ÎºÎ±
ÏĢÎ¿Î¹ Î¿ÏįÎ½
ÏĢ Î»Î±Î½
ÎŃ ÏĦÎ±
ĠÎºÏħÎºÎ»Î¿ÏĨÎ¿ ÏģÎ¿ÏįÎ½
Ġin ternet
ĠÎ¼ÎŃÎ¸Î¿ Î´Î¿ÏĤ
Î¬Ïģ ÎµÎ¹
ĠÎ¹Ïĥ ÏĢÎ±Î½
ĠÎ²ÏģÎµ Î¸Î¿ÏįÎ½
6 4
Î¯Ïĥ ÏĦÎ±ÏĤ
Î»Î¿Î³ ÎµÎ¯ÏĦÎ±Î¹
ÎµÏį ÎµÏĦÎ±Î¹
Ïİ Î´ÎµÎ¹ÏĤ
ĠÏħ Î»Î¹ÎºÏİÎ½
ĠÎ³Î½ÏīÏģÎ¯Î¶ Ïī
iv ers
ĠÏĢÎ·Î³Î± Î¯Î½ÎµÎ¹
ĠÎ²Î±Î¸ Ïį
ÏĨÎ¿ ÏģÎ±
ÏĦÎµÏģ Î¿ÏħÏĤ
ĠâĢĺ âĢĻ
ĠÏĥÏĩÎ¿Î» Î®
ĠÏĢÏģÎµ Î¼Î¹ÎŃÏģÎ±
ĠÏĥÏĦÎ® Î¸Î¿ÏĤ
ĠÏĩÎ± Î¯
ĠÎ²ÏģÎ¿ ÏĩÎ®
Î»Î± Î¯Î±ÏĤ
ĠÎ§ Î¬Ïģ
ĠÎĽÎ¿ Î³Î¿
ĠC on
ĠÎµÏĢÎ¹Îº Î±
ĠÏĢÏģÎ¿Î·Î³Î¿ÏįÎ¼Îµ Î½Î±
er a
ĠÏħÏĢÎ¿ Î¸ÎŃ
ĠÎºÎ¿Ïħ ÏģÎ¬
ĠÏģÎ¹ Î¶
ĠÎĵÎµÎ½ Î¹ÎºÎ¬
ĠÎ´ÏĮÎ½ ÏĦÎ¹Î±
ĠÎºÎ¿ Î»Î¿
Î¸ Î¯Î±
ĠÎ¼ÎµÎ³ÎŃ Î¸Î¿ÏħÏĤ
ÏĦÎ± Î¾
ĠÎ· ÏĩÎ¿
ĠÎłÎ±Î½ ÏĦÎµ
ĠÎ»Î¿ÏħÎ»Î¿Ïį Î´Î¹Î±
ÏĦÏĥ Î¿ÏĤ
ĠÎĳÏĥÏĨÎ¬Î» ÎµÎ¹Î±ÏĤ
ÎłÎĳ Î¡
Î³Îº Î±Î½
Ïĩ Î½ÎµÏĦÎµ
ĠÎĳ ÎºÏģÏĮ
ĠÏĥ ÏĨÏħ
ĠÎĳÎ½ Î¸ÏģÏİ
ĠÎĺÎµÎ¿ ÏĦÏĮ
ĠÎĳ ÎķÎĽ
ÏĦÎ¿Ïį ÏģÎ³
ĠÎĶÎ¹Î±ÏĩÎµÎ¯ ÏģÎ¹ÏĥÎ·ÏĤ
ÎºÎ± Î»
ÏĦÏģÎŃ Î»Î±Î¹Î¿
ĠÎ´Î¹Î±Î¼ÎŃ ÏģÎ¹ÏĥÎ¼Î±
ĠÎµÎ¹Ïĥ ÏĨÎ¿ÏģÎŃÏĤ
ĠÎµÏĢÎ¹ÏĦÏģÎŃ ÏĢÎ¿ÏħÎ½
Î¾ Î¹Î¬ÏĤ
ĠÏĦÎŃ Î»Î¿ÏħÏĤ
Îº Î¬Î»Î¹
ÏĢ ÏĦÏİÎ½
ĠÎºÏħÏģÎ¹Î¿ Î»ÎµÎºÏĦÎ¹ÎºÎ¬
ĠÎµÏĢÎµÎ¾ÎµÏģÎ³ Î±Ïĥ
Î³ÏģÎ¬ÏĨ ÏīÎ½
ĠÎ±Î½ÏĦÎ¹ Î¼ÎŃÏĦÏī
ÎķÎ¹Î´ Î¹ÎºÏĮÏĦÎµÏģÎ±
ĠÎ´Î¿ Î¼ÎŃÏĤ
ĠÎĿÎ¿ÎŃ Î¼Î²ÏģÎ¹Î¿
ĠÎ´Î¹Î± ÎºÏĮÏĥ
ĠÎºÎ¹Î½Î· ÏĦÎ¬
Îł ÎŃÏģÎ±
ĠÏĥÏĩÎµ ÏĦÎ¯Î¶ÎµÏĦÎ±Î¹
Î²Î±Ïĥ Î¼Î±
ÏĦÏģ Î¹ÎºÎ¬
ĠÎ±Î½Î±ÎºÎ¿Î¹ Î½ÏİÎ½ÎµÎ¹
ĠÏĢÎ® ÏģÎ±
Î¼Î± Ïĩ
ÏĢÎµÎ¯ ÎµÏĤ
ĠÎ£Î¿ ÏĨÎ¯Î±
Îº Î¿Î¹Î½ÏīÎ½
ĠÎ½Î± Î¶
ĠÎłÎ¹ ÎµÏģ
ĠÏį ÏĨÎ¿ÏĤ
ÎºÏģÎ¬ ÏĦÎ¿
ÏĢ Î±Î¹Î´
ĠÎļÎ¿ Î¼Î¹ÏĥÎ¹ÏĮÎ½
ÏĨÏĮ ÏģÎ¿ÏħÏĤ
ĠÎ±ÏĢÎ¿ÎºÎ¬Î»Ïħ ÏĪÎ·
Î¸ Î»Î¹Î±
ĠÎĳÏģÏĩ ÎŃÏĤ
ĠÏĢÎµÏģÎ¯ Î¼ÎµÎ½Îµ
ÏĥÏĦÎ± ÏĥÎ¯Î±
ĠÏĥÏī ÏĦÎ·ÏģÎ¯Î±
ĠÎļÎ± Î»Î»
ĠÎ¼ÎµÎ¹ ÏİÎ½ÎµÎ¹
Îł Î¿Ïį
ĠÎ¬ Î¼
Î¼ÏĢÎ¿Ïħ Î¼
ĠÎºÎ¿Î¹ Î½Î®ÏĤ
ĠÎµÎ¹Î´ Î¹ÎºÎ¿Î¯
Î¹Î± ÎºÎ¿Ïį
Îľ ÎŁÎ¥
el s
ÎºÏĦÎ¿Î½ Î¯Î±ÏĤ
Î¸Îµ ÏĦÎ±Î¹
ĠÏĢÎŃÏģÎ± ÏĥÎ¼Î±
ĠÏĢÎµÏģÎ¹ÏĥÏĦÎ± ÏĦÎ¹ÎºÎ¬
ĠÎ¬Ïĥ ÏĩÎ·
iv al
ĠÎ¿ Î»Î¹
# #
ÎµÏį Î¿ÏħÎ½
ĠÎĴ Î¯
ĠÎºÎ±Î½ ÎµÎ¹
ĠÎł ÎĵÎĶÎľ
ĠÏĩÎ±ÏģÎ±ÎºÏĦÎ®ÏģÎ¹ ÏĥÎµ
Î²Î±Î¹ Î½Îµ
ĠÏĢÎ® Î³Î±Î½
ĠÏĢÏģÎµ ÏĢÎµÎ¹
ĠÎ¹ Î¼ÏĢÎµÏģÎ¹Î±Î»Î¹Ïĥ
ĠÎ´ Î¹ÎºÎ¿ÏįÏĤ
ÎĲ Î±ÏĤ
ĠÏĢÎµÎ»Î¬ ÏĦÎ·
ĠÎľÎ± Î´ÏģÎ¯
Î£ ÏĦÏĮÏĩÎ¿ÏĤ
ĠÎĪÏģÎµÏħÎ½Î± ÏĤ
ĠÏĨÎ¿Ïģ ÏĦÎ·
ĠÎŃÎ²Î³Î± Î»Îµ
ĠÏĢ ÏģÎ¯
ĠÏĢÏģÏīÏĦÎ¿Î²Î¿ÏħÎ» Î¯ÎµÏĤ
ĠÎ´Î¯Îº Î±Î¹
ĠÎ´ÏģÎ±ÏĥÏĦÎ·ÏģÎ¹ÏĮ ÏĦÎ·ÏĦÎ±ÏĤ
ĠÎµÎ¼ÏĢ Î»ÎŃ
ĠÎ¿ Î´Î¿Î½
ĠÎ¤ Î¶Î±
Ïĥ ÏĦÏĮÏĤ
ÏģÎ¹Ïĥ Î¼ÎŃÎ½Î±
ĠÎµÏĨ Î¹Îº
ÎķÎ³ Î³ÏģÎ±ÏĨÎµÎ¯ÏĦÎµ
Î³ÏģÎ¬ÏĨ Î·ÏĥÎ·
ĠÎ¼Î¬ ÏĤ
ÏĢÏĦÏİ ÏĥÎµÏīÎ½
ĠÎĳÎ³ ÏİÎ½ÎµÏĤ
ĠÎºÎ±Î¸ Î¿Î»
ÏĦÏħ ÏģÎ¿
Ġant inews
ĠÏĥÎ¹Ïī ÏĢÎ®
ĠÏĦÎ·Î»ÎŃ ÏĨÏīÎ½Î±
ĠÎ±Î½Î±ÏĢ ÏĦÏħÏĩ
ĠÎŁÎ¼Î¿ÏĥÏĢÎ¿Î½ Î´Î¯Î±
Ïħ ÏĢÎ¬
ĠÎĳÎ¯ Î³ÏħÏĢ
Î½Îµ Ïģ
ĠÎ´Î·Î¼Î¿ ÏĥÎ¯ÏīÎ½
ĠÏħÏĢÎ¿Î³ÏģÎ¬ Î¼Î¼Î¹ÏĥÎµ
Î»Î»ÏĮÎ³ ÏīÎ½
ĠÎĽÎµÏħ ÎºÎ¬
ĠÎ´Î¹Î±ÎºÎ¿ ÏĥÎ¼Î·
ĠÎ± Î»Î¹
ĠÎ»ÎµÎ¯ ÏĢÎµÎ¹
Ġ %
ĠÎ¤Î¿Ïħ ÏģÎ¹ÏĥÎ¼Î¿Ïį
ĠÏĥÏħÎ½ÎµÏĩ Î¯ÏĥÎ¿ÏħÎ½
ĠE l
ĠÏĥÏħÎ½ ÏĦÏģÏĮ
ĠÎ¾Îµ ÎºÎ¹Î½Î¿ÏįÎ½
ĠÏĨÏĮ ÏģÎ¿
Ïĩ ÏĮÎ¼ÎµÎ½Î·
ĠÎĶÎµÏħ ÏĦÎŃÏģÎ±ÏĤ
ĠÎľÎ¹ÏĩÎ¬ Î»Î·ÏĤ
ÏĨ Î±Î³
ĠÎ£Î± Î¿Ïħ
Î¹Î± ÎºÎ®ÏĤ
c y
Î»ÏĮÎ³ Î¿ÏħÏĤ
ĠÎĳ ÏĢÎµ
ÏģÎ¿Ïħ ÏĥÎ¹Î¬
ĠÎľÎ± Î¶Î¯
ÏģÎŃ Î½
ĠÎ±Î¼ÏĨ Î¹
Î¯Îº Î¹
ĠÎĺ ÏģÎ¬ÎºÎ·
ĠF r
ĠÎłÏħÏģÎ¿ ÏĥÎ²Îµ
ĠÏĢÎ±ÏģÎ±Î´ÎµÎ¯ Î³Î¼Î±ÏĦÎ±
Î³Î³ÎµÎ¹ Î»Îµ
5 1
Î² ÎµÎ¯
ĠÎ±ÏĢÎµ Î»ÏĢÎ¹Ïĥ
ĠÎµÎ»ÎµÏħÎ¸Îµ ÏģÎ¯Î±ÏĤ
ĠÎ± Î¸Ïİ
ĠÎ¹ÏĥÏĦÎ¿ÏĥÎµÎ» Î¯Î´ÎµÏĤ
Îĺ ÎķÎ£
O L
4 00
ÏģÎ¯ ÏĥÏĦÎµ
ĠÎµÎ¾Î±Î¹ÏģÎµ ÏĦÎ¹ÎºÏĮ
u k
ĠÎĵ Î·ÏĤ
ĠÎĳÏĨ ÏģÎ¿
ĠÎĶÎµÎºÎŃ Î¼Î²ÏģÎ¹Î¿
ĠÎĳÎĿ Îĳ
ĠÏĥÎ± ÏĨÎ®
ĠÏĥÎºÎ¿ ÏĦÎ¬
ĠÏĢÎµÏģÎ¹ ÏĨÎŃÏģÎµÎ¹Î±
ÏĨÏħ Î³Î±Î½
ÏĢÎµ Î´Î¿Ïį
Îļ Î»Î¹Îº
ĠÏĢÎ±Î³ ÎºÏĮÏĥÎ¼Î¹
ĠÎ² Î¿ÏħÎ»
Î»Î¹Ïĥ Î¼Î¿Ïį
ĠÎµÏģÎ³ Î¬Î¶Î¿Î½ÏĦÎ±Î¹
ĠÎµÏĥÏĦÎ¹Î±ÏĦÏĮ ÏģÎ¹Î¿
Î»Îµ ÏĩÎ¿ÏĤ
ĠÎº ÏģÎ¿Ïħ
ĠÎµÏħÏĩÎ±ÏģÎ¹Ïĥ ÏĦÎ¿ÏįÎ¼Îµ
ĠÏį ÏĢÎ¿
ĠÎķ Î½Î±
ĠÏĩÎ¿ Î»Î·
ĠÏĢÎ±ÏģÎ¿ ÏĩÎŃÏĤ
ÏįÎ¾Î· ÏĥÎ·
ĠÎŃÏĨÏĦÎ± ÏĥÎ±Î½
ĠÎ·Î¼Î¯ ÏĩÏģÎ¿Î½Î¿
ĠÏħÏĪÎ· Î»Î¬
ÏĦÎ± ÏģÎ±
ĠÏĢÎ¹Î¸Î±Î½ ÏĮÏĦÎ±ÏĦÎ±
Î£ ÏįÎ½
ĠÎļÏģÎ¬ ÏĦÎ¿ÏĤ
ĠÏĢÎ»Î· ÏģÏİÎ½Î¿ÏħÎ½
ĠÎµÎ¯ÏĥÎ¿ Î´Î¿ÏĤ
ĠÎµÏħ ÏģÎ®Î¼Î±ÏĦÎ±
ĠÎºÎ¬ÏĢÎ¿Î¹ ÏīÎ½
ĠÎµÏĢÎ¹Ïĥ Î®
i os
ÎºÎ± Î¼ÏĪÎ·
ÎĶ Î¿
ĠÏĢÎ±ÏģÎ±Î³Î³ÎµÎ» Î¯Î±
ĠÎ´Î·Î¼Î¿ÏĥÎ¹Î¿Î³ÏģÎ¬ÏĨ Î¿ÏħÏĤ
ĠÎ±Î½Î¸ÏģÏī ÏĢÎ¹Ïĥ
ĠÎµÎºÎ¼ÎµÏĦÎ¬Î»Î» ÎµÏħÏĥÎ·
ĠÏĥÏħÎ³ ÏĩÏī
ĠÎĨ Î½Î¿Î¹
ĠÎ´ÎµÏįÏĦÎµ ÏģÎ¿ÏĤ
Î¼ÎµÎ¯ ÏīÏĥÎ·
ĠÎºÎ»ÎµÎ¯ Î½ÎµÎ¹
Î»Î¹ ÏĦÎ¶
d e
ĠÎ»Î¿Î³Î±ÏģÎ¹Î± ÏĥÎ¼Î¿ÏįÏĤ
ĠÏĢÎ¿Î¯ Î·ÏĥÎ·
Î³Î³ ÎµÎ¯
ĠÎ² Î¿ÏħÎ»Î®
ĠÏĢÎ¿Ïĥ Î¿Ïį
ĠÎķ ÎŁÎł
ÏĢÎ¹Ïĥ ÏĦÏī
ĠÏĢÏĮ ÏĥÎ±
ĠÎµÏĢÎ¹ÏĥÏĦÏģÎŃ ÏĨ
ĠÎµÎ¹ ÏģÎ®Î½Î·
ĠÏĥÏįÎ¼Î²Î¿ Î»Î¿
ĠÏĮ ÏĪÎ·
ĠÎ¹ÏĥÏĦÏĮÏĦÎ¿ ÏĢÎ¿
Ġ4 1
ĠÏĢÎ±ÏģÎ±ÎºÎ¿Î»Î¿Ïħ Î¸ÎµÎ¯
ĠÏĢÎ±ÏģÎ±Î¼Ïį Î¸Î¹
ĠÏĥÎµ ÏĦ
Ġ4 7
ÏģÎ¯ Î´Î·
n b
ĠÎ»ÎŃ ÏĦÎµ
ĠÎ´Î¿Î»Î¿ ÏĨÏĮ
ĠÎº ÏģÎ¿Ïį
Ġp h
ĠÎľ ÏħÏĥ
ĠÎ±ÏģÏĩ Î¯Î¶Î¿ÏħÎ½
ĠÎµÎ³ ÏĩÎµÎ¯
AR A
ĠÏĢÎ¿ Î¹Î¿Î½
ÏĪ Ïħ
ĠÎºÎ±ÏĦÎ± ÏĩÏī
ĠÏĥÏħÎ³Îº Ïģ
ĠÏĢÏģÎ¿Î¿ÏĢ ÏĦÎ¹ÎºÎŃÏĤ
ĠÎ±Î½Î¿ ÏĥÎ¿
ĠÎ±ÏģÎ¹ÏĥÏĦÎµ ÏģÏĮ
ÎļÏħ ÏģÎ¹Î±ÎºÎ®
ĠÎ§ ÏģÎ·
ĠÎĮ ÏģÎ¿ÏħÏĤ
á½´ Î½
ĠÎ¼Î½Î·Î¼ÏĮ Î½Î¹Î±
ĠÎµÏĢÎ¹ÏĥÎºÎµ Ïħ
ĠÎ±ÏĢÎ¿ÏĨÎ¬Ïĥ Î¹ÏĥÎ±Î½
ĠÎľ ÎĻÎĳ
ĠÎĻÎ½ÏĥÏĦÎ¹ÏĦÎ¿Ïį ÏĦÎ¿
ĠÎ½ÏĦÎ¿ ÎºÎ¹Î¼Î±Î½ÏĦÎŃÏģ
ĠÏĦÎ¿Ïį ÏĤ
Î¾ÎµÎ¹ Î´Ïī
ĠÎ¸Î· Î»Ïħ
ĠÎłÏģÏī ÏĦÎ¬Î¸Î»Î·Î¼Î±
ĠÎºÎ¿ÏģÏħ ÏĨÎ±Î¯
Î¹Î½ ÏĦ
Î¼Î² Î¿ÏĤ
ÏģÎ¹Ïĥ Î¼ÎŃÎ½Î·
Ġ Îı
ĠÎ¿Î¼Î¯ Î»Î¿Ïħ
ĠÎ³ÎµÏį Î¼Î±
ĠÎºÏį Î¼Î±
Î¥ Î¥
Â» )
ĠÎ±Î½Î±ÎºÎ± ÏĦÎµÏį
ĠÏĦÎ¿Ïħ ÏģÎ¹ÏĥÎ¼Î¿Ïį
ĠÎ¼Îµ Î½Î¿Ïį
Î® Î½ÏĦÎ±
ÎĽ ÎŁÎ£
ĠÏĥÏħÎ½Î´ÎŃ Î¿Î½ÏĦÎ±Î¹
ĠÏħÏĢÎµÎ½ Î¸ÏħÎ¼
h a
ĠÎ¹ÏĥÎ¿ÏģÏģÎ¿ ÏĢÎ¯Î±
ĠÎ¹Î´Î¹Î¿ÎºÏĦÎ® ÏĦÎ·ÏĤ
ĠÏĦÏĮÎ½ Î¿ÏħÏĤ
ĠÎ¿ÏħÏĥÎ¹Î± ÏĥÏĦÎ¹ÎºÎ®
ĠÏĥÏħÎ¼Î² Î¹Î²Î±Ïĥ
ĠÎ³ Ïģ
ĠÎ¼ÎµÏĦÎ± ÏĨÏģÎ¬
ĠÎĽÎµ Î¼Îµ
ĠÎĳ Î³Î¬
ÎļÎ±Î» ÏİÏĤ
ĠÎ²Î¬Î¶ Î¿ÏħÎ¼Îµ
ĠÎ£ ÏĦÏĮÏĩÎ¿ÏĤ
Î´ ÏģÎ¹Î±
ĠÏĥÎ¹ Î³Î¿Ïħ
ĠÎĵ ÎºÎ¹
ĠÏĢÎ»Î· Î½
ĠÎ§Î±Î½ Î¹Î¬
ĠÏĢÎ¿ ÏģÎµÎ¯Î±ÏĤ
ĠÎºÎ¿ÏħÎ²ÎŃÎ½ ÏĦÎ±
Î±Ïģ Î´
ĠÎµÎºÏĦÎ¹ Î¼Î®ÏĥÎµÎ¹ÏĤ
ĠÏĢÏģÏīÏĦÎ¿ÏĥÎŃÎ»Î¹ Î´Î±
ÏģÎ¹Ïĥ Î¼Î¿Î¯
ĠÎ¼Îµ Î¯Î½Î¿ÏħÎ½
ĠÎ£ÎºÎ¿ ÏĢÎ¯ÏīÎ½
ĠÎĵ Î¿Î½
ĠÎ³ Î¿Ïį
ĠÎ¤ Ïħ
ĠÏĢÎ±ÏģÎ±Î´Î¿ÏĥÎ¹Î± ÎºÎ¬
ÏĩÎ½ ÎŃÏĤ
ĠÎĶÏħ ÏĦÎ¹ÎºÎ®
Î´Î· Î»ÏİÏĥÎµÎ¹ÏĤ
Î³ÏģÎ±ÏĨ ÏİÎ½
ĠÏħÏĢÎ¿ Î½Î¿
ĠÎ±Î½ÎŃ ÏģÏĩÎµÏĦÎ±Î¹
ĠÎ¼ ÏĢÎµÏģ
ĠÎ±ÏĢÎ¿ Î¼Î¬
ĠÎ±Î½ÏĦÎ±Î³ÏīÎ½Î¹Ïĥ Î¼Î¿Ïį
Î»Î¯Îº ÏīÎ½
ĠÎĵÏħÎ¼Î½Î± ÏĥÎ¯Î¿Ïħ
Î² Î¿ÏħÎ»Î¯Î¿Ïħ
ar y
ĠÏĢÏģÎ¿ÎºÏį ÏĪÎµÎ¹
Î¸Î· ÏĤ
ĠÎĳÎ½ ÏĦÎ±
ĠÎĶÎ·Î¼ÏĮ ÏĥÎ¹Î±ÏĤ
ĠÎµÏĢÎ¹ ÏĨÏįÎ»Î±Î¾Î·
Î¸Ïħ ÏģÎ±
ĠÎµÎ³ ÏĩÎµÎ¹
ĠÏĦÎ¿Î¯ ÏĩÎ¿
Î®Î³Î· ÏĥÎ·ÏĤ
ÎºÎµ ÏĨ
ĠÎµÎ¾Îµ Î»Î¯Ïĥ
ĠÎ®ÏģÏī ÎµÏĤ
Î³ Î¹Î¬ÏĤ
ĠÎĳÎ¹ ÏĦÏī
ĠÎµÏħ ÏĩÎ®
Ġá¼Ĳ Î½
, ...
ĠÎ£ÏĦÏģÎ± ÏĦÎ·Î³
ĠAnd roid
Î»Î¹Ïĥ ÏĥÎ±
ĠÎĶÎ·Î¼Î¿ ÏĦÎ¹ÎºÎ®
Ïī Î¼ÎŃÎ½Î±
Ġ ad
ĠÎ´Î® Î¼Î¿
Î½Î¬ ÏĥÎ¹Î¿
ÏģÎ¹ Î¿Î¹
Î½Îµ ÏħÏĥÎ·
ĠÎ¿Ïħ Î´ÎŃ
ĠÏĢÏģÎ¿ ÏīÎ¸ÎµÎ¯
ĠÎ¼Ïħ Î±
ĠÎĸ Î©
ĠÏĢÏĮ ÏģÏĦÎµÏĤ
i ma
ÏĥÎº Î¿Ïħ
ĠÏĮ ÏģÎ³Î±Î½Î¿
ÏĥÎµ ÏİÎ½
ĠÎĪ ÏĩÎ¿ÏħÎ½
ĠÎºÏĦÎ¯ ÏģÎ¹Î±
ĠÎļÎµ ÏģÎ±
ĠÎ»Î¯ ÏĢÎ¿ÏħÏĤ
ĠÏĥÏĦÏģÎ±ÏĦÎ¹Ïī ÏĦÎ¹ÎºÏİÎ½
ĠÎ½ÎµÎ± ÏģÏĮÏĤ
ber g
y le
ĠÎºÎ® ÏĢÎ¿
ÎŃ ÎºÎ±
am b
ĠÎ¼ Î¿Î¹ÏģÎ±ÏĥÏĦÎµÎ¯ÏĦÎµ
ÎĴ Î¿
ĠÎ±ÏħÎ¾Î· Î¸ÎµÎ¯
sc he
ĠÎ±ÎºÎ¯Î½Î· ÏĦÎ±
ĠÎ´ Î¯ÏĥÎºÎ¿
Îĳ ÏĢÎ¯ÏĥÏĦÎµÏħ
ĠÎŃÏĢÎ±Î¹ Î¾Îµ
ÎµÎº ÏĦÎ®Î¼Î±ÏĦÎ±
ĠÎ´Î¹Î±Î´Î· Î»Ïī
ĠÎ¿ ÏĩÎ¹
ĠÎ¤ÎµÎ» Î¹ÎºÎ¬
ĠÎ±Î¾Î¹Î¿ ÏĢÎ¹Ïĥ
ĠÎĳÏĢÏĮ Î»Î»
al e
Î¹Î½ Î³Îº
Î¹Î¿Ïį Î¼Î¿Ïģ
ĠÎłÎ± ÏĦÏģÎ¹Î±ÏģÏĩ
ÎĽ ÎŃ
ĠÎ»Î¹ ÏĢÎ±ÏģÎ¬
ĠÎ»Î¿Î³Î±ÏģÎ¹Î± ÏĥÎ¼Î¿Ïį
ĠÎ±Î¹Ïĥ Î¸Î±Î½
ĠÎĻÎµ ÏģÎ¬ÏĤ
ĠÎ´Î·Î¼ÏĮÏĥÎ¹ ÎµÏĤ
ĠÎºÎ¿Ïħ Î¼ÏĢÎ¯
ĠÎĳÎ½Î±ÏĥÏĦÎ± ÏĥÎ¹Î¬
ĠÏĢÏģÏĮ ÎºÏģÎ¹ÏĥÎ·
ĠÎµÎ³ÎºÎµ ÏĨÎ¬Î»Î¿Ïħ
ĠÎĳÏĢÏĮ ÏĥÏĦÎ¿
Î½ ÏĦÎ¬
ĠÎŃÎº ÏĢÏĦÏīÏĥÎ·
ĠÏĢÎ»Î·Î¸ÏħÏĥ Î¼ÏĮ
ĠÎŁ Î¼Î¯
ĠÏĦÏģÎŃ ÏĩÎµÎ¹
ĠÎºÎ±ÏĦÎ± Î³ÏīÎ³Î®ÏĤ
Îº Î»ÎµÎ¯
ĠÎ¼Îµ ÏģÎ¹Î¬
Î¹Ïİ ÏĥÎµÎ¹
ĠÎµÏĢÎ¯ Î»ÏħÏĥÎ·
ĠÏĥÏĦÎ¿ Î¼Î¬
ÏĦÎ± ÏĦÎ±
ĠÎº ÎŃÎ½ÏĦÏģÎ¿Ïħ
ĠÏĥ Î±Ïģ
ĠÎ´Î¹Î±Î¸ÎŃ ÏĥÎ¹Î¼Î±
ĠÎ£ Îº
ĠÏĮ ÏģÏīÎ½
ĠÎ¾Ïį Î»Î¹
ĠÎ¼Î® ÎºÎ¿ÏħÏĤ
ĠÎłÏĮ Î»Î·
ĠÎĳÎµÏģÎ¿ ÏĢÎ¿
ĠÎ¹Îµ ÏģÏĮ
Î»Î»Î±Î³ ÏİÎ½
Î¥ ÎĿÎĳ
ĠÏĮ ÏģÎµ
ĠÏĢÎ¿ Î´Î®
ĠÎºÎ»ÎµÎ¹ ÏĥÏĦÏĮ
Î¶ ÏīÎ½
ĠÏĢÏİ Î»Î·ÏĥÎ·ÏĤ
ĠÎµÏĢÎ¹ Î²Î¬ÏĦÎµÏĤ
Î³ ÏĮÏĤ
ĠÎ¿ÏģÎ³ Î®
Î£ ÎºÎ¿
ig h
ĠÏĢÎ¹ÎŃ ÏĥÎµÎ¹ÏĤ
Î» Î¹ÎºÏĮÏĤ
Î»ÏİÎ½ Î¿ÏħÎ½
ĠÏĢ Î¹Î»ÏĮ
ĠÎ³ÏģÎ¬ ÏĨÏī
Î³Î¹ Î½Îµ
ĠÎļÎ¿ ÏģÎŃÎ±
ÎµÏį Î¿Î½ÏĦÎ±Î¹
Î¸ÎŃÎ½ ÏĦÏīÎ½
ĠÎĨÎ½ Î½Î±
ĠÎ±Î½Î¬ Î³Î½ÏīÏĥÎ·
ĠÎ±ÏħÏĦÎ¿ ÎºÏģÎ±ÏĦÎ¿
ĠÏĮÎ¼Î¿ÏģÏĨ ÎµÏĤ
ĠÏĥÏħÎ½Îµ Î»Î®ÏĨÎ¸Î·
ĠÎ²Î¿ÏħÎ»ÎµÏħ ÏĦÎ®
ĠÎ£ÏħÎ½ Î´ÎŃ
ĠÎĹÎ½Ïī Î¼ÎŃÎ½ÏīÎ½
ĠÎºÎµÏĨÎ¬Î» Î±Î¹Î±
ĠÎ±Î»Î»Î· Î»ÎµÎ³Î³ÏįÎ·
ĠÏĢÎ±ÏģÎµÎ»Î¸ÏĮÎ½ ÏĦÎ¿ÏĤ
ĠÎ±ÏĢÎ¿ÏĦÎµÎ»ÎµÏĥÎ¼Î± ÏĦÎ¹ÎºÏĮ
ĠÎ¾ÎµÏĢÎµÏģÎ¬ ÏĥÎµÎ¹
ÏĩÎµÎ¹ ÏģÎ¿
ĠW i
ĠÎĴÎ±ÏĥÎ¯ Î»ÎµÎ¹Î¿
!! !!!
ĠÎ½ÏħÏĩ ÏĦÎµ
ÏĮ ÏĢÎ¿ÏħÎ»Î¿Ïħ
ĠÎ¸ÎŃ Î»Î±Î¼Îµ
ĠÏĥÏĦÎµ Î½Î¬
Ġ200 2
Ġ5 8
ĠÎµÎ¼ÏĨÎ±Î½ Î¹ÏĥÏĦÎµÎ¯
ĠÎ´Î¹Îµ Î¾Î®
ĠÎ´ÎµÎ¯ Î³Î¼Î±
ĠÏĦ ÏĥÎ¯
Ġ5 2
ĠÏĥÎ·Î¼Î± ÏĦÎ¿
ĠÎµÏĢÎ¹ Î´ÏĮÏĥÎµÎ¹ÏĤ
ĠS port
ĠÎ±ÏĢÎµ Î¹ÎºÎ¿Î½
Îķ Î½Ïİ
ĠÎł Î¹Î¿
ĠÎĳ ÏĥÎ¯Î±
Î¸ÎŃÎ½ ÏĦÎµÏĤ
ĠÏĥÏĦÎ±Î¸ Î¼ÏĮÏĤ
ÎºÎ± Î»Ïį
ĠÏĮ ÏģÎ¸
ĠÎ¸ ÏģÏħ
ĠÏĥÎºÏĮ Ïģ
ĠÏĨÎ¿Î¹ÏĦÎ· ÏĦÏİÎ½
Îķ Ïį
ÏĨÎµ ÏģÎ±
ĠÎºÎ±ÏĦÎ¬Ïģ ÏģÎµÏħÏĥÎ·
ĠÎ´Îµ Ïĩ
Î¸Îµ Î¯Î±
ĠÎµá¼ °
ĠÎ£ÏįÎ½Î´ÎµÏĥ Î¼Î¿Î¹
ĠÎ£ÏħÎ½Îµ Ïĩ
ĠÎ½ÏĮ Î¼Î¹ÏĥÎ¼Î±
Îľ ÎĻÎĳ
ÏĩÏİ ÏģÎ·ÏĥÎ±Î½
ĠÎ±ÏĨÎ® Î½Î¿ÏħÎ½
Î¡ Îµ
ĠÎºÎ±Î¸ Î¹ÎµÏģÏī
ĠÎºÎ¬ Ïģ
ÏĦÎ¿Î¹ ÏĩÎµÎ¯Î±
ĠÏĥÏįÎ½ ÏĦÏģÎ¿ÏĨ
Ġ <
ÏĥÎ¹ Î¼ÏīÎ½
ĠÎºÏģÎ± ÏĦÎ¬ÎµÎ¹
ĠÎµÏĢÎ¹Î»ÎŃ Î¾ÏĦÎµ
ĠÎĿÎŃ ÏīÎ½
ĠÎ±Î½Î± ÏĨÎ¿ÏģÎ¬ÏĤ
ĠÎ³ÏģÎ±ÏĨÎµÎ¹ Î¿
Î¼ÏĢ ÏĦÎ·ÏĤ
ĠÎĨÎ³ÎºÏħ ÏģÎ±
ĠÎºÎ»Î¹ Î¼Î¬
Îº Î¿Î½ÏĦÎ±
ĠÎ±Î¾Î¹Î¿ Î¸ÎŃÎ±
ÏĢ Î¯ÏĥÎºÎ¿
ĠÎĻ ÎĻ
ĠÎ±Î» Î²Î±Î½
ĠÎºÎµÏģÎ´ Î¯Î¶ÎµÎ¹
ï »¿
ĠÎ¤Î· Î»Îµ
ĠÎºÏģÎ¯ ÏĥÎ¹Î¼Î·
ÎĮ Î½Î¿Î¼Î±
ĠÎ±Î³ÏĮ ÏģÎ±
ĠÏĢÎ¿Î»Î¹ÏĦÎ¹Ïĥ ÏĦÎ¹ÎºÎ®ÏĤ
ÏĮ Î¼ÎµÎ½Î¿Î¹
ĠÏĥ ÎºÎ±Î½
Î»Î¿Î³ Î¹ÏİÎ½
ĠÎĻÏĥ Î»Î±
ĠB MW
ĠÏĥÏį Î¼ÏĢ
ĠÎ¼ÎµÎ³Î±Î»ÏįÏĦÎµ ÏģÎ¿ÏĤ
ĠÏį Î»Î·
ĠÎ»Î± ÏİÎ½
ĠÎµÏĢÎŃ Î»ÎµÎ¾Îµ
Îł Î¹Î¿
ĠÎķÎ»Î»Î·Î½ ÎµÏĤ
ĠÎĵ ÏģÎ·Î³ÏĮ
ĠÎ± Î¼Î¬
Î¦ ÎķÎļ
Îķ Îŀ
ĠÏĨ ÏİÏĦÎ±
ĠÎĻ ÏĢ
ĠÎłÎķ Î¡ÎĻ
ĠÎµÏĢÎ¹ÏĩÎµÎ¹ÏģÎ·Î¼Î± ÏĦÎ¯ÎµÏĤ
in ess
Ġ1 000
ÏĦÎ· Î¼ÎŃÎ½Î·
Î£ Îĳ
ĠÎĳÎ½Î¬ÏĢÏĦÏħ Î¾Î·
ĠÎ¿ ÏģÎ¯Î¶
ĠÎ³ÏģÎ¬ Î¼Î¼Î±
ĠÏĩÎ¬ ÏĥÎ¿ÏħÎ½
ĠÏĥÏįÎ³ ÏĩÏģÎ¿Î½ÎµÏĤ
Î»ÎµÏĢ ÏĦÎ¿
ĠÎ´Î¬ ÏĩÏĦÏħ
ÏĦÎ¿ Ïĩ
Ġ4 6
ĠÏĦÎµÎ»ÎµÏħÏĦÎ± Î¯Î±ÏĤ
ĠÎ´ Î¬Î½ÎµÎ¹
ĠÏĩÎ±ÏģÎ±Îº ÏĦÎ®ÏģÎµÏĤ
ĠÎµÎ¯ ÎºÎ¿ÏĥÎ¹
ÏĢÎµ Ïį
ĠÏĥÏħÎ³Îº Î¹Î½Î·
ĠÏĥÏħÎ¼Î²Î¬ Î»Î»ÎµÎ¹
ÏĥÎ±Î½ Îµ
ĠÎĻÎµ ÏģÏĮ
Î¡ Î¥
Î³ Î¯Î¿Ïħ
ĠÎļÎ± Î»Î¬
ÎºÏģÎ± ÏĦÎ¯Î±ÏĤ
Îº ÏĦÎ¹ÎºÏİÎ½
ĠÎ¡Îµ Î¬Î»
ÏĦÎŃ Î»ÎµÎ¹Î±
ĠÏĥÎºÎ¬Î½Î´Î± Î»Î¿
Î¸Î½ Î¿ÏħÏĤ
ĠÏĢÎ±ÏģÏĮ Î¼Î¿Î¹Î±
ĠÎ¿ÏĨÎµÎ¹ Î»ÎŃÏĤ
ĠÏĮ ÏĢÎ»ÏīÎ½
ÎºÎºÎ¹ Î½Î¿
ĠÏĥÏĦÎŃ Î»ÎµÏĩÎ¿ÏĤ
m e
ÏģÎ± ÏĦÎµÎ¯Î±ÏĤ
ĠAr t
ĠÎ¼Î¹ÎºÏģÏĮ ÏĦÎµÏģÎ¿
ÎĶ Ïī
Î¤ Î¿ÏħÏĤ
ĠÎµÏģÎ³Î¿ ÏĥÏĦÎ¬ÏĥÎ¹Î¿
ĠÎŁÎ¹ÎºÎ¿Î½Î¿Î¼ Î¯Î±
ĠÎłÎ±Î½Î±Î³ Î¹ÏİÏĦÎ·
ĠÏħÏĢÎµÏģÎ±Ïĥ ÏĢÎ¹Ïĥ
ĠÎ±ÏĢÎ±Î¹ ÏĦÎ¿ÏįÎ½
Îŀ ÎµÎº
ÎºÏģÎ¬ ÏĦÎ·ÏĤ
ĠÎ±ÏģÎ¼ÏĮ Î´Î¹Î¿
Î»Î±Îº ÏĦÎ¿ÏĤ
ĠÎ±ÏĢÏĮ Î»Î±
F i
ĠÏĨÏĦÏī Ïĩ
Î´ Î¯Î½Î¿Ïħ
ĠÎ¼ÎµÎ¹ ÏīÎ¸ÎµÎ¯
ĠÎ¬Ïĥ ÏĩÎµ
X X
ĠÏĥÏĦÏģÎ± ÏĦÏĮÏĤ
ĠÎºÎ¬ Î¼Îµ
ĠÎ¥ÏĢÎ·ÏģÎµ ÏĥÎ¯Î±ÏĤ
ĠÎºÎ±ÏĦÎ¿Î¹Îº Î¯Î±
ĠÏĥÏį ÏĥÎºÎµÏĪÎ·
Î¼Î± ÏĥÎµ
ĠÎ¦ Î»Ïİ
ĠÎ± Î´ÎŃ
ÎĪ ÏĩÎµÏĦÎµ
Î³Î· Î¸ÎµÎ¯
ĠÎŃÏĦÎ¿Î¹ Î¼Î¿ÏĤ
Î¼ Î½Î¿
ĠÏĢÏģÏĮÎ² Î»Îµ
ĠÏĦÎ¿ÏħÏģ Î½Î¿ÏħÎ¬
ĠÎ±Ïģ Î½
ĠÎµÏĢÎ¹ÏĦÏħÏĩ Î¯ÎµÏĤ
ĠSt ar
ĠÎ¼Î· ÏĦÎŃÏģÎ±ÏĤ
ĠG ro
ĠÎĶ ÎĻÎļ
ĠÏĢÎ±ÏģÎ¬ Î³Î¿Î½ÏĦÎ±ÏĤ
Î½ Ïħ
Ġs c
ĠÎ¥ÏĢÎ·ÏģÎµ ÏĥÎ¯ÎµÏĤ
ĠÎĳÎŁ Îĸ
ĠÎºÎ¯ ÏĦÏģÎ¹
ĠÎµÎ¾ Î®Î³Î·
ĠÎ±Ïĥ ÏĦÎŃÏģÏīÎ½
ĠÎ¹Îµ ÏģÎ±
Ïĩ Î¿ÏįÎ½
on y
ĠÎµÎ¸Î½ Î¹ÎºÎ¬
ĠAir b
ĠÎĶ ÏħÎ½Î±
a Sc
ĠÎ±ÎºÏĦÎ¹Î½Î¿ Î²Î¿Î»
ĠÎ¼Î¿ ÏĦÎ¿
ÎĶ ÎķÎĿ
ĠÎ·Î³ÎŃ ÏĦÎ·ÏĤ
ĠÎł Î¬Î½ÏĦÏīÏĤ
ĠÎĳÎ»Î»Î· Î»ÎµÎ³Î³ÏįÎ·ÏĤ
ÏĨ ÏĦÎ·
Ġ4 9
ĠÎ´Î¹ÏĥÎµÎºÎ±ÏĦÎ¿Î¼Î¼ ÏįÏģÎ¹Î±
ĠÎķÎ¹Î´ Î¹ÎºÎ¬
ĠÎµÎ¼ÏĢ Î»Î¿Ïħ
Î¹Ïĥ ÏĦÎµÏħ
ĠÏĢÎ±ÏģÎ¬ Î¾Îµ
ĠÎ¬Î´ÎµÎ¹ ÎµÏĤ
ĠÎłÎ±Î³ ÎºÎ¿ÏĥÎ¼
ĠÎ±ÏĢÏĮ ÏĢÎµÎ¹ÏģÎ±
ĠÏħÏĢÏĮÎ»Î¿Î¹ ÏĢÎ¿Î¹
ĠÎłÎ¿Î» Î¯ÏĦÎ·
ĠÎ´Î¹Î¬ Î¸ÎµÏĥÎ®
Î¿Î½ ÏĦÎ¿ÏĤ
ĠÏĢÎ±Î½Îµ Î»Î»Î±
ĠÎ²Î¿ÏħÎ½ ÏĮ
Î´Î¬ ÎºÎ·ÏĤ
ĠÎºÎ±ÏĦÎ±Î³Î³ÎµÎ» Î¯ÎµÏĤ
ĠÏĦÎ¿ÏĢ Î¹ÎºÏİÎ½
Ïī Î¼Î¬
ÏĬ ÎºÏİÎ½
ĠÏĥÎ¹Î´ Î·ÏģÎ¿
ĠÎ½ÎµÎ¿ ÏĨÎ¹
ĠÏĥÏħÎ³Îº ÏģÎ¹
ĠÎ¡ Î¿Ïį
ĠÏĩÎ±Î¼ÏĮ Î³ÎµÎ»Î¿
ĠÏĢÏģÎ±Î³Î¼Î± ÏĦÎ¹ÎºÎ®ÏĤ
ĠÎĮ Î¼Î¹
ĠÏĦÏģÏĮ Î¹ÎºÎ±
ĠÎĴÎ¿ÏħÎ»Î³ Î±ÏģÎ¯Î±
ĠÏĮ Î»Î·ÏĤ
ÏĩÎµÎ¹ Î±ÏĤ
ÎºÎ¿ Î»Î±
ĠÎµÎ½ÏĦÏħÏĢÏīÏĥÎ¹Î± ÎºÎ®
ĠÎµÎº Î»Î¿Î³Î®
Ïĩ ÏĮÎ¼ÎµÎ½Î±
ĠÎµÏĢÎ¹ Î¼Îµ
ĠÎĿ ÏĦÎ¿
ĠJo hn
Î¸Îµ ÏĦÎ±
ĠÎºÎ±Î»Î¿ÎºÎ±Î¹ ÏģÎ¹Î¿Ïį
ĠÏĢÎ¿Î»Î¹ ÏĦÎµÎ¯Î±
ĠÏĢÏģÎ¿ Î±
ĠÎĨ ÏģÎ·ÏĤ
ÏģÎ³ Î¿ÏĤ
ĠÏĨÎ¯ Î»ÏīÎ½
ĠÎ´ÎµÎ´Î¿ Î¼ÎŃÎ½Î¿Ïħ
ĠÏĦÏĮ ÏĥÎ·
ĠÏĪÏħÏĩ Î±Î³ÏīÎ³
ĠÎļÎ± Î¸Î±
ĠÏĨÏĦÎ±Î¯ ÎµÎ¹
ĠÏĢÎ±Î¯Îº ÏĦÎ·
ĠÎ¡Ïī Ïĥ
ĠÎµÎ»Î»Î·Î½ Î¹ÎºÏĮÏĤ
ĠÏĢÎµÏģÎ¹ Î³ÏģÎ±ÏĨÎ®
ĠÎļÎ¬ ÏĦÏī
ÎĶ ÎµÏħ
ĠÎµÏį ÏĩÎ¿Î¼Î±Î¹
ĠÎ¼ÏĢÎ¿ÏģÎ¿Ïį ÏĥÎ±Î¼Îµ
ĠÏĢÎ¬Î½ ÏĦÏīÎ½
ĠÏĥÏĩÎµÎ´Î¹Î± ÏĥÎ¼ÏĮÏĤ
Î¡ÎĻ ÎŁÎ¥
ĠÎºÎ±ÏĦÎ¬ Î»Î»Î·Î»Î±
Î´ Î¯ÎºÎ·
ĠÎĶÎ¹Î± Î´Î¹Îº
ĠÏĥ ÏĨÎ¬Î»
ÎºÎµ ÏĨÎ±Î»
Î¶ ÎµÏĤ
ÎķÏħ ÏĩÎ±ÏģÎ¹ÏĥÏĦÏİ
ĠÏĨÏħÎ»Î± ÎºÎŃÏĤ
ĠÏĢÏģÎ¿ÏĦÎµÏģ Î±Î¹
ĠÎ¼ÎµÎ¸ÏĮ Î´Î¿ÏħÏĤ
ĠÎ´Î¹Î±Î³ÏīÎ½Î¹Ïĥ Î¼Î¿Ïį
ÎĵÎ¡Îĳ Î¦
ĠÎ²Î¿ÏħÎ½ Î¬
ÏĦÏİ ÏĥÎµÎ¹
ĠP re
ĠÎºÎ¹Î½Î·ÏĦÎ¿ÏĢÎ¿Î¹ Î®ÏĥÎµÎ¹ÏĤ
ĠÏĢÎ¬Ïģ ÏĦÎ¹
ĠÎµÏĢÎ¿ ÏĢÏĦÎµ
ÏĥÏħ Î½Î¿
ĠÏĨ Î»ÎµÎ³
Î¹ Î¼ÏĢÎ»Îµ
ĠÎ´Î¿ÏħÎ»ÎµÎ¹ Î¬ÏĤ
ĠÎĳÎĽ ÎĽÎĳ
ĠÎ¿Ïħ ÏĥÎ¯Î±ÏĤ
ÏĥÏĦÎ· ÏĥÎ±Î½
ĠÎ±ÏģÎºÎµ ÏĦÎ¿Î¯
ĠÎĴ ÎŃÎ»
ĠÏĥÏħÎ½ Î¸Î·ÎºÏİÎ½
ĠÎ¿ ÏĢÏīÏĥÎ´Î®ÏĢÎ¿ÏĦÎµ
ĠÎ´Î·Î¼Î¿ÏĥÎ¹ÎµÏį ÎµÏĦÎ±Î¹
ÎºÏĮ Î»
Î¹Îº ÎµÏħ
ĠÎ£ ÏĢÎ¬Ïģ
Ïĥ ÏĦÎµÎ¹
ĠÎ±Î½ Ïį
ĠÎ¼Îµ ÏĦÏģÏĮ
Î¯Î´ Îµ
ĠÎ¿ÏģÎ¹Ïĥ ÏĦÎ¹ÎºÎ¬
ÏĨÏģÎ± ÏĥÎ·ÏĤ
ÎĿ ÎĹÎ£
Îļ Î¿Î¹
ĠÎ£Îµ Î²Î±Ïĥ
ÏĥÎºÎ¿ ÏĢÎ®
ĠÎºÎ»Î± ÏĥÏĥ
Î»Ïħ ÏĥÎµ
ĠÎºÎ± ÏĦÎ®
ĠÏĢÎ»Î·ÏģÏī Î¼Î®ÏĤ
ĠÎļ Î±Î»ÏĮ
ÏĢÎ¹Ïĥ Îµ
ĠÎľ ÎĹÎĿ
ĠÏĮ ÏģÎ¿Î¹
ĠÎ¿ Î»Î¯
ĠÎ±ÏĢÎµÏħ Î¸ÏħÎ½
ĠÎķ Î»ÎµÏįÎ¸Îµ
ĠÎ³Îµ Î½Î¿
ĠÎ´Î·Î¼Î¿ ÏĨÎ¹Î»
ĠÏĢÎ¬Ïģ ÎµÎ¹ÏĤ
ĠÏĢÎ»Î·ÏģÎ¿ ÏĨÏĮ
er y
8 8
ÏĥÎ± Ïģ
ĠÎ£Ïħ ÏģÎ¯Î±ÏĤ
ĠÏĥÏħÎ½Î¿ Î´ÎµÏħ
ĠÏĢÎ¹Î¸Î±Î½ Î®
Î½Î¹ ÎµÏĤ
ÎºÎ¯Î½Î· ÏĥÎµ
ĠÏĥÏĦÎŃÎ» Î½ÎµÎ¹
ĠÎ¬Î» Î¼ÏĢÎ¿ÏħÎ¼
Î¾ ÏħÏĢ
ĠÎ³Î· ÏĢÎµÎ´Î¿Ïį
Îł Î±Ïģ
ĠÎ´Î¹ ÎµÎ½
ĠÎ³ÏīÎ½ Î¯Î±
ĠÏī ÏĨÎµ
ĠÎ¤ Î¶ÏĮ
ÏĢ ÏĦÏī
ĠG e
ĠÏĨÎ¬ÏģÎ¼Î± ÎºÎ¿
ĠÎµÏĢÎ¹ Î¼ÎŃ
ÎķÏĢÎ¹ Î»ÎŃÎ¾ÏĦÎµ
ĠÎ´Î¹Î¬ Î³Î½ÏīÏĥÎ·
ĠÎ±ÏĥÎ¸ÎŃÎ½ ÎµÎ¹Î±
Î²Î¿Î» ÎŃÏĤ
Î» ÎµÎ½
ĠÎŃÏĦÎ¿Î¹ Î¼Î¿
ĠÏĢÎ¿ ÏĦÎ®ÏģÎ¹
ĠÎĵ ÎºÎ¬
ĠÏĩ Î¹Î¿ÏįÎ¼Î¿Ïģ
ĠÎµÎº ÏģÎ·
ĠÏĩÏģÎ¿Î½ Î¹ÎºÎ®
T ER
ĠÎ±Î½ÏĦÎ± ÏĢÏĮ
ÏģÏĮÎ½ ÏīÏĤ
Î¼Î¼ Ïħ
ĠÎ´Î·Î»ÏİÎ½ Î¿ÏħÎ½
ÎĻ ÎŁÎ£
ĠÎºÎ±Î¸Î± ÏģÎ®
Î³ ÎµÎ¯Î¿Ïħ
ÎĳÏħ ÏĦÎ¿Î¯
Ïĥ ÏħÏĥ
ĠÎ½Î± ÏĮ
ĠÎ±ÏģÎºÎµ ÏĦÎ®
ĠÎĺÎµÏĮ Î´Ïī
Î¶ Î·ÏĤ
ĠÎłÎ± ÏĦÏģÎ¯
ĠÎºÎ¹Î½Î· ÏĦÎ®ÏģÎ±
ĠÎ¬ Îº
ic al
ĠÎĺÎŃ Î»Ïī
ĠÎĳ ÎºÏįÏģÏīÏĥÎ·
ĠÏĢÏģÎ±Îº ÏĦÎ¹ÎºÎ¬
ĠÎ¾Î·Î¼Îµ ÏģÏİÎ¼Î±ÏĦÎ±
ĠÏĥÏħÎ¼Î¼ÎµÏĦÎ¬ ÏĥÏĩÎµÎ¹
ĠÎ¼Î±Î»Î» Î¹ÏİÎ½
it ion
Î· ÏĦÎ¿
Î¶ÏĮ Î¼ÎµÎ½Î¿
Î¿ Î´ÏĮ
ĠÏĨÏĮ Î²Î¿ÏĤ
ÏĮÏĦÎµ ÏģÎ¿Î¹
ĠÎ»Î¯ Î¼Î½Î·
Î½Î·Î¼Îµ ÏģÏī
b o
ĠÎ· ÏĦ
ĠÎĵÎµÏīÏģÎ³ Î¹Î¬
Îŀ ÎŃ
ĠÎĽÎ¿Î½ Î´Î¯Î½Î¿Ïħ
ĠÎ±Î½ÏĦÎ¹ ÏĢÎ±ÏģÎ¬
ĠÎ³Î½Ïī ÏĥÏĦÎŃÏĤ
ĠÎł ÎŃÏģÎ±
ĠÎ¼ Î¿ÏħÎ½
Î»Î¿Î³ ÎµÏĤ
ĠÎĻÎ±ÏĢÏīÎ½ Î¯Î±
ĠÎĴ Î»ÎŃ
ĠÎĳÎ»ÎµÎ¾Î±Î½Î´ ÏģÎ¿Ïį
ĠÎļ ÎŁÎ£
ĠÎŁ ÎĽÎĳ
ĠÎ¬Î½Îµ ÏĦÎ±
ĠÏĦÎ¬ Î¾ÎµÎ¹ÏĤ
Î¼Îµ ÏħÏĥÎ·ÏĤ
Î´Î¹ÏĮ ÏĨÏīÎ½Î¿
ÎºÎŃ ÏĦÎ¿
ĠÎµÏģÎ³ Î¬Î¶ÎµÏĦÎ±Î¹
ĠÎµÏĢÎ¹ ÏĦÏį
ĠÏĥÎºÎ¿ÏħÏĢ Î¯Î´Î¹Î±
ÏĦÎ® ÏģÎ·
Î¼Î² Î±Î½Îµ
Ïģ Î¿ÏħÎ¼Îµ
ĠÏģÎ¿ Î¶
ĠÏĩÎµÎ¯ Î»Î·
ĠÎŃ ÏĦÏģÎµ
Ġ $
ĠÎµÎ½Î´Î¹Î±ÏĨÎŃÏģÎ¿Î½ ÏĦÎ±
ĠÎ´Î¹Î±Î²Î¬ ÏĥÎµÏĦÎµ
ĠÎµÏĢÎ¹ÏĦÎµÏħ ÏĩÎ¸ÎµÎ¯
er e
Ïĥ ÏĢ
Î»Îµ Î¼Î±
ĠÎľÏħ ÏĦÎ¹
ĠÎµÎº Î²Î¹Î±
ĠÎ±Î»Î» ÎµÏģÎ³
ĠÏĥÏĢÎ¿ÏħÎ´ Î±Ïĥ
ĠÎĶÎ¹ÎºÎ±Ïĥ ÏĦÎ®ÏģÎ¹Î¿
... ]
ĠÎĳÏĢÏģÎ¯ Î»Î¹Î¿
ĠÎ£ ÎºÎ¿Ïħ
ĠÎµÎ¹Ïĥ ÏĮÎ´Î¿Ïħ
ĠÎ²Ïħ Î¶Î¹Î¬
ĠÎ¼ÏĢÎ± Î¼ÏĢÎ¬
ĠÎļÎ¯ Î½Î±ÏĤ
ÏĦÎ¹Î½ Î³Îº
ÏĢÎµÎ½ Î¸ÏħÎ¼
ĠÏĦÏī ÏģÎ±
ĠÎľÎ± ÏħÏģÎ¿
ĠÎ´Î·Î¼Î¹Î¿ÏħÏģÎ³ Î®ÏĥÎ¿ÏħÎ½
ĠÎ³ÎµÎ½ Î¹Î¬ÏĤ
ĠÏĥÏħÎ½ÎŃÎ½ÏĦÎµÏħ Î¾Î®
Î¤ ÏģÎ¿
ĠÎ¼ÏĢÎ± Î¯Î½Î¿ÏħÎ½
ÎĳÎ½ ÏĦÎ¯
ĠÎĴÎ±Î» ÎºÎ±Î½
ĠÏĥÏį Î¼Î²Î±ÏĥÎ·ÏĤ
ĠÎ²Î³Î± Î¯Î½Î¿ÏħÎ½
ĠÏĢÎ±Î½ÎµÏĢÎ¹Ïĥ ÏĦÎ®Î¼Î¹Î¿
ĠÎ¼Î±Î³ Î½Î·
ĠÎłÎ± ÏĦÏģÏİÎ½
ĠÏĥÏįÎ¶ÏħÎ³ Î¿ÏĤ
ĠÎ´Î±Ïĥ ÎºÎ¬Î»
ð Ł
ĠÏĢÎµÏģ Î½Î¿ÏįÎ½
ÏģÎ¯ Î´Î±
ĠÎ¸Î· ÏĦÎµÎ¯Î±
ĠÏĪÎ·ÏĨÎ¿ ÏĨÎ¿ÏģÎ¯Î±
ĠÏĢÏģÏīÏĦÎ¿ Î³ÎµÎ½
ĠÏĥÎºÏĮ Î½Î·
ĠÎµÎ½ Î¸Î±Ïģ
ÎŃÎ½ÏĦÎµÏħ Î¾Î·
ĠÎ¼ÎµÏĦÎ± ÎºÎ¹Î½Î®
Îľ ÎłÎķ
ĠÎ¼Î¿ÏħÏĥ Î¹ÎºÏĮ
Ġ8 00
ĠÎ¥ÏĢÎ·ÏģÎµ ÏĥÎ¹ÏİÎ½
ĠP lay
ĠÎłÎ±Ïį Î»Î¿ÏĤ
ĠÎĳÏģÎ¹ÏĥÏĦÎ¿ ÏĦÎŃ
Ġe x
ĠÏĦÏģÎ¿ÏĩÎ± Î¯Î¿
Ïį ÏģÎ·
á½ º
Î¼ÎŃ ÏĦÏģÏīÎ½
ĠÏĥÎºÎ¬ ÏĨÎ¿ÏĤ
Î¼Î· ÏĥÎ±Î½
ĠÎµÎ½Î®Î»Î¹Îº ÎµÏĤ
ĠÏĥÏħÎ½ ÏĦÎ®ÏģÎ·ÏĥÎ·
ĠÎ¤Î¿ÏįÏģÎº ÏīÎ½
ÏĥÎ¹Î± ÎºÏİÎ½
ĠÏĢÎ±Î½ ÏĦÏĮÏĤ
ĠÎ¶Î® ÏĦÎ·ÏĥÎ·
ĠÏħÏĢÎŃÏģÎ¿ ÏĩÎ±
ĠÎµÎºÎ± ÏĦÏĮ
ĠÎºÎ±ÏĦÎ¬ Î»Î¿Î³Î¿
ĠÏĨ ÏİÎ½Î±
Î» Î¸Îµ
ÏģÏİ ÏĥÎµÏīÎ½
Îº ÏĦÏħ
ĠÎ£ÏĦÎ± ÏįÏģÎ¿ÏĤ
ĠÎ½Î¿Î¼ Î¿Ïį
ĠÏĥÎ¯Î³Î¿Ïħ ÏģÎ¿ÏĤ
ĠÎ´ÏįÎ½Î± Î¼Î·ÏĤ
ĠÏĩÏģÎ·ÏĥÎ¹Î¼Î¿ÏĢÎ¿Î¹ Î®ÏĥÎµÎ¹
ĠÎ´Î¹Î±ÏĨÎ· Î¼Î¯ÏĥÎµÎ¹ÏĤ
Î² Î»
q ue
Ġ7 00
Îĸ Î·
ĠÎļ ÏģÎ¿
ĠÎĵÎ± Î²
ĠÎ»Î¯ Î³Î¿ÏħÏĤ
ÏĦÎ· ÏĦÎ¿ÏĤ
ÏĦÎ± ÏĦÎ·
ĠFor um
ĠÎµÎ»ÎµÏįÎ¸Îµ ÏģÎ¿ÏĤ
ĠÎ±ÏĢÏİ Î»ÎµÎ¹Î±ÏĤ
ĠÏĢÎ»Î· ÏģÏİÎ½ÎµÎ¹
Î´ ÏħÎ½Î¬
ĠÏĦÎ¿Î½ Î¯Î¶Î¿Î½ÏĦÎ±ÏĤ
ĠÎļÏħ Î²ÎŃÏģÎ½Î·ÏĥÎ·ÏĤ
Î¬Î½ Î½Î·ÏĤ
ĠÎµ ÏĨÎ®
ĠÎµÏĢÎ¹Ïĥ ÏĦÏģÎ¿ÏĨÎ®ÏĤ
ĠÎĶÎ¹ ÎµÏįÎ¸ÏħÎ½ÏĥÎ·ÏĤ
ĠÎ´Î¹Îº ÏĦÎ±ÏĦÎ¿
ĠÎ¤ Î¥
ec h
ĠÏĦÏħÏĩÎ± Î¯Î¿
ĠÏħÏĢÎ¿ÏĪÎ·ÏĨ Î¯ÏīÎ½
ĠChamp ions
ĠÎĻ ÎļÎĳ
.... ....
ĠÏĢ Ïĩ
ĠÎŃÏĩ Î±ÏĥÎ±Î½
Î¯ ÏĥÎ±Î¼Îµ
ĠÎ§ÏģÎ¹ÏĥÏĦÎ¹Î± Î½
Ïĥ ÏĢÎŃÏģÎ±
ĠÎ£ÏĦ Îķ
ĠÎ¥ÏĢÎ¿ Î´Î¿
r ist
in s
ÏĦÎŃ Î»Î±
Ïĩ ÏģÏĮÎ½Î¹Î±
ĠÎĳÎ¸Î·Î½Î± Î¯ÏīÎ½
ĠÎ´Î·Î¼Î¿ ÏĦÎ¹ÎºÎ¿Ïį
Î² Ïħ
of f
ĠÏĢÎ¿Î»Î¯ ÏĦÎ·ÏĤ
ĠÏĥÏħÎ»Î»Î± Î»Î·ÏĦÎ®ÏģÎ¹Î¿
ÏĮÎ¼Îµ Î½Î¿Ïħ
ĠÎºÎ±Î»Î»Î¹ ÎŃÏģÎ³ÎµÎ¹Î±
ĠÏĦÎŃ Îº
ĠÎ´Î¿ÏħÎ»ÎµÏį ÎµÎ¹
ĠÎ± Ïĩ
ĠÎ¶Î· ÏĦÎ¬ÎµÎ¹
ĠÎºÎ±ÏĦÎ± Î³ÏīÎ³Î®
ĠÎ¼Î± ÎºÎ±
ĠÎ¬Î³Î½Ïī ÏĥÏĦÎ¿
ÏĦÎ¬ ÏĥÏĦÎ±ÏĥÎ·ÏĤ
ĠÎ¬Î´ÎµÎ¹ Î±ÏĤ
ĠÏĩÏģÎ¹Ïĥ ÏĦÎ¿ÏħÎ³ÎµÎ½Î½Î¹Î¬
ĠÎľÎķ Î¤Îĳ
ĠÎĴÎ¹Î¿ Î¼Î·ÏĩÎ±Î½
ĠÏĢÎ±ÏģÎ¬ Î½Î¿Î¼Î·
ĠÎµÎ¼Î² Î¿Î»
ĠÎ³Î½Ïİ ÏĥÎ·ÏĤ
ĠÎµÎºÏĨÏģÎ¬ Î¶Î¿ÏħÎ½
ĠÎºÎ± Î»Î¿Ïį
ĠÎ¿ÏĨÎµÎ¹ Î»ÏİÎ½
ĠÎ³ ÎºÏģÎµ
ĠÎ±ÏģÏĩ Î±Î¯
ĠÎºÎ±ÏĦÎ±Î³Î³ÎµÎ» Î¯Î±
ĠÎ¼Î¬ ÏĩÎ·ÏĤ
T Î¿
ĠÎ£ÏħÎ½ ÏĦÎ±
ĠÎ¿ ÏĢÏīÏĤ
ÎĿ Î©
Î¿ÏįÎ½ ÏĦÎ±
ĠÎ±Î½Î± Î´Î·Î¼Î¿
ÏĦÎ¹Ïĥ ÏĦÎŃÏĤ
ĠÏĥÏħÎ½Î± Î»Î»Î±Î³ÎŃÏĤ
ÏĦ Î¯Î½Î·
Î±Î¹ ÏģÎŃ
Ïħ Î³Î¿
ĠÎŃÎ´ÎµÎ¹ Î¾Î±Î½
ĠÎµÎ¾ ÏĮÎ´Î¿Ïħ
ous e
ĠÎºÎ¿Î¹ Î¼Î·
ĠÎŁÎĳ ÎķÎĶ
ĠÏĢÏģÎ¿Îº ÏįÏĢÏĦÎ¿ÏħÎ½
ĠÎºÏİ Î´Î¹ÎºÎ±
ĠÎĶ Î¹ÎºÎ±
ÏĥÏĦÎ± ÏĥÎ®
Î¬Î½Î¹ ÏĥÎ·ÏĤ
Î¿Ïį Î¼ÎµÎ½Î¿Î¹
us iness
ĠÎ´Î¹ÎµÎ¾ Î±Î³ÏīÎ³Î®
ĠÎ´ÏģÎ¬ ÏĥÎµÏīÎ½
ĠÎ¼Îµ Î¼Î¿Î½Ïī
ĠÎ¼Î±Î³Î± Î¶Î¯
Î» Î³Î±
ĠÏĩÎ¿ ÏģÏĮ
ÎŃ ÏĦÎ¿ÏĤ
ĠÎµÎ¾Î¿ Î¼Î¿
ĠÎ¼ Î¹Î¬
ĠÏħÏĢÏĮ Î¸ÎµÏĥÎ·ÏĤ
ĠÎ´Î¹Î±ÏĨÎ® Î¼Î¹ÏĥÎ·
ĠÏī ÏģÎ±Î¹
ĠÎºÎ±ÏĦÎ± ÏĥÏĩÎŃ
ÏģÎ± ÏĢÎµÎ¯ÎµÏĤ
Î¤ Î¡
an ce
ĠÎ²Î¿ÏħÎ»ÎµÏħ ÏĦÏİÎ½
at er
ĠÎ²ÏģÎ¯ÏĥÎº Î¿Î½ÏĦÎ±Î½
ĠÎ±ÏĥÏĨÎ¬Î» Î¹ÏĥÎ·ÏĤ
ĠÏĨ Î·
Îł Î®
ĠÎ± ÎºÎ±ÏĦÎ¬
ÏĥÏĦÎµ ÏģÏĮ
ĠÎ§ ÏģÎ¿Î½
ĠÎĶ ÏĮ
ĠÎµÎ¹ÏĥÎ¹ ÏĦÎ·ÏģÎ¯ÏīÎ½
ĠÎŃ ÏĨÎ·
ĠÎļ Î¿ÏįÏģ
ĠÎ±Î»Î·Î¸ Î¹Î½Î®
ÏĢÎ¬ Î¸ÎµÎ¹Î±
ĠÎºÎ±ÏĦÎ±Î¸ÎŃ ÏĥÎµÎ¹
ĠÎķ ÎĿÎĳ
ĠÎĺ ÎŃÎ»
ĠÎ´ÏħÏĥÎºÎ¿Î» Î¯Î±
ĠÎŁ Î¤ÎĻ
ĠÎºÎ±ÏĦÎ±Î¹Î³ Î¯Î´ÎµÏĤ
ĠÎºÎ±Î¸ ÏģÎŃ
Ïģ Î¹ÎºÎ¿ÏįÏĤ
ÏģÎ¸ ÏīÏĥÎ·
ĠÏĥÏĩÎ¿Î» Î¹ÎºÎ®
ĠÎ¹Î´Î¹Ïī ÏĦÎ¹ÎºÎ®
Î»ÎµÏį ÏģÎ¹
ĠÏĢÎ±ÏģÎ¿ÏħÏĥÎ¹Î¬ Î¶Î¿Î½ÏĦÎ±Î¹
ĠÏĢÎ±ÏģÏĮ ÏĦÎ¹
ĠÎĶÏį ÏĥÎ·
Î¤ÎĹ Î¤Îĳ
ĠÎ¸ÎµÏģÎ±ÏĢÎµ Î¯Î±ÏĤ
Î»Î¹ ÏĮ
ĠÏĥ ÏĦÏģÎµ
ĠÎ½ Ïį
ĠÎµÎº Î»ÎµÎ³
ÎĳÏħ ÏĦÎ¿
ĠÎ±ÏĢÎ¿ ÏĩÏİÏģÎ·ÏĥÎ·
ĠA c
ĠÏĦÎ±ÏħÏĦÏĮ ÏĦÎ·ÏĦÎ±ÏĤ
ĠÎµÎºÏĥÏĦÏģÎ± ÏĦÎµÎ¯Î±
ÏĦÎ¿ ÏĩÎ®ÏĤ
Î´Î¬ ÎºÎ·
ĠÎ±Ïģ ÏĦÎ·
A P
ĠÎ¼ÎµÎ¹ ÏİÏĥÎµÎ¹ÏĤ
ĠÎµÎ¾Î±ÏĥÏĨÎ±Î» Î¯ÏĥÎµÎ¹
ĠÎ±Î½Î±ÎºÎ¿Î¹Î½Ïİ ÏĥÎµÎ¹ÏĤ
ĠÏĥÎº Î¹Î¬
Î½Îµ Î¶
ÏģÏİ Î¼Î±
ĠÎł ÏģÎŃ
ĠÎĳÎĿ ÎķÎĽ
Î±Ïģ Î¯Î±ÏĤ
ĠÎ±ÏĢÎ±ÏĥÏĩÏĮ Î»Î·ÏĥÎ·
ĠÎ´ÏģÎ± Ïĩ
ĠÎ¼ÏĢÎ¿ ÏģÎµÎ¹
ĠÏĥÎºÎ¿ÏĦÎ¬ Î´Î¹
ĠÏĥÏħÎ½Î¿ Î»Î¹ÎºÎ¿Ïį
ĠÎŃÎ´Î¹ Î½Îµ
ĠÏĩÏģÎ· Î¼Î¬ÏĦÏīÎ½
7 9
ÎĨÎ³ Î¹Î¿ÏĤ
ĠÎ¾ÎŃÎ½ Î¿ÏħÏĤ
ĠÎ±ÏĦÏĮ Î¼Î¿Ïħ
ĠÎ²Ïħ Î¶Î±Î½
ĠÏĥÏħÎ½Î¬Î½ ÏĦÎ·ÏĥÎ·ÏĤ
Îł ÏģÎ±Î³Î¼Î±
ĠÎ´Î¹Î± Î²Î±
ÏĦ Î¯Î´Î±ÏĤ
ĠÎºÎ±ÏĦÎ±ÏĢÎ¿Î»ÎŃ Î¼Î·ÏĥÎ·
ĠÎ¬Î½ ÏĦÎµ
ĠSP ORT
ĠÎ¼ÏĢÎ±Î» ÎºÏĮ
Î¯ ÏģÎ¹Î±
ĠÎ§ Î¡ÎŁÎĿ
ĠÎºÎ¬ Î½Î±
ĠÏĥÏħÎ½ Ïī
U R
ĠÏĥÏħÎ½Î® Î¸ÎµÎ¹ÎµÏĤ
ĠÏĦÏģÎ¿ÏĨÎ¿ Î´Î¿
ĠÎºÎ±Î¸ÎµÏĥÏĦÏİ ÏĦÎ¿ÏĤ
ĠÏĢÎ±ÏģÎ± Î³
ĠÎµÏĢÎ±Î³Î³ÎµÎ»Î¼Î± ÏĦÎ¹ÎºÎ¬
ÏĦÏİÎ½ Î¿ÏħÎ½
ĠÎµÎ½Î·Î¼Îµ ÏģÏİÎ½ÎµÎ¹
Ïĥ ÏĩÎ¿
Î½Î¿Î½ ÏĦÎ¬ÏĤ
ĠÏĢÎ¹Î¬ ÏĦÎ¿
ĠÎ¿Î»Î¿ ÎŃÎ½Î±
ĠÎ½ÎµÎº ÏģÏĮÏĤ
ĠÎ±ÏĢÎµÎ¹ Î»ÎµÎ¯
Î³ÏģÎ±ÏĨ Î¯ÎµÏĤ
ĠÎ¿ ÏĦÎ±Î½
Ġï Ĥ
Î¸Îµ Î»Î±
Î¹Îº Î±ÏĤ
Î´ Î¹Î´
ĠÎ±Î½ÏĦÎ¹ÏĢ Î¬Î»
Î¨ ÎĹ
c on
O O
ĠÏħÏĢÎ¿ ÏĦÎ±
ĠÎµÎºÏĢÎ±Î¹Î´ÎµÏħ ÏĦÎ¹ÎºÎ¿Î¯
ÏĩÎ½ ÎµÎ¹ÏĤ
ĠÎµÏĢÎ¹ÏĩÎµÎ¹ ÏģÎµÎ¯
ĠÏĩÎ±ÏģÎ±ÎºÏĦÎ· ÏģÎ¯Î¶ÎµÎ¹
ĠÏĥÎºÎ·Î½ ÎŃÏĤ
ÏĦ ÏĥÎ¯
ĠÎ¼Î· ÏĩÎ±Î½Î¿
ĠÎ±ÏĢÎ¿ Î¹Îº
Î½Îµ Î¼Î¬
ĠÎļÎ±Ïģ Î´Î¯
ĠÏĨ Î®
Î¼ÎµÏģÎ¹Î½ Î®
ĠÎµÎ¹Î´ Î¹ÎºÎ¿ÏįÏĤ
ĠÎķÎŁÎł Î¥Î¥
ĠÎĳÏħÏĥÏĦÏģÎ± Î»Î¯Î±
Îķ Îĵ
ÏĥÎ¹Î± Î»
ĠÏĦÏĮ ÏĥÎµÏĤ
ĠÎĶÎ¹Î± Î´Î¯ÎºÏĦÏħÎ¿
ĠÎĿÏĦÏĮ Î½Î±Î»Î½ÏĦ
ĠÏĥÏħÎ¼ÏĢÎµÏģÎ¹ ÏĨÎ¿ÏģÎ¬ÏĤ
ĠÎ¹ÎºÎ±Î½Î¿ ÏĢÎ¿Î¯Î·ÏĥÎ·
Î´ ÏİÏĤ
ĠNews letter
Ġ18 0
Î¼Î¬ ÏĩÎ·
ĠÎķÏįÎ²Î¿ Î¹Î±
ĠÎ¥ ÏĢ
ĠÏĪÎ®ÏĨ Î¿ÏħÏĤ
ĠÎĳÏĢÎ¿ ÏĥÏĦÏĮ
ĠÏħÏĢÏĮÎ»Î¿Î¹ ÏĢÎ¿ÏħÏĤ
ĠÏĢÏĮ Î½Î¿ÏĤ
Î£Ïħ Î¼ÏĨÏīÎ½
ÏĦÎ¿Ïħ ÏģÎº
ĠÎĶÎ¹Î± Î³ÏīÎ½Î¹Ïĥ
Î¯Îº Î¿Ïħ
ĠÏĢÎµ ÏĦÏģÎŃÎ»Î±Î¹Î¿
ĠÏĢÏģÎ¿ÏĥÏīÏĢÎ¹ÎºÏĮ ÏĦÎ·ÏĦÎ±
ÏĥÏħÎ³Îº ÏģÏĮ
ĠÏĦÎ±ÏĩÏħÎ´ÏģÎ¿ Î¼ÎµÎ¯Î¿
ĠÏĥÏīÎ¼Î± ÏĦÎ¹ÎºÎ®
ĠÏĩÏģÎ·Î¼Î±ÏĦÎ¿ Î´ÏĮÏĦÎ·ÏĥÎ·ÏĤ
ĠÏĢÎµÏģ ÏĥÎ¹
ĠÎµÎ½ Î½ÎŃÎ±
ĠÎ¼Î±Î½ Î¹
sh op
ĠÎ¼ÎµÎ¹ ÏİÏĥÎµÎ¹
ĠÎ¾ÎµÎºÎ¬Î¸Î± ÏģÎ±
ĠÎ´Î¹Î¬ ÎºÏģÎ¹ÏĥÎ·
est ival
o log
ĠÎºÎ±ÏĦÎ¬Î¸Î»Î¹ ÏĪÎ·
F ARA
ĠÏĢÎµÏģÎ¯ Î¸Î±Î»
ÎĬ ÏĥÏīÏĤ
ĠÎ¼Î± ÎºÏģÎ¹Î½
ĠÎĿ Î¿Ïģ
ĠÎŁÎ¼Î¯ Î»Î¿Ïħ
ĠÎŃÏģÏī ÏĦÎ±ÏĤ
ĠÎ±Î½Î¸ÏģÏİÏĢÎ¹ Î½Î·ÏĤ
Î½ ÏĦÎ¹
ĠÎłÎ¬ Î½Î¿ÏĤ
ĠÎ±ÏĢÎŃ ÏĩÎµÎ¹
ĠÏĥÏįÎ³ ÏĩÏģÎ¿Î½Î·ÏĤ
ĠÎºÎ±ÏĦÎ·Î³Î¿ ÏģÎ¿Ïį
ĠÎļÏħ ÏģÎ¯Î¿Ïħ
ĠÎ±Î½Î® Î»Î¹Îº
ĠÏĢÎ¬ Î³ÎºÎ¿
ĠÎ´ Î¿ÏģÏħ
Î¤Î¿Ïħ ÏģÎº
ĠÎ»Î¿Î³ Î¹ÎºÏĮ
Îĵ ÎĳÎĽ
ĠÎŃ ÏĢÎ¹
ing s
ap t
ĠÎ¹Î´Î¹Î¿ÎºÏĦÎ· ÏĥÎ¯Î±
ĠÎºÎ± Î»Î¿ÏįÎ½ÏĦÎ±Î¹
ĠW eb
ĠÎ¼ÎµÎ¹ Î¿
ĠÎĳ Î¸Î±Î½Î±
ĠÎ±Î½Îµ ÏĢÎ¬
y t
Ġ le
ĠÏĢÏģÎ¿Ïĥ Î»Î®ÏĪÎµÎ¹ÏĤ
Î¤ Î¡Îĳ
ĠÎµÏĢÎ¬ Î³Î³ÎµÎ»Î¼Î±
ÏĮÏĦÎµ ÏģÎ¿ÏĤ
ĠÏĥÏħ Î¶Î®ÏĦÎ·ÏĥÎ·ÏĤ
ÎºÏģÎ¬ ÏĦÎ·
ĠÎ¬ Î¼Î±
200 9
ĠR ed
ÏĢÏģÏĮ ÏĥÏī
ĠÎºÏįÏģÎ¹ Îµ
ĠÎ±ÏĢÎ¿Î¼Î¬ ÎºÏģ
ĠÏĢÏħÏģÎ¿ Î²Î¿Î»
ĠÎĹ Î»ÎµÎº
al d
Î¯Îº Î¹Î±
ĠÏĥÏĦÏģÎ±ÏĦÎ·Î³ Î¹ÎºÎ®ÏĤ
ĠÏĮ ÏĢÎ¿ÏĦÎµ
Îł ÎĳÎ£
ĠAth ens
ĠÎ£ÏĩÎ¿Î» ÎµÎ¯Î¿Ïħ
ĠÏĥ ÏİÏĥÎµÎ¹
ĠÏĢÏģÎ¿Î¸ÎµÏĥÎ¼ Î¯Î±
ĠÎ¬Î»Î» Î·ÏĤ
ĠÎľÎŃ ÏĥÎ·
ÏĦÎ¿Ïį Î¼ÎµÎ½Î±
ĠV ol
ĠÎľÎ¿ÏħÏĥ Î¹ÎºÎ®ÏĤ
Î¬ ÎµÎ¹
ĠÎºÏģÎµ Î¼Î¼Ïį
ĠÏĥ ÏĦÏģÎŃ
ÏĦÏĮ ÏĢÎ¿ÏħÎ»Î¿ÏĤ
ĠÏĩÎ¿ ÏģÎµÏħ
ĠÏĢÏģÎ¿ÏĥÏĦÎ±ÏĦÎµÏį ÎµÎ¹
ÎŁ Ïħ
âĢĻ ,
ĠÎĶÎ¹ÎµÏħ Î¸ÏįÎ½
Îľ ÏĢÎ±
Î¼Î¿ Î¹Î¿
ĠÎ¶ÎµÏħÎ³Î¬ ÏģÎ¹Î±
ĠÏĢÎ± ÏĦÎ®ÏĥÏĦÎµ
Î¯Ïĥ ÏĦÎ±Î½
ĠÎºÎ¿ Î»Î»Î·
ÏĪÎ® ÏĨÎ¹
ĠÏĥÏħ ÏĥÏĩÎµ
ĠÎ²Î±Ïĥ Î¹Î»Î¹Î¬
ĠM us
ĠÎ£ÏįÎ»Î»Î¿Î³ Î¿
ĠÏĥÏħÎ½ÏĮ ÏģÏīÎ½
ÎĿ ÎŃÎµÏĤ
Î¹Î´ Î¹Î±
ĠÏĦÏģÎ±Î³ Î¹ÎºÏĮ
ĠÏĥÏįÎ½ Î¸Î·Î¼Î±
ĠÎ´Î¹Î±ÏĢÏģÎ±Î³Î¼Î¬ ÏĦÎµÏħÏĥÎ·
ĠÎ½Î¿ Î¿
Î»ÏĮ Î½Î±
ĠÎ¤ ÎķÎĽ
Î³Î½Ïī ÏĥÎ·ÏĤ
ĠÎ±Î½ÏĦÎ¹ ÏĥÏĦÎ±
ĠÎ±ÏĢÎ¿ ÎºÎ±ÏĦÎ±
ĠÎļÏħÏģÎ¹Î¬ ÎºÎ¿ÏĤ
ÏĦÏİÎ½ ÏĦÎ±Î¹
ÎµÏħ ÏģÏīÏĢÎ±ÏĬ
ad io
ĠÎ±ÏĢÎ¿ÏĦÎŃ Î»ÎµÏĥÎµ
ĠÎ¹Î´Î¹Î¿ÎºÏĦÎ· ÏĥÎ¯Î±ÏĤ
ĠÎµÏģÎ³ Î¿Î´Î¿
ĠÎ¿Î¼Î¿ÏģÏĨ Î¹Î¬ÏĤ
ĠÎ±Î½Î± Î¼
ÏĨ Î¹ÎºÎ®
ÏĦÎŃ Î¸Î·ÎºÎ±Î½
ĠU S
ĠÏĢÎ±ÏģÎ± Î¼Î¹Îº
ĠÎ¼ÏħÏĥ ÏĦÎ®ÏģÎ¹Î¿
ĠÎ£ Î±Î»
Îľ ÎµÏģ
ĠÏĨÏīÏĦÎ¿Î³ÏģÎ±ÏĨ Î¯Î±ÏĤ
ÏģÎ½ ÏĦ
ĠÏĨÏģÎ¿Î½ ÏĦÎ¯
ĠÎķ Î»Îµ
Îµ ÏĢÎ¯
Î»Î® ÏĥÎµÏīÎ½
ĠÏĦÎ·Î»ÎµÎ¿ÏĢ ÏĦÎ¹ÎºÏĮ
ĠÎľ Ïī
ĠÏĩÎ±ÏģÎ±ÎºÏĦÎ· ÏģÎ¯Î¶ÎµÏĦÎ±Î¹
ĠÎķÏĢÎ¹Îº ÏģÎ±ÏĦÎµÎ¯Î±ÏĤ
Ġ197 4
ĠÎĳÏĨÏģÎ¿ Î´Î¯
Ġin fo
ĠÎĿ ÎŁ
ĠÏĢÏħÏģÎºÎ± Î³Î¹Î¬
ĠÎ´Î¹ ÎµÏį
ĠÎ³ÎµÎ¹ÏĦÎ¿Î½ Î¹Î¬
ÏĪ ÎµÏį
ÏĬ ÎºÎŃÏĤ
ĠÎ´Î¬Ïĥ Î¿ÏĤ
ÏģÎ¹Î± ÎºÏİÎ½
ĠÎ´Î¹Î±ÏĨÎ¸Î¿ ÏģÎ¬
Î£Ïħ ÏĩÎ½ÎŃÏĤ
ÎĮ ÏĥÎ¿Î½
Îº Î¬Î½Î¹Î±
ĠÎµÎ³Î³Ïį Î·ÏĥÎ·
ĠÎĵÏģÎ±Î¼Î¼Î± ÏĦÎµÎ¯Î±
Ïĩ ÏģÏĮ
v is
Ġ mail
Î»Î¬ Î´Î±
ĠÏĢÎ±Î½ÎµÏĢÎ¹ÏĥÏĦÎ· Î¼Î¹Î±
Î¶ Î¿Ïį
Î´ Î¹ÏĥÎ¼Î±
ĠÎŁ Îľ
ĠÎ³ÏģÎ¬ÏĨ Î¿ÏħÎ½
ĠÎ¶Î· Î¼Î¹Î¬
ĠÎĶ ÎµÎ¯
c m
ĠÎĳÎ³ Î¯ÏīÎ½
ĠÎĻÎ´ÏģÏį Î¼Î±ÏĦÎ¿ÏĤ
Îļ Î¥
ĠÎ§ Î¹
ĠÎķ Î½Î¿Î¹Îº
ĠÏĥÏį ÏĥÏĦÎ±ÏĥÎ·
ĠÎºÎ±Î¸ Î¹ÏĥÏĦÎ¬
ĠÎ±Î¾Î¹Î¿ ÏĢÎ¿Î¹
ĠÎ´Î·Î¼Î¿ÏĥÎ¹ÎµÏį Î¼Î±ÏĦÎ±
ĠÏĥÏħÎ½ Î´ÏģÎ¿Î¼Î®
ÏģÎµ Î¬ÏĤ
ĠÂ ¨
ĠÎ³Î¹Î±ÏĦÏģÎ¿Ïį ÏĤ
ĠÏĢÎ¹ Î½Î±Îº
7 4
ĠÎµÎº ÏĥÏħÎ³ÏĩÏģÎ¿Î½
ĠÎ±Î¹ ÏģÎµ
ĠÎ´Î¹Î¬ Î»ÏħÏĥÎ·
ĠÎ£ÏĦÏģÎ± ÏĦÎ¿Ïį
Î¸ÎµÎ¹ ÏİÎ½
ĠÏĨÏħ Î»Î¬
ĠÎ¸ÎµÏģ Î¼Î¬
ĠÎĶÎ·Î¼Î¿ ÏĥÎ¯ÏīÎ½
ĠÎ±Î½Î±Î¸Îµ ÏİÏģÎ·ÏĥÎ·
ĠÎĳÎ»ÎŃ Î¾Î±Î½
ÏģÎ±Î¯ Î¿Î¹
ĠÎ´Ïħ ÏĦÎ¹ÎºÎ¬
Î¬Ïĥ ÎºÎ±
ÏĢÎ¬Î½ ÏĦÎ·ÏĥÎ·
ĠÏħÏĪÎ· Î»ÎŃÏĤ
ĠÎ±Î½ ÏĮ
Ïĥ ÏĦÎ¹Îº
ĠÏĥÏħÎ¼Î² Î¿ÏħÎ»Î¯Î¿Ïħ
ĠÎ±ÏĢ Î·
ĠÏĦÎµÎ»ÎµÎ¹ ÏİÎ½ÎµÎ¹
ĠÎµÎºÏĢÎ¿Î¼ÏĢ ÎŃÏĤ
Î±Î³Î³ ÎŃÎ»
ĠÏĨÎ¹Î»Î¿Î¾Îµ Î½Î¿Ïį
ĠÏħÏĢÎ¿Î»Î¿Î³ Î¹ÏĥÏĦÎŃÏĤ
ĠÎµÎ½Î±Î»Î»Î± ÎºÏĦÎ¹ÎºÎ®
Î£ ÏħÎ½Î±
ĠÎ¼Î·ÏĩÎ±Î½ Î¹ÏĥÎ¼ÏĮ
ÎłÏģÎ¿ ÏĥÏīÏĢ
ÏĦÏī Î¼ÎŃÎ½Î¿
ĠÎļÎ¿ ÏģÎ¹Î½
á½¸ ÏĤ
ĠÎ¸ Î®
ĠÏĥÏħÎ½Î´ÏħÎ±Ïĥ Î¼ÏĮÏĤ
ĠÎŃÎ¶Î· ÏĥÎµ
Î£ ÏĦÎ¿ÏħÏĤ
Î®Î¼Î± Î½Îµ
ÎłÎ± ÏģÎ¿ÏħÏĥÎ¯Î±ÏĥÎ·
ĠÎĳ ÎºÎ¿Î»Î¿Ïħ
P S
\ \
ĠÏĢÏģÎ¿ÏĥÏĢÎ¬ Î¸ÎµÎ¹Î¬
Î» Î¯Î½
ĠÏĨÏĮ ÏģÏīÎ½
Î³Î¹Î¬Î½ Î½Î·ÏĤ
Î¶ Î±ÏĤ
ĠÎºÎ± Î»ÎµÎ¯ÏĦÎ±Î¹
ĠÏĥÏħÎ½Î±Î¯Ïĥ Î¸Î·Î¼Î±
ÏĮ ÏĢÎ¿Ïħ
Îĳ Î»
ĠÎļÏį ÏģÎ¹Î¿ÏĤ
ĠÎµÎ»ÎŃÎ³ ÏĩÎµÎ¹
ĠÏĢÏģÎ¿ ÏĥÎ¿
ĠÎĵ Î£
Ġp lay
ĠÎ±ÏĢÎ±ÏĥÏĩÎ¿Î» ÎµÎ¯
ĠÏĥÏħÎ½ÎµÏĩ Î¯ÏĥÎ¿ÏħÎ¼Îµ
Îĸ ÎĻ
ĠÏĢÎŃ ÏĦÏģÎµÏĤ
ph a
ĠÎķ Î²Î´Î¿
ĠÎµÎº ÎµÎ¹
ĠÎµÏĥÏīÏĦÎµÏģ Î¹ÎºÎ¬
ÏĦÎ® ÏĦÏīÏĤ
ĠÎ´ ÎŃÎ½ÏĦÏģÎ±
ĠÎļÏĮ Î¼Î¼Î±ÏĦÎ¿ÏĤ
ĠÏĢÏģÏĮ Î¿Î´Î¿
ĠÎ¬ ÏĪÎ¿
ĠĠ ĠĠ
ĠÎºÎ¹ Î½Î¿ÏįÎ½ÏĦÎ±Î¹
Î¼ Î¹ÎºÏĮÏĤ
ÏĩÏħ ÏĥÎ·
ĠÏĦÎŃ Î»ÎµÎ¹Î¿
Î»ÎŃ ÏĥÏĦÎµ
ÏĦ ÏĦÎµÎ¹
ÏģÎ¹Î¼ Î¼Î¬ÏĦÏīÎ½
Î¦ Î¯
Î¬Î½ ÎµÏĤ
ĠÎŃÎ½ Î¹Ïī
n a
Î¼ Î¯Î½
ÎĳÏħ ÏĦÎŃÏĤ
ĠÎ» Î±Î½Î¸
ĠÎµÏĢÎ¹ÎºÏģÎ¬ ÏĦÎ·ÏĥÎµ
ĠÎĴ ÎĻÎĿÎ¤ÎķÎŁ
ÎĴ Îķ
i el
r is
ĠÎļ ÎŃ
ĠÎłÎ±Ïį Î»Î¿Ïħ
âĢ ²
ĠÎ¼ÏĢÎ»Î¿Î³ Îº
ĠÎ±Î½Î±Î¶Î· ÏĦÎ¬
ĠC D
ĠÎłÎ±ÏĢÎ±Î´ÏĮ ÏĢÎ¿ÏħÎ»Î¿ÏĤ
ĠÎ¹Î´Î¹Ïī ÏĦÎ¹ÎºÎ¿Ïį
Î¸Î± Î½Î¿
ĠB ank
ÏĥÏħ ÏĩÎ·
ĠÎ¾ÎµÏĩÏīÏģÎ¹Ïĥ ÏĦÏĮ
ĠÎłÏģÏīÎ¸ÏħÏĢÎ¿ÏħÏģÎ³ ÏĮÏĤ
Ïĥ ÏĦÏī
ĠÎķ Î»ÎŃÎ³
ĠÎºÏģÏį Î²ÎµÏĦÎ±Î¹
ĠÏĢÎ¿ ÏĦÏĮ
Â ¨
Î¶Î¿ ÏĥÏĢÎ±
Îĳ Î½Îµ
ĠÎľÎ±Î½ Ïİ
ÎłÏģÏĮ Î³ÏģÎ±Î¼Î¼Î±
ĠÎ²Î¬ ÏĥÎ·ÏĤ
ĠÎ¸Î¬Î»Î± ÏĥÏĥÎ±ÏĤ
ĠÎ£Ïħ Î¼Î¼Îµ
ĠÎ´Î¹ÎµÎ¸Î½ ÏİÏĤ
ĠÎºÎ±ÏĦÎ¬ ÎºÏĦÎ·ÏĥÎ·
Îļ Î»ÎµÎ¯
ĠÏħÎ³ ÏģÏĮ
Ġs erv
ĠÎ£ ÏĦÎ¿ÏħÏĤ
ĠÎºÎ±ÏĦÎŃ ÏĩÎµÎ¹
Îł ÏĮÏĦÎµ
ĠÎ·Î»ÎµÎºÏĦÏģÎ¿Î½ Î¹ÎºÏİÎ½
ĠÏĥÏħÏĥÎºÎµÏħ Î±ÏĥÎ¯Î±
ÏĩÎ¿ Î¯
ĠÏĢÏģÎ¿Î²Î»Îµ ÏĢÏĮ
ĠÏĢÏģÎ¿ Î²Î¬
ĠÎ±Î¹ ÏĦÎ¯ÎµÏĤ
ĠÎ±Î½Î± Î´ÎµÎ¹ÎºÎ½Ïį
ĠÎľÎ· ÏĦÏģÏĮ
ĠÏĥÏħÎ³Îº ÎµÎ½ÏĦÏģ
ĠÎºÏįÏģÎ¹ Î¿Î¹
ĠÎ¿ ÏģÏħ
Î´ Î¹Î¿ÏĤ
G B
ĠÏĥÏħÎ½Î¿Î¼Î¹ Î»Î¯ÎµÏĤ
ĠÎ¼ÏĮ Î´Î±ÏĤ
ĠÎŃÎ»Î»ÎµÎ¹ Î¼Î¼Î±
ĠÎ¼Î±Î¸Î· Î¼Î¬ÏĦÏīÎ½
ĠÏĢÎ»Î¬ Î½Î¿
ĠÎ£Ïħ Î³
ĠÎĻ Î´Î¹Ïī
ĠÏĦÎµÏĩÎ½ Î¹ÎºÏĮÏĤ
ĠÎļÏį ÏĢÎµÎ»Î»Î¿
ĠÎµÎ³Îº Î»ÏīÎ²
ĠÎ¼Î¿Ïģ ÏĨÎ®ÏĤ
ĠÎłÎ¿Î»ÎŃ Î¼Î¿Ïħ
ĠÏĥÏĦÎ±Î¸ Î¼Î¿ÏįÏĤ
ĠÎ¦Î¹ Î»Î±
ĠÏĢÏģÏİ ÏĦÏīÎ½
ĠÎłÎŃ Î¼ÏĢÏĦÎ·ÏĤ
ĠÏĪÎ® ÏĨÎ¿
ĠÎľÎ½Î·Î¼ÏĮ Î½Î¹Î¿
ĠÎĵÏģÎ±ÏĨ ÎµÎ¯Î¿
ĠÎļÎ± Î»Î¿
ĠÏĢÏģÎ¿ÏĥÎµ ÎºÏĦÎ¹ÎºÎ¬
Â» âĢ¦
ĠÎ³Î¿Î½ ÎŃÏīÎ½
ĠÎĵ ÏħÎ½Î±
ĠÎµÏħÎµÏģÎ³ Îµ
ĠÎºÎ±ÏĦÎ± Î³ÏģÎ±ÏĨÎ®
ĠÎĳ ÏĩÎ±
Î´ Î¹Ïĥ
ÏĥÎ® Î¼Î±
Î´Î¹Î¬ ÏģÎ¸
ÏĦÏħ ÏĩÎ±
ÏģÎµÏį Î½Î·ÏĥÎ·
ÎµÎ½ÏĦ ÏģÏī
ĠÏĢÎ± Î¸Î¿
Î²Îµ Î²Î±
ĠÎ´ÎŃÏĥÎ¼Îµ ÏħÏĥÎ·
ĠÎ±Î½Îµ Îº
ÎŁ ÏįÏĦÎµ
ĠÎ¡Î¿Ïħ Î¼Î±Î½
ĠÏĮ Î³Îº
ÏĥÏĦÎ± ÏĦÎ¿
ĠÎ±Î¾Îµ ÏĥÎ¿ÏħÎ¬Ïģ
ĠÏĥÏį Î¼Î¼Î±
ÏĢÎ· ÎºÎµ
ĠÎºÎ® ÏģÏħ
ĠÏĥÎ¿ÎºÎ¿Î»Î¬ ÏĦÎ±
Î¸ Î¿ÏįÏĥÎ±Î½
ĠÎĽÎ± Î¼ÏĢ
ĠÏħÏĢÎµÏįÎ¸Ïħ Î½Î·
Î¸ Î¿Î¹
Î»Î¹Ïĥ Î¼ÏĮÏĤ
Î¸ÎŃ Î¼Î±ÏĦÎ±
ĠÎŃ ÏĨÎµÏģÎ±Î½
ĠÏĨÎ±Î½ ÎµÎ¯
ĠÎºÎ»ÎµÎ¹ Î´Î¯
ĠÎºÏĮÎ» ÏĢÎ¿
b omb
ĠÏĢÎ¯Îµ ÏĥÎ·ÏĤ
ĠÏĢÎ±ÏģÎ¬ Î´Î¿ÏĥÎ·ÏĤ
ĠGre ek
ĠÏĥÏħÎ½ ÏĦÎ¿
ÏĢÎ¿Î¯Î· ÏĥÎ®
ĠÎ§ Ïī
ĠÏĢÏģÏĮÏĥÏī ÏĢÏĮ
ĠÎ±Î½Î± ÏĦÏģÎŃ
ĠÎ¹Î´ÏģÏį Î¸Î·ÎºÎµ
Î¼Îµ ÏĥÎ¬
Î¬Ïģ Î½Î±
ĠÎ³Î¬ Î»Î±ÎºÏĦÎ¿ÏĤ
ĠÎ´Î¿Î»Î± ÏģÎ¯ÏīÎ½
ÏĥÎºÎ± Ïģ
ĠÎļÎ±Î»Î± Î¼Î¬ÏĦÎ±ÏĤ
ÎŀÎµ Î½Î¿Î´Î¿
ĠÏĦÎµÎ»ÎµÏħÏĦÎ± Î¯Î¿ÏĤ
ÏĮÏĦÎµ ÏģÎ¿ÏħÏĤ
ĠÏħÏĢÎ¿Î´Î¿ Î¼ÎŃÏĤ
Î¬ ÏģÎ±
ĠÏĢÎ®Î³Î±Î¹ Î½Îµ
ĠÏĥÏħ ÎºÎ¿
ĠÏħÏĢÏĮ ÏĥÏĩ
ĠÎ¥ ÏĢÎ±
ĠÏĦÏģÎ¿ Î¼Î±
ĠÎ±Ïħ Î¾Î±Î½
ĠÎŃ Î»Î±Î²Î±Î½
Ïį ÏĥÎ·
Ïĥ ÏĢÎ¹ÏĥÎ·
ĠÎºÎ±ÏĦÎ± ÏĦÎµ
ĠÏĢÎŃ Î½Î±Î»
ĠÎķÏĢÎ¹ÎºÎ¿Î¹Î½ÏīÎ½ Î¯Î±ÏĤ
ĠÎ¼Î·ÏĩÎ±Î½ ÎŃÏĤ
P orn
ĠÎµÏĢÎ¹ Î²Î¬Î»Î»ÎµÎ¹
ĠÎµÎ½ÎµÏģÎ³ Î¬
ĠÎ¸ÎŃÏģÎ¼Î±Î½ ÏĥÎ·ÏĤ
ĠÎ±Î³ÏĮ ÏģÎ¹
Ġ18 21
ĠÎ±ÏĢÏĮ Î´Î¿ÏĥÎ·ÏĤ
ĠÎ¼ÏĮÎ½Î¹ Î¼Î·
ĠÎĳÎ½Î±ÏĦÎ¿ Î»Î¹ÎºÎ®ÏĤ
ĠÎ¿ ÏģÎ¯Î¶ÎµÎ¹
ĠÎ¬ ÏĢ
ĠÎ¼Î¹Ïĥ Î¸ÏİÎ½
G re
ĠÎ±Î¯ ÏĦÎ¹Î±
ĠÎļÎ±ÏĥÏĦÎ¿ ÏģÎ¹Î¬ÏĤ
ĠÎºÏģÎ± ÏĦÎ¹ÎºÎ®
ĠÎµÏĢÎ¹Ïĥ ÏĦÎ¿
ĠÎºÎ»Î® ÏģÏīÏĥÎ·
ÏĦÏĮ ÏģÎ·Î¼Î±
ĠÏĢÏģÎ¿ ÎºÏģÎ¹
Ġsmart ph
ÎĻ Î©
Î£ ÏįÎ½Î´ÎµÏĥÎ·
ĠÎ¿ ÏģÏĮ
ĠÏĮ Î»Î¿Ïħ
ĠÎ® ÏĩÎ¿
ÎŁÎ»Î¿ ÎºÎ»Î·
ĠÎ±Î¹ ÏĦÎ®Î¼Î±ÏĦÎ±
ro l
ĠÎ¼Î¿ Î¹Î¬Î¶Î¿ÏħÎ½
ĠÏĥÏĦÎ® Î»Î·
ĠÎĽÎ¹ Î¼ÎµÎ½
Ïİ ÏĥÏī
ĠÎ±ÏħÎ¾Î· Î¼ÎŃÎ½Î·
ĠÎ¼Î¹ÎºÏģÏĮ ÏĦÎµÏģÎ·
ĠÎµÎ¾Î¬ Î¼Î·Î½Î¿
ĠÏĦÎµÏį ÏĩÎ¿ÏĤ
ĠÏĨÏĦÎ¹Î¬ Î¾ÎµÎ¹
ĠÏĢÎµÏģÎ¹ ÏĮÎ´Î¿ÏħÏĤ
7 2
ĠÏĨÎ±ÏģÎ¼Î± ÎºÎ¿
ra il
ĠÏĢÎ±ÏģÎ± Îº
ĠÎķÏĢÎ¹Ïĥ ÏĦÎ·Î¼Î¿Î½
ĠÎļÎ· ÏĨÎ¹Ïĥ
ĠÎµÎ¹Ïĥ Î²Î¿Î»Î®
ĠÎĶÎ· Î¼Î·ÏĦÏģÎ¯Î¿Ïħ
M A
ÏĪ Î¯
ÏģÎ¯ ÏĥÏī
ĠÎĳ Î¦
ĠÏĢÎµÏģÎ¹ÏĢÎŃ ÏĦÎµÎ¹
Î® ÏĥÎ±Î¼Îµ
ĠÎ±Î»Î® Î¸ÎµÎ¹Î±ÏĤ
ĠÎ²Î¿Î¼Î² Î±ÏģÎ´
Ġ0 4
ĠÏĦÎ±Î¾ Î¯
ĠÏĥÏħÎ¼ ÏĢÎ±ÏģÎ¬
ĠÎ¿Î¼Î¿ ÏĨÏħ
Î¡ÎĻ ÎĿ
Ïĥ ÏĦÏīÎ½
ĠÏĢÏģÏİ ÏĦÎ¿ÏħÏĤ
ĠÏĢÏģÎ¿ÏĥÎ´Î¿Îº Î¯ÎµÏĤ
ĠÎ£ÏĮ Î¹Î¼ÏĢÎ»Îµ
ĠÏĢÏģÎ¿ÏĥÎ¸ÎŃ ÏĦÎµÎ¹
ĠÎ¬ Î¾
Îº ÎµÎ¹Î±
ĠÏĢÎ¹ÏĥÏĦÎµÏį Î¿ÏħÎ¼Îµ
Ġ8 5
ĠÎ½Î¿Î¿ ÏĦÏģÎ¿ÏĢ
Îļ ÎŁÎ£
Îº Î¹Ïĥ
ÏĥÏĦÎµ ÏħÏĥÎ·
ĠÎµÎ½ ÏĦÏħÏĢÏİÏĥÎµÎ¹ÏĤ
ĠÎ±ÏĢÎ¿ ÏĦÏħÏĩÎ¯Î±
ĠÏĦÎ± ÏĤ
ÏĨÏį Î»Î±Îº
ĠÎłÏģÎµÏĥ ÏĢÏİÎ½
Î¸Î± Î¯ÏģÎµ
ĠÎĶÎ¹ÎµÏħÎ¸ÏħÎ½ ÏĦÎ®ÏĤ
ÎķÏĢÎ¹Ïĥ ÏĦÏģÎ¿ÏĨÎ®
ĠÏĦ Î®Î½
ĠÎ´Î¹Î± Î²Î®ÏĦÎ·
ÎłÎ±Î³ ÎºÏĮÏĥÎ¼
ĠÎµÎ½Ïħ Î´
ĠÎĨ ÏģÎ±
ĠÏĨ ÏģÏĮÎ½
Î¸ÏģÏī ÏĢÎ¿
ĠÎŁÏģÎ¸ Î¿Î´Î¿
ĠÏħÏĪÎ· Î»Î¿Ïį
Î»Î± ÏĥÏĥ
al k
ÏĨ ÏĦÎ·ÎºÎµ
ĠÎĳÎ½Î±ÏĦÎ¿ Î»Î¹ÎºÎ®
ĠÏĥÏį Î¼Î²Î¿Ïħ
ĠÎ§Î± ÏģÎ±ÎºÏĦÎ·
ĠÎ¼ÎŃ Î³
ÎĺÎµ ÏĥÏĥÎ±Î»Î¿Î½
it h
ĠÏĩÎ±Î¼Î¿ Î³Îµ
Ïį Î»Î¹Î¿
Î»Î· Î¸Î¿ÏįÎ½
ĠÎ£ ÏĦÎ¿Ïħ
ĠÏĥÏħÎ½Îµ ÏĢÎ¬
ĠÎºÎ¹Î½Î· ÏĦÎ¿ÏĢÎ¿Î¯Î·ÏĥÎ·
ĠÏĦÎŃÏĦÎ±Ïģ ÏĦÎ¿
ĠÏĢÎ¬Ïģ ÎºÎ¿
Î¹Î± Î¶ÏĮÎ¼ÎµÎ½Î±
E C
Î¯ÏĥÏĦÎ±Î½ ÏĦÎ±Î¹
Î³Îº ÏģÎ¹ÏĥÎ·
ĠÏĦÏĥÎ¬ Î¹
ÎºÎ¹ Î³Î¹Î¬
ĠÎ±Î¹Ïĥ Î¹ÏĮ
tern ational
ÎºÏģ Î¯Î½
ĠÎĶÎ¹Î¿Î¹ÎºÎ· ÏĦÎ¹ÎºÏĮ
ÏĥÏĦÎ¿ Î»Î®ÏĤ
Ïī Î¼ÎŃÎ½Î¿ÏĤ
ÎķÏħ ÏģÏīÏĢÎ±ÏĬ
ĠÏĦÎ¿ÏħÏģÎº Î¹ÎºÏĮ
ĠÏĦÎ· Î³Î±Î½
ĠÎµÏĢÎµÎ½Î´Ïį ÏĥÎµÏīÎ½
ĠÎ¹Î´Î¹ ÏĮÏĦÎ·ÏĦÎ±
ĠÎ² Î»Îµ
ĠÎ¼ÎµÏĦÎ¿ ÏĩÎŃÏĤ
ĠÎ´Î¹Î± ÏĥÏĦÎ±
um ent
Î³Î¿ÏģÎµÏį ÎµÏĦÎ±Î¹
ÎºÏģÎ¹Î² ÏİÏĤ
ĠÏĨÏĦÏİ ÏĩÎµÎ¹Î±
ĠÎ´Î¹ÎµÎ¸Î½ ÏİÎ½
ĠÏĥÏħÎ½ ÏĦÏģÎ¿ÏĨ
ĠÎ±á½Ĳ ÏĦ
Î³ÏĮ Î½Î±
ĠÎ´Ïİ ÏĥÏī
ĠÎ´Î· Î»Î·
ĠÎĵ ÎŃÏģÎ¿Î½
ĠÎ± Î²
Î£ Î¿Ïħ
ĠÎ»Î¹ ÏĦÏĮÏĦÎ·ÏĦÎ±ÏĤ
Î¼Î¹ ÏĮ
ÎºÎµÎ¹ ÏĦÎ¿
ĠÎ¼Î¬ Î¸ÎµÏĦÎµ
ĠÎĶÎ·Î¼Î¿ ÏĥÎ¹Î¿
Î· ÏĦÎŃÏĤ
ĠÎ±Î³Î± ÏĢÎ®
ĠÎ²ÏģÎ¯ÏĥÎº Î¿ÏħÎ½
ÏĨÏĮ ÏģÎ¿Î¹
ÎĮ ÏĥÎ¿Î¹
' ,
ĠÎ³ Î½Î®
ĠÎ±ÏĢÎ±Î³ÏĮ ÏģÎµÏħÏĥÎ·
ĠÏĩÏĦÏįÏĢÎ· Î¼Î±
ĠÎ´Î·Î¼Î¿ÏĨÎ¹ Î»Î®
ÎŃ ÏĥÏĦÎ·
ĠÎķÏĢÎ¹ÏĩÎµÎ¹ ÏģÎ®ÏĥÎµÏīÎ½
ĠÏĨÏħ Î»Î±Îº
oun t
6 3
ĠÏĥÏħÎ½ ÏĦÎ·
ĠÎ±ÎºÎ¿Ïį ÎµÎ¹
ĠÎ±Ïħ ÏĦÎ·
Î¼Î±Î½ ÏĥÎ·
ĠÏĢÎ±ÏģÎ¬ Î½Î¿Î¼
ĠÎ² Î¬Î¶Î¿ÏħÎ½
Ġ0 2
ĠÏĥÏħÎ¼ÏĢÎµÏģÎ¹Î»Î±Î¼Î²Î±Î½Î¿ Î¼ÎŃÎ½ÏīÎ½
ĠÎ±ÏĥÏĦÏħÎ½Î¿Î¼ Î¹ÎºÏİÎ½
ĠA t
ĠÎµÏģÏī ÏĦÎµÏħ
ÎºÎµÏħ ÏĥÎ·ÏĤ
Î¼Î® Î½Î¿Ïħ
ÏģÏĮ ÏĢÎ¿ÏħÎ»Î¿ÏĤ
ĠÎ± Î»Î¿Ïħ
ĠÎµÏĢÎ¹ÎºÎ¯Î½Î´Ïħ Î½Î·
ĠÎµÎºÎµÎ¯ Î½ÏīÎ½
ĠÎĸÏī Î®ÏĤ
Î²Î¹Î¿ Î¼Î·ÏĩÎ±Î½
Î²Î¬ Î»Î±
ĠÎºÎ¿Î¹Î½ÏīÎ½ Î¯ÎµÏĤ
ĠÏĢÎµÏģÎ¹Î¿ Î´Î¹ÎºÎ¿Ïį
ĠÎŃÎ½Î±Ïģ Î¾Î·ÏĤ
ĠÎ¿ÏģÎ³Î±Î½ Î¹ÏĥÎ¼ÏĮÏĤ
Î¼ÏĮ ÏĦÎµÏģÎ¿
vi ew
ĠF ran
Î¼ Î¼Î¬ÏĦÏīÎ½
ĠÏĦÎ¿ÏħÏģÎ¯ ÏĥÏĦÎµÏĤ
ĠÎ¾ÎµÎºÎ¯Î½Î· Î¼Î±
ĠÎ¹ÎºÎ±Î½ ÏĮÏĦÎ·ÏĦÎµÏĤ
ĠÏĢÏģÎ¿ ÏĥÎµÎ»
ĠÎ±Î½Î¸ÏģÏİÏĢÎ¹ Î½Î±
ĠÎŃ ÎºÎ¿
ĠÏĥÏĩÎŃ ÏĥÎ·ÏĤ
ĠÏĩÏģÎ¿Î½ Î¹ÎºÎ¬
ĠÏĥÏĩÎµÎ´Î¹Î± ÏĥÎ¼Î¿Ïį
ĠÎ±Î½ÏĦÎ¹ Î¿
ĠÎĹ Î»Î¯Î±
ĠÎ¤Î± Î¼ÎµÎ¯Î¿Ïħ
ĠÎ¹Î´ÏģÏį Î¼Î±ÏĦÎ±
ĠÎµÎº Î¸ÎŃÏĥÎµÎ¹ÏĤ
Î® ÏĥÎ¿Ïħ
ĠÎµÎ½ÏĦÎ¿ Î»ÎŃÏĤ
ĠÎ± ÏĦÎ¶
Î»ÎŃ Î±
ĠÎ´Î¹Î´Î¬ ÏĥÎº
Ġ9 9
ĠÎ±Î½ÎŃ ÏĥÎµÎ¹ÏĤ
ĠÎµÎºÏĢÎ±Î¹Î´ÎµÏħ ÏĦÎ¹ÎºÎ¿Ïį
Î¤ÎĻÎļ Î©ÎĿ
ĠÎ±ÎºÏģÎ¿ Î±
ĠÎĵÎµÎ½ Î¹ÎºÏĮÏĤ
ÏĦÎ¹ Î¬Î»
ĠÏĢÏģÎ¿ÏĥÎ±Ïģ Î¼ÏĮ
Î´Ïħ Î½Î·
ÎĶ Î¹Îº
Î³Î® ÏĦÏģÎ¹Î±
ĠÎłÏģÏİ ÏĦÎ·
Î¼ Î¯Î¶ÎµÎ¹
ĠÎºÎ±ÏĦÎ± Î¸ÎŃÏĥÎµÎ¹ÏĤ
ĠÎ±Î³ÏīÎ½Î¹Ïĥ ÏĦÎ¹ÎºÏĮ
ĠÎ£Î§ ÎŁÎĽ
ĠÎ»Î±ÏĬ Îº
ÏģÎ¿Ïħ ÏĨÎ¬
ĠÏĥÏħÎ½ Î¹Ïĥ
ĠÏĪ Îµ
ĠÏĥÏĦÏĮ ÏĩÏīÎ½
an a
Îĵ ÏģÎ±
k e
ĠÎłÎ¿Î» Î»Î¿Î¯
ĠÎĽ Î®
ĠÏĦÎµÏģÎ¬ÏĥÏĦÎ¹ ÎµÏĤ
Î´ÏģÎ± Î¼Î±
ĠÏĩÏī ÏģÎ¿
Îľ Î¿ÏħÏĥ
ĠÎ¿ Î¹ÎºÏĮ
Î¶ÏĮ Î¼ÎµÎ½Î¿Î¹
ĠÎ²ÎŃ Î²Î±Î¹Î¿
ÏĢÎ¬ ÎºÎ¹
Î¤ ÎķÎĻ
ĠÏĨÎ¬ ÏĥÎµÎ¹ÏĤ
ĠÏĢÎ¬ ÏģÎ¿
ĠÎ¦Î»Ïİ ÏģÎ¹
ĠÎ± Î»ÎµÏįÏģÎ¹
ĠÎĴÎ±Î» ÎºÎ¬Î½Î¹Î±
ĠÎµÎ¼ÏĢ Î½ÎµÏħÏĥ
ÏĢ ÏģÎµ
ĠÎ±Î½ÏĦÎ¹Î¼ÎµÏĦÏī ÏĢÎ¹Ïĥ
ĠÏĦÎ¿ÏĢÎ¿ Î¸ÎŃ
Î´ÏģÎ¿ Î¼Î¿ÏĤ
ĠÎ¬Î¾Î¿ Î½Î±
ĠÎ½ ÏĦÎ±
ĠÎĳ Îº
sc anner
ĠÎ±ÏĢÎ¿Î»Ïį ÏĥÎµÎ¹ÏĤ
ĠÎµÎ¼ÏĢÎ¹ÏĥÏĦÎ¿ ÏĥÏįÎ½Î·ÏĤ
i at
ĠÎķ ÎĻÎĶ
ĠÎķ Î½Î·Î¼ÎŃÏģÏīÏĥÎ·
ĠÏĥÏĦÎ· ÏģÎ¯Î¶ÎµÏĦÎ±Î¹
ĠÎ¼Î¿ÏħÏĥ ÎµÎ¯Î¿
ĠÎ£ÏħÎ½ ÏĦÎ¿Î½
ĠÏĨ ÏĮÎ½
Î¹Îº ÎµÏĤ
ĠÏĢÎ±ÏģÎ¿ÏħÏĥÎ¹Î¬ ÏĥÎµÎ¹ÏĤ
ĠÎ²Î± ÏģÎµ
ĠÎ¤ Î©Î¡Îĳ
ĠÎł ÏģÎ¿ÏĤ
ĠÎºÎ±ÏĦÎ¿Î¹Îº Î¯Î±ÏĤ
ĠÏĩÎ¸ÎµÏĥÎ¹ Î½Î®
ĠÎ¦ÎµÎ²ÏģÎ¿Ïħ Î¬ÏģÎ¹Î¿
ĠÏī ÏģÏİÎ½
ĠÎŃ Î¼ÎµÎ¹Î½Î±Î½
ĠÎ±ÏĢÎ¿ ÏĨÏħÎ³Î®
Ġ199 6
ĠÎ´Î¹ÎºÎ±Ïĥ ÏĦÎ®ÏģÎ¹Î±
Î¼ ÎµÎ¹Î±
ĠÏĥ ÏĢÎ¿
ĠÏĢÎ¯ ÏĥÏĦÎµ
ĠÎºÏģÎ¬ ÏĦÎ·ÏĥÎµ
ĠÎļÎ± ÏĦÎµÏģ
Ġ up
Î¬Ïĥ Î¿ÏĤ
ĠÎ±Î½Î± ÏĢÎ±ÏģÎ¬
Î»Î· ÏĦÎŃÏĤ
ĠÏĥÏħÎ¼Î¼ÎµÏĦÎ¿ ÏĩÎŃÏĤ
ĠÎł Î¹Ïĥ
ĠO r
ĠÎµÏĢÎ¹ÎºÎ¿Î¹Î½ÏīÎ½ Î®ÏĥÏĦÎµ
ÏĢ Î»ÎµÏĤ
Î½Î· ÏĥÎ¯Î±
ÏĢ Î»Î¹Ïĥ
ĠÏĢÎ¿Î»Ïħ ÎµÎ¸Î½
ĠÎĺÎ¬ Î»Î±
ĠÎ±ÏħÏĥÏĦÎ· ÏģÎ¬
ĠÎ±Î½Î± Î»Î¿Î³
ĠÎ±Î¹ ÏĨÎ½
Îĳ Î¹
ĠÎ¼Î¬ ÏĩÎµÏĤ
ÎĴ ÎŃÎ²Î±Î¹Î±
Î¤ ÏĮÏĦÎµ
ĠÏĢÎµÏģ Î½
Î¾ Î¬
ĠÎºÎ±ÏĦÎ¬ Î»Î±Î²Î±
ĠÎ»Î± ÏĦÏģÎµÏį
ĠÎ® Î»Î¹Î¿ÏĤ
ĠÎµÎ½ Î´ÎµÎ¯Î¾ÎµÎ¹ÏĤ
Ġ5 1
Î»Î¿Î³ Î¹ÏĥÎ¼ÏĮÏĤ
ĠÎľÎ¿ÏħÏĥ ÎµÎ¯Î¿Ïħ
ĠÎ¼ÎµÏĦÎ± Î¼Î¿ÏģÏĨ
ĠÎºÎ±ÏĦÎ± Î»Ïį
ĠÏĨ Î»ÏĮÎ³
ĠÎ±Î¹ÏĥÎ¸Î· ÏĦÎ¹ÎºÎ®
ÎŃÏģ ÎµÏĤ
ĠÏĨÎ¹Î»Î¿Î¾ÎµÎ½ ÎµÎ¯
ĠT imes
Î´ÏĮ ÏĦÎ·
ĠÎ±ÏĢÎ± Î³Î¿ÏģÎµÏħ
ĠÏĦÎµÎ»ÎµÎ¯ ÏīÏĥÎµ
ĠÎµÎ¯ÏĢÎ± Î¼Îµ
ĠC ook
ĠÎºÏħ Î¼Î±
ĠÎ¼Îµ Î»Î¹Ïĥ
ĠÎĳÎ¹Î³ ÏįÏĢ
ĠÏĢÎµÏģÎ¯ÎµÏģÎ³ Î¿
ĠÏĢÎ»Î® ÏģÎµÏĤ
it es
ĠÎ±Î½ ÏħÏĢÎ¿
ĠÎ± Î³Îº
Ġ6 7
ĠÏĦÎ±Î»ÎŃ Î½ÏĦÎ¿
ĠÎµÎ½Î´Î¹Î±ÏĨÎŃÏģ Î¿ÏħÏĥÎ±
ĠÎ´Î¹Î± Î²Î¿Ïį
ĠÎ¤ Î±Î³
ĠÎ£Ïį ÏĥÏĦÎ·Î¼Î±
ĠÎŁ ÎłÎĳÎł
ĠÏħÏĢÎ¿Î»Î¿Î³ Î¯Î¶ÎµÏĦÎ±Î¹
ĠÏĩÏģÎ® Î¼Î±ÏĦÎ¿ÏĤ
ĠÎºÎ±ÏĦÎ± ÏĨÎŃ
ĠÎ¾ÎµÏĩÏīÏģÎ¹Ïĥ ÏĦÎ¬
Î¦ Î¿
ÏģÎ¸ ÏģÎ±
ĠÎºÏģÏį Î²ÎµÎ¹
ĠÎºÎ± Î»ÎµÏĥ
Î±Ïħ ÏĦÎ¿
ĠÎ´Î¹Î± Î´Î¿
ĠÏĥÏħÎ¼Î¼ÎµÏĦÎ¬ ÏĥÏĩÎ¿ÏħÎ½
ĠÎ±Î½Î¸ÏģÏī ÏĢ
ĠH ar
ÏģÎ¹Î± ÏĤ
ĠÏĦÏģÎ± Î²Î®
Î³Îº Î¿Ïį
ĠÎľÎ± ÏĬ
ĠÎľÎ·ÏĦÏģÎ¿ÏĢÎ¿Î»Î¯ ÏĦÎ·ÏĤ
ĠÎĴ ÏģÎ¯
Î¡ Ïī
ĠÏĢÎµÏģÎ¹ ÎµÎº
ĠÎµÏĦÎ¿Î¹Î¼Î¬ Î¶ÎµÏĦÎ±Î¹
ĠÎµÎ»ÏĢ Î¯Î´ÎµÏĤ
ĠÎ»Î¹Î³ ÏĮÏĦÎµÏģÎ±
ĠÎµÎ¾Î¿ÏĢÎ»Î¹Ïĥ Î¼Î¿Ïį
ÎºÎ±Î½ ÎµÏĤ
ĠÏĢÎ»ÎµÎ¿Î½ ÎŃÎºÏĦÎ·Î¼Î±
ĠÎķ Îĳ
Î¹Î± ÎºÏĮÏĤ
ĠÎļÎ¹Î½Î· Î¼Î±ÏĦÎ¿
ĠÎºÎ±ÏĦÎµÎ²Î¬ ÏĥÎµÏĦÎµ
ÎĳÎºÎ¿Î»Î¿Ïħ Î¸Î®ÏĥÏĦÎµ
Ïĩ ÏĦÎ·
ÎºÎ¹Î³Î¹Î¬ Î¶
u ck
ap h
Î¾ Î®ÏĤ
ĠÎµÏħÏĩÎ¬ ÏģÎ¹ÏĥÏĦÎ·
ĠÎ³Î¿Î½ Î¹
Ġnews letter
Îµ Ïĥ
ĠÎ± Î½Î¿Î¹
Î»Îµ ÎºÏĮ
ĠÏĦÎµÏĩÎ½Î¿ Î»Î¿Î³Î¯ÎµÏĤ
ÏģÏĮ ÏĨ
Îĵ Îķ
ÎĳÎĻ ÎĿ
ĠÎ±Î½Î±Î¶Î· ÏĦÎ¿ÏįÎ½
ĠÎµÏĢÎ¹Î´ÎµÏģ Î¼Î¯Î´Î±
ĠÏĨÏĦÎ¬ ÏĥÎ¿ÏħÎ½
ĠÎľÎŁÎĿ ÎŁ
ÎĽ ÎĻÎĳ
ĠÏĢÎµÏģÎ¹ÏĢÎŃ ÏĦÎµÎ¹Î±
ĠÏĢÏģÎ¿Ïĥ ÏĨÎŃÏģÎ¿Î½ÏĦÎ±ÏĤ
ĠÎ±Î½ÏĦÎ¹ÏĢÏģÏĮ ÎµÎ´ÏģÎ¿ÏĤ
Î¬Î¶ Î±
ĠÎĵÏģÎ±Î¼Î¼Î± ÏĦÎŃÎ±ÏĤ
ÎĳÎ½Î± Î»ÏħÏĦÎ¹ÎºÎ¬
ÎŁ Î´Î·Î³
ÏĦ ÏģÎµÎ¯Î±
ĠÏĨÎ±Î½ ÎŃÎ»Î±
ÏĦÎ¬Ïģ ÏĦÎ·
Ïĥ ÏĩÎ·Î¼Î±
ĠF l
Îł Î¡ÎŁ
ĠÎµÏĢÎ±Î½Îµ Îº
Îµ ÏĦÎ¯Î±ÏĤ
ĠÎµÎ½ Î´Î¹Î¬
ĠÎŃ Î»ÎµÎ¹
ĠâĢ Ŀ
ĠÎłÎ±Î»Î±Î¹ ÏĥÏĦ
ĠÏĢ Ïģ
ĠÎ±ÏĥÏĩÎ¿ Î»Î¿ÏįÎ½ÏĦÎ±Î¹
ĠÏĥÏħÎ½ÎµÏĩ Î¹ÏĥÏĦÎµÎ¯
ĠÎµÎ³Îº Î±Î¹Î½
ĠSky scanner
ĠÎº ÎµÎ½Î¬
ÏĢ Î»ÏīÎ¼Î±
ĠÎ±ÏĢÎ¿ Î¸Îµ
ĠÎ± ÎŃÏģÎ¹Î¿
ĠÎ±ÏĢÎ¿Îº ÏĦÎ®ÏĥÎ¿ÏħÎ½
ÏĦÏĥÎµ Î»ÏĮÎ½Î±
ĠÎ±ÏĥÎ¸ÎŃÎ½ ÎµÎ¹ÎµÏĤ
ĠÎ±ÏĢÎ¿ Î´ÎµÎ¹ÎºÎ½ÏįÎµÎ¹
ĠÎ±Ïģ ÏĥÎµÎ½
ĠÎĿÎ¹ÎºÏĮÎ»Î± Î¿ÏĤ
Îł Î±Î¹
ÏģÎ¿Ïħ ÏĥÎ±
Ġ en
ĠÏĥÏħÎ½Îµ ÏĢÏİÏĤ
ĠÎµÏĢÎŃ ÏĦÎµÎ¹Î¿
Î¿Î½ ÏĦÎ¬ÏĤ
ÎºÎ¬ Î»Î±
ÏĦÎ¹Ïĥ Î¼ÎŃÎ½Î·
ĠÏĢÎŃÏĨ ÏĦÎ¿ÏħÎ½
ht ml
ĠÏĮÏģÎµ Î¾Î·
ĠÎ¡Ïİ Î¼Î·
ĠÎ´Î¹Î±Î¸ÎŃ ÏĥÎ¹Î¼Î·
ĠÏĢÎ»Î· ÎºÏĦÏģÎ¿
ÏĩÎµÎ¯ ÏģÎ¹ÏĥÎ·
ĠÎ²ÏģÎ¹ÏĥÎºÏĮ Î¼Î±ÏĥÏĦÎµ
Î¼Î² Î¿Ïį
Î³ÏģÎ±ÏĨ Î·
" !
ĠÎĴÎ¹Î²Î»Î¹Î¿ Î¸Î®ÎºÎ·
ÏģÎ± ÏĥÏĦÎ·
ĠÎµÎ¼ÏĨÎ¬Î½ Î¹ÏĥÎ®
Î»Î¿Î½ ÏĦÎ±ÏĤ
ĠÎ´Î¹Î± ÏĦÏħÏĢ
Ïģ Î¹ÎºÎ±
ĠÏĢÎµÎ¸ Î¬Î½ÎµÎ¹
ĠÏĥÏħÎ¼ÏĢÎ»Î® ÏģÏīÏĥÎ·
ĠÎł Î½ÎµÏħÎ¼Î±
ĠÎºÎ±ÏĦÎ±Î½Î¬Î» ÏīÏĥÎ·ÏĤ
ĠÏĦ Î¼Î·Î¼Î¬ÏĦÏīÎ½
ÎĲ Î±
ĠÎµ Î´Î±
ĠÎµÎ³Îº ÏįÎº
ĠÎ¼ÎµÏĦÎ±Î½Î± ÏĥÏĦÎµÏħ
y s
ÏĢ ÏģÎ±Î³Î¼Î±
ĠÏĩÏİ ÏģÎ¿Î¹
ĠÎ±Î½Î±ÏĦÎ¿ Î»Î¹ÎºÎ¬
ĠÎ±Î» Î»Î¿Î¹
ÏģÏİ Î¼Î±ÏĦÎ¿ÏĤ
ĠÎ¼Î±Ïį ÏģÎ±
ĠÎĿ Î¹ÎºÎ¿
3 00
arket ing
ÏĨÏħ Î»Î»Î¿
em ent
ĠÎ¼Î¬ Î¸Î¿ÏħÎ½
ÏĢÎ¿Î¹Î· Î¼ÎŃÎ½Î·
ĠÎ³ Î¯Î½Î¿ÏħÎ¼Îµ
ÏĥÎºÎµÏħ Î±Ïĥ
ĠÎºÎ· ÏģÏį
ĠOn line
ĠÎ¿Ïħ ÏĥÎ¹ÏİÎ½
ĠÎ±Î¾Î¹Î¿Î¸ÎŃÎ± ÏĦÎ±
ĠÎµÏĢÎ¹ ÏģÏģÎ¿Î®
Ïħ Î¼Î¯Î±
á¼ ±
Î´Î± Î¯Î±
ĠÎ±ÏĨ Î¹Îµ
ĠÎ¹Î´ Î¹ÏİÏĦÎµÏĤ
ĠÎłÎ±Î½ÎµÎ»Î»Î® Î½Î¹Î¿
Î¿Î½ ÏĦÎ¿
ĠÎļ ÎµÏģ
l in
Î»Ïī Î¸ÎµÎ¯
ÏĦÎ¿Î¹ ÏĤ
ĠÏĢ Î±Î½Î¬
ĠE r
Ïģ Î¾Î·
ĠÏĢÎ»Î¿Ïį ÏĦÎ¿
8 9
ĠÎ¼Î¹Ïĥ Î¸ÏĮ
Î£Î· Î¼Î±Î½
ĠÎļÎµÏĨÎ± Î»Î¿Î½
ĠÎ¼Ïħ Î¸Î¿
ĠÎĽÎµÎ¹ÏĦÎ¿ÏħÏģÎ³ Î¯Î±
ĠÎĳÎ½ÎµÎ¾ Î¬ÏģÏĦÎ·
ĠÎ²Î»Î¬Î² Î·
ĠÎ±ÏĢÎ¿ÏĨÎ±Ïĥ Î¯Î¶ÎµÎ¹
ĠÎ»Î¿Î³Î¹Ïĥ Î¼Î¹ÎºÏĮ
ĠÎļÏħÏĢ ÏģÎ¹Î±ÎºÏĮ
ĠÎ¦ Î¸
ĠM c
ĠÎµÏĢÎµ ÏģÏĩ
Îļ Ïī
Î¸ÏģÎ± ÎºÎ±
ĠÎ±ÏĢÎŃ ÎºÏĦÎ·ÏĥÎµ
ĠÏĥÏįÎ½ Î½Îµ
ĠÎµÏĢÎ¹ÏĥÎºÎµ ÏĪÎ¹
Î»Î® ÏĦÏģÎ¹Î±
ĠÏĢÎ±Î¹ ÎºÏĦÏİÎ½
ĠÎºÎ±Î½ÏĮ Î½Î±
ĠÏĥÎ¬Î» ÏĦÏĥÎ±
ĠÎłÎ¿ Î¹Î¿Î¹
ĠÎ³ÎµÎ³Î¿Î½ÏĮ ÏĦÏīÎ½
ĠÎ±Î½ÏĦÎ± Î»Î»Î±Î³Î®
ĠÏĥÏĦÎ±Î¸Îµ ÏģÏĮÏĦÎ·ÏĦÎ±
ĠÏĨÏī ÏĦÎµÎ¹
o z
ĠÎ½Î¿ÏĥÎ· Î»ÎµÏħ
Î¼Î¿ Î½Ïİ
ĠÎµÏĢ Î±Î³Î³ÎŃÎ»
ĠÏĩÎµÎ¹ÏģÏĮ ÏĦÎµÏģÎ·
ĠÏĨÎ¸ Î¹Î½ÏĮÏĢÏīÏģÎ¿
ĠÏĢÏģÎ¿Î¼Î® Î¸ÎµÎ¹Î±
ĠÏĦ Î¶Î¬
ĠAirb nb
Ïį Î·
ĠÎłÎ±Î½Î±Î³ Î¯Î±
w are
ĠÎµ ÏĦÎ·
ĠÎłÎµÎ»Î¿ ÏĢÏĮÎ½
Î¿Î½ ÎµÏĤ
ĠÎ¹Ïĥ ÏģÎ±
ĠÎ±ÏĢÎ¿Ïģ ÏģÎ®ÏĦÎ¿Ïħ
Ġ5 3
ÏĦ ÏģÎ·ÏĤ
ĠÎ´Î¹Î´Î±ÏĥÎºÎ± Î»Î¯Î±ÏĤ
ĠÎ±ÏģÎ½Î· ÏĦÎ¹ÎºÎ®
ĠÏĢÎµÏģÎ¹Î¿ Î´Î¹ÎºÎ¬
ĠÏĢÎ»Î·ÏģÎ¿ ÏĨÎ¿ÏģÎ¯Î±ÏĤ
ĠÎ¡ ÏĮÎ´Î¿
ĠÏĨÎµÏį Î³ÎµÎ¹
Î»Î® Î½Î·ÏĤ
ĠÏĢÎ±ÏģÏĮ Î»Î¿
ÎĶ ÎĹÎľ
ĠÏĦÎµÎ»ÎµÏħÏĦÎ± Î¯Î¿ÏħÏĤ
Î³ Î¯Î±
ĠÎ±ÏĢÎ¿Îº ÏĦÎ¬
b ank
ĠÏĦÎ¿Ïħ ÏģÎ¹ÏĥÎ¼ÏĮ
ÏĥÏĦ ÏīÏĤ
ĠÏĦ ÏģÎ¹Î±
ĠÎ± ÏĦÎµ
ĠÏĢÎ¿Î¹Î· ÏĦÎ®ÏĤ
Îł Î±Î½Î±
ĠÎĹÏģÎ±Îº Î»Î®
ÎĽ Î¬
ĠÏĩÎ¹Î¿ Î½Î¿
ĠÎ±ÏĢÎ¯ÏĥÏĦÎµÏħ ÏĦÎ·
Î½Î¿Î¼ Î¯Î±ÏĤ
lo b
ÏĦÎ¹ Î¼Î±
ĠÎ»Î¯ Î³Î¿Î¹
Ġ0 3
i as
ĠÎļÎ± ÏĦÎ¬Ïģ
ĠÎĳÏĢÏĮÎ»Î» ÏīÎ½Î±
ĠÏĨÏī ÏĦÏĮÏĤ
ĠÎ³ÏģÎ¬ ÏĪÏī
ĠÎķ Î½ÏĮÏĦÎ·ÏĦÎ±
Î¤Îķ Î¡Îĳ
ĠÎ² Î¹Ïī
ĠÎļ Î»ÎµÎ¹
ĠÎ´Î¹Î±Î¸ÎµÏĥÎ¹ Î¼ÏĮÏĦÎ·ÏĦÎ±
ĠÎĽ Î±Î³
ĠÏĢÎ±ÏģÎ± Î´ÎŃ
ĠÎ¸Î± Î»Î±Ïĥ
Ïĥ ÏĥÎ¿
ĠÏĨÎ¿ÏģÎ¿ Î´Î¹Î±
ĠÎµÏĢÎ± ÏģÏĩÎ¯Î±
ĠÏĢÏģÎ¿ÏĥÎµÎ» ÎºÏį
ĠÏĢÏģÎ¿ÏĢÎ±Î³ Î¬Î½Î´Î±
ĠÎ¿Î¼Î¿ Î»Î¿Î³
ĠP ar
ÏģÎµÏħ ÏĥÎµ
ĠÎ·Î³ÎŃ ÏĦÎ·
ĠÎ¸ Î»Î¹
ĠÎ¼ÏĢÎ¿ ÏĨÏĮÏģ
ĠÎµÎ¹ÏĥÎ¹ ÏĦÎ®ÏģÎ¹Î¿
ĠÎ±ÏĢÎ¿Î´ÎµÎ¹ÎºÎ½Ïį ÎµÏĦÎ±Î¹
ĠÏĢÎŃÎ½Î±Î» ÏĦÎ¹
ĠP orn
Îĵ Î¹ÏİÏģÎ³
ÏĪ Î¹Î½
ĠÎ¶Ïī Î·
ĠÏĮÏĢÎ¿ Î¹Î¿
ĠÏĥÏĦÎ¯ ÏĩÎ¿ÏħÏĤ
ĠÎķÏĢÎ¹Ïĥ ÏĦÎ·Î¼ÏİÎ½
S h
ĠÎĮ ÏĥÎ¿Î¹
ĠÎ±ÏĨÎ® Î½Î¿ÏħÎ¼Îµ
ĠÏĩÎ± Î¸ÎµÎ¯
Î¼ ÏīÏĥÎ·
ĠÎºÎ±ÏĦÎ± ÏĥÏĦÎ·Î¼Î¬ÏĦÏīÎ½
ĠÏĢÏģÎ±Î³Î¼Î± ÏĦÎ¹ÎºÏĮÏĦÎ·ÏĦÎ±ÏĤ
ĠÎ²Î¹ÏĦÎ±Î¼ Î¯Î½Î·
ÏīÎ½ÏĥÏĦÎ±Î½ ÏĦÎ¯Î½Î¿Ïħ
ĠÎ¼Î±Î¸Î· ÏĦÎ®
ĠÎĽÎµ Ïī
ĠÏĨÎµ ÏĦÎ¹Î½ÏĮ
âĢ¦ ..
ĠÎ½Î±Ïħ ÏĦÎ¹
ĠÎŃ Î½ÏīÏĥÎ·
ĠÎºÎ¿Î¹ Î»Î¹Î¬
ĠÎµÎ¾Î±Î³ Î¿ÏģÎ¬
ĠÏĢÏĦÎ® ÏĥÎ·
ĠÎµÎ¾Î±ÎºÎ¿Î»Î¿Ïħ Î¸Î¿ÏįÎ½
ĠÎ§ ÏģÎµÎ¹Î¬Î¶ÎµÏĦÎ±Î¹
ĠÎ¾Îµ ÏĩÎ½
ÏĢ ÏĦÎ·ÏĤ
ĠÏĦÎ¿ Î¹ÏĤ
Î¼ÎŃÎ½ ÏĦÎ¿
ĠÎºÎ¿ ÏĦÏĮÏĢÎ¿ÏħÎ»Î¿
ÎºÎ¬ ÏĤ
ĠÎ±ÏĢÎ¿ ÏģÎ¯Î±
ÏģÎ¯ Î»ÎµÏģ
ĠÏĥÏħÎ³Î³ÏģÎ±ÏĨ ÎµÎ¯ÏĤ
E G
ir t
ĠÏĢÎ±ÏģÎ±Î´Î¿ÏĥÎ¹Î± ÎºÏĮ
ĠÏĦÎ± Ïį
ĠÎ· Î»Î¯
ĠÎĽÏį ÎºÎµÎ¹Î¿
ĠÏĥÏĦÎ±Î¼Î¬ ÏĦÎ·ÏĥÎµ
ĠÎµÎ½ÎµÏģÎ³Î¿ ÏĢÎ¿Î¹
Î»ÏĮÎ³ Î¿Î¹
ĠÏĦ o
O T
Ïĩ Î¬Î½
ĠÏĢÎ±ÏģÎ¬ Î´ÎµÎ¹
ĠÎŁÏħÎºÏģÎ± Î½Î¯Î±
ĠÎ¸ Î¯
ĠÎĪÎºÏĦÎ± ÎºÏĦÎ·
ĠÎµ Î»ÎµÎ³Îº
ic t
it t
ÏĥÏĦÎ± ÏĦÎ·
ĠÎµÎ¼ÏĢÏĮ Î´Î¹Î±
ÏģÏĩÎ® ÏĥÏĦÏģÎ±
out ube
ĠÏĢ ÏģÎ¹
ĠÎµÎ¼ÏĢÎ¿ ÏģÎ¹ÎºÏĮ
ĠÎ²ÏģÎ± Î²ÎµÎ¯Î±
Î£ Î¤Îĳ
Îĺ ÎŃÎ»
Î¹Î¿ ÏģÎº
ÎŃ Îº
ĠÎĶÎ¹ÎºÎ±Î¹Î¿ ÏĥÏįÎ½Î·
ĠÏĢÏģÎ¿ ÏĦÎ¿Ïį
ĠÎł ÏģÎ±Î³Î¼Î±
ÏĦÏģÎ¹ ÏİÎ½
ÎºÎ¿ Î»Î¿
ĠÎ¼ÎŃ ÏĥÎ¿ÏĤ
e ece
ĠÎºÎ¬Î½ Î½Î±
ĠÎ±Î´Ïį Î½Î±ÏĦÎ¿
ĠÎ§ Î©
ÏĦÎ¹Ïĥ Î¼Î¿Î¯
ĠÎ¿ Î¼ÏİÎ½
ĠÎ±ÏĨ ÎµÎ½ÏĮÏĤ
Î¸ ÏĮÏĤ
Î´Î¬ ÎºÎ¹Î±
ĠÎ´Î·Î¼Î¿ÏĥÎ¹ÎµÏħ Î¸ÎµÎ¯
ĠÏĢÎ¿Î¯ Î·Î¼Î±
ĠÎ³ÎµÎ½ Î¹ÎºÎŃÏĤ
Î¾Î¹ ÏīÎ¼Î±
ĠÎ±Î¾ Î¹ÏİÎ½
ÎĻÎļ ÎŁÎ£
Îĳ Î¾Î¯Î¶ÎµÎ¹
ĠÎºÎ±ÏĦÎ±Ïĥ ÏĦÏģÎ¿ÏĨÎ®ÏĤ
Î´Î· Î»Î±Î´Î®
ÏĦÎ¯ ÏĥÏĦÎ·ÎºÎ±Î½
ĠÎĶÎ¹Î¿Î¹ÎºÎ· ÏĦÎ¹ÎºÎ¿Ïį
ĠÎ¤Î¶ ÎŃ
ÏĥÎ¹Î± ÎºÎŃÏĤ
ĠÎ¤ÎµÏĦÎ¬Ïģ ÏĦÎ·ÏĤ
ĠÏĥÏĦ ÏģÎµÏĤ
ĠÎ¼ÎµÎ¯ ÏīÏĥÎ·ÏĤ
ĠÎ³ÏģÎ±Î¼Î¼ Î®ÏĤ
ĠÎ½Î¿Î¼ Î¹ÎºÎ¬
ĠÏĥÏį Î¼ÏĨÏīÎ½
ĠÎĳ Î³Î±
ĠÏĥÎ± Îº
Î¿Î»ÏĮÎ³ Î¿Î¹
e ed
ĠÎ£ ÎºÎŃ
ĠÎ»Î±Î½Î¸ Î±Ïĥ
ÏģÎ¹ Î½Î¿ÏįÏĤ
Î½Î¿Ïį ÏĥÎ±Î½
Îļ Î±Ïģ
ĠÎµÏĢÎ·ÏģÎµ Î¬Î¶Î¿ÏħÎ½
ĠÎ³ÏģÎ±ÏĨ ÎµÎ¯Î¿Ïħ
ĠÏĥÏĢÎ¿ÏħÎ´Î± Î¯Î±
Î¼ Î½Î¿Ïħ
ĠÎ¼ÎŃÎ³Î¹Ïĥ ÏĦÎ·
ĠÎµÏģÎ³ Î¬ÏĦÎµÏĤ
Î¤Îķ Î¥
ĠÏĢÎµÎ¹ ÏģÎ±
ĠÏĥÏĦÎ± Ïħ
ĠÎ»Îµ Î³ÏĮ
e u
ĠÏĢÎ± ÏģÏİÎ½
eg a
ĠÎŁÎ»Î»Î±Î½ Î´Î¯Î±
ĠÎ±Î¯ ÏĦÎ·ÏĥÎ·ÏĤ
ĠÎ±ÏĢÎ±Î¹ ÏĦÎ¿ÏįÎ½ÏĦÎ±Î¹
ĠÎ´ÎŃ ÏĩÎ¸Î·ÎºÎµ
ĠÎ¸Îµ Î¼Î±
Î´ÏģÏĮ Î¼Î¹Î±
ÏĦÏĮ ÏĢÎ¹Î½
ĠÎµÏĨÎ±ÏģÎ¼ÏĮ Î¶ÎµÏĦÎ±Î¹
ÏĦÎµÎ¹ ÏİÎ½
ĠÎºÏģ Î¯Î½ÎµÎ¹
Î¼ÎŃÎ½Î¿Î½ ÏĦÎ±ÏĤ
ĠÎ·Î¼ÎµÏģÎ¿ Î»ÏĮÎ³Î¹Î¿
ĠÏĢÎ±ÏģÎ± ÏĦÎµ
ĠÏĪÎŃ Î¼Î±
ĠÏĢÎ±ÏģÎ± Î¼Ïħ
ĠGro up
ÏĦÎŃ Î»ÎµÏĥÎµ
ĠÎ´Î¹ÎºÎ±Î¹Î¿ ÏĥÏįÎ½Î·ÏĤ
ĠÎŁ Îł
ĠÎ¼Î±ÏĩÎ± Î¯ÏģÎ¹
w ard
ĠÏĢÎ±ÏģÎ¬ ÏĢÎ¿
ĠÎ±ÎºÎ¿Î»Î¿ÏħÎ¸Î® ÏĥÎ¿ÏħÎ½
Î´ÏģÎ¿ Î¼Î®ÏĤ
ĠÎ¼ÎµÏģ Î¹ÎºÎ¿ÏįÏĤ
le x
ĠÎ±Î½ÏĦÎ¹Î¼ÎµÏĦÏİ ÏĢÎ¹ÏĥÎ·ÏĤ
ĠÎ¥ÏĢÎ¿ ÏĥÏĦÎ®ÏģÎ¹
ĠÏĢÎ±ÏģÎ±Î¼Îµ Î¯Î½Î¿ÏħÎ½
ĠÎ±Î½ÏĦÎ¹Î¿ Î¾ÎµÎ¹Î´Ïī
ÎļÎ¬ ÏĦÎ¹
ĠÎ¿ÏĢ ÏĦÎ¹ÎºÎ®
ĠÏĩÎ±Î¼Î· Î»ÎŃÏĤ
ĠOff ice
Ïĥ ÏĥÎ¿ÏħÎ½
ĠÎ£ ÏĦÏĮ
ÏĦÎ¹Î½ ÎŃÏĤ
Î² Ïİ
* )
ĠÎ±Î½Î±Î³Î½Ïī ÏĥÏĦÏİÎ½
ĠÎĻÎ½ Î´Î¯Î±
ĠÎ¸ÎµÏģÎ¼Î¿ÎºÏģÎ± ÏĥÎ¯Î±ÏĤ
ÏĩÏİ ÏģÎ·
ĠD NA
ĠÎķ Îĵ
ĠÏĢÏģÏĮÏĥÏĨÎ± ÏĦÎµÏĤ
Ġ is
y st
ĠÎµÎ½Î¯ÏĥÏĩÏħ ÏĥÎ·ÏĤ
ĠÎ±ÏĢÎ¿ÎºÎ»ÎµÎ¯ ÎµÏĦÎ±Î¹
ĠÏįÏĢÎ±Ïģ Î¾Î·ÏĤ
ĠÎºÎ±ÏĦÎ¬ Î»Î·ÏĪÎ·
N ews
ĠÎ¸ÎµÏī ÏģÎ¿ÏįÎ¼Îµ
ĠÎ®Î¾Îµ ÏģÎµ
Ġl ink
Î¼Î® Î¸Î·ÎºÎµ
ĠÎµÏĢÎ¹Ïĥ Î®Î¼Î±Î½Îµ
ÏģÏİ ÏīÎ½
ĠÎĳ ÎĻ
Ïī ÏĦÎŃÏĤ
ĠÎ´Î·Î¼Î¹Î¿ÏħÏģÎ³ ÎµÎ¯ÏĦÎ±Î¹
ĠÏħÏĢÎ± Î¯Î¸
ĠÏģÎ¿ Î»ÏĮ
ĠÎ£ ÏİÎ¼Î±ÏĦÎ¿ÏĤ
erv ed
ĠÎ´ Î¯Î½Î¿ÏħÎ¼Îµ
Ġ6 4
ĠÎľÎ¹ÏĩÎ¬ Î»Î·
ĠÎ±Î³Î± ÏĢÏİ
ĠÏĢÎ±ÏģÎ¿ÏħÏĥÎ¹Î¬ ÏĥÏĦÎ·ÎºÎµ
ĠÎºÏħÎºÎ»Î¿ÏĨÎ¿ ÏģÎ®ÏĥÎµÎ¹
ĠÎ½ÏįÏĩ Î¹Î±
ÏĨÎµÏģÎµÎ¹Î¬ ÏģÏĩÎ·
ĠÎ¬ ÎºÏģÎ±
ÎºÎ¹ Î¼Î¬
Î¯ Ïģ
ĠÎľÎµÏĦÎ± ÏĨÎ¿ÏģÏİÎ½
ĠÏĢÎ±ÏģÎ¿ÏħÏĥÎ¯Î± ÏĥÎ·ÏĤ
Î¸Îµ Ïģ
ĠÎµÎ¼ÏĢ Î»Î¿ÎºÎ®
ÎķÎĽ ÎĻÎĶÎĳ
ĠSt reet
ĠÎ±Ïħ Î»Î®
Î»Î¯ ÏĦ
ĠÎĹ Î»Î¯Î±ÏĤ
ĠÎµÎ¹ ÏģÏīÎ½
Î¼Î± Ïħ
ĠÎ¼Î±Î¶ Î¹ÎºÎ®
ĠÏĢÎŃ ÏģÎ±ÏĤ
ĠÏĢÎ±ÏĦÏģÎ¯ Î´Î±ÏĤ
Îµ ÏĦÎ®
ĠÎ¼Î± Î»Î±Îº
Ïĥ ÏħÎ¼
ÏĦÎµ ÏģÎ¿Î¹
ĠÎ±ÏħÎ¾ Î®ÏĥÎµÎ¹ÏĤ
ĠÏĢÎ½ÎµÏħÎ¼Î± ÏĦÎ¹ÎºÎ¬
Î»ÎµÎ¹ Î¬
ĠÎ¸ Î¬Ïģ
ĠÏĥ ÏĦÏħ
ĠÎĴÏĮ ÏģÎµÎ¹Î±ÏĤ
ĠÎ±Î³Î³ ÎµÎ»
Îĳ Ïģ
ĠÏĢÎ±Î¹Î´ Î¹ÎºÎ¬
ĠÎ¼Î¹Îº ÏģÎ®ÏĤ
á¿ ·
ĠÎłÎ¿ Î»Î»ÎŃÏĤ
ĠÎ±Ïħ Î¸Î±Î¯ÏģÎµ
A n
ĠÎµÎ¾Î®Î³Î· ÏĥÎµ
ĠÎµÎ¼ÏĢ Î¹ÏĥÏĦÎµÏį
ĠÎ¼Î±Î¸Î· ÏĦÎ®ÏĤ
ĠÏĨÏį Î³Î¿ÏħÎ½
ĠÏĢÏģÏīÏĦÎ¿ ÏĨÎ±Î½
ÏĪ Î¿Ïħ
ĠÎ½ÏĮ ÏĥÏĦÎ¹
Î¾ ÎµÎ¯
ĠÎ£Î· Î¼ÎµÎ¹
ĠÎ¶Î· ÏĦÏİÎ½ÏĦÎ±ÏĤ
ĠÏħÏĢÎ¬Î»Î»Î· Î»Î¿ÏĤ
ĠÎ¸ ÏĮ
ĠÎµÎ¹Ïĥ ÏĨÎ¿ÏģÏİÎ½
ĠÏĦ ÏģÏį
ĠÏĢÎ±ÏģÎ±Î² Î¹Î¬
ĠÎµÎº Î»ÎµÎº
ĠÏĦÎ¯ Î¸ÎµÏĦÎ±Î¹
ĠÎ± ÏĦÏħ
ĠÎ® Î¼Î±ÏĥÏĦÎ±Î½
Î´Î¯Î´ Î¿Î½ÏĦÎ±Î¹
Îº ÏĦÎ¹ÎºÏĮÏĤ
Î¶ Î¿ÏĤ
ĠÎ»ÎµÏīÏĨÎ¿ ÏģÎµÎ¯Î¿
ĠÏĢÎ±ÏģÎ±ÏĦÎ· ÏģÎ®ÏĥÎµÎ¹ÏĤ
ĠÏģÏİ ÏĦÎ·ÏĥÎµ
ĠÏħÏĨ Î¯ÏĥÏĦÎ±ÏĦÎ±Î¹
) )
ÏĨÏħ Î³Î®ÏĤ
ÎĿ ÎĶ
ÏģÎ¯Î½ Î¹Î¿
ÏģÏĮ ÎºÎµÎ¹ÏĦÎ¿
ĠÎ£ Îĳ
ĠÏĢÎµÏģÎ¹Î¸Ïİ ÏģÎ¹Î±
ĠÎ±ÏĢÎ¿Î´ÎµÎ¯ Î¾ÎµÎ¹
ÎºÎ¿Î¹Î½Ïİ ÏĥÎµÎ¹ÏĤ
ĠA g
ĠÎ¤Î¿ÏįÏģÎº Î¿ÏĤ
ĠÎĺ Î·
ĠÎ±ÏĨÎ¹ÎŃ ÏģÏīÎ¼Î±
ĠÎ´Î·Î¼Î¿ÏĥÎ¹Î¿Î³ÏģÎ¬ÏĨ Î¿Î¹
Î¼Îµ Î³Î¬
ĠÎļÏĮ Î¼Î¼Î±
ÏĢÎ¿Ïį Î´Î±
ÏĦÏĦÎ¬ ÏģÏīÎ½
ĠÏĢÏģÎ¿Ïĥ Î¸Î®ÎºÎ·
Î£Ïħ Î³
Î¤ÎĻ ÎŁ
ÎľÎµÏĦÎ¬ Î²Î±ÏĥÎ·
ĠÎ³ Î¹Î½
g et
ĠÎ´Î¹Î±ÏĨÎ· Î¼Î¯ÏĥÎµÏīÎ½
ĠÏĥÏħÎ¼ÏĨÏīÎ½ Î¯ÎµÏĤ
ĠÎ³ÎŃÏĨÏħ ÏģÎ±
ĠÏĩÎ±Ïģ ÏĦÎ¹Î¬
ĠÎ´Î¿ ÎºÎ¯
ĠÎºÎ¿Ïħ ÏģÎ±Ïĥ
ĠÎŀÎ¬Î½Î¸Î· ÏĤ
ĠÎ´Î¹Î±ÏĦÎ±ÏģÎ± ÏĩÎŃÏĤ
ĠÎ£ÏħÎ¼ÏĨÏīÎ½ Î¯Î±
ÏĢÎ»Î± ÏĥÎ¹Î¬
ĠÏĥÏħÎ½Î¿ Î»Î¹ÎºÎ®ÏĤ
ĠÎ¾ÎµÎ½Î¿Î´Î¿ ÏĩÎµÎ¯ÏīÎ½
ĠÏĪÏħÏĩ Î¹ÎºÎ®
ĠÎĳ Îľ
Ġ199 0
ĠÏħÏĢÎŃ Î³ÏģÎ±ÏĪÎµ
ĠÎ´ÏħÏĥ Î¬ÏģÎµ
ar m
ĠÎĳÎ¸Î»Î· ÏĦÎ¹ÏĥÎ¼Î¿Ïį
ĠÎ´Î¬Î½ÎµÎ¹ Î¿
ĠO p
is m
ĠÎĿÎ¿ÏĥÎ¿ÎºÎ¿ Î¼ÎµÎ¯Î¿Ïħ
ĠÎµÏĢÎ¯Îº Î±Î¹
ÏĢÎµ Î¾ÎµÏģÎ³
ĠÏĥÏħÎ¼Î² Î¬Î½
art is
ĠÎ¼ÏħÎ¸Î¹Ïĥ ÏĦÏĮÏģÎ·Î¼Î±
Î³Î¹ ÏĮ
ĠÏĦÎ¯ÏĦ Î»Î¿ÏħÏĤ
ĠÏĢÏģÏĮÏĥ ÏĦÎ¹Î¼Î¿
ĠP C
ĠÏĨÏħÏĥ Î¹ÎºÏİÎ½
ĠÎ±Î½ÏĦÎ±ÏĢÎ¿ ÎºÏģÎ¯
ĠÎ¼ÎµÏģ Î¹ÎºÎ¿Î¯
ĠÎ³ÏģÎ®Î³Î¿ ÏģÎ¿
ÎĶ Î¹Î¿
ĠÏĢÎ¹Ïĥ Î¯Î½Î±
ic o
Îº ÎµÎ½ÏĦÏģ
Îķ Î¹
ÏģÎµ Î¿
ĠÎµÎºÏĦÎµ ÏĦÎ±
ĠÏĢÎ»Î±Î¹ ÏĥÎ¯Î¿Ïħ
Î£Ïħ Î¼Î²
ĠÏħÏĢÎµ Ïħ
ĠÎĳÎ¸Î· Î½Î¬
Î¸ Î»Î¯
Î»Î¬ Î¼Î²Î±Î½Îµ
ĠÎ½Î¿Î¼Î¿Î¸Îµ ÏĥÎ¯Î±ÏĤ
ĠÎºÏħÎ²ÎµÏģÎ½Î· ÏĦÎ¹ÎºÎ®
ĠÎĨ Î³Î³
Î»Î¿Î³ ÏģÎ±
ĠÎłÎĳ Î¡
ĠÎ£Ïį Î¼Î²Î¿ÏħÎ»Î¿ÏĤ
ĠÎ¼ÏĢÎ® ÎºÎ±Î½
ĠÎ´ÎµÎ¯ ÎºÏĦÎ·
ĠÎµ Î¹ÎºÎ±Ïĥ
ÏĢÎŃ Î´ÏīÎ½
Î£Î¬ Î²Î²Î±ÏĦÎ¿
ÏģÎ¯ ÏĦÎ¹Î´Î±
ĠÎ± ÏĦÎ¬
ĠÏĥÏħÎ¼Î² Î¿ÏħÎ»ÎµÏħ
ĠÎĻÎ£ Î¤ÎŁ
7 6
ĠÎ´Î¹ Ïī
ĠÏĢÎ±Î¹Î´ Î¹ÎºÏĮ
Ġof f
ĠÎ´Î¹Î¿ÏģÎ³Î¬Î½ ÏīÏĥÎ·ÏĤ
ĠÎ±ÏĥÎ¸ÎµÎ½ Î®
ÎŃÎ½ ÏĦÏģÏīÎ½
ĠÎł Î¬Î½Ïī
ĠÎĵ ÎŃ
ĠÎķÎł Î£
Î¸ Î±Î³
Î»Î»Î· Î½Î±ÏĤ
ÏģÎ±Îº Î¿Î»Î¿Ïħ
ĠNews bomb
ĠÎłÎŃ ÏĦÏģÎ¿ÏĤ
ĠÎ±Î½Î±ÎºÎ± Î»
ĠÎµÏĨ Î¹Î¬Î»
av e
ÎĴ Î»ÎŃ
ĠÏĥÎµÎ¼Î¹Î½Î¬ ÏģÎ¹Î¿
ĠÏĥÏħÎ³ÎºÏģÎ¿Ïį ÏĥÎµÎ¹ÏĤ
ĠÏĥÏħÎ³ÎºÎµÎºÏģÎ¹ Î¼ÎŃÎ½Î¿Ïħ
ĠÎ· ÏĥÏħÏĩ
Ġ199 9
ĠÎ¤ÏģÎ¯ ÎºÎ±Î»Î±
ÎĻÎļ ÎķÎ£
ĠM ac
Î¼Îµ ÏĦÎ±Î½Î¬
ĠÎ±Î³Î¿ÏģÎ¬ ÏĥÎµÎ¹
Î¿Î¹ ÏĢÏĮÎ½
ÏĢÎ¿Î¹Î¿ Î¯
Îķ ÏģÏī
Î¤Îķ Î¡
; "
Î»Î® ÏĥÎ¿ÏħÎ½
Îĵ ÎµÏģÎ¼Î±Î½
Îł ÎĳÎĻ
ĠÎ±Î¹ Î¼Î¿Ïģ
ĠÎµÎ³Îº Î»Î®Î¼Î±ÏĦÎ±
os s
ĠÎºÏģÎ¹ ÏĦÎ®ÏģÎ¹Î¿
ĠÎºÎ¿Î» Ïħ
Î¤Î± Î¾
ĠÎµÎ»ÏĢ Î¯Î¶Ïī
ÏĮÎ¼Îµ Î½Î¿ÏħÏĤ
ĠÏĥÏħÎ½ÎµÎ´ ÏģÎ¹Î¬
ĠÎķ Î½ÏĮ
ĠÎºÎ¿Ïħ Ïģ
ĠÏĢÎ»Î±Î½ Î®
âĢ ĺ
7 3
ĠÏĨÎ¹Î» ÏĮ
ĠÎ»ÎµÏĢÏĦÎ¿Î¼ÎŃ ÏģÎµÎ¹Î±
ÎĹÎ»ÎµÎºÏĦÏģÎ¿Î½ Î¹ÎºÏĮ
ĠÎľÎ± Î¸Î·Î¼Î±
ĠÎ¿Î¼Î¿ Î»ÏĮÎ³ÏīÎ½
ĠÎ²Î¬Î» Î¿ÏħÎ½
ĠÎ±ÏĨÎµ ÏĦÎŃÏģÎ¿Ïħ
Î¿Ïį Î»Î±
ĠÎľÏĢÎ±Ïģ ÏĦÏĥÎµÎ»ÏĮÎ½Î±
ÎĺÎµÏĥÏĥÎ±Î»Î¿Î½ Î¯ÎºÎ·
ĠÎ±ÏħÏĦÎ¿ ÏĢÎµ
ĠÎŁ ÏĢÏĮÏĦÎµ
ÏĥÏĦÎ· ÎºÎ±
v e
ĠÏĦÎ¿ Î¹
ĠÎ´Î·Î¼Î¿ ÏĦÎ¹ÎºÎ®
ĠÏĢÏģÏĮÎ²Î»Îµ ÏĪÎ·
ĠÎķ ÏĥÏį
ĠÏĩ Î¹Î¿Î½
ĠÎ±ÏħÏĦÎ¿ Î¼Î±
Î¸Î® Î½Î±
ĠÏĢÎ±Î½ÎµÏĢÎ¹Ïĥ ÏĦÎ®Î¼Î¹Î±
ĠÏĢÎ±Î³ÎºÎ¿ÏĥÎ¼ Î¹Î¿
ĠÎ±Î½Î±ÎºÎ¬Î»Ïħ ÏĪÎ·
ĠÎ¿ Î¼Î¿Ïģ
ĠÎĶÎ·Î¼Î¿ ÏĦÎ¹ÎºÎ®ÏĤ
ĠÎ´Î·Î¼Î¹Î¿ÏįÏģÎ³ Î·ÏĥÎ±Î½
ĠÏħ Î´Î¬
ÏĢ Î»ÎµÏħ
ĠÏĥÏħÎ¼ ÏĢÎ¿Î»Î¯
Î»Î¿Î³ Î¹ÎºÏĮÏĤ
ĠÎ±Î½ÏĦÎ± Î»Î»Î¬
ad e
ĠÎ´Î¿ÏħÎ»ÎµÏį Î¿ÏħÎ½
ĠÎ²Î¿Ïį ÏĦÏħÏģÎ¿
ĠÎ¦Î¹Î»Î¿ ÏĥÎ¿
Î¹ ÎµÏģ
ÎºÎ¿ Î¼Î¼Î±
ĠÎ¼ÎµÏĦÎ¬ Î´Î¿ÏĥÎ·
ĠÎ±ÏĥÎ¸ÎµÎ½ Î®ÏĤ
ĠÎ¹Ïĥ ÏĮ
ĠÎ³ÏħÎ½Î±Î¹ ÎºÎµÎ¯Î±
ĠÎ¶ÏīÎ½ ÏĦÎ±
ĠÎĳÎ¯Î³ÏħÏĢ ÏĦÎ¿
ĠÎºÎ¿Ïħ Î²Î±
ĠÎŁÏģÎ³Î±Î½ Î¹ÏĥÎ¼ÏĮÏĤ
ÏĢÎ»Î± ÏĥÎ¹Î±
ĠÎ½ÏĮ ÏĥÎ¿Ïħ
ĠÏĪÎ·ÏĨÎ¹Î± ÎºÎ®
ĠÎµÎ» ÎºÏħÏĥ
ĠÏĢÎ±ÏģÎ¬Î³Î¿Î½ ÏĦÎ±
ĠÎ¾ Î¿
ĠÏĢÎ±ÏģÎ±ÎºÎ¿Î»Î¿Ïħ Î¸Î¿ÏįÎ½
od e
ĠÎ¿ÏĢÎ± Î´Î¿ÏįÏĤ
ĠBl ack
ĠÎĴÏģÎµÏĦÎ±Î½ Î¯Î±ÏĤ
Î¾ Ïħ
ĠÏĢÏģÎ±Î³Î¼Î±ÏĦÎ¿ÏĢÎ¿Î¹ Î®ÏĥÎµÎ¹
ĠÎ´Î¹ÎµÏħÎ¸ÏħÎ½ ÏĦÎ®
ÏĥÎ¹ ÏīÎ½
ĠÏĢ ÏĦÏħ
Îł ÎĻ
ĠÏħÏĢÎ¿ÏĩÏģÎµÏī ÏĦÎ¹ÎºÎ®
ĠÏĩÏģÎ¿Î½ Î¹Î±
ÏģÏħ ÏĥÎ±
ĠÏĥÏĦÏĮ ÏĩÎ¿Î¹
ĠÎ´Î· Î»
ĠÎ¿Î½ÎµÎ¹ ÏģÎµÏį
ÏĥÏĦ ÏģÎ¿Ïħ
ĠÎĽÎ¿Î³Î¿ ÏĦÎµÏĩÎ½
ĠÎ±Î½Î± ÏĥÎºÎ±
ĠÏįÏĢ Î½Î¿Ïħ
ov er
ĠÎ±ÏģÎ¹Î¸ Î¼Î¿ÏįÏĤ
ĠÎµÎ½ÎµÏģÎ³ ÏĮ
ĠÎļ Î¯Î½Î·
ĠÎĽÎµÏħÎºÏī ÏĥÎ¯Î±
ĠÏĢÎ»Î·ÏĥÎ¹Î¬ Î¶ÎµÎ¹
ĠÎµÎ¸ÎµÎ»Î¿Î½ ÏĦÎŃÏĤ
Î¯ Î»Î±
ĠÎĳÏģÎ³ Î¿Î»
ĠÎ½Î¯ÎºÎ· ÏĥÎµ
ÎłÎ¿Î» Î»Î¿Î¯
ĠÏħÏĢÎµ ÏģÎ·
ÎķÏĢÎ¹ÎºÎ¿Î¹Î½ÏīÎ½ Î¯Î±
ĠÎłÎ±Î³ÎºÎ¿ÏĥÎ¼ Î¯Î¿Ïħ
ÏģÎŃ ÏĥÎµÎ¹ÏĤ
ĠÏĢÎ»Î¿Ïį ÏĦÎ¿Ïħ
ÏĨÏħ Î»Î»
ĠÎĴÎµÎ½Î¹Î¶ÎŃ Î»Î¿Ïħ
Î£ÏĩÎ¿Î» Î¹Î¬
ĠÎĶÎĻÎĳ ÎĶ
ĠÎµÎ³ Î³ÎµÎ³ÏģÎ±Î¼
ĠÏĦÎ¿Ïħ Î±
ĠÎ´Î¹Î±ÏĦÎ¬ Î¾ÎµÏīÎ½
ĠÏħ Î³ÎµÎ¹Î¿Î½Î¿Î¼
ĠÎ¼Î½Î· Î¼ÎµÎ¯Î¿
ĠÎ´Ïħ ÏĥÎ±
ÎµÎ¯ ÏīÏĥÎ·
ĠÎ§ ÏģÏĮ
ĠÏĨÎ¬ ÏĥÎ¼Î±
ĠÎŁ Î´ÏħÏĥ
Î®Î¼Îµ ÏĤ
ĠÎĳÎł Îĺ
ĠÏĮ Î³ÎºÎ¿
ĠÎµÏĢÎ¹ Î²Î¬Î»Î»ÎµÏĦÎ±Î¹
ĠÏĢ Î»
ĠÎµÎ³ÎºÎŃÏĨÎ± Î»Î¿
ĠÎĳ Î¹Ïĥ
ĠÎµÏħÎ±Î¹ÏĥÎ¸Î· ÏĥÎ¯Î±
ĠÏĩÏģÎ·Î¼Î±ÏĦÎ¿ ÏĢÎ¹ÏĥÏĦÏī
ĠÏĥÎ· ÎºÏİÎ½
Ïģ ÏģÎ±
ĠÎ·Î¼ÎµÏģÎ¿Î¼Î·Î½ Î¯ÎµÏĤ
ĠD oc
ĠÎºÎ¿ ÏĥÎ¼
Î¾ ÎµÏĤ
Î¹Îº Î·ÏĤ
Î¬Î» Ïī
ĠÎ±Î½Î± ÏĨÎµÏģÎ¸ÎµÎ¯
ĠÎºÎ± ÎºÎ¬
ĠÎĵ ÎķÎĿ
ĠÏĨÏħÏĥ Î¹ÎºÎ®ÏĤ
ĠÎ±ÎºÎ¿Î»Î¿Ïį Î¸Î·ÏĥÎ±Î½
ĠÎ¼Î±ÎºÏģÎ¿ ÏĢÏģÏĮÎ¸Îµ
ĠÎ±ÏĢÎ¿Ïģ ÏģÎ¹Î¼Î¼Î¬ÏĦÏīÎ½
ĠÎķ Î½ÎµÏģÎ³
Î¼ÏĢ Î±ÏĤ
ĠÏĨÎ¬ ÎµÎ¹
ÏĦÎµÏį Î¾ÎµÎ¹ÏĤ
ĠÎ±Î¾Î¹Î¿ÏĢ ÏģÎŃÏĢÎµÎ¹Î±
Ġ5 4
Ġ ÏģÏį
ĠÎ¹Î´Î¹Ïī ÏĦÎ¹ÎºÎ¬
Ġpro ject
ĠÎľÎ± Î¸Î·
ĠÎĳ Î½Î¿Î¹Ïĩ
ĠÎºÎ±ÏĦÎ±Î½Î¿ Î·
ĠÎ´Î¹ÎºÏĦÏį ÏīÏĥÎ·ÏĤ
Î¸ÎŃÎ½ ÏĦÎ±
ĠÏĥÏĦÎ±Î¸Îµ ÏģÏĮ
Î¼ÎŃ Î½Ïī
Î¸Îµ Î¯Î±Î½
ĠÏĥ ÏĦÏģÎ¿ÏĨÎ®
ĠÎľ ÎĹ
ĠÎ¨Î· ÏĨÎ¹Î±
ĠÎłÏģÎ¬ ÏĥÎ¹
ĠÎ´Î¹Î±ÏĢÏģÎ±Î³Î¼Î± ÏĦÎµÏħ
ĠÎµÎ¹ ÏģÎ·Î½
as e
ĠÎºÎ±ÏĦÎ±ÏĥÎºÎµÏħ ÎŃÏĤ
ĠÎµ Î»Î¹ÎºÏĮ
ĠÎķ ÏĨÎµ
Ġp l
ĠI N
ĠM erc
ÎĶÎµÏħ ÏĦÎŃÏģÎ±
ÏĦÎ® ÎºÎ±Î¼Îµ
ĠP ark
ÏģÎŃ Î¸Î·ÎºÎ±Î½
Î¼ÎµÏģ Î¹ÎºÎ±Î½
ĠÏĦÎ± Î»Î±Î½
ĠÎ³ÏģÎ±Î¼Î¼Î± ÏĦÎŃÎ±ÏĤ
ÏħÎ½Î® Î³Î¹
iss an
ĠÏĥÎºÎµÏĨ ÏĦÏĮ
ĠÎŁ Î¤Îķ
ĠÎ±Î½Î¸ÏģÏīÏĢÏĮ ÏĦÎ·ÏĦÎ±
ĠÎ´ ÎµÏģ
ĠÎ½Î¹Ïİ Î¸Ïī
Ġb r
ĠÎ´Î¹ÏĢ Î»Î¬
Î²Î¿ Î»Î±
ĠÏħÏĢÎµÏįÎ¸Ïħ Î½Î¿Î¹
ĠÎºÎ±Î½ ÎµÎ¹ÏĤ
ĠÎĽ ÎŁÎĵ
ĠÎ²Î±Ïĥ Î¹ÎºÏĮÏĤ
ĠÏĢÏģÎ±ÎºÏĦÎ¿ ÏģÎµÎ¯Î¿
Î¼Îµ Î¯ÏĦÎµ
ĠÎł Ïī
ĠÏĢÏģÎ¿ÎŃ Î»ÎµÏħÏĥÎ·ÏĤ
ĠÏĦÏģÎ¿ Î¼Î¿
ĠÎ¸Îµ ÏĥÎ¼Î¿ÏįÏĤ
ĠÏĥÏħ Î»Î»Î®
ĠÎµÎ²Î´Î¿ Î¼Î±
ĠÎ±Î½Î±ÏĢÏĮ ÏĨÎµÏħ
ĠÏĥÎµÎ¹ ÏģÎŃÏĤ
ĠÏĮÎ¼Î¹ Î»Î¿
ÏĦÎ¶ ÎµÎ»
Î¸Îµ ÏĥÎ±Î½
ĠÎ²Î¿Î· Î¸Î·
ĠÏĥÏħÎ½ÎŃÏĩÎ¹ ÏĥÎ·
ÎķÎ»Î»Î·Î½ Î¹ÎºÎ®
ĠÎ±ÏģÏĩ Î¹ÎºÏĮ
ĠÎ² ÎŃÎ²Î±Î¹
ĠÎ²Î±ÏĥÎ¹Î» Î¹Î¬ÏĤ
ĠÏĢÏģÎ¿ÏĨÎ±Î½ ÎŃÏĤ
ĠÎ³ ÏĮ
Î½ÏĮ Î·ÏĥÎ·
Îº ÏĦÎ¹ÎºÎ®ÏĤ
ĠÎŁ Î¼ÏĮ
ĠÎ¼Ïį ÏĦÎ·
ĠÏĢÏģÎµÏĥ Î²
ĠÎ±ÏĢÎ±Î¹ ÏĦÎ·
ĠÏħÏĢÎµÏģÎ±Ïĥ ÏĢ
ÏĢÎ¿ Î´Î±
ÏĥÏĦÎ¬ ÏĥÎµÏīÏĤ
ĠÎ±ÏĢÏĮ ÏĨÎ±Ïĥ
ĠÎ£ Î¯Î³Î¿ÏħÏģÎ±
Î¼Î¬ ÏģÎ¹Î±
ĠÎºÎ¿Ïħ ÏĦÎ¯
ĠÎ±ÏįÎ¾Î· ÏĥÎ·ÏĤ
ĠÏĥÏħÎ½Î´Îµ Î¸ÎµÎ¯ÏĦÎµ
200 8
ĠÎµÎ¹ÏĥÎ¿Î´Î® Î¼Î±ÏĦÎ±
ĠÎ±Î½Î±Î½ÎŃ ÏīÏĥÎ·
ĠÎŃ Î¸ÎµÏĥÎµ
ĠÎºÎŃÏģ Î´Î¿ÏĤ
ĠÎ±Î½ÎµÎ¾Î±ÏģÏĦÎ· ÏĥÎ¯Î±
Î¯ÏĦ Î»ÎµÏģ
ĠÎºÎ±Î» ÏįÏĢÏĦÎ¿ÏħÎ½
ĠÎ²Î¿Î® Î¸Î·ÏĥÎµ
ĠÏħÏĢÏĮÎ»Î¿Î¹ ÏĢÎ·
ĠÏĢÎ±ÏģÎ±ÏĦÎ· ÏģÎ·
ĠV ideo
ĠÎµÏĢÎ¹ÎºÎ¯Î½Î´Ïħ Î½Î¿
Î¼Î± Î³
ĠÎĳ ÎķÎĻ
Ġ lo
Ġ9 5
ÏĪ ÎŃ
Î´ÏĮ Î¸Î·ÎºÎµ
Î³Î¼Î± ÏĦÎ¹
ĠÎ±ÎºÏģÎ¹Î² Î®
ĠÏĢÎ¹Î¬ ÏĦÎ±
ĠÏĥÏħÎ½Î¿ Î¹Îº
ĠÎ¼ ÏĢÎ¹
ĠÎµÏĢÎ¹ÏĥÏĦÎ·Î¼Î¿Î½ Î¹ÎºÎ¬
ĠÎ¼Îµ ÏĤ
Ġ5 6
ÏģÎ±Î¯ Î¿ÏĤ
ĠÎ²Î¿Ïį Î»Î·ÏĥÎ·
ÎĶÎ· Î»Î±Î´Î®
ĠÎµÎ¹Î´Î¿ÏĢÎ¿Î¹ Î®ÏĥÎµÎ¹ÏĤ
ĠÏĢÏģÎ¿ÏĥÎµ ÏħÏĩ
ĠÎ²Î¬Î» Ïī
Î³ ÎµÎ»
ap ital
ĠÏĢ Î½ÎµÏħ
o int
ĠÏħÏĢÎ¿ ÏĪÎ®ÏĨÎ¹
Î³ÏĮ Î½ÏīÎ½
ĠÎ±Î½Î± Î´Î¹Î¬ÏģÎ¸
ĠÎºÎ±ÏĦÎ± ÏĢÎ¹
ĠÎ²Î¹Î²Î»Î¹Î¿ Î¸Î®ÎºÎ·
ĠÎĽÎ¿ Î³Î¹Ïĥ
ĠÎ¹ÏĥÏĩÏħ ÏģÎŃÏĤ
ĠÎ±ÏĢÎ¿Î´ÎµÎ¹ ÏĩÎ¸ÎµÎ¯
Î¼Î¹Ïĥ ÏĦÎŃÏĤ
ĠÏħÏĢÎ¿Î³ÏģÎ¬ ÏĪÎµÎ¹
Ġcook ie
ĠF in
ĠS T
ĠÏĦ á¿ĨÏĤ
ĠÎĳÎ»Î²Î±Î½ Î¯Î±ÏĤ
ĠÏĢÏģÎ¿ÏĥÎ¸ÎŃ ÏĦÎ¿Î½ÏĦÎ±ÏĤ
ĠÎ¸Î»Î¯ ÏĪÎ·
ĠÎ±Î»Î® Î¸ÎµÎ¹ÎµÏĤ
ĠÏĪÎ® ÏĨÎ¹ÏĥÎ·
C h
ĠÎ´Îµ Î¾Î¯
ĠÎ½Îµ Î±Î½
ĠÎµÏĢ ÏīÎ½
Î³ Î¼ÎŃÎ½ÎµÏĤ
ĠÏĢÏģÎ¿Ïĥ ÏĨÎ¿ÏģÎ¬ÏĤ
Ïĩ ÏĦÎ±
ĠÎºÎ±ÏĦÎ±Î»Î® Î¾ÎµÎ¹
ĠÎ´ÎµÏĥÎ¼ÎµÏį ÏĥÎµÎ¹ÏĤ
ĠÎµÏĢÎµ ÏĥÎ®Î¼Î±
ĠÎļ Î¹Î»
ĠÎ´Î¹Î± Î¼ÎµÏģÎ¯
Î±Î½ Î¸ÏģÏīÏĢ
ÏĥÏĩÎµ ÏĥÎ·
ĠÎ¾Îµ ÏĢÎŃÏģÎ±
Îļ ÎŁÎ¥
ĠÎ¿Î»Î¿ÎºÎ»Î·ÏģÏī Î¼ÎŃÎ½Î·
ĠÎºÏģÎ¹ ÏĦÎ¹ÎºÎŃÏĤ
Î² Î»Î·Î¼Î±
Ïī Î¼ÎŃÎ½ÎµÏĤ
ĠÎ¾Îµ ÎºÎ¹Î½
Î»Î»Î± Î´Î±
Îł Î±Î»
ÏĦÎ·Î³Î¿ ÏģÎ¯ÎµÏĤ
ĠÏĥÎ·Î¼Î±ÏĦÎ¿ Î´Î¿
ĠÏĩ Î±Ïĥ
O P
ÎĹÎ£ ÎķÎĻÎ£
ĠÎ±Î½Î± ÏģÏĩ
ĠÎ±Î½ÎŃ ÏģÎ³ÏīÎ½
ĠÎ´Î¹Î±ÎºÏĮÏĥ Î¼Î·ÏĥÎ·
ĠÎ´Î¹Î± Ïģ
ĠÏĥ Î²Î®
Îº Î¯Î±
ĠÎºÏĦÎ¹ ÏģÎ¯Î¿Ïħ
ĠÏĢÎ± Î¸Î®ÏĥÎµÎ¹ÏĤ
ĠÏĢÏģÎ¿ ÎºÎ®ÏģÏħÎ¾Î·
ĠÎ¤ÏģÎ± ÏĢÎµÎ¶
ĠÎµÎ¹Ïĥ Î±Î³Î³ÎµÎ»
ĠÎļÎ¹Î½ ÎŃÎ¶
Îº ÎµÎ½
ĠÎºÎ±Î¸Î·Î¼ÎµÏģÎ¹Î½ ÎŃÏĤ
ĠÎ½ ÏĦÏħ
ĠÏĢÏģÎ¿ Î»Î·ÏĢ
ĠÎłÎ¿ÏģÏĦÎ¿Î³Î±Î» Î¯Î±
ĠÏĢÎ¬ ÏĦÎµ
ĠÎ±Ïħ ÏĦÎ¹Î¬
ĠÎµÎ¸Î½ Î¹ÎºÎŃÏĤ
ÏĨÎŃÏģ Î¸Î·ÎºÎ±Î½
ĠÎ±ÏĥÏĨÎ±Î»Î¹Ïĥ ÏĦÎ¹ÎºÏİÎ½
ĠÏĥÏĦÎ· ÏģÎ¹
ĠP ress
ĠÎ¼ÏĢÎ¿ Î»
Ïī ÏĦÏİÎ½
ĠÎ¿ÏģÎ³Î±Î½ Î¹ÏĥÎ¼Î¿ÏįÏĤ
Ġá½ ħ
ĠÎłÎ»Î· ÏģÎ¿ÏĨÎ¿ÏģÎ¯ÎµÏĤ
ĠÎµÎ½Î¹ÏĥÏĩÏį ÎµÎ¹
ĠÎļÏİ Î´Î¹ÎºÎ±
V IDEO
ĠÏĢÏģÎ¿ÎºÎ± Î»ÏİÎ½ÏĦÎ±ÏĤ
Ġ5 9
ĠÎ§ Ïİ
ÏĦÏģÎ¹ Î¿ÏĤ
ĠÎłÎ»Î± ÏĦÎµÎ¯Î±
ĠÎº ÎµÎ»
ĠÎ´Î¹Î± Î½Î¿Î¼Î®
ÎķÎł ÎķÎĻ
ÏĥÎº Î·Î½
ĠÎµÏĢÎ¹ ÏĨÎ±Î½
8 5
ĠÎºÎ±ÏĦÎ±Ïĥ ÏĦÏģÎŃ
Î²Î¬Î» Î±ÏĤ
ĠÏĥÏįÎ¶ ÏħÎ³ÏĮ
ĠÎ´Î¹Î± ÏĥÏĦÎ·
ÏĦÎ¿Ïħ Î¬Î¶
ÏĨÎµ ÏĦÎµ
ĠÏĢÎ± Î»
ĠÎ»Î±Î¼Î² Î¬Î½ÎµÏĦÎµ
ÏĦ Î¯Î½ÎµÏĤ
ĠÎ¿Î¹ÎºÎ¿Î½Î¿Î¼ Î¹ÎºÎ¿Ïį
ĠÎ¼Î¿Î½Î± Î´Î¹ÎºÏĮÏĤ
ĠÎ¼ÎµÎ¹ ÏİÎ½ÎµÏĦÎ±Î¹
ĠÎ±Î³ÏīÎ½ Î¯Î¶ÎµÏĦÎ±Î¹
ĠÎłÎ¬ ÏĦÏģÎ±ÏĤ
Î³Î³ Î¬ÏģÎ¹
ÏĢÎ½ Î¹ÏĥÎ¼Î±
ÏģÎ¯ ÏĥÏĦÎ·ÎºÎ±Î½
ÏĮÎ½Î± ÏĥÎ¼Î±
ĠÎ´Î¹Î±Î´Î¹Îº Î±ÏĥÎ¹ÏİÎ½
Ïĩ ÏĦÎ¬
ÏĢÎ¿ Î¸Îµ
ĠÎ¼ÎµÏĦÎ¿ ÏĩÏİÎ½
Î´ ÎµÎ¯ÏĤ
ĠÏĢÏģÎ¿ ÏĥÏĦÎµ
ĠÎ´Î® Î¼Î¿ÏħÏĤ
ĠÏĢÏģÏīÏĦÏĮ ÏĦÏħÏĢÎ¿
ĠÎ´Î¹Ïĥ ÎºÎ¿
Ïĩ Î¹Î¿
ĠÎ´Î¹Î± Î»Ïħ
ĠÎķÎ¹Ïĥ Î±Î³Î³ÎµÎ»ÎŃ
ĠÏĦÎ¿ÏħÏģÎº Î¹ÎºÎ®ÏĤ
ĠÎ¸ÎŃÎ± Î¼Î±
ĠÎŃ ÏĥÏī
ĠÎ»Î± Î¿ÏįÏĤ
ĠÎºÎ¿ ÏģÎ¿
ÏĩÎ± ÏģÎ¿
ĠÎ£Î±Î² Î²
Î¹Îº Î¿ÏĤ
ĠÏĢÏģÎ¬ ÎºÏĦÎ¿
ĠÎ½Î¹Ïİ Î¸ÎµÎ¹
ĠÎľÏĢÎ± ÎºÎ¿
Ġs uper
Î¸ Î¹Î¬
ĠÎ±á½Ĳ ÏĦÎ¿
ĠÏĥÏĦÎ±ÏĦÎ¹Ïĥ ÏĦÎ¹ÎºÎ¬
ĠÎµÎ¼ÏĢÎ¿ ÏģÎ¹ÎºÎ®
ĠÎĳÏģ ÎºÎ±
ĠÎķÎ¹ ÏģÎ®Î½Î·
ĠÎµÎ¾ÎµÏĦÎ¬ ÏĥÎµÏīÎ½
ĠÎµÎ¾ Î¹Ïĥ
ÏĦÎµÎ¯ Î»ÏĦÎµ
! ...
ĠÎµ ÏĨÎµ
ĠÎ±ÎµÏģÎ¿ÏĢÎ»Î¬ Î½Î¿
ĠÎ´ÏģÎ¬ ÏĥÏĦÎµÏĤ
ĠÎ¾ÎµÎºÎ¹Î½Î® ÏĥÎ¿ÏħÎ½
ÎķÎĿ Îĳ
ĠÎĳÎ¼ÎµÏģÎ¹ÎºÎ± Î½Î¿Î¯
ĠÎ¼ÎŃ ÏĥÎ¿Ïħ
ĠÎĿÎ±Ïħ ÏĦÎ¹
ĠÎķÏĢÎ¹ ÏĩÎµÎ¯
ĠÎºÎ±ÏĦÎ¿ ÏĩÏħ
ĠÏĨÏħ Î»Î¬ÎºÎ¹
Î¯Ïĥ Î¹Î¿
ÏĢ Î»Î¬Î½
ol a
ĠÎ¹Î´Î¹Î¿ÎºÏĦÎ® ÏĦÎ·
ĠÎºÎ±ÏĦÎ¿Î¹Îº Î¹ÏİÎ½
ĠÎ´Îµ Ïĥ
Ġ5 7
ĠÏİ ÏģÎ¹
ĠÎ±ÏĢÎ¿Î´ÎµÎ¯ Î¾ÎµÎ¹ÏĤ
ĠÎķÏĢ ÎµÎ½
ĠÏĮ ÏĢÎ¿Î¹ÎµÏĤ
Î¸ÏģÏī ÏĢÎ¿Î¹
ĠÏĥ ÏĦÏģÎ¿
ĠÎĳ Î»Î»Î±Î³Î®
ÎŁ Îº
ĠÏĢÏģÏīÏĦÎ±Î³ÏīÎ½Î¹Ïĥ ÏĦÎŃÏĤ
ÎļÎ± ÏĦÎµ
ĠÏĥÎ¹ Î½ÎµÎ¼Î¬
ÎºÏģ Î¯Î½ÎµÏĦÎ±Î¹
ĠÏĥÏħÎ¼ÏĢÎµÏģÎ¹ ÏĨÎ¿ÏģÎŃÏĤ
ĠÏħÏĢÎ¿ ÏĦÎ¯Î¸ÎµÏĦÎ±Î¹
ĠÎ±ÏĢ ÎµÎ¯
ĠÎºÎ±ÏĦÎ±Î»Î¬Î² Î¿ÏħÎ½
Î¦ Îµ
ĠÏĨ Î¸Î¿
ed es
ĠÎºÎ¿ÏħÎ»ÏĦÎ¿Ïį ÏģÎ±
ĠÎ³ Î¯Î½ÎµÏĦÎµ
ĠÎ¬Ïģ Î½Î·ÏĥÎ·
ĠÎ±Î¼ÏĨÎ¹Î²Î¿Î» Î¯Î±
ĠÎºÎ±Î» Ïİ
ĠÏħ ÏĢÎ·ÏģÎŃ
ĠÏĥÎºÎ·Î½Î¿ Î¸ÎµÏĥÎ¯Î±
ĠÎµÎ´Î¬ ÏĨÎ¿ÏħÏĤ
ÏĢÎ¿Î»Î¹ ÏĦÎ¹Ïĥ
ĠÎŃ ÎºÎ±Î½ÎµÏĤ
ĠÎºÎ±ÏĦÎ¿ ÏĩÎ®ÏĤ
u z
ĠÎļÎ±Î½ ÎµÎ¯ÏĤ
ÎŃÎ» Î¸Î¿ÏħÎ½
ĠÎ¿Î¼ÏĮ Î»Î¿Î³Î±
ÎĺÎµ Ïī
ĠÎ£Î¤ÎŁ ÎĿ
C D
ĠÏĥÎºÏį Î»Î¿
ĠÎ´Î¹Î± ÏĦÎ¯Î¸ÎµÏĦÎ±Î¹
Î¸Î® ÏĥÎµÏīÎ½
ĠÏĥÏħÎ½ÎµÏĩ Î¯ÏĥÎµÏĦÎµ
ĠÏĢÏģÏĮÏĥÏĨÎ± ÏĦÎ¿
ÏģÏİÎ½ Îµ
Î¼ÎŃÎ½ ÎµÎ¹ÏĤ
t r
Î¿Ïħ Ïģ
ĠÎµÏģÎ³Î±Ïĥ ÏĦÎ®ÏģÎ¹Î¿
Î²Î»Î® Î¸Î·ÎºÎµ
ĠÎĺ ÎµÏģ
ĠÎĻ ÎµÏģ
ĠÎ±Ïĥ ÏĨÏħ
ĠÎ§ÏģÎ¹Ïĥ ÏĦÎ¿ÏħÎ³ÎµÎ½Î½Î¹Î¬
ÎĨ ÏģÎ¸ÏģÎ¿
ot e
ĠÎľ Î¹Ïĥ
Î´ÏĮ ÏĦÎ·ÏĤ
ÏĨ Î¿ÏįÏĤ
ĠÎķÎĿ Î¦ÎĻÎĳ
Î¬ Î´Î±
ĠÏĢÏģÏĮÏĦÎµÎ¹ Î½Îµ
ĠÏĥÎºÎµÏĨ ÏĦÎµÎ¯
ĠÎ£ Î¹Î´
Ïħ ÏĢÏĮ
ĠÎ¦ Î¹Î½
ĠÎ¥ÏĮÏģÎº Î·ÏĤ
ĠÎ±ÏĢÎ¯ÏĥÏĦÎµÏħ ÏĦÎ¿
ĠÎ£ ÎµÎ¹
ÏĦÎŃ ÏģÎ¹
ÏĦÎµÏį ÎµÎ¹
ĠÎĵÎµÏģÎ¼Î±Î½ ÏĮÏĤ
ĠÎĳÎ½Î±ÏĦÎ¿ Î»Î®ÏĤ
ĠÎ¦Î±Ïģ Î¼Î±
ĠÎ± Î¼Îµ
ĠM y
ĠÎł Î·
ĠÎµÏĢÎ¹ ÏĩÎ¿
Îķ Î¤ÎĳÎĻ
ÏĥÎ¹ Î³ÎºÏĦÎ¿Î½
Î£ ÎĹ
ĠÏĢÏģÎ¿Î·Î³Î¿Ïħ Î¼ÎŃÎ½ÏīÏĤ
ĠÎ³Î»Ïħ ÎºÎ¹Î¬
ĠÎ¿Î¹ÎºÎ¿Î³ÎµÎ½ÎµÎ¹Î± ÎºÏĮ
ĠÏĦÎµÏĩÎ½ Î¹ÎºÏĮ
ĠÎ£Î¼ÏįÏģ Î½Î·ÏĤ
ĠÎ· ÏĩÎ·
ĠÎ¿ Î¼ÏīÏĤ
Î¬ ÏģÎ¹Î±
ĠÎĳÎ³ ÏģÎ¹Î½
ĠÏĨ ÏģÎµ
ĠW orld
ĠÎ¥ ÏĢÎ®
ĠÏĪÎ¬ ÏĩÎ½ÎµÎ¹
c l
ĠÎ£ÏħÎ½Î´ÎŃ ÏĥÎ¼Î¿Ïħ
ĠÏĢÏģÎ¿ÏĥÏĢÎ± Î¸ÏİÎ½ÏĦÎ±ÏĤ
ĠÏĢÏĮÎ»Îµ ÏīÎ½
ĠÏĦÎ± Î¼ÎµÎ¯Î¿
ĠÎ´Ïħ ÏĮ
ĠÏħÏĢÎ¿ Î´ÎŃ
ĠÎ²Î¯ Î±Î¹
Î¸ÏģÏī ÏĢÎ¿ÏĤ
ĠÎłÏģÎ¿ ÏĭÏĢÎ¿
ĠÏĥÏħÎ³ÎºÎµÎºÏģÎ¹ Î¼ÎŃÎ½ÏīÎ½
Î¼Î¹Î± ÏĤ
ĠÎµÎ½Î´Î¹Î±ÏĨÎµÏģÏĮ Î¼ÎµÎ½Î¿Î¹
ÏĨ ÏģÎ¿Î½
ĠÎĺ ÎķÎ£
ĠÎ±ÏĢÎ¿Î³Î¿ Î®
ĠÎĻÏĥÏĦÎ¿ ÏĥÎµÎ»
ĠÎ¥ ÏĢÏĮ
ĠÎ±ÏĢÏĮ ÏĥÏĢÎ±ÏĥÎ¼Î±
ĠÎ³Î± Î»Î¬
ĠÎ§ Î¯ÏĦÎ»ÎµÏģ
ĠÏĥÏįÎ½ Î¸Îµ
ĠÎľÏĮ ÏĥÏĩ
ÏĨÎ¹ Î¾Î·
ĠÎ±Î½Î±ÏĢÎ±ÏģÎ±Î³Ïī Î³Î®
ĠÎ¤ ÏĮÏĥÎ¿
ĠÎ½Îµ ÏħÏģÎ¿
ÎĴ Î¹Î²
ĠÎµÎ»Î± ÏĨÏģÎ¬
ĠÎ³ÏģÎ± ÏĨÎ®
Ġc ont
ĠÎ´ÎŃ ÏĩÏĦÎ·ÎºÎµ
ĠÎĳÎ» Î²Î±
ÎĶ Î¥
ĠC o
ĠÎĴÎ¿ ÏģÎµÎ¯Î¿Ïħ
ĠÎ±Î»ÏħÏĥ Î¯Î´Î±
Ġ z
ĠÎ¼Î¬ Î¸Î¿ÏħÎ¼Îµ
ĠÎ·Î¼Î¹ ÏĦÎµ
ot h
Ġb et
ĠÎ²ÎµÎ½ Î¶
ĠÎºÎ¿Î¼ ÏĪ
ĠÎºÏįÎº Î»Î¿Ïħ
ĠÏĢÎ±ÏģÎ¬ Î³Î¿ÏħÎ½
ĠÎĺÎµÎ¿ÏĦÏĮ ÎºÎ¿Ïħ
ĠÏĥÏĩ Î®Î¼Î±ÏĦÎ±
ĠÎ¿Î´Î·Î³Î® ÏĥÎ¿ÏħÎ½
ĠÎķÎ»Î»Î·Î½ Î¹ÏĥÎ¼Î¿Ïį
ÏĢ ÏĦÏīÏĥÎ·ÏĤ
ĠÎ¾ÎŃ Î½Î¿Î¹
ĠÎºÎ»Î¯Î¼Î± ÎºÎ±
Î´Î¹Î±Î¯ÏĦÎµ ÏģÎ±
ĠÎ±Ïģ Î½Î®Î¸Î·ÎºÎµ
Îł ÎŁÎ£
ĠÏĢ ÏĦÏī
ĠÏĨÎŃÏģ Î½Î¿ÏħÎ½
ĠÎ£Î¿ Î²Î¹Îµ
ĠÏĢ ÏģÎŃÏĥ
ĠÏĩÏģÎµÎ¹ Î±Ïĥ
ĠÏĢÎ»Î·ÏģÏī Î¼ÏİÎ½
ĠÎŃ Î¸Î½Î¿ÏĤ
ĠG old
ÎŃ ÏĥÎµÎ¹
ĠÏĦÏģÏİ ÎµÎ¹
ĠÎ´Î¹Î±ÏĨÎ® Î¼Î¹ÏĥÎ·ÏĤ
O M
ĠÎ¼ÎµÏĦÎŃ ÏĨÎµÏģÎµ
Îĺ Î¡Î©
ĠÎľ ÏĢÎµÏģ
Îķ Î»ÏĢ
ĠÏĢÎ±ÏģÎ± Î¯ÏĦÎ·ÏĥÎ·
ĠÎµÏĢÎ¹Î² Î¯ÏīÏĥÎ·ÏĤ
ĠÏĦÏįÏĢ Î¿ÏħÏĤ
ĠÎ±Î½ÏĦÎ¹Î¼ÎµÏĦÏīÏĢ Î¯ÏĥÎ¿ÏħÎ½
Ïĥ Î¼Î¬ÏĦÏīÎ½
Îº ÏīÎ½ÏĥÏĦÎ±Î½ÏĦÎ¯Î½Î¿Ïħ
ĠÎ¼Î±Î¶ ÎŃ
ĠÎ¼Î½Î·Î¼Î¿Î½ Î¯Î¿Ïħ
ĠÎľÎ¿Î½ Î®ÏĤ
ro p
ĠÏĨÎ¹Î»Î¿ Î´Î¿Î¾
ĠÏĨÎ¹ Î»Î¬
ĠÎ¤ ÏģÎ¹Î±
ÎłÏģÏĮÏĥ ÏĨÎ±ÏĦÎ±
ÎĶÎ·Î¼Î¹Î¿ÏħÏģÎ³ Î¯Î±
ĠÎ² Î³Î¿ÏħÎ½
Î´Î¯ ÎºÎ±
ĠÎ£ÏĦÎ± ÏħÏģÎ¿Ïį
ĠÏħÏĢÎ¿Î´Î¿ Î¼ÏİÎ½
ĠÎ± ÏģÏīÎ¼Î±
Î¼ÏĢ ÎµÏĤ
ÏĢÎ¿Î¼ÏĢ Î®
ĠÎ½ÏĦÎ¿ Î¼Î¬ÏĦÎ±
ÏĦÏģÎŃÏĨ ÎµÏĦÎ±Î¹
ĠÎ±ÏĢÎ¿ ÏĥÏį
ĠÎ±ÏĢÎ¿ÏĦÎµÎ»ÎµÏĥÎ¼Î± ÏĦÎ¹ÎºÏĮÏĦÎ·ÏĦÎ±
Î¹Ïĥ Î¼ÎŃÎ½ÎµÏĤ
ĠÏĥÏħÎ½Îµ ÏĦÎ±Î¹
ĠÏĩ Î¬Î½Î¿ÏħÎ½
ĠÎ´ÏħÏĥÎºÎ¿ Î»ÎµÏį
ĠÎ¸ÎµÏģÎ¼Î¿ÎºÏģÎ± ÏĥÎ¯ÎµÏĤ
ĠÎĶÎ¹Î± Î¼Î±Î½
Î±Î³ Î±
Î¼Î¬ ÏĦÎ·
ĠÏĢÏģÎ¿Î¿ ÏģÎ¹ÏĥÎ¼Î¿ÏįÏĤ
ĠÏį ÏĨÎµÏĥÎ·
ĠÏĪÏħÏĩÎ¿ Î»Î¿Î³Î¯Î±
ĠÎĽÎ¹ Î³Îº
E B
ĠÎ²Ïħ Î¶Î¹Î±
ĠÎ»Î±Î¼Î² Î¬Î½Ïī
ĠÎ¿Î¹ÎºÎ¿ Î½Î¿Î¼Î¿
Ïį Î¼Î±ÏĦÎ¿ÏĤ
ĠÎºÎ¿ÏħÎ¶Î¯ Î½Î±ÏĤ
ĠÎĶ Î¯Îº
ĠÏĢÎ¿Î¹ Î¿ÏħÏĤ
ÎµÎ½ÎµÏģÎ³ Î¿
ĠÏĥÏĦÎ¿ Î»
ĠÏĢÏģÎ±Î³Î¼Î±ÏĦÎ¿ÏĢÎ¿Î¹ Î·Î¸Î¿ÏįÎ½
ÏĦÎ¹Îº Î·ÏĤ
ĠÎ±ÏģÎ½ ÎµÎ¯ÏĦÎ±Î¹
ĠÎ¼Î¬ÏģÏĦÏħ ÏģÎµÏĤ
ĠÎķÎ¥ Î¡Î©
ĠÎ£ÏĩÎŃ Î´Î¹Î¿
ĠÏĢÏģÎ¿ Î½Î¿Î¼
" :
ĠÎµÏĢÎ¿ÏĢÏĦÎµ Î¯Î±
6 1
ĠÎķ ÏģÏħÎ¸
ĠÎ±Î»Î»Î· Î»ÎµÏĢ
ĠÏĢÎ¿Î»Î¹ ÏĦÎ¹ÏĥÎ¼ÏĮÏĤ
ÎºÎ¯ ÏĤ
p or
ĠÎ¶Ïİ Î´Î¹Î±
ĠÎºÎµÏģÎ´Î¿ ÏĥÎºÎ¿ÏĢ
ĠÎ±Î³ÏģÎ¿ ÏĦÏİÎ½
ic es
Î¾Î¹ÎºÏĮ ÏĢÎ·Î¼Î±
ĠÏĦÎ·Î»ÎµÏĮ ÏģÎ±ÏĥÎ·ÏĤ
ÏĦÎ® ÏģÏīÎ½
ĠÎ§Î± ÏģÎ¬
ams ung
Î¤Îµ ÏĦÎ¬ÏģÏĦÎ·
ĠÎµÏĢÎ±Î½Î¬ Î»Î·ÏĪÎ·
ĠS erv
ĠÏĦÏħ ÏĢÎ¿
ĠÎłÎµÏģÎ¹ÏĨÎµÏģÎµÎ¹Î± ÎºÎ®ÏĤ
Î»Ïħ ÏĥÎ·ÏĤ
Îļ Îµ
ÎľÎ±ÎºÎµÎ´Î¿Î½ Î¯Î±
ĠÎ´Î¹Î± Î´ÏģÎ±Î¼Î±
ĠÎ±ÏĢÎ¿ÎºÎ±Î»Ïį ÏĪÎµÎ¹ÏĤ
ĠÎµÏĢÎ¹ÏĥÏĦÎ·Î¼Î¿Î½ Î¹ÎºÏĮ
ĠÎ±ÏĢÎ¿ Î»Î±Î¼Î²
ĠÎĵÏħÎ½Î±Î¹ ÎºÏİÎ½
ĠÎ¿ÏģÎ¹Ïĥ ÏĦÎ¹ÎºÎ®
ĠÎ¬Ïĥ ÏĩÎ·Î¼Î±
ĠÏĥÏħÎ½ÎµÏĢÎ¬ Î³ÎµÏĦÎ±Î¹
ĠÎļÎ±ÏģÎ± ÏĬ
ĠÎ±Î½Î±Î¼ Î½Î®ÏĥÎµÎ¹ÏĤ
ĠÏĦÏģÎ±Î³Î¿ÏħÎ´ Î¯ÏĥÏĦÏģÎ¹Î±
ĠÎ²ÎµÎ» ÏĦÎ¹Ïī
ĠÎĳÏħÏĦÎ¿ ÎºÏģÎ±ÏĦÎ¿
ĠÎ¼ÏĮ Î´Î±
Ïĩ ÏĦÎµÏĤ
ĠÎµÎ¾Î¬ Î»Î»Î¿Ïħ
ĠÎ·Î¼Îµ Î´Î±
ÏĦÏģÏĮ Î¼Î·
Ïĥ ÏİÎ½
ĠÎ£ÏĦÎµ ÏģÎµÎ¬ÏĤ
ĠÎłÎ¿ Î¹Î¿
ÎµÏģ Î½
Îļ Î¬Î½Îµ
Îĵ ÎŁ
ĠÎ¬ÏģÎ¸ ÏģÏīÎ½
ĠÏĥ ÏĢÎ·
ol y
ĠÎ£ÎºÎ¿ Ïģ
ÏģÏĩ Îµ
ĠÏĢÎ·Î³Î± Î¯Î½Î¿ÏħÎ½
ik a
ĠÏģÎ± Î´Î¹ÏĮÏĨÏīÎ½Î¿
ĠP S
Î»Ïī ÏĥÎµ
ĠC ont
ĠÎ±Î³Î¿ ÏģÎ±Ïĥ
ĠÎ±Î½Î¬ Î»Î¿Î³Î·
ĠÎĻÎ½ÏĥÏĦÎ¹ÏĦÎ¿Ïį ÏĦÎ¿Ïħ
V D
ĠÎľÎµÏĥÎ¿ Î³ÎµÎ¯Î¿Ïħ
ĠÎ½ ÏħÎ½
ĠÎ±ÏĢÎ¿ ÏĢÎ»Î·ÏģÏī
ĠAR FARA
ĠÎ³Î½Ïİ ÏģÎ¹ÏĥÎµ
ob log
ĠÏĦÏģÎ¿ÏĢÎ¿ ÏĢÎ¿Î¯Î·ÏĥÎ·
ĠÎºÎ±ÏĦÎ± Î´Î¹ÎºÎ±Ïĥ
ĠÎ³ÎµÎ½ Î¹ÎŃÏĤ
ĠÏĥÏĦÎ¬ Î´Î¹Î±
ÏģÏī Î¼ÎŃÎ½Î¿
ĠÎµÏĢÎ¹Î¸Ïħ Î¼Î·
ĠS urvivor
ĠÎµÏĢÎ¹Î¼ÎŃ ÏģÎ¿ÏħÏĤ
ÎĽ ÏĮÎ³
ĠÎ²Î´Î¿ Î¼Î¬Î´Î±
ĠÎ´ÏģÏĮ Î¼Î¿Î¹
ĠÎłÎŁÎĽ Î¥
ĠÎºÎ¹Î½Î´ÏħÎ½ÎµÏį ÎµÎ¹
ĠÎł Î¬Î½ÏĦÎ±
ĠÎ´Î¹Î±ÏĥÎºÎŃÎ´Î± ÏĥÎ·
Î±Î½Î¬ ÎºÎ¹
ĠÎļÎ¿Ïħ Ïģ
Ïĥ ÏĢÎ¿Ïħ
ĠÎ½Î±ÏģÎºÏī ÏĦÎ¹ÎºÎ¬
Îł Î¬Î½Ïī
ĠÎŃÎ¼ÏĢ Î½ÎµÏħÏĥÎ·
ÏĢÎ¿Î»Î¹ ÏĦÎ¹ÎºÎ®
ĠÏĥÏħÎ¼Î²Î¬ ÏĥÎµÏīÎ½
ĠÏĨÏĮÏģÎ¿Ïħ Î¼
ĠÎ±Î³Î³ Î»Î¹ÎºÎ¬
ĠÎ¿ÏĢÎ± Î´Î¿Î¯
ĠÏĢÎ± ÏĢÎ±
ĠÏĥÏĦÎ±Î¼Î± ÏĦÎ®ÏĥÎ¿ÏħÎ½
ĠÎºÏģÎ± ÏĦÎ¿ÏįÎ½
Î»Î· ÏģÎ¿
Î¼Î±ÏĦÎ¿ Î»Î¿Î³Î¯Î±
ÏĦÎ¶ Î®ÏĤ
Î¿ Î¿
ÏĩÏģÎ¿Î½ Î¹Î¬
ĠÎ±Î½Î± ÎºÏįÎº
ĠÏĥÏĦ ÏģÏİÎ¼Î±ÏĦÎ±
ĠÎļÎ±Î» Î¹
R A
Î³ÏģÎ± ÏĪÎ±
ĠÎ¼Î½Î· Î¼ÎµÎ¯Î±
ĠÎ·Î»ÎµÎºÏĦÏģÎ¿Î½ Î¹ÎºÎ®ÏĤ
ĠÎ¤ÏģÎ¯ ÏĦÎ·ÏĤ
ĠÎĶÏħÎ½Î¬ Î¼ÎµÏīÎ½
ĠÎµÏĢÎ¹Ïĥ ÏĦÎ·
ĠÎ´ Î±Î¹
ĠÎŃ Î³ÏģÎ±ÏĨÎµ
ĠÎŃÎ¾Î¿ Î´Î¿ÏĤ
Îµ Î¹ÎºÏĮÎ½ÎµÏĤ
Î¿Ïħ Î´Î±
ĠÎ±Î½Î±ÏĢÏĦÏį Î¾ÎµÎ¹
ĠÎ±Î½ÏĦÎ¹ Î»Î·ÏĢ
ÎµÎº ÏĦÏĮÏĤ
ĠÎµÎ¼ÏĢ Î¹ÏĥÏĦÎµÏħ
ÏģÏİ ÏĦÎ·ÏĥÎ·
Î¯Ïĥ ÏĦ
Î¥ ÏĢÏĮ
ĠÎĶÎ· Î¼Î·
Î¤Îĳ Î¡
Î»Î± Î²Î®
ĠÎµÏĦÎ· ÏĥÎ¯ÏīÏĤ
Î£ ÎŁ
ĠÎµÎ¾ÏħÏĢÎ·ÏģÎµ ÏĦÎµÎ¯
ĠÏĢÎ±ÏģÎ±Î¼Ïį Î¸Î¹Î±
Î² ÎµÎ»
ĠÏħÎ»Î¿ ÏĢÎ¿Î¯Î·ÏĥÎ·ÏĤ
ÏģÎ® ÏĥÎµÏĦÎµ
ĠÎłÎ»Î·ÏģÎ¿ ÏĨÎ¿ÏģÎ¹ÎºÎ®ÏĤ
Î±Ïħ ÏĦÎ®
ĠÏħÏĢÎ¿ Î´Îµ
ĠÎºÎ±ÏĦÎ±Î³Î³ÎŃ Î»Î»ÎµÎ¹
ĠÎ´Î¹Î±ÏģÎº ÎµÎ¯
ĠÎ§ Î¡
ĠÏĦÏģÎ±ÏĢÎµÎ¶ Î¹ÎºÏĮ
Îº ÎºÎ±
ĠÏĩ Î»Ïī
ÎºÎŃ ÏĨÎ±
ĠÎ¼Î¹Î»Î® ÏĥÎ¿ÏħÎ¼Îµ
ĠÎ´Î¬ÎºÏģÏħ Î±
ÎĹ ÎłÎĳ
ĠÏĩÏģÏī ÏĥÏĦÎ¬
ĠÎ¼ ÏĢÎŃ
ĠM ag
ĠÎļÎ±ÏģÎ±Î¼Î±Î½ Î»Î®ÏĤ
Î¶ÏĮ Î¼ÎµÎ½Î¿ÏĤ
ÏĥÏĦÎ± ÏĦÎ±
Î¶Ïį Î³Î¹Î¿
ĠÏĥÏħÏĩÎ½ ÏĮÏĦÎ·ÏĦÎ±
ĠÎ¬ÏĨÎ· ÏĥÎ±Î½
ĠÎµÎºÏĦÎ¹ Î¼Î¬
ĠÎµÎ¹ÏĥÎ±Î³Î³ÎµÎ»ÎŃ Î±
ĠÎŃ ÏĪÎ±
ĠÎ±Î³ÏīÎ½ Î¹
ĠÏĢÏģÎ¿Î´Î¹Î± Î³ÏģÎ±ÏĨÎŃÏĤ
Î»Î» Î·ÏĤ
ĠÎ¹Î´Î±Î½ Î¹ÎºÎ¬
ĠÎľÎ± ÏģÎ¯
ÎļÎ±Î»Î· Î¼ÎŃÏģÎ±
ĠÎĿÎ¿ Î¼Î¿Ïį
ĠP ubl
Î©Î£ ÎķÎĻÎ£
ĠÎ±Î½Î± ÏĥÏĦÎ¿Î»Î®
Ġ !!!!
ĠÎ´Îµ ÏĩÎ¸ÎµÎ¯
ĠÎµÏħ Î¸ÎµÎ¯Î±
ĠÎ¼ÎµÏĦÎ± ÏĦÏģÎ¿ÏĢÎ®
ĠÎĶÎµÏħ ÏĦÎµÏģÎ¿
ĠÏĥÏħÎ½ÎŃ Î»ÎµÏħÏĥÎ·
ĠÎµÎºÏĦÎ¹ Î¼Î¬ÏĦÎ±Î¹
ĠÎ²Î¿Î® Î¸ÎµÎ¹Î±ÏĤ
ĠÎľÎĳ Î¤
ĠÏĦ ÏĥÎ¿Ïħ
Îº Î¯Î¿Ïħ
ĠÎŁÎĳ ÎļÎĳ
ĠÎŃÎ½ Î½Î¿Î¹ÎµÏĤ
ĠÏĢÎ±ÏģÎ¬ ÏĦÎ±Î¾Î·
ĠÎµÏĢÎµÎ¹ ÏĥÎ¿
ĠÎŁ Î¼Î¬Î´Î±ÏĤ
ĠÎ£ÏħÎ½ÎµÎ´ ÏģÎ¯Î¿Ïħ
ĠÏĩÏİ Î¼Î±
ĠÎ² Î±Î½
ÎŃ Î¼Î±Î¹
Î´Î¹ ÏĢ
ĠÎºÎ± ÏģÎ¬
ĠÏĢÎ±Î¹Î´ ÎµÎ¯Î±ÏĤ
ĠÎµÎ½Î·Î¼ÎŃ ÏģÏīÏĥÎµ
ĠÎ¿Ïħ ÏģÎ±Î½
6 2
ĠÎķÏĢÎ¹ÏĩÎµÎ¹ ÏģÎ·Î¼Î±
ĠÎºÎ±ÏĦÎŃ ÎºÏĦÎ·ÏĥÎµ
ÏĥÎº Ïħ
Î»Î¿Î³Î® ÏĥÏĦÎµ
ĠÎľ ÎķÎ£
ÎºÎ¬Ïģ ÎµÎ¹
ĠÎ±ÏĢÎ¿ÏĦÎµ Î»Î¿ÏįÏĥÎµ
ĠÎ¬Î¼Îµ ÏĥÎ¿
ĠÏĥÏįÎ½ Î´ÏģÎ¿Î¼Î¿
ĠÎĻÎ±ÏĦÏģ Î¹ÎºÎ®ÏĤ
ĠÎµÎ¼ÏĨ Î¬Î½Î¹ÏĥÎ·ÏĤ
ĠÎ´ ÏĮÎ³
ĠÎłÎĳ ÎľÎķ
ĠÎºÎ¬Î¼Îµ ÏģÎµÏĤ
ĠÏĢÎµÏģÎ¹Î¿ ÏģÎ¹ÏĥÎ¼ÏĮ
Ïĩ ÏģÎ¹Ïĥ
ĠÎ»Î¹ ÏĢÎ±
ĠÎ±Î»Î·Î¸ Î¹Î½ÏĮ
ĠÎ¸Î±Î»Î¬Ïĥ ÏĥÎ¹Î±
ĠÎĪ Î»Îµ
ÏĦÎŃ Î½
ĠG T
ĠÎļ Î¬Ïĥ
ĠÏĢÎ¿ Î½Î·
Ïĥ ÎŃÏģ
ĠÎŁÏħÎ¬ ÏĥÎ¹Î³ÎºÏĦÎ¿Î½
ÎļÎ± Î¸Î·
ĠÎ±ÎºÎ¿Ïį Ïī
ÎĽÎ¯ Î³Î¿
ĠÎ¼ÏĢÎ±Î»ÎºÏĮ Î½Î¹
ĠÏĢÎ¿ÏģÏĦÎ¿ ÎºÎ±
Îļ ÎĹÎ£
ĠÎĳÏģÏĩ Î®ÏĤ
ĠÎ±Î½Î±ÏĢÎ· ÏģÎ¯Î±
ĠÎ¿Î½ÏĮ Î¼Î±
Ïĩ Î±Î»
ĠÎ²Î± ÏģÎŃ
s e
I M
ÏĨ Î·ÏĤ
ĠÎºÎ±Î» Î®ÏĤ
Ġ[ ...]
ĠÎ¼ Î¯Î½Î¹
ĠÎµÎ±Ïħ ÏĦÎ¿Ïį
Î¬ ÏĥÎ¿ÏħÎ½
Î»Î¬ ÏĦÎµ
ĠÏĩÏģÏħÏĥ Î¿Ïį
ÎĽ ÎŁÎ¥
Ġ_ --
Î´Î¹Î± ÎºÎ®
ĠÎ´Î·Î¼Î¿ÏĥÎ¹ÎµÏį ÏĦÎ·ÎºÎµ
ĠÏĢÎµÏģÎ¹Î¼ÎŃ Î½Ïī
Î£ ÎµÎ¹
ĠÏĥÏįÎ½Î´Îµ ÏĥÎ¼Î¿
ĠÎ±ÏĥÏĨÎ±Î» Î¹ÏĥÏĦÎ¹ÎºÏĮ
ĠÏĥÏįÎ³ ÏĩÏģÎ¿
ĠÎ´Î¹Î±Î³ÏīÎ½Î¹Ïĥ Î¼ÏĮÏĤ
! "
ĠÎ¼Îµ Î¯Î¶
Î¯Î½Î± Î¼Îµ
ĠÎ¸Îµ Î¯Î±
ĠÎĳÎ³ ÏİÎ½Î±
ĠÏĥÏĩÎ¿Î» ÎŃÏĤ
ĠÎ´Î¹ÎµÎº Î´
ĠÎµ Î»Îµ
ot t
ĠÎµÏĢÎ¹Î¸Ïħ Î¼ÎµÎ¯ÏĦÎµ
ĠÏĥ ÏĢÎ¿Ïģ
ĠÎµ Î»Î¯ÏĦ
ĠÎ¼ÎµÏģÎ¯ Î´Î±
ĠÏĢÎ±Î¹ Î´Î±Î³ÏīÎ³
ĠÏĥÎºÏĮ ÏĦÏīÏĥÎµ
Î»Î¬ ÏĦÎµÏĤ
ĠÏĥÎµ ÏģÎ¯
ÏĨÏĮÏģ Î½Î¹Î±
ÏĦÎµÏģ ÏīÎ½
ÏģÎµ Ïģ
ĠÎ´Î¹Îº ÏĦÏħÎ±
ĠÎµÏĢÎ¹ÏĥÎºÎŃ ÏĪÎµÎ¹ÏĤ
ĠÏĥÎºÎŃÏĨ ÏĦÎ¿Î¼Î±Î¹
ĠUn ivers
ĠÎļÎ± ÏĢÎ¿
ĠÏĦ á½´Î½
ĠÏĥÏĦÏģÎ±ÏĦÏĮ ÏĢÎµÎ´Î¿
ÏģÎµÏį Î¿ÏħÎ½
ĠÎĮ ÏģÎ¿ÏĤ
ĠÎµÏĢÎ¹ÏĥÎºÎµ ÏĢÏĦÏİÎ½
ĠÏĦÏģÏĮ ÏĢÎ¿Ïħ
ĠÎ±Ïĥ ÎºÎµÎ¯
ÏģÎ¹ÎºÎ¬ Î»ÏīÎ½
ĠÎī Î´Î·
ĠÎĽÎ± ÎºÏīÎ½
ĠÎµ ÏĦÏĥÎ¹
Î»Ïİ ÏĥÎµÎ¹
ĠÎ¥ÏĢÎ¿ Î»Î¿Î³
Î»Î¬ Î¼
am a
ÏĦÎ¶ ÎµÏģ
ÎĶÎ¹Î± Î´Î¹Îº
ĠÎ¦ Î©Î¤ÎŁ
ĠÎµÏħ ÏĦÏħÏĩÏİÏĤ
ĠÏĥÏĦÎ¿Î¼Î¬ ÏĩÎ¹
ÏĥÎµ Î¯Î±
ĠÎķ ÎļÎĳ
Î´ Î±Î¹
ĠÎĺ Î®
ĠÎ¾ Î±Î½
ĠÎµÏĢÎ¹ÏĦÏħ Î³Ïĩ
Î»Î¬ Î²Î±
á¿ĸ ÏĤ
ĠÎ±ÏĨ Î¯
ĠÏĢÏģÎ¿ Î¬
ĠÏħÏĢÎµÏģ Î²Î±Î¯Î½ÎµÎ¹
Î´Î¹Îº Î±ÏĤ
ĠÏĢÏģÎ¿ Î¸ÎŃÏĥÎµÎ¹ÏĤ
ĠÏĢÎ± ÏģÎº
ĠÎľÎ¿ÏħÏĥ Î¹ÎºÎ®
ĠÎ£Îµ Î»Î®Î½Î·
Î· ÏĦÎ¹ÎºÎ®
ĠÎ±Î½Î¸ÏģÏİÏĢÎ¹Î½ Î¿Ïħ
ĠÏĥÏħÎ½Î¿Î´ÎµÏį ÎµÏĦÎ±Î¹
ĠÎµÏħÏģÏīÏĢÎ±ÏĬ ÎºÎ®ÏĤ
ĠÎ½ÏĦÎ¿Ïħ Î»Î¬
ĠÎĺÎµ Ïĥ
ĠÎ±Î½Î± Î´ÏģÎ¿
ĠÏĢÎ± ÏĩÏħ
ĠÎ´ ÏģÏİ
ĠÎłÎ± ÏģÏĮ
ĠÎµÎ¸Î½ Î¹ÎºÎ¿Ïį
ĠÎ±Ïģ ÏģÏİ
ĠÎĳÏģÏĩ Î·Î³
Î¹Îº Î¿Î»Î¬Î¿Ïħ
ĠÏĢÏħÏģÎ¿ ÏĥÎ²Îµ
Ïī ÏĦÎ¬
ÏģÎ± Î¯Î±
ĠÎľÎ¿ÏħÎ½ ÏĦÎ¹Î¬Î»
ĠÎµÏħ ÎµÎ»
ĠÎ¼ÎµÏĦÎ± ÏĨÎŃÏģÎ¸Î·ÎºÎµ
ĠÎµÎ¾Î± ÏĨ
Î¯ ÏĤ
ab let
Î¹ Î½Î¿
ĠÏĥÏĦÎ· ÏģÎ¯Î¶Î¿ÏħÎ½
Î½Î¬ ÎµÎ¹
Îº ÏīÏĥÎ·
I P
ĠÎľÏĮÏĥÏĩ Î±ÏĤ
ĠÏĥÏĩÎ¿Î» Î¯ÏīÎ½
ĠÏĥÏĦÎ±Î¸ Î¼Î¿Ïį
Î¯Î¶ Î±
Î½Î± Ïħ
ĠÎ»Î± Î¼ÏĢÎµ
7 1
Ïĥ ÏĦÎ¹ÎºÏĮÏĤ
Î³Î³ ÎŃÎ»
ÎŃÎ½ÏĦ ÏģÏīÏĥÎ·
ĠÏĥÎºÏħ Î»Î¹Î¬
ĠÎĻ Î¬
ĠÎ§ Î¿Î½
ĠÎ§ ÏģÏĮÎ½Î¹Î±
ÏĢÎ¿Î¹ Î½Î±
ĠÎ¼ÎµÏĦÎ¬Î»Î» Î¹Î¿
ĠÎºÎ± ÏģÏĮ
ĠÎľÎµÎ³Î¬ Î»Î·ÏĤ
ĠÎķÏĢÎ± Î½Î±
ĠÏĦÎ· Î»
ĠÏĢÏģÎ¿Î·Î³ Î·Î¸ÎµÎ¯
ĠÏĢÏħÏģÎ® Î½Î±
ĠÎ¿Î¹ÎºÎ¿ Î´ÏĮ
Î¹ÎºÎ¿Î½ÏĮ Î¼Î·ÏĥÎ·
ĠÎ±Î½Î± ÏĢÎ±
Îķ Ïĥ
ÏĥÏĦÎ® ÏģÎ¹Î±
ĠÎ±ÏĢÎ¿Î¸Î·ÎºÎµ Ïį
ĠÎłÎ¿Î»ÏħÏĦÎµÏĩÎ½ ÎµÎ¯Î¿Ïħ
ĠÎµÎºÏĦÎ¿ Î¾Îµ
E A
ĠÏĥÏħÎºÎ¿ ÏĨÎ±Î½
ĠÎĴÎ±ÏĥÎ¹ Î»ÎµÎ¯Î¿Ïħ
ĠÎ±ÏĢÎ¿ ÎºÎ¿
ĠÏĦ ÏģÏİÎ½Îµ
ĠÎ±Î½Î·ÏĥÏħÏĩ Î¯ÎµÏĤ
ĠÏĥÏĦÏģÎ± ÏĦÎ¿
ÎŁÎ¡ Î¦
ÎĿ ÏĮ
ĠÎ¿Ïį ÏĦÏīÏĤ
ĠÎµÏģÏĩ ÏĮÎ¼ÎµÎ½Î·
ĠÎ£ÎµÎ²Î±Ïĥ Î¼Î¹
ĠÎĨ ÏģÎ¸ÏģÎ¿
ÎĶ Ïħ
ay s
ĠÎ¦Î±Î½ÏĦÎ± ÏĥÏĦÎ¹ÎºÏĮ
ĠÎ® ÏĩÎ¿Ïħ
ĠÎµÏĢÎ¹Î´ÏĮ Î¼Î±ÏĦÎ±
ĠÏĢÎ»Î¬ Î¹
g o
ĠÎµÎºÎºÎ»Î· ÏĥÎ¯Î±ÏĤ
ĠÏĥÎµ Î½Î±
ĠÏĨÎ¿Ïħ ÏĥÎº
Ġ199 8
ĠÎµÏĢÎ¹ÎºÎ¯Î½ Î´ÏħÎ½Î±
ÎĶÎ¹Îµ Î¸Î½
ĠÎµÎºÎµÎ¯ Î½Î¿Î½
ĠÏĥÏĦÎ¬Î¸ Î¼ÎµÏħÏĥÎ·ÏĤ
ĠÎ¼ ÏĢÎµ
Î¼Î¿Ïį ÏĥÎµ
Îķ Î¯ÏĥÎ±Î¹
ĠÎ±Ïģ ÏĢÎ±
ĠÎ³Î¹Î± Î¿ÏįÏģ
ĠÎµÏĢÎ¯Î´ ÎµÎ¹
ĠÎµÏĢÎ¹ÏĩÎµÎ¹ ÏģÎ®Î¼Î±ÏĦÎ±
ĠÏĦÎ·Î»ÎµÎ¿ÏĢ ÏĦÎ¹ÎºÎ®
ĠÎ²Î¬Î» Î¿ÏħÎ¼Îµ
ÏģÎ¯ Î´ÎµÏĤ
ĠÎ±Î¾Î¹Î¿ÏĢÎ¹Ïĥ ÏĦÎ¯Î±
ĠÎµÏħÎºÎ¿Î» Î¯Î±
ĠÎ±ÏĥÏĦÏħÎ½Î¿Î¼ Î¹ÎºÏĮ
ĠÎ£ÏĩÎµ Î´Î¹Î±
ĠÎĴ Î¯Î½ÏĦÎµÎ¿
ÏĨÏī ÏĦÎ¿
ĠÎ·Î³Îµ ÏĥÎ¯Î±ÏĤ
Î½Î¹ ÏĥÎ·
ĠA m
ĠÎ»ÎµÎ¹ÏĦÎ¿ÏħÏģÎ³ Î¹ÏİÎ½
ĠÏĢÎ±Î½Î·Î³ Ïį
k i
ÎŃÏģ ÏģÎ¹
ĠÎ±Î½ÏĦÎ¯ÏĥÏĦÎ¿Î¹ ÏĩÎµÏĤ
ĠÎ¤Ïį ÏĢÎ¿ÏĤ
ĠÎ¸Î¬Ïģ ÏģÎ¿ÏĤ
ĠÎ´ÏħÎ½Î± Î¼Î¹ÎºÎ¬
ÏģÎ¿Î½ ÏĦÎ±ÏĤ
ĠÏĥÏĩÎ¿Î» Î¹ÎºÏĮ
ĠÏĢÎ±ÏģÎ±Î´Î¿ÏĥÎ¹Î± ÎºÎ®
Î»Î¹Î± ÎºÎ®
ÎĳÎĿ ÎķÎĽ
Î² Î¿ÏįÎ½
ĠÎµÏģÎ³Î±Ïĥ ÏĦÎ®ÏģÎ¹Î±
ĠÎ¤ÏģÎ¯ ÏĢÎ¿Î»Î·ÏĤ
ĠÎ¬Î½Îµ Î¼Î¿Î¹
ĠÎļÎ± Î¸
Î»ÎŃ ÏīÎ½
ĠÏĢÎ±ÏģÎ¿Ïħ ÏĥÎ¯Î±ÏĤ
ĠÎ½Î¿Î¼ Î¹ÎºÎ®
ĠÎ±ÏģÏĩÎ¹ÏĦÎµÎºÏĦÎ¿Î½ Î¹ÎºÎ®
Î¸Î± Î¼Îµ
ĠÎłÎ± ÏģÎ±Î³Ïī
ĠÎķ ÏĨÎ±ÏģÎ¼Î¿
ĠÎ¡ Î¿Î½
ĠÏħ ÏĢÎ·
Î»Î± ÏĨ
ĠÎºÏĮÎºÎºÎ¹ Î½Î±
Î´ÏģÏĮ Î¼Î¿Ïħ
ĠÎ±Ïĥ Îº
ĠÎ±Î¹ÏĥÎ¹Î¿ Î´Î¿Î¾Î¯Î±
ĠÎĴÎµÎ½Îµ Î¶Î¿Ïħ
ud io
ÏģÏĮ Î»ÎµÏħ
Î»Î¿Î³ Î¹ÏĥÎ¼ÏĮ
Î¼Î¬ÏĦÎ¹ ÏĥÎµ
ĠÎ´Î¹Î±ÏĢÏģÎ±Î³Î¼Î±ÏĦÎµÏį ÏĥÎµÏīÎ½
Ġi P
ĠÎĶÎ® Î¼ÏīÎ½
ĠÎ¼Î® Î½Î±ÏĤ
Î¼Î® ÏĥÎ¿ÏħÎ½
ĠÎ³ÎµÎ½ Î½Î¹
ĠÏĦÎ¿ÏħÏģÎº Î¹ÎºÎŃÏĤ
ĠÎµÎ³ Î³ÏģÎ±ÏĨÎŃÏĤ
ÏĦ ÏģÎ®ÏĥÎµÎ¹ÏĤ
ÏĩÎ¸ ÎŃÏĤ
ĠAl pha
ĠÏĥÏī Î»Î®
ĠÏĢÎµÏģÎ¹Î»Î±Î¼Î² Î¬Î½ÎµÏĦÎ±Î¹
ĠÎ§ÏģÏħÏĥ ÏĮ
ĠÎµÏĢÎ¹ÏĦÏģÎŃ ÏĪÎµÎ¹
ÏĨÎ±Ïĥ Î¼Î±
Ġ> >
ĠÎµÎº ÏĦÎ¯
ÏĨ Î¸Î·ÎºÎ±Î½
ĠÎľÎ± ÎºÎµ
ĠÎĳÏģÏĩÎ± Î¯Î±
ĠÎ¤ Î¶Î¹
ĠÎ¸ÏħÏĥ Î¯Î±
ĠÏĥÏĦÎ¿Î¯ ÏĩÎ·Î¼Î±
ĠÎ´Î¹Î± ÏĥÏĦÎ®Î¼Î±ÏĦÎ±
ÏģÎ¿ ÏĩÎ®
ĠÏĢÎ±Î½ ÏĦÏģÎµÏį
Î¬ ÏĥÏĦÎ·ÎºÎ±Î½
ĠÏĢÏģÎ¿ÏĥÏĢÎ¬ Î¸ÎµÎ¹Î±ÏĤ
ĠÎ¸Îµ ÏģÎ±ÏĢÎµÎ¯ÎµÏĤ
ĠÎºÎ»Î¹Î½ Î¹ÎºÎ®
Î´ ÏħÎ½ÎµÏĤ
ĠÎ±Î½Î±Î³ÎºÎ± Î¯Î¿
. âĢĿ
ĠÎ±Î½ Î¹Ïĩ
Î±Î¹ÏģÎµ ÏĦÎ¹ÎºÎ¬
ĠÏĥÏĩÎµ Î´Î¯ÏīÎ½
ĠÎĵÏħÎ¼ Î½Î¬ÏĥÎ¹Î¿
ĠÏģÎ¯ Î¾ÎµÎ¹
ÏĥÏĦÎ¹ Î½
ÏĦÎµ ÏģÎ·ÏĤ
ĠÏĦÏĥÎŃ ÏĢÎ·
ĠÎ· Î»Î¹Î¿
Î³ÎºÎµ Î»Î±
Î¼Î¿Ïį Î¼Îµ
ĠÎ¬Î½ Î¸ÏģÎ±ÎºÎ±
ĠÏĦÏģÎ¿ÏĢÎ¿ Î»Î¿Î³Î¯Î±
ÎµÎ¹ Ïĥ
ÎºÏĮÎ½ ÏĦÏīÎ½
ĠÎ´Î¹Î± Î´ÏģÎ¿Î¼ÎŃÏĤ
ĠÎµÏĢÎ¹Î² Î¬Ïģ
ĠÎ£Î· Î¼Î¯
ĠÏĢÎ±ÏģÎ± Î´Îµ
ĠÎ¼ÎµÏĦÎ± ÏĨÎŃÏģÎ¿ÏħÎ½
ÏĥÎ± Î½Î±ÏĦÎ¿
ĠÏĢÎ±Î½ ÏĦÎ¿
ĠP al
ÎºÎ¬ ÎºÎ¹Î±
ĠÎºÎ¯Î½Î· ÏĦÏģÎ¿
ÏĢÎ± Î¾
ĠÎµÏĢÎ¹Îº Î¿Ïħ
Î¼Î¹ Î»Î¯Î±
ĠÏĢÏģÎ¿ Î½ÏĮ
ĠÎµÎ½ÏĦÏħÏĢÏī ÏĥÎ¹Î¬
ĠÎ±ÏģÎ¹ÏĥÏĦÎµ ÏģÎ¬ÏĤ
ĠÎºÏįÎº Î»Î¿ÏħÏĤ
ÏĦÎ¹Ïĥ ÏĥÎ±
ĠÏĨÏį Î»Î¿
ĠÎµÎ½ÏĦÏħÏĢÏīÏĥÎ¹Î± ÎºÎ¬
ĠÎĴÎ± ÏģÎ¿ÏħÏĨÎ¬
Îļ ÎĻ
ÎļÎ±Î¹ ÏģÏĮÏĤ
ĠÎ³Îµ Î»Î¿
ĠÎ´Î¹Î¬ Î»Î¿Î³Î¿ÏĤ
ĠÏĢÏģÏīÏĦÎ¿ ÏĢÏĮ
ĠÎ¾ÎŃÎ½ ÎµÏĤ
ĠÎķ Î²ÏģÎ±
ĠF estival
ĠÎ¼Î± ÎºÎ¹Î³Î¹Î¬Î¶
ĠÎµÏĢ ÏģÏĮÎºÎµÎ¹ÏĦÎ¿
Îĸ ÎķÎĻ
ĠÎµÏģÏī ÏĦÎ¹ÎºÎ®
p ro
ĠÎŃÎ½ ÏĦÎ¿Î½ÎµÏĤ
ĠÎµÎ¹Î´ Î¹ÎºÎ¿Ïį
ĠÎ´ Î¿Î½
ĠÎ¦ÏħÏĥ Î¹ÎºÎ®ÏĤ
ĠOn e
Î¦ ÎŁÎ¡
ĠF err
ĠÎ³ Î»Î¹
ĠÎ¤ ÏģÎ¹ÎºÎ¬Î»ÏīÎ½
ĠÎ¹Î´Îµ ÏİÎ½
ĠÎ±ÏĢÎ¿ÎºÎ±Î» ÏįÏĢ
ĠÎĿÎ¿Ïģ Î²Î·Î³
Îķ Î¹ÎºÏĮÎ½ÎµÏĤ
ĠÎĶÎķ Îĺ
ĠÎµÎ¾ Î¿Ïģ
Î½ÎŃ ÎµÎ¹
ĠÏĢÎµ ÏĦÎ±
ĠÎµÏĩÎµÎ¹ ÏĤ
ĠÎ¼ÎµÏĦÎ± ÏĦÏģÎ±ÏĢÎµÎ¯
Î½Î® ÏĥÎµÎ¹
ĠÎºÎ±ÏħÏĥÎ¯ Î¼ÏīÎ½
ÏĦÏĥÎµ ÏĥÏĦÎµÏģ
Î¬ ÏĨ
ĠÎ³ÎŃÎ½ Î½Î·ÏĥÎ·
ĠÎµÏĢÎ¿ ÏĩÏİÎ½
ĠÎ±Î½Î¬ Î»Î¿Î³Î¿
ĠÏĢÏī Î»Î®ÏĥÎµÏīÎ½
ĠG al
ĠÎ´Îµ Î¾Î¹Î¿
ĠÎºÎ±ÏĦÎ± ÏĥÏĦÎµÎ¯
ÎĹÎ£ Î¤Îķ
ĠÏĢÏģÏĮ Î¸Ïħ
n er
Î´Îµ Î¸ÎµÎ¯ÏĦÎµ
Î¶Ïī Î¿
ĠÎ±Î¹ ÏĦÎ¹Î¿
Î¼Î® Î¼Î±ÏĦÎ±
ĠÎ¼ÎµÎ³Î± Î»Î±
Î¿Ïħ ÏĦ
Î¼Î± ÏĦÎ¹ÎºÏİÎ½
ĠÎķÎ»Î»Î·Î½ Î¹ÎºÏİÎ½
ĠÎºÏħÏģÎ¹Î±ÏģÏĩ Î¯Î±ÏĤ
ĠÏĥÏħÎ½Î± Î»Î»Î±Î³ÏİÎ½
Î²Î¿ Î»Î¿
ĠÎ¼Î· Î´ÎŃÎ½
ĠÎµÎ½Î·Î¼Îµ ÏģÏİÏĥÎµÎ¹
ol it
Î¿Ïģ ÏģÎ¬
ĠÎļÎ± Î¸ÏİÏĤ
ÏĥÎºÎ¿ÏĢÎ® ÏĥÎµÎ¹ÏĤ
ĠÎ³ÏħÎ±Î» Î¹Î¬
ĠÏħÏĢÎ¿ÏħÏģÎ³ Î¿Î¯
Î» Î¯Î¿
ĠÎľÎ½Î· Î¼Î¿Î½
ĠRe ad
ix mi
ÎºÎ¿Î»Î¿Ïį Î¸Î·ÏĥÎµ
ĠÎºÎ¬ ÏĢÎ½Î¹ÏĥÎ¼Î±
ÎºÎ± Î¼
ĠÎ¤ÏģÎ¿ ÏĨÎ¯Î¼ÏīÎ½
ĠÎķ Î¾Î±
Î¼Î¬ ÏģÎ¹
ĠÏĢÏģÎ¿ÏĥÏī ÏģÎ¹Î½Î¬
Î¤ ÏĮ
Î§ ÎĿ
ĠÎ¤ Îķ
ĠÎ½Î¹ÎºÎ· ÏĦÎŃÏĤ
ĠÎļÎ¿Î¹Î½Î¿ Î²Î¿ÏįÎ»Î¹Î¿
ĠÎĶÏģÎ¬ Î¼Î±ÏĤ
ĠÎµÎ¸Î½ Î¹ÎºÏİÎ½
ĠÏĥÏĩÎ¿Î»Î¹Î± ÏĥÎ¼ÏĮÏĤ
ĠÎĳÏĥ ÏĦÎŃÏģÎ±
ĠÏĢÎµÎ¯ ÏĥÎµÎ¹
ĠÎµÎ¸ Î½Î¿
ĠÏĥÏħÎ³ÎºÎŃÎ½ÏĦ ÏģÏīÏĥÎ·ÏĤ
ÏĢÎŃ ÏģÎ¿
ÏĦÎ¿Ïį ÏĥÎ±
ĠÎ¸ Ïī
ĠÏĩ ÏĦÎµÏĤ
ĠÎ±Î½Î±Î³Î½Ïİ ÏĥÏĦÎ·
Î¯ ÏĥÏĦÎµÏĤ
ĠÏĢÏģÏĮ Î²Î±
ĠÎµÎºÏĢÎ¿Î¼ÏĢ Î®ÏĤ
ĠÎºÏħ ÏģÏİÏĥÎµÎ¹ÏĤ
Î» Î»Î¿ÏĤ
ĠÏĩÏĦÏįÏĢÎ· ÏĥÎµ
ĠÎłÎ¿Î»Î¹ ÏĦÎµÎ¯Î±
ĠÎºÎ±ÏĦÎ± ÏĥÏĦÎ±
ĠÏĢÏģÎ±Î³Î¼Î±ÏĦÎ¿ÏĢÎ¿Î¹ Î¿ÏįÎ½ÏĦÎ±Î¹
ĠÏĢÏģÎ¿ ÏĨÎ·
Î¿ÏħÎ½ ÏĦ
ÏģÎ¹Î¸ Î¼ÏĮÏĤ
ÏģÎ±Î² ÎµÎ¯Î¿
ĠÎ§ Î¯Î¿Ïħ
el e
8 2
ĠÎµÏħÏģÏīÏĢÎ±ÏĬ ÎºÏİÎ½
ĠÎºÎ¹ Î½ÎµÎ¶
ĠÏĦÎŃÏĦÎ±Ïģ ÏĦÎ·
T M
ĠÏĪÎ¬ ÏģÎ¹
ĠÎŃÎ¼Î± Î¸Îµ
ÏģÎ¯Î¶ ÎµÏĦÎµ
ĠÎ±Î½ ÏĦÎ¬Ïģ
Î¦ ÎĳÎĽ
ĠÎ¤ ÏģÎ±Î³
ÏħÏĥ Î¹Î±
ĠÎ²Î¬Î» ÎµÎ¹ÏĤ
Î¶Îµ ÏĥÎ±Î¹
ĠÏĦÎµ ÏĦÏģÎ±Î³
Î¹Î¬ Î¶ÎµÏĦÎ±Î¹
Î¦ Î±
L O
Î´ ÏħÎ½
ÏĥÎ¹ Ïī
ĠÏĥÏįÎ½ ÏĦÎ¿Î¼Î¿
ĠÏĢÎ¿Î»Ïħ ÎºÎ±ÏĦÎ¿Î¹Îº
at es
ĠÎ´Î¹Î± Î²Î¯
ĠÎµÏĢÎ¹ ÏĦÎ¬
ĠÎ¼Î¹ÎºÏģÎ¿ Î¼ÎµÏĥÎ±
ĠÎŃÎº ÏĨÏģÎ±ÏĥÎ·ÏĤ
ĠÎ¼Î·ÏĩÎ±Î½ Î®Î¼Î±ÏĦÎ±
ĠÎºÎ±ÏĦÎ±ÏĥÏĦÏģÎ¿ÏĨ ÎŃÏĤ
ĠÏĨÏģÎŃ ÏĥÎºÎ¿
ĠÎµÎ¹ Î¼Î±Î¹
ĠÎ±ÏĢÎ¬ ÏĦÎ·
ÎĴÎĳÎ£ Îķ
ĠÎłÎµ ÏģÎ¹Ïĥ
ul a
ĠM ed
ÏģÎ¬ Î´ÎµÏĤ
ÏĦÎ¹Îº Î¿Ïħ
ĠÎķÏĢÎ±Î½Î¬ ÏĥÏĦÎ±ÏĥÎ·
ĠÎ±Î½Î±ÏĢÎ»Î·ÏģÏī ÏĦÎ®ÏĤ
ĠÏĥÏīÎ¼Î± ÏĦÎµÎ¯Î±
ĠÏĢÎ® Î³Î±
ĠÏĥÎºÏį Î»Î¿ÏĤ
ĠÎ¸ÎµÎ± ÏĦÎŃÏĤ
ĠIn ternational
ĠÎĻÏĥÏģÎ± Î·
Îĺ Î¥
ÏĥÏĦÎµ ÏģÎ¿
ĠÎľÎµÏĥÏĥÎ· Î½Î¯Î±ÏĤ
ĠÏĢÎ¹Î¬ ÏĥÎµÎ¹
ĠÎ±Î´Î¹ÎŃ Î¾Î¿Î´Î¿
ĠP ost
ĠÎĳÎ³Î¿ ÏģÎ¬
ĠÎ±ÏĢÏĮÏĨÎ±Ïĥ Î®
ĠÏĦÏģÎ¬ÏĢÎµÎ¶ Î±ÏĤ
ĠÏĢÎ±ÏģÎ¬ Î½Î¿
ĠÎºÎ± ÏģÏį
ĠÎ£ ÎļÎĳ
Î¼Î· Î¸ÎµÎ¯
ĠÎ¬ Î»Î¿Î³Î±
ĠÏĢÎ»ÎµÎ¿Î½ ÎµÎºÏĦÎ®Î¼Î±ÏĦÎ±
Î»Î± ÏĦÎ±
ĠÎĳÏĨ Î³Î±Î½
ĠÎľ Î¹Î»
Î²Î¬ ÏĥÎµÎ¹ÏĤ
ĠÎ¿ÏĨ Î¸Î±Î»
ĠÎ¼ÏĢÎ¿ÏģÎŃ ÏĥÎ¿ÏħÎ½
ĠÎ¿ÏĨÎµÎ¯ Î»Î¿ÏħÎ½
ĠÏī ÏĨÎŃ
ÏİÎ½Ïħ Î¼Î¿ÏĤ
ĠÎºÎµÏĨÎ± Î»Î±Î¯ÏīÎ½
ĠÎ§Î¬ ÏģÎ·
ĠÎ±Î½ÏĦÎ¹ÏĥÏĦÎ¿Î¹ ÏĩÎµÎ¯
ĠÏĢÎ±Î¹ Î´Î¹Î±
ĠÏĢÏģÎ¿ÎºÎ± Î»ÎŃÏĥÎ¿ÏħÎ½
ĠÎłÎ¿ ÏĦÎŃ
Ġ6 2
ĠÎļÏĮ ÏĥÎ¼Î¿ÏĤ
ĠCom m
os m
ĠÏģÎ· ÏĦÎ¿
ĠÎļÎŃÏģÎºÏħ ÏģÎ±ÏĤ
ĠÎºÏģ Î¯Î½ÎµÏĦÎ±Î¹
ĠÎ±ÏĥÏĩÎ¿ Î»Î·Î¸ÎµÎ¯
ÏĦÎ¹ ÏĥÎ±Î½
ÏĩÎ¿Ïħ ÏĥÎ±
Î´ÏģÎ¬ ÏĥÎµÎ¹ÏĤ
ĠÎ´Î¹ÎºÎ·Î³ÏĮ ÏģÎ¿ÏĤ
ĠÏĢÎ±ÏģÎŃ Î¼ÎµÎ¹Î½Îµ
ÎµÏį ÏĥÎµÎ¹ÏĤ
ĠÏĩÎµÎ¹ ÏģÎ¹Ïĥ
ĠÎµÎ¾Î±ÏĥÏĨÎ±Î» Î¯Î¶ÎµÎ¹
ÎķÎ¯ ÏĥÏĦÎµ
ĠÎ±Îº Î¿ÏħÏĥ
ĠÏĥÏĦÎ±Î¸Îµ ÏģÎ¿
ĠÏĦÎ± Î¼ÏĢ
ĠÎ¾Îµ ÏĥÎ·
ĠÎ£Î±Î½ ÏĦÎ¿Ïģ
ĠÏĢÏģÎ±Î³Î¼Î± ÏĦÎ¹ÎºÎŃÏĤ
ad s
ĠÎºÎ· Î´Îµ
ĠÎ´Î¹Î± ÏĪÎµÏį
ĠÎµÎ»ÎŃÎ³ ÏĩÎ¿ÏħÏĤ
ĠU N
ÎĶÏī ÏģÎµÎ¬Î½
ĠÎ§ ÏģÏħÏĥÎ¿
ĠÎµ ÏĨÎŃ
ĠÎļÎ±Î¸Î· Î³Î·ÏĦÎ®ÏĤ
ĠÎµÏĢÎµÎº ÏĦÎµ
ĠÎ´ÎµÎ´Î¿ Î¼ÎŃÎ½Î·
Î¸Î· ÏĥÎ±
ĠÏĢÎ±ÏĢ ÏĢÎ¿Ïį
ĠÎµÎ¼ÏĢÎ¿ ÏģÎ¯Î¿Ïħ
ĠÎķÏħÏģÏīÏĢÎ± Î¯Î¿Î¹
ĠÎºÎ±Î¸Î® ÎºÎ¿Î½ÏĦÎ±
ĠÎ¼Î·ÏĩÎ±Î½ Î¹ÏĥÎ¼ÏĮÏĤ
AS A
Î³Î½Ïī ÏĥÎ¯Î±
ĠÏĩÏħ Î¼ÏĮ
ĠP ower
9 5
ÏĥÎ¹Î± ÎºÎ¿Ïį
ĠÎļÎ¬ ÏĢÎ¿Î¹Î¿Î¹
ĠÏĥÎºÎ·Î½Î¿Î¸ÎŃ ÏĦÎ·ÏĤ
ĠÎļ Î¬Î½ÏĦÎµ
ĠÎ²ÎµÎ»ÏĦÎ¹ ÏİÏĥÎµÏĦÎµ
ĠÎºÎ±Î¸Î·Î¼ÎµÏģÎ¹Î½ ÏĮ
ĠÎ±Î»Î»Î· Î»Î¿
ĠÏĥÏħÏĥÏĦÎ·Î¼Î± ÏĦÎ¹ÎºÎ¬
Î³Î¹ Î¿Ïį
ĠÎºÎ±Î¸Î¿ Î´Î®
Î¿Î» ÏĮ
ĠÎºÎ±Î¹Î½Î¿Ïį ÏģÎ¹Î¿
ÏĦÎ¹Ïĥ Î¼Î±
ĠÎŃ Î²Î±Î»Î±Î½
ĠÎłÏģÏīÏĦÎ± Î¸
ĠÏĢÎ¬Î½ ÏĦÎµÏĤ
ĠÎŃÏĥ ÏĢÎ±
ĠÎ£ÎµÏĢÏĦÎŃ Î¼Î²ÏģÎ·
Â» ...
ĠÎ´Î¹Î±ÎºÏģÎ¯ ÏĥÎµÎ¹ÏĤ
ĠÎĳÎ½ ÏİÏĦÎ±
ÎĶ ÎµÏĤ
ĠÎ¤ Î±Î¹Î½
ĠÏĥÎ¹Î´Î·ÏģÎ¿ Î´ÏģÎ¿
ĠÎ±Î³ÏĮ ÏģÎ¹Î±
Î¹ÎºÏĮ Î½Î±
ĠÎ±Î½ÏĦÎ¯ ÏĥÏĦÏģÎ¿
ĠÏĦÎ¶Î¹ ÏĩÎ±Î½
ĠÎľÎ±Î´ÏģÎ¯ ÏĦÎ·ÏĤ
ĠÎ± Î¼Î¹
Î¶Î¯ Î½Î¿
ĠÎ¼ÎŃ ÏĦÎ±
Î¬ ÏģÎ¹Î¸
ĠÎ¼Îµ Î»Ïī
Îķ ÏģÎ³
Ïĩ Î½Î±Î½
em ber
ĠÎ±ÏĢÎµÏħ Î¸ÏįÎ½
ĠÎ²ÏĮ Î¼Î²Î±
ĠÏĢÎ±Î»Î±Î¹ ÏĮÏĦÎµÏģÎ±
ĠÏĢÎ±ÏģÎ¿ÏħÏĥÎ¹Î± ÏĥÏĦÎµÎ¯
ĠÎ±ÎµÏģÎ¿ Î´ÏģÎ¿
ĠÏĥÏħÎ½ÎµÏĩ ÎµÎ¯ÏĤ
ĠÏĢÏģÎ¿Î²Î¿Î» Î®ÏĤ
ĠÎ±ÏĢÎ±Ïģ ÏĦÎ¯Î¶Î¿ÏħÎ½
ĠÎ®Î¾Îµ ÏģÎ±
ÏģÎ¹ ÏīÎ½
ĠÎµÎ³ÏĩÎµÎ¯ ÏģÎ·Î¼Î±
ĠÎ¿ÏģÎ³Î±Î½ ÏİÏĥÎµÏīÎ½
ĠÎ´Î·Î¼Î¿ÏĥÎ¹ÎµÏį Î¿Î½ÏĦÎ±Î¹
ÎŁ Î¦
ÏĢÎµ Î¶Î¯
Î´Ïİ ÏĥÎ¿ÏħÎ½
ÎĶÎµÎ» ÏĦÎ¯Î±
ĠÏĥÎ± ÎºÎ¿Ïį
ĠÏĪÏħÏĩ ÎŃÏĤ
ĠC re
Î» Î¹ÎºÎ¿
Î»Îµ ÏĦÏİÎ½
ĠÎµÎ»ÎµÏįÎ¸Îµ ÏģÎ¿Î¹
ĠÎ´Î¹ÎºÎ±Ïĥ ÏĦÎ¹ÎºÎ®
ĠÎ£ÏĦÎŃ ÏĨÎ±
ĠÎµÏĥÏĦÎ¹Î±ÏĦÏĮ ÏģÎ¹Î±
ĠÎ»ÎµÎ¹ÏĦÎ¿ÏħÏģÎ³ Î¹ÎºÏĮ
ÏĦÏĥ ÏĮ
ĠÎ±ÏģÏĩ Î¯ÏĥÎ¿ÏħÎ½
Ïĥ ÏįÎ½
ĠÎ±ÏĢÎ± Î¾
er m
ĠÎľ Î±Î»
ĠÎµÏĢÎ·ÏģÎµ Î¬ÏĥÎµÎ¹
ĠÏĩ ÎµÏģ
ĠÏĥÏħÎ³Îº Î¿Î¹Î½ÏīÎ½
ĠÎ³ÏħÎ¼Î½Î± ÏĥÏĦÎ®ÏģÎ¹Î¿
ĠÎ±Î½ÎµÎ¾ ÎŃ
ĠÎ±Î¹ÏĥÎ¸ Î¬Î½ÎµÏĦÎ±Î¹
ĠÏī ÏģÎ¬
ĠC ity
ĠÎ½ÎµÎ± ÏģÎ®
Î¼Îµ Î½ÏĮ
ĠÎ¸ ÏģÏĮ
Î· Î»Î±
ĠÏĢÎ¹ ÏĮ
ĠÏĦÏĥ Î¬Î½ÏĦÎ±
ĠÎ¼ Î±Î»
ÏĨÎ¿ ÏģÎµ
Î³Î¹ ÏİÎ½
ĠÎ½ ÏĦÏģÎ¿ÏĢÎ®
ĠÎº Î»Îµ
ĠÏĨÎ¿Î²Î¬ ÏĦÎ±Î¹
ĠÎ´Î·Î¼Î¹Î¿ÏħÏģÎ³ Î¿ÏįÎ½ÏĦÎ±Î¹
ĠÎ¼ÎŃ Î»Î¿ÏħÏĤ
ĠÎ· Î¼ÎµÏģÎ¯Î´Î±
Ġf l
ĠÎºÎ¹ Î»ÏĮ
al s
Ã ¼
ĠI s
ĠÎŃÏĢÎµ ÏĥÎ±Î½
ĠÎ¼Î±Î¶ Î¹ÎºÎ®ÏĤ
ĠÎ±ÏĢÎ¿Î»Î±Ïį ÏĥÎµÏĦÎµ
ÎłÎĳ ÎĿ
Îĵ ÎĳÎ£
ĠÎ±Î³Ïī Î³Î®ÏĤ
ĠJ av
ĠÎ¼Î¬ ÏĥÎºÎ±
ÏĦÎŃ ÏĩÎ¿ÏħÎ½
ĠÎ»Î¿Î³Î¹Ïĥ Î¼Î¹ÎºÎ¿Ïį
ĠÎ¯Î½ ÏĦÎµÏģÎ½ÎµÏĦ
ÏĦÎ¿ ÏĢÎ¿ÏįÎ»Î¿Ïħ
ĠÎºÏģÎ¯ ÏĥÎ¹Î¼Î¿
[...]
