#version: 0.2
a n
Ġ m
a r
an g
Ġ s
a t
i n
a k
Ġ b
a h
Ġm e
a l
Ġ k
Ġ p
d i
Ġ t
a m
a s
u n
y a
Ġ di
Ġs e
k an
Ġme n
t u
Ġ y
Ġp e
Ġy ang
Ġb e
a p
Ġk e
Ġt e
i s
a d
i k
d an
Ġ dan
Ġ l
d e
i t
i l
g a
o n
Ġ S
Ġbe r
in g
Ġ P
e l
o r
u s
Ġ A
Ġ h
g an
m b
n ya
ak an
Ġte r
u r
Ġ M
Ġ K
Ġ j
Ġ B
ar i
u t
Ġ in
e s
Ġ de
u l
Ġ T
r i
u k
ad a
i h
Ġ D
u m
o l
tu k
n gan
e b
e m
t i
g i
Ġpe r
ar a
i d
a i
â Ģ
Ġmen g
a u
Ġde ngan
Ġ un
Ġin i
j a
Ġpe n
e k
as i
Ġun tuk
un g
al am
s i
Ġ r
p e
Ġ I
n d
Ġ c
e t
Ġ i
. .
Ġme m
b a
d ari
Ġ n
o m
Ġ dari
Ġ (
al ah
t a
an d
u d
t e
am a
Ġs a
i r
Ġ J
i a
u p
a in
u h
a b
o k
Ġ g
id ak
r o
pe r
an ya
Ġme mb
Ġ 2
i m
d alam
Ġ H
Ġb a
Ġ R
e h
Ġt idak
Ġ at
Ġ w
Ġ dalam
Ġme r
ang an
it a
am p
l ah
Ġi tu
Ġ C
Ġ L
u kan
ap at
ĠP e
Ġ akan
n a
b e
n t
u at
a y
Ġp ada
is a
Ġ 1
a w
d apat
Ġ ad
Ġ N
Ġj u
Ġme l
al i
a g
Ġm as
at a
or ang
o t
at an
Ġat au
an t
Ġb isa
e p
ap a
Ġ f
y ak
ud ah
Ġ G
as a
an a
ja di
Ġju ga
ĠM e
u b
nd a
ar e
Ġad alah
Ġ ak
at i
Ġ âĢ
Ġ U
o s
Ġ2 0
a j
am b
ik a
u a
Ġ ada
am i
te r
a ya
g e
eb ih
a c
al u
ga i
ol eh
s e
ĠA nda
Ġse m
w a
A N
Ġse k
and a
Ġse l
a di
Ġ dapat
Ġh ar
ah an
Ġ O
ap i
Ġmen y
ĠT e
k e
s eb
at u
are na
Ġse ba
a gi
Ġ W
ar an
Ġ20 1
r e
Ġ F
Ġk ita
Ġsa ya
ang k
o b
m e
r a
in ya
u an
ek a
Ġl ebih
g un
âĢ Ŀ
Ġp ro
Ġ oleh
an yak
seb ut
.. .
Ġ anda
Ġmen jadi
i p
Ġ orang
Ġb ah
al an
ar u
e ri
Ġse b
o g
Ġt ah
Ġpen g
be r
Ġl ain
ĠI n
Ġs udah
Ġse r
p at
ak ukan
ang g
ik i
Ġk arena
is i
ang at
e g
per ti
a an
Ġter sebut
Ġ Y
on es
in e
ĠB e
ĠS e
t r
Ġmer eka
Ġke p
ones ia
an j
i tu
Ġke l
Ġ E
ĠI nd
c ara
ĠPe r
Ġ an
ĠMe n
ĠTe r
Ġb anyak
ĠA l
ĠK e
Ġs atu
i b
v e
Ġseba gai
o p
n tuk
Ġ e
0 0
d uk
Ġbe l
Ġk ami
ĠPe n
Ġ -
u j
ĠInd onesia
Ġse n
am an
al a
Ġs angat
Ġba gi
it as
Ġse perti
un gan
u tu
ing ga
Ġ :
Ġmen c
un ya
ing k
Ġk on
u ar
o h
as il
Ġmem il
e nt
ar ang
t em
Ġsa at
Ġm ak
k u
on g
Ġke m
or m
gun akan
in i
Ġpe m
l e
as an
Ġtah un
Ġpe mb
ih at
in t
Ġte lah
p a
am u
di ri
Ġke r
Ġt ak
a f
Ġ 3
ĠBe r
Ġhar us
Ġte m
l ine
o w
e mb
i an
ur an
Ġdi l
Ġh anya
Ġp as
Ġ ya
Ġsa ja
Ġak u
Ġ ag
ar t
Ġ v
u ah
u di
el ah
Ġba ik
Ġke s
Ġbah wa
ĠâĢ ľ
ĠD i
ung k
n is
o ta
Ġse cara
Ġdi s
e w
ang s
in d
Ġh al
Ġber s
te n
Ġmemil iki
g k
uk a
Ġse h
Ġpe l
ar kan
Ġl agi
Ġmeng h
ik ut
um ah
r an
t ing
ing in
Ġh ari
us ah
de r
al au
l ik
ang kan
amp ai
âĢ ¦
g g
ah kan
Ġb i
d ua
at e
up akan
y ar
Ġs i
uh an
Ġk om
h ir
Ġmemb uat
ap an
Ġte nt
Ġ ap
Ġ al
Ġkep ada
) .
E R
a at
h e
Ġper t
n ar
ber apa
n gk
s es
am un
Ġm an
ing g
ĠâĢ ĵ
Ġte t
i c
Ġter b
Ġmas ih
Ġmer upakan
P e
ak tu
Ġbe berapa
u al
Ġdi a
Ġdi b
Ġan ak
p un
on t
Ġb aru
di k
ak u
Ġ as
m a
Ġbe s
e d
u ang
Ġk ali
ul an
on al
id up
Ġsem ua
el um
Ġber k
Ġter l
Ġp ara
un ia
Ġdi k
Ġse s
Ġt an
ke r
m ain
âĢ ľ
m an
r es
ar ah
n i
Ġm au
n y
ungk in
Ġ V
f orm
Ġr e
n al
r ah
A R
em p
Ġ apa
ol a
m as
an an
Ġmeng e
ĠS el
Ġs alah
Ġj ika
c om
Ġbes ar
Ġmemb eri
al ing
Ġke c
Ġmel akukan
Ġmak a
Ġ 5
E N
ing an
o d
Ġtent ang
ar ga
ĠD e
di a
Ġmeng gunakan
Ġser ta
us ia
Ġdi p
t ar
Ġat as
Ġc ara
Ġp un
in ta
Ġ on
Ġke t
Ġ 4
Ġke b
Ġk amu
u c
Ġs ama
ak s
Ġj e
t or
u mb
ak ar
n c
ak at
Ġs ampai
ingk at
ul ai
ti ap
an nya
Ġsen diri
l og
Ġt i
Ġw aktu
angs ung
Ġr umah
n ah
âĢ Ļ
m u
un j
im p
l u
an tu
ĠD an
Ġ ingin
Ġmem per
n e
d ang
j alan
ve r
ge r
o de
Ġseb uah
Ġmen dapat
em e
ul it
ih an
il a
me r
Ġber ba
ap kan
l o
n tu
ai r
A T
Ġse t
uat u
Ġ201 8
ti f
r am
Ġdi m
form asi
Ġj adi
Ġl alu
b u
Ġpro duk
Ġm akan
Ġse j
M e
ung g
Ġb ukan
w ah
s a
Ġk ar
at akan
Ġi a
u i
Ġtem pat
at ang
i ri
el as
Ġ ant
Ġ "
Ġseh ingga
ĠP ro
l i
Ġsek ali
ol ah
Ġhar ga
Ġ ga
S I
utu h
) ,
ĠA n
B e
Ġg e
ĠU ntuk
anj ut
Ġt api
g ar
i de
alu i
h ad
Ġon line
Ġmemberi kan
Ġlain nya
Ġag ar
or e
yar akat
s t
eg ara
am e
ul u
ak i
Ġk ata
ul is
el i
as ih
Ġya itu
ĠY ang
2 0
A H
ba ik
Ġseb elum
d unia
Ġpen y
yak it
Ġse orang
Ġ o
i f
Ġk h
im ana
et ah
Ġdil akukan
am at
uk up
ing gi
ak ai
Ġ _
Ġber h
Ġs o
Ġm in
ĠIn i
mb ali
udi an
un c
a ga
an c
on s
d as
I N
pe n
me n
Ġter jadi
a e
ep at
Ġse tiap
u ai
aw a
Ġ dunia
Ġy g
ang un
r at
p an
Ġ .
Ġper nah
g us
am in
is t
Ġp os
Ġ air
Ġ um
Ġp ul
Ġber l
ur ut
Ġh ingga
ur ah
o c
Ġmel alui
Ġkel uar
ĠA p
f aat
amb il
an ita
Ġmem ang
Ġket ika
Ġdi t
itu s
ĠAl lah
ĠA d
Ġdi per
, âĢĿ
Ġm us
ter n
Ġbel um
akar ta
Ġdi ri
Ġber b
Ġl angsung
Ġmas yarakat
te ri
on e
ak in
aw an
ĠDe ngan
Ġ em
c aya
se r
Ġ a
AN G
it ar
Ġs is
ur ang
um p
Ġset elah
Ġmen j
Ġberba gai
it e
gi tu
Ġp aling
Ġ dua
ub uh
i e
had ap
Ġ ek
ag u
Be r
o ba
or i
ĠO n
Ġse dang
ol o
il ah
ob at
alam i
ge n
Ġc ukup
m i
Ġmeny e
Ġr es
Ġke mbali
Ġmendapat kan
ur uh
om e
Ġm ungkin
Ġ ,
g ah
A M
um lah
uk u
ti kan
Ġm udah
ĠS eb
as anya
ĠS em
Ġtan pa
Ġp ri
Ġs u
r is
ot o
lik asi
A L
Ġter hadap
d ah
ĠI s
ik asi
Ġper lu
Ġbagi an
l am
ok e
ak ah
aj ar
Ġc e
Ġk alau
Ġh idup
b at
ek si
Ġber t
es ar
Ġke h
ĠOn line
i kan
Ġsel alu
Ġm ulai
Ġ 6
Ġse p
Ġ #
amp u
Ġmel ihat
ik ir
ac a
Ġbers ama
Ġmem p
ob il
Ġak hir
il ai
r b
ur u
il an
ker ja
Ġ 0
Ġn y
ĠA r
Ġl e
s p
ut an
anj ang
ingg al
Ġ &
in a
Ġh asil
c h
A K
an i
af tar
ah un
be d
Ġant ara
om p
aw at
un t
Ġsel ama
Ġ1 9
Ġdi r
Ġin formasi
c e
ĠK ami
Ġ /
Ġt ubuh
Ġp r
j u
g as
ar na
Me n
ĠMen g
angk a
usah aan
i j
Ġt inggi
Ġpert ama
di kan
Ġk al
ae rah
Ġtet ap
d atang
ut ama
Ġt r
al nya
g ram
Ġtah u
Ġmas uk
l an
ik el
asi onal
Ġb uat
int ah
Ġpen yakit
Ġ art
Ġme s
Ġn amun
Ġ1 0
r ang
Ġtet api
ne r
ur at
Ġj alan
Ġ 7
es t
u e
eh atan
S e
un gi
ar k
ny ata
o mb
us us
is nis
ak nya
ĠJ akarta
al is
Ġses uai
Ġter us
Ġbe nar
amb ar
20 1
Ġb ulan
us i
ak si
Ġsek arang
Ġsek itar
usah a
Ġkem udian
olo gi
alam an
Ġh e
an y
Ġs t
ow n
ud a
Ġb log
Ġs uatu
u as
ar ik
de n
Ġman usia
au h
tu r
Pe r
Ġm ana
de k
m in
Ġkec il
se n
C ara
Ġdi gunakan
ar at
Ġter k
up a
lo ad
etah ui
n ai
main an
eme n
Ġke k
Ġkon s
a it
ĠTer b
Ġp il
di dikan
oke r
Ġmem e
Ġmas alah
Ġk an
Ġje nis
A S
ĠC h
us t
Ġpro ses
mas uk
ngk ap
ib at
Ġn egara
r it
Ġl ama
! !
ac am
ur un
Ġt im
ati f
Ġ201 7
Ġpe s
be nar
Ġf il
ĠN amun
ont oh
or t
ĠM as
ĠMe r
Ġte k
Ġ ay
Ġmau pun
ak it
on gan
ok o
n gg
n gah
Ġker ja
Ġmen e
et elah
ga imana
Ġ 8
Ġw eb
mb e
S el
Ġm ampu
Ġpen ting
uk um
Ġ20 0
ĠN o
Ġser ing
ay anan
Ġber ikut
at as
un d
gi atan
Ġdi h
Ġter baik
Ġj am
ĠP em
Ġn ama
ot or
n ik
Ġkom p
l a
Ġpe mer
Ġw anita
ĠR e
d in
own load
di si
ent ar
dik it
o ok
Ġmeny eb
b an
ad an
Ġs p
ur a
Ġ ...
U N
ĠC ara
h ati
Ġbe gitu
Ġl uar
ĠA k
ĠS ek
Ġc epat
c a
Ġs h
Ġm il
ub ungan
ak hir
Ġk ulit
Ġb ahan
ĠD alam
Ġber ada
Ġs itus
Ġsem akin
Ġ obat
ĠP ada
Ġber p
es i
ĠJ ika
Ġ aw
il ang
a ik
Ġmemb antu
Ġl ap
Ġsel uruh
an ti
Ġmeng atakan
re n
Ġmas a
ĠA s
c o
d aerah
Ġ datang
r ita
mb angan
Ġ or
is ata
Ġw aj
uat an
E M
ĠT idak
m p
ip s
ut e
im a
ti v
si al
Ġba wah
Ġ uang
as is
r ja
Ġ is
ĠH al
f e
Ġbah kan
d o
Ġp unya
Ġke dua
Ġse dikit
ap ai
o ga
el e
bed a
Pe n
Ġdi ba
1 0
Ġper usahaan
ad ang
Ġper s
amb ah
Ġ uj
a il
Ġmenc ari
umb e
ke nal
us an
Ġ daerah
rat is
Ġt amp
Ġmemb e
00 0
ide o
umbe r
I K
ĠPen g
ak a
Ġbi asa
ant ai
utu s
Ġt angg
angk at
Ġh ati
Ġte l
Ġk ota
ĠT ahun
ul i
an k
ĠP as
ĠR p
em pat
, "
ap un
Ġ ac
Ġmen d
ĠD es
Ġ nya
Ġsis tem
Ġper mainan
ĠâĢ ĺ
ar is
Ġb arang
om o
Ġr asa
per caya
iki an
Ġmakan an
Ġber main
Ġkh usus
am ar
. âĢĿ
Ġpas ti
Ġt angan
Ġ 9
Ġter masuk
l as
T A
Ġmenge nai
Ġum um
aw ab
amb ut
el it
Ġdi be
y ang
Ġmen ga
Ġde pan
Ġm at
ate n
gi an
eb e
Ġ ri
U ntuk
Ġp ut
ĠIs lam
ĠS o
ub ah
Ġm ata
K e
ĠM an
ai kan
uk kan
ung si
I n
ĠM em
ah a
il ahkan
i g
E L
Ġmen ingkat
Ġde m
al ik
r ik
Ġp ol
and ing
Ġ angg
Ġpem ain
ut a
ĠK el
it ik
Ġj angan
Ġk as
d ata
ent ara
ĠMe mb
d ok
Ġmer asa
ing at
ĠK ota
ĠK arena
ad ah
ĠT api
Ġm obil
Ġk urang
ĠD ia
al l
ĠTerb aru
j ak
Ġmen arik
em ukan
ik m
O N
ge ra
Ġ up
Ġj elas
on om
ab kan
in an
ih ak
Ġbi asanya
at ur
uh i
Ġmen ja
f ek
um e
Ġtem an
Ġl a
ul a
l im
Ġke giatan
ul ang
ingg u
Ġmeng g
ge ri
d u
D i
Ġpeng gun
y ah
ĠA ku
mbe r
mb ang
ĠK om
unya i
Ġg un
id ang
ar ti
k at
Ġart ikel
w an
Ġ Z
Ġ il
Ġ z
Ġm ah
Ġmen gan
ran s
Ġn e
Ġm alam
ĠJ adi
h one
ĠS aya
ĠJ e
Ġk at
angk ah
ĠT im
y i
Ġse g
Ġbe ntuk
ang ga
d ulu
oh on
et ak
d arah
Ġb ak
eri ma
and ar
utuh kan
ten tu
Ġkali an
ut il
Ġba gaimana
Ġber beda
Ġh adi
Ġin tern
Ġbel i
Ġm o
a ja
ia ya
uj uan
tu l
d ag
Ġmemp unyai
et e
ot el
angun an
s ite
ĠL e
ĠK ab
Ġ dulu
Ġsebelum nya
.. ..
ar anya
Ġ data
Ġj auh
Ġterb aru
ĠL i
f o
Ġin d
aj aran
Ġmeng alami
in o
Ġkes ehatan
t ik
di s
ay ah
I S
um an
Ġmem as
Ġs tr
Ġdibe ri
Ġju di
Ġkeluar ga
Ġt u
ĠB ola
Ġter j
ĠAd a
Ġn g
ĠH arga
Ġe n
ar us
id ur
Ġad anya
ud uk
u angan
Ġte pat
Ġl ok
ute r
Ġsek olah
ul kan
n ologi
si a
Ġp an
ĠS h
Ġb isnis
? ?
Ġs akit
T e
ĠS M
Ġg ak
and ingan
Ġbel ajar
ĠM us
ikut i
ĠP r
Ġk asih
Ġg ambar
Ġter se
up aten
Ġm urah
Ġsej ak
k i
idup an
ĠK es
nc ana
an akan
Ġdi c
ĠK ep
Ġte ntu
t o
A l
Ġpen c
Ġk or
Ġ alam
Ġ dah
in k
Ġmemil ih
us at
Ġakhir nya
Ġj awab
Ġdi sebut
1 2
v el
Ġpro gram
om or
Ġs uka
O M
ĠM ar
an ak
ĠD ari
c k
Ġp ihak
Ġk u
r y
ada an
Ġj umlah
Ġba gus
ĠD unia
ĠP el
ĠH ari
Ġse se
h o
Ġal at
Ġw arna
ĠG e
ĠP ri
di akan
ti m
Ġh ukum
ĠP ol
ĠS ep
uk uran
das ar
ri p
Ġp ak
Ġkon disi
Ġbe kerja
u g
ad e
ode l
emp uan
Ġa ja
Ġme dia
Ġ Q
Ġ ot
Ġti ga
amp ir
asa an
utuh an
Ġse gera
ĠM es
Ġterl alu
Ġbah asa
ab ila
Ġ1 5
Ġter p
Ġj ar
Ġpri a
Ġb ola
ĠPe mb
a v
n ang
S eb
ĠH e
ebe r
t as
ang gan
per asi
U R
unc ul
ĠAn ak
um a
ĠT an
Ġdi j
Ġterl ihat
ungg u
ĠB el
ĠJ awa
ungg uh
Ġs ini
ĠSel ain
am anya
Ġ utama
t inya
Ġb ila
et ika
d aya
Ġter dapat
Ġsese orang
Ġ and
Ġb uku
ume n
das arkan
jalan an
ð Ł
h i
Ġp o
re dik
ac k
O R
Ġ201 6
Ġaw al
man faat
A p
Ġdim ana
Ġi bu
al kan
A d
S em
ara an
alah an
il ayah
is tr
Ġber ke
un i
Ġo f
v i
Ġpul a
ew at
Ġberh asil
Ġpen didikan
ĠM el
Ġ darah
Ġ X
Ġ aman
h an
il ih
EN G
ĠR umah
ĠJ udi
Ġk ol
Ġ1 2
Ġt inggal
omp ok
ro id
Ġm is
ar d
Ġs up
y at
ten si
Ġmemb eli
Ġmen emukan
ingk ungan
asis wa
Ġ ?
onom i
Ġpemer intah
Ġl anjut
Ġber j
is ik
Ġe fek
is ah
ri m
ĠS i
Ġmen unj
in si
ĠK em
Ġap likasi
Ġber at
Ġ dok
Ġ din
Ġmeningkat kan
Ġkeh idupan
is asi
redik si
Ġm uncul
ab i
Ġt ar
Ġb uah
ual itas
Ġde kat
Ġpen j
ant ik
D A
Ġses uatu
Ġb ur
d uduk
ul e
um i
Ġt ulis
Ġfil m
ĠKe c
kan nya
Ġ gi
ĠR es
um si
ĠPer t
amp ing
Ġpe kerja
Ġl agu
emp atan
Ġw arga
n o
tu s
ir a
ser ta
g et
ide n
p hone
Ġf oto
Ġn ilai
E S
Ġk au
Ġs ah
Ġpil ihan
duk ung
tu a
Ġ Â
ĠMer eka
f t
Ġ usaha
at asi
Ġtangg al
Ġk uat
d om
J ika
ĠD I
and ang
Ġl ah
ur i
Ġt ujuan
iri m
ĠT ak
ĠI a
i mb
u ari
Ġpeng h
Ġter nyata
ĠA nd
ĠSe r
f at
Ġp akai
Ġdem ikian
U K
Ġ [
Ġy ak
Ġmeng etahui
ĠS aat
Ġde s
Ġk ap
uk ses
Ġwaj ah
asi r
ur kan
o y
s el
Ġdi tem
Ġm ul
ĠS etelah
Ġk ab
Ġp anjang
ba di
Ġb ang
t asi
Ġ op
as akan
ud aya
or d
gg ak
S aya
Ġt idur
at or
l y
ay ar
Ġsi ap
Ġmen urut
Ġ ab
E T
ant or
and ung
Ġter akhir
Ġke ber
Ġso sial
uk ti
ri b
ĠB isa
Ġte ngah
ep as
Ġg ame
Ġmen it
Ġac ara
eme r
aks anakan
Ġkom entar
ak ang
angs a
d ak
Ġl akukan
Ġr ek
Ġweb site
r s
gan ti
Ġkeb utuhan
D e
Ġl emb
ut i
ag e
Ġseg ala
Ġg ratis
d angkan
uj u
Ġt oko
ĠD is
ĠKab upaten
d aftar
1 1
it y
j e
amp uan
ĠS u
n apa
h a
Ġ dasar
ĠIn gg
Ġpen ge
Ġyak ni
un an
Ġt rans
d ul
ĠU m
ĠT uhan
ĠM in
Ġb adan
ah asa
Ġke ti
Ġmenc apai
Ġdi g
ĠIngg ris
Ġke ter
j ar
Ġk ini
R I
w w
ĠB log
Ġv ideo
res iden
on d
ak tor
U S
pe t
am atan
aj ib
n der
Ġber jalan
Ġ alami
Ġs al
Ġmas ing
k ah
r asi
Y A
Ġk a
Ġil mu
in j
D alam
eh e
un ga
ont on
Ġt o
I D
Ġap akah
ti on
w al
Ġ ik
ad ar
he n
Ġs umber
Ġm acam
ĠK ar
or an
ĠSe n
ĠP T
Ġs k
Ġw ilayah
Ġ ist
Ġh ubungan
ap ak
ĠS p
anjut nya
Ġtan ah
ĠN e
us tr
Ġor gan
Ġsek s
Ġper jalanan
ver s
ĠB arat
Ġse benar
Ġg el
Ġs ih
Ġmes in
t is
ĠD AN
Ġem ail
ub ahan
ĠS eh
ent ang
g in
Ġmemb aca
Ġ am
elit ian
Ġper m
h al
in ar
Ġbang et
il i
Ġangg ota
m art
Ġt ingkat
l ukan
P ada
ro duk
Ġpen e
Ġmin im
ari an
oc ok
Ġek s
ĠA t
den gar
N I
si m
n ama
Ġb oleh
al on
it al
es an
ir an
ikm ati
as e
ab at
ab is
Ġsebenar nya
itu r
A ku
der ita
ĠK eb
Ġber m
A B
Ġkon t
us e
rb al
Ġper empuan
si onal
ĠG o
Ġpen uh
Ġseba gian
ĠS t
Ġk ualitas
Ġper k
h t
Ġj uta
ga b
Ġmen gi
al agi
ĠM al
os ting
j i
Ġ ikut
Ġ ul
Ġdir inya
ĠT r
di t
ĠO rang
Ġb idang
il is
eber apa
Ġber as
Te r
Ġseba b
A SI
Ġput ih
ra f
ĠO bat
Ġs y
Ġm uda
Ġk amar
ep ang
ĠB aru
Ġmemb awa
Ġk ur
Ġt ua
d ung
d r
Ġterk ait
h ana
Ġdiberi kan
ĠPro duk
aga imana
asil kan
ĠâĢ ¦
ik in
A P
ol usi
m ad
U M
p ada
Ġdis ini
Ġpert andingan
Ġk l
Ġpro f
Ġi de
Ġber arti
ĠB i
ad ing
P R
Ġl ewat
Ġn anti
Ġmeng el
Ġ1 00
ete r
a gai
Ġuj ar
Ġ ukuran
in c
Ġl em
Ġper b
Ġ '
amp ak
Ġn ggak
Ġb iaya
Ġkes empatan
anding kan
p l
Ġmenyeb abkan
ĠTer baik
Ġmeme n
eb ook
angg ap
Ġintern et
Ġkel as
l eh
Ġ udah
ud ara
Ġl ingkungan
ĠM o
Ġm otor
Ġber manfaat
are n
ub ungi
ule r
Ġle ngkap
Ġmen erima
ah aya
ay u
k ip
ĠU t
Ġ3 0
Ġkep ala
Ġmeng ambil
Ġsi apa
Ġn i
ob atan
Ġ ðŁ
Ġper gi
Ġmen uju
ij akan
ik at
Ġkar ya
Ġatau pun
mas ing
Ġs ilahkan
Ġmenc oba
nd ah
Ġs ambil
Ġter tentu
v asi
s ama
Ġag e
Ġmen inggal
t akan
5 0
Ġkar tu
Ġpos isi
Ġpas ar
Ġl ihat
D I
kip un
asi kan
Ġ201 5
Ġi b
g al
es ai
at al
Ġkem ampuan
Ġter utama
ung kan
hati kan
h at
ĠKe rja
Ġmus im
Ġg uru
aman an
uh kan
a z
Ġtek nologi
Ġ1 8
Ġr ambut
Ġw isata
anya an
Ġp l
Ġmeng ikuti
og le
uk ul
ant an
Ġny aman
s u
re e
T idak
am il
Ġmeng k
ĠB agi
Ġseh at
Ġl i
Ġ1 4
Ġ ar
Ġr uang
ek s
Ġk util
ob ati
Ġc inta
o o
ie n
1 9
ra ga
Ġce rita
unt ungan
n ak
ĠL agu
utu p
at ihan
Ġag ama
ust ri
ga w
imp in
it if
ain kan
il ik
Ġmenunj ukkan
K ami
ĠA b
aks ana
angg ung
tiv itas
it am
r et
ar ta
es s
Ġter c
der hana
he r
al itas
Ġh ak
t p
ti an
ĠA gen
Ġkas us
uk ai
U L
, ,
Ġl ayanan
ikir an
es e
Ġsel ain
au d
Ġc ontoh
ok ok
ic e
âĢĿ .
ut ar
Ġt umb
Ġmenja ga
Ġberk ata
Ġpekerja an
eb ab
Ġke nd
Ġdib uat
Ġpas angan
ĠK ita
Ġ )
I T
ĠJ u
elas kan
am is
on a
un ikasi
Ġ1 6
op i
3 0
Ġdi kenal
Ġmen jalan
ĠS E
any akan
Sel ain
a un
Ġne geri
ay akan
Ġg ue
ĠJ angan
d ate
at uran
Ġter s
etah uan
il iki
Ġg ol
ĠK alau
amp ung
ate r
Ġkal o
an ja
amp il
N ya
ĠI tu
Ġp agi
I ni
Ġpemb el
ke mbangan
aj ak
Ġ1 1
Ġsu ara
Ġbel akang
ul asi
ub lik
ĠA pa
Ġpeng alaman
g n
Ġs ang
Ġc uma
gan t
ĠC e
Ġk aki
Ġkel amin
ak yat
ut kan
ĠA ir
j ala
ntu kan
Ġse ri
ĠTim ur
ĠB anyak
es ter
ih kan
ĠA S
y ek
Ġs ulit
y e
Ġm odel
ik et
aw asan
Ġmemb utuhkan
ĠMemb uat
Ġ daya
n si
S etelah
ar ap
ag am
uc i
De ngan
Ġak un
ĠIn tern
Ġ daftar
w ab
adah al
Ġker as
Ġsis wa
Ġkel ompok
ark et
Ġse mb
aj u
em at
Ġpemb e
u asa
Ġbak al
Ġlok asi
Ġdes ain
ine r
ta b
u anya
Ġin f
Ġman faat
at unya
ik u
Ġtent unya
ac ebook
? âĢĿ
Ġb antu
is me
as ul
r us
Ġb at
s h
ĠA c
Ġk re
Ġn aik
mer ika
ampai kan
Ġs ur
Ġh ampir
utus an
ĠT he
Ġmer ah
amb ahan
ong k
Ġ el
Ġt au
n de
ĠP ak
ab u
Ġmen ang
al at
Ġap abila
og el
Ġak ibat
Ġdi atas
Ġkomp uter
Ġke adaan
ai an
Ġpe serta
ĠP i
ĠF il
ĠU ni
ĠT et
ak ter
unj ungi
Ġl angkah
ek e
Ġber w
as aran
de s
ay ang
emb e
mart phone
ĠJ epang
I L
Ġt urun
ĠW anita
Ġmenye diakan
d ownload
Ġper ubahan
Ġc oba
Ġmenge r
ah ami
/ /
Ġber upa
fe r
ĠKes ehatan
Ġti ba
Ġberba gi
ul lah
j ah
Ġber ita
Ġbe b
T entang
Ġ2 4
Ġdah ulu
un tu
Ġek onomi
Ġmemb uka
ur us
Ġm a
Ġber f
Ġba yi
amb ahkan
ĠAnd roid
Ġterse dia
Ġ201 4
I M
ĠT i
Ġseb esar
Ad a
h ari
IN G
f f
ir us
Ġdi ant
ĠA merika
r il
ĠB andung
Ġter ke
Ġsej umlah
Ġber tem
tr uk
Ġs urat
ĠA g
me nt
Ġak tif
at uh
alau pun
w ajib
Ġs ana
w as
O L
ew an
ĠI N
Ġ usia
es if
Ġage n
ger ak
ud ul
Ġj asa
Ġber dasarkan
is an
Ġ1 7
ĠK on
na ga
ati on
D an
Ġin ter
Ġju al
Ġt adi
ĠK al
n ing
ĠP ER
Ġ1 3
at ih
Ġl upa
ĠK amu
Ġn o
Ġdi ke
Ġas al
ba ya
Ġf orm
Ġpan as
Ġtu gas
Ġ201 3
in asi
ab el
Ġ do
ĠN egara
uk ur
: //
ĠM obil
tu j
Ġp oker
ik nya
Ġm ati
Ġberas al
int ang
ĠS ab
Ġtulis an
Ġmen ya
Ġs isi
os a
Ġk lik
Ġmen ulis
ĠÂ »
ĠM akan
Ġay am
Ġin s
ol ong
ip takan
ons umsi
Ġpenggun a
a a
eg ori
Ġmem inta
Ġres mi
d l
ĠU n
ak e
ĠE k
Ġhadi r
Ġge n
Ġc ocok
Ġpos ting
ĠA h
Ġh alaman
ĠSel atan
uar kan
il angkan
Ġb angsa
emer intah
Ġdok ter
asil itas
ĠT ek
ĠT empat
ok oh
Ġpenggun aan
ĠM urah
ĠT ER
ik ap
vi ew
t an
pen gar
embe r
i z
ĠA gus
ĠS itus
Ġge r
Ġ0 8
Ġi kan
Ġso al
ah u
Ġr am
ay ak
an s
as ar
ĠD ep
Ġjar ingan
Ġp op
Ġ ah
I B
ve n
M emb
Ġn omor
h am
ac e
od al
P U
ay at
Ġs us
r on
Ġsem entara
ar in
Ġpol itik
Ġper caya
o ur
Ġal asan
amp ilan
Ġmeny el
Ġsem pat
f ikasi
Ġmeng aku
si r
Ġ ut
ĠPen didikan
as kan
Ġper sen
Ġt ind
ant ung
ĠS alah
Ġtar uhan
Ġ duduk
ĠI bu
Ġm inggu
Ġmeng ak
Ġpri badi
gan ya
Ġter asa
Ġp art
Ġb atu
j ung
Ġke men
201 8
Ġwaj ib
Ġm ain
Ġ dom
Ġp and
ĠLi ga
ĠA kan
ĠM ad
Ġin dah
Ġk antor
kan an
ĠB ahkan
ib uran
Ġdiba wah
ĠL ebih
ow ongan
A r
ebih an
Ġgun akan
ame ra
p os
Ġbe t
Ġpen elitian
Ġkor ban
Ġme t
ĠJ an
Ġl uas
d at
uk i
1 3
unc i
Ġseh ari
1 5
A nda
Ġ ob
as t
ĠS urat
ĠP residen
Ġdik etahui
Ġmengan dung
ĠTer percaya
ĠO k
ar apkan
tu mb
ver si
Ġp ad
Ġp in
Ġf ungsi
ĠM uh
eg ah
E K
ĠT h
gab ung
ĠM ah
Ġb in
ĠG un
ik ah
Ġind onesia
Ġterl ebih
Ġ gan
aw atan
t op
Ġkat anya
ĠN asional
Ġ5 0
ur usan
uj ud
Ġber usaha
yar at
Ġmengh asilkan
Ġem pat
Ġ2 5
ĠDes a
ma il
ĠP oker
w ang
A pa
Ġ angka
ĠO leh
ura baya
ir kan
ĠB ali
ĠK h
it an
d ap
Ġsup aya
urang i
Ġ arah
at us
Ġs ukses
ĠS is
ant as
Ġmem akai
w e
Ġmah asiswa
Ġc antik
Ġ dr
w i
Men g
od a
ce r
Ġsem oga
is ti
d ar
Ġper kembangan
Ġdi se
Ġpe ri
ĠP l
Ġl aki
u ali
ĠI b
Ġt he
H al
Ġmeng in
vers itas
es uai
i cara
p on
Ġber ubah
Ġmeng emb
Ġpil ih
Ġdan a
ur na
v insi
aks ud
im an
el ar
w are
Ġr el
ay aran
Ġmat eri
ĠR asul
ingk atan
- -
Ġs aling
Ġsel esai
ĠP EN
B agi
Ġn asional
Ġf or
Ġan ti
and ungan
am s
G A
ol l
il l
P K
res s
Ġh otel
ol ak
Ġf itur
um at
us ak
Ġba ca
Ġpes an
Ġf aktor
l aki
ain ya
Ġter percaya
il ihan
amb at
istr ik
Ġs ar
v est
imp i
d ur
ĠM ak
Ġp at
Ġkemen angan
ele ngg
Ġdi seb
y o
ungkin an
Ġberl angsung
Ġc ari
r as
Ġs il
ĠJ alan
ang e
ĠPri a
M em
Ġl og
Ġpel ayanan
ĠIn formasi
ĠP aling
Ġ *
Ġmen dukung
Ġmin yak
Ġ download
Ġberke mbang
Ġ x
l et
gant ung
j ek
w it
Ġp ukul
al e
nt ang
nd ak
der n
le ngk
D aftar
Ġpr omo
aw arkan
on us
Ġsem uanya
ew s
Ġsekali gus
ay an
a ih
Ġmus ik
Ġsel anjutnya
ot al
tu di
Ġhe rbal
ek tr
AR A
U T
ĠP ul
Ġh t
Ġpert anyaan
Ġse derhana
Ġseb anyak
ĠK E
I I
Ġbeb as
Ġmen ikmati
k on
Ġap apun
ibat kan
ĠSem ua
Ġsa b
Ġr em
Men urut
tu gas
âĢ¦ .
Ġ olah
H arga
ĠS y
ons el
Ġde mi
anjut kan
Ġ isi
to ber
uk aan
Ġmemb angun
Ġsem p
Ġl ima
un uh
ĠU s
. "
Ġpeng etahuan
Ġre ndah
Ġc alon
ĠB l
Ġpemb angunan
Ġtumb uh
Ber ita
Ġpe t
Ġmis alnya
au an
j id
pen g
Ġ uc
an faat
Ġm alah
ampil kan
Ġb unga
t s
Ġje r
k as
ĠT el
or ong
t ikel
Ġas li
Ġ dag
or o
tu al
apat kan
Ġs itu
p o
om at
ĠN abi
ore a
Ġ dl
Ġ201 2
aj i
ah as
Ġmengh ad
j akan
ĠP ut
Ġk ak
EN T
ad inya
ĠC ontoh
ĠB ahasa
Ġt anda
ĠM at
o si
ak t
pe nt
O K
Ġt iket
in dari
eb r
gun jung
Ġberh arap
ro s
ĠSe perti
ad wal
em a
Ġ are
Ġs ub
Ġp usat
Ġke untungan
Ġht tp
Ġh itam
Ġmen urun
jadi an
be ntuk
Ġr ah
esif ikasi
Ġdi anggap
Ġ @
ĠP emerintah
t al
Ġt h
Ġpen dapat
Ġ19 9
os e
om a
Ġde sa
r up
angk ap
EM B
O S
Ġb al
ow e
ungguh nya
Ġber nama
1 6
ĠM aka
1 8
Ġs un
Ġb ikin
n et
it i
Ġtr adi
Ġka um
ĠI l
uj an
ĠN ama
Ġmil ik
Ġo perasi
Ġdip akai
Ġay at
Ġmemen uhi
ĠGo ogle
Ġmeny atakan
ĠS um
ĠMuh am
Ġp ah
tr ol
ĠM a
ed ar
Ġbers ih
t h
Ġmenj elaskan
UN G
Ġter diri
ri d
il angan
Ġter kenal
it ab
at atan
ustr u
T ips
Ġde h
m at
ku alitas
Ġbur uk
ve mber
Ġpen ulis
aj ah
Ġditem ukan
ju alan
âĢ ĵ
ore x
N amun
ĠPen y
di r
f i
Ġad min
Ġpen d
Ġc h
Ġkhusus nya
ite r
ĠMen urut
tumb uhan
Ġl eb
Ġy akin
ĠB ar
Ġmembe r
Ġsej arah
Ġfil e
ĠR am
Ġla ut
D ari
Ġsen ang
ĠH otel
Ġbert anya
ĠKom entar
os is
ar akan
ĠUm um
Ġkar akter
gun a
Ġpul ang
alis asi
ĠB ank
Ġter h
ĠH ar
likasi kan
ur n
jadi kan
ĠBer ita
Ġmus lim
Ġper angkat
ĠKep ala
Ġb udaya
te mber
J adi
m ana
Ġum at
P A
Ġtak ut
ĠP ara
U H
teri ma
Ġkan ker
f a
i al
Ġber ikan
Ġkek uatan
Ġmeng ingat
ul ar
ĠB at
ĠD ir
Ġs martphone
nd ang
Ġumum nya
c t
Ġmeng atasi
o u
Ġmeme r
1 4
Ġpak et
Ġtamp il
hati an
ĠK omp
ĠK etika
Ġbantu an
Ġmer asakan
Ġpen is
ĠTan pa
c ak
Ġbeli au
Ġind ustri
v isi
Ġitu lah
el asan
ĠU N
ok us
ĠY ANG
ĠPi ala
ja ga
ĠBer ikut
ĠH P
Pen g
Ġs amping
ĠIn s
ĠPen yakit
bed aan
Ġtamp ak
ĠSe cara
or k
Ġr akyat
H ome
ĠAgus tus
i wa
ate gi
Ġt ab
et ik
ĠNe geri
Ġtan aman
Ġmenjadi kan
Ġak tivitas
Ġsu ami
ist ik
Ġkem ungkinan
ĠG ratis
g o
O bat
d aun
ten g
b i
ĠH anya
ĠP al
on o
tul is
asi a
Ġke se
S aat
el ang
anggan an
vest asi
Ġproduk si
Ġmin um
orm al
ait an
ah ari
Ġdari pada
Ġpel anggan
ĠD ownload
ĠO r
Ġl ink
Ġl aga
ĠT ips
Ġber si
Ġb umi
ner gi
Ġi mp
T I
A W
ĠD aftar
Ġke napa
ĠK ali
n s
Ġdil ihat
Ġpene rb
Ġmak sim
Ġkem arin
nde la
s ek
ĠS urabaya
j emen
ĠJ uni
ĠMus lim
hen ti
re am
ĠL alu
K I
ĠB isnis
Ġpes awat
ĠB ER
Ġist ri
ok asi
it ung
ĠM is
aks a
Ġ duk
Ġb ank
ik s
Ġte naga
Ġkend araan
di h
Ap akah
aksana an
P ro
und a
Ġk awasan
Ġb r
Ġprof esi
Ġmen u
ĠTe ngah
Ġsa yang
Ġse dangkan
at nya
ok ep
pe d
nyata an
ak il
1 7
es anan
as s
ĠSeb agai
uli ah
ĠJan uari
Ġmen dengar
Ġ us
ad akan
Ġf asilitas
ĠF acebook
adi k
Ġp ar
ĠS atu
ĠU S
Ġpin tu
as ino
ĠM inggu
S ek
Ġga ya
Ġ â
Ġt ips
us un
et a
Ġk os
ĠP R
ĠNo vember
ĠUt ara
Ġmemper oleh
ĠA N
Ġk o
Ġmeng urangi
ĠOk tober
Ġbertem u
Ġin fo
Ġt ambahan
ĠD em
le r
ul us
ĠDes ember
Ġpen derita
Ġn amanya
Ġke be
ĠE l
ul uh
Ġber gerak
ĠD in
Ġay ah
mb angkan
ad u
imp an
os ok
dan a
Ġk ok
ĠM udah
J angan
Ġpos itif
ĠB ay
ĠL a
Ġb us
Ġs amp
Ġsah abat
z e
aud ara
ik e
A D
Ġketi ga
Ġ ulang
il e
b o
Ġterb esar
ĠB esar
an di
ul l
ĠB adan
ay ani
ĠB eli
Ġdiseb abkan
Ġorgan isasi
Ġba ju
du anya
j o
Ġap alagi
Ġce r
ĠW eb
ĠB r
Ġun ik
AR I
Ġs atunya
l uk
ĠB ukan
Ġ daun
Ġm ur
angg u
ĠT ar
Ġter ima
Ġj atuh
ĠD r
res i
ĠS udah
ir ing
Ġmen ambah
ĠSep tember
Ġsem angat
nik ahan
ingin an
ger tian
unj ung
ur angan
ĠK emen
ĠU l
Ġ2 1
Ġmen awarkan
Ġmene ntukan
Ġti ap
gi ri
Ġberw arna
ak ta
u ber
Ġ amp
Ġmen imb
Ġde w
Ġberl aku
ĠB eberapa
Ġmel aksanakan
Ġ =
as inya
es aikan
Ġ2 2
ĠL ain
ngk au
Ġj ustru
Y ang
Ġg w
Ġh ilang
m urah
af t
ĠTet api
Ġb ilang
P S
tar ik
ĠN omor
Ġmak in
Ġtr ading
b ak
ĠS k
Ġdib andingkan
Ġb alik
Ġdi jadikan
ĠKe tua
ĠA y
ot ong
K alau
q u
ĠP os
h asil
ip ta
Ġag ak
Ġri bu
Ġge jala
ol og
ingin kan
ap e
Ġm odal
at at
ĠAp akah
Ġper tem
ij au
ĠMe i
Ġlah ir
aj ari
ĠAp ril
angg uan
!! !
Ġse ti
n angkan
si kan
Ġmen unggu
Ġpeny e
sp ir
Ġ versi
ĠSe dangkan
Ġak ses
Ġn ak
Ġmet ode
Ġk andungan
ĠN ah
ump ulan
Ġf isik
Ġmel awan
Ġdiper lukan
Ġk anan
ĠD aerah
Ġb l
ai ran
A k
in al
Ġper hatian
Ġsi fat
tu p
Ġpeny ebab
S i
U P
Ġefek tif
Ġpakai an
Ġdew asa
du ga
ĠD PR
Ġmeninggal kan
Ġb ab
s ur
it amin
ĠJe r
Ġ aj
Ġk alah
ik o
ĠTer k
ĠKec amatan
is h
ped a
Ġmenja wab
Ġ udara
id ah
Ġin st
ro pa
ĠSem oga
ĠAt au
ow s
tr ak
ĠS ul
Ġs in
ĠW IB
ep atan
tem an
uj i
ent asi
tem pat
un dang
Ġpen dek
m m
al ur
int ahan
d ampak
an ah
Ġare a
il ing
ĠR i
int as
ĠJ uli
Ġj antung
ebr uari
Ġl ayar
ind ah
ro w
Ġm al
Ġberh ubungan
M as
Ġik lan
w ak
Ġpen gunjung
ome nd
Ġmenc iptakan
E SI
ĠSen in
ir ik
ĠK ata
ten gah
Ġber diri
g el
utus kan
Ġalam at
Ġs ta
n ur
arus nya
Ġdl l
ir u
Ġah li
Ġtind akan
Ġb ib
Ġpeng obatan
owe r
k ata
O T
ĠUni versitas
ant o
âĢĿ ,
ĠK orea
ĠKem udian
oc k
Ġmenc egah
Ġmenimb ulkan
Ġt ahan
n akan
ĠMar et
al lah
c el
Ġsep anjang
Ġmer aih
Ġ2 3
ngkap nya
ĠRasul ullah
ti ba
ĠI k
D ownload
ĠS D
amb ang
ed ung
Ġolah raga
Ġ +
ner asi
Ġkons ep
Ġpel uang
t on
Ġje ndela
it ra
Ġdag ing
Ġt angga
Ġdi ser
A t
ĠSeh ingga
Ġr ata
Ġmenghad api
Ġberikut nya
Ġk ayu
Ġkons umen
Ġke jadian
Ġ !
ĠâĢ Ŀ
Ġn ih
int ai
Ġmul ut
Ġmengel uarkan
Ġdih arapkan
Ġk aya
Ġen ak
Ġmeng obati
et apkan
ĠW isata
Ġdi ter
Ġsen i
n as
Ġmeny ukai
2 2
Ġup aya
u f
Ġh i
Ġdapat kan
ja an
Ġb uk
Ġn eg
Ġmem ahami
Ġb ar
ĠK amis
ĠK ap
ak aan
ĠV ideo
Ġkes el
Ġsi ang
Ġper tumbuhan
ĠR abu
Ġ es
Ġi m
Ġkal angan
an tikan
ĠP usat
ĠFil m
Ġt otal
ĠH idup
Ġkh as
ot ak
Ġseba gaimana
up i
ĠSeb elum
z in
Ġw asir
ĠAc eh
P T
ĠP an
Ġv irus
2 00
Ġas ing
Ġg o
o di
Ġp ay
Ġberp ikir
Ġ201 1
el a
Ġk amera
Ġv ia
Ġtrans aksi
un itas
at ar
Ġmenge nal
ĠY a
ĠJu ga
Ġber kualitas
Ġdi si
ut r
Ġdil aksanakan
ar uh
ol an
Ġmenye r
giri man
N S
Ġpen ga
Ġl o
Ġpel aku
Ġl istrik
Ġw ar
Ġk un
Ġp onsel
ĠS al
K AN
ak asih
Ġmenj ual
Ġpemb ayaran
r kan
Ġmengi rim
Ġi alah
uber nur
ind ows
Ġp res
x y
agi an
ĠR o
Ġmo dern
Ġk amp
al atan
Ġp antai
Ġterb uka
ĠS un
Ġj arang
Ġmaksim al
ĠSe tiap
ting gi
Ġ api
Ġlok al
ep on
ĠðŁ ĺ
c inta
Ġmer ek
ĠSem entara
fe ren
Ġke uangan
ĠMuham mad
Ġart inya
Ġb angunan
l em
Ġmenjalan kan
Ġkep utusan
ĠM ungkin
Ber ikut
Ġmenc e
Ġseks ual
uc u
Ġ: )
Ġkep ad
ĠSek olah
Ġber isi
2 5
Ġh and
Ġt amu
ams ung
an si
ut in
ol i
T api
ant inya
ĠI m
ĠH asil
2 1
ome r
ĠL ap
ĠC inta
Ġman di
e ngkapnya
ĠB ulan
on i
Ġblog ger
Ġmes kipun
ow i
ĠA m
8 8
ĠA sia
Ġr uangan
Ġbe nda
ĠH arus
Ġseba iknya
ektr on
z i
Ġr ep
Ġk ul
l ob
Ġpenerb angan
ant ara
Ġh amil
Ġdi dalam
Ġs ikap
b ah
im ia
h h
ĠJ am
Ġem as
asi e
I TA
Ġk iri
Ġdib utuhkan
l at
Ġ201 0
ĠPro vinsi
N ama
pengar uhi
g r
Ġk unci
wit ter
ind ing
Ġpeng el
ĠP art
s ik
up ati
ĠR I
J A
P P
Ġj iwa
Ġw alaupun
ub likasikan
ĠB aik
di v
ĠMeng h
Ġpo in
ft ware
ĠE ropa
as h
n j
Ġke nc
Ġti pe
y un
A G
I R
ra vel
ro p
ĠJ umat
l ihat
ont ak
ĠA nt
j as
asie n
U D
ĠS ur
imp inan
k ar
Ġber apa
K arena
Ġmene r
Ġh abis
201 7
angk au
Ġe nt
w ar
v ice
il lah
ĠF ebruari
z a
or kan
Ġ ang
_ _
Ġf e
Ġber se
ĠTe ntang
Ġkeb ijakan
M es
unj uk
Ġsemp urna
Ġsen s
O G
Ġh ujan
Ġme ja
ĠSel asa
ĠAl ami
Ġk isah
Ġot ak
isik o
or it
Ġkes alahan
Ġker ing
Ġin ilah
Ġber gabung
Ġpem ilik
Ġhe ndak
Ġdim ulai
Ġga dis
Ġk adang
Ġgun a
B M
Ġdij ual
akai an
Ġ ali
Ġper ut
ok owi
ar am
ap us
id u
im at
awat ir
Ġt anya
Ġber henti
d am
Ġberk aitan
an ian
ĠP osting
Ġseba ga
ĠR ep
Ġ4 0
ĠSek arang
Ġter g
ran sp
ulit an
Ġm inta
omb ol
d ingin
ba iki
ang i
teri an
Ġdi am
at kan
d ini
ĠBlog ger
Ġ amat
Ġke amanan
ĠT oko
ĠMen y
Ġk opi
2 4
omat is
Ġp ikiran
tor an
ĠKe r
R es
Ġsep ak
Ġ ..
roduk si
feren si
ook ie
Ġlap oran
amb ung
Ġper l
T ak
Ġdim aksud
ĠAk hir
b aru
Ġn ormal
ew ek
Ġman is
li e
Ġant ar
Ġp ola
e nis
ind ungi
K eb
Ġs olusi
amp ang
omb a
ĠS ing
Ġbersi fat
Ġmeny ampaikan
ĠP es
ĠK ris
uar ga
insi p
Ġper se
Ġt op
Ġsa y
ih i
Ġkeh ilangan
N ah
dag angan
Ġn on
Ġv s
tiv asi
ĠT inggi
Ġpemb uatan
tu ju
Ġterke na
Ġmen utup
Ġp i
ĠSab tu
Ġmen datang
Sem entara
Ġg em
ĠSM A
ĠPro gram
ade r
Ġper awatan
Ġk apan
el l
ĠD it
Ġmin uman
Ġam be
Ġun it
2 3
anfaat kan
Ġpenge mbangan
lah an
Ġmah al
Ġb ukti
ib ur
ĠC epat
and ai
ek tur
Ġ dingin
Ġberf ungsi
Ġt itik
Ġas am
Ġmeng apa
ĠE x
Ġdik irim
agi a
s is
eb at
Ġ gitu
Ġmengemb angkan
ĠM otor
Ġr asanya
Ġr ingan
Ġmel anjutkan
Ġga gal
ĠIntern et
Ġn af
Ġg angguan
Ġposting an
Ġpop uler
ab atan
Ġup date
Ġt okoh
den g
Ġre ncana
istr asi
Ġc ek
Ġkab ar
ing ung
em i
B agaimana
ĠK an
Ġl el
Ġe nergi
am akan
Ġsebaga inya
Ġmen ambahkan
anc ar
B aca
upi ah
g ang
Ġde n
isti wa
Ġst andar
ĠF oto
r ak
Ġdik el
ungkin kan
Ġ ingat
Ġdik atakan
ĠU p
Ġ dap
O B
P em
Ġte kanan
ur uan
ĠB ek
ĠUn it
Ġmemb ahas
R e
ĠPer usahaan
ĠAp likasi
Ġz aman
Ġduk ungan
ari f
Ġdi terima
spir asi
ĠB agaimana
pent ingan
ĠH ukum
Sel amat
Ġti mb
Ġis ti
Ġn antinya
Ġpen duduk
eke rja
Ġkom unikasi
Ġdi dapat
Ġk rit
Ġintern asional
Ġme ter
ak et
ĠAr ab
Ġmat ahari
Ġny ata
Ġper asaan
Ġmengh ilangkan
b et
E D
Ġdiant aranya
Me r
as itas
Ġat uran
Ġs usah
Ġpembel ajaran
Ġ ok
Ġtradi sional
or a
ĠO p
Ġpeng g
Ġpen ingkatan
ĠU ang
ĠA gar
Ġ dini
og yak
Ġke duanya
Ġn asi
ĠK or
ang it
ore n
Ġber agam
D ia
K em
ĠA L
ogyak arta
l ai
Ġdip as
ĠN ew
iri p
Ġas p
Ġke nal
Ġtek nik
ba gi
m udah
O D
Ġkap al
angg il
is e
Ġlemb aga
tuj uan
Ġke inginan
on trol
ba gai
f ir
Ġp or
Ġke j
Ġmem ulai
Ġun gk
Ġp ikir
ĠI I
Ġ arti
Ġmenurun kan
Ġmem utuskan
Ġkes ulitan
ti tu
t ahan
ĠDin as
w ujud
inar y
Ġdim iliki
ĠT V
ĠS akit
v es
Ġambe ien
ĠPert ama
Ġb uka
ny um
Ġmeny emb
tem e
lengk api
uh nya
angk it
ine rja
ĠM EN
Ġterb ukti
Ġminim al
4 5
i asaan
Ġkl ub
Ġb utuh
Ġpro yek
tif ikasi
Ġjawab an
Ġstr ategi
ĠTe ri
angan i
Ġl uka
Ġp ohon
Ġh id
" .
Ġgi gi
Ġkh awatir
Ġm arket
ĠMen jadi
Ġmembe ntuk
ĠS ub
Ġ2 8
Ġkec e
Ġc ab
Ġger akan
Ġlap angan
K lik
Ġk uliah
Ġdip ublikasikan
Ġter tarik
P ER
ĠMen teri
og raf
Ġt as
jas ama
Ġpem impin
Ġsus u
on ya
ati an
teme n
Ġmel ayani
l us
Ġre view
rit akan
Ġrem aja
as ana
Ġprofesi onal
aran kan
Ġs obat
A C
ĠSeb ab
Ġdi ambil
ĠS ta
ĠG ambar
âĢ¦ ]
K ita
Ġseh arusnya
Ġs c
ali kan
ond a
ese r
ĠIN D
Ġdi lengkapi
Ġsp esi
i ar
ĠV e
f in
Ġ q
Ġsel amat
il aku
C ontoh
ĠD apat
Ġhar apan
eri m
Ġp ublik
alu an
n ter
ungk apkan
E B
Ġsu per
uk tikan
j ikan
Ġl antai
Ġw a
ran c
Ġper bedaan
Ġpel aksanaan
tu tup
ĠIl mu
ab rik
Ġper nikahan
or is
Ġpen jualan
y an
anj i
Ġke per
per tinya
Al amat
Ġr utin
Y a
Ġc el
alah kan
o kan
T empat
Ġmer e
Ġmenga j
or itas
ĠS ilahkan
Ġmem anfaatkan
U AN
Ġpel ajaran
ektron ik
Ġmenye nangkan
ind ahan
Ġkec uali
Ġdi ta
ĠMakan an
Ġterl etak
ĠK ons
Ġh ijau
Ġmen emp
o ot
em an
K etika
j arah
Ġpertem uan
Seb elum
Ġmeng ubah
Ġ200 9
ĠPro f
ar ing
B eberapa
inta an
Ġdalam nya
al anya
and angan
Ġter gantung
Ġp asien
Ġter ang
rik at
Ġt ogel
Ġbukan lah
un yi
om i
gun aan
ĠK at
P roduk
Ġt a
Ġk ode
Ġtah ap
el ih
au di
Ġv itamin
es us
ĠSis tem
ĠR aya
ĠJe nis
Ġak si
o f
c epat
Ġpe kan
Ġb and
el ajari
Ġ2 7
Ġin div
I nd
Ġpo tensi
c i
Ġkom pet
Ġz at
Ġb intang
Ġmem ungkinkan
Ġum ur
Ġser angan
truk tur
ĠF e
ĠB andar
6 0
Ġmes ki
one n
ĠAn gg
ĠP ap
Ġber guna
ĠSe rikat
s inya
ĠG uru
A s
ĠY o
ol e
Ġpak e
Ġper p
L angganan
Ġmak s
Ġkeb anyakan
ĠKel amin
ve nt
ip ilis
Ġte mb
d ayakan
Ġsitu asi
ĠK util
Ġh ewan
og or
ew ati
Ġr angka
Ġk irim
Ġtel ur
ĠPul au
ĠAl at
op y
Ġbert ahan
S M
w ord
d osa
Ġberb icara
Ġper an
ĠP adahal
unj ungan
untu t
Ġke pentingan
Ġali as
te p
Ġpenj elasan
Ġres ep
ĠJ okowi
uh u
ĠA ngk
Ġterb uat
ĠD om
Ġjar ak
ĠK ur
Ġt uk
Ġmen ikah
ti c
Ġg ula
un tuk
eg is
b ola
Ġh at
ĠG ol
w aktu
angg up
um ur
Ġma af
et an
p ro
Ġ ur
b al
Ġb ingung
Ġseb elah
Ġmenger ti
A J
Ġmemas tikan
Ġmemer lukan
u gi
ul um
o v
ga ja
n am
em as
Ġt ombol
e ncana
Ġb as
ikm at
ĠTeri ma
Ġ usah
l ain
m asi
ĠG ame
Ġe x
Ġun gg
Ġkon ten
os an
os t
ri a
Ġber ani
Ġber akhir
Ġbi ar
Ġin vestasi
P rediksi
Ġn as
9 9
Ġsu asana
Ġla z
ĠS amsung
n aran
Ġc m
im e
ĠM et
Ġber usia
Ġinter nal
asi at
ay sia
Ġist ilah
ĠMe dan
Ù İ
Ġbur ung
Ġj udul
Ġbe kas
Ġf okus
I tu
Ġpr ak
aw aran
Ġs ingkat
nc e
Ġket ah
ac h
ĠN y
Ġberk om
as hi
l ing
ĠAp alagi
Ġsep utar
o perasi
ham dul
Ġ angk
ic k
Ġber per
Ġtimb ul
Ġ[ âĢ¦]
ĠY ogyakarta
ĠB arang
aya an
ate ra
ĠJ ual
ĠT NI
k in
Ġpemer intahan
ump ulkan
em ahan
ĠC ity
Ġg aris
ĠB ila
Ġper ang
Ġib adah
ik sa
Ġh utan
Ġl awan
Ġmel ainkan
up si
Ġe ngkau
ĠP rediksi
C OM
em ar
Ġmel ip
od oh
Ġj alur
j ata
ĠK as
ĠMal ang
Ġb onus
ĠT ogel
ĠB ur
ing atan
ĠB uat
Ġkec epatan
Ġv ag
ab ar
ja bat
Ġmeng atur
Ġh angat
b ar
utr isi
Ġtamp ilan
k rip
Ġpol isi
mas alahan
ĠTar uhan
id a
ome n
ĠMe nd
ĠM ana
u y
amp ur
h it
Ġl atihan
pan y
Ġs im
Ġr um
Ġmaks ud
ump ang
Ġek sp
Ġinf eksi
Ġhal us
Ġw is
Ġmen eg
oren g
ud ang
av orit
d gn
ot ik
tern atif
ĠD ua
Ġt ambah
ĠMen c
Ġs audara
am ilan
Ġ2 6
Ġsah am
ip is
Ġhadi ah
ĠS up
Ġkont ak
ĠKemen terian
ti p
Ġtar get
Ġs ungguh
2 8
ĠB al
as nya
isi an
Ġm ar
Ġo per
ĠI st
d aknya
ĠA bu
Ġmenjalan i
ad han
Ġpart ai
uran si
ap nya
Ġan eh
Ġpul au
ama an
Ġseri us
pos it
Ġs adar
Ġot omatis
ori al
ac ar
b log
j ian
lah irkan
ta il
Ġy ah
ĠT AH
esuai kan
Ġsh alat
Ġtem a
ĠBel anda
Ġ dgn
ENG AN
Ġper j
A Y
el an
ap ura
Se perti
Ġbak teri
Ġs yarat
rib usi
ĠSel amat
ĠMe dia
b um
o od
Ġlem ak
Ġ ambil
Ġge nerasi
ol at
Ġkat egori
iks aan
aran si
! âĢĿ
ĠAy am
Ġmenyel esaikan
eri kan
allah u
Ġtangg ung
In ilah
h ar
ww w
Ġl ahan
ree n
r n
Ġte s
s on
Ġse be
al o
is ip
Ġt ransp
am es
ĠD ik
v an
ek at
Ġmeng unjungi
lob al
Ġberb ahaya
Ġs am
ĠM ul
alik nya
Ġmenyeb ut
S alah
ut ip
ĠD ew
ĠM asih
Ġker us
Ġpas tinya
Ġke ny
Ġker tas
E P
Ġmen dek
s tem
ĠV i
Ġg atal
Ġba y
ub ur
ur nal
ahan an
nar nya
Ġm irip
At om
âĢ ¢
e x
ĠS tr
ĠB uku
ANG AN
âĢ¦ âĢ¦
ih atan
or din
Ġbel anja
ĠTan ah
r ing
las tik
ĠK eh
ĠB o
in ter
Ġbe d
Ġmemb ayar
Ġses ungguhnya
Ġde posit
ĠK antor
Memb uka
ri e
ĠP P
Ġj ah
Ġlap top
dan ya
Ġb atas
k om
ĠSe orang
Ġmil iki
Ġs anggup
s em
ĠUs aha
ra jaan
ap p
ON ESI
Ġbanyak nya
ar temen
atu an
Ġsep atu
ĠM P
ĠMan usia
ĠR ah
rib ut
Ġper istiwa
Ġterj adinya
si apkan
Ġm aju
ĠB ahan
Ġsek edar
c ah
AT AN
l is
ub ang
Ġpen giriman
elit i
ĠBer main
Ġl um
Ġkur si
ĠGun ung
aren akan
Ġs imp
Ġst atus
ĠT rans
b el
ĠK ulit
Ġt ulang
Ġkarya wan
A gen
Ġdi ber
AR TA
ĠW indows
Ġte gas
p or
ĠH adi
arga an
Ġbib ir
Ġlemb ut
Ġr o
ep ak
y u
Ġny eri
ĠW aktu
8 0
E G
ONESI A
Ġp adahal
Ġl epas
di aan
Ġf r
nder ung
r ata
ĠC o
A YA
Ġamp uh
r al
w ayat
t ah
ar ut
am kan
s o
ĠBay i
ay aknya
D em
s aya
ĠG ubernur
P B
Ġujar nya
Ġc o
2 7
Ġun sur
eh ehe
s b
Ġpenc arian
Ġmend orong
Ġmel ewati
4 0
Ġc airan
t ak
Ġs tudi
Ġmengh adi
di um
P as
Ġ6 0
Ġmeng isi
Ġpenj ual
Ġde tik
Ġk inerja
Ġm uka
Ġte nang
ĠLain nya
M el
Ġk imia
ju angan
ĠDes ain
Ġkek urangan
na an
si apan
ĠE m
Ġkre dit
n u
Ġmes ti
Ġ >
Ġr isiko
ĠAl l
w isata
ĠSM P
ĠTek nologi
g alan
ĠD ok
ENT ANG
Ġj angka
Ġse peda
Ġsek tor
Ġbah agia
ĠB upati
Ġc ok
ĠC om
d uli
Ġsem acam
Ġpembel ian
Ġ dampak
ĠD il
e e
ta gram
ĠM ic
Ġpand angan
gaw ai
D es
l uan
eri an
hamdul illah
re ja
Ġper aturan
Ġo ut
ĠSeh at
Ġce nderung
i arkan
dag ang
al ang
O P
Ġmenge c
Ġr usak
Ġc atatan
ĠPap ua
g ht
Ġper dagangan
ind ak
Ġketer angan
il itas
Ġuj ung
ĠLe ngkap
Ġterse nyum
Ġp ot
ari kan
ut orial
anc e
it h
ĠMas yarakat
Ġang in
ĠK ol
A DA
amp i
ashi on
Ġse gar
C e
ĠSum atera
P el
ĠTer l
pe dia
Ġop tim
Ġp ajak
Ġ $
ĠB atu
Ġdis ampaikan
ĠS es
j ual
Ġba wa
ap orkan
Ġmem pengaruhi
Ġp uasa
T erima
v a
Ġm impi
de ra
uru f
ud ut
uc apkan
ĠT a
ala xy
Ġh ubungi
Ġl iburan
Ġbert ambah
B anyak
l ak
Ġc iri
ĠB uk
Ġf orex
Ġl ayak
Ġt unggu
ĠMad rid
ose n
ĠPr omo
ĠCh ina
ĠA K
ĠAr tikel
ĠIND ONESIA
Ġdis k
A I
ograf i
ĠY esus
Ġb andar
Ġper alatan
Ġk las
Ġanak nya
at au
Ġketah ui
Ġindiv idu
2 6
Ġand roid
Ġm on
elengg arakan
Ġt uh
un a
ub ung
Ġ2 9
ĠY ah
d inding
Ġmana jemen
ĠN us
ĠM asa
ĠTAH UN
ĠB ag
Ġju ara
Ġb angun
p ort
tahan kan
Ġw ww
ust omer
Ġbe serta
Ġsen gaja
Ġminim alis
Ġkons umsi
percaya an
sp ot
je n
ntu h
ingkat kan
Ġmembuat nya
âĢ Ķ
las h
h luk
Ġhasil nya
uc ing
at usan
Seb agai
Ġk i
k ir
any i
Ġj adwal
ĠMin im
Ġk ira
Ġkerus akan
T R
Ġperi ode
B ER
Res ep
A n
sen diri
ĠB an
ĠD ENGAN
ĠTer nyata
ĠK a
Ġpend aft
angk aian
eb aran
ĠSeb uah
te in
Ġte p
Ġmenga jak
Ġkom unitas
ĠB ogor
ut aan
Ġberk unjung
Ar tikel
Ġmenyeb utkan
ĠSu per
ĠPen c
Ġte h
Ġsal uran
Ġr eg
Ġpe tugas
ĠR aja
Ġpendaft aran
Ġmel e
Ġingin kan
Ġke ren
ti r
ti dak
Ġmel epas
Per t
ad o
ek tor
Ġber bentuk
udah kan
Ġperb uatan
T ER
l d
Ġmil iar
Ġ200 8
Ġperm ukaan
ant angan
ĠMal aysia
Ġm antan
Ġp uas
is ten
ĠS ampai
Ġmas jid
AK ARTA
ĠH onda
Ġse tengah
Ġ Ġ
ari asi
it is
ber dayakan
N YA
ĠMan faat
Ġs ore
l ot
ĠAs li
Ġmemper hatikan
Ġte ngg
Ġper masalahan
Ġm aj
Ġmemb agi
ĠP C
m ar
Ġw as
Ġb inary
any e
Ġsar ana
Ġl ampu
Ġmengh ubungi
Ġtel epon
Ġmemas uki
re nd
ja ya
Ġpen ampilan
ĠR ed
Ġmelip uti
ĠIn fo
ĠP ENG
Ġpem esanan
ĠJer man
g at
ĠP il
ob et
Ġde p
ĠMes in
ĠHe rbal
Ġmem ainkan
Ġke d
Ġangg aran
amin an
Ġr upiah
AN D
Ġsk or
Ġk otak
I H
ti ga
truk si
k es
Sem ua
te d
t ai
Ġpemer iksaan
ĠS W
Ġe r
Ġpro d
Ġkal imat
al ia
al in
ĠM odel
Ġmeny impan
de pan
ump ul
Ġkem atian
Ġmen ampilkan
ol aan
Ġber g
Ġh a
Ġs osok
Ġk ain
ĠM ulai
2 9
Ġbert anggung
Ġpul sa
Ġb an
ĠKe uangan
Ġ dat
use n
ir man
ĠL emb
Ġen am
Ġmeny us
ĠC on
ĠD ib
ic u
nd apat
Ġtrans fer
Ġsun gai
ot ol
aw ar
ah aman
i i
n ilai
te g
ĠM ari
Ġde tail
ĠM p
ah abat
Ġterb atas
n egara
Ġmenye rang
ĠC ar
Ġc ahaya
ĠA man
in ga
ali an
ĠPart ai
Ġmengak ibatkan
ĠUnit ed
ĠT as
Ġgun ung
ah aha
Ġh orm
Ġdise diakan
ĠA C
AR AN
Ġmengh indari
ak ul
me wa
ĠAl amat
Ġse tuju
Ġof f
Ġj ari
og ja
Ġdiba wa
or asi
Ġmen olak
Ġmengg anggu
Ġ adik
ĠS angat
ur uhan
Ġleb ar
Ġso ftware
Ġdig ital
Ġpemb aca
Ġ urusan
Ġ dinding
Ġtek s
Ġk otor
aw i
Sem oga
Ġin t
ĠðŁ Ļ
P emb
ĠK i
Ġs m
ĠM ata
H ari
ĠJ asa
s y
ay e
AM I
ĠSel ama
Ġperm intaan
il u
G e
ĠP K
Ġasp ek
T P
ĠPer s
Ġh ebat
ind ungan
ja wab
int ar
Ġmene kan
Ġh ad
Ġmeng ungkapkan
Ġ201 9
ĠP o
ĠPer mainan
Ġbab ak
Ġde l
r aj
Ġi zin
ĠT witter
Ġkebe naran
ĠMes ki
Ġan us
201 6
Ġl angit
diri kan
et es
Ġg ampang
Ġdiant ara
M a
pany ol
ed akan
D is
Ġb o
umb u
il la
Ġdiper oleh
J ual
w arkan
Ġker eta
uj uh
Ġkem aluan
ja b
ob i
Ġkeb iasaan
L IK
Ġke tentu
Ġle vel
S itus
p ut
ĠRep ublik
ĠK ek
?? ?
Ġm arah
ĠL uar
ĠOr gan
um kan
I a
u aran
isi e
ĠKec il
ib uk
ĠK u
ĠK elas
Ġkeb aikan
Ġul ama
Ġmel indungi
ba b
Ġter in
di an
ĠKe dua
ĠMes kipun
v o
ater ai
Ġ it
ĠSo sial
ingk ali
Ġkap asitas
ĠIn ilah
d al
ĠS il
Ġmeng al
Ġbi cara
nd ara
Ġdo a
J akarta
ad get
r ol
Ġmak na
ĠAg ama
ge nt
ĠBer b
ĠM aha
Ġk awan
ĠS B
K ep
t api
Ġmen derita
Ġpay udara
Ġp al
it asi
Ġul asan
ĠP ur
Ġdi tulis
ĠM i
Ġmeng us
ĠD ata
Ġe f
Ġk unjungan
Ġg edung
Ġke dalam
Ġneg atif
ĠP ar
ok rasi
ĠL agi
Ġ dar
Ġdok umen
U B
hasil an
ĠG alaxy
ĠTek nik
Ġb y
Ġp okok
Ġc om
Ġmelakukan nya
ĠS uk
Ġde k
Ġkomp onen
Ġdik arenakan
ĠC asino
ĠBel ajar
P D
O rang
ĠSem arang
ngg ak
uas ai
ĠRe al
Ġdib angun
Ġmen ahan
ak tif
Ġpem uda
akul tas
ĠT angan
ari wisata
Ġse tempat
Ġc on
Ġlaz ada
ĠH ak
ĠG ro
Ġketentu an
Ġba g
Ġmen ular
s et
v alu
Ġhar ganya
ĠS eri
Ġb akar
Ġdit andai
ĠI D
Ġal ternatif
Ġ dosa
abis kan
Ġper intah
AM A
I P
ĠAp abila
Ġdis kon
k el
Ġk ari
ĠP h
ul tasi
ur ahan
Ġk m
Ġbed a
ĠG r
it or
Ġt uan
Ġstr uk
ĠBl ack
ĠD o
Ġberb asis
Ġsamp ah
n angan
m o
ĠI T
ad em
le ngkap
Ġdis t
ĠP S
ak uan
ĠB and
Ġkomp l
Ġse pen
Ġterj angkau
T UK
nai kan
ter nal
Dem ikian
Ġse pertinya
ĠRes mi
Ġper c
ĠB elum
ĠW akil
ol ahan
ĠM alam
Ġpe men
ĠK l
ĠGe r
anj ian
in kan
at awan
ĠPut ih
Ġc aranya
wajib an
z at
Ġkel ebihan
Ġob jek
" ,
Ġgel ar
Ġdig elar
el anja
ĠM anc
ĠL o
ĠM au
Ġser upa
Ġlem ah
ra el
AL AM
ĠB BM
angg al
Ġl ip
Ġc ak
ob ot
mbe ien
Ġs uku
eg ang
I A
ĠS et
ĠT idur
Ġper ilaku
ĠBi asanya
ĠRam adhan
pl ace
Â Ń
. ,
Ġdip ilih
Ġg as
am ba
ikir kan
teri or
g uruan
ĠKel uarga
Ġpen gen
d y
si b
ĠWeb site
AT A
ie r
it men
ĠJ l
Ġmemen angkan
Ġpel atihan
ĠE n
Ġb okep
ah l
pengar uh
ĠF or
Ġpeng aruh
ĠM aj
Ġlum ayan
Ġc ap
ĠMis alnya
on y
ame n
Ġkompet isi
ĠS c
AT I
emat ika
udaya an
ĠðŁĻ Ĥ
ĠA f
Ġuj ian
Ġi P
IN E
ort asi
Ġmem udahkan
Ġide nt
b obet
Ġbe n
f eksi
Ġm u
Ġt urut
in s
ĠBe gitu
Ġun d
Ġmemper baiki
AS A
valu asi
Ġm alu
Ġpr insip
ĠS ang
ĠPas ar
adi ran
ĠP antai
ĠD ip
fir masi
ta wa
Ġm ohon
Ġf avorit
Q ur
d on
Ġbe tul
ĠSW T
Ġjer awat
ĠPen ge
urun an
ribut or
ĠM arket
Ġmembe rs
Ġ id
Ġr aja
omend asi
ut h
Ġh any
di lan
Ġal iran
ak aran
se nt
p ol
ĠH ati
r u
Ġl ancar
de ngan
ĠS ar
ĠKomp uter
ĠW ar
g ak
Ġterl ibat
Ġke ting
ĠSM S
ĠDi ri
Ġw ah
Ġs udut
B elum
ass ar
Ġdit etapkan
In formasi
alis is
Ġmemb uktikan
it kan
eb ak
Ġaj ang
ĠW ah
ter a
Ġot ot
Ġkesel uruhan
ĠMeng atasi
h u
Ġsekitar nya
Ġker ap
em ent
amb u
Ġterk adang
Ġk adar
Ġb apak
Ġstruk tur
rah at
Ġt aman
ce rita
Ġmeng anggap
yar atan
il m
ĠB u
Ġdi ikuti
main kan
Ġri b
B A
Ġdita warkan
Ġs aran
ĠI r
Ġp ap
ĠBe nar
Ġs uhu
ĠTe ntu
ĠSp esifikasi
ĠMah asiswa
Ġke percayaan
Ġme lahirkan
ĠK re
lah raga
T i
ĠS umber
Ġber tujuan
Ġmen ilai
wujud kan
Ġb arat
S A
Ġp arah
af e
Ġber angkat
j am
h y
Ġmen em
Ġkre atif
ĠB antu
Ġkeper luan
ĠIn dia
Ġmem andang
ĠU nik
te nt
hat s
Ġpen gaw
Ġb row
ĠDe n
Ġp abrik
Ġpun cak
d ay
Ġre kan
at im
ĠJ awab
Ġcel ana
Ġsemb uh
eri a
Ġke ku
Ġpromo si
Ġr aya
gin al
ah asan
at ap
di l
Ġk itab
ati onal
Ġp us
3 3
Ġs ibuk
Ġber c
Pe ny
ĠCe rita
Ġberl ebihan
ĠKe napa
mi ah
omb ang
T M
Ġr apat
ĠK o
Ġram ah
Ġse gi
E W
utu r
inj al
L AH
Ġmengk onsumsi
ĠBer sama
amb arkan
ilai an
Ġkeh amilan
ĠMas uk
adi s
ĠB aca
Ġ ganti
K on
Ind onesia
Ġpers o
Ġ8 0
Ġmak hluk
Ġgi mana
Ġhar ta
de m
Ġk il
kenal kan
ud ukan
op uler
olog is
al as
ĠPro ses
M A
ar angan
ĠB as
ĠEk onomi
Ġlel aki
el ek
? "
ĠA mp
ĠW ord
it s
ar ch
ac ara
ĠB us
ĠK amar
ark oba
Ġs at
ĠT aman
S udah
Ġmengh e
ak kan
Ġperso alan
7 0
Ġp angg
or ld
ĠSing apura
Ġp lastik
Ġvag ina
Ġs ir
Ġh uruf
ĠC antik
Ġl ho
h ester
Ġmen di
ĠI tal
s us
Ġter t
ungg ulan
os isi
ĠW arna
Ġmemb unuh
ĠI S
Ġ ~
K ontak
and uan
Ġut k
Ġk ue
Ġmeng angkat
eg al
Ġkamp us
Ġmeng adakan
l es
ĠH ingga
Ġmenya dari
M I
Ġsh are
Ġhe ran
fin isi
ĠU U
isip asi
S ilahkan
Ġpos t
Ġdib anding
Ġsp esifikasi
Ġter sendiri
s atunya
ri c
Ġberb uat
ĠB et
Ġterb ang
ara f
Ġp rediksi
ĠP ay
Ġf akta
angg ar
Ġaw alnya
ĠS ya
m l
Ġtubuh nya
Ġant aranya
* *
ĠUN TUK
aye r
ib u
eb ut
K el
K ata
antu m
K es
anj ung
Ġpe duli
el akaan
Ġhar inya
al apak
ĠD asar
y al
ĠPer lu
Ġte ori
adi lan
ĠU ndang
ĠT ab
I V
Ġr adi
Ġf l
Ġp sik
Ġper nyataan
Ù Ħ
Ġc ewek
am aran
Ġmenc etak
Ġber dua
Ġpe jabat
tu lan
k ota
Ġk ayak
Ġdib uka
ĠR usia
Ġkun ing
ain an
e ning
ĠKh usus
ĠPas al
emb atan
Ġmeny i
ab d
ol os
3 5
Ġsam pe
r omo
Ġti ada
Ġpengh argaan
Ġbe si
ĠE fek
Ġs ol
s alam
Ġ3 1
Ġt ata
Ġser u
Ġ du
Ġpengh asil
ĠIntern asional
C O
tor e
Ġdi ab
Ġart is
ĠSi apa
ah agi
ind u
d ong
Ġpah am
ĠN ur
Ġmener apkan
ih aknya
l and
ĠT ur
Ġmemp elajari
ĠAh mad
ĠS panyol
ĠD KI
ĠAl asan
Ĩ Ĵ
tu m
at egori
ĠH amil
Ġb uang
Ġr is
Ġp ant
ĠP at
s c
a ul
Ġmeng inginkan
Ġkon f
ĠMeng gunakan
eser ta
ĠBagi an
Ġse c
t ahun
dis k
ĠA w
s it
ĠH o
Ġhadi ts
ĠUt ama
st al
lie n
Ġr agu
ĠAl i
Ġdis ana
ĠS us
ro h
L ebih
Ġhany alah
Ġwis atawan
ĠAg ung
Ġkab upaten
ehe r
k uat
Ġ5 00
A nak
ĠPak et
Ġrek ening
Ġpel atih
ĠR ambut
Ġmenang is
Ġ9 0
ol d
ĠB P
inj aman
aj uan
Ġmur id
Mer eka
anj ir
Ġberk el
Ġpe dagang
Ġte le
' s
ĠB ak
N L
Ġse olah
Ġber pe
S o
ulis an
I AN
ĠMem ang
se a
Ġpet ani
Ġh p
kir akan
Ġen g
ungg al
was ta
Ġpemb erian
Ġrel atif
Ġme dis
tentu kan
it ia
e nang
nj olan
UH AN
ant aran
ag ar
ĠS at
as ang
omb inasi
Ġdi ak
Ġhal nya
Ġj ag
Ġp is
Ġba wang
ĠIm am
Ġus ai
n ek
ĠIs rael
Ġseti daknya
up an
men g
ow ok
ke n
Ġketi dak
ĠItal ia
Ġdiba gi
Ġkos ong
ir o
Ġk ag
n ome
ĠKar tu
im antan
angk ut
Ġmas sa
z ah
M ungkin
Ġpengg emar
Ġmembers ihkan
Ġmenc intai
Ġ ajaran
ol isian
y pe
Ġrah asia
al ih
Ġj aman
Ġdi tentukan
Ġb atang
Ġp residen
mb ol
Ġsen jata
ĠT ujuan
unc urkan
Ġkol am
ĠCh ampi
Ġk ampung
ekerja an
p el
Ġser ver
Ġe ra
Ġb ul
Ġr atusan
Ġdap ur
ala ihi
Ġres iko
ustr alia
Ġres pon
D apatkan
Ġpas ukan
Ġres toran
ange rang
O leh
anti asa
Ġâ ĨĴ
Ġk ac
r ab
akt ek
ĠJ aya
ĠPEN D
ĠB apak
Se tiap
ĠKar ya
Ġke indahan
angg ih
ĠSep atu
Ġop tion
Ġter tinggi
Ġberj udul
v is
aj ian
Ġkenc ing
Ġl ucu
ĠC l
Ġbe ban
ar y
atur e
3 6
s an
Ġsu am
Ġpas al
Ġsur el
Ġpen awaran
ĠU k
Ġt ujuh
us kan
in um
F oto
Ġberper an
udah an
Ġn onton
ĠT o
ĠPer empuan
Ġsi g
ark ir
Ġperk ara
Ġb u
etak kan
ig h
ĠC ek
ĠKom isi
Ġg rup
angk as
Ġtem ukan
Ġdi mainkan
Ġab ad
Ġp u
Ġdisebut kan
emb ang
K M
Ġ ori
Ġmen ak
aw esi
ul usan
on is
B uat
Ġsangat lah
Ġ3 5
ĠA tas
Ġme wah
do a
Ġmemper tahankan
Ġs uci
Ġmen onton
nc anakan
ĠL owongan
Ġpe ngan
Ġent ah
Ġt arif
Ġbaik nya
Ġte men
ic h
ĠMeng apa
ĠI kan
ow o
P ara
ĠP or
Ġv i
Ġkeny amanan
k op
ĠK au
ĠB aw
Ġkon tr
Ġsen y
Ġpe me
H asil
ĠPem ain
G B
ĠP L
Ġdasar nya
Ġ anj
ĠP on
ĠMen arik
ĠD A
ĠManc hester
or g
t y
Ġle n
ĠW ajah
ĠI nt
Ġdit ambah
d ada
unt ung
7 7
c il
deng arkan
Ġpemb eli
Ġt un
ĠMe rah
ik ulum
Ġn utrisi
Ġf it
ig ht
uk ah
Ġform at
ĠT rik
lengk apan
f oto
o ut
Ġdis el
ĠT ubuh
Ġmem esan
Ø §
on ore
ĠK ini
ĠS ayang
se dur
Ġpen umpang
Ġdi et
ĠE mail
Ġk ala
Ġg lobal
titu si
Ġke naikan
P I
Ġpen asaran
ĠIn gin
pe c
Ġem ang
Ġke ker
Ġt utup
Ġre al
Ġmengh abiskan
el is
ĠTe ngg
Ġp asir
Ġhidup nya
je r
K om
Ġmene rus
Ġs api
Ġj abatan
at o
Ġdi had
Ġsil akan
ĠSeb e
Ġke na
m ah
Ġ7 0
ĠDPR D
ĠS T
ata an
Ġdiser tai
use r
Ġb ulu
r ika
ĠAb dul
Ġpet unjuk
Ġk aca
Ġdi duga
ĠS an
ĠK asih
Ġmeng ucapkan
Ġan al
Ġsen antiasa
k ali
Ġmen s
Ġgel ap
ĠKe giatan
Ġtak kan
Ġmel ibatkan
ia omi
L alu
ĠR S
L owongan
ĠI NI
ĠS olo
uas kan
angk u
Ġf ot
es ta
S ed
5 5
Ġmenyi apkan
Ġ19 8
Ġpert anian
amb ing
Ġbuat an
H R
M akan
ĠMas alah
co unt
F T
Ġba ck
Ġuc apan
ĠTer murah
Se orang
ĠAkhir nya
Ġrib uan
Ġpen gertian
pe tensi
Ġb iru
ĠKeb ijakan
Ġ200 7
Ġre ferensi
P NS
Ġdi adakan
Ġka os
ĠBer bagai
ĠS tudi
Ġter murah
ĠM on
Ġpem andangan
Ġkeku asaan
In fo
dek at
ip il
ĠE s
Ġpas ang
co in
ĠB ah
Ġgol ongan
Ġmeng gan
Ġper juangan
ĠA mbeien
Ġkep em
ada i
AN T
ĠAl am
A h
ĠS a
aw al
= =
f l
m acam
Ġperb aikan
Ġmenya jikan
Ġter atur
Ġmenger jakan
min al
N o
ĠMak assar
le n
Ġper form
Ġsy ari
ĠG i
Ġpene r
ĠL ampung
nt ar
Ġis lam
ĠBek asi
ĠAp p
Ġs isa
ik h
dat angan
ĠO ff
Ġmence ritakan
d k
Ġk ucing
Ġpen urunan
um ahan
Ġsel aku
ĠP adang
Ġh iburan
ar ak
ek ali
Ġt aj
jah atan
ĠO lahraga
ĠB aju
ĠP ajak
Ġpas tikan
empat kan
Ġ don
is ahkan
Ġel ektronik
ape r
Ġpem ahaman
ĠB ikin
Ġpem ilihan
Ġdiper caya
Ġal bum
L ihat
Ġters angka
cel ona
Ġis tr
i mbang
Ġtangan nya
B eri
s al
Ġn ikmat
angk utan
ĠL ihat
tem u
ĠAd min
Ġs tab
ĠMem iliki
Ġmengirim kan
os it
omend asikan
od y
ĠI II
W ah
Ġkec antikan
Ġper ingkat
am ah
Ġ dong
ĠPol isi
Ġser vice
ngk api
Ġdi dik
UR AN
Ġsek ian
l in
Ġseb aliknya
ĠS im
aw anan
Ġke wajiban
Ġkor upsi
Ġs ipilis
ĠS K
Kem udian
Ġlap isan
ĠM uda
ĠB unga
ig asi
Ġ dada
ent al
ĠM U
od o
Ġt antangan
ĠB umi
R E
Ġl ubang
jak ulasi
el ly
Ġmem egang
ĠD atang
os s
anj ar
W A
AR U
Ġper lahan
D ip
ĠA ustralia
pen uhi
ĠChampi ons
Ġbe ncana
re d
Ġt utur
Ġm ode
ĠR akyat
arta wan
S ur
Ġter dengar
Ġsel e
ĠB onus
ĠâĢ ¢
Ġmemas ang
Ġsek el
n ali
Ġdi dukung
Ġpem ikiran
Ġm atang
Ġmengaku i
ĠA M
Ġmenyemb uhkan
Ġef isie
Ġgo ogle
rus her
wak ilan
ro t
un y
Ġkol eksi
ol ar
Ġdin y
Ġpen dukung
Ġsab ar
Ġm or
nder al
-- --
Ġbat ik
Ġmeng uasai
Ce rita
l emen
ĠM u
Ġsepen uhnya
ĠW ajib
at egis
u gian
ĠT ENTANG
IK AN
Keb ijakan
Ġpres tasi
ĠHe r
Ġ et
Ġpen cer
Ġdi jalan
B ahasa
AK AN
ĠP et
Ġmil iter
S es
Ġk ub
Ġp ihaknya
Ġb ut
j ur
Ġ urut
Ġke lah
Ġkepad anya
Ġbe k
Ġc ookie
Seb uah
Ġmend aftar
Ġkar na
ĠBe n
Ġmer usak
Ġtele visi
di am
Ġpem as
erim aan
amb aran
Ġc ita
ur e
ĠF orex
ĠG ar
ĠAd alah
Ġpeny elengg
ĠC or
ĠW e
Ġdi men
Ġe nggak
Ġm ag
Ġram ai
ua ca
ĠPen elitian
peng alaman
ad aran
ĠR uang
Ġl omba
S P
ĠJ U
ĠTerk ini
Ġ4 5
Ġg ro
angk al
j aran
Ġsta f
ĠMeng obati
p es
ĠC oba
ot an
Ġs ant
Ġc ustomer
l ok
amp uran
ĠS AW
angg aran
ĠU M
unj ukkan
ĠPer aturan
ger akan
Ġtind ak
Ġkol om
ind ung
m em
eb asan
utu be
aris an
Ġf acebook
el sea
ĠP D
Ġs alam
ĠW id
Ġl un
Ġpro tein
Ġ3 6
Ġses ama
Ġkeber adaan
ĠK AMI
ĠPen ga
ab uhan
Ġkak ak
Ġan e
ĠM ENG
3 8
Ġmeng umpulkan
Ġb is
Ġper ti
angan an
Ġmas k
Ġpeng usaha
ĠMas jid
Ġb au
Ġdike mbangkan
ĠPri vasi
Ġdi inginkan
is k
T ag
1 00
ay angkan
Ġtim ur
blog spot
ah am
ĠS ama
ĠSe jak
ĠP EM
ati kan
Ġdiper hatikan
t in
o ft
Al lah
w at
ĠðŁĺ Ģ
Ġse dih
ĠPer nah
t anya
ĠW i
ĠDom ino
Ġpe gawai
ak up
rit ah
ĠMus ik
g u
ĠJ uta
Ġmenge nakan
Ġmemas ukkan
k adang
ĠRes ep
Ġl ulus
ĠC ap
0 8
n tikan
Ġg aram
es is
Ġker jasama
Ġt ag
Ġter bentuk
Ġpendapat an
ĠC ina
ĠR E
lai m
Ġseti a
ay angan
it coin
ĠO b
o vasi
Ġli at
ĠKal imantan
mas alah
ĠMem per
Ġp acar
Ġpeny imp
ast ra
Ġdih asilkan
ut ang
ĠIns tagram
Ġser ingkali
dek aan
ĠPol itik
Ġs aksi
ĠIb nu
Ġt ipis
aren anya
Ġper encana
Ġs inar
ik ro
elih ara
unt ungkan
ar gai
ĠK y
b y
manfaat kan
Ġpl at
ad angan
tur unan
Ġas uransi
Ġn anah
Ġkon trak
Ġbas ah
ĠB idang
Ġpemb uluh
Ġb aterai
OM OR
B ukan
Ġp indah
3 9
d h
jah ter
Ġl eher
ĠP ilih
ĠLa ut
et akan
ĠSul awesi
Ġpem ula
ĠMinim alis
ir e
Ġ dur
Ġcab ang
I s
ir ah
ĠMel alui
ul ah
Ġg raf
Ġpemb ahasan
ĠA D
ĠSe gera
Ġpot ongan
Ġt ur
Ã ¢
ĠDok ter
ĠN as
ek tif
es tiv
Ġp ip
Ġtransp ortasi
.. ...
t eksi
Ġ ;
u asan
Ġmem akan
E H
Ġb otol
Ġkem ajuan
Ġdi aj
M u
Ġsy stem
Ġpemen ang
Ġmas akan
di on
B ila
ĠB ab
ĠBer s
akt unya
Ġl intas
ungg ung
Ġmeneg askan
Ġtop ik
amat kan
Ġmis kin
all allahu
ĠR ek
estiv al
ut ihan
i q
ĠVe r
po ol
g l
Ġmengingat kan
ĠO t
c m
um umkan
a ut
Ġdi ker
iner al
ĠD ewan
ĠS ri
Ġdi manfaatkan
ĠiP hone
ĠM ag
Ġmen yak
ĠP anc
Ġp ort
ĠM il
ak angan
Ġper hatikan
ĠL ingkungan
Ġs ing
Ġper siapan
de l
Ġb ud
Ġan c
Ġg injal
Ġkel ihatan
M aka
Ġ- -
Ġh amba
sim pan
am aha
Ġtepat nya
AH A
Ġkel e
x t
Ġr oda
ĠF it
Ġsem e
Ġl ambat
b esar
ĠJ o
Ġmembagi kan
K amu
Ġ ^
Ġ ï
i um
Ġh aji
Ġn ge
ĠKe mbali
Ġprak tis
o us
Ġme wujudkan
Ġse x
Ġs op
ĠBar celona
Ġmenga jar
nd am
ĠL angsung
ĠK eter
Ġbi ji
ĠâĢ Ķ
or gan
Ġspesi al
ranc is
Ġter tulis
Ġk lien
Ġdim inta
Ġl idah
n ap
Ġ ep
ĠTr adi
s or
, -
Ġpengel olaan
f or
Ġi ya
Ġmengg elar
âĢĻ .
Ġdr ama
ĠMem ilih
ntu an
ĠN OMOR
ĠJ ogja
t anda
Ġberk urang
Ġmer k
ĠRi au
one r
ve ntu
Ġ ele
Ġun i
m al
Ġket at
Ġses udah
Ġdi alami
ĠG ames
Ġba c
ĠC ookie
ind o
Ġkeh adiran
bat asan
ĠIn ter
ala ikat
Ġs amb
al og
ba ca
Ġmenj amin
Ġkec elakaan
k o
Ġpul uhan
ĠH i
Ġ adi
yak inan
ĠA z
Ġkes an
inc i
ar nya
ind a
ban kan
ĠPeny ebab
Ġmemper siapkan
Ġtr ik
ĠA mb
awan cara
alis me
ID AK
ĠF orm
Ġmen tal
Ġbe g
Ġdikel uarkan
ud din
ili un
Ġg oreng
int ik
Ġl ingk
hit ungan
3 1
Ġm ut
ĠA ri
Ġpe cinta
Ġw alau
ĠAmp uh
nome na
si p
Ġmenghadi rkan
Ġ3 2
ar m
Ġ15 0
Ġdi d
Ġmo tif
ĠInd ah
eb as
ĠB uah
ĠF l
u gas
Ġperencana an
Ġg r
ĠB okep
ĠSen diri
ĠL ama
ĠH an
ama ah
Ġseb ut
Ġtidak lah
age n
b arang
Ġv is
ĠT angerang
ream ing
Ġpand uan
Ġgen ital
Ġis u
Ġbet apa
Ġk atakan
Ġmateri al
B B
up uk
Ġeks ternal
% .
u u
Ġpeny el
AN A
av igasi
Ġmeng ontrol
b ahan
Ġkal inya
ĠInd ustri
ĠJ umlah
Ġmo tivasi
ĠSel anjutnya
. (
Ġak al
Ġm bak
Ġkel apa
Ġperl indungan
Ġkom e
ĠF akultas
Ġprod usen
ust akaan
Ġberb elanja
Ġberh ak
ĠY e
Ġc he
Ġker ugian
Ġpat ut
Ġh ehe
Ġw ajar
Ġc anggih
ul ir
Ġsekali pun
ĠH itam
Ġkul iner
Ġtem p
ĠPert andingan
Ġso si
Ġcok lat
il as
Ġber edar
ale r
Ġkek alahan
ĠB udi
Ġmenga b
Meng apa
et ail
mb ak
Ġdiab etes
Ġuc ap
Ġin dik
af at
3 7
Ġf inal
anc urkan
ĠTet ap
aft arkan
ant ap
Ġg ua
p s
ĠT op
Ġungk ap
ac un
ĠMen ang
v olusi
ĠCh elsea
Ġkelah iran
ĠAk ibat
anjut an
S D
Ġmenc akup
in fo
Ġpenghasil an
I SI
Ġsh olat
ĠK PK
Ġmus uh
5 9
Ġc ac
Ġber min
Ġg adget
ĠKris ten
ĠO perasi
Ġp intar
3 4
c am
k ada
Ġber ukuran
Ġke unggulan
ĠJ oh
Ġ om
s un
ĠP anjang
d ri
Ġditem pat
Ġke sen
Ġ arus
Ġdin ilai
ek ue
Ġbe ner
Ġbers angkutan
omb ok
ĠSk or
Ġsampai kan
Si apa
Ġin ves
ahagi aan
ab ah
Ġke mer
Ġga ji
ur o
ĠW alaupun
ĠR os
Ġfor um
Ġditer apkan
ant au
Ġt ravel
ĠL akukan
Ġj aminan
aren g
Ġdi atur
a q
P ress
Ġke jahatan
Ġil miah
Ġm adu
ĠRe ad
R umah
Ġper ek
ĠB udaya
ĠP EMB
ail and
Ġ dam
Ġdipas tikan
il bab
Ġpal su
Ġkab el
Ġp h
lihat kan
T V
nt ing
nt ah
Ġberh arga
ĠDi g
e um
ĠH am
Ġ u
Ġdis elenggarakan
ep si
Ġmem uaskan
s word
ni f
Ġmen de
ĠL ayanan
ĠS am
ĠA yah
aj in
Ġper ingatan
Ġl antaran
d osen
Ke napa
ros oft
Ġad at
A IN
gen g
Ġpers yaratan
um pa
Ġsem ata
Ġuj i
ba ck
p ress
ub l
ĠK lik
ĠKe nd
Ġmeny ambut
B AB
angs ang
Ġsel atan
em uk
ĠMen ge
Ġpembe r
ĠC D
j angan
Ġr ed
ad z
C om
Ġmen des
ĠC i
Ġpro vinsi
Ġm isi
Ġku asa
Ġsekali an
ĠT ravel
at in
Ġke rajaan
) :
Ġpem an
ĠE r
ĠP in
Ġpen ger
Ġmeng untungkan
ĠOrgan isasi
Ġmen dengarkan
ungk ap
ĠPol res
Ġp impinan
ĠSi ap
Ġm ay
P M
si on
Ġem osi
in aan
ĠL aki
ad ak
H e
ĠJe nderal
Ġpes ta
ĠH D
Ġrah im
Ġmenj elang
jahter aan
Ġdidapat kan
ĠSek s
ver pool
um as
ĠG el
Ġg ram
aj ikan
Ġpas aran
Ġdib ilang
Ġn et
Ġter tawa
Sek arang
ĠW hats
ĠIk lan
ĠD ALAM
r ama
Mes ki
ĠT anjung
Ġdiny atakan
Ġy e
Ġpen ilaian
ĠDir ektur
ĠSe jarah
Ġmak e
or y
Ġhat inya
ant is
Ġhar ap
Ġr angkaian
ĠP ilihan
ant ang
Ġpul uh
Ġno vel
abd a
Ġmeng alahkan
r ut
v al
Ġmer awat
krip si
ĠT angga
O W
T he
oy ota
Ġw aktunya
y ukur
Ġp andang
perti mbangkan
Ġni at
Ġ !!
Ġju jur
Ġdi re
ĠPemb angunan
ordin asi
Ġber pengaruh
udi k
p ot
ri badi
Ġk andang
s ul
uj ian
r om
Ġmen atap
Ġe vent
S umber
ĠT ah
ĠMengh ilangkan
a ing
Ġhal al
up date
ohon an
Ġmengh apus
tr ans
Ġsej enis
ĠT our
ester ol
ĠA G
S is
Ġbersama an
ĠD aya
Ġt arik
anc ur
Ġp utus
nda ft
Ġanc aman
Ġte g
S atu
Ġmemb el
up aya
ne y
r or
Ġtaj am
em ah
ĠB ang
Ġdik onsumsi
Ġm p
ch i
Ġak urat
amb i
Ġl oh
ĠX iaomi
j uk
ĠKan ker
Ġke turunan
Ġm ari
Ġnaf su
b on
es aran
ĠSek ali
Ġkonf lik
Ġber i
ĠBer at
k ira
Ġmer es
nya wa
Ġt utorial
ĠMana jemen
im u
Ġungg ul
um uman
f ungsi
ĠK un
Ġdiba ca
4 8
ĠAd apun
Ġkem udahan
ĠO NL
ĠW arga
ant ren
sent rasi
ĠG aya
Ġmengal ir
AH AN
Ġme yak
B C
Ġk unjungi
ĠDep an
Ġbin atang
Ġide al
m y
on an
Ġi mb
omo tif
Ġre nang
Ġstr ategis
Ġkon eksi
Ġbrow ser
Ġ af
S h
Ġmenyak sikan
Ġber iman
o tensi
ĠNus antara
G ambar
Ġjelas nya
r ist
ĠS in
Ġmen etapkan
Ġba yar
bo ard
ol ume
Ġc asino
ump ai
resi asi
ad ari
ĠTer p
j ana
Ġib unya
ĠN g
Ġber doa
Ber dasarkan
eh at
Ġmat anya
at ing
Ġp injaman
Ġhari an
l akukan
ĠAr tinya
Ġisti mewa
Ġm i
Ġber ak
Ġkeker asan
Ġke y
ĠT epat
Ġmem ikirkan
ungk us
Se r
ĠR em
Ġp apan
Ġn ampak
Ġdom ino
ĠPe kan
Ak hir
ĠWord Press
uk ar
ĠC PNS
ĠBag us
ĠT anda
ir anya
Ġse akan
ĠP unya
ump ah
uc k
eb us
tif ikat
ĠSE O
Ġmin at
p as
ĠONL INE
Ġw akil
ĠS H
ab le
eb ar
ĠG edung
ri an
Ġkes adaran
Ġga b
ĠR AM
Ġg emb
Ġmen angkap
Ġ3 00
Ġj utaan
U ndang
B el
Ġdi tutup
ĠK et
5 7
Ġmence r
um or
Ġmas ukan
Ġse wa
ĠTengg ara
Ġrumah nya
Ġmeme rik
Ġor der
ake r
0 3
ĠS ukses
5 00
and at
Ġun t
K u
Ġsur ga
ba wah
Ġsebe ntar
Ġ dosen
ai b
ĠR om
s ihan
ol es
q ue
Ġcer das
Ġmenc atat
Ġle ngan
ĠB lu
ĠC ari
raj at
Ġpen eliti
ĠD arah
ĠDem ikian
Ġl owongan
Ġjadi kan
Ġy ou
Ġident itas
ĠM y
ĠL og
ek sp
ol der
Ġme kan
Ġc ipta
Ġw artawan
K util
Ġpeny emb
T ek
Ġmengak ses
Ġden gar
ĠG B
Ap abila
Ġberk at
ting gal
ĠSe derhana
Ġdisk usi
Ġpendek atan
ĠT ahu
Ġpem akaian
ĠSo al
ĠKel urahan
ĠF ull
Ġber v
aman kan
ĠS martphone
ip uan
Ġtim e
m un
Ġter tutup
k arena
ind ar
Ġse waktu
ame ran
Itu lah
Ġter seb
le y
ĠD im
IN I
ĠAr se
Ġs wasta
Ġre aksi
nif ikan
Ġv ari
ur uk
m ata
âĢ¦ ..
Ġberj uang
ganti an
et api
Ġdi isi
Ġ duga
dek atan
anj ikan
ĠTe nt
el at
d ing
ukses an
ĠR asa
Ġj anji
ugi kan
Ġmem icu
Ġpes anan
ge nd
ndaft aran
anj ur
Ġj urnal
Ġbes ok
r aka
p r
l ami
ĠLi ve
ĠW asir
dek a
on j
ĠSe j
y le
pe ri
Ġsuam inya
ung nya
ĠW orld
R A
Ġke tua
B arang
Ġmenye ntuh
Ġc at
Ġtel inga
ub ungkan
Ġdom ain
Ġse nd
el uk
ĠM AN
dom an
H anya
Ġs asaran
y anya
Ġpeng aturan
S ep
Ġg ug
Sed angkan
Ġ audi
I k
unt ansi
Ġr okok
age r
amin a
ĠPen e
uc h
Ġtek nis
ele n
c on
J enis
Ġb anjir
ro ses
ĠT IDAK
Ġund angan
Ġke temu
Ġan alisis
Ġhad apan
and ainya
Ġn abi
p em
ek i
nc i
Ġmas ak
oleh kan
ĠBer dasarkan
ĠL angkah
S ebe
Ġsel eksi
wak ili
Ġmengaj ukan
Me ny
ul t
Ġpro sedur
b anyak
ĠT ri
Ġke datangan
Ġf ull
an am
Ġsem inggu
Ġl atar
Ġl elah
Ġn ger
Ġmen untut
ĠAngg ota
ĠA nal
Ġp unggung
Ġbah aya
Ġk ombinasi
ĠI mp
Ġset ahun
ĠSer ing
an usia
ĠTerb esar
M anfaat
ĠSis wa
Ġbers abda
Ġpl us
ĠS w
ĠAn ti
int ahkan
Ġsim ak
Ġj as
Ġin tim
Ġng ga
ĠPl us
n an
Ġmarket place
Ġte bal
Ġmengin ap
ĠO ri
Ma af
u x
Ġp antas
k eb
ĠSel uruh
Ġpenting nya
eg ahan
Ġmene ngah
ub uk
Ġt olong
O H
Ġba gai
ĠB iaya
onom ian
p roduk
wa an
Ġkac ang
Ġtradi si
ĠP ekerjaan
Ġs antai
Ġi man
Ġkesel amatan
ingg ris
p res
Ġkem ana
Ġt unggal
emi um
ĠSem akin
g ara
Ġc uaca
nt al
ĠM A
Ġpro b
ĠS eg
Ġgan d
asil a
Ġput ri
ĠSe mb
ĠS audi
rit anya
ĠTer j
l on
m ur
ro b
ON G
id o
m adi
Ġsig nifikan
Ġpi dana
ĠO R
ĠTh ailand
Ġbers yukur
ĠT eman
ont ok
p h
Ġke nyataan
l angkah
Ġistr inya
Ġmenyeb ar
ĠK ak
Ġmen el
up anya
Ġg aransi
l inya
Ġ20 00
Ġsepak bola
j anya
Ġj akarta
Ġseny um
Ġb angga
ĠKon disi
Ġperti mbangan
Ġperform a
si an
Ġmem impin
em ari
ĠY un
ĠSep ak
ind ahkan
anc arkan
C A
__ __
Ġk g
Ġpel ajar
Ġmul ia
af ir
Ġbert indak
Ġdi des
ĠM ore
k alau
Ġhukum an
Ġmelepas kan
ĠLi verpool
om eter
Ġbe ngk
ĠSun gai
Ġv ital
Ġdir asakan
ĠT K
Ġhand phone
Ġmen dalam
Ġkek ayaan
Ġbeg ini
Ġber pengalaman
and u
C ari
ĠA cara
o e
Ġjam ur
ĠPe ri
ĠS P
Ġbers aing
V ideo
Ġb oc
ĠBer l
j ub
Ġpro perti
ab or
Ġg elas
ĠK ul
Ġpand ai
Ġdel apan
ĠSeb agian
BER ITA
Ġf ashion
ar ya
3 2
ĠM ain
Ġter api
g ing
S T
ik um
pent ing
Sur el
Ġgi zi
il et
Ġbuk alapak
Ġter e
Ġman diri
Ġmen emb
se diaan
Ġ ala
6 6
Ġmen angani
Ġpen onton
ras truktur
eke r
Ġpad anya
ti b
ĠSebe narnya
Ġsur ve
Ġmen empatkan
Ġter dekat
Â ©
Ġkom itmen
Ġterp aksa
oro kan
Ġ dri
Ġmel aporkan
Ġber cerita
ul auan
Ġmengg ambarkan
Ġdij elaskan
oll ow
Ġsej auh
si apa
ĠM ilan
nd alikan
Ġmem anggil
M asih
ĠS aja
is s
ĠE d
ĠTradi sional
S u
epak atan
st ra
w eb
Ġp inggi
Ġ200 6
Ġpem asaran
w arna
Ġl olos
ĠS te
Ġorang tua
Ġp re
Ġterc atat
Ġmem ori
af sir
Ġre z
ĠQ ur
ĠC ukup
Ġkebe tulan
Ġseme n
y ik
ĠTi ga
ĠB or
ĠH p
Ġb ro
Ġterj un
Ġber tar
Ġstab il
ĠT inggal
Ġl ari
U A
kan dung
ĠP ADA
c uali
Ġas et
Ġkeluar ganya
ĠSel engkapnya
Ġme ri
Ġc ampuran
ĠUni vers
ĠR oh
Ġn arkoba
PU B
ut o
ĠSM K
Ġmeng ganti
ĠG R
Ġr om
Ġtr iliun
al k
Ġj an
ĠC el
Â ·
Ġr api
ĠL ombok
Ġmeny es
ol ok
ib ah
Ġpangg ilan
T h
B log
Ġbr oker
r ap
Ġkeb ahagiaan
Ġk ian
Ap p
angk atan
Ġkeber hasilan
ĠY amaha
sa ingan
ag ama
F A
tor y
Ġkamp anye
ol ongan
ĠDew asa
ĠF ree
Ġse iring
ĠMan diri
ekue nsi
lan et
Ġsa w
uk e
Ġtumb uhan
Ġmengel ola
ĠDis ini
Ġketer ampilan
Ġ dak
k ab
Ġmendek ati
Ġf in
Ġhorm on
amp aknya
ĠBe ntuk
Ġpad at
Ġkek asih
K au
K isah
Ġpenyimp anan
Ġdike nakan
Ġmel anggar
Ġpers on
Ġdiri mu
nd angan
7 8
ĠH y
Ġlap ak
j ut
Ġser at
In gin
me mb
Ġlun ak
0 1
mudah an
ven ir
eri fikasi
Se cara
Ġmenghe ntikan
ĠF ungsi
Ġ ikuti
ĠD apatkan
Ġper oleh
et apan
nc ing
M au
Ġber ulang
L e
aks asa
Ġc or
Ġcak ap
ing kan
Ġst at
Ġsay uran
Ġterseb ar
Ġj urusan
Ġs ak
4 4
ĠK isah
Ġpenj ara
Ġterk ini
w ork
201 5
Â »
ĠBe ngk
ĠK PU
Ġ inggris
AR ANG
Ġh em
Ġmemp roduksi
ĠKom unikasi
Bagi kan
Ġel emen
is ode
Ġsi mbol
P os
Ġmask apai
Ġm m
Ġh ehehe
Ġak adem
Ġk umpulan
PUB LIK
j in
Ġke yakinan
art o
Ġan eka
ĠB anjar
Ġsek si
ĠMen e
Ġkel ak
Ġk ris
aku i
m is
ĠP NS
ic arakan
ĠSp ort
Ġ ....
Ġkompl eks
Ġdik utip
Ġmen olong
Ġdi te
Ġn an
Ġpenye dia
ĠM ay
ĠL az
os kop
ĠUk uran
s atu
al inan
Ġhttp s
K A
Ġoptim al
untu tan
Ġkas ar
Ġm ac
it o
ER AH
us nya
ht tp
g h
Ġg ambaran
Ġ ver
Ġberh ati
ri kan
Ġk up
P ol
Ġce dera
ĠPeng h
Ġt ro
ĠB any
anc ing
un kan
m us
if e
I C
Ġb umbu
ĠP rancis
nde ra
p t
Ġaktif itas
Ġpemb uat
nc an
m el
ĠUl ang
Ġjah at
Ġc owok
Ġm od
Q S
Ġk ambing
ĠLemb aga
Ġst asi
ĠT UHAN
ĠPe nting
ĠPal embang
Ġw ith
k et
h usus
ari a
Ġm omen
Ġse si
ĠTerk ait
Ġr asakan
ĠP ark
Ġdis esuaikan
alik ota
dar ahan
ĠH ot
Ġdi ar
Ġkese jahteraan
Ġkas ino
Ġdib eli
Ġmasuk kan
z z
9 0
ĠH AR
Ġtoko pedia
Ġgem pa
O TA
n ia
Ġj awa
Ġkece wa
Ġli ve
Ġsel engkapnya
n anya
ribadi an
ĠArse nal
Sel anjutnya
Ġadmin istrasi
ĠMen ye
Ġmemper mudah
Ġpencer naan
ĠP M
Ġge reja
g asi
ĠL in
se dia
Ġdiper kirakan
unj ukan
Ġf ree
om ong
ĠY ou
Ġde rajat
ag n
ĠSel alu
uj ur
ĠK amp
Ġpemb icara
ĠIst ri
AT URAN
Ġrek omendasi
ĠJ oko
x i
Ġut ara
ur asi
Ġpengaw asan
ta in
ĠD ARI
c u
h iri
Ġp ingg
ok si
ĠI de
el d
âĢ ĺ
Ġk ant
Ġc l
Mem ang
H P
Ġa q
Ġr ak
ĠItu lah
m atan
rip t
ranc ang
Ġtuk ang
Ġmemb iarkan
Ġkel uhan
ĠE mas
Ġpembe ntukan
Ġput ra
Ġad e
ĠMes ir
Ġp aru
ĠT ata
d ara
B i
ek ar
ĠH ubungi
Ġsm s
Ġne nek
ht ml
Ġkari r
tur ut
Ġ200 3
ĠT oyota
ter an
Ġmeny esuaikan
ĠU sia
lo mb
ga galan
ĠD a
Ġdih adi
und ur
ise nsi
ab ang
ĠA re
Ġayah nya
ĠBat am
it anya
omb ongan
atur al
Ġperj anjian
eb alan
Ġdil uar
ah ir
Ġmeng undang
ĠCe r
ER I
Ġoper ator
ĠS EL
Ġce rah
Ġdengan nya
ĠD ana
o ol
at angkan
ĠPem esanan
Ġkons isten
ĠN i
\ \
Ġsele ra
Ġmeng am
ĠY uk
lo ck
je ct
Ġp arkir
Ġri wayat
Ġnasi b
0 5
S p
v itas
Ġ2 50
ĠZ e
Ġk lo
Ġe jakulasi
ĠAN DA
N A
Ġberv ariasi
Ġper lengkapan
c ess
ĠPen j
si mp
T AS
amb angan
Ġterp ilih
ĠMo dern
ĠYah udi
ĠV al
Ġterg olong
Ġkh asiat
ĠH a
Ġak rab
âĢ¦ âĢĿ
ongk ok
Ġhar d
Ġte was
ĠBand ara
Ġmenyer ahkan
ĠK OM
Ġpel anggaran
Sel ama
ĠSe ni
Ġs pe
OL A
Ġdis ajikan
E O
ĠK ER
ĠPes awat
Ġr oh
ag ing
ĠC alon
Dip osting
umb uh
ĠPemb el
Ġh el
Ġ usus
Ġadi l
Ġband ara
mb unyi
Ġm ore
Ġc etak
ed a
est ina
Di berdayakan
Ġisti rahat
Ġc ar
Ġstasi un
d us
Ġbel akangan
ĠAp i
M P
Ġdit ampilkan
ĠM ur
oh ol
Pen gertian
M us
Ġke empat
a ba
os o
ĠBer k
ĠPl ay
Ġop si
ĠB I
ĠSebelum nya
Ġc hat
Ġsiap apun
uh yun
ĠSer ta
ĠSE K
Ġb ant
apai an
Ġ ve
Ġt at
Ad apun
Ġinves tor
ĠS esuai
Ġk aw
Ġpr aktek
sh op
ok ia
at ori
G P
em uan
Ġc uci
Ġm ineral
Ġkeb udayaan
ĠDi per
ĠB UM
Ġmengaj arkan
Ġplat form
h awat
Ġt ali
Ġpert ahanan
den tifikasi
z uki
Ġm utu
Ġmemper kuat
Ġdiker jakan
Ġga g
ĠT ingkat
Ġper hitungan
ĠF C
Ġber untung
ĠCe nter
Ġ200 4
ge mb
Ġtet angga
ĠMic rosoft
Ġp ariwisata
dek s
Ġk ron
n ews
n el
ĠP us
uti ara
ĠF akta
ĠH and
Sebelum nya
h arga
Ġb aku
osi asi
ĠW ilayah
ĠS aw
ĠA SI
ĠPas alnya
Ġke de
Ġsal lam
ĠEl ektronik
ĠPe nd
Ġter jaga
k itab
Ġl urus
Ġt rend
ĠDi berdayakan
Ġduga an
Ġc rusher
ĠN ilai
Ġimp ian
7 5
ĠM ati
ĠS bobet
Ġdi masuk
dir inya
amp au
ĠMobil e
Ġm ikro
Ġam al
ĠD ar
le c
us uf
ĠS ch
Ġber ga
Ġmenge jar
Ġdir ilis
Ġw e
teg rasi
Ġ emp
Ġh obi
,, ,
Ġberm acam
Ġli ga
ĠF itur
Ġpenye r
C h
per ma
0 4
ĠD ist
Ġtent ara
ĠB ud
ĠPenge mbangan
T an
gi a
eg o
ĠBeli au
Ù Ĳ
is ar
di dik
ĠBantu an
ĠS alam
Ġmur ni
amb atan
B uku
ĠSe ti
eb oh
Ġj embatan
J l
r gi
Ġp angan
ĠTer us
Ġun dang
ĠMel akukan
ĠI d
M U
ĠPol ri
B I
ĠA R
Ġek or
Ġberk umpul
Ġ19 6
Ġm ini
ar ingan
ala ikum
I bu
f il
ĠGun akan
ĠApp le
FT AR
Ġin ovasi
Ġper guruan
g it
ob rol
Ġe rat
ĠMin yak
ret aris
ĠN ews
Ġ dal
Ġklas emen
Ġse berapa
ah i
Ġjer uk
Ġke me
ĠL u
s s
b ud
Ġmenga w
Ġdin as
Mes kipun
Ġ user
Ġkes uksesan
OB ET
E C
Ġdap et
one y
T ahun
im asi
ump ut
Ġterp isah
ĠPut ri
ahl ian
Ġ amb
ĠK EL
Ġmer ubah
Ġpis ang
ti ons
d ut
Ġte kan
an sir
Ġt on
h ubungan
ag ukan
uj uk
ati ve
Ġlog in
Ġmal as
Ġin spirasi
o a
re nt
Ġketing galan
4 6
ĠT ua
ĠPem uda
Ġw ujud
ĠHP V
ber ry
Ġminim um
Ġdil arang
ĠS amp
Ġkem asan
Ġh emat
Ġkec amatan
ĠAr tis
l ebih
ĠMend apatkan
p ura
Ġber tugas
Ġl antas
akan nya
ventu s
wang i
L angkah
Ġter daftar
ĠS ipilis
Ġkon ser
ta g
ĠC he
Ġmen yakit
ing nya
Ġs lot
ĠD imana
ambil an
Ġmenemp uh
Ġmengh argai
Ġtengg orokan
Ġmaj alah
Ġmengec ek
ĠBan ten
Ġkep olisian
ĠA B
ĠMel ihat
Ġ200 5
Ġpeng ikut
Ġdi rancang
ud us
Ġw adah
Ġ %
tu re
ĠJ elly
Ġr ele
ti me
ĠPem ilihan
ĠSu ara
u ga
Ġup acara
ĠD ong
b it
Ġgel ombang
ĠMa x
Ġ !!!
Ġb udi
Ġsay ur
Ġer eksi
ĠS ol
im pun
Ġk uda
Ġga wang
Ġkenc ang
k w
h ak
Ġg ila
ĠPul sa
Ġter penting
Ġkag et
Ġdic iptakan
¿ ½
Ġdic ari
rip si
ĠB in
ĠR T
U AL
Ġv isi
Ġber dampak
Ġmen anyakan
ĠPer jalanan
k us
Ġta utan
ret a
Ġpas sword
ĠAd am
Ġdam ai
Ġmeng ar
n es
ek or
Ġsar apan
Ġmobil e
un uhan
ĠC S
Ġs ia
Ġdil anjutkan
ĠB intang
Ġk rim
AN AN
201 4
ram e
Ġto ur
Ġmengemb alikan
ĠSer vice
Ġn ot
anc angan
Ġmemas ak
atori um
AL AH
e rgi
i asa
ĠS ak
Ġdem okrasi
Ġkeber sihan
Ġkes epakatan
Ġkom petensi
ĠH ubungan
ĠN et
i mbangan
Ġpeng in
ĠM odal
ĠL okasi
ĠPel ayanan
agu e
Ġk us
Ġf lash
Ġje n
Ġpo int
Ġkep uasan
up un
Ġtamp aknya
j il
S t
j utkan
ĠAk ses
Ġmemerik sa
Ġb intik
Ġr upa
Ġsin yal
ĠDep osit
ri ght
Ġberl alu
Ġmemb uang
Ġber darah
Ġdi penuhi
Ġnaf as
inj au
ĠL ink
is is
ĠL istrik
ir al
Ġr agam
ĠGro up
Ġbi arkan
s k
ĠO ne
Ġmenem ui
orm ati
T r
0 9
Ġj epang
Ġditem ui
Ġefisie n
Ġwar ung
ĠK uat
ĠK ode
Ġp ower
Ġb or
ĠI si
Ġprob lem
5 6
ĠDep ok
Ġber in
ir aan
4 9
Ġv arian
ĠKre dit
is ir
ĠLap top
Ġ Ø
ĠD el
K ota
Ġkotor an
Ġberl ari
Ġmemb edakan
Ġbah as
ĠTER B
Ġkep utihan
sh ip
UK AN
ab ut
Ġt ren
si gn
ĠPanc asila
U p
Ġ0 1
ĠO per
ĠGe jala
Ġber de
emp ut
ip u
M in
Ġk is
Ġsem ester
ze n
ĠPert anian
Ġradi o
ĠK ari
Sebe narnya
ain ing
Ġis inya
Pert ama
Ġik h
Ġbr and
Ġperj udian
Ġwajah nya
Ġmenj auh
ĠBek as
ike r
0 6
ĠS tar
Ġl u
ar jo
Ġmemper lihatkan
Ġe valuasi
pl in
ĠKe ren
ĠH id
Ġbus ana
Ġg ur
Ġl aku
0 7
Ter nyata
Ġk arenanya
Ġal um
ĠAk un
Ġdis ek
per t
ĠS EM
Makan an
ĠB alik
ĠB angsa
on eka
as y
Ġro ti
Ġbers ikap
Ġmel ebih
ĠW A
madi yah
Ġinst al
ai tu
Ġmemper cepat
omp uter
Ġterke jut
Ġdib ahas
Ġkon trol
ĠDig ital
Ġpan itia
itu re
ĠA di
Ġpert ar
Ġklas ik
AH UL
at h
Q uran
Ap likasi
ĠAh ok
A kan
Ġdiper b
Ġsaat nya
un e
Ġtah apan
! "
Ġman ual
J adwal
Ġdi tuj
âĢĻ ,
Ġsp ort
ob alah
ĠI dul
Ġm aya
Ġy o
B ahkan
Ġperek onomian
i u
Ġsend ok
Ġr aga
antum kan
Ġap arat
ara b
Ġ urat
Ġsen tu
ĠK im
Ġso alnya
Ġm ama
ĠC uma
ĠK os
emer intahan
gen ai
ĠKal o
Ġkel ainan
ĠP a
J asa
l agi
ur it
Ġdis arankan
ĠI P
ĠTe naga
Ġak ar
Ġr ajin
eg ini
ĠW il
Ġb utuhkan
Ġe nd
nd aknya
ĠPeng gunaan
s ing
ĠS uka
Ġmer ugikan
ĠV irus
Ġkons ultasi
aj inan
uj ung
ĠM ac
ĠB ul
ak na
Ġse diakan
ĠK art
Ġto ilet
c iri
r d
Ġmemb aw
Ġmengh arapkan
Ġstr es
d olar
asi f
Ġpen erimaan
w ay
ab ung
Ġdit angkap
ĠPeng obatan
Ġkrit ik
ĠM bak
Ġger ak
T E
ĠPas ti
ongk ong
p i
ĠT ag
eh an
esif ik
Ġb angkit
c ita
Ġin form
uny ikan
Ġket ak
ĠPem ilu
ĠTur ki
Ġmeng onsumsi
Ġc i
rah im
Ġin terior
ĠR onal
Ġtab let
ĠIntern ational
ĠPal estina
Ġinf rastruktur
Ġm itra
Ġvis ual
J AKARTA
ĠT anggal
Ġb ad
Ġpen ipuan
Ġp on
Ġsep uluh
Ġkol esterol
c ap
ĠG amat
ĠD ulu
Ġt and
Ġn ah
ĠA P
ĠPe mber
Ġprak tik
Ġmengh itung
AM P
n um
Ġterk esan
ĠA min
Sis tem
Ġber n
ĠJ adwal
Ġke mb
Ġurut an
Ġmeng ap
Ġfe nomena
Ġ dolar
b uku
anc ang
Ġmeny usun
Ġdip impin
Ġdituj ukan
Ġdijalan kan
urn iture
Ġpen anganan
ĠBat ik
Ġpes at
Ġter m
t ra
ep ara
ĠC aranya
ĠP EL
ĠPenga dilan
Ġper gerakan
it le
ĠAf rika
ĠPer ang
las s
iaya an
os h
Ġterb ilang
lie r
u venir
Ġter kandung
k em
Ġs ya
ingk ah
Ġte st
na f
ĠP esan
anc is
Ġrel a
o te
Ġb areng
D ua
tu b
ĠPer ubahan
ritah uan
man e
Ġdibe ntuk
Ġp ac
Ġpe cah
re ad
ĠE ngkau
Ġmemb andingkan
Ġmemper kenalkan
di c
ad uan
T im
Ġanj ing
Ġt ra
Ġber umur
Ġjangan lah
Ġpro t
Ġter im
Ġp ungk
dah ulu
ge nda
Ġkemer dekaan
Ġpenyemb uhan
am us
ĠG rup
s tr
C D
Ġg ara
Ġmis teri
Ġser ba
ĠSB OBET
Ġris et
Ġseba ik
ĠP res
utu t
ĠC ir
Ġb osan
ĠTer akhir
Ġl ambung
ven sional
Ġmengh ancurkan
Ġce ritanya
ĠN atal
Ġberkom unikasi
Ġdit anya
ĠBel akang
Ġv olume
fa atan
Ġl ine
us inya
ĠSy ari
ĠM EMB
Ġl ayaknya
Ġya a
ĠSta dion
ĠPert anyaan
Ġinst ansi
Ġmor al
Ġt witter
Ġas linya
Des ain
IN D
N avigasi
ĠMen ingkatkan
ĠPer p
em ahkan
Ġdidalam nya
Ses ungguhnya
ĠH ol
4 7
r umah
tuj ui
Ġdi akui
Ġdi angkat
Ġber operasi
ĠSek itar
Ġmenyel amatkan
anj akan
Ġmenutup i
ĠUnivers ity
Ġkeb ebasan
nik matan
l um
em udi
ikm ah
Ġmend atangkan
ok s
Ġbermin at
ĠPen gertian
Ġ1 000
ĠPr ab
Ġ angkat
ĠWid odo
O V
ar as
anj angan
I l
an e
Ġte n
is ika
ĠDA ERAH
Ġdem am
s ihkan
Ġpeng urus
T ema
ĠT iket
Ġc ur
ĠSe x
ĠJ i
Ġber encana
Ġper saingan
Ġg ini
G I
aw as
Ġmeny imp
ĠBer bagi
Ġl ulusan
ic a
ĠJ AKARTA
Ġme wakili
Ġmelihat nya
Se jak
Ġmen dirikan
ĠN aik
Ġoper asional
ĠP eserta
al s
Ġ9 9
aj ang
gent ot
Ġindik ator
AT IS
Ġmeng ur
ĠS IM
be n
Ġut amanya
Ġs ul
ĠK ayu
av a
amping i
ad anya
Ġt ype
ĠPemb uatan
Ġ ongk
ĠFit ri
Ġmuncul nya
ĠJu ventus
UNG AN
Ġl ibur
ro v
Ġber es
AL A
is inya
angg api
lus if
Ġin ti
ĠPer k
Ġhe r
Ġm ampir
e nak
na g
pe mb
ĠU K
ank si
Ù Ĵ
Ġli ar
ap oran
T etapi
inc in
ĠBel anja
ĠP ower
ĠAngk a
Ġne raka
Ġkal e
0 2
Ġdir iku
oll ar
ĠB L
m es
Ġpemas angan
Ġs idang
ĠKe j
Ġpel an
Ġdi tul
ut amakan
el ler
ĠL amaran
ĠH aji
. [
it os
ar asi
urn amen
O C
Ġb ir
Ġ ama
ag o
ĠP ang
Ġhid ung
w anya
J alan
b isa
ĠB EL
anj urkan
ĠI V
Ġmelebih i
Sel engkapnya
Ġl eg
ĠK opi
ĠK ON
Ġbagi kan
Ġpers is
Ġpeng olahan
d g
Ġt ik
mane n
Ġl ong
Ġsatu an
Ġt dk
Ġt ri
ul ia
ĠT emp
Me nc
4 2
v in
ĠC at
ond on
Ġbe ker
P ri
jub kan
Ġde rita
Ġmer ilis
Ġkeb akaran
T S
Ġl aman
ĠC ol
ĠH AM
Ġbi jak
m ark
tem uan
b ukan
ĠSu ami
AHUL UAN
ĠGe reja
IK A
p ing
ĠKeh idupan
L agu
Ġh is
Ġmenemp el
Ġab u
emp urna
Ġs w
Ġtep ung
Ġs an
Ġsk ala
em ia
Ġdis ukai
Ġkon firmasi
ĠG adis
Ġdip ahami
Ġkep alanya
Ġdi dirikan
Ġk afir
ĠMarket ing
ĠSe dang
Ġm alaikat
Ġat let
Ġag o
Akhir nya
ĠB IS
ĠMet ode
201 3
AL I
ĠPur w
Ġt unt
f ord
ĠKor ban
ĠK amera
ĠMus im
t rip
Ġdik ab
ĠTer masuk
Ġde st
Ġori ginal
ĠK ong
Ġtempat nya
Ġres olusi
had apan
5 8
m on
Ġar sit
teri ak
angs ing
Ġmay oritas
ĠH ARI
ul angan
Ġj aket
w in
Ġmarket ing
Ġmenye rah
ĠO h
ĠI M
Ġleb aran
Ġpu isi
ĠTel kom
Ġp anggung
ĠK ualitas
Pro gram
ĠTan aman
Ġser agam
orm atan
B isa
ind onesia
h ing
Ù ħ
Ġtahun an
Ġditul arkan
us uk
uk ung
Ġmeng uat
Ġform al
Ġdil ansir
Ġmenggan tikan
ĠE nak
ba gian
OK ER
Ġp otong
uk is
ut nya
Ġdisi plin
ĠL ok
Ġ19 45
ung sinya
ih ad
Ġpeny i
ĠK ete
Ġoff line
ĠLe ague
ĠK eber
y angkan
Ġbesar nya
Ġ0 9
in ati
ĠM EM
Ġal l
Ġkeb un
w on
un der
om pa
teng ahan
Ġsem ula
y l
IN T
Ġberse dia
il in
Ġmengan d
ĠPer ancis
ĠPr em
ĠK H
p anjang
Ke dua
Ġlip at
Ġkl in
Ġkont eks
Ġke n
Ġgemb ira
Ġke he
S eh
h ab
el ajah
Ġlog am
K irim
W anita
Ġsej ati
ðŁ ĺ
ĠT ai
Ġber upaya
ĠD on
ĠJ in
Ġr aksasa
ĠT ugas
Ġseb utan
Ġbel as
at inya
Peny ebab
Ġy uk
Ġmem elihara
it ungan
U s
Ġkepem impinan
Ġmat ematika
ada ban
Ġmer okok
Ġf ase
ĠK AB
ĠPeng etahuan
ĠUp date
Ġdimasuk kan
ĠKas us
ĠKap ol
aw ang
ĠDis kon
je nis
B isnis
ĠK ue
Ġj ajaran
W aktu
Ġf ans
Ġi mbang
ĠT rip
ĠBi asa
Ġw awancara
ĠB uka
Ġpri oritas
tent angan
O h
Ġm ula
ĠT AN
ingg ung
P usat
Ġm ark
ij at
Ġimp or
est ik
ĠA PB
ĠĠ ĠĠ
Ġput aran
se perti
am ai
Ġdipas ang
ĠAnt ara
ĠF re
Ġuni versitas
id asi
ĠG ak
Ġl irik
Ġik atan
Ġpeng ganti
d uh
Ġr ute
ĠE ntah
Ġdi simpan
ĠPas tikan
Ġper wakilan
ĠKris tus
Ġ eh
Ġke gagalan
Ġkrit eria
ĠB akar
abor atorium
j ika
B eli
Ġv al
s ih
Ġsek adar
Ġmele ngkapi
Ġob yek
Ġterb iasa
T T
ĠInd o
Ġbul at
eb on
st all
Ġm y
Ġele gan
Ġt p
Ġke pe
si as
ĠF aktor
ĠTent unya
di fikasi
L i
Ġdi ubah
isk inan
Ġkend ala
Ġsp esifik
B P
ĠA sian
ab ase
Ġpe ta
Ġ dul
ĠK unci
ĠPEND AHULUAN
i o
ĠF ir
b ook
Ġw awasan
â Ĩ
p asar
ange ran
Ġn ada
imp ah
ĠPeng el
Ġkant ong
aik nya
j auh
r r
di tasi
p u
I ya
oh ong
ĠR oma
Ġber e
l ay
EN D
ĠM impi
Ġc ream
Ġse nyawa
h asiat
Ġdi ganti
oy o
ĠD P
Ġdic apai
Ġdik unjungi
ze r
ĠK ampung
ĠC ewek
ĠJ ack
Ġkon vensional
) ;
Ġs andi
Ġpenyelengg araan
d own
C ARA
ĠAL LAH
Ġpeny anyi
Ġjalan an
ĠKe ncing
ĠWhats App
ol ik
Ġt untutan
s ungguh
res if
.. âĢĿ
Ġkel emahan
ĠTim nas
Ġmeng umumkan
ĠTr ading
dok teran
Ġs ik
ĠKe reta
g ambar
dam aian
Ġkel emb
Ġmem pertimbangkan
m etik
Ġbat uk
ĠR iz
ad y
ĠTe was
ĠO S
k lik
Ġmeny arankan
ua ya
ĠM ohon
Ġcontoh nya
Ġdi tu
ang nya
ĠT R
ĠKe rajaan
l agu
Ġ3 3
ĠD aun
ĠDew i
ra ih
Ġdi ajak
n n
Ġked udukan
Ġmem atikan
Ġins tr
Ġmengan cam
Ġmem uat
ongk ar
Ġche ck
r in
Ġke ahlian
ul as
Ġdij amin
Ġl ist
Ġdip roduksi
Ġjumlah nya
nd alian
ah abatan
ĠJ um
Ġberb ahan
si um
Ġpas ca
Ġp ameran
Ġmana jer
Ġl abel
ĠUm ar
Ġdep annya
N E
Ġdak wah
Ġkur ikulum
ĠF ashion
Ġdil aporkan
onj ol
Ġn yar
f ah
Ġand alan
Ġal k
aten g
Ġal ergi
ĠRonal do
l ink
ĠS ipil
ĠPen is
Ġpenc ari
201 2
Ġke ju
Ġmenj e
ĠU jian
Ġm uk
d sb
ĠR adi
s ter
OR M
O SI
ĠS ay
ĠSo ekar
Ġb odoh
Ġprof il
Ġters isa
unc ak
Ġm undur
Ġmeng urus
Ġj amaah
Ġlemb ar
Ġmer ata
ĠL ebaran
ĠC an
Ġberk as
el am
Ġakhir at
ĠB ac
ĠSt andar
dem ikian
Ġterl epas
Ġj aga
Ġme dan
ut asi
l asi
Ġsendiri an
Ġpen ambahan
ĠAl ex
% ,
Ġper iksa
ĠW al
Ġsep i
Ġmen un
Kep ala
Ġlanjut an
T B
S urat
Ġhak im
Ġs or
H ai
Ġor g
ĠM isi
g ro
AM B
AS AN
ĠS imp
Ġmenghad ap
Ġgand a
Ġt ir
Ġsel amanya
Ġ0 2
ok rat
Ġdi ingat
ĠB ung
ĠA udi
Ġmemb ah
Ġsp ek
ĠL ip
Ġ ??
Ġtr ader
imb ing
em u
ĠJ ambi
romo sikan
acam ata
ni at
Ġn el
Ġad onan
ap tasi
et ap
ĠH el
ĠAl hamdulillah
us ikan
Ġke nikmatan
Ġmengand alkan
ĠW ali
Ġketi mbang
Ke giatan
g mail
Ġr ap
Ġter i
and al
ba wa
ai m
ĠPas angan
an kan
Ġm ic
Ġpus ing
Ġpor no
ank s
P ilih
ĠIn f
Ġmem eluk
Pro ses
aksi m
uh ur
ewat kan
ncan anya
Ġmend adak
ont in
ah ap
nd aki
ĠKali an
y ono
ĠA wal
ĠD av
Ġterl ambat
ING K
k or
on line
Ġk ajian
Ġt ol
Ġdist ributor
oksi dan
ĠP ort
r ok
Ġberpe ndapat
angk ok
s afat
aj urit
ĠKar akter
J S
j ang
ĠMas akan
Ġpe nya
sp ek
ĠPrab owo
5 2
ĠKy uhyun
Ġmend ownload
Ġdest inasi
Ġterb it
Ġsemp it
Ġpener apan
in ah
Pen yakit
ĠD etail
Ġpen diri
Ġtahun nya
âĨ Ĳ
ĠPil kada
Ġmel arang
Ġpengel uaran
man i
r ek
et y
Ġdik asih
Ġbeker jasama
19 9
T RI
Ġdiak ses
d s
Ġs perma
ĠB itcoin
Ġmembel inya
Ġterh ubung
di e
ĠS ir
ĠU r
ĠSes ungguhnya
Ġter or
Ġterim akasih
c s
Ġter pe
em on
ĠPe ndaftaran
rim akasih
Ġdir ek
salam u
Ġr ent
si un
ĠKat egori
Ġkun o
Ġkon sentrasi
l ima
Ġat ap
ĠMe mber
Ġberp otensi
Ġker am
Ġpinggi r
Ġungg ulan
Memb uat
c ahkan
Ġkomp likasi
uan sa
at anya
ap as
ĠNo te
urun kan
Ġp anc
ĠS uri
d or
Ġpres entasi
U AT
ĠFor um
B ab
lam asi
Ġhar am
Ġpenulis an
sem oga
Ġage nda
ĠP agi
ĠD ah
Ġber gantung
c le
Ġke g
ting g
ĠS uatu
Ġtep i
ist is
Ġpeng ambilan
Ġs l
ĠF in
Ġmem adai
aw e
ĠC ocok
Ġdi pe
ul tan
ĠLap oran
Ġm ainkan
Ġcok elat
um is
ĠMin uman
es a
ah it
Ġt abel
re w
ĠH ab
Ġmekan isme
Ġl imb
ĠB AN
Ġbe njolan
Ġ dsb
ist an
Ġ0 7
ali b
re asi
ĠPan as
emuk akan
Ġrum it
Ġ 00
P aket
Ġkar et
Ġketak utan
Ġc air
ĠF estival
Ġok si
ate d
k ita
ĠI ran
Ġterg anggu
ĠAn eh
Ġb os
app y
ĠH ome
Ġdir umah
Ġr acun
Ġdihad api
Ġtr us
ĠR a
Bel ajar
ĠÂ ©
Ġgag asan
rb ang
l ess
Be gitu
nyata annya
Ġeksp or
Ġ3 8
Ġz ona
Ġkepad amu
uk isan
Ġmen elan
Ġset an
Ġmenggunakan nya
ustr asi
ĠB a
Ġa gan
al ap
Ġpenga dilan
v ie
Ġseni or
E k
Ġc opy
ĠM ark
F i
ili asi
Ġmain an
Ġ oke
ud in
Ġum pan
w anita
Ġditer b
r ep
k ala
Ġv ariasi
Ġper umahan
c ur
ĠO ut
ĠContoh nya
Ġmel uncurkan
ile r
Ġber ganti
Ġmel atih
Ġo ver
ĠK irim
Ġsens itif
ĠN okia
Ġmel upakan
Ġketing gian
Ġjan in
Ġmenunj ukan
es arkan
ĠPer nikahan
ip ina
ĠSab ung
Ġl and
ĠProf esi
de d
i ya
is m
ĠU nt
Ġmenc uri
Ġperk ataan
ĠS A
Ġh ip
il at
S ampai
ĠIs lami
get kan
Ġ19 7
ver y
Ġdi tur
D it
o per
Ġf irman
Ġbi mb
Ġl ar
us unan
Ġst ok
Ġn ikah
unc ulan
Ġdu it
ĠRem aja
daya an
ĠM ir
Ġtel anjang
ĠTer jadi
Ġdi anjurkan
Ġberke naan
Ġmeng arah
Ġbert ahun
in ess
sama an
et te
Ġlem ari
ole ran
Ġbag inya
Ġdise mb
v iks
y akan
ĠN ggak
Ġr upanya
Ġade gan
Ġhe ndaknya
ik alau
nd or
Ġmenghadi ri
ĠV s
C atatan
ĠKep ulauan
Ġp ur
Ġsab un
Ġs araf
ĠY ork
] .
le mb
A b
ili ar
ĠPer m
ĠâĢ º
Ġkep ribadian
Ġkons truksi
Ġsy ukur
Ġbe asiswa
Ġmemb ela
Ġin duk
ĠG al
ĠUS D
Ġke nangan
Ġterb ar
ĠKep utusan
ap akah
ĠS ahabat
b ur
Ġmeng gi
Ġberk arya
ĠN asi
Ġl es
Ġpenc egahan
ĠJu ara
bi otik
Ġber hadapan
e c
krip sikan
ĠG reen
ï ¿½
Ġdi in
Ġmeng atas
P L
ret an
rie nd
ukan ya
de pen
Ġseg alanya
D ik
ĠTer hadap
Ġmemb alas
in ja
Ġj itu
ĠGr and
ĠU dara
Ġdi ti
p lier
ĠPos t
Ġanal isa
is al
Ġf i
Ġsemb ilan
im pa
Ġdi f
ĠRE PUBLIK
T ulisan
ĠG u
ten s
g y
Ġh y
ĠTi ongkok
Ġba ja
Ġr ombongan
op sis
Ġter dahulu
AT EN
Ġset ting
ĠN a
Ġke simp
l ama
Ġprof es
Ġ <
tul nya
Ġlog o
ĠT elah
ĠPemb ayaran
Al hamdulillah
ĠD ih
ĠGer akan
ĠS ant
Ġsem inar
Ġdip anggil
ĠS tore
ĠPrem ier
B AT
ĠM oto
AP A
ĠJ urnal
Ġel ektr
el la
Ġt angk
Ġl et
Ġst ock
Ġbo x
ĠR eg
Ù ı
ce n
f ie
em angat
5 3
ing ati
ĠR is
Ġter tera
Ġb uruh
ĠR uas
ĠBUM N
ĠL ondon
Ġpen eg
Ġpemb ukaan
ĠB B
ĠTer lengkap
ust om
Ġg onore
Ġorgan ik
inj am
Ġsh allallahu
ĠLe e
SI S
ĠM or
ĠMin um
ĠK itab
Ġberl anjut
ĠS umb
unj ang
ĠL irik
Ġper ayaan
Ġmer ayakan
Ġmendatang i
ĠH asan
Ġdip andang
Ġmenge ndalikan
ĠMat eri
l ihatan
ĠLaz ada
etah u
Ġkarakter istik
IN K
ĠJ antung
Ġh ancur
angkit kan
om pat
Ġm om
esai an
un akan
Ġsing le
L irik
F O
ĠT I
ĠMuham madiyah
ĠH ewan
ĠQ u
Ġprof it
arus kan
M ohon
Ġseb ulan
di o
Ġb aris
ro gen
Ġrep ot
b k
ent asikan
Ġter ser
m isi
is ahan
Ġs astra
c l
ĠAn g
Ġbuk it
r aksi
Ġb unuh
Ġkris is
Ġ4 00
ANG G
in im
ĠKab ar
ĠB AB
Ġp akar
Ġnya wa
Ġh ot
nc y
p ar
Ġbib it
Ġber ta
Ġdimen si
Ġmeny angkut
M et
Ġr adik
ic ial
Mem iliki
ĠS oc
ĠW at
v ia
me ny
Ġset ara
us a
Ġ7 5
Ġper tengahan
ĠP ariwisata
Ġlimb ah
Ġmenj anjikan
d f
Ġper bankan
Ġbac aan
res h
w ati
U SI
Ġpem ilu
ĠK umpulan
t ek
ĠSo ftware
Ġak h
Q Q
olah raga
ĠRe view
u asaan
ĠSu zuki
om od
ac ker
Ġproduk tif
Ġr eb
Ġberk es
Kon disi
Ġmembah ayakan
Ġkes ayangan
Ġditem p
m ati
ĠW is
int asi
se ro
Ġj ati
ĠN EG
ĠMen u
Ġde bu
Ġbentuk nya
L abel
Ġb akat
Ġle zat
H otel
Ġke adilan
ĠP ublik
n arkan
Ġbet tor
ur ian
ĠL atar
ĠJoh n
H ati
Ġap artemen
Ġkesimp ulan
ĠNus a
x x
Ġit em
se mb
is tensi
s il
Ġman apun
ad at
ag on
K ON
ĠD ay
ĠN on
Ġng eb
re ncana
Ġpen jaga
Ġpad aku
Ġas upan
ĠW alikota
Ġram uan
Ġlain ya
p in
aktif kan
Ġde sign
AG I
Ġi rit
Ġdikirim kan
te gr
ĠAngg aran
Ġj us
Ġmem aksa
ĠT ema
eh kan
Ġn orm
Ġsens asi
ber t
K ap
p uran
at ik
z an
Ġmem ohon
Ġberp uasa
Ġs b
K N
ĠB h
Ġ3 9
ĠDi c
ĠM AS
Ġan tu
ektor at
ĠR upiah
Ġb ali
Ġhe ad
Ġw indows
ĠMat ematika
Ġsop an
Ġb andingkan
Ġmenye rup
ĠB ij
Ġberf ikir
ah ah
ese orang
Ġkrit is
gant ungan
ali fikasi
ĠT otal
ĠM art
ĠRes e
ĠK AR
Ġr obot
Ġperp ustakaan
Ġke sib
ĠKur si
Ġh osting
ĠGi gi
u be
Ġsil at
Ġdi aw
at is
ĠG em
asan nya
Ġsi apkan
id ato
ren g
m au
A gar
d rop
anusia an
sen ang
c ial
il ir
Ġsek e
ĠN anah
ĠIn gat
ĠH alaman
ĠS pe
ĠPer j
ĠM acam
ĠT ok
ĠP akai
aa aa
ĠT au
Ġs anksi
Ġte am
Ġtu anya
Ġker janya
Ġditempat kan
aks aan
nj ang
ĠBaw ah
bet es
Ġr ugi
ĠT es
Ġber niat
ĠV ia
Ġkes al
d ot
ĠSayang nya
Ġterb akar
Ġe disi
Ġgraf is
Ġbat in
ĠKap al
elen g
ĠN ature
Ġke ag
anc am
Ġs impan
Ġber alih
Ġad uk
l ang
ĠS I
Ġmenj alin
t il
Ġdom estik
et nam
ĠP op
oba an
Ġdikel ola
ib adah
Ġ3 4
c us
bo x
ĠPol d
Ġse ter
K ar
Ġng omong
Ġku ota
V D
ĠPold a
emp ar
Ġter nak
andat angani
Ġl ini
Ġdi us
Ġmemb ac
ĠS uci
Ġper anan
Ġpen erima
Ġtab ung
ĠAn us
D ir
Ġper dana
L I
eg oro
Ġsosi alisasi
ĠG at
art isipasi
Ġeks ek
Ù Ĩ
Ġungk apnya
Ġa ut
k ep
ĠT emukan
duk asi
Ġkesib ukan
ab aran
Ġberkom entar
ĠP BB
umb uhkan
Ġsup port
T AN
inc ang
Ġ dg
Ġp upuk
Ġser tifikat
ut ih
Ġrele van
ĠRah asia
m akan
b eli
cak apan
M odel
Ġmenja bat
Ġsyari ah
aw inan
ĠB angunan
Ġpat ah
ĠPen ulis
Ġj g
Ġditerb itkan
ab il
l awan
K P
ĠAn gel
c at
ĠGR ATIS
Ġmemper besar
Al at
Ġmul us
Ġas yik
Ġsifat nya
ras ah
on or
' .
IT AS
UP ATEN
J e
ĠQ uran
ĠSuri ah
h ite
Ġmel angkah
iling i
eli gi
ĠMet ro
F ilm
ĠW on
ran i
Ġnas kah
g ok
ĠF asilitas
ĠG us
w ood
Ġot omotif
mi g
K ode
Ġse demikian
v ing
ah ih
ĠDi et
Ġr umput
Ġw ork
af al
Ġpembe ritahuan
el ing
ang is
ANG K
em uka
ĠJ aringan
Ġdimaksud kan
t le
Ġl etak
Ġmengan t
Ġg udang
ĠKeb udayaan
Ġs bobet
Ġar oma
Ġny am
am al
ĠL ED
Ġke ntal
ĠP aris
iman apun
ĠSoekar no
ar ahan
t t
Ġperm ohonan
Ġpembicara an
Ġpemb unuhan
ĠMen j
ĠC il
B aik
Ġterin feksi
Ġmeny uruh
oot h
is ap
T U
ĠC trip
Ġkil ometer
lu as
ĠD ap
Ġdim inati
ĠSul tan
ĠH ijau
ĠTerl ebih
if t
Ġsalah nya
4 1
ĠKel uar
Ġterc antum
Ġpl ay
ĠTer dapat
ĠO m
T erim
Ġg ubernur
Ġpen utup
ĠS m
Ġmaksud nya
Ġ day
Ġmenulis kan
ĠDil akukan
Ġpel indung
Ġunt ung
Ġsimp le
K emb
Ġpemb esar
Ġsil am
Ġsen ilai
Ġmen aik
Ġmenyus ui
ĠFil e
Ġ utuh
ur ai
si tus
Ġt urnamen
Ġrom antis
ĠS mart
Ġber agama
Ġmemb ant
ĠF lash
Ġb om
Ġbers alah
Ġdi de
Ġmeng und
Ġkal ori
ĠK ara
oy al
ĠStr ategi
Ġantu sias
ĠMat ahari
ĠM B
Ġmeng angg
ĠH ong
s aat
Ġjawab annya
o uc
ĠH UT
Ġh ahaha
ump ur
Ġt ambahkan
ĠHari an
Ġ ).
k alo
ĠUS B
ĠE p
d ress
ĠF i
Ġdi an
ĠTi pe
R T
Ġker ingat
Ġber enang
ĠPembel ajaran
ĠP ram
Ġ199 9
if i
ĠKor upsi
M ari
ĠKel ompok
al urkan
Ġdan au
ug il
Ġpeng uasa
asi o
Ġem o
Ġoksi gen
si di
et ron
A DI
Ġ3 7
it ahu
ĠW as
iri tual
wajib kan
Ġmeny elenggarakan
ind akan
ac u
Ġse nt
ĠMen inggal
Ġkese imbangan
Ġber teriak
Ġinst an
P emerintah
u wangi
k k
Ġditur unkan
ĠMas ter
aks o
op si
ĠHar apan
y anto
ĠO l
ĠB ebas
M AT
Ġinter aksi
Ġso fa
ĠGe n
S ub
gas me
inc ian
rit ik
T EM
Ġse cepat
Ġstr ess
Ġso uvenir
ĠSy stem
Ġmengus ung
ĠBer kualitas
ĠMan ager
Ġt awaran
Ġr ilis
Ġdi man
d z
Ġr as
ar s
AC A
Ġsi aran
ĠK aki
F F
Ġstr oke
Ġdl m
Ġsem esta
Ġuc apkan
ĠAngk atan
ĠIns ya
ub le
ĠKec antikan
ĠKep ada
Ġter wujud
Ġmenyerup ai
ang a
Ġsej enak
Ġj ilbab
Ġmenunj ang
be tul
Ġmengh ubungkan
. )
Ġek onom
ĠKAB UPATEN
Ġg itar
ĠK udus
Ġc ampur
ĠB ib
Ġb id
ĠPL N
ĠP eme
ĠTi ba
Ġsens or
Ġkece rd
Ġbes t
Ġpe p
Ġtr uk
Ġmul ti
Ġn a
Ġbur sa
ad uk
Ġse andainya
c an
ĠH ampir
Ġport al
Ġmeng as
ĠRed mi
Ġbe ndera
Ġdiaj ukan
s yat
Ġmak alah
T ENTANG
ĠEk s
Ġker abat
Ġmenyeb arkan
ĠPut ra
Ġk utu
f tar
d ha
ĠS yah
ae n
Ġt awarkan
ad ukan
ĠM ini
j uang
aktu r
B ET
Ġpant at
ĠD ini
Ġut ang
P AT
yak ini
v il
Ġtun ai
ĠJ itu
ĠOff ice
Ġpr emium
Ġber an
H adi
ĠCh ar
Ġperi hal
ĠC iri
form at
at uhkan
Ġkom isi
Ġberl atih
Ġb ook
aksim alkan
M AN
ĠK uliah
anj ak
est inya
c ontoh
Ġmengh al
ubl ic
K ategori
l ek
Ġnyar is
Ġk art
ĠOri ginal
o x
Ù Ĭ
Ġperb andingan
Ġpah ala
Ġpemb inaan
Ġdihadi ri
Ġeks k
Ġpeng lihatan
ĠB RI
us ul
Ġb unyi
Ġ6 4
ĠPay udara
Ġaudi o
Ġmenyer ap
ĠBuk it
ac ak
Ġpl ayer
ĠPen giriman
Ġmembuat ku
ĠNo v
ara i
uk ota
ĠYo utube
ĠMer ek
ĠS ari
Ġkak inya
ĠPer kembangan
Ġlap ar
Ġsh aring
Ġter lengkap
y am
Ġilmu wan
ĠC V
ĠL ucu
ingk uh
IM A
Te ntu
Ġmenemp ati
gab ungkan
M at
at alkan
ag ement
h el
Ġs arankan
Ġje jak
if at
and ra
ĠM ama
elih araan
tasi un
gun ungan
Ġterh indar
ber ita
ĠPekan baru
on ic
ON AL
Ġl arangan
ĠIb rahim
Ġdiba yar
Ġs tar
Ġde finisi
dek ah
ly mp
Ġangg ap
angan nya
Ġsem i
ĠJ ati
Ġmen onjol
Ġmengh emat
Ġker ajinan
ĠPe ndapat
angga an
ĠÂ ·
ĠM ap
ĠP AS
omod asi
Ġtangg apan
Ġt v
Be nar
Ġb andung
Ġak tor
Ġmenak jubkan
Ġor al
Ġe mb
Ġtem annya
Ø§ ÙĦ
ĠR AH
Ġkele n
re at
Ġas ap
Per mainan
ĠMen ulis
eb askan
u ge
ĠPos isi
Ġdur asi
ĠPr ak
ut if
K ons
Bagi an
ĠMus eum
Ġmeng amankan
6 8
il ikan
M an
ay anya
mer ce
Ġs ipil
, ...
Ġdi pengaruhi
ungg ah
ĠAs uransi
ati vitas
j ok
ĠAh li
Ġberb ahasa
Ġg am
ĠAs am
ĠG l
z on
Ġme tab
Ġpan e
ĠIns titu
Ġ200 2
si ap
Pri vasi
el ahan
Ù Ī
ĠK ont
Ġse imbang
Ġmel intasi
Ġke mbang
ĠH IV
abis an
4 3
Ġpengin apan
Ġter tinggal
b isnis
ingg inya
Ġh as
on egoro
om inasi
Ġbimb ingan
Ġ uk
Ġdi ap
pl ay
Pen didikan
ĠPen gaw
Ġdis usun
op a
Ġim am
ĠB ambang
Ġju alan
Ġpeng akuan
Ġpenc apaian
Ġz akat
Ġpembe rs
ĠK ES
Ġum roh
Ġg ul
unt ah
Terim akasih
ĠP emerintahan
Ġrez eki
Ġ0 6
Ġdi ku
Ġtemb ak
j emahkan
g t
Ġbl ack
d arat
ĠBur sa
ĠDep artemen
Ġj elek
ry stal
K emen
Ġkem iskinan
angk ali
S angat
Ġmemer intahkan
Ġmas ker
ĠP opuler
ĠR us
EW S
ĠS U
Ġkont ribusi
Men ge
s umber
ĠH ujan
Ġaw ak
Ġter nama
id rat
ĠAs al
d osis
ĠPer awatan
Ġdin ikmati
Ġl amaran
Ġmeyak inkan
gerak kan
Ġpers onal
ĠB CA
nda ftar
Ġdi e
ek t
Ġj ack
Ġdim akan
Ġper manen
Ġbet on
o i
Ġnas abah
Ġmanfaat nya
Ġb uta
L okasi
ĠT or
dah ul
Ġmeng ukur
R L
Ġsel uas
OD UK
ĠPER ATURAN
angg apan
ĠS ony
Ġap el
on firmasi
Ġmer angk
ac t
c ahan
B aru
jar ing
ĠG udang
Ġsh op
lan dia
ek al
Ġanti oksidan
Ġsaya p
Ġt ingkah
Ġmenge jutkan
Ġtinggal kan
Ġpel abuhan
Ġnel ayan
Ġseter usnya
Ġl iter
c ar
ĠGol d
ĠN onton
Ġk ader
Ġmel ancarkan
Ġn ga
Ġst reaming
H ukum
Ġpe das
Ġm l
ew e
Ġmas ter
ASI H
Ġmem f
ir tual
ĠE nergi
Ġpes antren
o und
Ġt sb
ĠCir ebon
b oh
Ġpor si
Ġok num
se y
ĠM un
n ow
Ġdi alog
al th
Ġsekel iling
alis asikan
Ġbi j
Ġmengk laim
Ġ^ ^
ĠMeng etahui
Ġhi per
Ġn ulis
te c
Ġmengh ilang
ĠK arang
201 1
ĠA DA
ouc her
Ġpane n
ĠG ag
utu rkan
ĠPon dok
Ġmeme cahkan
Ġj umpa
hen tikan
Ġ5 5
Ġmengh ormati
Ġan ime
ĠR el
ib li
Ġsa jikan
Ġmen teri
ĠBe d
ame r
Ġmem otong
Ġaw et
Ġsayang nya
ap ore
esuai an
ĠT amu
unc ulkan
Ġr a
ĠY usuf
ĠTe rimakasih
Ġb ubuk
dak wa
Ġ darat
Ke tua
Ġkel uaran
U I
Ġse ekor
ĠB unda
ĠY aitu
J umlah
Ġdist ribusi
Ġtan am
bu ahan
sen se
om unikasi
ĠMenc ari
w o
Ġmengh ambat
ĠP AN
ĠO lymp
ĠGol kar
Ġ0 3
Ġte b
wayat kan
m akasih
Ġmel etakkan
ĠAdmin istrasi
Ġhi jab
Ġmut lak
Ġ4 8
ĠBur ung
Ġper ed
ĠD j
Ġmen impa
ay asan
v at
Ġw al
Ġlen sa
ĠAkibat nya
ĠTER K
ĠYun ani
ĠC ream
k ot
Ġin ci
Ġs umb
Ġte tep
mbali kan
pl ate
ĠB ack
Ġterc inta
Ġdiser ahkan
st an
Ġberm akna
ol isme
Ġeng gan
ĠL antai
I m
Ġkom odi
Ġdikab arkan
ĠB oy
r em
Ġketer l
ĠEn g
Ġber dasar
pos al
Ġberk ali
Ġmemb akar
Ġb ody
O r
ĠPer angkat
Ġsen di
Ġv erifikasi
ĠK L
Ġg al
Ġper darahan
ol s
agn osis
P ria
ĠDav id
vis or
ngk apan
t anggung
ĠK TP
ris tian
N G
Ġse per
D ANG
Ġdi dasarkan
Ġpi ala
op tim
p aru
Ġmenekan kan
Ġpembe ngk
Ġtim nas
it ip
Ġikh las
Ġk ayaknya
Ġsep akat
Ġrent an
ĠS ungguh
tif kan
Ġdil epas
Ġg et
Ġkecerd asan
Ġdis amping
c antik
Ġn am
ni es
Ġb unda
ĠK ing
ĠSek retaris
Ġsebab nya
Ġp ir
Ġbertar uh
Ġmendi dik
ĠP anduan
int anya
ol ek
ĠTan te
Ġdib antu
ĠS IS
c ore
S alam
ĠM EL
M ar
Ġberp artisipasi
Ġpr ajurit
Ġt ambang
ab e
Ġmenaik kan
Ġreg istrasi
kes mas
Ġwas pada
Ġterbar unya
ĠYo ung
Ġmen tah
ĠJ epara
Ġek stra
z im
Ġkak ek
Ġdat abase
.... ....
Ġmen uturkan
ĠPin tu
b ulan
S EL
ant ina
olog y
ĠI t
N ex
== ==
Ġac uan
Ġm udik
ĠA q
G M
Ġsurve i
Ġap resiasi
Ġs uar
unt un
z o
ĠS yarat
Ġg ar
ĠK urang
Ġform ulir
ari o
b uat
us uri
ner nya
Ġdit ambahkan
lem entasi
ĠJ atim
!! !!
ĠBal ai
do or
ĠPo int
b as
we et
ĠB ir
m ungkin
Ġmem utar
ĠDia betes
ĠEm pat
Ġdin amakan
as ing
Ġk andung
Ġber ibadah
Ġdiperb olehkan
ĠD id
w ira
Ġalk ohol
Ġh utang
Ġse dap
ĠK ITA
Ġberb au
ĠBer darah
rib un
T ujuan
r ay
ĠKur ikulum
u asi
di tor
usi anya
ĠKom unitas
_ ^
Ġber tentangan
Ġdib iarkan
ĠPer guruan
Ġkor an
Ġke depan
ti zen
h ip
ĠPri badi
K ini
ĠUl ama
Ġc uman
Ġdit angani
ĠBi ar
ĠPer sib
ange n
ĠC ARA
ASI L
Ġbers emangat
um entasi
Ġtunt as
angk ir
w akan
Ġinstr umen
ub an
P ENG
ontin ue
rik s
boh idrat
Ġdisek itar
at ta
ĠR atu
ĠR af
ĠSyari ah
Ġdisi apkan
ĠT eb
Ġm ie
n ti
ĠVer si
ĠSep anjang
Ġmenc uci
Ġf older
Ġker jakan
ĠK B
ĠK adang
ĠL ewat
Ġn is
Ġmemb icarakan
at ukan
Ġs te
Ġpe doman
ĠMal uku
ĠJ auh
Ġh un
and o
ĠM antan
Ġac count
Demikian lah
ok i
ĠIn vestasi
ĠPeng alaman
Ġsus unan
ĠK andungan
Ġpah lawan
ĠK ontak
rang i
f an
* )
ol eksi
Ġsk ill
ĠS ain
Ġpat ung
B ahan
Ġpeny ebaran
H alaman
ase r
inan sial
Ġberj anji
mbali an
C ek
Ġde b
Ġt ump
Ġn ikmati
Ġmenemb us
ĠPe gawai
ĠL ahir
ĠP onsel
ĠPel atihan
OD E
q uran
Ġab is
Ġtim nya
Ġterj amin
Ġrah mat
Ġper adaban
Ġber isti
n ih
Ġge de
Ġr ok
ĠKe tiga
K umpulan
Ġko ordinasi
ack ing
Ġkeber untungan
Ġberl ebih
Ġp m
Ġberf irman
Ġmin us
Ġterc apai
Ġmon itor
ĠSus u
Nex t
Ġpop ular
Ġeks trak
ĠD ri
C inta
ĠRes pon
Ġso cial
Ġb oneka
c c
gen ap
ĠL as
ĠPer si
ĠPel uang
l alu
ID IKAN
ĠT om
ut ra
Ġkes atuan
ĠM od
A ir
r ong
Ġbut ir
Ġpert olongan
re ak
ĠAk si
Ġgab ungan
Ġj in
ĠMa af
Ġsun nah
com e
ĠP uasa
S K
ĠDan au
Ġs d
rb itkan
Ġins titusi
ĠG a
T emukan
ĠM T
ĠIst ana
Ġ08 12
ak unya
Ġ0 4
ĠMemb erikan
Ġf lu
A nd
ĠM r
ud u
ab orasi
E m
Ġr indu
Ġperk eb
ĠB M
P N
ĠHak im
Ġpel aksana
ĠAbdul lah
M is
f um
ĠDist ributor
Ġp agar
pet isi
ĠSe peda
tem ukan
D ok
s ep
al isa
Ġst and
Ġhand uk
y yah
F C
Ġ qu
Ġpeng amatan
ĠT ir
ĠSp esi
W eb
oles kan
Ġmengak hiri
uj ukan
b uru
Ġsemb ari
ip i
ĠAN AK
ĠT angkas
Ġng obrol
c al
Ġmakan ya
Ġh awa
ĠG an
ĠKe y
Ġt umor
ĠT anya
ĠL ima
ĠDem okrat
Ġp lanet
Ġp a
Ġ200 1
Ġjag ung
Ġf ungsinya
Ġper ahu
Ġkek ebalan
Ġke ke
ĠPen ye
Ġny e
g raf
b le
Ġp adi
r ain
Ġmel ewatkan
Ġrum us
k y
Ġpo ten
ĠAl kitab
Ġ ing
ay asa
gr ade
ota an
Ġsik lus
Kemb ali
ĠS ER
ĠO f
oh an
ĠC up
Ġpeng umuman
ĠBer beda
Ġdiper gunakan
ĠE t
d uc
ĠE S
Ġmuslim in
akit an
ĠH ilang
Ġs yah
Ġf ir
Ġt ong
Ġkron is
Ġtan te
Ġm ad
Ġstat istik
Y AK
st at
ap or
Ġk okoh
dis inya
hit ungkan
Ġpengel ola
---- ----
ĠMarket place
Se n
Ġber masalah
ĠG lobal
ĠDr ama
Ġtem plate
Ġpengan tin
Ġk arang
ĠMemb eli
5 1
ĠK ang
ĠJ ung
Ġk orea
ĠG ue
Ġp akan
ĠPer dagangan
ĠA TM
Ġ1 20
Ġjalan nya
ĠU c
Ġongk os
ĠTERB ARU
Ġla ba
s ampai
ĠPer bedaan
Ġl amanya
Ġpeme gang
Ġmenc ium
Ġperkeb unan
Ġl im
na zah
ul ihkan
ĠMes si
c he
Ġdi tingg
J udi
inter aksi
Ġku alifikasi
Ġj adinya
Ġsant ri
om an
ve nsi
Ġl angka
J K
ĠF ar
Ġter be
C TV
ur t
ĠFil ipina
Ġsup lemen
ĠL es
Ġuc apnya
V isi
Ġproses or
ad w
Se jarah
g ger
ĠD aging
Ġdi mas
Ġspesi es
ĠRe ncana
Ġkur sus
di p
Ġberl okasi
d ollar
r um
Ġmemp romosikan
Ġdiaj arkan
ĠOp tion
L ayanan
Ġhar apkan
Ġpenc ipta
Ġher pes
ĠJ un
eb rit
Ġber ser
k amah
Ġdi yakini
aran nya
Ġdih itung
Ġc an
Ġter bagi
Ġs ambung
Ġberj umlah
Ġkont ol
Ġsentu han
Ġdir agukan
Ġter ti
E DI
ger ti
Ġpers ahabatan
E mail
Ġinstal asi
Ġbl ok
ĠF at
alis ir
in ho
ot anya
ond ong
ant asan
Ġhat iku
Ġdisel esaikan
ti ve
tu ran
Ġdi al
Ġl isan
Ġs ob
Ġmen a
ad alah
N e
Ġ drop
ir asi
ĠJ urusan
Ġ0 5
Ġ au
Ġpe tern
t itle
K ali
ĠBP JS
Ġgro sir
angk alan
UD AH
ap is
s ak
ĠT ahan
ĠL et
as tian
AM AT
kan lah
G o
ĠDe wa
Ġgen us
wi jaya
Seb agian
Ġ dosis
k h
j al
il o
il ainya
Ġber ge
ĠIs ti
Ġpe dang
Ġde r
Ġsemen jak
ĠB egini
L anjut
K abar
si den
Ar ti
bed akan
Ġkem anusiaan
Ġber nilai
nya p
ĠVi etnam
Ġg uy
e rn
ĠW in
5 4
ĠTr ade
lomb a
ore r
Tag s
Ġf urniture
ĠR ob
ĠK ebe
Ġser viks
no vo
ĠKER JA
ah nya
ĠO K
ID S
Ġpen ja
ul ator
Ġn apas
Ġpenyel esaian
u el
und angan
Ġp am
ĠR id
n ta
ĠT utorial
Ġbe lah
Ġpemb agian
ĠB est
eli dikan
Ġmeng eksp
depen den
Ġseluruh nya
ĠSur ya
Ġmem ek
Ġtangg uh
Ġr et
Ġl ag
Ġak tiv
angk angan
j an
ĠSil akan
ĠU st
ĠW ir
Ġmen antang
ĠV an
ĠAll oh
Ġmemb ayangkan
aa a
ĠPeng guna
Ġlen dir
up as
h ae
Ġbagai kan
P residen
ĠH u
Ġdi are
ĠB ad
Ġ dollar
ic al
Ġik lim
ĠG aransi
iz e
ĠKons ep
ĠB NI
Ġbak alan
Ġrek aman
ĠTr ump
ĠProduk si
ĠJer awat
T anda
Ġseri al
Ġb angku
Ġser aya
oker to
ĠM UR
ĠP re
Ġpeng adaan
ĠSB Y
ĠM all
Ġlingk aran
ĠI Q
Ġre c
U U
Ġko perasi
ĠM emp
c arat
Ġrek or
Ġba ga
Ġw ali
Ġse arch
Ġdij umpai
Ġmen ampung
ot ek
Ġkes abaran
Ġdis aat
UN IA
in der
utr ad
Ġn atural
Ġbat asan
Ġmere ncanakan
Ġep isode
m asa
Ġakadem ik
Ġpr inter
e f
ĠD h
I b
Ġkelen jar
Ġ asa
ew akan
Ġdic oba
Ġberp utar
ip at
Ù ĩ
ĠSD M
r ome
Ġh ikmah
AT U
Ġge rbang
Ġg ames
Ġcac at
ĠZe n
Ġc adangan
ol akan
Ġmenge nali
Ġ est
Ġb b
ido arjo
ĠTer sedia
x el
Ġseb atas
ĠAl bum
Ġm antap
k al
Ġdit untut
Ġpen al
Ġmenyus ul
Ġyo utube
Ġpers alinan
d ali
Ġtutur nya
S il
Ġkel iling
Ġkepad aku
ade n
ĠS tasiun
S uatu
Ġve ndor
elek tual
b uk
Ġha id
Ġhid angan
Ġde wa
Ġakses oris
war nai
Ġul ar
T OR
ot ot
Ġmo difikasi
Ġtuk ar
Ġmenem ani
Ġkap sul
Ġmen aruh
we nangan
ĠW alau
Ġdib idang
oleran si
Ġkeag amaan
T AK
Ġhubungan nya
ĠS yi
Ġin tens
r man
Ġr uk
ĠI C
opy right
ĠF ran
ĠN ya
Ġketer sediaan
ĠâĢ¦ .
ĠB OLA
Ġl egal
Ã ©
Wah ai
ĠMemb antu
up u
Ġmenga cu
Ġkel ima
Ġterj emahan
g s
Ġterk emuka
F ORM
it ed
ĠMan ado
ĠKel apa
Ġtengg elam
ĠH utan
Tan pa
Ġf ac
f aktor
ul in
B N
ĠM oh
Ġmer angsang
K as
Ġtel iti
Ġvag in
ĠMad inah
Ġberan eka
Ġmengar ahkan
ĠPor tu
Ġins ya
S tr
ĠA yat
ar uan
Ġkab ur
ta f
ĠMenurut nya
Ġpemb uangan
Ġident ik
re g
Ġmemb esar
Ġsamp el
H idup
Ge jala
Ġh aha
Ġdiar tikan
P anduan
Ġs ari
A nt
ĠGar uda
or n
Ġradik al
Ġtere ndah
p aper
ĠY ayasan
Ġikut an
Ġpop ulasi
sun ami
ri minal
Ġberk ah
6 7
ĠBany uwangi
il d
ub uran
k l
Ġangk utan
Ġpert amanya
Ġber cinta
Ġse ber
il mu
ĠMus a
Ġpertem puran
Ġmel ekat
ĠC eme
aj at
Ġt ud
or ak
T C
ĠL um
ĠN U
E AN
j akarta
ĠB ARU
Ġhand al
Ġmenunj uk
ĠR ibu
me ner
hi asan
as ai
ĠKa os
ik kan
ĠBer p
Ġdar urat
> >
ĠB oc
Ġt uhan
any ikan
n ess
Ġbersi ap
Ġri tual
n C
Ġc incin
ĠPem ula
ĠW est
Ber bagai
de x
un es
Ġp ra
ĠPerj anjian
Ġberk isar
ĠUm roh
Ġmendes ak
Ġsel a
emb uhkan
ĠP sik
ri min
f ul
ĠL omba
Mel ihat
Ġper adangan
M obil
Ġdi w
il iran
ĠMari a
ons tr
? .
ĠC atatan
Ġc all
Ġkes ana
ĠC ip
Ġtel apak
6 5
ait un
emp ah
ye on
ĠAp otik
Ġseg men
ĠN anti
Ġpel ajari
ĠM AHA
ĠC ik
Ġpingg ang
ĠKep olisian
unc ur
Ġmem an
K S
or ter
Ġjelas kan
is nya
ĠSep utar
Ġdib uktikan
umb ang
uti on
Ġper g
Ġpol os
Ġk unjung
ser vasi
At au
ti ck
ĠJ ong
Ġmenga g
ĠK A
ĠK us
Ġs aud
ĠR apat
IN TA
as on
Ġmengg el
Ġmeng uji
ĠM ampu
Ġmer ebut
ĠPol sek
Ġsa wit
Ġangk atan
Peng obatan
im ak
ĠN arkoba
tual angan
ĠP akaian
Ġmeng olah
or es
ĠC ok
Ġke nyataannya
ingg alan
Ġbud get
P AS
Ġhadi s
E A
f ik
Ġpan el
asil itasi
em asan
p apan
l ir
Ġmengam ati
re ditasi
ĠKes e
Ġpenyelengg ara
um u
ĠB angun
Ġbertem pat
F I
Ġdi di
ĠBah wa
aks akan
z al
per usahaan
W alaupun
Ġperse tujuan
T ar
Ġan imasi
u gus
Ġpenge ndara
Des a
Ġmeng ulang
f it
ĠC abang
Ġn ew
Ġbukan nya
iti on
Ġje njang
ĠQ Q
Ġdem o
Ġberl ibur
re dit
P r
b ilitas
Ġdib alik
ah at
ĠPe ngan
ĠA yo
N ews
Ġ8 8
K RI
am mad
K alo
II I
inj auan
Ġdil uncurkan
Ti ga
Ġpip a
6 9
ĠP ac
Ġdi olah
vi ous
Ġ ajak
Ġmen umbuhkan
Ġfl eksi
per gian
Ġter oris
Ġharus nya
Ġdides kripsikan
ĠT em
uc ian
it akan
k ami
de ta
ĠMe ja
ĠH ongkong
ĠAr ti
ĠMe ndaftar
ak ak
Ġberkel anjutan
Ġpen gi
Ġper cakapan
Ġpert unjukan
ĠLap angan
Ġvari abel
ĠDen pasar
Ġj aj
Ġkehe ndak
Ġp utusan
p al
d ubur
angsung kan
Ġpeman faatan
S ayang
Ġmendapat i
Ġpen siun
Ġber jualan
Ġmenyakit kan
Ġc emas
Ġinst all
M ak
ĠB A
Ġl aboratorium
Ġbal asan
Ġdom inan
der itanya
ĠK EM
Ġdip elajari
ĠBr asil
Ġde wan
: :
ĠPer b
ce kan
es ona
ĠB os
Ġ199 8
Ġgro up
ĠB ulu
K ur
ju angkan
Ġj odoh
angk apan
ĠTERK INI
em ak
ĠL ayar
ns in
Ġses aat
T IK
Ġber interaksi
aks in
k ons
h adi
Ġterl uka
Ġtemb ok
ad es
ĠAw ard
ĠPK S
Ġjag o
Ġfr ekuensi
' '
Ġsa wah
asar ana
Ġco ver
ĠKe n
Ġ down
ĠG arut
gar uh
ĠS af
ĠL iburan
tis ip
H ADA
ti anak
si fat
D apat
D R
S truktur
ĠSh op
ĠSeb aliknya
201 0
J am
Ġper airan
Ġberisti rahat
m ak
Ġeng ine
? !
m os
Il mu
ait kan
Ġs ambut
Ġbah u
omb e
ot ongan
Ġsej uk
ĠHe ad
ĠKe amanan
ada annya
ĠS unda
ĠS olusi
C iri
o in
P re
ĠK M
Ġdit unggu
ntu m
ĠN O
ĠJ ul
Ġ6 5
Per nah
ĠPem kab
Ġb uaya
an aman
ĠDo a
Men jadi
ĠP abrik
rent ak
all y
al asan
Ġp aha
Ġper batasan
oc h
Ġsp iritual
angg ang
ĠN utrisi
Ġl ukisan
ĠJ aket
k awan
ba g
Ġperse gi
Ġdi gan
C I
Ġber olahraga
oro id
Ġber ku
ĠT eh
Ġkan di
Ġmem inum
ĠBengk ulu
R ah
Ġ amin
Ġsub ur
Ġmengh ibur
al ar
3 00
ĠMen jaga
ĠAs us
ĠV itamin
ĠT uan
Ġb ambu
Ġpered aran
angs aan
Ġp ayah
Ġsem estinya
Ġ etika
Ġkontr as
Ġmen ump
M ah
Ġbers umber
l it
z ab
os ter
T ube
Ġab ang
Ġkomp osisi
Ġ6 00
dr aw
Mas alah
re et
Ġmetab olisme
angk itan
EN A
ĠGro sir
ĠBl ok
Ġterc ipta
ĠO pen
Ġak untansi
Ġga irah
N O
ĠD esi
ĠPer l
Ġpenga jaran
ĠT bk
om as
ĠSt reaming
Ġditingg alkan
Ġsem alam
Ġk afe
ung il
Ġor gasme
Ġsta dium
Menurut nya
ĠP am
G ame
So al
ĠAre a
Ġperk iraan
ĠSem uanya
Ġmak am
Ġbuk unya
ĠSem ester
Ġpenge mbalian
Ġmenyes al
p ons
aut y
r akan
kar ya
Ġmemb atasi
ĠSta dium
Ġses ekali
ĠM c
Ġn anya
Ġeksk lusif
Ġ dubur
IN AN
ĠOp po
or si
M ana
Ġmem at
ac ing
1 50
Mes in
ĠK OTA
ĠHAR GA
mener us
uar y
Ġdi raih
Ġkon dom
Ġmem ak
Ġib arat
ĠKem ampuan
Ġmend aftarkan
es itas
Ġberp indah
Ġw arisan
Ġre f
Ġs ukar
om et
H ar
U DI
ĠTe n
te kan
operasi kan
ĠR ab
Ġi jin
Ġw at
us antara
ot ika
an aknya
kel ompok
Ġsekel ompok
ak h
b ang
Ġdi lahirkan
ĠDem i
un ikan
ĠPene rb
ĠK awasan
Ġbek al
ĠAn di
Ġberke ndara
ant ar
Ġemo sional
u w
ĠP acar
Ġal ih
ment s
Ġsen dirinya
Ġkl aim
Ġmus eum
ĠF inal
C AYA
A yo
v ic
ul au
O k
ĠB ra
ĠF eb
ĠE uro
ĠTer utama
Ġpenyebab nya
an der
ĠI L
uk ulan
ust aka
Is lam
ĠMer upakan
Ġteks tur
Ġse genap
uk lir
8 9
H ak
m ada
et as
Ġseh arga
ĠPert amina
fe ct
v eksi
Ġins tagram
tim pa
Ber gabung
ĠMad ura
Ġpenge ndalian
ĠF B
k ulasi
ĠAk untansi
ĠKend araan
Ġk ut
ĠB ima
Ġdit unjukkan
ĠPro yek
Ġhukum nya
uk iman
ĠE un
asis wi
f ic
egis l
Ġmil iknya
ĠL AIN
Ġmengant arkan
Ġek sim
Ġkandi dat
Ġf an
Ġmeng ikat
Ġop ini
Ġmenerus kan
Ġc omp
uat annya
Ġkal sium
ĠK ET
ĠSim ak
az z
ĠB ut
Ġpos isinya
ĠC ontinue
AN YA
Ġbert ahap
Ġmengel uh
ĠD ek
Ġti ang
ĠB y
ĠP ad
ke cil
hawat irkan
Ġbe ning
Ġki amat
Ġkar bohidrat
Ġkem as
Ġmerek omendasikan
Ġ awan
ĠS lot
Ġkon disinya
mas in
ĠRe n
T oko
DA FTAR
Ġkos metik
Ġk op
ĠC y
uge rah
H ingga
Ġungk apan
Pe nc
ĠMemb aca
ĠG as
ĠPEND IDIKAN
In s
Ġwar nanya
Ġdi obati
Ġpen emuan
Ġdisi tu
ĠKeb utuhan
ĠK etahui
Ġter minal
Ġbal as
Ġm ba
b ol
Ġjer nih
m ing
idup kan
Ġl arut
ub likasi
gar is
k top
Ġkom ik
E I
Ġist ana
is u
Ġmus ibah
Ġter ingat
gi onal
Ber l
ĠH indu
Ġkar angan
ĠTelkom sel
ĠMan di
in ilah
Ġc ard
ug at
w ahan
ĠS uh
Ġdi bedakan
ĠT un
Ġpsik ologis
Ġdis uruh
Ġs int
f ilm
Ġsebe tulnya
uduk i
Ġpungk asnya
S c
Ġin tinya
Ġlaz im
ĠL ine
ĠM ek
Ġatas nya
Ġarsit ektur
Bi asanya
Ġperc obaan
Ġf inansial
Ġdal il
r aw
ĠAy u
Ġpad amu
lu e
sp ektif
ĠB anda
sel a
Ġgenital ia
ĠBIS A
Pert anyaan
of fe
Ġl utut
ĠP angeran
ĠP uncak
ĠDan i
As salamu
il kan
ĠTe ch
Ġmac et
ĠPen dek
ĠAs s
de tik
Ġ dor
ĠPen derita
ĠR an
imp ulan
dul ian
s udah
gent ina
ĠSemb uh
Ġmen injau
ĠL uk
or angan
re ne
ĠO BAT
ug u
7 9
ir is
Ġdip otong
Ġis teri
Ġf ik
Ġt omat
ati ons
Ġdi ungkapkan
Ġpr as
D unia
ĠP ihak
Ġsol id
ĠM ER
Ġund uh
uc ap
T ah
Ġs ingg
ĠK eme
x as
Ġter gabung
Ġk uk
ĠMen ga
Ġb upati
ĠJe n
Ġpem ak
ĠMer awat
Ġtan yakan
ĠW a
Ġdih ubungi
gro und
ĠZ i
Ġj ikalau
es el
Ġng el
ha el
ĠRAH MAT
tisip asi
Ġr anjang
Ġdiper iksa
Ĥ ¬
Ġbet ting
Ġst art
Ġpeny elidikan
Ġkas at
em aran
I nt
ĠS ET
Ġperk awinan
ot ret
Ġkari e
Ġdat ar
Ġ4 2
ĠB row
k g
des aan
s angat
ĠTe mb
tuk ar
7 3
Ġkarie r
ĠP DI
ĠS eksi
P adahal
Ġm all
ĠP ukul
ĠJ atuh
Ġkurang nya
Ġt ingginya
ĠS UR
mig rasi
ba yar
Ġke gel
Ġdih apus
Ġtem ui
Ġ ngan
ĠLo ve
ari at
ram ah
U AR
Ġpemb iayaan
ĠMene ngah
r uf
ĠHadi r
unc uran
Ġanti biotik
Ġpri vasi
p annya
Ġser atus
ĠFe r
ĠM utiara
Ġde aler
Ġkeluar nya
Ġkale nder
ĠKe untungan
ĠO ke
all paper
ĠPan itia
fl eksi
it el
Ġdom pet
rid ge
S H
pen didikan
ĠT ransp
ap aran
Ġl al
ĠC ent
Ġm untah
Ġop tions
Ġlog ika
ĠC andi
ingk irkan
ĠA me
R AM
ute ra
Ġgem uk
Ġt ayang
ĠE SA
Ġpenge cekan
Ġh indari
eh eh
Ġth is
D P
B L
ĠD uk
Ġde ras
aj ai
Ġterh itung
HADA P
Ġh itungan
' ,
Sp esifikasi
Ġdip roses
ĠAr chi
S L
Ġp ik
al lam
ĠSh allallahu
ĠKul iner
ĠPe mbe
r uk
Ġkeber angkatan
ik lan
ĠB PK
z y
ĠBay ern
ĠPas ang
Ġb itcoin
ab uk
ap arkan
pec ial
ID UP
ĠSeg ala
ri ck
ar ning
t el
Ġsek etika
ĠKomp as
Ġk it
Ġs um
omb in
ĠK imia
ing ungan
Ġi ri
Ġe ro
ĠP AL
Ġkar pet
Ġterse mbunyi
ĠOr der
Ġterb anyak
Ġmem ikat
ĠPe na
ĠS amping
and akan
Ġsa jian
ta ct
Ġr awan
B U
ĠInd ones
ĠP un
Ġsep asang
be nda
ĠP A
M o
ĠT okoh
Ġmem ukul
Ġres e
Ġk aku
ĠJ ava
ĠN at
de nt
Ġc obalah
Ġsk ripsi
ĠPel ajaran
ĠPer wakilan
ĠSe o
ĠA nc
Ġb asis
ge d
Ġpem eliharaan
ĠHe nd
ĠP alu
ĠN ot
Ġbal apan
Ġmenguat kan
Ġbulan an
Ġt ingkatan
Ġbal ap
al la
P EN
Ġf ar
ĠMen gg
Ġbers abar
Ġdar inya
ĠKamp us
Ġtangan ku
Ġmeyak ini
ĠKeb anyakan
Ġter as
Ġketer batasan
Ġmeng erikan
ub is
ĠMen genai
ab an
Ġeksp resi
A cara
B UN
Ġkis aran
ĠS ambil
ĠD VD
ĠL intas
Ġkey board
Ġmen anam
ĠKe duanya
Ġh uman
es es
ĠR asanya
Ġper ak
Ġmem aksimalkan
es si
Ġse umur
ĠE le
ĠMel ayu
Ġins an
Ġmis al
Ġber dekatan
aw annya
G G
el ess
Ġn om
Ġpan ik
Ġdibagi kan
Ġvi ews
ĠB ol
ĠT ulisan
Ġdin amis
Ġberm aksud
AN J
ĠMah kamah
ĠC ustomer
b and
Ġberl isensi
Ġte gak
ĠSt at
Ġtujuan nya
Ġpen etapan
ĠF I
Ġterj ebak
Ġtimbul nya
ĠPes ta
ing e
T anggal
Ġm g
ku it
ĠB oleh
ek as
Ġtugas nya
ĠAw alnya
Ġh igh
uas ana
Ġdib ekali
Per lu
ua an
ali fah
P ak
Ġdiaw ali
P oker
d omba
Ġser tifikasi
Ġke ten
Ġc itra
ĠMen it
ac ana
Ġri bet
Ġj antina
ĠL am
q q
Ġcer min
orm at
Ġmengab aikan
atal og
Ġmemper l
ĠB iru
ĠPel abuhan
ĠB AND
ĠHasil nya
Ġs uk
Ġbad annya
Ġs ukai
ukup i
Ġlar utan
al akan
ĠSeb aiknya
p insi
Ġger ai
O n
ĠT ol
ĠP eter
ind ukan
Ġt ari
eb utkan
ĠBo x
Ġ ub
Ġsemb arangan
ĠMer deka
e nam
Ġ udang
ĠSo o
an dia
ĠT H
ed ak
ĠRe nang
D ata
ly wood
Ġpengh uni
Ġh ambatan
Ġmengak tifkan
Ġpoten sial
ĠLi on
Ġpeng isian
Ġpe k
rit ahu
ĠY ak
Ġberk ep
Ġdire ncanakan
Ġpel ukan
C H
Ġmen t
Ġmend uduki
Ġr adang
Ġprot es
ĠP impinan
Ġpem akai
ĠHab ib
nder ungan
F aktor
Ġci uman
ga ulan
Ġmeny emp
odi fikasi
ukup nya
ĠDe c
m arket
Ġke wenangan
Ġlingk up
ĠTER HADAP
Ġg l
in et
Ġmeng or
ant auan
Ġdit olak
ordin ator
Ġproduk nya
tr ik
Ġt aat
qu est
Ġmengi ra
Ġpertar ungan
Ġdri ver
Ġup load
Ġh antu
Ġge nder
Ġmaksim um
ĠMoto GP
ĠX L
ome ntum
S ama
Ġber turut
g ala
ĠJ iwa
Ġre ncananya
ny e
empurna an
ĠB ro
L AM
Ġt ulus
Ġpe gunungan
ĠD UNIA
Ġik on
ĠM itra
og o
ĠPR ODUK
Ġo pen
tem annya
ingk ar
Ġfil safat
ĠBer apa
Ġj i
h anya
Ġdep resi
vel oper
ĠP OKER
Ġc elah
ĠH yun
ut ri
ĠMe wah
ĠTer s
Ġpembengk akan
Ġre ading
Ġditemp uh
m it
Ġm ayat
Ġer ror
Ġdi jaga
Ġsh ow
ĠK it
Ġkem an
Ġber daya
ĠT ae
Ġpsik ologi
Ġbert anding
Ġch ip
ĠOR ANG
Ġap otik
Ġhi as
Ġmulut nya
b l
P G
P i
Me dia
ĠL uka
gun gan
Ġharus lah
Ġke ta
K eh
Ġdides ain
ĠD ekat
EB IH
utu pan
h in
ĠPel aksanaan
Ġmemp rediksi
at asan
Ġmenyel uruh
isi atif
ul ette
Ġke ntang
ĠMakan ya
ĠPD F
ad aptasi
m et
per s
Ġj angk
ĠMaj elis
urah mi
ĠBuk alapak
Ġal ur
ĠG ir
ĠPen jualan
ĠSatu an
ĠB ook
ĠKol eksi
Ġbal ita
ĠMen ikah
Ġberk hasiat
ĠCh an
ku ad
ĠT ulis
ĠBak al
ĠTerb ukti
ĠJ NE
Ġk uman
ĠT ot
t anyakan
Ġgraf ik
ĠSta f
UK UM
ĠS eseorang
ĠG or
Ġaw am
Ġpro g
ad hi
ĠK las
Ġdi tarik
og ram
Ġhem oroid
eke ning
ĠAn gin
Ġnis caya
U J
amp iri
u ap
Ġmeng utamakan
ĠBer m
unj angan
Ġbud ak
ĠG elar
ĠU KM
Ġdis ambut
Ġpenderita an
k ing
Ġdes kripsi
epak ati
di g
t oko
Ġkesen angan
et is
Ġb abi
g angan
Ġp iring
Ġk ait
Ġmemb angkitkan
o ja
Ġpel ih
m aka
Ġkeluar kan
urn akan
ĠSh ow
ĠS we
Ġmen awan
ampau i
n nya
F akta
ĠAr gentina
ĠJU DI
ĠC al
itra an
ĠS op
ĠAnal isis
Ġpenge mbang
Per sero
Ġpeny usunan
ĠH R
dik bud
im i
ĠG atal
aj ukan
Ġber awal
Ġres eller
Ġent ry
rist al
ĠL atihan
Ġmuslim ah
ĠV is
Ġbay angkan
Ġl ike
Ġ olahan
j elas
ut ing
di han
Ġmengangg uk
ĠSer ver
ĠE ver
AP AN
Ġsin ga
ĠC ipta
ĠJ AW
Ġc up
Ġtab ungan
UM AH
Ġ^ _^
ĠP ES
T el
Ġkome r
ahl awan
ĠV illa
Ġpah it
Ġtambah nya
Ġbe ne
ĠQ nC
al angan
ĠMo tivasi
s etelah
Ġmembe ritahu
Ġmener angkan
art ikel
ay ati
ĠSh are
Ġpac aran
ma af
Ġpri b
Ġmengan tisipasi
b r
tr is
Ġditi mb
ĠB ekerja
ĠG O
Ġdil etakkan
M acam
ish ing
Ġku ant
ĠH us
ĠS udi
Ġirit asi
ĠP ohon
Ġmengaw asi
Ġpen didik
ndara i
Ġ usianya
lah ir
ĠKeter angan
Ġbawa an
ay o
Ġk acamata
ĠTer lihat
Ġtik us
B T
Ġp ujian
Ġangg ur
Ġpem ilih
Meng h
Ġpis au
Ġw ord
Ġduk a
Ġtem po
M D
Ġk orang
i asi
s asi
Ġpenj uru
ĠS he
Ġr ontok
Ġre volusi
Ġmark as
at ah
Ġmal ang
Ġperl akuan
ĠKol am
aksi mal
res tasi
ug h
Ġsal do
Ġmic ro
ĠDir ektorat
ĠKete ntuan
ĠKel ebihan
Ġp adang
ĠNy aman
Ġmem o
ti co
ĠCel ana
A A
Ġkont ra
aksud nya
ĠLe novo
ro gr
riks aan
AK U
Ġberl angganan
ĠM alah
Ġ arena
Ġefisie nsi
K ek
Ġform asi
Ġmem indahkan
Ġdiber sihkan
p ek
ab umi
ĠYou Tube
ĠSub han
ĠR ib
ĠS ig
Ġm ual
ĠA de
Ġm ikir
ĠB eri
ĠK ok
ung ut
ĠSej umlah
Ġc han
Ġmem antau
Ġt rop
Ġ4 6
ĠDit emukan
Ã Ĺ
Ġmem unculkan
ĠRadi o
ĠT unggu
Ġbe lahan
Ġad u
ĠS emen
baru i
ENG K
ĠAG EN
ĠL G
g p
ĠSe dikit
angg ulangan
finisi kan
Tek nik
Ġbert ek
aw ak
ĠPer c
Ġhad api
Ġmene rbitkan
Ġpeng ukuran
.... ..
Ġdatang nya
ĠK id
Ġn omer
Ġt onton
Ġperl awanan
Mas ukkan
s yah
ĠMen urunkan
AJ AR
Ġair nya
Ġsep aruh
Ġ Ø§ÙĦ
S kor
Ġb ilangan
Ġalasan nya
ac etan
emp rov
P O
Ġje jaring
ĠL os
Ġsec ukupnya
Ġdag ang
ros s
Ber apa
z il
Ġ199 0
optim alkan
Ġ12 5
Ġv an
ĠDik etahui
g ap
Ġsamb utan
Ġag ung
TA SI
ĠAr t
Ġkre ativitas
ĠH igh
Ġbi oskop
tep atan
j uan
f ar
ĠK unjungi
Ġj antan
Ġbe nt
ĠInt el
i es
Ġusah akan
ĠCl ub
mah al
uri ga
A ngg
Ġkub u
Ġat asan
Ġsej ah
O ke
auh id
Ġkeb ingungan
ok a
ij rah
impun an
ep it
Mem per
ĠD at
mm m
im anan
Ġke teg
Ġroh ani
ĠV ol
Ġben ih
pro gram
ĠD ur
Ġmeny ala
Ġ otor
ĠDi j
amp akan
Ġspesi alis
ĠPen gunjung
Ġkompet itif
Ġap p
Ġdih indari
Ġkeber samaan
7 6
ĠProfesi onal
ĠPes antren
lo ud
res ik
ad am
DI RI
Ġker angka
ek tar
Ġdim inum
Ġterakhir nya
dik asi
Ġma x
Ġdi tengah
ĠS ap
Ġperson el
ĠU RL
Ġdi le
ĠY ud
nc ian
id in
ĠP age
Ġk uku
ĠI K
Ġtemp ur
ĠRes toran
ĠArchi ves
Ġklin ik
Ġgen re
Ġtro mb
Ġdit ahan
Ġin tegr
Ġr u
al ut
?? ??
ĠLok al
ĠM aya
Ġkirim kan
Ġkepem ilikan
Ter dapat
Ġkas ur
emer dekaan
Ġmus tah
Ġkont es
ER INT
ĠGem pa
is ih
, .
s m
ari um
ni e
y n
gan d
Ġker ag
Ġbe pergian
Ġalum ni
U k
Ġsin etron
ĠMo ur
Ġmen anti
r l
Ġmengi dentifikasi
ĠM ilik
PER CAYA
tensi f
Ġber tu
ĠEfek tif
Ġbant al
8 6
Pos ted
Ġbay angan
ĠBers ih
ĠPengel olaan
e rat
Ġre n
Ġde nda
ĠSe rang
ont an
Ġpri mer
Ġc le
Ġam alan
ĠKe diri
rencana an
ut ihkan
ĠTrans fer
Ġmemb uah
ĠJ elas
Ġber ker
Ġ ukur
ĠB un
Ġhun ian
ĠPen gg
ĠPer ut
vel op
Ġpers epsi
7 2
ĠTai wan
ail y
Ġbudi daya
Ġint ra
h il
t w
ĠJ ab
Ġas ik
hir t
Ġla utan
Ġusah anya
ĠTe ori
com merce
ĠK m
ul ut
ĠMenc egah
ĠTerl alu
P an
Ġdir awat
Ġdah syat
Ġjah e
Ġn ir
an amkan
re kan
ĠP is
Ġekonom is
Ġk utip
ĠPl akat
w aran
ĠKarya wan
al em
TM L
I st
ĠPer hatikan
B R
o gen
al isi
ĠI zin
ĠM uk
or b
OT O
T uhan
Ġm ungil
il asi
ĠBuk hari
Ġmens tr
ĠMan is
ja zah
Ġsol usinya
alam at
P romo
Ġterti dur
ĠAnd re
AL AN
ĠR ingan
Ġmem inim
Ġdiku asai
UK A
Ġdir asa
ĠâĢ Ļ
Kom entar
ug uhkan
Ġsus un
ro f
ek omunikasi
ĠBukan kah
ĠHo use
hh h
Ġh or
Ġmene nangkan
Ġ domba
Ġsimp el
Per usahaan
Ġc u
K ab
Ġmeri ah
ĠH umas
ab rikan
ug aran
Ġr ancangan
ind ra
ĠKe d
Ġmen dasar
Ber ry
Ġm am
Ù ĳ
Ġch ar
Ġ ]
as k
is yah
rogr aman
Ġter simpan
ĠJ udul
ĠP okok
ĠMUR AH
Ġlanjut nya
Ġk rn
et h
Ġput r
ĠMour inho
Ġmembe ritah
Ġsen iman
ĠD IS
angk ai
Ġfit nah
ĠS idoarjo
odi ak
ut sal
Ġind ra
ĠA TA
Ġs tu
ub ara
ĠTi ap
Ġboc ah
Ġkar bon
U n
Ġ4 4
k ap
Ġint elektual
l ar
ĠAlasan nya
Ġsek iranya
Ġst op
h ah
ran kan
w u
ĠSun nah
Ġpokok nya
Ġmerek am
ĠT EK
ĠPram uka
fe n
K omp
ĠMer k
Ġte ndangan
Ġst yle
Ġterj atuh
Ġsp ot
Ġt ok
ĠDi bawah
Ġc andi
OG EL
Ġterk irim
Ġsyari at
Ġberp akaian
Ġs apa
atan nya
ĠS obat
Ġberb unyi
Ġaman ah
i at
ES AR
Ġsejah tera
e ns
Ġt awar
ĠW ater
ĠA danya
ĠL ampu
ĠB andingkan
ĠT O
A w
ud ar
ĠB ri
Ġdi res
it ing
Ġnorm a
in y
pada i
ĠSe c
ia ga
sa ing
Ġdic ampur
Ġhak ikat
Ġmer deka
ingan kan
Ġseri bu
ĠCh at
Ġser angkaian
ĠG am
Ġpem in
ĠC ard
ĠB is
C oba
ĠF r
ĠP RI
ĠS ah
Ġgi g
un ter
Ġpenal ti
Ġmenyemb unyikan
Ġim un
Ġr antai
INK ES
Ġm um
Ġdik aitkan
ĠP ola
st rib
ĠS L
J awab
eli at
Ġl g
E X
Ġon e
Ġkep astian
Al asan
Ġm iring
Ġkon ferensi
aj akan
Ġn unggu
um uskan
ĠIT U
Ġsub jek
id angan
h yun
Ġtransp aran
c ing
S S
Ġtr aining
tub uh
Ġfot ografi
Ġberak ibat
Ġter dakwa
organ isasi
Ġn uansa
Ġbers atu
ĠD INKES
j umlah
ot is
ombin asikan
k ait
amp ingan
ĠNy ata
Ġkem ih
ĠSe wa
ĠPer alatan
ĠJ ag
Hal o
Ġter sel
Ġrep roduksi
Ġmenj atuhkan
Ġterke cuali
Ġ ingatan
Ġdik emas
le x
AM AN
Tek nologi
Ġn ilainya
Ġpert ambangan
Ġ {
Ġkualitas nya
Ġkeh ormatan
ĠPen uh
Ġp las
Ġp ink
Ġber ant
eli dik
et rasi
ĠN ap
Ġbengk el
Ġmenurut nya
Ġmel arikan
Ġhorm at
GA I
eb o
ĠTe gal
dik asikan
Ġm uj
FORM ASI
ĠP aul
ment asi
Ġ08 13
Ġmemper luas
ad uh
Ġterb angun
em in
ĠM M
B ag
ĠPenj elasan
Ġup ah
Ġas uhan
ĠEk sp
s in
ĠG oreng
hawat iran
ĠD u
ĠMem as
Ġs umur
Mel alui
ĠPon tianak
ĠBe ncana
no vasi
l orasi
Ġkomer sial
Ġp uc
Ġmeningkat nya
ĠAmb il
le tico
Ġtem uan
ĠPem impin
N onton
me d
Ġtubuh ku
Ġk ir
ĠBlu e
ra v
K eter
ap ter
le d
Ġp ing
st ansi
OL OG
ĠG az
ov atif
Ġkeme ja
Ġj d
ons ter
Ġpro stat
b all
Ġc c
y g
Ġp age
Ġamp un
ĠC ak
Ġsuar anya
Ġdit ingkatkan
ĠM L
Ġdor ongan
Ġmenstr uasi
ampak kan
ĠN an
Ġland asan
Ġge j
Ġditimb ulkan
Ġmengan alisa
Ġpen deritanya
ĠF irman
ba yang
Ġje nazah
ĠP u
ĠB il
âĢ¦âĢ¦ âĢ¦âĢ¦
tab le
Ġ das
Ġmemb as
Ġter ikat
et ra
Ġcab ai
Ġ4 9
Ġukuran nya
Ġbengk ak
c ari
ark otika
ĠC ash
ĠMus ic
Ġsop ir
p ur
im al
D ep
egisl atif
ĠG adget
h um
F e
12 3
Ġkes eh
Ġf estival
asi an
Ġbe nsin
Ġ os
Ġp ori
ob by
ĠE nter
ĠJ alur
Ġl ic
Ġdi umumkan
ĠS ung
am ika
M EN
amp urkan
ot es
ulia an
ĠPer umahan
ĠAk urat
aman nya
201 9
Ġmembe narkan
ĠTok yo
ant ing
Ġdib uang
Ġb akso
ĠS EN
Ġguy s
Ġker umah
Ġab sen
Ġin dependen
ĠMU I
Ġjar um
Ġk ip
Ġkej utan
ĠKat olik
R ek
Ġdim uat
oke n
Ġkel elahan
ĠB erikan
semb ahkan
k abel
lok ir
ĠS itu
Ġmeng ungkap
Ġmeng ga
Ġbet ina
Ġmer ujuk
N et
Ġ8 00
Ġpol it
ĠSya ikh
and uk
ed o
Ġg amis
Ġ arab
AS AR
Ġc ic
Ġse pat
Ġpenggun anya
ĠUl asan
l or
ĠAPB D
Ġsat elit
Ġkom un
Ġb obot
BA IK
ra ja
ĠS aham
Ġberm ula
Ġdi ce
ĠSup aya
Ġt ip
l ate
arik u
osis tem
ĠK ucing
S in
R am
ons or
un ting
Ġse tinggi
Ġin deks
li ght
Ġmo der
angg is
Ġdilakukan nya
ĠE f
ĠL ab
Ġke dokteran
ul uhan
ĠA TAS
ĠR ock
Per s
ĠDI SI
B iaya
Ġs ok
Ġk r
Ġnyam uk
Ġdi depan
ĠDap ur
ĠSri wijaya
Ġse rentak
ĠO c
ala f
B K
ĠM ode
ĠM S
Ġil egal
ĠHadi ah
ge nerasi
ĠA ut
Ġpart isipasi
ĠP OS
ĠT umb
Ġdike mbalikan
Ġdirek omendasikan
id ual
Ġi OS
Ġbab y
Ġdis fungsi
ĠAS EAN
a utan
Per alatan
Ġgug ur
Ġk ah
S ya
R i
Ġmende teksi
osh op
Ġjas mani
Ġa badi
ĠS astra
Ġsw t
Ġpers amaan
op o
ĠC omp
Ġmen anggapi
Ġse jalan
z ed
ĠJawab an
pe disi
Ġper gaulan
Ġek st
ĠM I
ĠMat aram
mer eka
ĠK ain
c es
Ġ4 3
Ġmengg oda
Ġcap ek
ĠMil iter
ĠM akin
if est
us ahan
Ġso ft
format ika
Ġr eligi
Ġdil indungi
Seb ab
ĠIn spirasi
Ġmendapatkan nya
ĠS uku
Ġbe nci
Ġpem ul
Ġber anjak
H z
Ġter penuhi
N ikmati
Ġkemampuan nya
ĠKom petensi
ame rkan
B andar
Ġterp asang
Ġmengan tar
Ġt angkas
Ġpemb eri
Ġterse ntuh
Ġ4 1
Ġin siden
k urang
A nal
ĠL upa
Ġmeng gabungkan
Ġper gantian
Ġ obati
UL AN
ĠK up
Ġe dit
Ġberku asa
ĠLin ux
aw ati
Ġjalan kan
ang u
ĠU UD
ig u
Ġg iliran
Ġt ang
ĠMeny embuhkan
Ġdi wajibkan
Ġcer mat
AR AT
JA DI
ĠRam adan
k rim
ĠM OD
ĠTerk adang
ini um
ĠM uncul
lan k
nd ali
Ġmemb esarkan
Ġper awat
ĠPerl indungan
kw kw
ĠK aya
Ġmustah il
ASI ONAL
T op
Ġr asul
Ġtahan an
K apan
essi ca
ĠTel ur
Ġpers atuan
yah oo
Ġide ologi
d ad
s ari
ampil annya
Ġp apa
itu lis
Ġmengin jak
ĠR ES
ĠB ig
ĠMad u
Ġtel pon
ĠDA FTAR
i on
ya w
ed ding
Ġkompl it
ĠH ard
Ġbe nang
mb ong
ĠPer juangan
ok ong
Ġses ak
ra ft
Ġju gak
Ġw angi
Ġorang nya
ĠSeri e
ĠGe ner
Ġdiman apun
Ġmasuk nya
8 5
L ink
gun ya
tip u
ĠSeh ari
emen ang
â Ļ
Ġsurve y
ĠBalik papan
h ai
Kes ehatan
Ġth esis
Ber anda
Ġmem uji
ungk iri
p ad
ĠK operasi
Ġb il
Ġun der
Ġsab ung
Ġmemp osting
K or
ĠMemb angun
ĠKar no
Ġme dali
ĠMeng ingat
ĠKer ing
u z
J udul
ĠN ak
ĠJU GA
200 9
Ġl aju
ĠB atang
Ġ ese
ĠDi jual
Ġw ater
min kan
pun i
Ġmenye wa
T rik
Ġmel aju
ĠKek urangan
Ġprod uc
ĠPh il
Ġpemb alap
Ġkepe dulian
Ġbers ahabat
C C
iner gi
Ġbeb ek
Ġke gunaan
Ġmembuah kan
m ara
Ġk urun
ĠKh as
Ġmasalah nya
ĠO tak
ont ribusi
peri men
Ġdiper kenalkan
ĠT IK
M alam
Ġde ndam
Ġlengkap nya
etahu inya
ĠK emerdekaan
Ġn ampaknya
Ġhar m
emp arkan
Ġelektr ik
Ġmenjadi kannya
ĠI man
Ġsar ung
ya i
ĠIn feksi
o ter
Ġf am
Ik uti
Ġbers t
Ġmenyer takan
Ġdit ak
G UN
el us
ĠI ya
Ġl ite
ĠHar ry
ĠH TML
p ati
Ġdig ambarkan
c oba
or ge
ĠBanjar masin
Ġmenye tujui
G unakan
S tudi
b alik
Keb utuhan
Ġte nda
Ġkedalam an
tu anya
Ġmen andakan
Ġdip rediksi
7 1
Ġh o
Ġh ome
ul ukan
Ġtegas nya
on ia
ĠHe n
ĠMinim al
impi ade
Ġsel angkangan
ba gus
Ġkomodi tas
ĠE di
M ulai
ĠAs y
ten gk
U m
ig ur
ung utan
Ar tinya
Ġsar jana
Ġsel fie
gab dian
Re view
Ġteror isme
Ġdri ve
Ġ: :
Ġib ukota
und am
Sep atu
Ġhi asan
Ġsingg ah
Ġdiar ahkan
Ġberke nan
Ġberkom itmen
int is
ĠKre atif
ĠD ian
angg akan
Ġas ma
Ġmen entang
.. ,
D ib
ot oshop
ajai ban
oc al
O p
Ġmenghal angi
v ideo
ner gy
Ġtag ihan
Ġny ari
Sil akan
Ġw ew
l m
ini an
B ar
Ġr asio
Ġuntuk mu
ĠAl um
ĠIk uti
Ġge ngg
ĠForm at
Ġmeng ulas
Ġl an
Ġkur us
ib atan
Ġtidak nya
Ġdig emari
nsi f
ing s
lob alisasi
am ana
Ġab s
ig urasi
ĠU ngg
ĠA nies
ĠR W
ĠSur ga
Ġar g
ĠD PD
oy ong
w ard
ĠA ma
Ġdid ampingi
SM S
Ġmenc antumkan
ĠT IM
Ġdiper baiki
Ġter ancam
Pre vious
ul aran
adw alkan
ĠN gentot
ĠSum ut
ĠBP OM
Ġy our
Ġkabar nya
ber g
Ġmeng gerakkan
____ ____
Ġm ang
Ġmem ancing
ĠD osen
Ġmendi dih
akt anya
uj uran
ud h
ed ahan
ĠPR O
as angan
amil y
ĠD z
Ber main
ĠH indari
Ġob esitas
ĠU NI
Ġin do
Ġes ok
Ġgem ar
fi eld
Ġtak si
Ġkece nderungan
Ġ199 7
Ġmengatas inya
ĠAn ime
h s
ed y
est arian
ĠMe ngan
Ġpenger jaan
ĠT EM
og n
ĠS ut
Ġter duga
tuj uh
Ġmemb i
Ġle ga
ĠD rs
S E
L aporan
ĠPerp ustakaan
ĠL y
ĠT urun
ĠPeny elengg
Ġr ob
ĠPel aku
Be njolan
ĠAk tif
r g
Ġbah w
Ġcer pen
ve y
yarat kan
ad h
ĠJ utaan
Ġmenj amu
6 2
ih ihi
Ġdil alui
Ġne tizen
Ġdur ian
ĠPen ingkatan
Ġdij angkau
Ġf re
r ho
V ER
Ġtak dir
ĠSing apore
Ġr ujukan
Ġun gu
Ġinf onya
ĠAK U
Ġt oh
ĠMis s
Ġberk ala
Ġc eme
Ġterser ang
Ġ ust
Ġfil ter
ĠDi visi
u angkan
Ġprofes sional
Ġket ahanan
Ġmeny is
ij i
M udah
ĠAb i
6 4
it atif
ĠSeb agaimana
ĠI rak
ĠR as
U G
ĠPeri kanan
Ġden ger
Ġter tib
ĠJam es
Ġjen uh
idup annya
a af
Ġkeber anian
Ġperoleh an
ĠB on
ĠSem angat
ĠS ifat
M asa
un sur
el akang
ĠSe nt
ĠKara wang
Ġb ungkus
Ġtemb akan
Ġal hamdulillah
T K
ĠS ong
ĠIn formatika
mas ih
Ġbertar ung
S y
Ġpas okan
Ġsen am
Ġser angga
ĠB AH
Menge nal
ĠSch ool
velop ment
Ġsel uler
PT N
Mas uk
ong ga
Ġmemper ingati
ad opsi
si f
Ġmembac anya
ĠTER PERCAYA
sem ua
onore r
ĠJ embatan
ĠL aga
ĠSk ripsi
ĠEx cel
Ġv oucher
ny anyi
Ġper damaian
Ġberk ons
ĠA H
N IS
Ġm awar
Ġj uru
Ġdike nali
Ġs dh
Ġar ahan
Ġ ego
Ġmengh ampiri
ĠJ as
ĠDis k
J awa
Ġso mbong
Ke r
Ġc ash
Ġpers atu
ĠM inta
utrad ara
ĠP lastik
ĠAl quran
ch ing
Ġform ula
S un
.. ?
Ġmeng gen
Ġpro posal
Ġsek ilas
Ġperm al
Ġberj arak
ĠHe e
Ġpenis ku
ĠB K
Ġrek tum
Ġak um
Ġk ad
ĠPi dana
ti ban
Ġse der
b ul
B ola
et ing
angg uran
ĠC os
Ġtemp uh
Ġdo ang
tip s
h ehe
ĠS ini
ĠKE P
ac i
ar inya
ut anan
ĠSal es
ant asi
ip ang
Ġp anggil
A m
d ney
o ff
angs ungan
Ġper hiasan
Ġpeng amanan
Ġdim ilik
ĠATA U
Ġmenj elajah
ĠSeb anyak
rita an
c ek
ĠBer as
Ġberb uka
ĠP ahlawan
Ġakh lak
ĠPer dana
Ġoptim is
ĠKan ada
Ġk iranya
ĠAt letico
Ġmel on
ĠW hite
ĠMas ukkan
Ġlem on
ĠS iti
disk usi
ater ing
ĠOper ator
de b
ĠES Q
E TA
Ġmer ancang
Ġr incian
ĠH emat
Ġdipe gang
ĠC le
ĠMen gun
A ngk
ab ilitas
ĠKeb iasaan
t okoh
L agi
Ġ dukung
Ġpikir kan
Ġak omodasi
ĠC all
Ġk ado
Ġf ollow
ĠPel anggan
ĠT ribun
UN J
Ġl up
Ġdiba gian
ĠD usun
Ġkem acetan
Ġz aitun
ĠW ork
Ġdi atasi
is ter
amb ungan
Ġre formasi
rie f
L AN
ĠM om
ĠIst ilah
ya di
nap asan
ĠU ndangan
ĠT ambahan
ĠBlack Berry
ima x
Ġbl ibli
ĠZ ul
ĠP U
Ġmemper s
A g
and alkan
al ak
arut o
Ġt adinya
p d
ĠRos si
ĠUm ur
ĠUnt ung
ĠTel uk
Ġtur is
ĠBur uk
Ġdiap likasikan
Ġm itos
Ġp ura
ĠPem asaran
ĠN is
ĠIn terior
Ġmemb atalkan
Ġmen ab
Ġdi tar
ĠS id
Ġsis anya
Ġc ucu
yaw arah
ĠKe pe
ĠC ib
Ġangk asa
Ġkese mb
Ġf ood
Ġper undang
os k
Ġm omentum
Ġberm utu
Ġs urabaya
ĠPer temuan
ĠPer istiwa
ĠC it
ĠM alik
olek ul
AG U
R O
Sek ian
Ġtentu kan
e rang
li f
t ama
ĠM ust
an dan
ĠLe n
Ġc intai
ri h
Ġke imanan
Ġred aksi
ĠM am
j ap
Ġpip i
ĠA KAN
Ġpen arikan
aksi kan
ĠPem ilik
Ġpemb antu
ĠTim e
ne n
Ġkes ep
Ġdi ucapkan
ret ariat
L aki
Ġs mart
Ġcipta an
ĠSi ang
Ġpermal ink
Ġre tur
I RI
Ġhe nti
ĠTah ap
Ġmere n
Ġberm impi
ĠD aud
Ġmem ajukan
Ġdic etak
ĠAl f
Ġkomp r
p k
Ġp ompa
Ġt rip
Ġmo od
ac aan
ba dikan
ĠS O
ĠRese r
W arna
Ġdik umpulkan
ĠG ab
ĠB eb
ĠP asir
Ġter ob
Ġmer ingankan
p ihak
Ġpen angkapan
Ġkem aren
Ġdib unuh
ĠNet work
ĠIn jil
Ġakibat nya
Ġdi v
ĠL im
Ġdiak ibatkan
ĠD ang
ĠUm at
Ġjack pot
ĠO L
ĠVal ent
ĠS as
Ġeks tr
Ġmen ep
Ġbet ah
Ġmisteri us
Ġpeng ujian
Ter akhir
ĠG itar
ĠDe aler
diri an
Ġkele ngkapan
Ġwah ana
ĠS etan
Ġsambut annya
Ġaf iliasi
ĠL antas
Ġsc reen
Ġbel aka
Ġnger ti
Ġmeny angka
Ġse pe
Ġberb isnis
rene ur
ĠMo vie
ongk rong
Ġpe juang
Ġm alahan
Ġh ab
ĠM AK
tan pa
Ġkede pannya
Te rb
Ġkebe ncian
Ġlemb ab
Ġmem isahkan
sek arang
ampai an
âĢĻ âĢĻ
F itur
ĠR um
Ġce n
Met ode
ĠS audara
Ġmenc ukupi
Ġkesen ian
ing ton
ĠN af
M S
Ġce nter
ĠSw iss
Ġl aris
Ġfleksi bel
li ent
AR T
PA I
as tis
Ġs arang
Ġkeb anggaan
Ġmel impah
l anjut
Ġinf lasi
formasi kan
r ahan
Ġf antas
ĠBr omo
a ur
d adanya
Ġhidup ku
Ġk um
ap res
offe e
Ġkek el
Ġber d
in ata
2 50
K ed
rah man
ĠPer hubungan
l asan
isi al
tik al
ori entasi
Ġn oda
Ġtel at
p ula
Ġmag net
ĠY g
ĠTer kenal
K TP
ĠK K
Ġ ol
ĠKemen angan
ĠJ abar
Ġkend ali
Ke tiga
Ġm ant
v aku
ĠM ET
Ġp angkal
Ġter diam
s ar
Per bedaan
Ġber ujung
ristian o
Ġt raf
idu ga
ĠIl miah
ic o
ĠN ik
ak atan
ĠS ikap
ĠTel epon
Â °
Ġb oot
Ġ dk
ond asi
be ner
a ve
ĠG resik
ĠBer manfaat
â Ĥ¬
Ġbar unya
Ġpr asarana
ke y
ĠPortu gal
ek am
Ġpas ta
per angan
Ġdimilik inya
ĠU I
Ter kait
Ġseb utkan
Ġaktiv is
Ġber isiko
ĠA uto
me nc
ĠMas ing
Ġproduk tivitas
word press
Ġsir kulasi
Ġuntuk nya
Uk uran
ĠM ake
Ġdi uji
Ġh om
Ġmus isi
Ġr ental
ĠHand phone
ik api
ĠL CD
N EWS
Ġb anding
Ġmeng ikut
N ET
Ġber trans
c or
Ġgen etik
ĠAs ing
ĠTrans aksi
ĠPel atih
D il
k os
Ġsem isal
ĠT OGEL
Ġmel amb
Ġst amina
ĠDISI NI
C opyright
Ġreg ulasi
Ġ dadanya
,, ,,
Ġm un
Peng alaman
K amar
Ġwas allam
F asilitas
ĠS AM
ĠKeter sediaan
Ġv irtual
ĠI sa
Ġrambut nya
ĠPr emium
ist ri
B S
ye n
awe i
Ġmemas arkan
Ġmend uga
ĠPrak tis
sel amat
j onegoro
Ġmencer minkan
tuk aran
ĠMic hael
orb anan
A AN
ĠRek omendasi
Ø ±
od ok
ĠD ES
Ġsedikit pun
Ã Ń
ĠG raf
Ġberp restasi
Ġ7 2
Ġberga ya
Ġb gt
ograf is
ĠTe xas
Ġtamp an
IH AN
Ġpemb akaran
Ġter update
ĠK op
ĠMis teri
Ġ ),
Ġin put
at ul
Ġkem auan
Ġh eboh
Ġemp uk
de teksi
ĠSur akarta
og rap
vaku asi
a x
Ġmel ampaui
re al
Ġperson il
ĠP OL
f ile
G uru
Ġdi dunia
ĠB N
Ġ8 5
ro om
ĠP US
ĠF A
Ġr asional
k ek
Ġt afsir
ĠTinggal kan
Ġpar uh
U ANGAN
g am
c y
ĠP emprov
di tas
Ġp idato
ĠT umbuh
ĠL ife
Ġ5 1
ak o
ĠPendapat an
Ġpasangan nya
eh arto
Ġn ota
ĠSamp ah
Ġseh arian
O AD
Ġs olo
ot t
Ġmak asih
TI F
y ani
ĠPromo si
Ġpeng emudi
ĠDesi gn
iq ah
Ġbij aksana
ĠTerb uka
Ġt hat
AL U
Ġkont ro
K an
Ġmeng emukakan
Ġkes ini
ĠL and
ĠPene r
Ġnas ihat
ĠR UMAH
Ġbay inya
Ġim age
Ġs andal
Ġlanjut kan
Ġkait annya
ĠSel eksi
Ġ5 6
Ġmanfaat kan
kan tor
Ġchan nel
S ungguh
umb a
iti ga
Ġv aksin
Ġm ig
em is
ĠM K
ĠAs h
R asul
Ġpe tualangan
ĠC H
um nya
ĠBaw ang
og ra
Ġ ???
af ah
on aktifkan
ĠC uci
ĠP ari
Ġe dukasi
ĠBer ada
Ġke unikan
ĠK uasa
j t
rat uran
Ġmen ar
Ġdic atat
Ġm utiara
ĠBud dha
d pt
Ġdib atasi
sen jata
Ġtat kala
d ual
OLOG I
ĠS ingkat
Ġdek orasi
Ġberk ap
Ġber cak
ĠZ ain
Ġf os
Ak ibat
j ari
uk at
Ġterc epat
Ġc ontrol
Ġn uklir
Ġter ipang
Pen elitian
ĠIS O
im ut
B AL
Ġh ektar
Ġt opi
ĠB angka
Ġr angk
ĠR at
Ġas alkan
ĠE vent
Ġis e
Ġke arah
R p
ĠV eg
Ġkaw in
P esan
ĠG ajah
g uru
Ġmi x
y ung
Ġf at
ĠE h
Ġseh abis
Ġfungsi onal
Ġpor n
Ġteri ak
Ġsen e
ob o
M anusia
Ġb ung
est arikan
Ġk uar
ĠMaj alah
Ġb asi
Ġsel agi
sek olah
est ari
Ġn usantara
ĠBer h
T US
Ġterin spirasi
ĠCap sa
ris e
Ġkeh abisan
ĠSt atus
k amu
j asa
Ġkeh idupannya
H K
k omp
Ġj em
ĠL an
ĠB utuh
ING G
Ġpert anda
el in
ĠSh alat
Ġdi ukur
Ġmengg ali
Ġdip aksa
Ġas tr
ĠKe jadian
ĠK apan
ĠB au
pr insip
Ġ4 7
m id
9 8
Ġses at
A F
ĠTerp opuler
ĠUmum nya
Ġsk ema
ĠG angguan
ur ce
Ġat raksi
Ġsal ep
Ġ5 4
aj inasi
Ġin ovatif
D r
ĠS AYA
Ġpe gang
Ġdul unya
D ij
pol is
ĠT ampil
ĠPER T
Ġ oh
ĠS inar
Ġimp lementasi
ĠV I
Ġg or
d os
Ġmenc ob
uk au
Ġsecepat nya
trans fer
Ġise n
Ġ dang
K al
ĠKapol res
emp ol
Pas tikan
aw ah
Ġl on
b ahasa
Ġme w
Ġpen uaan
am as
ĠT EL
ĠPort al
ĠTak ut
Ġbers inar
mi kan
old a
onal d
D ulu
ont al
L E
Ġmeng gun
Ġm ot
ic ation
ĠPe rencanaan
Ġperse mb
Ġmeng utip
Ġdi amankan
N C
Ġkemb ar
ĠDi am
Ġ5 2
Ġn ol
ĠPer nyataan
â ŀ
J UAL
Ġmel ompat
Ġmel anda
m obil
Ġmendek at
vi der
ĠHadi ts
Menc ari
Ġdit unjuk
Ġmel intas
Ġmel emah
amar inda
Ġus ulan
Ġan emia
E F
Ġpr int
Ġng asih
Ġkede lai
Me nd
Ġsta dion
ud ung
ogra fer
Ġbermin yak
TRI BUN
Ġdil ap
Ġberm unculan
Ġsamb al
Ġpel uncuran
be ri
e nd
Be ntuk
Ġmenyebut nya
k n
is ili
k s
Ġpel ayan
Ġw id
Ġterang nya
gg am
al aya
Ġmenun aikan
ul aan
Ġre alitas
Ġ9 5
f ace
gar uhi
tiv irus
Ġsene n
Ġlem as
ed ah
and y
k au
Ġp abrikan
Ġdi andalkan
ĠGag al
Ġte gang
ĠPEN Y
B uk
K a
Ġkes ukaan
Ġmemper temukan
Ġle ngk
Ġdis epakati
Ad alah
Ġmen do
ual ity
Ġ ubah
Ġs ap
Ġb arisan
ĠS api
Ġberp el
Ġkeber atan
ĠJ arak
op or
ira usaha
ĠP G
In gat
l ukkan
tain ment
Ġï Ĥ
Ġmum puni
Ġpes isir
ID EO
Ġl edakan
ĠInd ra
Im am
Ġero tis
In tern
Ad visor
Ġmend arat
Ġp ukulan
UN AN
Ġpri ma
M uh
ĠT ele
Ġmen unda
Ġrek ayasa
Pe raturan
ĠAn j
Ġpelanggan nya
Ġhas rat
ĠU dah
ort el
Ġberta juk
ĠBus ana
Ġsab lon
Seh ingga
o on
c rip
ĠN TB
Ġout put
Ti ba
Sel uruh
osan kan
ĠP angan
Ġmemper panjang
200 8
emb uru
Ġbe nak
ĠJ ae
Ġdim ak
al ukan
Ġindah nya
ten ham
Ġpeng ungsi
ĠS UM
op ang
y m
ĠF ah
Ġi ris
ĠTER BAIK
ĠBer t
ĠD AP
Ġpenc urian
ĠBel gia
UP ATI
ĠH ajar
Y uk
Ġkag um
ĠHal al
ik al
Ġisen g
Ġdip isahkan
B ay
Ġmel amar
Ġmemberitah ukan
ĠB ukti
b in
ĠR ekening
Ġlet aknya
ge jala
Ġka idah
Ġrek reasi
au kan
Ġhel m
Ġke di
emat ik
et ooth
Ġkek hawatiran
Ġberkap asitas
Ġgambar nya
Ġ dz
ĠKes alahan
ul ung
Ġsi ze
isti mewa
Ġdiper siapkan
Ġpekerja annya
per luan
+ (
ĠGe nerasi
ngk el
Ġrutin itas
L akukan
Ġal lah
ĠStudi o
ĠEp isode
Ġ oli
Ġpembers ih
Ġn ar
rat or
ĠA st
ĠL EBIH
Ġl ambang
ĠG uar
Ġal as
S esuai
Ġrel awan
ĠPsik ologi
Ġmeny alurkan
ĠSo si
Ġp d
ĠMo tif
ian o
ok ol
ĠSe pertinya
p oker
V e
Ġmen ari
B ur
ĠNo vel
ĠUc apan
Ġindik asi
baik nya
Ġsemb elit
ingat kan
ĠM iliar
ĠK onsumsi
if inal
S eg
up load
ĠWhats app
ĠP ok
on ial
ĠSepak bola
re y
ĠAkses oris
ĠN eg
ĠC ore
l os
Ġmemper caya
Ġdimen gerti
Ġat o
bat as
ĠSo uth
Ġpen inggalan
vers al
Ġfr om
p m
Ġpay ung
ul ing
Ġindiv idual
us h
Ġberk ontribusi
Ġkar unia
Ġr ebus
Ġ dpt
Ġteg uh
Ġteg angan
Ġtromb osis
dih kan
Tah ukah
Ġmengus ir
ĠEng ine
ĠZ aman
Ġdisemb uhkan
Ġen zim
ĠKem aluan
Ġ dual
Ġkel iru
t he
asa annya
Ġpen utupan
ĠR ak
B D
Ġp le
Ġasp irasi
Ġpenggunaan nya
Pem ain
ĠSem inar
Ġmenak utkan
T rans
Ġ5 8
W ow
EN C
iki pedia
aw ai
Bergabung lah
9 5
r ilik
ĠPemb esar
Ġmer ep
h otel
ĠK ai
Ġf atal
N ilai
Ġre quest
Â «
Ġil m
Ġtand asnya
P ent
ĠKart ini
depan kan
ol et
Ġg alau
umat ra
ĠSe arch
Ġmen andatangani
ve d
Ġkre asi
4 00
ĠC ur
Ġhat imu
ĠSh in
ĠKons umen
Ġp ahami
AJ ARAN
ES T
Ġkulit nya
ri bu
Ġkerja an
ĠPeng urus
V i
Ġsur ya
AR UH
Ġsc an
Ġkons ultan
es ok
ĠRes ort
Ġdik ala
Ġrek omendasikan
ĠL anjut
ĠBerb ahaya
ĠBac carat
Ġb it
Ġle genda
Ġpeng uasaan
c ep
Ġn aga
ĠH UKUM
us n
Ġtud uhan
Ġberj umpa
untu h
c ast
Ġp s
Ġpenyi dik
Ġmengund uh
cen g
Ġmengh aruskan
ĠSuk abumi
e ni
st op
ĠRo ad
j udi
Ġg on
Ġperse nt
Ġr ingk
ĠK inerja
Ġg etah
d oc
ĠB elit
Ġat om
pe ny
Ġdihad apan
Ġpertar uhan
Ġr atus
utama an
Ġber terima
ĠH ye
Ġsi f
Ġb uru
w il
Ġb ugil
Ġbas ket
ic ipi
ĠPenc arian
T anya
ntu ran
ĠPr insip
Ġbi as
oy s
Ġhar um
Ġdite kan
Ġmemb aik
ont arkan
t g
Ġl isensi
ĠAnt ar
Ġsa us
ĠSo eharto
? )
Ġangg otanya
Ġberw enang
Ġketen angan
ĠK UH
Ġke ser
ĠL angit
ĠPus kesmas
Ġc em
Ġto ol
Ġga un
Ġpend amping
ĠMe ga
B adan
ĠKun ingan
ĠRom antis
sen g
ON T
M ata
Ġr un
Ġbibir nya
Ġke rip
ro y
Ġl ak
Per jalanan
ĠKat anya
AR AH
Ġmengk lik
ihat su
Ġwork shop
ĠC R
Ġberin vestasi
Ġki per
Ġjadi lah
ĠSer u
s urat
k aitan
k isah
Ġay o
ho a
ĠBab y
Ġberk on
Ġram adhan
ĠA j
Ġlel uasa
Ġtrop is
ĠDis count
Ġbar ulah
B ah
Ġbers ihkan
Ġmengaw ali
ĠDit ambah
ĠPer caya
ĠPel ajar
Ġter timpa
Ġh itung
Ġpenjual nya
ĠS ih
f ur
ĠJ aminan
Ġs ter
kat anya
Ġberse jarah
Ġl atin
ĠMag elang
Ġmat aku
Ġmen etap
tim oni
Ġwah ai
Ġberb alik
Ġme st
M AS
Ġag resif
Ġmembaw anya
Ġmenyimp ulkan
u ara
Ġnom inal
Ġak ut
har ma
Ġpon dok
Ġgab ung
Ġw afat
Ġbe danya
AT E
ĠH in
T iket
Ġkeny ang
Ġmengin spirasi
Ġk umpulkan
Ġpenga jar
Ġmengh idupkan
Se ring
Ġn gentot
g es
L ima
OR I
EH ATAN
tus an
ĠSo alnya
EP AT
k ol
M inggu
ĠAl ternatif
k osa
Ġsenen g
Ġing et
yan mar
Ġhendak lah
Ġh amp
Ġman can
ĠSub title
Ġcab e
Ġket ik
F ree
J okowi
Ġt arian
ac ang
ĠC amp
Ġp ijat
ĠB angkok
Ġber ambut
f one
si ran
Ġhiper tensi
ĠL ong
Ġterin tegrasi
Ġdit anam
Ġsek under
ĠC EO
ĠIb adah
... "
ĠU ji
BA GAI
ĠH as
ke na
Ġbe dah
Ġbar angkali
ip utan
ngg ang
os at
Ġen ter
Ġse dekah
Ġter si
Ġur aian
ĠF OR
Ġdis adari
r oll
ĠC re
Ġsebe nernya
Ġ50 3
Ġmah asiswi
Ġpenye rang
ĠR et
Ġdul uan
ĠBer kat
Ġr uas
in f
Ġmembuktikan nya
Ġperp aduan
ĠTi ong
Ġdik it
Ġpul ak
abd omen
K OM
ĠK otak
Ġkon dus
ĠBe njolan
T unggu
iri kan
Ġberw isata
Ġmancan egara
Ġkamar nya
des ain
E h
el ai
Ġpenye diaan
Ġperi h
ĠF ot
Ġlag unya
Ġcom ment
ĠTab let
Ġs umpah
F or
Ġn ews
Ġpeng as
ebrit i
L o
Ġt sunami
Ġnak al
ud al
Ġperk otaan
Ġberm otor
Ġkul kas
B EL
s eh
S et
IL AH
al un
ĠPengaw as
ĠS unan
Ġsa j
Ġs kuad
Ġmemil ik
d usen
Ġak ad
ĠT ari
Ġpe desaan
Ġter ungkap
Ġdip ungkiri
k aya
ĠD J
Ġn ipis
Ġ_ _
Ġmend ominasi
Ġt aw
Kode pos
inge r
9 6
n amun
ud ing
ul nya
ĠBL OG
ĠS usun
Ġr entang
Ġmem anjakan
Ġkat un
Ġpar fum
Ġtemb us
Ġkondus if
h ukum
ĠV ic
ĠC rusher
ĠSeti daknya
ĠH atta
ĠBang et
ING AN
W isata
Ġpar as
Ġsej atinya
Ġmas sal
Ġ5 3
al uran
Ġtrans misi
oh ongan
S U
Ġval id
y ol
ek uk
Ġpul ih
8 4
ĠHid ayat
ĠW ib
gr ad
me dia
y it
ĠH ai
Ġs ubuh
Ġs it
elidik i
amp ar
ab ad
ĠUM UM
ĠF ire
sh ot
Ġpemul ihan
ĠKE C
Ġkas ihan
Ġmembant ah
Ġr int
ĠQ iu
asi atnya
Ġketer gantungan
ĠP ant
ĠPer ingatan
Ġlo ve
IN SI
ar di
Ġmengec ewakan
um ent
b ir
Ġin c
Ġk angen
Ġdar atan
ĠMen uju
L emb
lik asinya
S B
Ġkese dihan
Ġb angs
iaya i
Ġsem pet
ĠH K
ĠBlack berry
eks iko
ĠPl at
H A
s alah
â ĸ
ter masuk
ĠPro perti
ĠBar ca
ĠH or
l l
Ġc ol
ĠN KRI
F ungsi
Ġs angka
ĠG aji
Ġse gan
ĠBij ak
Ġdi dengar
seb agai
uf aktur
alah gunaan
Ġden g
Ġadmin istr
Ġmel uncur
Ġw acana
Ġsens ual
Ġse ja
Ġ5 7
ĠIS LAM
Ġv ok
anc uran
H I
Ġkome n
ĠM IN
ĠDom ain
Ġleb at
B et
ĠPember antasan
p ri
Ġber diskusi
Ġspe ed
Ġdiper hitungkan
Ġl ilin
ĠCom mun
Ġlok asinya
Ġsahabat nya
epat itis
ak ti
Ġsup plier
ĠMul ia
Ġf eses
omb lo
ĠSe na
ch a
Ġ18 0
Ġkapan pun
Ġper men
Ġpemain nya
Ġdr astis
Ġmode m
Ġc y
Ġp aksa
ut aran
Ġnir kabel
B r
ĠF avorit
ĠBandar Q
Ġle gend
ĠG h
ami in
ĠPersi ja
ĠKec uali
A c
alam inya
ĠUS A
Per kembangan
s audara
Ġas in
Ġpembe ritaan
G AN
Ġbag iku
c ang
P C
ĠS Y
Ġber naf
Ġpeng uatan
PER ATURAN
Ġin tensif
Ġtem per
ĠTe am
gi e
ĠU T
ĠBer hasil
Ġberba yar
Ġdisi mp
dik ator
yar akatan
Ġdiber itakan
Ġc al
Ġmen oleh
Ġhadir nya
ĠL el
aksi an
Ġpen olakan
c ut
ag ina
Ġc uti
Ġo il
Ġc afe
ĠK uta
ĠO s
Ġsub sidi
ĠJe ndela
ĠPS SI
mis alnya
Ġmeres pon
ĠKeb un
ĠPer tumbuhan
ak as
Ġper napasan
Ġins truksi
L angsung
egis ter
ĠWil li
Ġsel epas
ĠTh omas
ind ustri
Ġmeng etahuinya
ĠE disi
ĠIk ut
Ġpr ok
zin kan
Ġm aha
d adu
Ġpil kada
Ġdesain e
Ġjas ad
Ġpas te
ris ti
Ġperi kanan
Ġdesaine r
ER A
Ġh ama
Ġmen anggung
lomb aan
Ġsejenis nya
Ġmeny alahkan
ĠJ a
iman akah
ĠMen erima
Ġhard ware
ĠAmb on
Ġmenge ndarai
ĠS ai
Ġy atim
B ook
ĠV S
Ġmenc abut
time dia
Ġberj e
Ġadik nya
Ġb iner
Ġvagin anya
ĠE sa
Ġsel isih
Ġsp am
ya itu
elah irkan
ĠF ac
Ġse e
o id
ĠP eta
uth or
nce r
Ġberkes empatan
Ġcac ing
Ġkart un
ĠB int
Ġter per
Ġs ate
oc us
Ġsal at
âŀ ĸ
aul atan
y ana
Ke c
Ġdi as
ĠS l
Ġmenya pa
Ġ7 00
Ġmenun duk
ĠC rystal
Ġmel edak
ĠMan agement
ĠB inary
ide nt
Ġpene ntuan
Ġsal es
Ġhe ro
or ama
ĠR ich
and aran
Ġ5 9
Ġpen gun
ja ck
ele r
ĠTe mbak
angg ilan
Ġitu pun
ĠT amb
ound ation
Ġkem uliaan
Ġke tu
Ġr inci
ĠA Y
ĠMar s
dom inasi
Ġp lan
ĠD R
ĠJ ember
Ġsi de
l s
ĠSeb ut
osi p
H ot
ĠA ce
Ġth n
Ġc ode
ĠS TA
Ġmemb ebaskan
Ġap ik
Ġ> >
Ġkap as
ERINT AH
K husus
Ġmemb ikin
p ori
ĠUp aya
Ġdise tujui
Ġpe saing
Ġny atanya
Sek ali
Ġdik laim
okus kan
Ap alagi
W arga
Ġmenar getkan
Ġmem aparkan
pe ria
ĠC CTV
ĠGer indra
tab ilitas
Ġber gel
tim asi
Ġkil ogram
Ġpart ner
Ġdi cer
ĠS truktur
la za
Ġekst rim
12 59
ort h
ap apun
Ġkes amaan
Ġdip l
ĠC owok
ke napa
Ġmenump uk
Ġdip esan
H O
Ġb adai
ĠSi won
ĠKons ultasi
ĠPen erimaan
f itur
ĠP ulang
Ġbers el
g ra
ĠG amis
mes in
Ġmeng optimalkan
H S
Ġc etakan
Ġpen darahan
Ġek osistem
Ġle nyap
ĠP AK
ĠGo od
ĠT A
Ġpes ona
ĠKer tas
ĠN am
b atu
ĠBer gabung
Ġdek ade
ĠI PS
ĠKun ing
ĠRab b
ui de
Ġberak tivitas
Kel ebihan
Ġstudi o
ĠR uk
Ġdik au
ĠHol lywood
Ġgel andang
Ġkelemb aban
INGK AT
IK SI
ĠC itra
Ġmemb osankan
ingk ong
uli ahan
Ġl ab
Ġgel isah
ĠMul ti
ke giatan
w ali
Ġmengg ambar
ĠA turan
ĠUK OT
ĠDong hae
Ġpri vat
Ġsa ins
ĠE X
ĠT AK
ĠDang dut
Ġdi undang
Ġtem pe
c uma
ĠJ AM
Ġk ang
ĠPena waran
8 7
Ġboc or
Ġmen eliti
Ġpen empatan
ja z
uk ang
ĠW EB
Ġn ie
H AR
Ġberc ampur
C l
Th is
ah ahaha
Ġkon on
Ġpe warna
Ġmenj emput
P art
ĠE mp
ĠUst adz
T ampilkan
Ġpem icu
Ġse o
sen ger
Ber itahu
S ab
ĠPer an
bi asa
Pi ala
us ai
? ,
Ġjawab nya
Ġkiri man
es alan
ĠD etik
US AHA
ind arkan
anc aran
Ġsat upun
pe ten
Ġpemilik nya
ĠL TE
Ġpen anaman
Ġmus ic
Ġe uro
ĠAudi o
Ġter pengaruh
ĠI SIS
ĠS amb
ubis hi
Ġter le
Ġs antan
Ġpart ikel
nang i
Ġ1 10
Ġkontras epsi
te naga
P AN
Ġberkel iling
ĠLog in
int asan
K ol
Ġbe ber
AP I
Ġdi visi
EL IT
ĠKek uatan
ĠSo fa
g is
B ulan
G ara
ĠBelit ung
ĠD inding
ISI S
Ġmake up
ĠCok lat
Ġga jah
ĠPen ilaian
Ġberp isah
ag es
A tas
Ġmengap likasikan
ĠM yanmar
amp ok
ap ar
ikm alaya
Ġkul tur
Ġpel amar
ĠTot tenham
Ġc eria
ĠD ampak
Per awatan
ĠKE UANGAN
es okan
Ġimb uhnya
Ġv isa
ĠP ekerja
Ġmenj angkau
al ihan
Ġtampil kan
l arasi
Ġmen uai
V I
Ġgen g
Ġmenye n
Ġmengin feksi
Ġm uatan
Ġpe perangan
ĠL ib
angk ara
Men ingkatkan
ĠWe n
Rah asia
Ġj alinan
aga an
Ġradi asi
e ro
ye r
Ġmeny inggung
at her
ĠC as
k ul
Ġmeny ingkirkan
ĠKe dokteran
Ġs tim
c tor
K T
alam annya
its ubishi
ĠM eksiko
Ġm ik
Ġkl ip
dil oma
Ġs uruh
Ġmembaw akan
D emi
ĠAp arat
.. !!
das ari
Ġdib icarakan
Aw alnya
T ugas
Ġintens itas
Ġtetap lah
ĠY u
ingg uan
Ġg amat
ap s
Ġberke c
ĠTujuan nya
j at
Up date
ro an
N egara
8 2
Ġbelakang nya
P al
Ġpember dayaan
Ġpene rus
ampir an
crip tion
ĠTr aining
Web site
m odel
Peng gunaan
ic s
ĠB all
ĠP IN
Ġberf oto
ĠImp or
Ġdi dominasi
Ġtert angkap
IK ASI
Ġper spektif
Ġbene ran
Ġpap ar
res entasi
ri ah
ĠN TT
Ġmendek atkan
ĠT ombol
Ġproduc t
ĠBus iness
umb angkan
ĠJ essica
Ġtak tik
j elasan
Ġkemer ahan
Ġr ongga
ik atan
Ġproses nya
ĠOt omotif
ĠMem akai
Ġj amu
ĠK arenanya
ti pe
Ġ9 00
P osting
at eg
res ep
ĠC are
Ġmend ampingi
ĠH art
ĠPer gi
Ġmemper kirakan
p p
ĠSEK ARANG
B ank
arta bat
ĠA IDS
C ukup
Ġk ubur
Ġdit anyakan
s um
T O
Ġj uni
y mar
ĠTer se
Ġg k
ĠT itik
EDI A
la v
deb atan
Ġdi pertimbangkan
w ai
ĠF air
Ġet nis
Ġat a
ĠK ro
f r
Ġpetern akan
12 8
Ġberge gas
Ġbrow sing
Ġce pet
Ġmeng etik
d aftarkan
Ġseny uman
Ġsilat urahmi
Ġbaga imanapun
Ġma ag
ĠW an
kan toran
st ik
p ora
Ġdk k
Ġk oc
h ian
Ġotor itas
ĠPert ahanan
ros ur
intang i
Ġfantas tis
ahan am
Ġberk esan
ĠN or
Ġdiam eter
l ian
ĠAk bar
Ġmenya yang
ĠBerb asis
ĠL uas
Ġdik onfirmasi
age di
ch an
get ar
ĠPeng usaha
ken ario
Ġrep utasi
Ġdik emukakan
y y
od ata
for nia
fa ult
Mis alnya
ĠJ ose
Ġber lomba
Ġberkembang nya
Ġko in
r olan
Ġt oleransi
Ġbers antai
Ġt awa
Ġdih ukum
Ġpopular itas
b esaran
ategori es
Ġl umpur
Ġditer jemahkan
Ġpemb uka
lem an
Ġmest inya
Ġpersent ase
Ġur etra
ĠG PS
Ġbawah nya
Ġmemper juangkan
mb ah
Ġf isika
ĠPal su
ĠK aca
ĠR u
Ġmencob anya
ĠKem atian
Ġper antara
ĠM adi
D in
ĠK r
ĠB aterai
ĠNEG ARA
ĠN az
Ġpeman asan
ĠN ational
pin ang
Pe ndaftaran
Ġh ang
ĠAk tivitas
el s
ri hat
ĠP antas
Ġkeb ugaran
Men teri
ĠB R
Ġk udu
Ġaj aib
ĠB ahaya
im in
teri makasih
ntu r
Ġg ang
X X
Ġbuah nya
ati c
Ġperm ulaan
ĠO ver
unt ik
Ġperkembangan nya
ĠSwe dia
Ġkas et
Ġkur ma
sp ort
ĠLe gend
Ġj ogja
Ter us
Ġsc ript
ER JA
Ġkeh ar
n ology
Ġdes ktop
ĠPro t
ĠTer h
Ġdang dut
eh abil
Ġfar masi
Ġeksek utif
ĠD NA
ĠKES EHATAN
Ġmeme rangi
Ġas umsi
ĠKu ala
Mas yarakat
amb an
ema ah
Ġpers idangan
ĠPil pres
Ġmel ayang
ĠPr as
ĠW oo
ny ut
ĠToko pedia
akt isi
6 3
Ġmengel ilingi
Ġil ustrasi
Ġperse diaan
ĠSyi ah
Ġmeneg akkan
Ġm abuk
Ġdipas arkan
strib usikan
ĠPengh argaan
eh atkan
Pe rb
Ġpelih araan
30 3
g on
Ġid aman
Ġtun duk
Ġs amsung
Ġke ji
Ġker ana
he d
A mb
Ġmo use
was padai
agi c
Ġsir sak
ete ntuan
rut men
ĠD eb
Ġt amat
ĠUs ai
ap ut
ĠSudi rman
H i
ud hu
ĠT M
Ġtra uma
m und
ĠN ag
ĠDi e
Ġ daftarkan
ĠN amanya
el amatan
L A
ĠMEN Y
Ġcor ak
awas aki
ĠB U
P aling
Ġkeram ik
esan kan
B uah
ĠC ali
Ġmuk min
ĠRi o
ti ar
Ġwew enang
ĠInstitu t
Pol isi
li de
b ut
Ġhilang nya
ĠR ilis
Ġper tukaran
lu gin
ĠPor no
Ġpap aran
Sem akin
Ġpeny esuaian
Ġ ajar
ĠU ANG
ĠL ho
Ġmemas ukan
Ġpeng angguran
Ġsa f
ĠSh o
ĠPeri ode
= "
ĠKe adaan
: )
p ukat
Ġpangg ul
seb elum
Ġin k
Ġsedikit nya
Rasul ullah
D itulis
Ġ ana
EN SI
B uka
ĠDis amping
Ġv ide
Ġmeny atu
Ġdisimp ulkan
ED IKSI
Ġke siapan
ĠAb ang
Ġat mos
Ġdic intai
Ġmen ebak
Ġc omputer
Ġpo jok
Ġv iral
ĠVi vo
z inan
ĠP asif
ĠRS UD
S ar
ulang i
Ġters usun
Ġput ing
Ġal angkah
c et
c hen
v ate
Ġdi hentikan
ĠAd at
~ ~
T as
ĠC ontrol
husus kan
p ak
Ġb ol
Ġme di
Ġkre di
oc oran
ĠG M
ĠS ulit
... ]
Ber b
ĠR oyal
ĠSe iring
uk uri
Ġberb uru
asi fikasi
Ġ19 80
Ġcur hat
Ġver tikal
l ist
Y ah
Ġau dit
Ġgo od
N IK
Ġba wahan
Ġjalan i
ĠU GM
ĠX I
N y
ba gaimana
ĠI PA
S ta
Ġpl akat
ĠT eks
Ġsa bu
ant aranya
Mem ilih
ing i
ake rja
Ġf resh
ara g
ĠN inja
Ġmenge depankan
Ġo v
Ġdih aruskan
h ol
Ġdimas ak
Pel uang
ĠS nap
in less
Ġmemen garuhi
Ġ199 5
Ġac tion
ĠB ayar
Assalamu alaikum
Ġt inta
Ġsumb angan
ĠU jung
ĠJ ustru
s ilahkan
ugus t
ap likasi
Ġdice ritakan
UK U
ĠSy dney
Su ara
ĠR A
ĠJuni or
imb au
IM B
asi b
Ġberper ang
Ġno tifikasi
Ġgug atan
ĠHu awei
ĠL eb
o ordinasi
ĠIN FORMASI
D ER
ĠAn eka
ĠRis et
S ang
Ġge nc
M IN
Ġr ate
Ġtel ekomunikasi
E fek
man usia
ĠM az
ĠT rend
jek i
is ta
ĠR oda
ĠKon ten
Ġmenemb ak
Ġl adang
E ntah
w id
Ġkey word
unc it
ara u
Ġberkep anjangan
so alan
ĠS aran
dalam an
i der
OW NL
Ġb asa
, âĢ¦
ir in
Ġ199 6
Ġba j
Ġmeny atukan
ĠF ood
id rasi
Ġsent ral
Ġpeng arang
Ġpro spek
Ġmer em
ĠAPB N
8 3
Ġpilih lah
wal itas
Ġpro ject
Ġo mbak
ĠP ura
ric an
me nd
ĠBi cara
ĠJ ateng
Ġbatu an
ĠGat ot
ĠPe jabat
ĠK ut
Ġmel angsungkan
ĠT u
tu rb
Ġmeny eg
nd udukan
Ġkecil nya
anj at
ok ratis
ĠB ARANG
Ġberant akan
ĠAD ALAH
Ð °
W akil
amp ungan
eb utan
ĠIb n
ver n
Ġmengan alisis
so al
ĠSubhan ahu
Ġstr iker
Ġsif ilis
Men genai
ĠProf il
unc hing
Ġkons ekuensi
S yarat
ĠK AM
ĠH IDUP
Ġsp onsor
ĠMa ul
Ġac ak
Ġmaj elis
, ..
anya annya
Ġpek a
Pen ulis
Ġklin is
Ġtek n
ĠHar ganya
Ġter apkan
ĠB esi
Ġpengaw as
Ġas isten
ad ul
Ġmul anya
R S
Ġke atas
ehe nsif
ĠPeme riksaan
sp eksi
ĠB otol
ĠPer sen
ĠS tu
Ġmemo tivasi
Ġmemf asilitasi
IS ASI
ĠIs kan
Ġpen ampilannya
ĠM AT
Ġber asa
Ġmen i
as ari
jah tera
Ġpan ah
ĠUM KM
Ġser vis
Ġtong kat
ĠKec elakaan
Ġkel urahan
Ġpe lengkap
Ġl in
it ah
ja w
Sayang nya
Ġmenyemb ah
ĠR usak
K U
ĠE nd
6 1
Ġmembe nci
ĠSk y
ĠG od
ĠSeri es
Ġmel irik
Ġb ubur
ĠPang lima
ro g
Ġr anah
s at
Ġterb alik
l ap
ĠSul sel
ĠDAP AT
Ġper awan
ĠKl ub
Ġbus uk
ĠK LIK
6 00
Ġr ock
up kan
Ġterl arang
hats app
ĠT ype
Ġberf okus
ĠPeng hasilan
eh ehehe
ri um
Ġbes aran
Ġben ua
Ġbel a
Ġul as
OWNL OAD
Ġlic in
m ohon
ĠCo ver
Ġdib akar
Ġsep ele
t ren
Ġker ah
Ġt gl
Ġl egislatif
Ġbb m
i as
Ġm olekul
USI A
Ber bagi
Ġpen unjang
imb ingan
R asa
Ġrel asi
Ġdo uble
Ġgur ih
mur id
Ġharm onis
ĠCer das
Ġdem onstr
ĠIndones ian
Ġel ektron
ton gi
Ġb ata
Ġpenerb it
ingk ai
ĠAre na
Ġf rame
Ġlong sor
li ga
ĠSar jana
Ġsab tu
ĠG ula
Ġk awat
ilm uan
Ġkun yit
Ġe ditor
ĠMak kah
gar ap
Ġterbaik nya
Ġmen ara
Ġkos tum
ĠE ra
ul ik
A yah
ĠS amu
Ġber nyanyi
O b
ohan es
g ub
ri o
Ġt in
Ġber dosa
Ġpas t
Ġmenyimp ang
lanjut i
Ġt unjangan
Ġterj ual
Ġmenyakit i
Dok ter
uk ainya
Ġgan teng
sh are
Ġpeng orbanan
ĠT oba
Ġs aku
ĠDok umen
Ġs yar
ĠH ER
ĠK am
ol res
AN C
Ġber gantian
ĠH ip
our nal
Ġma ut
Ġas s
ĠSi apkan
ĠG ang
Ġketi ak
ĠV isi
ĠR ektor
g han
Ġsistem atis
ĠGe de
Ġg lobalisasi
Ġdi tuju
Ġter uji
W as
Ġw ayang
C o
ac y
âŀĸ âŀĸ
ur ukan
Ġi con
p agi
Ġwas it
S uka
Ġpil ot
si de
aud araan
ĠBer j
UN DANG
oc i
Ġdic uci
Ġ use
que z
ros is
rah a
fo x
Ġmenc olok
f on
ĠM b
Ġistr iku
ep i
ĠKa um
ĠL uc
ĠY es
ĠR atusan
Berl angganan
Ġmil yar
) -
Ġkontr aktor
Ġ ae
f lik
ĠPend uduk
eri al
ehabil itasi
Ġl uang
R ed
Ġk am
ĠW ay
D EN
Ġpar lemen
7 4
ĠDi baca
Ġb la
ĠTer api
y arkan
Ġper jalan
Ġr an
anggan ya
Ġpemb esaran
Ġmer indukan
ĠNap oli
Ġdi jawab
Ġsih ir
ri ca
d orong
al inya
P op
ĠT itan
Ġlog is
Ġpenyer ahan
ĠB ANG
d uran
ĠBe asiswa
Ġmobil nya
Ġbay aran
Ġsant un
ĠIsti mewa
Ġdiber lakukan
Ġal okasi
Ġg reen
ĠH ad
Ġpeng umpulan
ay am
K eber
Ġtulis annya
y ong
ĠBi arkan
aru i
v ok
aha ja
ĠC ristiano
ĠNEG ERI
Ġde veloper
usah akan
r oli
Ġpolit isi
ĠPe tugas
B AN
EMB ER
Ġbulan nya
Ġr empah
Ġme warnai
Ke nd
ĠE nt
Ġdit el
ĠPenc ipta
Ġketerl ibatan
B iar
d ro
L og
ĠMemb uka
Ġsaud aranya
Ġter atas
ĠAd u
Ġje ans
Ġn ongkrong
Ġwith draw
Ġi T
Ġmengap resiasi
Ġrespon den
Ġben teng
Ġberst atus
Ġkuant itas
Tar uhan
re nce
b ie
Ġter amat
Ġmer emas
ak um
Ġbertrans aksi
ĠE N
Ġs adari
ont alo
ĠI wan
Ġspe aker
A z
h ehehe
ĠM ang
Ġ6 9
ĠSa id
Ġf riend
Ġpeng urangan
ĠAn as
y allahu
Ġmembuat mu
Ġga gah
2 000
Ġdihad apkan
Ġsem ut
Ġkeseh arian
U ni
ektor i
- )
Ġberkons ultasi
Seb agaimana
ol f
Ġkap it
eh i
Ġp c
Ġb ia
Ġsal ju
Ġt olak
f ren
ĠR aden
c tion
ĠM elahirkan
Ġtat apan
Ġso und
Ġdigan tikan
ĠB anjir
hen tian
pen yakit
Ġkem arahan
ĠRo bert
ĠAr ema
ĠLAIN NYA
Ġas alnya
ur s
Ġha us
ade rs
Se gera
ĠTerj un
P ekerjaan
Ġdir ektur
ĠHe alth
Ġwah yu
t ika
ĠD uduk
Ġneg aranya
ĠM bah
ĠSer angan
ĠW ith
OM O
s yarat
Ġpencer ahan
Ġdij adwalkan
iz i
ob s
8 00
ASI S
AN ITA
Ġ dress
ĠH ASIL
ĠĠĠĠ ĠĠĠĠ
Ġf akultas
ĠBER S
Mel akukan
ip ulasi
ĠAp apun
ĠH AL
P ilihan
ĠB atas
ĠOl impiade
ĠJ ari
h idup
ie nce
Ġber anggapan
Ġpol usi
Ġj elly
Ġp ita
Meng gunakan
cess or
ĠB apa
Ġberisi kan
g ung
nag akerja
Ġph oto
Ġdik urangi
ar n
Ġr ame
l op
ĠNe xt
s ub
Ġsentu h
Ġtravel ing
Ġintegr itas
ĠSel esai
ĠPl ayer
ĠS or
ke mbang
ĠSpesi al
aq arah
ĠX peria
Ġh ol
Ġmemb imbing
Ġmah luk
Ġmenj el
ĠR ay
umb at
ĠGun a
B egini
Ġnet work
ĠYak ni
T UR
Ġkus am
ju ga
ĠD ub
Kas us
il y
rus akan
ĠA IR
B l
ĠKON S
Ġj eb
Ġw ifi
Ġdat aran
Ġ dh
untuk kan
Ġal is
el o
T eman
und ry
ĠRe c
Ġpendiri an
H arus
g orit
aaf kan
amp uni
ĠSport s
ĠSh olat
gl ish
Ġmod ul
ul ainya
he re
deng aran
v illa
ĠRib uan
Ġjen gger
Ġbukan kah
ĠDI Y
ĠKh asiat
H ampir
Ġber adaptasi
oso fi
Ġrez im
per ty
tul ar
Ġterl upakan
ĠKe ras
ĠK g
K atalog
I si
Ce r
Ġs tore
Ġb ohong
ĠV ir
Ġfe r
ĠD PP
Ġpinggi ran
Ġge ner
v as
IV A
Ġkek al
ĠL A
ĠC ahaya
Ġbegitu lah
Ġdis apa
AD AN
n yak
Ġn angis
Ġkar yanya
Ġpem rograman
oli o
ĠSi ze
ĠT est
Ġtek ad
ander ol
Ġmeny imak
Ġmenc ur
S um
ĠYah oo
Ġmenel usuri
Ġp ark
Ġk amb
ĠN ug
ĠMe re
ĠSi aran
Ġmeng unggah
s ele
Ġteb ing
ĠGaz a
Ġmen iru
Ġmengam alkan
ĠW ash
int aku
Ġkac au
ĠOb ama
Ġop pa
ĠH osting
ac o
Ġkel i
ĠC O
Ġmeng esankan
Ġkesemb uhan
ĠIL MU
ĠS UDAH
Ġke baya
Ġum mat
P agi
tr in
ĠJ ah
Ġjurnal is
ĠK ASIH
Ġmo yang
Ġbahw asanya
Ġsy araf
Ġmeny alah
ngg ot
ĠU nder
Ġdi sen
im ah
ĠV ale
Ġkes uburan
ĠAm ir
Ġr ub
Ġberb aring
ke d
Ġh apus
ĠR ata
Ġme dium
D L
UR U
Ġpemen uhan
Ġal m
Ġtel adan
Ġt ayangan
ĠTer minal
ĠMad rasah
T N
P eserta
dig ma
ĠS amarinda
Ġi jazah
Ġc as
naf asan
Ġberk eb
Ġte ngk
Ġdih argai
ĠFI FA
ĠT ampilkan
ĠSIS TEM
ĠPemb uat
Ġeks istensi
ĠSup plier
rus alem
nagakerja an
ust in
Ġsek elas
Ġpe bisnis
Ġm ir
sy ukur
Ġc uriga
Ġb ub
ĠPem kot
Ġs tep
AK S
ah h
ĠEk o
Ġdid orong
ĠKur sus
Ġmom ent
Ġtet es
as ti
R uang
ĠP arkir
Ġterb uru
ap ahit
Ġber tukar
Ġdip utar
ĠMen gi
ĠL ake
Ġberes iko
ĠTar get
ĠP hone
Ġpenga juan
M E
V irus
ĠAma zon
OL AH
Ġum rah
ac ap
pen sasi
Ġpenyer apan
Ġarsit ek
ĠF isika
kan dal
ĠB iro
Ġse d
Ġsem ifinal
G IN
Ġre visi
ĠDani el
d ina
Ġb lu
Ġsh al
Ġkej ujuran
ĠT indakan
Ġpen ularan
ĠN aga
ek olah
Ġdiper intahkan
os p
ĠM ie
Ġmel uas
Ġper lukan
Ġn tar
S C
angs ur
Ġm anjur
ĠP lanet
ĠK UR
ĠPen garuh
ĠP ic
Ġh am
Ġmel es
Ġ asia
Ġs utradara
Ä ģ
ĠRed aksi
Ġdrop ship
had api
Ġin isiatif
Ġkon veksi
Ġkel ancaran
ĠTiong hoa
ĠH I
Ġmen etes
Ġmem ain
E x
Ġkej am
ĠD ak
ken alan
Ġak tris
ĠAr sit
ĠT ambahkan
ĠKep ri
ĠSena yan
eke nd
Ġre gional
ĠA v
ĠD EP
ĠTel p
ro ve
ĠS osok
ĠJ og
Ġbat ubara
Ġm anggis
g ame
Ġkons ol
op ter
W asir
ĠG injal
Ġr ew
N g
h on
ĠP emenang
ĠDri ve
Ik lan
undam ental
Ġ2 12
Ġj umpai
b au
m alam
Ġins ulin
ĠN ASIONAL
Ġkub uran
eb es
lai mer
Ġter tua
ĠAt om
ĠMem ulai
uru g
dan aan
Ġsuam iku
Ġberl aga
Ġmengenal kan
Ġinform asinya
Ġb ara
mar hum
Ġterp adu
ĠZen fone
v it
Ġf oll
Ġkes em
ĠOt omatis
angs angan
A mbeien
ik ul
Ġmem ory
ay alah
ĠCali fornia
Ġber orientasi
Ġdit unjang
war ni
ĠIN TER
Ġpeme cahan
ĠAN T
ĠB aja
HP V
ĠBER B
Ġpemb unuh
Ġl aksana
un as
Ġpep aya
Ġmem aksakan
Ġkeb angsaan
Ġak bar
Ġberc anda
ĠMer asa
Ġbere aksi
Ġbir okrasi
Ġg luk
Ġterp opuler
ĠDe r
** *
Ġterob osan
ĠT utup
Ġt angkap
ĠSya fi
D o
ĠM D
Ġper main
am aku
ĠK ad
ĠKom ite
ENGK AP
Ġmod us
Ġsen gk
seb e
kas kus
cer aian
ĠS TR
ĠPer lengkapan
ag ri
ĠiT unes
ĠK arna
le nder
ekal ongan
ĠKak ak
angk is
ĠD wi
ud aranya
ĠM uj
ud ur
n at
ĠMu ara
la z
Ser ingkali
Ġu ap
Ġked ai
inc angan
ni us
il ity
ĠS AK
ĠG ading
ti gasi
ĠG et
b ila
ĠD C
Ġmember inya
ĠM alaikat
Ġsb b
ĠPe doman
Ġkegel apan
Ġmempercaya i
c laimer
ogn itif
j ahan
Ġhem or
ĠSum sel
ĠA isyah
Ġpro por
ĠP UT
Ġr ing
ia wan
Ġde retan
unt askan
indak lanjuti
Ġc ake
ĠJAW A
Ġv ol
SD M
Ġmal es
ĠTent ara
Ġj elang
Ġwid get
ar itas
Ġber diam
odoh an
ĠK amus
Ġj uri
Ġper lombaan
ĠC etak
ĠT raf
ĠDec ember
m ul
Str ategi
Ġr oot
ĠTas ikmalaya
Ġte xt
ĠD est
Ġkelihatan nya
b unga
Ġp redik
ĠB ody
ĠT ampilan
gemb iraan
co very
co ver
nc ia
Ġl elang
Ġmene n
ĠBr and
ampir kan
ĠMo j
h ub
ĠWah yu
R IS
ĠSeh un
Ter l
ĠA stra
Ġmemp roses
Ġkel aparan
Us aha
Ġp uji
Ġjangk auan
ĠP HP
Ġpencipta an
ĠM unc
Ġbisnis nya
n ormal
Ġm angga
ĠBe nda
ĠSt reet
Ġpungk as
Ġpe gangan
Ġh ost
ir uan
o dik
gand a
Ġsh ahih
.. !
ĠMen gk
Ġeks is
r utan
ĠP ustaka
istimewa an
Sel alu
ĠF an
ĠC INTA
ĠN ikah
ban k
ĠKej aksaan
p y
Ġmemper banyak
Ġkel inci
Ġman ager
q i
el g
ĠH ub
ĠIn deks
Ġk ot
Ġ199 2
M B
Ġus ul
Ġter tular
ĠD ingin
tual ang
ELIT IAN
Ġketeg angan
Ġib lis
Ġpenjelasan nya
ĠPers atuan
ĠBER ITA
Ġoff ice
ĠPDI P
Ġ6 6
Ġsem asa
K G
ĠPem an
Ġb s
p art
EM EN
Ġmemper tanyakan
Ġ199 4
Ġ elas
Pen ge
Min yak
Ġp asif
ĠEk sek
Ġper ab
P d
Ġny oba
ĠA rief
res ikan
ĠKe ju
Ġdihadi rkan
Ġy an
Ġmengan tongi
il eks
Ġmeny anyikan
pat ah
Ġsp ontan
seb ab
Ġmar ak
Ġ ebook
ĠB unuh
Ġkeju araan
ĠN aruto
Ġcl ub
Ġstab ilitas
y et
alu e
ap ain
te ga
P il
ĠT ulang
Ġw allpaper
tem p
ĠMel ayani
em o
Ġmengh indar
ĠAd sense
ĠB awa
nc il
ĠPak istan
ti onal
R ep
E J
t unggu
ĠKal imat
ip tanya
Ġke as
ĠU nc
Ġdih ubungkan
pert anyaan
et r
ete ngah
ĠS umatra
s ahabat
H ubungan
Ġj ulukan
Baik lah
Ġmenge valuasi
g il
fer ral
ĠBER K
Ġmengi dap
Ġlup ut
ĠS wasta
ĠMenge nal
Ġpel osok
Ġmengal ihkan
re as
ĠMuslim in
Ġmengus ulkan
Kes impulan
ĠPS G
ĠIk h
Ġuang nya
ĠBat ak
Go ogle
Ġfot onya
il id
ĠN Y
B okep
rit is
ĠS idang
Ġmel ak
ĠPemb erian
Ġberga ul
k apai
k m
Ġj empol
G adis
ĠAk adem
ĠD uta
ĠE dit
ĠA dik
Memb antu
ke c
Ġpengen alan
ĠK awasaki
p urna
ĠP ot
o om
ap ainya
Ġperc epatan
Ġya aa
ĠY us
Ġsi rih
Ġde f
Ġnet ral
ĠD ike
Ġanak ku
ii i
b elum
ĠMi x
elus uran
ĠM ai
r ul
Ġpengh ubung
Ġ utusan
ĠE ur
Sek itar
Ġngeb log
T ING
ij aksanaan
un k
di m
ir akan
c ript
Ġuni versal
ĠM C
p ret
ĠQ ue
L iputan
ick y
Ġmendo akan
Ġout door
Ġar mada
dag angkan
Ġp ag
amp us
as in
Ġb ot
S EM
vic es
Ġsen in
Ġrese r
H IR
turb asi
N ggak
Ġdip indahkan
RE PUBLIK
spir atif
Ġk now
eb ani
IN A
ĠYo ona
iring i
Pert andingan
ĠE c
Sin opsis
lem entasikan
W alau
ĠR uangan
ĠIb lis
ĠPenj ara
g aran
Ġpemb edahan
M aj
ĠR ub
ot kan
ange r
Ġber gi
Ġ oleskan
ĠB ai
ĠPEMB EL
Ġw ortel
Ġ( *)
ĠUp acara
Ġl ele
ĠT on
Ġk ara
Ġpenga cara
Ġpar pol
S al
Ġan ugerah
ed ang
elanja an
ĠLe ngan
OR AN
ANG AT
Ġkep ulauan
qu are
Ġmengh ir
der asi
omb ak
ver t
Ġmenghe ndaki
Ġmenc inta
is ida
Ġde t
g b
ĠAS LI
Ġki os
ant am
Ġmer am
Ġke pen
utar akan
ĠD ual
p am
Ġk uah
ta an
ĠSe jahtera
b us
Ġn ek
Ġmen ipu
Ġ20 20
! .
Ġt um
ĠBah agia
rah am
ĠB UR
Ġg h
Y AR
Ġc angkir
Ġmen anamkan
makan an
Ġr aih
Ġkh asiatnya
ĠM itsubishi
up ayakan
ĠPeng adaan
ce ran
oc o
ĠR un
Pro fil
ĠS uasana
wanita an
A yat
Ġpeny alahgunaan
Ġperb uatannya
ser ing
ĠR ute
Ġmudah nya
ĠBas uki
Ġkel ulusan
jawab an
Pas al
ĠD et
Ġup grade
ance r
ĠDa ihatsu
Ġke ilmuan
tab ek
ĠKebe tulan
and om
ĠHi jab
ar aku
raj in
Ġdi und
ĠE L
Ġfam iliar
ĠW all
ĠM ENT
AL ISIS
Ġkeber adaannya
ien s
Ġmenjauh i
ĠR ai
p ara
c ayakan
Ġback link
Ġimp ort
Ġgel ang
ĠNe ymar
G aya
Ġpemin at
Ġberl awanan
n us
Ġl ob
Ġsk uat
Ġpro vider
Ġmen ata
peng etahuan
is aran
it im
mas yarakat
Ġdisel uruh
ile ngkapi
ĠO li
ag is
ĠP intar
Ġberp esan
Ġres t
ode tabek
ĠF okus
Ġmet al
angk uk
Ġs ingkatan
rak tik
ub lis
Ġdi tinggal
Ġangk ot
SM K
Ġdik on
Ġeksek usi
Ġent ri
geng si
Ġvi ew
al al
nc h
ĠP asien
ingg o
Ġkes alah
T utorial
Ġketah uan
ari fikasi
ĠPa ulus
ĠHe ro
Kep ada
ĠCor por
ek u
Sek olah
Se jumlah
m all
ĠAb bas
ĠIs mail
ob udur
ĠMeng el
Ġpos ter
ĠDis e
ĠIT B
ON E
ĠJ us
. âĢĻ
Ġalami ah
Ġas asi
ĠB eserta
Ġsamb ungan
Ġbi c
ĠTAN PA
ĠMer api
ĠJ abatan
Ġpen ataan
Ġdijalan i
Ġo ven
ĠSEM UA
emb ak
Ġter igu
Ġterl anjur
Ġangg apan
Ġsta ff
ĠC a
H AT
v ol
Ġ7 3
Ġkos t
Ġman i
or der
Ġper orangan
Ġbe ta
ĠAS N
Ġdengan ku
Ġp angkat
ĠKo ordinator
Ġpil ar
ĠPEN ELITIAN
Ġc emburu
Ġkem ari
Ġas as
Ġp ublic
Ġp ari
Ġdengan mu
l eks
T inggal
Ġh ub
gai b
ĠTr ulum
Ġmend ing
Ġsin ilah
Ġk ristal
Ġblog ging
b iaya
ĠiP ad
Ġkip as
Ġlingkungan nya
aram kan
Ġdi wujudkan
S N
DA YA
Ġsen ti
Ġmemain kannya
Ġkompr ehensif
Ġkerag uan
G R
ĠL ite
Ġresep si
Ġmenyeg arkan
ĠP laza
Ġun dian
Ġpemb awa
ĠP KI
Ġ12 8
ĠG ara
ĠC afe
Ġ3 50
Ġh ir
ĠP B
Ġdike ndalikan
Ġme gah
ĠG imana
Ġmenjel ma
Ġsim ulasi
ungg uhan
at s
k um
emat kan
ĠK AS
Ġch ips
D asar
pe du
Ġik at
Ġmem ukau
Benar kah
ong s
Ġditem ani
Ġs ite
Ġh appy
ĠKEL AS
ĠTransp ortasi
ĠSe nang
ĠVic tor
ĠDuk ungan
Ġ9 8
Ġur l
c opy
ĠJaya pura
Ġs ujud
Ġh onorer
Ġ ndak
ĠMadi un
Ġbertanggung jawab
Ġdita yangkan
AS S
ĠDe finisi
ung e
+ +
ĠA ja
Ġgen it
ĠPel aksana
aras umber
I F
Ġj um
ahagi akan
ĠKe ti
Ġkel ola
ĠBel ilah
Us ai
ĠKup ang
ĠT ik
ĠSeks ual
ĠD oc
ilan sir
OG RAM
Ke perluan
Ġdike nang
Ġmemper lakukan
Ġim ajinasi
Ġsetelah nya
Ġter depan
ĠSal uran
Ġmend aki
Ġkomp ak
ay oran
ĠM ineral
Angg ota
Ġberb ohong
Ġf igur
Ġmeny ita
K h
ĠU L
Ġc uc
ĠLe vel
ĠB ugil
Ġj amin
Ġpel uru
ĠB AT
Ġsamp ingan
Ã Ĥ
Ġseks ama
ĠH is
Ġkap ten
eli jen
li kan
ac ita
ĠIn c
j ukan
! )
ĠSain t
p ap
M antan
q ah
Ġbagi mu
eb arkan
Ġbi ologi
Ġk n
Ġdikel ilingi
B aju
os ari
ĠR oy
T elah
ĠDe velopment
Ġar sip
ep asan
U C
ĠSem pat
g ue
O O
Ġpen gabdian
Ġk uc
m inya
ek usi
Ġkemen terian
ĠZ at
Ġdek et
Ġs n
Ġperb elanjaan
Ġwis uda
Barang siapa
Ġke ajaiban
Ġpe tir
Ġm ont
Ġpas por
ĠR okok
Ġper debatan
ĠHal l
Ġmeme cah
Ġmak lum
ĠM id
Ġru am
Ġa z
ĠCh i
) )
us ui
ĠM ada
ol asi
ĠD arat
Keter angan
tab el
Ġkis ta
Ġobat nya
Per empuan
ĠB UPATI
Ġp ic
ĠKon trak
k am
Ġst one
AY ANAN
Â ²
Ġtump ukan
ĠPas ukan
ram kan
ĠBet apa
Ġfik si
g ari
ĠR aj
ĠRespon se
Ġput ar
ĠS usah
Ġhis tor
ĠMari o
P unya
REPUBLIK A
y id
ĠS ATU
Ġl ow
Ġlemb aran
Ġk riminal
Ġ3 60
s ay
ĠT KI
ĠPas ca
ĠDem okrasi
ing o
Ġmal em
Ġsel ang
OK O
p ay
Ġkap ur
Ġmemper b
ĠSel e
Ġsa ing
ĠPol it
te ro
Ġsup ir
Ġpenerb itan
ĠPas sword
Ġdiper untukkan
lemb aga
adhi yallahu
ĠPe p
mem ang
Ġpeneg ak
Ġper gel
if f
USAHA AN
ĠL un
ĠP UL
rit eria
em ur
uk ir
ese kan
Ġmen angg
Ġko alisi
Ġkonf igurasi
ĠT j
ĠY og
Ġki at
ĠKer jasama
Ġt am
Ġuntuk ku
ig n
ĠY aman
ĠSo e
Ġ ÙĪ
ĠStat istik
Ġob rolan
ĠMaj apahit
s oo
ve i
Ġr aj
Ġberjalan nya
ONG AN
D oa
ĠSe dih
Ġpas rah
Ġg u
ĠInt inya
ip kan
ĠP N
Ġkak aknya
ĠAs osiasi
Ġmenc icipi
ĠKep utihan
ĠM PR
tr y
Ġberb uah
ENG AH
Ġpenc inta
Ant ara
ete ran
Ġsah ur
Ġimb alan
Ġberj enis
Ġo jek
ĠL atin
ĠBra zil
ur ant
Ġberb incang
ĠInstitu te
am eter
Ġj atah
ĠPri mer
Sed ang
Ġpen datang
d ateng
Ġword press
ĠZ odiak
ĠH UB
Ġperp anjangan
Ġout let
] ,
ĠKeb akaran
meng h
ĠU ser
ent unya
ĠP arah
atan an
Ġmenyus uri
k ur
ĠS IT
ĠV agina
ĠðŁ ĳ
Ġmengag umkan
au p
Ġmem acu
Ġtangk i
ink ron
Ġmengin stal
Ġber di
H ubungi
Men j
ĠBo jonegoro
Ġprib adinya
Ġterbentuk nya
ĠM and
ĠTer update
ĠR C
Ġdiba yarkan
ger alah
eker asan
Ġce ramah
w ari
b ih
in ik
ĠP ink
Ġorgan isme
Ġnas ehat
li gasi
in n
ĠT ul
ĠPro duc
Ġy og
ĠP ekalongan
Ġge nd
Ġmen inggi
lah i
ut at
ĠL aw
Ġka us
Ġl aksanakan
ĠB om
ĠDir ec
on im
uran i
Ġkekasih nya
Ġdil atih
Ġkuat ir
D om
Peng umuman
Ġb ran
ĠPres tasi
Ġmel emb
Ġe di
os hi
p df
sc ri
Ġpener angan
S impan
ĠProf es
Ġmer tua
Ġdi download
lo gan
P es
j aman
an hu
ĠMak na
Ħ ¢
G ue
ĠJer uk
Ġber obat
ĠS N
ĠSek tor
ĠL abel
Ġan y
Ġdih ilangkan
Ġback ground
UL IS
ort mund
jaya an
un tain
Ġsekolah nya
Ġbertek ad
Ġmendes ain
Ġpeng lihat
Ġsengk eta
ep ung
ĠT ip
Ġmemb ina
ĠH appy
Ġpenc emaran
tul isan
ben g
ĠY i
ĠJ on
K PK
ĠD onald
ĠS OL
Ġamin o
be rikan
Ġbertem a
Ġdiper tahankan
ĠK um
nd ung
Ġpeng k
ĠDil ihat
e rs
Ek onomi
8 1
ĠL ight
rho id
EK A
Ġat ribut
ĠS tep
ĠT unggal
Ġsiap akah
ĠMem ahami
Ġc ustom
Ġblog nya
ĠSE BAGAI
Ġcap sa
ĠK oran
is lam
Ġsen git
Ġq q
Ġpanjang nya
nar ik
ĠMana jer
Ġsak ing
Kab upaten
ĠB id
Ġmenge nd
F il
ĠL ou
Ġdi unggah
H indari
ĠKlas ik
AR E
ĠSing le
av as
ĠSeri bu
ĠSo f
ĠBay angkan
ĠA PA
Ġdi ag
Ġkes akitan
E n
ĠH ij
ĠMen imbang
Ġsesuai kan
Ġber getar
ĠR oll
w is
ok asikan
ĠJadi lah
ĠBal as
ĠL AGU
ĠD aw
Ġper nafasan
Ġmengi zinkan
Ġdi imp
Ġ19 70
ĠJ ak
Ġreg uler
ĠKep em
Ġ16 0
Ġmen ungg
Ġjenis nya
Ġp ublikasi
Ġmel un
Ġ dateng
ĠPer ti
ĠT oh
Ġs pecial
Ġke bawah
Ġbe dak
Ġt injauan
e ring
ĠE F
ĠT ali
gorit ma
Ġ gaib
Ġp p
Ġ Ã¢
Ġmenel epon
ĠSM AN
Ġmula ilah
ĠP ra
Ġter tu
Ġbes utan
ĠKar angan
ĠAB G
Ġli ang
Ġa urat
ta urant
Ġpap arnya
ĠMar ch
ĠY G
ĠD al
cer ai
ebr uary
Ġdon k
d n
ot asi
ud uh
Ø ¨
Bay i
K K
Ġsen ja
it at
Ġmer edakan
Per ubahan
B onus
in formasi
Ġmem ulihkan
AB AYA
eg ram
ekt ro
b ahkan
P antai
ĠDil arang
ny ah
W P
Ġun juk
Ġare al
ingk ari
Ġdin amika
Ġbert ak
dur asi
ĠPEM ERINTAH
Ġban ner
Ġmengh iasi
p ly
Ġpuc at
Ġpenyimp angan
ĠNe nek
K adang
Ġl ib
Ġk amus
Ġter henti
.. "
Ġmengi mp
Ġob servasi
Ġt ungg
ntu han
Ġterb uruk
men jadi
Ġvi dio
ir it
ĠK ub
in nya
rat on
Ġdi iringi
ĠG ur
N ew
Ġkec ap
ga ji
Ġdiper kuat
eka an
ĠJo on
ger s
odi m
Ġmel ulu
ĠD iduga
ĠG onore
ĠS leman
Â ł
ak ir
Ġjar aknya
Ġf air
ĠKem ungkinan
ĠRom awi
ĠR obot
ĠB lo
Ġke tawa
iz inkan
ĠMas ak
ĠK rim
og ok
Ġro om
Ġ dadu
ĠM AH
Kons ep
Ġdi pec
Ġsekeliling nya
Q L
Ġmenc arinya
ĠG P
ĠPo tensi
j emah
ĠSw t
Ġe ropa
AN S
ĠPenc egahan
Ġmendalam i
Ġper okok
Ġberke inginan
Ġdil antik
if ah
G ak
oc ol
w atkan
ĠK ambing
ĠIn stal
ĠPember dayaan
Ġpast ilah
r t
Ġked aulatan
Ġmeny uguhkan
Ġdig it
ĠLihat lah
ĠRid wan
Ġorang tuanya
Ġmenge dit
On line
rof esi
ĠBoc ah
T entunya
Ber beda
Ġdit andatangani
ag aman
ĠJ ujur
Ġ08 5
ĠPR OV
Ġpeme ran
B u
ĠTer c
ĠB ap
f ollow
Ġmemb alik
ĠR udi
Ġdip ake
AN I
Ġ' '
Ġf iq
oks ida
s tore
Ġn emu
van za
9 7
Ġgun anya
ud ra
Ġpe w
Ġmeng unakan
Ġpem ukiman
Ġnot ebook
Ġâ ľ
om ing
ĠB O
Ġtemb aga
Ġdiri wayatkan
ill oma
ĠGe orge
Y AT
art h
J AM
Ġmem aafkan
ventu re
Ġeks pedisi
ĠPasif ik
Ġmeng angkut
Ġkat alog
k un
tulis kan
od aan
eb abkan
gan egara
ĠOb jek
M ad
inc ar
g atal
Ġter lahir
Ġm uh
ul tur
Ġterj alin
ĠPro pinsi
ar o
Ġruk un
Ġl ife
ĠK ajian
Ġsup orter
ĠB ill
Ak si
ĠF AK
Ġc are
Ġ7 20
tim un
m anya
ĠInd osat
Ġber gengsi
Ġkreatif itas
Ġman agement
ĠA ch
ĠP ikiran
Ġat ur
ĠAd ha
p elan
m or
Ġpeneg akan
Ġq iu
ĠNis san
eb el
ĠAn war
Ġkunjungan nya
Ġgi at
W W
ĠB UKAN
Ġping san
d ram
ic au
ĠMah al
Ġtr ack
ĠX P
Ġbers amanya
Ġ elit
Ġterh ormat
ĠT indak
Ġmencatat kan
Ġlog istik
ĠMuslim ah
Ġj anda
ĠBed a
Ġc lient
Ġbel asan
ken ankan
es h
ĠK AL
Ġpel angsing
Ġde fault
Ġnam ja
Ġb ra
q wa
Ġpara graf
ĠOff icial
w ich
auh an
Ġterp utus
200 7
gaw aian
ĠHer pes
Ġmen erim
B O
ĠTh anks
in ambungan
Ġb ilas
ĠSak ti
Ġkul ihat
Ġde til
form a
ĠG ran
pl us
Ġrum ahan
ses i
Ġsumber nya
pan si
ĠAp artemen
y s
od ay
ĠSar ana
disk usikan
l ong
ta inya
Ġre novasi
ingk uhan
Ġdon geng
p ong
Ġber tepatan
Ġke gembiraan
Ġlap or
Ġj ihad
Ġw aris
Ġgen ap
ĠR isiko
Ġ uda
Ġlahir nya
ĠKel autan
ĠBEL AJAR
Ġsu ap
Ġpert anggung
Ġdik alangan
Ġgan as
Ġdip adukan
Ġmen ampakkan
ĠCh ic
Ġmenyemp urnakan
oa x
ĠGener al
pos t
Ġpeny ampaian
az ia
Ġmeng adopsi
Ġpr aktisi
Ġpikir annya
ĠH arap
is it
Ġber tiga
ĠVi ew
Ġseg itiga
Ġbi g
ter us
ĠRe ndah
ore ngan
Ġna ungan
B erikan
Ġmah kota
am amu
t etapi
ĠSes uatu
iri h
ĠG anti
le e
Ġr ating
Ġr awat
Ġbuk tikan
Ġberl ubang
z u
Ġgand um
Ġdiba c
Ġsuper market
ĠTour s
Ġmel ukis
ĠAb dur
alu annya
ĠOr de
Ġkel angsungan
ĠKro asia
ap h
ic ester
Ġter bawa
Ġram alan
ĠSain s
ĠH ebat
ĠT ra
Ġsel ingkuh
Ġke an
ĠAK BP
ĠK ir
Ġleb ah
iti ve
ĠK acang
ĠEver ton
Ġpe c
te ch
Ġkat aku
k ati
Ġs kenario
tumb uh
te ntang
Ġfl ek
Ġsal on
ĠF a
Dik atakan
ĠTer asa
ĠPer ilaku
ĠM ikro
Ġter gel
ĠWi Fi
S UR
Ġsh ort
Ġp df
Ġkehar usan
O A
Ġn ambah
Ġkel anjutan
ĠSo ft
ĠTek nis
ĠU IN
ĠG ila
Ġh ongkong
Ġb ap
el asi
ĠHin dia
ĠS C
ĠU b
ĠMAN USIA
Ġpengan tar
owe rs
ĠUs ah
ĠH air
ĠPer siapan
Ġs oda
T a
B ACA
S akit
an ing
Ġdep artemen
ĠS AB
Ġkeb urukan
Ġb iro
Ġmeng operasikan
ĠTim or
Ġmem etik
Ġpembers ihan
ĠW ANITA
==== ====
ĠB ARAT
Pe ran
ĠHar am
Ġjudul nya
B unga
Ġin ch
Mus lim
ĠSeh arusnya
ĠH ehe
Ġmenyis akan
ny amanan
N abi
ĠC obalah
ĠKap asitas
Ġterj angkit
Ġp H
Em pat
ĠH ANYA
Ġmeng asih
Ġp ack
ur ban
ĠKeh amilan
duk si
ĠK ombinasi
Ġkh us
Ġcoba an
Ġdi ur
ĠO il
p op
as ter
Ġid ola
dan i
ĠS ulai
Ġm int
ĠKe mb
Ġlegend aris
ĠPe duli
temp orer
Ġn it
ĠL umpur
op ol
ir d
Ġ6 2
ĠY an
ĠYo on
Dir ektur
Ġkor up
B upati
ĠPis ang
ĠB ani
ĠFl or
Ġpers elis
angk ang
W I
Ġsem udah
ĠDI A
ĠB aga
ed ot
Ġl aser
Ġstandar d
ĠTag s
sh ow
Ġkend ati
es ahan
Ġkem unculan
Ġkompl ek
Ġmendengar nya
Ġpi xel
Ġkol aborasi
ĠSem i
Ġkeb angkitan
Ġdiser ang
or ok
ce waan
Ġmes um
K andungan
Ġb atal
ĠB ale
I de
Ġp ram
Ġlemb ah
ver se
r ini
ĠR ental
ĠDi antaranya
um sinya
Si ap
Ke untungan
Ġb reak
Ġtan k
Ġman akah
uli akan
ĠG ampang
ĠL idah
ĠH urai
Ġ6 8
Ġur ine
eg asi
ch at
Ġmah ir
ĠAl hasil
Ġdilepas kan
ðŁ ĳ
Ġmencer ahkan
ĠE jakulasi
ĠBa ek
rep reneur
a us
ĠPro ject
Ġmeny empatkan
Ġan tivirus
ĠMe di
af siran
ĠKons titusi
Ġmeng ger
ĠP apa
Ġmeme nangi
Ġamb isi
ĠBenar kah
B AND
Re ad
Ġber senang
Ġmem injam
ĠRe volusi
ĠBlu etooth
Ġmenj umpai
anc ial
ĠPh otoshop
ĠAme rican
Keb anyakan
ĠBak teri
ĠPenyebab nya
ir at
ĠI G
Ġlap is
G un
amin asi
p us
Ġke ingin
ĠBer hubungan
S olusi
ĠP agar
ĠWen ger
Ġmen abung
ap usan
Ġn ekat
Ġb odi
Ġmengor bankan
ĠD ortmund
op ak
mid zi
Ġmeny elidiki
ĠAri f
N as
Ġmenab rak
Ġdem okratis
ĠMEN JADI
Ġman ufaktur
Ġdit anggung
Ġpenya jian
Ġdip osting
Ġchat ting
Ġbertem an
id s
y asan
Ġar teri
ĠM aksudnya
ak ala
Ġoleh nya
Ġj aw
ĠKi ai
Ġ: (
Ġk ognitif
Li ga
Ġkanan nya
9 4
ro mb
ĠRah mat
ĠP I
Ġkec emasan
ĠS andi
Ġte ga
re i
Ġneg osiasi
ĠS yar
laz ada
Ġkes usahan
Ġc intanya
T ambahkan
P H
Seg ala
Ġsis wi
Ġporn ografi
Dis ini
dul ikan
at angan
Ġper hati
Ġb olak
g uh
Ġg amb
ma ga
Ġmasyarakat nya
Ġmeng gemb
Ġmemat uhi
ĠBIS NIS
Ġgol d
L ain
ĠJawab annya
ĠEl ektr
ĠP esanan
ĠWar ung
gi o
ĠC hen
ĠK asino
Ġs mp
AT ANG
ASI NO
ĠMenye diakan
Ġv illa
ĠMen ambah
ĠP ati
Ġmeny alakan
J an
ĠH ulu
Ġrum or
ip uti
Ġv eg
O ff
Ġmenghe rankan
ĠB rit
Ġterpe ncil
Ġc iptakan
Ġboc oran
ĠM eter
Ġpemb angkit
Ġr angsangan
ĠKeb umen
ĠR ing
ĠKari r
Ġpend ingin
ĠTele visi
g ol
our ce
ner s
m n
Ġis yarat
ĠL t
Ġber untun
ind as
ĠT at
ĠIk atan
est an
Ġfot ografer
ĠM AR
ĠBer cinta
Ġhor or
K PU
ĠT afsir
ĠPas tinya
Ġdic egah
P osisi
ĠPal ace
aris asi
Ġce ritakan
Ġseb anding
O ne
ĠID R
us s
R o
Ġsil inder
ke cuali
urut an
IN FO
Ġad sense
Ġdr um
al im
Ġaq iqah
si c
res entasikan
k ara
Ġc urah
hh hh
emb ung
ĠO ld
Ġdic uri
ĠPenge ndalian
ĠK unjungan
ĠBer jalan
Ġmengk aji
Ġib uku
Per hatikan
ĠR ach
ĠMar quez
wit ch
âĢ¦ ,
Ġmen usuk
ĠG izi
lo itasi
Ġeks perimen
ĠBAN K
ĠMen dengar
ĠKeh utanan
Ġl awannya
ĠYah ya
Ġperk uliahan
emer lang
Ġata ukah
etah un
Ġmemb ahagiakan
Ġpemb acaan
ĠMart in
Ġa uto
C on
Ġkur ir
Ġpeng amat
Ġperp isahan
OM I
Ġdius ung
ĠS on
Ġpemb ebasan
v okasi
P EM
d og
ĠH ehehe
ĠHal o
Ġmencintai mu
ĠHAR US
ses at
Ġsek ira
amu gari
Ġ gantung
Kar tu
Ġkek inian
Ġber durasi
Ġelas tis
Ġkem arau
ĠM utu
S up
Ġm it
Ġmil l
ur g
ĠF ad
Ġke tr
Ġwar net
ĠSh i
K arya
ort al
Ġpene ntu
Ġtah ukah
ANG KA
EK SI
Ġperb incangan
Ġmena iki
Ġgluk osa
ĠC im
A U
ikm atnya
s isa
ĠDi gunakan
y el
Ġ ih
Ġt unjukkan
Ġdetail nya
ori z
su ara
Ġa ura
ĠB EN
Ġdib anderol
n alan
ak m
Ġdiser ap
ĠTe kanan
Ġli ber
ĠBer arti
Ġh its
K L
ĠCan on
j urkan
Peng h
Ġseber ang
ul es
D M
ĠSe villa
ĠVeg as
Ġ1 30
Ġl angsing
Ġlel uhur
Ġkes empurnaan
ĠE valuasi
ĠPeng umuman
Ġpen deta
Ġterl aksana
ch ool
Ġmel ukai
ĠC PU
ĠPembel ian
ĠH ahaha
ĠSer ba
K alian
Ġmeny ehatkan
ĠPAL ING
ĠBi ologi
vil le
na ck
Ġori entasi
ĠPen jual
ĠBor obudur
oo o
Ġm aen
Ġke enam
ĠTe nang
ala ba
Ġberb akat
yek h
ĠGor ontalo
Ġj ob
, âĢĻâĢĻ
Ġmak si
E E
ĠDom pet
ĠB ADAN
Ġditer uskan
ĠCom ments
z one
Ġak ting
Mat eri
Ġnaf kah
ig o
nah i
eks ekusi
L a
ĠS r
Ġba ya
uali fikasi
ĠHurai rah
Ġterbe nam
Ġm onster
unc inya
Kel uarga
ul uki
Ġl upakan
OS T
ip a
or dan
Ġsun tikan
Mana jemen
Ġpacar nya
Ġberp aling
if or
K oleksi
Ġi on
ĠL ahan
ĠRe formasi
ize r
Ġmenak lukkan
se ri
Ġilm unya
be ne
ĠH az
¸ ı
Ġw ir
Ġmem ent
Ġkeb ohongan
Ġbus a
ĠP H
ha z
Ġkem aluannya
Ġper kantoran
P J
av i
us ukan
ĠH its
ĠPengan tin
ĠPer men
h ur
f akta
ĠWash ington
Ġber tuliskan
al aku
Ġre jeki
orm as
Ġr aw
Ġdiab aikan
M al
p rediksi
em ail
P ay
ĠM irip
Ġsor otan
Ġsy uting
inc are
ad min
ĠD aily
ĠPROV INSI
ĠS inga
om ent
Ġtidur nya
n sial
ĠPenerb angan
Ġke w
K ulit
s age
Ġkh alifah
ĠH abis
S ahabat
Ġr otan
dr agon
Ġk antung
Ġmeng emudi
Ġ `
ĠAs isten
Ġt tg
Ġsaksi kan
Ġsepat utnya
ber s
âĢĶ âĢĶ
Ġr ileks
amb akan
Ġmenye dihkan
eg ar
ĠBany umas
nal pot
ingk u
Ġver bal
uk nya
Ġgej alanya
Ġper empat
kan ak
lec tion
Ġ6 3
ngk ak
Ġw r
âĢ İ
anyak u
Ġmemb anggakan
ĠJ apan
Ġmemper gunakan
Ġter isi
Ġ199 3
ĠTAN AH
Ġmem utihkan
ĠH ana
ĠL emak
ĠNy eri
Ġw h
% )
Ġkec anduan
Ġke utamaan
Ġsis inya
Ġperi zinan
Ġke nakan
sen tif
ĠM ainan
ĠBer henti
oo per
Ġres pons
ubl ish
ĠL ady
Ġbel om
Ġpar ameter
ĠH uman
P ulau
ter s
Ġter tekan
ĠBe auty
an n
ti al
Ġr oll
Ġmengemb ang
Ġket ebalan
Ġdis trik
ĠAk ad
ĠJ aksa
Ġpo und
ĠMe nya
ĠSAM PAI
Ġpers audaraan
Ġdi derita
ain e
Ġter tipu
ĠB aris
ik opter
ĠRi wayat
Ġh ihi
ĠC ita
h ot
Ġterb ebas
Ġmenga wal
ĠðŁĺ ī
ot akan
Ġpel akunya
ĠTer tinggi
Ġkeper awatan
u it
Ġkeb esaran
ĠM AL
T H
Ġj et
Ġmengur as
uc apan
ĠA duk
ĠSe cur
Ġkasus nya
Ġkes aksian
ĠKari mun
ĠN atural
Ġterse rah
OR ANG
ĠT anggung
ĠB oot
is aris
ĠKons truksi
Ġres minya
Ġsel imut
nd uh
Ġdise tiap
l angga
ĠKes atuan
Ġpen dak
ĠBl itar
l ow
ĠMEMB UAT
ĠEnter tainment
ĠWilli am
nc angkan
ĠKom petisi
Ġcic ilan
Ġdik hawatirkan
ĠPr inter
cer min
Ġperse roan
Ġs ikat
ĠCil acap
ĠMen ak
Ġs ingkong
ĠVale ncia
Ġis lami
Ù ĥ
ĠAngk at
Ġsek uat
Ġrakyat nya
Ġte ater
ĠKE H
Ġm ap
Ġkem itraan
Ġpem otongan
Ġpol y
atakan lah
keb unan
Ġperut nya
Ġjem aat
ĠBer n
Ġberb ah
Ġab out
ĠAc cess
Ġf aham
Ġag amanya
OB AT
Ġkale n
C ar
as ik
Ġmel uangkan
ĠL oker
ĠPen asaran
Ġ dram
ĠBA IK
Ġgur unya
Ġm Ah
Ġ? âĢĿ
E l
ĠJ ilbab
Ġdit onton
Ġs urut
Ġpingg ul
ĠG ua
Ø ³
ategori zed
Ġant ik
ĠCh rist
ari d
akar ya
B andung
bi asanya
t arikan
ĠL it
Ġj og
Ġpeny aluran
ĠA ugust
M otor
Ġkutip an
Ġsen g
Ġlap ang
Ġkesep ian
Ġputr inya
ob ol
itip an
Jadi lah
ĠPem andangan
Ġ; )
AK I
ahaya an
der s
ĠPri me
re z
Ġj eda
Ġpe lemb
Ġbers audara
Ġmem otret
Ġkh al
Ġbertambah nya
Ġhid ayah
âĢ¦ âĢ¦.
ot ing
men urut
Ġjaj anan
amp o
ĠT olong
Ġt or
ĠPet ani
Ġber dirinya
il ati
Ġkal ung
ĠPER USAHAAN
Ġris alah
om asi
Ġt ot
Ġpos tur
ĠW ed
ĠSt yle
ĠT arif
TI V
Ġberpe gang
ĠPengaw asan
Ġh oax
osi alisasi
angk iti
ï »
Ġl angganan
Ġ7 7
is kan
ĠPe nya
Jadi kan
fe rence
ĠT am
N U
ĠB ina
up le
ho u
ir ingan
ĠN ormal
ĠF isik
Ġh ijrah
ĠSe ung
mb au
Ġberl impah
ĠDij amin
Ġperselis ihan
Ġ7 8
ĠMemb eri
Pro f
Ġkar at
ĠPA UD
ĠR ap
ĠEn glish
et in
Ġpel at
Ġdibe narkan
Ġf undamental
Ġko per
Ġs pa
O lahraga
is y
ategori kan
E s
Ġdok umentasi
ĠKun o
ĠM ont
ow der
Hadi ts
S amsung
ĠT iens
di ola
ĠBantu l
Ġpenyi dikan
Ġâ Ļ
Ġsel am
ĠIskan dar
Ġongk ir
ĠMe dic
w ara
Ġget aran
ANA AN
qu id
ol it
op le
ĠGam ing
ĠF au
urut kan
Ġ6 7
Ġpemb ek
Ġkalen g
Ġhemor rhoid
im o
Ġaman at
Ġmakan annya
ĠCh rome
Ġpeng angkatan
EMB ANGAN
ĠMENT ERI
Ġt atanan
ĠB uatan
ĠAN G
ĠC ode
ĠP rat
ĠKec epatan
UL U
ĠIs land
âĢ ĭ
Ad min
ug uran
o be
Ġberse peda
Ġpel aporan
ĠSEK OLAH
Ġseksual nya
ul at
Ġ8 6
Ġpenja jahan
ob ar
ĠIn n
p n
dik a
Ġstar tup
ar no
ĠJ ombang
r aktek
M AK
Ġkuar tal
eb atnya
Ġpen dengar
Ġterke cil
B intang
Ġmeminim alisir
ĠAparat ur
Ġc op
Ġto ols
ĠHer man
ĠV II
t itik
Ġmel estarikan
Ġm uat
ĠN ikmati
Ġmerek rut
ak ses
Ġkab ut
Ġt auhid
ĠKab el
Ġmemb uk
Ġp atuh
Ġpemas ok
Ġm ingguan
Ġpenga jian
Ġto uch
Ġterk on
Ġw in
ĠK UL
te na
Ġne r
si ve
Ġkec urangan
A sia
P asar
ĠW ell
ĠPan el
aun a
Ġak tual
Ġmemilik inya
ses uai
Ġmengh ina
Ġke damaian
ĠT aj
Ġkeli atan
Ġm b
ĠG on
ĠMA X
ari r
i dan
ĠS ARA
Ġmem ad
Ø ª
Ġkomp or
os et
Ġm oney
Ġser asa
ĠSeti a
Ġdit eliti
ĠKes empatan
Ġdi tumb
ĠTrip Advisor
â ĺ
ul asikan
ĠC N
g ku
W AL
T ata
air kan
y es
ph p
ris asi
Ġpen sil
Ġw ak
Ġbia yanya
Ġmaj ikan
Ġber acun
ĠCh ris
ĠS it
ĠDI RI
Ġkem iri
Men u
Ġbah asan
ĠPen umbuh
t angan
Ġkir inya
ED AN
oren zo
Ġke seb
m ian
Ġlo e
Ġc ewe
ĠPas uruan
Ġpen ikmat
Ġdi izinkan
ĠAs ma
Ġdeb ut
sek ali
9 3
ĠMengh asilkan
ĠMen jual
l atan
sek itar
Ġpemak aman
ĠBe ach
ĠValent ine
il le
Ġsel aput
Ġber senjata
ĠDit angkap
Ġne ur
Ġl aten
Ġpertem anan
T IM
ing ungkan
ĠY ong
bo und
ĠS and
Ġatmos fer
Ġturun nya
Ġf utsal
Ġdik ehe
ĠKamp anye
Ġlong gar
Ġ[ ...]
ĠB ara
ore jo
ĠB uang
Ġinter vensi
olo mb
b angsa
Ġw hatsapp
ti a
ĠP ress
um am
Ġdis aksikan
hat in
ESI DEN
memb uat
Ġtes timoni
Ġya yasan
dahul ui
ĠLe icester
uk us
p il
ĠV iral
Ġbernaf as
ĠSoc ial
Ġs urah
b ukti
Ke rja
Ġketr ampilan
Ġberse mbunyi
U ANG
fir m
ar ung
ĠT B
fo od
ho yono
te e
Ġre ady
ĠMic ro
Ġfilm nya
Ġgam ing
Ġn avigasi
ic y
ĠE li
Ġpen elusuran
ĠKal tim
ĠMend apat
ĠAkadem ik
ĠKem ent
Ins ya
ĠPenc ari
ĠT uban
ul ur
lasi fikasi
ĠD urasi
Ġmeny ikapi
Ġmer agukan
oter api
ĠMemper baiki
Ġt ut
j ara
Ġdi pat
ĠF L
ĠRo ti
Ġmengg eleng
Ġp ist
ĠR UU
el ajar
ĠMeng ubah
Ġnger asa
is in
ib ril
Ġst iker
ĠAc tion
Ġke wanitaan
per awatan
Ġpelaksana annya
ĠBr oker
ĠYe rusalem
ĠM emen
Ġc ina
B antu
Ġpenj ahat
Ġgi rl
inc ir
Ġsepen uh
ep ort
SEL AMAT
Ġke ak
Ġk umpul
B UT
Ġsel ayaknya
ĠH at
akhir nya
Ġmel acak
ĠH il
ĠPem d
Pen jelasan
Ġmad rasah
Ġso urce
D PR
ot ton
Ġmengan jurkan
ĠKu ota
ĠPro sedur
ĠL ike
Ġpe lec
a id
Ġi dentifikasi
Ġt araf
s man
oot ball
â ľ
ĠPemd a
ĠY ohanes
Ġmel apor
Ġsumber daya
Ġmeny et
tik et
Ġpet ang
Ġor de
u gah
Ġap likasinya
S ES
Ġberke nalan
Ġter indah
Ġketer kaitan
Ġbert olak
Ġpenis nya
AI AN
Ġmengund urkan
ĠG AM
Ġkonser vasi
Ġust adz
9 2
Ġsel ler
p ulau
ti daknya
Ġj emaah
ĠGol den
Ġpen ampakan
AJ IB
ds os
Ġkedi aman
ele kan
Ġmenyes atkan
S O
Ġmel empar
Ġpel antikan
EN IS
ĠMek kah
^ ^
ib ar
ĠF riend
Ġumur nya
ĠD E
Ġmemb iayai
ĠJ arang
Ber sama
Ġberk elas
ĠKUH P
t es
Ġr udal
f ree
ĠR ating
ĠD ASAR
urus kan
Ġab orsi
ĠKon tr
Ġc re
ĠH antu
ĠMoj okerto
Ġber be
ĠBo e
ĠG w
Ġartikel nya
AK AT
Sab tu
D ah
ĠF urniture
A wal
let ing
Ġt ipu
ĠU rat
Ġmenge nang
Ġberj amaah
ĠMET ODE
Ġbe nturan
ĠAnt oni
Ġok s
Ġb oy
A bu
Ġl ampau
Ġre fleksi
Ġmem amerkan
ti aan
in ang
pe e
Ġch art
Ġmenjauh kan
b h
ĠNov anto
Ġkon yol
Ġtanggung jawab
Ġmeny ukainya
an eh
Ġberpel uang
ĠL una
ĠL emari
Ġdik alahkan
Ġmak nanya
o ten
ĠS AL
Lemb aga
gas kan
ĠC amat
m ula
re ncy
Ġke ba
ĠA cer
ĠPul uhan
Ġg ap
de sa
Ġj ambu
Ġsh ower
ĠR AK
Ġge ografis
ĠS ud
ĠEksek utif
Ġdiant ar
Ġke tujuh
Ġsub yek
ĠAK P
id ul
inggi r
Ġc os
uan nya
Ġsya ir
ĠMul ut
Ġn arasumber
ĠS anti
ie q
U dah
ĠC r
Ġ gantungan
Ġsb g
Ġmengin formasikan
Ġdik ategorikan
D ew
ĠMunc hen
Ġpem utih
if a
ĠF raksi
Ġkons titusi
Ġkom edo
h ahaha
ĠM awar
Ġalum inium
S TR
ĠB ESAR
ĠA F
ĠHER BAL
Har apan
ver ter
ĠP ameran
Ġterke ndali
is ihan
ver age
ĠN AMA
ns inya
ĠBe ndera
Ġb lock
Ġde bat
adi es
ĠM ab
le ry
ĠBib ir
ch ange
ĠM ut
ĠCh o
Ġmis s
uj ar
Kemen terian
ĠIn ovasi
ĠT ampak
Ġmer ambah
), âĢĿ
OSI AL
b intang
Ġj urus
h aha
Ġkor eksi
Ġpem antauan
Ġmeng u
kas us
ĠSer tifikat
ya d
ĠW AR
ĠBab ak
Ġmeny amakan
ĠD harma
Ġn arkotika
c atan
ĠV ari
ĠSulai man
Ġkec intaan
ah agian
ĠG A
Ġme kar
iden tifikasi
ĠIn ternal
Ġmembac akan
Ġj ok
ĠT ambah
ĠT P
L ap
ĠP ie
ĠL INGK
ĠB oneka
ĠF M
Ġat asi
au bat
Ġ6 1
el lo
Ġberp rofesi
Ġtro fi
ĠAw et
Ġl ayer
ran ch
ongk rak
Ġkon k
Ġl ift
Ġbidang nya
ĠMere ncanakan
Ġkeb ijaksanaan
Ġkel amaan
nap as
Ġdo akan
Ġke jayaan
Ġdip ikirkan
esi um
im uti
Ġ date
Ġak upun
Ġmaksi at
ime nsi
es ek
ĠKe na
industri an
ĠSoc i
Ġrap ih
Ġberk oordinasi
Ġdiper lakukan
Ġbers andar
ĠR od
ass alam
der al
ĠMeng in
ĠPer d
angk ar
ont akan
ĠT own
Ġim ut
oriz ontal
Ġe d
ah ullah
us uhan
Ġmenggi urkan
Ġh acker
em askan
ĠBal ita
ĠCon tact
ĠPu isi
Ġdib elakang
Ti pe
Ġc ir
aw apres
ĠR M
em ang
Ġk umis
ĠO ngk
Ġberg ulir
ĠA mbe
Ġreal istis
Ġj oin
on itor
T AR
Ġpen dahul
f ri
P SI
lam et
9 00
ĠM udik
S eri
dus ta
Ġkelas nya
Ġpeng gerak
Ġmenc ontoh
ĠC opy
ara ja
ĠKy ung
on el
Se iring
Ġarg umen
DA PAT
Ind o
G O
Ġpetern ak
ĠPen gen
ĠBi oskop
N omor
Ġbl m
ĠM H
lim ited
Ġmengk hawatirkan
Ġbi dan
Ġur in
B ali
ĠKap sul
ĠSeo ul
eh older
gend ong
Ġpel ac
Ġmenjelajah i
Ġmenerim anya
as uki
ĠCe n
akm uran
Ġpe tar
Ġter deteksi
Ġcak upan
j eksi
ĠJU AL
9 1
Ġw orld
go yang
ĠFran k
ĠC in
Ġfac tor
ĠUS AHA
Ġt ho
a ah
ĠSE J
Y o
Ġgenc ar
ber at
Ġter f
ĠOL EH
C S
Muh ammad
Ġ 000
ĠH af
ĠIn ves
K i
ĠSen jata
Ġsat wa
Ġkeingin annya
Ġdisk rimin
ĠF ik
ĠB EK
ĠW AK
Memb erikan
Ġ7 1
Ġpen danaan
Ġb alon
Ġmenikah i
Ġmer umuskan
ĠSumb ar
Ġtembak au
ĠPD AM
ĠCi anjur
b ani
ĠAp k
Ġese nsial
Ġmengec ilkan
ĠE st
Ġturun an
orm a
ĠTerb uat
Ġneg ri
Ġsa ji
ĠN ike
ĠKap ten
Ġas rama
ĠR upanya
ĠA gan
Mem ulihkan
ĠG L
ĠBAH ASA
d ampaknya
ĠQ atar
Ġmenemukan nya
Ġberl ama
Ġk y
ĠM ula
Ġc ut
Ġtemper atur
ĠT ang
Ġpe dih
un ik
Ġkon diloma
Ġjah it
k etika
Ġketer tiban
ĠLog o
Ġpembuat annya
Ġpeng gantian
ĠN SP
ĠAk h
s ah
ĠAr sip
ĠL ibur
ĠBin atang
oritas kan
Ġser um
Ġterk umpul
Ġf ont
AC K
ĠMateri al
Ġr untuh
ĠMene ntukan
ĠBlu es
ĠSet ting
ĠKe vin
I kan
ĠS ik
ĠP lan
Ġse gitu
is isi
Ġberb unga
Ġsimp ati
ĠIN FO
Ġter ulang
PB U
Ġdis angka
Ġbers emi
ĠPokok nya
ot her
Ġt rim
Ġp ang
Ġw i
T otal
Ġw ib
ĠAlum ni
ĠK alah
ĠD OM
Ġdiam kan
ĠV ill
Ġb all
y uk
Ġlepas kan
m s
ĠP UB
Per temuan
ĠK urn
Ġtand as
P et
ĠKal la
Ġpenduduk nya
Ġf isi
ĠTK P
Ġter awat
ĠMe dis
ĠB imbingan
ĠH iburan
Ġs arat
ĠT abel
ong ol
ĠPER K
ĠAc count
Ġjer sey
di anya
rat kan
Ġberj am
d st
ta z
ag ub
Ġl ot
RE E
ĠSc reen
Memb eli
Ġlalu i
ter utama
ĠP SM
-------- --------
ĠK ot
ĠSar apan
Ve r
Ġdi operasikan
Rek omendasi
Ġketa atan
Ġf ast
Ġkel ayakan
j emahan
ĠY ani
se cara
ut ik
Ġmemper sembahkan
Ġbook ing
Ġdiund uh
ĠR adar
Ġlewat kan
yl ish
ĠPeng in
Ġmengg apai
Ġpe cahan
ĠId ol
Ġtel ak
ĠSel ingkuh
seh ingga
p ikir
ĠAward s
ĠYud hoyono
De n
ĠS umpah
ĠBM W
Ġj el
G ratis
ĠI p
Ġter ik
Ġm imp
o ver
od am
ĠP O
ĠKes elamatan
K urang
ĠK PR
pem ain
ĠMo untain
C P
ĠM O
Ġmengk on
Ġj gn
Ġmemb uru
Ġdis alah
ĠZ ona
ĠR OM
Se ni
ĠPos itif
ĠJ azz
m ir
Ġdide finisikan
p aket
ĠFir st
ĠG T
umb ar
Ġlengk et
ag ak
Ġterc ampur
Ġdiba yangkan
uh a
Ġdisel amatkan
Ġkon ek
ĠS ore
ĠPen anggulangan
ĠF ort
Ġmenggi git
Ġ5 000
Ġen teng
ĠJ oo
Ġf b
A la
ĠDak wah
m awan
Ġken alan
Ġ dampaknya
ĠDib uat
ĠLip utan
Ġmemb ran
ĠSes udah
Ġmenga badikan
ikut ip
Ġpem adam
Ġt amb
Pen gunjung
ara w
em ik
Ġpara digma
ĠSek retariat
wira usahaan
z ing
ĠJ ASA
Ġmemerik s
Ġ199 1
ĠK riminal
Ġmemper cantik
Ġ14 0
il afah
Ù ģ
Ġdis et
Ġs ad
ĠS ES
Res toran
TI AN
OR T
ĠBet ting
Ġmen uduh
ĠRo ulette
ir am
ĠWi jaya
ĠP E
Ġper siapkan
Ġberm alam
per b
Mah asiswa
ĠH ill
Ġte ch
ĠMes um
) ?
ĠL epas
Ġseja jar
ĠLe zat
ĠT ATA
ĠOc tober
Ġpergel angan
â Ħ¢
ĠAn imasi
Ġef fect
ime r
ĠMeng urangi
ĠPER S
ĠA PK
Ġdik ar
Ġri il
Ġng eliat
r awat
A li
Ġap e
Ġseg elas
A danya
ĠT ukang
epak bola
Ġkeke cewaan
ĠOR GAN
Ġmenggan deng
el come
AG EN
Ġrint angan
ĠLam ongan
p age
amp ton
Ġl etakkan
ĠAt h
ĠY akin
Ġdik ombinasikan
ac ik
ĠDir inya
ĠIn dikator
ĠM ali
ĠPen dekatan
Ġpanc i
tag ihan
re ndah
Ġmem anjang
kom entar
Ġs ma
Ġdi pen
Ġfat wa
ac aran
Ġs ungkan
J uga
ga g
Ġmeny ulut
ĠPosting an
Ġant isipasi
Ġko q
ter inya
Ġ08 57
Ġt angis
Ġinter view
Ġpredik at
Ġkem ah
ĠB ata
Ġant rian
Ġbe ku
Ġal pukat
re a
Ke jadian
kurang nya
ĠSe andainya
ĠUn sur
ĠB AGI
ĠPel angi
ĠTer mahal
Ġteman ku
ĠN ih
Ġe volusi
Ġveg et
amp as
ĠK odim
emb akan
Ġdic irikan
Ġmeng un
ĠN ikmat
Ġkarir nya
elah iran
Ġpelec ehan
AS H
pe mber
R B
ĠI X
Ġber alamat
Ġpen dengaran
W S
Ġmengh isap
seb aya
Ġde ter
ĠPers yaratan
Ġdip utuskan
Ġdis usul
ab us
amb utan
Ġmelamb angkan
Ġpro tec
ĠRe visi
Ġdim asa
Ġl intasan
Ġbarang siapa
Ġmenyayang i
ĠL ist
Ġgame r
aw ay
ompok kan
Ġc r
nome nal
r ingan
Ġde bit
ĠSnap dragon
H T
m uka
int ing
Ġp anti
w ana
d asan
D imana
Ġth anks
Ġi rama
R aja
tib mas
ã ĥ
Ġmen andai
ĠK han
m and
ĠPa us
Ġm n
r ar
Ġbant ing
s ule
Ġdiak hiri
ĠG aris
ï ¸ı
ĠMas ker
ĠKl inik
y as
ĠJ aga
bol inggo
Ġper ceraian
P ihak
Ġpen ari
Tan aman
ĠTumb uhan
ĠBer ani
ĠMen emukan
Ġmen tega
Ġr amping
Ġpas alnya
ĠBer untung
p adahal
PA DA
oyo ung
c ard
Ġpr em
Ġdikehe ndaki
Ġng apain
U sia
angg otaan
IN O
Ġmem alukan
Ġc am
ĠSek ian
Ġmel ebar
IRI M
int on
Ġp lugin
ino vasi
ĠAf ghan
Ġdis ayangkan
Ġmer ed
Ġberat nya
tr onic
Ġmemb ungk
Ġs ilang
P ar
Ġarti cle
ul ture
ĠL estari
ĠAngk asa
ĠT ing
Ġm anga
t ungkan
ĠPen ampilan
ON US
Ġk w
t ri
al ai
N K
j ad
ind rom
Ġpenja jah
j ong
ĠH it
Ġad aptasi
B atu
uck y
i dik
ĠSil ver
Ġsh alih
ĠSIS WA
Ġ0 21
Ġpun dak
K etentuan
ov ic
Ġmotor nya
Ġul ah
ĠP PK
Ġfit rah
ĠC EPAT
ĠPerd a
Ġgengg am
del apan
ĠM IL
tan am
1 10
emb uhan
imp ahkan
r aman
adem y
Ġsel ebriti
Ġ dad
ĠB AG
ĠK amb
div idu
Ġpen at
Ġpermain annya
ĠS R
ach ine
id or
Ġber aksi
ĠL AN
ater al
ĠSy ams
tur un
Ġseke jap
Ġkebenaran nya
Ġmengus ap
Ġk anc
ĠK ala
Ġme eting
l uka
Ġmemak ainya
Ġem pedu
Ġsek urang
ĠMak alah
ĠM ade
Ġ/ /
ĠW C
Ġpart isi
or ot
ĠPurw okerto
ĠSt one
ge ncy
Ġt oys
Ġpen anggulangan
Ġseri es
Men ampilkan
ĠDem ak
ar do
Ġmenurut ku
Ġpan orama
Ġsp t
L C
ĠL ayak
ĠPer mata
Ġr ank
ingk ir
unc h
e ra
r oma
Ġb und
re na
ĠSaw it
Ġpersen dian
war ganegara
B us
Ġmengi mbau
Ġper w
af ia
Ġperk asa
Ġr ada
Ġke dekatan
Ġre alisasi
Ġcustomer nya
M T
ĠKeh adiran
ĠUnc ategorized
Ġk ud
ĠBh ay
Ġj emput
Ġme bel
Ġmemp esona
ĠC ASINO
ĠD am
Ġ19 60
ĠB uruh
ĠPer asaan
Ġpendak ian
ĠBer se
ĠP le
Ġh ape
Ġberj udi
ĠE UR
Ġcu ek
Ġapa an
ĠKe unggulan
Ġmeng es
eb u
ĠTh or
ĠVer sion
g aku
N B
ĠM OB
ĠMeny usui
ĠB ant
Ġp ondasi
Ġburuk nya
ron is
A merika
Ġas ri
ĠW ifi
Ġdiper dagangkan
ong o
Ġl uhur
Ġri a
ĠPR ESIDEN
Ġdom inasi
Ø ¹
Ġmil ih
ĠIb unya
Ġmemb ongkar
z za
S us
z ar
ĠDr agon
R ES
Ġsampe yan
Ġpenj udi
ebih nya
ĠBe a
sis tem
Ġ8 2
M ic
b asi
s tar
adi r
Ġdih uni
ĠU E
ep h
ograp hy
ĠD rop
ĠPer sia
ĠD ilengkapi
ĠRah man
rat ur
ĠIde nt
ĠN el
ĠT ANGG
s ara
Ġmal aysia
ĠS pa
scri be
Ġye ars
Ġkamb uh
Ġtersi rat
Ġduk un
Ġdi utamakan
Ġdis play
Sub yek
ĠKl aten
pro ses
S urabaya
ad ana
Ġmeny andang
ĠBr ebes
ĠL AGI
J urnal
N P
ĠDib uka
Ġmenga c
Ġ ame
ĠAk rilik
Ġbi ologis
Ġkemaluan ku
ĠM uka
ĠK ira
ĠD uc
Ġf un
c ol
Ġs he
Ġmengasih i
200 6
Ġter gi
ĠC omputer
ĠB AL
Ġhidup mu
ikmat inya
b annya
Ġ esai
ĠI q
Ġmemer intah
Ġdim intai
Ġdic abut
urn itur
ĠAs asi
ĠR in
tip asi
ĠK uda
ĠI SI
risti wa
arif an
k husus
P embe
tugas kan
m ud
ĠR PP
or al
Ġmemper ingatkan
Ġm az
ĠDir jen
af f
ĠCash back
ant ri
U ang
Ġdisi arkan
jalan kan
Ġad ek
id angkan
Ġsir kuit
Ġb irah
Ġkons eling
ĠBudi daya
Ġmeny umbang
dak wah
Ġbers ekolah
w ajah
ĠN ight
Ġwar ganya
ĠJoh an
Ġsaf ety
ĠH ATI
Ġmemperl ancar
ĠT PS
Ġmeng is
Ġnasional isme
ĠSus ilo
Y ou
Ġsing apura
Ġtutup nya
ag et
N anti
mo tivasi
Ġhip ot
ĠC ic
Ġpengh ormatan
Ġb ule
ĠMes senger
ont ang
Ġdis ahkan
ul sa
Ġmul timedia
Ġt ap
ĠTer or
Ġcon tact
Ġkol onial
ĠK hal
Ġkur ban
ĠK OR
ĠTemp o
Ġl as
ifest yle
Ġdiam ati
b arkan
et aan
Ġken ari
ba y
ĠS AR
Pas ang
ese ran
ek uni
M ampu
Ġg ran
Ġpat okan
ĠPen ulisan
B UM
Ġg osip
grad asi
ĠKe adilan
Ġkome di
Ġinter aktif
u ja
cinta an
ĠMar c
ĠA tasi
Ġdunia wi
Ġpeng aman
ĠAN GG
ij ing
ĠKong res
ĠKapol sek
ĠSt art
Ġs tory
ĠBAND AR
K ET
H D
Ġdil upakan
angk ung
Ġk aitan
di b
Ter kadang
por asi
ĠX X
ĠTerb ang
l owongan
ĠD ag
Ġal marhum
Ġha ve
Ġkep alaku
ĠK iri
' t
ĠK U
ĠJ A
ĠU V
K etik
Ġperm ata
dik nas
Ġdis ingkat
adi ri
N AH
st ream
ĠDah lan
ĠEk sim
agn osa
duk a
ĠC ons
ĠDisk usi
ĠKek asih
r agu
ĠK P
Ġsab d
Ġs ip
ĠDest inasi
iz za
Ġkur s
nd ahkan
Ġ dos
Ġsyah wat
KI P
iti es
Ġpen tas
ĠB re
Ġter sesat
Ġny anyi
Ġkej ang
ĠF oundation
bur g
amp anye
ĠV olume
Ġse usai
tor age
Ġlim it
ee e
Ġre kannya
Ġf o
web site
Ġperjalan annya
Ġhorm onal
emb us
ĠS yekh
dom isili
Ġmeng obrol
ĠFe n
amp ainya
k ini
ĠT ong
mas ter
Ġsemb ah
k ac
Ġtulis kan
Ġsp anduk
Ġmis alkan
el eh
ĠKe empat
Ġkab inet
Ġpenc uri
ĠSej ati
Ġbantu annya
Ġkhal ayak
ĠBib it
eb al
7 00
Ġp cs
ak eholder
R W
re nal
om nia
Ġtel ing
h arap
ĠN ASA
Ġh onda
ĠD ollar
ĠH ir
ĠC ut
had ow
ĠPeng olahan
Ġj aksa
ug ht
ĠMember sihkan
Ġpot ret
Y e
Ġmem adukan
Ġ \\
UNG I
ĠNe raka
UAL ITAS
ĠGar den
Kirim kan
Ġem isi
hel atan
ĠP ublic
Ġtr agedi
tengk ar
ĠTahun an
ĠAd van
Ġke tagihan
Ġmenj unjung
ĠV IP
ĠZ akat
Ġrem ote
ĠS UP
Ġbergi zi
ĠKeme ja
ĠBij i
As al
Ġden ga
Ġperhati annya
ub arkan
ĠU cap
pen si
ĠGuar diola
Ġdemonstr asi
Ġseh ubungan
ĠJ im
ĠGraf is
Ġï ģ
usat kan
ĠF ebruary
ĠAM AN
ac unan
Ġper asaannya
uat e
Ġem ak
B aqarah
ĠS UK
bel anja
andar in
Ġy oga
Ġmengh afal
Ġ10 80
Ġberg eser
Ġsd m
ĠDen mark
ĠD EW
tu h
ĠPh oto
Ġc lass
ĠS impan
ĠB OS
Ġpemb atasan
ĠAnal isa
Ġmes ra
ĠS lim
ĠM UL
ER ITA
Ġmeres ap
ĠMen ingkat
ume r
ĠRiz ieq
jaw abkan
anye ol
ham ba
Ġekstr em
s up
avas cript
fungsi kan
Ġgor esan
Ġkon versi
Ġpep ohonan
Ġdeh idrasi
Ġdir ebus
ĠU jar
ĠY A
j uta
Ġpin ter
ĠM eme
Ġbarang nya
Ġturun kan
h rib
Ġbar usan
Ġad uan
banyak nya
Ġr us
ĠDip onegoro
ont okan
Ġ ormas
ANT ARA
ĠA vanza
AL IS
ĠMenye nangkan
Ġmon yet
ĠH mm
Ġc emerlang
m g
af on
ĠElektr ik
Ġdij anjikan
ĠFire fox
1 000
Ġseba gi
Ġper annya
nd ungan
ĠRat na
Ġser buk
ĠBerb icara
ĠGol ongan
Ġdi agnosis
ĠVis ual
c in
Ġap otek
ĠV isa
ĠW ow
ĠInd om
Ġmement ingkan
ĠPemb inaan
S at
ter y
ĠKomp onen
ĠL SM
Ġber urusan
di et
Ġpen umbuh
ekt are
Ġkes et
Angk a
Ġfir st
ĠI BC
Ġkel akuan
Ġad apun
ĠSK PD
arah i
Ġa v
Ġh af
r ub
ĠHel lo
ĠKe mbang
il au
l ip
A gus
ĠT re
reat ment
ĠL orenzo
M y
Ġw hat
ĠDis ney
Ġlip stik
Ġper adilan
d ai
itah ukan
ĠTIM UR
ĠK eg
ĠK utu
V IVA
ud y
aka ilah
ĠUm rah
G imana
Ġmel emparkan
Ġpengh itungan
b ek
ĠSej auh
ĠN uh
Ġbu gar
elah kan
ukti an
Ġ7 6
ĠIb ukota
ĠSal im
ĠBint an
iki rim
Ġmerep otkan
Ġr etak
ĠK hat
ek arag
ĠS usi
B oleh
Ġmekan ik
ong kan
Ġp ingin
ĠC ab
Ġamat ir
ĠS empurna
T olong
ĠKi amat
ĠWat ch
d usun
Ġw ay
Ġnota bene
Se dikit
rop ol
Ġpilih annya
ĠP are
Ġbus iness
Ġper wira
Ġmengas ah
ĠR ama
ĠL AP
Ġberin isial
P ET
Ġla uk
ib lat
ĠOff line
Ġper asan
ĠAs salamu
pl orer
Ġimb uh
Ġbur uan
orm on
Ġkeram aian
ĠTuhan mu
ĠR O
Ġsabd a
Ġ dina
Ġrahim ahullah
200 4
Ġpem ikir
Ġsu g
ĠPK B
op h
Ġberl ipat
Mer upakan
Ġber tenaga
M ENG
Ġtan i
y on
warganegara an
Ġmengh ukum
Ġw ill
Bag us
Ġdil ayani
Ġker anjang
ĠIr wan
Ġbak ti
Ġl alat
ĠSub ang
Ġs alib
TIK EL
Ġc apai
Ġpeny esalan
ĠUs us
ĠSD N
ĠMo difikasi
Ġ3 000
isi kan
ĠL aboratorium
ĠPen yi
T etap
Ġj epara
Ġb h
Ġmengan ut
ĠO lah
Ġeng ga
ĠTemp late
Um umnya
ĠL eg
ac auan
ar et
Ġanj lok
ĠN ar
di st
Ġn urani
Ġng ak
p ohon
ĠP andangan
ub i
Ġketi ganya
Ġas mara
ĠML M
ut bah
Ġmembe ngkak
d udukan
ĠPer kebunan
ĠI ri
Anal isis
ĠAl a
Bah wa
ĠL olos
ir ul
ĠV o
ĠJ ANGAN
Ġkeh ancuran
ĠM os
Ġber dagang
Ġc ase
Ġmenj alar
ĠSul ut
mb un
gaw i
Ġmen untaskan
Ġbek asi
Ġj urang
ia o
Ġ7 4
ew askan
Ġmes jid
ĠC offee
TI PS
Ġam arah
Ġp aman
w ell
Ġpenyer angan
organ isme
Ġkec ok
he ro
Ġfin ishing
Si apkan
ĠSup port
Ġsakit nya
Ġï ĥ
ĠâĢ İ
Ġpemas ukan
ĠK KN
ĠG lass
ĠV GA
Ġmengin dikasikan
ĠP EK
ga dis
or ogo
ĠD ATANG
g res
Ġp hone
ĠF ollow
ĠG URU
Ġsemb arang
Ġag us
ob ia
all et
Ġke istimewaan
Ġn ature
ri oritaskan
ĠA FF
Ġsem aksimal
Ġmer aup
Ġdiba wakan
as at
Ġh epatitis
Ġpe patah
Ġpemb imbing
Ġpro pinsi
Ġ198 9
ĠSin opsis
angk ala
Ġ14 39
Ġberbah agia
AK UKAN
ĠPEMBEL AJARAN
EL L
ĠD eli
Ġtrans formasi
lo id
Kep utusan
de t
T aman
l ung
Pr insip
Ġpen as
ĠChe ck
ĠKhusus nya
Ġpenc ahayaan
ĠCent re
Ġkontro versi
Ġmen untun
nis asi
ĠW r
Ġser asi
Ġt id
ĠR EG
Ġob ligasi
ĠRese arch
ĠPR OGRAM
r asa
D B
Ġil l
ĠH uruf
ĠLion el
ĠF rans
Ġs orang
Ġmengk ritik
ĠSer tifikasi
Ġmo vie
Ġp ig
Ġkeman dirian
ĠStr oke
For um
Ġdist ro
D etail
ekarag aman
ĠKak ek
ĠI phone
ĠB AY
Ġfe ed
ĠAr us
ĠJam ur
Ġre nggang
Ġpe st
e nter
ĠCik arang
Ġl ump
ĠAS US
200 5
g uk
ook ies
ĠT E
ĠBer temu
oc opy
la ba
sc reen
ĠRe za
Ġb ase
Ġanj uran
Ġj ep
ba ju
s ehat
Ġ urus
uar akan
T ab
ale nta
go ogle
m alu
Pe ristiwa
h ib
mus lim
s hirt
inj ai
Ġc ore
ĠMak lum
Ġj o
Ġdib ebaskan
S eseorang
Ġp are
Ġbaik lah
op p
Ġdil angsungkan
ons umsinya
ĠS tory
ĠM angga
ĠKar et
Ġc ity
om ah
ven tion
Ġm angkuk
ĠTr uk
GUN AKAN
Ġp ress
M ay
ver tis
Ġub i
Ġsa id
l r
Be n
eboh kan
Ġtr ek
Kel ompok
ĠTerp adu
pen ampilan
ĠInd uk
ĠMenj elang
Ġdi wakili
tic al
ĠF K
Ġperk akas
ĠPro dusen
J I
Ġmengulang i
ĠK RI
ĠH OT
ĠD M
ĠL ot
Ġsl ip
ta iner
Ġmen ikmatinya
eb ird
ĠAfghan istan
et sa
ĠK ho
Ġpen etrasi
Ġmemb ingungkan
Ġmengin stall
Se pertinya
ĠJ ar
af a
ĠPur nama
http s
ĠH arta
Ĺ ı
Ġpemb aruan
lik e
Penc arian
ĠCh ang
ĠLel aki
ĠH ang
Ġmemperl ambat
Ġmeng adu
ĠPol andia
Ġpel epasan
s ol
ĠMis al
ĠSo uvenir
Ġde vice
ĠN un
ĠFe nomena
Ġs od
ĠB aj
ĠDim ulai
ĠSimp le
Ġkil at
bah wa
Ġkab in
Meng atasi
on de
b oy
P o
Ġman ja
ĠK EK
Ġb ron
ĠTanjung pinang
.... ...
z ia
h arus
kem udian
Ġkom peten
B apak
Ġm artabat
Ġbay am
ĠL ebar
ĠG emb
ĠJ ADI
ue r
Ġdekat nya
Ġab normal
Ġdile wati
at alan
ĠM itos
Ġp ij
ĠS emp
ĠGr ab
Al l
T es
ĠKer ajinan
ĠIn stall
ĠEk a
Ġgel aran
ĠA badi
Ġkan ak
Ġsint etis
ĠY oga
ĠUl ar
Ġmembant unya
Ġtrans isi
rus h
ĠR acing
Kar akter
Ġ aib
Ġaj akan
T EK
Ġen te
Ġdi tugaskan
Ġm and
ĠMengun tungkan
Ġpengh alang
ĠKEL UAR
Ġketer tarikan
ĠD own
P E
ĠJab odetabek
alo gi
ĠL ah
Ġl orong
ĠDih arapkan
Re ncana
n gi
ĠBrow ser
c ode
Ġsec ond
ĠE nam
bel ajar
Ġb rosur
Ġme wajibkan
elin tir
Ġgug up
ĠT ap
Ġkom a
j p
Ġin tegrasi
Ġrumah ku
A turan
c aknya
ek utu
Ġter tahan
ĠRam ah
j inkan
Ġmer aj
Ġberp usat
Kor ban
ĠHot sp
Ġ19 50
Ġn atal
Ġn gi
peng h
Ġc uka
Ġringk as
Ġj umat
Or gan
Ġdih ormati
r ad
Ġhadir kan
ĠMek ah
ĠR ight
ING GI
ĠS quare
Ġ umb
Ġber amal
ĠChan nel
ĠRiz al
ĠB umbu
Ġr atu
aris kan
Ar tis
dia ga
Sen in
Ġh afal
of olio
ĠPro bolinggo
YAK IT
oh arjo
Ġap alah
Ġwe ekend
' m
Mus im
Ġdibuat nya
is ha
n on
aks inya
ĠA had
Ġmeram aikan
K antor
ĠR ain
yi ah
ĠMe na
Ġkl asifikasi
Ġuk iran
Ġberl ian
t k
Ġkantor nya
ĠVi ews
Ġser ahkan
ĠMeng hadapi
ih ir
arm on
SM A
tak uler
F akultas
ek nik
Ġdib ungkus
ĠPo in
Ġ Ã
p aling
ĠSo und
osisi kan
ĠSal man
ĠPurw akarta
n ahan
Ġdic ek
ĠNi as
j oss
Ġpri hatin
ak ing
P AK
Ġp aten
C M
per m
Ġe ven
ĠKOM PAS
Ġmut asi
ĠPenerb it
ĠPengan tar
ism illah
ne o
ĠWir eless
any ian
IL AN
IN JA
ti g
Ø Ń
b ali
p esan
Ġ9 6
ĠRe ferensi
Ġn ow
Ġsi dik
Ġnye nyak
on ta
L INE
y rik
Ġbert unas
ĠAnj ing
Ġt andang
ĠPen etrasi
Ġj eli
ĠD amai
ubl ika
Ġmembi asakan
Ġflash disk
Ġdik hususkan
Ġad akah
pe nd
ĠS anc
Ġs logan
Ġberh ubung
peng urusan
ĠL ubang
ĠAri fin
aks asi
Ġri ba
ĠC incin
Ġku il
Ġmele ngk
ĠPerm ohonan
Ġpad uan
p usat
Ġdig oreng
ĠEur opa
k lo
Ġga y
he e
ĠL I
Ġfin ish
VER SI
ĠJ ago
Ġsemb ako
ob el
ur ga
ĠTech nology
Ġtingkat kan
dok ter
K et
cer dasan
Ġujung nya
ĠJe nd
ent inya
ri ya
Ġmag n
ĠD IK
Ġ asi
IL IHAN
ĠSIT US
A IDS
Ġmen ul
Ġrum usan
Ġjabatan nya
Ġp angeran
Ġrap uh
ĠAp el
Ġs oto
ĠPenyelengg ara
lu askan
ĠSat ria
Ġbe cus
et ar
ĠMen ikmati
L antas
ĠMoh am
ĠPener apan
Ġt alk
ĠMel awan
ĠTr us
ma x
Ġang gun
os tal
Ġtekn isi
Ġcon tent
ĠSecur ity
Pel atihan
Ġkup u
Ġ etik
Ġdis alurkan
nd y
ĠS OSIAL
Ġkel opak
ĠðŁ ĵ
ek ukan
Ġlan sia
Ġ dusun
b ian
Â Ģ
Ġmeny anyi
ĠHam mer
ĠForm ula
Ġsen ada
ĠSan diaga
ci us
l eb
pos isi
Ġsak ti
ter nyata
Ġak sinya
V IDEO
Ġkepad atan
Ġkron ik
Ġdis isi
Ġni atnya
SI M
Ġte nis
ĠDim as
ĠY uri
emat is
el ine
Ġkep an
ĠKal e
Ġimun isasi
ik l
awi jaya
Ġi q
Ġb uncit
Ġsek utu
Ġan alis
ĠK ekerasan
ver sial
eri ahkan
ĠSeg ar
Ġdike jar
Ġtampil annya
Ġmengan tuk
1 20
ĠSay ur
ang atan
aren gi
Ġp ung
ĠA T
Pem akaian
andat anganan
ĠSal eh
Ġke esokan
ĠT ren
h m
Ġt anyaku
obat kan
oh yun
Ġmen ewaskan
Ġt ombak
os of
Ġstatus nya
F AB
Ġdi tab
ĠP and
ĠSE G
d aks
eker jakan
ĠY oo
Ġdon or
UR A
Ġkom pensasi
Ġdibac akan
av y
Hal lo
usi al
Ġpay udaranya
ĠKom ik
Ġperlu asan
ok u
ĠG amb
ump ukan
ĠKid ul
he rs
Ġw ong
Ġpro cessor
ĠLu is
ĠN AT
B at
Ġk b
Ġmengh ela
PR EDIKSI
Ġterb unuh
ĠUnt ungnya
Ġpeme cah
âĻ ¥
ĠKol esterol
Ġmikro ba
ĠP intas
ĠCol or
kos aan
PU AN
Seb anyak
Ġkon stan
ine n
Ġmere ndahkan
ĠSt ock
Ġke mbangkan
ĠBAND UNG
N ur
Ġgan jil
hy uk
Ġpangg ang
ig ami
r el
ĠSh ar
ĠPK K
ue n
Ġw an
Ġket etapan
ĠB ob
R el
Ġad d
ing ya
Ġfil osofi
h aj
Ġtumbuh nya
Ġimp otensi
Ġbe a
ĠX II
Ġp aper
Ġb ik
ĠTel egram
se tiap
al aian
Ġpor os
Ġg rav
Ġkenc an
Ġmengh imbau
ĠC L
Ġz i
Jangan lah
tr on
Ġker udung
Ġkerip ut
US D
ĠCom pany
Ge rakan
ĠJ ournal
K hasiat
ol ali
emp ang
ĠL ar
Ġk ual
Ġdidi agnosis
ĠJ EP
Ġterc iptanya
ĠDis ebut
US US
D S
h id
ĠKeb aya
ĠKon ser
f ak
ĠP ON
ĠRam alan
ĠPer sebaya
S ambil
se orang
Ġbers elang
Ġkon temporer
Ġn ab
Ġberga irah
Ġaku i
ĠPok emon
ĠI lahi
angk ab
K amis
al ek
Ġmengeksp resikan
Ġm ukanya
ĠJ oker
Ġterh aru
Ġla undry
Ġter ampil
Ġrendah nya
uke na
Ġre ad
Ġdis emp
OR E
Ġmeng alaminya
m il
ĠMe nt
n otis
ĠA ff
gaw ati
Ġberl indung
ĠDirec tor
ĠH M
Ġhe re
ĠKo ordinasi
Ġmem ancarkan
Ġterh ambat
Ġba yang
un is
Ġpen ipu
ĠHi as
n ame
ĠKement rian
Ġmenje rit
Ġm bah
ed ri
Ġm oga
Ġf aktanya
PB D
ab utan
Ġsel f
k upu
Ġsek retaris
ĠMe mbe
D ampak
R ent
ĠSy arif
Ġ dst
ĠS ad
Uni versitas
ĠS isi
nc ang
Ġdz ikir
uarga an
ł Ģ
Ġker ak
bah arui
ĠM aju
Ġmil i
ĠAz iz
asy im
Ġpir ang
Ġjar ing
ĠPemb aca
Ġber do
em aja
ĠB atal
ric s
Ġberg ambar
ĠSan ta
P l
Ġa zab
Ġk asir
ĠA gent
omat ik
/ )
Ġmeng ek
Ġâ ĸ
Ġberse dih
Ġinves tigasi
vi et
ĠReg istrasi
IL A
Pemb angunan
Ġg usi
ĠSh ahih
Ġmengikut inya
isie n
ĠCent ral
Ġb un
ĠTradi si
Ġal arm
ti ce
Amb il
lam anya
ans yah
Ġdi ikat
ĠIn form
ĠDid alam
ĠMenc oba
ĠK I
Ġpat roli
Ġe ner
ĠL awan
ĠKon ferensi
c ase
ĠP AD
Mas kapai
ĠJ angka
ĠGun awan
Ist ilah
Ġhabis nya
Ġper anti
d uta
ĠAkad emi
Ġber api
Ġmengg osok
ĠMeng alami
aktu al
Ġkeb ocoran
po int
Ġperti mbangkan
x is
ĠOp tim
Ġpeny uluhan
Ġdis in
Ġran sel
Ġkafe in
Pas ti
Ġ vent
ĠWork shop
Ġbo oming
Ġpe tinggi
ĠPenyelengg araan
Ġse dari
ngk ang
iro id
ek onomian
ĠP PP
p ack
Ġh umor
ĠLINGK UNGAN
Ġpeng us
Ġle reng
af ood
omb ie
Ġme i
ĠT v
Ġdiper s
m oga
ĠMen ara
Meny e
ĠPR OS
tic ker
ĠBer gerak
Ġmende finisikan
ĠBas ket
Ġp angsa
ĠK ant
EM I
ĠB ond
Ġak reditasi
aktif itas
Ġmengab arkan
Ġmak mur
Ġber domisili
D ilansir
Ġmembuat kan
ĠKon on
an on
Ġt it
Ġpengan ut
Ġsh ock
S UNG
Ġag aknya
H ASIL
Ġker um
imb angkan
Ġw irausaha
ĠPer bankan
eg ory
ĠDie n
Ġcal eg
Ġdip elihara
Ġmenyeb alkan
Ġkaw ah
la ah
ĠKeber adaan
s am
Ġhamp aran
ie f
B BM
ĠFre eport
ĠTim es
ĠN ow
ĠS lamet
ĠB um
st atus
ĠS PBU
ĠSA AT
ĠCommun ity
de g
K ak
Ġmel elahkan
Ġberkes inambungan
ĠArsit ektur
ĠT ay
Ġm r
ĠEx press
Ġberl ayar
j ati
rb o
Ġde v
ob olan
Ġkan al
ĠKete nagakerjaan
rn ame
geri kan
âĢ¦ .âĢĿ
unga gung
ak n
Ġmenger ing
ĠQ ura
ii ii
ro to
ven ue
Ġpart isip
Ġsk in
B udi
Ġye oja
ok opi
Ġabs trak
ĠO N
Ġmen afsir
Ġdilap isi
Ġtergi ur
Ġf a
g ong
ĠA dit
Ġdaerah nya
ĠB ANT
ĠD ream
ĠMas ehi
ĠSpe ed
P at
Ġï ¿½
Ġmengh ar
men it
ĠK ah
ĠTer sebut
ĠPet unjuk
Ġad em
ĠL INE
ĠSt op
ĠA ula
nd o
k eh
ĠMengan dung
Ġprod user
ĠBat uk
Ġmeng oleksi
Ġmeng utus
ad line
K ER
isie nsi
Ġgenit alnya
ga wa
p rise
Ġad zan
Ġbern uansa
Ġter tanam
Ġb angk
ĠBas ah
ai f
Ġket ombe
Ġmo dis
Te ori
Ġdi eksp
S ing
Ġbers uara
ĠBAN YAK
Ġruk o
T ahap
Ġberkon sentrasi
ĠHen ry
atas inya
Ġdib ikin
is l
Ġreb usan
ĠF IL
ust asi
Ġh ibah
t anggaan
Ġ9 7
Ġdel egasi
od ologi
ij auan
ĠQ S
Ġro ulette
ĠUr usan
s ini
ĠIr landia
r apa
Ġprofes or
Ġrak aat
Ġin sentif
ĠI h
ĠÂ ±
Ġs as
Ġsamping nya
ta ge
Ġpeng rajin
Ġmus yawarah
Ġmeng unci
Ġparas it
Sel asa
ĠBin omo
Ġcem ilan
H ARI
ĠG ho
ĠA e
ĠK anan
istr y
ĠC am
Ġs kandal
d uri
at on
ĠPer um
Ġame rika
ĠR est
ĠD y
Su per
ĠS S
ĠG aram
< /
Ġhari mau
il ap
ĠJ ay
ĠCi amis
ly ing
Ġberk ol
q ur
ĠL ari
ES ANAN
eg on
ĠT INGGI
G ro
Ġdip icu
Ġv alue
Ġefek tivitas
Ġmeninggi kan
Pers yaratan
Ġsel esaikan
ĠF ore
Ġg esekan
Ġm ind
raktek kan
Ġpro polis
Ġdires mikan
ĠY our
Ġh orizontal
ulit kan
Ġmenurut i
cil kan
gen si
Ġobjek tif
Ġkol agen
os kan
IM P
ĠStr ategis
U nik
IR AN
ĠG ad
Ġper kenalan
ment al
q l
Ġot onomi
Ġbert aubat
Ġ dara
Ġho use
Ġterl intas
ĠH ae
ĠT OP
Ġr itel
ES S
Ġhadi st
Ġdi dek
ur nya
d uni
Ã ¼
s uka
nd ra
hat ilah
ĠS ANGAT
Ġbahan nya
s ilah
Ġb ingkai
eb atan
ĠS om
Ġyakin lah
ĠPeng aturan
Ġan yar
ĠOper asional
ĠM AKAN
Label s
Ġest etika
Ġ ambang
ĠW ak
Ġspek ulasi
Ġkerumah tanggaan
ĠDri ver
Ġseber at
ĠB uaya
ĠJ aman
ĠMengh itung
pec ahan
FAB AND
M ASI
ĠKh alifah
n anti
len g
ĠPer sero
Ġditu duh
ro kan
ong go
ĠF ajar
Si apakah
ĠM it
Ġp acking
ĠSant ri
ĠL ulus
em pa
ĠPeny anyi
f ull
ĠSte el
Ġop tik
day s
as al
Ġdok tor
Ġjurnal istik
ungk apan
AT EG
Ġ.. ...
Ġpe kat
ump ama
ok ap
Ġpol ip
Men dengar
eks ual
Ġk pd
C E
Ġak i
Ġakum inata
il ding
Ġpel angi
ĠTah ukah
Ġme ga
n aknya
Me dan
Ġtraf fic
ĠKe rusakan
b ro
Ġt ran
b ukaan
Ġteri akan
aw berry
D id
emb usan
ĠDo uble
Ġpersemb ahan
ĠIm lek
uc ikan
ĠBer agam
ti e
ad in
ĠD um
G el
uas nya
ĠPen umpang
W e
il it
Ġtertu ang
ĠP utus
Ġpengi rim
ĠG Hz
Ġreligi us
Ġrem eh
ĠY up
ĠRum us
Ġchips et
op oli
ĠPer industrian
). âĢĿ
st il
. -
ĠKe naikan
unt an
z illa
Ġbuat lah
Ġmenyalah i
ĠN arkotika
d ho
Ġdij uluki
ĠDI B
Ġdi sim
ĠN u
f al
Ġkol ektif
Ġmemang lah
ĠG ay
Ġmenarik nya
200 3
graf i
F AK
Ġpengaw et
ĠR h
i dana
Ġeksp ek
ĠJ une
U nt
ĠG emuk
Ġsem arang
Di bawah
ĠB ug
is tor
ĠCon te
Ġberl ainan
R P
ĠSe rb
Ġro ad
Berb icara
ĠIs ra
od ing
Ġterl ampau
ind ow
ĠLuk man
Ġan dil
ĠNasi b
ĠRe ading
ĠD SL
P ortal
ĠG ug
Ġg eli
ne rb
aine r
art ment
Men ulis
Ġsin us
Ġk amis
ĠA mat
Ge r
ifor lif
G ubernur
ĠPerm intaan
Ġpen afsiran
F orm
os ongan
ĠB ULAN
Ġmeng isahkan
Ġmeny iksa
ĠRam uan
Ġberkom petisi
Ġkem akmuran
Ġmeny antap
ir sa
ĠJack pot
Ġ udh
ĠR aih
Ġmen opang
Ġ196 5
ĠC ustom
Ġh ektare
b s
Ġc s
Bl ack
ĠP injaman
umen ep
ĠPRI A
ĠðŁĺ Ľ
T afsir
ĠC BR
e fek
Ġkeber l
lin es
ind uan
Ġmon eter
Ġr uh
ĠMy ung
ĠH S
ĠC ategories
Ġdil anda
Intern et
ĠAn n
ĠAss oci
Ġpant ang
Ġdip ungut
ĠJo e
Ġwilayah nya
ep lay
gi at
Ġperl unya
Ġj ust
ake rs
ĠT al
ĠMe kan
Ġdag angan
c asar
ni al
are z
isik onya
A udi
G D
Ġ4 50
Ġvide onya
and askan
Ġs lide
rob os
_ -
ĠPri ma
Ġmar gin
ĠLou is
ro gram
s titusi
ĠP AR
ĠAl iran
ĠSmart fren
Ġkekel iruan
ĠKe ce
Ġdon asi
Ġmenggen ggam
Ġb oss
p irasi
pret asi
ĠK in
ĠAbdur rahman
Ġkat up
ĠR eligi
ne rator
Ġser ang
Ġs untik
Ġp izza
B y
ant anan
ĠGel ora
ĠH om
UM AN
Ġmeme rah
ĠPengin apan
ĠA I
an anya
ĠBaw as
Tr ading
ind ang
S ehat
Ġc anggung
Ġor n
Ġnyam pe
ot on
oment ari
Ġg onor
ĠH em
Ġpengh apusan
ga ya
Ġeks pansi
ons truksi
ik ata
H mm
ĠSet ya
ump alan
Ġkemb ung
Pel ayanan
Ġefek nya
IS TR
ĠSat pol
TER IMA
K ualitas
Ġmat ch
ĠPol y
Ġbal ok
Ġag ent
api dana
ĠAn aknya
ing u
ĠTo ol
US AN
ur atan
ĠA na
ili ate
ter e
andi an
Ġb on
ĠJ et
ĠDi dik
ĠKapol ri
ĠN A
Ġsekel uarga
Ġb lo
ome ga
led ge
ah aruan
le ep
Ġg odaan
ĠMin ahasa
ilik on
Ġ- --
Ġbic arakan
Per nyataan
Ġkesehatan nya
lim aks
ĠL ulusan
Ġtel p
Ġsh o
Ġbor os
Ġter angsang
ĠKos metik
Ġun ta
Ġkomodi ti
ĠR ok
mb ing
Ġber tumbuh
Ġres to
Ġmus ti
ĠMenang is
Ġh ulu
Ġkr usial
ĠTop ik
mp uk
Ġbook mark
Â Ŀ
ĠJ os
ĠDik unjungi
Ġsapa an
C el
ĠT RI
casar jana
ĠBi o
ĠIslami c
Ġmang rove
ri yah
Ġdit unda
af i
K unci
ĠH TC
Ġkol oni
ĠTers angka
ĠPemb unuhan
angkab au
ndah ara
ĠN iaga
ĠM aksimal
emb ar
Ġc a
pan as
ĠTerj angkau
ĠMas sa
Ġtert ata
Ġkeny al
ĠP aru
Ġin dia
id at
B ARU
ĠF antas
Di antara
Mem ahami
B utuh
UM P
Ġhakikat nya
ukses kan
Ġberh i
ĠB it
D aun
* .
y angan
Ġc amilan
ĠBhay angkara
Ġng in
Ġker is
Men jaga
ep uh
Ġpend ampingan
Ġdu el
SI A
Ġseorang pun
olomb ia
Ġunt ungnya
Ġkeseb elasan
ĠTe guh
ĠT imb
Ġdiseb elah
Ġpun caknya
Ġback up
Ġh air
n amakan
ĠPembe ntukan
) ...
SI K
AW AN
r angan
Ġpe ker
ĠS ingk
m inggu
ĠL ingk
Ġkej auhan
Ġh lm
ĠV imax
osp ital
ĠRoh ingya
ĠBet awi
Ġterk uat
ĠM arga
ĠDi ego
ĠMon itor
Ġ198 5
Ġne xt
ĠSe nyum
Ġsp ace
V A
ĠRich ard
k ahan
Ġh eheh
ry pt
osi alisasikan
Ġbi o
Ġperp indahan
ĠH ay
ĠNas kah
99 9
ĠC u
ĠFil safat
Ġmembalik kan
un duk
Ġpem andu
ĠP apan
v ir
Ġses uat
ur y
Ġb um
wat ch
Ġasp al
dan e
ĠPer se
Ġdimen angkan
opa use
Ġlo ading
Ġre fl
uu u
Ġke ning
ĠW ill
rama yu
etahu ilah
ĠT id
ur as
sel ain
ni ght
Ġg uide
Ġse dia
Ġdi gi
ENG G
Ġas uh
Ġhistor is
D ih
af ik
OK EP
Ġrec ord
ĠDip l
l angit
armon isan
Ġsport y
N Y
omet ri
Ġ198 6
Ġberp ura
Ġpun ah
? âĢĿ.
ĠD ada
Ġmelon jak
ĠF utsal
l ic
Ġmeny ulitkan
ĠSy am
Ġr ehabilitasi
P emerintahan
C aranya
api an
an ia
ĠKem arin
o tif
w ulan
os om
ĠPen etapan
ing gunya
Ġmenyer tai
Ġpel bagai
ustri a
Ġfe nomenal
Sc ript
Ġperc uma
Ġab d
Ġbangs awan
Ġterb uang
Ġde nah
ump ung
ĠPEN ER
ĠSy ukur
Ġb uy
am uk
Ġper aba
ĠLaz io
Ġb untu
ĠV oucher
Ġprot okol
ĠHotsp ur
ĠBawas lu
Ġpengikut nya
Ġpember antasan
ul urkan
ĠJ usuf
Ġmeny umbangkan
T okoh
Ġberk or
rew ok
Ġl ight
ĠANT ARA
Ġk aka
ĠB BC
Ġjan uari
w alaupun
M akasih
Ġpl ak
Ġgratis an
ĠPer intah
uy ur
oe n
sb ook
Ġpeng aduan
j amkan
A q
Ġke nang
ĠLemb ang
ud z
Ġ oles
Ġc and
Ġpr om
b our
T ravel
uter s
ĠPas aran
ĠS US
c her
Ġke adaannya
K elas
ĠKap olda
eb ang
Ġpeng alamannya
ASIS WA
Ġw alikota
ĠUngg ul
ĠT ugu
Ġpus kesmas
Gun ung
Ġmengab di
inter est
K o
uni um
vest asikan
Ġdib atalkan
ĠBe ijing
ĠT ujuh
ot h
Ġmurid nya
op os
ant y
ĠC ase
Ġmelip at
Kes alahan
b rid
ĠPER L
ĠUNI VERSI
Cer pen
g ila
Ġmar aknya
V C
ĠSup ri
Ġberw ujud
Sya ikh
he ad
r uh
Ġrek rutmen
Ġsk rg
ĠInd ow
Ġr etail
Ġter ak
ĠT angg
Ġth read
Pen giriman
ĠCy ber
Ġh uj
Ġw atu
d p
B an
] :
Ġmakan nya
Ke empat
tanggung jawabkan
rain a
ĠAt ap
Ġb olong
Sta dium
Ġber napas
Ġb ogor
Ġber tengkar
ĠB ALI
Ġdiper barui
Ġt ato
Ġres ah
Ġh ai
ja wa
Ġ9 2
Ġprok t
H a
OH ON
ĠV ital
B and
ĠKom andan
Ġspek ulum
Ġstu dy
ĠD IN
EL AH
no va
no v
anj e
Ġwajah ku
B o
Ġap k
operasi an
sis wi
K ebe
ane n
li fe
am art
K E
r ag
j oy
eb ankan
Dit ambahkan
Ġbert andang
D AN
ul uk
Ġker bau
ĠRos ul
Ġl ocal
Ġ10 1
ĠBel la
Ø ¯
ĠIdent itas
ĠK yai
uju dan
Ġinformasi kan
Des kripsi
Ġmengel uhkan
Ġberker ingat
Ġber alasan
Ġkeba jikan
Ġdi dasari
Ġeks terior
em atan
ĠPeter nakan
ĠM iliki
Ġpengan iayaan
T ren
Ġng et
ĠMem asang
aj e
ĠMEN C
ĠS aling
Ġr egister
Ġber cerai
ĠJ ahanam
Ġuse rname
rihat inkan
Ġt abi
e nsi
ĠT ower
Kem ampuan
ĠDem am
Ġvok al
Ġpandangan nya
Ġp injam
Ġke jar
I d
Buk hari
Ġkali um
ips tick
Ġas osiasi
Sel esai
Ġakadem is
UT AN
ĠE KON
Ġkep utus
Ġmus h
Ġp utuskan
Ġperp ajakan
Ġmeng alah
c bet
Ġle tusan
ĠSat gas
ĠJ K
IV E
ĠJ odoh
Ġkrit ikan
Ġmag ang
Ġ19 20
ĠCh apter
ult anan
oy alitas
Ġpendukung nya
ser t
Ġh ihihi
Ġdih iasi
Ġgan ja
ub urkan
Ġtra v
ĠW artawan
Ġoff icial
Ġh ahah
p ilih
ĠPer hatian
ĠBaek hyun
et nya
ĠÂ «
ĠR aksasa
Ġp iano
Ġkek acauan
M ain
atim ah
Ġal goritma
ĠV III
Ġdiper kenankan
ĠY udi
Ġdip asaran
Ġsta inless
Bukan kah
Ġmemper barui
Ġab g
ĠP ah
ĠWah id
Ġprokt oskop
ji zat
ĠS uhu
Ġmenyen gat
bi ar
Ġh ap
ĠB ayu
ĠBet on
Ġper baiki
Ġ omega
n ol
angkan ya
pap illoma
ðŁ Ĵ
ant arkan
ĠT AR
ĠPert ambangan
Ġdatang lah
PENG ARUH
Ġhasil kan
Ġjaj an
ĠS arah
l ul
ĠKas et
Ġditulis kan
Ġgig itan
Ġle ngkapi
Ġdih al
ĠH asyim
oy an
it z
Ġlangkah nya
EMB ANG
ustr y
ĠUE FA
amp ah
eber kan
ĠRe gional
Pen garuh
Ġpenya ir
Ġpad am
ĠTerj emahan
Ġnan as
ĠHal im
ĠP upuk
Ġmuj arab
Ġser takan
p ir
Ġsig nal
Ġpenc atatan
ĠGab ungan
Ġdim ungkinkan
Ġpro teksi
Meng ingat
Se jauh
Ġpeng urusan
ĠL uhan
Ġsel aras
Ġrek am
Pen ga
IH AT
ĠBun des
ĠLe on
Ġst akeholder
Ġf is
Ġditar getkan
ram at
tor itas
ĠKeh ilangan
ĠDi alah
Ġf antasi
Ġsej uta
Ġpik sel
ĠMus isi
ig akan
In ter
Ġf amily
ark i
ĠAt let
Ġb ug
Ġk nalpot
LIK ASI
Ġv elg
j arkan
eks inya
UNG K
R C
Ġberes olusi
b or
ĠFin ance
ĠEm irat
Pas angan
Ġterp andang
Ġberp ikiran
Ġsen apan
Ġsan ad
ĠBeb ek
AK SI
R ING
Ġpengh ancur
bel akang
Ak ses
ĠA U
K B
Ġmati c
Ġkur asakan
Per ingatan
ĠC C
Ġbe cak
ĠG SM
Per angkat
Ġkekel uargaan
Ġbag asi
Ġl ay
ĠF ans
ber sih
are ngan
Ġkemas yarakatan
Ġterp akai
Ġdir ektori
Ġse geralah
T rip
Ġkeb utuh
18 8
Ġter tuju
Ġmak ro
Ġaq idah
han allah
ĠC OD
ide nce
Ġce ngk
ĠM EDIA
88 8
inj amkan
ĠL aks
S ER
ĠSpesi alis
ĠX i
Ġc ost
ordin at
ĠBer ubah
Pemb ayaran
I ngg
me rah
.. ??
ĠPang andaran
Ġhuman papilloma
M ul
Ġkese tiaan
Ġdef isit
Ġ17 0
aw in
Ġn ag
Ġ15 00
ĠKon flik
Ġbr ok
Ġt oken
ada ya
um us
way s
Ġkar dus
ĠG S
Ġbis ul
ĠEdi tion
Ġdi teri
we r
ite n
Pol itik
Ġse adanya
li on
min yak
Ġmembe ritakan
ĠI PB
ĠBe re
ĠIBC BET
Ġje nggot
Ġmemper ebutkan
ĠT adi
Int l
ĠT antangan
ĠSab un
Ġkor oner
ĠAL AT
Ġsering nya
Ġmem eriahkan
aksi r
P eme
Ġprof ile
re gat
ĠBe nt
ra an
l umi
Ġberc ahaya
Ġpenggemar nya
Rent annya
Ġpengaruh nya
ĠMemp unyai
ĠRe aksi
ET AH
ĠPilih lah
Ġmenu angkan
dok umen
ĠTer kena
ĠSo viet
Ġkegiatan nya
ĠKE D
Ġk af
F ER
ros kop
te x
Ġtangg ap
Ġn amakan
Ġkel alaian
Ŀ ¤
ĠMax s
antu l
tab ilan
ĠD OWNLOAD
ostal gia
ĠPEN YAKIT
s ch
Ġmen transfer
ĠDub ai
Ġketerl ambatan
Ġdiur aikan
Ġhab itat
tic s
ĠYe on
Ġmar et
Ġent itas
Ġgol f
ĠC M
ĠA jaran
gen re
Ġass ist
Ġmengaj ari
Ġj ava
Ġmemb uruk
ĠAri el
Ġjatuh nya
ati ga
Ġkup on
Ġri z
ke ren
Ġberk ek
Ġde g
sk y
ĠD imensi
Ġdite mbak
ĠL ia
Ġmenunduk kan
Ġpene kanan
ĠI ron
D ist
Ġten gok
ĠMab es
Ġmengh angat
Ġdib arengi
Ġk ru
R abu
ĠS INI
M impi
kom sel
ĠL P
ĠEx po
Ġmenjawab nya
Ġj omblo
ĠD osa
Ġlite ratur
ent ak
Ġji wanya
Ġter mahal
mem per
ĠL em
v y
ch ar
Ġdi dis
ĠImp ort
ĠA ji
ĠUl tra
ĠY os
ĠV irtual
Ġf av
ĠAd obe
ĠT ris
ĠJan uary
tegrasi kan
oro ti
ĠN ET
our s
oc okan
Ġtab le
g ratis
Ġ8 4
Ġmeng emas
ro ho
Ġsim pat
Ġmonitor ing
Ġdig anggu
ĠM ail
Ġber negara
las sic
alan ce
ĠPil gub
ĠCer pen
ĠSab ar
ĠPer awan
Ġngan tuk
Ġk ancing
Seb aiknya
Ġego is
Ġpember ontakan
Ist ri
ĠCom ment
ĠKend ati
Ġkontr aksi
Ġke tul
Ġberakhir nya
Ġmut akhir
Ġtr ade
com m
Ġn at
ĠR aga
ĠB ambu
ĠMust ika
s uku
Ġst ylish
IS ATA
Ġprib umi
ĠMOB IL
ĠT ENGAH
Ġpenyel amatan
Ġmenul arkan
ĠIn g
M PTN
Ġberb isik
ĠRes iko
Ġberb ulan
Ù Ĥ
Ġakum ulasi
rum us
or ia
T o
ĠTae yeon
Ġ dn
Ġamp lop
Ġbin aan
ad or
w alah
Ġmelak oni
Ġs inkron
Ġdir ugikan
g w
AJ EMEN
Ġex cel
Ġsal eh
ĠRes eller
Ġproses i
KON TAK
ĠC ukai
Ġint ro
D O
Ġ duta
es mian
Ġs udi
S eks
ĠSh al
ĠSe d
ĠAyah nya
ab et
Ġmer ch
se nyum
ĠSol usinya
Ġblog spot
ĠM US
id z
Ġpen awar
Ġb angkok
Ġedi ting
Ġster il
kep ada
Ġkerus uhan
Ġprinsip nya
s akit
!! âĢĿ
J umat
Ġmenger as
ahan nya
m otor
i x
ĠBe danya
ĠOp tions
ĠPen siun
Ġmenj ilati
ĠSem esta
ĠD jar
Ġlok et
Ġbers umpah
ĠS andal
ĠH ut
ril l
T ingkat
ĠL ambung
Ġpend aki
b oleh
Ġmenghir up
G ol
se dikit
Ġputr anya
Ġdram atis
T ulis
ĠSub i
Ġberb anding
R BT
asi c
Ġga wat
Ġsem ak
Ġri ght
ci uman
Ġsel ular
Ġdi daerah
ĠSal lam
ĠCh andra
Ġber jaga
Kem arin
ĠKAR ENA
Ġekspek tasi
de w
Ġ8 7
Ġmengk onfirmasi
ĠH aha
Ġpeny andang
ĠT ambang
ĠM anjur
Ġberp ihak
Ter sedia
ĠAn na
AL L
Ġmenjual nya
rim ob
Ġkej elasan
ĠMeng atasinya
Ġsay s
Ġmember nya
ĠPEM ESANAN
Ġberb adan
Ġdesain nya
Ġdi ja
ĠKar pet
Ġpil ek
Ġt una
Ġpen uhi
ĠSh ang
anc ong
G U
ĠMag ister
ĠSu gi
Ġdi teg
Ġmont hs
. :
f u
ga gas
ĠS pecial
ĠAntoni o
S ifat
Ġl ans
ĠU P
ĠP ek
ĠMo use
Ġdi dat
imp anan
ĠD itu
Ġgem ilang
IT IK
v et
ĠC amera
ĠKe percayaan
es ia
Ab dul
Ġte gar
P EL
ĠDSL R
d aur
Ã ®
ĠPem akaian
Ġmenj u
Ġke pengurusan
Ġpropor sional
Ġdo i
ĠM AC
ĠG ian
ĠC our
Ġdah i
ĠSi ak
. ?
Ġumat nya
TR A
Ġterb antu
AW AH
Ġj a
ĠDi v
ter angan
ĠM UDAH
ir annya
ĠK il
ĠPP h
Ġmenyer ukan
Ap ril
Ġke pat
ĠPengel ola
ol ler
ĠA spek
ĠTau fik
ĠBERS AMA
ĠF u
ĠMis kin
it nya
it aran
ĠIn ti
p otong
Ġmenyel am
ĠORGAN ISASI
Ġberkel ompok
Ġsek umpulan
UNG SI
d ariku
Ġabd omen
de p
ĠMin ho
Ġmemper kaya
Ġmeri ca
es atan
Ġen aknya
we dan
Ġpeng gel
ĠSE BEL
cuali an
ĠEks trak
ĠGir l
ĠB akso
Ġ3 20
b adan
ĠMan ual
Ġmenel pon
k t
si g
ï Ĥ
C G
ĠKom isaris
Ġdicer na
Ġ7 9
ĠI BU
Ġger hana
angg alan
Ġmeninggal kannya
Ġkelemb agaan
ĠSekitar nya
ĠP MI
Ġsia ga
ĠRe y
Ġ ari
Ġdo or
ĠF PI
ĠT arik
Ġditemp ati
Ġpert anyaannya
Ġmenger ahkan
Ġr ambu
Ġlum rah
ĠB H
Ġlidah nya
oh o
m awati
ĠKek ayaan
ain i
ch o
ĠP it
ur ity
Ġmobil itas
Ġ19 88
uk unan
Di per
Ġkompet itor
ĠAnt on
ac ikan
ont o
ach ing
ĠT sunami
Ġditu angkan
xi on
Pent ingnya
ull oh
Sh are
Ġr isikonya
Ġmer api
EL OLA
b ij
Ġdiper lihatkan
ĠKons ultan
Ingg ris
al uri
Ġtar uh
n ate
ĠSimp ang
ont ong
ĠGel ombang
Ġsimp anan
pr int
ĠAngel es
ĠC AT
sil akan
ĠDike nal
un o
ĠK ualifikasi
UN YA
amp an
Ġke anggotaan
unt y
W AR
ĠM ba
ĠAir langga
ĠAr ya
araw ih
Ġeksp lorasi
PA D
Ġsen gg
ĠVia gra
ace r
K unjungan
Ġny ala
aq i
l ag
Ġmengel us
Ġmemf okuskan
ĠSant oso
Ġve na
Ġpant atnya
Ġkehadiran nya
Ġseg udang
per tensi
Ġmendes ah
ĠSosi alisasi
Ġm cm
Ġte bak
aj jal
Ġ dariku
iff any
Ġbaj unya
ĠU ber
Ġes timasi
Ġm ol
at uhan
uny ian
ĠKepe gawaian
Ġdit injau
ĠB ridge
ĠP ack
Ġb ilik
Ġakadem isi
Ġsy irik
mb a
ĠSUR ABAYA
Ġmel ingkar
Ġh omo
IN YA
uj ang
ĠP akar
ĠR ancangan
Ġs iksa
Ġj ama
k ok
Ġhal angan
ĠKomp leks
ĠPers onal
ĠF OTO
ĠSel at
tr ack
ĠKebe naran
hadi ts
ĠM aksud
gen ggam
Ġ od
Ġkep on
ĠPemb ahasan
ebrit is
Ġdius ulkan
if ul
Ġberkol aborasi
Ġh ahahaha
Ġsun yi
ĠAdmin istr
Ġpen anda
ura gan
Ġpest isida
Ġl ekas
Ġc amera
Ib nu
Ġmemp elai
op s
Ġleher nya
Ġmas anya
MA IN
Ġkons istensi
Ġul tah
ĠAs ep
ikl anan
Ġmanusia wi
pl ore
Ġk asi
ĠKal bar
ĠW ikipedia
Ġastr onomi
p ns
An eh
?âĢĿ ,
Ġiri gasi
tem a
tern et
amp unan
we e
ĠG U
Ġma unya
ĠMe gawati
rot kan
Ġc antumkan
F acebook
Ġdih impun
ĠTIK I
ĠTER L
Ġsa ingan
Ġ alaihi
Ġhy ung
Up aya
Ġkor porasi
b iz
und aan
ĠA PI
ĠKe indahan
Ġre generasi
ĠSekali gus
ĠF ast
ungk as
ĠSab ang
uti ve
u ger
rame dia
ĠMe ntal
Ġseb isa
c ewek
id ay
ĠS if
amping kan
Ġmengi mbang
ce ne
zz le
Ġbuk tinya
ĠM ill
og ba
Ġter angkat
ĠBlog This
ĠP otong
ĠTer nak
Ġsel ektif
Ġkanc ah
Ġtem u
ĠLemb ut
le ge
Ġch ina
Ġmemeriks akan
ATI F
AMB AR
Ġterg oda
ĠK ritik
W ajah
ĠP ET
Ġper helatan
Was pada
aul at
ĠS ams
ĠUsah akan
Ġr os
Ġh ina
Ġser ikat
ĠCh anyeol
p ha
Ġn ik
Ġdib uru
Ġdig el
Ġterl atih
ĠS wan
ĠJer sey
Ġac e
per empuan
ho use
Ġsn ork
pe nc
Ġint elijen
te ori
ĠTuhan nya
Ġmenge ny
Ġkeker ingan
be gitu
Penge mbangan
derhana an
ĠNur ul
Ġdip an
Ġc atering
Ġkeh angatan
ĠB ONUS
B inary
Ġr oyong
Ġk walitas
Ġkeas lian
Ġhak iki
kac angan
ĠIns tr
Pel atih
ĠUNIVERSI TAS
is se
Ġbi ak
Ġ* **
ĠSk in
Ġme te
36 5
ĠLi mbah
Ġph ot
Ġtak e
ock et
ĠA ustria
Be rat
ĠZi dane
Ġterl aris
ĠEksp or
ĠAs et
YAR AKAT
usn ahkan
Ġkh an
tengk aran
ĠR EK
ĠI ce
ĠMenc intai
ĠDi antara
ĠEKON OMI
ring i
el ur
Ġinf lamasi
per ubahan
ĠSMP N
ĠSEN DIRI
gab ungan
Ġisi an
Ġ198 4
ro bak
ne um
Ġr adhiyallahu
ĠPerb aikan
Ġle cet
we nang
Memb angun
ĠRo ot
Ġmembas ahi
n ian
Ġmel ingk
ĠM angg
Ġpenyakit nya
Ġb ongkar
we n
ati o
sun nah
ESI N
b eberapa
ul ap
ĠPr aktek
Ġbert ebaran
ĠAb raham
B andingkan
Se andainya
olong kan
ĠSer vices
Ġbe auty
ĠK omb
k up
Ġbid adari
U c
r ai
ord on
Ġsambung nya
aul ah
Ġsub stansi
Ġshop ping
ten ance
Ġmenju arai
Ġdi datang
C L
ĠTo uch
Ġkeb odohan
b andung
ĠSU V
Ġmeng gantung
Ġand ai
Din as
Ġpemb uktian
Ġdarah nya
ĠSM U
Ġ198 7
ĠE ditor
urn ian
ĠMaul ana
Ġmas turbasi
ĠD arus
P resentasi
ĠS BM
k apan
si e
der land
ĠMo on
dl l
ikh lasan
Ġhel ikopter
ij ang
Ġmemberikan nya
ĠT anggapan
Ġberde bar
me ga
H AN
ĠMel ainkan
Ġco unter
Ġters umbat
) ..
Ġmin oritas
ĠF as
gun ung
ĠPeny el
ingg ang
ĠOp ini
Ġti mbangan
ĠSTA FABAND
y p
Ġste el
lus ter
ĠBer g
ĠAb ad
b apak
AJ AK
Ġse w
OT OR
ĠJ IKA
Ġcap res
Ġke arifan
Ġtem pel
ĠS IP
ĠAM D
Ġ dorong
Ġdip ikir
Ġt umis
ĠF ath
ov a
C ewek
ant un
Ġberper ilaku
eme di
ĠYog ya
s ya
ĠJ ibril
Ġpengh ujung
Ġ8 1
Ġmeng ampuni
ĠB EB
ujur nya
Ġrah ang
r int
Ġra ihan
is ep
ĠVictor ia
Ġ dot
Ġdip ajang
Ġber duka
ĠP indah
Ġmenafsir kan
B ahaya
ĠPon orogo
ale n
Ġbandar q
ĠY on
ranch ise
ĠMak am
ro pon
m arah
Ġdis ematkan
ĠSc ience
Ġlal ai
Ġmemb an
at ika
Ġdil ak
ĠPr ok
ĠDemikian lah
Pe ndapat
Ġ1 11
ind ai
Ġmene ntu
Ġmeny edot
L P
ĠPri vat
ag um
C uma
Ġ3 38
and alan
Beli au
ĠH angat
Ġmengh indarkan
ĠN in
Ġbertak wa
Ġs au
Ġ08 22
K iat
ĠMem utihkan
un inya
ĠGal eri
B ak
Ġperb uat
EMB ALI
P in
Ġc ent
ia gam
awi yah
kom info
lem ent
ĠUk raina
Ġt umpah
D C
ĠK laim
Ġlip atan
ĠB AHAN
Ġcar ilah
tar uhkan
Ġp angkalan
INGG U
Ġ ilah
Ġaj e
No vember
ĠKul on
ĠL ENGKAP
Ġak ta
ĠAme rica
b b
isip kan
ĠMet al
ĠPer ak
Ġmengg ugah
Ġos te
Ġtek un
geri a
Ġdo yan
ĠD ATA
rit ing
Ġga ul
ĠPerk asa
Ġpari purna
ĠD ara
se mber
len ge
ĠE lec
ĠAG AMA
ĠAl k
ji dil
b lock
Ġmal ware
pro yek
ĠMar y
Ġp ustaka
Ġber uang
Ġchar ger
ĠG ili
Ġc um
ebih annya
ĠP ijat
Ġberk ar
eli aran
fi q
ĠKey board
Vi ew
ĠKont es
Ġpr eman
ĠBER D
Ġmen ekuni
ĠKH USUS
rbo ard
ĠRES MI
Ġfr ustasi
F orex
Ġtan yanya
ĠOrgan ik
ĠH AK
Ġdis count
Memb aca
ĠPenye dia
Ġkutu b
Ġb ungk
ĠO RI
ĠRek or
Ġdidat angkan
Ġber aktifitas
Ġ08 2
B aga
Ġ daur
Ġters aji
Ġe vakuasi
und ingan
w ir
Ġb okong
I mp
Sun nah
ĠMak hluk
H ATI
ĠSe a
ĠC ah
Ġh ara
D im
Ġla unching
Ġh ehehehe
ingin kannya
m impi
Ġk udus
ĠS umenep
ĠH j
ĠLip at
ora emon
tim ulasi
ĠMin angkabau
Ġmend ung
Jawab an
b is
ĠBuk tinya
ĠBundes liga
des ak
Ġpelemb ab
nen g
Ġsi gn
ĠL at
ala fi
Ġmen diskusikan
Ġdek larasi
Ġbah awa
ntu t
) âĢĿ
ap ang
Ġpem irsa
n b
Ġsh ol
Ġse xy
F ile
ul uan
ĠL ew
ĠBe at
ĠMin ang
M K
Ġmengatas namakan
Ġberh ala
Ġ8 3
ĠPat ung
ĠWAK TU
IND O
ungg ulkan
ĠD ress
Posting an
ce des
ĠMoh ammad
Ġkem udi
ot in
ĠIk a
Ġmengur aikan
bak teri
ik il
Ġh ob
imp ahan
Ġpac u
Ġn ikmatnya
Ġmemil ki
Ġpl ur
Keb iasaan
Ġtonton an
ĠMon as
ĠMak asih
K ris
Ġ:) )
Ġba it
TAK A
Ġju bah
ĠDib utuhkan
Ġpem angku
S uasana
te roid
Ġmenye ret
ĠPro tein
aris ma
M emp
Ġco ol
Ġmencinta inya
ĠKepem impinan
T adi
ĠH T
ĠJul y
Ġ08 21
Ġadministr atif
Ġmulut ku
Ġfos il
rik u
J ANGAN
ï» ¿
ĠM ATA
Ġr azia
ĠN ia
Ġbac carat
ĠF utu
ĠPrat ama
adi o
Ġmen uk
Ġc atur
Ġcer ai
ĠEle gan
H atta
ĠSu am
ĠC uaca
sc ar
ĠM ASA
imb ar
ĠOR DER
Ġkil o
ĠSel andia
Ġmerem ehkan
inc angkan
Ġz ina
ĠG ram
antai an
Ġdic antumkan
Ġm ail
ĠJEP ANG
ĠDek orasi
ĠKarangan yar
ngk a
Ġs amar
Ġber datangan
Ġjah itan
ĠV IDEO
ĠSar ung
Ġpr ol
Ġg urun
ĠBer diri
k ak
ĠO P
Ġmeme rankan
Ġhabis kan
ĠW ang
ĠDaw ud
Ġterp uruk
ĠR angka
Ġpen a
Y AH
j ob
ih ari
s ab
Ġi ce
ĠSer ingkali
unc ing
ist ance
Ġmar ilah
Ġs alaf
Ġ8 9
ĠUn gu
od orkan
Ġperc etakan
Ġ Ð
Ġker ang
Ġmena ungi
Ġaparat ur
ĠChar les
Ġmengh arap
Ġmemper hitungkan
kw k
Keh idupan
ĠKepe ndudukan
ĠLi ber
Ġmil eni
Ġl oker
ĠM s
Ġmenye ramkan
Ġaktif kan
ĠPes ona
Ġsah ut
Kap al
ĠMul yani
ĠPRO F
ĠSer agam
ĠMen ampilkan
ĠG reat
ĠN G
$ $
ĠManfaat nya
ĠBas wedan
Ġfil osof
Ġ7 50
ark as
ter api
ent ing
p romo
W ajib
ĠðŁ Ĵ
ĠCe ngan
pe rie
ĠMeng atur
Ġpembe nahan
Ġkomp res
IL ANG
ĠTEM PAT
ĠHam zah
Ġdi waspadai
Ġmeri wayatkan
Ġmeng incar
Ġpengh ilang
ĠBanyak nya
Ġ10 5
Sis wa
ĠN aw
Ġpel ayaran
Ġmen imp
Ġp ok
he rbal
ing gungan
Ġsel ese
Ġkerag aman
ĠK yu
Ġket el
PER TI
Ġul tra
ĠEF EK
ĠDit jen
amb anan
hal ang
Ġmember antas
pro v
Ġpsik olog
lak uan
pas tian
Ġgal eri
Ġw udhu
Ġmus yrik
w oo
Ġbasi c
K itab
ĠMemb awa
ĠBer lin
ĠAd akah
ac he
Kom isi
ute n
C K
ĠTh alib
Ġsec urity
Ti ap
isa at
P ON
ĠLun ak
Ġdeng arkan
Ġri val
Ġf ajar
luk tu
ĠG ong
E nt
FA AT
Ġraw it
Ġin dera
I AP
ĠW o
Ġvari etas
ĠNas ution
N OLOGI
K AR
ĠE v
Ġc urang
ĠU AS
Ġpsik is
Ġs iku
Ġak sen
ot bah
ĠT OKO
Ġm apan
ĠDah ulu
Ġw hite
Ġsep otong
Ġstruktur al
Ġre ferral
200 2
das kan
ĠRe f
Ġl ada
ĠJ ustin
ĠMeng ambil
Ġr ampung
ĠPer manen
Ġdiseb ar
Ġstand art
ĠF ed
Dij ual
Ġc ons
d up
Ġpeny emp
ĠSte ve
ĠP interest
DI SI
ĠMur id
ĠH ow
AN DA
ve away
aw uf
roma x
r uang
Se wa
Ġreser vasi
Ġagus tus
Ġaw ard
ĠN ic
ĠHabib ie
Ġdis uguhkan
Ġ ajah
ĠInd ramayu
Ġkara oke
B E
gar uk
M inum
ĠO les
Ġmengg eser
ĠKep ribadian
Ġtet apkan
ĠJog jakarta
Ġac ap
Ġmencur igakan
h ay
Ġs nack
Peng aturan
Ġpe ti
ENT ER
ee ee
um ul
ĠK T
Ġv o
Ġamp unan
ĠPer ingkat
k elas
Ġpen ambah
o ordin
ropon ik
emb uskan
Ġdat anya
Ġn ame
antu i
ĠPes isir
Ġin speksi
Ġterp apar
ist ilah
tim eter
UN T
Ġw kwkw
or eksi
obat inya
Ġbiar lah
Ġmele tus
Ġkredi bilitas
Ġdiper t
ĠP angkalan
ĠBrow n
l p
ĠN ab
ĠKE B
Ġbers kala
Ġl ang
ĠUb untu
Ġdi warnai
Ġfi ber
ĠMenga jar
ĠI HS
Ġmaz hab
ol aknya
Ġdi aduk
Ġp aku
Ġto peng
n ungan
iny ur
Ġsc ore
Ġtert unda
Ġmen itik
F D
ĠD uka
ĠU no
Ġab ses
ĠPrak tik
v ard
Ġp akailah
ĠL is
ĠBl ibli
h ia
Ġaj ukan
Ġmemp rihatinkan
Ġbo ard
ĠQue e
Ġkek h
ĠD arm
Ġsukar ela
ungk idul
S UL
nd ala
B ukti
ĠS urah
udi dayakan
Ġc ip
Ġsepe kan
ĠTa urat
ĠY uli
ta fa
amp oo
Ġ duni
ĠPUS TAKA
Ġmerangk um
Ġser uan
osk opi
m ond
Ġmem intanya
Ġsing apore
untu han
Ġlip utan
ĠR aw
Dis amping
ĠU ngkap
Ġterp isahkan
Ġder maga
Ġcy ber
Ġj aya
ĠMENG GUNAKAN
p acker
Ġsolid aritas
Ġgrav itasi
y eksi
it ator
Ġperm usuhan
ram ai
Ġl ik
Pes awat
ĠKel iling
ge de
kir aan
ĠKem asan
ĠJ ob
Ġad renal
ĠðŁĺ Ĩ
Ġkebutuh annya
Ġ doc
b es
is ak
Pernah kah
ĠK ukar
AK AH
Ġmenya pu
ri f
H ewan
Ġmer ta
ise n
ĠMengh apus
Ġt atap
Ġn inja
ĠMau pun
ust ik
Ġmenggemb irakan
ĠPel ih
Ġin spiratif
Ġkonek tivitas
Ġak idah
K unjungi
J epang
ĠTR ANS
ĠKal ung
Ġsis tim
ĠL emah
ĠIn di
Ġ9 3
b uah
ĠSaf ety
ĠH obi
bal ingga
h is
ĠA J
angu age
Int inya
ugu ay
Ġpr emi
Ġ13 5
ĠMon aco
Ġiris an
ĠMAS YARAKAT
ĠK amil
ĠDik atakan
Ġs and
ĠBengk el
ĠCS R
Ġul angan
ĠW ajar
or s
ĠForm ulir
cast le
ec utive
re f
ĠSt and
j ono
ĠAl un
ĠL ANG
aman annya
ĠD olar
ĠR yan
ĠF ungsinya
Ġterj e
ĠJ amaah
ĠH ikmah
ĠAk reditasi
Ġmener jemahkan
no a
ĠKab inet
Su ami
ri x
ĠNy onya
ĠJangan lah
Ġpel estarian
L ama
ĠAY AM
ane r
Ġak urasi
kar angan
ĠAN ALISIS
put ri
TI ON
Ġ, ,
pas ti
ĠBen teng
Ġkl oset
IS AH
Ġseg elintir
tu mer
am o
ĠIn sp
ĠKalau pun
ĠD L
ĠPengh ilang
r empah
Ġi p
ĠB esok
Ġsulit nya
Ġk ayanya
AMP UNG
Pel aku
Ġterus kan
ĠSil at
Ġdiag ram
Ġbap aknya
ĠPem asangan
ĠPemb ukaan
Ġmi gas
b uka
ono giri
ĠKar o
P ola
Ġeks tensi
Ġluas nya
ĠSup lemen
ĠM ig
Ġpe dalaman
Ġkekurangan nya
Ġdidatang i
ĠK O
ã ģ
ĠP aman
ĠSm ith
ĠAc ademy
it oris
Ġtek a
Ġpendapat nya
Ġmikro organisme
Ġme g
ĠB ran
ĠInt an
Sep anjang
R R
angg ota
man n
ĠG mail
Ġfisik nya
ĠRe z
h ut
Ġdisim ak
Ġ16 5
Ġpem ungutan
Ġhar tanya
ĠL ow
uk uan
w ide
if ic
Ġf ace
Ġmenge ncangkan
Meng etahui
ĠI Z
Ġinter face
UG AS
har inya
P EK
anj atkan
L omba
Ġf emin
t ravel
ĠTi ger
ĠAp r
Ġmengab ulkan
ĠK awan
utuh nya
Ġdiser takan
ntu ry
r ary
Ġkeme wahan
Ġal un
Ġmodel nya
Ġâ ĺ
ĠSouth ampton
ĠSta ff
put ih
Ġber tubuh
Ġmere alisasikan
Ġpram uka
Ġe ceran
bal ap
âĢľ .
ĠKAM U
Ġpen ambangan
f ast
ĠPERT AMA
Ġad am
ĠK ATA
Ġsup lai
Pem uda
Ġmeng ingkari
G al
Ġlite rasi
Ġen joy
UM B
ĠMen gen
B elanja
Ġter bayang
ĠK elahiran
Ġkl arifikasi
ĠRo om
[...]
