{"<|endoftext|>":0,"!":1,"\"":2,"#":3,"$":4,"%":5,"&":6,"'":7,"(":8,")":9,"*":10,"+":11,",":12,"-":13,".":14,"/":15,"0":16,"1":17,"2":18,"3":19,"4":20,"5":21,"6":22,"7":23,"8":24,"9":25,":":26,";":27,"<":28,"=":29,">":30,"?":31,"@":32,"A":33,"B":34,"C":35,"D":36,"E":37,"F":38,"G":39,"H":40,"I":41,"J":42,"K":43,"L":44,"M":45,"N":46,"O":47,"P":48,"Q":49,"R":50,"S":51,"T":52,"U":53,"V":54,"W":55,"X":56,"Y":57,"Z":58,"[":59,"\\":60,"]":61,"^":62,"_":63,"`":64,"a":65,"b":66,"c":67,"d":68,"e":69,"f":70,"g":71,"h":72,"i":73,"j":74,"k":75,"l":76,"m":77,"n":78,"o":79,"p":80,"q":81,"r":82,"s":83,"t":84,"u":85,"v":86,"w":87,"x":88,"y":89,"z":90,"{":91,"|":92,"}":93,"~":94,"¡":95,"¢":96,"£":97,"¤":98,"¥":99,"¦":100,"§":101,"¨":102,"©":103,"ª":104,"«":105,"¬":106,"®":107,"¯":108,"°":109,"±":110,"²":111,"³":112,"´":113,"µ":114,"¶":115,"·":116,"¸":117,"¹":118,"º":119,"»":120,"¼":121,"½":122,"¾":123,"¿":124,"À":125,"Á":126,"Â":127,"Ã":128,"Ä":129,"Å":130,"Æ":131,"Ç":132,"È":133,"É":134,"Ê":135,"Ë":136,"Ì":137,"Í":138,"Î":139,"Ï":140,"Ð":141,"Ñ":142,"Ò":143,"Ó":144,"Ô":145,"Õ":146,"Ö":147,"×":148,"Ø":149,"Ù":150,"Ú":151,"Û":152,"Ü":153,"Ý":154,"Þ":155,"ß":156,"à":157,"á":158,"â":159,"ã":160,"ä":161,"å":162,"æ":163,"ç":164,"è":165,"é":166,"ê":167,"ë":168,"ì":169,"í":170,"î":171,"ï":172,"ð":173,"ñ":174,"ò":175,"ó":176,"ô":177,"õ":178,"ö":179,"÷":180,"ø":181,"ù":182,"ú":183,"û":184,"ü":185,"ý":186,"þ":187,"ÿ":188,"Ā":189,"ā":190,"Ă":191,"ă":192,"Ą":193,"ą":194,"Ć":195,"ć":196,"Ĉ":197,"ĉ":198,"Ċ":199,"ċ":200,"Č":201,"č":202,"Ď":203,"ď":204,"Đ":205,"đ":206,"Ē":207,"ē":208,"Ĕ":209,"ĕ":210,"Ė":211,"ė":212,"Ę":213,"ę":214,"Ě":215,"ě":216,"Ĝ":217,"ĝ":218,"Ğ":219,"ğ":220,"Ġ":221,"ġ":222,"Ģ":223,"ģ":224,"Ĥ":225,"ĥ":226,"Ħ":227,"ħ":228,"Ĩ":229,"ĩ":230,"Ī":231,"ī":232,"Ĭ":233,"ĭ":234,"Į":235,"į":236,"İ":237,"ı":238,"Ĳ":239,"ĳ":240,"Ĵ":241,"ĵ":242,"Ķ":243,"ķ":244,"ĸ":245,"Ĺ":246,"ĺ":247,"Ļ":248,"ļ":249,"Ľ":250,"ľ":251,"Ŀ":252,"ŀ":253,"Ł":254,"ł":255,"Ń":256,"an":257,"Ġm":258,"ar":259,"ang":260,"Ġs":261,"at":262,"in":263,"ak":264,"Ġb":265,"ah":266,"Ġme":267,"al":268,"Ġk":269,"Ġp":270,"di":271,"Ġt":272,"am":273,"as":274,"un":275,"ya":276,"Ġdi":277,"Ġse":278,"kan":279,"Ġmen":280,"tu":281,"Ġy":282,"Ġpe":283,"Ġyang":284,"Ġbe":285,"ap":286,"Ġke":287,"Ġte":288,"is":289,"ad":290,"ik":291,"dan":292,"Ġdan":293,"Ġl":294,"de":295,"it":296,"il":297,"ga":298,"on":299,"ĠS":300,"Ġber":301,"ing":302,"ĠP":303,"el":304,"or":305,"us":306,"ĠA":307,"Ġh":308,"gan":309,"mb":310,"nya":311,"akan":312,"Ġter":313,"ur":314,"ĠM":315,"ĠK":316,"Ġj":317,"ĠB":318,"ari":319,"ut":320,"Ġin":321,"es":322,"Ġde":323,"ul":324,"ĠT":325,"ri":326,"uk":327,"ada":328,"ih":329,"ĠD":330,"um":331,"ol":332,"tuk":333,"ngan":334,"eb":335,"em":336,"ti":337,"gi":338,"Ġper":339,"ara":340,"id":341,"ai":342,"âĢ":343,"Ġmeng":344,"au":345,"Ġdengan":346,"Ġun":347,"Ġini":348,"ja":349,"Ġpen":350,"ek":351,"asi":352,"Ġuntuk":353,"ung":354,"alam":355,"si":356,"Ġr":357,"pe":358,"ĠI":359,"nd":360,"Ġc":361,"et":362,"Ġi":363,"..":364,"Ġmem":365,"ba":366,"dari":367,"Ġn":368,"om":369,"Ġdari":370,"Ġ(":371,"alah":372,"ta":373,"and":374,"ud":375,"te":376,"ama":377,"Ġsa":378,"ir":379,"ĠJ":380,"ia":381,"up":382,"ain":383,"uh":384,"ab":385,"ok":386,"Ġg":387,"idak":388,"ro":389,"per":390,"anya":391,"Ġmemb":392,"Ġ2":393,"im":394,"dalam":395,"ĠH":396,"Ġba":397,"ĠR":398,"eh":399,"Ġtidak":400,"Ġat":401,"Ġw":402,"Ġdalam":403,"Ġmer":404,"angan":405,"ita":406,"amp":407,"lah":408,"Ġitu":409,"ĠC":410,"ĠL":411,"ukan":412,"apat":413,"ĠPe":414,"Ġakan":415,"na":416,"be":417,"nt":418,"uat":419,"ay":420,"Ġpada":421,"isa":422,"Ġ1":423,"aw":424,"dapat":425,"Ġad":426,"ĠN":427,"Ġju":428,"Ġmel":429,"ali":430,"ag":431,"Ġmas":432,"ata":433,"orang":434,"ot":435,"atan":436,"Ġatau":437,"ant":438,"Ġbisa":439,"ep":440,"apa":441,"Ġf":442,"yak":443,"udah":444,"ĠG":445,"asa":446,"ana":447,"jadi":448,"Ġjuga":449,"ĠMe":450,"ub":451,"nda":452,"are":453,"Ġadalah":454,"Ġak":455,"ati":456,"ĠâĢ":457,"ĠU":458,"os":459,"Ġ20":460,"aj":461,"amb":462,"ika":463,"ua":464,"Ġada":465,"ami":466,"ter":467,"aya":468,"ge":469,"ebih":470,"ac":471,"alu":472,"gai":473,"oleh":474,"se":475,"ĠAnda":476,"Ġsem":477,"wa":478,"AN":479,"Ġsek":480,"anda":481,"Ġsel":482,"adi":483,"Ġdapat":484,"Ġhar":485,"ahan":486,"ĠO":487,"api":488,"Ġmeny":489,"ĠTe":490,"ke":491,"seb":492,"atu":493,"arena":494,"Ġseba":495,"agi":496,"ĠW":497,"aran":498,"Ġ201":499,"re":500,"ĠF":501,"Ġkita":502,"Ġsaya":503,"angk":504,"ob":505,"me":506,"ra":507,"inya":508,"uan":509,"eka":510,"Ġlebih":511,"gun":512,"âĢĿ":513,"Ġpro":514,"Ġoleh":515,"anyak":516,"sebut":517,"...":518,"Ġanda":519,"Ġmenjadi":520,"ip":521,"Ġorang":522,"Ġbah":523,"alan":524,"aru":525,"eri":526,"Ġseb":527,"og":528,"Ġtah":529,"Ġpeng":530,"ber":531,"Ġlain":532,"ĠIn":533,"Ġsudah":534,"Ġser":535,"pat":536,"akukan":537,"angg":538,"iki":539,"Ġkarena":540,"isi":541,"angat":542,"eg":543,"perti":544,"aan":545,"Ġtersebut":546,"ĠY":547,"ones":548,"ine":549,"ĠBe":550,"ĠSe":551,"tr":552,"Ġmereka":553,"Ġkep":554,"onesia":555,"anj":556,"itu":557,"Ġkel":558,"ĠE":559,"ĠInd":560,"cara":561,"ĠPer":562,"Ġan":563,"ĠMen":564,"ĠTer":565,"Ġbanyak":566,"ĠAl":567,"ĠKe":568,"Ġsatu":569,"ib":570,"ve":571,"Ġsebagai":572,"op":573,"ntuk":574,"Ġe":575,"00":576,"duk":577,"Ġbel":578,"Ġkami":579,"ĠPen":580,"Ġ-":581,"uj":582,"ĠIndonesia":583,"Ġsen":584,"aman":585,"ala":586,"Ġsangat":587,"Ġbagi":588,"itas":589,"Ġseperti":590,"ungan":591,"utu":592,"ingga":593,"Ġ:":594,"Ġmenc":595,"unya":596,"ingk":597,"Ġkon":598,"uar":599,"oh":600,"asil":601,"Ġmemil":602,"ent":603,"arang":604,"tem":605,"Ġsaat":606,"Ġmak":607,"ku":608,"ong":609,"Ġkem":610,"orm":611,"gunakan":612,"ini":613,"Ġpem":614,"le":615,"asan":616,"Ġtahun":617,"Ġpemb":618,"ihat":619,"int":620,"Ġtelah":621,"pa":622,"amu":623,"diri":624,"Ġker":625,"Ġtak":626,"af":627,"Ġ3":628,"ĠBer":629,"Ġharus":630,"Ġtem":631,"line":632,"ow":633,"emb":634,"ian":635,"uran":636,"Ġdil":637,"Ġhanya":638,"Ġpas":639,"Ġya":640,"Ġsaja":641,"Ġaku":642,"Ġag":643,"art":644,"Ġv":645,"uah":646,"udi":647,"elah":648,"Ġbaik":649,"Ġkes":650,"Ġbahwa":651,"ĠâĢľ":652,"ĠDi":653,"ungk":654,"nis":655,"ota":656,"Ġsecara":657,"Ġdis":658,"ew":659,"angs":660,"ind":661,"Ġhal":662,"Ġbers":663,"ten":664,"Ġmemiliki":665,"gk":666,"uka":667,"Ġseh":668,"Ġpel":669,"arkan":670,"Ġlagi":671,"Ġmengh":672,"ikut":673,"umah":674,"ran":675,"ting":676,"ingin":677,"Ġhari":678,"usah":679,"der":680,"alau":681,"lik":682,"angkan":683,"ampai":684,"âĢ¦":685,"gg":686,"ahkan":687,"Ġbi":688,"dua":689,"ate":690,"upakan":691,"yar":692,"Ġsi":693,"uhan":694,"Ġkom":695,"hir":696,"Ġmembuat":697,"apan":698,"Ġtent":699,"Ġap":700,"Ġal":701,"Ġkepada":702,").":703,"ER":704,"aat":705,"he":706,"Ġpert":707,"nar":708,"berapa":709,"ngk":710,"ses":711,"amun":712,"Ġman":713,"ingg":714,"ĠâĢĵ":715,"Ġtet":716,"ic":717,"Ġterb":718,"Ġmasih":719,"Ġmerupakan":720,"Pe":721,"aktu":722,"Ġbeberapa":723,"ual":724,"Ġdia":725,"Ġdib":726,"Ġanak":727,"pun":728,"ont":729,"Ġbaru":730,"dik":731,"aku":732,"Ġas":733,"ma":734,"Ġbes":735,"ed":736,"uang":737,"Ġkali":738,"ulan":739,"onal":740,"idup":741,"Ġsemua":742,"elum":743,"Ġberk":744,"Ġterl":745,"Ġpara":746,"unia":747,"Ġdik":748,"Ġses":749,"Ġtan":750,"ker":751,"main":752,"âĢľ":753,"man":754,"res":755,"arah":756,"ni":757,"Ġmau":758,"ny":759,"ungkin":760,"ĠV":761,"form":762,"Ġre":763,"nal":764,"rah":765,"AR":766,"emp":767,"Ġapa":768,"ola":769,"mas":770,"anan":771,"Ġmenge":772,"ĠSel":773,"Ġsalah":774,"Ġjika":775,"com":776,"Ġbesar":777,"Ġmemberi":778,"aling":779,"Ġkec":780,"Ġmelakukan":781,"Ġmaka":782,"Ġ5":783,"EN":784,"ingan":785,"od":786,"Ġtentang":787,"arga":788,"ĠDe":789,"dia":790,"Ġmenggunakan":791,"Ġserta":792,"usia":793,"Ġdip":794,"tar":795,"Ġatas":796,"Ġcara":797,"Ġpun":798,"inta":799,"Ġon":800,"Ġket":801,"Ġ4":802,"Ġkeb":803,"Ġkamu":804,"uc":805,"Ġsama":806,"aks":807,"Ġje":808,"tor":809,"umb":810,"akar":811,"nc":812,"akat":813,"Ġsampai":814,"ingkat":815,"ulai":816,"tiap":817,"annya":818,"Ġsendiri":819,"log":820,"Ġti":821,"Ġwaktu":822,"angsung":823,"Ġrumah":824,"nah":825,"âĢĻ":826,"mu":827,"unj":828,"imp":829,"lu":830,"antu":831,"ĠDan":832,"Ġingin":833,"Ġmemper":834,"ne":835,"dang":836,"jalan":837,"ver":838,"ger":839,"ode":840,"Ġsebuah":841,"Ġmendapat":842,"eme":843,"ulit":844,"ihan":845,"ila":846,"mer":847,"Ġberba":848,"apkan":849,"lo":850,"ntu":851,"air":852,"AT":853,"Ġset":854,"uatu":855,"Ġ2018":856,"tif":857,"ram":858,"Ġdim":859,"formasi":860,"Ġjadi":861,"Ġlalu":862,"bu":863,"Ġproduk":864,"Ġmakan":865,"Ġsej":866,"Me":867,"ungg":868,"Ġbukan":869,"wah":870,"sa":871,"Ġkar":872,"atakan":873,"Ġia":874,"ui":875,"Ġtempat":876,"atang":877,"iri":878,"elas":879,"Ġant":880,"Ġ\"":881,"Ġsehingga":882,"ĠPro":883,"li":884,"Ġsekali":885,"olah":886,"Ġharga":887,"Ġga":888,"SI":889,"utuh":890,"),":891,"ĠAn":892,"Be":893,"Ġge":894,"ĠUntuk":895,"anjut":896,"Ġtapi":897,"gar":898,"ide":899,"alui":900,"had":901,"Ġonline":902,"Ġmemberikan":903,"Ġlainnya":904,"Ġagar":905,"ore":906,"yarakat":907,"st":908,"egara":909,"ame":910,"ulu":911,"aki":912,"Ġkata":913,"ulis":914,"eli":915,"asih":916,"Ġyaitu":917,"ĠYang":918,"20":919,"AH":920,"baik":921,"Ġsebelum":922,"dunia":923,"Ġpeny":924,"yakit":925,"Ġseorang":926,"Ġo":927,"if":928,"Ġkh":929,"imana":930,"etah":931,"Ġdilakukan":932,"amat":933,"ukup":934,"inggi":935,"akai":936,"Ġ_":937,"Ġberh":938,"Ġso":939,"Ġmin":940,"ĠIni":941,"mbali":942,"udian":943,"unc":944,"aga":945,"anc":946,"ons":947,"das":948,"IN":949,"pen":950,"men":951,"Ġterjadi":952,"ae":953,"epat":954,"Ġsetiap":955,"uai":956,"awa":957,"Ġdunia":958,"Ġyg":959,"angun":960,"rat":961,"pan":962,"Ġ.":963,"Ġpernah":964,"gus":965,"amin":966,"ist":967,"Ġpos":968,"Ġair":969,"Ġum":970,"Ġpul":971,"Ġberl":972,"urut":973,"Ġhingga":974,"urah":975,"oc":976,"Ġmelalui":977,"Ġkeluar":978,"ĠAp":979,"faat":980,"ambil":981,"anita":982,"Ġmemang":983,"Ġketika":984,"Ġdit":985,"itus":986,"ĠAllah":987,"ĠAd":988,"Ġdiper":989,",âĢĿ":990,"Ġmus":991,"tern":992,"Ġbelum":993,"akarta":994,"Ġdiri":995,"Ġberb":996,"Ġlangsung":997,"Ġmasyarakat":998,"teri":999,"one":1000,"akin":1001,"awan":1002,"ĠDengan":1003,"Ġem":1004,"caya":1005,"ser":1006,"Ġa":1007,"ANG":1008,"itar":1009,"Ġsis":1010,"urang":1011,"ump":1012,"Ġsetelah":1013,"Ġmenj":1014,"Ġberbagai":1015,"ite":1016,"gitu":1017,"Ġpaling":1018,"Ġdua":1019,"ubuh":1020,"ie":1021,"hadap":1022,"Ġek":1023,"agu":1024,"Ber":1025,"oba":1026,"ori":1027,"ĠOn":1028,"Ġsedang":1029,"olo":1030,"ilah":1031,"obat":1032,"alami":1033,"gen":1034,"Ġcukup":1035,"mi":1036,"Ġmenye":1037,"Ġres":1038,"Ġkembali":1039,"Ġmendapatkan":1040,"uruh":1041,"ome":1042,"Ġmungkin":1043,"Ġ,":1044,"gah":1045,"AM":1046,"umlah":1047,"uku":1048,"tikan":1049,"Ġmudah":1050,"ĠSeb":1051,"asanya":1052,"ĠSem":1053,"Ġtanpa":1054,"Ġpri":1055,"Ġsu":1056,"ris":1057,"oto":1058,"likasi":1059,"AL":1060,"Ġterhadap":1061,"dah":1062,"ĠIs":1063,"ikasi":1064,"Ġperlu":1065,"Ġbagian":1066,"lam":1067,"oke":1068,"akah":1069,"ajar":1070,"Ġce":1071,"Ġkalau":1072,"Ġhidup":1073,"bat":1074,"eksi":1075,"Ġbert":1076,"esar":1077,"Ġkeh":1078,"ĠOnline":1079,"ikan":1080,"Ġselalu":1081,"Ġmulai":1082,"Ġ6":1083,"Ġsep":1084,"Ġ#":1085,"ampu":1086,"Ġmelihat":1087,"ikir":1088,"aca":1089,"Ġbersama":1090,"Ġmemp":1091,"obil":1092,"Ġakhir":1093,"ilai":1094,"rb":1095,"uru":1096,"ilan":1097,"kerja":1098,"Ġ0":1099,"Ġny":1100,"ĠAr":1101,"Ġle":1102,"sp":1103,"utan":1104,"anjang":1105,"inggal":1106,"Ġ&":1107,"ina":1108,"Ġhasil":1109,"ch":1110,"AK":1111,"ani":1112,"aftar":1113,"ahun":1114,"bed":1115,"Ġantara":1116,"omp":1117,"awat":1118,"unt":1119,"Ġselama":1120,"Ġ19":1121,"Ġdir":1122,"Ġinformasi":1123,"ce":1124,"ĠKami":1125,"Ġ/":1126,"Ġtubuh":1127,"Ġpr":1128,"ju":1129,"gas":1130,"arna":1131,"Men":1132,"ĠMeng":1133,"angka":1134,"usahaan":1135,"ij":1136,"Ġtinggi":1137,"Ġpertama":1138,"dikan":1139,"Ġkal":1140,"aerah":1141,"Ġtetap":1142,"datang":1143,"utama":1144,"Ġtr":1145,"alnya":1146,"gram":1147,"Ġtahu":1148,"Ġmasuk":1149,"lan":1150,"ikel":1151,"asional":1152,"Ġbuat":1153,"intah":1154,"Ġpenyakit":1155,"Ġart":1156,"Ġmes":1157,"Ġnamun":1158,"Ġ10":1159,"rang":1160,"Ġtetapi":1161,"ner":1162,"urat":1163,"Ġjalan":1164,"Ġ7":1165,"est":1166,"ue":1167,"ehatan":1168,"Se":1169,"ungi":1170,"ark":1171,"nyata":1172,"omb":1173,"usus":1174,"isnis":1175,"aknya":1176,"ĠJakarta":1177,"alis":1178,"Ġsesuai":1179,"Ġterus":1180,"Ġbenar":1181,"ambar":1182,"201":1183,"Ġbulan":1184,"usi":1185,"aksi":1186,"Ġsekarang":1187,"Ġsekitar":1188,"usaha":1189,"Ġkemudian":1190,"ologi":1191,"alaman":1192,"Ġhe":1193,"any":1194,"Ġst":1195,"own":1196,"uda":1197,"Ġblog":1198,"Ġsuatu":1199,"uas":1200,"arik":1201,"den":1202,"Ġmanusia":1203,"auh":1204,"tur":1205,"Per":1206,"Ġmana":1207,"dek":1208,"min":1209,"Ġkecil":1210,"sen":1211,"Cara":1212,"Ġdigunakan":1213,"arat":1214,"Ġterk":1215,"upa":1216,"load":1217,"etahui":1218,"nai":1219,"mainan":1220,"emen":1221,"Ġkek":1222,"Ġkons":1223,"ait":1224,"ĠTerb":1225,"Ġpil":1226,"didikan":1227,"oker":1228,"Ġmeme":1229,"Ġmasalah":1230,"Ġkan":1231,"Ġjenis":1232,"AS":1233,"ĠCh":1234,"ust":1235,"Ġproses":1236,"masuk":1237,"ngkap":1238,"ibat":1239,"Ġnegara":1240,"rit":1241,"Ġlama":1242,"!!":1243,"acam":1244,"urun":1245,"Ġtim":1246,"atif":1247,"Ġ2017":1248,"Ġpes":1249,"benar":1250,"Ġfil":1251,"ĠNamun":1252,"ontoh":1253,"ort":1254,"ĠMas":1255,"ĠMer":1256,"Ġtek":1257,"Ġay":1258,"Ġmaupun":1259,"akit":1260,"ongan":1261,"oko":1262,"ngg":1263,"ngah":1264,"Ġkerja":1265,"Ġmene":1266,"etelah":1267,"gaimana":1268,"Ġ8":1269,"Ġweb":1270,"mbe":1271,"Sel":1272,"Ġmampu":1273,"Ġpenting":1274,"ukum":1275,"Ġ200":1276,"ĠNo":1277,"Ġsering":1278,"ayanan":1279,"Ġberikut":1280,"atas":1281,"und":1282,"giatan":1283,"Ġdih":1284,"Ġterbaik":1285,"Ġjam":1286,"ĠPem":1287,"Ġnama":1288,"otor":1289,"nik":1290,"Ġkomp":1291,"la":1292,"Ġpemer":1293,"Ġwanita":1294,"ĠRe":1295,"din":1296,"ownload":1297,"disi":1298,"entar":1299,"dikit":1300,"ook":1301,"Ġmenyeb":1302,"ban":1303,"adan":1304,"Ġsp":1305,"ura":1306,"Ġ...":1307,"UN":1308,"ĠCara":1309,"hati":1310,"Ġbegitu":1311,"Ġluar":1312,"ĠAk":1313,"ĠSek":1314,"Ġcepat":1315,"ca":1316,"Ġsh":1317,"Ġmil":1318,"ubungan":1319,"akhir":1320,"Ġkulit":1321,"Ġbahan":1322,"ĠDalam":1323,"Ġberada":1324,"Ġsitus":1325,"Ġsemakin":1326,"Ġobat":1327,"ĠPada":1328,"Ġberp":1329,"esi":1330,"ĠJika":1331,"Ġaw":1332,"ilang":1333,"aik":1334,"Ġmembantu":1335,"Ġlap":1336,"Ġseluruh":1337,"anti":1338,"Ġmengatakan":1339,"ren":1340,"Ġmasa":1341,"ĠAs":1342,"co":1343,"daerah":1344,"Ġdatang":1345,"rita":1346,"mbangan":1347,"Ġor":1348,"isata":1349,"Ġwaj":1350,"uatan":1351,"EM":1352,"ĠTidak":1353,"mp":1354,"ips":1355,"ute":1356,"ima":1357,"tiv":1358,"sial":1359,"Ġbawah":1360,"Ġuang":1361,"asis":1362,"rja":1363,"Ġis":1364,"ĠHal":1365,"fe":1366,"Ġbahkan":1367,"do":1368,"Ġpunya":1369,"Ġkedua":1370,"Ġsedikit":1371,"apai":1372,"oga":1373,"ele":1374,"beda":1375,"Pen":1376,"Ġdiba":1377,"10":1378,"Ġperusahaan":1379,"adang":1380,"Ġpers":1381,"ambah":1382,"Ġuj":1383,"ail":1384,"Ġmencari":1385,"umbe":1386,"kenal":1387,"usan":1388,"Ġdaerah":1389,"ratis":1390,"Ġtamp":1391,"Ġmembe":1392,"000":1393,"ideo":1394,"umber":1395,"IK":1396,"ĠPeng":1397,"aka":1398,"Ġbiasa":1399,"antai":1400,"utus":1401,"Ġtangg":1402,"angkat":1403,"Ġhati":1404,"Ġtel":1405,"Ġkota":1406,"ĠTahun":1407,"uli":1408,"ank":1409,"ĠPas":1410,"ĠRp":1411,"empat":1412,",\"":1413,"apun":1414,"Ġac":1415,"Ġmend":1416,"ĠDes":1417,"Ġnya":1418,"Ġsistem":1419,"Ġpermainan":1420,"ĠâĢĺ":1421,"aris":1422,"Ġbarang":1423,"omo":1424,"Ġrasa":1425,"percaya":1426,"ikian":1427,"Ġmakanan":1428,"Ġbermain":1429,"Ġkhusus":1430,"amar":1431,".âĢĿ":1432,"Ġpasti":1433,"Ġtangan":1434,"Ġ9":1435,"Ġtermasuk":1436,"las":1437,"TA":1438,"Ġmengenai":1439,"Ġumum":1440,"awab":1441,"ambut":1442,"elit":1443,"Ġdibe":1444,"yang":1445,"Ġmenga":1446,"Ġdepan":1447,"Ġmat":1448,"aten":1449,"gian":1450,"ebe":1451,"Ġri":1452,"Untuk":1453,"Ġput":1454,"ĠIslam":1455,"ĠSo":1456,"ubah":1457,"Ġmata":1458,"Ke":1459,"ĠMan":1460,"aikan":1461,"ukkan":1462,"ungsi":1463,"In":1464,"ĠMem":1465,"aha":1466,"ilahkan":1467,"ig":1468,"EL":1469,"Ġmeningkat":1470,"Ġdem":1471,"alik":1472,"rik":1473,"Ġpol":1474,"anding":1475,"Ġangg":1476,"Ġpemain":1477,"uta":1478,"ĠKel":1479,"itik":1480,"Ġjangan":1481,"Ġkas":1482,"data":1483,"entara":1484,"ĠMemb":1485,"dok":1486,"Ġmerasa":1487,"ingat":1488,"ĠKota":1489,"ĠKarena":1490,"adah":1491,"ĠTapi":1492,"Ġmobil":1493,"Ġkurang":1494,"ĠDia":1495,"all":1496,"ĠTerbaru":1497,"jak":1498,"Ġmenarik":1499,"emukan":1500,"ikm":1501,"ON":1502,"gera":1503,"Ġup":1504,"Ġjelas":1505,"onom":1506,"abkan":1507,"inan":1508,"ihak":1509,"Ġbiasanya":1510,"atur":1511,"uhi":1512,"Ġmenja":1513,"fek":1514,"ume":1515,"Ġteman":1516,"Ġla":1517,"ula":1518,"lim":1519,"Ġkegiatan":1520,"ulang":1521,"inggu":1522,"Ġmengg":1523,"geri":1524,"du":1525,"Di":1526,"Ġpenggun":1527,"yah":1528,"ĠAku":1529,"mber":1530,"mbang":1531,"ĠKom":1532,"unyai":1533,"Ġgun":1534,"idang":1535,"arti":1536,"kat":1537,"Ġartikel":1538,"wan":1539,"ĠZ":1540,"Ġil":1541,"Ġz":1542,"Ġmah":1543,"Ġmengan":1544,"rans":1545,"Ġne":1546,"Ġmalam":1547,"ĠJadi":1548,"hone":1549,"ĠSaya":1550,"ĠJe":1551,"Ġkat":1552,"angkah":1553,"ĠTim":1554,"yi":1555,"Ġseg":1556,"Ġbentuk":1557,"angga":1558,"dulu":1559,"ohon":1560,"etak":1561,"darah":1562,"Ġbak":1563,"erima":1564,"andar":1565,"utuhkan":1566,"tentu":1567,"Ġkalian":1568,"util":1569,"Ġbagaimana":1570,"Ġberbeda":1571,"Ġhadi":1572,"Ġintern":1573,"Ġbeli":1574,"Ġmo":1575,"aja":1576,"iaya":1577,"ujuan":1578,"tul":1579,"dag":1580,"Ġmempunyai":1581,"ete":1582,"otel":1583,"angunan":1584,"site":1585,"ĠLe":1586,"ĠKab":1587,"Ġdulu":1588,"Ġsebelumnya":1589,"....":1590,"aranya":1591,"Ġdata":1592,"Ġjauh":1593,"Ġterbaru":1594,"ĠLi":1595,"fo":1596,"Ġind":1597,"ajaran":1598,"Ġmengalami":1599,"ino":1600,"Ġkesehatan":1601,"tik":1602,"dis":1603,"ayah":1604,"IS":1605,"uman":1606,"Ġmemas":1607,"Ġstr":1608,"Ġdiberi":1609,"Ġjudi":1610,"Ġkeluarga":1611,"Ġtu":1612,"ĠBola":1613,"Ġterj":1614,"ĠAda":1615,"Ġng":1616,"ĠHarga":1617,"Ġen":1618,"arus":1619,"idur":1620,"Ġadanya":1621,"uduk":1622,"uangan":1623,"Ġtepat":1624,"Ġlok":1625,"uter":1626,"Ġsekolah":1627,"ulkan":1628,"nologi":1629,"sia":1630,"Ġpan":1631,"ĠSh":1632,"Ġbisnis":1633,"??":1634,"Ġsakit":1635,"Te":1636,"ĠSM":1637,"Ġgak":1638,"andingan":1639,"Ġbelajar":1640,"ĠMus":1641,"ikuti":1642,"ĠPr":1643,"Ġkasih":1644,"Ġgambar":1645,"Ġterse":1646,"upaten":1647,"Ġmurah":1648,"Ġsejak":1649,"ki":1650,"idupan":1651,"ĠKes":1652,"ncana":1653,"anakan":1654,"Ġdic":1655,"ĠKep":1656,"Ġtentu":1657,"to":1658,"Al":1659,"Ġpenc":1660,"Ġkor":1661,"Ġalam":1662,"Ġdah":1663,"ink":1664,"Ġmemilih":1665,"usat":1666,"Ġakhirnya":1667,"Ġjawab":1668,"Ġdisebut":1669,"12":1670,"vel":1671,"Ġprogram":1672,"omor":1673,"Ġsuka":1674,"OM":1675,"ĠMar":1676,"anak":1677,"ĠDari":1678,"ck":1679,"Ġpihak":1680,"Ġku":1681,"ry":1682,"adaan":1683,"Ġjumlah":1684,"Ġbagus":1685,"ĠDunia":1686,"ĠPel":1687,"ĠHari":1688,"Ġsese":1689,"ho":1690,"Ġalat":1691,"Ġwarna":1692,"ĠGe":1693,"ĠPri":1694,"diakan":1695,"tim":1696,"Ġhukum":1697,"ĠPol":1698,"ĠSep":1699,"ukuran":1700,"dasar":1701,"rip":1702,"Ġpak":1703,"Ġkondisi":1704,"Ġbekerja":1705,"ug":1706,"ade":1707,"odel":1708,"empuan":1709,"Ġaja":1710,"Ġmedia":1711,"ĠQ":1712,"Ġot":1713,"Ġtiga":1714,"ampir":1715,"asaan":1716,"utuhan":1717,"Ġsegera":1718,"ĠMes":1719,"Ġterlalu":1720,"Ġbahasa":1721,"abila":1722,"Ġ15":1723,"Ġterp":1724,"Ġjar":1725,"Ġpria":1726,"Ġbola":1727,"ĠPemb":1728,"av":1729,"nang":1730,"Seb":1731,"ĠHe":1732,"eber":1733,"tas":1734,"anggan":1735,"perasi":1736,"UR":1737,"uncul":1738,"ĠAnak":1739,"uma":1740,"ĠTan":1741,"Ġdij":1742,"Ġterlihat":1743,"unggu":1744,"ĠBel":1745,"ĠJawa":1746,"ungguh":1747,"Ġsini":1748,"ĠSelain":1749,"amanya":1750,"Ġutama":1751,"tinya":1752,"Ġbila":1753,"etika":1754,"daya":1755,"Ġterdapat":1756,"Ġseseorang":1757,"Ġand":1758,"Ġbuku":1759,"umen":1760,"dasarkan":1761,"jalanan":1762,"ðŁ":1763,"hi":1764,"Ġpo":1765,"redik":1766,"ack":1767,"OR":1768,"Ġ2016":1769,"Ġawal":1770,"manfaat":1771,"Ap":1772,"Ġdimana":1773,"Ġibu":1774,"alkan":1775,"Ad":1776,"Sem":1777,"araan":1778,"alahan":1779,"ilayah":1780,"istr":1781,"Ġberke":1782,"uni":1783,"Ġof":1784,"vi":1785,"Ġpula":1786,"ewat":1787,"Ġberhasil":1788,"Ġpendidikan":1789,"ĠMel":1790,"Ġdarah":1791,"ĠX":1792,"Ġaman":1793,"han":1794,"ilih":1795,"ENG":1796,"ĠRumah":1797,"ĠJudi":1798,"Ġkol":1799,"Ġ12":1800,"Ġtinggal":1801,"ompok":1802,"roid":1803,"Ġmis":1804,"ard":1805,"Ġsup":1806,"yat":1807,"tensi":1808,"Ġmembeli":1809,"Ġmenemukan":1810,"ingkungan":1811,"asiswa":1812,"Ġ?":1813,"onomi":1814,"Ġpemerintah":1815,"Ġlanjut":1816,"Ġberj":1817,"isik":1818,"Ġefek":1819,"isah":1820,"rim":1821,"ĠSi":1822,"Ġmenunj":1823,"insi":1824,"ĠKem":1825,"Ġaplikasi":1826,"Ġberat":1827,"Ġdok":1828,"Ġdin":1829,"Ġmeningkatkan":1830,"Ġkehidupan":1831,"isasi":1832,"rediksi":1833,"Ġmuncul":1834,"abi":1835,"Ġtar":1836,"Ġbuah":1837,"ualitas":1838,"Ġdekat":1839,"Ġpenj":1840,"antik":1841,"DA":1842,"Ġsesuatu":1843,"Ġbur":1844,"duduk":1845,"ule":1846,"umi":1847,"Ġtulis":1848,"Ġfilm":1849,"ĠKec":1850,"kannya":1851,"Ġgi":1852,"ĠRes":1853,"umsi":1854,"ĠPert":1855,"amping":1856,"Ġpekerja":1857,"Ġlagu":1858,"empatan":1859,"Ġwarga":1860,"no":1861,"tus":1862,"ira":1863,"serta":1864,"get":1865,"iden":1866,"phone":1867,"Ġfoto":1868,"Ġnilai":1869,"ES":1870,"Ġkau":1871,"Ġsah":1872,"Ġpilihan":1873,"dukung":1874,"tua":1875,"ĠÂ":1876,"ĠMereka":1877,"ft":1878,"Ġusaha":1879,"atasi":1880,"Ġtanggal":1881,"Ġkuat":1882,"dom":1883,"Jika":1884,"ĠDI":1885,"andang":1886,"Ġlah":1887,"uri":1888,"Ġtujuan":1889,"irim":1890,"ĠTak":1891,"ĠIa":1892,"imb":1893,"uari":1894,"Ġpengh":1895,"Ġternyata":1896,"ĠAnd":1897,"ĠSer":1898,"fat":1899,"Ġpakai":1900,"Ġdemikian":1901,"UK":1902,"Ġ[":1903,"Ġyak":1904,"Ġmengetahui":1905,"ĠSaat":1906,"Ġdes":1907,"Ġkap":1908,"ukses":1909,"Ġwajah":1910,"asir":1911,"urkan":1912,"oy":1913,"sel":1914,"Ġditem":1915,"Ġmul":1916,"ĠSetelah":1917,"Ġkab":1918,"Ġpanjang":1919,"badi":1920,"Ġbang":1921,"tasi":1922,"Ġop":1923,"asakan":1924,"udaya":1925,"ord":1926,"ggak":1927,"Saya":1928,"Ġtidur":1929,"ator":1930,"ly":1931,"ayar":1932,"Ġsiap":1933,"Ġmenurut":1934,"Ġab":1935,"ET":1936,"antor":1937,"andung":1938,"Ġterakhir":1939,"Ġkeber":1940,"Ġsosial":1941,"ukti":1942,"rib":1943,"ĠBisa":1944,"Ġtengah":1945,"epas":1946,"Ġgame":1947,"Ġmenit":1948,"Ġacara":1949,"emer":1950,"aksanakan":1951,"Ġkomentar":1952,"akang":1953,"angsa":1954,"dak":1955,"Ġlakukan":1956,"Ġrek":1957,"Ġwebsite":1958,"rs":1959,"ganti":1960,"Ġkebutuhan":1961,"De":1962,"Ġlemb":1963,"uti":1964,"age":1965,"Ġsegala":1966,"Ġgratis":1967,"dangkan":1968,"uju":1969,"Ġtoko":1970,"ĠDis":1971,"ĠKabupaten":1972,"daftar":1973,"11":1974,"ity":1975,"je":1976,"ampuan":1977,"ĠSu":1978,"napa":1979,"ha":1980,"Ġdasar":1981,"ĠIngg":1982,"Ġpenge":1983,"Ġyakni":1984,"unan":1985,"Ġtrans":1986,"dul":1987,"ĠUm":1988,"ĠTuhan":1989,"ĠMin":1990,"Ġbadan":1991,"ahasa":1992,"Ġketi":1993,"Ġmencapai":1994,"Ġdig":1995,"ĠInggris":1996,"Ġketer":1997,"jar":1998,"Ġkini":1999,"RI":2000,"ww":2001,"ĠBlog":2002,"Ġvideo":2003,"residen":2004,"ond":2005,"aktor":2006,"US":2007,"pet":2008,"amatan":2009,"ajib":2010,"nder":2011,"Ġberjalan":2012,"Ġalami":2013,"Ġsal":2014,"Ġmasing":2015,"kah":2016,"rasi":2017,"YA":2018,"Ġka":2019,"Ġilmu":2020,"inj":2021,"Dalam":2022,"ehe":2023,"unga":2024,"onton":2025,"Ġto":2026,"ID":2027,"Ġapakah":2028,"tion":2029,"wal":2030,"Ġik":2031,"adar":2032,"hen":2033,"Ġsumber":2034,"Ġmacam":2035,"ĠKar":2036,"oran":2037,"ĠSen":2038,"ĠPT":2039,"Ġsk":2040,"Ġwilayah":2041,"Ġist":2042,"Ġhubungan":2043,"apak":2044,"ĠSp":2045,"anjutnya":2046,"Ġtanah":2047,"ĠNe":2048,"ustr":2049,"Ġorgan":2050,"Ġseks":2051,"Ġperjalanan":2052,"vers":2053,"ĠBarat":2054,"Ġsebenar":2055,"Ġgel":2056,"Ġsih":2057,"Ġmesin":2058,"tis":2059,"ĠDAN":2060,"Ġemail":2061,"ubahan":2062,"ĠSeh":2063,"entang":2064,"gin":2065,"Ġmembaca":2066,"Ġam":2067,"elitian":2068,"Ġperm":2069,"hal":2070,"inar":2071,"Ġbanget":2072,"ili":2073,"Ġanggota":2074,"mart":2075,"Ġtingkat":2076,"lukan":2077,"Pada":2078,"roduk":2079,"Ġpene":2080,"Ġminim":2081,"arian":2082,"ocok":2083,"Ġeks":2084,"ĠAt":2085,"dengar":2086,"NI":2087,"sim":2088,"nama":2089,"Ġboleh":2090,"alon":2091,"ital":2092,"esan":2093,"iran":2094,"ikmati":2095,"ase":2096,"abat":2097,"abis":2098,"Ġsebenarnya":2099,"itur":2100,"Aku":2101,"derita":2102,"ĠKeb":2103,"Ġberm":2104,"AB":2105,"Ġkont":2106,"use":2107,"rbal":2108,"Ġperempuan":2109,"sional":2110,"ĠGo":2111,"Ġpenuh":2112,"Ġsebagian":2113,"ĠSt":2114,"Ġkualitas":2115,"Ġperk":2116,"ht":2117,"Ġjuta":2118,"gab":2119,"Ġmengi":2120,"alagi":2121,"ĠMal":2122,"osting":2123,"ji":2124,"Ġikut":2125,"Ġul":2126,"Ġdirinya":2127,"ĠTr":2128,"dit":2129,"ĠOrang":2130,"Ġbidang":2131,"ilis":2132,"eberapa":2133,"Ġberas":2134,"Ter":2135,"Ġsebab":2136,"ASI":2137,"Ġputih":2138,"raf":2139,"ĠObat":2140,"Ġsy":2141,"Ġmuda":2142,"Ġkamar":2143,"epang":2144,"ĠBaru":2145,"Ġmembawa":2146,"Ġkur":2147,"Ġtua":2148,"dung":2149,"dr":2150,"Ġterkait":2151,"hana":2152,"Ġdiberikan":2153,"ĠProduk":2154,"agaimana":2155,"asilkan":2156,"ĠâĢ¦":2157,"ikin":2158,"AP":2159,"olusi":2160,"mad":2161,"UM":2162,"pada":2163,"Ġdisini":2164,"Ġpertandingan":2165,"Ġkl":2166,"Ġprof":2167,"Ġide":2168,"Ġberarti":2169,"ĠBi":2170,"ading":2171,"PR":2172,"Ġlewat":2173,"Ġnanti":2174,"Ġmengel":2175,"Ġ100":2176,"eter":2177,"agai":2178,"Ġujar":2179,"Ġukuran":2180,"inc":2181,"Ġlem":2182,"Ġperb":2183,"Ġ'":2184,"ampak":2185,"Ġnggak":2186,"Ġbiaya":2187,"Ġkesempatan":2188,"andingkan":2189,"pl":2190,"Ġmenyebabkan":2191,"ĠTerbaik":2192,"Ġmemen":2193,"ebook":2194,"anggap":2195,"Ġinternet":2196,"Ġkelas":2197,"leh":2198,"Ġudah":2199,"udara":2200,"Ġlingkungan":2201,"ĠMo":2202,"Ġmotor":2203,"Ġbermanfaat":2204,"aren":2205,"ubungi":2206,"uler":2207,"Ġlengkap":2208,"Ġmenerima":2209,"ahaya":2210,"ayu":2211,"kip":2212,"ĠUt":2213,"Ġ30":2214,"Ġkepala":2215,"Ġmengambil":2216,"Ġsiapa":2217,"Ġni":2218,"obatan":2219,"ĠðŁ":2220,"Ġpergi":2221,"Ġmenuju":2222,"ijakan":2223,"ikat":2224,"Ġkarya":2225,"Ġataupun":2226,"masing":2227,"Ġsilahkan":2228,"Ġmencoba":2229,"ndah":2230,"Ġsambil":2231,"Ġtertentu":2232,"vasi":2233,"sama":2234,"Ġage":2235,"Ġmeninggal":2236,"takan":2237,"50":2238,"Ġkartu":2239,"Ġposisi":2240,"Ġpasar":2241,"Ġlihat":2242,"DI":2243,"kipun":2244,"asikan":2245,"Ġ2015":2246,"Ġib":2247,"gal":2248,"esai":2249,"atal":2250,"Ġkemampuan":2251,"Ġterutama":2252,"ungkan":2253,"hatikan":2254,"hat":2255,"ĠKerja":2256,"Ġmusim":2257,"Ġguru":2258,"amanan":2259,"uhkan":2260,"az":2261,"Ġteknologi":2262,"Ġ18":2263,"Ġrambut":2264,"Ġwisata":2265,"anyaan":2266,"Ġpl":2267,"Ġmengikuti":2268,"ogle":2269,"ukul":2270,"antan":2271,"Ġnyaman":2272,"su":2273,"ree":2274,"Tidak":2275,"amil":2276,"Ġmengk":2277,"ĠBagi":2278,"Ġsehat":2279,"Ġli":2280,"Ġ14":2281,"Ġar":2282,"Ġruang":2283,"eks":2284,"Ġkutil":2285,"obati":2286,"Ġcinta":2287,"oo":2288,"ien":2289,"19":2290,"raga":2291,"Ġcerita":2292,"untungan":2293,"nak":2294,"ĠLagu":2295,"utup":2296,"atihan":2297,"Ġagama":2298,"ustri":2299,"gaw":2300,"impin":2301,"itif":2302,"ainkan":2303,"ilik":2304,"Ġmenunjukkan":2305,"Kami":2306,"ĠAb":2307,"aksana":2308,"anggung":2309,"tivitas":2310,"itam":2311,"ret":2312,"arta":2313,"ess":2314,"Ġterc":2315,"derhana":2316,"her":2317,"alitas":2318,"Ġhak":2319,"tp":2320,"tian":2321,"ĠAgen":2322,"Ġkasus":2323,"ukai":2324,"UL":2325,",,":2326,"Ġlayanan":2327,"ikiran":2328,"ese":2329,"Ġselain":2330,"aud":2331,"Ġcontoh":2332,"okok":2333,"ice":2334,"âĢĿ.":2335,"utar":2336,"Ġtumb":2337,"Ġmenjaga":2338,"Ġberkata":2339,"Ġpekerjaan":2340,"ebab":2341,"Ġkend":2342,"Ġdibuat":2343,"Ġpasangan":2344,"ĠKita":2345,"Ġ)":2346,"IT":2347,"ĠJu":2348,"elaskan":2349,"amis":2350,"ona":2351,"unikasi":2352,"Ġ16":2353,"opi":2354,"30":2355,"Ġdikenal":2356,"Ġmenjalan":2357,"ĠSE":2358,"anyakan":2359,"Selain":2360,"aun":2361,"Ġnegeri":2362,"ayakan":2363,"Ġgue":2364,"ĠJangan":2365,"date":2366,"aturan":2367,"Ġters":2368,"etahuan":2369,"iliki":2370,"Ġgol":2371,"ĠKalau":2372,"ampung":2373,"ater":2374,"Ġkalo":2375,"anja":2376,"ampil":2377,"Nya":2378,"ĠItu":2379,"Ġpagi":2380,"Ini":2381,"Ġpembel":2382,"kembangan":2383,"ajak":2384,"Ġ11":2385,"Ġsuara":2386,"Ġbelakang":2387,"ulasi":2388,"ublik":2389,"ĠApa":2390,"Ġpengalaman":2391,"gn":2392,"Ġsang":2393,"Ġcuma":2394,"gant":2395,"ĠCe":2396,"Ġkaki":2397,"Ġkelamin":2398,"akyat":2399,"utkan":2400,"ĠAir":2401,"jala":2402,"ntukan":2403,"Ġseri":2404,"ĠTimur":2405,"ĠBanyak":2406,"ester":2407,"ihkan":2408,"ĠAS":2409,"yek":2410,"Ġsulit":2411,"ye":2412,"Ġmodel":2413,"iket":2414,"awasan":2415,"Ġmembutuhkan":2416,"ĠMembuat":2417,"Ġdaya":2418,"nsi":2419,"Setelah":2420,"arap":2421,"agam":2422,"uci":2423,"Dengan":2424,"Ġakun":2425,"ĠIntern":2426,"Ġdaftar":2427,"wab":2428,"adahal":2429,"Ġkeras":2430,"Ġsiswa":2431,"Ġkelompok":2432,"arket":2433,"Ġsemb":2434,"aju":2435,"emat":2436,"Ġpembe":2437,"uasa":2438,"Ġbakal":2439,"Ġlokasi":2440,"Ġdesain":2441,"iner":2442,"tab":2443,"uanya":2444,"Ġinf":2445,"Ġmanfaat":2446,"atunya":2447,"iku":2448,"Ġtentunya":2449,"acebook":2450,"?âĢĿ":2451,"Ġbantu":2452,"isme":2453,"asul":2454,"rus":2455,"Ġbat":2456,"sh":2457,"ĠAc":2458,"Ġkre":2459,"Ġnaik":2460,"merika":2461,"ampaikan":2462,"Ġsur":2463,"Ġhampir":2464,"utusan":2465,"ĠThe":2466,"Ġmerah":2467,"ambahan":2468,"ongk":2469,"Ġel":2470,"Ġtau":2471,"nde":2472,"ĠPak":2473,"abu":2474,"Ġmenang":2475,"alat":2476,"Ġapabila":2477,"ogel":2478,"Ġakibat":2479,"Ġdiatas":2480,"Ġkomputer":2481,"Ġkeadaan":2482,"aian":2483,"Ġpeserta":2484,"ĠPi":2485,"ĠFil":2486,"ĠUni":2487,"ĠTet":2488,"akter":2489,"unjungi":2490,"Ġlangkah":2491,"eke":2492,"Ġberw":2493,"asaran":2494,"des":2495,"ayang":2496,"embe":2497,"martphone":2498,"ĠJepang":2499,"IL":2500,"Ġturun":2501,"ĠWanita":2502,"Ġmenyediakan":2503,"download":2504,"Ġperubahan":2505,"Ġcoba":2506,"Ġmenger":2507,"ahami":2508,"//":2509,"Ġberupa":2510,"fer":2511,"ĠKesehatan":2512,"Ġtiba":2513,"Ġberbagi":2514,"ullah":2515,"jah":2516,"Ġberita":2517,"Ġbeb":2518,"Tentang":2519,"Ġ24":2520,"Ġdahulu":2521,"untu":2522,"Ġekonomi":2523,"Ġmembuka":2524,"urus":2525,"Ġma":2526,"Ġberf":2527,"Ġbayi":2528,"ambahkan":2529,"ĠAndroid":2530,"Ġtersedia":2531,"Ġ2014":2532,"IM":2533,"ĠTi":2534,"Ġsebesar":2535,"Ada":2536,"hari":2537,"ING":2538,"ff":2539,"irus":2540,"Ġdiant":2541,"ĠAmerika":2542,"ril":2543,"ĠBandung":2544,"Ġterke":2545,"Ġsejumlah":2546,"Ġbertem":2547,"truk":2548,"Ġsurat":2549,"ĠAg":2550,"ment":2551,"Ġaktif":2552,"atuh":2553,"alaupun":2554,"wajib":2555,"Ġsana":2556,"was":2557,"OL":2558,"ewan":2559,"ĠIN":2560,"Ġusia":2561,"esif":2562,"Ġagen":2563,"gerak":2564,"udul":2565,"Ġjasa":2566,"Ġberdasarkan":2567,"isan":2568,"Ġ17":2569,"ĠKon":2570,"naga":2571,"ation":2572,"Dan":2573,"Ġinter":2574,"Ġjual":2575,"Ġtadi":2576,"ĠKal":2577,"ning":2578,"ĠPER":2579,"Ġ13":2580,"atih":2581,"Ġlupa":2582,"ĠKamu":2583,"Ġno":2584,"Ġdike":2585,"Ġasal":2586,"baya":2587,"Ġform":2588,"Ġpanas":2589,"Ġtugas":2590,"Ġ2013":2591,"inasi":2592,"abel":2593,"Ġdo":2594,"ĠNegara":2595,"ukur":2596,"://":2597,"ĠMobil":2598,"tuj":2599,"Ġpoker":2600,"iknya":2601,"Ġmati":2602,"Ġberasal":2603,"intang":2604,"ĠSab":2605,"Ġtulisan":2606,"Ġmenya":2607,"Ġsisi":2608,"osa":2609,"Ġklik":2610,"Ġmenulis":2611,"ĠÂ»":2612,"ĠMakan":2613,"Ġayam":2614,"Ġins":2615,"olong":2616,"iptakan":2617,"onsumsi":2618,"Ġpengguna":2619,"aa":2620,"egori":2621,"Ġmeminta":2622,"Ġresmi":2623,"dl":2624,"ĠUn":2625,"ake":2626,"ĠEk":2627,"Ġhadir":2628,"Ġgen":2629,"Ġcocok":2630,"Ġposting":2631,"ĠAh":2632,"Ġhalaman":2633,"ĠSelatan":2634,"uarkan":2635,"ilangkan":2636,"Ġbangsa":2637,"emerintah":2638,"Ġdokter":2639,"asilitas":2640,"ĠTek":2641,"ĠTempat":2642,"okoh":2643,"Ġpenggunaan":2644,"ĠMurah":2645,"ĠTER":2646,"ikap":2647,"view":2648,"tan":2649,"pengar":2650,"ember":2651,"iz":2652,"ĠAgus":2653,"ĠSitus":2654,"Ġger":2655,"Ġ08":2656,"Ġikan":2657,"Ġsoal":2658,"ahu":2659,"Ġram":2660,"ayak":2661,"ans":2662,"asar":2663,"ĠDep":2664,"Ġjaringan":2665,"Ġpop":2666,"Ġah":2667,"IB":2668,"ven":2669,"Memb":2670,"Ġnomor":2671,"ham":2672,"ace":2673,"odal":2674,"PU":2675,"ayat":2676,"Ġsus":2677,"ron":2678,"Ġsementara":2679,"arin":2680,"Ġpolitik":2681,"Ġpercaya":2682,"our":2683,"Ġalasan":2684,"ampilan":2685,"Ġmenyel":2686,"Ġsempat":2687,"fikasi":2688,"Ġmengaku":2689,"sir":2690,"Ġut":2691,"ĠPendidikan":2692,"askan":2693,"Ġpersen":2694,"Ġtind":2695,"antung":2696,"ĠSalah":2697,"Ġtaruhan":2698,"Ġduduk":2699,"ĠIbu":2700,"Ġminggu":2701,"Ġmengak":2702,"Ġpribadi":2703,"ganya":2704,"Ġterasa":2705,"Ġpart":2706,"Ġbatu":2707,"jung":2708,"Ġkemen":2709,"2018":2710,"Ġwajib":2711,"Ġmain":2712,"Ġdom":2713,"Ġpand":2714,"ĠLiga":2715,"ĠAkan":2716,"ĠMad":2717,"Ġindah":2718,"Ġkantor":2719,"kanan":2720,"ĠBahkan":2721,"iburan":2722,"Ġdibawah":2723,"ĠLebih":2724,"owongan":2725,"Ar":2726,"ebihan":2727,"Ġgunakan":2728,"amera":2729,"pos":2730,"Ġbet":2731,"Ġpenelitian":2732,"Ġkorban":2733,"Ġmet":2734,"ĠJan":2735,"Ġluas":2736,"dat":2737,"uki":2738,"13":2739,"unci":2740,"Ġsehari":2741,"15":2742,"Anda":2743,"Ġob":2744,"ast":2745,"ĠSurat":2746,"ĠPresiden":2747,"Ġdiketahui":2748,"Ġmengandung":2749,"ĠTerpercaya":2750,"ĠOk":2751,"arapkan":2752,"tumb":2753,"versi":2754,"Ġpad":2755,"Ġpin":2756,"Ġfungsi":2757,"ĠMuh":2758,"egah":2759,"EK":2760,"ĠTh":2761,"gabung":2762,"ĠMah":2763,"Ġbin":2764,"ĠGun":2765,"ikah":2766,"Ġindonesia":2767,"Ġterlebih":2768,"Ġgan":2769,"awatan":2770,"top":2771,"Ġkatanya":2772,"ĠNasional":2773,"Ġ50":2774,"urusan":2775,"ujud":2776,"Ġberusaha":2777,"yarat":2778,"Ġmenghasilkan":2779,"Ġempat":2780,"Ġ25":2781,"ĠDesa":2782,"mail":2783,"ĠPoker":2784,"wang":2785,"Apa":2786,"Ġangka":2787,"ĠOleh":2788,"urabaya":2789,"irkan":2790,"ĠBali":2791,"ĠKh":2792,"itan":2793,"dap":2794,"Ġsupaya":2795,"urangi":2796,"Ġarah":2797,"atus":2798,"Ġsukses":2799,"ĠSis":2800,"antas":2801,"Ġmemakai":2802,"we":2803,"Ġmahasiswa":2804,"Ġcantik":2805,"Ġdr":2806,"wi":2807,"Meng":2808,"oda":2809,"cer":2810,"Ġsemoga":2811,"isti":2812,"dar":2813,"Ġperkembangan":2814,"Ġdise":2815,"Ġperi":2816,"ĠPl":2817,"Ġlaki":2818,"uali":2819,"ĠIb":2820,"Ġthe":2821,"Hal":2822,"Ġmengin":2823,"versitas":2824,"esuai":2825,"icara":2826,"pon":2827,"Ġberubah":2828,"Ġmengemb":2829,"Ġpilih":2830,"Ġdana":2831,"urna":2832,"vinsi":2833,"aksud":2834,"iman":2835,"elar":2836,"ware":2837,"Ġrel":2838,"ayaran":2839,"Ġmateri":2840,"ĠRasul":2841,"ingkatan":2842,"--":2843,"Ġsaling":2844,"Ġselesai":2845,"ĠPEN":2846,"Bagi":2847,"Ġnasional":2848,"Ġfor":2849,"Ġanti":2850,"andungan":2851,"ams":2852,"GA":2853,"oll":2854,"ill":2855,"PK":2856,"ress":2857,"Ġhotel":2858,"olak":2859,"Ġfitur":2860,"umat":2861,"usak":2862,"Ġbaca":2863,"Ġpesan":2864,"Ġfaktor":2865,"laki":2866,"ainya":2867,"Ġterpercaya":2868,"ilihan":2869,"ambat":2870,"istrik":2871,"Ġsar":2872,"vest":2873,"impi":2874,"dur":2875,"ĠMak":2876,"Ġpat":2877,"Ġkemenangan":2878,"elengg":2879,"Ġdiseb":2880,"yo":2881,"ungkinan":2882,"Ġberlangsung":2883,"Ġcari":2884,"ras":2885,"Ġsil":2886,"ĠJalan":2887,"ange":2888,"ĠPria":2889,"Mem":2890,"Ġlog":2891,"Ġpelayanan":2892,"ĠInformasi":2893,"ĠPaling":2894,"Ġ*":2895,"Ġmendukung":2896,"Ġminyak":2897,"Ġdownload":2898,"Ġberkembang":2899,"Ġx":2900,"let":2901,"gantung":2902,"jek":2903,"wit":2904,"Ġpukul":2905,"ale":2906,"ntang":2907,"ndak":2908,"dern":2909,"lengk":2910,"Daftar":2911,"Ġpromo":2912,"awarkan":2913,"onus":2914,"Ġsemuanya":2915,"ews":2916,"Ġsekaligus":2917,"ayan":2918,"aih":2919,"Ġmusik":2920,"Ġselanjutnya":2921,"otal":2922,"tudi":2923,"Ġherbal":2924,"ektr":2925,"ARA":2926,"UT":2927,"ĠPul":2928,"Ġht":2929,"Ġpertanyaan":2930,"Ġsederhana":2931,"Ġsebanyak":2932,"ĠKE":2933,"II":2934,"Ġbebas":2935,"Ġmenikmati":2936,"kon":2937,"Ġapapun":2938,"ibatkan":2939,"ĠSemua":2940,"Ġsab":2941,"Ġrem":2942,"Menurut":2943,"tugas":2944,"âĢ¦.":2945,"Ġolah":2946,"Harga":2947,"ĠSy":2948,"onsel":2949,"Ġdemi":2950,"anjutkan":2951,"Ġisi":2952,"tober":2953,"ukaan":2954,"Ġmembangun":2955,"Ġsemp":2956,"Ġlima":2957,"unuh":2958,"ĠUs":2959,".\"":2960,"Ġpengetahuan":2961,"Ġrendah":2962,"Ġcalon":2963,"ĠBl":2964,"Ġpembangunan":2965,"Ġtumbuh":2966,"Berita":2967,"Ġpet":2968,"Ġmisalnya":2969,"auan":2970,"jid":2971,"peng":2972,"Ġuc":2973,"anfaat":2974,"Ġmalah":2975,"ampilkan":2976,"Ġbunga":2977,"ts":2978,"Ġjer":2979,"kas":2980,"ĠTel":2981,"orong":2982,"tikel":2983,"Ġasli":2984,"Ġdag":2985,"oro":2986,"tual":2987,"apatkan":2988,"Ġsitu":2989,"po":2990,"omat":2991,"ĠNabi":2992,"orea":2993,"Ġdl":2994,"Ġ2012":2995,"aji":2996,"ahas":2997,"Ġmenghad":2998,"jakan":2999,"ĠPut":3000,"Ġkak":3001,"ENT":3002,"adinya":3003,"ĠContoh":3004,"ĠBahasa":3005,"Ġtanda":3006,"ĠMat":3007,"osi":3008,"akt":3009,"pent":3010,"OK":3011,"Ġtiket":3012,"indari":3013,"ebr":3014,"gunjung":3015,"Ġberharap":3016,"ros":3017,"ĠSeperti":3018,"adwal":3019,"ema":3020,"Ġare":3021,"Ġsub":3022,"Ġpusat":3023,"Ġkeuntungan":3024,"Ġhttp":3025,"Ġhitam":3026,"Ġmenurun":3027,"jadian":3028,"bentuk":3029,"Ġrah":3030,"esifikasi":3031,"Ġdianggap":3032,"Ġ@":3033,"ĠPemerintah":3034,"tal":3035,"Ġth":3036,"Ġpendapat":3037,"Ġ199":3038,"ose":3039,"oma":3040,"Ġdesa":3041,"rup":3042,"angkap":3043,"EMB":3044,"OS":3045,"Ġbal":3046,"owe":3047,"ungguhnya":3048,"Ġbernama":3049,"16":3050,"ĠMaka":3051,"18":3052,"Ġsun":3053,"Ġbikin":3054,"net":3055,"iti":3056,"Ġtradi":3057,"Ġkaum":3058,"ĠIl":3059,"ujan":3060,"ĠNama":3061,"Ġmilik":3062,"Ġoperasi":3063,"Ġdipakai":3064,"Ġayat":3065,"Ġmemenuhi":3066,"ĠGoogle":3067,"Ġmenyatakan":3068,"ĠSum":3069,"ĠMuham":3070,"Ġpah":3071,"trol":3072,"ĠMa":3073,"edar":3074,"Ġbersih":3075,"th":3076,"Ġmenjelaskan":3077,"UNG":3078,"Ġterdiri":3079,"rid":3080,"ilangan":3081,"Ġterkenal":3082,"itab":3083,"atatan":3084,"ustru":3085,"Tips":3086,"Ġdeh":3087,"mat":3088,"kualitas":3089,"Ġburuk":3090,"vember":3091,"Ġpenulis":3092,"ajah":3093,"Ġditemukan":3094,"jualan":3095,"âĢĵ":3096,"orex":3097,"Namun":3098,"ĠPeny":3099,"dir":3100,"fi":3101,"Ġadmin":3102,"Ġpend":3103,"Ġch":3104,"Ġkhususnya":3105,"iter":3106,"ĠMenurut":3107,"tumbuhan":3108,"Ġleb":3109,"Ġyakin":3110,"ĠBar":3111,"Ġmember":3112,"Ġsejarah":3113,"Ġfile":3114,"ĠRam":3115,"Ġlaut":3116,"Dari":3117,"Ġsenang":3118,"ĠHotel":3119,"Ġbertanya":3120,"ĠKomentar":3121,"osis":3122,"arakan":3123,"ĠUmum":3124,"Ġkarakter":3125,"guna":3126,"Ġpulang":3127,"alisasi":3128,"ĠBank":3129,"Ġterh":3130,"ĠHar":3131,"likasikan":3132,"urn":3133,"jadikan":3134,"ĠBerita":3135,"Ġmuslim":3136,"Ġperangkat":3137,"ĠKepala":3138,"Ġbudaya":3139,"tember":3140,"Jadi":3141,"mana":3142,"Ġumat":3143,"PA":3144,"Ġtakut":3145,"ĠPara":3146,"UH":3147,"terima":3148,"Ġkanker":3149,"fa":3150,"ial":3151,"Ġberikan":3152,"Ġkekuatan":3153,"Ġmengingat":3154,"ular":3155,"ĠBat":3156,"ĠDir":3157,"Ġsmartphone":3158,"ndang":3159,"Ġumumnya":3160,"ct":3161,"Ġmengatasi":3162,"ou":3163,"Ġmemer":3164,"14":3165,"Ġpaket":3166,"Ġtampil":3167,"hatian":3168,"ĠKomp":3169,"ĠKetika":3170,"Ġbantuan":3171,"Ġmerasakan":3172,"Ġpenis":3173,"ĠTanpa":3174,"cak":3175,"Ġbeliau":3176,"Ġindustri":3177,"visi":3178,"Ġitulah":3179,"elasan":3180,"ĠUN":3181,"okus":3182,"ĠYANG":3183,"ĠPiala":3184,"jaga":3185,"ĠBerikut":3186,"ĠHP":3187,"Peng":3188,"Ġsamping":3189,"ĠIns":3190,"ĠPenyakit":3191,"bedaan":3192,"Ġtampak":3193,"ĠSecara":3194,"ork":3195,"Ġrakyat":3196,"Home":3197,"ĠAgustus":3198,"iwa":3199,"ategi":3200,"Ġtab":3201,"etik":3202,"ĠNegeri":3203,"Ġtanaman":3204,"Ġmenjadikan":3205,"Ġaktivitas":3206,"Ġsuami":3207,"istik":3208,"Ġkemungkinan":3209,"ĠGratis":3210,"go":3211,"Obat":3212,"daun":3213,"teng":3214,"bi":3215,"ĠHanya":3216,"ĠPal":3217,"ono":3218,"tulis":3219,"asia":3220,"Ġkese":3221,"Saat":3222,"elang":3223,"angganan":3224,"vestasi":3225,"Ġproduksi":3226,"Ġminum":3227,"ormal":3228,"aitan":3229,"ahari":3230,"Ġdaripada":3231,"Ġpelanggan":3232,"ĠDownload":3233,"ĠOr":3234,"Ġlink":3235,"Ġlaga":3236,"ĠTips":3237,"Ġbersi":3238,"Ġbumi":3239,"nergi":3240,"Ġimp":3241,"TI":3242,"AW":3243,"ĠDaftar":3244,"Ġkenapa":3245,"ĠKali":3246,"ns":3247,"Ġdilihat":3248,"Ġpenerb":3249,"Ġmaksim":3250,"Ġkemarin":3251,"ndela":3252,"sek":3253,"ĠSurabaya":3254,"jemen":3255,"ĠJuni":3256,"ĠMuslim":3257,"henti":3258,"ream":3259,"ĠLalu":3260,"KI":3261,"ĠBisnis":3262,"Ġpesawat":3263,"ĠBER":3264,"Ġistri":3265,"okasi":3266,"itung":3267,"ĠMis":3268,"aksa":3269,"Ġduk":3270,"Ġbank":3271,"iks":3272,"Ġtenaga":3273,"Ġkendaraan":3274,"dih":3275,"Apakah":3276,"aksanaan":3277,"Pro":3278,"unda":3279,"Ġkawasan":3280,"Ġbr":3281,"Ġprofesi":3282,"Ġmenu":3283,"ĠTengah":3284,"Ġsayang":3285,"Ġsedangkan":3286,"atnya":3287,"okep":3288,"ped":3289,"nyataan":3290,"akil":3291,"17":3292,"esanan":3293,"ass":3294,"ĠSebagai":3295,"uliah":3296,"ĠJanuari":3297,"Ġmendengar":3298,"Ġus":3299,"adakan":3300,"Ġfasilitas":3301,"ĠFacebook":3302,"adik":3303,"Ġpar":3304,"ĠSatu":3305,"ĠUS":3306,"Ġpintu":3307,"asino":3308,"ĠMinggu":3309,"Sek":3310,"Ġgaya":3311,"Ġâ":3312,"Ġtips":3313,"usun":3314,"eta":3315,"Ġkos":3316,"ĠPR":3317,"ĠNovember":3318,"ĠUtara":3319,"Ġmemperoleh":3320,"ĠAN":3321,"Ġko":3322,"Ġmengurangi":3323,"ĠOktober":3324,"Ġbertemu":3325,"Ġinfo":3326,"Ġtambahan":3327,"ĠDem":3328,"ler":3329,"ulus":3330,"ĠDesember":3331,"Ġpenderita":3332,"Ġnamanya":3333,"Ġkebe":3334,"ĠEl":3335,"uluh":3336,"Ġbergerak":3337,"ĠDin":3338,"Ġayah":3339,"mbangkan":3340,"adu":3341,"impan":3342,"osok":3343,"dana":3344,"Ġkok":3345,"ĠMudah":3346,"Jangan":3347,"Ġpositif":3348,"ĠBay":3349,"ĠLa":3350,"Ġbus":3351,"Ġsamp":3352,"Ġsahabat":3353,"ze":3354,"audara":3355,"ike":3356,"AD":3357,"Ġketiga":3358,"Ġulang":3359,"ile":3360,"bo":3361,"Ġterbesar":3362,"ĠBesar":3363,"andi":3364,"ull":3365,"ĠBadan":3366,"ayani":3367,"ĠBeli":3368,"Ġdisebabkan":3369,"Ġorganisasi":3370,"Ġbaju":3371,"duanya":3372,"jo":3373,"Ġapalagi":3374,"Ġcer":3375,"ĠWeb":3376,"ĠBr":3377,"Ġunik":3378,"ARI":3379,"Ġsatunya":3380,"luk":3381,"ĠBukan":3382,"Ġdaun":3383,"Ġmur":3384,"anggu":3385,"ĠTar":3386,"Ġterima":3387,"Ġjatuh":3388,"ĠDr":3389,"resi":3390,"ĠSudah":3391,"iring":3392,"Ġmenambah":3393,"ĠSeptember":3394,"Ġsemangat":3395,"nikahan":3396,"inginan":3397,"gertian":3398,"unjung":3399,"urangan":3400,"ĠKemen":3401,"ĠUl":3402,"Ġ21":3403,"Ġmenawarkan":3404,"Ġmenentukan":3405,"Ġtiap":3406,"giri":3407,"Ġberwarna":3408,"akta":3409,"uber":3410,"Ġamp":3411,"Ġmenimb":3412,"Ġdew":3413,"Ġberlaku":3414,"ĠBeberapa":3415,"Ġmelaksanakan":3416,"Ġ=":3417,"asinya":3418,"esaikan":3419,"Ġ22":3420,"ĠLain":3421,"ngkau":3422,"Ġjustru":3423,"Yang":3424,"Ġgw":3425,"Ġhilang":3426,"murah":3427,"aft":3428,"ĠTetapi":3429,"Ġbilang":3430,"PS":3431,"tarik":3432,"ĠNomor":3433,"Ġmakin":3434,"Ġtrading":3435,"bak":3436,"ĠSk":3437,"Ġdibandingkan":3438,"Ġbalik":3439,"Ġdijadikan":3440,"ĠKetua":3441,"ĠAy":3442,"otong":3443,"Kalau":3444,"qu":3445,"ĠPos":3446,"hasil":3447,"ipta":3448,"Ġagak":3449,"Ġribu":3450,"Ġgejala":3451,"olog":3452,"inginkan":3453,"ape":3454,"Ġmodal":3455,"atat":3456,"ĠApakah":3457,"Ġpertem":3458,"ijau":3459,"ĠMei":3460,"Ġlahir":3461,"ajari":3462,"ĠApril":3463,"angguan":3464,"!!!":3465,"Ġseti":3466,"nangkan":3467,"sikan":3468,"Ġmenunggu":3469,"Ġpenye":3470,"spir":3471,"Ġversi":3472,"ĠSedangkan":3473,"Ġakses":3474,"Ġnak":3475,"Ġmetode":3476,"Ġkandungan":3477,"ĠNah":3478,"umpulan":3479,"Ġfisik":3480,"Ġmelawan":3481,"Ġdiperlukan":3482,"Ġkanan":3483,"ĠDaerah":3484,"Ġbl":3485,"airan":3486,"Ak":3487,"inal":3488,"Ġperhatian":3489,"Ġsifat":3490,"tup":3491,"Ġpenyebab":3492,"Si":3493,"UP":3494,"Ġefektif":3495,"Ġpakaian":3496,"Ġdewasa":3497,"duga":3498,"ĠDPR":3499,"Ġmeninggalkan":3500,"Ġbab":3501,"sur":3502,"itamin":3503,"ĠJer":3504,"Ġaj":3505,"Ġkalah":3506,"iko":3507,"ĠTerk":3508,"ĠKecamatan":3509,"ish":3510,"peda":3511,"Ġmenjawab":3512,"Ġudara":3513,"idah":3514,"Ġinst":3515,"ropa":3516,"ĠSemoga":3517,"ĠAtau":3518,"ows":3519,"trak":3520,"ĠSul":3521,"Ġsin":3522,"ĠWIB":3523,"epatan":3524,"teman":3525,"uji":3526,"entasi":3527,"tempat":3528,"undang":3529,"Ġpendek":3530,"mm":3531,"alur":3532,"intahan":3533,"dampak":3534,"anah":3535,"Ġarea":3536,"iling":3537,"ĠRi":3538,"intas":3539,"ĠJuli":3540,"Ġjantung":3541,"ebruari":3542,"Ġlayar":3543,"indah":3544,"row":3545,"Ġmal":3546,"Ġberhubungan":3547,"Mas":3548,"Ġiklan":3549,"wak":3550,"Ġpengunjung":3551,"omend":3552,"Ġmenciptakan":3553,"ESI":3554,"ĠSenin":3555,"irik":3556,"ĠKata":3557,"tengah":3558,"Ġberdiri":3559,"gel":3560,"utuskan":3561,"Ġalamat":3562,"Ġsta":3563,"nur":3564,"arusnya":3565,"Ġdll":3566,"iru":3567,"Ġahli":3568,"Ġtindakan":3569,"Ġbib":3570,"Ġpengobatan":3571,"ower":3572,"kata":3573,"OT":3574,"ĠUniversitas":3575,"anto":3576,"âĢĿ,":3577,"ĠKorea":3578,"ĠKemudian":3579,"ock":3580,"Ġmencegah":3581,"Ġmenimbulkan":3582,"Ġtahan":3583,"nakan":3584,"ĠMaret":3585,"allah":3586,"cel":3587,"Ġsepanjang":3588,"Ġmeraih":3589,"Ġ23":3590,"ngkapnya":3591,"ĠRasulullah":3592,"tiba":3593,"ĠIk":3594,"Download":3595,"ĠSD":3596,"ambang":3597,"edung":3598,"Ġolahraga":3599,"Ġ+":3600,"nerasi":3601,"Ġkonsep":3602,"Ġpeluang":3603,"ton":3604,"Ġjendela":3605,"itra":3606,"Ġdaging":3607,"Ġtangga":3608,"Ġdiser":3609,"At":3610,"ĠSehingga":3611,"Ġrata":3612,"Ġmenghadapi":3613,"Ġberikutnya":3614,"Ġkayu":3615,"Ġkonsumen":3616,"Ġkejadian":3617,"Ġ!":3618,"ĠâĢĿ":3619,"Ġnih":3620,"intai":3621,"Ġmulut":3622,"Ġmengeluarkan":3623,"Ġdiharapkan":3624,"Ġkaya":3625,"Ġenak":3626,"Ġmengobati":3627,"etapkan":3628,"ĠWisata":3629,"Ġditer":3630,"Ġseni":3631,"nas":3632,"Ġmenyukai":3633,"22":3634,"Ġupaya":3635,"uf":3636,"Ġhi":3637,"Ġdapatkan":3638,"jaan":3639,"Ġbuk":3640,"Ġneg":3641,"Ġmemahami":3642,"Ġbar":3643,"ĠKamis":3644,"ĠKap":3645,"akaan":3646,"ĠVideo":3647,"Ġkesel":3648,"Ġsiang":3649,"Ġpertumbuhan":3650,"ĠRabu":3651,"Ġes":3652,"Ġim":3653,"Ġkalangan":3654,"antikan":3655,"ĠPusat":3656,"ĠFilm":3657,"Ġtotal":3658,"ĠHidup":3659,"Ġkhas":3660,"otak":3661,"Ġsebagaimana":3662,"upi":3663,"ĠSebelum":3664,"zin":3665,"Ġwasir":3666,"ĠAceh":3667,"PT":3668,"ĠPan":3669,"Ġvirus":3670,"200":3671,"Ġasing":3672,"Ġgo":3673,"odi":3674,"Ġpay":3675,"Ġberpikir":3676,"Ġ2011":3677,"ela":3678,"Ġkamera":3679,"Ġvia":3680,"Ġtransaksi":3681,"unitas":3682,"atar":3683,"Ġmengenal":3684,"ĠYa":3685,"ĠJuga":3686,"Ġberkualitas":3687,"Ġdisi":3688,"utr":3689,"Ġdilaksanakan":3690,"aruh":3691,"olan":3692,"Ġmenyer":3693,"giriman":3694,"NS":3695,"Ġpenga":3696,"Ġlo":3697,"Ġpelaku":3698,"Ġlistrik":3699,"Ġwar":3700,"Ġkun":3701,"Ġponsel":3702,"ĠSal":3703,"KAN":3704,"akasih":3705,"Ġmenjual":3706,"Ġpembayaran":3707,"rkan":3708,"Ġmengirim":3709,"Ġialah":3710,"ubernur":3711,"indows":3712,"Ġpres":3713,"xy":3714,"agian":3715,"ĠRo":3716,"Ġmodern":3717,"Ġkamp":3718,"alatan":3719,"Ġpantai":3720,"Ġterbuka":3721,"ĠSun":3722,"Ġjarang":3723,"Ġmaksimal":3724,"ĠSetiap":3725,"tinggi":3726,"Ġapi":3727,"Ġlokal":3728,"epon":3729,"ĠðŁĺ":3730,"cinta":3731,"Ġmerek":3732,"ĠSementara":3733,"feren":3734,"Ġkeuangan":3735,"ĠMuhammad":3736,"Ġartinya":3737,"Ġbangunan":3738,"lem":3739,"Ġmenjalankan":3740,"Ġkeputusan":3741,"ĠMungkin":3742,"Berikut":3743,"Ġmence":3744,"Ġseksual":3745,"ucu":3746,"Ġ:)":3747,"Ġkepad":3748,"ĠSekolah":3749,"Ġberisi":3750,"25":3751,"Ġhand":3752,"Ġtamu":3753,"amsung":3754,"ansi":3755,"utin":3756,"oli":3757,"Tapi":3758,"antinya":3759,"ĠIm":3760,"ĠHasil":3761,"21":3762,"omer":3763,"ĠLap":3764,"ĠCinta":3765,"Ġmandi":3766,"engkapnya":3767,"ĠBulan":3768,"oni":3769,"Ġblogger":3770,"Ġmeskipun":3771,"owi":3772,"ĠAm":3773,"88":3774,"ĠAsia":3775,"Ġruangan":3776,"Ġbenda":3777,"ĠHarus":3778,"Ġsebaiknya":3779,"ektron":3780,"zi":3781,"Ġrep":3782,"Ġkul":3783,"lob":3784,"Ġpenerbangan":3785,"antara":3786,"Ġhamil":3787,"Ġdidalam":3788,"Ġsikap":3789,"bah":3790,"imia":3791,"hh":3792,"ĠJam":3793,"Ġemas":3794,"asie":3795,"ITA":3796,"Ġkiri":3797,"Ġdibutuhkan":3798,"lat":3799,"Ġ2010":3800,"ĠProvinsi":3801,"Nama":3802,"pengaruhi":3803,"gr":3804,"Ġkunci":3805,"witter":3806,"inding":3807,"Ġpengel":3808,"ĠPart":3809,"sik":3810,"upati":3811,"ĠRI":3812,"JA":3813,"PP":3814,"Ġjiwa":3815,"Ġwalaupun":3816,"ublikasikan":3817,"ĠBaik":3818,"div":3819,"ĠMengh":3820,"Ġpoin":3821,"ftware":3822,"ĠEropa":3823,"ash":3824,"nj":3825,"Ġkenc":3826,"Ġtipe":3827,"yun":3828,"AG":3829,"IR":3830,"ravel":3831,"rop":3832,"ĠJumat":3833,"lihat":3834,"ontak":3835,"ĠAnt":3836,"jas":3837,"asien":3838,"UD":3839,"ĠSur":3840,"impinan":3841,"kar":3842,"Ġberapa":3843,"Karena":3844,"Ġmener":3845,"Ġhabis":3846,"2017":3847,"angkau":3848,"Ġent":3849,"war":3850,"vice":3851,"illah":3852,"ĠFebruari":3853,"za":3854,"orkan":3855,"Ġang":3856,"__":3857,"Ġfe":3858,"Ġberse":3859,"ĠTentang":3860,"Ġkebijakan":3861,"Mes":3862,"unjuk":3863,"Ġsempurna":3864,"Ġsens":3865,"OG":3866,"Ġhujan":3867,"Ġmeja":3868,"ĠSelasa":3869,"ĠAlami":3870,"Ġkisah":3871,"Ġotak":3872,"isiko":3873,"orit":3874,"Ġkesalahan":3875,"Ġkering":3876,"Ġinilah":3877,"Ġbergabung":3878,"Ġpemilik":3879,"Ġhendak":3880,"Ġdimulai":3881,"Ġgadis":3882,"Ġkadang":3883,"Ġguna":3884,"BM":3885,"Ġdijual":3886,"akaian":3887,"Ġali":3888,"Ġperut":3889,"okowi":3890,"aram":3891,"apus":3892,"idu":3893,"imat":3894,"awatir":3895,"Ġtanya":3896,"Ġberhenti":3897,"dam":3898,"Ġberkaitan":3899,"anian":3900,"ĠPosting":3901,"Ġsebaga":3902,"ĠRep":3903,"Ġ40":3904,"ĠSekarang":3905,"Ġterg":3906,"ransp":3907,"ulitan":3908,"Ġminta":3909,"ombol":3910,"dingin":3911,"baiki":3912,"angi":3913,"terian":3914,"Ġdiam":3915,"atkan":3916,"dini":3917,"ĠBlogger":3918,"Ġamat":3919,"Ġkeamanan":3920,"ĠToko":3921,"ĠMeny":3922,"Ġkopi":3923,"24":3924,"omatis":3925,"Ġpikiran":3926,"toran":3927,"ĠKer":3928,"Res":3929,"Ġsepak":3930,"Ġ..":3931,"roduksi":3932,"ferensi":3933,"ookie":3934,"Ġlaporan":3935,"ambung":3936,"Ġperl":3937,"Tak":3938,"Ġdimaksud":3939,"ĠAkhir":3940,"baru":3941,"Ġnormal":3942,"ewek":3943,"Ġmanis":3944,"lie":3945,"Ġantar":3946,"Ġpola":3947,"enis":3948,"indungi":3949,"Keb":3950,"Ġsolusi":3951,"ampang":3952,"omba":3953,"ĠSing":3954,"Ġbersifat":3955,"Ġmenyampaikan":3956,"ĠPes":3957,"ĠKris":3958,"uarga":3959,"insip":3960,"Ġperse":3961,"Ġtop":3962,"Ġsay":3963,"ihi":3964,"Ġkehilangan":3965,"Nah":3966,"dagangan":3967,"Ġnon":3968,"Ġvs":3969,"tivasi":3970,"ĠTinggi":3971,"Ġpembuatan":3972,"tuju":3973,"Ġterkena":3974,"Ġmenutup":3975,"Ġpi":3976,"ĠSabtu":3977,"Ġmendatang":3978,"Sementara":3979,"Ġgem":3980,"ĠSMA":3981,"ĠProgram":3982,"ader":3983,"Ġperawatan":3984,"Ġkapan":3985,"ell":3986,"ĠDit":3987,"Ġminuman":3988,"Ġambe":3989,"Ġunit":3990,"23":3991,"anfaatkan":3992,"Ġpengembangan":3993,"lahan":3994,"Ġmahal":3995,"Ġbukti":3996,"ibur":3997,"ĠCepat":3998,"andai":3999,"ektur":4000,"Ġdingin":4001,"Ġberfungsi":4002,"Ġtitik":4003,"Ġasam":4004,"Ġmengapa":4005,"ĠEx":4006,"Ġdikirim":4007,"agia":4008,"sis":4009,"ebat":4010,"Ġgitu":4011,"Ġmengembangkan":4012,"ĠMotor":4013,"Ġrasanya":4014,"Ġringan":4015,"Ġmelanjutkan":4016,"Ġgagal":4017,"ĠInternet":4018,"Ġnaf":4019,"Ġgangguan":4020,"Ġpostingan":4021,"Ġpopuler":4022,"abatan":4023,"Ġupdate":4024,"Ġtokoh":4025,"deng":4026,"Ġrencana":4027,"istrasi":4028,"Ġcek":4029,"Ġkabar":4030,"ingung":4031,"emi":4032,"Bagaimana":4033,"ĠKan":4034,"Ġlel":4035,"Ġenergi":4036,"amakan":4037,"Ġsebagainya":4038,"Ġmenambahkan":4039,"ancar":4040,"Baca":4041,"upiah":4042,"gang":4043,"Ġden":4044,"istiwa":4045,"Ġstandar":4046,"ĠFoto":4047,"rak":4048,"Ġdikel":4049,"ungkinkan":4050,"Ġingat":4051,"Ġdikatakan":4052,"ĠUp":4053,"Ġdap":4054,"OB":4055,"Pem":4056,"Ġtekanan":4057,"uruan":4058,"ĠBek":4059,"ĠUnit":4060,"Ġmembahas":4061,"Re":4062,"ĠPerusahaan":4063,"ĠAplikasi":4064,"Ġzaman":4065,"Ġdukungan":4066,"arif":4067,"Ġditerima":4068,"spirasi":4069,"ĠBagaimana":4070,"pentingan":4071,"ĠHukum":4072,"Selamat":4073,"Ġtimb":4074,"Ġisti":4075,"Ġnantinya":4076,"Ġpenduduk":4077,"ekerja":4078,"Ġkomunikasi":4079,"Ġdidapat":4080,"Ġkrit":4081,"Ġinternasional":4082,"Ġmeter":4083,"aket":4084,"ĠArab":4085,"Ġmatahari":4086,"Ġnyata":4087,"Ġperasaan":4088,"Ġmenghilangkan":4089,"bet":4090,"ED":4091,"Ġdiantaranya":4092,"Mer":4093,"asitas":4094,"Ġaturan":4095,"Ġsusah":4096,"Ġpembelajaran":4097,"Ġok":4098,"Ġtradisional":4099,"ora":4100,"ĠOp":4101,"Ġpengg":4102,"Ġpeningkatan":4103,"ĠUang":4104,"ĠAgar":4105,"Ġdini":4106,"ogyak":4107,"Ġkeduanya":4108,"Ġnasi":4109,"ĠKor":4110,"angit":4111,"oren":4112,"Ġberagam":4113,"Dia":4114,"Kem":4115,"ĠAL":4116,"ogyakarta":4117,"lai":4118,"Ġdipas":4119,"ĠNew":4120,"irip":4121,"Ġasp":4122,"Ġkenal":4123,"Ġteknik":4124,"bagi":4125,"mudah":4126,"OD":4127,"Ġkapal":4128,"anggil":4129,"ise":4130,"Ġlembaga":4131,"tujuan":4132,"Ġkeinginan":4133,"ontrol":4134,"bagai":4135,"fir":4136,"Ġpor":4137,"Ġkej":4138,"Ġmemulai":4139,"Ġungk":4140,"Ġpikir":4141,"ĠII":4142,"Ġarti":4143,"Ġmenurunkan":4144,"Ġmemutuskan":4145,"Ġkesulitan":4146,"titu":4147,"tahan":4148,"ĠDinas":4149,"wujud":4150,"inary":4151,"Ġdimiliki":4152,"ĠTV":4153,"ĠSakit":4154,"ves":4155,"Ġambeien":4156,"ĠPertama":4157,"Ġbuka":4158,"nyum":4159,"Ġmenyemb":4160,"teme":4161,"lengkapi":4162,"uhnya":4163,"angkit":4164,"inerja":4165,"ĠMEN":4166,"Ġterbukti":4167,"Ġminimal":4168,"45":4169,"iasaan":4170,"Ġklub":4171,"Ġbutuh":4172,"Ġproyek":4173,"tifikasi":4174,"Ġjawaban":4175,"Ġstrategi":4176,"ĠTeri":4177,"angani":4178,"Ġluka":4179,"Ġpohon":4180,"Ġhid":4181,"\".":4182,"Ġgigi":4183,"Ġkhawatir":4184,"Ġmarket":4185,"ĠMenjadi":4186,"Ġmembentuk":4187,"ĠSub":4188,"Ġ28":4189,"Ġkece":4190,"Ġcab":4191,"Ġgerakan":4192,"Ġlapangan":4193,"Klik":4194,"Ġkuliah":4195,"Ġdipublikasikan":4196,"Ġtertarik":4197,"PER":4198,"ĠMenteri":4199,"ograf":4200,"Ġtas":4201,"jasama":4202,"Ġpemimpin":4203,"Ġsusu":4204,"onya":4205,"atian":4206,"temen":4207,"Ġmelayani":4208,"lus":4209,"Ġreview":4210,"ritakan":4211,"Ġremaja":4212,"asana":4213,"Ġprofesional":4214,"arankan":4215,"Ġsobat":4216,"AC":4217,"ĠSebab":4218,"Ġdiambil":4219,"ĠSta":4220,"ĠGambar":4221,"âĢ¦]":4222,"Kita":4223,"Ġseharusnya":4224,"Ġsc":4225,"alikan":4226,"onda":4227,"eser":4228,"ĠIND":4229,"Ġdilengkapi":4230,"Ġspesi":4231,"iar":4232,"ĠVe":4233,"fin":4234,"Ġq":4235,"Ġselamat":4236,"ilaku":4237,"Contoh":4238,"ĠDapat":4239,"Ġharapan":4240,"erim":4241,"Ġpublik":4242,"aluan":4243,"nter":4244,"ungkapkan":4245,"EB":4246,"Ġsuper":4247,"uktikan":4248,"jikan":4249,"Ġlantai":4250,"Ġwa":4251,"ranc":4252,"Ġperbedaan":4253,"Ġpelaksanaan":4254,"tutup":4255,"ĠIlmu":4256,"abrik":4257,"Ġpernikahan":4258,"oris":4259,"Ġpenjualan":4260,"yan":4261,"anji":4262,"Ġkeper":4263,"pertinya":4264,"Alamat":4265,"Ġrutin":4266,"Ya":4267,"Ġcel":4268,"alahkan":4269,"okan":4270,"Tempat":4271,"Ġmere":4272,"Ġmengaj":4273,"oritas":4274,"ĠSilahkan":4275,"Ġmemanfaatkan":4276,"UAN":4277,"Ġpelajaran":4278,"ektronik":4279,"Ġmenyenangkan":4280,"indahan":4281,"Ġkecuali":4282,"Ġdita":4283,"ĠMakanan":4284,"Ġterletak":4285,"ĠKons":4286,"Ġhijau":4287,"Ġmenemp":4288,"oot":4289,"eman":4290,"Ketika":4291,"jarah":4292,"Ġpertemuan":4293,"Sebelum":4294,"Ġmengubah":4295,"Ġ2009":4296,"ĠProf":4297,"aring":4298,"Beberapa":4299,"intaan":4300,"Ġdalamnya":4301,"alanya":4302,"andangan":4303,"Ġtergantung":4304,"Ġpasien":4305,"Ġterang":4306,"rikat":4307,"Ġtogel":4308,"Ġbukanlah":4309,"unyi":4310,"omi":4311,"gunaan":4312,"ĠKat":4313,"Produk":4314,"Ġta":4315,"Ġkode":4316,"Ġtahap":4317,"elih":4318,"audi":4319,"Ġvitamin":4320,"esus":4321,"ĠSistem":4322,"ĠRaya":4323,"ĠJenis":4324,"Ġaksi":4325,"of":4326,"cepat":4327,"Ġpekan":4328,"Ġband":4329,"elajari":4330,"Ġ27":4331,"Ġindiv":4332,"Ind":4333,"Ġpotensi":4334,"ci":4335,"Ġkompet":4336,"Ġzat":4337,"Ġbintang":4338,"Ġmemungkinkan":4339,"Ġumur":4340,"Ġserangan":4341,"truktur":4342,"ĠFe":4343,"ĠBandar":4344,"60":4345,"Ġmeski":4346,"onen":4347,"ĠAngg":4348,"ĠPap":4349,"Ġberguna":4350,"ĠSerikat":4351,"sinya":4352,"ĠGuru":4353,"As":4354,"ĠYo":4355,"ole":4356,"Ġpake":4357,"Ġperp":4358,"Langganan":4359,"Ġmaks":4360,"Ġkebanyakan":4361,"ĠKelamin":4362,"vent":4363,"ipilis":4364,"Ġtemb":4365,"dayakan":4366,"Ġsituasi":4367,"ĠKutil":4368,"Ġhewan":4369,"ogor":4370,"ewati":4371,"Ġrangka":4372,"Ġkirim":4373,"Ġtelur":4374,"ĠPulau":4375,"ĠAlat":4376,"opy":4377,"Ġbertahan":4378,"SM":4379,"word":4380,"dosa":4381,"Ġberbicara":4382,"Ġperan":4383,"ĠPadahal":4384,"unjungan":4385,"untut":4386,"Ġkepentingan":4387,"Ġalias":4388,"tep":4389,"Ġpenjelasan":4390,"Ġresep":4391,"ĠJokowi":4392,"uhu":4393,"ĠAngk":4394,"Ġterbuat":4395,"ĠDom":4396,"Ġjarak":4397,"ĠKur":4398,"Ġtuk":4399,"Ġmenikah":4400,"tic":4401,"Ġgula":4402,"untuk":4403,"egis":4404,"bola":4405,"Ġhat":4406,"ĠGol":4407,"waktu":4408,"anggup":4409,"umur":4410,"Ġmaaf":4411,"etan":4412,"pro":4413,"Ġur":4414,"bal":4415,"Ġbingung":4416,"Ġsebelah":4417,"Ġmengerti":4418,"AJ":4419,"Ġmemastikan":4420,"Ġmemerlukan":4421,"ugi":4422,"ulum":4423,"ov":4424,"gaja":4425,"nam":4426,"emas":4427,"Ġtombol":4428,"encana":4429,"Ġbas":4430,"ikmat":4431,"ĠTerima":4432,"Ġusah":4433,"lain":4434,"masi":4435,"ĠGame":4436,"Ġex":4437,"Ġungg":4438,"Ġkonten":4439,"osan":4440,"ost":4441,"ria":4442,"Ġberani":4443,"Ġberakhir":4444,"Ġbiar":4445,"Ġinvestasi":4446,"Prediksi":4447,"Ġnas":4448,"99":4449,"Ġsuasana":4450,"Ġlaz":4451,"ĠSamsung":4452,"naran":4453,"Ġcm":4454,"ime":4455,"ĠMet":4456,"Ġberusia":4457,"Ġinternal":4458,"asiat":4459,"aysia":4460,"Ġistilah":4461,"ĠMedan":4462,"Ùİ":4463,"Ġburung":4464,"Ġjudul":4465,"Ġbekas":4466,"Ġfokus":4467,"Itu":4468,"Ġprak":4469,"awaran":4470,"Ġsingkat":4471,"nce":4472,"Ġketah":4473,"ach":4474,"ĠNy":4475,"Ġberkom":4476,"ashi":4477,"ling":4478,"ĠApalagi":4479,"Ġseputar":4480,"operasi":4481,"hamdul":4482,"Ġangk":4483,"ick":4484,"Ġberper":4485,"Ġtimbul":4486,"Ġ[âĢ¦]":4487,"ĠYogyakarta":4488,"ĠBarang":4489,"ayaan":4490,"atera":4491,"ĠJual":4492,"ĠTNI":4493,"kin":4494,"Ġpemerintahan":4495,"umpulkan":4496,"emahan":4497,"ĠCity":4498,"Ġgaris":4499,"ĠBila":4500,"Ġperang":4501,"Ġibadah":4502,"iksa":4503,"Ġhutan":4504,"Ġlawan":4505,"Ġmelainkan":4506,"upsi":4507,"Ġengkau":4508,"ĠPrediksi":4509,"COM":4510,"emar":4511,"Ġmelip":4512,"odoh":4513,"Ġjalur":4514,"jata":4515,"ĠKas":4516,"ĠMalang":4517,"Ġbonus":4518,"ĠTogel":4519,"ĠBur":4520,"ingatan":4521,"ĠBuat":4522,"Ġkecepatan":4523,"Ġvag":4524,"abar":4525,"jabat":4526,"Ġmengatur":4527,"Ġhangat":4528,"bar":4529,"utrisi":4530,"Ġtampilan":4531,"krip":4532,"Ġpolisi":4533,"masalahan":4534,"ĠTaruhan":4535,"ida":4536,"omen":4537,"ĠMend":4538,"ĠMana":4539,"uy":4540,"ampur":4541,"hit":4542,"Ġlatihan":4543,"pany":4544,"Ġsim":4545,"Ġrum":4546,"Ġmaksud":4547,"umpang":4548,"Ġeksp":4549,"Ġinfeksi":4550,"Ġhalus":4551,"Ġwis":4552,"Ġmeneg":4553,"oreng":4554,"udang":4555,"avorit":4556,"dgn":4557,"otik":4558,"ternatif":4559,"ĠDua":4560,"Ġtambah":4561,"ĠMenc":4562,"Ġsaudara":4563,"amilan":4564,"Ġ26":4565,"Ġsaham":4566,"ipis":4567,"Ġhadiah":4568,"ĠSup":4569,"Ġkontak":4570,"ĠKementerian":4571,"tip":4572,"Ġtarget":4573,"Ġsungguh":4574,"28":4575,"ĠBal":4576,"asnya":4577,"isian":4578,"Ġmar":4579,"Ġoper":4580,"ĠIst":4581,"daknya":4582,"ĠAbu":4583,"Ġmenjalani":4584,"adhan":4585,"Ġpartai":4586,"uransi":4587,"apnya":4588,"Ġaneh":4589,"Ġpulau":4590,"amaan":4591,"Ġserius":4592,"posit":4593,"Ġsadar":4594,"Ġotomatis":4595,"orial":4596,"acar":4597,"blog":4598,"jian":4599,"lahirkan":4600,"tail":4601,"Ġyah":4602,"ĠTAH":4603,"esuaikan":4604,"Ġshalat":4605,"Ġtema":4606,"ĠBelanda":4607,"Ġdgn":4608,"ENGAN":4609,"Ġperj":4610,"AY":4611,"elan":4612,"apura":4613,"Seperti":4614,"Ġbakteri":4615,"Ġsyarat":4616,"ribusi":4617,"ĠSelamat":4618,"ĠMedia":4619,"bum":4620,"ood":4621,"Ġlemak":4622,"Ġambil":4623,"Ġgenerasi":4624,"olat":4625,"Ġkategori":4626,"iksaan":4627,"aransi":4628,"!âĢĿ":4629,"ĠAyam":4630,"Ġmenyelesaikan":4631,"erikan":4632,"allahu":4633,"Ġtanggung":4634,"Inilah":4635,"har":4636,"www":4637,"Ġlahan":4638,"reen":4639,"rn":4640,"Ġtes":4641,"son":4642,"Ġsebe":4643,"alo":4644,"isip":4645,"Ġtransp":4646,"ames":4647,"ĠDik":4648,"van":4649,"ekat":4650,"Ġmengunjungi":4651,"lobal":4652,"Ġberbahaya":4653,"Ġsam":4654,"ĠMul":4655,"aliknya":4656,"Ġmenyebut":4657,"Salah":4658,"utip":4659,"ĠDew":4660,"ĠMasih":4661,"Ġkerus":4662,"Ġpastinya":4663,"Ġkeny":4664,"Ġkertas":4665,"EP":4666,"Ġmendek":4667,"stem":4668,"ĠVi":4669,"Ġgatal":4670,"Ġbay":4671,"ubur":4672,"urnal":4673,"ahanan":4674,"narnya":4675,"Ġmirip":4676,"Atom":4677,"âĢ¢":4678,"ex":4679,"ĠStr":4680,"ĠBuku":4681,"ANGAN":4682,"âĢ¦âĢ¦":4683,"ihatan":4684,"ordin":4685,"Ġbelanja":4686,"ĠTanah":4687,"ring":4688,"lastik":4689,"ĠKeh":4690,"ĠBo":4691,"inter":4692,"Ġbed":4693,"Ġmembayar":4694,"Ġsesungguhnya":4695,"Ġdeposit":4696,"ĠKantor":4697,"Membuka":4698,"rie":4699,"ĠPP":4700,"Ġjah":4701,"Ġlaptop":4702,"danya":4703,"Ġbatas":4704,"kom":4705,"ĠSeorang":4706,"Ġmiliki":4707,"Ġsanggup":4708,"sem":4709,"ĠUsaha":4710,"rajaan":4711,"app":4712,"ONESI":4713,"Ġbanyaknya":4714,"artemen":4715,"atuan":4716,"Ġsepatu":4717,"ĠMP":4718,"ĠManusia":4719,"ĠRah":4720,"ribut":4721,"Ġperistiwa":4722,"Ġterjadinya":4723,"siapkan":4724,"Ġmaju":4725,"ĠBahan":4726,"Ġsekedar":4727,"cah":4728,"ATAN":4729,"lis":4730,"ubang":4731,"Ġpengiriman":4732,"eliti":4733,"ĠBermain":4734,"Ġlum":4735,"Ġkursi":4736,"ĠGunung":4737,"arenakan":4738,"Ġsimp":4739,"Ġstatus":4740,"ĠTrans":4741,"bel":4742,"ĠKulit":4743,"Ġtulang":4744,"Ġkaryawan":4745,"Agen":4746,"Ġdiber":4747,"ARTA":4748,"ĠWindows":4749,"Ġtegas":4750,"por":4751,"ĠHadi":4752,"argaan":4753,"Ġbibir":4754,"Ġlembut":4755,"Ġro":4756,"epak":4757,"yu":4758,"Ġnyeri":4759,"ĠWaktu":4760,"80":4761,"EG":4762,"ONESIA":4763,"Ġpadahal":4764,"Ġlepas":4765,"diaan":4766,"Ġfr":4767,"nderung":4768,"rata":4769,"ĠCo":4770,"AYA":4771,"Ġampuh":4772,"ral":4773,"wayat":4774,"tah":4775,"arut":4776,"amkan":4777,"so":4778,"ĠBayi":4779,"ayaknya":4780,"Dem":4781,"saya":4782,"ĠGubernur":4783,"PB":4784,"Ġujarnya":4785,"Ġco":4786,"27":4787,"Ġunsur":4788,"ehehe":4789,"sb":4790,"Ġpencarian":4791,"Ġmendorong":4792,"Ġmelewati":4793,"40":4794,"Ġcairan":4795,"tak":4796,"Ġstudi":4797,"Ġmenghadi":4798,"dium":4799,"Pas":4800,"Ġ60":4801,"Ġmengisi":4802,"Ġpenjual":4803,"Ġdetik":4804,"Ġkinerja":4805,"Ġmuka":4806,"Ġtenang":4807,"ĠLainnya":4808,"Mel":4809,"Ġkimia":4810,"juangan":4811,"ĠDesain":4812,"Ġkekurangan":4813,"naan":4814,"siapan":4815,"ĠEm":4816,"Ġkredit":4817,"nu":4818,"Ġmesti":4819,"Ġ>":4820,"Ġrisiko":4821,"ĠAll":4822,"wisata":4823,"ĠSMP":4824,"ĠTeknologi":4825,"galan":4826,"ĠDok":4827,"ENTANG":4828,"Ġjangka":4829,"Ġsepeda":4830,"Ġsektor":4831,"Ġbahagia":4832,"ĠBupati":4833,"Ġcok":4834,"ĠCom":4835,"duli":4836,"Ġsemacam":4837,"Ġpembelian":4838,"Ġdampak":4839,"ĠDil":4840,"ee":4841,"tagram":4842,"ĠMic":4843,"Ġpandangan":4844,"gawai":4845,"Des":4846,"luan":4847,"erian":4848,"hamdulillah":4849,"reja":4850,"Ġperaturan":4851,"Ġout":4852,"ĠSehat":4853,"Ġcenderung":4854,"iarkan":4855,"dagang":4856,"alang":4857,"OP":4858,"Ġmengec":4859,"Ġrusak":4860,"Ġcatatan":4861,"ĠPapua":4862,"ght":4863,"Ġperdagangan":4864,"indak":4865,"Ġketerangan":4866,"ilitas":4867,"Ġujung":4868,"ĠLengkap":4869,"Ġtersenyum":4870,"Ġpot":4871,"arikan":4872,"utorial":4873,"ance":4874,"ith":4875,"ĠMasyarakat":4876,"Ġangin":4877,"ĠKol":4878,"ADA":4879,"ampi":4880,"ashion":4881,"Ġsegar":4882,"Ce":4883,"ĠSumatera":4884,"Pel":4885,"ĠTerl":4886,"pedia":4887,"Ġoptim":4888,"Ġpajak":4889,"Ġ$":4890,"ĠBatu":4891,"Ġdisampaikan":4892,"ĠSes":4893,"jual":4894,"Ġbawa":4895,"aporkan":4896,"Ġmempengaruhi":4897,"Ġpuasa":4898,"Terima":4899,"va":4900,"Ġmimpi":4901,"dera":4902,"uruf":4903,"udut":4904,"ucapkan":4905,"ĠTa":4906,"alaxy":4907,"Ġhubungi":4908,"Ġliburan":4909,"Ġbertambah":4910,"Banyak":4911,"lak":4912,"Ġciri":4913,"ĠBuk":4914,"Ġforex":4915,"Ġlayak":4916,"Ġtunggu":4917,"ĠMadrid":4918,"osen":4919,"ĠPromo":4920,"ĠChina":4921,"ĠAK":4922,"ĠArtikel":4923,"ĠINDONESIA":4924,"Ġdisk":4925,"AI":4926,"ografi":4927,"ĠYesus":4928,"Ġbandar":4929,"Ġperalatan":4930,"Ġklas":4931,"Ġanaknya":4932,"atau":4933,"Ġketahui":4934,"Ġindividu":4935,"26":4936,"Ġandroid":4937,"Ġmon":4938,"elenggarakan":4939,"Ġtuh":4940,"una":4941,"ubung":4942,"Ġ29":4943,"ĠYah":4944,"dinding":4945,"Ġmanajemen":4946,"ĠNus":4947,"ĠMasa":4948,"ĠTAHUN":4949,"ĠBag":4950,"Ġjuara":4951,"Ġbangun":4952,"port":4953,"tahankan":4954,"Ġwww":4955,"ustomer":4956,"Ġbeserta":4957,"Ġsengaja":4958,"Ġminimalis":4959,"Ġkonsumsi":4960,"percayaan":4961,"spot":4962,"jen":4963,"ntuh":4964,"ingkatkan":4965,"Ġmembuatnya":4966,"âĢĶ":4967,"lash":4968,"hluk":4969,"Ġhasilnya":4970,"ucing":4971,"atusan":4972,"Sebagai":4973,"Ġki":4974,"kir":4975,"anyi":4976,"Ġjadwal":4977,"ĠMinim":4978,"Ġkira":4979,"Ġkerusakan":4980,"TR":4981,"Ġperiode":4982,"BER":4983,"Resep":4984,"An":4985,"sendiri":4986,"ĠBan":4987,"ĠDENGAN":4988,"ĠTernyata":4989,"ĠKa":4990,"Ġpendaft":4991,"angkaian":4992,"ebaran":4993,"ĠSebuah":4994,"tein":4995,"Ġtep":4996,"Ġmengajak":4997,"Ġkomunitas":4998,"ĠBogor":4999,"utaan":5000,"Ġberkunjung":5001,"Artikel":5002,"Ġmenyebutkan":5003,"ĠSuper":5004,"ĠPenc":5005,"Ġteh":5006,"Ġsaluran":5007,"Ġreg":5008,"Ġpetugas":5009,"ĠRaja":5010,"Ġpendaftaran":5011,"Ġmele":5012,"Ġinginkan":5013,"Ġkeren":5014,"tir":5015,"tidak":5016,"Ġmelepas":5017,"Pert":5018,"ado":5019,"ektor":5020,"Ġberbentuk":5021,"udahkan":5022,"Ġperbuatan":5023,"TER":5024,"ld":5025,"Ġmiliar":5026,"Ġ2008":5027,"Ġpermukaan":5028,"antangan":5029,"ĠMalaysia":5030,"Ġmantan":5031,"Ġpuas":5032,"isten":5033,"ĠSampai":5034,"Ġmasjid":5035,"AKARTA":5036,"ĠHonda":5037,"Ġsetengah":5038,"ĠĠ":5039,"ariasi":5040,"itis":5041,"berdayakan":5042,"NYA":5043,"ĠManfaat":5044,"Ġsore":5045,"lot":5046,"ĠAsli":5047,"Ġmemperhatikan":5048,"Ġtengg":5049,"Ġpermasalahan":5050,"Ġmaj":5051,"Ġmembagi":5052,"ĠPC":5053,"mar":5054,"Ġwas":5055,"Ġbinary":5056,"anye":5057,"Ġsarana":5058,"Ġlampu":5059,"Ġmenghubungi":5060,"Ġtelepon":5061,"Ġmemasuki":5062,"rend":5063,"jaya":5064,"Ġpenampilan":5065,"ĠRed":5066,"Ġmeliputi":5067,"ĠInfo":5068,"ĠPENG":5069,"Ġpemesanan":5070,"ĠJerman":5071,"gat":5072,"ĠPil":5073,"obet":5074,"Ġdep":5075,"ĠMesin":5076,"ĠHerbal":5077,"Ġmemainkan":5078,"Ġked":5079,"Ġanggaran":5080,"aminan":5081,"Ġrupiah":5082,"AND":5083,"Ġskor":5084,"Ġkotak":5085,"IH":5086,"tiga":5087,"truksi":5088,"kes":5089,"Semua":5090,"ted":5091,"tai":5092,"Ġpemeriksaan":5093,"ĠSW":5094,"Ġer":5095,"Ġprod":5096,"Ġkalimat":5097,"alia":5098,"alin":5099,"ĠModel":5100,"Ġmenyimpan":5101,"depan":5102,"umpul":5103,"Ġkematian":5104,"Ġmenampilkan":5105,"olaan":5106,"Ġberg":5107,"Ġha":5108,"Ġsosok":5109,"Ġkain":5110,"ĠMulai":5111,"29":5112,"Ġbertanggung":5113,"Ġpulsa":5114,"Ġban":5115,"ĠKeuangan":5116,"Ġdat":5117,"usen":5118,"irman":5119,"ĠLemb":5120,"Ġenam":5121,"Ġmenyus":5122,"ĠCon":5123,"ĠDib":5124,"icu":5125,"ndapat":5126,"Ġtransfer":5127,"Ġsungai":5128,"otol":5129,"awar":5130,"ahaman":5131,"ii":5132,"nilai":5133,"teg":5134,"ĠMari":5135,"Ġdetail":5136,"ĠMp":5137,"ahabat":5138,"Ġterbatas":5139,"negara":5140,"Ġmenyerang":5141,"ĠCar":5142,"Ġcahaya":5143,"ĠAman":5144,"inga":5145,"alian":5146,"ĠPartai":5147,"Ġmengakibatkan":5148,"ĠUnited":5149,"ĠTas":5150,"Ġgunung":5151,"ahaha":5152,"Ġhorm":5153,"Ġdisediakan":5154,"ĠAC":5155,"ARAN":5156,"Ġmenghindari":5157,"akul":5158,"mewa":5159,"ĠAlamat":5160,"Ġsetuju":5161,"Ġoff":5162,"Ġjari":5163,"ogja":5164,"Ġdibawa":5165,"orasi":5166,"Ġmenolak":5167,"Ġmengganggu":5168,"Ġadik":5169,"ĠSangat":5170,"uruhan":5171,"Ġlebar":5172,"Ġsoftware":5173,"Ġdigital":5174,"Ġpembaca":5175,"Ġurusan":5176,"Ġdinding":5177,"Ġteks":5178,"Ġkotor":5179,"awi":5180,"Semoga":5181,"Ġint":5182,"ĠðŁĻ":5183,"Pemb":5184,"ĠKi":5185,"Ġsm":5186,"ĠMata":5187,"Hari":5188,"ĠJasa":5189,"sy":5190,"aye":5191,"AMI":5192,"ĠSelama":5193,"Ġpermintaan":5194,"ilu":5195,"Ge":5196,"ĠPK":5197,"Ġaspek":5198,"TP":5199,"ĠPers":5200,"Ġhebat":5201,"indungan":5202,"jawab":5203,"intar":5204,"Ġmenekan":5205,"Ġhad":5206,"Ġmengungkapkan":5207,"Ġ2019":5208,"ĠPo":5209,"ĠPermainan":5210,"Ġbabak":5211,"Ġdel":5212,"raj":5213,"Ġizin":5214,"ĠTwitter":5215,"Ġkebenaran":5216,"ĠMeski":5217,"Ġanus":5218,"2016":5219,"Ġlangit":5220,"dirikan":5221,"etes":5222,"Ġgampang":5223,"Ġdiantara":5224,"Ma":5225,"panyol":5226,"edakan":5227,"Dis":5228,"Ġbo":5229,"umbu":5230,"illa":5231,"Ġdiperoleh":5232,"Jual":5233,"warkan":5234,"Ġkereta":5235,"ujuh":5236,"Ġkemaluan":5237,"jab":5238,"obi":5239,"Ġkebiasaan":5240,"LIK":5241,"Ġketentu":5242,"Ġlevel":5243,"Situs":5244,"put":5245,"ĠRepublik":5246,"ĠKek":5247,"???":5248,"Ġmarah":5249,"ĠLuar":5250,"ĠOrgan":5251,"umkan":5252,"Ia":5253,"uaran":5254,"isie":5255,"ĠKecil":5256,"ibuk":5257,"ĠKu":5258,"ĠKelas":5259,"Ġkebaikan":5260,"Ġulama":5261,"Ġmelindungi":5262,"bab":5263,"Ġterin":5264,"dian":5265,"ĠKedua":5266,"ĠMeskipun":5267,"vo":5268,"aterai":5269,"Ġit":5270,"ĠSosial":5271,"ingkali":5272,"Ġkapasitas":5273,"ĠInilah":5274,"dal":5275,"ĠSil":5276,"Ġmengal":5277,"Ġbicara":5278,"ndara":5279,"Ġdoa":5280,"Jakarta":5281,"adget":5282,"rol":5283,"Ġmakna":5284,"ĠAgama":5285,"gent":5286,"ĠBerb":5287,"ĠMaha":5288,"Ġkawan":5289,"ĠSB":5290,"Kep":5291,"tapi":5292,"Ġmenderita":5293,"Ġpayudara":5294,"Ġpal":5295,"itasi":5296,"Ġulasan":5297,"ĠPur":5298,"Ġditulis":5299,"ĠMi":5300,"Ġmengus":5301,"ĠData":5302,"Ġef":5303,"Ġkunjungan":5304,"Ġgedung":5305,"Ġkedalam":5306,"Ġnegatif":5307,"ĠPar":5308,"okrasi":5309,"ĠLagi":5310,"Ġdar":5311,"Ġdokumen":5312,"UB":5313,"hasilan":5314,"ĠGalaxy":5315,"ĠTeknik":5316,"Ġby":5317,"Ġpokok":5318,"Ġcom":5319,"Ġmelakukannya":5320,"ĠSuk":5321,"Ġdek":5322,"Ġkomponen":5323,"Ġdikarenakan":5324,"ĠCasino":5325,"ĠBelajar":5326,"PD":5327,"Orang":5328,"ĠSemarang":5329,"nggak":5330,"uasai":5331,"ĠReal":5332,"Ġdibangun":5333,"Ġmenahan":5334,"aktif":5335,"Ġpemuda":5336,"akultas":5337,"ĠTangan":5338,"ariwisata":5339,"Ġsetempat":5340,"Ġcon":5341,"Ġlazada":5342,"ĠHak":5343,"ĠGro":5344,"Ġketentuan":5345,"Ġbag":5346,"Ġmenular":5347,"set":5348,"valu":5349,"Ġharganya":5350,"ĠSeri":5351,"Ġbakar":5352,"Ġditandai":5353,"ĠID":5354,"Ġalternatif":5355,"Ġdosa":5356,"abiskan":5357,"Ġperintah":5358,"AMA":5359,"IP":5360,"ĠApabila":5361,"Ġdiskon":5362,"kel":5363,"Ġkari":5364,"ĠPh":5365,"ultasi":5366,"urahan":5367,"Ġkm":5368,"Ġbeda":5369,"ĠGr":5370,"itor":5371,"Ġtuan":5372,"Ġstruk":5373,"ĠBlack":5374,"ĠDo":5375,"Ġberbasis":5376,"Ġsampah":5377,"nangan":5378,"mo":5379,"ĠIT":5380,"adem":5381,"lengkap":5382,"Ġdist":5383,"ĠPS":5384,"akuan":5385,"ĠBand":5386,"Ġkompl":5387,"Ġsepen":5388,"Ġterjangkau":5389,"TUK":5390,"naikan":5391,"ternal":5392,"Demikian":5393,"Ġsepertinya":5394,"ĠResmi":5395,"Ġperc":5396,"ĠBelum":5397,"ĠWakil":5398,"olahan":5399,"ĠMalam":5400,"Ġpemen":5401,"ĠKl":5402,"ĠGer":5403,"anjian":5404,"inkan":5405,"atawan":5406,"ĠPutih":5407,"Ġcaranya":5408,"wajiban":5409,"zat":5410,"Ġkelebihan":5411,"Ġobjek":5412,"\",":5413,"Ġgelar":5414,"Ġdigelar":5415,"elanja":5416,"ĠManc":5417,"ĠLo":5418,"ĠMau":5419,"Ġserupa":5420,"Ġlemah":5421,"rael":5422,"ALAM":5423,"ĠBBM":5424,"anggal":5425,"Ġlip":5426,"Ġcak":5427,"obot":5428,"mbeien":5429,"Ġsuku":5430,"egang":5431,"IA":5432,"ĠSet":5433,"ĠTidur":5434,"Ġperilaku":5435,"ĠBiasanya":5436,"ĠRamadhan":5437,"place":5438,"ÂŃ":5439,".,":5440,"Ġdipilih":5441,"Ġgas":5442,"amba":5443,"ikirkan":5444,"terior":5445,"guruan":5446,"ĠKeluarga":5447,"Ġpengen":5448,"dy":5449,"sib":5450,"ĠWebsite":5451,"ATA":5452,"ier":5453,"itmen":5454,"ĠJl":5455,"Ġmemenangkan":5456,"Ġpelatihan":5457,"ĠEn":5458,"Ġbokep":5459,"ahl":5460,"pengaruh":5461,"ĠFor":5462,"Ġpengaruh":5463,"ĠMaj":5464,"Ġlumayan":5465,"Ġcap":5466,"ĠMisalnya":5467,"ony":5468,"amen":5469,"Ġkompetisi":5470,"ĠSc":5471,"ATI":5472,"ematika":5473,"udayaan":5474,"ĠðŁĻĤ":5475,"ĠAf":5476,"Ġujian":5477,"ĠiP":5478,"INE":5479,"ortasi":5480,"Ġmemudahkan":5481,"Ġident":5482,"bobet":5483,"Ġben":5484,"feksi":5485,"Ġmu":5486,"Ġturut":5487,"ins":5488,"ĠBegitu":5489,"Ġund":5490,"Ġmemperbaiki":5491,"ASA":5492,"valuasi":5493,"Ġmalu":5494,"Ġprinsip":5495,"ĠSang":5496,"ĠPasar":5497,"adiran":5498,"ĠPantai":5499,"ĠDip":5500,"firmasi":5501,"tawa":5502,"Ġmohon":5503,"Ġfavorit":5504,"Qur":5505,"don":5506,"Ġbetul":5507,"ĠSWT":5508,"Ġjerawat":5509,"ĠPenge":5510,"urunan":5511,"ributor":5512,"ĠMarket":5513,"Ġmembers":5514,"Ġid":5515,"Ġraja":5516,"omendasi":5517,"uth":5518,"Ġhany":5519,"dilan":5520,"Ġaliran":5521,"akaran":5522,"sent":5523,"pol":5524,"ĠHati":5525,"ru":5526,"Ġlancar":5527,"dengan":5528,"ĠSar":5529,"ĠKomputer":5530,"ĠWar":5531,"gak":5532,"Ġterlibat":5533,"Ġketing":5534,"ĠSMS":5535,"ĠDiri":5536,"Ġwah":5537,"Ġsudut":5538,"Belum":5539,"assar":5540,"Ġditetapkan":5541,"Informasi":5542,"alisis":5543,"Ġmembuktikan":5544,"itkan":5545,"ebak":5546,"Ġajang":5547,"ĠWah":5548,"tera":5549,"Ġotot":5550,"Ġkeseluruhan":5551,"ĠMengatasi":5552,"hu":5553,"Ġsekitarnya":5554,"Ġkerap":5555,"ement":5556,"ambu":5557,"Ġterkadang":5558,"Ġkadar":5559,"Ġbapak":5560,"Ġstruktur":5561,"rahat":5562,"Ġtaman":5563,"cerita":5564,"Ġmenganggap":5565,"yaratan":5566,"ilm":5567,"ĠBu":5568,"Ġdiikuti":5569,"mainkan":5570,"Ġrib":5571,"BA":5572,"Ġditawarkan":5573,"Ġsaran":5574,"ĠIr":5575,"Ġpap":5576,"ĠBenar":5577,"Ġsuhu":5578,"ĠTentu":5579,"ĠSpesifikasi":5580,"ĠMahasiswa":5581,"Ġkepercayaan":5582,"Ġmelahirkan":5583,"ĠKre":5584,"lahraga":5585,"Ti":5586,"ĠSumber":5587,"Ġbertujuan":5588,"Ġmenilai":5589,"wujudkan":5590,"Ġbarat":5591,"SA":5592,"Ġparah":5593,"afe":5594,"Ġberangkat":5595,"jam":5596,"hy":5597,"Ġmenem":5598,"Ġkreatif":5599,"ĠBantu":5600,"Ġkeperluan":5601,"ĠIndia":5602,"Ġmemandang":5603,"ĠUnik":5604,"tent":5605,"hats":5606,"Ġpengaw":5607,"Ġbrow":5608,"ĠDen":5609,"Ġpabrik":5610,"Ġpuncak":5611,"day":5612,"Ġrekan":5613,"atim":5614,"ĠJawab":5615,"Ġcelana":5616,"Ġsembuh":5617,"eria":5618,"Ġkeku":5619,"Ġpromosi":5620,"Ġraya":5621,"ginal":5622,"ahasan":5623,"atap":5624,"dil":5625,"Ġkitab":5626,"ational":5627,"Ġpus":5628,"33":5629,"Ġsibuk":5630,"Ġberc":5631,"Peny":5632,"ĠCerita":5633,"Ġberlebihan":5634,"ĠKenapa":5635,"miah":5636,"ombang":5637,"TM":5638,"Ġrapat":5639,"ĠKo":5640,"Ġramah":5641,"Ġsegi":5642,"EW":5643,"utur":5644,"injal":5645,"LAH":5646,"Ġmengkonsumsi":5647,"ĠBersama":5648,"ambarkan":5649,"ilaian":5650,"Ġkehamilan":5651,"ĠMasuk":5652,"adis":5653,"ĠBaca":5654,"Ġganti":5655,"Kon":5656,"Indonesia":5657,"Ġperso":5658,"Ġ80":5659,"Ġmakhluk":5660,"Ġgimana":5661,"Ġharta":5662,"dem":5663,"Ġkil":5664,"kenalkan":5665,"udukan":5666,"opuler":5667,"ologis":5668,"alas":5669,"ĠProses":5670,"MA":5671,"arangan":5672,"ĠBas":5673,"ĠEkonomi":5674,"Ġlelaki":5675,"elek":5676,"?\"":5677,"ĠAmp":5678,"ĠWord":5679,"its":5680,"arch":5681,"acara":5682,"ĠBus":5683,"ĠKamar":5684,"arkoba":5685,"Ġsat":5686,"ĠTaman":5687,"Sudah":5688,"Ġmenghe":5689,"akkan":5690,"Ġpersoalan":5691,"70":5692,"Ġpangg":5693,"orld":5694,"ĠSingapura":5695,"Ġplastik":5696,"Ġvagina":5697,"Ġsir":5698,"Ġhuruf":5699,"ĠCantik":5700,"Ġlho":5701,"hester":5702,"Ġmendi":5703,"ĠItal":5704,"sus":5705,"Ġtert":5706,"unggulan":5707,"osisi":5708,"ĠWarna":5709,"Ġmembunuh":5710,"ĠIS":5711,"Ġ~":5712,"Kontak":5713,"anduan":5714,"Ġutk":5715,"Ġkue":5716,"Ġmengangkat":5717,"egal":5718,"Ġkampus":5719,"Ġmengadakan":5720,"les":5721,"ĠHingga":5722,"Ġmenyadari":5723,"MI":5724,"Ġshare":5725,"Ġheran":5726,"finisi":5727,"ĠUU":5728,"isipasi":5729,"Silahkan":5730,"Ġpost":5731,"Ġdibanding":5732,"Ġspesifikasi":5733,"Ġtersendiri":5734,"satunya":5735,"ric":5736,"Ġberbuat":5737,"ĠBet":5738,"Ġterbang":5739,"araf":5740,"Ġprediksi":5741,"ĠPay":5742,"Ġfakta":5743,"anggar":5744,"Ġawalnya":5745,"ĠSya":5746,"ml":5747,"Ġtubuhnya":5748,"Ġantaranya":5749,"**":5750,"ĠUNTUK":5751,"ayer":5752,"ibu":5753,"ebut":5754,"Kel":5755,"Kata":5756,"antum":5757,"Kes":5758,"anjung":5759,"Ġpeduli":5760,"elakaan":5761,"Ġharinya":5762,"alapak":5763,"ĠDasar":5764,"yal":5765,"ĠPerlu":5766,"Ġteori":5767,"adilan":5768,"ĠUndang":5769,"ĠTab":5770,"IV":5771,"Ġradi":5772,"Ġfl":5773,"Ġpsik":5774,"Ġpernyataan":5775,"ÙĦ":5776,"Ġcewek":5777,"amaran":5778,"Ġmencetak":5779,"Ġberdua":5780,"Ġpejabat":5781,"tulan":5782,"kota":5783,"Ġkayak":5784,"Ġdibuka":5785,"ĠRusia":5786,"Ġkuning":5787,"ainan":5788,"ening":5789,"ĠKhusus":5790,"ĠPasal":5791,"embatan":5792,"Ġmenyi":5793,"abd":5794,"olos":5795,"35":5796,"Ġsampe":5797,"romo":5798,"Ġtiada":5799,"Ġpenghargaan":5800,"Ġbesi":5801,"ĠEfek":5802,"Ġsol":5803,"salam":5804,"Ġ31":5805,"Ġtata":5806,"Ġseru":5807,"Ġdu":5808,"Ġpenghasil":5809,"ĠInternasional":5810,"CO":5811,"tore":5812,"Ġdiab":5813,"Ġartis":5814,"ĠSiapa":5815,"ahagi":5816,"indu":5817,"dong":5818,"Ġpaham":5819,"ĠNur":5820,"Ġmenerapkan":5821,"ihaknya":5822,"land":5823,"ĠTur":5824,"Ġmempelajari":5825,"ĠAhmad":5826,"ĠSpanyol":5827,"ĠDKI":5828,"ĠAlasan":5829,"ĨĴ":5830,"tum":5831,"ategori":5832,"ĠHamil":5833,"Ġbuang":5834,"Ġris":5835,"Ġpant":5836,"ĠPat":5837,"sc":5838,"aul":5839,"Ġmenginginkan":5840,"Ġkonf":5841,"ĠMenggunakan":5842,"eserta":5843,"ĠBagian":5844,"Ġsec":5845,"tahun":5846,"disk":5847,"ĠAw":5848,"sit":5849,"ĠHo":5850,"Ġhadits":5851,"ĠUtama":5852,"stal":5853,"lien":5854,"Ġragu":5855,"ĠAli":5856,"Ġdisana":5857,"ĠSus":5858,"roh":5859,"Lebih":5860,"Ġhanyalah":5861,"Ġwisatawan":5862,"ĠAgung":5863,"Ġkabupaten":5864,"eher":5865,"kuat":5866,"Ġ500":5867,"Anak":5868,"ĠPaket":5869,"Ġrekening":5870,"Ġpelatih":5871,"ĠRambut":5872,"Ġmenangis":5873,"Ġ90":5874,"old":5875,"ĠBP":5876,"injaman":5877,"ajuan":5878,"Ġmurid":5879,"Mereka":5880,"anjir":5881,"Ġberkel":5882,"Ġpedagang":5883,"Ġtele":5884,"'s":5885,"ĠBak":5886,"NL":5887,"Ġseolah":5888,"Ġberpe":5889,"So":5890,"ulisan":5891,"IAN":5892,"ĠMemang":5893,"sea":5894,"Ġpetani":5895,"Ġhp":5896,"kirakan":5897,"Ġeng":5898,"unggal":5899,"wasta":5900,"Ġpemberian":5901,"Ġrelatif":5902,"Ġmedis":5903,"tentukan":5904,"itia":5905,"enang":5906,"njolan":5907,"UHAN":5908,"antaran":5909,"agar":5910,"ĠSat":5911,"asang":5912,"ombinasi":5913,"Ġdiak":5914,"Ġhalnya":5915,"Ġjag":5916,"Ġpis":5917,"Ġbawang":5918,"ĠImam":5919,"Ġusai":5920,"nek":5921,"ĠIsrael":5922,"Ġsetidaknya":5923,"upan":5924,"meng":5925,"owok":5926,"ken":5927,"Ġketidak":5928,"ĠItalia":5929,"Ġdibagi":5930,"Ġkosong":5931,"iro":5932,"Ġkag":5933,"nome":5934,"ĠKartu":5935,"imantan":5936,"angkut":5937,"Ġmassa":5938,"zah":5939,"Mungkin":5940,"Ġpenggemar":5941,"Ġmembersihkan":5942,"Ġmencintai":5943,"Ġajaran":5944,"olisian":5945,"ype":5946,"Ġrahasia":5947,"alih":5948,"Ġjaman":5949,"Ġditentukan":5950,"Ġbatang":5951,"Ġpresiden":5952,"mbol":5953,"Ġsenjata":5954,"ĠTujuan":5955,"uncurkan":5956,"Ġkolam":5957,"ĠChampi":5958,"Ġkampung":5959,"ekerjaan":5960,"pel":5961,"Ġserver":5962,"Ġera":5963,"Ġbul":5964,"Ġratusan":5965,"Ġdapur":5966,"alaihi":5967,"Ġresiko":5968,"ustralia":5969,"Ġrespon":5970,"Dapatkan":5971,"Ġpasukan":5972,"Ġrestoran":5973,"angerang":5974,"Oleh":5975,"antiasa":5976,"ĠâĨĴ":5977,"Ġkac":5978,"rab":5979,"aktek":5980,"ĠJaya":5981,"ĠPEND":5982,"ĠBapak":5983,"Setiap":5984,"ĠKarya":5985,"Ġkeindahan":5986,"anggih":5987,"ĠSepatu":5988,"Ġoption":5989,"Ġtertinggi":5990,"Ġberjudul":5991,"vis":5992,"ajian":5993,"Ġkencing":5994,"Ġlucu":5995,"ĠCl":5996,"Ġbeban":5997,"ary":5998,"ature":5999,"36":6000,"san":6001,"Ġsuam":6002,"Ġpasal":6003,"Ġsurel":6004,"Ġpenawaran":6005,"ĠUk":6006,"Ġtujuh":6007,"uskan":6008,"inum":6009,"Foto":6010,"Ġberperan":6011,"udahan":6012,"Ġnonton":6013,"ĠTo":6014,"ĠPerempuan":6015,"Ġsig":6016,"arkir":6017,"Ġperkara":6018,"Ġbu":6019,"etakkan":6020,"igh":6021,"ĠCek":6022,"ĠKomisi":6023,"Ġgrup":6024,"angkas":6025,"Ġtemukan":6026,"Ġdimainkan":6027,"Ġabad":6028,"Ġpu":6029,"Ġdisebutkan":6030,"embang":6031,"KM":6032,"Ġori":6033,"Ġmenak":6034,"awesi":6035,"ulusan":6036,"onis":6037,"Buat":6038,"Ġsangatlah":6039,"Ġ35":6040,"ĠAtas":6041,"Ġmewah":6042,"doa":6043,"Ġmempertahankan":6044,"Ġsuci":6045,"Ġmenonton":6046,"ncanakan":6047,"ĠLowongan":6048,"Ġpengan":6049,"Ġentah":6050,"Ġtarif":6051,"Ġbaiknya":6052,"Ġtemen":6053,"ich":6054,"ĠMengapa":6055,"ĠIkan":6056,"owo":6057,"Para":6058,"ĠPor":6059,"Ġvi":6060,"Ġkenyamanan":6061,"kop":6062,"ĠKau":6063,"ĠBaw":6064,"Ġkontr":6065,"Ġseny":6066,"Ġpeme":6067,"Hasil":6068,"ĠPemain":6069,"GB":6070,"ĠPL":6071,"Ġdasarnya":6072,"Ġanj":6073,"ĠPon":6074,"ĠMenarik":6075,"ĠDA":6076,"ĠManchester":6077,"org":6078,"ty":6079,"Ġlen":6080,"ĠWajah":6081,"ĠInt":6082,"Ġditambah":6083,"dada":6084,"untung":6085,"77":6086,"cil":6087,"dengarkan":6088,"Ġpembeli":6089,"Ġtun":6090,"ĠMerah":6091,"ikulum":6092,"Ġnutrisi":6093,"Ġfit":6094,"ight":6095,"ukah":6096,"Ġformat":6097,"ĠTrik":6098,"lengkapan":6099,"foto":6100,"out":6101,"Ġdisel":6102,"ĠTubuh":6103,"Ġmemesan":6104,"Ø§":6105,"onore":6106,"ĠKini":6107,"ĠSayang":6108,"sedur":6109,"Ġpenumpang":6110,"Ġdiet":6111,"ĠEmail":6112,"Ġkala":6113,"Ġglobal":6114,"titusi":6115,"Ġkenaikan":6116,"PI":6117,"Ġpenasaran":6118,"ĠIngin":6119,"pec":6120,"Ġemang":6121,"Ġkeker":6122,"Ġtutup":6123,"Ġreal":6124,"Ġmenghabiskan":6125,"elis":6126,"ĠTengg":6127,"Ġpasir":6128,"Ġhidupnya":6129,"jer":6130,"Kom":6131,"Ġmenerus":6132,"Ġsapi":6133,"Ġjabatan":6134,"ato":6135,"Ġdihad":6136,"Ġsilakan":6137,"ĠSebe":6138,"Ġkena":6139,"mah":6140,"Ġ70":6141,"ĠDPRD":6142,"ĠST":6143,"ataan":6144,"Ġdisertai":6145,"user":6146,"Ġbulu":6147,"rika":6148,"ĠAbdul":6149,"Ġpetunjuk":6150,"Ġkaca":6151,"Ġdiduga":6152,"ĠSan":6153,"ĠKasih":6154,"Ġmengucapkan":6155,"Ġanal":6156,"Ġsenantiasa":6157,"kali":6158,"Ġmens":6159,"Ġgelap":6160,"ĠKegiatan":6161,"Ġtakkan":6162,"Ġmelibatkan":6163,"iaomi":6164,"Lalu":6165,"ĠRS":6166,"Lowongan":6167,"ĠINI":6168,"ĠSolo":6169,"uaskan":6170,"angku":6171,"Ġfot":6172,"esta":6173,"Sed":6174,"55":6175,"Ġmenyiapkan":6176,"Ġ198":6177,"Ġpertanian":6178,"ambing":6179,"Ġbuatan":6180,"HR":6181,"Makan":6182,"ĠMasalah":6183,"count":6184,"FT":6185,"Ġback":6186,"Ġucapan":6187,"ĠTermurah":6188,"Seorang":6189,"ĠAkhirnya":6190,"Ġribuan":6191,"Ġpengertian":6192,"petensi":6193,"Ġbiru":6194,"ĠKebijakan":6195,"Ġ2007":6196,"Ġreferensi":6197,"PNS":6198,"Ġdiadakan":6199,"Ġkaos":6200,"ĠBerbagai":6201,"ĠStudi":6202,"Ġtermurah":6203,"ĠMon":6204,"Ġpemandangan":6205,"Ġkekuasaan":6206,"Info":6207,"dekat":6208,"ipil":6209,"ĠEs":6210,"Ġpasang":6211,"coin":6212,"ĠBah":6213,"Ġgolongan":6214,"Ġmenggan":6215,"Ġperjuangan":6216,"ĠAmbeien":6217,"Ġkepem":6218,"adai":6219,"ANT":6220,"ĠAlam":6221,"Ah":6222,"ĠSa":6223,"awal":6224,"==":6225,"fl":6226,"macam":6227,"Ġperbaikan":6228,"Ġmenyajikan":6229,"Ġteratur":6230,"Ġmengerjakan":6231,"minal":6232,"No":6233,"ĠMakassar":6234,"len":6235,"Ġperform":6236,"Ġsyari":6237,"ĠGi":6238,"Ġpener":6239,"ĠLampung":6240,"ntar":6241,"Ġislam":6242,"ĠBekasi":6243,"ĠApp":6244,"Ġsisa":6245,"ikh":6246,"datangan":6247,"ĠOff":6248,"Ġmenceritakan":6249,"dk":6250,"Ġkucing":6251,"Ġpenurunan":6252,"umahan":6253,"Ġselaku":6254,"ĠPadang":6255,"Ġhiburan":6256,"arak":6257,"ekali":6258,"Ġtaj":6259,"jahatan":6260,"ĠOlahraga":6261,"ĠBaju":6262,"ĠPajak":6263,"Ġpastikan":6264,"empatkan":6265,"Ġdon":6266,"isahkan":6267,"Ġelektronik":6268,"aper":6269,"Ġpemahaman":6270,"ĠBikin":6271,"Ġpemilihan":6272,"Ġdipercaya":6273,"Ġalbum":6274,"Lihat":6275,"Ġtersangka":6276,"celona":6277,"Ġistr":6278,"imbang":6279,"Ġtangannya":6280,"Beri":6281,"sal":6282,"Ġnikmat":6283,"angkutan":6284,"ĠLihat":6285,"temu":6286,"ĠAdmin":6287,"Ġstab":6288,"ĠMemiliki":6289,"Ġmengirimkan":6290,"osit":6291,"omendasikan":6292,"ody":6293,"ĠIII":6294,"Wah":6295,"Ġkecantikan":6296,"Ġperingkat":6297,"amah":6298,"Ġdong":6299,"ĠPolisi":6300,"Ġservice":6301,"ngkapi":6302,"Ġdidik":6303,"URAN":6304,"Ġsekian":6305,"lin":6306,"Ġsebaliknya":6307,"ĠSim":6308,"awanan":6309,"Ġkewajiban":6310,"Ġkorupsi":6311,"Ġsipilis":6312,"ĠSK":6313,"Kemudian":6314,"Ġlapisan":6315,"ĠMuda":6316,"ĠBunga":6317,"igasi":6318,"Ġdada":6319,"ental":6320,"ĠMU":6321,"odo":6322,"Ġtantangan":6323,"ĠBumi":6324,"RE":6325,"Ġlubang":6326,"jakulasi":6327,"elly":6328,"Ġmemegang":6329,"ĠDatang":6330,"oss":6331,"anjar":6332,"WA":6333,"ARU":6334,"Ġperlahan":6335,"Dip":6336,"ĠAustralia":6337,"penuhi":6338,"ĠChampions":6339,"Ġbencana":6340,"red":6341,"Ġtutur":6342,"Ġmode":6343,"ĠRakyat":6344,"artawan":6345,"Sur":6346,"Ġterdengar":6347,"Ġsele":6348,"ĠBonus":6349,"ĠâĢ¢":6350,"Ġmemasang":6351,"Ġsekel":6352,"nali":6353,"Ġdidukung":6354,"Ġpemikiran":6355,"Ġmatang":6356,"Ġmengakui":6357,"ĠAM":6358,"Ġmenyembuhkan":6359,"Ġefisie":6360,"Ġgoogle":6361,"rusher":6362,"wakilan":6363,"rot":6364,"uny":6365,"Ġkoleksi":6366,"olar":6367,"Ġdiny":6368,"Ġpendukung":6369,"Ġsabar":6370,"Ġmor":6371,"nderal":6372,"----":6373,"Ġbatik":6374,"Ġmenguasai":6375,"Cerita":6376,"lemen":6377,"ĠMu":6378,"Ġsepenuhnya":6379,"ĠWajib":6380,"ategis":6381,"ugian":6382,"ĠTENTANG":6383,"IKAN":6384,"Kebijakan":6385,"Ġprestasi":6386,"ĠHer":6387,"Ġet":6388,"Ġpencer":6389,"Ġdijalan":6390,"Bahasa":6391,"AKAN":6392,"ĠPet":6393,"Ġmiliter":6394,"Ses":6395,"Ġkub":6396,"Ġpihaknya":6397,"Ġbut":6398,"jur":6399,"Ġurut":6400,"Ġkelah":6401,"Ġkepadanya":6402,"Ġbek":6403,"Ġcookie":6404,"Sebuah":6405,"Ġmendaftar":6406,"Ġkarna":6407,"ĠBen":6408,"Ġmerusak":6409,"Ġtelevisi":6410,"diam":6411,"Ġpemas":6412,"erimaan":6413,"ambaran":6414,"Ġcita":6415,"ure":6416,"ĠForex":6417,"ĠGar":6418,"ĠAdalah":6419,"Ġpenyelengg":6420,"ĠCor":6421,"ĠWe":6422,"Ġdimen":6423,"Ġenggak":6424,"Ġmag":6425,"Ġramai":6426,"uaca":6427,"ĠPenelitian":6428,"pengalaman":6429,"adaran":6430,"ĠRuang":6431,"Ġlomba":6432,"SP":6433,"ĠJU":6434,"ĠTerkini":6435,"Ġ45":6436,"Ġgro":6437,"angkal":6438,"jaran":6439,"Ġstaf":6440,"ĠMengobati":6441,"pes":6442,"ĠCoba":6443,"otan":6444,"Ġsant":6445,"Ġcustomer":6446,"lok":6447,"ampuran":6448,"ĠSAW":6449,"anggaran":6450,"ĠUM":6451,"unjukkan":6452,"ĠPeraturan":6453,"gerakan":6454,"Ġtindak":6455,"Ġkolom":6456,"indung":6457,"mem":6458,"ebasan":6459,"utube":6460,"arisan":6461,"Ġfacebook":6462,"elsea":6463,"ĠPD":6464,"Ġsalam":6465,"ĠWid":6466,"Ġlun":6467,"Ġprotein":6468,"Ġ36":6469,"Ġsesama":6470,"Ġkeberadaan":6471,"ĠKAMI":6472,"ĠPenga":6473,"abuhan":6474,"Ġkakak":6475,"Ġane":6476,"ĠMENG":6477,"38":6478,"Ġmengumpulkan":6479,"Ġbis":6480,"Ġperti":6481,"anganan":6482,"Ġmask":6483,"Ġpengusaha":6484,"ĠMasjid":6485,"Ġbau":6486,"Ġdikembangkan":6487,"ĠPrivasi":6488,"Ġdiinginkan":6489,"isk":6490,"Tag":6491,"100":6492,"ayangkan":6493,"Ġtimur":6494,"blogspot":6495,"aham":6496,"ĠSama":6497,"ĠSejak":6498,"ĠPEM":6499,"atikan":6500,"Ġdiperhatikan":6501,"tin":6502,"oft":6503,"Allah":6504,"wat":6505,"ĠðŁĺĢ":6506,"Ġsedih":6507,"ĠPernah":6508,"tanya":6509,"ĠWi":6510,"ĠDomino":6511,"Ġpegawai":6512,"akup":6513,"ritah":6514,"ĠMusik":6515,"gu":6516,"ĠJuta":6517,"Ġmengenakan":6518,"Ġmemasukkan":6519,"kadang":6520,"ĠResep":6521,"Ġlulus":6522,"ĠCap":6523,"08":6524,"ntikan":6525,"Ġgaram":6526,"esis":6527,"Ġkerjasama":6528,"Ġtag":6529,"Ġterbentuk":6530,"Ġpendapatan":6531,"ĠCina":6532,"ĠRE":6533,"laim":6534,"Ġsetia":6535,"ayangan":6536,"itcoin":6537,"ĠOb":6538,"ovasi":6539,"Ġliat":6540,"ĠKalimantan":6541,"masalah":6542,"ĠMemper":6543,"Ġpacar":6544,"Ġpenyimp":6545,"astra":6546,"Ġdihasilkan":6547,"utang":6548,"ĠInstagram":6549,"Ġseringkali":6550,"dekaan":6551,"ĠPolitik":6552,"Ġsaksi":6553,"ĠIbnu":6554,"Ġtipis":6555,"arenanya":6556,"Ġperencana":6557,"Ġsinar":6558,"ikro":6559,"elihara":6560,"untungkan":6561,"argai":6562,"ĠKy":6563,"by":6564,"manfaatkan":6565,"Ġplat":6566,"adangan":6567,"turunan":6568,"Ġasuransi":6569,"Ġnanah":6570,"Ġkontrak":6571,"Ġbasah":6572,"ĠBidang":6573,"Ġpembuluh":6574,"Ġbaterai":6575,"OMOR":6576,"Bukan":6577,"Ġpindah":6578,"39":6579,"dh":6580,"jahter":6581,"Ġleher":6582,"ĠPilih":6583,"ĠLaut":6584,"etakan":6585,"ĠSulawesi":6586,"Ġpemula":6587,"ĠMinimalis":6588,"ire":6589,"Ġdur":6590,"Ġcabang":6591,"Is":6592,"irah":6593,"ĠMelalui":6594,"ulah":6595,"Ġgraf":6596,"Ġpembahasan":6597,"ĠAD":6598,"ĠSegera":6599,"Ġpotongan":6600,"Ġtur":6601,"Ã¢":6602,"ĠDokter":6603,"ĠNas":6604,"ektif":6605,"estiv":6606,"Ġpip":6607,"Ġtransportasi":6608,".....":6609,"teksi":6610,"Ġ;":6611,"uasan":6612,"Ġmemakan":6613,"EH":6614,"Ġbotol":6615,"Ġkemajuan":6616,"Ġdiaj":6617,"Mu":6618,"Ġsystem":6619,"Ġpemenang":6620,"Ġmasakan":6621,"dion":6622,"Bila":6623,"ĠBab":6624,"ĠBers":6625,"aktunya":6626,"Ġlintas":6627,"unggung":6628,"Ġmenegaskan":6629,"Ġtopik":6630,"amatkan":6631,"Ġmiskin":6632,"allallahu":6633,"ĠRek":6634,"estival":6635,"utihan":6636,"iq":6637,"ĠVer":6638,"pool":6639,"gl":6640,"Ġmengingatkan":6641,"ĠOt":6642,"cm":6643,"umumkan":6644,"aut":6645,"Ġdiker":6646,"ineral":6647,"ĠDewan":6648,"ĠSri":6649,"Ġdimanfaatkan":6650,"ĠiPhone":6651,"ĠMag":6652,"Ġmenyak":6653,"ĠPanc":6654,"Ġport":6655,"ĠMil":6656,"akangan":6657,"Ġperhatikan":6658,"ĠLingkungan":6659,"Ġsing":6660,"Ġpersiapan":6661,"del":6662,"Ġbud":6663,"Ġanc":6664,"Ġginjal":6665,"Ġkelihatan":6666,"Maka":6667,"Ġ--":6668,"Ġhamba":6669,"simpan":6670,"amaha":6671,"Ġtepatnya":6672,"AHA":6673,"Ġkele":6674,"xt":6675,"Ġroda":6676,"ĠFit":6677,"Ġseme":6678,"Ġlambat":6679,"besar":6680,"ĠJo":6681,"Ġmembagikan":6682,"Kamu":6683,"Ġ^":6684,"Ġï":6685,"ium":6686,"Ġhaji":6687,"Ġnge":6688,"ĠKembali":6689,"Ġpraktis":6690,"ous":6691,"Ġmewujudkan":6692,"Ġsex":6693,"Ġsop":6694,"ĠBarcelona":6695,"Ġmengajar":6696,"ndam":6697,"ĠLangsung":6698,"ĠKeter":6699,"Ġbiji":6700,"ĠâĢĶ":6701,"organ":6702,"Ġspesial":6703,"rancis":6704,"Ġtertulis":6705,"Ġklien":6706,"Ġdiminta":6707,"Ġlidah":6708,"nap":6709,"Ġep":6710,"ĠTradi":6711,"sor":6712,",-":6713,"Ġpengelolaan":6714,"for":6715,"Ġiya":6716,"Ġmenggelar":6717,"âĢĻ.":6718,"Ġdrama":6719,"ĠMemilih":6720,"ntuan":6721,"ĠNOMOR":6722,"ĠJogja":6723,"tanda":6724,"Ġberkurang":6725,"Ġmerk":6726,"ĠRiau":6727,"oner":6728,"ventu":6729,"Ġele":6730,"Ġuni":6731,"mal":6732,"Ġketat":6733,"Ġsesudah":6734,"Ġdialami":6735,"ĠGames":6736,"Ġbac":6737,"ĠCookie":6738,"indo":6739,"Ġkehadiran":6740,"batasan":6741,"ĠInter":6742,"alaikat":6743,"Ġsamb":6744,"alog":6745,"baca":6746,"Ġmenjamin":6747,"Ġkecelakaan":6748,"ko":6749,"Ġpuluhan":6750,"ĠHi":6751,"Ġadi":6752,"yakinan":6753,"ĠAz":6754,"Ġkesan":6755,"inci":6756,"arnya":6757,"inda":6758,"bankan":6759,"ĠPenyebab":6760,"Ġmempersiapkan":6761,"Ġtrik":6762,"ĠAmb":6763,"awancara":6764,"alisme":6765,"IDAK":6766,"ĠForm":6767,"Ġmental":6768,"Ġbeg":6769,"Ġdikeluarkan":6770,"uddin":6771,"iliun":6772,"Ġgoreng":6773,"intik":6774,"Ġlingk":6775,"hitungan":6776,"31":6777,"Ġmut":6778,"ĠAri":6779,"Ġpecinta":6780,"Ġwalau":6781,"ĠAmpuh":6782,"nomena":6783,"sip":6784,"Ġmenghadirkan":6785,"Ġ32":6786,"arm":6787,"Ġ150":6788,"Ġdid":6789,"Ġmotif":6790,"ĠIndah":6791,"ebas":6792,"ĠBuah":6793,"ĠFl":6794,"ugas":6795,"Ġperencanaan":6796,"Ġgr":6797,"ĠBokep":6798,"ĠSendiri":6799,"ĠLama":6800,"ĠHan":6801,"amaah":6802,"Ġsebut":6803,"Ġtidaklah":6804,"agen":6805,"barang":6806,"Ġvis":6807,"ĠTangerang":6808,"reaming":6809,"Ġpanduan":6810,"Ġgenital":6811,"Ġisu":6812,"Ġbetapa":6813,"Ġkatakan":6814,"Ġmaterial":6815,"BB":6816,"upuk":6817,"Ġeksternal":6818,"%.":6819,"uu":6820,"Ġpenyel":6821,"ANA":6822,"avigasi":6823,"Ġmengontrol":6824,"bahan":6825,"Ġkalinya":6826,"ĠIndustri":6827,"ĠJumlah":6828,"Ġmotivasi":6829,"ĠSelanjutnya":6830,".(":6831,"Ġakal":6832,"Ġmbak":6833,"Ġkelapa":6834,"Ġperlindungan":6835,"Ġkome":6836,"ĠFakultas":6837,"Ġprodusen":6838,"ustakaan":6839,"Ġberbelanja":6840,"Ġberhak":6841,"ĠYe":6842,"Ġche":6843,"Ġkerugian":6844,"Ġpatut":6845,"Ġhehe":6846,"Ġwajar":6847,"Ġcanggih":6848,"ulir":6849,"Ġsekalipun":6850,"ĠHitam":6851,"Ġkuliner":6852,"Ġtemp":6853,"ĠPertandingan":6854,"Ġsosi":6855,"Ġcoklat":6856,"ilas":6857,"Ġberedar":6858,"aler":6859,"Ġkekalahan":6860,"ĠBudi":6861,"Ġmengab":6862,"Mengapa":6863,"etail":6864,"mbak":6865,"Ġdiabetes":6866,"Ġucap":6867,"Ġindik":6868,"afat":6869,"37":6870,"Ġfinal":6871,"ancurkan":6872,"ĠTetap":6873,"aftarkan":6874,"antap":6875,"Ġgua":6876,"ps":6877,"ĠTop":6878,"Ġungkap":6879,"acun":6880,"ĠMenang":6881,"volusi":6882,"ĠChelsea":6883,"Ġkelahiran":6884,"ĠAkibat":6885,"anjutan":6886,"SD":6887,"Ġmencakup":6888,"info":6889,"Ġpenghasilan":6890,"ISI":6891,"Ġsholat":6892,"ĠKPK":6893,"Ġmusuh":6894,"59":6895,"Ġcac":6896,"Ġbermin":6897,"Ġgadget":6898,"ĠKristen":6899,"ĠOperasi":6900,"Ġpintar":6901,"34":6902,"cam":6903,"kada":6904,"Ġberukuran":6905,"Ġkeunggulan":6906,"ĠJoh":6907,"Ġom":6908,"sun":6909,"ĠPanjang":6910,"dri":6911,"Ġditempat":6912,"Ġkesen":6913,"Ġarus":6914,"Ġdinilai":6915,"ekue":6916,"Ġbener":6917,"Ġbersangkutan":6918,"ombok":6919,"ĠSkor":6920,"Ġsampaikan":6921,"Siapa":6922,"Ġinves":6923,"ahagiaan":6924,"abah":6925,"Ġkemer":6926,"Ġgaji":6927,"uro":6928,"ĠWalaupun":6929,"ĠRos":6930,"Ġforum":6931,"Ġditerapkan":6932,"antau":6933,"Ġtravel":6934,"ĠLakukan":6935,"Ġjaminan":6936,"areng":6937,"Ġdiatur":6938,"aq":6939,"Press":6940,"Ġkejahatan":6941,"Ġilmiah":6942,"Ġmadu":6943,"ĠRead":6944,"Rumah":6945,"Ġperek":6946,"ĠBudaya":6947,"ĠPEMB":6948,"ailand":6949,"Ġdam":6950,"Ġdipastikan":6951,"ilbab":6952,"Ġpalsu":6953,"Ġkabel":6954,"Ġph":6955,"lihatkan":6956,"TV":6957,"nting":6958,"ntah":6959,"Ġberharga":6960,"ĠDig":6961,"eum":6962,"ĠHam":6963,"Ġu":6964,"Ġdiselenggarakan":6965,"epsi":6966,"Ġmemuaskan":6967,"sword":6968,"nif":6969,"Ġmende":6970,"ĠLayanan":6971,"ĠSam":6972,"ĠAyah":6973,"ajin":6974,"Ġperingatan":6975,"Ġlantaran":6976,"dosen":6977,"Kenapa":6978,"rosoft":6979,"Ġadat":6980,"AIN":6981,"geng":6982,"Ġpersyaratan":6983,"umpa":6984,"Ġsemata":6985,"Ġuji":6986,"back":6987,"press":6988,"ubl":6989,"ĠKlik":6990,"ĠKend":6991,"Ġmenyambut":6992,"BAB":6993,"angsang":6994,"Ġselatan":6995,"emuk":6996,"ĠMenge":6997,"Ġpember":6998,"ĠCD":6999,"jangan":7000,"Ġred":7001,"adz":7002,"Com":7003,"Ġmendes":7004,"ĠCi":7005,"Ġprovinsi":7006,"Ġmisi":7007,"Ġkuasa":7008,"Ġsekalian":7009,"ĠTravel":7010,"atin":7011,"Ġkerajaan":7012,"):":7013,"Ġpeman":7014,"ĠEr":7015,"ĠPin":7016,"Ġpenger":7017,"Ġmenguntungkan":7018,"ĠOrganisasi":7019,"Ġmendengarkan":7020,"ungkap":7021,"ĠPolres":7022,"Ġpimpinan":7023,"ĠSiap":7024,"Ġmay":7025,"PM":7026,"sion":7027,"Ġemosi":7028,"inaan":7029,"ĠLaki":7030,"adak":7031,"He":7032,"ĠJenderal":7033,"Ġpesta":7034,"ĠHD":7035,"Ġrahim":7036,"Ġmenjelang":7037,"jahteraan":7038,"Ġdidapatkan":7039,"ĠSeks":7040,"verpool":7041,"umas":7042,"ĠGel":7043,"Ġgram":7044,"ajikan":7045,"Ġpasaran":7046,"Ġdibilang":7047,"Ġnet":7048,"Ġtertawa":7049,"Sekarang":7050,"ĠWhats":7051,"ĠIklan":7052,"ĠDALAM":7053,"rama":7054,"Meski":7055,"ĠTanjung":7056,"Ġdinyatakan":7057,"Ġye":7058,"Ġpenilaian":7059,"ĠDirektur":7060,"ĠSejarah":7061,"Ġmake":7062,"ory":7063,"Ġhatinya":7064,"antis":7065,"Ġharap":7066,"Ġrangkaian":7067,"ĠPilihan":7068,"antang":7069,"Ġpuluh":7070,"Ġnovel":7071,"abda":7072,"Ġmengalahkan":7073,"rut":7074,"val":7075,"Ġmerawat":7076,"kripsi":7077,"ĠTangga":7078,"OW":7079,"The":7080,"oyota":7081,"Ġwaktunya":7082,"yukur":7083,"Ġpandang":7084,"pertimbangkan":7085,"Ġniat":7086,"Ġ!!":7087,"Ġjujur":7088,"Ġdire":7089,"ĠPembangunan":7090,"ordinasi":7091,"Ġberpengaruh":7092,"udik":7093,"pot":7094,"ribadi":7095,"Ġkandang":7096,"sul":7097,"ujian":7098,"rom":7099,"Ġmenatap":7100,"Ġevent":7101,"Sumber":7102,"ĠTah":7103,"ĠMenghilangkan":7104,"aing":7105,"Ġhalal":7106,"update":7107,"ohonan":7108,"Ġmenghapus":7109,"trans":7110,"Ġsejenis":7111,"ĠTour":7112,"esterol":7113,"ĠAG":7114,"Sis":7115,"Ġbersamaan":7116,"ĠDaya":7117,"Ġtarik":7118,"ancur":7119,"Ġputus":7120,"ndaft":7121,"Ġancaman":7122,"Ġteg":7123,"Satu":7124,"Ġmembel":7125,"upaya":7126,"ney":7127,"ror":7128,"Ġtajam":7129,"emah":7130,"ĠBang":7131,"Ġdikonsumsi":7132,"Ġmp":7133,"chi":7134,"Ġakurat":7135,"ambi":7136,"Ġloh":7137,"ĠXiaomi":7138,"juk":7139,"ĠKanker":7140,"Ġketurunan":7141,"Ġmari":7142,"Ġnafsu":7143,"bon":7144,"esaran":7145,"ĠSekali":7146,"Ġkonflik":7147,"Ġberi":7148,"ĠBerat":7149,"kira":7150,"Ġmeres":7151,"nyawa":7152,"Ġtutorial":7153,"ĠManajemen":7154,"imu":7155,"Ġunggul":7156,"umuman":7157,"fungsi":7158,"ĠKun":7159,"Ġdibaca":7160,"48":7161,"ĠAdapun":7162,"Ġkemudahan":7163,"ĠONL":7164,"ĠWarga":7165,"antren":7166,"sentrasi":7167,"ĠGaya":7168,"Ġmengalir":7169,"AHAN":7170,"Ġmeyak":7171,"BC":7172,"Ġkunjungi":7173,"ĠDepan":7174,"Ġbinatang":7175,"Ġideal":7176,"my":7177,"onan":7178,"Ġimb":7179,"omotif":7180,"Ġrenang":7181,"Ġstrategis":7182,"Ġkoneksi":7183,"Ġbrowser":7184,"Ġaf":7185,"Sh":7186,"Ġmenyaksikan":7187,"Ġberiman":7188,"otensi":7189,"ĠNusantara":7190,"Gambar":7191,"Ġjelasnya":7192,"rist":7193,"ĠSin":7194,"Ġmenetapkan":7195,"Ġbayar":7196,"board":7197,"olume":7198,"Ġcasino":7199,"umpai":7200,"resiasi":7201,"adari":7202,"ĠTerp":7203,"jana":7204,"Ġibunya":7205,"ĠNg":7206,"Ġberdoa":7207,"Berdasarkan":7208,"ehat":7209,"Ġmatanya":7210,"ating":7211,"Ġpinjaman":7212,"Ġharian":7213,"lakukan":7214,"ĠArtinya":7215,"Ġistimewa":7216,"Ġmi":7217,"Ġberak":7218,"Ġkekerasan":7219,"Ġkey":7220,"ĠTepat":7221,"Ġmemikirkan":7222,"ungkus":7223,"Ser":7224,"ĠRem":7225,"Ġpapan":7226,"Ġnampak":7227,"Ġdomino":7228,"ĠPekan":7229,"Akhir":7230,"ĠWordPress":7231,"ukar":7232,"ĠCPNS":7233,"ĠBagus":7234,"ĠTanda":7235,"iranya":7236,"Ġseakan":7237,"ĠPunya":7238,"umpah":7239,"uck":7240,"ebus":7241,"tifikat":7242,"ĠSEO":7243,"Ġminat":7244,"pas":7245,"ĠONLINE":7246,"Ġwakil":7247,"ĠSH":7248,"able":7249,"ebar":7250,"ĠGedung":7251,"rian":7252,"Ġkesadaran":7253,"Ġgab":7254,"ĠRAM":7255,"Ġgemb":7256,"Ġmenangkap":7257,"Ġ300":7258,"Ġjutaan":7259,"Undang":7260,"Bel":7261,"Ġditutup":7262,"ĠKet":7263,"57":7264,"Ġmencer":7265,"umor":7266,"Ġmasukan":7267,"Ġsewa":7268,"ĠTenggara":7269,"Ġrumahnya":7270,"Ġmemerik":7271,"Ġorder":7272,"aker":7273,"03":7274,"ĠSukses":7275,"500":7276,"andat":7277,"Ġunt":7278,"Ku":7279,"Ġsurga":7280,"bawah":7281,"Ġsebentar":7282,"Ġdosen":7283,"aib":7284,"ĠRom":7285,"sihan":7286,"oles":7287,"que":7288,"Ġcerdas":7289,"Ġmencatat":7290,"Ġlengan":7291,"ĠBlu":7292,"ĠCari":7293,"rajat":7294,"Ġpeneliti":7295,"ĠDarah":7296,"ĠDemikian":7297,"Ġlowongan":7298,"Ġjadikan":7299,"Ġyou":7300,"Ġidentitas":7301,"ĠMy":7302,"ĠLog":7303,"eksp":7304,"older":7305,"Ġmekan":7306,"Ġcipta":7307,"Ġwartawan":7308,"Kutil":7309,"Ġpenyemb":7310,"Tek":7311,"Ġmengakses":7312,"Ġdengar":7313,"ĠGB":7314,"Apabila":7315,"Ġberkat":7316,"tinggal":7317,"ĠSederhana":7318,"Ġdiskusi":7319,"Ġpendekatan":7320,"ĠTahu":7321,"Ġpemakaian":7322,"ĠSoal":7323,"ĠKelurahan":7324,"ĠFull":7325,"Ġberv":7326,"amankan":7327,"ĠSmartphone":7328,"ipuan":7329,"Ġtime":7330,"mun":7331,"Ġtertutup":7332,"karena":7333,"indar":7334,"Ġsewaktu":7335,"ameran":7336,"Itulah":7337,"Ġterseb":7338,"ley":7339,"ĠDim":7340,"INI":7341,"ĠArse":7342,"Ġswasta":7343,"Ġreaksi":7344,"nifikan":7345,"Ġvari":7346,"uruk":7347,"mata":7348,"âĢ¦..":7349,"Ġberjuang":7350,"gantian":7351,"etapi":7352,"Ġdiisi":7353,"Ġduga":7354,"dekatan":7355,"anjikan":7356,"ĠTent":7357,"elat":7358,"ding":7359,"uksesan":7360,"ĠRasa":7361,"Ġjanji":7362,"ugikan":7363,"Ġmemicu":7364,"Ġpesanan":7365,"gend":7366,"ndaftaran":7367,"anjur":7368,"Ġjurnal":7369,"Ġbesok":7370,"raka":7371,"pr":7372,"lami":7373,"ĠLive":7374,"ĠWasir":7375,"deka":7376,"onj":7377,"ĠSej":7378,"yle":7379,"peri":7380,"Ġsuaminya":7381,"ungnya":7382,"ĠWorld":7383,"RA":7384,"Ġketua":7385,"Barang":7386,"Ġmenyentuh":7387,"Ġcat":7388,"Ġtelinga":7389,"ubungkan":7390,"Ġdomain":7391,"Ġsend":7392,"eluk":7393,"ĠMAN":7394,"doman":7395,"Hanya":7396,"Ġsasaran":7397,"yanya":7398,"Ġpengaturan":7399,"Sep":7400,"Ġgug":7401,"Sedangkan":7402,"Ġaudi":7403,"Ik":7404,"untansi":7405,"Ġrokok":7406,"ager":7407,"amina":7408,"ĠPene":7409,"uch":7410,"Ġteknis":7411,"elen":7412,"con":7413,"Jenis":7414,"Ġbanjir":7415,"roses":7416,"ĠTIDAK":7417,"Ġundangan":7418,"Ġketemu":7419,"Ġanalisis":7420,"Ġhadapan":7421,"andainya":7422,"Ġnabi":7423,"pem":7424,"eki":7425,"nci":7426,"Ġmasak":7427,"olehkan":7428,"ĠBerdasarkan":7429,"ĠLangkah":7430,"Sebe":7431,"Ġseleksi":7432,"wakili":7433,"Ġmengajukan":7434,"Meny":7435,"ult":7436,"Ġprosedur":7437,"banyak":7438,"ĠTri":7439,"Ġkedatangan":7440,"Ġfull":7441,"anam":7442,"Ġseminggu":7443,"Ġlatar":7444,"Ġlelah":7445,"Ġnger":7446,"Ġmenuntut":7447,"ĠAnggota":7448,"ĠAnal":7449,"Ġpunggung":7450,"Ġbahaya":7451,"Ġkombinasi":7452,"ĠImp":7453,"Ġsetahun":7454,"ĠSering":7455,"anusia":7456,"ĠTerbesar":7457,"Manfaat":7458,"ĠSiswa":7459,"Ġbersabda":7460,"Ġplus":7461,"ĠSw":7462,"ĠAnti":7463,"intahkan":7464,"Ġsimak":7465,"Ġjas":7466,"Ġintim":7467,"Ġngga":7468,"ĠPlus":7469,"nan":7470,"Ġmarketplace":7471,"Ġtebal":7472,"Ġmenginap":7473,"ĠOri":7474,"Maaf":7475,"ux":7476,"Ġpantas":7477,"keb":7478,"ĠSeluruh":7479,"Ġpentingnya":7480,"egahan":7481,"Ġmenengah":7482,"ubuk":7483,"Ġtolong":7484,"OH":7485,"Ġbagai":7486,"ĠBiaya":7487,"onomian":7488,"produk":7489,"waan":7490,"Ġkacang":7491,"Ġtradisi":7492,"ĠPekerjaan":7493,"Ġsantai":7494,"Ġiman":7495,"Ġkeselamatan":7496,"inggris":7497,"pres":7498,"Ġkemana":7499,"Ġtunggal":7500,"emium":7501,"ĠSemakin":7502,"gara":7503,"Ġcuaca":7504,"ntal":7505,"ĠMA":7506,"Ġprob":7507,"ĠSeg":7508,"Ġgand":7509,"asila":7510,"Ġputri":7511,"ĠSemb":7512,"ĠSaudi":7513,"ritanya":7514,"ĠTerj":7515,"lon":7516,"mur":7517,"rob":7518,"ONG":7519,"ido":7520,"madi":7521,"Ġsignifikan":7522,"Ġpidana":7523,"ĠOR":7524,"ĠThailand":7525,"Ġbersyukur":7526,"ĠTeman":7527,"ontok":7528,"ph":7529,"Ġkenyataan":7530,"langkah":7531,"Ġistrinya":7532,"Ġmenyebar":7533,"ĠKak":7534,"Ġmenel":7535,"upanya":7536,"Ġgaransi":7537,"linya":7538,"Ġ2000":7539,"Ġsepakbola":7540,"janya":7541,"Ġjakarta":7542,"Ġsenyum":7543,"Ġbangga":7544,"ĠKondisi":7545,"Ġpertimbangan":7546,"Ġperforma":7547,"sian":7548,"Ġmemimpin":7549,"emari":7550,"ĠYun":7551,"ĠSepak":7552,"indahkan":7553,"ancarkan":7554,"CA":7555,"____":7556,"Ġkg":7557,"Ġpelajar":7558,"Ġmulia":7559,"afir":7560,"Ġbertindak":7561,"Ġdides":7562,"ĠMore":7563,"kalau":7564,"Ġhukuman":7565,"Ġmelepaskan":7566,"ĠLiverpool":7567,"ometer":7568,"Ġbengk":7569,"ĠSungai":7570,"Ġvital":7571,"Ġdirasakan":7572,"ĠTK":7573,"Ġhandphone":7574,"Ġmendalam":7575,"Ġkekayaan":7576,"Ġbegini":7577,"Ġberpengalaman":7578,"andu":7579,"Cari":7580,"ĠAcara":7581,"oe":7582,"Ġjamur":7583,"ĠPeri":7584,"ĠSP":7585,"Ġbersaing":7586,"Video":7587,"Ġboc":7588,"ĠBerl":7589,"jub":7590,"Ġproperti":7591,"abor":7592,"Ġgelas":7593,"ĠKul":7594,"Ġpandai":7595,"Ġdelapan":7596,"ĠSebagian":7597,"BERITA":7598,"Ġfashion":7599,"arya":7600,"32":7601,"ĠMain":7602,"Ġterapi":7603,"ging":7604,"ST":7605,"ikum":7606,"penting":7607,"Surel":7608,"Ġgizi":7609,"ilet":7610,"Ġbukalapak":7611,"Ġtere":7612,"Ġmandiri":7613,"Ġmenemb":7614,"sediaan":7615,"Ġala":7616,"66":7617,"Ġmenangani":7618,"Ġpenonton":7619,"rastruktur":7620,"eker":7621,"Ġpadanya":7622,"tib":7623,"ĠSebenarnya":7624,"Ġsurve":7625,"Ġmenempatkan":7626,"Ġterdekat":7627,"Â©":7628,"Ġkomitmen":7629,"Ġterpaksa":7630,"orokan":7631,"Ġdri":7632,"Ġmelaporkan":7633,"Ġbercerita":7634,"ulauan":7635,"Ġmenggambarkan":7636,"Ġdijelaskan":7637,"ollow":7638,"Ġsejauh":7639,"siapa":7640,"ĠMilan":7641,"ndalikan":7642,"Ġmemanggil":7643,"Masih":7644,"ĠSaja":7645,"iss":7646,"ĠEd":7647,"ĠTradisional":7648,"Su":7649,"epakatan":7650,"stra":7651,"web":7652,"Ġpinggi":7653,"Ġ2006":7654,"Ġpemasaran":7655,"warna":7656,"Ġlolos":7657,"ĠSte":7658,"Ġorangtua":7659,"Ġpre":7660,"Ġtercatat":7661,"Ġmemori":7662,"afsir":7663,"Ġrez":7664,"ĠQur":7665,"ĠCukup":7666,"Ġkebetulan":7667,"Ġsemen":7668,"yik":7669,"ĠTiga":7670,"ĠBor":7671,"ĠHp":7672,"Ġbro":7673,"Ġterjun":7674,"Ġbertar":7675,"Ġstabil":7676,"ĠTinggal":7677,"Ġlari":7678,"UA":7679,"kandung":7680,"ĠPADA":7681,"cuali":7682,"Ġaset":7683,"Ġkeluarganya":7684,"ĠSelengkapnya":7685,"Ġmeri":7686,"Ġcampuran":7687,"ĠUnivers":7688,"ĠRoh":7689,"Ġnarkoba":7690,"PUB":7691,"uto":7692,"ĠSMK":7693,"Ġmengganti":7694,"ĠGR":7695,"Ġrom":7696,"Ġtriliun":7697,"alk":7698,"Ġjan":7699,"ĠCel":7700,"Â·":7701,"Ġrapi":7702,"ĠLombok":7703,"Ġmenyes":7704,"olok":7705,"ibah":7706,"Ġpanggilan":7707,"Th":7708,"Blog":7709,"Ġbroker":7710,"rap":7711,"Ġkebahagiaan":7712,"Ġkian":7713,"App":7714,"angkatan":7715,"Ġkeberhasilan":7716,"ĠYamaha":7717,"saingan":7718,"agama":7719,"FA":7720,"tory":7721,"Ġkampanye":7722,"olongan":7723,"ĠDewasa":7724,"ĠFree":7725,"Ġseiring":7726,"ĠMandiri":7727,"ekuensi":7728,"lanet":7729,"Ġsaw":7730,"uke":7731,"Ġtumbuhan":7732,"Ġmengelola":7733,"ĠDisini":7734,"Ġketerampilan":7735,"Ġdak":7736,"kab":7737,"Ġmendekati":7738,"Ġfin":7739,"Ġhormon":7740,"ampaknya":7741,"ĠBentuk":7742,"Ġpadat":7743,"Ġkekasih":7744,"Kau":7745,"Kisah":7746,"Ġpenyimpanan":7747,"Ġdikenakan":7748,"Ġmelanggar":7749,"Ġperson":7750,"Ġdirimu":7751,"ndangan":7752,"78":7753,"ĠHy":7754,"Ġlapak":7755,"jut":7756,"Ġserat":7757,"Ingin":7758,"memb":7759,"Ġlunak":7760,"01":7761,"mudahan":7762,"venir":7763,"erifikasi":7764,"Secara":7765,"Ġmenghentikan":7766,"ĠFungsi":7767,"Ġikuti":7768,"ĠDapatkan":7769,"Ġperoleh":7770,"etapan":7771,"ncing":7772,"Mau":7773,"Ġberulang":7774,"Le":7775,"aksasa":7776,"Ġcor":7777,"Ġcakap":7778,"ingkan":7779,"Ġstat":7780,"Ġsayuran":7781,"Ġtersebar":7782,"Ġjurusan":7783,"Ġsak":7784,"44":7785,"ĠKisah":7786,"Ġpenjara":7787,"Ġterkini":7788,"work":7789,"2015":7790,"Â»":7791,"ĠBengk":7792,"ĠKPU":7793,"Ġinggris":7794,"ARANG":7795,"Ġhem":7796,"Ġmemproduksi":7797,"ĠKomunikasi":7798,"Bagikan":7799,"Ġelemen":7800,"isode":7801,"Ġsimbol":7802,"Pos":7803,"Ġmaskapai":7804,"Ġmm":7805,"Ġhehehe":7806,"Ġakadem":7807,"Ġkumpulan":7808,"PUBLIK":7809,"jin":7810,"Ġkeyakinan":7811,"arto":7812,"Ġaneka":7813,"ĠBanjar":7814,"Ġseksi":7815,"ĠMene":7816,"Ġkelak":7817,"Ġkris":7818,"akui":7819,"mis":7820,"ĠPNS":7821,"icarakan":7822,"ĠSport":7823,"Ġ....":7824,"Ġkompleks":7825,"Ġdikutip":7826,"Ġmenolong":7827,"Ġdite":7828,"Ġnan":7829,"Ġpenyedia":7830,"ĠMay":7831,"ĠLaz":7832,"oskop":7833,"ĠUkuran":7834,"satu":7835,"alinan":7836,"Ġhttps":7837,"KA":7838,"Ġoptimal":7839,"untutan":7840,"Ġkasar":7841,"Ġmac":7842,"ito":7843,"ERAH":7844,"usnya":7845,"http":7846,"gh":7847,"Ġgambaran":7848,"Ġver":7849,"Ġberhati":7850,"rikan":7851,"Ġkup":7852,"Pol":7853,"Ġcedera":7854,"ĠPengh":7855,"Ġtro":7856,"ĠBany":7857,"ancing":7858,"unkan":7859,"mus":7860,"ife":7861,"IC":7862,"Ġbumbu":7863,"ĠPrancis":7864,"ndera":7865,"pt":7866,"Ġaktifitas":7867,"Ġpembuat":7868,"ncan":7869,"mel":7870,"ĠUlang":7871,"Ġjahat":7872,"Ġcowok":7873,"Ġmod":7874,"QS":7875,"Ġkambing":7876,"ĠLembaga":7877,"Ġstasi":7878,"ĠTUHAN":7879,"ĠPenting":7880,"ĠPalembang":7881,"Ġwith":7882,"ket":7883,"husus":7884,"aria":7885,"Ġmomen":7886,"Ġsesi":7887,"ĠTerkait":7888,"Ġrasakan":7889,"ĠPark":7890,"Ġdisesuaikan":7891,"alikota":7892,"darahan":7893,"ĠHot":7894,"Ġdiar":7895,"Ġkesejahteraan":7896,"Ġkasino":7897,"Ġdibeli":7898,"Ġmasukkan":7899,"zz":7900,"90":7901,"ĠHAR":7902,"Ġtokopedia":7903,"Ġgempa":7904,"OTA":7905,"nia":7906,"Ġjawa":7907,"Ġkecewa":7908,"Ġlive":7909,"Ġselengkapnya":7910,"nanya":7911,"ribadian":7912,"ĠArsenal":7913,"Selanjutnya":7914,"Ġadministrasi":7915,"ĠMenye":7916,"Ġmempermudah":7917,"Ġpencernaan":7918,"ĠPM":7919,"Ġgereja":7920,"gasi":7921,"ĠLin":7922,"sedia":7923,"Ġdiperkirakan":7924,"unjukan":7925,"Ġfree":7926,"omong":7927,"ĠYou":7928,"Ġderajat":7929,"agn":7930,"ĠSelalu":7931,"ujur":7932,"ĠKamp":7933,"Ġpembicara":7934,"ĠIstri":7935,"ATURAN":7936,"Ġrekomendasi":7937,"ĠJoko":7938,"xi":7939,"Ġutara":7940,"urasi":7941,"Ġpengawasan":7942,"tain":7943,"ĠDARI":7944,"cu":7945,"hiri":7946,"Ġpingg":7947,"oksi":7948,"ĠIde":7949,"eld":7950,"âĢĺ":7951,"Ġkant":7952,"Ġcl":7953,"Memang":7954,"HP":7955,"Ġaq":7956,"Ġrak":7957,"ĠItulah":7958,"matan":7959,"ript":7960,"rancang":7961,"Ġtukang":7962,"Ġmembiarkan":7963,"Ġkeluhan":7964,"ĠEmas":7965,"Ġpembentukan":7966,"Ġputra":7967,"Ġade":7968,"ĠMesir":7969,"Ġparu":7970,"ĠTata":7971,"dara":7972,"Bi":7973,"ekar":7974,"ĠHubungi":7975,"Ġsms":7976,"Ġnenek":7977,"html":7978,"Ġkarir":7979,"turut":7980,"Ġ2003":7981,"ĠToyota":7982,"teran":7983,"Ġmenyesuaikan":7984,"ĠUsia":7985,"lomb":7986,"gagalan":7987,"ĠDa":7988,"Ġdihadi":7989,"undur":7990,"isensi":7991,"abang":7992,"ĠAre":7993,"Ġayahnya":7994,"ĠBatam":7995,"itanya":7996,"ombongan":7997,"atural":7998,"Ġperjanjian":7999,"ebalan":8000,"Ġdiluar":8001,"ahir":8002,"Ġmengundang":8003,"ĠCer":8004,"ERI":8005,"Ġoperator":8006,"ĠSEL":8007,"Ġcerah":8008,"Ġdengannya":8009,"ĠDana":8010,"ool":8011,"atangkan":8012,"ĠPemesanan":8013,"Ġkonsisten":8014,"ĠNi":8015,"\\\\":8016,"Ġselera":8017,"Ġmengam":8018,"ĠYuk":8019,"lock":8020,"ject":8021,"Ġparkir":8022,"Ġriwayat":8023,"Ġnasib":8024,"05":8025,"Sp":8026,"vitas":8027,"Ġ250":8028,"ĠZe":8029,"Ġklo":8030,"Ġejakulasi":8031,"ĠANDA":8032,"NA":8033,"Ġbervariasi":8034,"Ġperlengkapan":8035,"cess":8036,"ĠPenj":8037,"simp":8038,"TAS":8039,"ambangan":8040,"Ġterpilih":8041,"ĠModern":8042,"ĠYahudi":8043,"ĠVal":8044,"Ġtergolong":8045,"Ġkhasiat":8046,"ĠHa":8047,"Ġakrab":8048,"âĢ¦âĢĿ":8049,"ongkok":8050,"Ġhard":8051,"Ġtewas":8052,"ĠBandara":8053,"Ġmenyerahkan":8054,"ĠKOM":8055,"Ġpelanggaran":8056,"Selama":8057,"ĠSeni":8058,"Ġspe":8059,"OLA":8060,"Ġdisajikan":8061,"EO":8062,"ĠKER":8063,"ĠPesawat":8064,"Ġroh":8065,"aging":8066,"ĠCalon":8067,"Diposting":8068,"umbuh":8069,"ĠPembel":8070,"Ġhel":8071,"Ġusus":8072,"Ġadil":8073,"Ġbandara":8074,"mbunyi":8075,"Ġmore":8076,"Ġcetak":8077,"eda":8078,"estina":8079,"Diberdayakan":8080,"Ġistirahat":8081,"Ġcar":8082,"Ġstasiun":8083,"dus":8084,"Ġbelakangan":8085,"ĠApi":8086,"MP":8087,"Ġditampilkan":8088,"ĠMur":8089,"ohol":8090,"Pengertian":8091,"Mus":8092,"Ġkeempat":8093,"aba":8094,"oso":8095,"ĠBerk":8096,"ĠPlay":8097,"Ġopsi":8098,"ĠBI":8099,"ĠSebelumnya":8100,"Ġchat":8101,"Ġsiapapun":8102,"uhyun":8103,"ĠSerta":8104,"ĠSEK":8105,"Ġbant":8106,"apaian":8107,"Ġve":8108,"Ġtat":8109,"Adapun":8110,"Ġinvestor":8111,"ĠSesuai":8112,"Ġkaw":8113,"Ġpraktek":8114,"shop":8115,"okia":8116,"atori":8117,"GP":8118,"emuan":8119,"Ġcuci":8120,"Ġmineral":8121,"Ġkebudayaan":8122,"ĠDiper":8123,"ĠBUM":8124,"Ġmengajarkan":8125,"Ġplatform":8126,"hawat":8127,"Ġtali":8128,"Ġpertahanan":8129,"dentifikasi":8130,"zuki":8131,"Ġmutu":8132,"Ġmemperkuat":8133,"Ġdikerjakan":8134,"Ġgag":8135,"ĠTingkat":8136,"Ġperhitungan":8137,"ĠFC":8138,"Ġberuntung":8139,"ĠCenter":8140,"Ġ2004":8141,"gemb":8142,"Ġtetangga":8143,"ĠMicrosoft":8144,"Ġpariwisata":8145,"deks":8146,"Ġkron":8147,"news":8148,"nel":8149,"ĠPus":8150,"utiara":8151,"ĠFakta":8152,"ĠHand":8153,"Sebelumnya":8154,"harga":8155,"Ġbaku":8156,"osiasi":8157,"ĠWilayah":8158,"ĠSaw":8159,"ĠASI":8160,"ĠPasalnya":8161,"Ġkede":8162,"Ġsallam":8163,"ĠElektronik":8164,"ĠPend":8165,"Ġterjaga":8166,"kitab":8167,"Ġlurus":8168,"Ġtrend":8169,"ĠDiberdayakan":8170,"Ġdugaan":8171,"Ġcrusher":8172,"ĠNilai":8173,"Ġimpian":8174,"75":8175,"ĠMati":8176,"ĠSbobet":8177,"Ġdimasuk":8178,"dirinya":8179,"ampau":8180,"ĠMobile":8181,"Ġmikro":8182,"Ġamal":8183,"ĠDar":8184,"lec":8185,"usuf":8186,"ĠSch":8187,"Ġberga":8188,"Ġmengejar":8189,"Ġdirilis":8190,"Ġwe":8191,"tegrasi":8192,"Ġemp":8193,"Ġhobi":8194,",,,":8195,"Ġbermacam":8196,"Ġliga":8197,"ĠFitur":8198,"Ġpenyer":8199,"Ch":8200,"perma":8201,"04":8202,"ĠDist":8203,"Ġtentara":8204,"ĠBud":8205,"ĠPengembangan":8206,"Tan":8207,"gia":8208,"ego":8209,"ĠBeliau":8210,"ÙĲ":8211,"isar":8212,"didik":8213,"ĠBantuan":8214,"ĠSalam":8215,"Ġmurni":8216,"ambatan":8217,"Buku":8218,"ĠSeti":8219,"eboh":8220,"Ġjembatan":8221,"Jl":8222,"rgi":8223,"Ġpangan":8224,"ĠTerus":8225,"Ġundang":8226,"ĠMelakukan":8227,"ĠId":8228,"MU":8229,"ĠPolri":8230,"BI":8231,"ĠAR":8232,"Ġekor":8233,"Ġberkumpul":8234,"Ġ196":8235,"Ġmini":8236,"aringan":8237,"alaikum":8238,"Ibu":8239,"fil":8240,"ĠGunakan":8241,"ĠApple":8242,"FTAR":8243,"Ġinovasi":8244,"Ġperguruan":8245,"git":8246,"obrol":8247,"Ġerat":8248,"ĠMinyak":8249,"retaris":8250,"ĠNews":8251,"Ġdal":8252,"Ġklasemen":8253,"Ġseberapa":8254,"ahi":8255,"Ġjeruk":8256,"Ġkeme":8257,"ĠLu":8258,"ss":8259,"bud":8260,"Ġmengaw":8261,"Ġdinas":8262,"Meskipun":8263,"Ġuser":8264,"Ġkesuksesan":8265,"OBET":8266,"EC":8267,"Ġdapet":8268,"oney":8269,"Tahun":8270,"imasi":8271,"umput":8272,"Ġterpisah":8273,"ĠPutri":8274,"ahlian":8275,"Ġamb":8276,"ĠKEL":8277,"Ġmerubah":8278,"Ġpisang":8279,"tions":8280,"dut":8281,"Ġtekan":8282,"ansir":8283,"Ġton":8284,"hubungan":8285,"agukan":8286,"ujuk":8287,"ative":8288,"Ġlogin":8289,"Ġmalas":8290,"Ġinspirasi":8291,"oa":8292,"rent":8293,"Ġketinggalan":8294,"46":8295,"ĠTua":8296,"ĠPemuda":8297,"Ġwujud":8298,"ĠHPV":8299,"berry":8300,"Ġminimum":8301,"Ġdilarang":8302,"ĠSamp":8303,"Ġkemasan":8304,"Ġhemat":8305,"Ġkecamatan":8306,"ĠArtis":8307,"lebih":8308,"ĠMendapatkan":8309,"pura":8310,"Ġbertugas":8311,"Ġlantas":8312,"akannya":8313,"ventus":8314,"wangi":8315,"Langkah":8316,"Ġterdaftar":8317,"ĠSipilis":8318,"Ġkonser":8319,"tag":8320,"ĠChe":8321,"Ġmenyakit":8322,"ingnya":8323,"Ġslot":8324,"ĠDimana":8325,"ambilan":8326,"Ġmenempuh":8327,"Ġmenghargai":8328,"Ġtenggorokan":8329,"Ġmajalah":8330,"Ġmengecek":8331,"ĠBanten":8332,"Ġkepolisian":8333,"ĠAB":8334,"ĠMelihat":8335,"Ġ2005":8336,"Ġpengikut":8337,"Ġdirancang":8338,"udus":8339,"Ġwadah":8340,"Ġ%":8341,"ture":8342,"ĠJelly":8343,"Ġrele":8344,"time":8345,"ĠPemilihan":8346,"ĠSuara":8347,"uga":8348,"Ġupacara":8349,"ĠDong":8350,"bit":8351,"Ġgelombang":8352,"ĠMax":8353,"Ġ!!!":8354,"Ġbudi":8355,"Ġsayur":8356,"Ġereksi":8357,"ĠSol":8358,"impun":8359,"Ġkuda":8360,"Ġgawang":8361,"Ġkencang":8362,"kw":8363,"hak":8364,"Ġgila":8365,"ĠPulsa":8366,"Ġterpenting":8367,"Ġkaget":8368,"Ġdiciptakan":8369,"¿½":8370,"Ġdicari":8371,"ripsi":8372,"ĠBin":8373,"ĠRT":8374,"UAL":8375,"Ġvisi":8376,"Ġberdampak":8377,"Ġmenanyakan":8378,"ĠPerjalanan":8379,"kus":8380,"Ġtautan":8381,"reta":8382,"Ġpassword":8383,"ĠAdam":8384,"Ġdamai":8385,"Ġmengar":8386,"nes":8387,"ekor":8388,"Ġsarapan":8389,"Ġmobile":8390,"unuhan":8391,"ĠCS":8392,"Ġsia":8393,"Ġdilanjutkan":8394,"ĠBintang":8395,"Ġkrim":8396,"ANAN":8397,"2014":8398,"rame":8399,"Ġtour":8400,"Ġmengembalikan":8401,"ĠService":8402,"Ġnot":8403,"ancangan":8404,"Ġmemasak":8405,"atorium":8406,"ALAH":8407,"ergi":8408,"iasa":8409,"ĠSak":8410,"Ġdemokrasi":8411,"Ġkebersihan":8412,"Ġkesepakatan":8413,"Ġkompetensi":8414,"ĠHubungan":8415,"ĠNet":8416,"imbangan":8417,"Ġpengin":8418,"ĠModal":8419,"ĠLokasi":8420,"ĠPelayanan":8421,"ague":8422,"Ġkus":8423,"Ġflash":8424,"Ġjen":8425,"Ġpoint":8426,"Ġkepuasan":8427,"upun":8428,"Ġtampaknya":8429,"jil":8430,"St":8431,"jutkan":8432,"ĠAkses":8433,"Ġmemeriksa":8434,"Ġbintik":8435,"Ġrupa":8436,"Ġsinyal":8437,"ĠDeposit":8438,"right":8439,"Ġberlalu":8440,"Ġmembuang":8441,"Ġberdarah":8442,"Ġdipenuhi":8443,"Ġnafas":8444,"injau":8445,"ĠLink":8446,"isis":8447,"ĠListrik":8448,"iral":8449,"Ġragam":8450,"ĠGroup":8451,"Ġbiarkan":8452,"sk":8453,"ĠOne":8454,"Ġmenemui":8455,"ormati":8456,"Tr":8457,"09":8458,"Ġjepang":8459,"Ġditemui":8460,"Ġefisien":8461,"Ġwarung":8462,"ĠKuat":8463,"ĠKode":8464,"Ġpower":8465,"Ġbor":8466,"ĠIsi":8467,"Ġproblem":8468,"56":8469,"ĠDepok":8470,"Ġberin":8471,"iraan":8472,"49":8473,"Ġvarian":8474,"ĠKredit":8475,"isir":8476,"ĠLaptop":8477,"ĠØ":8478,"ĠDel":8479,"Kota":8480,"Ġkotoran":8481,"Ġberlari":8482,"Ġmembedakan":8483,"Ġbahas":8484,"ĠTERB":8485,"Ġkeputihan":8486,"ship":8487,"UKAN":8488,"abut":8489,"Ġtren":8490,"sign":8491,"ĠPancasila":8492,"Up":8493,"Ġ01":8494,"ĠOper":8495,"ĠGejala":8496,"Ġberde":8497,"emput":8498,"ipu":8499,"Min":8500,"Ġkis":8501,"Ġsemester":8502,"zen":8503,"ĠPertanian":8504,"Ġradio":8505,"ĠKari":8506,"Sebenarnya":8507,"aining":8508,"Ġisinya":8509,"Pertama":8510,"Ġikh":8511,"Ġbrand":8512,"Ġperjudian":8513,"Ġwajahnya":8514,"Ġmenjauh":8515,"ĠBekas":8516,"iker":8517,"06":8518,"ĠStar":8519,"Ġlu":8520,"arjo":8521,"Ġmemperlihatkan":8522,"Ġevaluasi":8523,"plin":8524,"ĠKeren":8525,"ĠHid":8526,"Ġbusana":8527,"Ġgur":8528,"Ġlaku":8529,"07":8530,"Ternyata":8531,"Ġkarenanya":8532,"Ġalum":8533,"ĠAkun":8534,"Ġdisek":8535,"pert":8536,"ĠSEM":8537,"Makanan":8538,"ĠBalik":8539,"ĠBangsa":8540,"oneka":8541,"asy":8542,"Ġroti":8543,"Ġbersikap":8544,"Ġmelebih":8545,"ĠWA":8546,"madiyah":8547,"Ġinstal":8548,"aitu":8549,"Ġmempercepat":8550,"omputer":8551,"Ġterkejut":8552,"Ġdibahas":8553,"Ġkontrol":8554,"ĠDigital":8555,"Ġpanitia":8556,"iture":8557,"ĠAdi":8558,"Ġpertar":8559,"Ġklasik":8560,"AHUL":8561,"ath":8562,"Quran":8563,"Aplikasi":8564,"ĠAhok":8565,"Akan":8566,"Ġdiperb":8567,"Ġsaatnya":8568,"une":8569,"Ġtahapan":8570,"!\"":8571,"Ġmanual":8572,"Jadwal":8573,"Ġdituj":8574,"âĢĻ,":8575,"Ġsport":8576,"obalah":8577,"ĠIdul":8578,"Ġmaya":8579,"Ġyo":8580,"Bahkan":8581,"Ġperekonomian":8582,"iu":8583,"Ġsendok":8584,"Ġraga":8585,"antumkan":8586,"Ġaparat":8587,"arab":8588,"Ġurat":8589,"Ġsentu":8590,"ĠKim":8591,"Ġsoalnya":8592,"Ġmama":8593,"ĠCuma":8594,"ĠKos":8595,"emerintahan":8596,"genai":8597,"ĠKalo":8598,"Ġkelainan":8599,"ĠPa":8600,"Jasa":8601,"lagi":8602,"urit":8603,"Ġdisarankan":8604,"ĠIP":8605,"ĠTenaga":8606,"Ġakar":8607,"Ġrajin":8608,"egini":8609,"ĠWil":8610,"Ġbutuhkan":8611,"Ġend":8612,"ndaknya":8613,"ĠPenggunaan":8614,"sing":8615,"ĠSuka":8616,"Ġmerugikan":8617,"ĠVirus":8618,"Ġkonsultasi":8619,"ajinan":8620,"ujung":8621,"ĠMac":8622,"ĠBul":8623,"akna":8624,"Ġsediakan":8625,"ĠKart":8626,"Ġtoilet":8627,"ciri":8628,"rd":8629,"Ġmembaw":8630,"Ġmengharapkan":8631,"Ġstres":8632,"dolar":8633,"asif":8634,"Ġpenerimaan":8635,"way":8636,"abung":8637,"Ġditangkap":8638,"ĠPengobatan":8639,"Ġkritik":8640,"ĠMbak":8641,"Ġgerak":8642,"TE":8643,"ĠPasti":8644,"ongkong":8645,"pi":8646,"ĠTag":8647,"ehan":8648,"esifik":8649,"Ġbangkit":8650,"cita":8651,"Ġinform":8652,"unyikan":8653,"Ġketak":8654,"ĠPemilu":8655,"ĠTurki":8656,"Ġmengonsumsi":8657,"Ġci":8658,"rahim":8659,"Ġinterior":8660,"ĠRonal":8661,"Ġtablet":8662,"ĠInternational":8663,"ĠPalestina":8664,"Ġinfrastruktur":8665,"Ġmitra":8666,"Ġvisual":8667,"JAKARTA":8668,"ĠTanggal":8669,"Ġbad":8670,"Ġpenipuan":8671,"Ġpon":8672,"Ġsepuluh":8673,"Ġkolesterol":8674,"cap":8675,"ĠGamat":8676,"ĠDulu":8677,"Ġtand":8678,"Ġnah":8679,"ĠAP":8680,"ĠPember":8681,"Ġpraktik":8682,"Ġmenghitung":8683,"AMP":8684,"num":8685,"Ġterkesan":8686,"ĠAmin":8687,"Sistem":8688,"Ġbern":8689,"ĠJadwal":8690,"Ġkemb":8691,"Ġurutan":8692,"Ġmengap":8693,"Ġfenomena":8694,"Ġdolar":8695,"buku":8696,"ancang":8697,"Ġmenyusun":8698,"Ġdipimpin":8699,"Ġditujukan":8700,"Ġdijalankan":8701,"urniture":8702,"Ġpenanganan":8703,"ĠBatik":8704,"Ġpesat":8705,"Ġterm":8706,"tra":8707,"epara":8708,"ĠCaranya":8709,"ĠPEL":8710,"ĠPengadilan":8711,"Ġpergerakan":8712,"itle":8713,"ĠAfrika":8714,"ĠPerang":8715,"lass":8716,"iayaan":8717,"osh":8718,"Ġterbilang":8719,"lier":8720,"uvenir":8721,"Ġterkandung":8722,"kem":8723,"Ġsya":8724,"ingkah":8725,"Ġtest":8726,"naf":8727,"ĠPesan":8728,"ancis":8729,"Ġrela":8730,"ote":8731,"Ġbareng":8732,"Dua":8733,"tub":8734,"ĠPerubahan":8735,"ritahuan":8736,"mane":8737,"Ġdibentuk":8738,"Ġpac":8739,"Ġpecah":8740,"read":8741,"ĠEngkau":8742,"Ġmembandingkan":8743,"Ġmemperkenalkan":8744,"dic":8745,"aduan":8746,"Tim":8747,"Ġanjing":8748,"Ġtra":8749,"Ġberumur":8750,"Ġjanganlah":8751,"Ġprot":8752,"Ġterim":8753,"Ġpungk":8754,"dahulu":8755,"genda":8756,"Ġkemerdekaan":8757,"Ġpenyembuhan":8758,"amus":8759,"ĠGrup":8760,"str":8761,"CD":8762,"Ġgara":8763,"Ġmisteri":8764,"Ġserba":8765,"ĠSBOBET":8766,"Ġriset":8767,"Ġsebaik":8768,"ĠPres":8769,"utut":8770,"ĠCir":8771,"Ġbosan":8772,"ĠTerakhir":8773,"Ġlambung":8774,"vensional":8775,"Ġmenghancurkan":8776,"Ġceritanya":8777,"ĠNatal":8778,"Ġberkomunikasi":8779,"Ġditanya":8780,"ĠBelakang":8781,"Ġvolume":8782,"faatan":8783,"Ġline":8784,"usinya":8785,"ĠSyari":8786,"ĠMEMB":8787,"Ġlayaknya":8788,"Ġyaa":8789,"ĠStadion":8790,"ĠPertanyaan":8791,"Ġinstansi":8792,"Ġmoral":8793,"Ġtwitter":8794,"Ġaslinya":8795,"Desain":8796,"IND":8797,"Navigasi":8798,"ĠMeningkatkan":8799,"ĠPerp":8800,"emahkan":8801,"Ġdidalamnya":8802,"Sesungguhnya":8803,"ĠHol":8804,"47":8805,"rumah":8806,"tujui":8807,"Ġdiakui":8808,"Ġdiangkat":8809,"Ġberoperasi":8810,"ĠSekitar":8811,"Ġmenyelamatkan":8812,"anjakan":8813,"Ġmenutupi":8814,"ĠUniversity":8815,"Ġkebebasan":8816,"nikmatan":8817,"lum":8818,"emudi":8819,"ikmah":8820,"Ġmendatangkan":8821,"oks":8822,"Ġberminat":8823,"ĠPengertian":8824,"Ġ1000":8825,"ĠPrab":8826,"Ġangkat":8827,"ĠWidodo":8828,"OV":8829,"aras":8830,"anjangan":8831,"Il":8832,"ane":8833,"Ġten":8834,"isika":8835,"ĠDAERAH":8836,"Ġdemam":8837,"sihkan":8838,"Ġpengurus":8839,"Tema":8840,"ĠTiket":8841,"Ġcur":8842,"ĠSex":8843,"ĠJi":8844,"Ġberencana":8845,"Ġpersaingan":8846,"Ġgini":8847,"GI":8848,"awas":8849,"Ġmenyimp":8850,"ĠBerbagi":8851,"Ġlulusan":8852,"ica":8853,"ĠJAKARTA":8854,"Ġmewakili":8855,"Ġmelihatnya":8856,"Sejak":8857,"Ġmendirikan":8858,"ĠNaik":8859,"Ġoperasional":8860,"ĠPeserta":8861,"als":8862,"Ġ99":8863,"ajang":8864,"gentot":8865,"Ġindikator":8866,"ATIS":8867,"Ġmengur":8868,"ĠSIM":8869,"ben":8870,"Ġutamanya":8871,"Ġsul":8872,"ĠKayu":8873,"ava":8874,"ampingi":8875,"adanya":8876,"Ġtype":8877,"ĠPembuatan":8878,"Ġongk":8879,"ĠFitri":8880,"Ġmunculnya":8881,"ĠJuventus":8882,"UNGAN":8883,"Ġlibur":8884,"rov":8885,"Ġberes":8886,"ALA":8887,"isinya":8888,"anggapi":8889,"lusif":8890,"Ġinti":8891,"ĠPerk":8892,"Ġher":8893,"Ġmampir":8894,"enak":8895,"nag":8896,"pemb":8897,"ĠUK":8898,"anksi":8899,"ÙĴ":8900,"Ġliar":8901,"aporan":8902,"Tetapi":8903,"incin":8904,"ĠBelanja":8905,"ĠPower":8906,"ĠAngka":8907,"Ġneraka":8908,"Ġkale":8909,"02":8910,"Ġdiriku":8911,"ollar":8912,"ĠBL":8913,"mes":8914,"Ġpemasangan":8915,"Ġsidang":8916,"ĠKej":8917,"Ġpelan":8918,"Ġditul":8919,"utamakan":8920,"eller":8921,"ĠLamaran":8922,"ĠHaji":8923,".[":8924,"itos":8925,"arasi":8926,"urnamen":8927,"OC":8928,"Ġbir":8929,"Ġama":8930,"ago":8931,"ĠPang":8932,"Ġhidung":8933,"wanya":8934,"Jalan":8935,"bisa":8936,"ĠBEL":8937,"anjurkan":8938,"ĠIV":8939,"Ġmelebihi":8940,"Selengkapnya":8941,"Ġleg":8942,"ĠKopi":8943,"ĠKON":8944,"Ġbagikan":8945,"Ġpersis":8946,"Ġpengolahan":8947,"dg":8948,"Ġtik":8949,"manen":8950,"Ġlong":8951,"Ġsatuan":8952,"Ġtdk":8953,"Ġtri":8954,"ulia":8955,"ĠTemp":8956,"Menc":8957,"42":8958,"vin":8959,"ĠCat":8960,"ondon":8961,"Ġbeker":8962,"Pri":8963,"jubkan":8964,"Ġderita":8965,"Ġmerilis":8966,"Ġkebakaran":8967,"TS":8968,"Ġlaman":8969,"ĠCol":8970,"ĠHAM":8971,"Ġbijak":8972,"mark":8973,"temuan":8974,"bukan":8975,"ĠSuami":8976,"AHULUAN":8977,"ĠGereja":8978,"IKA":8979,"ping":8980,"ĠKehidupan":8981,"Lagu":8982,"Ġhis":8983,"Ġmenempel":8984,"Ġabu":8985,"empurna":8986,"Ġsw":8987,"Ġtepung":8988,"Ġsan":8989,"Ġskala":8990,"emia":8991,"Ġdisukai":8992,"Ġkonfirmasi":8993,"ĠGadis":8994,"Ġdipahami":8995,"Ġkepalanya":8996,"Ġdidirikan":8997,"Ġkafir":8998,"ĠMarketing":8999,"ĠSedang":9000,"Ġmalaikat":9001,"Ġatlet":9002,"Ġago":9003,"Akhirnya":9004,"ĠBIS":9005,"ĠMetode":9006,"2013":9007,"ALI":9008,"ĠPurw":9009,"Ġtunt":9010,"ford":9011,"ĠKorban":9012,"ĠKamera":9013,"ĠMusim":9014,"trip":9015,"Ġdikab":9016,"ĠTermasuk":9017,"Ġdest":9018,"Ġoriginal":9019,"ĠKong":9020,"Ġtempatnya":9021,"Ġresolusi":9022,"hadapan":9023,"58":9024,"mon":9025,"Ġarsit":9026,"teriak":9027,"angsing":9028,"Ġmayoritas":9029,"ĠHARI":9030,"ulangan":9031,"Ġjaket":9032,"win":9033,"Ġmarketing":9034,"Ġmenyerah":9035,"ĠOh":9036,"ĠIM":9037,"Ġlebaran":9038,"Ġpuisi":9039,"ĠTelkom":9040,"Ġpanggung":9041,"ĠKualitas":9042,"Program":9043,"ĠTanaman":9044,"Ġseragam":9045,"ormatan":9046,"Bisa":9047,"indonesia":9048,"hing":9049,"Ùħ":9050,"Ġtahunan":9051,"Ġditularkan":9052,"usuk":9053,"ukung":9054,"Ġmenguat":9055,"Ġformal":9056,"Ġdilansir":9057,"Ġmenggantikan":9058,"ĠEnak":9059,"bagian":9060,"OKER":9061,"Ġpotong":9062,"ukis":9063,"utnya":9064,"Ġdisiplin":9065,"ĠLok":9066,"Ġ1945":9067,"ungsinya":9068,"ihad":9069,"Ġpenyi":9070,"ĠKete":9071,"Ġoffline":9072,"ĠLeague":9073,"ĠKeber":9074,"yangkan":9075,"Ġbesarnya":9076,"Ġ09":9077,"inati":9078,"ĠMEM":9079,"Ġall":9080,"Ġkebun":9081,"won":9082,"under":9083,"ompa":9084,"tengahan":9085,"Ġsemula":9086,"yl":9087,"INT":9088,"Ġbersedia":9089,"ilin":9090,"Ġmengand":9091,"ĠPerancis":9092,"ĠPrem":9093,"ĠKH":9094,"panjang":9095,"Kedua":9096,"Ġlipat":9097,"Ġklin":9098,"Ġkonteks":9099,"Ġken":9100,"Ġgembira":9101,"Ġkehe":9102,"Seh":9103,"hab":9104,"elajah":9105,"Ġlogam":9106,"Kirim":9107,"Wanita":9108,"Ġsejati":9109,"ðŁĺ":9110,"ĠTai":9111,"Ġberupaya":9112,"ĠDon":9113,"ĠJin":9114,"Ġraksasa":9115,"ĠTugas":9116,"Ġsebutan":9117,"Ġbelas":9118,"atinya":9119,"Penyebab":9120,"Ġyuk":9121,"Ġmemelihara":9122,"itungan":9123,"Us":9124,"Ġkepemimpinan":9125,"Ġmatematika":9126,"adaban":9127,"Ġmerokok":9128,"Ġfase":9129,"ĠKAB":9130,"ĠPengetahuan":9131,"ĠUpdate":9132,"Ġdimasukkan":9133,"ĠKasus":9134,"ĠKapol":9135,"awang":9136,"ĠDiskon":9137,"jenis":9138,"Bisnis":9139,"ĠKue":9140,"Ġjajaran":9141,"Waktu":9142,"Ġfans":9143,"Ġimbang":9144,"ĠTrip":9145,"ĠBiasa":9146,"Ġwawancara":9147,"ĠBuka":9148,"Ġprioritas":9149,"tentangan":9150,"Oh":9151,"Ġmula":9152,"ĠTAN":9153,"inggung":9154,"Pusat":9155,"Ġmark":9156,"ijat":9157,"Ġimpor":9158,"estik":9159,"ĠAPB":9160,"ĠĠĠĠ":9161,"Ġputaran":9162,"seperti":9163,"amai":9164,"Ġdipasang":9165,"ĠAntara":9166,"ĠFre":9167,"Ġuniversitas":9168,"idasi":9169,"ĠGak":9170,"Ġlirik":9171,"Ġikatan":9172,"Ġpengganti":9173,"duh":9174,"Ġrute":9175,"ĠEntah":9176,"Ġdisimpan":9177,"ĠPastikan":9178,"Ġperwakilan":9179,"ĠKristus":9180,"Ġeh":9181,"Ġkegagalan":9182,"Ġkriteria":9183,"ĠBakar":9184,"aboratorium":9185,"jika":9186,"Beli":9187,"Ġval":9188,"sih":9189,"Ġsekadar":9190,"Ġmelengkapi":9191,"Ġobyek":9192,"Ġterbiasa":9193,"TT":9194,"ĠIndo":9195,"Ġbulat":9196,"ebon":9197,"stall":9198,"Ġmy":9199,"Ġelegan":9200,"Ġtp":9201,"Ġkepe":9202,"sias":9203,"ĠFaktor":9204,"ĠTentunya":9205,"difikasi":9206,"Li":9207,"Ġdiubah":9208,"iskinan":9209,"Ġkendala":9210,"Ġspesifik":9211,"BP":9212,"ĠAsian":9213,"abase":9214,"Ġpeta":9215,"Ġdul":9216,"ĠKunci":9217,"ĠPENDAHULUAN":9218,"io":9219,"ĠFir":9220,"book":9221,"Ġwawasan":9222,"âĨ":9223,"pasar":9224,"angeran":9225,"Ġnada":9226,"impah":9227,"ĠPengel":9228,"Ġkantong":9229,"aiknya":9230,"jauh":9231,"rr":9232,"ditasi":9233,"pu":9234,"Iya":9235,"ohong":9236,"ĠRoma":9237,"Ġbere":9238,"lay":9239,"END":9240,"ĠMimpi":9241,"Ġcream":9242,"Ġsenyawa":9243,"hasiat":9244,"Ġdiganti":9245,"oyo":9246,"ĠDP":9247,"Ġdicapai":9248,"Ġdikunjungi":9249,"zer":9250,"ĠKampung":9251,"ĠCewek":9252,"ĠJack":9253,"Ġkonvensional":9254,");":9255,"Ġsandi":9256,"Ġpenyelenggaraan":9257,"down":9258,"CARA":9259,"ĠALLAH":9260,"Ġpenyanyi":9261,"Ġjalanan":9262,"ĠKencing":9263,"ĠWhatsApp":9264,"olik":9265,"Ġtuntutan":9266,"sungguh":9267,"resif":9268,"..âĢĿ":9269,"Ġkelemahan":9270,"ĠTimnas":9271,"Ġmengumumkan":9272,"ĠTrading":9273,"dokteran":9274,"Ġsik":9275,"ĠKereta":9276,"gambar":9277,"damaian":9278,"Ġkelemb":9279,"Ġmempertimbangkan":9280,"metik":9281,"Ġbatuk":9282,"ĠRiz":9283,"ady":9284,"ĠTewas":9285,"ĠOS":9286,"klik":9287,"Ġmenyarankan":9288,"uaya":9289,"ĠMohon":9290,"Ġcontohnya":9291,"Ġditu":9292,"angnya":9293,"ĠTR":9294,"ĠKerajaan":9295,"lagu":9296,"Ġ33":9297,"ĠDaun":9298,"ĠDewi":9299,"raih":9300,"Ġdiajak":9301,"nn":9302,"Ġkedudukan":9303,"Ġmematikan":9304,"Ġinstr":9305,"Ġmengancam":9306,"Ġmemuat":9307,"ongkar":9308,"Ġcheck":9309,"rin":9310,"Ġkeahlian":9311,"ulas":9312,"Ġdijamin":9313,"Ġlist":9314,"Ġdiproduksi":9315,"Ġjumlahnya":9316,"ndalian":9317,"ahabatan":9318,"ĠJum":9319,"Ġberbahan":9320,"sium":9321,"Ġpasca":9322,"Ġpameran":9323,"Ġmanajer":9324,"Ġlabel":9325,"ĠUmar":9326,"Ġdepannya":9327,"NE":9328,"Ġdakwah":9329,"Ġkurikulum":9330,"ĠFashion":9331,"Ġdilaporkan":9332,"onjol":9333,"Ġnyar":9334,"fah":9335,"Ġandalan":9336,"Ġalk":9337,"ateng":9338,"Ġalergi":9339,"ĠRonaldo":9340,"link":9341,"ĠSipil":9342,"ĠPenis":9343,"Ġpencari":9344,"2012":9345,"Ġkeju":9346,"Ġmenje":9347,"ĠUjian":9348,"Ġmuk":9349,"dsb":9350,"ĠRadi":9351,"ster":9352,"ORM":9353,"OSI":9354,"ĠSay":9355,"ĠSoekar":9356,"Ġbodoh":9357,"Ġprofil":9358,"Ġtersisa":9359,"uncak":9360,"Ġmundur":9361,"Ġmengurus":9362,"Ġjamaah":9363,"Ġlembar":9364,"Ġmerata":9365,"ĠLebaran":9366,"ĠCan":9367,"Ġberkas":9368,"elam":9369,"Ġakhirat":9370,"ĠBac":9371,"ĠStandar":9372,"demikian":9373,"Ġterlepas":9374,"Ġjaga":9375,"Ġmedan":9376,"utasi":9377,"lasi":9378,"Ġsendirian":9379,"Ġpenambahan":9380,"ĠAlex":9381,"%,":9382,"Ġperiksa":9383,"ĠWal":9384,"Ġsepi":9385,"Ġmenun":9386,"Kepala":9387,"Ġlanjutan":9388,"TB":9389,"Surat":9390,"Ġhakim":9391,"Ġsor":9392,"Hai":9393,"Ġorg":9394,"ĠMisi":9395,"gro":9396,"AMB":9397,"ASAN":9398,"ĠSimp":9399,"Ġmenghadap":9400,"Ġganda":9401,"Ġtir":9402,"Ġselamanya":9403,"Ġ02":9404,"okrat":9405,"Ġdiingat":9406,"ĠBung":9407,"ĠAudi":9408,"Ġmembah":9409,"Ġspek":9410,"ĠLip":9411,"Ġ??":9412,"Ġtrader":9413,"imbing":9414,"emu":9415,"ĠJambi":9416,"romosikan":9417,"acamata":9418,"niat":9419,"Ġnel":9420,"Ġadonan":9421,"aptasi":9422,"etap":9423,"ĠHel":9424,"ĠAlhamdulillah":9425,"usikan":9426,"Ġkenikmatan":9427,"Ġmengandalkan":9428,"ĠWali":9429,"Ġketimbang":9430,"Kegiatan":9431,"gmail":9432,"Ġrap":9433,"Ġteri":9434,"andal":9435,"bawa":9436,"aim":9437,"ĠPasangan":9438,"ankan":9439,"Ġmic":9440,"Ġpusing":9441,"Ġporno":9442,"anks":9443,"Pilih":9444,"ĠInf":9445,"Ġmemeluk":9446,"Proses":9447,"aksim":9448,"uhur":9449,"ewatkan":9450,"ncananya":9451,"Ġmendadak":9452,"ontin":9453,"ahap":9454,"ndaki":9455,"ĠKalian":9456,"yono":9457,"ĠAwal":9458,"ĠDav":9459,"Ġterlambat":9460,"INGK":9461,"kor":9462,"online":9463,"Ġkajian":9464,"Ġtol":9465,"Ġdistributor":9466,"oksidan":9467,"ĠPort":9468,"rok":9469,"Ġberpendapat":9470,"angkok":9471,"safat":9472,"ajurit":9473,"ĠKarakter":9474,"JS":9475,"jang":9476,"ĠMasakan":9477,"Ġpenya":9478,"spek":9479,"ĠPrabowo":9480,"52":9481,"ĠKyuhyun":9482,"Ġmendownload":9483,"Ġdestinasi":9484,"Ġterbit":9485,"Ġsempit":9486,"Ġpenerapan":9487,"inah":9488,"Penyakit":9489,"ĠDetail":9490,"Ġpendiri":9491,"Ġtahunnya":9492,"âĨĲ":9493,"ĠPilkada":9494,"Ġmelarang":9495,"Ġpengeluaran":9496,"mani":9497,"rek":9498,"ety":9499,"Ġdikasih":9500,"Ġbekerjasama":9501,"199":9502,"TRI":9503,"Ġdiakses":9504,"ds":9505,"Ġsperma":9506,"ĠBitcoin":9507,"Ġmembelinya":9508,"Ġterhubung":9509,"die":9510,"ĠSir":9511,"ĠUr":9512,"ĠSesungguhnya":9513,"Ġteror":9514,"Ġterimakasih":9515,"cs":9516,"Ġterpe":9517,"emon":9518,"ĠPendaftaran":9519,"rimakasih":9520,"Ġdirek":9521,"salamu":9522,"Ġrent":9523,"siun":9524,"ĠKategori":9525,"Ġkuno":9526,"Ġkonsentrasi":9527,"lima":9528,"Ġatap":9529,"ĠMember":9530,"Ġberpotensi":9531,"Ġkeram":9532,"Ġpinggir":9533,"Ġunggulan":9534,"Membuat":9535,"cahkan":9536,"Ġkomplikasi":9537,"uansa":9538,"atanya":9539,"apas":9540,"ĠNote":9541,"urunkan":9542,"Ġpanc":9543,"ĠSuri":9544,"dor":9545,"Ġpresentasi":9546,"UAT":9547,"ĠForum":9548,"Bab":9549,"lamasi":9550,"Ġharam":9551,"Ġpenulisan":9552,"semoga":9553,"Ġagenda":9554,"ĠPagi":9555,"ĠDah":9556,"Ġbergantung":9557,"cle":9558,"Ġkeg":9559,"tingg":9560,"ĠSuatu":9561,"Ġtepi":9562,"istis":9563,"Ġpengambilan":9564,"Ġsl":9565,"ĠFin":9566,"Ġmemadai":9567,"awe":9568,"ĠCocok":9569,"Ġdipe":9570,"ultan":9571,"ĠLaporan":9572,"Ġmainkan":9573,"Ġcokelat":9574,"umis":9575,"ĠMinuman":9576,"esa":9577,"ahit":9578,"Ġtabel":9579,"rew":9580,"ĠHab":9581,"Ġmekanisme":9582,"Ġlimb":9583,"ĠBAN":9584,"Ġbenjolan":9585,"Ġdsb":9586,"istan":9587,"Ġ07":9588,"alib":9589,"reasi":9590,"ĠPanas":9591,"emukakan":9592,"Ġrumit":9593,"Ġ00":9594,"Paket":9595,"Ġkaret":9596,"Ġketakutan":9597,"Ġcair":9598,"ĠFestival":9599,"Ġoksi":9600,"ated":9601,"kita":9602,"ĠIran":9603,"Ġterganggu":9604,"ĠAneh":9605,"Ġbos":9606,"appy":9607,"ĠHome":9608,"Ġdirumah":9609,"Ġracun":9610,"Ġdihadapi":9611,"Ġtrus":9612,"ĠRa":9613,"Belajar":9614,"ĠÂ©":9615,"Ġgagasan":9616,"rbang":9617,"less":9618,"Begitu":9619,"nyataannya":9620,"Ġekspor":9621,"Ġ38":9622,"Ġzona":9623,"Ġkepadamu":9624,"ukisan":9625,"Ġmenelan":9626,"Ġsetan":9627,"Ġmenggunakannya":9628,"ustrasi":9629,"ĠBa":9630,"Ġagan":9631,"alap":9632,"Ġpengadilan":9633,"vie":9634,"Ġsenior":9635,"Ek":9636,"Ġcopy":9637,"ĠMark":9638,"Fi":9639,"iliasi":9640,"Ġmainan":9641,"Ġoke":9642,"udin":9643,"Ġumpan":9644,"wanita":9645,"Ġditerb":9646,"rep":9647,"kala":9648,"Ġvariasi":9649,"Ġperumahan":9650,"cur":9651,"ĠOut":9652,"ĠContohnya":9653,"Ġmeluncurkan":9654,"iler":9655,"Ġberganti":9656,"Ġmelatih":9657,"Ġover":9658,"ĠKirim":9659,"Ġsensitif":9660,"ĠNokia":9661,"Ġmelupakan":9662,"Ġketinggian":9663,"Ġjanin":9664,"Ġmenunjukan":9665,"esarkan":9666,"ĠPernikahan":9667,"ipina":9668,"ĠSabung":9669,"Ġland":9670,"ĠProfesi":9671,"ded":9672,"iya":9673,"ism":9674,"ĠUnt":9675,"Ġmencuri":9676,"Ġperkataan":9677,"ĠSA":9678,"Ġhip":9679,"ilat":9680,"Sampai":9681,"ĠIslami":9682,"getkan":9683,"Ġ197":9684,"very":9685,"Ġditur":9686,"Dit":9687,"oper":9688,"Ġfirman":9689,"Ġbimb":9690,"Ġlar":9691,"usunan":9692,"Ġstok":9693,"Ġnikah":9694,"unculan":9695,"Ġduit":9696,"ĠRemaja":9697,"dayaan":9698,"ĠMir":9699,"Ġtelanjang":9700,"ĠTerjadi":9701,"Ġdianjurkan":9702,"Ġberkenaan":9703,"Ġmengarah":9704,"Ġbertahun":9705,"iness":9706,"samaan":9707,"ette":9708,"Ġlemari":9709,"oleran":9710,"Ġbaginya":9711,"Ġdisemb":9712,"viks":9713,"yakan":9714,"ĠNggak":9715,"Ġrupanya":9716,"Ġadegan":9717,"Ġhendaknya":9718,"ikalau":9719,"ndor":9720,"Ġmenghadiri":9721,"ĠVs":9722,"Catatan":9723,"ĠKepulauan":9724,"Ġpur":9725,"Ġsabun":9726,"Ġsaraf":9727,"ĠYork":9728,"].":9729,"lemb":9730,"Ab":9731,"iliar":9732,"ĠPerm":9733,"ĠâĢº":9734,"Ġkepribadian":9735,"Ġkonstruksi":9736,"Ġsyukur":9737,"Ġbeasiswa":9738,"Ġmembela":9739,"Ġinduk":9740,"ĠGal":9741,"ĠUSD":9742,"Ġkenangan":9743,"Ġterbar":9744,"ĠKeputusan":9745,"apakah":9746,"ĠSahabat":9747,"bur":9748,"Ġmenggi":9749,"Ġberkarya":9750,"ĠNasi":9751,"Ġles":9752,"Ġpencegahan":9753,"ĠJuara":9754,"biotik":9755,"Ġberhadapan":9756,"ec":9757,"kripsikan":9758,"ĠGreen":9759,"ï¿½":9760,"Ġdiin":9761,"Ġmengatas":9762,"PL":9763,"retan":9764,"riend":9765,"ukanya":9766,"depen":9767,"Ġsegalanya":9768,"Dik":9769,"ĠTerhadap":9770,"Ġmembalas":9771,"inja":9772,"Ġjitu":9773,"ĠGrand":9774,"ĠUdara":9775,"Ġditi":9776,"plier":9777,"ĠPost":9778,"Ġanalisa":9779,"isal":9780,"Ġfi":9781,"Ġsembilan":9782,"impa":9783,"Ġdif":9784,"ĠREPUBLIK":9785,"Tulisan":9786,"ĠGu":9787,"tens":9788,"gy":9789,"Ġhy":9790,"ĠTiongkok":9791,"Ġbaja":9792,"Ġrombongan":9793,"opsis":9794,"Ġterdahulu":9795,"ATEN":9796,"Ġsetting":9797,"ĠNa":9798,"Ġkesimp":9799,"lama":9800,"Ġprofes":9801,"Ġ<":9802,"tulnya":9803,"Ġlogo":9804,"ĠTelah":9805,"ĠPembayaran":9806,"Alhamdulillah":9807,"ĠDih":9808,"ĠGerakan":9809,"ĠSant":9810,"Ġseminar":9811,"Ġdipanggil":9812,"ĠStore":9813,"ĠPremier":9814,"BAT":9815,"ĠMoto":9816,"APA":9817,"ĠJurnal":9818,"Ġelektr":9819,"ella":9820,"Ġtangk":9821,"Ġlet":9822,"Ġstock":9823,"Ġbox":9824,"ĠReg":9825,"Ùı":9826,"cen":9827,"fie":9828,"emangat":9829,"53":9830,"ingati":9831,"ĠRis":9832,"Ġtertera":9833,"Ġburuh":9834,"ĠRuas":9835,"ĠBUMN":9836,"ĠLondon":9837,"Ġpeneg":9838,"Ġpembukaan":9839,"ĠBB":9840,"ĠTerlengkap":9841,"ustom":9842,"Ġgonore":9843,"Ġorganik":9844,"injam":9845,"Ġshallallahu":9846,"ĠLee":9847,"SIS":9848,"ĠMor":9849,"ĠMinum":9850,"ĠKitab":9851,"Ġberlanjut":9852,"ĠSumb":9853,"unjang":9854,"ĠLirik":9855,"Ġperayaan":9856,"Ġmerayakan":9857,"Ġmendatangi":9858,"ĠHasan":9859,"Ġdipandang":9860,"Ġmengendalikan":9861,"ĠMateri":9862,"lihatan":9863,"ĠLazada":9864,"etahu":9865,"Ġkarakteristik":9866,"INK":9867,"ĠJantung":9868,"Ġhancur":9869,"angkitkan":9870,"ompat":9871,"Ġmom":9872,"esaian":9873,"unakan":9874,"Ġsingle":9875,"Lirik":9876,"FO":9877,"ĠTI":9878,"ĠMuhammadiyah":9879,"ĠHewan":9880,"ĠQu":9881,"Ġprofit":9882,"aruskan":9883,"Mohon":9884,"Ġsebulan":9885,"dio":9886,"Ġbaris":9887,"rogen":9888,"Ġrepot":9889,"bk":9890,"entasikan":9891,"Ġterser":9892,"misi":9893,"isahan":9894,"Ġsastra":9895,"cl":9896,"ĠAng":9897,"Ġbukit":9898,"raksi":9899,"Ġbunuh":9900,"Ġkrisis":9901,"Ġ400":9902,"ANGG":9903,"inim":9904,"ĠKabar":9905,"ĠBAB":9906,"Ġpakar":9907,"Ġnyawa":9908,"Ġhot":9909,"ncy":9910,"par":9911,"Ġbibit":9912,"Ġberta":9913,"Ġdimensi":9914,"Ġmenyangkut":9915,"Met":9916,"Ġradik":9917,"icial":9918,"Memiliki":9919,"ĠSoc":9920,"ĠWat":9921,"via":9922,"meny":9923,"Ġsetara":9924,"usa":9925,"Ġ75":9926,"Ġpertengahan":9927,"ĠPariwisata":9928,"Ġlimbah":9929,"Ġmenjanjikan":9930,"df":9931,"Ġperbankan":9932,"Ġbacaan":9933,"resh":9934,"wati":9935,"USI":9936,"Ġpemilu":9937,"ĠKumpulan":9938,"tek":9939,"ĠSoftware":9940,"Ġakh":9941,"QQ":9942,"olahraga":9943,"ĠReview":9944,"uasaan":9945,"ĠSuzuki":9946,"omod":9947,"acker":9948,"Ġproduktif":9949,"Ġreb":9950,"Ġberkes":9951,"Kondisi":9952,"Ġmembahayakan":9953,"Ġkesayangan":9954,"Ġditemp":9955,"mati":9956,"ĠWis":9957,"intasi":9958,"sero":9959,"Ġjati":9960,"ĠNEG":9961,"ĠMenu":9962,"Ġdebu":9963,"Ġbentuknya":9964,"Label":9965,"Ġbakat":9966,"Ġlezat":9967,"Hotel":9968,"Ġkeadilan":9969,"ĠPublik":9970,"narkan":9971,"Ġbettor":9972,"urian":9973,"ĠLatar":9974,"ĠJohn":9975,"Hati":9976,"Ġapartemen":9977,"Ġkesimpulan":9978,"ĠNusa":9979,"xx":9980,"Ġitem":9981,"semb":9982,"istensi":9983,"sil":9984,"Ġmanapun":9985,"adat":9986,"agon":9987,"KON":9988,"ĠDay":9989,"ĠNon":9990,"Ġngeb":9991,"rencana":9992,"Ġpenjaga":9993,"Ġpadaku":9994,"Ġasupan":9995,"ĠWalikota":9996,"Ġramuan":9997,"Ġlainya":9998,"pin":9999,"aktifkan":10000,"Ġdesign":10001,"AGI":10002,"Ġirit":10003,"Ġdikirimkan":10004,"tegr":10005,"ĠAnggaran":10006,"Ġjus":10007,"Ġmemaksa":10008,"ĠTema":10009,"ehkan":10010,"Ġnorm":10011,"Ġsensasi":10012,"bert":10013,"Kap":10014,"puran":10015,"atik":10016,"zan":10017,"Ġmemohon":10018,"Ġberpuasa":10019,"Ġsb":10020,"KN":10021,"ĠBh":10022,"Ġ39":10023,"ĠDic":10024,"ĠMAS":10025,"Ġantu":10026,"ektorat":10027,"ĠRupiah":10028,"Ġbali":10029,"Ġhead":10030,"Ġwindows":10031,"ĠMatematika":10032,"Ġsopan":10033,"Ġbandingkan":10034,"Ġmenyerup":10035,"ĠBij":10036,"Ġberfikir":10037,"ahah":10038,"eseorang":10039,"Ġkritis":10040,"gantungan":10041,"alifikasi":10042,"ĠTotal":10043,"ĠMart":10044,"ĠRese":10045,"ĠKAR":10046,"Ġrobot":10047,"Ġperpustakaan":10048,"Ġkesib":10049,"ĠKursi":10050,"Ġhosting":10051,"ĠGigi":10052,"ube":10053,"Ġsilat":10054,"Ġdiaw":10055,"atis":10056,"ĠGem":10057,"asannya":10058,"Ġsiapkan":10059,"idato":10060,"reng":10061,"mau":10062,"Agar":10063,"drop":10064,"anusiaan":10065,"senang":10066,"cial":10067,"ilir":10068,"Ġseke":10069,"ĠNanah":10070,"ĠIngat":10071,"ĠHalaman":10072,"ĠSpe":10073,"ĠPerj":10074,"ĠMacam":10075,"ĠTok":10076,"ĠPakai":10077,"aaaa":10078,"ĠTau":10079,"Ġsanksi":10080,"Ġteam":10081,"Ġtuanya":10082,"Ġkerjanya":10083,"Ġditempatkan":10084,"aksaan":10085,"njang":10086,"ĠBawah":10087,"betes":10088,"Ġrugi":10089,"ĠTes":10090,"Ġberniat":10091,"ĠVia":10092,"Ġkesal":10093,"dot":10094,"ĠSayangnya":10095,"Ġterbakar":10096,"Ġedisi":10097,"Ġgrafis":10098,"Ġbatin":10099,"ĠKapal":10100,"eleng":10101,"ĠNature":10102,"Ġkeag":10103,"ancam":10104,"Ġsimpan":10105,"Ġberalih":10106,"Ġaduk":10107,"lang":10108,"ĠSI":10109,"Ġmenjalin":10110,"til":10111,"Ġdomestik":10112,"etnam":10113,"ĠPop":10114,"obaan":10115,"Ġdikelola":10116,"ibadah":10117,"Ġ34":10118,"cus":10119,"box":10120,"ĠPold":10121,"Ġseter":10122,"Kar":10123,"Ġngomong":10124,"Ġkuota":10125,"VD":10126,"ĠPolda":10127,"empar":10128,"Ġternak":10129,"andatangani":10130,"Ġlini":10131,"Ġdius":10132,"Ġmembac":10133,"ĠSuci":10134,"Ġperanan":10135,"Ġpenerima":10136,"Ġtabung":10137,"ĠAnus":10138,"Dir":10139,"Ġperdana":10140,"LI":10141,"egoro":10142,"Ġsosialisasi":10143,"ĠGat":10144,"artisipasi":10145,"Ġeksek":10146,"ÙĨ":10147,"Ġungkapnya":10148,"Ġaut":10149,"kep":10150,"ĠTemukan":10151,"dukasi":10152,"Ġkesibukan":10153,"abaran":10154,"Ġberkomentar":10155,"ĠPBB":10156,"umbuhkan":10157,"Ġsupport":10158,"TAN":10159,"incang":10160,"Ġdg":10161,"Ġpupuk":10162,"Ġsertifikat":10163,"utih":10164,"Ġrelevan":10165,"ĠRahasia":10166,"makan":10167,"beli":10168,"cakapan":10169,"Model":10170,"Ġmenjabat":10171,"Ġsyariah":10172,"awinan":10173,"ĠBangunan":10174,"Ġpatah":10175,"ĠPenulis":10176,"Ġjg":10177,"Ġditerbitkan":10178,"abil":10179,"lawan":10180,"KP":10181,"ĠAngel":10182,"cat":10183,"ĠGRATIS":10184,"Ġmemperbesar":10185,"Alat":10186,"Ġmulus":10187,"Ġasyik":10188,"Ġsifatnya":10189,"rasah":10190,"onor":10191,"'.":10192,"ITAS":10193,"UPATEN":10194,"Je":10195,"ĠQuran":10196,"ĠSuriah":10197,"hite":10198,"Ġmelangkah":10199,"ilingi":10200,"eligi":10201,"ĠMetro":10202,"Film":10203,"ĠWon":10204,"rani":10205,"Ġnaskah":10206,"gok":10207,"ĠFasilitas":10208,"ĠGus":10209,"wood":10210,"Ġotomotif":10211,"mig":10212,"Kode":10213,"Ġsedemikian":10214,"ving":10215,"ahih":10216,"ĠDiet":10217,"Ġrumput":10218,"Ġwork":10219,"afal":10220,"Ġpemberitahuan":10221,"eling":10222,"angis":10223,"ANGK":10224,"emuka":10225,"ĠJaringan":10226,"Ġdimaksudkan":10227,"tle":10228,"Ġletak":10229,"Ġmengant":10230,"Ġgudang":10231,"ĠKebudayaan":10232,"Ġsbobet":10233,"Ġaroma":10234,"Ġnyam":10235,"amal":10236,"ĠLED":10237,"Ġkental":10238,"ĠParis":10239,"imanapun":10240,"ĠSoekarno":10241,"arahan":10242,"tt":10243,"Ġpermohonan":10244,"Ġpembicaraan":10245,"Ġpembunuhan":10246,"ĠMenj":10247,"ĠCil":10248,"Baik":10249,"Ġterinfeksi":10250,"Ġmenyuruh":10251,"ooth":10252,"isap":10253,"TU":10254,"ĠCtrip":10255,"Ġkilometer":10256,"luas":10257,"ĠDap":10258,"Ġdiminati":10259,"ĠSultan":10260,"ĠHijau":10261,"ĠTerlebih":10262,"ift":10263,"Ġsalahnya":10264,"41":10265,"ĠKeluar":10266,"Ġtercantum":10267,"Ġplay":10268,"ĠTerdapat":10269,"ĠOm":10270,"Terim":10271,"Ġgubernur":10272,"Ġpenutup":10273,"ĠSm":10274,"Ġmaksudnya":10275,"Ġday":10276,"Ġmenuliskan":10277,"ĠDilakukan":10278,"Ġpelindung":10279,"Ġuntung":10280,"Ġsimple":10281,"Kemb":10282,"Ġpembesar":10283,"Ġsilam":10284,"Ġsenilai":10285,"Ġmenaik":10286,"Ġmenyusui":10287,"ĠFile":10288,"Ġutuh":10289,"urai":10290,"situs":10291,"Ġturnamen":10292,"Ġromantis":10293,"ĠSmart":10294,"Ġberagama":10295,"Ġmembant":10296,"ĠFlash":10297,"Ġbom":10298,"Ġbersalah":10299,"Ġdide":10300,"Ġmengund":10301,"Ġkalori":10302,"ĠKara":10303,"oyal":10304,"ĠStrategi":10305,"Ġantusias":10306,"ĠMatahari":10307,"ĠMB":10308,"Ġmengangg":10309,"ĠHong":10310,"saat":10311,"Ġjawabannya":10312,"ouc":10313,"ĠHUT":10314,"Ġhahaha":10315,"umpur":10316,"Ġtambahkan":10317,"ĠHarian":10318,"Ġ).":10319,"kalo":10320,"ĠUSB":10321,"ĠEp":10322,"dress":10323,"ĠFi":10324,"Ġdian":10325,"ĠTipe":10326,"RT":10327,"Ġkeringat":10328,"Ġberenang":10329,"ĠPembelajaran":10330,"ĠPram":10331,"Ġ1999":10332,"ifi":10333,"ĠKorupsi":10334,"Mari":10335,"ĠKelompok":10336,"alurkan":10337,"Ġdanau":10338,"ugil":10339,"Ġpenguasa":10340,"asio":10341,"Ġemo":10342,"Ġoksigen":10343,"sidi":10344,"etron":10345,"ADI":10346,"Ġ37":10347,"itahu":10348,"ĠWas":10349,"iritual":10350,"wajibkan":10351,"Ġmenyelenggarakan":10352,"indakan":10353,"acu":10354,"Ġsent":10355,"ĠMeninggal":10356,"Ġkeseimbangan":10357,"Ġberteriak":10358,"Ġinstan":10359,"Pemerintah":10360,"uwangi":10361,"kk":10362,"Ġditurunkan":10363,"ĠMaster":10364,"akso":10365,"opsi":10366,"ĠHarapan":10367,"yanto":10368,"ĠOl":10369,"ĠBebas":10370,"MAT":10371,"Ġinteraksi":10372,"Ġsofa":10373,"ĠGen":10374,"Sub":10375,"gasme":10376,"incian":10377,"ritik":10378,"TEM":10379,"Ġsecepat":10380,"Ġstress":10381,"Ġsouvenir":10382,"ĠSystem":10383,"Ġmengusung":10384,"ĠBerkualitas":10385,"ĠManager":10386,"Ġtawaran":10387,"Ġrilis":10388,"Ġdiman":10389,"dz":10390,"Ġras":10391,"ars":10392,"ACA":10393,"Ġsiaran":10394,"ĠKaki":10395,"FF":10396,"Ġstroke":10397,"Ġdlm":10398,"Ġsemesta":10399,"Ġucapkan":10400,"ĠAngkatan":10401,"ĠInsya":10402,"uble":10403,"ĠKecantikan":10404,"ĠKepada":10405,"Ġterwujud":10406,"Ġmenyerupai":10407,"anga":10408,"Ġsejenak":10409,"Ġjilbab":10410,"Ġmenunjang":10411,"betul":10412,"Ġmenghubungkan":10413,".)":10414,"Ġekonom":10415,"ĠKABUPATEN":10416,"Ġgitar":10417,"ĠKudus":10418,"Ġcampur":10419,"ĠBib":10420,"Ġbid":10421,"ĠPLN":10422,"ĠPeme":10423,"ĠTiba":10424,"Ġsensor":10425,"Ġkecerd":10426,"Ġbest":10427,"Ġpep":10428,"Ġtruk":10429,"Ġmulti":10430,"Ġna":10431,"Ġbursa":10432,"aduk":10433,"Ġseandainya":10434,"can":10435,"ĠHampir":10436,"Ġportal":10437,"Ġmengas":10438,"ĠRedmi":10439,"Ġbendera":10440,"Ġdiajukan":10441,"syat":10442,"Ġmakalah":10443,"TENTANG":10444,"ĠEks":10445,"Ġkerabat":10446,"Ġmenyebarkan":10447,"ĠPutra":10448,"Ġkutu":10449,"ftar":10450,"dha":10451,"ĠSyah":10452,"aen":10453,"Ġtawarkan":10454,"adukan":10455,"ĠMini":10456,"juang":10457,"aktur":10458,"BET":10459,"Ġpantat":10460,"ĠDini":10461,"Ġutang":10462,"PAT":10463,"yakini":10464,"vil":10465,"Ġtunai":10466,"ĠJitu":10467,"ĠOffice":10468,"Ġpremium":10469,"Ġberan":10470,"Hadi":10471,"ĠChar":10472,"Ġperihal":10473,"ĠCiri":10474,"format":10475,"atuhkan":10476,"Ġkomisi":10477,"Ġberlatih":10478,"Ġbook":10479,"aksimalkan":10480,"MAN":10481,"ĠKuliah":10482,"anjak":10483,"estinya":10484,"contoh":10485,"Ġmenghal":10486,"ublic":10487,"Kategori":10488,"lek":10489,"Ġnyaris":10490,"Ġkart":10491,"ĠOriginal":10492,"ox":10493,"ÙĬ":10494,"Ġperbandingan":10495,"Ġpahala":10496,"Ġpembinaan":10497,"Ġdihadiri":10498,"Ġeksk":10499,"Ġpenglihatan":10500,"ĠBRI":10501,"usul":10502,"Ġbunyi":10503,"Ġ64":10504,"ĠPayudara":10505,"Ġaudio":10506,"Ġmenyerap":10507,"ĠBukit":10508,"acak":10509,"Ġplayer":10510,"ĠPengiriman":10511,"Ġmembuatku":10512,"ĠNov":10513,"arai":10514,"ukota":10515,"ĠYoutube":10516,"ĠMerek":10517,"ĠSari":10518,"Ġkakinya":10519,"ĠPerkembangan":10520,"Ġlapar":10521,"Ġsharing":10522,"Ġterlengkap":10523,"yam":10524,"Ġilmuwan":10525,"ĠCV":10526,"ĠLucu":10527,"ingkuh":10528,"IMA":10529,"Tentu":10530,"Ġmenempati":10531,"gabungkan":10532,"Mat":10533,"atalkan":10534,"agement":10535,"hel":10536,"Ġsarankan":10537,"Ġjejak":10538,"ifat":10539,"andra":10540,"ĠMama":10541,"eliharaan":10542,"tasiun":10543,"gunungan":10544,"Ġterhindar":10545,"berita":10546,"ĠPekanbaru":10547,"onic":10548,"ONAL":10549,"Ġlarangan":10550,"ĠIbrahim":10551,"Ġdibayar":10552,"Ġstar":10553,"Ġdefinisi":10554,"dekah":10555,"lymp":10556,"Ġanggap":10557,"angannya":10558,"Ġsemi":10559,"ĠJati":10560,"Ġmenonjol":10561,"Ġmenghemat":10562,"Ġkerajinan":10563,"ĠPendapat":10564,"anggaan":10565,"ĠÂ·":10566,"ĠMap":10567,"ĠPAS":10568,"omodasi":10569,"Ġtanggapan":10570,"Ġtv":10571,"Benar":10572,"Ġbandung":10573,"Ġaktor":10574,"Ġmenakjubkan":10575,"Ġoral":10576,"Ġemb":10577,"Ġtemannya":10578,"Ø§ÙĦ":10579,"ĠRAH":10580,"Ġkelen":10581,"reat":10582,"Ġasap":10583,"Permainan":10584,"ĠMenulis":10585,"ebaskan":10586,"uge":10587,"ĠPosisi":10588,"Ġdurasi":10589,"ĠPrak":10590,"utif":10591,"Kons":10592,"Bagian":10593,"ĠMuseum":10594,"Ġmengamankan":10595,"68":10596,"ilikan":10597,"Man":10598,"ayanya":10599,"merce":10600,"Ġsipil":10601,",...":10602,"Ġdipengaruhi":10603,"unggah":10604,"ĠAsuransi":10605,"ativitas":10606,"jok":10607,"ĠAhli":10608,"Ġberbahasa":10609,"Ġgam":10610,"ĠAsam":10611,"ĠGl":10612,"zon":10613,"Ġmetab":10614,"Ġpane":10615,"ĠInstitu":10616,"Ġ2002":10617,"siap":10618,"Privasi":10619,"elahan":10620,"ÙĪ":10621,"ĠKont":10622,"Ġseimbang":10623,"Ġmelintasi":10624,"Ġkembang":10625,"ĠHIV":10626,"abisan":10627,"43":10628,"Ġpenginapan":10629,"Ġtertinggal":10630,"bisnis":10631,"ingginya":10632,"Ġhas":10633,"onegoro":10634,"ominasi":10635,"Ġbimbingan":10636,"Ġuk":10637,"Ġdiap":10638,"play":10639,"Pendidikan":10640,"ĠPengaw":10641,"Ġdisusun":10642,"opa":10643,"Ġimam":10644,"ĠBambang":10645,"Ġjualan":10646,"Ġpengakuan":10647,"Ġpencapaian":10648,"Ġzakat":10649,"Ġpembers":10650,"ĠKES":10651,"Ġumroh":10652,"Ġgul":10653,"untah":10654,"Terimakasih":10655,"ĠPemerintahan":10656,"Ġrezeki":10657,"Ġ06":10658,"Ġdiku":10659,"Ġtembak":10660,"jemahkan":10661,"gt":10662,"Ġblack":10663,"darat":10664,"ĠBursa":10665,"ĠDepartemen":10666,"Ġjelek":10667,"rystal":10668,"Kemen":10669,"Ġkemiskinan":10670,"angkali":10671,"Sangat":10672,"Ġmemerintahkan":10673,"Ġmasker":10674,"ĠPopuler":10675,"ĠRus":10676,"EWS":10677,"ĠSU":10678,"Ġkontribusi":10679,"Menge":10680,"sumber":10681,"ĠHujan":10682,"Ġawak":10683,"Ġternama":10684,"idrat":10685,"ĠAsal":10686,"dosis":10687,"ĠPerawatan":10688,"Ġdinikmati":10689,"Ġlamaran":10690,"Ġmeyakinkan":10691,"gerakkan":10692,"Ġpersonal":10693,"ĠBCA":10694,"ndaftar":10695,"Ġdie":10696,"ekt":10697,"Ġjack":10698,"Ġdimakan":10699,"Ġpermanen":10700,"Ġbeton":10701,"oi":10702,"Ġnasabah":10703,"Ġmanfaatnya":10704,"Ġbuta":10705,"Lokasi":10706,"ĠTor":10707,"dahul":10708,"Ġmengukur":10709,"RL":10710,"Ġseluas":10711,"ODUK":10712,"ĠPERATURAN":10713,"anggapan":10714,"ĠSony":10715,"Ġapel":10716,"onfirmasi":10717,"Ġmerangk":10718,"act":10719,"cahan":10720,"Baru":10721,"jaring":10722,"ĠGudang":10723,"Ġshop":10724,"landia":10725,"ekal":10726,"Ġantioksidan":10727,"Ġsayap":10728,"Ġtingkah":10729,"Ġmengejutkan":10730,"Ġtinggalkan":10731,"Ġpelabuhan":10732,"Ġnelayan":10733,"Ġseterusnya":10734,"Ġliter":10735,"car":10736,"ĠGold":10737,"ĠNonton":10738,"Ġkader":10739,"Ġmelancarkan":10740,"Ġnga":10741,"Ġstreaming":10742,"Hukum":10743,"Ġpedas":10744,"Ġml":10745,"ewe":10746,"Ġmaster":10747,"ASIH":10748,"Ġmemf":10749,"irtual":10750,"ĠEnergi":10751,"Ġpesantren":10752,"ound":10753,"Ġtsb":10754,"ĠCirebon":10755,"boh":10756,"Ġporsi":10757,"Ġoknum":10758,"sey":10759,"ĠMun":10760,"now":10761,"Ġdialog":10762,"alth":10763,"Ġsekeliling":10764,"alisasikan":10765,"Ġbij":10766,"Ġmengklaim":10767,"Ġ^^":10768,"ĠMengetahui":10769,"Ġhiper":10770,"Ġnulis":10771,"tec":10772,"Ġmenghilang":10773,"ĠKarang":10774,"2011":10775,"ĠADA":10776,"oucher":10777,"Ġpanen":10778,"ĠGag":10779,"uturkan":10780,"ĠPondok":10781,"Ġmemecahkan":10782,"Ġjumpa":10783,"hentikan":10784,"Ġ55":10785,"Ġmenghormati":10786,"Ġanime":10787,"ĠRel":10788,"ibli":10789,"Ġsajikan":10790,"Ġmenteri":10791,"ĠBed":10792,"amer":10793,"Ġmemotong":10794,"Ġawet":10795,"Ġsayangnya":10796,"apore":10797,"esuaian":10798,"ĠTamu":10799,"unculkan":10800,"Ġra":10801,"ĠYusuf":10802,"ĠTerimakasih":10803,"Ġbubuk":10804,"dakwa":10805,"Ġdarat":10806,"Ketua":10807,"Ġkeluaran":10808,"UI":10809,"Ġseekor":10810,"ĠBunda":10811,"ĠYaitu":10812,"Jumlah":10813,"Ġdistribusi":10814,"Ġtanam":10815,"buahan":10816,"sense":10817,"omunikasi":10818,"ĠMencari":10819,"wo":10820,"Ġmenghambat":10821,"ĠPAN":10822,"ĠOlymp":10823,"ĠGolkar":10824,"Ġ03":10825,"Ġteb":10826,"wayatkan":10827,"makasih":10828,"Ġmeletakkan":10829,"ĠAdministrasi":10830,"Ġhijab":10831,"Ġmutlak":10832,"Ġ48":10833,"ĠBurung":10834,"Ġpered":10835,"ĠDj":10836,"Ġmenimpa":10837,"ayasan":10838,"vat":10839,"Ġwal":10840,"Ġlensa":10841,"ĠAkibatnya":10842,"ĠTERK":10843,"ĠYunani":10844,"ĠCream":10845,"kot":10846,"Ġinci":10847,"Ġsumb":10848,"Ġtetep":10849,"mbalikan":10850,"plate":10851,"ĠBack":10852,"Ġtercinta":10853,"Ġdiserahkan":10854,"stan":10855,"Ġbermakna":10856,"olisme":10857,"Ġenggan":10858,"ĠLantai":10859,"Im":10860,"Ġkomodi":10861,"Ġdikabarkan":10862,"ĠBoy":10863,"rem":10864,"Ġketerl":10865,"ĠEng":10866,"Ġberdasar":10867,"posal":10868,"Ġberkali":10869,"Ġmembakar":10870,"Ġbody":10871,"Or":10872,"ĠPerangkat":10873,"Ġsendi":10874,"Ġverifikasi":10875,"ĠKL":10876,"Ġgal":10877,"Ġperdarahan":10878,"ols":10879,"agnosis":10880,"Pria":10881,"ĠDavid":10882,"visor":10883,"ngkapan":10884,"tanggung":10885,"ĠKTP":10886,"ristian":10887,"NG":10888,"Ġseper":10889,"DANG":10890,"Ġdidasarkan":10891,"Ġpiala":10892,"optim":10893,"paru":10894,"Ġmenekankan":10895,"Ġpembengk":10896,"Ġtimnas":10897,"itip":10898,"Ġikhlas":10899,"Ġkayaknya":10900,"Ġsepakat":10901,"Ġrentan":10902,"ĠSungguh":10903,"tifkan":10904,"Ġdilepas":10905,"Ġget":10906,"Ġkecerdasan":10907,"Ġdisamping":10908,"cantik":10909,"Ġnam":10910,"nies":10911,"Ġbunda":10912,"ĠKing":10913,"ĠSekretaris":10914,"Ġsebabnya":10915,"Ġpir":10916,"Ġbertaruh":10917,"Ġmendidik":10918,"ĠPanduan":10919,"intanya":10920,"olek":10921,"ĠTante":10922,"Ġdibantu":10923,"ĠSIS":10924,"core":10925,"Salam":10926,"ĠMEL":10927,"Mar":10928,"Ġberpartisipasi":10929,"Ġprajurit":10930,"Ġtambang":10931,"abe":10932,"Ġmenaikkan":10933,"Ġregistrasi":10934,"kesmas":10935,"Ġwaspada":10936,"Ġterbarunya":10937,"ĠYoung":10938,"Ġmentah":10939,"ĠJepara":10940,"Ġekstra":10941,"zim":10942,"Ġkakek":10943,"Ġdatabase":10944,"........":10945,"Ġmenuturkan":10946,"ĠPintu":10947,"bulan":10948,"SEL":10949,"antina":10950,"ology":10951,"ĠIt":10952,"Nex":10953,"====":10954,"Ġacuan":10955,"Ġmudik":10956,"ĠAq":10957,"GM":10958,"Ġsurvei":10959,"Ġapresiasi":10960,"Ġsuar":10961,"untun":10962,"zo":10963,"ĠSyarat":10964,"Ġgar":10965,"ĠKurang":10966,"Ġformulir":10967,"ario":10968,"buat":10969,"usuri":10970,"nernya":10971,"Ġditambahkan":10972,"lementasi":10973,"ĠJatim":10974,"!!!!":10975,"ĠBalai":10976,"door":10977,"ĠPoint":10978,"bas":10979,"weet":10980,"ĠBir":10981,"mungkin":10982,"Ġmemutar":10983,"ĠDiabetes":10984,"ĠEmpat":10985,"Ġdinamakan":10986,"asing":10987,"Ġkandung":10988,"Ġberibadah":10989,"Ġdiperbolehkan":10990,"ĠDid":10991,"wira":10992,"Ġalkohol":10993,"Ġhutang":10994,"Ġsedap":10995,"ĠKITA":10996,"Ġberbau":10997,"ĠBerdarah":10998,"ribun":10999,"Tujuan":11000,"ray":11001,"ĠKurikulum":11002,"uasi":11003,"ditor":11004,"usianya":11005,"ĠKomunitas":11006,"_^":11007,"Ġbertentangan":11008,"Ġdibiarkan":11009,"ĠPerguruan":11010,"Ġkoran":11011,"Ġkedepan":11012,"tizen":11013,"hip":11014,"ĠPribadi":11015,"Kini":11016,"ĠUlama":11017,"Ġcuman":11018,"Ġditangani":11019,"ĠBiar":11020,"ĠPersib":11021,"angen":11022,"ĠCARA":11023,"ASIL":11024,"Ġbersemangat":11025,"umentasi":11026,"Ġtuntas":11027,"angkir":11028,"wakan":11029,"Ġinstrumen":11030,"uban":11031,"PENG":11032,"ontinue":11033,"riks":11034,"bohidrat":11035,"Ġdisekitar":11036,"atta":11037,"ĠRatu":11038,"ĠRaf":11039,"ĠSyariah":11040,"Ġdisiapkan":11041,"ĠTeb":11042,"Ġmie":11043,"nti":11044,"ĠVersi":11045,"ĠSepanjang":11046,"Ġmencuci":11047,"Ġfolder":11048,"Ġkerjakan":11049,"ĠKB":11050,"ĠKadang":11051,"ĠLewat":11052,"Ġnis":11053,"Ġmembicarakan":11054,"atukan":11055,"Ġste":11056,"Ġpedoman":11057,"ĠMaluku":11058,"ĠJauh":11059,"Ġhun":11060,"ando":11061,"ĠMantan":11062,"Ġaccount":11063,"Demikianlah":11064,"oki":11065,"ĠInvestasi":11066,"ĠPengalaman":11067,"Ġsusunan":11068,"ĠKandungan":11069,"Ġpahlawan":11070,"ĠKontak":11071,"rangi":11072,"fan":11073,"*)":11074,"oleksi":11075,"Ġskill":11076,"ĠSain":11077,"Ġpatung":11078,"Bahan":11079,"Ġpenyebaran":11080,"Halaman":11081,"aser":11082,"inansial":11083,"Ġberjanji":11084,"mbalian":11085,"Cek":11086,"Ġdeb":11087,"Ġtump":11088,"Ġnikmati":11089,"Ġmenembus":11090,"ĠPegawai":11091,"ĠLahir":11092,"ĠPonsel":11093,"ĠPelatihan":11094,"ODE":11095,"quran":11096,"Ġabis":11097,"Ġtimnya":11098,"Ġterjamin":11099,"Ġrahmat":11100,"Ġperadaban":11101,"Ġberisti":11102,"nih":11103,"Ġgede":11104,"Ġrok":11105,"ĠKetiga":11106,"Kumpulan":11107,"Ġkoordinasi":11108,"acking":11109,"Ġkeberuntungan":11110,"Ġberlebih":11111,"Ġpm":11112,"Ġberfirman":11113,"Ġminus":11114,"Ġtercapai":11115,"Ġmonitor":11116,"ĠSusu":11117,"Next":11118,"Ġpopular":11119,"Ġekstrak":11120,"ĠDri":11121,"Cinta":11122,"ĠRespon":11123,"Ġsocial":11124,"Ġboneka":11125,"cc":11126,"genap":11127,"ĠLas":11128,"ĠPersi":11129,"ĠPeluang":11130,"lalu":11131,"IDIKAN":11132,"ĠTom":11133,"utra":11134,"Ġkesatuan":11135,"ĠMod":11136,"Air":11137,"rong":11138,"Ġbutir":11139,"Ġpertolongan":11140,"reak":11141,"ĠAksi":11142,"Ġgabungan":11143,"Ġjin":11144,"ĠMaaf":11145,"Ġsunnah":11146,"come":11147,"ĠPuasa":11148,"SK":11149,"ĠDanau":11150,"Ġsd":11151,"rbitkan":11152,"Ġinstitusi":11153,"ĠGa":11154,"Temukan":11155,"ĠMT":11156,"ĠIstana":11157,"Ġ0812":11158,"akunya":11159,"Ġ04":11160,"ĠMemberikan":11161,"Ġflu":11162,"And":11163,"ĠMr":11164,"udu":11165,"aborasi":11166,"Em":11167,"Ġrindu":11168,"Ġperkeb":11169,"ĠBM":11170,"PN":11171,"ĠHakim":11172,"Ġpelaksana":11173,"ĠAbdullah":11174,"Mis":11175,"fum":11176,"ĠDistributor":11177,"Ġpagar":11178,"petisi":11179,"ĠSepeda":11180,"temukan":11181,"Dok":11182,"sep":11183,"alisa":11184,"Ġstand":11185,"Ġhanduk":11186,"yyah":11187,"FC":11188,"Ġqu":11189,"Ġpengamatan":11190,"ĠTir":11191,"ĠSpesi":11192,"Web":11193,"oleskan":11194,"Ġmengakhiri":11195,"ujukan":11196,"buru":11197,"Ġsembari":11198,"ipi":11199,"ĠANAK":11200,"ĠTangkas":11201,"Ġngobrol":11202,"cal":11203,"Ġmakanya":11204,"Ġhawa":11205,"ĠGan":11206,"ĠKey":11207,"Ġtumor":11208,"ĠTanya":11209,"ĠLima":11210,"ĠDemokrat":11211,"Ġplanet":11212,"Ġpa":11213,"Ġ2001":11214,"Ġjagung":11215,"Ġfungsinya":11216,"Ġperahu":11217,"Ġkekebalan":11218,"Ġkeke":11219,"ĠPenye":11220,"Ġnye":11221,"graf":11222,"ble":11223,"Ġpadi":11224,"rain":11225,"Ġmelewatkan":11226,"Ġrumus":11227,"ky":11228,"Ġpoten":11229,"ĠAlkitab":11230,"Ġing":11231,"ayasa":11232,"grade":11233,"otaan":11234,"Ġsiklus":11235,"Kembali":11236,"ĠSER":11237,"ĠOf":11238,"ohan":11239,"ĠCup":11240,"Ġpengumuman":11241,"ĠBerbeda":11242,"Ġdipergunakan":11243,"ĠEt":11244,"duc":11245,"ĠES":11246,"Ġmuslimin":11247,"akitan":11248,"ĠHilang":11249,"Ġsyah":11250,"Ġfir":11251,"Ġtong":11252,"Ġkronis":11253,"Ġtante":11254,"Ġmad":11255,"Ġstatistik":11256,"YAK":11257,"stat":11258,"apor":11259,"Ġkokoh":11260,"disinya":11261,"hitungkan":11262,"Ġpengelola":11263,"--------":11264,"ĠMarketplace":11265,"Sen":11266,"Ġbermasalah":11267,"ĠGlobal":11268,"ĠDrama":11269,"Ġtemplate":11270,"Ġpengantin":11271,"Ġkarang":11272,"ĠMembeli":11273,"51":11274,"ĠKang":11275,"ĠJung":11276,"Ġkorea":11277,"ĠGue":11278,"Ġpakan":11279,"ĠPerdagangan":11280,"ĠATM":11281,"Ġ120":11282,"Ġjalannya":11283,"ĠUc":11284,"Ġongkos":11285,"ĠTERBARU":11286,"Ġlaba":11287,"sampai":11288,"ĠPerbedaan":11289,"Ġlamanya":11290,"Ġpemegang":11291,"Ġmencium":11292,"Ġperkebunan":11293,"Ġlim":11294,"nazah":11295,"ulihkan":11296,"ĠMessi":11297,"che":11298,"Ġditingg":11299,"Judi":11300,"interaksi":11301,"Ġkualifikasi":11302,"Ġjadinya":11303,"Ġsantri":11304,"oman":11305,"vensi":11306,"Ġlangka":11307,"JK":11308,"ĠFar":11309,"Ġterbe":11310,"CTV":11311,"urt":11312,"ĠFilipina":11313,"Ġsuplemen":11314,"ĠLes":11315,"Ġucapnya":11316,"Visi":11317,"Ġprosesor":11318,"adw":11319,"Sejarah":11320,"gger":11321,"ĠDaging":11322,"Ġdimas":11323,"Ġspesies":11324,"ĠRencana":11325,"Ġkursus":11326,"dip":11327,"Ġberlokasi":11328,"dollar":11329,"rum":11330,"Ġmempromosikan":11331,"Ġdiajarkan":11332,"ĠOption":11333,"Layanan":11334,"Ġharapkan":11335,"Ġpencipta":11336,"Ġherpes":11337,"ĠJun":11338,"ebrit":11339,"Ġberser":11340,"kamah":11341,"Ġdiyakini":11342,"arannya":11343,"Ġdihitung":11344,"Ġcan":11345,"Ġterbagi":11346,"Ġsambung":11347,"Ġberjumlah":11348,"Ġkontol":11349,"Ġsentuhan":11350,"Ġdiragukan":11351,"Ġterti":11352,"EDI":11353,"gerti":11354,"Ġpersahabatan":11355,"Email":11356,"Ġinstalasi":11357,"Ġblok":11358,"ĠFat":11359,"alisir":11360,"inho":11361,"otanya":11362,"ondong":11363,"antasan":11364,"Ġhatiku":11365,"Ġdiselesaikan":11366,"tive":11367,"turan":11368,"Ġdial":11369,"Ġlisan":11370,"Ġsob":11371,"Ġmena":11372,"adalah":11373,"Ne":11374,"Ġdrop":11375,"irasi":11376,"ĠJurusan":11377,"Ġ05":11378,"Ġau":11379,"Ġpetern":11380,"title":11381,"Kali":11382,"ĠBPJS":11383,"Ġgrosir":11384,"angkalan":11385,"UDAH":11386,"apis":11387,"sak":11388,"ĠTahan":11389,"ĠLet":11390,"astian":11391,"AMAT":11392,"kanlah":11393,"Go":11394,"ĠDewa":11395,"Ġgenus":11396,"wijaya":11397,"Sebagian":11398,"Ġdosis":11399,"kh":11400,"jal":11401,"ilo":11402,"ilainya":11403,"Ġberge":11404,"ĠIsti":11405,"Ġpedang":11406,"Ġder":11407,"Ġsemenjak":11408,"ĠBegini":11409,"Lanjut":11410,"Kabar":11411,"siden":11412,"Arti":11413,"bedakan":11414,"Ġkemanusiaan":11415,"Ġbernilai":11416,"nyap":11417,"ĠVietnam":11418,"Ġguy":11419,"ern":11420,"ĠWin":11421,"54":11422,"ĠTrade":11423,"lomba":11424,"orer":11425,"Tags":11426,"Ġfurniture":11427,"ĠRob":11428,"ĠKebe":11429,"Ġserviks":11430,"novo":11431,"ĠKERJA":11432,"ahnya":11433,"ĠOK":11434,"IDS":11435,"Ġpenja":11436,"ulator":11437,"Ġnapas":11438,"Ġpenyelesaian":11439,"uel":11440,"undangan":11441,"Ġpam":11442,"ĠRid":11443,"nta":11444,"ĠTutorial":11445,"Ġbelah":11446,"Ġpembagian":11447,"ĠBest":11448,"elidikan":11449,"Ġmengeksp":11450,"dependen":11451,"Ġseluruhnya":11452,"ĠSurya":11453,"Ġmemek":11454,"Ġtangguh":11455,"Ġret":11456,"Ġlag":11457,"Ġaktiv":11458,"angkangan":11459,"jan":11460,"ĠSilakan":11461,"ĠUst":11462,"ĠWir":11463,"Ġmenantang":11464,"ĠVan":11465,"ĠAlloh":11466,"Ġmembayangkan":11467,"aaa":11468,"ĠPengguna":11469,"Ġlendir":11470,"upas":11471,"hae":11472,"Ġbagaikan":11473,"Presiden":11474,"ĠHu":11475,"Ġdiare":11476,"ĠBad":11477,"Ġdollar":11478,"ical":11479,"Ġiklim":11480,"ĠGaransi":11481,"ize":11482,"ĠKonsep":11483,"ĠBNI":11484,"Ġbakalan":11485,"Ġrekaman":11486,"ĠTrump":11487,"ĠProduksi":11488,"ĠJerawat":11489,"Tanda":11490,"Ġserial":11491,"Ġbangku":11492,"Ġseraya":11493,"okerto":11494,"ĠMUR":11495,"ĠPre":11496,"Ġpengadaan":11497,"ĠSBY":11498,"ĠMall":11499,"Ġlingkaran":11500,"ĠIQ":11501,"Ġrec":11502,"UU":11503,"Ġkoperasi":11504,"ĠMemp":11505,"carat":11506,"Ġrekor":11507,"Ġbaga":11508,"Ġwali":11509,"Ġsearch":11510,"Ġdijumpai":11511,"Ġmenampung":11512,"otek":11513,"Ġkesabaran":11514,"Ġdisaat":11515,"UNIA":11516,"inder":11517,"utrad":11518,"Ġnatural":11519,"Ġbatasan":11520,"Ġmerencanakan":11521,"Ġepisode":11522,"masa":11523,"Ġakademik":11524,"Ġprinter":11525,"ef":11526,"ĠDh":11527,"Ib":11528,"Ġkelenjar":11529,"Ġasa":11530,"ewakan":11531,"Ġdicoba":11532,"Ġberputar":11533,"ipat":11534,"Ùĩ":11535,"ĠSDM":11536,"rome":11537,"Ġhikmah":11538,"ATU":11539,"Ġgerbang":11540,"Ġgames":11541,"Ġcacat":11542,"ĠZen":11543,"Ġcadangan":11544,"olakan":11545,"Ġmengenali":11546,"Ġest":11547,"Ġbb":11548,"idoarjo":11549,"ĠTersedia":11550,"xel":11551,"Ġsebatas":11552,"ĠAlbum":11553,"Ġmantap":11554,"kal":11555,"Ġdituntut":11556,"Ġpenal":11557,"Ġmenyusul":11558,"Ġyoutube":11559,"Ġpersalinan":11560,"dali":11561,"Ġtuturnya":11562,"Sil":11563,"Ġkeliling":11564,"Ġkepadaku":11565,"aden":11566,"ĠStasiun":11567,"Suatu":11568,"Ġvendor":11569,"elektual":11570,"buk":11571,"Ġhaid":11572,"Ġhidangan":11573,"Ġdewa":11574,"Ġaksesoris":11575,"warnai":11576,"Ġular":11577,"TOR":11578,"otot":11579,"Ġmodifikasi":11580,"Ġtukar":11581,"Ġmenemani":11582,"Ġkapsul":11583,"Ġmenaruh":11584,"wenangan":11585,"ĠWalau":11586,"Ġdibidang":11587,"oleransi":11588,"Ġkeagamaan":11589,"TAK":11590,"Ġhubungannya":11591,"ĠSyi":11592,"Ġintens":11593,"rman":11594,"Ġruk":11595,"ĠIC":11596,"opyright":11597,"ĠFran":11598,"ĠNya":11599,"Ġketersediaan":11600,"ĠâĢ¦.":11601,"ĠBOLA":11602,"Ġlegal":11603,"Ã©":11604,"Wahai":11605,"ĠMembantu":11606,"upu":11607,"Ġmengacu":11608,"Ġkelima":11609,"Ġterjemahan":11610,"gs":11611,"Ġterkemuka":11612,"FORM":11613,"ited":11614,"ĠManado":11615,"ĠKelapa":11616,"Ġtenggelam":11617,"ĠHutan":11618,"Tanpa":11619,"Ġfac":11620,"faktor":11621,"ulin":11622,"BN":11623,"ĠMoh":11624,"Ġmerangsang":11625,"Kas":11626,"Ġteliti":11627,"Ġvagin":11628,"ĠMadinah":11629,"Ġberaneka":11630,"Ġmengarahkan":11631,"ĠPortu":11632,"Ġinsya":11633,"Str":11634,"ĠAyat":11635,"aruan":11636,"Ġkabur":11637,"taf":11638,"ĠMenurutnya":11639,"Ġpembuangan":11640,"Ġidentik":11641,"reg":11642,"Ġmembesar":11643,"Ġsampel":11644,"Hidup":11645,"Gejala":11646,"Ġhaha":11647,"Ġdiartikan":11648,"Panduan":11649,"Ġsari":11650,"Ant":11651,"ĠGaruda":11652,"orn":11653,"Ġradikal":11654,"Ġterendah":11655,"paper":11656,"ĠYayasan":11657,"Ġikutan":11658,"Ġpopulasi":11659,"sunami":11660,"riminal":11661,"Ġberkah":11662,"67":11663,"ĠBanyuwangi":11664,"ild":11665,"uburan":11666,"kl":11667,"Ġangkutan":11668,"Ġpertamanya":11669,"Ġbercinta":11670,"Ġseber":11671,"ilmu":11672,"ĠMusa":11673,"Ġpertempuran":11674,"Ġmelekat":11675,"ĠCeme":11676,"ajat":11677,"Ġtud":11678,"orak":11679,"TC":11680,"ĠLum":11681,"ĠNU":11682,"EAN":11683,"jakarta":11684,"ĠBARU":11685,"Ġhandal":11686,"Ġmenunjuk":11687,"ĠRibu":11688,"mener":11689,"hiasan":11690,"asai":11691,"ĠKaos":11692,"ikkan":11693,"ĠBerp":11694,"Ġdarurat":11695,">>":11696,"ĠBoc":11697,"Ġtuhan":11698,"anyikan":11699,"ness":11700,"Ġbersiap":11701,"Ġritual":11702,"nC":11703,"Ġcincin":11704,"ĠPemula":11705,"ĠWest":11706,"Berbagai":11707,"dex":11708,"unes":11709,"Ġpra":11710,"ĠPerjanjian":11711,"Ġberkisar":11712,"ĠUmroh":11713,"Ġmendesak":11714,"Ġsela":11715,"embuhkan":11716,"ĠPsik":11717,"rimin":11718,"ful":11719,"ĠLomba":11720,"Melihat":11721,"Ġperadangan":11722,"Mobil":11723,"Ġdiw":11724,"iliran":11725,"ĠMaria":11726,"onstr":11727,"?.":11728,"ĠCatatan":11729,"Ġcall":11730,"Ġkesana":11731,"ĠCip":11732,"Ġtelapak":11733,"65":11734,"aitun":11735,"empah":11736,"yeon":11737,"ĠApotik":11738,"Ġsegmen":11739,"ĠNanti":11740,"Ġpelajari":11741,"ĠMAHA":11742,"ĠCik":11743,"Ġpinggang":11744,"ĠKepolisian":11745,"uncur":11746,"Ġmeman":11747,"KS":11748,"orter":11749,"Ġjelaskan":11750,"isnya":11751,"ĠSeputar":11752,"Ġdibuktikan":11753,"umbang":11754,"ution":11755,"Ġperg":11756,"Ġpolos":11757,"Ġkunjung":11758,"servasi":11759,"Atau":11760,"tick":11761,"ĠJong":11762,"Ġmengag":11763,"ĠKA":11764,"ĠKus":11765,"Ġsaud":11766,"ĠRapat":11767,"INTA":11768,"ason":11769,"Ġmenggel":11770,"Ġmenguji":11771,"ĠMampu":11772,"Ġmerebut":11773,"ĠPolsek":11774,"Ġsawit":11775,"Ġangkatan":11776,"Pengobatan":11777,"imak":11778,"ĠNarkoba":11779,"tualangan":11780,"ĠPakaian":11781,"Ġmengolah":11782,"ores":11783,"ĠCok":11784,"Ġkenyataannya":11785,"inggalan":11786,"Ġbudget":11787,"PAS":11788,"Ġhadis":11789,"EA":11790,"fik":11791,"Ġpanel":11792,"asilitasi":11793,"emasan":11794,"papan":11795,"lir":11796,"Ġmengamati":11797,"reditasi":11798,"ĠKese":11799,"Ġpenyelenggara":11800,"umu":11801,"ĠBangun":11802,"Ġbertempat":11803,"FI":11804,"Ġdidi":11805,"ĠBahwa":11806,"aksakan":11807,"zal":11808,"perusahaan":11809,"Walaupun":11810,"Ġpersetujuan":11811,"Tar":11812,"Ġanimasi":11813,"ugus":11814,"Ġpengendara":11815,"Desa":11816,"Ġmengulang":11817,"fit":11818,"ĠCabang":11819,"Ġnew":11820,"Ġbukannya":11821,"ition":11822,"Ġjenjang":11823,"ĠQQ":11824,"Ġdemo":11825,"Ġberlibur":11826,"redit":11827,"Pr":11828,"bilitas":11829,"Ġdibalik":11830,"ahat":11831,"ĠPengan":11832,"ĠAyo":11833,"News":11834,"Ġ88":11835,"KRI":11836,"ammad":11837,"Kalo":11838,"III":11839,"injauan":11840,"Ġdiluncurkan":11841,"Tiga":11842,"Ġpipa":11843,"69":11844,"ĠPac":11845,"Ġdiolah":11846,"vious":11847,"Ġajak":11848,"Ġmenumbuhkan":11849,"Ġfleksi":11850,"pergian":11851,"Ġteroris":11852,"Ġharusnya":11853,"Ġdideskripsikan":11854,"ĠTem":11855,"ucian":11856,"itakan":11857,"kami":11858,"deta":11859,"ĠMeja":11860,"ĠHongkong":11861,"ĠArti":11862,"ĠMendaftar":11863,"akak":11864,"Ġberkelanjutan":11865,"Ġpengi":11866,"Ġpercakapan":11867,"Ġpertunjukan":11868,"ĠLapangan":11869,"Ġvariabel":11870,"ĠDenpasar":11871,"Ġjaj":11872,"Ġkehendak":11873,"Ġputusan":11874,"pal":11875,"dubur":11876,"angsungkan":11877,"Ġpemanfaatan":11878,"Sayang":11879,"Ġmendapati":11880,"Ġpensiun":11881,"Ġberjualan":11882,"Ġmenyakitkan":11883,"Ġcemas":11884,"Ġinstall":11885,"Mak":11886,"ĠBA":11887,"Ġlaboratorium":11888,"Ġbalasan":11889,"Ġdominan":11890,"deritanya":11891,"ĠKEM":11892,"Ġdipelajari":11893,"ĠBrasil":11894,"Ġdewan":11895,"::":11896,"ĠPerb":11897,"cekan":11898,"esona":11899,"ĠBos":11900,"Ġ1998":11901,"Ġgroup":11902,"ĠBulu":11903,"Kur":11904,"juangkan":11905,"Ġjodoh":11906,"angkapan":11907,"ĠTERKINI":11908,"emak":11909,"ĠLayar":11910,"nsin":11911,"Ġsesaat":11912,"TIK":11913,"Ġberinteraksi":11914,"aksin":11915,"kons":11916,"hadi":11917,"Ġterluka":11918,"Ġtembok":11919,"ades":11920,"ĠAward":11921,"ĠPKS":11922,"Ġjago":11923,"Ġfrekuensi":11924,"''":11925,"Ġsawah":11926,"asarana":11927,"Ġcover":11928,"ĠKen":11929,"Ġdown":11930,"ĠGarut":11931,"garuh":11932,"ĠSaf":11933,"ĠLiburan":11934,"tisip":11935,"HADA":11936,"tianak":11937,"sifat":11938,"Dapat":11939,"DR":11940,"Struktur":11941,"ĠShop":11942,"ĠSebaliknya":11943,"2010":11944,"Jam":11945,"Ġperairan":11946,"Ġberistirahat":11947,"mak":11948,"Ġengine":11949,"?!":11950,"mos":11951,"Ilmu":11952,"aitkan":11953,"Ġsambut":11954,"Ġbahu":11955,"ombe":11956,"otongan":11957,"Ġsejuk":11958,"ĠHead":11959,"ĠKeamanan":11960,"adaannya":11961,"ĠSunda":11962,"ĠSolusi":11963,"Ciri":11964,"oin":11965,"Pre":11966,"ĠKM":11967,"Ġditunggu":11968,"ntum":11969,"ĠNO":11970,"ĠJul":11971,"Ġ65":11972,"Pernah":11973,"ĠPemkab":11974,"Ġbuaya":11975,"anaman":11976,"ĠDoa":11977,"Menjadi":11978,"ĠPabrik":11979,"rentak":11980,"ally":11981,"alasan":11982,"Ġpaha":11983,"Ġperbatasan":11984,"och":11985,"Ġspiritual":11986,"anggang":11987,"ĠNutrisi":11988,"Ġlukisan":11989,"ĠJaket":11990,"kawan":11991,"bag":11992,"Ġpersegi":11993,"Ġdigan":11994,"CI":11995,"Ġberolahraga":11996,"oroid":11997,"Ġberku":11998,"ĠTeh":11999,"Ġkandi":12000,"Ġmeminum":12001,"ĠBengkulu":12002,"Rah":12003,"Ġamin":12004,"Ġsubur":12005,"Ġmenghibur":12006,"alar":12007,"300":12008,"ĠMenjaga":12009,"ĠAsus":12010,"ĠVitamin":12011,"ĠTuan":12012,"Ġbambu":12013,"Ġperedaran":12014,"angsaan":12015,"Ġpayah":12016,"Ġsemestinya":12017,"Ġetika":12018,"Ġkontras":12019,"Ġmenump":12020,"Mah":12021,"Ġbersumber":12022,"lit":12023,"zab":12024,"oster":12025,"Tube":12026,"Ġabang":12027,"Ġkomposisi":12028,"Ġ600":12029,"draw":12030,"Masalah":12031,"reet":12032,"Ġmetabolisme":12033,"angkitan":12034,"ENA":12035,"ĠGrosir":12036,"ĠBlok":12037,"Ġtercipta":12038,"ĠOpen":12039,"Ġakuntansi":12040,"Ġgairah":12041,"NO":12042,"ĠDesi":12043,"ĠPerl":12044,"Ġpengajaran":12045,"ĠTbk":12046,"omas":12047,"ĠStreaming":12048,"Ġditinggalkan":12049,"Ġsemalam":12050,"Ġkafe":12051,"ungil":12052,"Ġorgasme":12053,"Ġstadium":12054,"Menurutnya":12055,"ĠPam":12056,"Game":12057,"Soal":12058,"ĠArea":12059,"Ġperkiraan":12060,"ĠSemuanya":12061,"Ġmakam":12062,"Ġbukunya":12063,"ĠSemester":12064,"Ġpengembalian":12065,"Ġmenyesal":12066,"pons":12067,"auty":12068,"rakan":12069,"karya":12070,"Ġmembatasi":12071,"ĠStadium":12072,"Ġsesekali":12073,"ĠMc":12074,"Ġnanya":12075,"Ġeksklusif":12076,"Ġdubur":12077,"INAN":12078,"ĠOppo":12079,"orsi":12080,"Mana":12081,"Ġmemat":12082,"acing":12083,"150":12084,"Mesin":12085,"ĠKOTA":12086,"ĠHARGA":12087,"menerus":12088,"uary":12089,"Ġdiraih":12090,"Ġkondom":12091,"Ġmemak":12092,"Ġibarat":12093,"ĠKemampuan":12094,"Ġmendaftarkan":12095,"esitas":12096,"Ġberpindah":12097,"Ġwarisan":12098,"Ġref":12099,"Ġsukar":12100,"omet":12101,"Har":12102,"UDI":12103,"ĠTen":12104,"tekan":12105,"operasikan":12106,"ĠRab":12107,"Ġijin":12108,"Ġwat":12109,"usantara":12110,"otika":12111,"anaknya":12112,"kelompok":12113,"Ġsekelompok":12114,"akh":12115,"bang":12116,"Ġdilahirkan":12117,"ĠDemi":12118,"unikan":12119,"ĠPenerb":12120,"ĠKawasan":12121,"Ġbekal":12122,"ĠAndi":12123,"Ġberkendara":12124,"antar":12125,"Ġemosional":12126,"uw":12127,"ĠPacar":12128,"Ġalih":12129,"ments":12130,"Ġsendirinya":12131,"Ġklaim":12132,"Ġmuseum":12133,"ĠFinal":12134,"CAYA":12135,"Ayo":12136,"vic":12137,"ulau":12138,"Ok":12139,"ĠBra":12140,"ĠFeb":12141,"ĠEuro":12142,"ĠTerutama":12143,"Ġpenyebabnya":12144,"ander":12145,"ĠIL":12146,"ukulan":12147,"ustaka":12148,"Islam":12149,"ĠMerupakan":12150,"Ġtekstur":12151,"Ġsegenap":12152,"uklir":12153,"89":12154,"Hak":12155,"mada":12156,"etas":12157,"Ġseharga":12158,"ĠPertamina":12159,"fect":12160,"veksi":12161,"Ġinstagram":12162,"timpa":12163,"Bergabung":12164,"ĠMadura":12165,"Ġpengendalian":12166,"ĠFB":12167,"kulasi":12168,"ĠAkuntansi":12169,"ĠKendaraan":12170,"Ġkut":12171,"ĠBima":12172,"Ġditunjukkan":12173,"ĠProyek":12174,"Ġhukumnya":12175,"ukiman":12176,"ĠEun":12177,"asiswi":12178,"fic":12179,"egisl":12180,"Ġmiliknya":12181,"ĠLAIN":12182,"Ġmengantarkan":12183,"Ġeksim":12184,"Ġkandidat":12185,"Ġfan":12186,"Ġmengikat":12187,"Ġopini":12188,"Ġmeneruskan":12189,"Ġcomp":12190,"uatannya":12191,"Ġkalsium":12192,"ĠKET":12193,"ĠSimak":12194,"azz":12195,"ĠBut":12196,"Ġposisinya":12197,"ĠContinue":12198,"ANYA":12199,"Ġbertahap":12200,"Ġmengeluh":12201,"ĠDek":12202,"Ġtiang":12203,"ĠBy":12204,"ĠPad":12205,"kecil":12206,"hawatirkan":12207,"Ġbening":12208,"Ġkiamat":12209,"Ġkarbohidrat":12210,"Ġkemas":12211,"Ġmerekomendasikan":12212,"Ġawan":12213,"ĠSlot":12214,"Ġkondisinya":12215,"masin":12216,"ĠRen":12217,"Toko":12218,"DAFTAR":12219,"Ġkosmetik":12220,"Ġkop":12221,"ĠCy":12222,"ugerah":12223,"Hingga":12224,"Ġungkapan":12225,"Penc":12226,"ĠMembaca":12227,"ĠGas":12228,"ĠPENDIDIKAN":12229,"Ins":12230,"Ġwarnanya":12231,"Ġdiobati":12232,"Ġpenemuan":12233,"Ġdisitu":12234,"ĠKebutuhan":12235,"ĠKetahui":12236,"Ġterminal":12237,"Ġbalas":12238,"Ġmba":12239,"bol":12240,"Ġjernih":12241,"ming":12242,"idupkan":12243,"Ġlarut":12244,"ublikasi":12245,"garis":12246,"ktop":12247,"Ġkomik":12248,"EI":12249,"Ġistana":12250,"isu":12251,"Ġmusibah":12252,"Ġteringat":12253,"gional":12254,"Berl":12255,"ĠHindu":12256,"Ġkarangan":12257,"ĠTelkomsel":12258,"ĠMandi":12259,"inilah":12260,"Ġcard":12261,"ugat":12262,"wahan":12263,"ĠSuh":12264,"Ġdibedakan":12265,"ĠTun":12266,"Ġpsikologis":12267,"Ġdisuruh":12268,"Ġsint":12269,"film":12270,"Ġsebetulnya":12271,"uduki":12272,"Ġpungkasnya":12273,"Sc":12274,"Ġintinya":12275,"Ġlazim":12276,"ĠLine":12277,"ĠMek":12278,"Ġatasnya":12279,"Ġarsitektur":12280,"Biasanya":12281,"Ġpercobaan":12282,"Ġfinansial":12283,"Ġdalil":12284,"raw":12285,"ĠAyu":12286,"Ġpadamu":12287,"lue":12288,"spektif":12289,"ĠBanda":12290,"sela":12291,"Ġgenitalia":12292,"ĠBISA":12293,"Pertanyaan":12294,"offe":12295,"Ġlutut":12296,"ĠPangeran":12297,"ĠPuncak":12298,"ĠDani":12299,"Assalamu":12300,"ilkan":12301,"ĠTech":12302,"Ġmacet":12303,"ĠPendek":12304,"ĠAss":12305,"detik":12306,"Ġdor":12307,"ĠPenderita":12308,"ĠRan":12309,"impulan":12310,"dulian":12311,"sudah":12312,"gentina":12313,"ĠSembuh":12314,"Ġmeninjau":12315,"ĠLuk":12316,"orangan":12317,"rene":12318,"ĠOBAT":12319,"ugu":12320,"79":12321,"iris":12322,"Ġdipotong":12323,"Ġisteri":12324,"Ġfik":12325,"Ġtomat":12326,"ations":12327,"Ġdiungkapkan":12328,"Ġpras":12329,"Dunia":12330,"ĠPihak":12331,"Ġsolid":12332,"ĠMER":12333,"Ġunduh":12334,"ucap":12335,"Tah":12336,"Ġsingg":12337,"ĠKeme":12338,"xas":12339,"Ġtergabung":12340,"Ġkuk":12341,"ĠMenga":12342,"Ġbupati":12343,"ĠJen":12344,"Ġpemak":12345,"ĠMerawat":12346,"Ġtanyakan":12347,"ĠWa":12348,"Ġdihubungi":12349,"ground":12350,"ĠZi":12351,"Ġjikalau":12352,"esel":12353,"Ġngel":12354,"hael":12355,"ĠRAHMAT":12356,"tisipasi":12357,"Ġranjang":12358,"Ġdiperiksa":12359,"Ĥ¬":12360,"Ġbetting":12361,"Ġstart":12362,"Ġpenyelidikan":12363,"Ġkasat":12364,"emaran":12365,"Int":12366,"ĠSET":12367,"Ġperkawinan":12368,"otret":12369,"Ġkarie":12370,"Ġdatar":12371,"Ġ42":12372,"ĠBrow":12373,"kg":12374,"desaan":12375,"sangat":12376,"ĠTemb":12377,"tukar":12378,"73":12379,"Ġkarier":12380,"ĠPDI":12381,"ĠSeksi":12382,"Padahal":12383,"Ġmall":12384,"ĠPukul":12385,"ĠJatuh":12386,"Ġkurangnya":12387,"Ġtingginya":12388,"ĠSUR":12389,"migrasi":12390,"bayar":12391,"Ġkegel":12392,"Ġdihapus":12393,"Ġtemui":12394,"Ġngan":12395,"ĠLove":12396,"ariat":12397,"ramah":12398,"UAR":12399,"Ġpembiayaan":12400,"ĠMenengah":12401,"ruf":12402,"ĠHadir":12403,"uncuran":12404,"Ġantibiotik":12405,"Ġprivasi":12406,"pannya":12407,"Ġseratus":12408,"ĠFer":12409,"ĠMutiara":12410,"Ġdealer":12411,"Ġkeluarnya":12412,"Ġkalender":12413,"ĠKeuntungan":12414,"ĠOke":12415,"allpaper":12416,"ĠPanitia":12417,"fleksi":12418,"itel":12419,"Ġdompet":12420,"ridge":12421,"SH":12422,"pendidikan":12423,"ĠTransp":12424,"aparan":12425,"Ġlal":12426,"ĠCent":12427,"Ġmuntah":12428,"Ġoptions":12429,"Ġlogika":12430,"ĠCandi":12431,"ingkirkan":12432,"ĠAme":12433,"RAM":12434,"utera":12435,"Ġgemuk":12436,"Ġtayang":12437,"ĠESA":12438,"Ġpengecekan":12439,"Ġhindari":12440,"eheh":12441,"Ġthis":12442,"DP":12443,"BL":12444,"ĠDuk":12445,"Ġderas":12446,"ajai":12447,"Ġterhitung":12448,"HADAP":12449,"Ġhitungan":12450,"',":12451,"Spesifikasi":12452,"Ġdiproses":12453,"ĠArchi":12454,"SL":12455,"Ġpik":12456,"allam":12457,"ĠShallallahu":12458,"ĠKuliner":12459,"ĠPembe":12460,"ruk":12461,"Ġkeberangkatan":12462,"iklan":12463,"ĠBPK":12464,"zy":12465,"ĠBayern":12466,"ĠPasang":12467,"Ġbitcoin":12468,"abuk":12469,"aparkan":12470,"pecial":12471,"IDUP":12472,"ĠSegala":12473,"rick":12474,"arning":12475,"tel":12476,"Ġseketika":12477,"ĠKompas":12478,"Ġkit":12479,"Ġsum":12480,"ombin":12481,"ĠKimia":12482,"ingungan":12483,"Ġiri":12484,"Ġero":12485,"ĠPAL":12486,"Ġkarpet":12487,"Ġtersembunyi":12488,"ĠOrder":12489,"Ġterbanyak":12490,"Ġmemikat":12491,"ĠPena":12492,"ĠSamping":12493,"andakan":12494,"Ġsajian":12495,"tact":12496,"Ġrawan":12497,"BU":12498,"ĠIndones":12499,"ĠPun":12500,"Ġsepasang":12501,"benda":12502,"ĠPA":12503,"Mo":12504,"ĠTokoh":12505,"Ġmemukul":12506,"Ġrese":12507,"Ġkaku":12508,"ĠJava":12509,"ĠNat":12510,"dent":12511,"Ġcobalah":12512,"Ġskripsi":12513,"ĠPelajaran":12514,"ĠPerwakilan":12515,"ĠSeo":12516,"ĠAnc":12517,"Ġbasis":12518,"ged":12519,"Ġpemeliharaan":12520,"ĠHend":12521,"ĠPalu":12522,"ĠNot":12523,"Ġbalapan":12524,"Ġmenguatkan":12525,"Ġbulanan":12526,"Ġtingkatan":12527,"Ġbalap":12528,"alla":12529,"PEN":12530,"Ġfar":12531,"ĠMengg":12532,"Ġbersabar":12533,"Ġdarinya":12534,"ĠKampus":12535,"Ġtanganku":12536,"Ġmeyakini":12537,"ĠKebanyakan":12538,"Ġteras":12539,"Ġketerbatasan":12540,"Ġmengerikan":12541,"ubis":12542,"ĠMengenai":12543,"aban":12544,"Ġekspresi":12545,"Acara":12546,"BUN":12547,"Ġkisaran":12548,"ĠSambil":12549,"ĠDVD":12550,"ĠLintas":12551,"Ġkeyboard":12552,"Ġmenanam":12553,"ĠKeduanya":12554,"Ġhuman":12555,"eses":12556,"ĠRasanya":12557,"Ġperak":12558,"Ġmemaksimalkan":12559,"essi":12560,"Ġseumur":12561,"ĠEle":12562,"ĠMelayu":12563,"Ġinsan":12564,"Ġmisal":12565,"Ġberdekatan":12566,"awannya":12567,"GG":12568,"eless":12569,"Ġnom":12570,"Ġpanik":12571,"Ġdibagikan":12572,"Ġviews":12573,"ĠBol":12574,"ĠTulisan":12575,"Ġdinamis":12576,"Ġbermaksud":12577,"ANJ":12578,"ĠMahkamah":12579,"ĠCustomer":12580,"band":12581,"Ġberlisensi":12582,"Ġtegak":12583,"ĠStat":12584,"Ġtujuannya":12585,"Ġpenetapan":12586,"ĠFI":12587,"Ġterjebak":12588,"Ġtimbulnya":12589,"ĠPesta":12590,"inge":12591,"Tanggal":12592,"Ġmg":12593,"kuit":12594,"ĠBoleh":12595,"ekas":12596,"Ġtugasnya":12597,"ĠAwalnya":12598,"Ġhigh":12599,"uasana":12600,"Ġdibekali":12601,"Perlu":12602,"uaan":12603,"alifah":12604,"Pak":12605,"Ġdiawali":12606,"Poker":12607,"domba":12608,"Ġsertifikasi":12609,"Ġketen":12610,"Ġcitra":12611,"ĠMenit":12612,"acana":12613,"Ġribet":12614,"Ġjantina":12615,"ĠLam":12616,"qq":12617,"Ġcermin":12618,"ormat":12619,"Ġmengabaikan":12620,"atalog":12621,"Ġmemperl":12622,"ĠBiru":12623,"ĠPelabuhan":12624,"ĠBAND":12625,"ĠHasilnya":12626,"Ġsuk":12627,"Ġbadannya":12628,"Ġsukai":12629,"ukupi":12630,"Ġlarutan":12631,"alakan":12632,"ĠSebaiknya":12633,"pinsi":12634,"Ġgerai":12635,"On":12636,"ĠTol":12637,"ĠPeter":12638,"indukan":12639,"Ġtari":12640,"ebutkan":12641,"ĠBox":12642,"Ġub":12643,"Ġsembarangan":12644,"ĠMerdeka":12645,"enam":12646,"Ġudang":12647,"ĠSoo":12648,"andia":12649,"ĠTH":12650,"edak":12651,"ĠRenang":12652,"Data":12653,"lywood":12654,"Ġpenghuni":12655,"Ġhambatan":12656,"Ġmengaktifkan":12657,"Ġpotensial":12658,"ĠLion":12659,"Ġpengisian":12660,"Ġpek":12661,"ritahu":12662,"ĠYak":12663,"Ġberkep":12664,"Ġdirencanakan":12665,"Ġpelukan":12666,"CH":12667,"Ġment":12668,"Ġmenduduki":12669,"Ġradang":12670,"Ġprotes":12671,"ĠPimpinan":12672,"Ġpemakai":12673,"ĠHabib":12674,"nderungan":12675,"Faktor":12676,"Ġciuman":12677,"gaulan":12678,"Ġmenyemp":12679,"odifikasi":12680,"ukupnya":12681,"ĠDec":12682,"market":12683,"Ġkewenangan":12684,"Ġlingkup":12685,"ĠTERHADAP":12686,"Ġgl":12687,"inet":12688,"Ġmengor":12689,"antauan":12690,"Ġditolak":12691,"ordinator":12692,"Ġproduknya":12693,"trik":12694,"Ġtaat":12695,"quest":12696,"Ġmengira":12697,"Ġpertarungan":12698,"Ġdriver":12699,"Ġupload":12700,"Ġhantu":12701,"Ġgender":12702,"Ġmaksimum":12703,"ĠMotoGP":12704,"ĠXL":12705,"omentum":12706,"Sama":12707,"Ġberturut":12708,"gala":12709,"ĠJiwa":12710,"Ġrencananya":12711,"nye":12712,"empurnaan":12713,"ĠBro":12714,"LAM":12715,"Ġtulus":12716,"Ġpegunungan":12717,"ĠDUNIA":12718,"Ġikon":12719,"ĠMitra":12720,"ogo":12721,"ĠPRODUK":12722,"Ġopen":12723,"temannya":12724,"ingkar":12725,"Ġfilsafat":12726,"ĠBerapa":12727,"Ġji":12728,"hanya":12729,"Ġdepresi":12730,"veloper":12731,"ĠPOKER":12732,"Ġcelah":12733,"ĠHyun":12734,"utri":12735,"ĠMewah":12736,"ĠTers":12737,"Ġpembengkakan":12738,"Ġreading":12739,"Ġditempuh":12740,"mit":12741,"Ġmayat":12742,"Ġerror":12743,"Ġdijaga":12744,"Ġshow":12745,"ĠKit":12746,"Ġkeman":12747,"Ġberdaya":12748,"ĠTae":12749,"Ġpsikologi":12750,"Ġbertanding":12751,"Ġchip":12752,"ĠORANG":12753,"Ġapotik":12754,"Ġhias":12755,"Ġmulutnya":12756,"bl":12757,"PG":12758,"Pi":12759,"Media":12760,"ĠLuka":12761,"gungan":12762,"Ġharuslah":12763,"Ġketa":12764,"Keh":12765,"Ġdidesain":12766,"ĠDekat":12767,"EBIH":12768,"utupan":12769,"hin":12770,"ĠPelaksanaan":12771,"Ġmemprediksi":12772,"atasan":12773,"Ġmenyeluruh":12774,"isiatif":12775,"ulette":12776,"Ġkentang":12777,"ĠMakanya":12778,"ĠPDF":12779,"adaptasi":12780,"met":12781,"pers":12782,"Ġjangk":12783,"ĠMajelis":12784,"urahmi":12785,"ĠBukalapak":12786,"Ġalur":12787,"ĠGir":12788,"ĠPenjualan":12789,"ĠSatuan":12790,"ĠBook":12791,"ĠKoleksi":12792,"Ġbalita":12793,"ĠMenikah":12794,"Ġberkhasiat":12795,"ĠChan":12796,"kuad":12797,"ĠTulis":12798,"ĠBakal":12799,"ĠTerbukti":12800,"ĠJNE":12801,"Ġkuman":12802,"ĠTot":12803,"tanyakan":12804,"Ġgrafik":12805,"ĠStaf":12806,"UKUM":12807,"ĠSeseorang":12808,"ĠGor":12809,"Ġawam":12810,"Ġprog":12811,"adhi":12812,"ĠKlas":12813,"Ġditarik":12814,"ogram":12815,"Ġhemoroid":12816,"ekening":12817,"ĠAngin":12818,"Ġniscaya":12819,"UJ":12820,"ampiri":12821,"uap":12822,"Ġmengutamakan":12823,"ĠBerm":12824,"unjangan":12825,"Ġbudak":12826,"ĠGelar":12827,"ĠUKM":12828,"Ġdisambut":12829,"Ġpenderitaan":12830,"king":12831,"Ġdeskripsi":12832,"epakati":12833,"dig":12834,"toko":12835,"Ġkesenangan":12836,"etis":12837,"Ġbabi":12838,"gangan":12839,"Ġpiring":12840,"Ġkait":12841,"Ġmembangkitkan":12842,"oja":12843,"Ġpelih":12844,"maka":12845,"Ġkeluarkan":12846,"urnakan":12847,"ĠShow":12848,"ĠSwe":12849,"Ġmenawan":12850,"ampaui":12851,"nnya":12852,"Fakta":12853,"ĠArgentina":12854,"ĠJUDI":12855,"ĠCal":12856,"itraan":12857,"ĠSop":12858,"ĠAnalisis":12859,"Ġpengembang":12860,"Persero":12861,"Ġpenyusunan":12862,"ĠHR":12863,"dikbud":12864,"imi":12865,"ĠGatal":12866,"ajukan":12867,"Ġberawal":12868,"Ġreseller":12869,"Ġentry":12870,"ristal":12871,"ĠLatihan":12872,"Ġmuslimah":12873,"ĠVis":12874,"Ġbayangkan":12875,"Ġlike":12876,"Ġolahan":12877,"jelas":12878,"uting":12879,"dihan":12880,"Ġmengangguk":12881,"ĠServer":12882,"ĠEver":12883,"APAN":12884,"Ġsinga":12885,"ĠCipta":12886,"ĠJAW":12887,"Ġcup":12888,"Ġtabungan":12889,"UMAH":12890,"Ġ^_^":12891,"ĠPES":12892,"Tel":12893,"Ġkomer":12894,"ahlawan":12895,"ĠVilla":12896,"Ġpahit":12897,"Ġtambahnya":12898,"Ġbene":12899,"ĠQnC":12900,"alangan":12901,"ĠMotivasi":12902,"setelah":12903,"Ġmemberitahu":12904,"Ġmenerangkan":12905,"artikel":12906,"ayati":12907,"ĠShare":12908,"Ġpacaran":12909,"maaf":12910,"Ġprib":12911,"Ġmengantisipasi":12912,"br":12913,"tris":12914,"Ġditimb":12915,"ĠBekerja":12916,"ĠGO":12917,"Ġdiletakkan":12918,"Macam":12919,"ishing":12920,"Ġkuant":12921,"ĠHus":12922,"ĠSudi":12923,"Ġiritasi":12924,"ĠPohon":12925,"Ġmengawasi":12926,"Ġpendidik":12927,"ndarai":12928,"Ġusianya":12929,"lahir":12930,"ĠKeterangan":12931,"Ġbawaan":12932,"ayo":12933,"Ġkacamata":12934,"ĠTerlihat":12935,"Ġtikus":12936,"BT":12937,"Ġpujian":12938,"Ġanggur":12939,"Ġpemilih":12940,"Mengh":12941,"Ġpisau":12942,"Ġword":12943,"Ġduka":12944,"Ġtempo":12945,"MD":12946,"Ġkorang":12947,"iasi":12948,"sasi":12949,"Ġpenjuru":12950,"ĠShe":12951,"Ġrontok":12952,"Ġrevolusi":12953,"Ġmarkas":12954,"atah":12955,"Ġmalang":12956,"Ġperlakuan":12957,"ĠKolam":12958,"aksimal":12959,"restasi":12960,"ugh":12961,"Ġsaldo":12962,"Ġmicro":12963,"ĠDirektorat":12964,"ĠKetentuan":12965,"ĠKelebihan":12966,"Ġpadang":12967,"ĠNyaman":12968,"Ġmemo":12969,"tico":12970,"ĠCelana":12971,"AA":12972,"Ġkontra":12973,"aksudnya":12974,"ĠLenovo":12975,"rogr":12976,"riksaan":12977,"AKU":12978,"Ġberlangganan":12979,"ĠMalah":12980,"Ġarena":12981,"Ġefisiensi":12982,"Kek":12983,"Ġformasi":12984,"Ġmemindahkan":12985,"Ġdibersihkan":12986,"pek":12987,"abumi":12988,"ĠYouTube":12989,"ĠSubhan":12990,"ĠRib":12991,"ĠSig":12992,"Ġmual":12993,"ĠAde":12994,"Ġmikir":12995,"ĠBeri":12996,"ĠKok":12997,"ungut":12998,"ĠSejumlah":12999,"Ġchan":13000,"Ġmemantau":13001,"Ġtrop":13002,"Ġ46":13003,"ĠDitemukan":13004,"ÃĹ":13005,"Ġmemunculkan":13006,"ĠRadio":13007,"ĠTunggu":13008,"Ġbelahan":13009,"Ġadu":13010,"ĠSemen":13011,"barui":13012,"ENGK":13013,"ĠAGEN":13014,"ĠLG":13015,"gp":13016,"ĠSedikit":13017,"anggulangan":13018,"finisikan":13019,"Teknik":13020,"Ġbertek":13021,"awak":13022,"ĠPerc":13023,"Ġhadapi":13024,"Ġmenerbitkan":13025,"Ġpengukuran":13026,"......":13027,"Ġdatangnya":13028,"ĠKid":13029,"Ġnomer":13030,"Ġtonton":13031,"Ġperlawanan":13032,"Masukkan":13033,"syah":13034,"ĠMenurunkan":13035,"AJAR":13036,"Ġairnya":13037,"Ġseparuh":13038,"ĠØ§ÙĦ":13039,"Skor":13040,"Ġbilangan":13041,"Ġalasannya":13042,"acetan":13043,"emprov":13044,"PO":13045,"Ġjejaring":13046,"ĠLos":13047,"Ġsecukupnya":13048,"Ġdagang":13049,"ross":13050,"Berapa":13051,"zil":13052,"Ġ1990":13053,"optimalkan":13054,"Ġ125":13055,"Ġvan":13056,"ĠDiketahui":13057,"gap":13058,"Ġsambutan":13059,"Ġagung":13060,"TASI":13061,"ĠArt":13062,"Ġkreativitas":13063,"ĠHigh":13064,"Ġbioskop":13065,"tepatan":13066,"juan":13067,"far":13068,"ĠKunjungi":13069,"Ġjantan":13070,"Ġbent":13071,"ĠIntel":13072,"ies":13073,"Ġusahakan":13074,"ĠClub":13075,"mahal":13076,"uriga":13077,"Angg":13078,"Ġkubu":13079,"Ġatasan":13080,"Ġsejah":13081,"Oke":13082,"auhid":13083,"Ġkebingungan":13084,"oka":13085,"ijrah":13086,"impunan":13087,"epit":13088,"Memper":13089,"ĠDat":13090,"mmm":13091,"imanan":13092,"Ġketeg":13093,"Ġrohani":13094,"ĠVol":13095,"Ġbenih":13096,"program":13097,"ĠDur":13098,"Ġmenyala":13099,"Ġotor":13100,"ĠDij":13101,"ampakan":13102,"Ġspesialis":13103,"ĠPengunjung":13104,"Ġkompetitif":13105,"Ġapp":13106,"Ġdihindari":13107,"Ġkebersamaan":13108,"76":13109,"ĠProfesional":13110,"ĠPesantren":13111,"loud":13112,"resik":13113,"adam":13114,"DIRI":13115,"Ġkerangka":13116,"ektar":13117,"Ġdiminum":13118,"Ġterakhirnya":13119,"dikasi":13120,"Ġmax":13121,"Ġditengah":13122,"ĠSap":13123,"Ġpersonel":13124,"ĠURL":13125,"Ġdile":13126,"ĠYud":13127,"ncian":13128,"idin":13129,"ĠPage":13130,"Ġkuku":13131,"ĠIK":13132,"Ġtempur":13133,"ĠRestoran":13134,"ĠArchives":13135,"Ġklinik":13136,"Ġgenre":13137,"Ġtromb":13138,"Ġditahan":13139,"Ġintegr":13140,"Ġru":13141,"alut":13142,"????":13143,"ĠLokal":13144,"ĠMaya":13145,"Ġkirimkan":13146,"Ġkepemilikan":13147,"Terdapat":13148,"Ġkasur":13149,"emerdekaan":13150,"Ġmustah":13151,"Ġkontes":13152,"ERINT":13153,"ĠGempa":13154,"isih":13155,",.":13156,"sm":13157,"arium":13158,"nie":13159,"yn":13160,"gand":13161,"Ġkerag":13162,"Ġbepergian":13163,"Ġalumni":13164,"Uk":13165,"Ġsinetron":13166,"ĠMour":13167,"Ġmenanti":13168,"rl":13169,"Ġmengidentifikasi":13170,"ĠMilik":13171,"PERCAYA":13172,"tensif":13173,"Ġbertu":13174,"ĠEfektif":13175,"Ġbantal":13176,"86":13177,"Posted":13178,"Ġbayangan":13179,"ĠBersih":13180,"ĠPengelolaan":13181,"erat":13182,"Ġren":13183,"Ġdenda":13184,"ĠSerang":13185,"ontan":13186,"Ġprimer":13187,"Ġcle":13188,"Ġamalan":13189,"ĠKediri":13190,"rencanaan":13191,"utihkan":13192,"ĠTransfer":13193,"Ġmembuah":13194,"ĠJelas":13195,"Ġberker":13196,"Ġukur":13197,"ĠBun":13198,"Ġhunian":13199,"ĠPengg":13200,"ĠPerut":13201,"velop":13202,"Ġpersepsi":13203,"72":13204,"ĠTaiwan":13205,"aily":13206,"Ġbudidaya":13207,"Ġintra":13208,"hil":13209,"tw":13210,"ĠJab":13211,"Ġasik":13212,"hirt":13213,"Ġlautan":13214,"Ġusahanya":13215,"ĠTeori":13216,"commerce":13217,"ĠKm":13218,"ulut":13219,"ĠMencegah":13220,"ĠTerlalu":13221,"Pan":13222,"Ġdirawat":13223,"Ġdahsyat":13224,"Ġjahe":13225,"Ġnir":13226,"anamkan":13227,"rekan":13228,"ĠPis":13229,"Ġekonomis":13230,"Ġkutip":13231,"ĠPlakat":13232,"waran":13233,"ĠKaryawan":13234,"alem":13235,"TML":13236,"Ist":13237,"ĠPerhatikan":13238,"BR":13239,"ogen":13240,"alisi":13241,"ĠIzin":13242,"ĠMuk":13243,"orb":13244,"OTO":13245,"Tuhan":13246,"Ġmungil":13247,"ilasi":13248,"ĠBukhari":13249,"Ġmenstr":13250,"ĠManis":13251,"jazah":13252,"Ġsolusinya":13253,"alamat":13254,"Promo":13255,"Ġtertidur":13256,"ĠAndre":13257,"ALAN":13258,"ĠRingan":13259,"Ġmeminim":13260,"Ġdikuasai":13261,"UKA":13262,"Ġdirasa":13263,"ĠâĢĻ":13264,"Komentar":13265,"uguhkan":13266,"Ġsusun":13267,"rof":13268,"ekomunikasi":13269,"ĠBukankah":13270,"ĠHouse":13271,"hhh":13272,"Ġhor":13273,"Ġmenenangkan":13274,"Ġdomba":13275,"Ġsimpel":13276,"Perusahaan":13277,"Ġcu":13278,"Kab":13279,"Ġmeriah":13280,"ĠHumas":13281,"abrikan":13282,"ugaran":13283,"Ġrancangan":13284,"indra":13285,"ĠKed":13286,"Ġmendasar":13287,"Berry":13288,"Ġmam":13289,"Ùĳ":13290,"Ġchar":13291,"Ġ]":13292,"ask":13293,"isyah":13294,"rograman":13295,"Ġtersimpan":13296,"ĠJudul":13297,"ĠPokok":13298,"ĠMURAH":13299,"Ġlanjutnya":13300,"Ġkrn":13301,"eth":13302,"Ġputr":13303,"ĠMourinho":13304,"Ġmemberitah":13305,"Ġseniman":13306,"ĠDIS":13307,"angkai":13308,"Ġfitnah":13309,"ĠSidoarjo":13310,"odiak":13311,"utsal":13312,"Ġindra":13313,"ĠATA":13314,"Ġstu":13315,"ubara":13316,"ĠTiap":13317,"Ġbocah":13318,"Ġkarbon":13319,"Un":13320,"Ġ44":13321,"kap":13322,"Ġintelektual":13323,"lar":13324,"ĠAlasannya":13325,"Ġsekiranya":13326,"Ġstop":13327,"hah":13328,"rankan":13329,"wu":13330,"ĠSunnah":13331,"Ġpokoknya":13332,"Ġmerekam":13333,"ĠTEK":13334,"ĠPramuka":13335,"fen":13336,"Komp":13337,"ĠMerk":13338,"Ġtendangan":13339,"Ġstyle":13340,"Ġterjatuh":13341,"Ġspot":13342,"Ġtok":13343,"ĠDibawah":13344,"Ġcandi":13345,"OGEL":13346,"Ġterkirim":13347,"Ġsyariat":13348,"Ġberpakaian":13349,"Ġsapa":13350,"atannya":13351,"ĠSobat":13352,"Ġberbunyi":13353,"Ġamanah":13354,"iat":13355,"ESAR":13356,"Ġsejahtera":13357,"ens":13358,"Ġtawar":13359,"ĠWater":13360,"ĠAdanya":13361,"ĠLampu":13362,"ĠBandingkan":13363,"ĠTO":13364,"Aw":13365,"udar":13366,"ĠBri":13367,"Ġdires":13368,"iting":13369,"Ġnorma":13370,"iny":13371,"padai":13372,"ĠSec":13373,"iaga":13374,"saing":13375,"Ġdicampur":13376,"Ġhakikat":13377,"Ġmerdeka":13378,"ingankan":13379,"Ġseribu":13380,"ĠChat":13381,"Ġserangkaian":13382,"ĠGam":13383,"Ġpemin":13384,"ĠCard":13385,"ĠBis":13386,"Coba":13387,"ĠFr":13388,"ĠPRI":13389,"ĠSah":13390,"Ġgig":13391,"unter":13392,"Ġpenalti":13393,"Ġmenyembunyikan":13394,"Ġimun":13395,"Ġrantai":13396,"INKES":13397,"Ġmum":13398,"Ġdikaitkan":13399,"ĠPola":13400,"strib":13401,"ĠSL":13402,"Jawab":13403,"eliat":13404,"Ġlg":13405,"EX":13406,"Ġone":13407,"Ġkepastian":13408,"Alasan":13409,"Ġmiring":13410,"Ġkonferensi":13411,"ajakan":13412,"Ġnunggu":13413,"umuskan":13414,"ĠITU":13415,"Ġsubjek":13416,"idangan":13417,"hyun":13418,"Ġtransparan":13419,"cing":13420,"SS":13421,"Ġtraining":13422,"tubuh":13423,"Ġfotografi":13424,"Ġberakibat":13425,"Ġterdakwa":13426,"organisasi":13427,"Ġnuansa":13428,"Ġbersatu":13429,"ĠDINKES":13430,"jumlah":13431,"otis":13432,"ombinasikan":13433,"kait":13434,"ampingan":13435,"ĠNyata":13436,"Ġkemih":13437,"ĠSewa":13438,"ĠPeralatan":13439,"ĠJag":13440,"Halo":13441,"Ġtersel":13442,"Ġreproduksi":13443,"Ġmenjatuhkan":13444,"Ġterkecuali":13445,"Ġingatan":13446,"Ġdikemas":13447,"lex":13448,"AMAN":13449,"Teknologi":13450,"Ġnilainya":13451,"Ġpertambangan":13452,"Ġ{":13453,"Ġkualitasnya":13454,"Ġkehormatan":13455,"ĠPenuh":13456,"Ġplas":13457,"Ġpink":13458,"Ġberant":13459,"elidik":13460,"etrasi":13461,"ĠNap":13462,"Ġbengkel":13463,"Ġmenurutnya":13464,"Ġmelarikan":13465,"Ġhormat":13466,"GAI":13467,"ebo":13468,"ĠTegal":13469,"dikasikan":13470,"Ġmuj":13471,"FORMASI":13472,"ĠPaul":13473,"mentasi":13474,"Ġ0813":13475,"Ġmemperluas":13476,"aduh":13477,"Ġterbangun":13478,"emin":13479,"ĠMM":13480,"Bag":13481,"ĠPenjelasan":13482,"Ġupah":13483,"Ġasuhan":13484,"ĠEksp":13485,"sin":13486,"ĠGoreng":13487,"hawatiran":13488,"ĠDu":13489,"ĠMemas":13490,"Ġsumur":13491,"Melalui":13492,"ĠPontianak":13493,"ĠBencana":13494,"novasi":13495,"lorasi":13496,"Ġkomersial":13497,"Ġpuc":13498,"Ġmeningkatnya":13499,"ĠAmbil":13500,"letico":13501,"Ġtemuan":13502,"ĠPemimpin":13503,"Nonton":13504,"med":13505,"Ġtubuhku":13506,"Ġkir":13507,"ĠBlue":13508,"rav":13509,"Keter":13510,"apter":13511,"led":13512,"Ġping":13513,"stansi":13514,"OLOG":13515,"ĠGaz":13516,"ovatif":13517,"Ġkemeja":13518,"Ġjd":13519,"onster":13520,"Ġprostat":13521,"ball":13522,"Ġcc":13523,"yg":13524,"Ġpage":13525,"Ġampun":13526,"ĠCak":13527,"Ġsuaranya":13528,"Ġditingkatkan":13529,"ĠML":13530,"Ġdorongan":13531,"Ġmenstruasi":13532,"ampakkan":13533,"ĠNan":13534,"Ġlandasan":13535,"Ġgej":13536,"Ġditimbulkan":13537,"Ġmenganalisa":13538,"Ġpenderitanya":13539,"ĠFirman":13540,"bayang":13541,"Ġjenazah":13542,"ĠPu":13543,"ĠBil":13544,"âĢ¦âĢ¦âĢ¦âĢ¦":13545,"table":13546,"Ġdas":13547,"Ġmembas":13548,"Ġterikat":13549,"etra":13550,"Ġcabai":13551,"Ġ49":13552,"Ġukurannya":13553,"Ġbengkak":13554,"cari":13555,"arkotika":13556,"ĠCash":13557,"ĠMusic":13558,"Ġsopir":13559,"pur":13560,"imal":13561,"Dep":13562,"egislatif":13563,"ĠGadget":13564,"hum":13565,"Fe":13566,"123":13567,"Ġkeseh":13568,"Ġfestival":13569,"asian":13570,"Ġbensin":13571,"Ġos":13572,"Ġpori":13573,"obby":13574,"ĠEnter":13575,"ĠJalur":13576,"Ġlic":13577,"Ġdiumumkan":13578,"ĠSung":13579,"amika":13580,"MEN":13581,"ampurkan":13582,"otes":13583,"uliaan":13584,"ĠPerumahan":13585,"ĠAkurat":13586,"amannya":13587,"2019":13588,"Ġmembenarkan":13589,"ĠTokyo":13590,"anting":13591,"Ġdibuang":13592,"Ġbakso":13593,"ĠSEN":13594,"Ġguys":13595,"Ġkerumah":13596,"Ġabsen":13597,"Ġindependen":13598,"ĠMUI":13599,"Ġjarum":13600,"Ġkip":13601,"Ġkejutan":13602,"ĠKatolik":13603,"Rek":13604,"Ġdimuat":13605,"oken":13606,"Ġkelelahan":13607,"ĠBerikan":13608,"sembahkan":13609,"kabel":13610,"lokir":13611,"ĠSitu":13612,"Ġmengungkap":13613,"Ġmengga":13614,"Ġbetina":13615,"Ġmerujuk":13616,"Net":13617,"Ġ800":13618,"Ġpolit":13619,"ĠSyaikh":13620,"anduk":13621,"edo":13622,"Ġgamis":13623,"Ġarab":13624,"ASAR":13625,"Ġcic":13626,"Ġsepat":13627,"Ġpenggunanya":13628,"ĠUlasan":13629,"lor":13630,"ĠAPBD":13631,"Ġsatelit":13632,"Ġkomun":13633,"Ġbobot":13634,"BAIK":13635,"raja":13636,"ĠSaham":13637,"Ġbermula":13638,"Ġdice":13639,"ĠSupaya":13640,"Ġtip":13641,"late":13642,"ariku":13643,"osistem":13644,"ĠKucing":13645,"Sin":13646,"Ram":13647,"onsor":13648,"unting":13649,"Ġsetinggi":13650,"Ġindeks":13651,"light":13652,"Ġmoder":13653,"anggis":13654,"Ġdilakukannya":13655,"ĠEf":13656,"ĠLab":13657,"Ġkedokteran":13658,"uluhan":13659,"ĠATAS":13660,"ĠRock":13661,"Pers":13662,"ĠDISI":13663,"Biaya":13664,"Ġsok":13665,"Ġkr":13666,"Ġnyamuk":13667,"Ġdidepan":13668,"ĠDapur":13669,"ĠSriwijaya":13670,"Ġserentak":13671,"ĠOc":13672,"alaf":13673,"BK":13674,"ĠMode":13675,"ĠMS":13676,"Ġilegal":13677,"ĠHadiah":13678,"generasi":13679,"ĠAut":13680,"Ġpartisipasi":13681,"ĠPOS":13682,"ĠTumb":13683,"Ġdikembalikan":13684,"Ġdirekomendasikan":13685,"idual":13686,"ĠiOS":13687,"Ġbaby":13688,"Ġdisfungsi":13689,"ĠASEAN":13690,"autan":13691,"Peralatan":13692,"Ġgugur":13693,"Ġkah":13694,"Sya":13695,"Ri":13696,"Ġmendeteksi":13697,"oshop":13698,"Ġjasmani":13699,"Ġabadi":13700,"ĠSastra":13701,"Ġswt":13702,"Ġpersamaan":13703,"opo":13704,"ĠComp":13705,"Ġmenanggapi":13706,"Ġsejalan":13707,"zed":13708,"ĠJawaban":13709,"pedisi":13710,"Ġpergaulan":13711,"Ġekst":13712,"ĠMI":13713,"ĠMataram":13714,"mereka":13715,"ĠKain":13716,"ces":13717,"Ġ43":13718,"Ġmenggoda":13719,"Ġcapek":13720,"ĠMiliter":13721,"ĠMakin":13722,"ifest":13723,"usahan":13724,"Ġsoft":13725,"formatika":13726,"Ġreligi":13727,"Ġdilindungi":13728,"Sebab":13729,"ĠInspirasi":13730,"Ġmendapatkannya":13731,"ĠSuku":13732,"Ġbenci":13733,"Ġpemul":13734,"Ġberanjak":13735,"Hz":13736,"Ġterpenuhi":13737,"Nikmati":13738,"Ġkemampuannya":13739,"ĠKompetensi":13740,"amerkan":13741,"Bandar":13742,"Ġterpasang":13743,"Ġmengantar":13744,"Ġtangkas":13745,"Ġpemberi":13746,"Ġtersentuh":13747,"Ġ41":13748,"Ġinsiden":13749,"kurang":13750,"Anal":13751,"ĠLupa":13752,"Ġmenggabungkan":13753,"Ġpergantian":13754,"Ġobati":13755,"ULAN":13756,"ĠKup":13757,"Ġedit":13758,"Ġberkuasa":13759,"ĠLinux":13760,"awati":13761,"Ġjalankan":13762,"angu":13763,"ĠUUD":13764,"igu":13765,"Ġgiliran":13766,"Ġtang":13767,"ĠMenyembuhkan":13768,"Ġdiwajibkan":13769,"Ġcermat":13770,"ARAT":13771,"JADI":13772,"ĠRamadan":13773,"krim":13774,"ĠMOD":13775,"ĠTerkadang":13776,"inium":13777,"ĠMuncul":13778,"lank":13779,"ndali":13780,"Ġmembesarkan":13781,"Ġperawat":13782,"ĠPerlindungan":13783,"kwkw":13784,"ĠKaya":13785,"Ġmustahil":13786,"ASIONAL":13787,"Top":13788,"Ġrasul":13789,"Ġtahanan":13790,"Kapan":13791,"essica":13792,"ĠTelur":13793,"Ġpersatuan":13794,"yahoo":13795,"Ġideologi":13796,"dad":13797,"sari":13798,"ampilannya":13799,"Ġpapa":13800,"itulis":13801,"Ġmenginjak":13802,"ĠRES":13803,"ĠBig":13804,"ĠMadu":13805,"Ġtelpon":13806,"ĠDAFTAR":13807,"ion":13808,"yaw":13809,"edding":13810,"Ġkomplit":13811,"ĠHard":13812,"Ġbenang":13813,"mbong":13814,"ĠPerjuangan":13815,"okong":13816,"Ġsesak":13817,"raft":13818,"Ġjugak":13819,"Ġwangi":13820,"Ġorangnya":13821,"ĠSerie":13822,"ĠGener":13823,"Ġdimanapun":13824,"Ġmasuknya":13825,"85":13826,"Link":13827,"gunya":13828,"tipu":13829,"ĠSehari":13830,"emenang":13831,"âĻ":13832,"Ġsurvey":13833,"ĠBalikpapan":13834,"hai":13835,"Kesehatan":13836,"Ġthesis":13837,"Beranda":13838,"Ġmemuji":13839,"ungkiri":13840,"pad":13841,"ĠKoperasi":13842,"Ġbil":13843,"Ġunder":13844,"Ġsabung":13845,"Ġmemposting":13846,"Kor":13847,"ĠMembangun":13848,"ĠKarno":13849,"Ġmedali":13850,"ĠMengingat":13851,"ĠKering":13852,"uz":13853,"Judul":13854,"ĠNak":13855,"ĠJUGA":13856,"2009":13857,"Ġlaju":13858,"ĠBatang":13859,"Ġese":13860,"ĠDijual":13861,"Ġwater":13862,"minkan":13863,"puni":13864,"Ġmenyewa":13865,"Trik":13866,"Ġmelaju":13867,"ĠKekurangan":13868,"Ġproduc":13869,"ĠPhil":13870,"Ġpembalap":13871,"Ġkepedulian":13872,"Ġbersahabat":13873,"CC":13874,"inergi":13875,"Ġbebek":13876,"Ġkegunaan":13877,"Ġmembuahkan":13878,"mara":13879,"Ġkurun":13880,"ĠKhas":13881,"Ġmasalahnya":13882,"ĠOtak":13883,"ontribusi":13884,"perimen":13885,"Ġdiperkenalkan":13886,"ĠTIK":13887,"Malam":13888,"Ġdendam":13889,"Ġlengkapnya":13890,"etahuinya":13891,"ĠKemerdekaan":13892,"Ġnampaknya":13893,"Ġharm":13894,"emparkan":13895,"Ġelektrik":13896,"Ġmenjadikannya":13897,"ĠIman":13898,"Ġsarung":13899,"yai":13900,"ĠInfeksi":13901,"oter":13902,"Ġfam":13903,"Ikuti":13904,"Ġberst":13905,"Ġmenyertakan":13906,"Ġditak":13907,"GUN":13908,"elus":13909,"ĠIya":13910,"Ġlite":13911,"ĠHarry":13912,"ĠHTML":13913,"pati":13914,"Ġdigambarkan":13915,"coba":13916,"orge":13917,"ĠBanjarmasin":13918,"Ġmenyetujui":13919,"Gunakan":13920,"Studi":13921,"balik":13922,"Kebutuhan":13923,"Ġtenda":13924,"Ġkedalaman":13925,"tuanya":13926,"Ġmenandakan":13927,"Ġdiprediksi":13928,"71":13929,"Ġho":13930,"Ġhome":13931,"ulukan":13932,"Ġtegasnya":13933,"onia":13934,"ĠHen":13935,"ĠMinimal":13936,"impiade":13937,"Ġselangkangan":13938,"bagus":13939,"Ġkomoditas":13940,"ĠEdi":13941,"Mulai":13942,"ĠAsy":13943,"tengk":13944,"Um":13945,"igur":13946,"ungutan":13947,"Artinya":13948,"Ġsarjana":13949,"Ġselfie":13950,"gabdian":13951,"Review":13952,"Ġterorisme":13953,"Ġdrive":13954,"Ġ::":13955,"Ġibukota":13956,"undam":13957,"Sepatu":13958,"Ġhiasan":13959,"Ġsinggah":13960,"Ġdiarahkan":13961,"Ġberkenan":13962,"Ġberkomitmen":13963,"intis":13964,"ĠKreatif":13965,"ĠDian":13966,"anggakan":13967,"Ġasma":13968,"Ġmenentang":13969,"..,":13970,"Dib":13971,"otoshop":13972,"ajaiban":13973,"ocal":13974,"Op":13975,"Ġmenghalangi":13976,"video":13977,"nergy":13978,"Ġtagihan":13979,"Ġnyari":13980,"Silakan":13981,"Ġwew":13982,"lm":13983,"inian":13984,"Bar":13985,"Ġrasio":13986,"Ġuntukmu":13987,"ĠAlum":13988,"ĠIkuti":13989,"Ġgengg":13990,"ĠFormat":13991,"Ġmengulas":13992,"Ġlan":13993,"Ġkurus":13994,"ibatan":13995,"Ġtidaknya":13996,"Ġdigemari":13997,"nsif":13998,"ings":13999,"lobalisasi":14000,"amana":14001,"Ġabs":14002,"igurasi":14003,"ĠUngg":14004,"ĠAnies":14005,"ĠRW":14006,"ĠSurga":14007,"Ġarg":14008,"ĠDPD":14009,"oyong":14010,"ward":14011,"ĠAma":14012,"Ġdidampingi":14013,"SMS":14014,"Ġmencantumkan":14015,"ĠTIM":14016,"Ġdiperbaiki":14017,"Ġterancam":14018,"Previous":14019,"ularan":14020,"adwalkan":14021,"ĠNgentot":14022,"ĠSumut":14023,"ĠBPOM":14024,"Ġyour":14025,"Ġkabarnya":14026,"berg":14027,"Ġmenggerakkan":14028,"________":14029,"Ġmang":14030,"Ġmemancing":14031,"ĠDosen":14032,"Ġmendidih":14033,"aktanya":14034,"ujuran":14035,"udh":14036,"edahan":14037,"ĠPRO":14038,"asangan":14039,"amily":14040,"ĠDz":14041,"Bermain":14042,"ĠHindari":14043,"Ġobesitas":14044,"ĠUNI":14045,"Ġindo":14046,"Ġesok":14047,"Ġgemar":14048,"field":14049,"Ġtaksi":14050,"Ġkecenderungan":14051,"Ġ1997":14052,"Ġmengatasinya":14053,"ĠAnime":14054,"hs":14055,"edy":14056,"estarian":14057,"ĠMengan":14058,"Ġpengerjaan":14059,"ĠTEM":14060,"ogn":14061,"ĠSut":14062,"Ġterduga":14063,"tujuh":14064,"Ġmembi":14065,"Ġlega":14066,"ĠDrs":14067,"SE":14068,"Laporan":14069,"ĠPerpustakaan":14070,"ĠLy":14071,"ĠTurun":14072,"ĠPenyelengg":14073,"Ġrob":14074,"ĠPelaku":14075,"Benjolan":14076,"ĠAktif":14077,"rg":14078,"Ġbahw":14079,"Ġcerpen":14080,"vey":14081,"yaratkan":14082,"adh":14083,"ĠJutaan":14084,"Ġmenjamu":14085,"62":14086,"ihihi":14087,"Ġdilalui":14088,"Ġnetizen":14089,"Ġdurian":14090,"ĠPeningkatan":14091,"Ġdijangkau":14092,"Ġfre":14093,"rho":14094,"VER":14095,"Ġtakdir":14096,"ĠSingapore":14097,"Ġrujukan":14098,"Ġungu":14099,"Ġinfonya":14100,"ĠAKU":14101,"Ġtoh":14102,"ĠMiss":14103,"Ġberkala":14104,"Ġceme":14105,"Ġterserang":14106,"Ġust":14107,"Ġfilter":14108,"ĠDivisi":14109,"uangkan":14110,"Ġprofessional":14111,"Ġketahanan":14112,"Ġmenyis":14113,"iji":14114,"Mudah":14115,"ĠAbi":14116,"64":14117,"itatif":14118,"ĠSebagaimana":14119,"ĠIrak":14120,"ĠRas":14121,"UG":14122,"ĠPerikanan":14123,"Ġdenger":14124,"Ġtertib":14125,"ĠJames":14126,"Ġjenuh":14127,"idupannya":14128,"aaf":14129,"Ġkeberanian":14130,"Ġperolehan":14131,"ĠBon":14132,"ĠSemangat":14133,"ĠSifat":14134,"Masa":14135,"unsur":14136,"elakang":14137,"ĠSent":14138,"ĠKarawang":14139,"Ġbungkus":14140,"Ġtembakan":14141,"Ġalhamdulillah":14142,"TK":14143,"ĠSong":14144,"ĠInformatika":14145,"masih":14146,"Ġbertarung":14147,"Sy":14148,"Ġpasokan":14149,"Ġsenam":14150,"Ġserangga":14151,"ĠBAH":14152,"Mengenal":14153,"ĠSchool":14154,"velopment":14155,"Ġseluler":14156,"PTN":14157,"Masuk":14158,"ongga":14159,"Ġmemperingati":14160,"adopsi":14161,"sif":14162,"Ġmembacanya":14163,"ĠTERPERCAYA":14164,"semua":14165,"onorer":14166,"ĠJembatan":14167,"ĠLaga":14168,"ĠSkripsi":14169,"ĠExcel":14170,"Ġvoucher":14171,"nyanyi":14172,"Ġperdamaian":14173,"Ġberkons":14174,"ĠAH":14175,"NIS":14176,"Ġmawar":14177,"Ġjuru":14178,"Ġdikenali":14179,"Ġsdh":14180,"Ġarahan":14181,"Ġego":14182,"Ġmenghampiri":14183,"ĠJas":14184,"ĠDisk":14185,"Jawa":14186,"Ġsombong":14187,"Ker":14188,"Ġcash":14189,"Ġpersatu":14190,"ĠMinta":14191,"utradara":14192,"ĠPlastik":14193,"ĠAlquran":14194,"ching":14195,"Ġformula":14196,"Sun":14197,"..?":14198,"Ġmenggen":14199,"Ġproposal":14200,"Ġsekilas":14201,"Ġpermal":14202,"Ġberjarak":14203,"ĠHee":14204,"Ġpenisku":14205,"ĠBK":14206,"Ġrektum":14207,"Ġakum":14208,"Ġkad":14209,"ĠPidana":14210,"tiban":14211,"Ġseder":14212,"bul":14213,"Bola":14214,"eting":14215,"angguran":14216,"ĠCos":14217,"Ġtempuh":14218,"Ġdoang":14219,"tips":14220,"hehe":14221,"ĠSini":14222,"ĠKEP":14223,"aci":14224,"arinya":14225,"utanan":14226,"ĠSales":14227,"antasi":14228,"ipang":14229,"Ġpanggil":14230,"Am":14231,"dney":14232,"off":14233,"angsungan":14234,"Ġperhiasan":14235,"Ġpengamanan":14236,"Ġdimilik":14237,"ĠATAU":14238,"Ġmenjelajah":14239,"ĠSebanyak":14240,"ritaan":14241,"cek":14242,"ĠBeras":14243,"Ġberbuka":14244,"ĠPahlawan":14245,"Ġakhlak":14246,"ĠPerdana":14247,"Ġoptimis":14248,"ĠKanada":14249,"Ġkiranya":14250,"ĠAtletico":14251,"Ġmelon":14252,"ĠWhite":14253,"ĠMasukkan":14254,"Ġlemon":14255,"ĠSiti":14256,"diskusi":14257,"atering":14258,"ĠOperator":14259,"deb":14260,"ĠESQ":14261,"ETA":14262,"Ġmerancang":14263,"Ġrincian":14264,"ĠHemat":14265,"Ġdipegang":14266,"ĠCle":14267,"ĠMengun":14268,"Angk":14269,"abilitas":14270,"ĠKebiasaan":14271,"tokoh":14272,"Lagi":14273,"Ġdukung":14274,"Ġpikirkan":14275,"Ġakomodasi":14276,"ĠCall":14277,"Ġkado":14278,"Ġfollow":14279,"ĠPelanggan":14280,"ĠTribun":14281,"UNJ":14282,"Ġlup":14283,"Ġdibagian":14284,"ĠDusun":14285,"Ġkemacetan":14286,"Ġzaitun":14287,"ĠWork":14288,"Ġdiatasi":14289,"ister":14290,"ambungan":14291,"Ġreformasi":14292,"rief":14293,"LAN":14294,"ĠMom":14295,"ĠIstilah":14296,"yadi":14297,"napasan":14298,"ĠUndangan":14299,"ĠTambahan":14300,"ĠBlackBerry":14301,"imax":14302,"Ġblibli":14303,"ĠZul":14304,"ĠPU":14305,"Ġmempers":14306,"Ag":14307,"andalkan":14308,"alak":14309,"aruto":14310,"Ġtadinya":14311,"pd":14312,"ĠRossi":14313,"ĠUmur":14314,"ĠUntung":14315,"ĠTeluk":14316,"Ġturis":14317,"ĠBuruk":14318,"Ġdiaplikasikan":14319,"Ġmitos":14320,"Ġpura":14321,"ĠPemasaran":14322,"ĠNis":14323,"ĠInterior":14324,"Ġmembatalkan":14325,"Ġmenab":14326,"Ġditar":14327,"ĠSid":14328,"Ġsisanya":14329,"Ġcucu":14330,"yawarah":14331,"ĠKepe":14332,"ĠCib":14333,"Ġangkasa":14334,"Ġkesemb":14335,"Ġfood":14336,"Ġperundang":14337,"osk":14338,
[...]
