#version: 0.2
Ø §
Ù Ħ
Ù Ĭ
Ġ Ø
Ø§ ÙĦ
Ù ħ
Ù Ī
Ù Ĩ
Ġ Ø§ÙĦ
Ø§ Ø
Ø ±
Ø ©
Ø ª
Ù ĩ
Ù ģ
Ø ¯
ĠØ§ÙĦ Ø
Ù Ĥ
Ù ĥ
Ø ¹
Ø ¨
Ġ Ùħ
Ġ ÙĪ
Ø ³
ĠØ ¨
Ø Ń
Ġ ÙĦ
Ġ Ùģ
ĠØ £
ĠØ ¹
Ù ī
Ø ¬
ÙĬ Ø©
ĠØ§ÙĦ Ùħ
ĠØ ª
Ø§Ø ª
Ø§ ÙĨ
Ø Į
ĠÙģ ÙĬ
Ø ·
Ø§Ø ±
Ġ ÙĬ
Ø µ
ĠÙħ ÙĨ
ÙĬ ÙĨ
Ø ´
Ø§ Ùħ
Ø ¶
ÙĦ Ùī
Ù İ
Ø ®
Ø £
Ùĩ Ø§
Ø ²
Ø °
ĠØ ¥
ÙĬ Ø±
Ġ Ùĥ
ĠÙĪ Ø§ÙĦ
Ø «
ĠØ§ÙĦ Øª
ÙĪ ÙĦ
ÙĪ ÙĨ
ĠØ§ÙĦØ £
Ø§Ø ¨
Ø§Ø ³
ĠØ Ń
Ø§Ø ¯
Ø± ÙĬ
Ø§Ø ¡
Ġ Ùĩ
ĠØ ³
ÙĦ ÙĬ
ĠØ§ÙĦØ ¹
Ġ ÙĤ
ĠØ¹ ÙĦÙī
Ġ ÙĨ
Ø§Ø ¹
Ø§Ø ¦
ĠÙĦ ÙĦ
ĠØ£ ÙĨ
ÙĪ Ø±
Ø º
ĠØ ¬
Ù ĳ
ĠØ ±
ÙĬ Ø¯
Ùħ Ø§
ĠØ§ÙĦØ ³
. .
Ù ĭ
Ø§ Ùģ
Ù Ĳ
ÙĪ Ùħ
Ùĩ Ùħ
Ø ¸
ĠØ§ÙĦØ Ń
Ù ı
â Ģ
ĠØ¨ Ø§ÙĦ
ĠØ ¯
ĠØ ´
Ø§ ÙĤ
Ø§Ø Ń
Ù Ģ
ĠØ¹ ÙĨ
ÙĬ ÙĦ
ÙĦ Ùĥ
ĠØ ®
Ø³ Øª
ÙĨ Ø§
Ø± Ø¨
ĠØ§ÙĦØ ¬
Ø ¥
ĠØ§ÙĦ ÙĤ
Ġ 2
Ø§Ø ¬
Øª Ùħ
ĠÙħ Ø¹
ĠØ§ÙĦ ÙĨ
ĠØ§ÙĦØ ¨
ĠØ§ÙĦØ ¥
Ùħ ÙĨ
Ù Ĵ
ĠØ§ÙĦØ ´
Ø ¦
ĠØ§ÙĦ Ø¯
ĠØ§ÙĦ ÙĦ
ÙĪ Ø¹
ÙĦ Ùħ
Ø¨ Ø±
Ø° Ø§
ÙĪ Ø¯
ĠØ µ
Ø± Ø©
ĠØ¥ ÙĦÙī
Ùħ ÙĦ
Ø¹ Ø¯
ÙĪ ÙĤ
ĠØ§ÙĦ Ùģ
Ø± Ùĥ
Ø¨ ÙĬ
ÙĬ Ùħ
Ġ 1
ÙĤ Ø¯
ÙĬ Ø³
ÙĦ Ø§
ĠØ§ÙĦ Ø±
ÙĬ Ø§
Ġ Ø§ÙĨ
ĠØ§ÙĦØ ®
Ø§Ø³ Øª
ØŃ Ø¯
ĠØ Į
Ø§Ø µ
Ø ¤
ĠØ§ÙĦ Ùĥ
Ġ (
Ùĥ ÙĨ
ĠØ§ÙĦØª ÙĬ
ĠØ§ÙĦØ µ
ĠØ ·
ĠÙĪ Øª
Ġ2 0
ÙĤ Ø©
Ùģ ÙĬ
Ùħ Ø©
ĠÙħ Ø§
ĠØ§ÙĦØ °
Ø¹ Ø©
ÙĦ Ø©
Øª Ø±
Ø¹ ÙĦ
ÙĪ Ø¶
Ø§ Ùĩ
ĠÙĦ Ø§
Ø¨ Ø©
Ġ "
Ġ âĢ
Ø§Ø ·
ÙĢ ÙĢ
ĠØ£ ÙĪ
Øª Ùĩ
ÙĪ ÙĬ
ĠØ¹ ÙĦÙĬ
ÙĪ Ø§
Ø° Ùĩ
Ø§Ø ¶
ÙĨ ÙĬ
Ùħ Ø±
Øª ÙĬ
Ø± Ùģ
Ø§Ø ®
ÙĪ Ø³
ĠØ§ÙĦÙĦ Ùĩ
ÙĬ Ø¹
ÙĪ Ø¬
ĠØ °
ĠÙĦ Ùħ
Ø£ ÙĨ
ĠØ º
Ùĥ ÙĦ
Ø´ Ø±
Ġ .
Ùĥ Ø±
Ø¯ ÙĬ
ÙĪ Ùģ
Ø¨ ÙĦ
ÙĬ Ùģ
Ø¯ Ø©
Ø§Ø± Ø©
ĠÙĥ Ø§ÙĨ
ĠØ§ÙĦØ ·
Ø§Ø ²
ĠÙĩ Ø°Ø§
ÙĪ Ø¨
Ø§ÙĦ Ùħ
ÙĤ ÙĬ
ÙĨ Øª
Ġ Ø§
Ġ ..
ĠØ§ÙĦ ÙĪ
Ø® Ø±
ĠÙħ ØŃ
Ġ20 1
ĠØª Ø¹
ĠÙĥ ÙĦ
Ġ -
ĠØ§ÙĦØ «
Ø¬ Ùħ
Ø³ Ø¨
ĠÙĪ Ùħ
Ø³ ÙĦ
Ùĥ ÙĪÙĨ
ÙĦ Ø§ÙĦ
ĠØª ØŃ
Ùĳ Ùİ
Ø¯ Ø±
ĠÙĪ Ùĩ
Ø¯ Ùħ
Ø¨ Ø¯
Ùĥ Ùħ
ÙĬ Ø§Øª
Ø§Ø ´
ĠÙĩ Ø°Ùĩ
Ø¬ ÙĦ
ĠØ§ÙĦØ° ÙĬ
Ø¯ ÙĬØ¯
Ø§Ø «
Ø³ Ùħ
ĠÙĪ Ø£
ÙĨ Ø³
Øµ ÙĦ
Ø§ÙĨ ÙĬ
ÙĦ Ùģ
Ùĥ Øª
Ø§Ø ©
Ø± Ø¶
ĠØ§ÙĦÙħ Øª
ĠØ¨ ÙĬÙĨ
ĠØ§ÙĦ ÙĬ
ĠØ «
Ø§Ø¯ Ø©
ÙĬØ± Ø©
ĠØ¨ Ø¹Ø¯
Ùħ Ø¯
Ġ Ø§Ø³Øª
ÙĬ Øª
Øµ Ø±
ÙĪ Øª
Ùĥ Ø§ÙĨ
Ø¹ Ùħ
Ùĩ Ø±
ØŃ Ø©
Ġ :
ĠØ¨ ÙĨ
ÙĤ ÙĦ
Ø¯ Ø§
Ø· ÙĦ
ĠØ ²
ĠØ¥ ÙĨ
ÙĬ ÙĪ
ÙĨ Ø©
ĠÙĪØ§ÙĦ Ùħ
Ø¦ ÙĬØ³
ĠØ£ ÙĬ
Øª ØŃ
ÙĪØ¶ ÙĪØ¹
Ø¨ Ø§Ø±
ĠØ§ÙĦÙħ ÙĨ
ĠÙĩ ÙĪ
Ùĩ Ø¯
Ùģ Ø³
ĠØ ¶
Ø« Ø±
Ø· Ø©
ÙĤ Ø±
Ø¹ Ø¶
Ø® Øµ
ÙĬ Ø²
Ø Ł
ĠØ ¢
ÙĪ Ø§Øª
Ø§ÙĦ ÙĬ
ÙĬ Ø«
ÙĪØ± Ø©
ĠÙĬ Ø¹
Ø³ ÙĬ
ÙĪÙĦ Ø©
ĠØ° ÙĦÙĥ
Øª Ø¹
Ø´ Ø§Ø±
Ø¥ ÙĨ
Ø ¡
ĠÙĪ Ø¨
ĠØª Ùħ
Ùģ Ø±
ĠÙħ Øª
ĠØ£ Ùħ
ĠÙģ Ùī
ĠÙĪ ÙĤ
ĠØ³ ÙĬ
âĢ Ŀ
Ø±ÙĬ ÙĤ
ĠÙħ Ø³
Ø§Ø± Ø§Øª
Ø±Ùĥ Ø©
Øª Øµ
ĠØ® ÙĦØ§ÙĦ
ĠÙĬ Ùħ
ÙĨ Ø¯
Ø§Ø± ÙĬ
Øª Ùī
Øª ÙĩØ§
Ø§ Ùĥ
Ø ¢
Ø§ÙĦ Ø©
ĠØ§ÙĦÙħ ØŃ
ĠØ¬ Ùħ
ÙĪ Ø²
Ø§Ø °
Ø§ÙĨ ÙĬØ©
Ø± ÙĤ
ĠÙĦ Ùĩ
Ø° ÙĦÙĥ
ĠÙĪ Ø³
ĠÙħ Ø±
ĠÙĪ ÙĬ
ĠÙħ Ø¯
Ø¹ Ø¨
ÙĦ Ø§Ùħ
ĠØ¨ Ùħ
Ø¬ Ø±
Ġ 3
ÙĪ Ø±ÙĬ
Ø³ Ø±
Ø§Ùģ Ø©
ĠØ§ÙĦØ£ Ùħ
ĠØ¨ Ø±
ĠØ§ÙĦØ¹ Ø§Ùħ
Ø¹ Ø±
ĠÙĦ Øª
ĠØ§ÙĦØ º
Â »
ĠØ¹ÙĦÙĬ Ùĩ
Ø« ÙĦ
ĠÙĬ Øª
Ùħ ÙĪØ¶ÙĪØ¹
Ø¨ ØŃ
ĠÙĤ Ø¯
ĠÙĪ Ø¬
ĠØ§ÙĦ Ùī
ĠØ§ÙĦ Ùĩ
ÙĦ Ø¨
Ø® ÙĦ
ĠØ£ Ùĥ
ĠÙĦÙĦ Ùħ
ĠØª ÙĨ
ĠØ¹ Ø§Ùħ
ÙĪ Ùī
ĠØ¨ ÙĦ
ĠØ§ÙĦ Ø§ÙĨ
ĠâĢ ľ
Ø±Ø¨ ÙĬØ©
ĠØ§ÙĦÙħ Ø³
ï »
ĠØ§ÙĦØ ²
ĠÙĩ ÙĬ
ĠØ§ÙĦØ¬ Ùħ
ÙĪ Ùĥ
ÙĬÙĨ Ø©
ÙĪ ÙĬØ©
ĠØ§ÙĦÙħ Ø±
ĠØ§ÙĦÙħ Ø¹
ØŃ ÙĬ
ÙĨ ÙĬØ©
Ø§ÙĦ ÙĬØ©
ÙĦ Ùĩ
Ø³ Ø©
ÙĪÙĤ Ø¹
ĠÙĪ Ø¹
ĠØ§ÙĦÙĬ ÙĪÙħ
ÙĤ Ø·
Ùģ Ø¶
0 0
ĠÙĥ ÙħØ§
Ø¨ Øª
ĠØ¨ Ùĩ
Ø« ÙĬØ±
ĠØ¨ Ø¯
ĠØ¹ÙĨ Ø¯
ÙĪ Ø©
ĠØª ÙĤ
ĠØ¨ Ø´
Ø· Ø±
ĠØ¨ ØŃ
Ø¦ Ø©
ĠÙĤ Ø¨ÙĦ
ÙĦÙĬ Ùħ
ĠØ§ÙĦØ¹ Ø§ÙĦÙħ
ĠØ§ÙĦØ ¢
ĠØ§ÙĦØ³ ÙĬ
ĠÙĪ ÙĦ
Ø§Ø¹ Ø©
ĠØŃ ÙĬØ«
ĠÙĬ ÙĤ
Øª Ùģ
Ø¯ Ø¯
ĠÙĬÙħ ÙĥÙĨ
ĠØº ÙĬØ±
ĠÙħ Ø³Øª
ÙĬ Ø¨
ĠØŃ ØªÙī
ĠÙħ Ø´
ĠØ§ÙĦÙħ ÙĪ
ÙĬ Ùĩ
Â «
ÙĪ Ø§ÙĨ
Ø³ Ø·
ĠØ¨ Ø¹Ø¶
ĠÙĬ ØŃ
ĠØ§ÙĦÙħ Ø³Øª
ĠÙĪØ§ÙĦ Øª
Ø® Øª
Ø¬ Ø©
ĠÙĪ ÙĦØ§
Ø§ÙĦ Øª
Ø§Ø¨ Ø©
Ġ ,
ĠØ¨ Øª
ĠØª Ø±
ĠØ§ÙĦØª Ø¹
Ġ Ø§Ø³
.. .
Ø¶ Ø§
ĠØ§ÙĦÙħ Ø¯
ĠÙĦ ÙĬ
Ġ.. .
ĠÙĩ ÙĨØ§
Øµ Ùģ
Ġ Ø§Ø®
Ø§Ùħ Ø¬
Ùĥ ÙĬ
ĠÙħ ÙĪ
ĠÙĪ ØŃ
ÙĢÙĢ ÙĢÙĢ
ï º
Ø£ Ø³
Ø§Ø¯ ÙĬ
ĠØª Øª
Ø§Ùħ ÙĦ
Ø± Ø§Ø¡
Ġ 0
ĠÙĪ ÙĨ
Ø¹ ÙĪØ¯
ĠÙħ Ø¬
Ġ Ø§Ø¨
ĠÙĪ ÙħÙĨ
ĠØ± Ø¯
ĠÙħ ÙĤ
ĠØª Ø¬
ĠØ§ÙĦØ¹ ÙħÙĦ
ĠÙĪ Ø²
ĠØ¹ ÙħÙĦ
ĠÙĬ ÙĪÙħ
Ù į
Ø³ÙĦ Ø§Ùħ
Ġ Ø§Ø¹
ĠÙĬ Ø¬
ĠØ£ Ø¨
Ø§Øµ Ø©
ÙĦÙĥ ÙĨ
Ùĩ ÙĦ
ÙĪ ØŃ
Ġ Ø§ØŃ
ĠØ§ÙĦ Ø§Ø³Øª
Øª Ø¨
ÙĪ Ø§ÙĦ
Ø¸ Ø±
Ø± Ø¯
ÙĤØ¯ Ùħ
ĠØ£ Ø³
ĠØ§ÙĦØ¯ ÙĪÙĦ
ĠÙĪ Ø¥
Ùģ Ø¹
ÙĦ Ø§Ø«
ĠÙĥØ§ÙĨ Øª
Ùĥ Ø©
Ø¯ Ùī
Ġ p
ÙĦ ÙĤ
ÙĪÙħ Ø©
ĠØª Ø´
ĠØ£ÙĨ Ùĩ
Ġ20 0
Ø§Ø¦ ÙĬ
Ġ Â«
Ġ 4
ĠØ§ÙĦÙħ Øµ
ÙĬ Ø§ÙĨ
ĠÙĪ Ùĥ
ĠØ¹ Ø¨Ø¯
ÙĨ ÙĬÙĨ
ÙĬ Ø´
Ø® Ø¯
ĠÙĪÙĩ ÙĪ
Ġ )
Ø§Ø¦ ÙĬØ©
Ø§Ø¦ ÙĦ
Ø¨ Ùĩ
ĠÙĦ Ø£
ÙĪ Ø£
Ø¨ ÙĬØ±
Ġ 5
ĠØª Øµ
Øº ÙĬØ±
ĠÙħ Øµ
ĠÙĨ ÙģØ³
ĠØ³ Ø¨
ĠØ§ÙĦÙħ ÙĤ
Ùģ Ø©
Øµ ÙĪÙĦ
Ùģ Øª
ÙĪ Ùĩ
ØªÙħ Ø§Ø¹
ĠÙĤ Ø§ÙĦ
ÙĨ Ø§Ø¡
Ġ Ø§Ùħ
ĠÙĪ Ø§ØŃ
ĠÙĬ ÙĥÙĪÙĨ
ÙĬ Ø¬
ÙĬ ÙĬÙĨ
ĠÙĪ ÙĦÙĥÙĨ
ĠØ§ÙĦÙħ Ø¬
Ø§Ø¹ Ø¯
Ø¸ Ø§Ùħ
Ø¬ÙĦ Ø³
ĠØ« Ùħ
ØŃ Ø±
Ġ Ø§Øª
Øª ÙĦ
ÙĪØ¹ Ø©
ĠØ§ÙĦØ£ Ø³
a m
ĠØª Ø³
ĠÙĪØ§ÙĦ Ø£
Ø² Ø©
Ġp m
Ø¯ÙĬØ¯ Ø©
ĠÙħØŃ ÙħØ¯
Ø¹ Øª
ÙĤÙĬ ÙĤ
ĠÙħ Ø¤
Ùģ ÙĦ
ĠÙĬ ÙĨ
Ø§ÙĦ Ø¨
ĠØ¨ Ø£
ĠØ¨ ÙĩØ§
Ø§Ø³ Ø©
ÙĬ ÙĤ
ÙĪÙĦ Ø§
ĠØ§ÙĦØ ¶
ĠâĢ ĵ
ĠÙģÙĬ ÙĩØ§
ĠØ¨Ø§ÙĦ Ùħ
Ø®Ø± Ùī
Ø± Ø¬
Ø§Ø± Ø¬
ĠØ¨ Ø£ÙĨ
Ø±ÙĬ Ø¯
ĠØ§ÙĦÙĤ Ø±
ĠØ£Ùĥ Ø«Ø±
ÙĬÙĦ Ø©
ØŃØ¯ Ø©
Ø±Ùĥ Ø²
ĠØ± Ø¦ÙĬØ³
Ø§Ø±ÙĬ Ø®
ĠØ§ÙĦ Ø§
ÙĪ Ø·
Ø§Ø º
ĠÙĪ Ùģ
Ø¹ Ø§
ĠØ§ÙĦÙħ Ø´
ĠØ§ÙĦØ¨ Ø±
ĠÙĦ ÙĥÙĨ
ÙĪ Ø§Ø±
ÙĤ Ø§ÙĦ
ÙĦ ÙĬØ©
Ø§ÙĤ Ø©
Ø± Ø§Øª
Ø® Ø¯Ùħ
Ø±ÙĬ Ø¨
Ġ1 9
Ø§Ø³ ÙĬØ©
Ø¹ ÙĬØ©
" .
Øµ Ø©
Ø§Ø¬ ØªÙħØ§Ø¹
ĠÙĦ Ø£ÙĨ
Ø· ÙĤØ©
ÙĨ Ùī
ĠØ§ÙĦÙħ Ø¤
Ø§ÙĨ ÙĪÙĨ
ØŃØ¯ Ø«
ĠÙħ Ø«ÙĦ
ĠÙģ Ø±
ĠØ£ ØŃ
Øª Ùĥ
ĠØ¬Ùħ ÙĬØ¹
Ø§Ø± Ø³
ÙĨ Ø§ÙħØ¬
ĠØ ¸
ĠÙĦ Ùĥ
Ø§ØŃ Ø©
ĠÙĦ ÙĩØ§
ÙĬ Ùĥ
Ø®Øª ÙĦÙģ
ĠÙģÙĬ Ùĩ
ĠØ§ÙĦØ± Ø¦ÙĬØ³
ĠÙħ Ùħ
ĠØ³ Øª
ĠØ§ÙĦÙĪ Ø·
Ø§Ùħ Ø©
ĠÙĦ ÙĨ
ÙĪØ± ÙĬØ©
ÙģØ¶ ÙĦ
ĠØ¥ ÙĦØ§
ĠØ§ÙĦØ¹ Ø±Ø¨ÙĬØ©
Ø¶ Ø¹
ĠØ¨Ø´ ÙĥÙĦ
Ø¬ Ùĩ
ĠØª Ø¯
ĠØ¹ ÙĦ
Øµ Ø¯
ĠÙģ Ø¥ÙĨ
Ø§Øª Ùĩ
ĠÙĪ Ø±
Ø®Ø¯ Ø§Ùħ
Ġ am
ÙĬÙĨ Ø§
ĠØŃ ÙĪÙĦ
Ġ 6
ÙĪ Ø§Ø¬
Ø§ÙĦ ØŃ
ĠÙĬ ØªÙħ
ĠØ§ ÙĪ
Øª Ø§Ø¨
ĠÙħ ØµØ±
ĠØ¥ ÙĦÙĬ
Ø¹ ÙħÙĦ
ĠØ§ÙĦ Ø§Ø³
Ø³Ø¨ Ø¨
Ø§Ø¶ ÙĬ
Ġ _
ĠÙĤ Ø±
Ø§ÙĦ Ø§Øª
ĠØ¹ Ùħ
ÙĪ Øµ
ĠÙĬ Ø³Øª
ÙĦÙĬ ÙĦ
Ø¹ ÙĬ
ĠØ£ ØŃØ¯
ÙĪØ¯ Ø©
Ø±Ø¨ ÙĬ
ÙĤ Ø§
ĠØ´ ÙĬ
Ø® Ø·
Ø§Ø³ ÙĬ
ÙĦ Øª
Ø¸ Ùħ
Ø³Ø· ÙĬÙĨ
Ø³ ÙĨ
Ø´ Ùģ
ĠÙħ Ø¨
Ġ Ø§Ø±
ĠØ§ÙĦ Ø§Øª
Ø§Ø° Ø§
ĠÙĦÙĦ Øª
ĠØ³ ÙĨ
ĠÙĦ ØŃ
ĠÙĩÙĨØ§ Ùĥ
ĠØ¥ Ø°Ø§
Ø¨ Ø§Øª
Ø· Ø¨ÙĬ
Ø² ÙĬØ¯
ĠØ§ÙĦØ¨ ÙĦ
Ø±Ø¨ Ø¹
ĠÙĬ Ø¯
2 0
Ùĩ Ø©
Ġ /
ĠØª Ø£
ĠÙĨ ØŃ
ĠØ§ÙĦØª ØŃ
ÙĪÙħ Ø§Øª
Ø¶ Ø±
Ø±ÙĬ Ùĥ
ĠÙĪ ÙĤØ¯
ĠÙĪ ÙģÙĬ
ĠØ¯ Ø±
Ø§Ø± ÙĬØ©
Ùĩ ÙĬ
Ø¹Ùħ Ø§ÙĦ
ĠØ¨ Ø¥
Ø¨ Ø¹
ĠØ§ÙĦØ³ Ø¹ÙĪØ¯
ĠØ§ÙĦØŃ Ùĥ
Ø§Ùģ Ø¸
ĠØª Ùģ
Ø§Ø¯ Ø±
ĠØ¯ ÙĪÙĨ
ĠØ§ÙĦØª ÙĨ
ĠØ¯ ÙĪÙĦ
ĠØ® Ø·
ĠØ£ Øµ
ĠØ§ÙĦÙħ ÙĨØª
ĠØªØŃ Øª
ÙĨ Ø§ÙĨ
ĠØ¹ÙĦÙĬ ÙĩØ§
Ùĳ ÙĲ
Ùĥ Ø¯
ĠØ§ÙĦ Ø§Ùħ
Ø Ľ
ĠØ§ÙĦØ£ ÙĪÙĦ
Ù Į
ĠØ§ÙĦØ¹ Ø±
ĠØ¹ Ø¯Ø¯
ÙĦ Ø³Ø·ÙĬÙĨ
ĠØª ÙĥÙĪÙĨ
ÙĪ Ø§Ø¡
ÙĬØ¯ Ø©
Ġ1 0
Ø· Ùģ
ĠØ Ł
ĠÙģ ÙĤØ·
Ùħ Ø³
Ø§Ø¨ Ø§Øª
ĠØ§ÙĦÙħ Ùħ
Ø¬ Ø¯
ÙĬÙħ Ø©
Ùĩ ÙħØ§
ĠØ£ Ø¹
ĠÙĪ Ø£ÙĨ
Ùħ Ø§ÙĨ
ĠØ§ÙĦØ¥ Ø³ÙĦØ§Ùħ
Ġ 7
Øª Ø¯
Ø§ÙĤ Ø¹
Ø±Ùģ Ø©
ĠØ§ÙĦØ° ÙĬÙĨ
ØªÙħ Ø±
ĠÙħÙĨ ÙĩØ§
ĠØŃ Ø¯
ĠØ¨ Ø¹
Ø§Øµ ÙĦ
ĠÙħ ÙĦÙĬ
ØªÙħ Ø¹
ĠØ§ÙĦ ÙĪÙĤ
ĠÙĪÙĩ ÙĬ
ĠÙĦ Ø¥
ÙĪ ÙĦÙī
ĠØŃ ÙĤ
ĠØ§ÙĦØ£ Ø®
Ø£ Ø©
ĠÙħÙĨ Ø°
ĠØª Ø³Øª
Ġ Ø§ÙĤ
Ø² ÙĬ
ĠØª ÙĦÙĥ
Ø§ÙĦ Ùī
Ùĥ Ø³
ĠØ§ÙĦÙģ Ø±
ĠØ± Ø³
ĠØ§ÙĦØ« ÙĦØ§Ø«
ÙĤ ÙĪÙĦ
ĠØ£ Ø®
Ø¨ ÙĬØ©
Ùħ Ø¨Ø±
Ø° ÙĥØ±
Ø´ ÙĬ
ÙĪ ÙĬØ±
Øº Ø©
ĠØ§ÙĦÙħØª ØŃØ¯Ø©
Ġ 8
Ø§Ø¦ Ø±
Ùħ Ø§ÙĦ
Ø¯ Ø§Ø±Ø©
ĠÙĪ Ø§ÙĨ
Ø§Ø® ÙĦ
ĠØ§ÙĦ Ø§ØŃ
ÙĤ Ø¨
Ø· Ø§Ø¹
Ø§Ø¯ ÙĬØ©
Ø´Ø± ÙĪØ¹
ĠØ£ÙĬ Ø¶Ø§
ĠØ´ Ø®Øµ
Øª Ø®
ĠØ§ÙĦØ³ ÙĦ
Ø¸ ÙĬÙħ
Ø± ØŃ
Ø§Ø¨ Ø¹
ĠØ¬ Ø¯Ø§
Ø¬Ùħ ÙĪØ¹Ø©
ÙĪ ÙģÙĬ
Ø° ÙĬ
ĠÙĬ Ø³
Ø¯ÙĬ Ø«
ĠÙħ ÙĪÙĤØ¹
ĠÙĪØ§ÙĦ Ø¥
Øº ÙĬ
ĠØ§ÙĦØ¹ ÙĦ
Ø§ ÙĬ
Ø¶ Ø§Ø¡
ĠØ§ÙĦØ´ ÙĬ
Ø· Ø§Ø±
ÙĤ Ø§Ø¡
ĠØ¹ Ø¨Ø±
ÙĬÙģ Ø©
ĠÙĦÙĦ Ø£
Ø·Ø¨ÙĬ ÙĤ
ĠØ§ÙĦØŃ Ø±
ĠÙĪ Ø°ÙĦÙĥ
Ø² ÙĦ
Ø¨ Ø§Ø¨
Ø§Ùħ Ø¹Ø©
Ø¹ Ø§Ø±
ÙĪ ÙĬÙĦ
ĠØ£ Ø®Ø±Ùī
ĠØ§ÙĦØ¹ ÙĦÙħ
Ø¬ Ø²
ÙĤ Ùħ
ĠØ§ÙĦØµ ØŃ
Øº Ùħ
ĠÙĬ Ø´
Ø±Ùĥ Ø§Øª
ÙĪ Ø«
âĢ ı
ĠÙħ ÙĦ
ĠØ£ Ø´
ĠÙĨ Ø³
ĠØ§ÙĦØ´ Ø±
ĠØ§ÙĦ Ø±ÙĬ
Ø· Ø¨
ĠØ£ Ø¯
ÙĬ ÙĬ
Ø§Ø¨ ÙĤ
Ø¶ Ø§ÙģØ©
ĠØ¢ Ø®Ø±
ĠÙĦ ÙĬØ³
Ùĩ Ø§Ø¨
ĠØ§ÙĦØ¹Ø± Ø§ÙĤ
ÙĬØ± Ø§ÙĨ
Ùİ Ùĳ
ĠØ¨ Ùĥ
ĠØ§ÙĦØ¯ Ø±
ĠÙĪØ§ÙĦ Ø¹
ĠØ§ÙĦ Ø§ÙĤ
Ø¬ ÙĨ
Ø§ÙĦ Ùģ
Ø¶ Ø§Ùģ
ĠÙĪ Ø¯
) .
ĠØ§ÙĦÙĪ Ø²
Ø±ÙĬ ÙĤØ©
ÙĬ Ø§Ùħ
ĠØ´ Ø±ÙĥØ©
Ùģ Ø§ÙĤ
ĠØ¨ Ø·
Ġ 9
ĠØ£ ÙĪÙĦ
ĠØ§ÙĦØª Ø¬
e r
ĠÙĨ ÙĤ
Ø§ ÙĪÙĦ
Øª Ø¬
Ø§ÙĨ Ø¨
Ùħ Ø§Ùħ
Ùĥ Ø«Ø±
ĠÙĪØ§ÙĦ ØŃ
! !
ÙĬ Ø§Ø©
ĠØ§ÙĦÙĨ Ø§Ø³
ÙĪÙĤ Ùģ
ĠØ¨ ÙĪ
ĠÙĥ Ø¨ÙĬØ±
Ùħ ÙĬÙĦ
ÙĪÙĨ ÙĬ
Ø¨ ÙĬØ±Ø©
ĠØ§ÙĦÙħ Øº
Ġ201 8
ÙĤÙĬ ÙĤØ©
Øª Ø¨Ø±
Ùħ ÙĪ
ÙĦ Ø§Øª
ĠÙģ Øª
ÙĪ Ø§Ø¨
ĠØŃ Ø³
ĠÙĬ Ø±
ĠØ§ÙĦØ¬ Ø²
ĠØ§ÙĦØ® Ùħ
ĠÙĬØ¬ Ø¨
ÙĬØ± Ø§
Ø§Ø¦ ÙĬÙĦ
Ġ1 2
ĠØ§ÙĦØ¥ ÙĨØ³
ĠØ· Ø±ÙĬÙĤ
Ø§Ø¦ Ø¯
Ùĭ ØĮ
ĠÙĪ Ø´
Ùħ ÙĬØ©
Ø« Ùħ
Ø§ÙĦ Ùĥ
ĠÙĪØ§ÙĦ ØªÙĬ
ĠØ§ÙĦØ£ ÙħØ±
Øº Ø·
ÙĩØ¯ Ùģ
ĠØ§ÙĦ Ø§Ø¹
ĠÙĪØ³ ÙĦÙħ
ĠØ§ÙĦ Ø§Ø¬ØªÙħØ§Ø¹
Ø§Ø¹ Ø§Øª
Ø±ÙĬ Ùħ
ÙĤ Øª
Ùĩ ÙĪ
ØŃ Ø§Ø¯
Ø§Ùĩ Ø¯
ĠØ¨ ÙĬ
Ġ1 1
Ø¨ Ø·
ĠØ§ÙĦØ¹Ø§Ùħ Ø©
" ØĮ
Øµ ØŃ
ĠÙģ ÙĤØ¯
ĠØ§ÙĦÙħ Ùĩ
ĠÙħÙĨ Ùĩ
Ø¹ Ø§Ùħ
Ø¨ÙĬ Ø¹
Ø§ÙĦ Ø«
ĠØ§ÙĦÙĤ Ø¯
ĠØ§ÙĦØ£ ØŃØ¯
ĠØ¨ ÙĤ
ĠØ§ÙĦØ¯ ÙĬÙĨ
ÙĪØ¬ Ø¯
ĠØ§ÙĦ Ø§Ø®
Ø² Ø¨
Ġ201 0
ĠØ§ÙĦÙĪÙĤ Øª
Ø¹ÙĦ Ø§Ùħ
ĠØ´ Ø±
Ø§Ø¦ Ùħ
Ø§Ø¯ Ø§Øª
ÙĬ Ø·
Ø¸ ÙĩØ±
ÙĥØª Ø¨
ĠÙĪ ÙĥØ§ÙĨ
ØŁ ØŁ
ĠØ£ Øº
Ø§ ÙĬØ©
ĠØ³ ÙĦ
Ø§ÙĦ Ø¯
ĠÙħ Ø¬ÙĦØ³
ĠØ¹ÙĨØ¯ ÙħØ§
ĠØ§ÙĦØ¥ ÙĨ
ĠÙĪØ§ÙĦ Ø¯
ĠÙĦ ÙĪ
ĠÙĦÙĦ ØŃ
ÙĤ Ø¨ÙĦ
ĠØ§ÙĨ Øª
ĠØ§ÙĦØ¬Ùħ Ø¹Ø©
Ġ Ø§Ùģ
ĠØ§ÙĦØ£ ÙĨ
ĠÙĪ ÙĦÙĬ
ÙĦÙĬ Ø§Øª
ĠØ§ÙĦØ£ Ø±Ø¨Ø¹
Ø§ ÙĪÙĨ
ĠØ¨ ÙħØ§
ĠØ§ÙĦØ®Ùħ ÙĬØ³
Øª ÙĬÙĨ
Ø² ÙĬØ²
ĠÙĪØ§ÙĦ ÙĨ
ĠØµ ØŃ
Ø¹ Ø§Ø¯Ø©
Ġ201 1
ĠØµ ÙĦÙī
ĠØ£Ùħ Ø§Ùħ
ĠØ§ÙĦØª ÙĪ
ĠØ§ÙĦØ«ÙĦØ§Ø« Ø§Ø¡
ĠØ§ÙĦØ³Ø¹ÙĪØ¯ ÙĬØ©
20 1
ĠÙĦ Ø¨
Ø§Ø³ Ùħ
Ø§Ø¨ ÙĦ
ÙĤØ¯ ÙĬÙħ
i n
Û Į
Ø¤ ÙĪÙĦ
ĠÙĦ Ø¯ÙĬ
ÙĬ Ø§Ø¯Ø©
ÙĪØ³ Ø·
Ø¨ ÙĬÙĨ
Ø¶ ÙĬ
Ø§ÙĨ ÙĬØ§
Ø§ÙĨ Ø§
ĠØ§ÙĦØ« Ø§ÙĨÙĬ
ÙĨØ³ Ø¨Ø©
ØŃ ÙĦØ©
ÙĨ Ø¹
ÙĪØ¬ Ùĩ
Ø§Ø¦ ÙĤ
ĠØ® Ø§ØµØ©
Ø±ÙĬ Ùģ
ĠØ¨ Ø³Ø¨Ø¨
Ùĩ ÙĪØ±
ĠØ¬ Ø¯ÙĬØ¯
ĠÙĬ Ø§
Ġ Ø§Ø¬
ĠØ¬ Ùĩ
ĠÙĪ ÙħØ§
Ġ A
Ø¸ ÙħØ©
ĠØ§ÙĦÙĥ Ø«ÙĬØ±
Ø³ Ø§Øª
ĠÙħØ¯ ÙĬÙĨØ©
Ø§Ùħ Ø§
ĠÙĥ ÙĬÙģ
ÙĪØ±ÙĬ Ø§
Ø§Ø¦ Ø¹
Ø¹ Ø¨Ø©
Øº ÙĦ
Ø¬ ÙĨØ©
Ø´Ø§Ø± ÙĥØ©
ĠÙħ ÙħØ§
ĠØ£ Ø±
ĠØ¨Ø§ÙĦ Ø¥
ĠØ¨Ø§ÙĦ Øª
ĠØ§ÙĦÙģ ÙĦØ³Ø·ÙĬÙĨ
ĠÙĪØ§ØŃ Ø¯
ĠÙħ Ø®ØªÙĦÙģ
Ùĥ Ø±ÙĬ
Ø¬ ÙĬÙĦ
ĠØ§ÙĦØ¯ ÙĪÙĦØ©
ĠØ§ÙĦØ® Ø§ØµØ©
ĠØ§ÙĦØª ÙĤ
ÙĥØª ÙĪØ±
ÙĪ Ø¨Ø±
ĠØ§ÙĦØ£Ø±Ø¨Ø¹ Ø§Ø¡
Ø´Ø§Ø± Ùĥ
ĠØ³ ÙĨØ©
Ø¨ØŃ Ø«
ÙĦÙħ Ø©
ĠØ« ÙĦØ§Ø«
ÙĪØ¶ Ø¹
ĠØ§ ÙĬ
ĠØ¨Ø± ÙĨØ§ÙħØ¬
ĠØ¹ Ø¯Ùħ
ĠØŃ Ø§ÙĦ
ĠØ§ÙĦØ® Ø·
ÙĪ Ø¡
Ø± Ø¦ÙĬØ³
ĠØ³ Ùħ
Ø§Ø¹ Ø¯Ø©
Ġ [
ĠØ¶ Ø¯
Ø§ÙĦ Ø£
) ØĮ
âĢ ¦
ĠÙĪ ÙĦÙħ
ĠØ§ÙĦØ¬ Ùĩ
Øº Ø±
ĠØª Ø±Ùĥ
ĠØ¯ Ø§Ø®ÙĦ
ĠØ§ÙĦØ³ ÙĦØ§Ùħ
ĠØ¬ Ø¯ÙĬØ¯Ø©
Ø§Øª ÙĩØ§
ĠÙĨ Øª
Ùĳ Ùı
Ø² Ùħ
ĠØ£ Ø¬ÙĦ
ĠÙĥ ÙĨØª
ĠØ§ÙĦØ³ Ø¨Øª
ĠØ¬ ÙĨ
Ø¨Ø¯ Ø£
ĠØ§ÙĦØ¢ ÙĨ
ĠØ¨ Ø³
Ġ Â»
Ġ1 4
ĠØ§ÙĦÙħ Ø®
ĠØ§ÙĦØ£ ÙĪÙĦÙī
ĠØ§ÙĦØ£ ÙħÙĨ
ĠØª Ø·
ĠØ£ÙĨ ÙĩØ§
ÙĪ Ø¨Ø©
ĠØ¯ ÙĪØ±
ØŃ Øª
Ø¨ ÙĨ
Ø¶ Ø©
ĠÙĪÙĤ Øª
Ø§ÙĨ Ø§Øª
ĠØ§ÙĦØŃÙĥ ÙĪÙħØ©
Ø¬Ùħ Ø¹
ĠØ¹ ÙĦÙħ
Ùĥ ÙĪ
ĠÙĥ Ø«ÙĬØ±
ĠØ§Ø¨ ÙĨ
ĠØ¹ Ø¨
ĠØŃ Ø±
Ø¨ Ø§ØŃ
Ø§Ø ¸
ĠÙĪ Ø®
ĠØ§ÙĦÙħ ÙĦÙĥ
ĠÙħ Ùģ
ĠØ§ÙĦØ¬ ÙĨ
ĠÙĪÙĩ Ø°Ø§
Ø§Ùĩ Ø±Ø©
ĠÙĩ ÙĦ
Ø§Ùģ ÙĤ
ĠØ§ÙĦØ¹ Ùħ
Øµ ÙĪØ±
ĠâĢ ı
ĠØ§Ø³Øª Ø®Ø¯Ø§Ùħ
Ø¨ Ø§
ĠÙĪØ¬ ÙĪØ¯
ØŃ ÙĤ
Ø³Ø± Ø§Ø¦ÙĬÙĦ
Ø§ÙĤ Ø§Øª
ĠØ§ÙĦØ´ Ø¹Ø¨
ĠØŃ ÙĬÙĨ
Ø· ÙĬØ¹
ÙĪÙĤ Ø§ÙĦ
ĠØ¹ÙĨ Ùĩ
ĠÙĥ Ø¨ÙĬØ±Ø©
o n
Ø® Ø°
Ġ1 5
Øª Ø¨Ø§Ø±
ĠØ§ÙĦØ® Ø§Ø±Ø¬
ĠØ£ ÙģØ¶ÙĦ
ÙĪ ÙĪ
Ø¢ ÙĨ
Ø¹ ÙĬØ¯
Ø·Ùģ Ø§ÙĦ
Ø§Ø· ÙĤ
ĠØ£ Ø«
Ùģ Ø§Ø¹
ĠØ¹ ÙħØ±
ĠÙĬ Ø¤
ĠØªØ¹ Ø§ÙĦÙī
Ġ Ù
ĠØ§ÙĦØª Ø±
Øª ÙĩÙħ
Ø³ ÙĬÙĨ
ĠØ§ÙĦÙħ Ø¨
ÙĦÙĥ Ø©
ĠØ§ÙĦØ¹ Ø±Ø¨ÙĬ
ĠØµ Ùģ
ĠØ¬ Ø²
ØŃ Ùħ
Ø¨ÙĦ Øº
ĠØ§ÙĦØ´ Ø®Øµ
Ø¶ Ùħ
Ø§Ø¨ Ø¹Ø©
ĠÙħ Ø¬ÙħÙĪØ¹Ø©
Ø¨ ÙĤ
Ø§Øµ Ø±
Ø¹ÙĦ ÙĪÙħØ§Øª
ÙģÙĬ Ø°
Ø¬Ùħ ÙĬØ¹
ĠÙĪ Ø¶Ø¹
ĠÙĦ ÙĩÙħ
ĠØ§ÙĦÙĤ Ø§ÙĨÙĪÙĨ
ĠÙģÙĬ ÙħØ§
ĠØ§ÙĦØ§ÙĤ ØªØµ
ĠÙģ Ø¹
ĠÙħ ÙĥØ§ÙĨ
Ø¬Ø± Ø§Ø¡
ĠØ£ ÙĩÙħ
ØŃ ÙĨ
Ø¸ ÙĬÙģ
ĠÙħ Ø±Ø©
ĠØ´ÙĬ Ø¡
Ø±Ø¨ Ø©
ĠÙĪ ØºÙĬØ±
ĠÙĬ ÙĪÙĨ
ĠÙħ Ø®
ĠØ§ÙĦÙģ Øª
Ùĥ Ø±Ø©
Ø§Øª Ùģ
ÙĪ Ø§Ø¹
ÙĨØ§ ÙĪÙĦ
ĠØ§ÙĦØªØ¹ ÙĦÙĬÙħ
ĠÙĦ Ø¯
Ø§Ùģ ÙĬØ©
ĠØ§ÙĦØ· Ø¨ÙĬ
ĠØ£ Ùģ
Ġ S
ĠØ§ÙĦÙħ Ø§Ø¶ÙĬ
Ø§Ø¦ Ø¨
Ġ Ø§Ø´
a n
ÙĪÙģ Ø±
ĠØ¹ÙħÙĦ ÙĬØ©
ĠÙĬ Ùģ
ÙĬØ§ Ùĩ
Ø± Ùī
ĠØ§ÙĦÙħ ÙĦ
ĠØ£ ÙĤ
ĠØ§ÙĦØ¨ ØŃ
ĠØ§ÙĦØ¹ Ø¯ÙĬØ¯
ĠÙĪ Ø¥ÙĨ
ĠØ§ÙĦØ ¸
Ø§ÙģØ¸ Ø©
ĠØ§ÙĦØª Ùī
Ùħ ÙĬÙĨ
Ø·ÙĦ Ø¨
ĠÙĪ Ø·
ÙĪÙĬ Øª
Ø·ÙĦ Ø§ÙĤ
ĠØŃ ÙĦ
Ġ200 9
Ø§Ø¦ ÙħØ©
ÙĦÙħ ÙĬÙĨ
Ø§ÙĦ Ø¹
Ùģ Ø§
ĠØ§ÙĦØª Ø¯
ĠØ§ÙĦØ´ÙĬ Ø®
ĠØ§ÙĦÙĨ Ø³
ĠØ° Ø§Øª
Ø±ÙĬ ØŃ
ĠÙħÙĦÙĬ ÙĪÙĨ
Ùħ ÙĬÙħ
ĠØ§ÙĦØª Øµ
ĠØ§ÙĦÙĪØ· ÙĨÙĬ
Ø¯ ÙĬØ©
ĠØ§ÙĦØ¹ ÙĤ
ĠØ§ÙĦØ¥ÙĨØ³ Ø§ÙĨ
ĠØ§ÙĦÙħØ¬ ØªÙħØ¹
Ø®Ø± Ø¬
Ġ P
ÙĬØ¯ Ø§
Ø§Ùģ ÙĬ
Ø¯ ÙħØ©
ĠØ´ ÙĩØ±
ĠØ³ Ø±
ÙĩÙħ Ø©
ĠÙĤ Ø§Ùħ
Ø§ Ø§
Ø³ Ø§ÙĨ
ĠÙĦÙĦ Ø¥
ĠØ§Ø³ Ùħ
Ø§Ø³ Ø¨
ĠØ§ÙĦØŃ ÙĬØ§Ø©
âĢ ¬
ĠØ§ÙĦ Ø§Ø±
ĠâĢ ¬
ĠÙħ Ø¨Ø§Ø±
Ø§Ø¬ Ø©
ĠØ§ÙĦÙĨ Ø¸Ø§Ùħ
ĠØ§ÙĦÙħ Ø±ÙĥØ²
ĠÙĨØŃ ÙĪ
ĠØ§ÙĦØ±ÙĬ Ø§Ø¶
a r
ĠØ£ ÙħØ±
ĠÙĥ ØªØ§Ø¨
Ùĩ Ø°Ø§
ĠÙĪØ² Ø§Ø±Ø©
ĠÙĪØ² ÙĬØ±
ĠØª ØŃØ¯
ĠØ§ÙĦØ¨ ÙĬ
âĢĿ .
ÙĪÙĨ Ø©
Ø±ÙĬÙĥ ÙĬØ©
Ùĥ ÙħØ§
ĠÙħ Ùĩ
Ø·ÙĦ ÙĤ
ÙĪ ÙħØ§
ĠØ¹ Ø´Ø±
ÙĦ Ø§Ùģ
ĠØ§ÙĦØ¬ Ø¯ÙĬØ¯
ĠØª Ùĥ
Ø§ ÙĬØ±
ĠØ¨ Ø¬
Ø¹ÙĦ ÙĨ
ĠÙĬÙĤ ÙĪÙĦ
Ø± Øª
ĠØ¨ Øµ
Ø³ ÙĥØ±
ĠØ§ÙĦØ¥ Ø«
Ø±ÙĬ Ø·
ĠØŃ Ø§ÙĦØ©
ÙĪÙĦØ§ ÙĬØ§Øª
ĠØª Ø®
ÙĩØ§ ÙĬØ©
ØªØ± ÙĨØª
Ùħ Ø¹
Ø¨ Ø§ÙĦ
ĠØ± ÙĬ
ĠØ§ÙĦØµ Ùģ
ÙĬÙĨ ÙĬ
o r
ĠÙĪ Ø§Ø³Øª
ĠØ§ÙĨ Ùĩ
ĠÙĦ ÙħÙĨ
ĠØ§ÙĦÙħÙĨ Ø·ÙĤØ©
ĠØ§ÙĦØ® Ø§Øµ
ĠØ¯ÙĪÙĦ Ø§Ø±
ĠÙĦÙĦ ÙĨ
Ø® ÙĪÙĦ
ĠØ§ÙĦØŃ Ø¯ÙĬØ«
Ġ ÙĢ
Ø§ÙĦ Ø³
ĠÙĥ Ùħ
ÙĤ Ùĩ
Ø§Ø± Ùĥ
ĠØ§ÙĦØ¯ÙĪÙĦ ÙĬ
Ø· Ø¹
ĠØ° ÙĥØ±
ÙĪ Ø¨ÙĬ
Ø§Ùħ ÙĦØ©
Ø§Ø³ Ø§Øª
ĠÙħ Ùĥ
Øµ Ø§ÙĦ
Ùģ Ø¸
ĠÙħÙĨ Ø·ÙĤØ©
ÙĬ Ø§Ø±
ĠØ£Ø¨ ÙĪ
ĠÙĬ Øµ
ĠÙĨ ÙĪØ¹
ĠÙĬ ÙĪÙĦ
Ø§ØŃ ÙĬØ©
Ø¹Ø¯ Ø§Ø¯
Ùħ Øª
ĠØ¶ ÙħÙĨ
ÙĢÙĢÙĢÙĢ ÙĢÙĢÙĢÙĢ
Ø¬ Ø¨
ĠØ§ÙĦØ³ ÙĪØ¯
Ø§Ø³ Ø¨Ø©
ĠÙĪØ§ØŃ Ø¯Ø©
ĠØ¹ Ø¯
ĠÙĪØ§ÙĦ Ø´
ĠØ· Ø±Ùģ
ĠØ§ÙĦØ£ ØŃ
ĠÙħØ¨ Ø§Ø´
Ø§Ø¨ ÙĤØ©
ĠÙĨÙģØ³ Ùĩ
ĠÙĪ Øµ
Ø´ Ø©
Ø¯Ùħ Ø§Øª
ĠÙĦ Ø§ÙĨ
Ø£ Øª
.. ..
ĠÙģ ÙĦ
ĠÙĨ Ø¬
Ø¶ ÙĦ
ØµØ± ÙĬØ©
ĠÙĨ Ø¸Ø§Ùħ
Ø± Ø³
ĠÙĪØ§ÙĦ Ø³
ØŃ Ø§
Øª ÙĤ
ØŃ Ø¨
Ġ1 8
ĠØª Ø§Ø±ÙĬØ®
ĠØ§ÙĦØŃ ÙĤ
ÙħÙĦ Ø©
ØªÙĬ Ø¬Ø©
ØºÙĬ ÙĬØ±
Ø§Ø¯ Ø±Ø©
ĠÙģ Ø±ÙĬÙĤ
ĠØ¨Ø§ÙĦ Ø£
Ø´ Ø§Ø¡
ÙĬÙħ ÙĥÙĨ
ĠØ§ÙĦØ¯ ÙĥØªÙĪØ±
ĠØ§ÙĦØ´ Ø±ÙĥØ©
ĠØª ÙĪ
Ùħ ÙĬ
Ø§Ø¦ Ø¬
ĠØ± Ø¨
ÙĥØª ÙĪØ¨Ø±
ĠÙħ Ø«
ĠØ§ÙĦØ« Ø§ÙĦØ«
Ø¹ ÙĦÙī
ĠØ§ÙĦØŃ Ø¯
ĠØ³ÙĨ ÙĪØ§Øª
Ø£ ÙĬ
Ø´ Ø±Ø©
ĠØ§ÙĦØ¥Ø« ÙĨÙĬÙĨ
Ø§Ø¹ ÙĬ
ĠÙĪØ¹ ÙĦÙī
ĠÙĦÙĦ Ø´
Ø¯ Ùĩ
ĠØ§ÙĦØ¨ ØŃØ±
ÙĤ ÙĤ
ĠØ§ÙĦØ£ Ø¯
Ø§Ø¹ ÙĬØ©
ĠÙĪÙħ Ø¹
ĠØ£ ÙĦÙģ
ĠØ§ÙĦØ£ Ø±Ø¶
ĠØ§ÙĦØ¹ Ø¯
Ø§Ø¹ Ø¨
ĠÙĦ ÙĥÙĦ
ĠØ¥ Ø°
1 0
ĠØ§ÙĦØª Ø³
ÙĨ Ùģ
Ġ200 8
Ø® Ø§Øµ
Ġ Ø§Ø¯
Ø¬ ÙĬ
Ø± ÙĩØ§Ø¨
Ø¶ ÙĬØ©
Ġ M
ĠØ§ÙĦØª Ø´
ĠØ§ÙĦØ« ÙĤ
ÙĪÙĨ ÙĬØ©
ĠØµ ÙĦ
ĠØ³ ÙĪÙģ
ĠØ§ÙĦØ¯ Ùħ
ÙĬØ¯ ÙĬÙĪ
ĠØ§ÙĦØ± Ø³
ÙĪØ¬ ÙĪØ¯
ĠØ§ÙĦÙĬ ÙħÙĨ
Ùĥ ÙĬØ©
Ø¹ Ø§Øª
ĠØµ ÙĪØ±
ÙĪÙĦ Ùĩ
ÙĪÙĦ ÙĪØ¬
ĠØ¨ ÙĥÙĦ
Ġ1 3
ĠØ¨ ÙĬØ§ÙĨ
ÙĦ ÙĦ
Øµ ÙĪØµ
ĠÙĬÙĪÙĦ ÙĬÙĪ
ĠØ§ÙĦ ÙĦÙĬ
Ø· Ø§ÙĨ
ĠÙĦ Ø¯Ùī
ÙĨ ÙĬØ§
Ġ201 2
Ø¹ Ùī
ĠÙĪØ¬ Ùĩ
ĠØ± Ùħ
ĠÙĪØ§ÙĦ Ùģ
a l
ÙĦ Ø§Ø¡
ĠØ§ÙĦØ¬ Ø¯ÙĬØ¯Ø©
ĠØ§ÙĦÙħØµ Ø±ÙĬ
ĠØ¬ Ø§Ø¡
Ùĥ ÙĦØ©
ĠØ¹ Ø±Ø¶
Ø¥ Ø°Ø§
Ø±ÙĬ ÙĦ
Ø§Ø¦ Ùģ
Ø§Ø± Ø¨
ĠÙĪØª Ø¹
ØŃÙĬ ØŃ
ÙĬØ³ ÙħØ¨Ø±
ĠØ§ÙĦØŃ ÙĦ
ØªÙĬ Ø§Ø±
ĠØ§ÙĦÙħ ÙĪØ¶ÙĪØ¹
ÙħØ§ ÙĬØ©
ĠØ§ÙĦØ£Ùħ ÙĬØ±
Ġ Ø§Øµ
ĠØ£ØŃ ÙħØ¯
ĠØ§ÙĦØª Ùģ
ĠØ¹ Ø§ÙĦÙħ
Ġ201 7
Ø² Ø§
Ġ C
Ø§Ø¯ ÙĦ
ĠÙħ Ø±ÙĥØ²
Ø¬ Ø§ÙĦ
Ø¯Ø§ ÙĬØ©
ĠÙĪØ§ÙĦ ÙĤ
ĠØŃ ÙĬØ§Øª
ĠØ§ÙĦÙħ Ø¹ÙĦÙĪÙħØ§Øª
ĠÙħØ³Øª ÙĪÙī
Øª ÙĨ
ĠÙħ Ø§Ø±Ø³
ĠÙħ Ø´Ø±ÙĪØ¹
Ø¹ÙĦ ÙĤ
ĠØ£ ÙħØ§
Ø² Ø§Ùħ
ĠØ· ÙĦØ¨
Ùĭ .
ÙĪÙħ ÙĬØ©
ĠØ¨ ÙĢ
Ùĩ Ø±Ø¨
ÙĨØª Ø§Ø¬
Ø¯ Ø§Ø¯
ĠÙĦ Ø´
ĠØ§ÙĦÙħ ÙĪØ³
ĠÙĪØª ØŃ
Ø§ÙĨ Ø©
Ø° Ø±
ØªÙħ Ø¨Ø±
Ø±ÙĬ ÙĥÙĬ
ĠØ¥ÙĦÙĬ Ùĩ
Ø§Ùĩ Ø±
ĠÙĬÙĪÙĨ ÙĬÙĪ
Ø· Ø§Øª
ĠØ§ÙĦ ÙĢ
ĠØ§ÙĦÙħ Ùģ
ĠÙĨ ÙĤÙĦ
ĠØª Ø¨
Ø¯ Øª
ĠØ¯ Ø§Ø¦
Ùĥ ÙħØ©
ĠØ¯ ÙĬØ³ÙħØ¨Ø±
ÙĢÙĢ ÙĢ
ĠØ¥ Ø¯Ø§Ø±Ø©
ĠÙħØ¬ Ø§ÙĦ
Ø¯ ÙĬÙĨ
ĠØ§ÙĦØ¯ÙĪÙĦ ÙĬØ©
ĠØª ÙĦ
ĠÙĦ ÙĨØ§
Ùĩ Ø¨
ĠÙĪØ§ÙĦ Ø°ÙĬ
ÙĪØ¨ Ø§
Ø§Ø¯ Ø«
Ġ2 5
ĠÙĪÙĤ Ø§ÙĦ
ĠØ§ÙĦØª Ø£
âĢ Ń
ĠØ£Ùĥ Ø¨Ø±
ĠÙħ Ø¶
ĠØ¨ ÙħÙĨ
ĠÙĦ ÙħØ§
Ùĥ Ø§Ø±
Ø§Ø³ Ø·Ø©
Ø³Ø¨ ÙĪØ¹
Ø¸ Ø©
Ø® Ø©
ĠØ£ Ø¨ÙĬ
Ø¶ ÙħÙĨ
ĠØ¨ Ø§Ø³Øª
Ġ1 6
Øª Ø§Ø¬
ĠØ§ÙĦØ± Ø³Ùħ
Ø§ ÙĩÙħ
ĠÙĪ Ø¹Ø¯
ĠÙģ Ø£
ĠØ¹ Ø¯Ø©
Ø³Ø· Ø³
ĠÙĬÙĤ ÙĪÙħ
ĠØ± ÙĤÙħ
ĠØ§ÙĦÙħØ¯ ÙĬÙĨØ©
Ø§Ø¯ Ùĩ
ĠØ£ ÙĥØªÙĪØ¨Ø±
ĠÙĬ ÙĨØ§
ĠÙħØ¯ ÙĬØ±
ÙĪÙģ ÙħØ¨Ø±
Ø§Ø± Ø¯
ĠØ±Ø³ ÙĪÙĦ
ØŃ Ø§Ø¨
ĠØ§ÙĦ ÙĪÙĦØ§ÙĬØ§Øª
Ġ3 0
Ø¬ Ø§Ø²
ĠØ§ÙĦØ´ Ø±ÙĤ
Ø¹Ø¶ Ø§Ø¡
ĠØ§ÙĦÙĪØ· ÙĨÙĬØ©
ĠØ§ÙĦØ¯ Ø§Ø®
ĠØ§ÙĦ Ø§Ø¨
Ø¶ ÙĪØ±
ĠâĢ Ŀ
ÙĦÙĬ Ø§
ØªÙģ Ø§Ø¹
ÙĬ ÙĪÙĨ
ĠØ§ÙĦØ¥ Ùħ
ĠØ§ÙĦØª Ø±Ùĥ
ĠØ§ÙĦØ¢ Ø®Ø±
e s
ĠØªØŃ ÙĤÙĬÙĤ
ÙĪØ¶ ØŃ
ĠÙĨ Ø´
ĠØ§ÙĦØ¹ Ø±Ø¨
ĠØ§ÙĦØ£ ÙĪØ±
ĠØ³Ø¨ ØªÙħØ¨Ø±
ÙĩØ¯ Ø§Ùģ
ÙĤØ± ÙĬØ±
Ø§ÙĨ Ùĩ
Ø³ Ø³Ø©
ĠØŃ Ø³Ø¨
ĠØ§ÙĦÙħ ÙĪÙĤØ¹
ĠØ² ÙĪØ¬
ĠÙħ ÙĪØ³
Ø¨ Ø¹Ø¯
1 2
ÙĪ ÙĬØ¯
ĠØ® Ø§Ø±Ø¬
ĠØª Ø·Ø¨ÙĬÙĤ
ĠÙħÙĨ Øª
ĠØ£ ÙĪØ±
Ø· ÙĬ
ĠØ¨Ø§ÙĦ ÙĤ
Ø§Øª Ø¨
ØªÙħ Ø§Ùħ
ĠØ§ÙĦÙħØ± Ø£Ø©
ĠØŃ Ùĥ
ĠØ§ÙĦØ¨ØŃ Ø«
ÙĬØ² Ø©
Ùĩ ÙĪØ¯
Ø¬Ùĩ Ø²Ø©
ĠØ³ ÙĪØ±ÙĬØ§
ĠØ¯ ÙĪÙĦØ©
ĠØ¹ÙĨ ÙĩØ§
ÙĪ Ø´
ĠØ¥ÙĨ Ùĩ
Ø¬ ÙĦÙĬ
Ø§Ùĩ Ø¯Ø©
ĠØªÙĤ ÙĪÙħ
ĠÙĬÙĨØ§ ÙĬØ±
Øº ÙĬØ±Ø©
ĠØ§ÙĦØ³ ÙĨ
Ø®Øµ Øµ
ĠØ§ÙĦÙħ Ø²ÙĬØ¯
Ø§ÙĦ Ø±Ø¦ÙĬØ³
ÙĪÙĦ ÙĬ
ĠÙĦ ÙĢ
ĠØ¹ ÙĤ
ĠØ§ÙĦØ£Ùħ Ø±ÙĬÙĥÙĬØ©
ĠÙĪ Ø§Ø³
ÙĪÙĬ Ø§Øª
ĠØ§ÙĦØ£Ø® ÙĬØ±Ø©
ĠØª ÙĤØ¯Ùħ
ÙĦÙĥ ØªØ±
ĠØ§ÙĦØ« Ø§ÙĨÙĬØ©
ĠØ§ÙĦØ§Øª ØŃØ§Ø¯
Ø§ÙĦ Ø¬
ĠÙĪ ØªÙħ
ĠØ§ÙĦØ¨ ÙĨ
Ø¬ Ø§ÙĨ
ĠÙĨ Ø´Ø±
ĠØ§ÙĦØª Ø§Ø±ÙĬØ®
Ø§ØŃ Ø¨
e n
Ġ1 7
ĠØ§ÙĦØ¥ Ø¹ÙĦØ§Ùħ
ĠØ§ÙĦØ³ÙĬ Ø§Ø³ÙĬØ©
ĠÙĨ ÙĪÙģÙħØ¨Ø±
ÙĦÙħ Ø§ÙĨ
ĠÙĦ Ø°ÙĦÙĥ
ĠÙĬÙħÙĥÙĨ Ùĥ
Ø§ ÙĥÙĦ
Ùĩ ÙĨ
ÙĬØ± ÙĬ
ÙĪÙħ ÙĨ
ĠØ§ÙĦØ³ Ø§Ø¨ÙĤ
ĠØ§ÙĦÙĨ Ø¨ÙĬ
ÙĦÙĬ ÙĤ
ÙĦ Ø§Ø¨
ÙĪ Ø§ÙĤ
Ø· ÙĨ
ÙĨØ§ Ùĥ
1 9
ĠÙĦ ØªØŃ
Ø§Øµ ÙĬÙĦ
Ø§Ø¨ Ø·
a t
Ùģ ÙĤ
ÙĤØ± Ø§Ø±
Ø² Ø§ÙĦ
ĠÙĨ Øµ
ĠÙĬ Ø£
ĠÙĤ ÙĨ
Ø¨Ø± Ø§ÙĬØ±
ĠÙģ ÙĩÙĪ
ĠÙħ Ø·
ĠÙĤ Ø§ÙĨÙĪÙĨ
ĠØ§ÙĦÙħÙħ ÙĦÙĥØ©
Ø³ Ø³Ø§Øª
ĠØ§ÙĦØ£ Ø´
ÙĨØ³ ÙĬØ©
ĠØ£Øº Ø³Ø·Ø³
ĠØŃ Ùħ
ĠØ§ÙĦÙĨ Ùĩ
Ø§Ø¦ Ùĩ
ĠØ· Ø¨ÙĬ
ĠØ§ÙĦØ®Ø§Ø±Ø¬ ÙĬØ©
ĠØŃ Ø¯ÙĬØ«
ĠÙħØ§ ÙĬÙĪ
ĠØ¨ Ø§Ø±
ĠÙģ Ø§ÙĦ
ĠØ§ÙĦØ¥Ø³ÙĦØ§Ùħ ÙĬØ©
ĠØ¬ Ø§ÙĨØ¨
ĠØ§ÙĦÙĨ ÙĤ
ĠØª Ø¹Ø¯
ĠØ¹ Ø¶
Ġ2 4
ĠÙĥ ØªØ¨
ĠØ¬ Ø§ÙħØ¹Ø©
Ø§Ø¬ Ø§Øª
ĠÙĬ ÙĥÙĨ
ĠØª Ø¤
ĠØ¬ Ø¯
ĠØ¬ Ø±
1 1
ĠÙĦÙĦ Ùĩ
Ùģ Ø§Ø¡
ĠØ§ÙĦØ¨ÙĦ Ø§Ø¯
ĠÙĩ Ùħ
Ø§Ùģ Ø±
o m
ĠØ£Ø« ÙĨØ§Ø¡
ĠØ§ÙĦÙħ Ø¨Ø§Ø±
ĠÙĪÙĦÙĬ Ø³
Øº ÙĬÙĦ
ØªØ® Ø§Ø¨Ø§Øª
ĠØ§ÙĦØ´ Ø¨Ø§Ø¨
Ġ Ø§Ø¶
ĠØ´ Ø¨
Øª ÙĨØ§
ĠÙĨ Ùĩ
ĠØ¨ Ø§ÙĨ
ĠÙĨ Ø¸Ø±
Ø§Ø¦ Ø¹Ø©
ĠØ§ÙĦÙħ Ø¬ÙĦØ³
ĠØ§ÙĦÙĤØ± Ø¢ÙĨ
ĠÙĪØ§ÙĦ ØªØ¹
Ø§Ø± Ø¹
ĠÙĦ ÙĤ
ĠØ¨Ø§ÙĦ ÙĨØ³Ø¨Ø©
ĠÙĤ Øµ
ĠÙĦÙĦ Ø¯
Ø³ÙĥØ± ÙĬØ©
Ø« ÙĤ
Ø¯Ø± Ø³Ø©
ĠÙģ Ø¨Ø±Ø§ÙĬØ±
ĠØ® Ø§Øµ
ĠØ§ÙĦØ£ Ø®Ø±Ùī
ĠÙĥ Ø§ÙģØ©
Ø¹ ÙĪ
ĠÙģ ÙĨ
Ġ ï»
ĠÙħÙĨ ÙĩÙħ
ĠØ§ÙĦÙģ Ø±ÙĬÙĤ
ĠØ§ÙĦØ¹Ø§ÙĦÙħ ÙĬØ©
ĠØ§ÙĦÙħÙĪ Ø§Ø·
Ø§Ø¬ Ùĩ
ĠÙĪØ§ÙĦ Øµ
Ø§Øµ ÙħØ©
ÙĬØ¯ ÙĬ
ĠÙĤ Ø¯Ùħ
ĠÙĦÙħ Ø¯Ø©
ĠÙĤ Ø¯Ø±
ĠØ§ÙĦØ³ ÙĪØ±ÙĬ
ÙĦÙħ Ø§Øª
ÙĦ Ø¹
ĠØ£Øµ Ø¨ØŃ
Ø§Ùħ ÙĬ
ĠØ§ÙĦØ¬ ÙĬØ´
Ġ T
ĠÙĦ ÙĥÙħ
Ø¤ Ø§ÙĦ
ĠØ¹ÙĦÙĬ Ùĥ
ÙĬÙĨ ÙĬØ©
ĠØ´ Ùĩ
Ġ ïº
ĠÙħ ØªØ±
ĠØ£ ÙĩÙĦ
ĠÙĥ Øª
ÙĪØ£ Ø¶Ø§Ùģ
ĠØ£ÙĬ Ø§Ùħ
Ø§Ùĩ ÙĬÙħ
ĠÙĦ Ø³
Ø² ÙħØ©
ĠØ§ÙĦØ´ Ùĩ
ĠÙĤØ± Ø§Ø±
ĠØ§ÙĦØ³ ÙĬØ¯
ĠØ§ÙĦØ³ Ø±
ĠØª ÙĤØ¯ÙĬÙħ
Ùħ Ø´
ĠØ£ Ø¬
âĢĿ ØĮ
Ø§ÙĦ ÙĦÙĩ
ĠØª ØªÙħ
ÙĪØ± Ø§Øª
Ø¨Ø¯ ÙĪ
Ø±Ø§Øª ÙĬØ¬
ĠÙģ ÙĦØ³Ø·ÙĬÙĨ
ĠØ¨ÙĨ Ø§Ø¡
ÙĪØ¨ ÙĬØ©
Ø± ÙĪÙģ
ĠØ§ÙĦØ¨Ø± ÙĨØ§ÙħØ¬
ĠØ§ÙĦÙĥ Ø±ÙĬÙħ
ÙĪÙħ ÙĬ
ĠÙĬ Ø®
ÙĬ Øµ
Ø§ÙĦØ±Ø¦ÙĬØ³ ÙĬØ©
ĠØ§ÙĦÙĤ Ø§Ø¯
ĠÙĥ Ø±
Ø§Ø¨ ÙĬØ©
ĠØ¨ÙĪ Ø§Ø³Ø·Ø©
Ø´ ÙĦ
ĠØ§ÙĦÙħ Ø§ÙĦÙĬØ©
Ùĥ Ø§ÙĦ
Ø¦ Ø§Øª
ĠØ¨Ø¯ ÙĪÙĨ
ĠÙĥ Ø«
Ùģ Ø§Øª
Ùħ ÙĥØ§ÙĨ
ĠÙĪ Ø¢
ÙĪÙģ ÙĬØ±
Ø§Ùħ Ø¨
Ø§ ÙĪ
Ø§Ø¦ÙĬ ÙĦÙĬ
Ø³Ø¨ Ø§Ø¨
ĠØ¬ ÙĦ
ÙĨØ¯ ÙĤ
Ø³ÙĦ ØŃØ©
ĠÙħØ¹ ÙĦ
Øª ÙĦØ§ÙĦ
Ġ Ø§Ø«
ĠØ§ÙĦÙĨ Ùģ
ĠÙĬ ÙĪØ¬Ø¯
ĠÙĪ ØµÙĦ
ĠØ§ÙĦØ´ Ø¹
Ø§ØŃ ÙĦ
Ø£ ÙĦ
Ø§Ø¦ Ø¯Ø©
ÙĨÙĬ Ùĩ
ĠÙĪ Ø§Ø¶
ĠØ§ÙĦØŃ Ø±Ø¨
ĠâĢ ¦
ĠÙģ ØªØŃ
ÙĪØ¨ Ø§Øª
ÙĪ ÙĥØ§ÙĨ
ÙĪØ³ ÙĬØ§
ĠØ§ÙĦØ± ØŃ
ĠÙģØª Ø±Ø©
ĠØ§ÙĦÙħÙĨØª Ø¯Ùī
ĠÙģ ÙĦØ§
Ġ !
ÙĬÙĦ Ø§
ĠÙĪ ÙĥÙĦ
ĠØ§ÙĦØ³ Ùħ
ĠØ§ÙĦÙħØ³ ÙĦÙħÙĬÙĨ
Ġ201 3
ĠØ§ÙĦØ´ Ø¹Ø±
ĠÙĨ Ø¸
ĠÙĦÙĦ Ø¹
ĠØ¯ Ø¹
ÙĬØª ÙĩØ§
Ø§Ø ¤
Ø§Ø¦ ØŃ
ĠØ§ÙĦØ® Ø¨Ø±
ĠØ£ Ø¹ÙħØ§ÙĦ
ĠØ§ÙĦØ³ Ø¨
ĠÙĪØ§ÙĦ Ø®
ĠØ³ ÙĪØ§Ø¡
ÙĦ ÙĬÙĨ
Ġ #
Ùģ ÙĬÙĨ
Ø¶ Ø§ÙĨ
ÙĨ Ùĩ
Ġ201 6
ĠØ¨Ø§ÙĦ Ùģ
ØŃ Øµ
ĠØ¨ Øº
ĠØ§ÙĦÙĤ Ø¯Ùħ
ĠØ§ÙĦÙħ ØµØ±ÙĬØ©
Ø§Ø¯ ÙĤ
ĠÙĦÙĦ ÙĤ
ĠÙĨ ÙĩØ§ÙĬØ©
Ø¯Ø§ ÙĪÙĦ
ÙĬ ØŃ
Ø§Ø¬ Ø¹
Ø§Ø¦ ÙĦØ©
ĠØ¹Ø§Ùħ Ø§
ĠØ¨ Ùģ
ĠØŃÙĤ ÙĪÙĤ
ĠØ§ÙĦØ£ Ø¹ÙħØ§ÙĦ
ĠÙħ ÙĪØ¶ÙĪØ¹
Ø§Ø¨ Ùĩ
ĠÙĦÙĩ Ø°Ø§
ĠÙģ Ø¹ÙĦ
ĠÙĪØ¨ Ø¹Ø¯
ĠØ§ÙĦÙĥ ØªØ§Ø¨
ĠØ¥ Ø³Ø±Ø§Ø¦ÙĬÙĦ
ĠÙĨ Ø¹
ÙĬÙĬ ÙĬÙĬ
ĠÙģ Ø¶
ĠÙĨ Ùģ
ĠÙħ Ø²
Ø¹ÙĦ Ø§ÙĨ
ĠÙĬØ¹ ÙħÙĦ
ÙĪÙĨ Ø³
ÙĦÙĬ Ùĩ
ĠÙĬØ¹ ÙĨÙĬ
Ø³Øª Ø±
ÙĪÙĤ Ø¯
ĠØ£Ø¨ Ø±ÙĬÙĦ
Ø§ ÙĪØ²
ĠØ§ÙĦØµ ÙĦ
Â» .
ĠØ§ÙĦÙĩ ÙĬ
ĠÙĩ Ø¯
ÙĪ ØªØ±
ĠØ§ÙĦÙĨ ÙģØ³
Ø§ÙĦ Ùĩ
Øª Ø±Ùĥ
ĠÙĤ Ø¨
Ø§ÙĦ Ø¥
ÙĤ Øµ
ĠØ§ÙĦØ¨ Ø·
ĠØ§ÙĦÙĦ ØºØ©
ĠÙĬ Ùĥ
ĠØ² ÙĬ
Ø§ ÙĥÙħ
ĠØ§ÙĦØªÙĪ Ø§ØµÙĦ
ĠØ£ÙĨ Ø§
i c
Ø¬ Ø§Ùĩ
ĠØ§ÙĦØŃ ØµÙĪÙĦ
ĠÙĪØ§ÙĦ Ø±
Ùĩ ÙĪØ±ÙĬØ©
ĠØ¶ Ø±
ØŃ ÙĪ
ØªÙħ Ø¯
ĠÙĪ ÙĬØª
Ø³ Ø§Ùħ
Ġ Ø§Ø¬ØªÙħØ§Ø¹
ĠØ§ÙĦØ± ÙĪØ³
ĠØ¨Ø§ÙĦØ¥ Ø¶Ø§ÙģØ©
Ùĥ Ø§
ĠØ§ÙĦØ£ Ø·ÙģØ§ÙĦ
ĠØ¨Ø§ÙĦ ÙĨ
Ø² ÙĬØ©
ĠØ§ÙĦØ¨ ÙĬØ§ÙĨ
ÙĤØ± Ø§Ø·
ĠØ¹ÙĦÙĬ ÙĩÙħ
ĠÙĦÙĬ Ø³Øª
Ø¨ÙĬ Ø§
ĠØ£Ùħ Ø³
âĢ Į
Ø¤ ÙĦØ§Ø¡
ĠØ§ÙĦØª Ùħ
ĠÙĪØª ÙĨ
Ø´Ø± ÙĬÙĨ
ĠØ§ÙĦÙĪØ² Ø±Ø§Ø¡
ĠÙĪÙĥ Ø°ÙĦÙĥ
ĠÙĬ ÙĦ
ĠÙĪ ÙĬØ¹
ĠØ§ÙĦÙģØª Ø±Ø©
ĠØ¬Ùĩ Ø§Ø²
ĠØ§ÙĦØ® ÙĦÙĬ
ĠØ¹ ÙĤØ¯
Ø®ÙĦ Øµ
ĠØªÙĨ Ø¸ÙĬÙħ
Ùĥ ÙĬÙģ
ĠØ¨ Ø§Ø³Ùħ
Ø§Ùĩ ØªÙħØ§Ùħ
ĠØ± Ø¤
Ùĥ ÙĬÙĦ
ĠØ§ÙĦØµ ÙĨ
ĠØ± Ø³Ùħ
Ø³ÙĦ Ø³ÙĦ
ĠØ§ÙĦØ³ÙĬ Ø§Ø³ÙĬ
ĠÙĦ Ùģ
Ø· Ø§ÙĦ
ĠÙĦÙĦ Øº
ĠÙĪ Ø¶
Øµ Ø§Ø¨Ø©
Ġ2 2
ĠØ«ÙĦØ§Ø« Ø©
ĠØ§ÙĦØ® Ø§Ùħ
Øµ Ø§Ø±
ĠØ¨ÙĨ ÙģØ³
Ùĥ Ø§Ùħ
Ø¨ ÙĪ
ĠØ¥ ÙĤ
ĠÙĦ Ø¹
Ġ B
ĠÙĪ ÙĬÙĨ
ÙĥØ± Ø§
Ø· Ø±Ø©
Ø· Ø§Ø¡
Ùħ ØŃ
ĠØ§ÙĦØ§Ø¬ØªÙħØ§Ø¹ ÙĬ
Ø°Ùĩ Ø¨
Ø§Ø¦ ÙĩØ§
ĠØªØ¹ ÙħÙĦ
ĠØ¨Ùĩ Ø°Ø§
Ø§Ø¶ ÙĬØ©
Ø° Ø©
ÙĨ Ø¨
Ø¬ Ø§Ø±
Ø§Ø¦ Ø±Ø©
1 4
ĠØ® Ø¯ÙħØ©
ĠØ§ÙĦ Ø§Ø«
Øª ÙĤØ¯
ĠØŃ ÙĪ
Ø§ÙĦ ÙĤ
5 0
Ø³ ÙĥØ±ÙĬ
ĠØ§ÙĦØ¥Ùħ Ø§Ø±Ø§Øª
ĠÙĤ ÙĦ
Øª Øª
ĠÙĦ Øµ
ĠØ§ÙĦØ¬ ÙĦ
ÙĬÙħ ÙĤØ±Ø§Ø·
ĠØ§ÙĦØ¥ Ø±ÙĩØ§Ø¨
Ġ D
Ø¬Ùħ ÙĪØ¹
ĠØ§ÙĦÙħ Ø§ÙĦ
Ø¬ ÙĪÙħ
âĢ ¢
Ù ł
ĠØ§ÙĦ Ø±Ø¨
ĠÙĦ ÙĤØ¯
ĠØ¯Ø§Ø¦ ÙħØ§
ĠÙĪ ØŃØ¯
ĠÙĤ Ø·Ø§Ø¹
ĠÙħØ¹ Ø¯
ĠØ± Ø£Ø³
ĠÙĦÙĦ Ø¨ÙĬØ¹
ĠØ¨Ø§ÙĦ Ø¹
Ġ2 3
ĠÙĬ Ø³Ùħ
Ġ201 4
Ø¹ Ùĩ
ĠØ± Ø£
ĠØª ÙĨØ§ÙĪÙĦ
ĠØ§ÙĦØ³ Ø§Ø¹Ø©
00 0
Ø§ÙĦ ÙĨ
ĠØŃ Ø³ÙĨ
ĠÙħØ³ Ø§Ø¡
ĠØ¨ Ø§Ø¨
Ø§ ÙĪÙĬ
ĠØ§ÙĦØ´ Ø±ÙĥØ§Øª
Ø¨ Ø§Ø¡
ĠÙħØ³ Ø¤ÙĪÙĦ
ĠØŃØ¯ Ø«
ĠØ§ÙĦØ³ ÙĨØ©
ĠØ§ÙĦØ¥ ÙĦÙĥØªØ±
Ġ2 1
ĠØ§ÙĦØ¨ Ø´Ø±
ĠØ§ÙĦØµ ÙĪØ±
Ġ H
ĠÙĤ ÙĪØ§Øª
ĠØ· Ø±ÙĬÙĤØ©
ĠØ® Ø¨Ø±
Ø¦ Ø§
ÙĨØ§ Ùĩ
ĠÙĬØ¹ Ø±Ùģ
ĠÙĨØŃ ÙĨ
ĠÙĥ Ø°ÙĦÙĥ
Ġ Ø§Ø·
ĠÙħØ®ØªÙĦÙģ Ø©
Ø¶Ø§ ÙĬØ§
ĠØ§ÙĦØ± Ø¬ÙĦ
Ø± ÙĬÙĨ
ĠÙĪØ§ÙĦ Ùĥ
Ø¤ ÙĪÙĨ
ĠØ§ ÙĥØ«Ø±
ĠÙħØ¹ Ùĩ
ĠØ¨ ÙĬØª
ĠØ¬ Ø¹ÙĦ
ÙĬØ± ÙĬØ©
Ø« Ø§Ø±
ĠØ¨ Ø¯Ø§ÙĬØ©
ĠÙĪØ§ÙĦ Ø¬
ĠØ§ÙĦØ¯Ø§Ø® ÙĦÙĬØ©
Ø¬ Ø±Ø©
3 0
ĠÙĦÙĦ Ø³
ÙĦÙģ Ø§Øª
ĠÙĨ ØªÙĬØ¬Ø©
ÙĥÙĨ ÙĪÙĦÙĪØ¬
ÙĪØ± Ø¯
ĠØ§ÙĦØ¹ Ø¨
ĠØ§ÙĦ Ø§Ø´
ĠØ§ØŃ Ø¯
ĠØ§ÙĦØ£ Ø±
ĠØ§ÙĦÙħ Ø´Ø±ÙĪØ¹
ĠØµ Ø¯
ĠØ§ÙĦØ¬Ùħ ÙĬØ¹
Ø´Ø§Ø± ÙĬØ¹
ÙĨØ³ ÙĬ
ĠÙĥ ÙĦÙħØ©
ĠÙĤ Ø³Ùħ
Ø§ÙĦØª Ø§ÙĦÙĬ
Ø° Ø¨
Ø· ÙĪØ±
ĠØ¯ ÙĬÙĨ
Ø¨ÙĤ Ùī
ÙĤØ¯ Ø±
ĠÙĪØ§ÙĦ ÙħÙĨ
Ġ G
ĠØ§ÙĦØ³Ø¹ÙĪØ¯ ÙĬ
Øº Ø¨
Ø§ÙĤ ÙĬ
Ø§Ø¯ Øª
ĠÙĦÙĦ Ùģ
ÙĬØ± Ø§Øª
ĠØµ ÙĪØ±Ø©
ĠØ¯ Ø¹Ùħ
ĠØ· Ø¨
ĠÙĪØ§ÙĦ Ø§Ø³Øª
ĠÙĦ Ø§Ø³Øª
ĠØ´ ÙĥÙĦ
Ø¬Ø± Ø¯
ĠÙĦØ¨ ÙĨØ§ÙĨ
ĠÙĥØ«ÙĬØ± Ø§
Ø§ÙĨ Øª
ØªÙħØ± Ø§Ø±
ĠØµ Ø§ØŃØ¨
ÙģØ± Ø§Ø¯
Ġ201 5
ĠØµ Ø¨Ø§ØŃ
ĠØ± ØºÙħ
Ø¹Ø§ ÙĬØ©
ĠØ§ÙĦÙĥ Ø±
Ø§Øª ÙĩÙħ
Ø«Ùħ Ø§Ø±
Ø§Ø¨ ÙĬ
ĠØ§ÙĦÙģÙĦØ³Ø·ÙĬÙĨ ÙĬØ©
Ø¬Ø±Ø§Ø¡ Ø§Øª
Ø° Ùĥ
ĠØ¨Ø´ Ø£ÙĨ
ĠØ¸ ÙĦ
ĠØµ ÙĨ
ĠØ± ØŃ
Ġ R
ĠÙģ ÙĪÙĤ
ØµÙĦ Ø§ØŃ
Ùĥ Ø¨Ø±
i t
s t
ĠØ§ÙĦØ· Ø¹Ø§Ùħ
ĠØ§ÙĦÙħ Ø®ØªÙĦÙģ
ÙĨØ¯ ÙħØ§
ĠÙĪØ³ Ø·
ĠØ£ ÙħÙĨ
Ùĩ ÙĢ
ĠØ¥ ÙĦ
ÙĦØ§ Ùĥ
Ø§Ø¹ Ø±
Ø³Ø± Ø§Ø¦ÙĬÙĦÙĬ
Ø· ÙĪÙĬØ±
ÙĪ ØŃØ©
ĠØ§ÙĦÙĤ Ø§ÙĩØ±Ø©
ĠØ§ÙĦØ£ Ùģ
ĠÙħØ¨Ø§Ø´ Ø±Ø©
ĠØ§ÙĦØŃ ÙĥÙħ
ĠØ¥ÙĦÙĬ ÙĩØ§
Ùħ Ùĩ
ĠØ¥ Ø¶Ø§ÙģØ©
ÙĪÙĨ Ùĩ
ÙĪØ§Ø¬ Ùĩ
ĠØ¨Ø§ÙĦ ØŃ
ĠØ§ÙĦØ¹ ÙĨ
ĠØ¯Ø± Ø¬Ø©
Ùģ Ùĩ
l e
ĠÙħÙĤ Ø§Ø¨ÙĦ
Ø±Ùģ Ø¹
ĠÙĪ Ø³ÙĬ
Ø¬ Ø¹
ĠØ§ÙĦØ£Ùħ Ø±ÙĬÙĥÙĬ
ĠØ§ÙĦØŃ Ø³
ĠØ¨ÙĬÙĨ ÙħØ§
ĠØ§ÙĦÙĦ Ø¬ÙĨØ©
ĠØ§ÙĦØ¯ ÙģØ§Ø¹
ĠØªØ¹ Ø±Ùģ
ĠØ¯ Ø§Ø±
ĠÙĦØ£ÙĨ Ùĩ
Ùĥ ÙĬØ¯
ĠØ§ÙĦØ· ÙģÙĦ
ĠÙĥ ÙĨ
ĠØ² ÙĬØ§Ø¯Ø©
ĠØ±Ùħ Ø¶Ø§ÙĨ
ĠÙĪ Ø¸
Ø³Øª Ø§ÙĨ
ĠØ§ÙĦÙħ Ø²
ĠØ§ÙĦØ¥ ÙĤ
Ùĥ Ø§Øª
ĠØ§ÙĦÙĤ ÙĬ
ØŃ Ø§Øª
Ø¬ Ø§ØŃ
ĠØ£ ÙĦ
ĠØª Ø±ÙĬØ¯
ĠØ¨ Ø¨
ĠØ§ÙĦØ¨ Ø¯
ĠØ§ÙĦØ³ ÙĪÙĤ
1 8
ĠØ§ÙĦØ§Ø¬ØªÙħØ§Ø¹ ÙĬØ©
Ø±ÙĬØ¨ Ø§
Ùħ Ùħ
ĠØŃ Ø²Ø¨
Ø± Ø§
ÙĤ ÙĪÙħ
ĠØ§ÙĦÙĨØ³ Ø§Ø¡
ĠØ§ÙĦØ¬ Ø³Ùħ
ĠØ§ÙĦÙĨ Ø¸Ø±
ĠØŃ Ø±ÙĥØ©
ĠÙĤ ÙĬ
ĠÙģ ÙĤØ§ÙĦ
ĠØº Ø²Ø©
ĠÙĪØ¨ ÙĬÙĨ
ĠØ§ÙĦÙħ ÙĬØ§Ùĩ
ĠØ¹ Ø§ÙĦÙĬØ©
Ø¦ Ø§Ø³Ø©
ĠØ§ÙĦØ· Ø¨
ĠØ¹ Ø²
ĠÙħØ¨Ø§Ø± Ø§Ø©
Ø±ÙĬ Ø¨Ø©
ĠÙĪØ§ÙĦ Ø¨
ØŃØ¯ Ùī
ĠØ§ÙĦØ±Ø¦ÙĬØ³ ÙĬØ©
ĠØ§ÙĦÙħ Ø«
ÙĪ ÙĬÙĨ
ĠØ§ÙĦÙĤ Ø·Ø§Ø¹
ĠØ´ Ø§Ø¡
ĠØ§ÙĦØ³ Ùģ
Ø¹ ÙĨ
ÙĪ ÙĬÙĦØ©
ĠØ¬Ø² Ø¡
Ø§ ÙĪÙĦØ©
ĠØ¨ Ø§Øª
ĠØ¨Ø§ÙĦ Ø³
ÙĬÙħ ÙĬ
ÙĬØ± Ùĩ
ĠØ´ Ø¹
ĠØ§ÙĦØ° Ùī
Ø« Ø©
Ġ Ø§Ø°Ø§
ĠØ¨ Ø°ÙĦÙĥ
ĠØ¨Ø§ÙĦ Ùĥ
ĠØ³ Ø§Ø¹Ø©
ĠØ§ÙĦØª Ø·Ø¨ÙĬÙĤ
ĠØ§ÙĦÙħ Ø§Ø¡
ĠØ§ÙĦØ¨ ÙĬØª
Ø§Ø¬ ÙĩØ©
ĠÙĪØºÙĬØ± ÙĩØ§
ĠÙĬ ØªØ¹
Ø±ÙĬ Ø¹
Ø§Ø¨ Øª
ĠÙĦ Ø¬ÙĨØ©
Ø³Øª Ø§Ø°
Ø§Ùģ Ø¹
ØŃ ÙĬÙĨ
ĠØ§ÙĦÙĦ Ø¨ÙĨ
Ġ Ø§Øº
ĠØ§ÙĦÙĤ Ø¨
Ø±ÙĬ Ø¹Ø©
ĠØ§ÙĦØ¯ Ø¹
Ø±ÙĬÙĤ ÙĬØ§
ÙĪ Ø§ØµÙĦ
ĠÙħ Øº
Ùĩ Ø°Ùĩ
ĠØ§ÙĦØ¬Ùĩ Ø§Ø²
Ø§Ùħ ÙĬÙĨ
1 5
ĠØ§ÙĨ ØªÙĩ
ĠÙĪ ØµÙģ
ĠÙĥ Ø§ÙħÙĦ
ĠØªÙĨ ÙģÙĬØ°
Ġ2 6
ĠØ§ÙĦÙħ ÙĤØ¯
ĠØ± ÙģØ¹
ĠÙħÙĪ Ø§ÙĤØ¹
Ø² ÙĬÙĨ
ĠØ¹ Ø±
ĠØ³ ÙĬØ±
ĠØ§ÙĦØ¬ Ø§Ùħ
Øª ÙĪÙĬ
ĠØ§ÙĦÙħØ®ØªÙĦÙģ Ø©
ÙĬØ³ ÙĬ
ÙĪ Ø§Ùħ
Ø§ØŃ Ø¸
Ø§Ø² ÙĦ
ĠØ§ÙĦØŃ Ø¨
ĠÙĬ Ø±ÙĬØ¯
ĠØ® ÙĦÙģ
ĠÙĨØ³ Ø¨Ø©
ï» Ł
ĠØ§ÙĦØ´ ÙĩØ±
ïº İ
Ø§Ø´ Ø©
Ġ2 8
ĠØ§ÙĦÙħ Ø³ÙĬ
ÙĬ ØªÙĩ
ĠØ±ÙĬ Ø§ÙĦ
ĠØ§ÙĦØ· Ø±ÙĬÙĤ
Ø¨ÙĬ Øª
Ø² ÙĪØ¬
Ø® Ø¨Ø§Ø±
ĠØŃ ÙĥÙħ
Ġ2 7
ĠØ¥ ÙĬØ±Ø§ÙĨ
ĠØ§ÙĦÙĩ ÙĨØ¯
ĠØ§ÙĦØ¹Ø§ÙĦÙħ ÙĬ
ĠØ¸ ÙĩØ±
ÙĪ Ø§Ø¯
ÙĦÙĬ Ùģ
ĠÙĪ Ø§Ø¹
ĠØ§ÙĦÙħØ³ Ø¤ÙĪÙĦ
ÙĬÙħ Ø§ÙĨ
Ø´Ø± Ø§Øª
Ø§ÙĦ ÙĦ
ÙĦØ¨ ÙĬØ©
Ùĩ Ùĩ
Ø§Ø± Øª
ĠØ¨ Ø®
ĠÙĩ Ø¤ÙĦØ§Ø¡
1 6
ĠØ§ÙĦØ® Ø¯ÙħØ§Øª
Ø³ ÙĬØ©
Ø³ Ø§Ø¡
ĠÙĪØ³ Ø§Ø¦ÙĦ
ĠØŃ Ø¨
ĠØ§ÙĦÙĥ ÙĩØ±Ø¨
ĠØ³Ø¨ ÙĬÙĦ
ĠØ£ÙĨ Øª
ÙħØ¯ ÙĬÙĨØ©
ĠÙħÙĦÙĬ Ø§Ø±
ĠØª Ø³Ùħ
ĠØªØ¹ Ø±Ø¶
Ø§Ø² ÙĬ
ĠØª Ùĩ
Ø±ÙĬ ÙħØ©
ĠØ¢ ÙĦ
ĠØ§ÙĦØ¬ Ø§ÙħØ¹Ø©
ĠØªØŃ ÙħÙĬÙĦ
ĠØ§ÙĦØ³ÙĪØ¯ Ø§ÙĨ
ĠØ§ÙĦØ¨ Ø¹Ø¶
Øª ÙĤØ§ÙĦ
ĠØ§ÙĦØ³ ÙĪØ±ÙĬØ©
ĠØ§ÙĦØ£ Ø±Ø¯
Ġ F
Ġ {
Ùĩ ÙĪÙĦØ©
r e
ĠØ§ÙĦÙħÙĤ Ø¨ÙĦ
Ø±ÙĬ Ø¶
ĠØ§ÙĦÙģ ÙĬØ¯ÙĬÙĪ
ĠØ´ Ø¹Ø¨
ĠØ§ÙĦÙĪ Ø§ÙĤØ¹
Ø§Ø´ Ø±
ĠØ§ÙĦØ¹ÙħÙĦ ÙĬØ©
Ø¯ Ø§ÙĨ
Ø´ Ø·Ø©
Â» ØĮ
ĠØŃØ³ Ø§Ø¨
¡ Ù
ÙĬ Ø§Ø±Ø§Øª
ÙĤØ± Ø±
ĠØ§ÙĦÙħØº Ø±Ø¨
ÙĪØ¹ Ø¯
Ø´Ùģ Ùī
Ø§Ø¹ Ø´
ĠØ§ÙĦØª Ø±Ø¨ÙĬØ©
ĠÙĩÙĬ Ø¦Ø©
1 3
Ø¨Ø± Ø²
Ø§Ø¬ Ø¦
Ø· Ø§ÙĦØ¨
Ø¨ÙĬ ÙĪØªØ±
Ø¨Ø± Ùī
ÙĲ Ùĳ
Ø±Ø§Ø¡ Ø©
ĠØ± Ø¬ÙĦ
ĠØ§Øª ÙģØ§ÙĤ
ĠØ« ÙĤ
Ø® Ø¨
Ùģ Ø§Ø¸
ĠØ§ÙĨ Ø§
ĠØ¬ÙĨ ÙĪØ¨
a d
ĠÙĪÙģ ÙĤ
ĠØ§ÙĦØ´ Ùħ
ĠØªØµ Ø±ÙĬØŃ
ĠØ£ ÙĤÙĦ
ĠØ® ÙĬØ±
ĠØ¯ ÙĬ
ĠØ³ÙĬ ÙĥÙĪÙĨ
ÙĪÙĦ Ø§Øª
ĠØ£Ø´ ÙĩØ±
Øµ Ø¨
ĠØ£ÙĨ ÙĪØ§Ø¹
Ø§Ùħ ÙĬØ©
Ø§Ø· Ø±
ĠØ§ÙĦØ³ÙĦ Ø·Ø©
ĠÙħØŃ Ùħ
ĠØ§ÙĦØ® Ø±
Ø§ØŃ Ø«
Øª Ø§Ø²
ĠÙĬØ¬ Ø¹ÙĦ
ĠÙģ ÙĩÙĬ
ĠØ§ÙĦØº Ø°
Ø¨Ø± ÙĨØ§ÙħØ¬
ĠØ§ÙĦØ§ØŃ ØªÙĦØ§ÙĦ
ĠÙĥØ§ÙĨ ÙĪØ§
ĠØ§ÙĦØµ ÙĪØ±Ø©
ØŃ ÙĬØ©
ĠØ¨ Ø³ÙĬ
ĠØ§ÙĦØµ ØŃØ©
ÙĪØ± Ø§
ĠÙĨØª Ø§Ø¦Ø¬
o u
ĠØ§ÙĦÙħÙĨ Ø§Ø·ÙĤ
ĠÙĬ Ø¹Ø¯
ĠØ¨ÙĦ Øº
ĠØ§ÙĦÙĪ ØŃ
ĠØ§ÙĦ Ø§Ùģ
Øµ Ø¨ØŃ
ĠØ§ÙĦÙħÙĪ Ø§Ø¯
ÙĤ Ø§Ùħ
ĠØŃ ÙĬØ§Ø©
ĠØ§ÙĦÙĥ Ø¨ÙĬØ±
Ø±ÙĬÙĥ Ø§
Ø±ÙĬ Ø¯Ø©
ĠÙĤ Ø§Ø¦ÙħØ©
ĠØŃ ØµÙĦ
ĠØ§ÙĦÙĥ ÙĪÙĬØª
ĠØªØ· ÙĪÙĬØ±
ÙĪ Øº
ĠØ¨Ø§ÙĦ ÙĦ
ĠØ§ÙĦÙĤ ÙĪØ§Øª
ĠØ¹Ùħ ÙĦÙĬØ§Øª
ĠØ±Ø³ Ø§ÙĦØ©
Ø§Ùģ ØŃØ©
ĠØ§ÙĦÙħ Ø´Ø§Ø±Ùĥ
ĠØ§ÙĦÙħ Ø¹Ø¯
ĠÙħ ØŃØ¯
ĠØ¨Ø£ÙĨ Ùĩ
ĠÙħØ¹ Ø¸Ùħ
ĠØ§ÙĦÙĨÙģ Ø·
ĠØ¥ Ø³Øª
Ø¹ÙĦ ÙĨØª
ĠØ§ÙĦÙħ ÙĥØ§ÙĨ
Øª Ø´
ĠØ¥ Ø¯
ÙĪØ¬ ÙĬÙĩ
Ø§Ø¶ ÙĬØ¹
Ø§Ø¦ Ø²Ø©
ĠØ¥ Ø·Ø§Ø±
Ùĥ Ø°Ø§
ĠØª Øº
Ùģ ÙĬØ©
ĠØ§ÙĦØŃ Ø§ÙĦÙĬ
ĠØ§ÙĦÙħ Ø·ÙĦ
Ø§Ø± Ùĩ
ĠØ§ÙĦØ´Ø± Ø·Ø©
ĠØ§ÙĦØªØ¹ Ø§ÙĪÙĨ
ĠØ¨Ø§ÙĦ Ø´
ÙĪ Ø§Ùĩ
ĠØ§ÙĦØ¬ Ø±
ÙĪ Ø¸
ĠØ§ÙĦØ§ ÙĪÙĦ
ĠØ§ÙĦØ£ Øµ
ĠØ¨Ùĩ Ø°Ùĩ
Ġ I
Ø§ÙĦ Øº
ĠØ§ÙĦ ÙĪØ³
ĠØ± Ø§Ø¦Ø¹
ĠÙĤ ÙĦØ¨
Ø¶ ÙĬÙģ
ĠØ¨Ø± Ø§ÙħØ¬
ĠØ± ÙĪØ³ÙĬØ§
Ø£ ÙĥØ¯
ĠØ£Ø³ Ø§Ø³
Ġ E
ĠØ§ÙĦØ§ÙĤØªØµ Ø§Ø¯ÙĬØ©
ĠØ§ÙĦØ¥ ÙĬØ±
ÙĪØ§ÙĨ ÙĬÙĨ
Ø¹ ÙĬÙĨ
ØªØ¯ Ø§Ø¡
ĠØ§ÙĦÙĤ Øµ
ĠØ¬ ÙĬØ¯
ĠÙħØµ Ø¯Ø±
ĠØ¯ ÙģØ¹
ĠÙĪ Ø«
ĠÙĦÙĦ ÙħÙĨ
Ġ !!
ĠØ§ÙĦÙĤØ± Ø§Ø±
ĠØ§ÙĦÙĪ ØµÙĪÙĦ
ĠØ§ÙĦØ· Ø§ÙĤØ©
ĠØ· Ø§ÙĦØ¨
Ø³ Ùĩ
ĠâĢı (
Ø¯ÙĬ ÙĤ
Ø®Ø¯ ÙħØ©
ĠØ§ÙĦ Ø§Ø¯
ÙĪ Ø§ØŃ
ÙĪØ¬ ÙĪØ¯Ø©
ĠØ§ÙĦØ¬Ø² Ø§Ø¦Ø±
ĠÙħØ¹ÙĦ ÙĪÙħØ§Øª
Ø³Øª Ø®Ø¯Ùħ
ĠØ§ÙĦØ£ Ø³Ø¨ÙĪØ¹
ĠØ£ Ø±Ø¶
Ġ *
ØŃØ¯ ÙĬØ«
ĠØªØ±Ùĥ ÙĬØ§
ĠÙĦÙĩ Ø°Ùĩ
Ø± Ø§Ø¹
ĠÙĪØª Ø´
ĠØ§ÙĦØ§Ø³ ÙĦØ§Ùħ
ĠØ§ÙĦÙħÙĨØª Ø¬
ĠØ³ ÙĬØ¯
ÙĨÙĬ Ùģ
Ø§ÙĦ ÙĬØ§
ĠØ§ÙĦÙģÙĦØ³Ø·ÙĬÙĨ ÙĬ
ĠØ³ Ø¹Ø±
1 7
ĠØ§ÙĦÙħØ¹ Ø§Ø±
Ø±ÙĬ Ø§Øª
ĠÙĥØ« ÙĬØ±Ø©
Ø¯ Ø§Ø¡
ĠÙĤ ØªÙĦ
e l
Ùĩ ÙĬØ±
Ġ1 00
ĠØ§ÙĦØ´Ø®Øµ ÙĬØ©
ĠØªØ± Ø§ÙħØ¨
Ø³ ÙĪÙĨ
ĠØ§ÙĦÙĤØ¯ Ø³
ĠØª ØºÙĬÙĬØ±
ĠØ§ÙĦÙĤ ÙĨ
ØªÙħ Ø§Ø¯
ĠÙĦ ÙĥÙĬ
ÙĨ ÙĪÙĨ
ĠØ§ÙĦØ¹ Ø³ÙĥØ±ÙĬØ©
ĠØªÙħ Ø§ÙħØ§
Ø¬ Ø§Ø¨
ĠØªØ¹ ÙĦÙħ
ĠØ® ÙĦ
ĠØ§ÙĦØ£Ùħ Ùħ
Ø±ÙĬ Ø§
ĠØ§ÙĦØ¹ÙĦ Ø§ÙĤØ§Øª
Ġ2 9
ĠØ§ÙĦØ¹ Ø§ØµÙħØ©
ÙĨØ³ Ø§
ĠØ§ÙĦÙĪØ· ÙĨ
ĠÙĦÙĦØº Ø§ÙĬØ©
ï ´
ĠÙĥ Ø£Ø³
ĠØ§ÙĦÙĩÙĬ Ø¦Ø©
ĠØ§ÙĦØ¥ Ø¯Ø§Ø±Ø©
ĠÙĬ ÙĨØª
ĠÙĦÙĦ Ø¬
ĠØ§ÙĦØµÙĦ Ø§Ø©
ĠØ§ÙĦÙĨ Øµ
Øª ÙĦÙĥ
Ġ19 9
ÙĪ Ø®
Ø³ Ø§
ĠØ§ÙĦØ² ÙĪØ¬
ÙĤØ· Ø¹
ĠÙħØŃ Ø§ÙģØ¸Ø©
ĠÙĦ Ø±
ĠØ§ÙĦÙħØ± ØŃÙĦØ©
o t
ĠØªØŃØ¯ ÙĬØ¯
ØªÙĦ Ø§Ùģ
ÙĪØ² ÙĬØ¹
Ø§Ø² ÙħØ©
ĠØ§Ø® ØªÙĬØ§Ø±
ĠØ§ÙĦØ¨ Ø±ÙĬØ·
ĠØ¥ Ø¹Ø§Ø¯Ø©
Ġ L
Ø§Ø± Ø³Ø©
ĠØª ØµÙĦ
ĠØµØŃ ÙĬÙģØ©
ĠØ§ÙĦÙĤØ± ÙĨ
Ø®Øµ ÙĪØµ
ĠØ§ÙĦÙħØŃ ÙĦÙĬØ©
ĠØ¨Ø§ÙĦ Ø¯
Ø£ ÙħØ§
ĠÙĪ ÙħØ±
Ø±ÙĬ Ø³
ĠÙĪ Øº
Ø§ÙĦ Ø´
ĠØ¬ ÙĨÙĬÙĩ
ĠÙĪ Ø§ÙĤ
ĠØ§ÙĦÙĨ Ø§Ø±
ĠØ§Ùħ Ø±
ĠÙĬ ØµÙĦ
Ø§Ø¨ Ø³
ĠØ¶ Ø¹
Ø´ Ø§Ø±Ø©
ÙĪ Ø§Ø·
Ø±ÙĬ Ø§Ø¶
ĠÙĬØ¹ ØªØ¨Ø±
ĠØ§ÙĦØ£ ÙĦÙħ
ÙĥÙĨÙĪÙĦÙĪØ¬ ÙĬØ§
Ø³ ÙĦØ©
ĠÙĨÙĤ Ø·Ø©
Ùģ Ùī
Ø§Ø± Ø§
ĠØ§ÙĦ ÙĪØ±
ĠÙĪ ÙĬÙħÙĥÙĨ
ĠÙĦØª ÙĨ
ĠÙĦÙĦ ØªØ¹
ĠÙĦ Ø¬
ĠÙĤ ÙĦÙĬ
Ø¶ Ø¨
ĠØ§ÙĦÙħ Ùĥ
2 5
ĠØ§ÙĦ Ø§Øµ
Ø§ÙĦ Ø§
ĠÙĪ ÙĩÙħ
ĠØ§ÙĦØ¥ ÙħØ§Ùħ
ĠØ§ÙĦØ¥Ø³ÙĦØ§Ùħ ÙĬ
ĠØ§ÙĦØ¥ Ø³Ø±Ø§Ø¦ÙĬÙĦÙĬ
ĠØ£ Ø±Ø¨
ĠØ§ÙĦØ¹ ÙħØ±
ĠØ¨ Ø³Ø±
ĠÙĦ Ø¹Ø¨Ø©
ĠØ§ ÙĥØª
Ø§Ø¨ Ø¯
ĠÙħØª ÙĨ
ĠØ§ÙĦÙħØ¯ ÙĨÙĬ
ĠØ¬ ÙĩØ©
Ø¦ ÙĦØ©
Ùĥ ÙĬÙĨ
Ø¶ Ùī
Ø§ÙĦ ÙĬØ§Øª
ĠØ§ÙĦØ³ Ø§Ø¨ÙĤØ©
ĠÙĥ ÙĬ
e d
ĠØ§ÙĦØ¥ÙĨ ØªØ±ÙĨØª
ĠØ± ÙģØ¶
Ø§Øª ÙĬ
ĠÙĬ ÙĤØ¯Ùħ
ĠØ§Ø± ØªÙģØ§Ø¹
ĠØ¨ Ø´Ø±
ĠØ§ÙĦØ£Ùħ ÙĪØ±
ÙĤ ÙĪÙĤ
ĠØ§ÙĦØŃØ¯ ÙĪØ¯
Ø§Ø¨ Ø§
Ġ( (
ÙĬ ÙĤØ©
ĠØ§ÙĦØ¥ Ø¯
Ø§Ùĥ Ø²
Ùģ Ø§ÙĦ
ĠÙĤ Ø·Ø±
Ø± ÙĬØ±
ĠÙĪ Ø§Øª
ĠØ¯ Ø¨ÙĬ
Ø¹ Ø§Ø¯
ĠØŃ Ø¬Ùħ
ÙĪ Ø§Ø²
2 4
ÙĪ ÙĬØ³
ÙĪ Ø§Ø¹Ø¯
ĠØ§ÙĦØªØ¹ Ø§ÙħÙĦ
ĠÙĨÙģØ³ ÙĩØ§
ÙĬÙĦ Ø§Øª
Ø¸ Ø§Ø±
ÙĬØ§ÙĨ Ø©
âĢ ĵ
ĠØ§ÙĦÙħ Ø±Ø¶
ĠÙĤ ÙĪØ©
Ø´ Ø¯
ĠØ´ Ø±ÙĥØ§Øª
ĠÙĬ ØŃØ¯Ø«
ĠÙĪ Ø§Ø´
ÙĪØ§ ÙĬØ©
ĠÙħØ¯ Ùī
Øª Ø§
ĠØ§ÙĦØ· ÙĦØ§Ø¨
ĠØ§ÙĦØ§Øª ÙģØ§ÙĤ
ĠØ¹ÙĦÙĬ ÙĥÙħ
ĠØ® Ø¯ÙħØ§Øª
ĠØ§ÙĦØ¯ ÙĬÙħÙĤØ±Ø§Ø·
Øª Ø³
ĠâĢ ª
ĠØ¨ ÙĦØ§
ĠØ± Ø¶ÙĬ
Ø±Ø§ØªÙĬØ¬ ÙĬØ©
ĠØ§ÙĦØ¯ ÙĪØ±ÙĬ
ĠØ´ ÙħØ§ÙĦ
ĠØ§ÙĦØŃ ÙĬÙĪ
ĠØµ ØºÙĬØ±Ø©
ĠØ· ÙĪÙĬÙĦØ©
ĠØ¹ ÙĬÙĨ
Ø¬ÙĦÙĬ Ø²ÙĬØ©
ĠÙħØµ Ø§Ø¯Ø±
ØªØ± Ø§Ùĥ
ĠÙĦ ØªØ¹
ĠØ¨ Ø§Ø¹
ĠØ§ÙĦØªØ¬ Ø§Ø±ÙĬØ©
ĠØ§ÙĦØ³ÙĬ Ø§Ø±Ø§Øª
ĠØ¯Ø± Ø§Ø³Ø©
ĠØ¹ÙĦ ÙĬÙĨØ§
Ùģ ÙĬØ¯
ĠÙħ Ø±Ø¶
Ø¹Ø± ÙĪÙģ
ĠØ§ÙĦØ§ÙĨ ØªØ®Ø§Ø¨Ø§Øª
ĠØ³ ÙĬÙĨ
ĠØ§ÙĦÙħ Ø·
ĠØ´ Ùĥ
ĠØ²ÙĬ Ø§Ø±Ø©
ĠØ® Øµ
ÙĪ Ø§Ùģ
ĠØ§ÙĦÙħ Ø´Ø§Ø±ÙĥØ©
Ø° ÙĬØ©
ĠØ§ÙĦØ² Ø±
ĠØŃ ÙĬ
ĠØ£ Ø¹Ø¶Ø§Ø¡
ĠÙħÙĨ Ø§Ø·ÙĤ
ĠØ§ÙĬ Ø¶Ø§
ĠÙĥ ÙĪÙĨ
ĠÙĪØ¹Ø¯ Ùħ
Ø§ÙĤ Ø¨Ø©
Ø§Ø¦ Ø©
ĠØ§ÙĦØµØŃ ÙĬØ©
Ġ.. ..
ĠÙģ ÙĩÙħ
ĠÙĪÙĦ ÙĪ
Ø° ÙĨ
Ø´ÙĬ Ø§Ø¡
ĠØ³ ÙĪÙĤ
Ø³ Ø¯
ĠØ¹Ø¶ ÙĪ
ĠØ£ÙĩÙħ ÙĬØ©
ĠØ§ÙĦØŃ Ø±ÙĥØ©
âĢ ľ
ĠØ§ÙĦÙĤ ÙĦØ¨
ĠÙģÙĬ ÙĦÙħ
ĠÙģ Ø§ÙĨ
ÙĤØ¨ Ø§ÙĦ
ÙĦ ÙĤØ¯
ÙĦÙĬ Ø³
ĠØ§ÙĦØ§Ø« ÙĨÙĬÙĨ
ĠØŃØ§ÙĦ ÙĬØ§
Ø² Ø¹
ĠÙĤ ÙĪÙĦÙĩ
ĠØ¨Ø§Ø³Øª Ø®Ø¯Ø§Ùħ
ĠÙĦÙĦ Ø§Ø³Øª
ĠÙĪØŃ ØªÙī
ÙĪ Ø§Ø¦Ø¯
ĠØ§ÙĦØ³ Ø§Ø¯
Ġ W
ĠØ§ÙĦØµ ÙĬÙĨ
ÙĪ ÙĩØ§
ØŃØ¯ ÙĬØ¯
ĠØµ Ø§ÙĦØŃ
ĠØ§ÙĦØ± ÙĤÙħ
ĠÙĤ ÙĬÙħØ©
ĠØ§ÙĦØµÙģ ØŃØ©
ĠØ§ÙĦÙħÙĪØ§Ø· ÙĨÙĬÙĨ
ÙĦØ§Ùħ Ø©
ÙĨØ¯ ÙĪÙĤ
Ø¯ÙĬ Ø§Øª
ÙħÙĪ Ø°
ĠÙĨ Ø§Ø¯ÙĬ
Ø³Ùħ Ø§Ø¡
ĠØ¯ Ùħ
ĠØ§ÙĦØ¶ Ø±
ĠØŃ Øµ
ÙĤ ÙĬØ©
ĠØ£Ø³ Ø¹Ø§Ø±
ÙĨØ³ ÙĬÙĤ
ĠÙĪØ§ÙĦ ÙħØ±
ĠØ§ÙĦØ´ ÙħØ³
ĠÙħ ÙĪÙĤÙģ
i s
ĠØµ ÙĪØª
ĠØ§ÙĦÙħÙĨ Ø²ÙĦ
ĠÙĤÙĨ Ø§Ø©
r o
ĠØ¥ ØŃØ¯Ùī
ĠØ¨ ÙĬØ±
ĠÙĪÙħ ØŃ
ĠÙħ ÙĥØª
ĠÙħ Ø§Ø±
ĠØ£ ÙĦÙħ
ÙĪØ³ Ùģ
ĠØ´ ÙĩØ¯
Ø·ÙĦ Ø¹
e t
ÙĦØ¹ Ø§Ø¨
ĠØ³Ø¨ Ø¨
Ø®Øµ ØµØ©
ÙħÙĨ Ø©
ĠØª ÙĤØ±ÙĬØ±
ĠÙĦ Ø§ØŃ
ÙĪØ± Ùĩ
Ø¶ ØŃ
ĠØ§ÙĦØª Ø§ÙĦÙĬØ©
ĠÙĪÙĥØ§ÙĨ Øª
Ø§Ùħ ÙĨ
ĠØ§ÙĦÙħØ¤ ØªÙħØ±
ĠØ§ÙĦÙħÙĪØ³ Ùħ
ĠØ§ÙĦÙģ ÙĨØ§ÙĨ
ĠÙĦ Ø§Øª
ĠØ§ÙĦÙħ Ø§Ø¯Ø©
ĠØ£Ùħ ÙĬØ±
ĠØ´Ø¨ ÙĥØ©
ĠØ¥ Ø·ÙĦØ§ÙĤ
ĠØªØŃØª Ø§Ø¬
Ùĥ ÙĬØ±
ĠØ¥ Ø¨Ø±
Ø² Ø±
ĠÙħØ¨Ø§Ø´ Ø±
c om
ĠØ§ÙĦØ® Ø¯ÙħØ©
ĠØ± Ø§Ø¦Ø¹Ø©
ĠÙĬØª Ø¹ÙĦÙĤ
ĠØ§ÙĦÙĤ ÙĬØ§Ùħ
ĠØªØŃ ÙħÙĦ
ĠØµ ØŃÙĬØŃ
Ø¬ Ø§Ø¬
2 2
ÙĦ ÙĨ
Ø´ Ø§Ùģ
ĠØ³ Ø¨ØŃ
ĠÙĥ Ø§ÙĦ
ĠØ¨ØŃ Ø«
ĠØ§ÙĨ ÙĩØ§
ĠØ£Ø® Ø¨Ø§Ø±
ĠÙĬØ³Øª Ø·ÙĬØ¹
ÙĦÙĬ Ø¨
ØŃ ÙĦ
Ø² ÙĨ
ĠÙĬØŃ ØªØ§Ø¬
ĠÙħØ´ ÙĥÙĦØ©
ĠØ¨ ÙĩØ¯Ùģ
Ø§Ø§ Ø§Ø§
ÙĤØ± Ø§Ø¡
Ø«ÙĦ Ø§Ø«
ĠØ£Øµ ØŃØ§Ø¨
ĠÙĪØ§ÙĦ Ø·
ĠØŃÙĪ Ø§ÙĦÙĬ
ĠØ§Ùģ Ø¶ÙĦ
ĠØ® ÙĦÙĤ
ĠØ§ÙĦØ®ÙĦÙĬ Ø¬
ÙĪÙĦ ÙĬØ©
ĠÙħ ÙĬÙĦ
ÙĤÙĦ Øª
Ø´ Ø§Ø·
ÙĪ ØªÙĬ
ĠØ¹ Ø´
ĠØ§ÙĦÙħØ¨Ø§Ø± Ø§Ø©
ÙģÙĬ Ùģ
ĠØ§ÙĦØ« Ø§ÙĨ
ĠØ§ÙĦØ£ ÙĪØ³Ø·
ĠÙģÙĬ Ø¯ÙĬ
Ø± Ùħ
ĠØ§ÙĦØ¹ÙĦ Ø§Ø¬
ĠØ§ÙĦÙħØ³Øª ÙĤØ¨ÙĦ
ĠÙĦ Øº
ĠÙĩ Ø§ØªÙģ
Ġ >
ĠØ§ÙĦØ¬Ùħ ÙĩÙĪØ±ÙĬØ©
ØªØ® Ø¨
ĠÙĪ Ø§Ø®
ĠØ§ÙĦØ£ Ùĩ
ĠØ§ÙĦØ± ØºÙħ
Ø³ Ø¬ÙĬÙĦ
ÙĬÙĦ Ùħ
Ø³ Ø§Ø¯
ÙħÙĪØ° Ø¬
ĠØ® ØµÙĪØµ
ĠØ§ÙĦÙħ Ø§Ø¶ÙĬØ©
ØªØ± Ø§
ĠÙħ Ø§Ø°Ø§
ĠØªØµ ÙħÙĬÙħ
ÙĦ Ø§ÙĤ
ĠÙĬ ØªØŃ
ÙĬ Ø§Ø¡
a c
ĠØŃ Ø±Ø¨
ĠØ¨ØŃ ÙĬØ«
ØŃ Ùĩ
ĠØ¯ Ø®ÙĪÙĦ
ĠØ¨Ø§ÙĦ ØªØ¹
ĠØ§ÙĦØª Ø§ÙĦÙĬ
ĠØªØ¬ Ø§Ùĩ
ĠØ¯ Ø®ÙĦ
a s
ĠÙĨ ØµÙģ
ÙĥÙĪ ÙĬÙĨ
ĠØ§ÙĦØŃ Ø²Ø¨
ĠØ¯ ÙĤÙĬÙĤØ©
ĠØ§ÙĦ ÙĪØ¶Ø¹
ÙģÙĬ Ø§Øª
ĠØ§ÙĦÙĩ Ø§ØªÙģ
Ùģ ÙĨ
ĠØ§ÙĦØ¹ ÙĦÙĬØ§
ĠØ£Ø¹ ÙĦÙī
ÙĤ Ø§Ø·
ĠØ´ Ø¹Ø±
ĠØ¹ Ø±Ùģ
ĠØ§ÙĦØ¨ÙĬØ§ÙĨ Ø§Øª
Ø® Ø§Ø°
ĠØ§ÙĦØ¯Ø± Ø§Ø³Ø©
ĠØ§ÙĦ Ø§Ø·
ÙĪÙĤ Ø§Øª
Ġ5 0
ĠØ§ÙĦÙħØ¬ Ø§ÙĦ
i l
ÙĤÙĬ ÙĤÙĬ
ĠÙĪØ§ÙĦ Ø«
ĠØ§ÙĦÙĥ Ùħ
ĠØ¨ ÙĨÙĬ
ĠØ³ ÙĪÙī
ÙĪ Ø§Øµ
ÙĤ Ùī
ĠØªØ£ Ø«ÙĬØ±
ĠÙĪØ§ÙĦÙħ Ø³
Ġ N
ÙĦ Ø§ÙĨ
ÙĪØª ÙĬÙĨ
ĠØ¨Ø§ÙĦ Ø¬
4 0
ÙĤ Ø§Ø¦ÙĤ
ÙĪÙĨ Ø§
ĠÙĤ Ø§Ø¦
ĠÙĪØ§ÙĦ Ø§ÙĨ
ĠØº Ø±ÙģØ©
Ġ Ø§Ùĩ
ĠÙĤ Ùħ
Ø§Ø¨ ÙĦØ©
ĠØ§ÙĦØ¬ Ø§ÙĨØ¨
ĠØ§ÙĦÙħØ³Øª Ø®Ø¯Ùħ
Ø® Ùģ
ĠØª ØŃØ¯Ø«
Ø±Ùģ Ø¶
Øµ Ø§ÙĦØ§Øª
ĠØ® Ø§ÙĦØ¯
ĠØ§ÙĦ Ø§Ø¬
ĠÙħØ± Ø§Øª
ĠØ¨ ÙĨØ³Ø¨Ø©
ĠØª ÙĥÙĨ
Ø° ÙĬÙĨ
ĠÙĪ Ø¨Ø±
ĠÙĦÙĥ Ø±Ø©
ĠØ§ÙĦØ¹ Ø²ÙĬØ²
ĠØ§ÙĦØ· Ø±ÙĤ
ĠÙĪÙģ ÙĤØ§
Ø§ÙĦ Øµ
ĠÙģ ÙħÙĨ
ĠØ± Ø¬Ø§ÙĦ
ĠÙģØ¥ÙĨ Ùĩ
Ø® ÙģØ¶
Ø§Ø¦ ÙĨ
ĠØŃ ÙħÙĦ
Ø¬ ÙħØ©
Ø® Ùħ
Ø¹ Ø±Ø¶
ĠØ¹ÙĦ Ø§Ø¬
ĠØ¨Ø¯ Ø£Øª
ĠØ§ÙĦØ¹ÙĦÙħ ÙĬØ©
ĠÙħ ÙĬ
ÙĩØ± Ø¬Ø§ÙĨ
ĠØ§ÙĦÙĨ ÙĪØ¹
ĠØ´ÙĬ Ø¦Ø§
Ø§Ø± ÙĤ
ĠØ§ÙĦØ¯ ÙĨÙĬØ§
ÙĪØ² Ø§Ø±Ø©
ÙĪ ÙĬØ§
ĠÙĦÙĦ Ø¹ÙħÙĦ
Ø§Ø± Ø¨Ø©
ĠÙħÙħ ÙĥÙĨ
ØªÙĩ ÙĬ
Ø¨ÙĬ Ø¶
ĠØ§ÙĦÙĨ ÙĪ
ĠÙĪØ§ÙĦØª ÙĨ
Ø¨ÙĬ Ùĩ
Ø¹Ø± Ø§Ø¶
ØµØ¯ Ø§Ø±
ĠÙħØ¹ ÙĩØ§
Ø§Ø¦ Ø²
ĠÙĦÙĦ Ø·
ÙĦÙĬ Ùĥ
Ø§Ø± ÙĨØ©
ĠØ£ÙĨ ÙĩÙħ
ĠØ¨ØŃ Ø³Ø¨
ĠØ¨Ø¯ Ø£
ĠÙĪ ÙĬØ±
ÙĪÙĪ ÙĪÙĪ
Ùħ Ø«
ØªÙħ ÙĬØ²
ĠÙħ ÙĦÙĥ
ĠØ³ Ø¹ÙĪØ¯
ĠÙĪØ§ÙĦ Øº
ÙĬ Ø§Ø¨
ĠØ£ Ø³Ø±
ĠØ¨Ø§ÙĦ Ø·
ĠÙħØ± ØŃÙĦØ©
ĠÙĤØ§Ùħ Øª
ĠØ§ÙĦØ£ ÙĥØ«Ø±
ÙĲ ØĮ
ĠØ§ÙĦØº Ø±Ø¨ÙĬØ©
ØªØµ Ø§Ø¯
ĠØª ÙĦÙĤ
ĠØ§ÙĦØ³ÙĦ Ø·Ø§Øª
ĠØ±Ø¨ ÙħØ§
ĠØ¹ÙĦ Ø§ÙĤØ©
h e
ĠØ£ÙĪØ± ÙĪØ¨Ø§
ØªØ± Ùģ
ĠÙħÙĨ Ø¸ÙħØ©
ĠØ§ÙĦÙħÙĪ Ø§ÙĤØ¹
ÙģØ³ ÙĬØ±
ĠØŃÙĥ ÙĪÙħØ©
ĠØ§ÙĦØ« ÙĪØ±Ø©
Ø§ÙĤ ÙĬØ©
ÙĬ Ø¨Ø©
Ø¸ Ø§ÙĩØ±
ĠØ§ÙĦÙĪ Ø§ØŃ
ĠØ§ÙĦØ£Ø® ÙĬØ±
ĠÙħØ¤ ØªÙħØ±
ĠØ³ÙĬ ØªÙħ
ĠÙħÙĨ ØªØ¬
ĠÙĤ Ø¶ÙĬØ©
ĠØ§ÙĦØ¯ ÙĪØ±
ĠÙĪÙĩ Ø°Ùĩ
ĠÙĪÙħ Ø³
ĠØ§ÙĦØ¥ Ø³Øª
ĠØ§ÙĦØ¯ Ø³Øª
ĠØª ÙĪÙģÙĬØ±
ÙĪÙĦ Ø¯
ĠØ§ÙĦØ® ÙĦ
ĠÙĦÙĦ ÙħØ±
ØµØ¯ ÙĤ
ØªÙģ Ø¹
ĠØ§ÙĦØ±Ø³Ùħ ÙĬ
ĠÙĬØ£ ØªÙĬ
ĠØ³ Ø¹ÙĬØ¯
- -
ĠØ§ÙĦØ¹ Ø¶
ĠØ§ÙĦØ¬Ø² Ø¡
ĠÙħØ¹ Ø§
ĠØ¨ ÙĤÙĬ
Ø¢ Ø®Ø±
ÙĥÙĨ Øª
ĠØ§ÙĦÙĦ ÙĤØ§Ø¡
ÙĪØ± Ùĥ
Ø® Ø¨Ø±
ĠÙĦ Ø¹Ø¯
ĠÙĥÙĦ ÙĬØ©
Ø¬ Ø§Ø¨Ø©
ĠØ³ Ø§Ø¹Ø§Øª
ÙĤØ± Ø£
ĠØ¨Ø§ÙĦ ÙħÙĨ
ÙĪØ§ Ùĥ
ĠÙĪØ§ÙĦ ÙĦ
ÙĤÙĬ ÙĬÙħ
Ø£ÙĨ Ùĩ
ĠØ¨Ø§ÙĦ Ø±
ĠÙĪØ¨ Ø§ÙĦØªØ§ÙĦÙĬ
Ø¨ ØºÙĬ
ĠØ¬ ÙĬØ¯Ø©
ĠØ¬Ùħ Ø¹
ĠÙħ ÙĤØ±
* *
ĠÙĤ Ø·
ĠÙĦÙĦ Ø¨
Ø§ ÙĪÙħØ©
ĠÙĪ ÙĬØ³
ĠÙĥÙĬÙģ ÙĬØ©
ÙĤ Ø±Ø©
Øª Ø²
Ø§ÙĦ Ø¬Ø©
Ø£ ÙĦØ©
Øµ Ø¯Ø±
ĠØªØ¹ ÙĦÙĬÙħ
ĠØª Ø²
ĠØ¹ Øµ
ÙĪÙĦ ÙĥÙĨ
ĠÙħ ÙģØª
ĠÙĬ Øº
ĠÙĪÙĥ Ø§ÙĦØ©
ĠÙĨ Ø²
2 3
ĠÙħ ÙĩÙħ
ĠØ¥ ÙĬØ¬
ĠØ§ÙĦØ´ Ø¨
Ø¹ÙĦ Ø§Ø¬
ÙĪØ£ Ø´Ø§Ø±
Ġ m
Ø§Ø¯ ÙĬÙħ
ĠÙħ ÙĥØªØ¨
ØŁØŁ ØŁØŁ
ĠØ¨ ÙĬØ¹
ĠØ§ÙĦØ¯ ÙĪØ±Ø©
ĠÙĪ ØµÙĪÙĦ
ĠØ§ÙĦØ«Ø§ÙĦØ« Ø©
i on
Ø¨ÙĬ Ø¨
ĠØ¨Ø· Ø±ÙĬÙĤØ©
ĠØ² Ø±
ĠÙĬ ÙħÙĨ
ĠØªØ³ Ø§Ø¹Ø¯
ĠØ£ ÙĩØ¯Ø§Ùģ
Ø¨ ÙĦØ©
ĠØ¨ ÙĩÙħ
ĠØªÙĤ ÙĪÙĦ
Ø¨Ùĩ Ø©
ĠÙĦ ÙĤØ§Ø¡
ĠØ§ÙĦÙħØŃ ÙĥÙħØ©
ĠØ§ÙĦØ§Øª ØµØ§ÙĦ
o o
ÙĨ ÙĪØ§ÙĨ
ĠØŃØ¯ ÙĪØ¯
ÙĪÙĬ ØªØ±
ĠÙħ ÙĤØ¯
ĠØ§ÙĦØ£ÙĪØ± ÙĪØ¨ÙĬ
ÙĦÙģ Ø²ÙĬ
Ø±Ø³ Ø§ÙĦ
Ùĩ Ø§Ø±
ĠÙĪ Ø³Øª
ĠØ§ÙĦØ£ Ø¨
ĠØ§ÙĦÙģ ÙĨ
ĠØ§ÙĦØ¹ÙĦÙħ ÙĬ
Ø¹ÙĦ ÙĤØ©
ÙĪØ£ ÙĥØ¯
ĠÙħ ÙĦÙģ
ĠÙĪ Ø±Ø§Ø¡
ĠØ£Ùĥ Ø¯
ĠÙĦÙħ Ø¹
ĠØ§ÙĦØªØ¯ Ø±ÙĬØ¨
Ø§Ø· Ø©
ĠØ§ÙĦÙħØµ Ø¯Ø±
Ø§ÙĦ Ø±
ĠØ® Ùħ
ĠÙħØŃÙħ ÙĪØ¯
ĠØ§ÙĦÙģ ÙĦ
ĠØ¨Ùħ Ø¹
ĠÙĦÙħ Ø§Ø°Ø§
ĠÙĬ ÙĪÙħØ§
ĠÙĪ ÙĪ
ĠØ§ÙĦÙħØ¤ ÙħÙĨ
ĠÙģØ± ØµØ©
Ùģ Ø§Ø¯Ø©
ĠØ§ÙĦÙĨ Øª
ĠÙĦ Ø·
ÙĪØ§Ø¬ Ø¯
ĠØ§ÙĦØ¨Ø± Ø§ÙħØ¬
Ø§Ø¨ Ø±
ĠÙĦÙĦ Ùĥ
Ùĭ :
ĠØ£ Ùĩ
ĠÙĦØ¯ ÙĬÙĨØ§
Ø®Ø¯Ùħ Ø§Øª
ĠÙħØ´ Ø§ÙĩØ¯Ø©
ĠÙħ ÙĩÙħØ©
2 00
Ø² Ø§Ø¨
ØŃÙĬ Ø§Ø©
ĠØ³ Ø¬ÙĦ
2 6
ĠØ§ÙĦÙĬ ÙĩÙĪØ¯
ĠÙĤ Ø·Ø¹
ÙĬ ÙĪÙħ
ØªØ± Ø§Ùħ
ĠØŃ ÙħØ§ÙĬØ©
ÙĪØ¹ ÙĬ
Ø§Ø± ÙĬØ±
] .
ĠÙĬØ¤ Ø¯ÙĬ
ĠØ§ÙĦØ±Ø³ ÙĪÙĦ
ĠØ¶Ø± ÙĪØ±Ø©
ĠÙĪØª Ø±
Ø£ ØªÙĬ
ĠØ¥ ÙĨØªØ§Ø¬
ÙģÙĬ Ùĩ
Ġ O
ĠØ¬ ÙĬØ¯Ø§
Ø·Ø± Ø§Ùģ
ĠØ§ÙĦÙħÙĨØª Ø®Ø¨
ĠÙħÙĨØª Ø¯Ùī
ĠØ§ÙĦØ£Ø´ Ø®Ø§Øµ
Ø³ Ø³
ĠØ§ÙĦØŃ Ùħ
ĠØ§ÙĦØŃ ÙĤÙĬÙĤØ©
ĠÙĬØ³ Ø§Ø¹Ø¯
ĠØ§ÙĦØ¯ Ø®ÙĪÙĦ
Ø§Ùħ Ø§Øª
201 8
ĠÙĤ Ø§ÙĦØª
Ø§Ùħ Ø±
ĠØ§ÙĦÙĪØ² Ø§Ø±Ø©
ĠØªØ³Øª Ø·ÙĬØ¹
ĠÙģÙĬØ¯ÙĬ ÙĪ
ĠØ§ÙĦØ¹ Ø³ÙĥØ±ÙĬ
ØŃ Ø§Ø¡
ĠØª ÙĨØª
ĠÙĪ Ø±Ø¯
ĠØ§ÙĦØ§ÙĨ ØªØ±ÙĨØª
2 1
ĠØ§ÙĦØ¹ÙĦ ÙĪÙħ
ĠØ§ÙĦØ§ÙĤØªØµ Ø§Ø¯
Ùģ ÙĪ
ĠØ Ľ
Ø§Ø¦ ÙĩÙħ
ĠÙĪØ§ÙĦ Ø³ÙĬ
ĠØ§ÙĦÙħØ¯ ÙĬØ±
Ø§ØŃ Ø§Øª
ØŃ Ø³Ø¨
ĠØ¨ÙĬÙĨ ÙĩÙħ
ĠÙĬ Ø¨Ø¯ÙĪ
ĠÙĩØ¯ Ùģ
ĠØ§ÙĦØ£ ÙĬØ§Ùħ
Ø§Ø¯ Ùħ
ĠÙĦ Ø°Ø§
ĠØªÙĨ Ø¸ÙĬÙģ
ĠØ§ÙĦÙħ Ø¯Ø±Ø³Ø©
ĠÙĪÙĥ ÙĬÙģ
ĠØªØ¹ ØªØ¨Ø±
ĠØ¹Ø¨ Ø§Ø±Ø©
ØªÙĬ Ø¨
ĠØº Ø±
ĠÙħØ¤ Ø³Ø³Ø©
ĠØ§ÙĦØµ ØŃÙĬ
ĠØ§Ø® Øª
ĠØª ÙĪÙĤ
ĠÙĨ ÙĬ
Ø§Ø¯ Ø¦
r a
ĠØ£Ø® Ø°
ĠØª ØªØ¹
Ø± ÙĬØ©
ĠØ£ Ø¨Ø¯
ĠÙĤ ÙĪÙĦ
ĠÙĦ Ø§Ø¹Ø¨
ĠØ§ÙĦØ¹ÙĦÙħ Ø§Ø¡
ÙĨØ³ Ø§ÙĨ
ÙĤÙĬÙĤ ÙĬØ©
ĠØ§ÙĦÙģ ÙĨÙĬ
ĠÙħØ´ Ø§ÙĥÙĦ
ĠÙħØ¹ Ø±ÙģØ©
ĠØ³ ÙĪØ±ÙĬØ©
Ø¯ Ø¹
ĠÙĦ Ø§Ø¹
Ùĩ ÙĨØ§Ùĥ
ĠØ¨Øª Ø§Ø±ÙĬØ®
ĠØªØ³Øª Ø®Ø¯Ùħ
Ø§ ÙĬØª
Ø³ Ùĥ
ĠØª Ø¶
ĠØ§ÙĦØ£Ø³ Ø§Ø³ÙĬØ©
2 7
ĠØ¹Ø¨Ø¯ Ø§ÙĦÙĦÙĩ
ĠØ¹ ÙĬØ¯
ÙĤØ¯ ÙĬØ±
ĠØªØ³ Ø¬ÙĬÙĦ
Ø§ ÙĩØ§
ĠÙĦØ¯ÙĬ Ùĩ
ĠÙĨ Ø§Ø¦Ø¨
ĠØ§ÙĦØ£ÙħÙĨ ÙĬØ©
ÙĨ Ø·ÙĨ
ĠØ§ÙĦÙģ ØµÙĦ
ØªÙħ ÙĦ
ÙĨÙĬ Ø§Øª
Ø¯ ÙĪÙĨ
ĠÙĪ Ø§Ø¬
ĠØ§ÙĦÙĤ Ø¶Ø§Ø¡
2 8
ĠÙħØŃ Ø§ÙĪÙĦØ©
ĠÙĬØŃ ÙħÙĦ
ĠØ± ØŃÙħ
ĠØ¥ÙĨ ÙĩØ§
Ø® ÙĪØ§ÙĨ
Ø¬ ØªÙħØ¹
ĠÙĥ Ø±Ø©
ĠÙĤ ØµØ©
ÙĬØ² Ø§Øª
ĠØ§ÙĦØŃ Ø§ÙĦØ©
ĠØ§ÙĦÙħØ¤ Ø³Ø³Ø§Øª
ØªØ± Ø§Ùģ
ĠØ§ÙĦØªÙĨ Ø¸ÙĬÙħ
ÙĦÙħ ÙĬ
ĠÙĪØª ÙĤ
Ø¹Ø¯ Ø¯Ø©
ĠØ§ÙĦØ£ ÙĤÙĦ
ĠØ§ÙĦØ£ ØµÙĦ
ĠØµÙĦ Ø§ØŃ
ĠÙħ Ø§ÙĨ
Ø¨ÙĦ ÙĪÙħ
ÙĨ Ø§Ùģ
ĠØ§ÙĦÙħØŃ Øª
Ø¹ ÙĪÙĨ
ØµÙĦ ØŃØ©
ØŃ Ø§ÙģØ¸Ø©
Ø· ÙĤ
w w
ĠØ§ÙĦØ¢Ø®Ø± ÙĬÙĨ
ĠÙģ ÙĥØ±Ø©
Ø· Ø§ÙĤ
ĠÙĪØ§ÙĦ ÙĦÙĩ
Ø° Ø§Ø±
ÙĬØ³ Ø©
ĠØ§ÙĦØ· Ø¨ÙĬØ©
ĠØ§ÙĦÙĥ Ø¨Ø±Ùī
ĠØ§ÙĦÙģØ± ÙĨØ³ÙĬØ©
Ø§Ø¬ Ùħ
Ø³ Ø§Ø±Ø©
ĠØ§ÙĦØ³Ø¨ Ø¨
ĠØ® Ø±
ĠØ³ÙĬ Ø§Ø±Ø©
ÙĥØª Ø§Ø¨
ĠØ§ÙĦÙħØ³Øª ÙĪÙī
ĠØ§ÙĦ ÙĪÙģ
Ø³ Ø§Ø¨
ÙĨ Ø§Ø¦ÙĬØ©
ĠØ¨ ØªØŃ
ĠØ¬ÙħÙĬØ¹ Ø§
ĠØ£ ÙĦØ§
Ġ0 5
Ø§Ø¬ Ø¹Ø©
ÙĪØ¶ Ø§Ø¹
ĠÙĨ Ùħ
ĠØ§ÙĦØ¬ Ø¯
Ø³Øª Ø·ÙĬØ¹
ĠØ§ÙĦØªÙĨ ÙħÙĬØ©
Ø¸ ÙĦ
ĠØ¥ Ø¹
Ø´ ÙĥÙĦ
ĠØ§ÙĦÙĨ Ø§Ø¯ÙĬ
ĠÙĪØ¬ Ø¯
ĠØ§ÙĦØ¬Ùħ Ø¹ÙĬØ©
ĠÙĥ Ø§ÙħÙĦØ©
Ø¯ Ø®ÙĦ
Ø£ Ùħ
ĠØª Ø¸ÙĩØ±
ĠÙĥ Ø§Ùħ
Ø§Ø¬ Ø±
) )
ÙĦØ§ÙĦ Ø©
Ø¶ Ø§Ø¦ÙĬØ©
ĠØ· Ø±ÙĤ
Ùĩ Ø§Øª
ĠØ¥Ø¨Ø± Ø§ÙĩÙĬÙħ
ĠÙĦÙĦ Øµ
ÙĪØ± Øª
ĠØ§ÙĦØ± Ø§Ø¨Ø¹
Ø§Ø¦ ØŃØ©
Ġ s
ĠÙħØ¯ Ø±ÙĬØ¯
ĠØ§ÙĦØŃÙĥ ÙĪÙħÙĬØ©
ĠØ§ÙĦÙģ ÙĥØ±
Ø±Ø¨ ÙħØ§
ÙĤ Ø§Øª
Ø¬ Ø§ÙĪØ²
ĠØ§ÙĦÙħ Ø¯Ø±
ĠØ§ÙĦØ¹Ø±Ø§ÙĤ ÙĬ
ĠØ§ÙĦÙĤØ§Ø¯ ÙħØ©
ÙĬÙģ Ø§
ĠØ§ÙĦØ¨Ø´Ø± ÙĬØ©
2 9
Ø¸Ùħ Ø§Øª
ĠØ³Ø¨ØŃ Ø§ÙĨÙĩ
ĠØ± Ø¬
Ø¦ ÙĬ
Ø± Ø´
3 5
ÙĤØ· Ø§Ø¹
ĠÙĪ ØŃØ¯Ø©
ĠÙĪØ§ÙĦÙħ Ø¹
ĠÙħÙĪ Ø§Ø¬ÙĩØ©
ĠØ§ÙĦØ¯ Ø¹Ùħ
ĠØ³ ÙĦÙħØ§ÙĨ
ĠÙĬ Ø²ÙĬØ¯
ĠÙĨ ÙĬÙĪ
ĠØ§ÙĦØ· Ø±ÙĬÙĤØ©
ÙĪÙĬ ÙĤ
ĠØ§ÙĦØ±Ø³Ùħ ÙĬØ©
ĠØª ÙĪÙģØ±
ØªØµ Ø§Ø¯ÙĬØ©
ĠÙĥÙĦ Ø§Ùħ
ĠØ§ÙĦÙĨ Ø¨
ĠØ³ ÙĦÙĬÙħ
ĠØ§ÙĦÙĤ Ø¶ÙĬØ©
3 9
ĠØ¥ ÙħÙĥØ§ÙĨ
ĠØ¬Ùħ Ø§ÙĦ
ÙĪØ¹ ÙĬØ©
Ø®Ø· Ø·
ĠÙħ Ø¬ÙħÙĪØ¹
ØŃØ¯ Ø¯
ĠØ³ Ùģ
ÙĪØ¬ Ø¨
ĠÙĪØ® Ø§ØµØ©
Ø§ÙĨÙĬ ÙĬÙĨ
ĠØ· Ø±
Ø§ÙĦÙħ Ø²ÙĬØ¯
ĠØªØ¬ Ø¯
ĠØ§ÙĦØ¹Ø±Ø§ÙĤ ÙĬØ©
ÙĥÙĦ ÙģØ©
Ø´ ÙģØª
ĠØ· Ø±ØŃ
ĠØ£ Øª
ĠØª ØªØŃ
ĠØµ ÙĨØ¹
Ø® ÙĬØµ
Ø§ÙĤ Ø´
ĠØ³ Ø§Ø¨
ĠÙĦÙĦØŃ ØµÙĪÙĦ
ĠØ¨Ø¯ Ø¡
ÙĪ Ø§ÙħÙĦ
ĠØ¹Ø§Ùħ Ø©
ĠÙĪØª Ø³
Ø§Ø² Ùħ
ĠØ¨Øµ ÙĪØ±Ø©
ĠØ¹ÙĨ ÙĪØ§ÙĨ
ĠØŃ Ø§ÙĪÙĦ
ĠØ§ÙĦØ´ Ø±ÙĬÙģ
ĠØ§ÙĦØªØŃ ÙĤÙĬÙĤ
ĠÙħÙĪ Ø§Ø·
ĠØ§ÙĦØ² ÙħÙĨ
ĠØ¨Ø³Ø± Ø¹Ø©
Ùĥ ÙĪÙħØ©
ĠÙĦÙħ Ø³
ĠØ§ ÙĪÙĦ
ĠÙģ Ø±Ø¶
ĠÙĨ Ø¨
ĠÙĪØ¥ Ø°Ø§
ĠØ§ÙĦØ¬ ÙĨØ³
ĠÙĦØ£ÙĨ ÙĩØ§
âĢ İ
ĠØ¥ Ø¬Ø±Ø§Ø¡
ĠÙħØ¤ Ùĥ
ĠÙĬ ÙĪØ³Ùģ
Ø³ÙĦ ÙĪØ¨
ĠÙĪ Ø¬ÙĦ
ĠØ§ÙĦ ÙĩØ¯Ùģ
ĠØ§ÙĦØ§ÙĤØªØµ Ø§Ø¯ÙĬ
Ø§ ÙĪØ±
ĠØ³ Ø§Ø¨ÙĤ
ĠÙĦÙĦ Ø±
c h
ĠØ¢ ÙĦØ§Ùģ
ĠÙħØ§ ÙĬ
Ø¯Ø± ÙĪÙĬØ¯
Ø¦ ÙĬØ©
ĠØ¨ Ø¯Ø±
ĠØ¹ÙĨ Ø§ØµØ±
ĠÙģØ± ÙĨØ³Ø§
ĠÙĤØ§Ø¦ ÙĦØ§
ĠØ´ Ø¦
ĠÙĬØ¹ ÙĬØ´
ĠØ£Ø¨ ÙĨØ§Ø¡
ĠÙħ ÙħÙĨ
Øª Ø±ÙĥØ©
ĠÙħÙĪ Ø¸
ĠØ§ÙĦÙħ Ø¬ÙħÙĪØ¹Ø©
ØªØµ Ùģ
ĠÙĬÙĪÙħ ÙĬØ§
ĠØ§ÙĦØ¨ÙĦ Ø¯
ĠÙħ Ø§Øª
ĠØ¯ ÙĪØ±ÙĬ
Ġ19 8
ĠØ¬Ùħ ÙĬÙĦ
ĠØ§ÙĦØ± Ø¬Ø§ÙĦ
ĠØ§ÙĦØ´Ø¹Ø¨ ÙĬØ©
ĠØ§ÙĦÙĦ ØŃ
ĠØ® ÙħØ³
ĠØ§ÙĦÙħ ÙĪØª
ÙĪØ± ÙĪ
ĠÙĥ ÙĬÙĦ
ĠÙĬ Ø¨
ØªÙĬ Ø§Ø¬Ø§Øª
ĠÙĦÙĥÙĨ Ùĩ
ĠØ¸ ÙĩÙĪØ±
Ø° ÙĦ
ĠØ§ÙĦØª Ø§Ø¨Ø¹Ø©
h t
ĠØ§ÙĦØ¨ÙĨ Ùĥ
ĠØ´ Ø±ÙĤ
ĠØ§ÙĦØ¬ Ø§Ø±ÙĬ
ĠÙħØ´ ÙĬØ±Ø§
ÙĦØ§ ÙĬÙĬÙĨ
ĠØ¨ ÙħØ±
ĠØ§ÙĦÙĥ ÙĦØ§Ùħ
ÙĪÙĬ Ùĩ
ĠØ§ÙĦØ± Ø§Ø¨Ø·
ĠØ§ÙĦÙħ Ø³ÙĦØŃØ©
ĠÙģ ÙħØ§
Ø¹Øª ÙĤØ¯
ĠØ§ÙĦØ·Ø¨ÙĬ Ø¹ÙĬØ©
Ø´ Ø¨
ĠØ£ÙĬ Ø¶
ĠØ¹ Ø´Ø±Ø©
ĠÙĪÙĨ ØŃÙĨ
ĠØªØ´ ØºÙĬÙĦ
ĠØ¬ ÙĪ
ĠØ¬ Ø§ÙĨ
ĠØ· Ùģ
ĠØ§ÙĦØ±ØŃ ÙħÙĨ
ĠÙħ Ø³ÙĦØ³ÙĦ
ĠØ¨ Ø«
ĠØ£ Ø¬ÙĩØ²Ø©
Ø§Ø® Ø±
Ø§ÙĦ Ø¨ØŃØ«
Ø· ØŃ
ĠØ§ÙĦØ¹ ÙĬÙĨ
ĠØ§ÙĦÙģØ± ÙĨØ³ÙĬ
Ø§ÙĨ Ø¯
ØªØ± Ø¶
ĠØ®ÙĦØ§ÙĦ ÙĩØ§
Ø´ ÙĩØ¯
ÙĨØ¯ Ø³
ĠØ§ÙĦØŃØ¯ÙĬØ« Ø©
Â ·
ĠÙĪØ§ÙĦ ØªØŃ
ĠØµ ØºÙĬØ±
Ø« ÙħØ±
ÙĪÙĤ Ø§ÙĦØª
ĠÙħ Ø¬Ø±Ø¯
ĠÙĥÙĦ ÙĩØ§
ĠØ§ÙĦØª ØŃØ±
ĠØ³Ø¨ ÙĤ
ÙħÙĨ Øª
ĠØ· ÙĪÙĬÙĦ
ĠØ§ÙĦØ¹ÙĦ Ø§ÙĤØ©
Ø·Ø± ØŃ
ĠØ§ÙĦØ¥ÙĦÙĥØªØ± ÙĪÙĨÙĬ
Ø±ÙĬ Ø¬
ĠÙħØ« ÙĦØ§
ĠØ¨ÙĦ Ø¯
ĠØ§ÙĦØ¨ Ø§ØŃØ«
ĠØ§ÙĦÙĨ ÙĪÙħ
Ø®Ø· ÙĬØ·
ĠØªØ¹ ÙĦÙĬÙĤ
ĠÙĪ Ø§Ø±
ĠÙĨØ´ Ø§Ø·
Ġïº į
ĠØ§ÙĦÙħØ´ ÙĥÙĦØ©
Ġ ÙĩØ§
ĠÙĦ Ø¬ÙħÙĬØ¹
ÙĨØ§ ÙĬØ©
Ø¹ÙĦ ÙĪÙħ
Ø¨Ø§Ø± Ùĥ
Ø¬ ÙĦØ©
Ø§Ø¨ ÙĨ
ĠÙ ¢
ĠÙĨØ¬ Ø§ØŃ
ĠØ§ÙĦØŃÙĦ ÙĤØ©
ĠØ§Ø® Ø±
ĠØ´ Ø±Ø§Ø¡
ĠØ§ÙĦØ³ ÙĬÙĨ
i d
Ø§Ø¦ Ø±Ø§Øª
a g
ĠÙĪØ§ÙĦØªØ¹ ÙĦÙĬÙħ
ĠØ¥ÙĨ Ø´Ø§Ø¡
ĠØ§ÙĦÙĥ Ø¨ÙĬØ±Ø©
ĠØ§ÙĦÙĨ ÙĬ
ĠØ§ÙĦÙĥ Øª
ĠØ£ Ø³Ø¨ÙĪØ¹
ĠØ§ÙĦÙĤ ÙĪÙĦ
ĠØ§ÙĦØ· Ø±Ùģ
Ø§Ø¬Ø¦ ÙĬÙĨ
Ø§ÙĦÙĥ ØªØ±
ĠØ¨ Ø¹ÙħÙĦ
ĠØ§ÙĦØ£ Øº
ĠØ§ÙĦÙħØŃ ÙĦÙĬ
ĠØŃ ÙģØ¸
Ġ4 0
ÙĥØ§ÙĨ Øª
ĠÙħÙĨ Ø¹
ÙĦÙħ ÙĪÙĨ
ĠØ³Øª ÙĥÙĪÙĨ
Ø´ ØŃ
ĠØ§ÙĦØ³ÙĬ Ø§Ø±Ø©
ĠØ¨Ø§ÙĦÙģ Ø¹ÙĦ
ĠØ§ÙĦÙĤØ¯ ÙĬÙħØ©
ĠØ§ÙĦÙĪ Ø¸
Ø§Ùģ Ø§Øª
3 6
ĠØ§ÙĦØ¥ÙĨØ³ Ø§ÙĨÙĬØ©
ĠØ§ÙĦØ¥ Ùģ
ĠØ£ Ø³Ø¨Ø§Ø¨
Ø´ ÙĨ
ÙĬØ¯ Ø§ÙĨ
ĠØ± ÙĪØŃ
ĠØ§ÙĦÙĥ ÙĦ
ĠØ§ÙĦÙĦ Ø¹Ø¨Ø©
ĠØ§ÙĦÙĥ ÙĨ
Ġ +
Øº Ø¨Ø©
ĠÙĦØ¯ÙĬ Ùĥ
ĠØ§ÙĦØª Ø·
ĠÙħ Ø§Ø¯Ø©
ĠÙĦÙĦ Ø§ÙĨ
Ø®Øª Ø§Ø±
ĠØ§ÙĦØ¹ ÙĤÙĦ
ĠØ£ÙĨ ÙģØ³
ĠØª ÙĤÙĦ
o l
ĠÙĬ Ùĩ
ÙĤ ÙĦØ§ÙĦ
ÙĪÙĨ Ø§Øª
Ø®Ø± Ø§
ĠØ§ÙĦØŃ ÙĪØ§Ø±
Ø§Ø± Ø¶
ĠØ§ÙĦÙħ Ø¹Ø±ÙĪÙģ
Øº Ø§ÙĦ
Ø¬ ÙĬØ±
ĠØ§ÙĦØ° ÙĩØ¨
ĠØ§ÙĦÙĬ Ø§Ø¨
ĠÙĨØ³ Ø®Ø©
ĠØ´Ø®Øµ ÙĬØ©
Ø£Ø³ ÙĬØ³
ĠØ³ ÙĥØ§ÙĨ
Ø± Ø§Ø¦ÙĬÙĦ
ĠØ£ØµØ¨ØŃ Øª
Ø¯ÙĬ Ùĩ
ØŃÙĬ Ø§Ø¡
ĠØ§ÙĦØµ ØºÙĬØ±Ø©
ĠØ£ Ø±Ø¯
ĠØ§Ø® Ø±Ùī
Ùģ Ø§Ùģ
ĠØ§ÙĦÙħÙĨ Ø´
Øº Ø±Ø¨
ĠÙĥØ¨ÙĬØ± Ø§
ĠØ³ Ø¹Ø¯
Ġ: :
Øª Ø¨Ø©
ĠÙĬØ¹ ÙĪØ¯
ÙĩÙħ ÙĬØ©
in g
ĠÙĪÙĦ ÙĨ
Ø³Ø±Ø§Ø¦ÙĬÙĦ ÙĬØ©
ĠØµ ØŃØ©
ĠÙĥ Ø§Ø±
ĠØ§ÙĦÙħ ÙĪØ¬ÙĪØ¯Ø©
Ø§Ø¯ Ùī
ĠØ¨Ø· ÙĪÙĦØ©
ĠÙĪÙĦ Ø¯
3 8
ÙĦ ÙĪ
ĠØ² ÙħÙĨ
ĠØ§ÙĦØ«ÙĤ Ø§ÙģØ©
ĠØªØ¯ Ø®ÙĦ
ĠØªØ¯ Ø±ÙĬØ¨
ÙĦØ§ ÙĬØ§
ĠÙĪØ§ÙĦ Ø³ÙĦØ§Ùħ
ĠØ§ÙĦØ· ÙĦØ¨
Ø´ ÙĬØ±
ĠØ§ÙĦØŃ ÙħÙĦ
ĠÙĪ Ø§
ØªØ¨ Ø·
Ø§ÙĤ Ø¨
ĠØ§ÙĦÙħ Ø¶
ĠØ§ÙĦÙĤØ§Ø¯ Ùħ
ĠØ´ Ø¨Ø§Ø¨
ĠØ§ÙĦØ¹ ÙĪØ¯Ø©
ĠØªÙģ Ø§ØµÙĬÙĦ
ĠÙĤ ÙĬØ§Ùħ
ĠÙĬÙĨ Ø¨ØºÙĬ
ÙĤ ÙĪØ·
ĠÙģ ÙĦÙħ
Ġ0 1
4 8
ĠØ¨ ÙĪÙĥ
ĠØ¹ ÙĩØ¯
ĠØ§ÙĦØ¯Ø± Ø§Ø³Ø§Øª
ĠØªÙĤ Ø±ÙĬØ¨Ø§
3 7
ĠØŃ ÙĤÙĬÙĤØ©
ĠØŃØ³ ÙĬÙĨ
ĠØ¨Ø¹Ø¯ ÙħØ§
ĠØ§ÙĦØ£ÙħÙĬØ± ÙĥÙĬØ©
Ø° Ùģ
ĠØ® ÙĦÙĬ
ĠØ§ÙĦÙħØ´Ø§Ø±Ùĥ Ø§Øª
Øµ ÙĬÙĦ
ÙĪÙĬ Ø¶
Ø£ ÙĥÙĬØ¯
4 5
ĠÙĪØ§ÙĦ Ùĩ
ĠØ¯ ÙĦÙĬÙĦ
Ø±ÙĤ Ùħ
ĠØªØ´ ÙĥÙĬÙĦ
ĠØ£ Ø¨Ø±Ø²
ĠØ§ÙĦØ´Ø±ÙĤ ÙĬØ©
ĠØ§ÙĦØ¥ÙĤ ÙĦÙĬÙħ
Ø± Ø£
ØªÙĬ ØŃ
ÙĪÙĨ ÙĩØ§
ĠØªØ¬ Ø±Ø¨Ø©
ĠØ§ÙĦØ£ Ø²
ĠÙģ Ø¥Ø°Ø§
ĠÙĬ Ø¸ÙĩØ±
ÙĬØ¯ Ùĩ
ĠØª ÙĪØ¬Ø¯
ĠØ¹ ÙĤØ¨
Øµ Ø§Ø¨
ĠØ§ÙĦØ¥ Ø³
ÙĬ Ø¶
ĠØ§ÙĦÙĨ ÙĤØ¯
Ø·Ùģ Ùī
ĠÙĦÙĦÙħ Ø³
ĠØ§ÙĦØ£ ÙħØ©
ĠÙĪØ¹ ÙĨ
ĠØ§ÙĦØ£Ø® Ø¨Ø§Ø±
ĠØ§ÙĦØ®Ø§Ùħ Ø³
ĠØ§ÙĦØ³ ÙģØ±
ĠØ§ÙĦØ£ Ø¬
Øµ Ùī
ĠØ§ÙĦØŃÙĤ ÙĪÙĤ
ĠØ¨ÙĬÙĨ ÙĩØ§
ĠÙĤ Øª
ĠØ§ÙĦ Ø§ÙĦÙĥØªØ±
a y
ĠØ§ÙĦØ±ÙĪØ³ ÙĬØ©
Ø¹Ø¯ ÙĦ
âĢ ®
ĠØ§ÙĦÙħ Ø´Ø±
Ġ3 1
ĠØ®ØµÙĪØµ Ø§
Ø®Ùģ Ø§Ø¶
ĠØ³Ø§Ø¨ ÙĤØ§
ĠØ§ÙĦÙĦ Ø§Ø²ÙħØ©
ĠØµ Ø§Ø±
ÙĪØ¶ Ø©
ĠØ§ÙĦØª Ø®
ĠØ§ÙĦØ® ÙĬØ±
ĠØ§ÙĦØ£ Ø³ØªØ§Ø°
ĠØ¨Øº Ø¯Ø§Ø¯
Ø« ÙĦØ©
ĠØª ÙĪÙĨØ³
ĠØ§ÙĦØ±ÙĬØ§Ø¶ ÙĬØ©
o w
ĠÙħ ÙĩÙħØ§
Ùĩ ÙĬÙĦ
ĠØº Ø±Ùģ
Ġ â
ĠÙĦØ§ ÙĬÙĨ
ĠÙĨÙģØ³ Ùĥ
ĠÙĨ Ø¯
ĠØ§ÙĦ ÙĪÙĦ
ĠØ§ÙĦÙħØ¤ Ø³Ø³Ø©
ĠØ§ÙĦØªØ±Ùĥ ÙĬØ©
ĠÙĬØ³Øª Ø®Ø¯Ùħ
ĠØ§ÙĦÙħØŃ Ø§ÙģØ¸Ø©
ĠØµ Ø¯Ø±
ĠØ¨ÙĦ Ø§Ø¯
ĠØ§ÙĦØ£ Ø¬ÙĩØ²Ø©
ĠØ¥ Ùģ
ĠØ§ÙĦÙģ ÙĨÙĬØ©
ĠØªØ¹ Ø²ÙĬØ²
ÙĦ Ø§Ø¹
Ġ0 9
ĠØ§ÙĦÙĨ ÙĪØ§Ø¨
ĠØ§ÙĦØ¹ Øµ
ĠÙĦØªØŃ ÙĤÙĬÙĤ
Ġ t
ØªÙħ ÙĨÙī
ĠØ§ÙĦÙģ ÙĨØ¯ÙĤ
Ġ0 7
ĠØ§ÙĦÙĥÙħ Ø¨ÙĬÙĪØªØ±
ÙĨ Ø§Øª
Ø§Ø¶ Ø±
ĠØ¨ ÙĪØ±
Ø¹Øª Ø¨Ø±
ĠØ§ÙĦØªÙĤ ÙĦÙĬ
ĠØ§ÙĦÙĨ Ø²
ĠÙĩ ÙĨ
ĠÙĪÙĩ ÙĨØ§Ùĥ
ĠØ§ÙĦØ¬Ùĩ Ø§Øª
ĠØ§ÙĦÙĥ ØªØ¨
Ø¬ Ø§Ø¡
Ø¯Ø± Ø§Øª
ĠØ¥ Ø³
ĠØ§ÙĦÙĨ ÙĤÙĦ
ÙĪØ§Ø¨ Ø·
ĠØ§ÙĦÙĪØŃ ÙĬØ¯
ÙĪØ§Øª Ùģ
ĠÙħ Ø´Ø§Ø±ÙĥØ©
Ø¬ ØŃ
Ø¯ ÙĬØ±
ĠØ§ÙĦÙħØ¹Ø§Ø± Ø¶Ø©
ĠÙĪØ§ÙĦ Ø¹ÙħÙĦ
Ø® ÙĬØ±
ĠØ§ÙĦÙħÙĤ Ø¨ÙĦØ©
Ø¹Ùħ Ø§Ø±
ĠØ¹ Ø±Ø¨ÙĬØ©
ĠÙĦÙĦ ØªØŃ
ĠØ§ÙĦØª Ø¨
ĠØ§ÙĦØªÙĨ ÙģÙĬØ°
ĠÙģØ¶ ÙĦØ§
Ġ V
ĠØ§ÙĦØªØ¬ Ø§Ø±Ø©
ĠØ§ÙĦØ£ Ø¬ÙĨ
ØªØª Ø§ØŃ
ĠØ£ Ø¹ÙĦÙĨ
ĠØ£Ø¯ Ø§Ø¡
ĠØ§ÙĦØŃ Ø§ÙĦ
ĠÙĪ ÙĦÙĩ
Ġ0 6
ĠÙħÙĨ Ø§
ĠØ¯ ÙĤØ§Ø¦ÙĤ
ĠØ§ÙĦÙĤ ÙĬØ§Ø¯Ø©
Ġ Ø§Ø²
Ùħ Ø±Ø©
ĠØ§Ùħ Ø§Ùħ
Ġ200 7
ĠØ§ÙĦØ¶ ØºØ·
ĠØ§ÙĦØµ ÙĪØª
ÙĪØ¬ ÙĦ
Ø³Ø¨ ÙĤ
ĠØ³ Ø¤Ø§ÙĦ
ĠØ§ÙĦØ§ÙĨ Ø³Ø§ÙĨ
Ø¢ Øª
ĠØ§ÙĦÙĤ ÙĪÙī
ĠØªØ¬ Ø¹ÙĦ
ĠØ§ÙĦØ³Ø§Ø¯ Ø³
ÙĦ Ø¨Ø©
Ġ0 2
Ùĩ ÙĦØ©
ĠØ§ÙĦØª Ø¹Ø¯
ĠÙħÙĨ Ø²
ĠØ§ÙĦØ¨Ø± ÙĦÙħØ§ÙĨ
ĠØ§ÙĦÙĨØª Ø§Ø¦Ø¬
ĠØ§ÙĦØ² ÙĪØ§Ø¬
ĠÙħØ¬ ØªÙħØ¹
Ø² Ø§ÙĦØ©
Ø±ÙĬ Øª
ĠØ£ÙĨ Ùĥ
ĠØ¨ Ø±ÙĬØ·
ĠØ®Ùħ Ø³Ø©
Ġ0 3
ĠÙĦ Ø¥ÙĨ
ĠØ§ÙĦØ±ÙĪØ³ ÙĬ
ĠØ§Ø¬ ÙĦ
ĠØ§ÙĦØªÙģ Ø§ØµÙĬÙĦ
Ø¨ Ùĥ
3 3
ĠÙĨ Ø¹Ùħ
ÙĪØ³ ÙĬ
ĠØ® Ø·Ø±
ĠØªØŃ Ø±ÙĬØ±
ĠØ§ÙĦØª Ø¹Ø¨
ĠØ£ Ø«Ø±
ĠÙħÙĨ Ø§Ùģ
ÙĨØ³ Ø§Ø¡
ØªØµ Ø§Øµ
ĠØŃ ÙģÙĦ
Ø§ÙĤ Ùģ
ĠØ±Ø¤ ÙĬØ©
ĠØ§ÙĦØ¥ Ø³Ø±Ø§Ø¦ÙĬÙĦÙĬØ©
ĠØ³ÙĬ Ø§Ø³ÙĬØ©
ĠØ³ÙĦ Ø³ÙĦØ©
ĠØ§ÙĦÙħ ÙĥØª
ÙĨ Ùĥ
Ø§ ÙĪÙĬØ©
ĠØ§ÙĦØ¥ ÙĨØªØ§Ø¬
ĠØ§ÙĦØ£ Ø¨ÙĬØ¶
Ø®Ø± Ø§Ø¬
ĠÙħØŃ Ø§ÙģØ¸
Ø¤ ÙĬØ©
ĠØ§ÙĦÙħØª Ø¹ÙĦÙĤØ©
Øª ÙĤÙĦ
ĠØ¥ ØŃ
ĠØ§ÙĦØµ Ø¯
ĠØ¨ ÙħØ¯ÙĬÙĨØ©
ĠÙĦ Ø¹Ø¨
ĠØ§ÙĦØªØ¹ Ø±ÙĬÙģ
ĠØ§ÙĦØ± Ø¯
ĠØŃ Ø§ÙĦØ§Øª
ÙĤ Ø§Ø°
ĠØ§ÙĦÙĦ Ø§Ø¹Ø¨
ĠØ§ÙĦØ±Ø¦ÙĬØ³ ÙĬ
Ġ0 4
ĠØ¨ÙĬØ§ÙĨ Ø§Øª
ĠØ¨ Ø§Ø³
Øµ ÙĬ
ĠÙĬØ¬ ÙĪØ²
ĠØ¯ ÙħØ´
ĠÙħØ¹ Ø±Ø¶
ĠÙħ Ø·ÙĦ
Ø§ÙĨ Ùī
Ø± Ø±
ĠØ³ Ø£
Ø¬ ÙĬØ©
ĠØ¨Ùħ Ø³
ĠØ¨Øª ÙĨ
ĠÙĥ Ø´Ùģ
3 4
ĠØ§ÙĦÙĥ Ø±Ø©
ĠØ¨Ø§ÙĦ ÙĦÙĩ
Øº Ø§Ø¡
ĠØªÙĤ Ø¹
ĠØ® Ø±Ø¬
ĠÙĦ ÙħØ±
ĠÙĪØ¥ÙĨ ÙħØ§
ĠÙĤ ÙĪÙĬØ©
ĠØµÙģ ØŃØ©
ĠØ¨ ØªØ¹
ĠØ¯ÙħØ´ ÙĤ
Ġ Ø§Ø°
ĠØ§ÙĦÙĤ ÙĪØ©
ĠØ· ÙĪÙĦ
ĠÙħ ÙĪØ¹Ø¯
ĠØ§ÙĦØ¨ÙĬ Ø¦Ø©
ĠØ§ÙĦØ£ØŃ ÙħØ±
ĠÙħÙĥ Ø§ÙģØŃØ©
ÙģØ§ ÙĪØ¶
ĠÙĪÙĬ ØŃ
Ø« ÙĨØ§Ø¡
ĠØ§ÙĦØ¬ ÙĪÙĬØ©
ĠÙħØ³ Ø§Ø¹Ø¯
Ø¨ ÙĩØ§
ĠØ§ÙĦØŃ Ø¬
ĠØ§ÙĦØ¨ Ø§Ø¨
ĠØ§ÙĦØ¯ Ùĩ
Ø¨ Ø³
ĠØ§ÙĦ ÙĪØ³Ø·
ĠÙĨÙĤ Ø§Ø·
ĠØ§ÙĦÙħÙĪ Ø¸
ĠØ£ ÙģØ±Ø§Ø¯
Ø§Ø± Ùģ
ĠØ£Ùħ Ø±ÙĬÙĥØ§
Ø±ÙĬ ØŃØ©
ĠØ± Ùĥ
Ø¹ ÙĬÙħ
ĠØŃ ÙħÙĦØ©
Ġ19 7
ĠØ§ÙĦÙħÙħ ÙĥÙĨ
ĠÙĤ ÙĬÙħ
ĠÙĦ ÙĬÙĦØ©
ĠØ§ÙĦØ¹ Ø±Ø¶
ĠÙĩ Ø§Ùħ
ï»Ł ï»
ÙĢ Ø©
ĠØ§ÙĦÙĩ ÙĪØ§Ø¡
ĠØ§ÙĦØ³ÙĨ ÙĪØ§Øª
ĠØ§ÙĦØªØ¹ÙĦÙĬÙħ ÙĬØ©
ĠØ§ÙĦØ³ÙĬ Ø§Ø³Ø©
ĠÙĦ Ø¶
ÙĪØ§Ø¬ ÙĩØ©
ĠÙĬ Ø²
ĠØµÙĨ Ø§Ø¹Ø©
Ø´ Ùĩ
ĠØ§ÙĦÙĤ Ø³Ùħ
ĠØ§ÙĦØ· Ø§ÙĦØ¨
ĠØº Ø§ÙĦØ¨
ĠØ£Ø±Ø¨ Ø¹Ø©
ĠØ´ Ø±ØŃ
ĠØ§ÙĦÙħÙĨ Ø¸ÙħØ©
ÙĬØ¯ Ø±
ĠÙĦÙĬ Ø¨ÙĬØ§
ĠØ§ÙĦØ£ Ø¹ÙĦÙī
ĠØ§ÙĦØ¹ ÙĨÙģ
ĠØ¬Ùĩ ÙĪØ¯
Ø® Ø§ÙĦ
ĠØ§ÙĦØ£Ø³ Ø¯
Ø§Ø¹ Ùĩ
ĠØ¯ Ø§Ø¹Ø´
ÙĪØ² ÙĬØ±
ĠØ§ÙĦÙģ Ø¹
ĠØŃ Ø¶ÙĪØ±
ĠØ¨Ø¹ ÙĨÙĪØ§ÙĨ
ĠÙĬ ÙĤÙĦ
) :
ĠØ§ÙĦ ÙĪØ¬Ùĩ
Ø§Ø¦ Ø·
Ø§ ÙĥÙĨ
ĠØ£ÙĨ ÙĨØ§
âĢ ª
ĠÙĪÙĦØ§ ÙĬØ©
ĠÙģØ± Øµ
Ø¯Ø± Ø³
Ø§ÙĤ Ø´Ø©
ĠÙħ Ø¯Ø©
ĠØ¨ ÙĨØª
ĠÙĩ Ùī
Ø« Ø±Ø©
3 2
ĠØ§ÙĦØ¯ÙĬÙĨ ÙĬØ©
ÙĪØ£ ÙĪØ¶ØŃ
ĠØ§ÙĦØŃ Ø³ÙĬÙĨ
Ø® Ø±Ø©
Øª Ø©
ĠØ§ÙĦØ£Ùĩ ÙĦÙĬ
ÙĪ Ø³Øª
ØŃØ¯ Ø§Ø«
ĠØ§Ø® Ø¨Ø§Ø±
ĠÙĬ Ø±Ø¬
ĠÙĨÙĬÙĪ Ø²
Ø·Ø¨ Ø®
ĠØ® Ø·Ø©
ĠÙħÙĨ ØŃ
ÙĤÙĬ Ø§Ùħ
Ġ ]
Ùģ Ø²
ÙĥØ± Ùĩ
Ø·Ø§Ø¹ Ùħ
Ø« Ø¨Øª
ĠØ¨ ÙĪÙĦ
ÙĢ ÙĬ
ĠÙĦ Ø¹ÙħÙĦ
Ø¶Ø± ÙĪØ±Ø©
ĠØ§ÙĦØŃ Ø¶
r i
ĠØŃ Ø§Ø¬Ø©
ĠØ§ÙĦØ£ ÙĦ
ĠØ§ÙĦØ£ ÙĤ
ĠØ§ÙĦÙĤØ¯ Ø±Ø©
ĠÙħØ¹ ÙĬÙĨØ©
ĠÙĬ ÙĦÙĬ
ÙģØ± Ø¯
Ø£ ÙĨØ§
ĠØ§ÙĦØ° Ø§Øª
Ø³ ÙĬÙħ
ĠØ¹ Ø¯ÙĬØ¯Ø©
Ø§Ø¹ Ø¨ÙĬÙĨ
ĠØ§ÙĦØ£ Ø²ÙħØ©
ĠØ§ÙĦØª ÙĤØ±ÙĬØ±
ĠØ¨ ÙĨØ§
ØªØ§Ø¨ Ø¹Ø©
5 5
ĠÙħ Ø§ÙĦ
ÙĥÙħ Ø§ÙĦ
ØŃ ÙħØ¯
ĠØ¹ Ø§Ø¯Ø©
ĠØ£ÙĨ ØŃØ§Ø¡
ÙĦØ§Ùħ ÙĬ
ĠØ¨Ø¯ ÙĦØ§
ĠØ§ÙĦØ¨Ø±ÙĬØ· Ø§ÙĨÙĬØ©
ÙĬØ¯ ÙĬØ§
ÙĬÙĨ Ùĩ
ĠØ§ÙĦØ§Ùħ Ø±
ĠØ§ÙĦØµ ÙĩÙĬ
ĠØª ØºÙĬØ±
ĠÙħØ³ ÙĦÙħ
ĠÙħØ³ Ø§ØŃØ©
ĠØ§ÙĦØ£ÙħÙĬØ± ÙĥÙĬ
ĠØ§ÙĦÙĤØ§ÙĨÙĪÙĨ ÙĬØ©
ÙĪ Ø°
ĠØ§ÙĦÙħØ³ Ø¬Ø¯
Ùĩ Ø§Ùħ
ĠÙĪ Ø¨Ø¯
ĠÙĦ ØªØµ
ĠØ§ÙĦØµØŃ ÙģÙĬ
ĠØ§ÙĦØº Ø±Ø¨
ĠØ§ÙĦÙħØ¯ Ø§Ø±Ø³
ĠÙĪØ¨ Ø¹Ø¶
ĠØ§ÙĦØ¹ ÙĩØ¯
ĠØ´Ùĩ Ø§Ø¯Ø©
ĠÙĪØª Ø£
Ú ©
ĠÙĪØ§ÙĦÙħ Øª
ĠØ´ Ø£ÙĨ
Ø²ÙĬ Ø§Ø±Ø©
ĠÙĥÙĦ Ùĩ
ÙĥÙĨ Ø¯Ø±
Ø² ÙĤ
ĠÙĪÙĤ Ø¹
Øº ÙĦØ§ÙĦ
Ø¬ Ø¹ÙĦ
Ø§Ø¦ ÙĬØ§
ĠØ¬Ùħ ÙĬÙĦØ©
ĠÙĤ ÙĬØ§Ø¯Ø©
ĠØ§ÙĦÙħØ´ Ø§ÙĥÙĦ
ÙĤ ÙĬÙħ
ÙĪÙģÙĬ ÙĤ
ĠÙĪ ÙĦÙĥ
ĠÙĬØ± Ùī
ĠÙĤ Ø±Ø¨
ĠÙĪØ§Ø³ Ø¹Ø©
ĠØ£ ÙĪÙĦØ§
3 1
ÙĪÙĦØ§ ÙĬØ©
ÙĪ ØµÙĦ
ĠÙĨ Ø¬Ø¯
Ø§Ø¦ Ø±ÙĬ
ĠØ§Ø® ØªØ±
ĠØ§ÙĦØ³ Ø¬
Ø¹ ÙĦÙħ
ĠP M
ĠÙħÙĨ Ùĥ
Ø§Ø· ÙĬ
ĠÙĪØ§ÙĦÙħ Ø¤
ĠÙĬØŃ ØªÙĪÙĬ
ĠØ§ÙĦÙĤ Ø§Ø¦ÙħØ©
ĠØ§ÙĦÙĤ Ø·
ĠØ· Ø§ÙĦ
ĠÙħØ¹ ÙĨØ§
ĠØ§ÙĦØ£ØŃØ¯ Ø§Ø«
ĠØªØŃØª ÙĪÙĬ
ĠÙħ ÙĪØ¬
ĠØ§ÙĦØ¬ ÙĪ
ĠØ§ÙĦÙĦ ÙĪÙĨ
ÙĪ Ø§Ø¶
ÙħØ§ ÙĩÙĬØ±
ĠÙĤ Ø±Ø§Ø¡Ø©
Ù ¡Ù
ĠØ§ÙĦØ¨ ÙĨØ§Ø¡
ĠØ§ÙĦØªØ±Ùĥ ÙĬ
ĠÙĪ ÙģØ±
ĠÙĬØŃ ØµÙĦ
ĠØ§ÙĦÙģ Ø±ÙĤ
Ø¯ÙĬ ÙĤØ©
ĠÙĬÙħ Ø«ÙĦ
ĠØ§ÙĦÙĤ Øª
Ø· Ùĩ
ĠÙĪØª Ø¯
Ø¨ ÙĪÙĦ
ĠØ§ÙĦØ¥ÙĦÙĥØªØ± ÙĪÙĨÙĬØ©
0 5
ĠØ¨ØŃ ÙĤ
ĠØ¹Ø¨ Ø§Ø³
ĠØ§ÙĦØ·Ø¨ÙĬ Ø¹ÙĬ
ĠÙģ ÙĩØ°Ø§
ĠÙĦØ£ ÙĬ
ĠØ§ÙĦÙħ ÙĥØªØ¨
Ùı Ùĳ
ĠØª ÙħÙĨ
ĠØ§ÙĦØªØŃ Ø§ÙĦÙģ
ĠÙĦØ¯ÙĬ ÙĩÙħ
ĠÙĪØ£ ÙĨØ§
ĠØ§ÙĦØ¹ Ø¸ÙĬÙħ
ĠÙħØ¹ ÙĩÙħ
ĠØ§ÙĦØª Ùĩ
Ø¶ ØºØ·
ĠÙħØ¹ ÙĨÙī
ĠØ§ÙĦÙħÙĨØªØ¬ Ø§Øª
ĠØ§ÙĦÙģ Ø±Ø¯
ĠØŃØ¯ ÙĪØ«
ĠÙħØ¤ Ø®Ø±Ø§
ĠÙĪ ÙħÙĦ
ĠØ§ÙĦÙħØ±ÙĥØ² ÙĬ
ĠØ§ÙĦØŃØ± Ø§Ø±Ø©
ĠÙĤ Ø§Ø¯Ø±
ĠÙĦÙĦ Ø³ÙĬ
ĠØ§ÙĦØŃ ÙĪØ«
ÙĪÙĥØ§ÙĨ Øª
ĠÙĦÙĦØª ÙĨ
ĠÙĪØ§ÙĦ Ø¨Ø±
ĠÙĦ Ø§Ùģ
ĠØ§ÙĦÙħ ÙģØª
ĠØ³ Ø§Ùħ
ĠÙĪÙħ Ø³Øª
ĠØ§ÙĦØºØ° Ø§Ø¦ÙĬØ©
Ø¯Ø± Ø§Ø³Ø©
Ø·Ø¨ Ø§Ø¡
Ġ19 6
ĠØ§ÙĦØ¹Ùħ ÙĦÙĬØ§Øª
ĠØ§ÙĦØ¬Ø² ÙĬØ±Ø©
ĠØ§ÙĦÙħ ÙĦÙģØ§Øª
ĠØ§ÙĦØ¯ÙĬÙħÙĤØ±Ø§Ø· ÙĬØ©
ĠØ§ÙĦÙħ ÙĦÙģ
ĠÙħØ± ÙĪØ±
ÙģØª Ø±Ø©
ĠØ¯ Ø§Ø®
ĠØ§ÙĦÙĥ ÙĪÙĨ
ĠÙĦ Ø¹Ø§Ùħ
ÙĪ Ø§ÙģÙĤ
ĠÙĪØ§Ø´ ÙĨØ·ÙĨ
ĠØ¨Ø£ÙĨ ÙĩØ§
0 8
ĠÙĪØ§ÙĦÙħ ØŃ
ĠØ§ÙĦØ´Ùħ Ø§ÙĦÙĬØ©
ĠØŃÙĬØ§Øª Ùĩ
ĠÙĪØ§ÙĦ ØªØ±
ĠØ§ÙĦÙģ ÙĪØ±
ĠØ§ÙĦØº Ø§Ø²
ĠØ¯ ÙĪØ±Ø©
ĠÙģ ØµÙĦ
Ø¯ Ø§Ø±
Ø§ÙĦÙĬ Ø¨
ÙĤÙĪÙĦ Ùĩ
Ø¯ ÙĪØ²
ĠØ£ ÙĬÙĨ
ĠÙħÙĤ Ø§Ø±ÙĨØ©
ĠÙĬØ¹ ÙĦÙħ
Ø« ÙĪØ±
0 9
ĠØ§ÙĦ ÙĦÙĬÙĦ
ØªØ± Ø§Øª
Ù °
ÙĨÙĬ Ø¹
ÙĤ ÙĦØ©
ï» ´
ĠÙģ ÙĨØ¯ÙĤ
ĠØ§ÙĦ ÙĬØ¯
ĠØ§ÙĦØ¨ Ø¯Ø§ÙĬØ©
ĠØª ÙħØ±
ĠØ§ÙĦØª Ø§Ø³
ĠØ§ÙĦÙħÙĨ Ø§Ø³Ø¨Ø©
ĠØ§ÙħØ± Ø£Ø©
ĠØ§ÙĦØŃ Ø§ÙĦÙĬØ©
Ùĥ ÙħÙĦ
Ø§ÙĨ Ø¹
ĠØ§ÙĦØªØ³ Ø¬ÙĬÙĦ
ĠØªØŃ ÙĪÙĬÙĦ
ĠØ§ÙĦØ£Ø±Ø¯ ÙĨ
ĠÙģ Ø³
u s
ĠØ§ÙĦØ´Ø± Ø¹ÙĬØ©
Ġ201 9
ĠØ¨Ø¹Ø¯ ÙĩØ§
ĠØ§ÙĦÙħØ¯ ÙĨ
ĠØ§ ÙĪÙĨ
t er
ĠÙĩ ÙĢ
ĠØ¨Ø§ÙĦÙĤ Ø±Ø¨
ĠØ§ÙĦÙģ ÙĬÙĦÙħ
ĠØ¨ Ø£Ø³
ĠØ´ Ø§ÙĩØ¯
ĠÙĦ Ø§Ø¨Ø¯
ĠÙĦØ¯ÙĬ ÙĩØ§
ĠØ¯ Ø±Ø¬
ĠÙĦÙĥÙĨ ÙĩØ§
ĠØ§ÙĦØŃ Ø¯ÙĬØ¯
ØªØµ Ø§Ø±
Ø¨Ø± Ø©
ØªÙĩ Ø§Ø¡
ĠÙĪÙĤ Ùģ
ĠØ§ÙĦÙĪØ² ÙĨ
ĠØª Ø¨Ø¯Ø£
ĠØ¬Ùħ Ø§Ø¹Ø©
ĠÙĥØªØ¨ ÙĩØ§
Ø¹Ø± Ø§ÙĤ
ĠÙĬ Ø²Ø§ÙĦ
ĠØ§ÙĦÙĪØ² ÙĬØ±
ĠÙĪÙĦÙĥÙĨ Ùĩ
Ø§ÙĤ Ø¯
0 1
ĠÙĨ ÙĪØ±
ĠÙĪØ§ÙĦ Ø´Ø±
ĠØ¨ ØµÙģ
Ø¬ ØªÙħØ§Ø¹
ØŁ !
ĠØ§ÙĦÙĪ Ø«
0 7
Ø§Ø´ Ø±Ø©
ĠØµ ØŃÙĬ
ĠØ¥ Ø¹ÙĦØ§Ùħ
ĠØ§ÙĦØŃ Ø±Ø©
Ø´ÙĦ ÙĪÙĨØ©
ĠÙħÙĤ ØªÙĦ
ĠÙħÙĪ Ø§Ø¯
ĠÙĪØ§ÙĦ Ø§ÙĤ
ĠØ¨Ø¹ ÙĬØ¯
Ø§Ø¦ ÙĬØ§Øª
ĠÙĬÙĤ Ø¹
ĠÙħÙħ ØªØ§Ø²
ĠØ¹ Ø§Ø¯
Ø¹Ø¯ Ø¯
ĠÙĪ Ø´Ø±
Ø§Ùħ Øª
ĠØ¨Ø§ÙĦ Øµ
Ø§ÙĪÙĦ Ø§Øª
ÙĥÙĪÙĨ Ø§Øª
ĠØ§ÙĦØª Ùĥ
ĠØ³ ÙĪØ±Ø©
Ùĩ ÙĪÙħ
ÙģØ§Ø¡ Ø©
ĠØ§ÙĦØ¹ Ø§Ø¨
ĠØ§ÙĦØ¬ ÙĪØ¯Ø©
Ø§Ø¯ÙĬÙħ ÙĬØ©
ĠÙĪØ£ ÙĬ
ĠÙĬØ¯ Ø®ÙĦ
ĠØ§ÙĦÙħØº Ø±Ø¨ÙĬØ©
ÙĬÙĬÙĬÙĬ ÙĬÙĬÙĬÙĬ
Øª Ø±ÙĬ
ÙĪ ØªÙĩ
ÙħØ§ ÙĥÙĨ
ĠØ§ÙĦÙĨ Ø¬Ø§ØŃ
Ø·Ø¨ ÙĤ
ÙĬÙĦ Ùĩ
ĠØ§ÙĦØ¹ Ø§ÙĦÙĬ
ĠØ§ÙĦÙħ ÙĩÙħ
ĠØ³ÙĬ Ø§Ø³Ø©
0 6
Ø¹ Ø§Ø¡
ĠÙĪØª Ø±Ùĥ
ĠØ¥ Ø¶Ø§Ùģ
ÙĨÙĬ ÙĬÙĨ
ÙĥØ± Ø±
ĠÙĥ ÙĦÙħ
ÙĬÙĤ Ùī
Ø¹ ÙĨØ¯ÙħØ§
ĠØ§ÙĦØŃ ÙĤÙĬÙĤÙĬ
Ø¬Ùħ Ø§Øª
ĠÙĪÙħÙĨ ÙĩØ§
ĠØ§ÙĦØ² ÙĬ
ĠÙħØŃ ÙĦ
ĠÙģ ÙĪØ²
Ø« ÙħØ§ÙĨ
ĠØªØ£ ØªÙĬ
ÙĬ ÙĩØ§
ĠØ¬Ùħ Ø¹ÙĬØ©
ĠØ´ Ø±Ùĥ
ĠØº Ø±Ø¨
ÙĪØ± ÙĩØ§
ĠØ§ÙĦÙĥ Ø§ØªØ¨
ĠØ§ÙĦÙħÙĤ Ø§ÙĪÙħØ©
ĠØ§ÙĦÙħØ« Ø§ÙĦ
Ġ ï´
ĠØ§Øª Ø®Ø§Ø°
ĠØµÙĦ Ø§Ø©
ĠØ¶ Ø±Ø¨
ĠØ§ÙĦÙģ Ø³Ø§Ø¯
Ø§Ø³ ÙĦ
ĠØ¥ Ø¹ÙĦØ§ÙĨ
5 6
ĠÙħØ¬ Ø§ÙĨØ§
ĠØ§ÙĦØ§Ø³Øª Ø«ÙħØ§Ø±
Ø§Ùģ ÙĤØ©
ĠÙĪØ¨ Ø§ÙĦ
Ùħ Ø§Ø±
ĠÙħØŃ ÙĥÙħØ©
ÙĪÙĤ Ø©
ĠÙħØŃ Øª
ĠØ§ÙĦØ³ Ø¤Ø§ÙĦ
ĠØ¨Ø§Ø¹ ØªØ¨Ø§Ø±
Ø®ÙĦ Ø§ÙĤ
ĠØ§ÙĦØ¬ ÙĪÙĦØ©
ÙĨØª ÙĬÙĨ
ĠÙĬ Ø¨ÙĦØº
Ø§ÙĦØª Ø²Ø§Ùħ
Ø§Ùĥ ÙħØ©
ĠØ§ÙĦØ¥ Ø¬Ø±Ø§Ø¡Ø§Øª
ÙĨØ¯ ÙĨ
Ø§Øª Ùĥ
Ġ }
4 7
ĠØ§ÙĦØ£ Ø´ÙĬØ§Ø¡
ØŃÙĬ Ø§ÙĨØ§
Ġ0 8
o f
ĠÙħØ¬ ÙĦØ©
Ø§ ÙĬØ¯
ĠØ¨Ø§ÙĦ Ø¨
Ø· Ùħ
ĠØŃ Ø²
Ø´ ÙĥØ±Ø§
Øª Ø§ÙĨ
Ø®ÙĦ ÙĤ
ÙĪØ§Ø± Ø¹
ÙĪÙĦ Ùħ
ĠØ¨ÙħÙĨ Ø§Ø³Ø¨Ø©
ĠÙĤ Ø§Ø¹Ø¯Ø©
ĠÙĨÙģØ³ ÙĬ
ÙĪ Ø§ÙĤØ¹
ĠØ§ÙĦØ¬ÙĨ ÙĪØ¨ÙĬØ©
ĠØ£ Ø±Ø¨Ø¹
ĠØ³ÙĬ Ø§Ø±Ø§Øª
ÙĦÙĤ Ùī
Ø¬Ùĩ Ø§Ø²
ĠØ§ÙĦÙħØ³ÙĬ ØŃ
ĠØ§ÙĦØŃ Ø§ÙĦØ§Øª
ĠØ§ÙĦ Ø§Ùĥ
ĠØ§ÙĦØ¬ ÙĨØ³ÙĬØ©
ĠØ§ÙĦØ£Ø± Ø§Ø¶ÙĬ
ĠØ§ÙĦØ¥ÙĬØ± Ø§ÙĨÙĬ
ĠØ§Ø¹ ØªØ¨Ø§Ø±
ĠØ§ÙĦØ£ Ø¹
ĠØ¨ ØªØµ
Ø²ÙĬ Ø§Ø¯Ø©
ĠØ§ÙĦØŃ Ø§Ø¬Ø©
ĠØ§ÙĦØŃ ÙĬ
ĠØ° Ø§ØªÙĩ
ĠÙĪÙĬ ØªÙħ
ĠØ§ÙĦÙħ Ø´Ø§Ø±ÙĬØ¹
ĠØ§ØŃ ÙħØ¯
ĠØ§ÙĦØ¹ Ø¯Ø¯
Ø±Ø¬ Ø§ÙĦ
ĠÙħ ÙĦØ§ÙĬÙĬÙĨ
ĠØ§ÙĦØ£ Ø³Ø±
Ø¨ØŃ Ø§Ø«
Ø® ÙĬ
ĠÙĪØª Øª
ĠØ§ÙĦØª ØºÙĬÙĬØ±
ĠØ¨Ø¹Ø¶ ÙĩØ§
ĠØ§ÙĦØµ ØŃÙĬØŃ
ĠØ¹ ØµØ±
ĠÙĥ ÙĦØ§
ĠØ§ÙĦÙħØŃ Ø§ÙģØ¸
ĠØ£Ø´ Ø®Ø§Øµ
ĠÙĥ ÙĨØ§
Ø·ÙĦ Ø¨Ø§Øª
ĠØ§ÙĦÙħØ¯ ÙĨÙĬØ©
4 6
ĠØ¨ÙĨÙģØ³ Ùĥ
ĠØ¬ Ø§Ùħ
ĠØ§ÙĦÙĪØ§ØŃ Ø¯
Ø§ÙĨ Ø³
4 9
ĠÙĪØª Øµ
ĠØ§ÙĦÙĪ ØŃØ¯Ø©
Ø¬ Ø§Ø±Ø©
ĠØ§ÙĦØ¨ Ø§Ø±
ĠØªØµØ±ÙĬØŃ Ø§Øª
ĠØ§ÙĦØº Ø±ÙģØ©
ĠØªØ± Ùī
ĠØ· ÙĪØ§ÙĦ
ĠØ§ÙĦÙĦ Øº
Ùĳ Ùĭ
ĠØ§ÙĦ Ø±Ùĥ
ĠØ¥ÙĤ Ø§ÙħØ©
ĠÙ ¡Ù
ĠÙħÙħ Ø§Ø±Ø³Ø©
ĠØ£Ùģ Ø±ÙĬÙĤÙĬØ§
ÙĤ Ø§ÙħØ©
ĠØ§ÙĦÙħØª ÙĪØ³Ø·
ĠØ§ÙĦØ¥ Ø³Ø¨
ĠØ§ÙĦÙħÙĪ Ø§ÙģÙĤ
ĠÙħÙĨ Ø²ÙĦ
Ø¨ ÙĪØ¹
Ø´ ÙĤ
ĠØªÙħ Ø«ÙĦ
ĠØ¨ØŃ Ø§Ø¬Ø©
ĠØ§Ø³ ØªÙħØ±Ø§Ø±
ÙĦÙĬ Ø´
Ø±Ø¨ ÙĬÙĨ
Ø§Ø¯ Ø±Ø§Øª
ÙĨØ¯ ÙĬØ©
Ø§ÙĦ Ø³ÙĦØ§Ùħ
ĠØ§ÙĦÙħØª ØŃØ¯Ø«
u r
ĠØ¨Ø§ÙĦÙĦ ØºØ©
ĠØ§ÙĦØ¬ÙĨ ÙĪØ¨
Ø±ÙĤ Ø§Ùħ
ĠÙĥ ÙĦÙħØ§Øª
ĠØªÙħ ÙĥÙĨ
ĠÙħÙĪØ³ Ùī
ĠÙħØ¹ Ø±ÙĪÙģ
ĠØ§ÙĦÙħØ¤ÙħÙĨ ÙĬÙĨ
Ø¬Ø² Ø§Ø¡
ĠÙĪØ¢ ÙĦÙĩ
Ø·ÙĦ ÙĤØª
ĠØªØ¬ Ø§ÙĪØ²
Ġ U
0 4
ĠØ« Ø§ÙĨÙĬØ©
Ø§Ø¬ Ø¯
ÙĥÙĨØ¯Ø± ÙĬØ©
Ø§ÙĦ Ø®
Ø§Ø² ÙĨ
Ø³ Ø§Ø³
Ùģ Ø°
0 3
ĠÙħ ÙĪØ¬ÙĪØ¯
ĠÙĦ ØºØ©
ĠØ£ØŃ Ø¨
0 2
ĠØ§ÙĦØ£ Ùĥ
ĠÙĥ Ùģ
ĠØ£ ØŃØ¯Ø«
ĠØ§ÙĦÙģ ÙĪØ²
ĠÙĬØŃ Ø¨
Ùİ ØĮ
ĠØ§ÙĦØ§ ÙĪÙĦÙī
ĠØ£ Ø¬Ø±
ĠØ£ Ø¹ÙĦÙĨØª
ĠÙħØ¤Ùĥ Ø¯Ø§
ÙĪØ¯ Ùĩ
ĠÙħ ØªÙħ
ĠØ§ÙĦÙĥÙĩØ±Ø¨ Ø§Ø¡
ĠØ§ÙĦØ³ Ø¹Ø±
ÙĪ ØµÙĪÙĦ
ĠØ§ÙĦÙĤ Ø¶Ø§ÙĬØ§
ĠØ§ÙĦØ·Ø¨ÙĬ Ø¨
ĠÙħ Ø¯Ø±Ø³Ø©
ĠØ§ÙĦÙĨ Ø¸
Ø§Ø¹ ÙĬÙĦ
ĠØ§ÙĦØ¸ Ø±ÙĪÙģ
ĠÙĤ Ø§Ø¦Ø¯
ĠØ¥ÙħÙĥØ§ÙĨ ÙĬØ©
5 8
ØŃÙĬ Ø§ÙĨ
ĠØ¨ Ø¶
ĠØ§ÙĦØ² ÙĬØª
/ /
ĠØ¨Ø§Ø± ÙĬØ³
ĠØ§ÙĦÙģÙĦØ³Ø·ÙĬÙĨ ÙĬÙĬÙĨ
Ø´ Ø±ÙĥØ©
ĠÙħ Ø·Ø§Ø±
ĠØ¶ ØºØ·
ØŃØ§ ÙĬØ§
ĠØ§ÙĦÙħ Ø°Ùĥ
ĠØ· ÙģÙĦ
ĠØ§ÙĦØªØ´ ØºÙĬÙĦ
Ø¦ ÙĪÙĦ
ĠØ§ÙĦØ¯ ÙĤÙĬÙĤØ©
ĠØ§ÙĦØ³ ÙĥØ§ÙĨ
ĠØ§ÙĦÙħØº Ø±Ø¨ÙĬ
ĠØ§ÙĦÙĦØ¨ÙĨ Ø§ÙĨÙĬØ©
ĠØ¬ ÙĬ
ĠØ§ÙĦØ± Ùħ
ĠØªØŃ Ø³ÙĬÙĨ
ĠÙĪÙħ Ø¤
ĠÙĪÙħ Ø´
ĠÙĪ Ø³ÙĦ
ĠØ§ÙĦØ° Ùĩ
Ø§Ùĥ Ø©
ĠÙĤ Ø¶Ø§ÙĬØ§
Ø§Ø¬ ÙĦ
ĠØ§ÙĦØ£Ø³ Ø±Ø©
ĠØ¹ Ø³ÙĥØ±ÙĬØ©
ÙĦÙģØ²ÙĬ ÙĪÙĨ
ĠØ§ÙĦØ± Ø§Ø¨Ø¹Ø©
ĠØª Ø³Ø¨Ø¨
Ø£ÙĨ Øª
ĠÙĪÙĦ Ø°ÙĦÙĥ
Ø´ÙĬ Ø®
ĠÙĪØµÙĦ Øª
ĠØ§ÙĦØŃ ÙģØ§Ø¸
Ø´Ø± Ø§Ùģ
ĠØ¨Ø³ ÙĩÙĪÙĦØ©
ĠÙĦÙĦ Ø¬ÙħÙĬØ¹
Ø§ ÙĬÙĦ
ĠØ§ÙĦØ¢ ÙĬØ©
Ø¬Ùħ ÙĬÙĦ
ĠÙĪ ÙĬØ¯
Ø° Ùī
Ø§ÙĦ ØªÙĩ
ĠØ§ÙĦØ¥ ØµØ§Ø¨Ø©
ØªØ± ØŃ
Ø° Ø§Øª
ĠØ§ÙĦØŃ Ø³ÙĨ
ĠØ§ÙĦÙħØŃ Ùħ
ĠØ£ ØµÙĦ
ĠÙĨ Ø·Ø§ÙĤ
ĠÙħ ÙĬØ§Ùĩ
ĠÙĪØ§Ø¶ ØŃ
ĠØµ ÙĬ
ÙĥÙĦ Ø§Øª
ÙĬÙĥ ÙĬØ©
ĠØª ÙĪØ§Ø¬Ùĩ
Ø§ØŃ ÙĬ
ĠØ§ÙĦØ± Ø¦
ÙħØ± Ø§Ø¡
ĠÙĤ Ø¶
ĠØ§ÙĦØ´Ø¹ Ø¨ÙĬ
ÙĬÙĤ Ø§Ùģ
ĠØª Ø¬ÙħØ¹
. [
ĠÙħØª Ø¹Ø¯Ø¯Ø©
Ġ Ø§ÙĩØªÙħØ§Ùħ
ØªØŃ ÙħÙĬÙĦ
ĠØ´ Ø¯ÙĬØ¯
Ùĩ ÙĦÙĥ
Ùĩ ÙĦØ§
ÙĪØ³ Ø¹
ĠÙħÙĨ ØªØ®Ø¨
Ùħ ÙĬØ±
Ø¬ Ø§
ÙĬØ¬ Ø§
ĠÙĤÙĦÙĬ ÙĦØ§
ÙĪØŃ Ø§Øª
Ø±ÙĬÙĤ ÙĬØ©
ĠÙĬØ³Ùħ ØŃ
ĠÙģ Ùħ
ÙĬÙħ ÙĬÙĨ
ĠØ±ØŃÙħ Ùĩ
ĠØ§ÙĦÙĨ Ø´Ø§Ø·
Ùģ ÙĪØ±
ĠÙħØ¨Ø§Ø± ÙĬØ§Øª
ĠÙĬØµ Ø¨ØŃ
ĠØ¥ Ø®
ÙĪØ³ Ø·Ø©
ĠØ´ Ø§Ø±Ùĥ
ĠØ§ÙĦØ£ Ø¹Ø¶Ø§Ø¡
ĠØ§ÙĦÙħØ·ÙĦ ÙĪØ¨
Ø§Ø¨ ÙĬØ¹
ĠØ£ÙĦÙħ Ø§ÙĨÙĬØ§
Ø£ ÙĪ
a b
ĠÙĦ ÙĬÙĨ
ĠÙĪØ§ÙĦÙħ Ø³Øª
ĠØª Ø¯Ø§ÙĪÙĦ
ÙĤ Ùģ
Øµ ÙĦÙī
ĠØŃ Ø¶Ø±
Ø¬ÙĦÙĬ Ø²ÙĬ
Ø·ÙĦ Ø§Ø¨
Øµ Ø±ÙĬ
ĠØ§ÙĦÙħÙĪØ§Ø· ÙĨ
Ø§Ø± ÙĤØ©
ĠÙĬØ¤ ÙĥØ¯
ĠØ¯Ø§Ø¦ Ø±Ø©
ĠØ§ÙĦÙħ Ø³Ø±
Ġ6 0
ĠØ§ÙĦØ£ÙħØ± Ø§Ø¶
ĠØ¨Ø£ ÙĬ
Ġ %
Ø¬ ÙĬØ¹
ĠØ¹Ø¨Ø¯ Ø§ÙĦØ¹
ĠÙĦÙĦ Ø®
Ùĥ ÙĪØ±
ĠØ§ÙĦØª Ø±Ø¨
Ø§Ø± ÙĬÙĨ
Ø° ÙĬØ¨
ĠØ¥ Ùħ
ĠØ§ÙĦØ± Ø£ÙĬ
ĠØ¥ Ø¹Ø¯Ø§Ø¯
ĠÙĪØ¸ Ø§Ø¦Ùģ
ĠÙĨØ¸Ø± Ø§
ĠÙħ ØªØŃ
ĠØ§ÙĦÙĨ ÙĩØ§ÙĬØ©
Ø« Ø¨ÙĬØª
ÙĬÙĪ Ø§ÙĨ
ĠØ¬Ø§Ø¡ Øª
ĠØ³ ÙĦÙħ
Ø° Ø§Ø¨
ĠØ¨ ÙĥØ±
ĠØ§ÙĦÙħÙĨ Ø§Ø³Ø¨
Ø§Ø¦ Ùĥ
Ø§Ø¯ Ø§
ĠÙģ Ø±ÙĤ
ĠØ§Ø¨ ÙĪ
ĠØ§Ø® ØªØ¨Ø§Ø±
Ø±Ø¨ Ø·
ĠØ£ Ø¯Ùī
ĠØ§ÙĦØ£ ÙģØ¶ÙĦ
4 4
ÙĪÙĦ ÙĨ
Ø§Ø¦ Øµ
Ø§Ø¶ Ø©
ÙģÙĬ Ø°ÙĬ
ĠØ± Ø£ÙĬ
ÙĪ Ø§ÙĨÙĬ
ĠØ¥ Ø±
Ø¹ ÙĪØ¨Ø©
ÙĩÙĬ Ø¦Ø©
ĠÙĬÙģ Ø¹ÙĦ
ĠØ§ÙĦÙĪ Ø§ÙĤ
ÙĨ Ø§Ø¦ÙĬ
ĠÙģ ÙĪØ±
ĠØ¹ Ø§Ø´
ĠØ¬ Ø§Ùĩ
ĠØ¨ÙĬÙĨ ÙĩÙħØ§
5 7
ØŃ ÙĬØ«
ĠØªØ¹ ÙĪØ¯
ĠÙĪØ§Ø¶ ØŃØ©
ĠÙĬØ´ Ø¹Ø±
ØµØ¯ ÙĤØ§Ø¡
Ø¯Ø± Ø¬Ø©
ÙĨ ÙĩØ§
ĠØ§ÙĦØ¯Ø³Øª ÙĪØ±
ØºØ· ÙĬØ©
ĠØ§ÙĦÙħ ØµØ±
ĠØ§ÙĦØ¨ Ø±ÙĬØ¯
Ø§Øª ÙĦ
e c
ĠÙģ ÙĤ
ĠØª ÙĪÙĤØ¹
ÙĢÙĢÙĢÙĢÙĢÙĢÙĢÙĢ ÙĢÙĢÙĢÙĢÙĢÙĢÙĢÙĢ
ĠÙĪØ§ÙĦ Ø§Ø¬ØªÙħØ§Ø¹
ĠÙĥØª Ø¨Øª
ĠØ® ÙĦØ§Ùģ
ĠØ§ØŃ ØªØ¬
Ø² Ø§Ø¡
ĠØ§ÙĦÙĨÙĩ Ø§Ø¦ÙĬ
ĠØ£ ÙħÙĦ
ĠÙĦÙĨ ÙģØ³
ĠÙħ ÙĦÙģØ§Øª
ĠØ¬ Ø³Ùħ
Ùį ØĮ
ĠÙħØ¯ Ø§Ø±
ĠØ§ÙĦØ¬ ÙĨØ©
ĠØ£ Ø·ÙģØ§ÙĦ
Ø±ÙĬ ÙĤÙĬ
ĠØ§ÙĦÙħ Ø§ÙĦÙĬ
Ø§Ø¦ ÙĨØ§
ĠØµ Ø¯ÙĬÙĤ
Ø± Ø®
5 9
Ġ) )
ĠÙģØ¹ Ø§ÙĦÙĬØ§Øª
ĠØ§ÙĦØ± ÙĪØŃ
ĠØªÙħ Øª
Ø´Ø± Øª
Ø¶ ÙĬØ±
ÙĪ ÙĬÙħ
ĠÙĦ ÙĪÙĨ
ĠÙĪØª Ùģ
ĠØ² ÙĬØª
Ø«ÙĤ Ø§ÙģØ©
ĠÙĪØ£ÙĨ Ùĩ
ïº ®
ĠØ§ÙĦØµÙĨ Ø§Ø¹ÙĬØ©
ĠØ£Ø¨Ø¯ Ø§
ĠØ£ Ùī
ĠØ§ÙĦØ¨ØŃØ± ÙĬÙĨ
ĠØ§ÙĦÙħ ÙģØ±
ØªÙħ Øª
ĠØ§ÙĦØ¨ Ø®
ĠÙĪÙĬ Ø³Øª
ĠØ§ÙĦØ³ ÙĥØ±
ĠØ¥ ÙĬ
ĠØ³ ÙĬØª
ÙĤÙĦ Ø¨
ĠØ§Ø³Øª Ø®Ø¯Ùħ
ĠØ§ÙĦØ¥ Ø¹ÙĦØ§ÙĨ
ĠÙħ Ø´Ø§Ø±ÙĬØ¹
ĠØªØŃ ÙĪÙĦ
ĠØ§ÙĦØªØŃØ± ÙĬØ±
ĠØ° ÙĪ
ĠÙĪØ§ÙĦ Ø§Øª
ĠÙģØ¹ ÙĦØ§
ĠØ§ÙĦÙĤ Ø±Ø§Ø¡Ø©
Ø·Ø¹ ÙħØ©
Ø« Ø§ÙĦ
ĠØ´Ø®Øµ Ø§
ĠØ¹ Ø±Ø¨
ĠÙĤ ÙĦØª
ĠØª Ø´Ø±ÙĬÙĨ
ĠÙĦ ØªØ±
ĠØ£ Ø´Ø§Ø±
ĠØ§ÙĦ Ø§ÙĩØªÙħØ§Ùħ
ĠÙĦØµ Ø§ÙĦØŃ
u n
. âĢı
ĠØª ÙĪØ²ÙĬØ¹
ĠØ¨Ø¹ ÙĬØ¯Ø§
ĠØ§ÙĦØ´ Ø§Ø±Ø¹
ĠÙħ ØªØ¹
Ø¯Ø± Ø¬
ØµÙģ ØŃ
\ \
ïº Ķ
ĠØ§ÙĦØµ ÙĬÙģ
ĠØ§ÙĦØ¹Ø§Ùħ ÙĦÙĬÙĨ
ĠÙĪ Ø§ÙĤØ¹
ÙĥÙĦ Ùģ
Ø´ Ø§ÙĩØ¯
ĠØ§ÙĨØª Ø´Ø§Ø±
ĠØ§ÙĦÙħØ® ØªØµ
ĠØ§ÙĦÙĦ Ø§Ø¬Ø¦ÙĬÙĨ
ĠØ§ÙĦÙħØª ÙĨ
ĠÙĦØ¨ Ø¹Ø¶
ĠØ§ÙĦØ³ÙĬ Ø·Ø±Ø©
ÙĤÙĦ Ø§Ø¨
e m
Ø§Ø· Ø¦
ĠØ§ÙĦØªÙĤ ÙĨÙĬØ©
ÙĪ Ø°ÙĥØ±
ĠÙħ Ø³Ø¨
ĠØ¨ÙĬØ± ÙĪØª
ĠØ§ÙĦÙħØª ØŃ
ĠØ§ÙĦØ¨ Ø´Ø±Ø©
ĠØ§ÙĦÙĥ ÙĦÙħØ§Øª
ĠÙĦ Ø®
ĠÙĤ ÙĦÙĬÙĦ
ÙĪØ¯ ÙĬ
ĠØ£ Ø¹Ø¯
Ùħ ÙĥÙĨ
ĠØ§ÙĦØªÙģ ÙĥÙĬØ±
ÙĪØŃ ÙĬØ¯
ĠØ§ÙĦØ¥ ÙĬØ·
Ø§ÙĬ ÙĬØ±
ĠØ§ÙĦØ±ÙĬØ§Ø¶ Ø©
ĠØ§ÙĦÙħ ÙĩÙħØ©
ĠØ¥ Ø¬Ø±Ø§Ø¡Ø§Øª
ĠØ§ÙĦØª ÙĤØ¯Ùħ
ĠØŁ ØŁ
ĠÙĥØª Ø§Ø¨Ø©
ĠØ§ÙĦØ¹ÙħÙĦ Ø§Ø¡
ĠÙħØ³Øª ÙĤØ¨ÙĦ
Ø§Ùĥ Ø±Ø©
ĠØ§ÙĦØ¶ ÙĪØ¡
ĠÙĬ Ø¶
ĠØ§ÙĦÙħØ´ ØªØ±Ùĥ
ĠØ§ÙĦÙħØ¹ Ø±ÙģØ©
Ø¨ÙĬ Ø§ÙĨ
ÙģØ¹ ÙĬÙĦ
ĠØ¢ ÙĨ
Ø§Ø¯ ÙĦØ©
ØºÙĦ Ø§ÙĤ
ÙĬØ³ Ùī
Ø¸ ÙĪÙħØ©
ĠØ§ÙĦÙĦ Ø§Ø¹Ø¨ÙĬÙĨ
Ġ '
ÙĨ Ø§Ø¹Ø©
ØªØ¨ Ø§Ø·
ĠØ¨ ÙĥÙħ
ĠÙĪÙĦ ÙĦ
ĠØ¯ Ùĩ
ĠØ£ Ø®Ø±
ĠØŃ Ø§Ø¯Ø«
ĠØ§ÙĦÙħØµ Ø§Ø¯Ø±
ĠÙģ ÙĩÙĦ
Ġ d
ĠØ¬ ÙĪØ¯Ø©
ĠÙĪØ£ Ø³
ĠÙĨ ÙĨ
ĠÙħ ÙĬØ²
ĠØ´ Ø§Ø±Ø¹
ĠØ£ Ø³Øª
ĠØª Ø²Ø§ÙĦ
ĠØ§ÙĦØ® Øµ
Ø§Ø¨ ÙĬÙĨ
ĠØ§ÙĦØª Øº
âĢ ĭ
5 4
ĠØ§ÙĦØ¨Ø· ÙĪÙĦØ©
ĠØ§ÙĦÙħÙĨ Ø§Ùģ
Ø§ØŃ Ùĩ
ĠØ§ Ùĥ
ĠØ¨ÙĨ Ùĥ
ĠØ§ÙĦØ£ ÙĥØ¨Ø±
ĠØ¨ Ø®ØµÙĪØµ
ĠÙĬØ¬ Ø¯
ĠÙĦØ£ ÙĪÙĦ
ĠØ¶ Ø¨Ø·
ĠÙħ ÙĥØ©
ĠØ° Ùĩ
ĠØ³ Ø§ÙĨ
ĠØ¹Ø¨Ø¯Ø§ÙĦØ¹ Ø²ÙĬØ²
ÙħØŃ ÙħØ¯
ĠØ§ÙĦÙħ ØªÙħ
Ø§Ø· Ø¹
ĠÙĪÙħ Øª
ĠÙĬ Ø¨Ø¯Ø£
ĠØ§ÙĦØ¹ ØµØ±
ĠØ¨Ø±ÙĬØ· Ø§ÙĨÙĬØ§
ĠØ§ÙĦØ± ÙĤ
ĠØ· ÙĨ
ĠÙħØ¹ ÙĬÙĨ
ØªÙģ Ø§ÙĦ
ĠØ®Ø· ÙĪØ©
ÙĪ Ø§Ø±ÙĬØ®
Ø· ÙĪÙĦ
ĠØ§ÙĦÙĩ ÙĦØ§ÙĦ
ÙĩØ± Ø§ÙĨ
Ùħ ÙĦÙĥØ©
ĠØ§ÙĦÙĨ Ø¨Ø§Øª
ĠÙĪ Ø§ÙĬ
ĠÙħØµ Ø·ÙģÙī
ØŃ ÙħØ©
ĠÙĥ Ø¨Ø§Ø±
ÙĪØ¨ ÙĬÙĨ
ĠÙħ Ø¨Ø±
ÙĤØ¯ ÙħØ©
ĠÙĥ ÙħÙĬØ©
ĠÙĬÙħ ÙĦÙĥ
ĠØ¹ÙĦÙħ Ø§Ø¡
ĠØ£ØŃØ¯ Ø§Ø«
ĠØ§ÙĨ Ùģ
ĠØ¨Ø± Ø´ÙĦÙĪÙĨØ©
ĠØ§ÙĦØ³Ùħ Ø§Ø¡
ĠÙħØ¨Ø§Ø± Ùĥ
ĠØ§ÙĦØ° ÙĥÙĬØ©
Ù ¢
ĠÙĨ ÙħÙĪØ°Ø¬
Ġ f
ĠØªØŃØ¯ ÙĬØ«
ÙĢ ÙĨ
Ø« ÙĬÙĦ
t p
ÙĦ ÙĪÙĦ
ĠÙħÙĨ Ø§Ø³Ø¨Ø©
ĠØ¨Ø¹Ø¯ Ùħ
ÙħØ§ÙĦ Ùĥ
ĠÙģ ÙģÙĬ
ØªØŃ Ø§ÙĨ
ĠÙĦ ÙĬØª
ĠØ¢ Ø³
ÙĬÙĨ Ø§Øª
Ø² Ùĩ
ĠØ§ÙĦÙħØ³ Ø§Ø¹Ø¯Ø©
ĠØ§ÙĦØµ Ø¨Ø§ØŃ
ĠØ§ÙĦÙĦØ¨ÙĨ Ø§ÙĨÙĬ
ĠØ¹ Ø±Ø¨ÙĬ
ĠØ¹ÙĨ ÙĩÙħ
i a
Ø¶ Ø§Ø±
ĠØ´Ø± ÙĪØ·
ÙĬÙģ ÙĪÙĨ
ĠÙĨ Ø³Øª
ÙĪÙĬ Ø¬
Ø§Ùħ Ùĩ
ĠÙĪÙĩ ÙĦ
ĠØ¹Ùħ Ø§ÙĨ
ĠØ§ÙĦØªØŃ ÙĥÙħ
ÙģÙĬ Ø¶
ĠØ£ ÙĬØ©
ĠØ¨Ø§ÙĦ Øº
ĠØ· ÙĦØ§Ø¨
Ø§Ø¨ Ø·Ø©
ĠØ£ÙħØ§ ÙĥÙĨ
ĠØ§ÙĦØ° ÙĥØ±
ĠØ§ÙĦØ£ÙĪØ± ÙĪØ¨ÙĬØ©
ĠØ§ÙĦØ£Ø³ Ø¹Ø§Ø±
ĠÙħÙĦ Ø¹Ø¨
ÙĨ ØŃÙĨ
ĠØ§ÙĦØŃØ± ÙĬØ©
ĠØ§ÙĦÙħÙĦÙĥ ÙĬ
ĠØ§ÙĦØ¹Ø¯ ÙĦ
Ø¹ÙĪØ¯ ÙĬØ©
ĠÙĦØª Ø´
Ø± Øµ
Ø¯Ùħ ÙĬØ±
ĠØ§ÙĦÙħ ÙĬÙĦ
ĠØªØ¹Ø¯ ÙĬÙĦ
Øª ÙĬØ©
ĠØ§ÙĦØ£Ùħ ÙĬÙĨ
ĠØ§ÙĦØ«ÙĤ Ø§ÙģÙĬ
Ø¹ÙĪØ¯ Ø©
ĠØ§ÙĦÙĤØ¯ ÙĬÙħ
ĠØ§ÙĦØ«ÙĤ Ø§ÙģÙĬØ©
ĠØ§ÙĦØ¥Ø¯ Ø§Ø±ÙĬØ©
Ø§Ø¯ ÙĩØ§
ĠÙĪÙĬ Ùĥ
ĠØ§ÙĦØ¹ÙħÙĦ Ø§Øª
ĠØ± ØŃÙĦØ©
ĠØ²ÙĪØ¬ ÙĩØ§
Ø² ÙĬÙĦ
ĠÙĦØ³ ÙĨØ©
ĠÙĪØ³ ÙĪÙģ
ĠÙĨ Ø§ØŃÙĬØ©
ĠØ¥ÙĨ ÙħØ§
ĠØ§ÙĦÙĬÙĪÙħ ÙĬØ©
ĠÙĤØ± ÙĬØ©
ĠÙĪØ£ Ø¶Ø§Ùģ
ĠØ¨Ø¹Ø¶ ÙĩÙħ
ĠÙĪØ¹ ÙĨØ¯ÙħØ§
ĠØ§ÙĦÙħÙĪ Ø§Ø±Ø¯
ÙĪ Ø§Ø¦ÙĬØ©
Ø²Ùħ Ø§Øª
ĠØºÙĬØ± Ùĩ
ÙĥØ± Ùħ
ĠØ§ÙĦÙĦ Ø¹Ø¨
ĠØ§ÙĦÙħØ¬ Ø§ÙĦØ§Øª
ĠØ¨Ø§ÙĦÙĥ Ø§ÙħÙĦ
ĠØ¥ Ø«
ĠÙĪÙĦÙĥÙĨ ÙĩØ§
ĠØ§ÙĦØªØ¹ ÙĦÙĬÙĤ
ĠØ§ÙĦÙĤ ÙĪÙħÙĬ
ĠØ§ÙĦØ¬ÙĦ Ø¯
Ø¬ ÙĬÙĨ
ĠØ§Ø³Øª Ø¹Ø¯Ø§Ø¯
ĠØ³ÙĬ Ø§Ø³ÙĬ
ĠØ§ÙĦÙĨ Ø§Ø¦Ø¨
ĠØ§ÙĦØ´ ÙĥÙĦ
ØªÙħ Ø§ÙĦ
ĠØ¨Ø§ÙĦØªØ¹ Ø§ÙĪÙĨ
ĠÙĪØ¬ Ø¯Øª
ĠØ§ÙĦÙĤ Ø§Ø¦Ùħ
ĠØª ÙģØ³ÙĬØ±
ĠØ¨Ø§ÙĦ Ø®
Ø£ ÙģØ¶ÙĦ
ĠØ± Ø´
ĠØµ ÙĨØ¯ÙĪÙĤ
ĠØª Ø¶Ùħ
ĠØ§ÙĦØª Ø¯Ø§ÙĪÙĦ
ĠÙĦÙĦÙħ ØŃ
ÙĦÙĬ ÙĪÙĨ
ÙĪØ¨ Ø¹Ø¯
ĠØ§ÙĦØ§Ø³ Ùħ
5 2
ĠÙĬ ØªØ±
ĠØ§ÙĦÙħ ÙĪÙĤÙģ
ĠØ§ÙĦØŃ Ø§Ø¯Ø«
Ø° ÙĥØ±Ø©
Øº ÙĪØ·
ĠØ§ÙĦØ³ Ø§Ø¨Ø¹
ĠØ§ÙĦØ§Ø¨ ØªØ¯
ĠØ§ÙĦÙĬ Ùĩ
Ġ Û
Ø´ Ùĥ
Ùģ ÙĬØ±
ĠØ§Øª ØŃØ§Ø¯
ĠØ¨Ø³ÙĬ Ø·Ø©
ĠØ§ÙĦØ«ÙĦØ§Ø« Ø©
ĠØ¬ ÙĪØ¬ÙĦ
ĠØ§ÙĦ ÙĪØ¬
ĠÙĩ ÙĥØ°Ø§
ĠØ§ÙĦØ¯Ø§Ø® ÙĦÙĬ
ĠØ§ÙĦÙħØª ÙĩÙħ
ĠØ§ÙĦØ¯Ø± Ø§Ø³ÙĬ
ĠÙħØŃ Ø·Ø©
ĠØªØ¹ Ø±ÙĬÙģ
ÙĪÙĬ ÙĪØ±Ùĥ
ØµÙģ ØŃØ©
ĠØªØ´ ÙħÙĦ
ĠØ§ÙĦØ¯Ø¹ ÙĪØ©
ĠØªØ´ ÙĥÙĦ
ĠÙĨ Ø¸Ùħ
ĠÙĨ ØµØ±
ĠØ§ÙĦØ± Ø§Ø¦Ø¹
ĠØªØŃ ÙĤÙĤ
ĠÙĪØ§ÙĨ Øª
ĠØ§ÙĦØ£Ùħ ÙĪØ§ÙĦ
ĠØŃÙħ Ø§Ø³
ĠØ§ÙĦÙĨÙĪ ÙĪÙĬ
ĠØ§ÙĦØ£ØµÙĦ ÙĬØ©
ĠØ§ÙĦØµ Ø±Ø§Ø¹
Ø³ Ø§Ø¦Ø±
Ø®Ø· Ø§Ø¡
ĠØ§ÙĦØªÙĨ ÙģÙĬØ°ÙĬ
ĠØª ÙĪØ¬ÙĬÙĩ
ĠØ¹ ÙħØ§
ht tp
ĠØ¥ Ø³Ùħ
ĠØ§ÙĦÙħØ³ Ø§Ø¹Ø¯
ĠØ¯ Ø§Ø¦Ùħ
ØªÙħ ÙĬ
ĠØ§ÙĦØ¹ ÙĤØ¯
ÙĪÙĩ Ø°Ø§
ĠÙħ ÙĪÙĨ
ĠÙĬØ¬ Ø±ÙĬ
ĠØ§Ø¨ Ø±
Ø¹ Ø±Ùģ
ĠÙģ ÙĪØ§Ø¦Ø¯
ÙĬØ¬ Ø¨
Ø§Ø¯ ØªÙĩ
ĠÙĬ Ø¨ØŃØ«
Ùħ Ùī
Ø«Ùħ Ø§Ø±Ø§Øª
ÙĦÙĤ Ø§Ø¡
ĠÙĪÙħ Ø¯
Ø¶ ÙħØ§Ùħ
ĠØ¥ ÙĦÙĩ
ĠØ£ Ø³ÙħØ§Ø¡
ĠÙħØ± Ø§ÙĥØ²
ĠØ§ÙĦØ±Ø³ Ø§ÙĦØ©
ĠØ§ÙĦØ¬Ø§Ùħ Ø¹Ø§Øª
ØŃ Ùĥ
ĠØ§ÙĦÙħ Ø±ÙĬØ¶
Øº Ø§ÙĨ
ĠØ£ Ø²ÙħØ©
ĠÙĤÙĦÙĬ ÙĦØ©
ĠÙĪØ§ÙĦ Ø¢
Ø§ÙĦ ØŃØ©
ĠØ§ÙĦØ´ Ø§Ø¨
ĠØ§ÙĦØªØ¬ Ø§Ø±ÙĬ
ĠØ§ÙĦÙħÙĩ ÙĨØ¯Ø³
ĠØ§Ø³Øª Ø¹ÙħØ§ÙĦ
ĠÙĥØ§ÙĨ ÙĪÙĨ
ĠØ¹ Ø³ÙĥØ±ÙĬ
ĠØ¹ Ø§Ø¦ÙĦ
ĠØ§ÙĦÙħÙĪ Ø§Ø¶ÙĬØ¹
ÙĪÙĥ Ø§ÙĦØ©
Ø§ÙĦÙĬ ÙĪÙħ
Ø¹Ø¯ ÙĬØ¯
ĠØ§ÙĦÙĦ ÙĪØ§Ø¡
Ø´ Ø±ÙĬ
ĠØ¨ØŃ Ø¶ÙĪØ±
ÙĪØ· ÙĨ
ĠØ¯ Ø§
ĠØ§ÙĦØ¨ØŃØ± ÙĬØ©
ĠØ§ÙĦÙĨ Ø§Øª
ĠØ§Ø³ ØªÙħØ±
ĠØ¥ Ø³ÙĦØ§Ùħ
ĠÙĦÙĦØª Ø³Ø¬ÙĬÙĦ
ÙħØ§ Ùĩ
ĠØ¸ Ø±ÙĪÙģ
ÙĢ Ø±
ĠØ¨Ø§ÙĦÙħ Ø¦Ø©
ĠØ§ÙĨ Ùĥ
ÙĪÙĥ Ø³
ØªÙĬ Ø§Øª
ĠØª ÙĤØ¯
ĠÙĪØ§ÙĦ Ø²
ĠÙĪ ÙĪØ¶Ø¹
ĠØ¶Ø¹ Ùģ
ĠØ§ÙĦØ£ Ø³Ø¨Ø§Ø¨
ĠØ§ÙĦØ« ÙĤØ©
ï»Ł ïº
ĠØ§ÙĨØªÙĩ Ø§Ø¡
5 3
ĠÙĪ Ø±Ø¨ÙħØ§
ĠÙĪØ§ÙĦ ÙħØ¯
Ø¤ ÙĥØ¯
ĠÙĤØ¯ Ø±Ø©
ĠØ§ÙĦØªØ§Ø±ÙĬØ® ÙĬØ©
Ġ c
ĠØ§ÙĦÙħØª Ø·
ÙĪÙĨ Ø³ÙĬ
ÙĦØ§Ùħ Ø§Øª
ĠÙħØª Ø§Ø¨Ø¹Ø©
Ø¯ Ø±ÙĬØ¨
ĠÙħÙĨ Ø´
ĠÙĨÙĩ Ø§Ø¦ÙĬ
ÙĤØµ Ùī
4 1
: //
Ø´Ø± ØŃ
ĠÙĬØŃ Ø§ÙĪÙĦ
. "
ĠØ§ÙĦÙħ Ø±Ø©
ĠØ§ÙĦØ¨ÙĬ Ø¶Ø§Ø¡
ĠÙĪØ¹ ÙħÙĦ
ĠØ° ÙĪÙĬ
ĠØ§ÙĦØ®Ø± ÙĪØ¬
ĠØ§ÙĦØ¥ Ø¹
ĠØ§ÙĦØŃ ÙħØ¯
Ø§Ø± Ùī
ÙĪÙģ ÙĤ
ĠØ¬ Ø§Ø¦Ø²Ø©
ĠÙħ ÙĪÙĦ
4 2
ÙĪØ¯ ÙĬØ©
ĠØ§ÙĦØ³ÙĬ Ø§ØŃØ©
ĠØ¨ÙĦØº Øª
ĠÙģ ÙĥØ±
ĠØ¨ÙĦ Ø§Ø¯Ùĩ
ØªØŃ Ø§ÙĨØ§Øª
ĠØ¥ Ø«Ø±
ĠØ§ÙĦØ§Ø³ÙĦØ§Ùħ ÙĬØ©
Ø±Ùģ ÙĬØ©
ĠÙħØµ Ø§ÙĦØŃ
Øµ ÙĪØ±Ø©
ĠÙģ Ø§Ø¹
ĠÙĦÙĦ Ø§Øª
ĠÙĪØ§ÙĦ Ø¬Ùħ
Ø¨ Ø±ÙĬ
ĠØ§ÙĦØ£Ø³ ÙĪØ§ÙĤ
ĠØ§ÙĦØ§Øª ØµØ§ÙĦØ§Øª
Ùĩ Ø¬
Ø´ Ø¹
ÙĪÙĩ ÙĪ
ĠØ´ Ø¨Ùĩ
ĠÙĨ ÙĪÙħ
ÙĬØ± ÙĪØ³
ĠØ§ÙĦØº ÙĬØ±
Ġ X
ĠÙĪÙģ Ø§Ø©
ĠØ§ÙĦØ³ ÙĬØ³ÙĬ
ĠÙħØ³Øª Ø®Ø¯Ùħ
ĠØ¢Ø®Ø± ÙĬÙĨ
ĠØ§ÙĦÙħ ÙĤØ±Ø±
ĠØ§ÙĦØ«Ø§ÙĨ ÙĪÙĬØ©
4 3
ĠØº ÙĬØ§Ø¨
ÙĦÙĬ ÙĦØ©
ĠØ§ÙĦÙĥ Ø´Ùģ
ÙĪØ± Ø¬
ĠØ¬ÙĦ Ø³Ø©
ØªÙħ ØªØ¹
ĠÙĥ Ø±ÙĬÙħ
, ,
ĠØªØŃ ØµÙĦ
ĠØ§ÙĦÙħÙĦÙĥ ÙĬØ©
ĠÙħÙħ ÙĬØ²
ĠØ° ÙĩØ¨
ĠÙħÙĨ ØªØµÙģ
i m
ĠØ¨ Ø§Ùĥ
ĠØ¹ÙħÙĦ Ùĩ
Ø¹ ÙĦÙĬÙĩ
ĠÙħØ¬ Ø§ÙĦØ§Øª
Ø¬Ø± Ùī
en t
ÙĬÙĪ ÙĬØ©
ĠØ§ÙĦÙħ ÙĪØ¬ÙĪØ¯
ĠÙĦØŃ Ø¸Ø©
ĠØ³Øª Ø©
ð Ł
Ø£ Ø¹ÙĦÙĨØª
ĠÙħØ· Ø§ÙĦØ¨
Ø¥ ÙĦÙī
ĠØ¨ Ø§Ø®
ĠØµÙģ ÙĪÙģ
ĠØ§ÙĦØ¨ Ø¹
ĠØ§ÙĦÙĤØ¨ Ø¶
ĠØ§ÙĦØªØµ ÙħÙĬÙħ
ĠÙĬØª ØŃØ¯Ø«
ĠØ§ÙĦÙģ Ø¹ÙĦ
ĠØªØµ Ø¨ØŃ
ĠÙĤ ÙĪØ§Ø¹Ø¯
ĠÙĤÙĦ ÙĪØ¨
ĠØ§ÙĦØ· Ø§Ø¦Ø±Ø©
ÙĤ ÙĬÙĨ
Ø· Ø§
Ø±Ø¬ ÙĪ
Ø¯Ø± Ø§Ø³Ø§Øª
ĠÙĪØ± Ø¦ÙĬØ³
Ø¹Ø¯ Ø§Ùħ
Ġ K
ĠØ§ÙĦÙħØ´ ØªØ±ÙĥØ©
Øµ ÙĬØ¯
ĠØºÙĬØ± ÙĩØ§
ĠØª ÙĪØ¬Ùĩ
ĠÙĨ Ø³Ø¨
5 1
an d
i r
ĠØ³ Ø·ØŃ
Ø¨ ÙĪÙĥ
ĠØ¨Ø± Ø¬
Ø³Ùħ Ø¹
ĠØ§ÙĦØ³ ÙĬØ±
ĠØª Ø²ÙĬØ¯
ĠØ£Ø¨ Ø·Ø§ÙĦ
ĠØª Ø¨ØŃØ«
i v
ĠÙĪØªØ¹ Ø§ÙĦÙī
ĠØ§ ÙĥØ¨Ø±
e w
ĠÙĪ Ø§Ùģ
ĠØ§ÙĦØ¥ Ø®ÙĪØ§ÙĨ
ĠØ¢ Ø«Ø§Ø±
ĠØ³Ø± Ø¹Ø©
ĠÙģ Ùĥ
ĠØ§Ø¹ Øª
ĠØªØ¹ ÙĬØ´
Ø²Ø§ ÙĬØ¯
ÙĬ Ø§ÙĦ
ĠÙĦ ÙĨØ¯ÙĨ
ĠÙĪ Ø§Øµ
ĠØ§ÙĦÙĩ Ø¬ÙĪÙħ
ĠØª ÙĪØµ
ĠØŃ ÙĤØ§
ĠØ¥ ØµØ¯Ø§Ø±
ĠØ§ÙĦÙĩ ÙĪØ§ØªÙģ
Ø¦ Ùĥ
201 7
ĠØ§ÙĦØ£ Ø·Ø±Ø§Ùģ
ĠØµ Ø±
ĠØ§ÙĦØ§ÙĨ ØªØ®
ØĮ ØĮ
ØªØ¹ Ø±Ùģ
Ø´Ø§Ø± Ø§Øª
ĠØ§Ø³Ùħ Ùĩ
ÙĬØ§Øª Ùĩ
ĠØ§ÙĦØ¥ ÙĬÙħØ§ÙĨ
Ø® ÙħØ©
ĠØª Ø®Øµ
ÙĪÙħ Ø§ÙĨ
ĠØ³ ÙĤÙĪØ·
ĠØªÙĤ ÙĨÙĬØ©
Ø³Øª ÙĬØ±
ĠØ£ Ø·ÙĦÙĤ
Ùĩ ÙĦØ§Ùĥ
ĠØ§ÙĦÙħÙĨ Ø²
ĠØ§ÙĨ Ø·ÙĦØ§ÙĤ
ØµÙĦ Ø§Ø©
ĠØ§ÙĦØ¨ÙĦ Ø¯Ø§ÙĨ
ĠØª Ø¨ÙĤÙī
Øª Ø§ÙħÙĬÙĨ
âĢ «
Ø¯ Ø¯Ø§
Ø¨Ø¯ Ø§Ø¹
ÙĤØ±Ø§Ø¡ Ø©
ĠÙĦÙĦ Ø£Ø³
Ø¨Ø¹ Ø§Ø¯
ĠØ§ÙĦÙħØª ÙĪÙĤØ¹
ĠÙĬØ³Ùħ Ùī
ĠØ¯Ø±Ø¬ Ø§Øª
Ùħ Ø«ÙĦ
ĠØ« Ø§Ø¨Øª
ĠÙĤ Ø±ÙĬØ¨
ĠØ¨ ÙģØ¶ÙĦ
ÙĨØ³ Ùī
ÙĨ Ø²
Ø¹ ÙĦÙĬ
ĠÙĦÙħ Ø¹Ø§
ĠØ§ÙĦØª ØŃØ¯
Ùĥ Ø§Ø¡
ØªØ¨ Ø§Ùĩ
ĠÙĪ ØµØŃ
ĠÙħ Ø³ÙĦ
ĠÙĪØ¹Ø¯ Ø¯
ĠØ± ÙĪØ§Ùĩ
ĠØ« ÙĪØ±Ø©
ĠØ§ÙĨ Ø³
ĠØ§ÙĦØ¹ ÙħØ§ÙĦ
Øº Ø§Ø±
ĠÙħØ³Øª ÙĪÙĬØ§Øª
Ø² Ø²
Ġ b
ĠØ§ÙĦÙħÙĤ Ø§ÙĦ
ĠÙĪØ§ÙĦ Ø§Ø¹
ĠØ¹ ÙĪØ¯Ø©
ĠØ§ÙĦØ¨ÙĦ Ø¯ÙĬÙĨ
ĠØ§Ùģ ØªØªØ§ØŃ
ĠÙĬ Ø¶Ø¹
ĠA M
ĠØ¨ÙĤ ÙĪØ©
ÙĪÙĤ Øª
ĠØ¹Ø¯ Ø¯Ø§
ĠØ§ÙĦØ´ÙĬ Ø¡
ĠØ¬ ÙĪÙĨ
ĠÙħ Ø´Ø§Ø±Ùĥ
ĠÙĬ Ø°ÙĥØ±
ĠØ§ÙĦÙĤ ÙĪØ§ÙĨÙĬÙĨ
ĠØ§Ø³Øª Ø·Ø§Ø¹
ĠÙħØ¤ Ø³Ø³Ø§Øª
ĠØ¶ ÙħØ§ÙĨ
Ùģ Ø§Ø¯
ĠØ§ÙĦØ®Ø§Ùħ Ø³Ø©
ĠØ§ÙĦØ¬Ø² Ø§Ø¦Ø±ÙĬ
ĠØ¹Ø± ÙĪØ¶
ĠØŃ ØªÙĬ
Ø¯ Ø§Ø¹Ø´
ĠØ§ÙĦÙĨÙģØ³ ÙĬØ©
Ø´Ø± Ø·Ø©
ĠØ§ÙĦÙħ ØªØ±
ĠÙħ Ø§ÙĦÙĬØ©
ÙħÙĨ Ùī
Ø¬ ÙĬØ¨
ĠØ§ÙĦÙĥ ÙĦÙĬØ©
ĠÙĪØ§ÙĦ Ø£Ø³
ĠØ§ÙĦØ£ ÙĦØ¹Ø§Ø¨
ĠÙĬ ØŃÙĬ
ĠÙħØ³Øª Ø´ÙģÙī
Ø®Ø± ÙĪØ¬
ĠØ§ÙĦÙĤ ÙĬÙħ
Ø´ Ø¹Ø±
Ùı ØĮ
ĠØ´ Ø¹Ø§Ø±
Øµ ÙĬØ¨
ĠØ³ÙĦÙĬÙħ Ø§ÙĨ
ĠØ²ÙĪØ¬ ØªÙĩ
Ø§ÙĦ ÙħÙĨ
ÙĪØ¹ ÙĦÙī
ĠØ§ÙĦØ± Ø¬
ĠÙĦØŃ ÙĤÙĪÙĤ
ĠÙĨÙĤ Øµ
Ø§ÙĦ Ø·
ĠØ§ÙĦÙĤ Ø§Ø¹Ø¯Ø©
Ùĥ Ø§ÙģØŃØ©
ĠÙĪØ£ ÙĥØ«Ø±
ĠØ§ÙĦØ¹ÙĨ Ø§ØµØ±
ĠØ§ÙĦØ£ÙĦÙħ Ø§ÙĨÙĬØ©
ĠØ¯Ø¹ ÙĪØ©
ĠÙħ Ø²ÙĬØ¯
ĠÙħÙĨ ÙĬ
Ø§Ùĩ ÙĦ
ĠØ§ÙĦØŃÙĬÙĪ Ø§ÙĨØ§Øª
Ø§Ùģ ÙĬØ§
Ø§ØŃ Ø¸Ø©
ĠØŃÙĦ ÙĪÙĦ
ÙĩÙĩ ÙĩÙĩ
ÙĥØª Ø§Ø¨Ø©
ĠØ« Ø§ÙĨÙĬ
ĠØªØ¤ Ø¯ÙĬ
Ø§Ø± Ø¦
Ø· Ùī
Ùĥ Ø´Ùģ
ÙĢÙĢÙĢÙĢ ÙĢ
Øº Ø±ÙĤ
ĠØªØ³Ùħ ØŃ
ĠØ§ÙĦØ· ÙĦØ¨Ø©
ĠØ§ÙĦ ÙĬØ³
ĠÙĦ ÙĬÙģ
ĠÙĪØ§ÙĦ ÙħÙĦ
Ø§Ø¦ Ùī
ĠØ§ÙĦØ¥ ØŃ
ĠÙĨ ÙĪ
ĠØ® ÙĬØ§Ø±
ĠØ£Ùħ ÙĪØ§ÙĦ
ĠÙĥÙĦ ÙħØ§
ĠØ§ÙĦØµØŃ ÙĬÙģØ©
Ø¸ Ø¨ÙĬ
ĠØª ÙĪÙĤÙģ
ĠÙħØ¤ Ø´Ø±
ĠÙĪØ§ÙĦ Ø³ÙĦ
ĠÙħØ³ Ø£ÙĦØ©
ÙĪØ§ÙĨ Ø¨
Ø¹ ÙĤØ¯
ØªÙĬ Ø§ÙĦ
Ø¹ Ø¨Ø¯
ĠÙĪÙĤ Ø§ÙĦØª
ÙĩØ¯ Ø§Ø¡
ĠØ£Øµ Ø¯Ø±
ĠÙĬØ¹ ØªÙĤØ¯
Ø§Øµ Ø±Ø©
ĠØ¥ Ø¨
ÙĦÙĥ Ùħ
ÛĮ Ø©
ĠØ£ÙĨÙģØ³ ÙĩÙħ
ĠØ§ÙĦÙĥ ÙĬÙħÙĬ
ĠØ§Øª Ø¬Ø§Ùĩ
ĠÙģ ÙĥØ§ÙĨ
ĠÙħÙģ ÙĩÙĪÙħ
ĠØª Ø£Ø³ÙĬØ³
ĠÙĬ Ø®Ø±Ø¬
ĠØ´ÙĬ Ø®
ĠØ§ÙĦÙħ ØŃØ¯
ĠØ³ ÙĦØ§Ùħ
ĠØ¨Ø¨ Ø¹Ø¶
ÙĬØ¬ Ø§Ø±
ØªÙĩ ÙħØ§
Ġï´ ¿
ĠØ£Øº ÙĦØ¨
ĠÙĬØ´ ÙĥÙĦ
ĠØ§ÙĦØ® ÙĬØ§Ø±Ø§Øª
Øª Ø§Ø±
ĠØ¬ Ø±Ø§Ø¡
ĠÙĪØ¬ Ø¹ÙĦ
ĠÙħ ÙĬÙĨ
ĠØ§ÙĦÙģØ± ØµØ©
ĠØ§ÙĦÙĥ Ùģ
ĠØ§ÙĦØ³ ÙĥÙĨ
ĠØ§ÙĦØ¯ Ø§Ø®ÙĦ
ĠØ§ÙĦÙĤ ÙĦ
ÙģÙĬ ÙģØ©
ĠØ§ÙĦØ³ ÙĪÙĬØ³
ĠØ§ÙĦØ§ÙĨ Ø³
ĠØ§ÙĦÙħØ·ÙĦ ÙĪØ¨Ø©
ĠØªÙħ Ø§Ùħ
ĠØ§ÙĦÙĥ Ø§Ùħ
ĠØ§ÙĦØªØ·Ø¨ÙĬÙĤ Ø§Øª
ÙĪØ¶ ÙĬØŃ
ÙģØ¹ Ø§ÙĦ
ÙĪØ¶ ØŃØª
ĠÙģÙĬ Ùĥ
ĠØŃ Ø§Ø¬
Ø¬ÙħÙĪØ¹ Ø§Øª
ĠÙħ Ø¨ÙĦØº
ĠØ§ÙĦÙĨØ³ Ø®Ø©
ĠØ§ÙĦÙĥÙĩØ±Ø¨ Ø§Ø¦ÙĬØ©
Ø§Ø³ Ùĥ
ĠØ¨ÙĤ ÙĬÙħØ©
ĠÙĤØ± Ø§Ø±Ø§Øª
ĠØ£ÙĨ ÙĨÙĬ
ĠÙĪØ£ ØŃ
ĠØŃ ÙĪØ§Ø±
ĠØ§ÙĦÙĥ Ø§ÙħÙĦØ©
ĠÙĬØ¯ ÙĦ
Ø¹Ùħ ÙĦÙĬØ§Øª
ĠÙĤ ÙħØ©
ĠÙĨ ÙĤØ¯Ùħ
ĠØªØ± Ø§Ø¬Ø¹
ĠØ¨ ÙĬØ¯
Ø¯ ÙĦ
ĠØ®Ø· ÙĪØ§Øª
ÙĤ ØªÙĦ
ĠÙĥØªØ§Ø¨ Ùĩ
Ùħ Ø¬
ĠØ§ÙĦÙħØ±ÙĥØ² ÙĬØ©
ĠØ§ÙĦØ¬Ùĩ ÙĪØ¯
ĠÙĪØ¬ ÙĩØ©
Ø¹ Ø§ÙĨ
ĠØ¥ÙĨ Ø¬Ø§Ø²
ĠÙģØª Ø§Ø©
6 0
ĠÙĦÙħ ØŃ
ĠØ§ÙĦØ¬Ùħ Ø§Ø¹Ø©
ÙĬØ³ Ø§ÙĨ
ĠØ§ÙĦØ· ÙĬØ±Ø§ÙĨ
ĠØ§ÙĦØ´Ø¨ ÙĥØ©
ĠØ§ÙĦÙħØª Ø¹
ÙĩØ¯ Ø¯
Ø· ÙĪÙħ
ĠÙĬ Ø¨ÙĤÙī
ĠÙĬØ¹ Ø§ÙĨÙĬ
ĠØ§ÙĦÙĨ ÙħÙĪ
ĠØ´ Ø§Ø¨
Ùĩ Ùī
Ø¨ÙĬØ¹ Ø§Øª
ÙģØ± ÙĤ
ĠØ§ÙĦØ¹Ø¯ Ø§ÙĦØ©
ĠØŃ ÙħØ§Ùħ
Ø¸ Ø§Ùĩ
ĠØ´Ø± Ø·Ø©
ĠØ¶ ÙĪØ¡
ĠØ§ÙĦØ± Ø§Ø¦Ø¹Ø©
ĠØ§ÙĦØ£Ø³ Ø§Ø³ÙĬ
ĠØ´ Ùħ
ĠØ§ Ùī
ĠÙĦØ¯ Ø¹Ùħ
Øª Ø¯Ùī
ĠØ§Ø¶ Ø·Ø±
Ø§Ø´ Ø§Øª
ĠØ§ÙĦØ³ÙĦ Ø§ØŃ
ĠØ¨Ø§ÙĦ Ø¹ÙħÙĦ
ĠØ¥ÙĤ ÙĦÙĬÙħ
ĠÙ¢ Ùł
ĠØ§ÙĦÙĥ ÙĦÙħØ©
ĠØ§Ø³ Ø±Ø§Ø¦ÙĬÙĦ
ĠØ§ÙĦØ£ ØŃÙĬØ§ÙĨ
Ø±Ø§Ø¡ Ø§Øª
ĠØ§ÙĤ ØªØ±
Ø§Ø´ Ø¯
ĠØ¯ ÙĪ
ÙĤ Ø³
ĠØ§ÙĦØª Ø®ÙĦØµ
ĠØ§ÙĦØªØ¹Ø¨ ÙĬØ±
ÙħØ§ Ùĥ
Øª ÙĪÙĨ
ĠØ§ÙĦØ¯ÙĪÙĦ Ø§Ø±
ĠØ§ÙĦØ¬Ùħ ÙĬÙĦØ©
Ø¹ÙĦ Ø§ÙĨØ§Øª
ĠÙģ Ø§Øª
ĠØ¨Ùĥ Ø«ÙĬØ±
ĠØ§ÙĦØ¹Ø¯ ÙĪ
Ø± Ùĩ
ĠØ§ÙĦÙĨ Ø§Ø´
ÙĬØ¯ Ø§Øª
ĠØ§ÙĦØ¹ÙĤ ÙĪØ¨Ø§Øª
ĠÙĪ Ø¬Ùħ
ĠØªØ¹ ØªÙħØ¯
ĠØ§ÙĤ Ø±Ø£
Ø¹Ø¯ ÙĬÙĦ
ÙĪØ§ ÙĬØ§Øª
ÙĪÙħ Ùĩ
ĠÙħØ¹Ø¯ ÙĦ
ÙĦØ§ Ùĩ
ÙĬ ÙħØ§
ĠÙĥ Ø±ÙĬ
ĠÙĬØ¹ ØªÙħØ¯
Ùģ Ø¹Ø©
ĠÙĥ Ø£
ĠÙĪØ§ÙĦØªÙĨ ÙħÙĬØ©
ĠØ¹Ø´Ø± Ø§Øª
ĠÙĨ ÙħÙĪ
ĠÙĤ ÙĪÙĬ
ÙĪÙĬØªØ± Ø²
ĠÙĦÙĦÙħ Ø³Øª
ØªØ¨ Ø·Ø©
ĠØ¨Ø§ÙĦ Ø§ÙĨ
Ġ i
Ø§Ø¶ Ø§ÙģØ©
ĠÙĤØµ ÙĬØ±Ø©
ÙĪÙģ Ø©
ÙĨ ÙĤ
ĠØ§ÙĦÙħÙĪØ¸ ÙģÙĬÙĨ
ĠØ·Ø¨ÙĬ Ø¹Ø©
ĠÙħØªÙĨ ÙĪØ¹Ø©
ĠÙħØ³ Ø§Ø¹Ø¯Ø©
ĠØ§ÙĦÙħØ³Øª Ø´ÙģÙī
Ø¨ÙĬ Ø§Ø¡
ĠØ§ÙĦÙĨÙĩ Ø§Ø¦ÙĬØ©
ĠØ§ÙĦÙħ Ø±Ùĥ
ĠÙĪØ§ÙĦ Ø§ØŃ
ĠØª Ø¶Ø¹
ĠÙħØ¹ ÙĬ
ĠØ§ÙĦØ®Ø· Ø§Ø¨
Øµ ÙĦØ©
ĠÙħ Ø§ÙĦÙĥ
ÙĪ Ø§Ø³
ĠØµØŃ ÙģÙĬ
Ø° Ø§Ø¡
Øµ Ø§Øµ
ĠØ§ÙĦØ´ ÙħØ§ÙĦ
ĠÙģÙĬ Ø±
Ø³ Ø¹
ØªÙħ ÙĥÙĨ
ĠÙĪØŃØ¯ Ùĩ
ĠØ§ÙĦØ³ ÙĬØ¯Ø©
ØŃ ÙĬÙĦ
ØªØ± Ø§Ø¶
ĠÙħÙĨØª Ø¯ÙĬØ§Øª
ÙĪØ³ Ø©
ÙĬ Ø¡
ĠØªØ´ Ø¹Ø±
Ùİ :
ĠØ® ÙĬØ§Ø±Ø§Øª
ÙĤÙĬ Ùĩ
ĠØ· ÙĬØ¨
ĠØ§ÙĦØ¬Ùħ ÙĩÙĪØ±
ĠØ§ÙĦÙħØ± ÙĪØ±
ĠÙħ Ø§Ø¡
ĠØª Ø¹ÙĦÙĨ
ĠØ¨ÙħÙĨ Ø·ÙĤØ©
ĠÙĤ Ø±ÙĬØ¨Ø§
ĠØ¯ÙĬÙĨ Ø§Ø±
ĠØ§ÙĦÙĨ ØµØ±
ĠØ¨ Ø°
ĠØ§ÙĦØ® ØµÙĪØµ
ĠØ§ÙĦØ£Ø¬ÙĨ Ø¨ÙĬØ©
ĠØ¨Ø§ÙĦ Ø±ÙĬØ§Ø¶
ĠØ§ÙĦÙĦ ÙĩÙħ
ĠØµØ¨Ø§ØŃ Ø§
ĠØ§ÙĦØ¥ÙĨ Ø¬ÙĦÙĬØ²ÙĬØ©
ĠØ£Ø± Ø§Ø¯
ĠØªØ´ ÙĩØ¯
Ø¬Ùħ Ø§ÙĦÙĬ
ĠØ§Ø¹ ØªØ¨Ø±
l o
ĠØ§ÙĦØ´ Ø§Ø´Ø©
ÙĦØ§ ÙĪØ©
ĠØ§ÙĦÙĥ Ø§ÙħÙĦ
ĠØª Ø¶ÙħÙĨ
ĠÙħÙĨØªØ¬ Ø§Øª
Ø´ Ø§Ø¨
ÙĤ ÙĨ
ĠØ§ÙĦØ´ Øª
ĠÙĤØ· Ø¹Ø©
ĠØ¹ÙĦ Ø§ÙĤØ§Øª
ĠØ³ÙĦ ÙĪÙĥ
ÙĢ ÙĦ
Ø§ÙĦ ÙģØ©
Ġ J
ÙĪÙĤ ÙĬØª
ĠÙĬÙĤ Øª
ĠÙĪÙĬ Ø¬Ø¨
ĠØ¢ ÙĦØ©
ĠÙĦÙĦÙħ Ø¤
Ø¬ÙĨ Ø¨
ĠÙħØª ÙĪØ³Ø·
u t
ĠØ§ÙĦØ£ÙĨ Ø´Ø·Ø©
ĠØ§ÙĦØ£ Ø±Ø¨
ĠÙĦÙĦ Ø¬Ùħ
ĠØ§ÙĦØ¥ ØµÙĦØ§ØŃ
Ø§Ø± ØªÙĩ
ÙģÙĦ Ø³Ø·ÙĬÙĨ
ĠØ§ÙĦÙĤ ÙĬÙħØ©
ĠÙĪØ§ÙĦ Ø£ÙĨ
ĠØ¨Ø¬ Ø§ÙħØ¹Ø©
ĠØ£Ø´ ÙĥØ§ÙĦ
ĠØ§ÙĦØ° ÙĩØ§Ø¨
ĠØ¨ Ø¯Ø§
ĠØ§ÙĦÙħØµØ±ÙĬ ÙĬÙĨ
ÙģØ§ÙĪØ¶ Ø§Øª
Øµ Ø§Øª
ÙĪÙģ Ø§
Øª ÙĪ
ĠÙĬ ÙĪÙģØ±
Ø³ ÙģØ©
ĠØ§ÙĦÙĬ ÙĪÙĨ
Ø´ Ø³ØªØ±
ÙĪØ± ÙĬÙĨ
ØªØ¨ Ø§Ùĥ
Ø¯ ÙĤ
ĠÙĪØ¹ ÙĨØ¯
Ø§Ùģ Ùĩ
ĠØ§ÙĦÙĥØª Ø§Ø¨Ø©
a p
Ø² ÙĬÙħØ©
ĠØ§ÙĦØ§Ø± Ø¯
Ø¹ ÙĩØ§
ĠØ¹ÙĦ Ø§ÙĤ
ĠØ§ÙĦØµÙĩÙĬ ÙĪÙĨÙĬ
ĠÙĬØ³Øª ØŃÙĤ
ĠÙĨÙĤ ÙĪÙħ
ĠØ§ÙĦØ£Ø¯ Ø§Ø¡
ĠÙģ Ø±Ø¯
ĠØ§ÙĦÙħØ³ ÙĦÙħ
ÙĬ ÙħÙĨ
Ø´ ÙģÙĬØ§Øª
ĠØªÙĪÙĤ ÙĬØ¹
ĠØ¨ Ø§ÙĤÙĬ
Ø§Øµ ÙĦØ©
ĠÙħØ¹ Ùĥ
ĠØ§ÙĨ Ø®ÙģØ§Ø¶
ÙĪØ§ ÙĬ
ĠØª Ø¨ÙĦØº
ĠÙħ Ø®Øª
ĠØ§ÙĦØ´ Ø¤ÙĪÙĨ
ĠÙĪØª Ø¬
Ø¨ Ø§Ø·
ĠØ´ ÙĨ
ĠÙĬ Ø§Ø³
ĠØ§ÙĦÙĬÙħÙĨ ÙĬ
Ø¹ ÙĪÙĥ
ĠØ§ÙĦÙħØ¨Ø§Ø± Ùĥ
Ù £
ĠØ£ ØŃÙĬØ§ÙĨØ§
Ø§ÙĦ ØªØŃ
ĠØ¬ ÙĬØ´
Ø§Ø« Ø©
i g
ĠØµ Ø±Ùģ
ĠØ§ÙĦØªØ±Ùĥ ÙĬØ²
ĠØ§Ø± ØªÙĥ
Ø§Ùĩ ÙĬØ©
ĠØ§ÙĦØ§Ø¹ ÙĦØ§Ùħ
ĠØ¹ Ø§Ø¦
Ø§ ÙĬØ§
ĠØ®Ø· Ø£
ĠØ§ÙĦÙħØ¨ Ø§Ø´Ø±
ĠØ§ÙĦØ¬Ùħ Ø¹
ĠÙĪØ£ÙĬ Ø¶Ø§
Ø¸ÙĩØ± Øª
ĠÙĪØ§ÙĦ ØªØµ
Ùĥ ÙĦÙħ
Ø·ÙĦ Ø§Ø¹
ĠØŃÙĬØ§Øª Ùĥ
ĠØ§ ÙĩÙħ
ĠØ§ÙĦØª Ø¶
ĠØ¨Ø§ÙĦ ÙħØ±
ÙĬØ· Ø§ÙĦÙĬØ§
ĠØ¨ ØªØ±
ĠØŃ ÙħØ¯
ĠØ§ÙĦØ£Ø³ ÙĪØ¯
Ø£ Ø¹ÙĦÙĨ
ĠÙĪ ÙĬÙĦ
ĠØª ÙĤÙĬÙĬÙħ
ĠÙĪØ³ ÙĬÙĦØ©
ĠØ¨Ø± Ø¦Ø§Ø³Ø©
ĠØ¹ÙħØ± ÙĪ
ĠØ§ÙĦØª Ø§Ø¨Ø¹
ĠÙĥ ÙĩØ±Ø¨
ĠØ§ÙĦØ¯ ÙģØ¹
ĠÙĪ Ø¹ÙĦ
ĠØ§ÙĦØµ ÙĬÙĨÙĬØ©
ĠÙĪÙĥ Ø£ÙĨ
Ø§ÙĤ ÙĦ
ĠØ§ÙĦØŃ ÙħØ§ÙĬØ©
ĠØ§ÙĦØ§Øª Ø¬Ø§Ùĩ
ÙĤØ¯ Ø³
Ø§ÙĤ Ùħ
ĠØ§ÙĦØ£ ÙĩØ¯Ø§Ùģ
ĠÙĦØ´ Ø±ÙĥØ©
ĠÙĬØ¯ ÙģØ¹
ĠØ§ÙĦØ£ ÙĪ
ĠÙĦ ÙĤØ¨
ĠØ³ ÙĪØ¡
ĠØ¬ Ø°
ĠØº Ø¯Ø§
Ø³Ùħ Ùī
ĠØŃ ÙĤÙĬÙĤÙĬØ©
Ġ5 00
ĠØªØ¹ ÙĬÙĬÙĨ
ĠØ§ÙĦØ§Ø± Ø¶
ĠØª Ø°ÙĥØ±
ĠÙħØ± Ø§ØŃÙĦ
ĠØ¨Øª ÙĤØ¯ÙĬÙħ
ĠØ§ÙĦØ£ Ø³ÙĦØŃØ©
ØªÙĬ Ø§Ø²
ï» ®
ĠÙħ ÙĩØ±Ø¬Ø§ÙĨ
ĠØ§Ø¹ ØªÙħØ§Ø¯
ĠÙĪØ¥ ÙĦÙī
ĠØ§ÙĦØ´Ø®Øµ ÙĬ
Ø¸Ø§Ùĩ Ø±Ø§Øª
ĠØ§Øª ØµØ§ÙĦ
ĠØ§ÙĦÙĨÙĬ Ø§Ø¨Ø©
ÙĪØº Ø§ÙĨ
ĠÙĦØ§ ÙĬ
ĠØŃ Ø¶
ĠÙĪØ£ Ùħ
ĠØ§ÙĦ Ø§Øº
Ùģ ÙĤØ¯
ĠØ§ÙĦÙħÙĦ Ø§Ø¨Ø³
ÙĬÙħÙĥÙĨ Ùĥ
ĠØŃØ± ÙĬØ©
ÙħØ± Ø§Ø¶
ĠØ§ÙĨ ÙĪØ§Ø¹
ĠØªØª Ø¹ÙĦÙĤ
ĠØ§ÙĦØ¹ Ø§Ø¦ÙĦØ©
ĠØ³ÙĬ ÙħØ§
ĠÙħØª Ø£
ĠØ§ØªÙģØ§ÙĤ ÙĬØ©
ĠØ§ÙĦØº Ø±Ø¨ÙĬ
ĠØ¨Ø· Ø§ÙĤØ©
ĠØ° ÙĬ
ĠÙĪØ§ÙĦØª ÙĤ
ĠØ§ÙĦØ¥ÙĬØ± Ø§ÙĨÙĬØ©
ĠØªÙģ Ø¹ÙĦ
ĠØ§ÙĦØ´ Ø¯ÙĬØ¯
ÙĪÙĤ ÙĬØ¹
ĠÙĦ ÙĦÙĬ
ĠØ§Ø¯ Ø§Ø±Ø©
ĠØ§ÙĦØµØŃ Ø§ÙģØ©
ĠÙĨ Ø§Ø¬
ĠØ³ ÙģØ±
ĠÙħØµ ÙĨØ¹
Ø±Ùĥ Ø§ÙĨ
ĠØ§ ÙĬØ§Ùħ
ĠØ¸ Ø§ÙĩØ±Ø©
ĠØ² Ø§ÙĦ
ĠØ§ÙĦØ±ÙĬ Ø§Ø¶ÙĬ
ĠÙĩ Ø¬ÙĪÙħ
ĠØ§ÙĦÙĩ Ø¬Ø±Ø©
ĠØ§ÙĦÙĬÙħÙĨ ÙĬØ©
ĠÙħØª Ùī
ĠØŃÙĤ ÙĤ
ĠØªØµ ÙĪÙĬØ±
ĠÙĦØª ÙĤØ¯ÙĬÙħ
ĠØ§ÙĦØŃ ÙħÙĦØ©
ĠØ³ ÙĥÙĨ
ĠÙĪØ¸ ÙĬÙģØ©
ÙĬØª ÙĬÙĨ
ĠØ§Ùħ Ø§
Ø§Ø± ÙĩØ§
ĠØ¨ Ø¥ÙĨ
ĠÙĬ Ø®Øµ
ï´ ¾
Ø¬ ÙĪÙĨ
ĠÙĤØ± Ø±
( (
Ø±ÙĤ ÙĬØ©
ĠØ¹ Ø·
ĠØ¬ Ø±Ùī
ĠÙĪØª Ø·ÙĪÙĬØ±
ÙĨ Ø¬
Ø§Ø³ Ø¨Ø§Øª
ØŃØ¯ Ø§Øª
ĠÙĦØ¹Ø¯ Ùħ
ĠØ³ Ø±ÙĬØ¹Ø©
ĠØ§ÙĦØ´Ø¹ ÙĪØ±
ĠÙĨ Ø¬Ùħ
ÙĪØ³ Ø§Ø¦ÙĦ
ĠÙħ ÙĤØ¯Ùħ
ĠØ§ÙĦÙģ ÙĤÙĩ
ĠØªÙĨ ÙħÙĬØ©
ĠØ§ÙĦØ¥ Ø¬ØªÙħØ§Ø¹
ĠØ§ÙĦØµ ØºÙĬØ±
ĠØ·Ø¨ÙĬ Ø¹ÙĬ
ĠØ³ ÙĬØ¹
ĠØ§ÙĦÙħÙĤØ¯ ÙħØ©
ĠØ£Ø¯ ÙĪØ§Øª
ĠØ´ Ø§Ø±
ĠØ§ÙĦØ³ÙĬ Ø§ØŃÙĬØ©
Ø¹ ÙĤ
ĠØ§ÙĦØ£ ÙħØ§ÙĥÙĨ
Ùĩ ÙĪØ©
ĠØ¨Ø¬ Ø§ÙĨØ¨
Ø§Øº Ø©
ÙĪÙĦ ÙĬÙĨ
ĠØ§ÙĦÙĨ ØªÙĬØ¬Ø©
ĠÙģØ± Ø¹
ĠØ§ÙĦÙħØ³ØªØ®Ø¯Ùħ ÙĬÙĨ
ĠØ£ØŃ ÙĥØ§Ùħ
ĠØ§ÙĦØ£Ø³ Ø¦ÙĦØ©
Ø§ ÙĥØ±
_ _
ĠÙĪ ÙĬÙģ
ĠØªÙĤ Ø§Ø±ÙĬØ±
ĠØ¥ Ø±ÙĩØ§Ø¨
Ø§Ø° Ø¬
ĠØ¨ ÙĪØ¬ÙĪØ¯
Ø§ÙĦ ÙħØ±
ĠØª Ø®Ø±Ø¬
ÙĪØª Ø§Ø¨Ø¹
ĠØ¹Ø§ÙĦÙħ ÙĬØ©
ĠÙĤ ÙħØª
ÙĥØª Ø´Ùģ
ÙĪØ¬ Ø©
ĠØ§ÙĦÙħØ³Ø¤ÙĪÙĦ ÙĬØ©
ĠØªØ· ÙĪØ±
ĠÙģ Ø´ÙĦ
ÙĪÙĬ Ø¨
ĠØ§ ÙĬØ±Ø§ÙĨ
ĠÙģ Ø§Ø±
ÙĪ Ø·Ø©
Ø¯ Ø§Ø¨
ĠØ§ÙĦØªÙĤÙĦÙĬ Ø¯ÙĬØ©
Ø±Ø¨ Øª
ww w
ÙĢ Ùĩ
ØªØ± Ùħ
ĠØ§ÙĨ ØªØ®Ø§Ø¨Ø§Øª
Ø´ ÙĬØ©
ÙĦ ÙĤÙĬ
Ø¸ ÙĨ
ØŃ ØªÙī
u l
ĠØ¹ÙĦ ÙħØ§
ĠØ± ÙĪØ§ÙĬØ©
ĠÙĦÙħØ¹Ø§ ÙĬÙĨØ©
Ø¨Øª Ø¯
Ø¨ Ø§Ø¹
ĠØ¨Ø§ÙĦ Ø°ÙĥØ±
ĠÙĦÙĦ Ø¹Ø§Ùħ
ĠØ§ÙĦØµ Ø±
ĠÙħØ¹ Ø§ÙĦØ¬Ø©
ĠÙĪ ÙĬÙħ
ĠØ³ Ùĥ
ØµÙĦ Øª
ĠØº Ø§ÙĬØ©
ĠØ§ÙĦØ¹Ø§Ùħ ÙĦØ©
Ø§ÙĦÙĦ ÙĩÙħ
Ø§Ø· Ø¹Ø©
ĠØ¹ Ø«ÙħØ§ÙĨ
ĠØ· Ø¹Ø§Ùħ
ĠØ² ÙĬÙĨ
ĠØ§ÙĦØ³ Ø¬ÙĨ
ĠØ§ÙĦØ£Ø³ Ø§Ø³
ĠØ¨Ùħ Ø«
ĠØ£ ÙĤÙĪÙĦ
ĠØ§ÙĦÙģ Ø¶Ø§Ø¡
ÙĦ ÙĪÙĨ
ĠÙĨ Ø±Ùī
ĠÙĦÙĦ Ø£ÙĨ
ĠÙĪØ§ÙĦ ØªÙī
ĠÙĬÙĪÙħ ÙĬ
ĠØ§ÙĦÙħØ³Ø¤ÙĪÙĦ ÙĬÙĨ
Ø§ÙĦÙħ ÙĪØ¶ÙĪØ¹
ĠØ§ÙĦØ§ ÙĬØ±
ĠØµØŃ ÙĬØ©
ÙĨØ¯ Ø§Øª
ĠØ´ Ø§Ø´Ø©
Ø¹Ø± ÙĪØ¶
ÙĦÙĤ Øª
ĠØ· Ø§Ø¦Ø±Ø©
ĠØ¹Ø¨Ø¯ Ø§ÙĦ
ĠÙĦÙħ ÙĪØ§Ø¬ÙĩØ©
ÙĦÙģ ÙĬØ©
ĠØ¨ÙĤÙĬ Ø§Ø¯Ø©
ĠÙĪØ§ÙĦÙħ Ùĩ
Ø´ Ø·
ĠØ®ÙĦÙģ ÙĬØ©
ĠØ¥ Ø±Ø³Ø§ÙĦ
ĠØ§ÙĦØ£Ùģ ÙĥØ§Ø±
ĠØªØ³ Ø¹Ùī
ØªÙĥ Ø§Ø±
ĠØ§ÙĦØ§Ø´ ØªØ±Ø§Ùĥ
ÙĦÙħ Ø§ÙĨÙĬØ©
ĠØ¨Ø§ÙĦ ØµÙĪØ±
ĠØ® Ø¯Ùħ
Ø§Ø³ ÙĬØ§
ĠØ§ÙĦØŃ ÙĤÙĬÙĤÙĬØ©
ĠÙħÙħ Ø«ÙĦ
ĠØ§ÙĦØªØ´ Ø±ÙĬ
ĠÙĪÙĬ ÙĥÙĪÙĨ
ĠØ§ÙĦÙħØ¹ ÙĨÙĬØ©
Ø·Ø± ÙĬØ©
Ø£ ÙħÙĦ
Ø¹ ÙĪØ©
ĠØ¨Ø¥ ÙħÙĥØ§ÙĨ
ĠÙħ ØµÙĦØŃØ©
ĠÙħØªØ± Ø¬Ùħ
ĠØ¨Ø§ÙĦ Ø¶
ĠØ§ÙĦØµ Ø§ÙĦØŃ
ĠØ¨Ø± Ø³
ĠØ¢ Ø¨
ĠØ§ÙĦÙħ ÙĬ
ĠØ¢Ø³ ÙĬØ§
ÙĤÙĬ Ø¨
ĠØ±Ø£ Ùī
ĠØ§ÙĦØª ÙĪÙĨØ³ÙĬ
ĠØ¹ Ø²ÙĬØ²
Ø§Ø¨ÙĦ Ø³
ÙĬØ± ÙĬØ§
ĠØªØ´ ÙĬØ±
o s
ĠØ´ Ø¤ÙĪÙĨ
ĠØ§ÙĦØ´Ø¹ ÙĪØ¨
ĠØ£Ø¬ ÙħÙĦ
ĠÙħ Ø±Ùĥ
ĠØ§ÙĦØ® ÙĦØ§Ùģ
ĠØŃØµÙĦ Øª
ĠØ³ ÙĬÙģ
ÙĤ ÙĪØ¯
ÙĪ ØŃÙĬ
ĠØ§Øµ Ø¨ØŃ
ĠÙĪØ§Ø³ Ø¹
ÙĬØ³ Ø¨ÙĪÙĥ
ĠÙĤ Ø§Ø¯
ĠØ¥ ÙĬØ±
ĠÙĦ ÙģØªØ±Ø©
ØªØ±Ø§ ÙĪØŃ
ĠØªØ¹ Ø§ÙĨÙĬ
ĠØ¨Ø§ÙĦØª Ø£ÙĥÙĬØ¯
ÙĨØ§ ÙĩØ§
Ø§ÙħÙĦ Ø§Øª
ĠØ§ÙĦØ¨Ø±ÙĬØ· Ø§ÙĨÙĬ
ĠÙĪÙĬ ÙĤÙĪÙĦ
ĠØ§ÙĦ ÙĩØ±
ĠØ§ÙĦØ¯Ùĩ ÙĪÙĨ
Ø³ Ùī
ĠÙħ ÙĪØ¬ÙĪØ¯Ø©
ĠØ«ÙĤ Ø§ÙģØ©
ĠØ§ÙĦØ¨Ø® Ø§Ø±ÙĬ
ĠØ§ÙĦÙħ ÙĥØ±
ĠØ¬ Ø¯Ø©
Ø³Øª ÙħØ±
Ø§Ø±Ø³ Ø§Øª
ÙĪØ± Ùī
ĠØ§ÙĦÙĤ ØµØ©
ĠÙĬÙħÙĨ Ø¹
ĠÙĨ Ø§Ø±
ĠÙĬØ¯ Ø¹ÙĪ
ÙĪØ³ ÙĬØ¹
ĠØ®Ø± ÙĪØ¬
ĠÙĪ Ø§Ùħ
Øµ Ø±Ø©
ĠØ¬ Ø³
ĠØ§ÙĦØŃ Ø§ÙĥÙħ
ĠØ§ÙĦØ³ÙĦ ÙĪÙĥ
ĠÙĩ Ø±
ĠØ·Ø¨ÙĬ Ø¹ÙĬØ©
ĠØ§ÙĦØ¥Ø¹ÙĦØ§Ùħ ÙĬ
Ġ3 5
ØªØ¨ Ùĩ
ÙĢ Ùħ
ĠÙĦÙĦÙħ Ø´Ø§Ø±ÙĥØ©
ÙħØ´ Ø§ÙĩØ¯Ø©
ĠÙĦÙĦØ£ Ø·ÙģØ§ÙĦ
ĠÙģ Ø¶ÙĦ
Ø¶Ø± Ø§Ø±
ĠØ¯ÙĪÙĦ ÙĬØ©
ĠØ£ÙĪ ÙĦÙī
ĠØ§ÙĦÙħÙĩ ÙĨÙĬØ©
ĠØ§ÙĦØŃ Ø¬Ø±
ĠØ£Ø® ÙĬ
ĠØ§ÙĦØ« ÙĨØ§Ø¦ÙĬØ©
ĠØ§ÙĦØ· Ùģ
ĠÙĪØ§ÙĦ Ø§Ø³
ĠØŃ Ùģ
ĠØ§ÙĦØªØ¬ Ø±Ø¨Ø©
ĠØ§ÙĦØ± ÙĪØ§ÙĬØ©
ĠØ³Ùħ Ø¹
ĠÙħ Ø´Ø±
ĠØ§ÙĦØ¹ Ø§ÙĦÙĬØ©
ĠÙĦØª Ø³
ĠØ§ÙĥØª Ø´Ø§Ùģ
ĠØ§ÙĦØ¥Ø±ÙĩØ§Ø¨ ÙĬØ©
ĠÙħØ¯ ÙĨ
ĠÙĪØ± Ø³
ĠØ§ÙĦØ¨ Ø§ÙĦØº
ĠØ§ÙĦØ¹ Ø´
ÙĨØ¯ Ø¹ÙĪÙĥ
ÙĦÙħ Ø§Ø°Ø§
ĠØ§ÙĦÙģ ÙĤ
ĠÙĪÙĩ Ùī
ĠØ£Ùģ ÙĥØ§Ø±
ĠÙĪÙħ Øµ
Ø¬ ÙĪØ¡
ĠØŃ ÙĦØ¨
Ø´ ÙĬÙģ
ĠØ£Ø¹ ÙĦÙħ
ĠÙĬ ÙĦØª
Ø°Ø§ Ùĥ
ĠØŃØ± Øµ
ĠØ§ÙĦÙħØŃ ÙĬØ·
ÙĤ Ø³Ùħ
ĠØ§ÙĦÙĪØ¸ Ø§Ø¦Ùģ
ĠÙħØ³Øª ÙħØ±
ĠØ« Ø§ÙĦØ«
Ø® ÙĬÙĨ
Ø¹Ø¯ Ø©
Ø§ÙĪ Ø§Ø©
ĠÙĦÙĪ ØŃØ©
ĠÙĪØ§ÙĦ ØŃØ±
Ø¨Ø§Ø± Ø§Øª
ĠÙĬ ÙĪØ±ÙĪ
ĠØ¨ÙħØ« Ø§Ø¨Ø©
ĠØ§ÙĦØ¬ ÙĩØ©
ĠØ§ÙĦØ³ ÙĪÙĬØ¯
ĠØ¨Ùħ ØŃØ§ÙģØ¸Ø©
Ø¬ ÙĪ
ĠØ§ÙĦØ¯Ø± Ø¬Ø©
ĠÙĪÙĩ ÙĥØ°Ø§
Ùĥ ÙĬÙħ
ĠØŃ ØµÙĪÙĦ
ĠØ§ÙĦØ§Ø³Øª Ø®Ø¯Ø§Ùħ
ï» ł
Ø³Øª ÙĩØ§
ĠØ³ Ø¹
Ø¹Ø¯ Ø§Øª
ĠØ¥ ÙĨØ³
ĠØ· Ø¨ÙĤ
Ø³ÙĬ Ø·Ø±
ĠØ£ÙĤ Ø±Ø¨
Ø§Ø¬ Ø³ØªÙĬØ±
ĠØ¨ ÙĪØ¶Ø¹
ĠÙĦÙĬ ÙĥÙĪÙĨ
ĠØ§ÙĦØ£ Ø·Ø¹ÙħØ©
Ù ¥
ĠØ§ÙĦØª Ø²Ø§Ùħ
ĠØ¹ÙĤ ÙĪØ¯
ĠØ§ÙĦÙģ Ø¶
Ø§Ø¡ Ø§Øª
ĠØ§ÙĦØ± Ø£Ø³
ĠØ§ÙĦÙĥÙĨ ÙĬØ³Ø©
ĠÙħÙħ ÙĬØ²Ø©
ĠØ§ÙĦØ´ ÙĥØ±
ÙĢ Ø§
ĠØ§ÙĦÙĪØ§ÙĤ Ø¹Ø©
ĠØŃ Ø¸
ĠØ£Ùħ Ø±ÙĬÙĥÙĬ
ĠØ§ÙĦØ£ Ø±Ø¬
ÙĬÙĤ ÙĪÙĦ
Ø§Ø± ÙĬÙĪ
ĠÙĨØ¹ Ø±Ùģ
ĠØ¯ Ø¹Ø§
ĠØ³ Ø±ÙĬ
Ø·Ø§ÙĦ Ø¨Ø©
ĠØ§ÙĦØ·Ø¨ÙĬ Ø¹Ø©
ĠÙĪØ§ØŃ Ø¯Ø§
ĠÙħÙĪØ³ ÙĥÙĪ
ĠØ§ÙĦØ³ÙĪØ¯ Ø§ÙĨÙĬ
ĠØªØŃ Ø¨
Ø§ÙĤ Ùĩ
ĠØªØ·Ø¨ÙĬÙĤ Ø§Øª
ĠØ¯ÙĪÙĨ Ø§ÙĦØ¯
Ø«ÙħØ± ÙĬÙĨ
Ø±Ø¨ Ø§Øª
ĠÙĪØ§ÙĦÙħ Ø´
ĠØ§ÙĦÙĤ Ø¶
ĠØ² ÙĬØ§Ø±
ĠÙģÙĨ Ø§Ø¯ÙĤ
Ø±Ø¨ Ùĩ
ĠØ§ÙĦÙĤØ± Ø§Ø±Ø§Øª
ĠØ§Ø¹ ØªÙĤØ§ÙĦ
ĠØ¹ Ø§Ø¦ÙĦØ©
ĠÙĬÙĤ Ø¨ÙĦ
ĠØ§ÙĦÙħ ÙĤØ±
ĠÙĦÙĦÙħ Ø±Ø©
ĠØ§ÙĦØ¬ ÙĬÙĦ
ĠØ³ÙĦ Ø·Ø©
ĠÙĥ ÙĪØ¨
ĠÙħ Ø§Ø²
ĠØ§ÙĦÙħØ³Øª Ø´Ø§Ø±
Ø¨ Ø²
Ġ7 0
Øª ÙĨÙĬ
Ø§ÙĦ ØªÙĬ
ĠØ§ÙĦÙĨ Ø§Ø¬
Ø¨ Ø§Ø¯ÙĦ
Ø· ÙĬØ¨
ĠØª ÙĬ
ÙĦ ÙĩØ§
ĠÙħØ¬ Ø§ÙĨÙĬØ©
Ø§Ø´ ÙĤ
ĠÙħÙĩ Ø§Ø±Ø§Øª
Ø´ Ùī
ÙĨ Ùħ
ĠØ£ Ø¬ÙĨ
ĠØ§ÙĦØ« ÙĦ
ĠØ£Ùħ ÙĪØ±
ĠØ¹ Ø§Ø¯ÙĦ
ĠØ§ÙĦØ£ Ø«
ØªÙĩ Ùī
ÙĤØ¯ Ø§Ùħ
ĠÙħ ÙĪØª
Ø§Ø¶ Ùī
ĠØŃ Ø¬Ø±
ĠØ¥ ÙħØ§
ĠÙħ Ø¯Ø±
ĠÙĬØ± ØºØ¨
ĠØ§ÙĦØ³Ùģ ÙĬØ±
ĠØ§ÙĦØº Ø±Ùģ
ĠØªØ± ØºØ¨
Ùĩ Ø±Ø©
ÙĦÙĤ Ø§Øª
ïºİ ïº
Ø§Ø¯ ÙĨ
ĠØ¨ Ø±ÙĬ
ĠØ§ÙĦØª ÙĥÙĨÙĪÙĦÙĪØ¬ÙĬØ§
ĠÙĪØ§ÙĦ ØªÙģ
ÙĪØ¹ Ùĩ
Ø³ÙĬ Ø·
ĠÙĪØª ÙĤØ¯ÙĬÙħ
Ø§ÙĦÙĬ Ùĩ
ĠÙĬ Ø·ÙĦÙĤ
ĠØ±Ø³Ùħ ÙĬØ©
ĠØ§ÙĦØ¹ Ø´Ø±ÙĬÙĨ
ĠØ§ÙĦÙħØ±Ø¶ Ùī
Ø±Ùĥ Ùĩ
ÙĪÙģ Ø±Ø©
ĠØµ Ø§ØŃ
ĠØ¸ÙĩØ± Øª
ĠÙħØ³ Ø§Ø¨ÙĤØ©
Ø¯ Ø¨
âĢ Ļ
ĠØªØ¤ ÙĥØ¯
ĠÙģÙĬ ÙĩÙħ
ĠØ£Ø¨ÙĪ Ø¸Ø¨ÙĬ
Ø§ ÙĬÙħ
ĠÙĬ ÙĪØ§Ø¬Ùĩ
ĠÙħØ¹Ø¯ Ø§Øª
Ùħ Øµ
ĠÙħ Ø±Ø¨Ø¹
8 0
ĠØ¨Ø³ÙĬ Ø·
ĠØ¨ ÙĤØ¯Ø±
Ġ8 0
ĠØ§ÙĦØ³ÙĬ Ø§ÙĤ
Ø§Ø¶ Ø±Ø©
ĠØ§ÙĦÙħØ¹ Ø±Ø¶
ĠØ§ÙĦØ£Ø³ ÙĨØ§ÙĨ
Ø¸ ÙĬÙħØ©
ĠØ§ÙĦ Ø§Ø¶
ÙĪØ±ÙĬ Øª
Ø§ ÙĪØ¶
Ø´Ø§Ø± ÙĥØª
ĠØ®Ø§Ø±Ø¬ ÙĬØ©
ĠI n
ĠØ® ÙĬØ±Ø§
ĠØ§ÙĦØ² ÙħØ§ÙĦÙĥ
ĠØ§ÙĦØ§Ø³Øª ÙģØ§Ø¯Ø©
ØªØµ Ø§Ø¯ÙĬ
Ġ3 00
ÙĬ Ø°ÙĥØ±
ĠØ´ Ùģ
ÙĦØª ÙĤÙī
ĠØ£ Ø±ÙĬØ¯
at ion
ĠÙħÙĦ Ø§Ø¨Ø³
ĠØª ÙĥØ±
ÙĪØ³ ÙĪÙģ
ĠÙħ ÙĪØ¶
Ùģ ÙĬØ¯ÙĬÙĪ
ĠÙĬ ÙĩÙħ
ĠÙĪØ£ Ø®
ĠÙħØ¬ Ø§ÙĨÙĬ
ĠØ§ÙĦØ£ ÙĤØµÙī
ĠØ§ÙĦÙħØµ ÙĨ
Ø¦ ÙĨØ§Ùģ
Ø¸ Ø§Øª
ĠØ§ÙĦØªØ± Ø§Ø«
ÙĪÙĥ Ø¨
ĠØ£Ùħ ÙĬÙĨ
Ø§Ø¯ ÙĬÙĨ
ĠÙĬØ£ Ø®Ø°
ĠØª ØªØ±
ĠÙĪÙĬÙĨ Ø¯ÙĪØ²
ĠØ§ÙĦÙĤ ÙħØ±
ĠØ£Ø¹ Ø±Ùģ
Ø±ÙĬ Ø¨ÙĬ
Ø£ Ø®Ø°
ĠØ§ØŃ ØªÙģ
Ø¹ Ùĥ
ĠØ§ÙĦÙĤÙĨ Ø§Ø©
ĠØŃÙĬÙĨ ÙħØ§
ĠØ§ÙĦØ¨ÙĨ ÙĪÙĥ
ĠØ§ÙĤ ØªØµØ§Ø¯
ĠØ§ÙĦÙģØª Ø§Ø©
Ø² ÙĪ
ĠØ§ÙĦØ£ØŃ Ø²Ø§Ø¨
Ø§Ùĩ ÙĨ
ÙĬØª Ùĥ
] [
Ø¬Ø² Ø¡
ĠØ§ÙĦØ§Ø® Ø¨Ø§Ø±
ĠØ¬Ø² ÙĬØ±Ø©
ĠØ§ÙĦØª Ø®ØµØµ
Ø·Ø¨ÙĬ Ø¹Ø©
ĠØ§ÙĦØ® ÙĦØ§ÙĬØ§
ĠØ§ÙĦØ£ÙĦÙħ Ø§ÙĨÙĬ
ĠØ±Ø³Ùħ ÙĬ
ÙĪ ØµÙģ
ĠÙħØŃØ¯ Ø¯Ø©
ĠÙĤØ¨ ÙĪÙĦ
ĠØ§ÙĦÙħ Ø·Ø±
ĠØ§ÙĦØµØŃ Ùģ
ĠÙĪØ§ÙĦØ¹ Ø§ÙĦÙħ
ĠÙĬØ¤ Ø«Ø±
ÙĬØª ÙĩÙħ
ĠÙħÙĪ Ø§Ø¶ÙĬØ¹
ĠØ§ÙĦØ§ÙĨ ØªÙĤ
ĠØ¨ÙħØ¹ ÙĨÙī
ĠÙĪØ§ÙĦ ÙģØ±
ĠØºØ§ÙĦØ¨ Ø§
Ø§Ø³ ÙĪØ¨
ĠØ§ÙĦÙģ ÙĥØ±Ø©
ĠØ§ÙĦØ´Ø± ÙĪØ·
ĠØ¨ Ø·ÙĦ
ĠÙħØ³Ø¤ÙĪÙĦ ÙĬØ©
ĠØª Ø¨Ø¯ÙĪ
ĠÙĬ Ø·ÙĦØ¨
ĠØ§ÙĦØ¹Ùħ ÙĪÙħÙĬØ©
ÙĪ Ø§ÙĦÙħ
ĠØ§ÙĦØ´ Ø±ÙĬØ¹Ø©
ĠØ¨Ùħ ØŃ
ĠØ¨ÙĨ Ø§Øª
ĠØ§ÙĦØ¯ Ø¨ÙĦÙĪÙħ
ĠØª ÙĩØ¯Ùģ
ĠÙģ Ø§ÙĦÙħ
ÙĪÙĨ Ø¯
ĠÙĨØ¬ ÙĪÙħ
ĠÙĨÙĬ ÙĪÙĬÙĪØ±Ùĥ
ĠÙĤ ØµØ±
ĠØ±Ø³ Ø§Ø¦ÙĦ
ĠØ§ÙĦØªØ¯ Ø®ÙĦ
ĠØ§ÙĦØ¬Ùħ ÙĬÙĦ
ĠØ¯Ø± ÙĩÙħ
ĠØ¹ÙĦÙħ ÙĬØ©
ĠÙĪØ£ ØµØ¨ØŃ
Ø¬ Ø±ÙĬ
ĠØ§ÙĦØ¨ ÙĬØ¹
ØŃØª Ø§Ø¬
ĠØ§ÙĦØ§ØŃ Ø¯
ĠÙħØ¬ Ùĩ
Ø¨ÙĦ Ø§Ø¯
ĠÙħÙĨ Ø§Ø³Ø¨
ĠØ§Ø« ÙĨÙĬÙĨ
ĠØ§ÙĦØŃ Ø¬Ùħ
ĠØ§ÙĦÙĪØ³ Ø§Ø¦ÙĦ
ĠØ§ÙĦ Ø§ÙĦØªØ²Ø§Ùħ
ĠØ´ ÙĥØ±
ĠØ°ÙĥØ± Øª
ĠØ³ ÙĩÙĦØ©
ÙĨ Ø¹Ùħ
Ø´Ø± Ø§Ø¡
ĠØŃ ÙĦÙħ
ĠØ£ÙħØ± Ø§Ø¶
ĠÙħÙĨ ØµÙĪØ±
ĠØ§ÙĦØ£ ÙĩÙĦ
ÙģØª Ø§Ø¡
Ø¨Ø¯ Ø¡
ĠØªØ¤ Ø«Ø±
ĠØ§ÙĦÙĨ ÙĬÙĦ
ĠØ§Ø³ØªØ®Ø¯Ø§Ùħ ÙĩØ§
9 9
ĠØ£Ø¨ ÙĨ
ĠØªØ± ØªÙĬØ¨
Ø¨Ø§ØŃ Ø«
Ø§ÙĦ ØµÙģØŃØ©
ÙĪØ¯ Ø§
Øµ Ø§Ø¦ÙĦ
ĠØ± Ø¦Ø§Ø³Ø©
ĠØ¨ÙĤ ÙĬØ©
ĠØªØŃ ÙĦÙĬÙĦ
ĠØªÙĤ ÙĦÙĬ
ĠØ® Ø²
Ø³ÙĪÙĨ Ø¬
ĠÙħÙĨ ÙĥÙħ
ÙĦØ§ÙħÙĬ Ø°
Ø®ÙĦ Ø§Øµ
ĠØ®ÙĦØ§ÙĦ Ùĩ
ĠØ² Ø§ÙĬØ¯
ĠØªÙħ ÙĦÙĥ
ĠØ§ÙĦØ´ Ø§Ùħ
ĠØ§ÙĦØ¯ÙĬÙħÙĤØ±Ø§Ø· ÙĬ
ĠÙĤ ÙĪØ§ÙĨÙĬÙĨ
ĠØ¬Ø± Ø§Ø¦Ùħ
ĠØ§ÙĦØ§Ùħ ÙĬØ±
ĠØ§ÙĦØ±Ø³ Ø§Ø¦ÙĦ
ÙĤ Ø§ÙĦØ©
ĠØ§ÙĦØªØ£ ÙħÙĬÙĨ
ØŃ Ùī
in d
ĠÙĨØ³ Ø®
ĠÙĥ ÙĪØ±ÙĬØ§
ĠÙĬØªØ¹ Ø±Ø¶
Ø³ ÙĬÙĦ
ÙĬØ³ Ø±
ĠØ§ÙĦØ¯ÙĬÙĨ ÙĬ
Ø¬ÙĦ Ø¯
ÙĢÙĢÙĢÙĢ ÙĢÙĢ
Ùħ Ø§Ø·
ĠØ£ Ø²
Ġ.. ....
ĠØ´ ÙĥØ±Ø§
Ø§ÙĨ Ø§Ø©
ĠØ§ÙĦØ²Ø± Ø§Ø¹Ø©
ĠØ§Ø³Øª Ø±Ø§ØªÙĬØ¬ÙĬØ©
ĠØª ÙĥÙĪÙĬÙĨ
ÙĬØ§Øª ÙĩØ§
ĠØ¥ÙĦÙĬ Ùĥ
ÙĪÙĤ Ø±
ĠØ§ÙĦØ³ Ø±ÙĬØ¹
ĠØ¥ ÙĨØ³Ø§ÙĨ
ĠÙĬ Ø³Ø¨Ø¨
ĠÙĪ ÙĨØª
Ø§Ø¨ Ø±Ø§Øª
ĠØ³ ÙĦØ§ÙħØ©
ĠØ¹ÙĨØ¯ Ùĩ
ĠØ¬Ùħ ÙĩÙĪØ±ÙĬØ©
ØŃØ§ ÙĪÙĦØ©
ĠØª ÙĪÙĬØªØ±
ĠÙħÙĨ ÙĩÙħØ§
ĠØ§ÙĦØ® ÙħØ³
ĠÙĥ Ø£ÙĨ
Ø§Ùħ Ø±Ø©
ĠØ³ÙĦ Ø·Ø§ÙĨ
Ø¦ ÙĬÙĨ
ĠÙĪØ§ÙĦØ¯ Ùĩ
Ø£ ÙĪÙĦ
Ø¬ÙĦ Ø§Øª
ĠØ±Ø³Ùħ ÙĬØ§
ĠØªØµ Ø¯Ø±
Ùī Ø¡
Ùĥ ÙĪÙħ
ĠÙħ Ø¦Ø§Øª
ĠÙĪÙĤ Ø¹Øª
ÙĤ Ø§Ø¨
ÙĪÙĤ ÙĪÙģ
ĠØ¬ Ø±ÙĬØ¯Ø©
ÙĬÙĦ ÙĪÙĦ
ĠØ£Ø¨ ÙĪØ§Ø¨
ĠØ¥ ØµÙĦØ§ØŃ
ĠÙĬÙĤ Ùģ
Ø²ÙĬ Ø§Ø¡
ĠØ§ÙĦØ¶ Ø¹
ĠØ§ÙĦØ¬ÙĦ Ø³Ø©
ĠØ§ÙĦØª Ø®Ø·ÙĬØ·
ĠØ§ÙĦØ´ÙĬ Ø·Ø§ÙĨ
Ø¬ ÙĪØ²
ĠØ§ÙĦØ£ ÙģØ±Ø§Ø¯
Ø³ ÙĪÙģ
ĠØ£Ø® Ø¨Ø±
ĠÙĦ Ø§Ø®
ĠØ± Ùģ
ĠØ£ Ø¶
ĠØ¨ØŃ Ø±
ĠÙĬÙĨ Ø¸Ø±
ĠØ§ÙĦØ£ Ø·Ø¨Ø§Ø¡
ÙĨÙĬØ§ ÙĩÙĪ
ĠØ§ÙĦØ¬ Ø±ÙĬÙħØ©
ĠØ¨ Ø¬ÙħÙĬØ¹
Ø§Ø³ ÙĬÙĬÙĨ
ÙģÙĬ ÙĤ
ĠÙĦØ¶ ÙħØ§ÙĨ
ĠÙħ ÙģØ±
ÙĪØªÙĬ ÙĪØ¨
ĠØ¥ ÙĦÙĥØªØ±
ĠØ§ÙĦØŃ ÙģÙĦ
ĠÙħØ± Øª
ĠÙĪÙĬ Ø´
ĠØ¥Ùģ Ø±ÙĬÙĤÙĬØ§
Ø§ÙĦØ³ Ø§Ø¨ÙĤ
" :
ÙĩÙĬ Ø§Ø±
ĠØ¹Ø§Ùħ ÙĦ
ĠØ§ÙĦÙħØ´Ø§Ø±Ùĥ ÙĬÙĨ
ĠØ¬ Ø¨ÙĦ
u m
Ø§Ùģ ÙĦØ©
ĠØ¹ Ø§ØµÙħØ©
ĠÙĬØŃ ÙĤÙĤ
ĠØªØµ Ø±Ùģ
ĠØ§ÙĦÙħ Ø³ÙĦØ³ÙĦ
Ùħ Ø§Ø°Ø§
ĠØ§ÙĦØ®Ø§Ø±Ø¬ ÙĬ
ĠÙĦÙħØ¹ Ø±ÙģØ©
ĠØ¹ÙħØ± Ùĩ
ĠØ§ÙĦØ¹ Ø«ÙĪØ±
ĠØ¨ Ø§
ØŃ Ø§ÙĪÙĦ
Ø³ ÙĬØ¯
ĠT he
ĠØ§ÙĦØµ ÙĬ
ÙĬ ÙĪØ±
ĠÙĦÙħ Ø´
ĠÙĨ ÙĤÙĪÙĦ
ĠØ± Ø§ØŃ
ĠØªØ±Ùĥ ÙĬØ¨
ĠÙĬ ÙħØ±
ĠØ¹ ÙĦØ§ÙħØ©
ĠÙĤ ÙĪÙī
ĠÙħØ³ Ø±ØŃ
ĠØª Ø®ØªÙĦÙģ
Ø§Øµ ÙģØ§Øª
ĠØ§ÙĦØ´ Ø§Ø¹Ø±
ĠÙħÙĪ Ø§ÙĤÙģ
ĠÙħÙĨ ØµØ¨
Ø§ÙĦ ÙĩØ§
ĠØ¨ Ø´Ø§Ø±
Ø¯Ø± Ø§Ùĥ
Øª Øº
ĠØ§Ø¶ Ø§ÙģØ©
ĠØ§ÙĦØ¥ ÙĦÙĩ
ĠØ¨Ø³ Ø¹Ø±
ĠØ³ÙĬÙĨ Ø§Ø¡
ĠØ§ÙĦØ£ ÙĪØ¶Ø§Ø¹
ĠØ¨ Ø®Ø·
ĠØ¨ØŃ Ø¬Ùħ
ĠØ®Ø¨Ø± Ø©
ĠØ§ÙĦØµ Ø¹Ø¨
ĠØ§ÙĦØ£Ùģ ÙĦØ§Ùħ
a h
ĠÙĪØ¯ Ø¹Ùħ
ĠÙĬØª Ø·ÙĦØ¨
ĠØ¹ ÙĤÙĦ
u b
ĠØ§ÙĦØ§Ø® ØªØ¨Ø§Ø±
ØŃ ÙĪÙĦ
ĠØ§ÙĦØ¥ ÙĬØ¬
ĠØ§ÙĦØ³ÙĪØ±ÙĬ ÙĬÙĨ
ĠØ¢ Ùħ
ĠØ¹ ÙĥØ³
Ùĩ Ø§ÙĨ
ĠØŃØ± Ø§Ø±Ø©
ĠØ¥ ÙĨØª
ĠØ¨ Ø§ØŃ
ĠØ§ÙĦØµ ÙĬØ¯
ĠÙĨ Ø§Ø³
es s
ĠØ§ÙĦØ²Ø± Ø§Ø¹ÙĬØ©
ĠØªØ³ ÙĦÙĬÙħ
ÙĬÙĥ Ø§
ĠØ§ÙĦÙħØ³Øª ÙħØ±
ĠØ§ÙĦØ¥ Ø´Ø§Ø±Ø©
ĠÙĪ Ø®ØµÙĪØµ
Øº Ø§
ØºÙĬØ± Ø§Øª
ĠÙĪÙĥ ÙĬÙĦ
ĠÙĪ Ø°
ĠØ§ÙĦØŃ Ø´Ø±Ø§Øª
ĠÙĪØ£ Ø¹
ĠÙħÙĪØ³ Ùħ
ĠÙħ ÙĥÙĪÙĨ
ĠØ§ÙĦØŃØ¯ Ø«
ĠØ§ÙĦØ® Ø²
ĠÙħØ± Ø§Ø¬Ø¹Ø©
Ø§Ø¹ Ùħ
ĠØ¨ÙĦ Ø¯Ø©
ĠØªØ¹ Ø¨ÙĬØ±
ĠØªÙĩ Ø¯ÙĬØ¯
ĠØ§ÙĦØ´ Ø£ÙĨ
Ùģ ØªØŃ
ĠØ§ÙĦÙĤ Ø¶Ø§Ø¦ÙĬØ©
ĠØ¬Ø§ÙĨ Ø¨Ùĩ
Ø§Ø¶ ÙĦ
ĠØ§ÙĦÙĪ Ùĥ
ĠØªÙĪ Ø§ØµÙĦ
ÙĪ Ø§Ø´
ĠØ§ÙĦØª ÙĦ
ĠÙĪÙĦÙĩ Ø°Ø§
ĠØ§ÙĦØ£Ø¯ ÙĪÙĬØ©
ĠØ§ÙĦØ¥Ø³Ø¨ Ø§ÙĨÙĬ
ÙĪÙĦ ÙĬØ¯
t h
Ø¹Ø¶ ÙĪ
ĠØ§ÙĦØŃØ± ÙħÙĬÙĨ
ĠÙĤ Ø§Ø¯Ø©
ÙĪÙģ Ùī
ĠØ§ÙĦÙĨ ÙĪØ±
ĠÙĤØ± Ø±Øª
Ùĳ ØĮ
e x
ĠÙħØ¯ÙĬØ± ÙĬØ©
ĠØ§ÙĦØ²ÙĬ Ø§Ø±Ø©
ĠÙĪÙģ Ø¯
ĠØº Ø¶
ĠÙĦÙħ Ø¯
ĠØ§ ÙĪØ±
ĠÙĦÙĦ ÙĪØµÙĪÙĦ
ĠØ¹ÙĦ ÙĪÙħ
Ùħ Ø¤
Ùģ Ø§ÙĨ
ĠÙĦÙĦØ£ ÙħÙħ
ÙĪÙĨ Ø§ÙĦØ¯
ĠØ§ÙĦØ°Ø§Øª ÙĬØ©
ĠÙĦØŃ ÙħØ§ÙĬØ©
ĠØ§ÙĦØŃ ÙħØ§Ùħ
Ø§Ø¹ ÙĦ
ĠÙĪÙģ Ùī
ÙĤ Ø¹
ĠØªØŃ Ø§ÙĪÙĦ
ĠØ§ÙĦØ£Øµ ÙĦÙĬ
ïº ĺ
Ø§Ø±Ø¬ ÙĪ
ĠØ· ÙĩØ±Ø§ÙĨ
Ø§Ø² Ø©
Ø²Ø§ ÙĬØ§
ĠÙĦØ§ÙĨ Ùĩ
ĠØ§ÙĦØ®Ø· ÙĪØ§Øª
ĠØ®ÙĦÙĬ ÙģØ©
ĠØ¬Ø¯ ÙĪÙĦ
ĠÙĪØ§ÙĨ Ø§
ØµØŃ Ø§Ø¨
ĠÙĪØ² Ø±Ø§Ø¡
ĠØªØª Ø¶ÙħÙĨ
ĠØ¨Ùħ Ø³Øª
ĠØ§ÙĦØ¥ Ø·ÙĦØ§ÙĤ
ĠØ± Ø§Ø¨Ø·
ĠÙħØ´ ØªØ±Ùĥ
ĠÙĥ ÙĪÙħ
ĠØ§ÙĦØ¶ ÙģØ©
ĠØ§ÙĦØ¢ Ø«Ø§Ø±
ÙĦÙĬØ´ ÙĬØ§Øª
ĠØ§ÙĦØ® Ø¶
Ø´ ÙĬÙĨ
ĠØ± Ø¹Ø§ÙĬØ©
ĠØ¨ÙĪ Ø§Ø¨Ø©
ĠÙĪØ£ ÙĥØ¯
ĠØ§ÙĦØ®Ø· ÙĪØ©
ĠØ¨Ùħ ÙĪØ¬Ø¨
ĠØ§ÙĦØ± Ø´
ÙĪ ÙĩÙħ
Ùħ ØµØ±
ĠÙħ Ø£
Øª ÙĥÙħ
ĠØ§ÙĦØ¯Ø± Ø§Ø³ÙĬØ©
Ù ª
ĠÙĦØª ÙĥÙĪÙĨ
Ø§Ø· Ùģ
ĠØ£Ø± Ø³ÙĦ
ÙĬ ÙĬØ±
ÙĲ .
ĠØ®Ø· Ø§Ø¨
ïº ª
ĠÙĪØª Ø®
Ù ¡
ĠØ³ Ø±ÙĬØ¹
ĠØµ Ø¹Ø¨
ĠØ³ÙĨ ÙĪÙĬØ§
ĠÙħØª Ùĥ
ĠØ§ÙĦÙħÙĨ Ø¸ÙħØ§Øª
ĠØ³ ÙĬÙĦ
ĠØ§ÙĦØ¹ ÙħÙĬÙĦ
Ø´ Ø£
Ø¬Ùĩ ÙĪØ¯
Ġ9 0
ĠØ§ÙĦ ÙĩØ¯
ĠØ± Ø§Ùħ
ÙĤ Ø§ÙĦØª
ÙĬØ´ Ø©
ĠØ§ÙĦÙĨ Ø¬Ùħ
ĠÙģ Ø¦Ø©
ĠØ§ÙĦØ¥ ÙĨØª
ĠØ§ÙĦÙħ Ø¦Ø©
Ø§Ø¹ ÙĬØ¯
Øª Ø¶
ĠÙĪØ± ØŃÙħØ©
ĠØ§ÙĦØ¥Ø¹ÙĦØ§Ùħ ÙĬØ©
ĠØ§ÙĦØªØ§Ø³ Ø¹
ĠØ§ÙĦØ§Ø³ Ø±
ĠÙĬ Ø¶Ùħ
ĠØ§ÙĦØ£Ø³ ÙĩÙħ
ĠØ§ÙĦØ§Ø³Øª Ø±Ø§ØªÙĬØ¬ÙĬØ©
ØªØ± ÙĪÙĦ
ĠØ§ÙĦØµ Ø§Ø¯Ø±
Ù ¤
ĠØ§ÙĦØªØ£ Ø«ÙĬØ±
ÙĤ Ø³Ø§Ùħ
Ø¯ Ø§ÙħØ©
Ġ20 00
ĠØ§ÙĦØ§Ùħ ÙĨ
ĠØ§ÙĦÙĤ Ø§Ø¶ÙĬ
ĠÙĪØ§ÙĦØ§Ø¬ØªÙħØ§Ø¹ ÙĬØ©
ĠØ£ ÙĪÙĨ
ĠØ£ Ø³ØªØ§Ø°
Ġ200 6
ĠÙĪ Ø§Ø¬Ùĩ
ĠÙĬØ¹ Ø·ÙĬ
Ø§ ÙĪÙħ
ĠÙħØ¹ Ø±ÙĥØ©
ĠØ§ÙĦØ§Ø± ÙĩØ§Ø¨
Ø§Ø² ÙĬÙĦ
ĠÙĥÙĬÙĦ ÙĪ
ĠØŃ Øª
ĠØ§ÙĦØ§ ÙĪØ±
ĠÙĥ ÙģØ±
Ø§ ÙĪØ±Ø©
ØŃ Ø¨Ø§
ĠØ§ÙĦÙĨÙģØ³ ÙĬ
Ġï» £
ĠÙĬ ÙĥØªØ¨
Ġ.. ...
ĠØŃ Ø¨ÙĬØ¨
ĠØ§Ø® ØªÙĦØ§Ùģ
ĠØ§ÙĦØ§Ùħ Ø§Ø±Ø§Øª
ĠÙĦÙĦ ØµÙģ
ĠØ³ ÙĤØ·
ĠØªØµ ÙĨÙĬÙģ
Ø§Ø· ÙĦ
ĠÙħ ÙĬØ¯
ĠØ§ÙĦØ§ÙĨ ØªÙĩØ§Ø¡
ĠØ§ÙĦØµØŃ Ø±Ø§Ø¡
ĠØªÙĤ Ø¨ÙĦ
Øª Ø§Ùħ
ĠÙĬÙĥ ÙģÙĬ
ĠÙĬÙħ ØªÙĦÙĥ
ÙħÙĦ Øª
ĠÙħ ÙĬØ±
ĠØ£ÙħÙĨ ÙĬØ©
ĠØ§ÙĦÙĤÙĬ Ø§ÙħØ©
Ø¨Ø¹ Ø«
ĠØ£ ÙĤØ±
ĠØ³ÙĬ ØªÙĬ
Ø¦ ÙĪÙĨ
ĠØ§ÙĦØµ Ø¯Ø±
ĠØ§ÙĦØ£ØŃ ÙĪØ§ÙĦ
ĠØ§ÙĦÙħØµØ± Ùī
ĠØ§ÙĦØ¹ ÙĬØ¯
Ø±ÙĬ Ø¶Ø©
Ø±ÙĬ Ø·Ø©
ĠÙħÙĪØ§Ø· ÙĨ
ĠØ¯ ÙĤÙĬÙĤ
Ø¹ ÙĪØ§
ÙĪØ§Ø± Ø¯
ĠØ¹ ÙĬ
ĠØ§ÙĦÙĤÙĨ ÙĪØ§Øª
Ø§Ø¬ Ø±ÙĬÙĨ
ĠÙĪØ§ÙĦ Ø¥ÙĨ
ĠØ¨ ÙħØ¯
ØŃ Ø³ÙĨ
ĠØ§ÙĦØŃ Øµ
ÙĪ Ø§Ø¦ÙĬ
ĠØ£ Ø¬Ø²Ø§Ø¡
ĠÙĨ ÙĤØ¯
ĠØª ÙĤØ¯ÙĬØ±
ĠÙħØ´ Ø§ÙĩØ¯
ĠØ¬Ø¯ÙĬØ¯ Ø§
ĠÙĬ Ø¯ÙĬ
ĠØ¨ Ø²
Ø§Ø· ÙĬØ©
Ø¨ ÙĨØ§Ø¡
ÙĪØ£Ø¶Ø§Ùģ Øª
Ġ of
ĠØ² Ø§ÙĦØª
Ø¬ Ø£
ĠØªØ¹ Ø§ÙĪÙĨ
Ġ &
ĠØ§ÙĦÙħØ¨ Ø§Ø¯Ø±Ø©
ĠÙĥ Ø±Ø¯
ĠÙĦ Ø³Ø§ÙĨ
ĠØ§ÙĦÙħØ¯ Ùī
Ø§Ø¤ Ùĩ
ÙĪ ÙĥÙĦ
Ø£ ÙħÙĬÙĨ
ĠØ§ÙĦØ§ÙĦÙĥØªØ± ÙĪÙĨÙĬ
ÙĬØ¬ Ø§Ø¯
Ø±ÙĬØ§Ø¶ Ø©
ĠÙĤ Ø§Ø¯Ø±Ø©
ĠÙĦÙĦ Ø¨Ø±
ĠØªØ£ Ø®Ø°
ÙĬ Ø³Øª
ĠØ§Ø« ÙĨØ§Ø¡
ĠÙĬ Ø´Ø§Ø±Ùĥ
ĠØ§ÙĦÙħØ³ÙĬ ØŃÙĬ
ĠÙĨ ÙĥÙĪÙĨ
ĠØ§ÙĦØ§ÙĨ ØªÙĤØ§ÙĦ
ĠÙħØ³ ÙĬØ±Ø©
Ġ3 6
ĠØ§ÙĦÙħØ¯ÙĨÙĬ ÙĬÙĨ
Ø¨Ø· ÙĪÙĦØ©
ĠØ£ ØµÙĪÙĦ
ÙĬÙģ Ùĩ
ĠØ§ÙĦÙħØ® Ø¯Ø±Ø§Øª
ĠØ®Ø¨Ø± Ø§Ø¡
ĠØ§ÙĦÙħ Ø³ÙĦ
ĠØ§ÙĦØ®Ø· Ø£
ĠÙħØ® Ø§ÙĦÙģ
Ùħ Ø§Øª
ĠÙĪ Ø§Ø¨
Ø± ÙĪØ©
ĠÙĬÙĨØª Ø¸Ø±
Ø¨ÙĬ Ø¦Ø©
ĠØ§ÙĦÙģ ÙĤØ±
ĠØ´ÙĩØ¯ Øª
ĠØ§ÙĦÙħØ¯ Ø±Ø¨
ĠØ§ÙĦØ³Ùģ Ø§Ø±Ø©
ĠØ§ÙĦÙĤ ÙħØ©
ĠØªØ¹ ÙĨÙĬ
Ġ4 8
ĠÙģ ÙĥÙĦ
Ø±ÙĬ Ùĩ
ĠÙĪÙĩ ÙĨØ§
ĠØ§ÙĦÙĦØŃ Ø¸Ø©
ĠØ§ÙĦØ§ÙĨ Øª
ĠØ¥Ø¶Ø§Ùģ ÙĬØ©
Ø° Ø§ÙĨ
ĠØ³ ÙĪØ¯
ĠØ§ÙĦØ³ÙĪØ¯ Ø§ÙĨÙĬØ©
ĠØ§ÙĦÙħØŃØª ÙĦØ©
ĠØ§Ø¶ ØºØ·
ĠØ« ÙħÙĨ
ØªÙĬ Ø´
ĠÙĨ Ø§ØµØ±
ĠÙħØ¹ ÙĩØ¯
ĠØ¯ÙĪØ± Ø§
ĠØ¹ÙĨ ØµØ±
ÙĢ Ø¯
ĠØ§ÙĦØ± Ø¹Ø§ÙĬØ©
!! !
ĠØ§ÙĦ ÙĪØ¹ÙĬ
ĠØ¥ Ø²Ø§ÙĦØ©
ĠÙħØ¶ ÙĬÙģØ§
ĠØ§ÙĦÙħØ³Øª Ø®Ø¯ÙħØ©
ĠØ³ÙĬ Ø§ÙĤ
ĠÙĪ Ø°ÙĥØ±
Ø§ ÙĩÙħØ©
o p
ĠØ¬ Ø±ÙĬÙħØ©
ĠØª ÙģØ¹ÙĬÙĦ
ĠÙĪØ£ÙĨ Øª
ØŃ Ø«
ÙĤÙĦ ÙĤ
ĠØ£ÙĪ Ø¨
ĠÙĬÙĤ Ø§ÙĦ
Øµ ÙĬØ±
ĠÙĤØ§ÙĦ ÙĪØ§
ĠØº Ø°
ĠÙħØ¯ Ø±Ø¨
Ø³Ø¨ Ø§ÙĨÙĬØ§
ĠÙĪÙĨ ØµÙģ
ĠØ§ÙĦØ³ÙĪØ¯ Ø§Ø¡
ĠÙħØŃ ÙĦÙĬØ©
ĠØ§ÙĦÙħØ¬ØªÙħØ¹ Ø§Øª
ĠØ§ÙĦÙĬ ÙĩØ§
ĠØ§ÙĦØŃ Ø¶ÙĪØ±
ĠØ§ÙĦØµÙĨ Ø§Ø¹Ø©
ĠØ¨Ø§ÙĦ Ø§Ø³Øª
ĠØ§ÙĦØ·Ø±Ùģ ÙĬÙĨ
ĠØ§ÙĦØªØ¹ÙĦÙĬÙĤ Ø§Øª
ĠÙĬ Ø·
Ùħ Ø§Ø±Ø³Ø©
ĠØ¬Ø²Ø¡ Ø§
Ø¨ ÙĪØ¨
ĠØ³ ÙĩÙĦ
ÙĦÙĬ ÙħØ©
ĠØ¬ Ø¹
ĠÙĨØ³ Ø§Ø¡
ÙĤÙĬ Ø§Ø³
ĠØ§ÙĦØ§Ø³Øª ÙĤØ±Ø§Ø±
Ùģ Ø§Ø±
ĠØ§ÙĦØ¥ÙĨ Ø¬ÙĦÙĬØ²ÙĬ
ĠØª Ø§Ø¨Ø¹
ĠÙĤ ÙĬØ¯
ĠØ± Øº
ĠØµ Ø¹ÙĪØ¨Ø©
ĠØ³ÙĦ Ø§ØŃ
ĠÙħ Ø·ÙĦØ¹
ĠØ§ÙĦÙħ ÙģØ§ÙĪØ¶Ø§Øª
ĠØ§ÙĦØ§Ø¹ ØªØ¨Ø§Ø±
ĠØ§ÙĦØ¯Ùħ Ø§Øº
ĠØ¨ Ø¬Ø±
ĠØ§ÙĦØ¬ ÙħØ§ÙĩÙĬØ±
Ø§Ø¯Ø« Ø§Øª
Ø£ Ø«Ø±
ĠØ§ÙĦØ³ Ø§ØŃ
ĠØªØª Ø¨Ø¹
ĠØ¨ÙĬ Ø¦Ø©
ĠØ¥ ØµØ§Ø¨Ø©
ĠÙĦ Ø§Ø³
ĠÙĪ Ø¬Ø±
ĠØ³ÙĬØ¯ ÙĨØ§
Ø¦ ÙĪÙĦÙĬØ©
ĠÙĨ Ø§Ùģ
ÙĪÙĩ ÙĬ
ĠØ§ÙĦØ§Ø· ÙģØ§ÙĦ
ĠÙĨÙĪØ¹ ÙĬØ©
ĠØ§ÙĦØ®Ø¨Ø± Ø©
ĠÙħØ§ÙĨ Ø´Ø³ØªØ±
ĠØ§ÙĦÙĨÙĤ Ø§Ø·
ĠØ§ÙĦØ´Ø®Øµ ÙĬØ§Øª
ĠØ§ÙĦÙĥ Ø±Ø¯
Ø· Ø±ÙĬÙĤØ©
ĠÙĬØ³ Ø¹Ùī
ĠØ³ Ø§ÙĩÙħ
ĠØ¹ÙĨ Ø¯ÙĬ
Ø®Øµ Ø©
Ùħ Ø¬Ø©
ĠØ§ÙĦØ³ Ø§ØŃØ©
ÙĪØ¶ Ùī
ĠØ±ØŃ ÙħØ©
ĠØ§ÙĦØ¹ ÙĪØ§ÙħÙĦ
ĠÙĬ Ø¹ÙĦÙĨ
Ø§ÙĦ ØªØ¹
Ø§Ùħ ÙĨØ©
ĠÙħØ± Ø§ÙĤØ¨Ø©
Ø«ÙĦØ§Ø« Ø©
ïº į
ĠÙģØ¥ÙĨ ÙĩØ§
ĠÙĬ Ø±Ø¯
ĠÙĪÙĤ Ø¨ÙĦ
e b
ĠØª Ø®ØµØµ
ÙĪØ¹ Ø§Øª
ĠØŃØ¯ÙĬØ« Ø©
ĠØ§ÙĦØ¬Ø²Ø§Ø¦Ø± ÙĬØ©
Ø¯ÙĬ Ø§ÙĨ
Ġ4 5
ĠØ§ÙĦÙħ ÙĬØ²
ĠØ§ÙĦØµ ÙĪÙħ
Ġ3 2
Ùĥ ÙĦÙĬ
ĠÙĦ ØªÙħ
ï» ¤
ĠØ§ÙĦØŃ ÙĪ
ĠØ§ÙĦØ±ÙĤÙħ ÙĬØ©
o v
ĠÙĪÙĥ Ø°Ø§
ĠØ§ÙĦØ³Ø§Ø¯ Ø³Ø©
ĠØ§ÙĦØ®Ø¨Ø± Ø§Ø¡
ĠØ§ÙĦÙĪ Ø§Ø¬
ÙĪÙĤ Ø¹Ø©
ØŁØŁ ØŁ
Ø³Øª ÙĪØ±
ĠØ§ÙĦÙħØŃ Ø±
ĠÙĪ Ø§Ø¨ÙĨ
Ø§Ø¦ ÙģØ©
ĠÙĬØªÙħ ØªØ¹
ĠÙħ Ø°Ùĩ
ØµØŃ ÙĬÙģØ©
ÙĪÙģ ÙĤØ§
ÙĬØ¨ ÙĬØ¯ÙĬØ§
ĠØ§ÙĦÙĤ Ø§Ø¦Ø¯
ĠØ¨Ø¯ ÙĦ
ĠØ§ÙĦÙħÙĪØ³ ÙĪØ¹Ø©
ÙĪØ¶ ÙĪØŃ
ĠØ§ÙĦØ® ÙĪÙģ
ĠØ¢ ÙħÙĨ
Ø³ Ùģ
Ġ http
Ø§ÙĤ Ø¶
ĠÙĩ ÙħØ§
ĠØªÙħ ÙĪÙĬÙĦ
ĠØ§ÙĦÙħÙĨ ÙĪØ±Ø©
ĠØª Ø¨ÙĬÙĨ
ØŃÙĬ Ø¨
ĠÙĦÙĦØ¯ ÙĪÙĦØ©
Ø¨ ÙĪØ·
ĠØ§ØŃ ØªØ±Ø§Ùħ
ĠØ§ÙĦØŃØ± ÙĬØ±ÙĬ
ĠH D
ĠØ§ÙĦØ£ ÙħÙĦ
Ø¹Ø¯ Ø§Ø¯Ø§Øª
ĠØ§ÙĦÙħ Ø¹Ùħ
ĠÙĩ Ø´
ĠÙĬØª ÙĨ
ĠÙĪ Ø¨Ø¯Ø£
ĠÙĬÙĦ Ø¹Ø¨
Ø¹ ÙĨØ¯
ĠÙħØ¨ Ø§Ø¯Ø±Ø©
ĠÙĨ Ø±ÙĬØ¯
Ġ h
ĠS t
ÙĬÙĪ Ø®
ÙĦÙħ Ùĩ
ĠØ§ÙĦÙĪ Ø§Ø¶
ĠØ¢ ÙĬØ©
ĠØ§ÙĦÙħÙĪ ØµÙĦ
ĠØ§Øª Ø®Ø°
ÙĨØ¯ Ø³Ø©
ĠØ· ÙĦ
ĠÙĦ ÙĬÙĦ
201 6
Ùģ Ø´
Ø§Øª ÙĨØ§
ĠØ§ÙĦØªØ¹ ÙĦÙħ
ĠØ®Ø· ÙĬØ±Ø©
ĠØ§ÙĦØ¨ ÙĪ
ĠÙħØ³ Ø¬Ø¯
Ġ: -
ĠÙĪØ£ Ø¯
ĠØ§ÙĦØ³Ø± Ø·Ø§ÙĨ
ĠØ§ÙĦØªØ¹ Ø±Ùģ
ĠØ§ÙĦØ§Ø± Ø¨Ø¹
ĠÙĦØŃ ÙĦ
ĠØ£ÙĤ ÙĪÙī
ĠÙĬ Ø¬ÙħØ¹
Ġ =
ĠÙģ Ø®
Ø¯Ø± Ø§ÙĨ
ĠØª ÙĪØ±
ÙĬÙħ Ø§Øª
ĠØ³ ÙĨØª
ĠÙĥ Ø¨Ø±Ùī
ĠØ§ÙĦÙħØ± Ø§Ùĩ
Ø§ÙĦ Ø§ÙĨ
ĠØ§ÙĦØª Ø±Ø¬
ĠØ¨ØµÙģ Ø©
ĠØ§Ø¹ ÙħØ§ÙĦ
ĠØ§ÙĦØ±ØŃ ÙĬÙħ
ĠØ¥ÙĦ ØºØ§Ø¡
ĠØ§ÙĦÙħÙĨ Ø§Ø²ÙĦ
ĠØ§ÙĦØ§Ø® Ø±Ùī
Ø±ÙĬ Ø´
ĠÙĪ Ø§Ø¯
ĠØ³ ØŃØ¨
ĠØ§Ø³Øª ÙĤØ¨Ø§ÙĦ
Ø¬Ùĩ Ø©
Ø§Ø® Ø¨Ø§Ø±
Ø¬ Ø§Ùħ
ĠÙĦØ£ ØŃØ¯
ĠØ§ÙĦÙĤ ÙĪÙħÙĬØ©
Ø¹ÙĦ Ø§ÙĤØ§Øª
ĠØ£ ÙĤØ¯Ùħ
Ø§Ø§Ø§Ø§ Ø§Ø§Ø§Ø§
ĠØ± Ø¨Ø·
ÙģØª Ø§ØŃ
ĠØ§ÙĦØ´ Ùģ
Ø±Ø¨ ÙĪÙĦ
ĠØ£ Ø³ÙĦÙĪØ¨
ĠØ§ÙĦØªÙĨÙģÙĬØ° ÙĬØ©
ĠÙģ Ø§Ø²
ĠÙħØ³ Ø§Ø±
ĠÙĨØ¸ ÙĬÙģØ©
ÙĪØ¹ Ø§
ĠØ§ÙĦØ¹ Ø«Ùħ
Ùĩ ÙĪØ±ÙĬ
ĠÙħÙĥØª Ø¨Ø©
ĠØ§ÙĦØ¬Ùħ Ø§ÙĦ
ĠØ§ÙĦØ± Ø¤ÙĬØ©
ĠØ§ÙĦÙĦ Ø¬ÙĪØ¡
ĠÙĦÙĦÙħ Ø¹
ĠÙĦØª Ø·ÙĪÙĬØ±
ĠÙĪ Ø¬ÙħÙĬØ¹
ĠØ§ÙĦØµ Ø¹ÙĬØ¯
ĠØ® Ø§Ø¯Ùħ
Ø±Ùĥ Ùħ
Ø§Ø´ÙĤ Ø¬ÙĬ
ĠÙĤÙĨ ÙĪØ§Øª
ĠØªØ£ ÙĥÙĬØ¯
ĠØ¨Ø§Ø³ ØªÙħØ±Ø§Ø±
ĠØ®Ø· Ø·
ĠÙĪØ§ÙĦ Ø«ÙĤ
ĠØ§Ø® ÙĬ
ĠØ§ÙĦÙĪÙģ Ø¯
ĠÙĤ ÙĬÙĦ
ĠØ¥ Ø´Ø§Ø±Ø©
ĠØ¨Øª Ø´
ĠÙĬØ¹ Ø±Ø¶
ĠØ§ÙĦØªÙĬ Ø§Ø±
âĢ¦ ]
ĠØ´Ø¹Ø¨ ÙĬØ©
ĠØ§ÙĦØ§ÙĨ Ùģ
ĠØªÙĥ Ø´Ùģ
ĠØ§ÙĦØ· ÙĬØ¨
Ø¸ Ùī
Ø· ÙĬÙĥ
ĠØ§ÙĦØ¹Ø¯ ÙĪØ§ÙĨ
ĠØ§ÙĦØ¥Ùģ Ø·Ø§Ø±
ĠØ§ÙĦØ´Ùĩ ÙĬØ¯
ĠÙĬØ¹ Ø§ÙĨÙĪÙĨ
ĠÙĦÙĦ ØªØµ
Ø´ ØŃÙĬÙĨ
ĠØ§ØŃ ØªÙĬØ§Ø¬Ø§Øª
ĠÙĤ Ø¶Ø§Ø¡
ØŃÙĤ ÙĤ
ĠØ¨ÙĨ Ø¸Ø§Ùħ
ĠØ§ÙĨ ØªØ®
ĠØ¨Ø® ÙĬØ±
ĠÙħØŃ Ø±Ùĥ
ĠØ§ÙĦÙĬØ§Ø¨ Ø§ÙĨ
ĠÙĪØ§ÙĦ Ø¶
ĠØª Ø§Ø¨Ø¹Ø©
Ø§Ø¡ Ø©
ÙĤÙĬ Ø§Ø¯Ø©
ĠØµØ¯ ÙĪØ±
ĠÙĪØ§ÙĦ Ø¨ØŃ
ĠÙħÙĨ ØµØ©
Ùħ ÙĪÙĤØ¹
ĠÙĥ Ø³Ø§Ø±Ø©
ĠØ§ÙĦØ« Ø¯ÙĬ
Ø¨ Ø¹Ø¶
ĠÙĪØ¬ Ø¨Ø©
ĠÙħØ· Ø¹Ùħ
Ġ, ,
ĠØ§ÙĦÙħØ´ ÙĩØ¯
ĠÙħÙĨ Ø§Ø²ÙĦ
ĠØ§ÙĦÙħÙĩ Ø¯ÙĬ
ĠÙĤØµ Øµ
ĠØ§ÙĦØ®Ø± Ø·ÙĪÙħ
ÙĪØ¹ ÙĨ
Ø§ ÙĪÙģ
ĠØ§ÙĦØªÙĨ Ø¸ÙĬÙģ
ĠØ§Ø³Øª ØºÙĦØ§ÙĦ
ĠÙħÙĨ Ø³
ĠÙħÙĪØ¸ ÙģÙĬ
ĠØ§ÙĦØ¹Ø¶ ÙĪ
ĠÙĬØ´ ÙĬØ±
Ø¤ Ø¯ÙĬ
ĠØº Ø¯
ĠÙĪÙĥ ÙħØ§
i z
ĠØ§ÙĦØ¥ÙĤ Ø§ÙħØ©
Ø§ÙĦ Ø¨Ø©
ĠØ§ÙĦØ´Ùĩ ÙĬØ±
ĠØŃ Ø±Ùģ
ĠÙĪØ§ÙĦ Ø¨ØŃØ«
ĠØ´ Ø±Ùģ
ÙĬ ØªÙħ
Ùĩ Ø§Ø¡
er s
ĠÙĦØª ÙĤ
ĠØ¹ ÙĬØ³Ùī
ÙĪ Ø§Ø³Øª
Øµ Ø§Ø¨Ø§Øª
ĠØ£ ØµØ¯ÙĤ
ĠØ§ÙĦØ¬ ÙĪÙĬ
Ø£ Ø±
ĠØ§ÙĦØ³ÙĦ Ø¹
ĠÙĬ Ø®ØªÙĦÙģ
ĠØ§ÙĦÙĨ Ùħ
ĠØ§ÙĦØªÙħ ÙĪÙĬÙĦ
ĠØ§ÙĦØ³ ÙĦÙħ
ĠØ§ÙĦÙĩÙĨØ¯ Ø³Ø©
ÙĪØª ÙĪ
ĠØ§ÙĦÙħÙĨ Ø§Ø®
ĠÙħ ØºÙĦ
ĠÙĪÙĤ ÙĪØ¹
ĠØ§ÙĦØ§ØŃ ØªØ¬
ĠÙĦ Ø¬Ùħ
ĠØ³Ùħ Ø¹Øª
ĠØ¹ Ø¸ÙĬÙħ
ØŃ ÙĥØ§Ùħ
ĠØ·Ø¨ Ø¹Ø§
ĠØ§ÙĦØ· Ø§Ø¦Ø±Ø§Øª
ĠØ¨ Ø²ÙĬØ§Ø±Ø©
ÙĪÙĬ ØªÙĬ
ĠØ¬ ÙħÙĦØ©
ĠØ§ÙĨ ÙĬ
ĠØ§ÙĦØ® ÙĬØ§Ø±
ĠØ° Ø§ØªÙĩØ§
ĠØ§ÙĦØ£Ø® Ø¶Ø±
ĠÙħØ± Ùĩ
ĠØ§Ø¨Ø± Ø§ÙĩÙĬÙħ
ĠØ§ÙĦØŃ ÙħØ±Ø§Ø¡
ĠÙĦÙĦ ÙħØ¯
ĠØ¥ÙĬØ¬ Ø§Ø¯
ĠØ£ÙĨ Ø¸ÙħØ©
ĠØ§ÙĦÙĪÙĦ Ø§Ø¯Ø©
ĠØ§Ø¬ ÙħÙĦ
ĠØ« Ø§ÙĨ
ĠØ§ÙĦÙĥØ± Ø§Ùħ
ÙĪ Ø§Ø¦ÙĦ
ĠØ£Ùĥ Ø¯Øª
ĠØ§ÙĤ ØªØµØ§Ø¯ÙĬØ©
Ø´ÙĬ Ø·
Øª Ø¯ÙĬ
Ø§Ø· ÙħØ©
ÙĦ Ø³
ĠÙĪØ· ÙĨÙĬØ©
ÙĪÙĬ Ùģ
ĠØ³ Ø§Ø¨ÙĤØ©
ĠØ§ÙĦØŃ Ø§Ø¬
ĠÙģ Ø¬
ĠØ§ÙĦØ³Ø± Ø¹Ø©
ÙĦÙĬ ÙĩØ§
ĠÙĨ Ø±
ĠØ§ÙĦØª ÙĨØ³ÙĬÙĤ
Ø¤ ÙħÙĨ
ĠØ¨ Ø§ÙĤ
Ø¦ Ø§Ø¨
ĠØ§ÙĦØ´ ÙĩØ¯Ø§Ø¡
ĠØ§Ùħ ØªØ¯
ĠØ§ÙĦÙģ Ø¦Ø©
ĠÙĦÙħ Ø¬ÙĦØ³
ĠØª Ø¨Ø±
Ø§Ø² Ø§Øª
ĠØ§ÙĦØ± Ø¦Ø§Ø³Ø©
ĠØ§ÙĦØ®Ø· ÙĪØ·
ĠÙĥ Ø³
ĠØ§ÙĨØªÙĩ Ùī
Ø¹ ÙĤØ©
ĠØ§ÙĦØŃÙĦ ÙĪÙĦ
ĠØ£Ùģ ÙĦØ§Ùħ
ÙĦÙģ Øª
ĠØ¹Ø¯ ÙĦ
ĠØ¨ÙĨÙģØ³ Ùĩ
ĠÙĬØ¯ Ø¹Ùħ
ĠØ§ÙĦÙĤØ± ÙĬØ©
ÙĪØ¬ Ø§Ø¡
ĠØ§ÙĦÙħ Ø®Øª
Ø§Ø´ ÙĬ
Ø§ÙĦØ¹ Ø§Ø¨
Ø¨ Ø§ÙĦÙģ
ĠØ§ÙĦØ¥ Ø®
ĠÙĤ Ø±ÙĬØ¨Ø©
ĠØ¬ ÙĨØ³
Ø§Øª Ùħ
ĠÙĤØ¯Ùħ Øª
ĠâĢ İ
ĠØµ ÙĬØ§ÙĨØ©
ĠØ¨Ø´ Ø¯Ø©
ĠÙħØ± ØªÙĬÙĨ
ÙĤØ± Ø¢ÙĨ
ĠØ¹ ÙĪØ¯
ĠØ§ÙĦÙħØŃØ§ÙģØ¸ Ø§Øª
ĠØ§ÙĦØµØŃÙĬ ØŃØ©
ĠØ§ÙĦØ¥Ø¯ Ø§Ø±ÙĬ
ĠØ¨Ø¯ Ø¹Ùħ
ĠØ´ Ø¯ÙĬØ¯Ø©
Ø¬Ø§Ø² Ø§Øª
ïºİ ï»
ĠØ£ ÙĦØ¹Ø§Ø¨
ĠØ§ÙĦØ¯ Ø§Ø±
ĠÙĪ Ø¹Ùħ
ĠÙĪÙĬÙĥ ÙĬØ¨ÙĬØ¯ÙĬØ§
Ø¯ÙĬ Ø§ÙĦ
ĠØ§ÙĦÙĨ Ø´Ø±
ĠÙĪØ¢ Ø®Ø±
ĠØ¶ Ùħ
ĠØ±ÙĬ Ø§Ø¶
ĠØ§ÙĦÙħØ´ Ø§ÙĩØ¯
.. ...
ØŃ Ø§ÙĨ
ĠØ§ÙĦÙħÙĨØ§Ùģ Ø³Ø©
Ø² Øª
ĠØ¨Ø§Øª Ø¬Ø§Ùĩ
Ø§ ÙĬÙĨ
ĠØ¢ Ø¯Ùħ
Ø§ÙĦ ÙĬØ¯
ĠØ§ÙĦÙĪÙĥ Ø§ÙĦØ©
Ġ) .
ÙĥØª Ø´Ø§Ùģ
ĠÙĬØªÙħ ÙĥÙĨ
ÙĪØ§Ø± Ø¦
ĠØ§ÙĦ Ø§Ùĩ
ĠÙħ ÙĪØ¯
Ø§ÙĬØª Ø¯
Ø¯Ø¯ Øª
ĠÙĪØ¬ Ø§Ø¡
ĠØ§ÙĦÙĦÙĬ Ø¨ÙĬ
ĠØ£Ø³ Ø§Ø¨ÙĬØ¹
ĠÙĬÙĪÙħ ÙĬÙĨ
ĠØ§ÙĦÙħÙħ ØªØ§Ø²
Ø« Ùī
ĠØ·Ø¨ÙĬ Ø¨
Ø¸ Ø§ÙĩØ±Ø©
ÙĨ ÙĪØ¨
ÙĪÙħ Ø¹
ĠÙĥ ÙĪØ±
ÙĢÙĢ Øª
Ø®Ø· ÙĪØ·
ĠØ§ÙĦØ§Ùħ Ø§Ùħ
7 0
ĠØ³ ÙĬØ³
ĠØ§ÙĦØ¥ÙĬØ· Ø§ÙĦÙĬ
ĠÙĦ ÙĬØ¹
ĠØ§ÙĦÙĪØŃ ÙĬØ¯Ø©
ĠØ§ÙĦØ« Ø§ÙħÙĨ
ĠÙģ ØŃØ³Ø¨
ĠØªØ£ ÙħÙĬÙĨ
ĠØŃØ³ Ø§Ø¨Ø§Øª
Ø§Ø± Ø¯Ø©
ÙĬÙħÙĤØ±Ø§Ø· ÙĬØ©
ĠØ§ÙĦØµ Ø±Ùģ
ĠØ§ÙĦÙħ Ø¬ÙħÙĪØ¹Ø§Øª
ĠØ§ÙĦ Ø§ÙĦ
ĠØ® ÙģØ¶
ĠØ¹ ÙĦØ§ÙħØ§Øª
ĠØ§ÙĤ Øª
ĠÙħÙħ Ø§Ø±
ĠØ¨Ø¯ ÙĤØ©
ĠØ§ÙĦÙĨ Ø¬
ĠÙĩÙĪ Ø§ØªÙģ
ĠØªØ¯ Ø¹Ùħ
ĠØ± ÙĤ
ĠØŃ ÙĤÙĬÙĤÙĬ
ĠÙħÙĨ Ø®ÙģØ¶
Ġ[ âĢ¦]
ĠØ§ÙĦÙħØª Ø§ØŃØ©
ĠØ³Ø¨ Ø¹Ø©
ĠØ§ÙĦØ£ ÙĦØ¨
o d
ÙĨÙĬ ÙĩØ§
ĠØ§ÙĦØªØµ ÙĪÙĬØ±
ĠØ£ ÙĬØ¯ÙĬ
âĢ¬ âĢ¬
ĠØ¨Ùħ Ø´Ø§Ø±ÙĥØ©
ØªØŃ Ø§Ø¯
ĠØ§ÙĨØª Ø¸Ø§Ø±
ĠØ¨ Ø§Ø±Ùĥ
ĠØª Ø±Ø¨
ĠØ¨Ø§ÙĦ ØªØŃ
ĠØ· Ø¨ÙĬØ©
ÙĬ Ø¦Ø©
ĠÙĬØª Ø¶ÙħÙĨ
ĠØ¨Ø¥ Ø°ÙĨ
ĠØ§ÙĦØ§Ùħ Ø±ÙĬÙĥÙĬØ©
ĠÙĪ Ø³Ùħ
ĠÙħÙĤØ¯ ÙħØ©
ĠØ¹ Ø§Ø¬
ĠØ¨ ØºÙĬØ±
Ø¢ ÙĦ
ĠØ§ÙĨ ÙĩÙħ
ĠÙĪØ± ÙĤØ©
ĠÙĤ ÙĦÙĤ
ĠØ§ÙĦØ¨ ÙĪÙĦ
ÙģØ§Ø¹ ÙĦ
Ø¨ Ø¹Ø©
ĠÙĨØ¸ Ø±Ø©
ĠÙĪØªØŃ ÙĤÙĬÙĤ
ĠØ¥Ø° ÙĨ
ĠØ§ÙĦØ¨ Ø´Ø±ÙĬ
ĠØ§ÙĦØ§ÙĨØªØ® Ø§Ø¨ÙĬØ©
ĠÙħÙĨ Ùģ
ĠÙĨ Ø®
ÙĥØ± ÙĪÙĨ
ĠØ¬ ÙĩØ¯
ÙĪ Ø§ÙĦÙĬ
ĠØ§ÙĦØ² ÙħØ§ÙĨ
Ø§Ø¦ ÙĥØ©
ĠØ§ÙĦØ° Ø§ÙĥØ±Ø©
ĠØ§ÙĦØ¥ÙĨØ³ Ø§ÙĨÙĬ
ĠÙģÙĬ ØµÙĦ
ĠÙĪØ¨Ø± Ùĥ
Ø¹ ÙĪØ¨Ø§Øª
ĠØ§ÙĦØªØµ ÙĪÙĬØª
ĠØ§ÙĦØ£Ø±Ø¯ ÙĨÙĬØ©
ĠØ§ÙĦÙħ ÙĪØ¬
Ø§ÙĦÙħ Ø´Ø§Ø±ÙĥØ©
o c
ÙĪØª ÙĩØ§
ĠØ§ÙĦØº Ø±
ĠÙĦØ§ØŃ ÙĤØ§
ĠØ§ÙĦÙĦÙĬ ÙĦØ©
ĠØ§ÙĦÙħÙĪØ³ ÙĬÙĤÙī
ĠÙħØ´ Ø§Ø¹Ø±
ĠØ§ÙĦØ¨ ÙĤØ§Ø¡
ĠØ¯Ø± Ø§Ø³Øª
ĠØª ÙĥÙĨÙĪÙĦÙĪØ¬ÙĬØ§
â Ĺ
ĠØ±Ø³ ÙĪÙħ
ĠÙĪØ¨ ÙĨØ§Ø¡
ĠÙĪØ®ØµÙĪØµ Ø§
ĠØ§ÙĦØ¹ Ø§Ø¯ÙĬØ©
ĠÙģÙĤØ¯ Ø§ÙĨ
ĠÙĬØª Ø±Ùĥ
ÙĪÙħ ÙĬÙĨ
Ø§Ùĩ Ø©
ĠØ§Ø¹ Ø±Ùģ
ĠØ± Ø¨Ø¹
ĠØª ÙĪØ§Ø¬Ø¯
ĠÙĦØŃ Ùħ
ÙĦÙĦ Ø¨ÙĬØ¹
ĠÙĦÙĦÙħØ± Ø£Ø©
ÙħÙĨ ÙĬ
ĠØ£ÙĨ Ø´Ø·Ø©
ĠÙģ ÙĥÙĬÙģ
ĠØ§ÙĦØ¸ ÙĩØ±
ĠØ§ ï»
ĠØ§ÙĦÙħØµ Ø§ÙĦØŃ
ĠØ² ÙĪØ§Ø¬
Ø®Ø¨Ø§Ø± ÙĬØ©
ĠØ§ÙĦØ¬ÙĨ ÙĪØ¨ÙĬ
ĠØ§ÙĦÙħØ¹ ÙĦÙħ
ĠØ§ÙĦÙħ Ø¬Ø±
ĠØ¬ ÙĪØ±Ø¬
ĠØ§ÙĦÙħØª Ø®ØµØµØ©
ĠØ§ÙĦØ¹ ÙĨØ§ÙĬØ©
ĠØ§ÙĦÙħ Ø§Ø¦Ø©
Ø· Ø±ÙĤ
ØºØ§ÙĨ Ø³ØªØ§ÙĨ
ĠØ¨Ø§ÙĦØ± ØºÙħ
ĠÙĩÙĨ Ø§ÙĦÙĥ
ĠÙħØ¹ Ø±Ùģ
ÙĪØ§Ø· ÙĨÙĬÙĨ
ĠØ´ ÙħØ³
ĠÙĬÙħÙĥÙĨ ÙĨØ§
ĠØ®Ø· ÙĪØ·
ĠØµÙģ ØŃØ§Øª
Ø·ÙĦ ØŃ
ĠÙħØª Ø¬Ø±
ĠØ¨Ø§ÙĦ Ùĩ
ĠÙħØ¬ÙħÙĪØ¹ Ø§Øª
ĠØ§ÙĦÙħÙĤ Ø§Ø¨ÙĦ
ĠØ§ÙĦØ§Ø³ Ø¨ÙĪØ¹
ĠØ§ÙĦØ² Ø¨
ĠÙĬØµ Ø¯Ø±
ĠÙĬØ´ ÙħÙĦ
ĠØ§ÙĦØŃ Ø¨ÙĬØ¨
ĠÙĦ Ø³Øª
ĠÙĦÙĦ Ø§Ø³
ĠÙħØ¤ ÙĤØª
Ø±Ø§ØªÙĬØ¬ ÙĬ
ĠØ£ÙĬ ÙĩØ§
ĠØ§ÙĦÙĨ ØµÙģ
ĠØªØ¨ Ø§Ø¯ÙĦ
ĠØ§ÙĦØ¯ Ø§Ø¦Ùħ
ĠÙĦÙĦ Ø²
ĠØ§ÙĦÙħ ÙĩØ±Ø¬Ø§ÙĨ
ĠÙģÙĨ ØŃÙĨ
Ø§Ø¦ ÙĤØ©
ĠØ§ÙĨØªÙĩ Øª
Ø§ÙħÙĦ ÙĬÙĨ
ĠØªØª ØŃØ¯Ø«
ĠØ§ÙĦØ§Ø¹ ØªÙħØ§Ø¯
ĠØ§ÙĦÙħØ¹ ÙĨÙī
ĠØ¯ ÙĪÙħØ§
ÙĥØª ÙĪØ±Ø©
ÙĨ Ø§Ø¹
Ø¯ Ø§Ùħ
ĠØ§ÙĦÙħÙĬÙĦ Ø§Ø¯
ĠA n
ĠÙĬÙĪÙĨ Ø§ÙĬØªØ¯
ĠØ± ØºØ¨Ø©
ĠØ§ÙĦÙħÙĤØ¯ Ø³
ĠÙĦÙħ ÙĪÙĤØ¹
ĠØ§ÙĦØ§ÙĦÙĥØªØ± ÙĪÙĨÙĬØ©
ĠØªÙħ ØªÙĦÙĥ
ĠÙħÙģØª ÙĪØŃ
Ø§Ø¤ ÙĩØ§
ĠØ§ÙĦØ´ÙĬ Ø¹Ø©
ĠÙĪØ§ÙĦ Ø§Ø®
ĠÙĩ Ø§ÙħØ©
ĠÙĪØ² ÙĬØ§Ø¯Ø©
ĠØ±Ø¦ÙĬØ³ Ø§
ĠØ£ Ø¹ØªÙĤØ¯
ĠØ£ÙĤ ØµÙī
ĠØ§ÙĦØ¬ ØºØ±
ĠÙħ Ø¨Ø¯Ø£
ĠØ§ÙĦÙģ Ø§Ø¦Ø¯Ø©
Ø· ÙĨØ©
ĠØ§ÙĦÙħØ¤ ÙĦÙģ
ĠØ£Ø³ ÙĩÙħ
ĠÙĪÙĤ Ø§Ùħ
ĠØ¥ÙĦÙĬ ÙĩÙħ
ÙĪÙĦÙĪØ¬ ÙĬØ©
ĠØ§ÙĦØ³ ÙħÙĪ
ĠØ§ÙĦÙħØ¹Ø¯ Ø§Øª
Ġ Ùĭ
ĠØ³ Ø§ÙĦÙħ
ĠÙĨØª ÙĨÙĬØ§ÙĩÙĪ
ĠÙĦÙĦØªÙĨ ÙħÙĬØ©
ĠØ§ÙĦØŃØ³ Ø§Ø¨
ĠØ§ÙĨØª ÙĤ
ĠØ¹ Ø§ÙĦ
ĠØ§ÙĦØ¨ÙĦ Ø¯ÙĬØ©
ĠÙħØ¨ ÙĨÙī
ĠØ§ÙĦØµ Ø§Ø¯Ø±Ø©
ĠØº Ø±ÙĬØ¨
ĠØ§ÙĦÙħØ®ØªØµ Ø©
ĠØ°ÙĥØ± Ùī
ĠÙĨ ÙĩØ±
ĠØ§ÙĦ ÙĪØ¬ÙĪØ¯
ØŃØª ÙĪÙĬ
ĠØ£ØŃ Ø³ÙĨ
ĠØ£ Ø³Ùħ
ĠØ§ÙĦØ¥ÙĤÙĦÙĬÙħ ÙĬØ©
Ġ w
ĠØ§ÙĦØªÙĤ Ø§Ø±ÙĬØ±
ĠÙĪØª ÙĥÙĪÙĨ
ĠÙģ ØŃØµ
ĠØ§ÙĦØµ ÙĨØ¯ÙĪÙĤ
ĠØ± ØµØ¯
ĠØ§ÙĦØŃÙĬÙĪ ÙĬØ©
ĠØ£ ÙĪØ¶ØŃ
ĠÙĦÙħÙĨ Ø¹
ĠØ§ÙĦÙħØ¹Ø§Ø± Ø¶
Ø±Ø¨ ÙĪÙĨ
ĠØ§ÙĦØ²ÙĬØª ÙĪÙĨ
ĠØ§ÙĦØ¬Ùħ Ø§Ø¹Ø§Øª
Ø§Øµ Ø¨
ĠØ§ÙĦØ£Ø¯ Ø¨
ĠØ§ÙĦÙĥ Ø«
ĠØ§ÙĦÙħØ°Ùĥ ÙĪØ±Ø©
Ø®Ø¨Ø§Ø± Ø§Øª
Ø± Ø§ÙĨ
ÙĥÙĦ ÙĬØ©
ÙĪØ¯ Ø§ÙĨ
ĠØ§ÙĦ Ø§Ø¦
ĠØ§ÙĦØŃÙĥ ÙĪÙħÙĬ
Ùħ ÙĪÙĨ
Ø§ÙĦ Ø³ÙĬ
Ø¨Ø§Ø± Ø§Ø©
Ø° ÙĬØ±
Ø§Øª Ø°Ø©
ĠÙĪØŃØ¯ Ø§Øª
ĠØ¨Ø¹ ÙĬÙĨ
ÙĬØ± Ø§Ø¯
ĠØ£ÙĤ ÙĬÙħ
ĠØ§ÙĦÙģÙĨØ§ÙĨ Ø©
ĠØ¯ ÙĬØ±
ĠØªØ¯ ÙģØ¹
ĠØ§ÙĦÙģÙĨ Ø§Ø¯ÙĤ
ĠÙĨ ÙĬØ³Ø§ÙĨ
ĠØ§ÙĦØ§Ø¹ Ø¶Ø§Ø¡
ĠÙħØµ Ø±ÙĬ
ĠØ¥ Ø¬
ĠÙħØ¬ Ø¯Ø¯Ø§
ĠØ§ÙĦØª Ø·ÙĪØ±
ĠÙħØ¯ Ø§Ø±Ø³
ĠØ¨ ÙħÙĦ
ØŃØ± ÙĬØ©
ĠØ§ÙĦØ¹Ø± ÙĪØ¶
ĠÙĪØ§ÙĦÙħ Ø¬ØªÙħØ¹
ØŃ Ùģ
ĠØªØ¬ ÙĨØ¨
Ùħ Ø§Ø±Ø§Øª
ĠØ§ÙĦØ¨Ø¯ Ø¡
ĠÙĦÙĦ Ø§ØŃ
Ġ" .
ĠØŃÙĬÙĨ ÙĩØ§
ĠØ§ÙĦÙĤØª Ø§ÙĦ
ĠØ£Ø¹ Ø·
ĠØ§ÙĦØ´ Ùĥ
Ø§Ø¬Ùĩ Ø²Ø©
Ø¤ ÙĪÙĦØ©
Ø¬Ø² Ø§Ø¦Ø±
ĠÙĪÙĨ ÙĤÙĦ
ĠØ£Ø³ Ø¦ÙĦØ©
ĠØŃØ² ÙĬØ±Ø§ÙĨ
ĠØĮ ØĮ
ĠØ§ÙĦØ³ Ø§Ø¨Ø¹Ø©
Ø´ Øª
ĠØ´ ÙĩÙĪØ±
ĠÙĥ Ø§Ø¨
ï» ²
ÙĤØ§ ÙĪÙħØ©
ĠØ£Ø¹ Ø¸Ùħ
ĠØ« ÙĤØ©
ĠØ£ÙĨ ÙĬ
ĠØ´ Ø±ÙĬÙĥ
ĠØ¯Ø§ ÙĪØ¯
ĠØ³Ø§Ùħ Ø³ÙĪÙĨØ¬
ĠÙĥÙĬÙĦ ÙĪÙħ
ĠÙĪØ³ Ø±
ĠØ® Ø§Ø´ÙĤØ¬ÙĬ
ĠØ§ÙĦØºØ° Ø§Ø¡
ĠÙĪ Ø±ÙģØ¹
ĠÙĦ Ø§Ùħ
ĠÙĦÙĦ Ø§
ĠØ§ÙĦØ£ÙħÙĨ ÙĬ
ĠØ§ÙĦØ§ÙĤ ØªØ±
Ġïºį ï»Łï»
ĠØ§ÙĦØªØŃ ØªÙĬØ©
ĠØ§ÙĦÙĨÙĩ Ø§Ø±
ĠØ£Ø± Ø§Ø¶ÙĬ
ĠØ§ÙĦÙģÙĥØ± ÙĬØ©
ĠØ³ ØªØŃ
ĠØ§ÙĦØ£ÙĦ ÙĪØ§ÙĨ
ĠØ³ ØªÙĬ
ĠØ§ÙĦÙħ Ø·Ø§Ø±
Øº ÙĦØ¨
ĠØ§ÙĦØ¬ Ø¨ÙĩØ©
ĠÙĪØºÙĬØ± ÙĩÙħ
Ø§Ø± ØªÙĩØ§
ĠØ§ÙĦØ³ÙĬÙĨ Ùħ
ĠØ§ÙĦØ¹ ÙĦØ§ÙħØ©
Ġ ÙĢÙĢ
ĠØ§Ø³ Ø±
ĠÙĬØª Ø¬Ø§ÙĪØ²
Ø¨Ø§ÙĦ ØµÙĪØ±
ĠÙĨ Ø¶
ĠÙĪØ³ ÙĨ
ØªÙħ Ø±Ø§Øª
ĠÙĦØ¥ Ø¹Ø§Ø¯Ø©
Ø§ÙĦÙħ Ø³
ĠØ§ØŃ ØªÙĬ
ĠØ§ÙĦØª ÙħØ±
Ø§ ÙĬÙĬÙĨ
ĠØ§ÙĦÙħÙĪ Ø§ÙĤÙģ
Ø§Ùģ Øª
ĠØ® ÙĬ
ØªÙģ ÙĦ
Ø§Ø± ÙĬØ§
ØªØ§Ø¨ Ø¹
ĠØªØ¬ Ø¯ÙĬØ¯
ĠØ§ÙĦÙĪØ§ØŃ Ø¯Ø©
ĠÙĪÙĥÙĬÙģ ÙĬØ©
ĠØ§ÙĦØ¯Ùħ ÙĪÙĬØ©
ĠÙĪØ§ÙĦØª Ø¬
Øª Ø§ØŃ
Ø³ ÙĪÙħ
Ø±ÙĬØŃ Ø§Øª
Ùħ Ø¨
ĠÙĬÙĤ ÙĪØ¯
Ø¶Ø§Ø¡ Ø©
ĠØ§ÙĦØ§Ø³Øª Ø§Ø°
ØªÙĤ Ø§Ø¯
ĠÙĪØ§ÙĦ Ø§
ĠØªØªÙħ ÙĬØ²
ØªØ¬ Ø§Øª
ĠÙĨ Ø²ÙĦ
Ġ v
ĠØ§ÙĦØ§Øª ØŃ
Ø¨ÙĪ Ø§Ø³Ø·Ø©
ĠØ£Ø³ Ø±Ø©
ĠÙĬØ³ ÙĪØ¹
ĠØ¨ÙĦ Ø¯Ø§ÙĨ
ĠØ§ÙĦØªØŃØ¯ ÙĬØ§Øª
ĠÙĦÙĦØŃ ÙģØ§Ø¸
Ø¨ Øº
ra b
ÙĪÙĬ Ø´
Ø·ÙĦ Ø¨Ø©
ĠÙħØ´ ØªØ±ÙĥØ©
Ø· ÙĬÙĨ
Ø£ Ùĥ
ĠÙĦØªÙĨ ÙģÙĬØ°
ĠØ³ Ø§Ø¹Ø¯
ÙĤ ÙĦÙĬÙħ
ĠØ§ÙĦÙĤ ØªÙĦ
ĠØªØŃ Ø§ÙĦÙģ
ĠØ§ÙĦÙħØ³ Ø£ÙĦØ©
ĠØ§ÙĦ Ø±Ø¨Ø¹
ĠÙĥ Ø³Ø±
ĠØ§ÙĦØ¹Ø§ÙĦÙħ ÙĬÙĨ
ĠØ§ÙĦØ¨ÙĬ Ø¶
ĠÙ¢Ùł Ù¡Ù
ĠØ§ÙĦÙĨ Ø§ØŃÙĬØ©
ĠÙĬÙĥ Ø´Ùģ
ĠÙħÙģ Ø§Ø¬
ÙĨØª ÙĩØ§
ĠØ§ÙĦÙħØ¹ ÙĩØ¯
ĠØ¥Ø³Ùħ Ø§Ø¹ÙĬÙĦ
ĠØ¯ ÙģØ§Ø¹
ĠØ¯Ø®ÙĦ Øª
ĠÙģ ÙĦÙĬ
ØŃ Ø§ÙĤ
ĠÙĪØ¶ Ø¹Øª
ĠÙĥ Ø§ÙģÙĬØ©
ĠÙģ ÙĪØ±Ø§
ĠÙĦÙĨ ÙĤÙĦ
Ø³ ÙĪ
ĠØ§ÙĦØ± Ø§ØŃØ©
ÙĪÙĪÙĪÙĪ ÙĪÙĪÙĪÙĪ
ĠØ¨Ø¯ ÙĪØ±
ĠÙĦÙĦ Ø±Ø¦ÙĬØ³
ĠØ¨ÙĦ Ø¯ÙĬØ©
ĠØ§ÙĦØ¹ Ø¨Ø¯
Ø§Ø¸ Ø±
ĠÙĪØªØŃ ÙħÙĬÙĦ
ĠØ¨Ø§ÙĦ Ø§Ø¶Ø§ÙģØ©
Ùģ ÙĥØ§Ø±
ĠÙĪØ± ØºÙħ
ĠØ£Ø¯ ÙĨÙī
ĠØ§ÙĦØ· Ø§Ø¦Ùģ
ĠØ£ Ø·Ø±Ø§Ùģ
ĠØ§ÙĦÙħÙĤØ¯ Ø³Ø©
ĠØµ Ø¹Ø¨Ø©
ĠØ¨Ø§ÙĦ ÙħØ¯ÙĬÙĨØ©
Ø¯ ÙĩØ§
ĠÙĦ Ø³ÙĬ
ĠØ² Ø§Ø¯
ĠØ¹ ÙĪØ§ÙħÙĦ
ĠÙĪÙĦÙĬ Ø³Øª
ÙģØ§ ÙĬØ§Øª
ĠØ¨ ÙĤÙĪÙĦÙĩ
ĠØ§ÙĦØ¹ ÙĬØ´
ĠØ¹Ùħ ÙĦÙĬ
Ø§Ø³ÙĬ ÙħØ§
ĠØ§ÙĦØ´Ùħ Ø§ÙĦÙĬ
ĠÙĤÙĬ Ø§Ø³
ĠØ§ÙĦÙħÙĨØ² ÙĦÙĬØ©
ÙģØ± ÙĤØ©
ĠÙĪØ§ÙĦØ¹ Ø´Ø±ÙĬÙĨ
ØªÙĩØ§ ÙĥØ§Øª
Ùħ Ø¦
ĠØ§ÙĦÙģØ± Øµ
ĠØ§ÙĦÙĪ Ø§Ø³
ØªØµ Ø§Ø¨
ÙĦ ÙĪØ§ÙĨ
ĠØ§ÙĦØ± Ø¤
ĠØ§ÙĦØ± Ø§ØŃÙĦ
ĠØ§ÙĦØªÙĪ Ø§ÙĦÙĬ
Ø§Ø¯ ÙĤØ©
ĠØ§ÙĦØ¹ Ø¸Ùħ
ĠØ£ Ø´ÙĬØ§Ø¡
Ø³ Ø§Ø·Ø©
ĠÙĪØ§ÙĦØª Ø´
ĠØ§ÙĦØ£Ø² ÙĩØ±
ĠØ³ÙĬØ± ÙģØ±
Ø¨Ø· Ø§ÙĦ
ĠØªÙĤ Øª
ĠÙħØŃØª ÙĪÙī
ĠØ§ÙĦÙħØŃØª ÙĪÙī
ĠÙĥ ÙĪÙĦ
ÙĪØ§ÙĦ Ùī
ĠØ§ÙĦØ³ÙĨ ÙĪÙĬ
ĠÙĦÙĦ Ø§Ø¹
ĠÙĦÙĦ Ø³ÙĦ
ĠÙħØ³ Ø§ÙģØ©
ĠÙĥÙħ ÙĬØ§Øª
Ø±Ùģ ÙĬÙĨ
Ġ200 5
ĠØ¥ Ø´
ĠØ£Ø« Ø¨Øª
ĠÙħØª Ø·
ØªÙħØª Ø§Ø¹
Ù §
ĠØ§ÙĦØ³ ÙĥØ±ÙĬ
Ø§Ø±Ø³ Ø§ÙĦ
ĠØŃÙĦ ÙĤØ©
ĠØ§ÙĦÙĪØ« Ø§Ø¦ÙĤ
ÙĪØ³ ÙĬØ©
ĠØ§ÙĦØ£ Ø«Ø±
ĠÙģ Ø£ÙĨ
ØªÙģ Ø§Ø¡
ĠØ´ ÙĪ
ĠØ§ÙĦØ£ÙĨ Ø¸ÙħØ©
ĠØ§ÙĦØ±Ø³ ÙĪÙħ
ĠØ§ÙĦØ® Ø·Ø©
ÙĤØ¯ Ø±Ø©
ĠØ§ÙĦÙĨÙĪ ÙĪÙĬØ©
Ø¦ Ùĩ
ĠØ¬ ÙĬÙĦ
ĠØ§ØŃØªØ¬ Ø§Ø¬
Ø² ÙĪÙĨ
: "
Ø§Ùģ ÙĦ
ĠØ§ÙĦÙħØ³Ø§Ø¹Ø¯ Ø§Øª
Ùĥ Ùĥ
ĠØ§ÙĦÙħØ¹Ø¯ Ø©
ĠØª ÙĩÙħ
Ø¦ Ø°
ÙĬØ± ÙĪÙĨ
ĠÙĪØ¨Ø±Ùĥ Ø§ØªÙĩ
ĠØ¨Ø§ÙĦÙħ Ø§Ø¡
Ø§Ø® Ø±Ø©
ĠØ³ ÙĬØ¯ÙĬ
ĠÙģ ÙĨÙĬØ©
Ø¨ Ø«
ÙĪØ§Øµ ÙĦØ©
ĠÙĤÙĦ Ø¨ÙĬ
a k
Ø£ Ùī
ĠÙĪÙĨ Ø´Ø±
ĠØ§ÙĦÙģ ÙĬØ±ÙĪØ³
Ø¥ Ø¶Ø§ÙģØ©
ĠØ§ÙĦØ¥Ø³ ÙĥÙĨØ¯Ø±ÙĬØ©
Ø§ ÙĪÙī
ĠØ§ÙĦÙĤ ÙĩÙĪØ©
ĠÙģ ÙĩØ¯
Ø§Ø¹ Ø§Ø©
ĠØ§ÙĦØ´Øª Ø§Ø¡
ÙĪØ¶ ÙĬØ©
ĠØ§ÙĦÙħØ³ ÙĦÙħÙĪÙĨ
ĠÙĥ ÙħØ§ÙĦ
ĠÙĦ Ø¹ÙĦØ§Ø¬
ÙĨ Ø¯ÙĬ
ĠØ¥ ØºÙĦØ§ÙĤ
ĠØ§ÙĦØª ÙĪØ¬Ùĩ
Ġ n
201 4
Ù ¦
Ø§ÙĩØ¯ Ø§Ùģ
ĠÙĦÙĦ ØµØŃ
ĠØ§Ø± Ø¶
ĠØ§ÙĦØ±Ø¨ ÙĬØ¹
ĠØ§ÙĦØµ ÙĬÙĨÙĬ
ĠØµØ¯ ÙĤ
Ø· ÙĬÙĦ
ĠÙĬØ´ ÙĩØ¯
ĠØªØ¬ Ø§Ø±ÙĬØ©
ÙĬ Ø·Ø©
ĠØ³ ØªØ¹
ĠØ¨ Ø§Ùħ
ÙĪØ« ÙĬÙĤ
ĠØª ÙĥÙĦÙģØ©
Ø¬ÙĬ Ø§ÙĦ
ĠÙĦÙĦ Ø¨ÙĨ
ĠÙĥØ±ÙĬ Ø³Øª
ĠØŃØµ Ø±ÙĬØ§
ĠØªØµ ÙĨÙĬØ¹
ĠØ§ÙĦØ³ Ø¹Ø§Ø¯Ø©
ĠÙĨØ´Ø± Øª
201 5
Ø® ÙĬÙĦ
in e
ĠÙĪÙĦ ÙĤØ¯
ÙĪÙĨ ÙĬØ§
ÙĪ Ø§Ø¦Ùħ
ĠØ§ÙĨ Ø¯
ĠÙħØ¹ Ø§ÙĬÙĬØ±
ĠØ¯Ø± Ø§Ø³Ø§Øª
ĠØ§ÙĦÙħØ¹Ø±ÙĪÙģ Ø©
ĠÙĬÙħ Ø§Ø±Ø³
Ø± Ø§Ø¯
ĠØ§ÙĦØªØ¯ Ø±ÙĬØ³
ĠØ£ Ø¹Ø¯Ø§Ø¯
ĠÙħØª Ø®ØµØµ
Ø§ÙĦ Ø°ÙĬ
ĠØ§ÙĦØ§ÙĨ Ø¬ÙĦÙĬØ²ÙĬØ©
ĠØ§ÙĦÙĤ Ø¯Ø±
ĠÙħØµ ÙĬØ±
ĠØ§Ø¨ Øª
ĠØ§ÙĦØ§Ø¹ ØªØ±Ø§Ùģ
ĠÙĪØ§ÙĦ Ø®Ø¯ÙħØ§Øª
ĠØ§ÙĦÙĨ Ø¯
ÙĪØª Ø´
ĠØ¯ ÙĥØªÙĪØ±
Ø¨Ø± Ø§
ĠØ§ÙĦØ´Ùĩ ÙĬØ±Ø©
ĠØ§ÙĦØ¬Ø± Ø§Ø¦Ùħ
ĠØ§ÙĦØ´Ø±ÙĬÙģ ÙĬÙĨ
ĠØ° Ø§
ĠÙĦÙħ Ø³Øª
ĠØ§ÙĦÙĨ ØµÙĪØµ
ĠØ§ÙĦØ³ÙĬÙĨ ÙħØ§
ĠØ§ÙĦÙĪØ³Ø· Ùī
ĠØ±ØŃ ÙĦØ§Øª
Ø¨ Ø§ÙĨ
Ùħ ÙĪØŃ
ĠØ¨Øª ÙĤ
ĠØ£ Ø¹Ø±Ø§Ø¶
ĠØ± ÙĬÙģ
ĠØ´Ø± Ø·
ÙĦ Ø£ÙĨ
ĠØ¨Ø§ÙĦÙħ Ø³
Ø¨ ÙĪØ±
ĠØ± Ø¶
Ø§Ùģ Ø³
ĠÙĦ Ø±Ø¦ÙĬØ³
ĠØ£ÙĪØ± Ø§ÙĤ
ĠÙħ Ø¬ÙħØ¹
ĠÙħØ³Øª ÙħØ±Ø©
ÙĪØ§Øª Ø¨
ĠØ§ÙĦÙħØ¹ ØªÙĤÙĦ
ĠØ£Ø³Ø± Ø¹
ÙĪØ¸ Ø§Ø¦Ùģ
ØºØ· ÙĬ
ĠÙĪØ£ Ø´
ĠØ£Ø³ ÙģÙĦ
ĠÙĪ Ø§Ø«
ÙĪÙĨØ§ÙĦØ¯ ÙĪ
ÙĥÙĬ Ùĥ
ÙĥÙħ Ø¨ÙĬÙĪØªØ±
ÛĮ ÙĨ
201 3
ĠØ« ÙĦ
ï» ¨
ĠÙĪØªØ¹ Ø²ÙĬØ²
ĠÙĤ ÙĪÙħ
Ùģ ÙĪÙĨ
Ø±Ø¬ Ø§Ø¡
ØªÙħ Ø¯Ø©
Ġ g
ĠØ£ÙĪØ¨ Ø§ÙħØ§
Ø¨ÙĬ Ø§ÙĨØ§Øª
ĠÙħÙĤ Ø§ÙĪÙħØ©
ĠØ§ÙĦØ´ ÙĪØ§Ø±Ø¹
ĠÙĦØ£ Ø¬ÙĦ
ĠÙģ Ø¬Ø±
ĠØ£Ø³ Ø³
ĠØ§ÙĦØ§Ø³Øª ÙĤÙĦØ§ÙĦ
ĠØ¹Ø¯ ÙĨ
Ø§Ø¹ ÙħØ©
ĠÙħÙħØªØ§Ø² Ø©
ĠØ§Ùħ Ø³
ĠÙĥ Ø´ÙģØª
ĠØª Ø«Ø¨ÙĬØª
ĠÙĪ Ø§Ùĥ
ĠØ§ÙĦÙħÙħ ÙĬØ²Ø©
ÙĪØ³ Ùħ
ĠØ±Ø£ ÙĬØª
ÙĥÙĦ Ùĩ
ĠØ± ÙĪ
ĠÙĦØ§Ùģ ØªØ§
ï» ¿
ĠØŃÙĬØ§Øª ÙĨØ§
ØªØ± Ø§ÙĤ
ĠØ§ÙĦÙħØ³ Ø§Ø¨ÙĤØ©
Ø±ÙĬ Ø®
ĠÙĥ ÙĪÙĨÙĩ
ĠÙĬ ÙģØ¶ÙĦ
Ø³Øª Ø§ÙĨÙĬ
ĠØµÙģ ÙĤØ©
Ù ¨
ĠØ§ÙĦØ£ÙĨ Ø¨Ø§Ø¡
ĠÙĪØ§ÙĦ Ø¯ÙĬ
ĠÙĬØ¤ ÙħÙĨ
ĠØ¢ Ø°Ø§Ø±
ĠØ§ÙĦÙħÙĩ ÙĨÙĬ
ĠÙĦ Ø¢
Ø·Ø± Ø¯
ĠÙĨ Ø¨ÙĬ
ĠØŃ Ø§Ùħ
ØªÙģ Ø¸
ÙĢÙĢÙĢÙĢ ÙĢÙĢÙĢ
ĠØ§ÙĦØªÙĪ ØµÙĦ
Ġ200 3
ĠÙĥ Ø§Ùģ
ĠØ´ Ø§ÙħÙĦØ©
ĠØ¹Ø§ÙĦÙħ ÙĬØ§
ĠØ¢ ÙĬ
ĠØ§ÙĦØª ÙĪÙĨØ³
: :
ØŃ ÙĩØ§
Ø§Ùĥ ÙĬ
ÙĬØ§ÙĨ Ø§
Ġ15 0
ĠÙħ ÙĦÙħ
Ø§Ùħ ÙĬÙħ
ĠØ§ÙĦØ¹ÙħÙĦ Ø©
ĠÙħ ÙĬØ¬Ø§
ĠÙĦØª ÙĦÙĥ
ÙĪÙĦ Øª
ĠÙħØŃ Ø§ÙĪÙĦØ§Øª
ĠØªØŃ ÙĥÙħ
ĠØªØ± Ø¬ÙħØ©
Ø§ ÙĬØ´
ĠØ§ÙĦØ¬ Ø¯Ø¯
ĠÙĦÙĦ ØªØ±
ĠØ§ÙĦÙħ ÙĥÙĪÙĨØ§Øª
ĠÙĪØ· ÙĨ
ĠÙĪØ§ÙĦÙħ Øµ
ĠØ·ÙĦØ¨ Ø§Øª
ĠØ§ÙĦÙĩ Ø§ÙħØ©
ĠØ§ÙĦØ¹ Ø§Ø·
ĠÙĪØ§ÙĦØ£ ÙħÙĨ
ĠÙĪØª ÙĪÙģÙĬØ±
ĠØªÙĨ ØªÙĩÙĬ
ĠØŁ !
ĠØ§ÙĦÙĨ ÙħÙĪØ°Ø¬
ĠÙħ ÙĬØ²Ø©
Ø±ÙĬØ¨ ÙĬØ©
ØŃ ÙĪÙĨ
ĠØ³ÙĬ Ø·Ø±
ĠØ§ÙĦÙĥ Ø±ÙĬÙħØ©
ĠÙĬ Ø°ÙĩØ¨
ĠØ¹ÙħÙĦ ÙĩØ§
Øº ÙĪ
ĠØ³ Ø§ØŃØ©
ĠØ§ÙĦØ£ ØµÙĪÙĦ
ÙģÙĬ ÙĬÙĨ
ĠØµÙĨØ¹ Ø§Ø¡
ĠØ§ÙĦØªÙĪ ØªØ±
ĠØ£ Ø¬Ø¯
Ùģ Ùģ
ĠÙģØ¹ÙĦ Ùĩ
ĠØ· Ø§Ø±ÙĤ
ĠØ¨ ØŃØ¯
ĠØ§ÙĦØ§Ø¹ ÙħØ§ÙĦ
Ùħ ØªØ¹
Ø¸ ÙĦÙħ
ĠÙĪØ§ÙĦÙħØ¤ Ø³Ø³Ø§Øª
ĠØ£ ÙĪØ¯
201 2
Ø®ÙĦ Ø§Ùģ
Ø´Ø± ÙĤ
ĠÙĪ ÙĥÙħ
ÙĥØ± ÙĪØ³ÙĪÙģ
ĠØ§ÙĦØ§ØŃ ØªÙĬØ§Ø¬Ø§Øª
ĠØ§ÙĦØ¥ Ø·Ø§Ø±
ĠØ§ÙĦÙħØ± Ø§ÙĥØ²
ĠÙĪ Ø±ÙĤ
ĠØ§ÙĦÙħØ± Ø§Ø¯
ĠØ§ÙĦÙħ Ø¨ÙĦØº
ĠÙħÙĨ Ø¸ÙĪÙħØ©
Ġ4 00
ĠØª ÙĪÙģÙĬ
Ø¸ ÙĩØ§Ø±
ĠØ§ÙĦØ±Ø¦ Ø§Ø³ÙĬØ©
ĠØ£Ø¯ Ø§Ø©
ĠÙĨÙģ Ø°
ĠØ¨ Ø¶Ø±ÙĪØ±Ø©
ĠØ§ÙĦØ§ØŃ ØªÙĬ
ĠÙĪØ¥ Ø¹Ø§Ø¯Ø©
i f
on e
ĠÙħØµ ÙĨ
ĠØªØª ÙĨ
ĠÙĨÙĪØ¹ Ø§
ĠØªÙħ ÙĪØ²
ĠØ¥ ÙĨÙĬ
ĠØ§ÙĦØµØŃ Ø§Ø¨Ø©
ĠÙĪØ§ÙĦ Ø°ÙĬÙĨ
ĠØ¨Ø¹Ø¯ Ùĩ
Ø§Ø¦ Ø³
ÙĦÙĬ Øº
ÙĦÙĥ ÙĬØ©
ĠØ§ÙĦØ« Ø§ÙħÙĨØ©
ĠÙħØºÙĦ ÙĤØ©
Ø¬ÙĨ ÙĪØ¨
ĠÙĬ ØªØµ
ØªÙģ Ø§ØµÙĬÙĦ
ĠÙħÙĩ Ø§Ùħ
ĠØ¬ ÙĪÙĦØ©
ĠØ§ÙĦØ® ÙĦÙĤ
ĠØ§ÙĦÙģ ØªÙĬØ§Øª
ĠØ§ÙĦØ§Ø® ÙĬØ±Ø©
ÙĥØ±ÙĪØ³ÙĪÙģ Øª
ĠØ§ÙĦØ³ÙĦ Ø·Ø§ÙĨ
Ø³ÙĬ Ø·Ø©
ĠÙģ ÙĩÙĨØ§Ùĥ
ĠÙģÙĬ Ø³Ø¨
ĠØ§ÙĦÙĤØ§ÙĨÙĪÙĨ ÙĬ
ĠØ¨Ùħ Ø¬Ø±Ø¯
9 0
ĠØŃÙĬØ§Øª ÙĩÙħ
ĠØ§Ùħ Øª
ĠÙĩ Ø§Ø¯
ĠØ§ÙĦØ£ØŃ ÙĥØ§Ùħ
ĠØ§ÙĨ Ø´Ø§Ø¡
ĠØ§ÙĦØ³ Ø¨Ø¹
ĠØ§ÙĦÙģ Ø¶Ø§Ø¦ÙĬØ©
ĠØ¹ Ø¯Ø§
Ġï» Ń
ĠØ§ÙĦÙħØ® Ø§Ø·Ø±
Ġ3 7
ĠØ¬ ÙĬØ±
ĠÙĦÙĦ ÙĤÙĬØ§Ùħ
ĠØª Ø´Ø§Ø±Ùĥ
ĠÙģÙĦ ÙĨ
ÙĪÙĬ Ø¹
ØŃØ§Ø¯ ÙĬØ«
ĠØ§ÙĦØ´Ø± ÙĤÙĬ
ĠØ§ÙĦÙħ Ø¹ÙĦ
ĠØ§ÙĦÙħØ³Øª ÙĩÙĦÙĥ
Ã Ĺ
Ùĩ ÙĨØ§
ĠØ¢ ÙĦÙĩ
ĠØ§ÙĦÙģ ÙĬØ²
ĠØ§ÙĦÙħØ¹ Ø±ÙĥØ©
Ø£ Ø¨ÙĪ
or e
ĠØ§Ø¹ Ø¶Ø§Ø¡
Ø§ ÙĬØ§Øª
ĠÙĨØµ Ø§Ø¦ØŃ
ĠØ§ÙĦØª ØŃØ¯ÙĬØ«
ĠØ§ÙĦØµ Ø§Ø¯ÙĤ
ÙģÙĬ Ø²
ÙĦÙĥ ÙĬ
ĠØ§ÙĦØµ ÙģØ±
ĠØ§ÙĦØ£ÙĪØ± Ø§ÙĤ
ĠÙĪ ÙĤØ±
ĠØ§ÙĦØ§Ø³Ø± Ø§Ø¦ÙĬÙĦÙĬ
ĠÙħ ÙĪØ¶Ø¹
ĠÙĦÙħ ÙĥØ§ÙģØŃØ©
ĠØ§ÙĦØªØ±Ø¨ ÙĪÙĬØ©
ĠÙħÙĨ Ø§ÙĤØ´Ø©
ØŃ ØµÙĦ
ĠØ§ÙĦØ· ÙĪÙĬÙĦ
ÙĪÙģ ÙĬØ©
ĠØ§ÙĦÙħÙĥØ± ÙħØ©
ĠØ¨Øª Ø³
ĠØ§ÙĦÙĤØ¨ ÙĪÙĦ
] ØĮ
ĠØ§ÙĦÙħØ± ØŃ
ĠØ§ÙĦØªØŃ ÙħÙĬÙĦ
Ø§Ø² ÙĨØ©
ĠØ¬ Ø³Ø¯
ĠØ§ÙĦØ¨ ÙĪØ±
ĠØ§ÙĦØ£ÙĪÙĦ ÙĬØ©
ĠØ¯Ø§Ø± ÙģÙĪØ±
ĠÙĬ ØªÙĬØŃ
Ø·ÙĦ ÙĪØ¨
ĠØ§ÙĦÙħØ³Ø± ØŃ
Ù ©
ĠØ§ÙĦÙħ Ø§Ø¦ÙĬØ©
i p
ĠØµØŃÙĬ ØŃØ©
ĠÙħÙĨ Øµ
ĠØ£ÙĪÙĦ Ø¦Ùĥ
ĠØ° Ø§Ùĥ
Ø§Øª ÙĬÙĨ
ĠØ² ÙħÙĦ
ĠÙħØŃ ÙĬØ·
ĠÙĪØ§Ø³Øª Ø®Ø¯Ø§Ùħ
Ùĥ Ø§Ø©
ĠØ¨Ø§ÙĦ Ø³ÙĬ
ĠÙĨ Ø³ØªØ·ÙĬØ¹
ĠØ§ÙĦØµØŃÙģÙĬ ÙĬÙĨ
ĠØ§ÙĦØ´Ùĩ Ø§Ø¯Ø©
ĠÙĬ Ø·Ø§ÙĦØ¨
ĠØ¨Ø§ÙĦØ· Ø¨Ø¹
ĠØ§ÙĦÙĪÙĤ ÙĪØ¯
ĠØ§Ø¬ØªÙħØ§Ø¹ ÙĬØ©
ÙĢ Øª
ĠØ§ÙĦÙĨ ØŃÙĪ
ĠÙĪØ¨ Ø§ÙĦØª
Ø¨Ø§ÙĦÙģ ÙĬØ¯ÙĬÙĪ
ĠØ² ÙħØ§ÙĨ
ĠØªØª Ø¬Ø§ÙĪØ²
ĠÙĦ Ø²
Ø§Øª ÙĬØŃ
ĠØ¨ ÙĪØªÙĬÙĨ
Ø§Ùĩ ÙĬ
Ø± ØºÙħ
ĠÙħ Ø±Ùģ
ĠÙħ Ø§Ø¯
Ø¯Ø± Ø§Ø¬
ĠØ´ ÙĤÙĬÙĤ
ĠÙģ Ø§Ø¦Ø¯Ø©
ĠÙĦ ÙĪØ²Ø§Ø±Ø©
ĠØ¬ Ø¨ÙĩØ©
ĠØ´ÙĬ Ø¦
ĠÙħØ³Øª Ø´Ø§Ø±
Ø§ÙĨ Ùĥ
ĠØ§Ø³Øª ÙĤØ±Ø§Ø±
ĠØ§ÙĦÙĤ ÙĪØ§Ø¹Ø¯
ĠØ³ Ø¬
Ø¨ ÙĪØª
ĠÙħØ² Ø¯
ÙģØ³ Ø§Ø¯
ĠØµ Ø¯ÙĬ
ĠÙĦØ£ ÙĥØ«Ø±
ĠØ§ÙĦØ±ÙĤ Ø§Ø¨Ø©
ÙĪØ§Øª ÙĬ
ĠØ§ÙĦØ±ÙĬØ§Ø¶ ÙĬØ§Øª
ĠÙģ Ø´
ĠÙĦ Ø®Ø¯ÙħØ©
ĠØ§ÙĦØ²ÙĪØ¬ Ø©
ĠØªØ¬ Ùĩ
ĠØª ÙĬÙħ
ĠØ§ÙĦÙħØ´ ÙĥÙĦØ§Øª
ĠÙĬ ÙĤØ¯Ø±
ĠØ§ÙĦØ¬ Ø§Ùĩ
ĠÙĬØ±ÙĬØ¯ ÙĪÙĨ
Ġ ï
ĠØ§ÙĦÙħ ÙģØ¶
ĠØ§ÙĨ ÙĨØ§
ĠØ§ÙĦØ¹ÙĤ ÙĪØ¯
Ø· ÙĪÙĨ
Ùģ Ø±Ø©
ĠÙħØª Ø§Ø¨Ø¹
ĠØ¬ ÙĪØ²
Ø¶Ø¹ Ùģ
ĠÙĦØ¥ Ø¯Ø§Ø±Ø©
Ø¸Ø± ÙĪÙģ
ĠØ§ÙĦØŃ ØµØ§Ø±
ĠÙĪØª Ùĥ
ĠR e
ĠÙĪØª Ø³Øª
ĠØ³ ÙĩÙĪÙĦØ©
Ġ ÛĮ
ĠØ§ÙĦØ§Ø¯ Ø§Ø±Ø©
ĠÙĦÙĦØ´ Ø¹Ø¨
ĠØ°ÙĥØ± Ùĩ
ĠØ§ÙĦÙĤ ÙĪÙħ
ĠÙĤ Ø§Ø¨ÙĦØ©
Ø¨ ÙĥØ©
ĠÙģØ±ÙĬÙĤ Ùĩ
ĠØ§ÙĦØ§Ø±Ø¨Ø¹ Ø§Ø¡
Ø§Ø· Ø¨
ĠØ§Ø³Øª ÙĨ
ĠØ¶ ØŃØ§ÙĬØ§
ĠØ¹ Ø¬Ø²
ĠÙģÙĬØ³Ø¨ ÙĪÙĥ
ĠØ¨ Ø¬Ø¯
Ø§Ø´ Ø§
ĠØ§ÙĦØ¯Ø¹ Ø§Ø¡
ÙĪ ØŃØ¯Ø©
ĠÙĪ Ø§Ø¯ÙĬ
ĠÙħØ® Ø§Ø·Ø±
ĠÙĬ ÙĩÙĪØ¯
ĠØ£Ø³ Ø§Ø³ÙĬ
ĠÙĦÙħ Ø¤
ĠØŃ Ø°Ùģ
ÙĦÙģ Ø©
ØŃ ÙĨØ©
ØªÙħ Ø§Ø¡
ĠØ§ÙĨ Ø´
ĠØªÙħ ÙĬØ²
Ø´Ø± ÙĪÙĨ
ÙĪØ§Ùĥ Ùĩ
Ø´ Ø®Ø§Øµ
Ø§Ùĩ Ø¨
ĠÙħÙĤ Ø§Ø¨ÙĦØ©
ØªØ¹ Ø§Ø¯
ĠØ§ÙĦÙĤØ·Ø§Ø¹ Ø§Øª
ĠØ§ÙĦØª Ø¬ÙħØ¹
ĠÙĨØ¸ ÙĬØ±Ùĩ
ĠØµÙģ ØŃ
ĠØ§ÙĦØ¯ Ø®ÙĦ
ĠØ§ÙĦÙĪ Ø§Ø±Ø¯Ø©
ĠØ§ÙĦØ± ÙĪÙħ
Ġ l
ĠÙĦØ£ÙĨ ÙĩÙħ
ĠÙĥÙĨ Ø¯Ø§
ĠÙĪØ§Ø¬ Ø¨
ĠØªØ¬ Ø±ÙĬ
ĠÙĦÙĦØ´ Ø¨Ø§Ø¨
Ġ3 8
ĠØ§ÙĦØ´ Ø§ÙħÙĦ
Ø§Ø¬Ùĩ Ø§Øª
ĠØ£Ø±Ø¯ ÙĪØºØ§ÙĨ
Ġ!! !
ĠØ· Ø§Ø¦Ø±Ø§Øª
ĠØ´Ø£ÙĨ ÙĩØ§
ĠØ§ÙĦÙģØª Ø§ØŃ
Ø¨ÙĦ Ø§Øº
ĠØ¯Ø± Ø³
ĠÙĪØºÙĬØ± Ùĩ
ÙĪØª Ø§
ĠØ§ÙĦØŃÙĪØ« ÙĬ
ØªØ¨Ø§Ùĥ Ø§Øª
ĠØ¨ÙĬÙĨ ÙĨØ§
ĠØªØ¯ Ø¹ÙĪ
ĠØ§ÙĦØ¸ Ø§ÙĩØ±Ø©
ĠØ§ÙĦÙģÙĪØ± ÙĥØ³
ĠÙĬØªÙħ ÙĬØ²
ĠØ§ÙĦØ«Ø§ÙĨ Ùī
ÙħÙĨ Ø°
ĠÙĨ Ø§Ø´
ĠÙĦ Ø¹ÙĦ
ĠØ§ÙĦØ³ Ø§Ø®
ÙĪÙĬ ÙĬÙĨ
Ø¦ Øª
ĠÙĪØ¹ Ø±Ø¶
g le
ĠÙĦ Ø§ØŃØ¸
ĠÙĪ Ø®Ø·
ĠØ¯Ø± ÙĪØ³
ĠØ§ÙĦØ¯ Ø§Ø¦Ø±Ø©
ÙĨØª Ø§Ø¦Ø¬
ĠØªÙĦ ÙĤÙĬ
ØªØ¹ ÙĦÙħ
ØªØ¨ Ø§Ø¹
Ø· ÙĬÙģ
ĠØªÙĨ Ø¸Ùħ
ĠÙĪØ§ÙĦ ØªÙħ
ĠØ§Øª Ø¨Ø§Ø¹
ĠØ§ÙĦØªØ³ ÙĪÙĬÙĤ
ĠØªØ¹Ø±Ø¶ Øª
ĠÙĪØ¹ ÙĦÙħ
ĠØ§ÙĦÙģ Ø§Øª
ĠØ¹Ø§Ø¦ Ø´Ø©
ĠØ§ÙĦØº Ø§ÙĦØ¨
ĠØ´ Ø±Ø¨
Ø«Ùħ Ø§Ø±ÙĬØ©
Ùĳ Ùį
Ùĳ ÙĮ
ĠØ§ÙĦÙĤ ÙĦÙĤ
ĠØ³ Ø¬ÙĨ
ĠÙĬÙĤÙĪÙĦ ÙĪÙĨ
ĠØ± Ø§Ø³
ØªØ± Ø·
ĠÙĦØ¨ ÙĨØ§Ø¡
ĠÙĬ ÙĩØ¯Ùģ
ĠØªØ¬ Ø§Ø±Ø¨
ĠØ§ÙĦÙĤ Ø°
ĠØµ Ø±ØŃ
ĠÙĪØ¥ ÙĦØ§
Ø§Ø¤ ÙĦ
ĠØª Ø®ÙĦ
ĠØ§ ÙĥØ³
ĠØªØ¬ Ø±Ø¨
ĠØ§ÙĦØºØ° Ø§Ø¦ÙĬ
Ø¯ ÙĪ
ĠÙħÙĤ Ø§ÙĦ
ĠØ§ÙĦØµ ØŃØ±
ĠØ§ÙĨ Ø¸Ø±
ĠØªÙĤ Ùģ
ĠØ´ Ø§ÙħÙĦ
ĠÙĪØ§ÙĦØ¥ Ø¹ÙĦØ§Ùħ
ĠØ¨Ø§ÙĦÙĤ Ø§ÙĩØ±Ø©
ĠØ§ÙĦØ³ Øª
ĠÙĪØ® Ø§Ø±Ø¬
ĠØ§ÙĦØªÙĪÙĨØ³ ÙĬØ©
Ø± Ø§Ø¶
ĠØ§ÙĦÙĪ ØµÙģ
or t
ØŃ Ø¶
Ø§Ø¯ÙĬ ÙĤ
ĠÙĦÙĦÙĤ ÙĪØ§Øª
ĠÙĦØªÙĨ Ø¸ÙĬÙħ
6 6
ĠØ§ÙĦØ® ÙĬØ±ÙĬØ©
ĠÙĤ ØµØ¯
ĠØ§ÙĦÙĥ ÙĦÙī
ĠØ§ÙĦÙħØª ÙĤØ¯Ùħ
o b
ĠØ¨Ø§ÙĦ Ø£Ø³
ĠÙĦ Ø§ÙĤ
ĠØ§ÙĦØ³ÙĬ Ø§Ø³Ø§Øª
ĠØŃ Ø¨ÙĬ
ĠØ¬ Ø¨
ĠØ¯ Ø§Ùģ
ĠØ§ÙĦÙħØ´Ø±ÙĪØ¹ Ø§Øª
ĠØ§ÙĦÙħÙĩ Ø§Ùħ
ĠÙħ Ø§ÙĦÙĬ
Ø¶ Ø§Ø¹
ĠÙĦ ØºÙĬØ±
ĠØ§ÙĦØ§Ø¹ ØªØ¯Ø§Ø¡
ĠÙħÙħ Ø«
ĠØ§ÙĦØ± ØºØ¨Ø©
R e
ĠØ§ÙĦÙĦØº Ø§Øª
Ø´ÙĬ ØŃ
ĠØ§Ø® ØªÙĬ
ĠÙħØ³ ØŃ
ĠØ§ÙĦØ¯ ÙĪ
ĠØ§ÙĤ ÙĦ
1 00
Ø¹ ÙħØ±
ĠÙħÙĨ Ø·
Øµ ÙĬØ©
ĠÙģ ØŃ
Ø¨ Ùī
ĠØ³ Ø¹Ø§Ø¯Ø©
ĠÙħ Ø±ÙĬÙħ
ØªØŃ Øª
ĠØ§ÙĦÙħ Ø·Ø¨Ø®
ĠØ§ÙĦÙħ Ø´Ø§Ø±
ĠØ§ÙĦØ§ÙĨ ÙĤÙĦØ§Ø¨
ĠÙĨØ¬ ØŃ
Øª Ø§Ø¯
201 1
ĠÙĦØª Ùģ
ĠØ§ÙĦØ£Ø¯ ÙĪØ§Øª
ĠâĢ ĭ
ĠØ§ÙĦØµÙĨ Ø§Ø¹ÙĬ
ĠØ§ÙĦØŃÙĤ Ø§Ø¦ÙĤ
ÙĪØ¨ Ùĩ
ĠÙħÙħØ§Ø± Ø³ØªÙĩØ§
âĢı .âĢı
ĠÙģ Ø§Ø³
ĠØŃ Ø¬Ø²
ĠØ§ÙĦÙĩ ÙĪÙĬØ©
ĠÙħØŃ Ø±
ĠØ¬Ø¹ ÙģØ±
ĠÙĤ Ø§Ø¨ÙĦ
ĠØª ÙĤØ¯Ø±
ĠØª Ø·ÙĦÙĤ
ĠØ£ÙħØ± Ø§
Ø¬Ø§Ø² Ø©
ĠØ§Ø³ØªØ®Ø¯Ø§Ùħ Ùĩ
ÙĪ Ø¥ÙĨ
ĠØ± Ø¬Ø¨
ĠØ¥ Ø·
ĠØ· ÙĬØ±Ø§ÙĨ
ĠÙħ ÙĬØª
ÙĬ ÙĦÙĬ
ÙħÙĨØª Ø¯Ùī
ĠØ§ÙĦÙĥ ÙĬØ§ÙĨ
ĠØ¬ ÙĪØ§Ø²
ĠØ¨Ùģ Ø¹ÙĦ
ÙĨ Øµ
Ø¹Ø¯ Ùħ
ÙĤ ÙĪÙĦØ©
ĠØ§ÙĦÙħØª Ø¸Ø§ÙĩØ±
ĠÙħÙĪ Ø§ÙģÙĤØ©
ĠÙħØ¹Ø¯ ÙĦØ§Øª
Ġïºį ï»Łïº
ĠØ§ÙĦÙĪ ÙĩØ§Ø¨
ĠØ§ÙĦØ¬Ø§Ùħ Ø¹ÙĬØ©
ĠÙĪÙĤ ØªÙĩØ§
ĠØ§ÙĦÙĤ Ø±ÙĬØ¨
ĠØªØ³Øª ÙĩØ¯Ùģ
ĠÙħØª Ø®ØµØµØ©
ĠØµ Ø±Ø§Ø¹
ĠØ¥ ÙĬÙĤØ§Ùģ
ÙĦØ§ÙĦ Ø§Øª
Ø¦ ÙĦ
ĠÙĥÙĪÙĨ ÙĩØ§
ÙĪÙĥ ÙĪÙĦ
ÙĪ Ø¥Ø°Ø§
ĠÙĤØ¨ ÙĬÙĦ
ĠØªØ¹ Ø§ÙħÙĦ
ĠØ¯ Ø¨ÙĦÙĪÙħ
ĠÙĬÙĥÙĪÙĨ ÙĪØ§
ĠØ§ÙĦØª ÙĦÙģØ²ÙĬÙĪÙĨ
ĠÙħÙĤ Øª
ĠØ§ÙĦÙħ ÙĬØ¯
ĠÙĤØ§ÙĨÙĪÙĨ ÙĬØ©
ĠØ§ÙĦÙħ Ø§Ø¯ÙĬØ©
ĠØ¥ ÙĬØ·Ø§ÙĦÙĬØ§
ĠØ§ÙĦØªØ§Ø³ Ø¹Ø©
Ùħ Ø²
ĠØŃÙĬØ§Øª ÙĬ
ĠØªØ®Øµ ÙĬØµ
ĠØ§ÙĦÙĨ Ø¶
Ø±Ùĥ ÙĬØ©
ĠØŃÙĪÙĦ Ùĩ
Ø± ÙĩØ§
ĠØŃ Ø±ÙĬ
ĠØ§ÙĦÙģ Ùħ
ÙĦÙĬÙħ ÙĪÙĨ
ĠØ§ÙĦØ¶Ø± ÙĪØ±ÙĬ
ØªØ± ÙģÙĬÙĨ
ĠØ·ÙĪÙĬÙĦ Ø§
ĠÙĤØ¯ ÙĬÙħ
ĠØ§ÙĦÙĨÙĩ Ø¶Ø©
ĠØº Ø¶Ø¨
Ùħ ÙĪØ±
ĠÙĩØ§Ùħ Ø´
ĠØ§ÙĦÙħÙĩ Ø§Ø±Ø§Øª
ÙĪÙĤØ¹ Ø§Øª
ĠØ³ ØªØ±
ew s
ĠØªØ¹ Ø¨
ĠØ§ÙĦÙĤ ÙĦÙĬÙĦØ©
ĠÙĪØ§ÙĦ Ø¹Ø±Ø§ÙĤ
Ø§Ø³ Ùī
ĠØ§ÙĦØ°ÙĥØ± Ùī
ĠØ§ÙĦÙħØ³Øª Ø«ÙħØ±ÙĬÙĨ
Ø£ ÙĪÙĦØ§
ĠØ¬Ùħ ÙĩÙĪØ±
Ø§ØŃØ¸ Ø§Øª
ĠØ¶ ÙĬ
ĠØŃ Ø°
Ø§ÙĦØ¯ ÙĬÙĨ
ĠØ³ÙĬ Ø·Ø±Ø©
r t
ĠØŃ ÙĦÙģ
ĠÙĪØ§ÙĦØªØ¹ Ø§ÙĪÙĨ
ĠÙģÙĬ ØªØ§ÙħÙĬÙĨ
Ø³ ÙĬØ±
ĠØ§ÙĦØ¥ Ø¬Ø§Ø¨Ø©
ĠØ§ÙĦÙħØ¨Ø§Ø± ÙĬØ§Øª
ĠØ¶ Ø®ÙħØ©
ĠØ§Ø¨ ØªØ¯Ø§Ø¡
Ø¦ ÙħØ©
ĠØ´ Ø£ÙĨÙĩ
ĠØ§ÙĦØ¹ Ø§Ø¦ÙĦ
ĠØ§ÙĦØªØ¬ Ø§Ø±Ø¨
Ø§ØŃ ÙĤØ©
ĠØ§ÙĦØ¨Ø± Ø§Ø²ÙĬÙĦ
ĠØ§ÙĦØ¥Ùħ ÙĥØ§ÙĨ
at e
Ø³ ÙĦÙħ
Ø¨ÙĬ Ø§Øª
ĠØ§ÙĨØª Ø§Ø¬
ĠØªØ¯ ÙĪØ±
ĠØ¨ Ø±ÙĬØ¯
Ø£ Ø®
ĠÙĬØ±Ø¬ Ø¹
ĠØ·Ùģ ÙĦÙĥ
Ø§ÙĨÙĬ Ùĩ
ØŃ Ø³
ĠØ§ÙĦÙĤ ÙĦÙĬÙĦ
es t
ĠØµ ÙĦØ©
ĠÙĪØ« ÙĬÙĤØ©
Ø± ÙĪØ§
ĠØ§ÙĦØ³ ÙĦØ¨ÙĬØ©
ĠØ§ÙĦØª ÙĩØ§Ø¨
ĠÙĬÙģ ÙĩÙħ
ĠØ§ÙĦÙĪ ØŃØ¯Ø§Øª
c e
ĠØ§ÙĦÙĨ Ø´
Ø§ÙĦ ÙĬÙģ
ĠØ§ÙĦ ÙĬÙħÙĬÙĨ
ĠØ¯ Ø§Ùħ
ĠØ² Ø¹ÙĬÙħ
Ø±Ø§ØªÙĬØ¬ ÙĬØ§Øª
ĠÙĬØ¯ Ùĩ
ÙĢÙĢ Ø©
ĠØ± ÙģÙĬ
ĠÙĬØ¹ Ø¨Ø±
ĠØ§ÙĦØªØŃ ÙĦÙĬÙĦ
ĠØ« Ø¨Øª
ĠØ§ÙĦÙħØŃ ÙĬØ·Ø©
ĠÙħÙĤ Ø§Øª
ĠØªØª Ø·ÙĦØ¨
ĠØ¥ Ø¬ÙħØ§ÙĦÙĬ
ĠØ¨Ø¬ ÙĪØ§Ø±
Ø§Ø¶ Ø±Ø§Øª
ĠÙĬØ±Ø¬ Ùī
ĠØ£Ø¹ ÙĪØ§Ùħ
ÙĦ Ø¹Ø¨Ø©
ĠØº ÙĬ
ÙĬØ§Øª ÙĬ
ĠØ§ÙĦØ§ØŃ ØªÙģ
ĠÙĦØªØ¹ Ø²ÙĬØ²
ĠÙĪØ§ÙĦ ØµØŃ
ĠØ§ÙĦØ£ÙĨ Ø¨ÙĬØ§Ø¡
ĠØ§ÙĦØª Ø·ÙĪÙĬØ±
Ø±Ø¶ ÙĬ
ĠÙģ ÙĩØ°Ùĩ
ĠÙĪ Ø¨ÙĦ
ĠØ§ÙĦØ¹ Ø§Ø¯ÙĬ
ĠÙĪØ² ÙĪØ¬
ĠÙģ Ø¨
ĠÙĦÙĬÙģ Ø±Ø¨ÙĪÙĦ
ĠØ·Ø§ÙĦ ÙħØ§
ĠÙħÙĦÙĬ Ø§Ø±Ø§Øª
ĠÙħ ÙĬØ¯Ø§ÙĨ
ĠØ¨Ø§ÙĦ Ø¯Ùħ
Ø¹Ùħ ÙĤ
ĠØ¨ ÙĬÙĥ
ĠØªØ± Ø¯Ø¯
oo gle
ĠØ§ÙĦØ¨ ÙĨÙĬØ©
ĠØ§ÙĦÙħØ³ Ø§ØŃØ©
ĠÙĬ ØŃØ¯Ø¯
ĠÙħÙģ ÙĬØ¯Ø©
ĠØ§ÙĦØ¬Ø§Ùħ Ø¹ÙĬ
ĠÙĪØ§ÙĦ Ø¹Ø¯
ĠØªÙĪ Ø¸ÙĬÙģ
ĠØ§ÙĦØª ÙĪÙģÙĬÙĤ
ĠØ¢ ÙĦÙĬØ©
Ø§Ø¨ÙĤ Ø§Øª
ĠÙģ Ø§Ø·ÙħØ©
ĠÙģ Ø³ÙĬ
Ø¯Ùħ Ø§Ø¬
Ùħ Ø³Øª
ĠØ§ÙĦ Ø§Ø²
ĠÙĦØŃ Ø²Ø¨
ĠÙħØ¹ Ø§ÙĦØ¬
ĠØ§ÙĦÙħØ® Ø§Ø¨Ø±Ø§Øª
Ø§Ø¨ ÙĬØ±
Øº ÙĨ
âĢ¦ âĢ¦
ÙĦ Ø°ÙĦÙĥ
ĠÙģ Ø¥
ØªØ¨ Ø¹
ĠÙĬØ¯ Ø±Ùĥ
ĠØ§ÙĦØ¹ Ø³ÙĦ
ĠØªØ³Øª ÙħØ±
ĠØ§ÙĦØ¶ ÙĬ
ĠÙĬÙħÙĥÙĨ Ùĩ
ÙĤÙĬ Ø¨Ø©
ĠØªÙĦ Ø¹Ø¨
ĠØ£Ø³ ÙģØ±
ĠÙĪ ÙĨØ³
ĠØ§ÙĦÙħØŃÙħ ÙĪÙĦ
ĠÙĪØ¬Ùĩ Ùĩ
ĠØªÙĤ Ø³ÙĬÙħ
ĠØ§ÙĦÙĪØ§Ø¶ ØŃ
ĠØ®Ø· ÙĪØ±Ø©
ĠÙĪØ¨Ø¹Ø¯ ÙĩØ§
ĠØ£Ùĥ ÙħÙĦ
ĠØ® Ø³Ø§Ø¦Ø±
ĠÙĬØŃÙĬ Ùī
ĠA d
ĠÙħØŃØ¯ ÙĪØ¯Ø©
ĠÙħ Ø¶Ùħ
ĠÙĦ ÙĪØ¶Ø¹
ĠØ· Ø¨ÙĬØ¹
ĠØ´Ø¹Ø¨ ÙĨØ§
ĠÙĥ ÙĦÙĬ
ÙĪØ§ ÙĬØ§
ĠÙĦ Ø²ÙĬØ§Ø¯Ø©
ĠÙĥ Ø§Øª
ĠØ¯ ÙĬÙĥ
ĠÙĬ Ø±ÙģØ¶
ĠØ³ ÙĪØ±ÙĬ
ĠØ± Ø¶Ø§
ĠØ§ÙĦØ¯Ø³Øª ÙĪØ±ÙĬØ©
ĠØ§ÙĦÙĬÙĪÙħ ÙĬ
ĠØ§ÙĦØ¹Ø§Ùħ ÙĦ
ĠØ· Ø§ÙĤØ©
ĠØ¹Ø±Ùģ Øª
ĠØ§ÙĦØ³ÙĦØ§Ùħ Ø©
ĠÙĬ ÙģØª
ĠØªØ¯ ÙĦ
ÙĦ Ø¯
ĠØªØªÙħ ØªØ¹
ĠØªÙģ ÙĬØ¯
al l
ĠØ®Øµ Ø§Ø¦Øµ
ĠØ§ØŃ ØªÙħØ§ÙĦ
Ø§Ø® Øª
ĠÙĦÙĦÙħ Ø³ØªØ®Ø¯Ùħ
ĠØ£Ø´ Ø¯
a v
ĠÙĪØ¨ Ø°ÙĦÙĥ
ĠØ¨Ø§ÙĦ Ø§Øª
ĠØ§ÙĦÙħØ¹ ÙĦÙħÙĬÙĨ
ĠØ§ÙĦØ¬ Ø¨ÙĦ
Øµ ÙĪØ¯
ĠÙĦ Ø°
ĠØ¹Ø§Ùħ ÙĬÙĨ
ÙĪÙĬ ÙĤÙĪÙĦ
ĠÙħØ± Ø³ÙĬ
ĠÙħØ¹ ØªØ¨Ø±
ĠØŃ Ø¯ÙĬÙĤØ©
ĠØ¬ÙĩØ§Ø² Ùĥ
ĠÙģ Ø§ÙĬ
ĠØŁ ØŁØŁ
ĠÙĬØª ÙĥÙĪÙĨ
ĠØ§ÙĦØ¹ ÙĥØ³
ĠØ§ÙĦÙħØ± Ø¡
ĠØ§ÙĦÙħØª ÙĤØ¯ÙħØ©
ĠØ§ÙĦØ´ ØŃÙĨ
ĠÙĪØ§ÙĦ Ø§Ùħ
ĠÙĦÙĦÙĨ Ø§Ø³
ĠØª ÙĤØ±
ĠØªØ¹ Ø·ÙĬ
ï» ³
ĠØ§ÙĦÙħÙĦ Ø¹Ø¨
p t
ĠØ¢ Ø±
ĠØ¬Ùĩ Ø§Øª
ĠØ§ÙĦØ¢ ÙĦØ§Ùģ
ĠØ§ÙĦØ£ ØµØ¯ÙĤØ§Ø¡
ĠØ§ÙĦÙĥ Ø¨Ø§Ø±
ĠØªØªØ¹ Ø±Ø¶
ÙĪÙĩ Ø§Øª
ĠØ§ÙĦØ® Ø¶Ø±
ÙĪ ØªÙħ
Øª Ø¹Ø©
ĠØ±Ø¬ ÙĦØ§
ÙĪØ¨ ØŃØ³Ø¨
ĠÙĬÙĦ Ø²Ùħ
ÙĪØ§Ùģ ÙĤØ©
ï» ¦
ĠØ§ÙĦØªÙĩ Ø¯ÙĬØ¯
ĠÙħÙģØª ÙĪØŃØ©
ĠØ§ÙĦØ£Ø±Ø¯ ÙĨÙĬ
ĠØ§ÙĦØ£Ùĥ Ø§Ø¯ÙĬÙħÙĬØ©
Ø§ÙĨ ÙĩØ§
ĠØªØ¬ Ø§Ø±Ø©
ĠØµ Ø¹ÙĬØ¯
ĠØ§ÙĦÙħØ± Ø¬
ĠØ§ÙĦØ³ Ø§Ø¹Ø§Øª
ĠÙĪØ£ Ø´Ø§Ø±
ĠØ¥ ÙĬÙħØ§ÙĨ
ĠÙħÙĪØ¶ ØŃØ§
ĠØ¨Ø§ÙĦ Ø§Ø¹
ÙĪÙĤ Ø§Ùģ
Ġ Y
ĠÙĪØ¨ ØŃ
ĠÙĪ Ø³ÙĦØ§Ùħ
ĠØ¥ ÙħØ§Ùħ
ØªÙģ Ø¹Ø©
ĠÙĪÙĬØ¹ ØªØ¨Ø±
ĠÙģÙĦ ÙħØ§
ĠÙħÙĨ Ø¯
ĠØ¹Ùħ ÙĪÙħØ§
ĠÙĦ ÙĥÙĪÙĨ
ĠØ§ÙĦØ³Ùħ Ø§ØŃ
ĠØª ØªÙģ
ĠØ§ÙĦØ° Ø§ØªÙĬ
ĠØ§ÙĦØ´ Ø§ÙĬ
Ġ $
Ø§ÙĦ Ø²
ĠØ§ÙĦÙĨØ§Øª Ø¬
Ø« Ø§ÙĨÙĬØ§
Ø¬ÙĦ Ø¨
ĠÙĪØ§ÙĦØ¥ Ø³ÙĦØ§Ùħ
ĠØ§ÙĦÙĨØ² Ø§Ø¹
ĠØ¨Ø§ÙĦÙħÙĨ Ø·ÙĤØ©
ĠØ£ Ø¬ÙħØ¹
ĠØ¨Øµ ÙĪØª
ĠÙħØª Ø·ÙĦØ¨Ø§Øª
ĠØ§ÙĦØ´ Ø±Ùĥ
ĠØ§ÙĦØŃØ± ÙĪØ¨
ĠØ§ÙĦØ§Ø¨ØªØ¯ Ø§Ø¦ÙĬØ©
ĠØª Ø¯ÙħÙĬØ±
ÙĬÙĪ Ø·
Ø§Ø¹ Ø§
ĠØ¥Ø¯ Ø®Ø§ÙĦ
Ø¥ Ø³Ø±Ø§Ø¦ÙĬÙĦ
ĠÙĦÙĦ Ø¨ØŃØ«
o st
ĠØ§ÙĦØªØŃÙĤÙĬÙĤ Ø§Øª
ĠØª Ø·ÙĦØ¨
ĠØ§ÙĦØ¨ØŃ ÙĪØ«
Ø°Ø§ ÙĥØ±
ĠÙĪÙħ ØµØ±
ĠØº Ø±ÙĬØ¨Ø©
ĠØ§ÙĦÙħØ± ØªØ¨Ø·Ø©
ĠØŃ Ø¬
Øº Ø§Ùħ
ĠÙĪÙĬÙħÙĥÙĨ Ùĥ
Ø²Ø§Ùħ ÙĨ
Ø¨ Ø§ÙĨÙĬ
ĠØ§ÙĦØ¯ ÙĪØ§Ø¡
ĠØ§ÙĦØ±Ø¬ ÙĪØ¹
ĠÙĬÙĩ ØªÙħ
Ø± Ø§Ø¯Ø©
ĠØ§ÙĦÙħÙħ Ø«ÙĦ
ĠØª ÙĨØ³
ĠØ§ÙĦÙħ Ø®ÙĦ
ĠØ¨Ø¹ Ø«
ÙĨ Ø§Ø©
ĠØ¬ Ø±Øª
ĠØ³ ÙĥØ±
ĠÙ £
Ø¯ ÙĪØ¯
ĠØ§ÙĦ ÙĪØ¯
ĠÙħ Ø°ÙĥØ±Ø©
ĠØ§ÙĦØ´ ÙĪØ·
7 7
ĠØ² ÙĬØ¯
Ø± Ø§ÙĦ
ĠØª Ø¨Ø¯
ĠØ§ÙĦØ§Ø® ØªÙĬØ§Ø±
ØŃ Ø²Ø¨
ĠØ§ÙĦÙĦÙĬ Ø¨ÙĬØ©
ĠØ´ ÙĤØ©
ĠØ¨ÙĬ ÙĪØª
Ø§ÙģØ± ÙĬÙĨ
ĠÙĦÙĦÙģ Ø±ÙĬÙĤ
ĠØ¨Ùħ Ø®ØªÙĦÙģ
ÙĪÙĦ ÙģØª
O S
ĠÙħÙĨ Ø¸
ĠØ§ÙĦØ· Ø±
ĠØ§ÙĦØª Ø¬ÙħÙĬÙĦ
ĠØ§ÙĦØ³ ÙħØ§
ĠÙĤ Ø§Ø¨
ĠØ¨ Ø§ÙĬ
ĠØ§ÙĦØ£Ø±Ø¨ Ø¹Ø©
ĠØ§ÙĨØª ÙĤØ§ÙĦ
ĠØ§ÙĦØ§Ùħ ÙĪØ±
Ø§ØµÙĦ Ø§ØŃ
ĠÙĨÙĩ Ø§Ø¦ÙĬØ§
Ø§ÙĤ Ø·
ĠÙĬØŃ Øª
ĠØ§Ø³ Ø¹Ø§Ø±
ĠÙĥØ§Ùħ ÙĦØ§
Ø§ÙĦ Ø§Ø³Øª
ĠÙĨ Ùĥ
ĠÙĦØª ØŃØ¯ÙĬØ¯
ĠÙĥ ÙĬÙĨ
ĠØ²ÙĪØ¬ Ø©
Ø§ ÙĬÙģ
ĠØ£Ø³ Ø§Ø³ÙĬØ©
ĠÙĦÙĬ ÙĪÙħ
ĠÙĪØ§ÙĦØ§ÙĤ ØªØµØ§Ø¯ÙĬØ©
ĠØ¹ÙĨØ¯ ÙĩØ§
ĠÙĪØ¨ ÙĨ
ĠØ§ÙĦÙĤ Ùħ
ĠÙħØ³ Ø¦ÙĪÙĦ
ĠØ§ÙĦØ¬ÙĨ ÙĪØ¯
ĠÙĪØ§ÙĦÙħ Ø®
Ø²Ø± Ø§Ø¹Ø©
ĠØ§ÙĦØ´ ÙĬØ¹
ĠØ± Ø§Ø´Ø¯
Ùĥ Ø´ÙģØª
ĠØ§ÙĦØŃ ÙĦÙĬØ¨
ĠØ³Øª Ø¬Ø¯
ĠØ§ÙĦØ¬ ÙĩØ¯
ÙĪØ§ÙĦ ÙĦÙĩ
ÙĬØ² ÙĬØ¯
ĠØ¹ Ø§Ø±
Øµ Øª
ĠÙĦ Ø¯Ø±Ø¬Ø©
( [
ĠØ§ÙĦØ£ Ø¨ØŃØ§Ø«
ĠÙĬØª ÙĪÙĤØ¹
ar t
ĠØ± Ø¨ÙĬØ¹
ØºØ± Ø§Ø¶
ĠÙĦØ¨ ÙĨ
ĠØ´ Ø±ÙĬØ·
ĠØ§ÙĦØ£Ø¬ Ø§ÙĨØ¨
ÙĤ Ø§Ø¨ÙĦ
ĠØ³Ø¨ Ø¹
ĠØ§ÙĦÙģ Ø¬Ø±
ĠØ±ØŃ ÙĦ
ĠØ³ Ø§Øª
ĠØ® ÙĦØ§ÙĬØ§
ÙĥÙĬ Ø§Ø¬
Ø§Ø¨ ÙĩØ§
ĠØ§ÙĦØªØ§Ø±ÙĬØ® ÙĬ
ĠØŃ Ø¸Ø±
ÙĪØ£Ø´Ø§Ø± Øª
ĠØ§ÙĦØ¨Ø§ØŃØ« ÙĬÙĨ
ĠØ§ÙĦÙĤÙĦ ÙĪØ¨
ĠÙħÙħ Ø§Ø«
ĠØ§ÙĦØ´ Ø§ÙħÙĦØ©
ĠÙĦØ¹Ø¯ Ø¯
Ø± Ø§Ùģ
ÙĪØ§Ùĥ Ø¨
ĠÙĪÙĦ Ø¹ÙĦ
Ø¯Ø§ ÙĬØ§
ĠØ§ÙĦØª ÙħÙĬ
ĠØ± ÙĪÙĨØ§ÙĦØ¯ÙĪ
ĠØ£Ø± Ø´ÙĬÙģ
ĠâĢ ¢
ĠØ§ÙĦØ®Ø¶ Ø±Ø§Ø¡
ĠÙĤÙĬ Ø§Ø¯Ø§Øª
ĠØ§Ø¹ ÙĦ
ĠØ£ ÙĥÙĪÙĨ
ĠØ³Ø¹ÙĪØ¯ ÙĬ
ĠØ§ÙĦÙħØµ ÙĨØ¹
ÙĬØ¹ ØªØ¨Ø±
ĠØ§ÙĦ ÙĩÙħ
ĠØ§ÙĦÙħÙĩ Ø§Ø¬Ø±ÙĬÙĨ
Ø¨Ø§ÙĦ ÙĨØ³Ø¨Ø©
ĠØ§ÙĦØ£ Ø®Ø·Ø§Ø¡
ÙĬØ± ÙĩØ§
ĠØ± Ø§Ø¦ØŃØ©
ĠØ§Ùĩ ÙĦ
ĠØ¹ÙĨ Ùĥ
ĠØ§ÙĦÙĤ ÙĪÙĬØ©
ÙĤØ¯ Ø©
ĠØ± Ø§Ùģ
ĠØ£Ø¨ Ø§
ĠÙĤ Ø¨Ø±
ĠØ¨Ø§ÙĦÙħ Ø¹
ac k
ØªÙĩ Ø¯
Ø± ÙĪÙĬØªØ±Ø²
ĠØ¨ØŃ ÙĦÙĪÙĦ
ĠØ¥ÙĨÙĩ Ø§Ø¡
ĠÙĦÙĦØŃ ÙĥÙĪÙħØ©
ĠØ§ÙĦÙĤ Ø·Ø¹
Ùı :
ĠØ§ÙĦÙħØ¬ ØªÙħ
ĠÙĪÙĩ ÙħØ§
ÙĦØª Ø²Ùħ
ĠØ§ÙĦØ¨Ø§ØŃØ« ÙĪÙĨ
ÙĪÙĦ ÙĪ
ĠØ·Ø¨ ÙĤØ§
ĠØ§ÙĦØ¬Ùĩ Ø§Ø¯
ĠØ§ÙĦÙĥÙĬÙħÙĬ Ø§Ø¦ÙĬØ©
ĠØ¬ÙĨ ÙĪØ¯
ĠÙĩØ´ Ø§Ùħ
ĠØ§ÙĦÙĨ Ø§Ø²
ĠÙħÙĦ Ø¹ÙĤØ©
ĠØ§ÙĦÙģ Ø·Ø±
ĠÙĤ ØµÙģ
ĠØ§ÙĦØªØµ Ø±Ùģ
Ø³ÙĨ ÙĪØ§Øª
ÙĦ ØºØ§Ø¡
ĠØ§ÙĦØ§ØŃ ØªÙģØ§ÙĦ
ĠØ§ÙĦØµ Ø¨Ø±
Ø±Ø³ Ø§ÙĦØ©
ĠÙĬ Ø«Ø¨Øª
ĠØŃ Ø§ÙģØ¸
ĠÙĨØ¹ ÙĦÙħ
ØŃ Ø¶Ø±
ĠÙĬØ´ Ø¨Ùĩ
ĠØ§ÙĦØµ Ø¯ÙĬÙĤ
ĠØ§ÙĦÙħØ¹ Ø§ÙĬÙĬØ±
ĠØ³ ÙħÙĪ
ĠØ§ÙĦÙħØ¬ Ø§ÙĪØ±Ø©
ĠØ§Ø¬ Ùĩ
ÙĪØ°ÙĥØ± Øª
ĠØ§ÙĦØªØ£ ÙĥØ¯
ĠÙĦØª Ø®
ĠØ£ÙĨ Ø³
ĠØ§Ø³Øª Ø¹Ø§Ø¯Ø©
ĠÙħ Ø¨Øª
ĠØ¨ Ø¢
ĠØ£ ØŃØ±
ĠØª ØµÙģ
Ø³Ùĩ ÙĬÙĦ
ĠØ§ÙĦÙħØ¤ ÙĤØª
ĠØŃØ¯ÙĬØ« Ùĩ
ĠØ§ÙĦØ« Ø§Ø¨Øª
.... ....
ĠÙĪØ± Ø´Ø©
ÙĩØ±Ø¨ Ø§Ø¡
ĠÙĪØ· ÙĨÙĬ
Ø§ÙĦØŃ ÙħØ¯
ĠØ§ÙĦÙĨ Ø¬ÙĪÙħ
ĠØ§ÙĦÙħØ³Øª ÙĪÙĬØ§Øª
Ø§Ùģ Ø¶ÙĦ
ĠØ§ÙĦØ¬ÙĨ Ø§Ø¦ÙĬØ©
ÙĥÙĬ ÙĬÙģ
ĠØ§ÙĦØ¨ Ø§ÙĦ
ĠØ§ÙĦÙĥ ØªØ±
ĠØµ ÙģØ©
ØŁØŁØŁØŁ ØŁØŁØŁØŁ
Ø±ØŃ ÙħÙĨ
ĠÙħØ³Øª Ø¹Ø¯
ĠØ£Ø± Ùī
ÙģÙĬ ÙħØ§
ĠØªØ® ÙģÙĬØ¶
ĠØ§ÙĦØ± ØŃÙĦØ©
ĠØ³ Ø¹Ø§Ø¯
ĠØ±Ùħ Ø²
ĠØ§Ø¯ Ø®ÙĦ
ĠÙĪØŃ ÙĤÙĪÙĤ
ĠÙĪÙĬ Ø¨
ĠØ§ÙĦØ¬ ÙĨØ³ÙĬ
ÙģØ³ Ø§Ø±
Ø£ ÙĩÙĦ
ĠØ§ÙĦÙħØ± Ø§ÙģÙĤ
ĠÙĬØ³Øª ÙħØ±
ĠØ§ÙĦÙħØ¨ Ø§Ø´Ø±Ø©
ĠØ¯ÙĪØ± Ø§Øª
ÙĨ Ø¸Ø±
ØªÙħ ÙĦØ©
ÙĥØ§ÙĨ ÙĬØ©
ĠØ¨Ø§ÙĦ Ø¥ÙĨ
ØªÙģ Ø¹Øª
ĠØ§ÙĦØ²ÙĪØ¬ ÙĬØ©
ÙĦÙģ ÙĦ
ĠÙĬ Ø±ÙģØ¹
ĠÙĪØ¨ Ø´ÙĥÙĦ
Ùĭ )
Ø· ÙĬØ§Øª
ĠØ§ÙĦØ£ÙĩÙĦ ÙĬØ©
ĠØ±Ø£Ø³ Ùĩ
¿ ½
ĠØ§ÙĦØ¹ÙĨ ÙĪØ§ÙĨ
ĠØ§ÙĦØ´Ø± Ø¹ÙĬ
ĠÙĬØª Ø¨Ø¹
ĠÙĪØ¹ ÙĦÙĬ
ĠØ§ÙĦÙģ ÙĨÙĪÙĨ
ĠØª ØªØ±Ø§ÙĪØŃ
ĠÙĪØ§ÙĦ ÙĤØ±
ĠØ§ÙĦØ¯ Ø¬Ø§Ø¬
ĠØ£Ø³ ÙĪØ§ÙĤ
ĠÙħÙĬÙĦ Ø§Ø¯
Ø¨Ø± Ø§Øª
ĠØ§ÙĦÙħØ± ØªØ¨Ø©
ĠÙĦÙĦØ´ Ø±ÙĥØ©
ĠØ§ÙĦØ§ ÙĥØª
ĠÙĬØª ÙĨØ§ÙĪÙĦ
ĠØ£ÙĨ Ø¯Ø±ÙĪÙĬØ¯
ĠØ§ÙĦÙĤ Ø§Ø¯Ø±
ĠÙĪ ÙĤÙĦ
ĠØ§ÙĦØª ÙĪØµ
ĠØªØ® Ø²ÙĬÙĨ
ĠÙĪØ£ÙĨ ÙĩØ§
ĠØ§ÙĦØŃ Ø§Ø¶Ø±
Ø³Ø± Ø¹
Ø£ ÙĦÙģ
Øµ Ø±Ùģ
ĠÙĬØŃ ÙĤ
ĠØ§ÙĦØªØ± Ùħ
ĠÙĪØ§ÙĨ ÙħØ§
ĠØ´Ø¨ ÙĥØ§Øª
ĠÙĪØª ØŃØ¯ÙĬØ¯
Ùĩ ÙĬØ¯
: âĢı
ÙĤØ¯ Ø§Ø±
ĠØ§ÙĦØ¢ ÙĬØ§Øª
ĠØ£ØŃØ¯ ÙĩÙħ
Ø£ Ø¹
Ø±Ø´ Ø§Ø¯
ĠØ§ÙĦØªÙĨ ÙģØ³
ĠØ¨Ø¹ ÙĬØ¯Ø©
ĠØ§ÙĦØ¶Ø± Ø§Ø¦Ø¨
ĠØ¥Ø¹ Ø·Ø§Ø¡
ĠØ§ÙĦÙĥ Ø§Ø¦ÙĨ
ow s
ĠØ«Ùħ Ø§ÙĨÙĬØ©
ÙĤ Ø°
ÙĬÙĤ ÙĬØ©
8 8
Ø¶ØŃ Ùĥ
ĠÙģ Ø§ÙĦØ£
ĠØ§ÙĦØªØº Ø°ÙĬØ©
ĠØ£ Ø³Ø·
ĠÙĪ ÙĤØ¯Ùħ
ĠÙĦÙĨ Ø¸Ø§Ùħ
ĠÙĦÙĦÙħ Ø´
ĠØ±Ø¤ Ø³Ø§Ø¡
Ø¹ Ø§ÙĨØ©
ĠØ£Ø¯ Øª
ĠÙħ ÙĦØ§Ùħ
ĠØ§ÙĦØ¬Ùħ ÙĩÙĪØ±ÙĬ
ĠØ§ÙĦÙĩ Ø¶Ùħ
ĠØ¨Ø¬ ÙĪØ¯Ø©
Ø¯ Ø§Ø¹
ĠØ´Ø®Øµ ÙĬØ§Øª
Øª Ø²Ùħ
ĠØ§ÙĦÙħØ³ Ø¦ÙĪÙĦ
ĠØ§ÙĦØ³ Ø§ØŃÙĦ
ĠØ§ÙĦØ´ Ø±Ø§Ø¡
ĠØ§ÙĦ Ø§Ø¹Ø¯
ĠØ¨ ØµØ±
ÙĪÙĩ Ø°Ùĩ
Ø¶ Øª
ĠØªØ¹ÙĦÙĬÙĤ Ø§Øª
ĠØ§ÙĦØ¹ ÙĬÙĪÙĨ
Ø·Ø¨ Ø§ÙĤ
ĠØ¯ Ø§Ø¹
ĠØ§ÙĦØŃ Ø¸
ĠÙħÙĦ ØŃÙĪ
n et
Ø° ÙĪØ±
ĠÙģ ÙĤØ±
ĠÙĬØ¹ÙħÙĦ ÙĪÙĨ
Ø§Ùĥ Ø³
Ø§Ø° ÙĨ
ĠØ¬ ÙĦØ§ÙĦ
ĠÙĥ ÙģØ§Ø¡Ø©
Ø§Ø² ÙĬÙĨ
ĠØ´Ø¹ ÙĪØ±
ĠÙĪØ§ÙĦØ¹ ÙĦÙħ
ĠØ±Ø£Ø³ ÙĩØ§
ĠÙħÙĪÙĤØ¹ ÙĨØ§
ĠØº Ø³ÙĦ
ĠØ§ÙĦ ÙĪÙĦØ§ÙĬØ©
ĠÙģ ÙĨÙĬ
ĠÙħØ¨ Ø§Ø¯Ø¦
Ø¹ ÙĥØ³
ĠØªØ³Øª ØŃÙĤ
ĠØ§ÙĦÙģ Ø§Ø±
ĠØ§ÙĦÙĪØ§Ø¬ Ø¨
Ø¬ÙĦ ÙĪØ³
ØªÙģ Ø§Ø¶Ø©
ĠØªØªÙħ ÙĥÙĨ
ĠØª Ø³ÙĦ
ĠÙģ ÙĦÙĬØ³
ĠØª Ø±ÙĬ
ĠØ§ ÙĬÙĩ
Ø§ÙĦ Ø¬Ùħ
ĠØ§ÙĦÙħØ°Ùĥ ÙĪØ±
ĠØ£ Ø°
ĠÙħÙĨØ§Ùģ Ø³Ø§Øª
ĠØ·Ø±ÙĬÙĤ Ùĩ
ĠØ§ÙĦØŃØ± Ø§Ùħ
Ø§Ùĥ ÙĩØ©
ĠØ±Ø¦ÙĬØ³ Ø©
ĠØ¯ ÙĦ
ĠØ§ÙĦØ·Ø¨ ÙĤØ©
ĠÙħ Ø¨Ø¯
ÙĦØ¨ ÙĨØ§ÙĨ
ĠØ£Ùħ Ø±ÙĬÙĥÙĬØ©
Ġ3 3
Ø³Øª Ùĩ
ĠØ¨Ø§ÙĨ Øª
ĠØ§ÙĦÙĤ Ø±ÙĬØ¨Ø©
ĠØ§ÙĦØµ Ø¹Ø¨Ø©
ĠØŃ Ø¯Ø¯
ĠØ§ÙĦØ¬ ÙĬØ¯
ĠÙĤÙĦØ¨ Ùĩ
ĠÙħ Ø³ÙĬ
ĠØªØ§Ø±ÙĬØ® ÙĬØ©
ĠØ§Ø· ÙĦØ§ÙĤ
ĠØ§ÙĦØ³ ÙĨÙĬÙĨ
ĠØ§ÙĦØ¨ÙĨ Ø§Øª
ĠØ§ÙĦØ§ØªÙģØ§ÙĤ ÙĬØ©
Ø¦ ÙĪÙĬØ©
Ġ1 000
ĠÙģ Øµ
Ø§Ø¨ ÙĪÙĨ
ĠØ¯Ø§Ø® ÙĦÙĬØ©
ĠÙĪ ÙĥØ±
Ø¹ ÙĪÙħØ©
ĠØ® Ø´
Ø¬ ÙĩØ§
ÙĦ Ø§ØŃØ¸
ĠØ§ÙĦ Ø§ØªÙĩ
Ø±Ø¬ Ø§Ø¹
ĠØ§ÙĦØªØ¯Ø±ÙĬØ¨ ÙĬØ©
Ø· ÙĪØ§ÙĨ
ÙħØ« Ø¨
ĠÙĪØ¨ ÙħØ§
ĠØ§ÙĦØ¯ ÙĥØªÙĪØ±Ø©
ĠØ§ÙĦØ¥ÙĤÙĦÙĬÙħ ÙĬ
ĠØ§ÙĦØ§Ø±Ø¯ ÙĨ
ĠØ§ÙĦØ§ ÙĬØ§Ùħ
ĠÙĦÙĦÙĨ Ø¸Ø§Ùħ
ĠØ§ØŃØ¯ Ø«
Ø£ Ø«ÙĬØ±
ĠÙĪÙħ Ùĩ
ĠØ§ÙĦØŃÙĪØ« ÙĬÙĬÙĨ
ĠØ§ÙĦØ§Ø³ÙĦØ§Ùħ ÙĬ
ĠA l
ĠÙĬ Ø¶ÙħÙĨ
ÙĪØ¨Ø§ ÙĬÙĦ
ØªÙĪÙĬ ØªØ±
ĠØ¨Øª ÙĦÙĥ
ĠÙĦÙĦØ¹ Ø§ÙĦÙħ
ĠØ§Ø³Øª Ø«
ĠÙĦ Ø§Ø¨
ĠØ§ÙĦØ¹ÙĤ Ø§Ø±ÙĬ
ĠØ® ÙĦÙĬÙĦ
âĢı ,
ĠØ§ÙĦØŃ Ø§Ø³Ø¨
ĠØ§ÙĦØ¹ Ø§Ø´Ø±Ø©
ĠÙĪØ§ÙĦØª Ø³
ĠÙħØ´ ÙĬØ±Ø©
ÙĪØ£ ÙĪØ¶ØŃØª
ÙħØ¨Ø± Ø§Ø·
ĠÙħÙĪ Ø§ØµÙĦØ©
ĠØ§ÙĦÙħØª Ø¹Ø¯Ø¯Ø©
ĠÙģ Ø§Ø±Ø³
ĠØ§ÙĦØ´ÙħØ³ ÙĬØ©
ĠØ§ÙĦØ· ÙĤØ³
ĠÙħØŃØ¯ Ø¯
ĠÙħØŃ Ø¨
ĠØ²Ø± Ø§Ø¹Ø©
ĠØ§ÙĦØ¯ ÙĦÙĬÙĦ
ÙģØ± Ø§Ø¬
ĠØ§ÙĦØ£ Ø³ÙħØ§Ø¡
ĠØ¨ÙĦ Ø§Øº
ĠÙĬÙģ ÙĬØ¯
ÙĤÙĬ Øª
ĠÙĪØª Ø·Ø¨ÙĬÙĤ
ĠØ§Ø¹ ØªÙĤØ¯
ĠØ§ÙĦØ£Ø´ ÙĩØ±
ĠØ³ Ø£ÙĦ
ĠÙĦÙĦÙĤ Ø¶Ø§Ø¡
ĠØ§ØŃ ØªØ±
ĠØ§ÙĦØµ Ø§Ø±
ĠØ§ÙĦÙħ Ø«ÙĦ
ĠØº Ø²
ĠÙĦÙĦ ÙħÙĦ
Ø²ÙĪØ¬ Ø©
ĠØ§ÙĦÙĤ Ø§Ø±Ø¦
ĠØ® Ø§Ø¶
ĠØ¯ ÙĬÙģ
ĠØ§ÙĦØ· ÙĪØ§Ø±Ø¦
ĠØ§ÙĦØª ÙĤØ¯ÙĬÙħ
ĠÙħ ÙĤØ·Ø¹
ĠÙħØ³Øª ÙĤÙĦØ©
ĠÙĩ Ø§Ø±
ĠØ¹ Ø§ÙĦÙĬ
ĠÙĬ ÙĤØ±Ø£
ĠØ® Ø§Ùħ
ĠÙĩ ÙĬÙĦ
ÙĦØ§ ÙĬÙĨ
Ø§Ø· Ø¦Ø©
ĠÙĦ Ø§Ø²
Ø° Ø§Ø¹Ø©
ĠØª Ø±Ø¨ÙĬØ©
ĠÙģ Ø£ÙĨØª
ot e
ĠØ§ÙĦÙĥ Ø¨Ø¯
ĠÙĬ ÙĪ
Ø§Ø¬ ÙĬ
ĠØ§ÙĦÙĥ ÙĪÙĬØªÙĬ
ĠÙĦØ§Ø³Øª Ø®Ø¯Ø§Ùħ
ĠØ§ÙĦØ³ ÙĪÙģÙĬ
ĠÙĪØ§ÙĦ ÙĬ
ĠÙĥ Ø§Ø³
ĠØªØŃ Ø±Ùĥ
ĠØ§ÙĦÙħ ÙĬØª
ÙĪØ±ÙĬ ÙĪØ³
Ġ200 4
ĠØ±Ø¯ ÙĪØ¯
ĠÙĪØ§ÙĦØ£ Ø¯
ÙĬØ± ÙĪ
ĠØ³ Ø§Ø®
ĠÙĦÙĦ Ø«
ĠÙħÙĬÙĨ Ø§Ø¡
ĠØ¯ÙĪÙĦ ÙĬ
ĠØ· ÙĬØ¨Ø©
ĠØ§Ø³ Ø¨ÙĪØ¹
ĠÙĤØ§Ùħ ÙĪØ§
ĠÙģ Ø±ÙĬØ¯
ÙĦ ÙĤØ©
ĠØ§ÙĦÙĤØ± Ùī
ĠØ§ÙĦÙģ ÙĬØ³
ĠØ§ÙĦÙĤ Ø·Ø±ÙĬØ©
ĠÙħØ¶ Ùī
Ø¹ÙħÙĦ Ø©
ĠØ£ ÙĪÙĤØ§Øª
Ø£ Ø®Ø±
ĠÙĦØ§ØŃ ÙĤ
ØµØ± ØŃ
ï» Į
ĠÙĦÙħ ØµØ±
ĠÙĪØ¨ Ùħ
ĠØ¹Ø¯Ø¯ ÙĩØ§
ĠÙĦÙĩ ÙħØ§
Ø¨Ø¯ Ø§ÙĦ
ÙĨØ¯ Ø³ÙĬÙĨ
ĠÙĪØŃ ÙĬÙĨ
ĠØ§ÙĦØ¨ Ø·ÙĨ
ĠÙĪØ¶Ø¹ ÙĩØ§
ĠØ§ÙĦÙĪØ¸ ÙĬÙģØ©
Ø¬Ùĩ ÙĬØ²
q u
ĠØ· Ø±Ø¯
ĠÙ ±
ĠØ± ÙĪÙħØ§
ĠØ§ÙĦÙħØµ Ø§Ø¨ÙĬÙĨ
ĠØ§ÙĦÙĤ ØµØ±
ĠØ£ ÙĬÙĦÙĪÙĦ
Ø§Ø¯ Ùģ
ØŃ ÙħØ§Ùħ
ĠÙħ ÙĥÙĪÙĨØ§Øª
ĠØ§ÙĦÙħØŃ Ø§ÙĥÙħ
ĠØ§ÙĦØ¯Ø¹ ÙĪÙī
ÙħØ«Ø¨ ÙĢÙĢØª
ĠØ§ÙĦØ¶ ÙħØ§ÙĨ
ĠÙĪØ¹ ÙĦÙĬÙĩ
ĠØ§ÙĦÙħ Ø¯Ø©
Ø§Ø· ÙĬÙĨ
ĠØ§ÙĦØ§Øµ ÙĦÙĬ
ĠÙĨØ¸Ø± ÙĬØ©
ĠÙĦØª ÙĪÙģÙĬØ±
ĠÙĨØµ ÙĬØ¨
ĠØ§ÙĦÙĪÙĤ ÙĪÙģ
ĠÙĬÙģ ØªØŃ
ĠØ§ÙĦØ°Ùĩ Ø¨ÙĬ
ĠØ§ÙĦ ÙĪÙĬØ¨
ĠÙĨÙħ Ø·
ĠÙħÙĤ Ø§Ø·Ø¹Ø©
ĠÙĨØ¯ ÙĪØ©
Ø§Ø £
ĠÙĬØª ÙĪÙĤÙģ
Ø¯ ÙĤØ§Ø¡
ĠØ¨ÙĨ ØŃÙĪ
ĠØ§ÙĦÙħØ± Ø§ØŃÙĦ
ĠÙħØ± Ø§Ø¹Ø§Ø©
ĠØ¨Øª ÙĩÙħØ©
ÙĪØ§Ùħ Ø±
ĠÙĦÙĦ ØŃØ¯
ĠÙĤ Ø§Ø¹Ø©
ĠÙĪØ£ Ø®Ø°
ĠØ£ ÙĪØ¶Ø§Ø¹
ĠØ·Ø± Ø§Ø¨ÙĦØ³
ĠÙĦÙĦØªØ¹ ÙĦÙĬÙħ
ĠØ¨Ø¹Ø¯ Ø¯
ĠØ§ÙĦÙĤØ· Ø±ÙĬ
ĠØ³ ÙĬØ¯Ø©
ĠØ§ÙĦØ¹ Ø´Ø§Ø¡
ĠØ¨Ùħ ØµØ±
ØªÙĩ ÙĨ
ĠØŃÙĥ ÙĪÙħÙĬØ©
ĠØ§Ø³Øª ÙĩÙĦØ§Ùĥ
ĠÙĥØ« Ø±Ø©
ĠØ£ Ø·ÙĪÙĦ
ĠØ§ÙĦØŃÙĥ ÙĪÙħØ§Øª
ÙĥÙĦ Ø§Ùħ
Ùĥ ÙĬÙĦØ©
ĠØ§ÙĦÙħÙĪ Ø§ÙģÙĤØ©
ĠØ¬ ÙĨÙĬÙģ
Ø±ÙĬ Ø§ÙĨ
ĠØ§ÙĦØ¬ Ø³
ĠÙĬ Ø®Øª
Øº ÙģØ±
ÙĪ Ø§Ø¶ÙĬØ¹
ĠÙħÙĪØ¸ Ùģ
ÙħØ± Øª
ind ows
ĠØªØª ÙĪÙģØ±
ĠÙħÙĤ Ø§ÙĦØ§Øª
Ø® Ø§Ùħ
ĠØ± Ø¨ÙĬ
ĠØ§ÙĦØ¨ Ø§Ø¨Ø§
c t
Ùģ Ø§Ø¯Øª
ĠØ¹ ÙĬÙĪÙĨ
ĠØ£ÙĦ ÙĪØ§ÙĨ
ĠÙĪÙħ Ø¨
Ø± Ø§Ø±
201 0
ĠØ³ Ø§Ø¹
ÙĥÙĬÙģ ÙĬØ©
ĠØŃØ§ÙĪÙĦ Øª
ĠØ§ÙĦØ® Ø·Ø±
ĠÙĨ Ø³ÙĬ
ĠØ§ÙĦØº Ø¶Ø¨
ĠÙĪØ¥ ØµØ§Ø¨Ø©
ĠØ¨Ø§ÙĦ Ø²
Ġïº ĳ
ĠÙĦ Ø´Ø±Ø§Ø¡
ĠØ§ÙĦØªÙĤ ÙĨÙĬØ§Øª
ĠØ² Ø¹Ùħ
ĠØ£Ø±Ø¨ Ø§ØŃ
ĠØ§ÙĦÙĨÙĤ Ø§Ø´
ĠÙĨÙĪØ¹ ÙĩØ§
ĠØ¥ÙĨ ÙĩÙħ
Ġ 00
ĠÙĤØ¯ ÙĬÙħØ©
ĠÙĩ Ø±Ùħ
ÙĪØ² Ø¹
Ø³ Ø§Ø·
ĠØ§ÙĦÙģ Ø§Ø¦
Ġâ Ĩ
ĠØªØŃØ¯ Ø¯
ĠÙĪ Ø§Ø·
ĠÙĪØŃ Ø³Ø¨
ĠØ³ ÙĩÙħ
ĠÙħ Ø§Ø¦Ø©
ØŃ ÙħÙĦ
ĠÙĬ ÙĪØªÙĬÙĪØ¨
ĠØ®Ø±Ø¬ Øª
ĠØ§ÙĦÙĦ Ø§Ø²Ùħ
ÙĬÙĥ Ø§ÙĨÙĬ
p p
ĠØªØ³Ùħ Ùī
ĠØ´ ØŃÙĨ
Ø´Ùĩ Ø§Ø¯
âĢ ĺ
ĠÙĦØ´ Ø®Øµ
ĠØª ÙģØ³
ĠÙĪØªØŃ Ø³ÙĬÙĨ
ÙģÙĤ Ø§Øª
ÙĥØ± Ø§ÙĨÙĬØ§
ĠÙħ Ø·Ø±
ÙĬØ² ÙĬØ§
Ø¬Ø² ÙĬØ±Ø©
ÙĬÙģ ÙĬØ©
7 5
ĠÙĪØŃ ÙħØ§ÙĬØ©
Ø·ÙĨ Ø¨ÙĪÙĦ
ĠÙĪØ§ÙĦ Ø¬Ø±
ĠØ§ÙĦÙħ Ø®ØµØµØ©
Ùĥ Ùī
ĠØ¹ Ø²ÙĦ
Ø±ÙĬ ÙģØ©
ĠA rab
ĠÙħÙĨÙĩ Ø¬
Ùł Ùł
ĠØ® Ø³Ø±
Ùħ ÙĪØ¯
ĠØ§Ø´ ÙĩØ±
ĠÙħØµØ± ÙĬØ©
ĠÙĪØª ØŃØ¯
ĠØªÙģ ÙĤØ¯
ÙĦÙħ Ø³
ĠØ§ÙĦØ¨ ØµØ±Ø©
ĠØªÙħ ÙĥÙĨØª
ĠØ§ÙĦØ± ØŃÙħ
ĠØ§ÙĦØ§Ø® ØªÙĦØ§Ùģ
ĠÙĤØ¯Ø± Ø§Øª
ĠØ³ ÙĨØªÙĬÙĨ
ĠØ§ÙĦÙħØ³ÙĬ ØŃÙĬØ©
ĠØŃ ÙĤÙĬÙĤ
ĠØªÙĦÙĤ Ùī
ĠÙĦÙĦØª Ø®ÙĦØµ
ĠØ§ÙĦØ¹ Ø§Ø´Ø±
Ġ7 5
ĠØª Ø°ÙĩØ¨
Ø®Ø± ÙĬØ©
ĠÙħÙĤ Ø§Ø·Ø¹
ĠØ¨ØªØµ ÙħÙĬÙħ
ĠÙĨØ³ ÙħØ©
ĠØ§ÙĦÙħ Ø±Ùģ
ĠØ´Ø®Øµ ÙĬØ§
Ø¬Ùĩ Ø§Ø¯
Ø§ÙĦ Ø¨Ø±
ĠÙģÙĬ Ø³
ĠÙĬÙĤÙĪÙħ ÙĪÙĨ
ĠØ§ÙĦØªÙħÙĬ ÙĬØ²
ĠØ§ØŃ Ø¯Ùī
ÙĪØ§ ÙĩØ§
ĠØ£Ø® ÙĬØ±Ø§
Ø±ØŃ Ùħ
ÙĬÙħ ÙĪÙĨ
Ø·Ø¨ÙĬ Ø¹
ĠØ§ÙĦÙĨØ¸Ø± ÙĬØ©
ĠÙħØ«ÙĦ ÙħØ§
Ø¬ Ø§Ø¹Ø©
Ø¥ÙĨ Ùĩ
ĠØª ÙĨØ³ÙĬÙĤ
ĠÙĪÙĦ ÙħØ§
ĠØ¨ÙĬÙĨ Ùĩ
ĠØ£Ø´ Ø±Ùģ
ĠØ£Ùĩ Ø§ÙĦÙĬ
ĠØ¨ Ø¨Ø±
ĠØ³ Ø¨ÙĦ
ĠØ§ÙĦÙħ Ø¨Ø¯
ĠØ£Ø±Ø¯ Øª
ĠØ¨ØŃ ÙĥÙħ
ÙĬØ± ÙĬÙĨ
ĠÙĤ Ø§Ø¦Ùħ
Ø® Ø§ÙĨ
ĠØ§ÙĦØŃ Ø§Ø³ÙĪØ¨
ĠØ§ÙĦÙħ Ø®Ø±Ø¬
ĠÙĬ ÙĥØª
ĠØ§Ø³Øª Ø±
ĠØ¨Ø§Øª Øª
ĠØ§ÙĦØ¯Ø± Ø³
ĠØ§ØŃ Øª
ĠØ§Ø¨ ØªØ¯
ĠØ§ÙĦÙĬØ§Ø¨ Ø§ÙĨÙĬØ©
ĠÙĦÙĦØ§Øª ØŃØ§Ø¯
ĠØ³ÙĨ Ùĩ
Ø§Ø³ Ùĩ
ÙĪØ±ÙĬ Ø¯
ĠØª Ø·ÙĦ
ØµÙĦ ØŃ
ÙĬÙĥ Ø³
9 6
it y
ĠØ§ÙĦØ§Ø® Ø±
ĠØ§ÙĦØ¹ Ø¸Ø§Ùħ
ĠØ§ÙĦØ¹ÙĤ Ø§Ø±ÙĬØ©
ĠÙĤÙĬÙħ ØªÙĩØ§
ĠØ§ÙĦÙħÙħ ÙĬØ²
ĠØ§ÙĦÙħØ³ Ø§Ø±
ĠØ¨ Ø°ÙĦ
ĠØ§ÙĦØªØ¹ Ø±Ø¶
Ø² ÙĦØ©
ĠØ§ÙĦÙħØ¹ Ø§ÙĦØ¬
Ø§Ø¯ ÙĬÙħÙĬ
ĠØ¥Ø¯ ÙĦØ¨
m a
ĠØ³ Ø¯
ĠØ¨ Ø§Ø·
ĠÙħØ® Ø§ÙĦÙģØ©
ĠÙħØ§ Ùĥ
Øª ÙĤØ¯Ùħ
ĠØ§ÙĦÙħÙĤ Ø§Ùħ
ĠØ§ÙĦØ£Ø¯ ÙĨÙī
ĠÙĦ Ø£Ø³
Ø§ÙĦ ÙĬÙĨ
Ø§Ùĩ ÙĬØ±
ÙĬÙĪ Ø§ÙĨØ§Øª
Ø¬Ø¯ ÙĬØ±
ÙĬÙħ ÙĪÙĤØ±
ĠØ§ÙĦÙħÙĦ ØŃ
ĠØ§ÙĦØ· ÙĬÙĪØ±
ĠØ§Ùģ Ø±ÙĬÙĤÙĬØ§
ĠØ± Ø§Ø¬Ø¹
ĠØ§ÙĦØŃ ÙĦÙħ
ĠØ§ ÙĬÙĨ
ĠÙĦÙĦ Ø·ÙĦØ§Ø¨
Ø§ÙĦ Ø£ÙĨ
ĠØ§ÙĦØ¬ Ø³Ø¯
ĠØªØª Ø±Ùĥ
Ø® ÙĦØ§ÙĦ
ÙĬ ØªÙĬ
ĠØ¨ØªÙĨ ÙģÙĬØ°
ĠÙĦÙĦ Ø®Ø¨Ø±
ĠØ¨ Ø±Ùģ
ĠØ§ÙĦØ£Ùħ Ø·Ø§Ø±
ĠØ§Ø± ÙĬØ¯
ÙĪÙĬØ³ Ø±Ø§
ĠØ§ÙĦÙħØ³ Ø§Ø¬Ø¯
ĠØ§ÙĦØ¹ Ø§Ø¯Ø©
ĠØ§ÙĦØ§Ø³ ØªÙħØ±Ø§Ø±
Ø§Øµ ÙģØ©
ĠØª Ø°
ĠØ¹ÙħØ± Ø§ÙĨ
ĠØ£Ø¹ ÙĦØ§Ùĩ
ÙĨØª Ø¸Ø±
ĠØ§ÙĦÙģ Ø´ÙĦ
Ø±Ø¨ Ø§
ĠØª Ø§ÙĬÙħ
ĠØµ Ø§Ø¯Ø±
ĠØ¨ÙĬ ØªÙĩ
ÙĥØ±ÙĬ Ø§Øª
ĠØ§ÙĦØŃÙĥ ÙħØ©
ĠÙĦØ£ Ø³Ø¨Ø§Ø¨
ĠÙĪØ£ Ø±
ĠØ§ÙĦØ¬ ÙĪØ§ÙĦ
ĠØ§ ÙĬØ¬
ĠØ¨Ø§ÙĦ ÙĤÙĪÙĦ
ĠÙĪØ¥ Ø¯Ø§Ø±Ø©
ĠØ§ÙĦÙħ Ø·Ø§Ø¹Ùħ
ĠÙħÙĤ Ø¹Ø¯
ĠØ¨ Ø·Ø±
ĠØ§ÙĦÙĨ Ø§ØµØ±
ĠØ£Øµ ÙĪØ§Øª
Ø¬Ùħ Ø§Ø¹
ÙĨØ§Ùĩ Ø¬
Ø§Ø¯ ØªÙĩØ§
Ø¨Ø± ÙĬØ©
on t
ĠÙĦØ· ÙĬÙģ
ĠØ§ÙĦÙħØ¯Ø± Ø³ÙĬØ©
ĠØªØ³ ÙĬØ±
ĠØ§ÙĦÙĤ ÙĪÙĬ
ĠØ¢ÙĨ Ø°Ø§Ùĥ
ĠØ§ÙĦØ¬ Ø¨
Ùĥ Ø´Ø§Ùģ
ĠÙĦ ÙĪÙĥØ§ÙĦØ©
ĠÙĪØ¨Ø¯ ÙĪÙĨ
ĠØ§ÙĦØ£Øµ ÙĪØ§Øª
ĠÙħ Ø¬Ø±
ĠÙĩ Ø§Ø¯ÙĬ
ĠØ£ Ø³ÙĦØŃØ©
ÙģØ³ ÙĩÙħ
ĠØ°Ùĩ Ø¨Øª
ĠØ± Ø§
ĠÙĦÙĦØ¯ ÙģØ§Ø¹
ÙĤØ§ÙĦ ÙĬØ¯
ĠÙĥ Ø§ØªØ¨
ĠØ§ÙĦØª ÙĪØ¬ÙĬÙĩ
ĠÙħØŃØ§ÙģØ¸ Ø§Øª
Ø¹Ø¯ Ø§Ø¡
ĠØ£ Ø·
ØªØµ Ø§ÙĦ
ĠØ§ÙĦÙĥÙĪÙĬØª ÙĬØ©
ÙĥØª ÙĬØ±ÙĬØ§
ĠØ§ÙĦØªØ· ÙĪØ±Ø§Øª
ĠØª Ø®Øª
ĠÙĪÙĦÙĬ Ø¯
ÙģÙĪ Ø¸Ø©
ĠØ§ÙĦÙħØ³Øª Ø´ÙģÙĬØ§Øª
ĠØ§ÙĦØ® Ø¨Ø²
ĠØŃ Ø¯Ø©
ĠØªØ´ Ø¬ÙĬØ¹
ĠØ§ÙĦÙĪØ³ Ùħ
Ø±Ø³ ÙĪÙĦ
ØµÙĦ ÙĬØ©
ĠÙħØ³Øª ÙĤØ¨
ĠØªÙĥØ± Ø§Ø±
ĠØ´ ÙĪØ§Ø±Ø¹
ĠØ±Ø¨ ÙĨØ§
ĠÙħØ® ÙĬÙħ
ĠØ§ÙĦÙħ Ø¨Ø±
ĠØ§ÙĦØ³ ÙĩÙĦ
ĠÙħØ·ÙĦ ÙĪØ¨
ĠÙħØ® ØªØµ
ĠÙĪÙħØŃ ÙħØ¯
ĠØ§ÙĦÙĤØ± Ø§ÙĨ
ĠØ¨Ø¹ÙħÙĦ ÙĬØ©
ĠÙĪØ² ÙĬØ±Ø©
ĠØ§Ø± ØªØ¨Ø§Ø·
ĠØ£ÙĪ Ø§Ø®Ø±
ĠØ§ÙĦØ£ Ø¹Ø±Ø§Ø¶
ĠÙĦÙĨÙģØ³ Ùĩ
ĠØ¥ÙĬØ¬ Ø§Ø¨ÙĬØ©
m in
ĠØ§ÙĦÙĥ ÙĪÙħ
ĠÙħÙģ Ø§ÙĪØ¶
ØªØ¹ ØªØ¨Ø±
ĠØ´Ø¨ Ø§Ø·
ĠÙĪÙħÙĨ Ø¹
ĠØ§Ø³Ùħ ÙĩØ§
ĠØ£Ø« Ø§Ø±
ĠØ§ÙĦØ§Ø³Øª Ø«ÙħØ§Ø±Ø§Øª
ĠØ³ÙĬ Ø§Ø³Ø§Øª
ĠØªÙĨ ÙģÙĬ
ĠØ± Ø¨Ùĩ
ĠØª Ø§Ùħ
oo k
ĠÙħØ¹ Ø³ÙĥØ±
ØªÙħ ÙĬÙĨ
ĠØ¹ Ø¬
ĠØ§ÙĦØ£ Ø±ÙĤØ§Ùħ
ĠØ¨Ø£Ø³ Ø¹Ø§Ø±
ĠØ§ÙĦØ«ÙĤ ÙĬÙĦØ©
ĠÙħØŃ Ø·Ø§Øª
ĠØ¢ ÙĬØ§Øª
ĠØ§Ø¹ Ø§Ø¯Ø©
ÙĪØ§ØŃ ÙĬ
ĠØ¹ÙĦÙħ ÙĬ
ĠÙĪØ£ ÙĪÙĦ
Ø² Ø§ÙĨ
Ø§Ùģ Ø§
Ø³Ø± Ø¹Ø©
Ùĥ ÙĨØ§
ØªØ± ÙĤ
ĠØ§ÙĦÙħØ® Ø§ÙĦÙģ
ĠÙħØ« Ø§ÙĦ
Ø® ÙĦÙĬ
ĠÙħØ¹Ø±ÙĪÙģ Ø©
Ø³Ø§Ø¡ ÙĦ
Ùģ ÙĤØ§ÙĦ
Ø£ Ø³Ùħ
ĠØ§ÙĦÙĥØ§Ùħ ÙĬØ±Ø§
ĠØ§ÙĦØ¯ ÙĪØŃØ©
ĠÙĪØ§ÙĦ Ø«ÙĤØ§ÙģØ©
Ø±ÙĬ Ø¬ÙĬ
ĠÙħØ³Øª ÙĪÙĬ
Q u
ĠÙĬÙĤ Ø¶ÙĬ
ar d
ĠÙĬÙĨ ØªÙĩÙĬ
ÙĪ Ø§Ø¯Ø±
Ø§Ø²ÙĬ ÙĦÙĬ
ĠØ§ÙĦØµ ÙĦØ©
ĠØ§ÙĦÙħÙģØª ÙĪØŃ
ÙĮ ØĮ
ĠØ§ÙĦØª ÙĦÙģ
ĠØ¨Ø§ÙĦ Ø¨Ø±
ĠØ¹Øµ ÙĬØ±
Ø£ ØŃÙħØ¯
ĠØ§ÙĦØªØ¯ Ø®ÙĬÙĨ
ĠØ§ÙĦØ³ÙĨ ÙĪÙĬØ©
Ø¯Ùħ Ø¬
ÙĥØ§ÙĦ ÙĬÙģ
ÙĬ ØŃØ©
ĠÙĦÙĦÙħ Ø¬ÙĦØ³
ĠØ¹Ùħ Ø§ÙĦ
ØŃ Ø§ÙĦØ©
ĠØ¥ Ø³Ø¨Ø§ÙĨÙĬØ§
ĠØ§ÙĦÙĨØ¨ ÙĪÙĬ
ØªÙģ Øª
ĠØ¨Ø£ Ø¹ÙħØ§ÙĦ
ĠÙĩÙĪ ÙĬØ©
ÙĦ Ø·
ĠÙĨ Ø¸ÙĬÙģ
ÙĪÙĥ Ø©
ĠØ³ÙĬ Ø¦Ø©
ĠÙĩØ± ÙĬØ±Ø©
ĠØ§Ø³Øª ÙĩØ¯Ø§Ùģ
ĠØ³Ø± Ø·Ø§ÙĨ
ĠØ§ÙĦØ² Ø¹ÙĬÙħ
ĠØ¯ Ø¨
ĠØ£Øµ ÙĦØ§
ĠØ§ÙĦÙħØª Ø®ØµØµ
ĠØ§ÙĦØ± Ø¬Ø§Ø¡
Ø¹Ø§Ø± Ø¶Ø©
ĠÙĪØ£ ÙĩÙħ
ĠØ¨ Ø§ØŃØ«
ÙĤ Ø§Ø±ÙĨØ©
ĠØ§Ø¨ ÙĨØ§Ø¡
ĠØµØŃ ÙģÙĬØ©
ĠØ§ÙĦÙĤ Ø³
ĠÙĬØ¯ ÙĪØ±
ĠØ¹ÙħÙĦ Øª
Ø§Ø¨ ÙĬØ¨
Ùħ Ø¬ÙħÙĪØ¹Ø©
ĠÙħØ¯ ÙĪÙĨØ©
ĠØ³Ø¨ Ø§ÙĤ
Ø£ Ùĩ
ĠØ§ÙĦÙĥ ÙĦÙĬ
ĠÙĨØ¹ ÙĬØ´
ĠÙĪØ§ÙĦ Ø§Ø¨
ĠØªÙĤØ¯Ùħ ÙĩØ§
ĠØ¨Ø§ÙĦ ØªÙģ
ĠØ§ÙĦØ¥ Ø´
ĠØ§Ø® ØªØµØ§Øµ
Ø¬ÙĦ ØªØ±Ø§
ĠØ¨ ÙĪØ²Ø§Ø±Ø©
ĠØªØ£ Ø®Ø±
ĠØ§ÙĦØ£ ØŃÙĬØ§Ø¡
ĠØ¹ÙĨ ÙĩÙħØ§
ĠØ§ÙĦØµÙĪØª ÙĬØ©
ÙĪÙĨ Øº
ĠØ¢Ø®Ø± ÙĪÙĨ
ĠØ§ÙĦØ£ Ø³Ø·
ĠÙĦØªØŃ Ø³ÙĬÙĨ
ĠÙĦ ÙĬÙĦØ§
ĠØª Ø®Ø·
Ø§Ùħ ØŃ
Ùħ Ø±ÙĥØ²
l ay
om e
ĠØ§ÙĦØ² ÙĪØ§Ø±
ÙĨ Ø¯Ø§
ĠØŃÙĬØ§Øª ÙĩØ§
ĠÙħÙĬØ² Ø§ÙĨ
Ø³Ø¨ Øª
ĠÙħ Ø®Ø·Ø·
ĠØŃ ØµØ±
ĠØ§ÙĦØ³Ø¬ ÙĪÙĨ
Ġ ðŁ
ÙĦÙĬ Ø¯
ĠÙĪ ÙĥÙĨØª
ĠØ¨ ÙĬÙĦ
ĠÙĪØ§ÙĦ ØªÙĩ
Ø¯Ø¹ Ø§Ø¡
Ø§Ùħ Ø¹Ø§Øª
% ØĮ
ĠÙħ Ø¨ÙĬØ¹Ø§Øª
ÙĢ Ø¨
Ø§Ùģ ÙĬÙĩ
ĠØ¬ ÙĦØ¨
ĠØ§ÙĦØº Ø±Ø¶
Ø³ØªØ± Ø§ÙĦÙĬØ§
ĠØªØ¯Ø±ÙĬØ¨ ÙĬØ©
ĠØ§ÙĦØŃØ³ Ø§Ø¨Ø§Øª
ĠØ´ Ø¬Ø±Ø©
ĠØŃÙĪÙĦ ÙĩØ§
ĠØºØ¶ ÙĪÙĨ
ĠÙĤ Ø³
ĠØ¨ÙĨ Ø´Ø±
ĠØ§ÙĦØ¨Ø± ÙĦÙħØ§ÙĨÙĬØ©
ĠØ§ÙĦÙħØ´Ø± ÙĪØ¨Ø§Øª
ĠÙħÙģ ÙĬØ¯
Ø§ÙĦÙħ ØŃ
ĠØ£ ÙĦØ¨
ĠØ± ØºØ¨
ĠØ§ÙĦÙĨ ØŃ
ĠØ£ÙĩÙħ ÙĩØ§
ĠØ§ÙĦÙħ Ø³Ùħ
ÙĦÙĬ Ø§Ùģ
ĠÙĪÙĤ ØªÙĦ
ĠØ§ÙĦÙĤØµ Øµ
ĠØªÙĪ Ø§ÙģÙĤ
ĠÙĪØª ÙĤØ¯Ùħ
ĠØ§ÙĦØªØ¹ Ø§ÙĤØ¯
Ø±Ùĥ ÙĬ
ĠØ® ØªØ§Ùħ
ĠÙĪØ§ÙĦØ³ÙĬ Ø§Ø³ÙĬØ©
ÙĪ Ø§Ø¦ØŃ
ĠØ§ÙĦÙħÙĪ Ø§Ø¬ÙĩØ©
Ø¤ Ø§Ø¯
ĠÙĩ Ø¬ÙħØ§Øª
ĠÙĤ ÙĦØ©
ĠØ¨ ØªÙģ
ÙĬÙĨ Øª
ÙĪØ§Ø¶ Ø§Ùģ
Ø¹ ÙħØ©
ĠÙĪØ§ÙĦÙĤ Ø§ÙĨÙĪÙĨ
ĠÙħ ÙĪØ±
a x
ĠÙħØ¨ Ø§ÙĦØº
ĠØªÙģ ÙĪÙĤ
ĠØ¨Ùĥ Ø§ÙģØ©
ĠØ§ÙĦØµÙĨ Ø§Ø¹Ø§Øª
ĠØ§ÙĦØª ÙĦØ§ÙħÙĬØ°
ĠÙģÙĬ ÙĤÙĪÙĦ
ĠØ±Ø¦ÙĬØ³ ÙĬØ©
p h
ĠÙħØ³ ÙĬØ±
ĠØ¬ ÙĪÙĦ
Ø¬ Ø§Øª
ĠØ§ÙĦÙģ ÙĪÙĦ
ĠØ§ÙĦØ¬ Ø§Ø¦Ø²Ø©
ĠÙĦÙĦ Ø¶
ĠØ® Ø³Ø§Ø±Ø©
ĠÙħØª Ø³
Ø§Ø« ÙĬØ©
ĠØªØ±Ùĥ ÙĬ
ĠØ£Øµ ÙĬØ¨
ĠØ§ÙĦØ¬ÙĦ ÙĪØ³
ĠÙħ Ø§Ø³
ĠØªÙģ ØªØŃ
ĠØµ ÙģØ±
ĠØ§ÙĦÙħÙģØª ÙĪØŃØ©
ĠØ§ÙĦØªØ±Ø¬ ÙħØ©
ÙĪØ§Ø± Ø«
ĠÙĦ ÙħÙĦ
a st
ĠØ§ÙĦØŃØ¶ Ø§Ø±Ø©
ĠØ§ÙĦÙĥ Ùĩ
ĠØªÙĪ ØµÙĦ
ĠØ¹ÙħØ± ÙĩØ§
ĠØªÙĨØª Ø¸Ø±
ĠÙĬÙĨ ØµØŃ
ĠØ§ÙĦØ³Ø± ÙĬØ©
ĠØª ØªÙĬØŃ
ĠØ§ÙĦØ° ÙĥØ§Ø¡
Ø¹ Ø§Ùģ
ĠÙĪ Ø¨ÙĬ
ĠØ£ÙĬ Ø§Ø±
ĠÙħØ¯ Ø®ÙĦ
ĠÙģÙĬ Ø¬Ø¨
ĠØ§ÙĦ ÙĪØ¹
ĠÙĪÙĬØ¹ ÙħÙĦ
ÙĤ ÙĩØ§
ĠØ£ØŃØ¯ Ø§
Ø£ Ø®Ø¨Ø§Ø±
ĠØ§ÙĨØª ÙĤÙĦ
ĠØ§ÙĦÙħÙĥØª Ø¨Ø©
ĠØ¹Ø§ÙĦÙħ ÙĬ
ØŃÙĬ Ø·
ĠØ£Ø³ Ø§ÙĦÙĬØ¨
ĠÙĩ ÙĪÙĦ
ÙĦÙĨ Ø¯Ø§
ÙĤ ÙĬØ¯
Ø« ÙĬ
ĠØ§ÙĦÙģ ÙĬØª
ĠÙħØª Ùģ
ĠØ§ÙĦØ¨ ØªØ±ÙĪÙĦ
Ø®ÙĦ Ø§ÙĤÙĬØ©
ĠÙģÙĬ ÙħÙĥÙĨ
ĠÙĪØ¬ ÙĪÙĩ
ĠØ§ÙĦÙĨØµ Ø§Ø¦ØŃ
ØªÙĩ Ø±
ØªØ± Ø§Ø¶ÙĬ
ĠØ§ÙĦÙĨÙĤ Ø·Ø©
ĠØ§ÙĦÙħØ³Øª ÙĤÙĦØ©
Ø¨Øª Ùĥ
ĠØ§ÙĦØ¬ÙħØ¹ ÙĬØ§Øª
ĠØªÙħÙĨ Ø¹
Ø¹ ÙĦÙĥ
ÙĬØ¯ Ø§Ø¹
ĠØ¬ÙĪ Ø§Ø¦Ø²
ĠØªÙĤ ÙĦÙĬÙĦ
Ø³Ø¨ Ùĩ
ĠÙħ Ø®Ø±Ø¬
ĠÙĪ Ø·ÙĦØ¨
ĠØ§ÙĦØ¨ Ø³ÙĬØ·Ø©
ĠØ¨ ÙĪÙĦØ§ÙĬØ©
ĠÙĪÙĬ ÙĤÙĪÙħ
ĠØ¬ Ø§Ø¨Ø±
ĠÙĤ Ø±Ø§Ø¡
ĠÙħ Ø·Ø§Ø¹Ùħ
ĠØ§ÙĦØ¨Ø± ØªØº
Ø·Ø± Ø§Ø¨Ø§Øª
ĠØ£ØŃ ÙĦØ§Ùħ
ĠÙĪØ§Ø¶ ØŃØ§
Ø¬Ùĩ Ø§Øª
ĠØ§ÙĦØ« ÙĪØ±ÙĬ
Ø±Ø¬ Ø¹
Ø±Ø¯ ÙĨ
ĠÙĬØ¹ÙĬØ´ ÙĪÙĨ
ĠÙĦØ¹Ø¯ Ø©
ĠØ§Ø³Øª Ø«ÙħØ§Ø±
ĠØ§ÙĦÙħÙĤ Ø§ÙĦØ©
Ø³Øª Ø®Ø¯Ø§Ùħ
ĠÙħ Ø§Ø±Ùĥ
ĠØ® ÙģÙĬÙģØ©
ĠØ¨Ùħ ÙĪÙĤØ¹
ĠØµØ§Ø± ÙĪØ®
ÙĬÙĦ ÙĬØ©
Ø§Ùĥ Ø´
ĠÙĬØŃ ÙĥÙħ
ĠØªØ¹ Ø¨Ø±
ĠØ± Ø¨ØŃ
ĠØ§Øµ Ø¯Ø§Ø±
ĠÙĪØ£ ÙħØ§
ĠÙģØ± ÙĪØ¹
ĠØ§Ø¨ÙĨ Ùĩ
ĠØ§Ø³Øª ÙĤÙĦØ§ÙĦ
ĠØ§ÙĦØ¥ÙĬØ· Ø§ÙĦÙĬØ©
ĠØ¨Ø§ÙĦØª Ø§ÙĦÙĬ
ĠÙĪÙħ Ø®
ĠÙĪØ§ÙĦØ£ ØŃ
ĠØ§ÙĦØ² Ø¬Ø§Ø¬
ĠØ§ÙĦÙħØ¹ Ø§Ø¯ÙĨ
ĠØ¬Ùĩ ØªÙĩ
ĠÙĦ Ø¨ÙĦ
ÙĪØ§Øµ ÙģØ§Øª
ĠÙħ ÙĬØ³ÙĬ
ĠØ§ÙĦÙĤ Ø¯Ø±Ø§Øª
ĠØ¹ ÙĪØ¶
ĠØ§ÙĦØ¯ ÙĤÙĬÙĤ
ĠØ§ÙĦØ§Ùħ Ø±ÙĬÙĥÙĬ
ĠØ¨ ÙĪØª
ĠÙħ Ø´Ø§Ø±ÙĥØª
Ø®Ø· Ø£
ĠØ® Ø§ÙĨ
ĠÙĪØ§ÙĬ Ø¶Ø§
ĠØ¥ Ø®Ø±Ø§Ø¬
ĠÙĦÙģ Ø±ÙĬÙĤ
ĠØ§ÙĦØ³ Ø±ÙĬØ¹Ø©
ĠÙĪØª Ø¨
ĠØ§ÙĦØ£Ùħ Ø§ÙĨØ©
ĠØ§ÙĥØª Ø´Ùģ
ĠØªÙĥ Ø§ÙĦÙĬÙģ
ĠØ¨Ø§ÙĦÙĦ ÙĪÙĨ
ĠØ§ÙĦØ¯ ÙĬÙĥ
ĠØ§ÙĦØµÙĩÙĬ ÙĪÙĨÙĬØ©
ĠØ§ÙĦØ³ÙĥÙĨ ÙĬØ©
ĠØŃ Ø§ÙħÙĦ
ĠØª ÙĪØ³ÙĬØ¹
ĠØ´ Ø§Ùĩ
ĠØ´Ø± Ø¹ÙĬØ©
ĠØ¨Ø¨ Ø³Ø§Ø·Ø©
ĠØ´ ÙĤÙĤ
ÙĢÙĢ ÙĬ
ĠØ® ÙĪÙģ
ØªÙĬ Ùĥ
ĠÙĪØª Ø§Ø±ÙĬØ®
ĠØ§ÙĦØ§Ø¨ Ø§ØŃÙĬØ©
ĠÙĦ Ø§Ø¨ÙĨ
Ġï» ĭ
ĠÙĪ Ø«ÙĤ
ĠÙĩØ§ØªÙģ Ùĥ
Øº ÙĨÙĬ
Ùĩ ÙĦÙĩ
ĠØ³ Ø§Ø¦ÙĤ
Ġ3 9
ĠØ§ÙĦØ¨ØŃ Ø±ÙĬ
ĠØŃØ¯Ø« Øª
ĠØ¨ÙĪ Ø´
ĠØ§ÙĦÙĩ Ø¬ÙħØ§Øª
âĢı, âĢı
Ø¶ Ø§Ø¦Ø¹
ĠÙĬÙĤ Ø±Ø¨
i st
ĠÙĬØµ Ø¹Ø¨
Ø£ Ø¨
ĠØ¨Øª ÙĪÙĤÙĬØª
ĠØ¥Ø³Øª Ø®Ø¯Ø§Ùħ
u d
ĠØ§ÙĦØ¸ ÙĦÙħ
ïº Ĵ
ĠÙĬØ§Ø³ Ø±
ĠØ§ÙĦØµ ÙĬØ§ÙĨØ©
Ġ1 20
ĠØª ÙģØ¶ÙĦ
ĠÙĤØ§ÙĦ Ùĩ
ĠÙĪØ§ÙĦ ÙĥØ±
Ø§Ø± ØªÙģØ§Ø¹
ĠØ¹ ÙĪÙĨ
ÙĪÙĦÙĨ Ø¯Ø§
Ø§ÙĦÙħ Ø¤
5 00
ĠÙģØ£ ÙĨØ§
ĠØ§ÙĦØ®ÙĦÙĬØ¬ ÙĬØ©
ĠØªØ· Ø§ÙĦØ¨
ĠØ§ÙĦØ¶ ØŃØ§ÙĬØ§
Ġ ~
ĠØ¨Ø§Ø¹ØªØ¨Ø§Ø± ÙĩØ§
ĠÙģØ¹ Ø§ÙĦÙĬØ©
ĠØ± Øµ
ĠÙĪØ§ÙĦ Ø¨ÙĦ
ĠØ§ÙĦØ¨ÙĦ Ø§Ø³Øª
ĠÙĦÙĦØ£Ø³ Ùģ
ĠØ§ÙĦØ· ÙĪÙĬÙĦØ©
ĠØ§ÙĦÙħØ¤ Ø´Ø±
ĠØªÙĤ ÙĨÙĬØ§Øª
ĠØªØŃ Ø¶ÙĬØ±
ÙĪ Ø¥
ĠÙĨ Ø¹ÙħÙĦ
ĠÙĦ Ø§Ø¦ØŃØ©
Ø· ÙĬØ©
ĠÙĦ Ø§Ø³ÙĬÙħØ§
Ġï» ĵ
ĠØ¨ ØªÙħ
!! !!
ĠØ· Ùĩ
ĠØ¨Ø§ÙĦÙħ Ø§Ø¦Ø©
ĠÙĪØª Ùĩ
ĠØ¹ÙĨØ¯ Ùĥ
ØªØ± Ùī
ÙħØ« ÙĦØ§
ÙĬÙĨ Ø§Ø¡
ĠØ§Ø®Øª Ø§Ø±
ĠØªÙĥ Ø±ÙĬÙħ
Ø§Ø¦ ÙħØ§
ĠØ§ÙĨÙģ Ø¬Ø§Ø±
ĠC h
ĠØ¨Ùģ ØªØŃ
ĠÙģÙĦØ³Ø·ÙĬÙĨ ÙĬ
Ø¯ÙĬ Ø¨
an t
ĠØ§ÙĦØ¨ÙĬ Ø¦ÙĬØ©
ĠØ§ÙĦÙħØ¬ Ø§ÙĨÙĬØ©
ĠØ® Ø¶
ĠØ§ÙĦØ´ Ø§Ø±ÙĤØ©
ĠÙĦ Ø¢Ø®Ø±
Ø¨Ø± Øª
ĠØ§Ø· Ø§Ø±
Ø§Ùģ ÙĬÙĬÙĨ
" ..
ĠÙĬÙĤ ØªÙĦ
ĠØ§ÙĦØ± ÙĪØ§Ø¨Ø·
ĠÙĬÙħÙĥÙĨ ÙĩØ§
Ùİ .
Ġ- -
ar e
ĠÙĦÙĬ ÙĪÙĨ
ĠØ§ÙĦÙħØ³ Ø§Ø¡
ÙĩØ§ ÙĬ
ĠØ¨Øº Ø¶
ĠØ§ÙĦÙħØµÙĨ Ø¹Ø©
ĠÙĦ ØŃØ¯
ÙĥØª Ø§Øª
ØªØ² Ø§Ø²
ĠØ¬ ÙĪØ§ÙĨØ¨
Ġ: "
Ø± Ø²
ĠÙħ Ø®ØµØµ
Øµ ÙĦÙĬ
ĠØ« Ø±
ÙĪÙĤ ÙĬ
ĠØ§ÙĦØ± Ø§Ø¦Ø¯Ø©
ĠØ§ÙĦÙħÙģØ¶ ÙĦØ©
ĠÙĪØ§ÙĦØ® Ø§Ø±Ø¬
ĠÙĨ Ø§Ø¯Ø±
ĠØª ÙĦÙģ
ĠÙĦÙĦØ¬ ÙĬØ´
ĠØ§ÙĦØ¥ ØŃØµ
ĠÙħÙĥ Ø§Ùģ
Ø·Ø¨ Ø¹Ø§
ĠØ´ÙĩØ± ÙĬÙĨ
ĠØ£ Ø±ÙĤØ§Ùħ
Ø§Ø¨Ø§ ÙĬØª
ĠÙĪØ² ÙĨ
ĠØ¹ Ø§Ø¯ÙĬ
ĠØ£ÙħÙĬØ± ÙĥØ§
ĠØ¬ÙĦ Ø³Ø§Øª
ĠÙĪØ§ÙĦØ³ ÙĨØ©
Ġ25 0
ÙĪÙģ Ø¯
ĠØ¹Ùħ ÙĬÙĤ
ĠÙĪØªÙĨ Ø¸ÙĬÙħ
Ø§Ø¨ Ø¹Ø§
ĠØ·Ø± Ø§Ø²
Ø«Ø± Øª
Øª ØºÙĦ
Øµ Ø§ÙĦØŃ
ĠÙĪØ· Ø±ÙĤ
ĠØ¨Ø£ ÙĥÙħÙĦ
Ø§ÙĦ ÙĬÙħ
Ġt he
ĠÙĬ Ø«ÙĬØ±
ĠØ¨Ø§ÙĦÙħ Ø³Øª
ĠÙĬØªØŃ ÙħÙĦ
ĠÙģØ¥ÙĨ ÙĨØ§
ĠØ§ÙĦÙħØ´ Ø§Ø¹Ø±
ĠÙ ¡
ĠØ¹ Ø§Øª
Ø« Ø§ÙĦØ«
ÙĪ Ø§ÙĩØ±
ĠØ§ÙĦØ³ ÙĦÙĬÙħ
ĠØ§Ø® Ø°
ĠÙĪØ§ÙĦ Ø°Ùī
ÙħØ¬ ÙĬØ§Øª
Ø¯ ÙĪØ±
ĠØ¨ ÙģØ±
ĠÙĪØ¯ ÙĪØ¯
ĠØ§ÙĦØªÙĤÙĦÙĬ Ø¯ÙĬ
ĠÙģÙĬ ÙĦ
ĠÙģÙĬ ÙĨ
ĠØ¨Ùħ ÙĤØ±
Ùģ ÙĩÙħ
ĠÙĪØ¯ ÙĪÙĦ
ĠØ³Ùģ ÙĬØ±
ĠØ§Ø¹ ÙĦØ§ÙĨ
Ø§ÙĦØ¨ Ø§
ĠØ§ÙĦØªÙħ Ø«ÙĬÙĦ
ĠØ§ ÙĪÙĦØ§
Ø§ÙĨ ÙĬÙĨ
ĠØ§ÙĦÙĤØµ ÙĬØ±Ø©
ĠØªØ¹ Ø±
ĠØ¢ ÙħÙĨØ©
ÙĤØ§Ùħ Øª
ĠØ§ÙĦØµ ÙĦØ¨
ĠØªØªÙħ Ø«ÙĦ
ĠÙħÙĨØ² ÙĦÙĩ
[ /
ĠÙħÙĥ Ø«
ĠØ¨ÙĥÙĦ ÙĬØ©
ĠØ§ÙĦÙĥÙĩØ±Ø¨ Ø§Ø¦ÙĬ
ĠØ§ÙĦØµ Ø¯Ø¯
ĠØ¹Ø´Ø± ÙĬÙĨ
ĠÙĪÙħ Ùħ
ĠØ¨ Ø·ÙĦØ¨
ĠÙĤØµ ÙĬØ±
Ø· Ø§Ùģ
â ĸ
ĠØ§ÙĦÙħØªØ¸Ø§ÙĩØ± ÙĬÙĨ
ĠØ§ÙĦØ¹Ø¶ ÙĦØ§Øª
ĠØ§ÙĦØ¥Ø±ÙĩØ§Ø¨ ÙĬ
ĠÙĦ Ø±ÙģØ¹
Ø£ ÙĥØ«Ø±
ĠØ§ÙĦØŃ Ø±ÙĥØ§Øª
ÙĤØ¨ ÙĪÙĦ
ĠØ¹ÙĨØ¯ ÙĩÙħ
ĠØª Ø³Ø¨
ĠØª ÙĪÙĦ
ĠÙĦÙĦ ÙĥÙħØ¨ÙĬÙĪØªØ±
ĠØ£ ÙĥÙĦ
ĠØ´ Ø±ÙĬÙģ
ĠÙħØ¹ Ø§Ø±
ĠØ§ÙĦ Ø§Ø¬ÙĩØ²Ø©
d f
ĠØ¨Ø· Ø§ÙĤØ§Øª
ĠÙĤ Ø§Ø±
ĠÙĤØ±Ø§Ø± Ø§
Ùĭ ..
ĠÙģØ¹ Ø§ÙĦ
ĠØ§Ùģ ÙĦØ§Ùħ
Ø§Øµ ÙĬ
ĠÙħÙĥØ§ÙĨ Ø©
ĠØ±Ø¦ÙĬØ³ ÙĬ
Ø¹ ÙĪØ±
ĠØ£ÙĨÙģØ³ ÙĨØ§
ĠØ§ÙĦØ¨Ø± ÙĬØ©
ĠØ§ÙĦØªØŃ ÙĪÙĦ
ĠØ§ÙĦØ± Ø§Ùģ
ï ¿½
ĠØ£ Ø³ØªØ·ÙĬØ¹
ØªØ¹ Ø§ÙĪÙĨ
ĠÙĥ Ø°Ø§
ĠØ³ÙĦ Ø·Ø§Øª
ĠØ§ÙĦØ« ÙħÙĨ
ĠØ§ÙĦØªØŃ ÙĥÙĬÙħ
ĠØ¯ ÙĬÙĨÙĬØ©
ĠØªÙħ Ø§Ø±Ø³
ĠØªÙĩ ØªÙħ
ĠØ²ÙĬØ§Ø± ØªÙĩ
ĠØ§ÙĦØ¨ Ø´ÙĬØ±
ĠP ro
ĠÙĬØŃ ÙģØ¸
ĠØ¹ Ø¸ÙĬÙħØ©
ĠÙĩ Ø°Ø©
ØªØµ Ø§Ø±Ø§Øª
Ø£ Ø´
ĠØ§Ø³ØªÙħØ± Øª
ĠÙħØµ Ø¯
ĠØ§ÙĦÙģ Ø¦Ø§Øª
ĠØ« ÙĨØ§Ø¦ÙĬ
6 7
ĠØ§ÙĦÙĦ Ø¬Ø§ÙĨ
ĠØ§ÙĦÙħØ± Ø§ÙĤØ¨Ø©
ĠØ£Ùħ Ùĩ
ÙĢ Ø¹
Ø¬ Ø§ÙħØ¹Ø©
ĠØ§ÙĦØ¨ Ø§Ø·
ĠØ· ÙĬÙĦØ©
ÙĪ Ø¸ÙĬÙģ
Ø´ Ø§
ĠÙģ ÙĥØ§ÙĨØª
ĠÙĦÙĦ ÙĨØ³Ø§Ø¡
ĠØ§ÙĦØ³ Ø§Ø¦ÙĤ
ĠÙĪ Ø¸ÙĬÙģ
Øµ ÙĨ
ĠØ³ ÙĦØ¨
ĠØ§ÙĦØ· ÙĦØ§ÙĤ
ØºØ± Ø³
ĠÙħ Ø¸ÙĩØ±
ĠÙĬØ³ Ø£ÙĦ
ĠÙĦØ¹ Ø±Ø¶
ÙĬÙĤ Ø¸
ÙĬ ÙģÙĬ
ĠØ§ÙĦØ¬Ùħ Ø§Ø¹ÙĬ
ĠØ¨Ø§ÙĦÙħ ØºØ±Ø¨
ĠØªØ± Ø¯
Ø§Ø´ ÙĬØ©
ĠØ§ÙĦØ¥ Ø®Ø¨Ø§Ø±ÙĬØ©
ĠØ§ÙĦÙĨ Ø§Ø·ÙĤ
ÙĦ ÙĦÙħ
Ø¦ ÙĨ
ĠØ§ÙĦÙħØ§ÙĦ ÙĥÙĬ
ĠØ§ÙĦØŃ ÙĬÙĨ
s e
ÙĪØ¯ Ø¹
ĠØ¨Ø¹ Ø±Ø¶
ï» ¬
ĠØ§ÙĦØ¯Ø¨ÙĦÙĪÙħ Ø§Ø³ÙĬØ©
ĠÙħÙħ Ø«ÙĦØ©
Â» :
Ø±ÙĬ Ø§ÙĦ
Ø¨Ø§ØŃ ÙĬØ©
ÙĦÙĬ Øª
ÙĪØ§Ø± Ø¨
ĠØ§ÙĦ Ø§ÙĦÙħ
ĠØ§ÙĦÙħÙĨØª Ø¸Ø±
ĠØ§ÙĦØŃÙĥ ÙĬÙħ
ĠÙĨ ÙĬÙĥ
ØªÙĩØ§ Ùĥ
Ø¹Ø§ ÙĬÙĬØ±
ĠÙĦÙĦÙħ ÙĪØ§Ø·ÙĨÙĬÙĨ
ic e
ĠØ§ÙĦÙĨ Ø®
Ø§ÙĦÙħ Ø§Øª
ĠØ§ÙĦØ´Ø± Ø§ÙĥØ©
ĠØ¹Ø¶ ÙĪØ§
ĠØ§ÙĦÙĨØ¨Ø§Øª Ø§Øª
ĠØ¨Ø± ÙħÙĬÙĦ
ĠÙħÙĪ Ø§Ø±Ø¯
Ø§Ø³Øª Ø®Ø¯Ø§Ùħ
Ø§Ø¦ Ø¨Ø©
ĠØ§ÙĦ ÙĦÙĬÙħÙĪÙĨ
ĠØ§ÙĦØ® ÙĦÙģ
ĠÙĩØ¯ ÙģØ§
ĠØ§ÙĦØ§ØªØŃ Ø§Ø¯ÙĬØ©
ĠÙĤØ± Ø§Ø¨Ø©
ĠØ§ÙĦØ® ÙĦÙģÙĬØ©
ĠÙĦØ§ÙĨ ÙĩØ§
ĠØ¨Ø§ÙĦ ÙħÙĦ
ĠØ³Ø¨ Ø¨Ø§
ĠÙħ Ø®ÙĦ
ĠØ§ÙĦÙħØ· Ø¹Ùħ
ĠÙĬÙħ ÙĪØª
ĠÙĨÙħ Ø§Ø°Ø¬
ĠØ§ÙĦØ£Ø² Ø±ÙĤ
ĠØ¹Ø±Ø¶ Ø©
ĠØ§ÙĦØ· Ø¨ÙĤ
Ø§Ø³ Ø§
ĠØ¨ Ø¬Ùħ
âĢı :âĢı
ĠØ§ÙĦÙĬÙĩÙĪØ¯ ÙĬØ©
ĠØ¨Øª Ø¬
Ø¨ ÙĪÙĨ
ĠØ² ÙħÙĬÙĦ
ĠØ§ÙĦÙĦ ØŃÙħ
ĠÙĬÙĤ Ø§Ø±Ø¨
ĠØ§ÙĦÙħ ØŃØ¯Ø¯
ĠØ§ÙĦØ§Ø« Ø§Ø«
ĠÙĪØ§ÙĦØ« Ø§ÙĨÙĬ
ĠÙĬÙħÙĥÙĨ ÙĨÙĬ
ĠÙĦÙĦØ§Ø³Øª Ø«ÙħØ§Ø±
ĠØªÙĨ Ø¸Ø±
ÙĨØ³ Ø®Ø©
ĠØ§ÙĦØ¢ Ø®Ø±Ø©
Ø§Øº Ø¨ÙĬÙĨ
ĠØ§ÙĦØ¨Ø¯ ÙĨÙĬØ©
ĠØªØ±Ùĥ ÙĬØ²
ĠÙħØ¹ Ø§Ø±Ø¶
ĠØ° Ø§ÙĥØ±Ø©
Ø±Ø® Ø§Ø¡
ĠÙħØ¹ ÙĥÙħ
ĠØ§ÙĦØ°Ùĩ Ø¨ÙĬØ©
ĠÙĥØ±Ø¯ Ø³ØªØ§ÙĨ
ĠØªØ¬Ùĩ ÙĬØ²
ĠÙħØ¹ Ø§ÙĦÙħ
ĠÙĦØª Ø¬
ĠÙĦØ¹ÙħÙĦ ÙĬØ©
ĠØ§ÙĦÙĨÙĤ Ø§Ø¨Ø©
ĠØ§ÙĦÙħÙĤ ØµÙĪØ¯
ÙĦ ØŃ
ĠÙħÙģØ§ÙĪØ¶ Ø§Øª
ĠÙĦÙĦ Ø§Ø·
Ø® ÙĪØ±
ĠØ§ÙĦÙĨ Ø§Ùģ
ĠØª ÙĪØ¶ÙĬØŃ
ĠÙģØ± Ø§ÙĨØ³
ĠØµ Ø§Ø¯ÙĤ
ÙĬÙĦ Ø§Ø¡
ÙĪÙĦÙĪØ¬ ÙĬØ§
ĠØ£ÙĨ Ø¨Ø§Ø¡
ĠØ® Ø§ÙĦ
ĠØ£Ø¬ ÙĪØ§Ø¡
Ø´ÙĬ Ø¡
ÙģÙĬÙĩ ÙĬØ©
Ġ3 4
ĠÙĩ Ø²
ĠØ§ÙĦØ¢ ÙĦÙĬ
ĠØ§ÙĦØ¬ ÙĪØ§ÙĨØ¨
ĠÙħØŃ Ø§Ø±Ø¨Ø©
ĠØ§ÙĦØ¥ Ø¶Ø§Ùģ
ĠÙĦ ÙģØª
ĠÙĪØŃØ¯ ÙĩØ§
Ø¨Ø§ÙĦ Øº
ĠØ§ÙĦØ¶Ø± ÙĪØ±ÙĬØ©
ĠØ§ÙĦØ£ Ø³Ø¨ÙĤ
ÙĩØ¯ ÙĪØ¡
ĠÙħØ¹ Ø§ÙĦÙĬ
ĠØ§ÙĦØ£ ÙĩÙħÙĬØ©
ĠØ§ÙĦØªØ±Ø¨ ÙĪÙĬ
ØªÙĩ Ø§Ø¯
ĠÙĦÙĦ Ø¬ÙĨØ©
ĠÙĪÙģ ØªØŃ
ĠØ¨Ø§ÙĦ ØªØ±
ĠØ¸ Ø§ÙĩØ±
ĠØ¹Ø¨Ø¯Ø§ÙĦ Ø±ØŃÙħÙĨ
ĠØ§ÙĦÙħ ÙĤØ¯Ùħ
ĠØªØ² ÙĪÙĬØ¯
ĠÙĬÙĨØª Ø¬
ĠØ¨Ø£ÙĨ ÙĩÙħ
ĠØ§ÙĦÙħ Ø§Ø¬Ø³ØªÙĬØ±
n e
Ø¯ ÙĪØ±Ø©
ĠØ§ÙĦØªØ¹Ø¯ ÙĬÙĨ
ÙĤØ± ÙĬØ©
ĠÙĨ Ø§Ø¯
ĠØ§ÙĦÙħØ± Ø´ØŃÙĬÙĨ
Ø³ Ø¹ÙĬØ¯
Ø± ÙĪÙĨ
ĠØ£ÙĪÙĦ Ø§Ø¯
ĠØ§ÙĦÙħØ¯ ÙĬØ±ÙĬØ©
ĠÙĥØ§Ùħ ÙĬØ±Ø§
Ø³ÙĬ Ùĥ
ĠØ§ÙĦÙħØµ Ø§Ø¨
ÙĬ ÙĪÙĦ
ÙĦÙħ Øª
ĠØ§ÙĦØ£ Ø®ÙĦØ§ÙĤ
ĠØ§ÙĤ ØªØŃ
Ø§Ø¯ ÙĬØ«
ĠÙĪØŃ Ø³ÙĨ
ĠÙĦ ÙģØ¸
ĠÙĥ Ø¨
Ø¹Ø§Ø± Ø¶
ĠØª Ø¬Ùħ
ĠÙĦÙĦ Ø¹ÙĦÙĪÙħ
ĠØ¨ØŃ Ø±ÙĬØ©
Ùģ Ø¥ÙĨ
ĠØ´Ø± Ø§Ø¦ØŃ
ĠØ§ÙĦØª ÙĥÙĨÙĪÙĦÙĪØ¬
ĠØ§ÙĦØ§ÙĨ ØªØ§Ø¬
ĠØ¨Ø¯ ÙĪØ±Ùĩ
ĠØŃ ÙĦÙĤØ§Øª
Ø£ Ø¯
ĠØŃ ØµØ©
ĠÙĪ Ø³Ø¨
ĠØ§ÙĦÙħ ÙĪØ±
ÙĪØ£ÙĥØ¯ Øª
ĠØ«Ø§Ø¨Øª Ø©
ĠØªÙĨ ÙĤÙĦ
ĠØ± ÙĪØ§Ø¯
ĠÙĪÙħÙĨ ÙĩÙħ
ÙĬØ¹ Ø§Ø¨
ÙĤ ÙĪØ§
ĠØ§ÙĦÙħØ¹ Ø§ØµØ±
ĠÙħØ¤Ùĥ Ø¯Ø©
ĠØ§ÙĦØ§Ø³Øª Ø®Ø¨Ø§Ø±Ø§Øª
ĠÙĬØ¹Ø±Ùģ ÙĪÙĨ
ĠÙģØ¹ ÙĦÙī
ØªÙħ Ø§ÙĨ
ĠÙĦÙĦ ØªÙģ
ĠØ§ÙĦØ¥ Ø¨Ø¯Ø§Ø¹
ĠØ§ÙĦÙħÙĨ ÙĩØ¬
ĠÙģÙĦØ³Ø·ÙĬÙĨ ÙĬØ©
ĠÙĬØ³ ÙĬØ±
Ø§ÙĥÙĨ Ø©
ĠÙĦØ¥ Ø¬Ø±Ø§Ø¡
ĠØ§ÙĦÙĨÙĤØ¯ ÙĬØ©
a w
Ùĩ Ø§Ø¯Ø©
Ø¨Ùĩ Ø§Øª
ĠÙĦØª ÙĨØ§ÙĪÙĦ
ĠÙĪÙħ Ùģ
ĠÙħÙģØª Ø§ØŃ
ĠØ³ Ø§Ø¦Ø±
ĠØ§ÙĦÙģ ÙĪØ§Ø¦Ø¯
ĠØ§ÙĦÙħØ¨ ÙĨÙī
s h
ĠØª ØºØ·ÙĬØ©
Ø± Ø§Ùħ
ĠÙĥØª ÙĦØ©
ĠØ¨Ø§ÙĦØ³ Ø¬ÙĨ
ĠÙħØª ÙĪØ³Ø·Ø©
ĠØ§ÙĦÙĪÙĤ Ø§ÙĬØ©
ÙĤ ÙĪØ¨
ĠØªÙĨ Ø²ÙĬÙĦ
ĠÙĪØ§ÙĦ Ø¹Ùħ
ĠØ¨ Ø²ÙĬØ§Ø¯Ø©
ĠÙĦÙĦØ· Ø§ÙĤØ©
ĠÙĤ Ø§Ø³Ùħ
ĠÙĨÙĤÙĦ Ùĩ
ĠÙħØ« ÙĬØ±Ø©
ĠØ¨Ø§ÙĦ Ø³ÙĦ
ĠØ§Øº ØªÙĬØ§ÙĦ
ĠÙĬ ÙĪÙģ
ÙĦ ÙĪØ¨
ĠØ³Ø±ÙĬ Ø¹Ø§
ĠØ¥ÙĨØ³ Ø§ÙĨÙĬØ©
ÙĦÙģØ²ÙĬ ÙĪÙĨÙĬØ©
ĠØ¬ ÙĬÙĨ
ĠØ¬ ÙĬØ¬Ø§
ĠÙĦÙĦ Ø¹Ø¨
ĠØ§ÙĦØ§Ø· ÙĦØ§Ø¹
ĠÙģ Ø§Ø³Øª
ĠØ§ÙĦØªÙĪ Ø§Ø²ÙĨ
ĠÙħØŃ ÙĪØ±
ĠÙĨÙģØ³ ÙĬØ©
ĠØ§ÙĦØ± Ø¶
ĠÙħÙĪØ¬ Ø©
ĠØºÙĬØ± ÙĩÙħ
ĠØ® Ø§ÙĦÙĬØ©
ĠØ§ÙĦØ· ÙĬØ¨Ø©
ĠØ£ Ø¶Ø§Ùģ
ĠØ§ÙĦØ£Ø« Ø§Ø«
Ø· Ø¨Ø¹
ĠØ¬Ø¹ÙĦ Øª
ĠÙĪØ¹ ÙĬ
ĠÙħØ³ Ø¹ÙĪØ¯
ĠÙģ Ø³Ø§Ø¯
ĠØ§ÙĦØ³Ø¨ Ø§ØŃØ©
ĠØ¨Ø§ÙĦ ØªØ¯
ĠÙĦÙĬ ØµØ¨ØŃ
ĠØ« ÙħØ©
ĠÙħÙĨ Ø¸ÙħØ§Øª
ĠØŃØ³ ÙĨÙĬ
ĠØªÙĨ Ø§Ø³Ø¨
ĠØ¨Ø§ÙĦØ¹ Ø§ØµÙħØ©
ĠØ¥Ø±ÙĩØ§Ø¨ ÙĬØ©
ĠØ§ÙĦØ¹Ø±Ø§ÙĤ ÙĬÙĬÙĨ
ĠØ§ÙĦÙģ Ùĥ
ĠØ± ØµÙĬØ¯
ĠØ§ÙĦÙħØ³Øª Ø¯Ø§ÙħØ©
ĠØªØª ÙĥÙĪÙĨ
ĠØ§ÙĦØ¨Ø¹ Ø«
ĠØ§ÙĦÙħØ¨ Ø§ÙĨÙĬ
9 7
ĠØ§ÙĦÙħØ³ Ø§Ø¦ÙĦ
Ø§ÙĦÙħ Ø³Øª
ĠØ§ÙĦØ¹Ùħ ÙĬØ¯
ÙĪØ¨ ÙĪØª
i e
ĠÙĪØ³ ÙĪØ±ÙĬØ§
ĠØ§ÙĦÙģØ¹ Ø§ÙĦÙĬØ§Øª
ĠØ§ÙĦØ´ Ø§Ø·Ø¦
ĠØ±ÙĬ Ø§Ø¶ÙĬØ©
ĠØ£Ø¯ Ø®ÙĦ
ĠØ£ ÙģØ±
ĠØ£ØŃØ¯ ÙĩÙħØ§
ĠØ£ ÙĦÙĤ
ĠÙĦ ÙĪØ¬ÙĪØ¯
ĠÙĪÙĬ ÙĤ
ĠØ§ÙĦØ®ÙĦÙĬ Ø¬ÙĬ
Ø¥ ÙĦØ§
Ùħ Ø·ÙĦÙĪØ¨
ÙĥØ± Ø±Ø©
ĠÙħ Ø¸
ÙĬØ« Ø§ÙĤ
ÙĩØ¯ ÙģØª
ĠØ§ÙĦØ² ÙĩØ±
ĠØ¨ÙĨ Ø¬Ø§ØŃ
ĠØ§ÙĦØªØ± ØªÙĬØ¨
ĠØ§ÙĦØ£ÙĪÙĦ ÙĬ
ĠØ±Ø¤ ÙĪØ³
ĠØ¨Ø§ÙĦ Ø§Ø³
ĠØª Ø¨Ø¹
ĠØªØ£ Ø¬ÙĬÙĦ
ĠÙĦØ´ Ø¤ÙĪÙĨ
ĠØ§ÙĦÙħ ØµÙĦØŃØ©
ĠØ§Ø³ Ø·ÙĨØ¨ÙĪÙĦ
ĠØ³ ÙĨÙĬÙĨ
ĠØŃØ³ Ø§Ø¨Ùĩ
Ùħ ÙĪÙĬØ©
ĠÙħ ØªÙħÙĬØ²
ĠØ¨ Ø³Ùħ
ĠÙĦÙĦ Ø¢
ĠØ§ÙĦÙĥ ÙĪÙĦ
9 8
ĠØ§ÙĦÙĨ Ø§Ø´Ø±
ĠÙĬ ØµÙģ
Ø§Ø´ Ùħ
ĠØ§ÙĦØ² ÙĬØ§Ø¯Ø©
ĠØ£Ø³Ø§Ø³ Ø§
ĠØ§ÙĦØ¨ ÙĥØ§ÙĦ
ĠØ§ÙĦØ² Ø§Ø¦Ø±
ĠØ£ Ø·ÙĦÙĤØª
ĠØª ÙĥØªØ¨
ĠØ§ÙĦØŃ Ø¯ÙĬØ¯Ø©
ĠØ¹ÙĤ ÙĪØ¨Ø§Øª
ĠÙĪØ« Ø§Ø¦ÙĤ
ĠØ¶ Ø±Ø¨Ø©
ĠØ·ÙĦØ¨ Øª
ĠØ§ÙĦÙħØ¹ØªÙĤÙĦ ÙĬÙĨ
Ø®Ø· Ø§Ø±
ÙĪÙĦ Ø§Ø±
ĠØ¨ÙĨ ÙĤÙĦ
ĠØ§ÙĦÙģ ØªØŃ
ĠØ§ÙĦØª Ø§Ùħ
ĠÙĪØ´ ÙĥØ±Ø§
Ġ in
ĠÙĪ Ø§Ø°Ø§
ĠÙĪØ³ÙĬ ØªÙħ
ĠÙĨÙĤ Ø§Ø¨Ø©
ĠÙĦÙĥ Ø§ÙģØ©
ĠÙĪØ¯ ÙĪÙĨ
ĠØ¬Ø§Ùħ Ø¹
ĠÙĪ Ø§Ø¬ÙĩØ©
ĠØ£ÙĨ ØµØ§Ø±
ĠÙħØŃ ÙģÙĪØ¸Ø©
ĠÙħØ§ÙĬ ÙĥØ±ÙĪØ³ÙĪÙģØª
ĠÙĪØª ÙĦ
il l
6 5
ĠØ§ÙĦÙĨ Ø³ÙĬ
Ġ k
ĠØ§ÙĦØµ ÙĪØ§Ø±ÙĬØ®
ĠØ§ÙĦÙĤ Ø§Ø¯Ø©
ĠÙħØ§ ÙĩÙĪ
ĠØŃÙĪ Ø§Ø¯Ø«
ĠÙĨ Ø§ÙĤ
ĠØ¬ÙĪ ÙĩØ±
ØŃØ¨ Ø§Ø·
ĠØ§ÙĦÙħ ÙĦÙĬ
ĠÙĤÙħ ÙĨØ§
Ø°Ùĩ Ø§Ø¨
ĠØ§ÙĦØªØ£ ÙĥÙĬØ¯
ĠÙĪØ® ÙĦØ§ÙĦ
Ø¹ÙĤ Ø§Ø¯
ĠÙĨ Ø¨Ø§Øª
ĠØ§Ø« Ø±
ĠØ£Øº ÙĨÙĬØ©
ĠØ§ÙĦØ° ÙĥÙĬ
ĠâĢ Ķ
as s
ÙĩØ¯ Øª
ÙĪØ§ÙĦ Ø¯
Ø±ÙĬ Øº
ĠØª Ø«Ø¨Øª
ÙĪÙĦ ÙĬØ³
ĠØ§Ø¬ Ø±Ø§Ø¡
ĠÙĤØ± Ø£
ĠØ¯ÙĪØ± ÙĩØ§
ĠØ£ ØªÙħÙĨÙī
ĠÙħØ³Øª ÙĤÙĦ
ĠØ¹ÙĨØ¯ ÙĨØ§
Ùģ Ùĥ
ĠØ§ÙĦØ£Ø±Ø¶ ÙĬØ©
ĠØŃØ¯ÙĬØ« Ø§
Ùĩ ÙĬØ¨
ĠØ§ÙĦØ³ Ùĥ
ĠØ§ÙĦØ±Ø¨ ØŃ
ØŃ ÙĥÙħ
ĠÙĪ Ø±ÙģØ¶
ĠÙĪØª Ø¹ØªØ¨Ø±
ĠÙħØ³ Ø§ØŃ
ĠÙĦÙĦÙĤ Ø§ÙĨÙĪÙĨ
ĠØ´ Ø§ØŃ
ĠG oogle
ĠØ§ÙĦØ´ Ø±Ùģ
ĠØª ÙĥØª
an g
ĠØ§ÙĦÙħØµ Ø§ÙĦØŃØ©
ĠØ§ÙĦØ³ ÙĬØ±Ø©
ĠØ¥Ø¹ÙĦØ§Ùħ ÙĬØ©
ĠØ§ÙĦÙħØªÙĩÙħ ÙĬÙĨ
ĠØ§ÙĦØ§ÙĬØ± Ø§ÙĨÙĬ
ĠØ§ÙĦØ¬ Ø§ÙĨ
Ø³ ÙĨØ©
ĠØ§ÙĦÙĪØ¬ Ø¨Ø§Øª
ÙĨ Ø§Ø¹Ø§Øª
ĠØ¨Ø§ÙĦ ÙħØ¯
Ġ Ø§Ø±Ø¬ÙĪ
ĠÙĥ Ø±Ø¨
ĠØ§ØŃ Ø¨
ĠØ§ÙĦØ®Ø¨Ø± Ø§Øª
ĠØ§ÙĦÙħÙĨ Ø·
ĠÙĬØµ ÙĬØ¨
ĠØŃ Ø±ÙĤ
ĠØ§ÙĦÙģÙĨØ§ÙĨ ÙĬÙĨ
ĠØ§ÙĦØ¹ Ø´Ø±
ĠØº Ø§Ø²
ĠØ¥Ø« Ø¨Ø§Øª
ĠÙħØ¯ ÙĬÙĨ
ĠØ¶ Ø§Ø¨Ø·
ĠØ§ÙĦØ£ ÙĨØ¯ÙĬØ©
ĠØ· ÙĦØ¨Ø©
ÙĪÙĨ Ùī
ĠØ§ÙĦØ¥Ø³Ø¨ Ø§ÙĨÙĬØ©
ĠÙĬÙģ ÙĥØ±
ĠÙĦÙĦ Ø¯Ø±Ø§Ø³Ø§Øª
ØºØ± Ø§Ùħ
ĠØ§ÙĦÙĦ ÙĤØ¨
iz e
ĠÙģ ÙĪÙĦ
ĠØ±ÙĬ Ø§Ø¶Ø©
ĠØ¢ ÙĦÙĬØ§Øª
Ùħ ÙĨØ§
: -
ĠÙħØ³Ø¨ ÙĤØ§
ĠØ§ÙĦØ£Ø³Ø± Ùī
ĠÙĬØ¹ Ø§Ø¯ÙĦ
ÙĪØ² ÙĬ
ĠÙħØª Ø§ØŃ
Ùħ Ùĥ
ĠØ§ÙĦÙħ Ø¹Ø±
ĠÙĪØ§ÙĦ ÙĨØ³Ø§Ø¡
ĠÙĪØ±Ø³ ÙĪÙĦÙĩ
ĠØ§ÙĦÙħ Ø³Ø¨
ĠØ§ÙĦÙħØ¹Ø¯ ÙĨÙĬØ©
ĠÙĪØ§ÙĦ Ø¹ÙĦÙĪÙħ
ĠÙĪØµÙĪÙĦ Ø§
ĠØ§ÙĦØ¥ÙħØ§Ø±Ø§Øª ÙĬ
ĠÙĪØ§ÙĦØ£ Ùħ
ĠÙħ ÙĬØ´
ĠÙĪØ§ÙĦØ«ÙĤ Ø§ÙģÙĬØ©
ĠÙĦØŃ Ø±ÙĥØ©
ĠØ§ÙĦÙģ ÙĪØ¶Ùī
Ø´ ÙĤØ©
rt l
ĠØªØ£ ÙĩÙĬÙĦ
ĠØ± Ø§Ø¦
ĠØ³Øª ÙĨ
ĠØ£Ùģ ØºØ§ÙĨØ³ØªØ§ÙĨ
ĠÙħÙĦ Ø§ØŃØ¸Ø©
Ø§ ÙĬØ²
Ø¯ Ø¹ÙĬ
ĠØ£Ø¯ Ø±Ùĥ
ÙĦÙħ Ø§ÙĨÙĬØ§
ĠØ¨Ø´ ÙĬØ¡
ĠØ§ÙĦØ£Ùħ Ø§ÙĨ
ĠØ§ÙĦØ¯ ÙĤØ©
ĠÙĨÙģ ÙĪØ³
ĠÙĪÙħÙĨ Ø°
ĠÙħØ¤ Ø³Ø³
ĠÙģ Ø±ÙĬØ¯Ø©
Ø§ÙĦÙħ Ø¹
ĠØ¨ Ø³ÙĦ
ĠØ¥ÙĤ Ø§Ùħ
ĠÙĪØ£ Ø®Ø±Ùī
ĠØ§ÙĦÙĤØ¨ Ø§Ø¦ÙĦ
ĠØ§ÙĦØ¶Ø± Ø±
Ø¨ÙĬÙĨ ÙħØ§
Ø¹ ÙĪØ¨
ĠØŃ Ø°Ø±
ĠØ§ÙĦØª ÙģØ§ÙĪØ¶
ĠÙĪØªÙĨ ÙģÙĬØ°
Øº Ø§Ø«Ø©
ĠØ¬ Ø¨Ø§ÙĦ
ĠØªÙģ Ø±Ø¶
or d
ĠØ§Ø¨ Ø¯Ø§
ĠÙĦØªØµ Ø¨ØŃ
Ùģ Ø·
ÙĪÙĥ ÙĬ
ĠÙħÙĨ Ø·ÙĤ
ÙĬØ± Ùĥ
ĠÙħ Ø®ØµØµØ©
ÙĬÙħ ÙĬÙĦ
ĠØª ÙģØª
Ø°Ø§ ÙĥØ±Ø©
ĠØ¨ ÙĤØ±Ø§Ø±
ĠØ§ÙĦØ³ÙĬÙĨÙħ Ø§Ø¦ÙĬ
ĠÙħÙĬÙĦ Ø§ÙĨ
ĠØ¨Ø£ ÙĥØ«Ø±
ĠØ§ÙĦØ¬ ÙĬ
ĠÙĪØ§ÙĦ Ø¨ÙĨ
Ø¶Ø± Ø§Ø¨
ĠØ§ÙĦØª ÙĪÙĤÙĬØ¹
Ø§ÙĤ ÙĬÙĨ
ĠØ¬ Ø§Ø²
Ø³ÙĬ ÙĬØ±
ĠØ§ÙĦØ³ÙĬ Ø§Ø³ÙĬÙĬÙĨ
6 8
ĠØ¬ÙĨ Ø¨
ĠØ§ÙĦØ§ÙĨØª Ø¸Ø§Ø±
Øµ Ø§Ùģ
ĠÙħØ¶ Ø§Ø¹
ĠÙģØ± ÙĤØ©
Ġ6 00
Ġ x
ĠØ¨ÙĦØ§Ø¯ ÙĨØ§
ĠØ§Ø¬Ùĩ Ø²Ø©
ĠØ§ÙĦØ¯Ø± ÙĪØ³
ĠØ¨ÙħØ± Ø¶
ĠØ§ÙĦØªØ´Ø±ÙĬ Ø¹ÙĬØ©
ĠØ´Ø¹ ÙĪØ¨
ĠØ§ÙĦÙĨØ¨ ÙĪÙĬØ©
ĠØŃÙĥ ÙĪÙħ
ĠÙĦÙĦØ³ÙĬ Ø§Ø±Ø§Øª
ĠØ¹ÙĦÙĬÙĩ ÙħØ§
ĠÙĦÙħÙĨ Ø§ÙĤØ´Ø©
ĠØ§ÙĦØŃØ± Ø§Ø±ÙĬØ©
Ø¸ ÙĩÙĪØ±
ĠØ§ÙĦÙħ ÙĬØ¯Ø§ÙĨ
ÙĪ Ø°ÙĦÙĥ
ĠÙĦÙħ Ø´Ø±ÙĪØ¹
ĠØ³Ø± Ø§ØŃ
ĠØµØ¯ Ø§Ùħ
ĠÙĪØ§ÙĦ ØŃØ¯
ĠÙģØ¹ Ø§ÙĦØ©
ĠÙĨ Ø¶Ø¹
Ø§Ø¨ ÙĩØ©
ĠØ§ÙĦÙħ ÙĨØ³
ĠÙħÙĦØŃÙĪ Ø¸
ĠØ§ÙĦÙģ Ø§Ø¹
ÙĤ Ø§Ø±
ĠÙĦ Ùī
ĠØ§ÙĦØ¨Ø· Ø§ÙĦØ©
ĠÙħÙĥ Ø§ØªØ¨
ĠØ§ÙĦÙħÙħ Ø§Ø±Ø³Ø§Øª
ĠØ·Ø¨ ÙĤØ©
ĠØ§ÙĦØ³Ø§Ø¨ÙĤ ÙĬÙĨ
ĠØ§ÙĦÙħØ¨ ÙĥØ±
Ø±Ùĥ ÙĬØ²
ĠØ§ÙĦØ£ ÙĪÙĤØ§Øª
ĠØ§ÙĦØ§ÙĤ ÙĦÙĬÙħ
ĠÙħØ¹ Ø§ÙĨØ§Ø©
ÙĥØ± Ø§Ø¯
ĠÙĦÙĦ Ø±Ø¬Ø§ÙĦ
ĠØ¨Ø§Ø¹ØªØ¨Ø§Ø± Ùĩ
ÙĨØ§ ÙĬØ§Øª
Ø¨ ØªÙĩ
ĠØ§ÙĦØ¬Ø§Ùħ Ø¹
ĠØ¨Ø§ÙĦ ØŃÙĤ
Ùĥ ÙĪÙĥ
ĠØ§ÙĦØ³ ÙĪ
ÙĬÙģ ÙĪØ±
ĠÙĬ Ø®ÙĦ
Ø® Ø§Ø±
ĠØ± Ø¦
ÙĪÙĩ ÙĨØ§Ùĥ
ĠØŃ Ø¯ÙĬØ¯
ĠÙĪØ· Ø§ÙĦØ¨
ĠØ§ÙĦÙħØ³ Ø§ÙĩÙħØ©
Ø³Ø± ØŃ
ĠØ§ÙĦØªØ¹Ø¯ ÙĬÙĦ
ĠÙĪØ§ÙĦÙħ Ùģ
ĠØ§ÙĦØ¬ ÙĬØ¯Ø©
Ġ200 2
ĠÙĥ ÙĬØ§ÙĨ
ĠØ§ÙĦÙĤØ± Ø¢
Ø¬ Øª
Ø¯Ùħ Ø§ÙĨ
ÙĪØ§Ø· ÙĨ
ĠØ¨ÙĨ ØªÙĬØ¬Ø©
ec t
ÙĦÙĬ ÙĬÙĨ
ĠØ§ ÙĥØªÙĪØ¨Ø±
Ø¬ ÙħÙĦ
ĠØº Ø§Ø¯Ø±
Ø§Øº Ø±Ø©
Ø¨ÙĬ Ùĥ
ĠØ³Ø± ÙĬØ©
ÙĤØ· Ø§Ø¨
ĠØ§Øµ ØŃØ§Ø¨
ÙĩØ± Ø§Øª
ĠØ² ÙĪØ§Ø±
ĠÙħÙĪÙĤØ¹ Ùĥ
ĠØ· ØŃÙĨ
ĠÙħØŃ Ø§Ø¯Ø«Ø§Øª
ĠØ§ÙĦØ« Ùħ
ĠØ¥ Ø³Ø±Ø§Ø¦ÙĬÙĦÙĬ
ĠØ§ÙĦØ¹Ø¶ ÙĪÙĬØ©
ĠØ£ Ø®Ø·Ø§Ø¡
ĠÙĦÙĦØŃ Ø²Ø¨
ÙĪØ¬ ÙĬÙĨ
ØŃØ± Øµ
Ùħ Ø§Ø¡
ĠØ£ÙĪ Ø§Ø¦ÙĦ
ÙĪÙĦÙĪØ¬ ÙĬ
Ùİ )
ĠØ§ÙĦØ¹ ØµÙĪØ±
ĠØµ Ø¨
Ø±ÙĬ Ø§Ø¡
ĠØ§ÙĦØŃØ± Ø³
ĠØªØ´ Ø¨Ùĩ
Ø±Ø¨ Ø¹Ø©
ĠØªØ¹ ØªÙĤØ¯
Ø§Ùħ Ùī
ĠØ³ÙĬ Ø§Ø³ÙĬØ§
ĠØ¨Ø± ØµÙĬØ¯
ĠØŃÙĤ Ùĩ
ĠØ¨ÙĤ ÙĦÙħ
Ùĩ Ø±ÙĬ
ĠØ¨ ÙĤØ§Ø¡
Ġ Z
ĠÙħ Ø³Ùħ
Ø¢ Ø¢
ĠÙħ Ø·Ø¨Ø®
ĠØª ÙĤØ±Ø±
ĠÙĬØŃ ÙĦ
Ø¨Ø¯ Ø§
ĠØªØ³ Ø§ÙĩÙħ
ÙĪØ¯ ÙĩØ§
ĠØ§Øª ØµÙĦ
ĠØ§ÙĦÙĤ Ø§Ø±Ø©
ĠØ§ÙĦØ¬ ÙħÙĦØ©
ĠÙħ Ø¸Ø§ÙĩØ±
Ø±ØŃ Ø¨
ĠØ§ÙĦÙģØ±Ø¯ ÙĬØ©
ĠØ¥Ø³ÙĦØ§Ùħ ÙĬØ©
Ø¹ÙĦ Ùĩ
Ùħ ÙĩØ§
ĠÙħÙĨØ² ÙĦÙĥ
ĠÙĬ ÙģØ³
ĠØ®Ø· ÙĬØ±
ĠÙĬØ³ Ø§ÙĩÙħ
ĠØ§ÙĦØ£ Ø¨Ø·Ø§ÙĦ
ĠÙĪÙħ ÙĥØ§ÙĨ
ĠÙĬØª Ø³Ø¨Ø¨
ĠØ§ÙĦØŃ ÙĬØ©
ÙĦÙĬÙģ Ø²ÙĬ
ĠÙĦÙĦØ´ Ø®Øµ
ĠÙħØ¤ ÙĥØ¯
ĠØ§ÙĦØªØ®ØµØµ Ø§Øª
ĠØ§ÙĦØŃÙĪ Ø§Ø¯Ø«
ĠØŃ ÙĪØ¶
ĠØ§ÙĦØ¬Ø§ÙĨØ¨ ÙĬÙĨ
ĠÙĬØŃ Ø¶Ø±
Ø§Ø¨ Ø¹Øª
ĠÙĤÙĦØ¨ Ùĥ
ĠÙħØ¬ ÙĩÙĪØ¯
ĠØª Ø±ÙģØ¹
Ġ4 7
ÙĪØ³ ÙĬÙĤÙī
ÙĪÙħØ§ÙĨ Ø³ÙĬØ©
ĠÙĨ Ø§Øª
ÙĩÙħ Ø§ÙĦ
ĠØ¨ Ø¯Ùħ
ĠØ§ÙĦØ¨ÙĬ ÙĪØª
ĠØ§ÙĦÙħ ØªÙħÙĬØ²
ĠØ¨Ø· Ø±ÙĬÙĤ
ÙħØ§ÙĨ Ø©
ÙĬØ³ ÙĬØ§
ĠÙĦÙĦÙħ Ø¬ØªÙħØ¹
Ġ Â
Øª ØºØ§ÙĦ
ĠÙĬ ÙĪØ¶ØŃ
ĠÙĨØ´Ø± ÙĩØ§
ĠØ¯ Ùģ
ĠØ£Ø³ ÙĪØ£
ĠØªÙĪÙĤØ¹ Ø§Øª
ĠÙĤØ§ÙĨÙĪÙĨ ÙĬ
ĠØ§ÙĦÙģ ÙĬ
ĠØ§ÙĦÙĤ Ø§Ø³Ùħ
ĠØ§ÙĦÙħØŃØ¯ Ø¯Ø©
. âĢĿ
ĠØ¨Ø§ÙĦÙħ ÙħÙĦÙĥØ©
ĠØ§ÙĦØ¢ Ø¨Ø§Ø¡
ĠØªØª Ø®Ø°
ÙĨÙĬ Ùĥ
ĠÙĬÙĦØª ÙĤÙĬ
Ġ6 4
ĠÙĦÙħ Ø¬ÙħÙĪØ¹Ø©
ĠØ£Ùħ ÙĬ
ĠÙĬØ³ ÙĩÙĦ
ĠØªØ® ÙģÙĬÙģ
ĠÙĪØ§ÙĦ Ùī
ĠØ§ÙĦØ¨ Ø¹Ø¯
ĠØ§ÙĦØ¨Ø± Ø§Ø²ÙĬÙĦÙĬ
Ø¶Ø¹ Ø§Ùģ
ĠÙĤØ± Ø£Øª
ĠØ§ÙĦØ´Ø¨ ÙĥØ§Øª
ĠØ± Ø§ÙĬ
u p
ÙĪÙģ Ø§Ø©
ĠÙĪ ÙģØ¹
ĠØ§ÙĦÙħØŃÙħ ÙĪÙĦØ©
ĠÙĪÙĦ Ø£ÙĨ
ĠØ§ÙĦØ¬Ùħ Ø§Ø¹ÙĬØ©
ĠØ§ÙĦØ¶ ØºÙĪØ·
ĠØªØ§ÙĬÙħ Ø²
ĠØ§ÙĦÙħ Ø§Ø¯ÙĬ
Ġ Ø§Ø±Ø³Ø§ÙĦ
Ø³Ø± Ø·Ø§ÙĨ
ĠØ§ÙĦØµÙģ Ø§Øª
ĠØ§ÙĦØ¥Ø¬ØªÙħØ§Ø¹ ÙĬ
v er
ĠØªØ¬ Ø§Ø±ÙĬ
ÙĪØ±ÙĬØª Ø§ÙĨÙĬØ§
ĠØ§ÙĦÙħ Ø·Ø¨
ÙĬÙĨ ÙĬØ§Øª
ĠØ§ÙĦØ¥ Ø³Ùħ
Ø¨Ø¹ ÙĪØ«
ĠØ£ÙĤ Ø³Ø§Ùħ
ĠØ§ÙĦØ¹ÙĤÙĦ ÙĬØ©
ĠØ§ÙĦÙħ ÙĦØ§ÙĬÙĬÙĨ
ÙĪØª Ùĥ
ÙĨÙĬ Øª
ĠÙĪÙģÙĬ Ùĩ
ĠÙĦØ¥ Ø³Ø±Ø§Ø¦ÙĬÙĦ
ĠØ§ÙĦØ¨Ø¯ ÙĬÙĦ
ÙĬ ÙĬØ¯
ĠØ§ÙĦØ±ÙĬ Ø§ØŃ
ĠØ§ÙĦÙģØ± ÙĤØ©
ĠÙĥÙĨ ÙĬØ³Ø©
ĠØ¨ Ø§Ø¯
ĠØ³ÙĥÙĨ ÙĬØ©
ĠÙģÙĬØ± ÙĪØ³
ĠØªØ£ ÙĥØ¯
ĠØ§ÙĦØ£ Ø²ÙħØ§Øª
ÙĪ Ø®Ø©
ĠØ¥ ØŃØµ
ĠØ§ÙĦÙħØ³ØªÙĤØ¨ÙĦ ÙĬØ©
ĠØ§ÙĦØ§Ø® ÙĬØ±
ĠØ¨ÙĪ ØµÙģ
ĠÙĨØ¹ ÙħØ©
ĠØ§ÙĦØ¹ÙĤ ÙĬØ¯Ø©
Ø¨ ÙĨÙī
ĠØª ØªØµ
Ø§ØŃ Ø¯
ĠØ¨Ø§ÙĦ Ø¶Ø±ÙĪØ±Ø©
ĠØ¹ÙħÙĦ Ø§
ĠØ± Ø¯Ø§
ĠØ§ÙĦØª ÙĪØŃÙĬØ¯
ĠØ§ÙĦØ£ ÙĩÙħ
ĠÙħ ÙĪØ²
ĠØ§ÙĦØ§Ø¨ØªØ¯ Ø§Ø¦ÙĬ
ĠØ§ÙĦÙĨÙģØ· ÙĬØ©
ĠÙħØ´ ÙĥÙĦØ§Øª
ĠÙĬ Ø·Ø±ØŃ
ĠØ§ÙĦÙħØ´ ÙĬ
Ø·ÙĦ ØŃØ§Øª
ĠÙħØ± ØªØ¨Ø·
f f
ĠØ¨ ÙĪØ¶ÙĪØŃ
ĠØ³Ùħ ÙĬØ±
ĠÙħØ³ Ø±
ïº ´
Ø´ ÙĬØ¯
ĠØ§ÙĦØ¥ Ø·
ĠØªØª ÙĪÙĤÙģ
ĠØŃÙģØ¸ Ùĩ
ĠØ¨Ùħ Ø±ÙĥØ²
ĠÙĪ Ø®ÙĦ
ĠØ§ÙĦØ®ØµÙĪØµ ÙĬØ©
ĠØ° ÙĩØ§Ø¨
ĠÙĦØ§Ø¹ Ø¨ÙĬ
ĠØ§ÙĦÙģØ± ÙĨ
ĠØ§ÙĦÙħØª Ø´
ĠÙħ ÙĦØªÙĤÙī
ĠØ£Ø´ Ø¹Ø±
ÙĪØ§ÙĤ Ùģ
ĠÙģ ØªØ±Ø§Øª
ĠW indows
) ,
ÙģÙĩ ÙĪÙħ
Ø³ÙĬ Ø®
Ø§ÙĦÙħ Øª
Ġ5 5
% .
ĠØ§ÙĦÙģ Ø¶ÙĦ
ĠØ¥ ÙĥØ³
ĠØ³Ùħ Ø§Ø¹
ØµØ± Ø§Ø±
ĠØ§ÙĦØ¹Ùħ Ø§ÙĦØ©
ĠØ³ Ø§ÙĨØª
ĠØ§ÙĦØ¨ ÙĤ
ÙĪÙĦ Ø§ÙĨ
ĠØ¬ ÙħØ§ÙĩÙĬØ±
Ùħ ÙĪØª
ÙĦØ§Ùħ ÙĬØ©
ĠÙĦØŃ Ø¶ÙĪØ±
ĠØ¥ÙĨ Ø´
ĠÙħØ´ ÙĥÙĦ
ÙĨ Ø§Ø¯ÙĤ
ĠØ´ ØºÙĦ
ĠÙĦØ£ÙĨ ÙĨØ§
ĠØ§ÙĦØ± Ø§ÙĩÙĨ
ĠÙħØ´ ÙĩØ¯
Ø¨ ÙħØ§
ĠØ§ÙĦÙħØ³Øª ÙĪØ·
ĠÙģ Ø±Ø¬
ÙĬØ§ ÙĩØ§
Ø¹Ø¯ Ùī
ĠÙĬØ¯ Ø¹Ùī
ĠØ§ÙĦØ§Ùħ Ùħ
ĠØ§ÙĦØµ ÙĬØ§Ùħ
ĠÙĩ Ø§Ø¦ÙĦØ©
ÙĬ ÙĪØ¬Ø¯
ĠÙĦ Ø²ÙĬØ§Ø±Ø©
ĠØ¨Ø§ÙĦ ÙģØ±
ĠÙĪØ§ÙĦØŃ ÙħØ¯
ĠÙħÙħ ÙĦÙĥØ©
ĠØ§ÙĦØ®ÙĦØ§Ùģ Ø§Øª
ĠØ§Ø¹ Ø¯Ø§Ø¯
ĠÙħÙĨ Ø§Ùĩ
Ùģ Ø£
ÙĪÙĤ Ø§
ĠÙĦÙĦ ØŃÙĬØ§Ø©
ĠØ§ÙĦ ÙĦÙī
ĠÙĦÙĦØ§ÙĨ ØªØ®Ø§Ø¨Ø§Øª
ÙĨ Ø¬Ø±
ĠØ¨Ø¯ Ø§Ø®ÙĦ
ĠØ§Øª ÙħÙĨÙī
ĠØ´Ø± ÙĤÙĬ
ĠØ§Øª ÙĩØ§Ùħ
ĠÙĪ Ø§Øº
Ø¬Ø± Ø§Ùħ
ĠØ§ÙĦÙĨØ³ Ø®
ĠØ§ÙĤ ÙĪÙĦ
ĠØŃÙĤ ÙĤØª
ØªÙĨ Ø§Ø¹
ĠÙĪÙĦÙħ Ø§Ø°Ø§
ĠÙĪØ¬Ùĩ Ø§Øª
ĠØ£Ùĩ ÙĦÙĩ
ĠÙĨØ³ Ø¨ÙĬØ§
ĠArab ic
ĠØª Ø¶Ø±
Ø¬ Ø²Ø©
ĠØ§ÙĦØ£ Ø¨Ø¹Ø§Ø¯
ĠÙħØŃ Ø§ÙĥÙħØ©
ĠØ§ÙĨ ÙĩÙĬØ§Ø±
ÙĪØ§Ø¬ Ø¨
ĠØµ ÙĪØ§Ø±ÙĬØ®
ĠØ³ ÙĪØ¨Ø±
ĠØ§ÙĦØ¨ Ø±ÙĬ
ÙĢÙĢ Ø§
ĠØ± Ø§Ø¯
ĠØ¥Ø³ ÙĤØ§Ø·
ĠØ§ÙĦØº Ø¯
ĠØ§Ùĩ ØªÙħ
ĠÙħÙĪ Ø«
Ø§Ùħ Ø¹
Ġ r
Ø§Ø¤ ÙĦØ§Øª
ĠÙĨ ØµÙĪØµ
ĠÙĦÙħØ³ Ø§Ø¹Ø¯Ø©
ĠØ£ Ø±ÙĥØ§ÙĨ
ĠØ£ØŃ ÙħØ±
Ø³ ÙĪØ±Ø©
ĠØªÙħ ÙĬ
Ø³Ø§ ÙĩÙħØ©
ĠØŃ Ø§Ø±Ø³
ĠÙĥ Ø³Ø¨
ĠØ§ÙĦÙħÙĨØª Ø¯ÙĬØ§Øª
ĠØ¸ ÙĨ
ĠØ§ÙĦÙģÙĦ Ø³ÙģØ©
ĠØ¹ ÙĬÙĨÙĬ
Ø§Ø´ Ùī
ĠØ§ØŃ ØªÙħ
ĠÙħØ´Ø±ÙĪØ¹ Ø§Øª
ĠØ§ÙĦØªØ¬ Ø§Ø±
ĠÙĦ Ø¨Ø±ÙĨØ§ÙħØ¬
ĠÙĬ ØµØŃ
ĠØ¨ÙĪ Ø³Øª
ĠÙħØªÙħ ÙĬØ²Ø©
ĠÙĪØ§ÙĦØ¯ ÙĪÙĦÙĬØ©
Ø¨Ø¯ Ø§ÙĬØ©
ĠØ§ÙĦÙĨ ÙĩØ±
ĠØ§Ùħ Ø±ÙĬÙĥØ§
ĠØ§ÙĦØ±ØŃ ÙĦØ§Øª
ag e
ĠØ§ÙĦØ§Ùħ ØªØŃØ§ÙĨØ§Øª
ĠØ§ÙĦÙģ ØŃÙħ
ĠØµ ÙĦÙĬ
ï» ĺ
Ø«ÙĬØ± Ø§
ĠØ§ÙĦÙħÙģ ØªØ±Ø¶
ĠØ§ÙĦØ¥ Ø³Ø±
ĠØ§ÙĦÙĩØ± Ùħ
Ø´ ÙĪ
ĠØµ ÙĬØ¯
ĠØ§ÙĦÙħØ¹ Ø§Ø±Ùĥ
ĠÙģØ¹ÙĦ Øª
ĠØ¹Ø¨ ÙĬØ¯
ĠØ®Ø§Øµ ÙĬØ©
ĠÙĦ ÙĪÙĥ
ĠØ§ÙĦÙģØ± Ø§Øº
ĠØ§ÙĦÙħØº Ø§Ø±Ø¨Ø©
ĠÙĬ Ø¯ÙĬÙĩ
ĠÙĦÙĦØ¥ ÙĨØ³Ø§ÙĨ
ĠØ§Øª ØµØ§ÙĦØ§Øª
ĠØ¨Ø¬ Ø§Ø¦Ø²Ø©
ĠÙĪØ´ Ø¹Ø¨
ÙĪ Ø£ÙĨ
Ø³ ÙĪÙĤ
Øº Øª
ĠØ§ÙĦØ¥ Ø¹ÙĦØ§ÙĨØ§Øª
ĠØ´ ØªÙī
ĠØªØ³ ÙĦÙħ
ĠÙħØ¯ ÙĨÙĬ
Ø³ ÙĬÙĪÙĬØ©
ĠØ§ÙĦØŃ Ø²ÙĨ
ĠØ¬Ùħ Ø¹Ø©
ĠØ§ÙĦÙĤØ° Ø§ÙģÙĬ
ĠØ§ÙĦØ£ ØŃØ§Ø¯ÙĬØ«
ĠÙħÙĪ Ø§ÙĦÙĬØ¯
ĠÙĪÙĨ Ø¸
Ø§ÙĦÙħ Ø§Ø¯Ø©
ĠØ§ÙĦÙĥØ«ÙĬØ± ÙĬÙĨ
ÙĬØª ÙĨØ§
ĠØ§ÙĦØ±ÙĤÙħ ÙĬ
ĠÙĪØ§ÙĦ Ø±ÙĬØ§Ø¶Ø©
ĠØ§ÙĦÙħÙģ Ø§ÙĩÙĬÙħ
ĠÙħ ÙĩØ¯
ØŃ Ø³Ø§ÙĨ
ĠØªØ¯ Ø±ÙĬØ¬
ĠÙħ Ø±ÙĬØŃØ©
ĠØ¨Ø§ÙĦØ´ ÙĥÙĦ
ĠÙģ ÙĨØ§ÙĨ
e g
Ø§Ø´ ØªØ±Ø§Ùĥ
ĠØ¥ ØŃØ¯Ø§Ø«
ĠÙĨØŃ ØªØ§Ø¬
Ø® Ø§ØµØ©
Ġ200 1
ĠÙĥ ÙĪØ¯
ĠØ§ÙĦÙĨ ÙģØ§ÙĬØ§Øª
ÙĬÙĨ ÙĬØ§
ĠØªÙĪØµ ÙĬÙĦ
ĠØ§ÙĨ ÙĤØ±
ĠØª ÙĪØ¨
ĠØ§ÙĦ ÙĪØ¶
ĠÙĪØ´ ÙħØ§ÙĦ
ĠØª Ø²ÙĪØ¬
ĠØ§ÙĦØ¹ ÙģÙĪ
ĠÙĬ Ø®Ø¯Ùħ
ĠÙĪØ¶Ø¹ Ùĩ
ĠØ§ÙĦÙħÙĦ Ø§Ø¦ÙĥØ©
ÙĢ Ùĥ
ĠØª Ø®ØªØ§Ø±
ĠØ§ÙĦØ§Ùħ ØªØŃØ§ÙĨ
ĠØ§ÙĦØª ÙĤÙĬÙĬÙħ
ĠØ§ÙĦØ¨Ø± ÙĪØªÙĬÙĨ
Ø§ÙĪ ÙĬÙĨ
ĠØ£Ø³ ÙĪØ¯
ĠØ¨Ø± Ø¹Ø§ÙĬØ©
ĠØ£ Ø®Ø±Ø¬
ĠØ§Ø³Øª ÙĥÙħØ§ÙĦ
ĠØ¨ ÙĪØ¬Ùĩ
ĠØŃ Ø§ÙĥÙħ
ĠÙĥÙħ Ø¨ÙĬÙĪØªØ±
ĠØ¹ Ø§Ø¯ÙĬØ©
9 5
ĠØ£ Ø¨Ø±
ĠØ¨ Ø±ÙģØ¹
ĠØ£Øµ ØºØ±
ĠØ¨ Ø¨Ø·
ĠØ§ÙĨ Ø³Ø§ÙĨ
ĠØ§ÙĦÙħØ³ Ø§ÙĪØ§Ø©
Ġ> >
ĠÙĪØ§ÙĦ ÙĬÙĪÙħ
ĠÙĦ ÙĬØ±
ĠÙĥ Ø´
ĠÙĨ ÙĪØ§Ø¨
ÙģÙĦ ÙĪÙĨ
ĠØºØ± Ø§Ø±
ĠØ¹Ø§Ùħ Ø±
ĠØ§ÙĦØµ ØºØ±
Ùħ Ø¬ÙĦØ³
ÙĤ ÙĪÙĨ
ĠØ§ÙĦØªÙħ ÙĬØ²
ĠÙĬ Ø³Ø±
ĠØ§ÙĦÙħ Ø¬ÙħØ¹
ĠØ§ÙĨ ÙĤØ·Ø§Ø¹
Ø¶ØŃ Ùī
o g
Øª Ø§Ø±ÙĬØ®
ĠØ¬ Ø§Ùĥ
ØºØ± Ø§ÙģÙĬØ©
Ø¯ÙĬ ÙĩØ§
ĠÙħ Ø®Ø·
ĠØ§ÙĦØ£Ø³ ÙħØ§Ùĥ
ĠØ¥ ØµØ§Ø¨
ĠÙĬÙĨ ÙģØ¹
ĠÙĥÙĦÙħ ØªÙĩ
ĠØ¹ Ø§Ø¬ÙĦ
Ø¬Ø¯ Ø§Øª
ĠØ± ÙĪÙħ
ĠØ§ÙĦØ³ Ø¹ÙĬØ¯
ĠØ¥ ÙĬÙĩ
ĠØ§ÙĦÙĦØŃ ÙĪÙħ
Ùħ ØªÙĩØ§
ĠØ± ÙĥÙĨ
ĠØ§ÙĦØ³ÙĬ Ø§ØŃ
Ø² ÙĪÙĦ
ÙĤØ§ÙĦ Ø§Øª
ĠØ¹Ùħ ÙĤ
ĠØ§ÙĦÙħÙĪ Ø§Ø²ÙĨØ©
ĠØ§ÙĦØ¹ÙĤ Ø§Ø±Ø§Øª
ĠØ§ÙĦØª ÙģØ§Ø¹ÙĦ
Ø¢Ø®Ø± ÙĬÙĨ
ĠØ§Ùħ ØªØŃØ§ÙĨØ§Øª
i re
ĠÙĨ ÙĩØ§
ĠØ¨ØŃ ÙĤÙĪÙĤ
ĠØ§ÙĦÙħØ³Øª ÙħØ±Ø©
Ø§Ø¸ Ùħ
ĠÙħØ³ØªØ®Ø¯Ùħ ÙĬ
ĠØ§ÙĦØ§ÙĨ ØªØ¨Ø§Ùĩ
ĠØµÙģ Ø§Øª
Ø§Ø« Ø±
ÙĬÙĨ Øº
ĠØŃØ¯Ø« ÙĨØ§
ĠØ§ÙĦÙħÙĨ ØŃ
ĠØ§ÙĦÙĨØ¯ ÙĪØ©
ĠØªØµ ØŃÙĬØŃ
ĠØ§ÙĦÙģÙĬØ±ÙĪØ³ Ø§Øª
Ø¹ Ø·
Ø®Øµ Ø§Ø¦ÙĬ
ĠØ¹ÙĤØ¯ Ùĩ
ÙĤ Ø±Ø¨
ĠÙĪØ§ÙĦØ§Ø³Øª ÙĤØ±Ø§Ø±
ĠØ§ÙĦÙħØª Ùģ
ĠØªÙĨÙģÙĬØ° ÙĩØ§
ĠØ§Ø®ØªØ± Ø§ÙĤ
Ø·Ø¨ Ø§Ø¹Ø©
ĠØª ÙĪÙħ
ĠØ§ÙĦØ£Ùģ Ø±ÙĬÙĤÙĬØ©
Ø¹ Ø¬
ĠØ§ÙĦÙħ Ø«ÙĤ
ĠØ§ÙĦÙĥØ±Ø¯ ÙĬØ©
ĠÙĬÙħ ÙĬØ²
ĠØª Ø£Ø³
ĠÙĪØ§ÙĦØ£ Ø±Ø¶
ĠØ£Øµ Ø§Ø¨
ĠØ§ÙĦÙħØŃ Ø§ÙħÙĬ
ĠØ§ÙĦØµ ØºØ§Ø±
ĠØ¨Øª ÙĪÙģÙĬØ±
Ø³Ùħ ØŃ
Ø¨Ø¯ ÙĦ
s ize
ĠØ§ÙĦØ£ÙĪÙĦ Ùħ
ĠØ¹ÙĨ Ø§
Ø§ÙĦ Ø¹ÙħÙĦ
ĠØ§ÙĦØ£Ùħ Ø«ÙĦ
Øª ÙĤÙĬ
ĠØ£ Ø¸ÙĩØ±Øª
ĠØ§ÙĦØ¬ ÙĨÙĬÙĨ
Ġ6 5
ÙĨØª ÙĪØ³
ĠØ§ÙĦÙĨØ³ Ø¨Ø©
ĠÙĪÙĦ ÙĩØ§
ĠÙĦÙĦ Ø§Ø®
ĠØ§ÙĦÙħÙĪ Ø§ØµÙģØ§Øª
ĠØ§ÙĦØ¹ Ø´Ø±Ø§Øª
ĠØ§ÙĦØŃ Ø¬Ø²
ĠÙĦØªØŃ Ø±ÙĬØ±
ĠØ³Ø± ÙĤØ©
ĠØ¥ÙĨ ÙĤØ§Ø°
ĠÙĬ ÙĩØ¯Ø¯
ĠØ§ÙĦØ´ ÙĬÙĪØ®
ÙħØ± Ùĩ
ĠÙħØ¹ Ø§ÙĨÙĬ
ĠØ§Ø¬ØªÙħØ§Ø¹ Ø§Øª
ĠØ¬ ÙĪÙĬØ©
ĠØ£Ø¨ Ø¹Ø¯
ĠØ¬ÙħÙĬØ¹ ÙĩØ§
ĠØ³ ÙĪ
ĠØ§ÙĦØº Ø²
ĠÙĬØ¹ ÙĬØ¯
ĠÙĦÙĦØ´ Ø±ÙĥØ§Øª
ĠØªØ¹ ÙĪÙĬØ¶
ĠÙĪ Ø§ÙģÙĤ
ĠÙĪØ± ÙĪØ³ÙĬØ§
ĠÙħ Ø±ÙĬØ¶
ĠØ¨Ø¥ Ø·ÙĦØ§ÙĤ
ĠØ§ÙĦ Ø§ÙĦØ¹Ø§Ø¨
ÙĪØ§ÙĨ Ø§
ĠØ§ÙĦÙĩ Ø§Ùħ
ĠØ§ÙĦØ£ÙĨ ÙĪØ§Ø¹
ĠØ§ÙĦØ¹ ÙĬ
Ø¹ Ø²
ĠØ§ÙĦÙħØ² Ø§Ø±Ø¹
ĠÙĦØ· ÙĬÙģØ©
ĠØ§Ùħ ØªØŃØ§ÙĨ
ĠØ§ÙĦØ±ØŃ ÙħØ©
ĠØ´ Øº
ĠØ§ÙĦØ§Ùħ ÙĨÙĬØ©
ĠØ¨Ùħ Ø¬ÙĦØ³
ĠØ§ÙĦØªØ¹ÙĦÙĬÙħ ÙĬ
ĠÙĨØ¬ ØŃØª
ĠØ§ÙĦÙħ ÙĦØªÙĤÙī
ĠØ¬ ÙĬÙħ
ĠØ§ÙĦØ¨ÙĪ Ø§Ø¨Ø©
ĠÙĬÙĤ ÙĬÙħ
ĠØ§ÙĦØª ÙĥÙĪÙĬÙĨ
Ø¦ ÙĬØ§
Ġïº Ĺ
Ø¨ÙĬ ØŃ
ĠØ§ÙĦÙħØ¤ Ø±Ø®
ĠÙħØ¨ ÙĬÙĨØ§
ĠØ§ÙĦÙħØªÙĨ ÙĪØ¹Ø©
ĠÙħØ¤ Ø´Ø±Ø§Øª
Ø´Ø± ÙĪØ·
ĠÙĦÙĬ ØªÙħ
ĠÙĬÙĤ ØµØ¯
ow n
ĠØ£ÙĦÙģ Ø§
Ø¹ÙĦ Ø§ÙĤØ©
ĠÙĪØ¬Ùĩ ÙĩØ§
Ø´ Ø§ÙĨ
ĠÙĩ Ø¯ÙĬØ©
Ø§ÙĤ ØªØµØ§Ø¯
ĠØ£Ø³Ø¨ÙĪØ¹ ÙĬÙĨ
ĠÙħØ± Ø§Ø³
Ø¬Ø¯ Ø¯Ø©
ĠØ¬Ø¯ ÙĪÙī
ĠØ§ÙĦØ¯ ÙĪØ±Ø§Øª
ĠØŃØ§Ø¯Ø« Ø©
ĠÙħØ± ØªØ¨Ø·Ø©
ĠØ§ÙĦÙħ Ø§ÙĦÙĥ
ĠÙĦ Ø¬Ø§ÙĨ
ÙĪØ² ÙĨ
ĠØ§ÙĦÙħÙĨØ´ Ø¢Øª
ĠØ§ÙĦÙģ ÙĥØ±ÙĬ
ĠØªÙģ ÙĥØ±
ĠØ¨Ø§ÙĦ Ø«
ĠÙĩ Ø§Øª
ĠØ§ÙĦÙħØ¯Ø± Ø³ÙĬ
ĠØ± ÙĪØ§Ø¨Ø·
ĠØªÙħ ØªØ¯
ĠØ§ÙĦÙħØª Ø¯
ĠØ§ÙĦØŃ Ø§Ø±
ĠØ§ÙĦØŃØ¨ ÙĪØ¨
Ļ ¥
Ø®Øµ ÙĬØµ
ĠØª Ø¹ÙĦ
ĠØ§ÙĦÙħÙĤ Ø§Øª
Ø¨Ø¯Ø£ Øª
ĠØ§ÙĦØª Ø¨Ø±
ĠØ§ÙĦØ³Ùħ Ùĥ
ÙĨ Ø§ØµØ±
ĠØ§ÙĦÙħØª ÙĪØ³Ø·Ø©
ĠØ§ÙĦÙģØ± Ø¹
ĠØ§ÙĦØ´ ÙĪØ±Ùī
i k
ĠØ¨Ø¯Ø¡ Ø§
ĠØ§ÙĦØ£ ÙĨØ³
Øº Ø°ÙĬØ©
ÙĪØ´ Ø¯Ø¯
ĠÙĦÙħ ØªØ§Ø¨Ø¹Ø©
Ø±Ø¶ Ùī
ÙĨ Ø´Ø±
ĠÙħØ¹ ÙĨ
ĠØ¢ ÙĦØ§Ùħ
ÙĪ ÙĬÙħÙĥÙĨ
ĠØ¯ ÙĤØ©
ĠØ¥ ÙĬÙħ
Ø´Ø§Ø± ÙĬ
ĠÙĬÙĨ Ø¸Ùħ
ĠÙĦÙĦØ· ÙĬØ±Ø§ÙĨ
ĠÙĪØ§ÙĦ ØµÙĦØ§Ø©
ĠØª Ø±ÙģØ¶
ĠÙĪØª ÙĤÙĪÙħ
ÙĦØ¨ Ø³
ĠØ§ ÙĥØ¯
Ùģ ÙĪØ§
ĠØ±ÙģØ¶ Øª
ĠÙģ Ø¦Ø§Øª
Ø§Ø¯ ÙĬØ±
Ø±Ø§Ø¦ÙĬÙĦ ÙĬØ©
b er
ÙħØ± ØŃØ¨Ø§
ĠØ¨Ø§ÙĦØ¶ Ø¨Ø·
ĠØ¬ÙĨ Ø§ØŃ
ÙĢ Ø¢
ĠØª Ø«
ĠØ§ÙĦØŃ Ø§Ø¯ÙĬ
ĠØ¹Ùħ Ø§Ø¯
ĠØª Ø±Ø¨Ø·
ĠØ£ÙĩÙĦ ÙĩØ§
ĠØ£Ø®Ø° Øª
ĠÙĦÙĦ Ø§Ùħ
ĠÙĦ ÙĪÙĤÙģ
ĠØ§ÙĦØ± ÙĪØ§ÙĬØ§Øª
ĠØ§ÙĦØª ÙĪÙĤÙģ
ØŃ Ø·
ĠÙĪ Ø¯Ùħ
ĠØ§ÙĦØ¹Ø¨ Ø§Ø¯ÙĬ
ĠØª ÙģØ±
ÙĨØ¨ ÙĪÙĦ
ĠØ£Ø¹ÙħØ§ÙĦ Ùĩ
ĠØ¨Ùħ Ø¹Ø¯ÙĦ
ĠØ§ÙĦÙħ Ø°
ÙĢÙĢ ÙĦ
ĠÙĤ ÙĪÙħÙĬ
ĠØ§ÙĦÙħØ±Ùĥ Ø¨Ø§Øª
ĠØ¥ÙĦ ÙĬÙĨØ§
ĠØ§ÙĦÙĪ ÙĥÙĬÙĦ
ĠØ¥ Ø²Ø§Ø¡
ĠØ§ÙĦØ¹Ø¸Ùħ Ùī
ĠØ§ÙĦØ¨Ø±ØªØº Ø§ÙĦÙĬ
ĠØ§ÙĦÙħØ· Ø§Ùģ
ĠÙĬØ³Ùħ Ø¹
ĠØ§ÙĦÙĥ Ø§Ø±
ĠØ§ÙĦØ£Ø¬ÙĨ Ø¨ÙĬ
ĠØ¯Ø¹ ÙĪÙī
ĠÙĦØŃ Ø¸Ø§Øª
âĢ Ķ
ĠÙģØ¬ Ø£Ø©
ĠÙĦØ¥ Ø·ÙĦØ§ÙĤ
ÙĪ Ø§Ø©
ĠØ¨Ø§ÙĦØª ÙĨ
Ø§ ÙĪØ§Øª
ĠÙĬ ÙĨØ³
Ø§Ùħ Ø±Ø§Øª
ĠØ¨Ø¯Ø± Ø¬Ø©
ĠÙħÙĨØ®ÙģØ¶ Ø©
ĠØ³ ÙĦØ¨ÙĬØ©
ÙĪ Ø§ÙģØ±
ĠØ§ÙĦÙĪØ§Ø³ Ø¹Ø©
ÙĤØ§ ÙĬØ§
ÙĪÙĨ Ø¯ÙĬØ§ÙĦ
ĠØ§ÙĦØ¥ ØµØ¯Ø§Ø±
ĠØ§ÙħØª ÙĦØ§Ùĥ
Ġï» Ł
ĠÙħØŃ Ø·Ùħ
ĠØ§ÙĦØ¥ ØªØŃØ§Ø¯
ĠØ¯ Ø³Øª
ĠÙħØªØŃ Ùģ
ĠØ§ÙĨØªØ® Ø§Ø¨
ĠØ§ÙĦÙħ Ø·Ø§ÙĦØ¨
ĠÙĪØ§ÙĦØŃ ÙģØ§Ø¸
Ø§ÙĬØ± ÙĨ
ĠØ§ÙĦÙĨ Ø§ÙĤ
ĠØ§ÙĦØ³ Ø¯
ÙĤØ· Ø¹Ø©
ĠØ§ÙĦØ£ Ø®Ø±
ĠØ¨Ø¯ ÙĬÙĦ
ĠØ§Ø± ØªÙģØ¹
ĠØ® Ø¨ÙĬØ±
Ġ_ --
ĠØ³Øª Øª
Ø³Ø§Øª ÙĬÙĨ
ĠØ§ÙĦÙħØ¶ Ø§Ø¯Ø©
ĠØŃØ³ Ø§Ùħ
Ø¹ Ø·Ø§Ø¡
ĠØ³ ÙĦÙģ
ĠØ² ÙĦ
ÙĨØª ÙĬÙĨÙĬ
ĠØ¶ ÙĬÙĤ
ĠÙĦÙĦ ÙĥØªØ§Ø¨
ĠÙĦÙħØ¯ ÙĬÙĨØ©
ĠÙĪØŃ Ø±
ĠS p
ĠØ¹ÙĤ ÙĪØ¨Ø©
ĠÙħØ¹ ÙĦÙħ
ĠØªÙħ ÙĥÙĬÙĨ
ou r
Ø¨Ø± Ùĩ
ĠØ§ÙĦÙĨ Ø·Ø§ÙĤ
Ø¨Ø± Ø§ÙĩÙĬÙħ
ĠØ§ÙĦØŃÙĬÙĪ Ø§ÙĨ
ÙĤ Ø§Ø¹Ø¯
ÙĨ Ø´
ĠÙĬÙĪÙĨ Ø³
Øª Ø·Ø¨ÙĬÙĤ
Ø§Ø¹ Ùī
ÙĦ Ø£
ĠØ¯Ø§Ø® ÙĦÙĬ
ÙĤ Ø·Ø©
ĠØ¨Ø¥ Ø¹Ø§Ø¯Ø©
ĠØ§ÙĦØ§ÙĨØ³ Ø§ÙĨÙĬØ©
ĠØ§ÙĦØ£ ÙĪØ³
ĠØ§ÙĦØ¹ ÙĦØ§ÙħØ§Øª
ĠØ² Ø§Ø¯Øª
ĠÙĬ ÙĤØ±
ĠØªØ¬ ÙĨ
ÙĪØ± Ø§ÙĤ
7 8
ĠØ§ÙĦÙħØ¤ Ø³
ĠØ§ÙĦØ¥Ùģ Ø±ÙĬÙĤÙĬØ©
ĠØ§Ø¹ØªØ¨Ø§Ø± Ø§
ĠØ§ÙĦÙģ ØŃØµ
ĠØ¯ ÙĬÙĪØ§ÙĨ
ØªØŃ Ø§Ø±
ÙĪÙĨ Ø¬
ĠÙĪÙģ Ø§ØªÙĩ
ĠØ£Ø´Ø§Ø± Øª
ĠØ§ÙĦÙĨ Ø§Ø®
ĠØ¨Ø§ÙĦÙħ ØŃ
ĠØ§ÙĦÙħØŃ Ø±Ùĥ
Øº ÙĦÙĤ
ĠØ§ÙĦØ³ ØŃØ±
ĠØ§ÙĦØ³ Ø±ÙĬ
ĠØ§ÙĦØ¬ Ø±ØŃ
ĠÙĪ ÙĥÙĨ
ĠÙĬØª ÙĤØ¯Ùħ
ĠØ§ÙĦÙĤ Ø§Ø¨
ĠÙĩ ÙĪÙĬ
ĠØ´Ø®Øµ ÙĬ
ĠÙħØª Øª
ĠÙĪØ± Ø´
ĠØ§ÙĦÙħ ÙĥÙĪÙĨ
ĠØ§ÙĦØ¨Ø· Ø§Ø·
ĠØ§ÙĦØ·Ø§Ø¦Ùģ ÙĬØ©
ÙĪÙĨ ÙĤÙĦØª
ĠØ¨Ø¯ ÙĪØ±ÙĩØ§
ĠÙĪØŃ ÙĦ
ĠØ§ÙĦÙħØª Ùĥ
ĠØ³ Ø§
ĠØ¹ÙĦ Ø§Ø¡
ĠÙĪÙĪ ØµÙģ
Ø§ÙĦ Ø£Ø³
ĠØ§ÙĦÙħÙĤ Ø§ÙĦØ§Øª
ĠØ§ÙĦØ¬ Ø¨Ø§ÙĦ
ĠÙħØª Ø§ØŃØ©
ĠØºØ° Ø§Ø¦ÙĬØ©
ÙĪÙģ Ø§Øª
Ø§ÙĦØ¯ ÙĪÙĦØ©
ÙħÙĦ Ø§Ø¡
ØªØ¹ Ø±Ø¶
ĠÙĬØª Ø³
ĠØ§ÙĦÙħØ´ Ø±Ùģ
ĠØ§ØŃ ÙĦÙī
ĠØ§ÙĦÙĬØ³ Ø§Ø±
ĠØ´Ø§Ø± ÙĥØª
ĠØŃ ÙĤÙĦ
ĠØ¯ ÙģØ¹Ø©
ĠÙĦ Ø¨Ø±
ĠØµ Ø¹ÙĪØ¯
ĠØ§ÙĦÙģ ÙĤØ±Ø§Ø¡
ĠØª ÙĪØ¶ØŃ
ÙĬØ§ Ùĥ
ĠÙĦÙħØ´ Ø§ÙĩØ¯Ø©
ĠØ´Ùĩ Ø§Ø¯Ø§Øª
ĠÙĪÙħØ¹ Ø±ÙģØ©
ĠØŃ Ø§ÙĦÙĬ
ĠØ° Ø±
ĠØ§ÙĦØª ÙħÙĪ
ÙĪÙĤ Ø§ÙĬØ©
ĠØ¨Ø§ÙĦ ØªØµ
Ø§ÙĦØ³ Ø¹ÙĪØ¯ÙĬØ©
ĠØ§ÙĦÙĪØ« ÙĬÙĤØ©
ĠØ§Ø³Øª ÙĤØ¨ÙĦ
ÙĤØ· ÙĬØ¹
ĠØ§ÙĦØ¹ÙĦ ÙĪÙĬ
ØªØ± ØŃØ§Øª
ĠØ£ Ø¸ÙĩØ±
ĠØ§ÙĦØŃÙħ ÙĬØ¯
ĠØ§ÙĦØ¹ÙĤ Ø§Ø±
ĠØ£ ØªÙī
ĠØ§ÙĦØ³ÙĬØ¯ Ø§Øª
Ø±ÙĬØ· Ø§ÙĨÙĬØ§
Ø¦ Ø±
ĠÙĦÙĦØ· ÙģÙĦ
ĠÙĨÙĩ Ø¬
ĠØª Ø¬ÙħÙĬØ¹
ĠØ§ÙĦØ·Ùģ ÙĪÙĦØ©
ØŃÙĤ Ø§ÙĤ
ĠØ³ Ø§Ø±
ĠØµØ¯Ø± Øª
ĠØªØª ÙĪÙĤØ¹
ĠØ£ ÙħØ©
ĠÙĪØ§ÙĦØª ÙĥÙĨÙĪÙĦÙĪØ¬ÙĬØ§
Ø¨ÙĤ ÙĬØ©
ĠØªØŃØ¯ ÙĬØ¯Ø§
ĠØ§ÙĦØ³ Ø§Ø¦ÙĦ
ĠÙĨØ§Ùģ Ø°Ø©
ĠØ§Øª ÙĩÙħ
ĠØ§ÙĦØµÙģ ÙĤØ©
ĠÙĪØ§ÙĦÙħ Ø¹ÙĦÙĪÙħØ§Øª
Ø§ÙĦ ÙĪÙĨ
ĠØ´Ø± Ø¹
Ùģ Ø·Ø§Ø±
ĠØªØ³ ÙĪÙĬØ©
ÙĨ Ø§Ø·
ĠÙĪØ¬ÙĪØ¯ Ùĩ
ĠØ§ÙĦØ· Ø§Ø²
o x
ĠØ£ ØµØ¯ÙĤØ§Ø¡
ĠÙĪÙħ ØªØ§Ø¨Ø¹Ø©
ĠÙĪØ§ÙĦ ÙĪÙĦØ§ÙĬØ§Øª
ĠØªÙĨØª Ø¬
ÙĦÙĬ Ø·
ĠØªØ³ Ø¹Ø©
ÙħØ± Ø§Øª
ÙĦÙĬ ÙģØ©
ĠÙĦØ£ÙĨ Ùĥ
ĠÙĦ Ø§Ø¬
ĠÙĪØ§ÙĦØµ ØŃØ©
ĠØ¨Ùĥ ÙĦÙħØ©
ĠØ¥Ø³Ø±Ø§Ø¦ÙĬÙĦ ÙĬØ©
ĠÙĪØ§ÙĦØª Ø¯Ø±ÙĬØ¨
Ø¢ Ø©
Ùģ Ø±ÙĬ
ĠÙĨØ¸ Ø±ÙĬ
Ùħ Ø·
ĠØ§Ø¨ ÙĬ
el l
Ø¤ÙĪÙĦ ÙĬØ©
ĠÙĦØ¥ÙĨ Ø´Ø§Ø¡
Ġ4 6
ĠÙĪØ£ Ø¹Ø¶Ø§Ø¡
ĠØ§ÙĦØ² Ø§Ø¦Ø¯
ĠÙĦÙĦØ³ ÙĨØ©
ĠØ§ÙĦØµÙģ ØŃØ§Øª
ĠÙĦÙĦØ§ ÙĬØ¬Ø§Ø±
ĠØ§ÙĦÙħØŃ ØªÙħÙĦ
Ø§ÙĦÙħ Ø¯
ĠÙĬØ² ÙĪØ±
ĠÙĪÙĨ Ø¸Ø±
ØªØµÙģ ØŃ
ÙģÙĬ ÙĩØ§
ĠØª ÙĦØ¨ÙĬØ©
ĠØ§Ùħ ÙĬØ±
ĠÙħØ¨ Ø§ØŃØ«
ĠÙĪÙħ Ø¯ÙĬØ±
ĠÙĥ ÙĪÙĥØ¨
Ø² Ø§Ø²
ĠØ£Ø¨ÙĬ Ùĩ
ĠØ§ÙĦÙħØ¬ ÙĦØ©
ĠØ§ÙĦØ²Ø± Ø§Ø¹ÙĬ
ÙģØ³ Ø§Ø±Ø§Øª
Ø±Ø¨ ØŃ
Ø¨ Ø³Ùħ
ĠØ´ÙĩØ¯ Ø§Ø¡
ĠÙĪ Ø§Ø¬ØªÙħØ§Ø¹
ĠØªØ¯ ÙģÙĤ
âĹ Ħ
ĠØ§ÙĦÙģ ØµØ§Ø¦ÙĦ
ĠÙĤ Ø§Ø¦ÙĦØ©
ĠØ§ÙĦØ§Ø´ Ø®Ø§Øµ
ĠØ§ÙĨ ÙĨÙĬ
ĠØªÙĦÙĤ Ø§Ø¦ÙĬØ§
Ùĩ ÙĪØ±Ø©
ĠÙħÙĤ Ø¨
ĠØ§ÙĦØ§Øµ Ø·ÙĨ
ĠØµÙĬ Ø§ØºØ©
ĠÙĪØ¯ ÙģØ¹
ĠÙĪØµÙģ Ùĩ
ĠÙĬ Ø®ØªØ§Ø±
ĠØ§ÙĦØ¥ Ø¨Ø§ØŃÙĬØ©
ÙĬØª Ø§
ĠØ§ÙĦØ¹ Ø¸ÙĬÙħØ©
ÙĪÙĤ ÙģØª
ĠÙģ Ø¤Ø§Ø¯
ĠØ¬ Ø§Ø±
ĠØ§ÙĦØ§Ø¨ ÙĬØ¶
ĠØ§ÙĦÙħØª ÙĪÙģØ±Ø©
Ø§Ùģ Ùī
ĠØ§ÙĦØ§Ø³ Ø¹Ø§Ø±
Ø±ÙĤ Ø§Ø¡
ĠÙĦØª Ø·Ø¨ÙĬÙĤ
ĠÙħØ· ØŃÙĨØ©
ĠØ¨Ø¬ Ø¯Ø©
ĠØ§ÙĦÙģ Ø§Ø³
ĠØ§ÙĦÙħÙĬØ² Ø§ÙĨÙĬØ©
ĠÙĦÙĦ Ø´ÙĬØ®
ĠØ§Ùģ Øª
ĠØ§ÙĦÙĩ ÙĨØ¯ÙĬ
ĠÙĪØª Ø²
ĠÙĦÙĦ Ø³ÙĦØ§Ùħ
ĠØ¨Ø¹Ø¶ Ø§
ĠØŃ ÙĪØ§ÙĦÙī
ĠØ§ÙĦØª ÙģØ³ÙĬØ±
ĠØºØ§ÙĦØ¨ ÙĬØ©
ĠØªØ¹ÙĦÙĬÙħ ÙĬØ©
ĠÙĩ Ø¬
ĠØ§ÙĦØ®Ùħ Ø³Ø©
ĠØ¹ Ø²Ùħ
ĠØ§ÙĦØŃ Ø¬Ø©
ÙĤÙĦ ÙĬØ©
ĠÙĪÙĨ Ø¸Ø§Ùħ
ĠØ£ÙĤ ÙĪØ§ÙĦ
ĠØ¹Ø· ÙĦØ©
ĠØ¥ ÙĦÙĤØ§Ø¡
ĠØ¶ Ø¨Ø§Ø·
e ar
Øª Ø¹Ø¯
ÙĪÙĦ ÙĩØ§
Ø¥ Ø±Ø³Ø§ÙĦ
Ø§Ø¶ Ø¹
ĠÙģ Ø¯
Ø· ÙĪØ¨Ø©
ĠÙĦ Ø§Ø²Ùħ
ĠØ§ÙĦØ¹ Ø§ÙĦ
Ġ4 2
ĠØ³ ÙĪÙĬØ³Ø±Ø§
Øº Ùī
ĠÙĨÙĤÙĦ Øª
ĠÙĬÙģ ÙĤØ¯
ÙħÙĨ Ø¹
ĠØ§ÙĦÙħØ¨ Ø§Ø¯Ø¦
ĠÙħØ± Ø´
ĠØ£Ø¨Ø±Ø² ÙĩØ§
ÙĬÙĦ Ø³ÙĬ
ĠØ§Ø¹ ØªØ±Ø§Ùģ
Ùħ ÙħØ©
ĠØ¥ ÙĤØ±Ø§Ø±
ĠÙħØª ØµÙģØŃ
ÙĦÙħÙĬ Ø°
ĠØ§ÙĦØ§Ø® ØªØµØ§Øµ
Ġ \\
ĠØ£ÙħÙĨ ÙĬ
ĠØ§ÙĦÙħ ÙģØ¶ÙĦ
ĠÙħØŃ Ùģ
ĠØ¶Ø± ÙĪØ±ÙĬ
ar k
Ø³Ø§Ø¡ Ø©
ĠØªØ¹ ÙĥØ³
200 9
ĠÙĪØ¶ ÙĪØŃ
ĠÙĨÙĬ Ø§Ø¨Ø©
ĠØ§ÙĨ Ø·ÙĦÙĤØª
ĠØ¹Ùħ ÙĬØ¯
ĠØ´Ø¹Ø± Øª
Ø§Ùĩ ÙĨØ©
ÙħÙĦ Ø§ØŃØ¸Ø©
ĠØ¨Ø§ÙĦ Ø¶ØºØ·
Ø§ÙĦ Ø´ÙĬØ®
ĠØ§ÙĦØ¥Ø³ ÙĥØ§ÙĨ
ĠÙĪØ§ÙĦØª Ø§Ø±ÙĬØ®
Ø§Ø¦Ø¹ Ø§Øª
-- --
ĠØ§ÙĦØ£Øº Ø°ÙĬØ©
ĠØ£ Ø¨ÙĦØº
ĠÙĨ Ø§Ùĩ
ĠÙĪØŃ Ø§ÙĪÙĦ
ĠØ§ÙĦØ´Ø± Ø¹
ĠØ±Ùħ ÙĪØ²
ĠÙĪØ§ÙĦÙħØ³ ÙĦÙħÙĬÙĨ
Ġ20 20
ĠÙĪÙħ Ø¬
ĠØ§ÙĦØŃØ± ÙĪÙģ
ĠÙĬØ³Øª ÙĤØ¨ÙĦ
Ø± ÙĪØ§Ùĩ
ĠØ§ÙĦÙĨØ¸ Ø§ÙģØ©
ĠÙĪØ§ÙĦØ´ Ø±ÙĥØ§Øª
Ø§ÙĩØ¯ ÙĬÙĨ
ĠØ£ Ø´Ø±Ø·Ø©
ĠØ¨ØªÙĨ Ø¸ÙĬÙħ
ĠØ§ÙĦØ³ÙĬ Ø¦Ø©
ĠØ§ÙĦØ¯ Ø±Ø¬
ÙĦØª ÙĤÙĬ
ĠØªØ± Ø¬Ùħ
ĠÙĬØ¹ ÙĥØ³
ĠØ¨ Ø§ÙĨÙĩ
ĠØ§ÙĦØ¨ÙĦ Ø¯Ø©
ĠØ§ÙĦÙģØ±ÙĬÙĤ ÙĬÙĨ
ÙĢÙĢ Ø±
ĠØ§ÙĦØ³Ø¹ÙĪØ¯ ÙĬÙĬÙĨ
ĠØ¢ Ø¨ÙĦ
Øª ÙĤØ±ÙĬØ±
ĠÙģ ÛĮ
ï» £
ĠÙħØ§Ø² Ø§ÙĦ
Ø´Ø§Ø± Ø¹
ĠØ¨Ø§ÙĦØª ÙĤ
ÙĬØ³ ÙĬØ©
ĠØ§ÙĦØª ÙĥÙĦÙģØ©
ĠØ¨ÙĬ Ø¶Ø§Ø¡
Ø¤ Ø«Ø±
ĠÙĪ ÙĪØ¬Ø¯
ĠÙħØ±Ø¶ Ùī
ĠÙĬÙĨ Ø§Ø³Ø¨
ĠÙħÙĥØ§ÙĨ Ùĩ
ĠÙħ Ø°
ĠÙĪ Ø¯ÙĬ
ĠÙĦ Ø¯Ø±Ø§Ø³Ø©
ĠØ§ÙĦÙģ ÙĤØ±Ø©
ĠØ§ÙĦÙħ Ø¨ÙĬØ¹Ø§Øª
ĠØ¬Ø§Ùĩ Ø²Ø©
ÙĪ ØºÙĦ
ĠØ§ÙĦØ¨ÙĪØ± ØµØ©
ĠØ§ÙĦØµ ÙħØª
ĠÙģØ± ØŃ
ĠÙĪ ÙĨØ¯
ĠØ§ÙĦÙĦ Ø°ÙĬÙĨ
ĠØ¶Ø¹ ÙĬÙģ
ĠØ§ÙĦØ¯ Ø§Ø¦ÙħØ©
ĠØ§ÙĦØŃ Ø§ØµÙĦ
ĠÙĩ ÙĨØ¯
ĠâĢ ĺ
ĠÙħÙĬØ² Ø§ÙĨÙĬØ©
ĠÙĪØ£ Ùģ
ĠØ§ÙĦØŃ Ø´Ø¯
ĠØº Ø±Ø¨ÙĬ
ĠØ§ÙĦÙħ Ø®ØµØµ
ĠØ§ÙĦØ§Ø³ Ø±Ø§Ø¦ÙĬÙĦÙĬØ©
ĠÙħØ¤ ÙħÙĨ
Ùħ ØªÙĩ
ÙĬØ§ÙĨ ÙĪ
ĠØ§ÙĦÙħØªÙħ ÙĬØ²Ø©
ĠØ§ÙĦØ· ÙĦÙĤ
] )
ĠU S
Ø¢ Ø¨
âĢľ .
ĠØ§ÙĦÙĨØ§Ø´ Ø¦Ø©
ĠØ§ÙĦØ® ÙĦÙĬÙĦ
ĠØ§ÙĦØ® ÙĬØ§ÙĦ
Ø®Øµ ÙĬØ©
ĠÙĦ Ø¨ÙĬØ¹
ĠÙĦ Ø³ÙĦ
Ø§ÙĦ Ø§ÙĦ
ĠØ¨Ùħ Ø«ÙĦ
ĠÙĬÙģ Ø±Ø¶
ĠØº Ø§Ùħ
ĠØ§ÙĤØªØ± Ø§ØŃ
ĠØ§ÙĦØ¨Ø· Ø§ÙĤØ©
ĠÙģ Ùĩ
Ø§Ø° Ø¨ÙĬØ©
ĠØ§ÙĦÙģ Ø¬
ĠØ¬ ÙĪØ§Ø¨
ĠÙħØªÙĥ Ø§ÙħÙĦØ©
ĠØª ÙĪØŃÙĬØ¯
ÙģØ§Ø¡ Ø§Øª
ĠØªÙħÙĨ ØŃ
ĠØ± Ø§ØŃØ©
ĠÙħÙĨØµ Ø¨Ùĩ
ĠØ§ÙĦÙĨ ÙħØ³
Ùģ ÙĩØ§
ÙĪØ§Ø¹ ØªØ¨Ø±
ĠÙĬ ÙģØ±
ĠØ§Ø¹ ÙĦÙī
ĠØ³ Ø§ØŃ
Ø±ÙĤ Ùī
ÙĬ ÙĤÙĬ
Ø¨ ÙĨÙĬ
ĠÙĥ ÙĦÙĬØ§
ØŃ Ø§Ùħ
ĠÙĪØ§ÙĦØª Ø¬Ø§Ø±Ø©
Ø¨Ø¯ ÙĬÙĦ
ĠØ¨Ø§ÙĦØª ÙĨØ³ÙĬÙĤ
ĠÙĦÙĦØªØ¹ Ø§ÙħÙĦ
ĠØŃ Ø±Ùĥ
ĠÙĤØµ ÙĬØ¯Ø©
ĠØ¨ Ø°ÙĥØ±
ĠØ§ÙĦØŃØ± Ùħ
ĠØ¨ØŃ Ø¬Ø©
ÙĬØ¹ ÙĨÙĬ
Ø¹ Ø§Ø´
Øº Ø±Ø©
ĠØ£ Ø¨ÙĦ
Ùģ ÙĬØ³
ĠØ§ÙĦØª ÙĪØ±
ĠØ¨Ø£ ØŃØ¯
ĠÙĪØ§ÙĦØ¯ ÙĥØªÙĪØ±
ĠØ§ØŃ ØªÙĦØ§ÙĦ
ĠÙĦÙħÙĨ Ø¸ÙħØ©
ĠØ§ÙĦÙħØŃ Ø¨Ø©
ĠÙħØŃØ¯ ÙĪØ¯
Øµ ÙĬÙĨ
ĠØ± Ø§Ø¨Ø·Ø©
ĠÙħØ³ØªÙĤØ¨ ÙĦØ§
ĠØ² Ø§Ø±
ĠØ§ÙĦØ¬ Ø§Ø±ÙĬØ©
Ø§Ø³Øª Ø±
ĠØ§ÙĦØ¹ Ø¬Ø²
Ø® ÙĦÙģ
ĠØ£Ø¨ÙĬ Ø¨
ĠØ§ÙĦÙĤÙĬ Ø§Ø¯Ø§Øª
ĠØ§ÙĦØ¶Ø¹ Ùģ
ĠØ¯ÙĪÙĦØ§Ø± Ø§
ĠS h
ĠÙĬØª Ø®Ø°
ĠØ¨Ø¶ Ø¹Ø©
ĠÙħÙħ ÙĬØ²Ø§Øª
ĠØ² Ø¨
ĠÛ ļ
ĠÙĦ ÙĪØŃ
Ø¨ØŃ Ø±
ÙĨ ÙĪ
ĠØªÙģ ÙĥÙĬØ±
Ø§Ø¹ ØªÙĩ
ĠÙħÙĪÙĤØ¹ ÙĩØ§
ĠØªØŃ Ø³ÙĨ
ÙģÙĦÙĪÙĨ Ø²Ø§
ĠÙĨØª ØŃØ¯Ø«
ĠØ§ÙĦÙĤØ¯ ÙĬØ³
ĠØ· Ø§ÙĤÙħ
ĠØ§ÙĦØªØ¹ Ø°ÙĬØ¨
ĠØ¹ Ø§Ø¦Ø¯
ĠØ§ÙĦØ¥ Ø¨
ĠÙĬØªØ¹ Ø§ÙħÙĦ
ĠØ§ÙĦÙħÙĨ Ø¸
ÙĦ Ø²ÙħØ§Øª
ĠØ§ÙĦØ§Ø®ØªØ¨Ø§Ø± Ø§Øª
ĠÙĥØª ÙĬØ±
ĠØ¬Ùħ Ø¹Øª
ĠÙĪ ÙĪØ±
ĠØ§ÙĦØ¬Ø¯ ÙĦ
ĠÙĤØ·Ø§Ø¹ Ø§Øª
ĠØªÙĥ ÙħÙĨ
ĠØ¬ Ø¨Ø±
ĠÙĦ ÙģØ±
ĠÙĪÙĥ Ø£ÙĨÙĩ
ĠÙĤ Ø§Ø¦ÙĦ
ĠÙĪØª Ø¹ÙħÙĦ
Ùĥ Ø°ÙĦÙĥ
ĠØ§ÙĦÙħÙĤ Ø§Ø¨ÙĦØ©
ĠÙĦØ¯ ÙĪÙĦØ©
ĠÙĥÙĦ ÙĬÙĨ
ĠÙĪØ§ÙĦÙĥ Ø«ÙĬØ±
ĠÙĥ ÙĬÙħÙĬ
ĠØ§ÙĦÙħØ¹ ØªÙħØ¯Ø©
ĠÙĪØ§Ø± ØªÙģØ§Ø¹
ĠÙħØ± Ø¬
ĠÙĪÙĤØª Ø§
ÙĤØ¨ Ø¶
ĠØ§ÙĦØ® Ø´
ĠØ§ÙĦØ³Ùģ ÙĬÙĨØ©
ĠØªÙĨ Ø´Ø±
ĠÙĪØŃ ÙģØ¸
ÙĪØª Ø©
ĠØ§ÙĦØ¢ Ø¯Ø§Ø¨
ĠØ§ÙĦØªØ¶ Ø§ÙħÙĨ
ØªÙģØ§Ø¹ ÙĦ
Ø§ÙĤ Ø±Ø£
ÙĪØ§Ùģ Ø°
ĠØ§ÙĦÙħØ± Ø´ØŃ
ĠØ§ÙĦÙĩÙĨØ¯ ÙĬØ©
Ùģ Øµ
ĠØ§ÙĦØªÙĪ Ø¸ÙĬÙģ
ĠØ§ÙĦØ¯ÙĪ Ø§Ø¦Ø±
ĠØªØªØŃ ÙĪÙĦ
Ø§Ø² ÙĬØ©
ĠØ¨Ø§Ùĥ Ø³ØªØ§ÙĨ
ĠÙħØª ÙĪÙĤØ¹
Ø¬ÙĦÙĬ Ø²
ĠØ¹Ø¨Ø¯ Ùĩ
ĠØ£ÙĤ Ø§Ùħ
) ..
ĠØ§ÙĦØ² ÙĬØ§Ø±Ø§Øª
ÙĪÙĦÙĨ Ø¯ÙĬ
ĠØ³ÙĬ Ø§ØŃÙĬØ©
ĠØ¥Ø± Ø§Ø¯Ø©
ĠÙĦØº Ø§Øª
ĠØ¥ Ø´Ø±Ø§Ùģ
ĠØ§ÙĦØ¹ ÙĦÙĬ
ĠÙĪØ£ ÙĪØ¶ØŃ
Ø¹Ø± Ø§Ùģ
ĠØ§ÙĦØ£Ø¯ ÙĦØ©
ĠØ¹ÙĦÙĬ Ø§
ĠØªØµ ÙĪØ±
ĠÙĪØ¥ ÙĬØ±Ø§ÙĨ
ÙĦÙĬ ØŃ
ï» ŀ
ĠØ¨Ùħ Ø¨ÙĦØº
ØªÙĬ Øª
ĠØ§ÙĦØŃ Ø²
ĠØ§ÙĦÙħ ÙĪÙĦ
ĠÙĩ ÙĬØ±
ÙĪØµ Ø§Øª
ĠØ§ÙĦÙħØ³ Ø§ÙģØ©
ĠØ§ÙĦÙĨ Ø³Ø¨
ĠØ¢ ÙĨØ¯
Ø°ÙĥØ± Ø§Øª
ĠÙĬ Ø¨Øª
ĠØ§ÙĦÙĤ ØµÙģ
ĠØ§ÙĦØ§Ø³Øª Ø±Ø§ØªÙĬØ¬ÙĬ
ÙĦÙĬ ÙĦØ§
ĠØ§ÙĦØ«Ø§ÙĨ ÙĪÙĬ
ĠØ§Ø· ÙģØ§ÙĦ
ĠØª ÙĨØ³Ùī
ÙĤ ØµØ©
Ø¨ÙĬ Ø¨Ø©
ĠÙĦØ¯ ÙĪÙĦ
ĠØ¯Ø¹ Ø§Ø¡
ĠØ§ÙĤ ØªØµØ§Ø¯ÙĬ
ĠØ§ÙĦØ® Ø¨ÙĬØ±
ĠÙĬØ³Øª ÙģÙĬØ¯
ĠØ§Ø¹ ÙĦÙħ
Ùĥ Ø«
Ùħ Ø§Ø±Ø³
ĠÙĦÙĦ Ø¥ÙĨ
ĠÙ ¤
ĠØ¨Ø· Ø±ÙĤ
ĠØªØ¨ ÙĨÙĬ
ĠØ§ÙĦØ´ Ø±Ø¨
ĠØ¹ÙĨ ÙĬ
ĠØ¹Ø±Ø¶ Ùĩ
Øµ Ø§Ø¯
ĠØ® ÙĪÙģØ§
ĠØ§Ø³Ùħ Ø§Ø¡
ÙĪØª ÙĨ
ĠØ¨Ø¹ Ø«Ø©
ĠØ§ÙĦØªÙħ Ø§Ø±ÙĬÙĨ
ĠØ£ØŃ ÙĪØ§ÙĦ
ĠÙĪØ§ÙĦØ³ Ø¹ÙĪØ¯ÙĬØ©
ĠØ§ÙĦÙĥ Ø§ÙģÙĬ
ĠÙħØ§ÙĦ ÙĬØ²ÙĬØ§
ĠØ¨ÙĨ ÙĬØ©
ĠØ§ÙĦÙħØ³ ÙĦÙħØ©
ÙģÙĦ Ø§Øª
ĠØ¹ ÙħØ¯
ÙĬØ§Øª ÙĩÙħ
ĠÙģÙĬ ÙĥÙħ
ĠÙģ Ø³Øª
ĠÙĦÙĦØª Ø£ÙĥØ¯
6 4
ĠØªØ® Ø¶Ø¹
Ø³Ø· ÙĨØ¨ÙĪÙĦ
ĠØ§ÙĦØ§ØŃØªØ¬ Ø§Ø¬Ø§Øª
ĠØ§ÙĦØ¬Ø¯ ÙĪÙĦ
ĠØ§ÙĦØ£Ø± Ø²
ĠØ§ÙĦØ¹ Ø°
ĠØª Ø²Ø§ÙĬØ¯
ĠØ´ ÙĤ
ĠØ¨Ø§Ø³Øª Ø«ÙĨØ§Ø¡
ØªØ¯ Ø§Ø¯
ĠØ¨ ÙĬØ¯Ùĩ
ĠØ§ÙĦØ² ÙĪØ±
ĠÙĦ ÙĪÙĦØ§
ĠØ§ÙĦØ§ ÙĪØ³Ø·
ĠØ§ÙĦØ±Ø¨ Ø§Ø·
ĠÙĬØªØŃ ÙĪÙĦ
ĠØ§ÙĦØ£Ø±Ø¨ Ø§ØŃ
ĠØ§ÙĦØ¬ ÙĪØ§Ø¨
ĠØ® Ø§Ø±
ØŁ .
ĠÙĬÙĤÙĦ ÙĦ
ĠØ§ÙĦÙĩÙĨØ¯ Ø³ÙĬØ©
ĠØ§ÙĦÙĥ ÙģØ§Ø¡Ø©
i o
Ø§ÙĦ Ø¢ÙĨ
ĠÙĪØ§ÙĦØ¹ ÙĤ
ĠÙĦÙħØ¹ Ø§ÙĦØ¬Ø©
ï» Ń
ĠØŃ ÙĬØ¯Ø±
ĠØ§ÙĦÙģ ÙĩÙħ
ÙĤØ· Ø±
iv e
ĠØªÙħ Ø«ÙĬÙĦ
Øº Ø¯
ĠÙĪ ÙĪØ²ÙĬØ±
ĠØ§ÙĦÙĤØ± Øµ
ĠØ¹Ø¯Ø¯ ÙĩÙħ
ÙĬØ³ ÙĬØ±
ĠØ§ÙĦØ¯ ÙĬ
ĠØ§ÙĦØŃØ± Øµ
ĠØ£ÙĨ ØªÙħ
id e
ĠÙĪØ± Ø¤
ØªØ¨ Ø§Ø³
ÙĪØ± ØºÙħ
Ú ¾
Ø°Ø§ ÙĩØ¨
ØµØ¯ Ø§Ø±Ø§Øª
ÙĬØ¯ Ø²
ÙĤ Ø¶
ĠØ¨Ø§ÙĦØ® Ø§Ø±Ø¬
ĠÙħØ³ Ø¦ÙĪÙĦÙĬØ©
ĠØ¹ÙħÙĦ Ø§Ø¡
ĠÙħØ¤ Ø³
ĠØµØ§ØŃ Ø¨Ø©
ĠÙĪØ§ÙĦ Ø¢ÙĨ
ĠØ§ÙĦÙħØ¹ Ø§ØµØ±Ø©
ĠØ² ÙģØ§Ùģ
ĠØ§ÙĦØ¨ Ùĩ
Ø´ ÙĬØ±Ø©
ĠØªÙĪ Ø§ÙģØ±
it e
ÙĪØ¨ Ø§ÙĦ
ĠØ¨Ùħ Ø´
Ø§Ø· Ø§Øª
ĠØ§ÙĦØ´ Ø±ØŃ
ØŃÙħ Ø§Ø³
ĠØª ÙĬØ§Ø±
ĠÙħØŃ Ø§ÙĪÙĦ
ĠÙħØ± Ø´ØŃ
8 9
ĠØ§ÙĦØ± Ø§Ø¨Ø·Ø©
ĠÙĬØ¬Ø¹ÙĦ ÙĩØ§
ĠØ¨Ùģ ÙĪØ²
ĠØ§ÙĦÙĪÙĦ ÙĬØ¯
ĠØ§ÙĦÙĨ Ùĥ
Ùı .
Ø§Ùģ Ø¹ÙĬ
ĠØ£Ùĥ Ø§Ø¯ÙĬÙħÙĬØ©
ĠØ§ÙĦÙħÙĨ Ø§Ø³Ø¨Ø§Øª
ĠÙĪØ±Ø¯ Øª
Ø§ÙĤ Øª
of t
ĠØ§ÙĦÙĩÙĬ Ø¦Ø§Øª
ĠØ§ÙĦØªØŃ ÙĪÙĬÙĦ
Ø· ÙĪÙĬ
ĠØ§ÙĦØ·ÙĦØ¨ Ø§Øª
ĠÙħØ« Ø§ÙĦÙĬØ©
ĠØ³Ø¨ ÙĪØ±Øª
ÙĪØ§Ø· Ø¦
ÙĦÙħ Ø§ÙĨÙĬ
ĠØ§ÙĦØ³Ùģ ÙĨ
ĠØ¨Ø¥ Ø¬Ø±Ø§Ø¡
ĠØ§ÙĦØ§Ø³Øª ÙĤØ¨Ø§ÙĦ
ĠÙħØ® Ø§ÙĪÙģ
Ø§Ùģ Ø³ÙĬØ©
ĠØ§ÙĦØªØ¹Ø¯ ÙĬÙĦØ§Øª
ĠØ§ÙĦØªÙĤ Ø§Ø·
ÙĢÙĢ ÙĨ
ĠÙĪØ£ ÙĩÙĦ
Ø§Ø¦ ÙĬÙĩ
ĠÙĬØ® Ø¶Ø¹
ĠÙĬØ¬Ø¹ÙĦ Ùĩ
ĠØ§ÙĦÙĬÙĩÙĪØ¯ ÙĬ
Ø« Ø«
ĠØ¬ÙĨ Ø¯ÙĬ
ĠØª Ø¨Ø§Ø±Ùĥ
ĠØ§ÙĦØ¥ÙħØ§Ø±Ø§Øª ÙĬØ©
ĠÙĦ Ø¨ØŃØ«
ĠØ§ÙĦÙħÙĤØ± Ø±Ø©
ĠØ§ÙĦØ´ÙĬ ÙĪØ¹ÙĬ
ÙĪØ¸ ÙģÙĬÙĨ
ØŃØ¶ Ø±Ø§Øª
ĠØ§ÙĦØ®ÙĦ Ø§ÙģØ©
ĠØ´ÙĩØ± Ø§
ĠÙĪ Ø±Ø¬Ø§ÙĦ
ĠØ§ÙĦØªØ´ ÙĥÙĬÙĦ
ĠØ¥ Ø¯Ø±Ø§Ùĥ
ĠØ§ÙĦØ¹ Ø·Ø§Ø¡
ĠØ§ÙĦØ£ ÙĪÙĤØ§Ùģ
ĠØ£ Ø¨ØŃØ§Ø«
Ø·Ø§ÙĦ ÙħØ§
ĠØ§ÙĦÙħÙĪØ¸ Ùģ
Ø¨ Ø§Ø¯Ø±Ø©
ĠØŃØ³Ø¨ ÙħØ§
ĠÙĪØª Ø¹Ø¯
ĠØ§ÙĦØ¨ ÙĨØª
ĠÙĬØª ÙĪÙģØ±
Ø±Ø¨ Ø§Ø·
ĠÙĪØ§ÙĦ Ø§Ø±
ĠÙĦØªØ¹ ÙĦÙĬÙħ
ÙħÙĦ Ø§Øª
ĠÙĦÙĦØ´ Ø¤ÙĪÙĨ
ĠØ§ÙĦØ£Ùħ Ø§Ùħ
ĠØ§ÙĦØ¨ Ø·ÙĦ
ĠØ§ÙĦØ¨ Ø§Ùĥ
ĠØ¯ÙĪØ± Ùĩ
ĠØ§ÙĦÙħØŃØ¯ ÙĪØ¯Ø©
Øµ ÙĨØ¹
ĠÙĪ Ø§Ø²
ĠØ¬ ÙĪØ§ÙĦ
ĠÙĪØ§ÙĦØŃ ØµÙĪÙĦ
ĠØ§ÙĦØ± Ø£Ø³Ùħ
ĠØ§ÙĦÙĤÙĬ Ø§Ø¯ÙĬ
ĠØ§ÙĦØ· Ø§Ø¨ÙĤ
ĠØ§ÙĦÙħØ¹ ÙĨ
ÙħØ§ ÙĤ
ĠØ¬Ø² Ø§Ø¡
ÙĨ ÙĪØ§Øª
ĠØ§ÙĦØª ØŃØ¯Ø«
ĠØ§ÙĦØ£ Ø¨Ø¯
ĠÙĦØ¥ ÙĨØªØ§Ø¬
ĠØ§ÙĦÙħ ÙĪØ±ÙĬØª
ĠØ§ÙĦÙĨØ³ Ø§Ø¦ÙĬØ©
ĠØ§ÙĦØ¹Øµ Ø¨ÙĬ
ĠØªÙģ ÙĩÙħ
ĠØª ÙĩØ¯Ø¯
ĠÙħØ°Ùĩ ÙĦØ©
ĠÙĩ ÙĪØ§
ĠÙĦ ÙĬØ±Ø©
Ø£Ø³ Ùģ
ĠØ§ÙĦÙģÙĬØª Ø§ÙħÙĬÙĨ
ĠØ§ÙĦØŃ Ø±ÙĬØ§Øª
Ø®ÙĬ ØµØ©
ĠA r
ĠÙĪØ¨Ø± Ø§ÙħØ¬
ĠØ· Ø§Ø¨Ø¹
ĠØ§ÙĦØ³ Ø§Ø¯Ø§Øª
Ø¨Øª ÙĩÙħ
ĠØ³ Ø·
Ø¬ ÙĬÙĥØ§
Ø§Øª Ø§
ĠØ§ÙĦØ´ÙĩØ± ÙĬØ©
Ø§Ø® Ø°
Ø´ Ø¹Ø©
ĠØ§ÙĦØ£Ø¬ ÙĪØ§Ø¡
ĠØ£Ø³ Ø§ÙħØ©
ĠØ£ÙĨ Ø´
ĠØªÙĤ ÙĬÙħ
ÙĦÙĬ Ø¬
ĠØ§ÙĦØ¹Ø¨ Ø§Ø¯Ø©
ĠØ·Ø±ÙĬÙĤ ÙĩØ§
ĠÙĪØ§ÙĦØ¥ Ø¯
Ġ Ø§Ø¦
ĠÙĪ ØµÙĪØ±
ĠØŃ Ø§Ø³
ĠÙħØª ÙĪÙģØ±
ĠØ§Ø³ Ø¨Ø§Ø¨
ĠÙĪÙħ ØŃØ§ÙĪÙĦØ©
ĠÙĦØ§Ø¹ Ø¨ÙĬÙĨ
ĠÙĬØ£ ÙĥÙĦ
ĠÙĪØ§ÙĦ ØŃÙĬØ§Ø©
Ø³ Ø¤Ø§ÙĦ
ĠØ¨Ø§ÙĦ ØºØ©
ĠØ¢ Ø±Ø§Ø¡
ĠØ£ Ø³ØªØ±Ø§ÙĦÙĬØ§
ĠØ§ÙĦØ¥ÙĬØ¬ Ø§Ø¨ÙĬØ©
ĠÙĬØ³ Ø¬ÙĦ
ØªÙĩ Øª
ĠØª Ø±ÙĥØ²
ĠÙģ Ø§ÙĨÙĩ
ĠØ«ÙĤ Ø§ÙģÙĬØ©
ĠØ£ Ø®ÙĦØ§ÙĤ
ĠØ§ÙĦØŃØ¯ÙĬØ¯ ÙĬØ©
ĠÙĪØ§Ø¹ ØªØ¨Ø±
ĠØ§ÙĦÙħØ³Øª ÙģÙĬØ¯
Ø§ÙĦ ÙħÙĦ
ØªÙĤ Ø§ÙĨ
ĠØ§ÙĦØ³ Ø¹
ĠØ§ÙĦØº ÙĨÙĬØ©
ĠØªØ³Ø§Ø¹Ø¯ Ùĥ
ĠÙĥ Ø§ÙĦÙħ
ĠØ§ÙĦØªØ³ ÙĪÙĤ
ĠØ§ÙĦÙĨ Ø§Ø±ÙĬØ©
ĠÙĪØ· Ø±ÙĬÙĤØ©
Ø®Ø± Ø§Ø·
ĠØ¹Ø¨ Ø§Ø¯Ø©
ĠØ¥Ø« Ø§Ø±Ø©
ĠØ§ÙĦØ¨ Ø«
ĠÙĦÙĦ ØŃØ±
ĠÙĥØ§ÙĦ ÙĬÙģÙĪØ±
ĠØª ÙĤÙĬ
ĠØ§ÙĦØ£ ÙĦÙģ
ĠÙĪØ¬ Ø¨Ø§Øª
ĠÙĬØª ØºÙĬØ±
ĠØ§ÙĦØŃØ§Ø¯Ø« Ø©
ĠØ¯ Ø§Ø¦ÙħØ©
ĠÙħØªØ± Ø§
Ø«Ø§ÙĦØ« Ø§
ĠØ§ÙĦÙħØ±Ø§Ùĩ ÙĤØ©
ĠØªØµ ÙĬØ¨
ĠÙĬÙħÙĨ ØŃ
Ø³Ùħ ÙĬØ©
ĠÙģØ³ ÙĪÙģ
ĠØ§ØµØ¨ØŃ Øª
ĠØ¨Ùħ ÙĤØ¯Ø§Ø±
ĠØ¨ Ø±Ùĥ
ĠØ§ÙĦØ« Ø±ÙĪØ©
ÙĨ Ø´Ø±Øª
ĠÙħØ± Ø§Ø³ÙĦ
ĠØªØ¹ ÙĤØ¯
ÙĤ Ø§Øµ
ĠØªØ´ Ø®ÙĬØµ
ĠØŃ Ø±ÙĥØ§Øª
ĠØ£ÙĤÙĬÙħ Øª
ĠØ¨ Ø¶Ø¹
ÙĪØµ ÙĬ
Ø°Ùĥ ÙĬØ±
ĠØ§ÙĦÙħÙģ ÙĪØ¶ÙĬØ©
ĠÙĨÙĪØ¹ Ùĩ
ĠÙĪØ§ÙĦ Ø§Ø¯
ĠÙĬØªØŃ ÙĤÙĤ
ÙĥØ§ ÙĪÙī
ØµØ± Ø§Ø¹
Ø¶Ø¨ Ø§Ø·
ĠÙĪØ§ÙĨ Ùĩ
ĠØ§ÙĦÙħØª Ø¹ÙĦÙĤ
ĠØ§ÙĦÙĥ Ø§Øª
ĠÙģ ÙĤÙĦØª
ĠØ£ÙĪ Øª
ĠØ§ÙĦÙħØ³ÙĬØŃÙĬ ÙĬÙĨ
Ø§Ùĥ Ø¯
ĠÙĤ Ø±ÙĬØ´
ĠØ§ÙĦÙģ ÙĬØ³Ø¨ÙĪÙĥ
ĠØª ÙĥØ³
ĠÙħØ¬ Ø§ÙĦØ³
in t
ĠØ¯ Ø¹Øª
ĠÙĪØµØŃ Ø¨Ùĩ
Ø§Ø± ØªÙĥ
ĠØ´ ÙħÙĦØª
ĠÙĪØªÙĨ ÙħÙĬØ©
ĠØ£Ø±Ø¶ ÙĬØ©
or g
ĠØ§ÙĦÙħÙģ Ø§Ø¬
ĠÙģ Ø±ÙĬ
ĠÙĪØ§ÙĦ Ø°
ĠØ§ÙĦÙĨØ§Øª Ø¬Ø©
ĠÙĬØ¹ ÙĤÙĪØ¨
Ø¸ Ø±Ø©
Ø³ ÙĥÙĬ
Ø³ Ø¹Ø±
ou n
ĠØ§ÙĦÙĦ Ø§Øª
ĠØ§ÙĦØ±Ø¦ Ø§Ø³ÙĬ
Ø³ØªØ± ÙĪÙĦ
ĠÙĬ Ø£Øª
ĠØ¨ ÙĪØ³
r y
ĠÙħ ÙĥØ±
ĠØ§ÙĦØ£ Ø³ÙĦÙĪØ¨
ÙģÙĬ ØªØ§ÙħÙĬÙĨ
ĠØ¨Ø¹Ø¯ Ø©
ÙĨØ³ Ø®
ĠØ¹ Ø¸Ùħ
ĠØ§Ø³Øª ÙĩØ¯ÙģØª
ĠØ§ÙĦØ¬Ø¯ Ø§Ø±
ĠÙĪØ§ÙĦØ´ Ø¹Ø¨
ĠØ¨Øµ Ø¯Ø¯
ĠØ§ÙĦØ£ Ø¯ÙĬØ§ÙĨ
ĠØªØª ÙĨØ§ÙĪÙĦ
ĠØªÙĤ Ø§Ùħ
ĠÙĪ Ø«ÙĦØ§Ø«
Ø§ÙĨ Øº
ÙĦÙĥ ÙĦ
ĠÙħÙĨ Ùī
ĠØ¹Ùħ ÙĪÙħ
ĠØ´ Ø¯Ø©
B C
ĠØ¨ÙĦ ÙĤØ¨
ĠØ¨Ø¥ÙĨ Ø´Ø§Ø¡
ĠÙĪÙĬ Ø¬Ø¹ÙĦ
ĠÙĥØ§ÙĦÙĬÙģÙĪØ± ÙĨÙĬØ§
Ġ Ø§Ø±Ø¬
ĠØ§ÙĦØ£ ÙĥÙĦ
ØºÙĬ Ø§Ø¨
ÙĬØ² Ø§
ÙĪ Ø§Ø¦Ùģ
Ùģ ÙĬÙĦ
ĠØ§ÙĦÙħØ³ ÙĬØ±Ø©
ĠØ§ÙĦ ÙĩØ§
ĠØ³Ø¹ ÙĬØ¯Ø©
ÙĦ ÙĪØ§
ÙĪØ£ ÙħØ§
ĠØ§ÙĦØ¢ Ø³ÙĬÙĪÙĬØ©
Ùĩ ØªÙħØ§Ùħ
ĠÙħØŃ Ø§Ùħ
ĠÙħÙĪ Ø§ØµÙģØ§Øª
Ø¬Ø¨ ÙĬÙĦ
ĠØª ÙĪÙģÙĬÙĤ
ĠØ£ÙĪ Ø§ÙħØ±
ÙĦÙĬØ´ ÙĬØ§
ĠÙĦÙħ Ø²ÙĬØ¯
ĠØ§ÙĦÙĥØ« ÙĬØ±Ø©
Ġ a
ĠØ§ÙĦØµØ§Ø± ÙĪØ®
ĠØ§ÙĦØ¬Ø² Ø§Ø¡
ĠÙĬ Ø¬ÙĦØ³
ĠÙħØ¨Ø± ÙĪÙĥ
ĠØ§ÙĦÙħ Ø§ÙĨ
ĠÙħ Ø¦ÙĪÙĬØ©
Ø¸ Ùĩ
ĠØº Ø³ÙĬÙĦ
ĠÙĦ Ø°ÙĬ
ĠÙĦØª Ø¯
Ø· Øª
ĠØ´Ø¹ Ø±Ùĥ
ĠØ¨Ø¬Ø± ÙĪØŃ
ĠÙĤ Ø¶Ø§Ø¦ÙĬØ©
6 9
ĠØ§ÙĦØ§Ùģ Ø¶ÙĦ
Ø§ÙĦ ÙģØ±
Ø§Ø¬ Ø¹Øª
ĠØ¬ ÙĬØ¨
Ø³ ÙħØ©
ĠØ§Ø³Øª Ø¹Ø±Ø§Ø¶
ĠØ§ÙĦØ¥Ø¹ Ø§ÙĤØ©
ĠÙĦØ´ ÙĩØ±
ĠØ§ÙĦÙĬ ÙĪØ±ÙĪ
ĠØ¨Ø£ ÙħØ±
ĠØ§ÙĦØ¨ ÙĤØ±Ø©
ÙĪÙĤØ¹ Øª
ĠØ¨ÙĪ ØµØ©
ĠÙħØ± ØªÙģØ¹Ø©
ĠÙĪØ§ÙĦØª ÙĤØ¯ÙĬØ±
ØµÙĦ ÙĬÙĨ
ĠÙħØµ Ø§Ø¨
ÙĥØ§ÙĨ ÙĪÙĨ
Ùĥ Ø±Ùĥ
ĠÙĪØª ØŃØª
Ø§Ø¹ ÙĬØ§Øª
ĠØ§ÙĦØ± ØµØ§Øµ
ĠÙĪØ£ Ø¨ÙĪ
ĠØ§ÙĦØ§Ø¹ ÙĦØ§ÙĨ
ĠØ³ÙĬ Ø§Ø¯Ø©
ĠÙĥ ÙĬÙħ
ĠÙĪØ§ÙĦÙħ Ùĥ
ĠØ£ Ø¹ÙħØ§Ø±
Ø§ÙĦ Ø¨ÙĬ
ÙĪØŃ Ø³Ø¨
Ø¹Ø§Ø¯ ÙĨ
ÙĪØª ÙĪØ´
ĠÙĦÙĦ Ø®Ø¯ÙħØ§Øª
ĠÙħÙħØ§Ø« ÙĦØ©
ĠÙħØ¹ Ø§Ø±Ùĥ
ĠÙģ ØªØ±
ĠÙĪØ§ÙĦ Ø³Ùħ
ĠØªØ¯Ø±ÙĬØ¬ ÙĬØ§
ĠØ§ÙĦÙħ Ø§Ø³
ĠÙħÙĥØª ÙĪØ¨
ĠØ§ÙĦØªØŃ ÙĤÙĤ
ĠÙĪØ¹ Ø¨Ø¯
Ø®Ø· ÙĪØ©
ĠØ§ÙĦØŃ Ø¯ÙĬÙĤØ©
ĠÙħÙĦØ§Ùħ ØŃ
ĠØ§ÙĦÙħÙĨ Ø¸ÙĪÙħØ©
Ø¢ ÙĬ
ĠØ§Ø³Øª ÙĩØ¯Ùģ
ĠÙĪÙĦ Ø°Ø§
Ø§Ø® ÙĦØ©
ĠØ±Ø£ ÙĬÙĥ
ĠØ§ÙĦØ¯Ùħ Ø§Ø¡
ĠØªØ³ Ø¹
Ø£ ØµØ¯Ø±
ĠÙĪ Ø§Ø³Ùħ
ÙģÙĬ Ø§ÙĨ
ĠØ§ÙĦÙħØªØŃ Ø±ÙĥØ©
ĠÙģ ÙĪÙĨ
ĠØ¨Øª ØºÙĬÙĬØ±
ĠÙĩØ§Ø¯ Ø¦Ø©
ĠØŃØ± Ø§Ùħ
Ø§Ø³ ÙĬØ³
ÙĨ Ø¸Ø§Ùħ
ĠØ§ÙĦØ¹Øµ Ø¨ÙĬØ©
ĠØ§ÙĦØ§ÙĬØ± Ø§ÙĨÙĬØ©
ĠÙħØ¹ ÙĨØ§Ùĩ
ĠÙĬØ¹ ÙĤØ¯
Ġ and
ĠØ£Ø«Ø¨Øª Øª
ĠÙĬ Ø¸ÙĦ
ĠÙĪØ§ÙĦÙħ ÙĪØ§Ø¯
ĠØ³ Ø§ÙħÙĬ
ĠØ¨Ùĥ Ø«Ø±Ø©
ĠÙĪØ§Ø³ ØªÙħØ±
ĠÙħØª ÙĩÙħ
ĠØ¥ÙĨ Ùĥ
ĠÙĬÙħÙĥÙĨ ÙĥÙħ
ĠÙħØª ÙĪÙģØ±Ø©
ĠØ§ÙĦØ®ÙĦÙĬ Ø·
Øª Ø´Ø±ÙĬÙĨ
ĠØ§ÙĦØµØŃ ÙģÙĬØ©
ĠØ¥ ØŃÙĬØ§Ø¡
ÙĨØ§ ÙĪÙĬÙĨ
ØªÙĬ Ùĩ
ĠØ§ÙĦÙĬÙĪÙĨ Ø§ÙĨ
ĠØ§ÙĦÙħÙĪØ¶ÙĪØ¹ Ø§Øª
ĠÙĩÙĬ ÙĥÙĦ
ĠØ§ï» ·
ĠØªØ¯ ÙĩÙĪØ±
ĠÙĪØªØ±Ùĥ ÙĬØ§
ĠÙĪØª ÙĤÙĪÙĦ
ĠÙĪØª ÙĪØ²ÙĬØ¹
ĠØ§ÙĦØ¹ Ø·
ĠØªØ¹ÙĦÙĬÙħ Ø§Øª
ØŃ ÙĪØ±
ĠÙĪØ§ÙĦØ¥ Ø³Øª
ĠÙĬ Ø³ÙĬØ·Ø±
ĠØ¸ Ø¨ÙĬ
Ø¬ Ø¨Øª
ĠØ§ÙĦÙħÙĨØª Ø®
ĠØ¨Ø§ÙĦÙģ ÙĬØ¯ÙĬÙĪ
ĠØ§ÙĦØ£ Ø·ÙĦ
Ø§Ùĥ ÙĬÙĨ
ĠÙĪØ§ÙĦØº Ø§Ø²
ĠØ¬ Ø°Ø¨
ĠØ¨Ø§ÙĦ Ø¹Ø¯ÙĬØ¯
ĠÙĦÙĦÙħ Ø´Ø±ÙĪØ¹
ĠØ§ÙĦØ£ÙĨ Ùģ
ĠØ´ Ø¯
ÙħØ§Ø· Ùħ
ØªØµ Ø§Ùħ
Ø¯ Ø®Ø§ÙĦ
ĠÙĦÙĦ Ø«ÙĤØ§ÙģØ©
ĠØ§ÙĦÙĥØ«ÙĬØ± ÙĪÙĨ
Ø§Ø¦ ÙĤÙĬ
ĠØ§ÙĦØ® Ø´Ø¨
ĠØ¬ Ø±ØŃ
ĠØ£ ÙĥÙĨ
ĠØ¥ Øª
ĠÙĬØµ ÙĨØ¹
ĠØ§ÙĦÙħØª Ø§Ø¨Ø¹Ø©
ĠØ§ÙĦØ¹Ø±Ø¨ Ùī
Ùİ Ù°
ĠÙĬ ÙĪØ§ÙģÙĤ
ĠÙħØ± Ø§ÙģÙĤ
Ø¨ ÙĬÙĦ
ĠØ®Øµ Ùħ
ĠÙĦØ¥ ÙĤØ§ÙħØ©
ÙĬØ¯ ÙĬÙĨ
ĠÙĦÙģ ØªØŃ
ĠØ§ÙĦÙĤØª ÙĦÙī
ĠØ§ÙĦØ¨ Ø±Ø¯
ÙĬÙĪ Ø´
ĠØªØµ ÙĨØ¹
ĠÙħÙħÙĥÙĨ Ø©
ĠØª Ø«ÙĬØ±
ĠÙĬØª ÙĥÙĦÙħ
ĠÙĪØ§ÙĦØ§Øª ØŃØ§Ø¯
ĠÙħØ³Ø¤ÙĪÙĦ ÙĬÙĨ
ÙĪÙĥ ÙĬÙĦ
ĠâĢ Ļ
ĠØ³Ø± ÙĬØ±
ÙĬÙģ Ø§Ø¡
ĠØ¨Øµ ÙĬ
ĠÙĦÙĦØª Ø¯Ø±ÙĬØ¨
ĠÙħØ´Ø§Ø±Ùĥ ØªÙĩ
ĠØ¥ÙĨ ÙĨØ§
ĠÙĪ ÙĬØ²
ĠØº ÙĨÙĬ
ĠØ§ÙĦØ® Ø¯Ùħ
ĠØ¨ ÙĬØ³
ĠØ§ÙĦØ¥ Ø¨Ø¯
ĠØ§ÙĦØ£Ø´ ÙĥØ§ÙĦ
ĠÙĪ ÙĥØªØ¨
ĠØª ÙĦÙģØ²ÙĬÙĪÙĨ
ĠØŃÙĬ Ø§ÙĦ
ĠÙģ Ø§Ø´
ĠØ§ÙĦØŃ Ø¬Ø§Ø¨
ĠÙĪØ§ÙĦØ« Ø§ÙĨÙĬØ©
Ùħ Ø£ÙĨ
ĠØŃØ± ÙĪÙģ
ĠØ§ÙĦØ¢ ÙĪÙĨØ©
ĠÙħØ¤ ÙĦÙģ
ĠØ§ÙĦÙħ ÙĥÙĦÙģ
ĠØ§ÙĦØ§Ø³Øª Ø¹Ø¯Ø§Ø¯
ĠØ§ÙĦÙĥ ÙĬÙħØ§
ÙĪ ØŃØ¯
ĠØ§ÙĨØ³ ØŃØ§Ø¨
ĠÙĦØ¬ Ø¹ÙĦ
Ùħ Ø³ÙĦØ³ÙĦ
ÙĢÙĢ Ùħ
ĠØ¨ÙĪ Ø§ÙĤØ¹
ĠÙĨ Ø§Ø¯Ø±Ø©
ĠØ£Ø¯ ÙĨØ§Ùĩ
ĠÙĪØªØ´ ÙħÙĦ
ĠÙĨØ¨ ÙĬÙĦ
ĠÙĪ ÙĪÙĦ
ĠØªÙģ Ø¬ÙĬØ±
Ùĳ .
ĠØ¹ Ø§Ø¯Øª
ĠØ² Ø§Ø¦Ø±
ĠØ³ ÙĬÙħ
ĠÙĪÙħ Ø¯Ùī
ĠØ§ÙĨ ØªØ¨Ø§Ùĩ
ĠØ¨Ùĩ ÙħØ§
ĠØª ÙĪØ¬
ĠÙĨØ´Ø± Ùĩ
Ùĩ ÙĪÙĦ
ĠÙĪÙģÙĬ ÙħØ§
ĠØ¥ Ø®ÙĪØ§ÙĨ
ĠØ³Ùģ ÙĬÙĨØ©
ĠÙĪØ§ÙĦØª Ø¯
ĠÙĤØ¯ ÙħØ§
ĠØ¹ ÙĤÙĪÙĦ
ĠØ§ÙĦÙħØ¬ØªÙħ Ø¹ÙĬØ©
ĠØ£ÙĪ ÙĥØ±Ø§ÙĨÙĬØ§
ĠØ§ÙĦØ¯ Ø§Ùģ
ÙĦ Ø°Ø§
ÙĩØ± Ø¬
Ø¬ Ø§Ø¬Ø©
ĠØ¨Ø§ÙĦ Ø°Ø§Øª
ÙħÙĨ Ø§Ø³Ø¨Ø©
ĠÙĪØ§ÙĦÙħØª ÙĪØ³Ø·Ø©
ĠÙĬØ§Ø³ ÙĬÙĨ
Ø§ÙĦÙĬ ÙĬÙĨ
ĠØ£ÙħØ± Ùĩ
ĠÙħØµ Ø·ÙĦØŃ
ĠÙĥØ± Ø³ÙĬ
ĠØ§ÙħØªØ¯ Ø§Ø¯
E D
ĠØ£ Ø±Ø¬ÙĪ
ĠÙĪØ¬ÙĪØ¯ ÙĩØ§
ĠØ³ Ø®
ÙĢ Ùī
ĠÙĪ ÙĪØ³Ø§Ø¦ÙĦ
ĠØ§ÙĦØ§Ø³ ØªÙħØªØ§Ø¹
ĠØ§ÙĦÙħ ÙħÙĨ
Ġ14 39
ĠØ§ÙĦÙħØµ Ø±ÙģÙĬØ©
ÙĬÙĥ ÙĪ
ĠØ¥Ø¬ Ø§Ø¨Ø§Øª
8 5
ĠØ§ÙĦØ¨ Ø¶Ø§Ø¦Ø¹
ĠØ³ ØŃØ±
8 7
Ø§Ùĥ Ø³ÙĬ
ĠÙħ Ø·Ø¨
ĠÙĪØ¨Ø¯Ø£ Øª
ĠØ§ÙĦØ´ Ø§Ø¦Ø¹Ø©
ÙĪØ§Ùĥ Ø¨Ø©
ĠØ§ÙĦØ® Ø§ÙĦÙĤ
ĠØ² Ø§ÙĪÙĬØ©
ĠØ§ÙĦØ³Ø± ÙĬØ±
ĠØ§ÙĦÙħ Ø§Ø¶Ùī
ĠØ· ÙħÙĪØŃ
ĠØ§ÙĦØ¹ Ø²ÙĦ
ĠØ§ÙĦØ§Ùĥ Ø«Ø±
ÙĪÙģ ÙĬÙĨ
ĠØ£Ùħ Ø«Ø§ÙĦ
ĠÙģ Ø§ÙĦØŃ
Ø·Ø¨ÙĬ Ø¨
ĠØ§ÙĦØ§Ø³ ØªÙħØ§Ø¹
ĠÙģ ÙĤÙĩ
ĠØ§ÙĦÙħØª Ø¨
ĠÙħ Ø§Ø±ÙĬ
Ġ196 7
ĠÙĬ ØºÙĬØ±
ĠØ· Ø§ÙĪÙĦØ©
ĠØª Ø³ÙĬØ·Ø±
ĠØª ÙģØ¶
ĠÙĦÙĦ Ø¨ÙĦØ§Ø¯
ĠÙħÙĤØ¯ Ø§Ø±
ĠØ§ÙĨ Ø¬Ø§Ø²
ĠÙħÙĪ Ø§Ø¹ÙĬØ¯
ĠÙĪØŃ Ùħ
Ø¹Ø¯ Øª
ÙĪØªÙĪØ´ ÙĪØ¨
ĠÙĪØªØŃ ÙĪÙĬÙĦ
ĠÙĦÙĦ Ø®Ø±ÙĪØ¬
ÙĦÙĬ Øµ
ÙĬÙĪ Ø¨ÙĬØ§
Ġ4 4
ĠØ§ÙĦØª ÙĦÙĤ
ĠØ§ÙĦØ± Ø¶Ø§
Ø£Ùĥ ÙĪÙĦØ§Øª
ĠØ³ ÙĤÙģ
ĠØ§ÙĦØ³ ÙĦÙģ
ĠØ§ÙĦØ§Ø± ØªØ¨Ø§Ø·
ĠØ§ÙĦØ¯ ÙĬÙħÙĪÙĤØ±
ĠØŃØ³Ø§Ø¨ Ùĥ
ÙĪØª ÙĪÙĥÙĪÙĦ
ĠÙĪ ÙĬÙĪ
ĠÙĪØ§ÙĦ ØµÙĪØ±
ĠØ§ÙĦÙħØŃ Ø§Ø¯Ø«Ø§Øª
ĠÙĦÙĦØª ÙĪØ§ØµÙĦ
ĠØ§ÙĦÙħØ³ Ø¤ÙĪÙĦØ©
o h
Ø¹ÙĬ Ø§Ø¯
ÙĥØª Ø¨Ø©
ĠØ§ÙĦØ¸ ÙĩÙĪØ±
ĠØ§ ï»Łï»
ĠÙĬ Ø¨Ø±
ĠØ¶Ø¹ ÙĬÙģØ©
ĠØ§ÙĦÙħØ¬ Ø§ÙĦØ³
ĠØ§ ÙĥØªØ¨
Ø§Ø° Ø¨Ø©
ĠØ§ÙĦØ¯ ÙĪØ§Ùħ
ĠØªØªØ¹ Ø§ÙħÙĦ
ĠØªØµ Ø¯ÙĬØ±
ĠØ§ÙĦÙĤØ¶ Ø§Ø¦ÙĬ
Ø§ÙĦ Ø§Ø³
ĠØ§ÙĦÙģ ÙĪØ§ÙĥÙĩ
Ø¹ÙĬ ÙĪÙĨ
Ø§Ø¹ Øª
ÙĥØ±ÙĬ Ø§
ĠÙĦ Ø²ÙĪØ¬
ĠØ£ ØŃÙĬØ§Ø¡
ÙħÙĦ Ùĩ
ÙĨ Ø¸Ùħ
ÙĪØ¨ Ø¯
ĠÙħØ± ÙħÙī
ØªÙħ Ø«ÙĦ
ĠØ§ÙĦÙħØ¹ Ø§ÙĦØ¬Ø©
ĠØŃ ÙĦØ§
ĠØªØŃØ¯Ø« Øª
ÙĨØ³ Ø§ÙĨÙĬØ©
Ġ4 9
ĠØªØº Ø±ÙĬØ¯Ø©
ĠÙĪØ§ÙĦØ¨Ø± Ø§ÙħØ¬
ĠÙĩ Ø¨ÙĪØ·
ĠØµ Ø§Ø±Øª
ĠÙĨ Ø¯Ø§Ø¡
ÙĪÙĩ Ø©
Ø¯ÙĪÙĨ ÙĬØ³ÙĬØ§
ĠÙĪØ§ÙĦØª Ø·ÙĪÙĬØ±
ĠØ§ÙĦØ¯ ÙĪÙĦÙī
ĠÙĦ Ø·ÙĦØ§Ø¨
ĠØ§ÙĦÙħ ÙĪØ²
ĠØ§Ø¹ ØªØ¯Ø§Ø¡
ÙĦ Ø²Ùħ
ĠØ§ÙĦØª ØºÙĬØ±Ø§Øª
ĠÙĪ Ø±Ùģ
ĠÙħØŃ Ø§ÙĥÙħ
ĠØ§ÙĦØ¬ ÙĬØ²Ø©
Ø§Ø¦ Ø¶
ĠØ¨ ÙĪØ¬
Ø¬ Ø¯Ø¯
ĠØ§ÙĦÙħØŃ Ø§Ø³Ø¨Ø©
ĠØ³Øª Ø³
** **
Ø¨ÙĬ Ø³
ĠØ£Ø¨ÙĬ Ø¶
N N
ĠØ§ÙĦØº ÙĪØ·Ø©
as h
ĠØ³Øª ÙĤÙĪÙħ
Ġï´ ¾
ĠØ¨ Ø«ÙĦØ§Ø«
ĠÙĪÙħ Ø±ÙĥØ²
ĠØ§ÙĦÙħØŃ Ø·Ø©
ĠØ§ÙĦØ£ ÙĨØ¯
ĠØ§ÙĦØª ÙĥØ§ÙĦÙĬÙģ
Ø§Ø²ÙĬ Øº
ĠØŃ Ø±Ø©
ĠØªØ¹ Ø²
ĠØ§ÙĦÙĦ Ø³Ø§ÙĨ
ĠÙĬÙĤØª ØµØ±
ĠÙĤØ¯Ø± ÙĩØ§
ĠØ§ÙĦØµÙģ ØŃÙĩ
ĠØ¨Ø± ÙĦÙĬÙĨ
ĠØ³ ÙĨØ¯
ĠØ§Ùħ ÙĥØ§ÙĨÙĬØ©
ĠØ§ÙĦÙħÙĨ Ø§Ø¹Ø©
Ø±Ø´ ÙĬÙģ
ĠØ§ÙĦØ§Ø³Øª Ø«ÙħØ§Ø±ÙĬØ©
ĠØ§Øª ÙģÙĤ
ĠØ§ÙĦØ³ÙĬ Ø§ØŃÙĬ
ĠØ§ÙĦØ³ÙĦ Ø¨ÙĬ
ĠØªØ£ ÙĦÙĬÙģ
Ġ8 00
ĠØ§Ø¬ØªÙħØ§Ø¹ ÙĬ
ĠØ§ÙĦØ£Ø¨ ÙĪØ§Ø¨
ĠÙĤØ± ÙĨ
ĠØª ÙĤØ±Ø£
ĠØ± ÙĪØ§ØªØ¨
ĠÙħÙĪ Ø§ÙģÙĤ
ĠØ¹ÙĦ ÛĮ
ĠÙĥ Ø±Ùĥ
ĠÙħÙĤ Ø§Ø¹Ø¯
ĠØ´Ùĩ Ø±ÙĬØ§
ĠØ§ÙĦØ´ ÙģØ§Ø¡
ĠØ£Ø³Ø± Ø§Ø±
ĠØ§ÙĦÙħØ¹ ÙĬØ´Ø©
ĠØ§ÙĨ Ø¶Ùħ
Ø¥ ÙħÙĥØ§ÙĨ
ÙĪÙĤ ÙĬÙĨ
Ø´Ø± ÙĬØ©
ĠØ§ÙĦØªØ¹ Ø§Ø¯ÙĦ
ÙĬÙĨ Ø¯ÙĪØ²
ĠØ¸ ÙĦÙħ
ĠØ§ÙĦÙĪÙģ Ø§Ø¡
ĠâĢ «
ïº Ń
ĠÙ ¥
ĠØ§ÙĦÙĤ ÙħØŃ
ĠØ§ÙĦØŃ Ø¬Ø§Ø¬
Ø§Ø¯ ÙħØ©
ĠÙģÙĬ ÙĦØ§
Ø£ ØŃ
Ġ4 3
ĠØ§ÙĦÙħ ÙĨØ§ÙĩØ¬
ĠØ§ÙĦØŃ Ø±ÙĬÙĤ
ĠÙĦØ§Ø³Øª ÙĤØ¨Ø§ÙĦ
ĠØ§ÙĦØ¥Ø¬ØªÙħØ§Ø¹ ÙĬØ©
ĠÙĪØ¹ Ø§Ø¡
ÙģØª Ø§Ø©
ĠØ§ÙĦØ§ØŃ ÙħØ±
Ø± Ø¹
Ø§ ÙĪØ±Ø§Øª
Ø§ØŃ ÙĬÙĨ
ĠØ´Ø¹Ø¨ Ø§ÙĨ
ĠÙĪØ£ ÙģØ¶ÙĦ
ĠÙħØ¯ ÙĪÙĨ
ĠÙĦÙĦÙħ Øª
ĠØ§ÙĦÙħÙĨ Ø§Ùħ
ĠÙĩ Ø¬Ø±
ĠØ£Ø¬ÙĨ Ø¨ÙĬØ©
ĠØ¹Ø¶ ÙĪÙĬØ©
ĠØŃ ÙģØ±
Ø¯Ùħ Øª
Ø´ Ø§Ø¯
ĠØ§ÙĦØ¹Ø«Ùħ Ø§ÙĨÙĬ
ĠØ£ÙĨ ÙĤØ±Ø©
ÙĬØ¨ Ø§
ĠØªØª ØºÙĬØ±
ÙĪØ± ÙĪØ¨Ø§
Ø¹ Ø±Ø¨
ĠØ£Ø¹ ÙĤØ§Ø¨
Ġ on
ĠÙĪØ¯ Ø¹
ĠÙĪØ³ÙĬ ÙĥÙĪÙĨ
ĠØŃÙĤ Ø§Ø¦ÙĤ
Ø¨ØªØ¯ Ø¦ÙĬÙĨ
ĠØŃ Ø±ÙĬÙĤ
ĠØ§Ø³ ØªÙħØªØ¹
ĠØ§ÙĦÙħ Ø¸
ĠØ³ ÙĬØ±Ø©
ĠØ§ÙĦØ¸ Ø§ÙĩØ±
ĠØ§ÙĦØ¥Ùģ Ø±ÙĬÙĤÙĬ
ĠØ§ÙĦÙĬØ§Ø¨ Ø§ÙĨÙĬ
ĠØ§ÙĦØ£ Ø¶
ĠØ¨ÙĤ ØªÙĦ
ÙħØª ÙĦÙĥ
ĠÙĪØ§ÙĦÙħ Ø¬
ĠÙĬØ³Øª Ø¹ÙħÙĦ
ĠØ§ÙĦØ§Ø® Ø±ÙĬÙĨ
Ø§ ÙĪÙĦØ§
Ø®ÙĦ Ø§Ø¡
ĠÙĪØ§ÙĦØ¯ ÙĪÙĦ
ĠØ¨ Ø¨ÙĦ
ĠØ§ÙĦÙħ Ø·Ø§ÙĦØ¨Ø©
ĠØ§ÙĦØªØµ ÙĨÙĬÙģ
ĠØ§ÙĦØ§Ø³Øª Ø¬Ø§Ø¨Ø©
ĠØµÙĬ ØºØ©
ĠÙħØº Ø§Ø¯Ø±Ø©
ØªÙĬ Ø¨Ø§Øª
ĠÙĨ Ø§Ø¦
ï» ª
ÙĬØª Ø§ÙĨ
ĠÙĦÙħ Ø«ÙĦ
ĠÙĥ Ø±Øª
8 6
ĠØŃ Ø¬Ø©
ĠÙĬØ´ ØºÙĦ
Ġ Ø§Ø¸
ĠØŃØ± Ùħ
ĠØ§ÙĦØ³ Ø§ÙħÙĬØ©
ĠØ§Ø± ØªÙģØ¹Øª
ĠØ§ÙĦØ£ Ø²ÙĬØ§Ø¡
ĠÙģÙĦ Ø§Ø´
ĠØ¨Ø´Ø± Ø·
Ø§Ø¨ Ø±Ø©
ĠØ¥ÙĦ Ø®
ÙĤØ§Ø· Ø¹Ø©
ĠÙĪØ§ÙĦØ£ Ø®
ĠÙħÙĩ ÙĨØ©
ĠØ³ÙĥØ§ÙĨ ÙĩØ§
ĠØ§ÙĦØµØŃØ± Ø§ÙĪÙĬ
ĠØ³Ø¨ØŃ Ø§ÙĨ
$ $
ÙģÙĦ Øª
Ø¹ÙĦØ§Ùħ Ø§Øª
Ø§ÙĦØªØŃ Ø§ÙĤ
Ø¹ ÙĪÙħ
ĠÙĪØ§ÙĦ Ø¹Ø¨
ØŃ ÙĪØ§
Ø§Ø¦ ÙĦØ§
ĠØ§ÙĦØ²ÙĪØ¬ ÙĬÙĨ
ĠÙĤ Ø¶Ùī
ĠØ§ÙĦØªØŃ Ø±Ùĥ
Ġ) ØĮ
ÙĪÙĩ ÙĨØ§
ĠØ§ÙĦØ£Ø¯ Ø¨ÙĬØ©
ĠB l
Ø¤ ÙĦ
ĠÙĪØ§ÙĦØ´ Ø¨Ø§Ø¨
ĠØ£ØµØ¯Ø± Øª
ĠÙĪ Ø¨ÙĦØº
ĠØ¨ØŃØ« Ø§
ÙĪØŃ ÙĬØ©
ĠØ§ÙĦÙĥ Ø°Ø¨
ĠÙĪØ§ÙĦ Ø¨ÙĬ
ĠØ§ÙĦØ¹Ø«Ùħ Ø§ÙĨÙĬØ©
ĠÙĦÙĦØªØ¹ Ø§ÙĪÙĨ
Ø·Ø± Ø§Ø¨
ĠØ§ÙĦÙħÙĨ Ø®ÙģØ¶
ĠØ§ÙĦØ¨ÙĦ Ø¯ÙĬ
ĠØ¥ÙĦÙĥØªØ± ÙĪÙĨÙĬØ©
ÙĪÙģ ÙĬØ³
ĠØ§ÙĦÙģ Ø§Ø¦Ø²
ĠØ§Ø³ Ø§Ø³
ĠØªØ± Ø®ÙĬØµ
ĠÙĪØ§ÙĦØ¹ Ø±Ø¨ÙĬØ©
ĠØ±ÙģØ¹ Øª
ĠØ¨ÙħØ³ Ø§Ø¹Ø¯Ø©
ĠâĨ Ĳ
ÙĬÙĨ ÙĩØ§
ĠÙĪ Ø¬ÙħØ¹
Ġ Ø§ÙĩØ¯Ø§Ùģ
ĠØ§ÙĦØ±ÙĬ Ùģ
Ø£ ÙĦÙĩ
ĠÙħØ¹Ø§ ÙĪÙĬØ©
ĠÙĪÙĬ Ø¨Ø¯ÙĪ
ÙĬ Ø¨Ø¯ÙĪ
ÙĪØ§Ø¬ Ø²
ĠØ§ÙĦÙħÙĨ ÙĥØ±
ĠÙĪÙħ Ø§Ø°Ø§
ĠÙĪØ§ÙĦ Ø¯Ø±Ø§Ø³Ø§Øª
Ø§ÙĦØ³ Ø¤Ø§ÙĦ
ĠØªØŃÙĪÙĦ Øª
ĠØ§ÙĦÙħØª ÙĪØ§Ø¬
ĠÙĬÙĨ Øµ
ĠØ¹Ùħ ÙĦÙĥ
ĠØ§Øµ Ø·
ĠØ¯ Ø§Ø¹ÙĬ
Ùĭ Ùĳ
Ġ20 30
ĠÙģØ± Ø§Øº
Ø£ÙĨ Ø´Ø·Ø©
ĠÙĨÙĤ Ø§Ø´
Ø±Ùģ Ùĩ
ĠÙģØ¶ Ø§Ø¦ÙĬØ©
ĠØªÙĤØ¯Ùħ Ùĩ
Ùĩ Ø¨Ø©
ĠØ§ÙĦÙħ ÙĪØ¹Ø¯
ĠØ¨Øª Ø³Ø¬ÙĬÙĦ
ĠÙĪØ£ØµØ¨ØŃ Øª
ĠÙĪÙģÙĬ ÙĩØ§
ĠØ£ÙħØ§Ùħ Ùĩ
ĠØ§ÙĦØŃ Ø±Ø¨ÙĬ
Ùħ ÙĤ
ĠØ¬ Ø³Ø±
ĠÙħÙĩ Ø§Ø¬Ùħ
ĠØĮ âĢ¬
ĠÙĬ ÙĪØ¬Ùĩ
ĠØ¬ Ø«Ø©
ĠÙĬØ± ØªØ¨Ø·
ĠØ§Ø± ØªØ¯Ø§Ø¡
ĠØ§ÙĦØ§Ø³Øª Ø¹ÙħØ§Ø±
ĠØ§ÙĦØ¥ ÙħØ¨Ø±Ø§Ø·
ĠØ³Ø¬ÙĦ Øª
ĠØ¨ Ø§Ùĩ
ĠØ§ÙĦØ° ÙĥÙĪØ±
ĠÙĥ ÙĢ
ou t
ĠØ´ Øª
ØªÙĬ Ø§ØŃ
ĠÙĪØ³ ÙĩÙĦØ§
ĠØ§ÙĦØªØŃØ¯ ÙĬ
ĠØ§ÙĦØ¬ ÙĦÙĬÙĦ
ĠØ³ ÙĥØ³
ĠØ³ Ø§Ø±Ø©
ĠØ§ÙĦÙħØªØŃ Ùģ
ĠÙħØ± Ø§Ø¯
ĠÙħØª ÙĤØ¯ÙħØ©
e e
ĠØ¨Øª Ø·Ø¨ÙĬÙĤ
Ø§Ø² Ø¹
Ø§ÙĨ Ùħ
ĠØ§ÙĦØ¹Ùħ ÙĦÙĬ
Ø§Ø¯ÙĬÙħ ÙĬØ±
Ø³Ø§ÙĨ Ø©
7 6
ĠØ§ÙĦØ£ ÙĥØ³
ĠÙĦØª ØºÙĬÙĬØ±
ĠØ¯ÙĬÙģ ÙĬØ¯
ĠØ§ÙĦÙħØ¤ Ø´Ø±Ø§Øª
ĠÙĪÙħ Ø«ÙĦ
ĠØ· Ø§ÙĤ
ĠØŃ ÙĨ
ĠØ§ØŃØ¯ Ø§Ø«
ĠØ¶ Ø±ÙĬØ¨Ø©
Ùĩ Ø²
Ø³ Ø¬ÙĦ
ĠÙħØ¨ ÙĥØ±
ĠØ§ÙĨ Ø®ÙģØ¶
ĠØ³ÙĬ ÙĤÙĪÙħ
ĠØ¥ Ø¨Ø¯
ĠÙħ Ø«ÙĬØ±
ĠÙĥ Ø§Ø´
ĠØ§ÙĦÙħ Ø§Ø¶
ĠØ£Ø¬ Ø±ÙĬØª
a f
ĠÙ¡Ù ©
ĠÙĪØ§ÙĦ Ø®Ø·
ĠØ§ ÙĩÙħÙĬØ©
Ø³ÙĨ Ø§Ø¯
.... ..
ĠØ§ÙĦØ£Ùĩ Ø§ÙĦÙĬ
ĠØ´Ø±Ùĥ ØªÙĨØ§
ĠØ´ Ø¹Ø¨Ø©
ĠØ§ÙĦØ§ÙĤ ÙĦ
ĠÙģÙĬ ÙĥÙĪÙĨ
ĠØ¯ Ø³ØªÙĪØ±
ĠÙģ ÙĪØ¬
Ø§ ÙĪØ³
ĠÙĤØ¯Ø± Ùĩ
ĠØ¹Øµ Ø§Ùħ
ÙĦ ÙĬÙĨÙĬ
ĠØ§ÙĦØ£Ø¨ ÙĨØ§Ø¡
ĠØ¨Ø§Ø¨ Ø§
ĠÙĬ Ø§Ø¨
ĠØ§ÙĦØªÙĤ ÙĨÙĬ
ïº ¤
ĠØ§Ø³Øª Ø¬Ø§Ø¨Ø©
ÙĪÙĥ Ø°ÙĦÙĥ
ĠÙĬØ¹ ÙĨÙī
ĠØ§ÙĦØ² ÙĥØ§Ø©
ĠÙĪØ§ÙĦ Ø¨Ø·
Ø±Ùģ Øª
ĠÙĨØ§Ø¬ ØŃØ©
ĠØ¹ ÙĦØ§ÙĪØ©
D F
âĢĿ :
ĠÙĪÙĦÙĥ ÙĦ
ĠØ§ÙĦÙħÙħ ÙĬØ²Ø§Øª
ĠÙĪØ§ÙĦ ÙģÙĦ
ĠÙĪØ¶ ÙħØ§ÙĨ
Ø¬Ùĩ Ø²
ĠØ§ÙĦÙħ Ø°Ùĩ
ĠÙĬØ± ÙĪÙĨ
ĠØ¯ ÙĪØ±ÙĬØ©
ro s
Ø± ÙĪØ³ÙĬØ§
ÙĨØª Ø¬
I N
ÙģØ¹ ÙĪÙĦ
ĠØ§ÙĦÙħØŃ ÙĦÙĦ
ĠØŃÙħÙĦ Ø§Øª
Ġ <
ĠÙĪØ§ÙĦ Ø¯Ùħ
Ġ.. !
ĠØ´Ø¹ Ø¨ÙĬ
ĠØ§ÙĦÙħÙĬØ² Ø§ÙĨ
ĠÙĦÙĦØ¨ÙĨ Ø§Øª
ĠØ¬ Ø§ÙĦ
ĠÙĩ ÙĪØª
ĠØº Ø·Ø§Ø¡
ĠÙĪÙĬ ÙĤØ¯Ùħ
ĠÙĦÙĦØ´ Ø¹Ø±
ÙĪØ¹ ÙĨØ¯ÙħØ§
ĠÙĥ ÙħÙĨ
Ø±ÙĬ Ø²
ĠØ± ÙĬØª
ĠÙĦÙĦ Ø¹Ø¯
ĠØ§ÙĦØ§Ø¬ Ø±Ø§Ø¡Ø§Øª
ĠØ§ÙĦØ®Ø· ÙĬØ¨
ÙĤ Ø§Ø´
ÙĬÙĬÙĬÙĬÙĬÙĬÙĬÙĬ ÙĬÙĬÙĬÙĬÙĬÙĬÙĬÙĬ
ĠØªØ² Ø¯Ø§Ø¯
ĠØªØ§Ø±ÙĬØ® Ùĩ
ĠØ¨Ø§ÙĦÙĤ ÙĪØ©
Øº ÙĨØ§Ø¡
ĠÙĦÙĦØ¬ Ø³Ùħ
ĠØŃØ¨ ÙĪØ¨
ĠÙĤØ§Ø¯Ø± Ø§
ĠØ§Ø³Øª Ø®Ø±Ø§Ø¬
ĠÙĥÙĩØ±Ø¨ Ø§Ø¦ÙĬØ©
ĠØ¨ Ø¨Ø±ÙĨØ§ÙħØ¬
ĠØ£ Ø¶Ø±Ø§Ø±
Ġïº ĥ
ĠØ²ÙħÙĨ ÙĬØ©
ĠØ§Ø³Øª Ø«ÙħØ§Ø±Ø§Øª
ØªØ± Ø§Ø¹
ĠØªØ± Ø§ÙĥÙħ
ĠØ§Ùħ ÙĨ
ĠÙĪØ£ Ø³Ø±
ØªÙĥ Ø¨
ĠØ§ ÙĬØ±
ĠØ§ÙĦØ¹ Ø§Ø¯Ø§Øª
ĠØ§ÙĦØ± Ø¹Ø¨
ĠØ§ÙĦØ·Ø¨ Ø¹Ø©
ĠØ´ ÙīØ¡
ĠÙħÙĪØ³ ÙĪØ¹Ø©
ĠØ§Ø³Øª ÙĦØ§Ùħ
ØŃ ÙĬÙħ
ĠØ´ Ø§Ø¹Ø±
ĠÙĪØ§ÙĦØ§Ø¬ØªÙħØ§Ø¹ ÙĬ
ĠØ£ Ø¹Ø¶
ĠÙĬØªØ¹ ÙĬÙĨ
ĠØ§ÙĦØ³ Ø·ØŃ
ĠÙĬÙĨ ÙĤÙĦ
ĠØ£Ø¹Ø¯ Ø§Ø¡
ĠØ³ÙĨ ÙĪÙĬ
ĠØ§ÙĦÙĨ ÙħÙĦ
ĠÙħØ« ÙĬÙĦ
ĠØ¥ Ø¹ÙĦØ§ÙĨØ§Øª
ĠØ£ÙĪ Ø³Ø¹
ĠØ§ÙĦØ®ÙĦÙĬ ÙģØ©
ĠØªÙĨ ÙģØ°
ĠØŃ Ø³Ùħ
ĠØ¨ ÙĪØ¯
ĠØ§ ÙĥÙĪÙĨ
Ø§Ùħ ÙĪØ³
ĠØ§ÙĦØ¨ Ø§Ø±Ø¯
ÙĪØ§Ø² ÙĨ
ĠØªØ± ØªØ¨Ø·
ÙĪ Ø§ÙĦØª
ĠÙĪ Ø±Ø¨
ĠÙĪØ§ÙĦØ¥ ÙħØ§Ø±Ø§Øª
ĠØ¶ ØºÙĪØ·
ĠÙĪØ§ÙĦØ¹Ø¯ Ø§ÙĦØ©
ĠØ§Ø®ØªØ¨Ø§Ø± Ø§Øª
ĠØ§ÙĦÙħØ¹Ø§Ø± Ùģ
ÙĥØ± Ø§Ø±
ĠÙĪØª ÙĦÙĥ
ĠÙĬØ³Øª Ø·Ø¹
ĠØ¶Ø± Ø±
ĠÙħØ´ Øº
ĠØ§ÙĦØ®Ø· ÙĬØ±Ø©
ĠÙħ Ø±ÙĬØŃ
ĠØ¨Ø§ÙĦ Ø§ØŃ
ĠÙħØ«ÙĦ Ùĩ
ĠÙĬØ¹ Ø·ÙĬÙĥ
ĠØ§ÙĦØ¹Ø± Ø´
ØªÙĥ ÙĦÙħ
ĠØ§ÙĦÙħ Ø®Ø·Ø·
ĠØ§ÙĦÙĤ Ø±Ø§Ø¡
ÙĪØ¯ ÙĬÙĪ
ĠØ§Ø¨ Ø¯
Ø¬ Ø§ÙĨØ¨
ĠØ§Ø³Øª Ø«ÙĨØ§Ø¡
ĠØ§ÙĦØªÙĤ Ùī
Ø¨ Ø£
ĠØ§ÙĦØ§Ø³Øª ÙģØªØ§Ø¡
ĠØ§ÙĦØ§Ø¹ ØªÙĤØ§ÙĦ
ÙĪØ§Øª ÙĩÙħ
ĠØ§ÙĨØ·ÙĦØ§ÙĤ Ø§
Ùħ ÙĪØ¶
ĠÙĨ Ø³ÙħØ¹
Ġ ÃĹ
ĠØ§ÙĦÙħ ÙĩØ¯
ĠØ¨Ø§Ø± Ø§Ùĥ
Ùħ Ø´Ø±ÙĪØ¹
ÙĪØ± Øº
ĠØ§ÙĦØ§Ø´ ÙĬØ§Ø¡
ĠØ§ÙĦØ¹ Ø§Ø¦Ø¯
ĠØ¬Ø² Ø±
ĠØ§ÙĦÙĤ Ø¨Ø±
Ø¬ ÙĪØ±
ĠØ§Ø³Øª Ø¦ÙĨØ§Ùģ
ĠØ§ÙĦØ¨Ø· Ø§Ø±ÙĬØ©
ĠØ¢ ÙģØ§ÙĤ
ĠØ¨Øº Ø±Ø¶
ÙĩÙĩÙĩÙĩ ÙĩÙĩÙĩÙĩ
ÙģÙĬ ÙģØ§
ĠØ§ÙĦØªÙĪ Ø§ÙģÙĤ
ĠØ³Ø¹ÙĪØ¯ ÙĬØ©
ĠØ¬ Ø¯Ø¯
a z
Øº ÙĬØ¨
ĠØ´ Ø§Ø·Ø¦
ĠØ§ÙĦØ® Ø³Ø§Ø¦Ø±
ĠØ§ÙĦØ£ Ø¬ÙĬØ§ÙĦ
ĠØª Ø®Ø¯Ùħ
ĠØªØ± ØŃÙĬØ¨
ÙĪ ÙĪÙģÙĤØ§
ØªØµ ÙħÙĬÙħ
ĠØ§ÙĦØ£ÙĦØ¨ Ø§ÙĨÙĬ
ĠÙĪ Ø¯Ø±
ĠØ§ÙĪØ± ÙĪØ¨Ø§
E R
ĠØ§Ø³ ØªÙħ
ĠÙĨ Ø°ÙĥØ±
Ø£ÙĥØ¯ Øª
u e
Ùİ }
ĠØ§ÙĦÙĪ Ø§Ùģ
ĠÙĦÙĥÙĨ ÙĩÙħ
ĠØ§ÙĦØ³ ÙĦØ©
ÙħØ³ Ùĥ
v i
ĠØ± ÙĪÙĬØªØ±Ø²
ĠØ¹ÙĨ Ø§ÙĪÙĬÙĨ
ĠÙĬØ³ ÙĥÙĨ
ĠÙĦÙĬ Ø¨Ø±
ÙĨÙĬ Ø§Ø¨Ø©
ĠÙĪØ§ÙĦØ¯ ÙģØ§Ø¹
ĠØ³ ØŃÙĤ
ĠÙģÙĪØ² Ùĩ
ĠØ¬Ø¯ÙĬØ¯ Ùĩ
ĠÙĪØ§ÙĦ Ø±ÙĬ
ÙĢ ÙĤ
ÙĪÙĩ ÙĥØ°Ø§
ĠÙĪ Ø¹Ø¨
ØŃØ§ ÙĥÙħ
ĠÙĪØ§ÙĦ Ø¢Ø®Ø±
ĠØ§ÙĦÙĩ Ø§Ø´
ĠØ±ØŃ ÙĬÙĦ
ĠØ§ÙĦØªØµ Ø±ÙĬØŃØ§Øª
ĠØ¨ Ø§Øµ
ĠØ· Ø¨Ø¹
ĠÙĦÙĦ Ø¹ÙĦØ§Ø¬
ĠØ§ÙĦØ¬Ùĩ ÙĪÙĬØ©
ĠØ¨Ø§ÙĦØ¹ Ø§ÙĦÙħ
Ø±ÙĤ Ø§Ø¨Ø©
ĠØ§ÙĦÙħÙĨ ØµÙĪØµ
ĠÙĪØ§ÙĦØª Ø·
ĠØ§ÙĦØ´ Ø±ÙĬØ·
ĠØ§ÙĦØ¹Ø¨ Ø§Ø±Ø©
ĠØ§ÙĦÙĥØ§Ø¦ÙĨ Ø§Øª
Ø¯Ùĩ Ø§Ø±
ĠÙĬ ÙĪØ§ØµÙĦ
ĠØ§Ø¨ Ø±ÙĬÙĦ
Øµ ØŃÙĬØŃ
ĠÙħ ÙĥÙĨ
ĠÙĦÙĦÙħØ³ ÙĦÙħÙĬÙĨ
ĠØ¶ Ø®Ùħ
ĠØª Ø·Ø±ØŃ
Ø¹Ùħ Ø§ÙĨ
â Ĩ
ĠÙĦÙĦØ¥ Ø¹ÙĦØ§Ùħ
ÙĪÙģÙĬ ÙħØ§
Ùĩ ÙĦÙĬ
ĠØ§ÙĦØ· Ø§Ø¨Ø¹
ĠÙĪØ¬ Ø²
ĠÙĬ Ø³Ø¨ÙĤ
ÙħØ± Ø¶
ĠØ§ÙĦØ§ÙĨ Ø¶ÙħØ§Ùħ
Ġ Ú©
ĠÙĦÙĦÙħÙĨ ØªØ®Ø¨
Ø® ÙĨ
Øµ Ø§
ĠØ§ÙĦØ¢ Ø±Ø§Ø¡
ĠØ§ÙĦØ¯ÙĥØªÙĪØ± Ø§Ùĩ
ĠØª ÙĥØ±ÙĬ
ĠØ§ÙĦØª Ø³ÙĦ
ĠØ³Ø§Ø¹ ØªÙĬÙĨ
ĠØ§ÙĦÙĨ ØŃÙĦ
ĠØ¹Ø¯ ÙĪ
ĠØŃ Ø«
ĠÙĦÙĦÙħØ³ Ø§Ø¹Ø¯Ø©
ĠØ§ÙĦÙĪØ± ÙĤ
ĠØ§ÙĦØ¹ Ø¬
ĠØ¨ÙĨ Ø¯
Ø§ ÙĪØ¨
ĠÙĪÙģØ± ÙĨØ³Ø§
ĠØ¶Ø±Ø¨ Ø§Øª
ĠØ£ÙħÙĬØ± ÙĥÙĬ
ĠØ§ÙĦÙħØ³ Ø¦ÙĪÙĦÙĬØ©
ĠØ§ÙĦØŃÙĥ Ø§Ùħ
ĠØ³ Ø¹Ø©
ĠØ§ÙĦØŃ Ø§ÙħÙĦ
ĠØ§ÙĦØ¹ ÙģØ´
ĠÙģÙĤØ¯ Øª
ĠÙĦÙĪ ÙĬØ³
ĠØ§ÙĦÙħØ¹ Ø§ÙĦÙħ
Ø§ÙĦ ÙħØ©
Ø§ÙĦ Ø³ÙĦ
ØªÙĥ Ø²
ĠØ§ÙĦÙģØª ÙĨØ©
ÙĬÙĤ ÙĪÙħ
ĠÙĪØ¯ ÙĪØ±
ÙĪØ² Ø©
ĠÙĪØ§ØŃ ØªØ±Ø§Ùħ
Ø±Ø± Ø±Ø±
ĠØ¨Ø§ÙĦÙĨ Ø¸Ø±
ĠØ£ ÙĦÙĬØ³
ĠØµ Ø§ÙĦØŃØ©
ĠÙĪØª ØŃØ±
Ùģ ÙħÙĨ
ĠØ§Ø¹ ØªÙħ
ĠØ§ÙĦÙĪÙģ Ø§Ø©
ĠØ§ÙĦØ£ ÙĤØ¯Ø§Ùħ
ĠØ§ÙĦ ÙĪØ±Ø¯
ĠØ§ÙĦØª ÙĪÙĤØ¹Ø§Øª
ĠØ¨ Ø®ÙĦØ§Ùģ
ĠØŃ ÙħØ§
ĠØ§ÙĦØ¹ÙĤ ÙĪØ¨Ø©
ĠØ§ÙĦØ¬ÙĪ Ø§Ø¦Ø²
ĠE x
ĠÙĬ ÙĤØ±Ø±
ĠØ£ÙĨ Ø²ÙĦ
ĠØ§ÙĦØ§ ÙĬØ·
Ø§ÙĦØªÙĩ Ø§Ø¨
ĠØ§ÙĦØ³Ø¨ Ø§ÙĤ
ĠÙģØ¶ ÙĬÙĦØ©
ĠØ¨Ùħ ÙĥØ©
ĠÙħØ¹ØªØ¨Ø± Ø§
ĠÙĪÙĬ Ø¹Ø¯
ĠØ¬ ÙĪØ§ÙĨ
ÙĪØ¬ Ø§Øª
ĠÙħÙĦÙĬ Ø¦Ø©
ĠÙĨØ¬ ÙĬØ¨
ĠÙĬ Ø§Ø±Ø¨
ĠØªØ¬ Ø§Ø±
ÙĪØ¹ ÙĬÙĨ
ĠØ¬ ÙĨØ³ÙĬØ©
ÙĦÙĬ ÙĪ
Ø¹ Ø²ÙĬØ²
ĠØ¸ ÙĦØª
ĠØ§ÙĦØŃ Ø§ÙĥÙħØ©
ĠØ§ÙĦÙĦ ÙĪØŃØ©
Ġ y
Ø§ÙģØ¸ Ø§Øª
Ø§Ø³ Ø¨Ùĩ
ĠØ¥Ø¹ Ø¬Ø§Ø¨
ĠØ§ÙĦØ®Ø· Ø·
ĠÙĬÙĨ Ø¬ØŃ
Ø±Ø¶ Ø§
Ø§ØŃ ØµÙĦ
ĠØ§ÙĦÙħØ¹ Ø§ÙħÙĦØ§Øª
ÙĨ Ø§Ø¯
ĠØŃ Ø§Ø¯
ĠØ¨ÙĦ ÙĪØº
ĠØ«ÙĦØ§Ø« ÙĬÙĨ
Ø¨Ø§ÙĦ Ø¥Ø¶Ø§ÙģØ©
ĠØ® ÙĦÙĦ
ĠÙĬØ³Øª ÙĩØ¯Ùģ
Ø§ÙĦ Ø¢
ĠÙħØ¯ Ùģ
Øº Ø§Ùģ
ĠØ§ÙĦÙĪ Ø§ÙĦØ¯ÙĬÙĨ
ĠÙĦÙħØ³ Ø§Ø¹Ø¯
ÙĪØ¹ Ø¨
Ø®Øµ Ø§Ø¦Øµ
ĠØ§ÙĦØ¨ ØµÙĦ
Ġ_ _
ØµØ§Ø± Ùī
ÙĨ Ø§Ùħ
en d
ĠÙĨÙģ ÙĪØ°
ĠØ§ÙĦÙħØ¬ ÙĬØ¯
ĠÙĤØ¯Ø± ØªÙĩ
ĠÙĦÙĦÙħØ³ØªØ®Ø¯Ùħ ÙĬÙĨ
ĠØªØŃ ÙģØ¸
ĠØ§ÙĦÙħÙħ Ø§Ø±Ø³Ø©
Ø´ Ø¹Ø§Ø±
ĠØª Ø®Ø·ÙĬØ·
ĠØ§ÙĦØ´ Ø¯ÙĬØ¯Ø©
ĠÙĬ Ø¬Ø±
Ø´ Ø±Ùģ
ĠØ§ÙĦØ¹Ø§Ø¦ÙĦ Ø§Øª
ĠÙħÙĤ Ø§Ùħ
ĠÙĦØª Ø¬ÙĨØ¨
ĠÙħÙħØ« ÙĦÙĬ
Ø¸ Ø§ÙģØ±
6 3
ØµØ± Ø®
ĠÙĪÙħØ¤ Ø³Ø³Ø§Øª
ĠØªÙĤ Ø¶ÙĬ
ĠÙĦØ£ ÙĩÙĦ
ĠÙĪÙĨ ÙģØ³
ĠØ£Ø® Ø·Ø±
ÙĤØ· Øª
Ø§Ø¹Ø¯ Ùĥ
ĠØ§ÙĦÙĤ Ø·Ø§Ø±
ĠØªÙģ Ø§ÙĩÙħ
ĠØ§Ø¨ ÙĨØ©
ĠØ¬Ø¹ÙĦ Ùĩ
Ø¯ Ø¨ÙĬ
ĠØªØ± Ø§Ùĩ
ĠØ£Ø´ Ø¨Ùĩ
ĠØ§ÙĦØª ÙģØ§
ĠØ£ ÙĦÙĬ
ĠÙĦÙĨ Ø´Ø±
A N
ĠØ§ÙĦØ¹ÙĨ ØµØ±
ĠÙħØ´ ÙĪØ§Ø±
ĠØ§ÙĦÙĦ Ø§Ø³
ĠØ£ ÙĬØ§
Ø§ ÙĥØª
ĠÙĦÙĦÙħ ÙħÙĦÙĥØ©
ĠØ£Ø³ ÙĩÙĦ
ĠØ§ÙĦØ¯Ø± Ø§ÙħØ§
ØŃØ± Ø§Ùģ
ĠÙĪØŃ ÙĦÙģ
ĠØ§Ø¹ ØªÙħØ¯
ĠÙĪØ¯ Ø®ÙĦ
Ø¬Ø² Ø¦Ø©
ĠØ· ÙĬØ§Ø±
ĠØª Ø¸ÙĦ
ĠÙĦÙĪ ØŃØ¯
ÙĩÙĨ Ø¦Ø©
ÙĬØ· Ø§ÙĨ
Ø§ÙĨØª ÙĤØ§ÙĦ
Ø± Ø¹Ø©
Ø¶ Ø§ÙħÙĨ
ĠØ§ÙĦØ· Ø¹ÙĨ
ĠÙħÙĪÙĤØ¹ Ùĩ
ĠØ§ÙĦØ² Ø§ÙĪÙĬØ©
ĠØ¨Ø´Ø± ÙĬØ©
Ùħ ÙĤØªÙĦ
Ùĩ Ø§ÙĨØ©
ÙĪØ§Ø¶ Ø¹
ĠÙĪØ§ÙĦÙħ Ø´Ø§Ø±ÙĥØ©
ĠÙĬ Ø¶Ø±
ĠØªØª Ø³Ø¨Ø¨
ĠÙħØª ØŃØ¯Ø«
ĠØ§ÙĦÙħØ¯ Ùģ
Ø§Ø¯Ø« Ø©
ï» ľ
ØªÙĤ Ùī
ĠØ§ÙĦØªØ® Ø²ÙĬÙĨ
ĠØ§ÙĦÙģÙĬØ² ÙĬØ§Ø¡
Ø¨Ø± Ø¬
ÙĴ ØĮ
ĠÙħØŃ Ø³ÙĨ
ĠÙĬØµÙĦ ØŃ
ĠÙħØ´ Ø±Ùģ
ĠØ§ÙĦØ§ØŃØªÙģ Ø§Ø¸
ĠØ¹ Ø§Ø·
ĠÙĪØ§ÙĦØµ ÙĬÙĨ
ĠÙĦÙĬØ³ ÙĪØ§
ĠØª ÙĪØ³
ĠØ§Ø± Ø¨Ø¹
ĠØ¨Ø· ÙĪÙĦ
ĠØ¥ Ø¸ÙĩØ§Ø±
ĠÙĥÙĬÙĦÙĪÙħ ØªØ±
ĠÙĪÙĤ Ø·Ø¹
ĠØ¨Ø§ÙĦØ¬ Ø§ÙħØ¹Ø©
ĠØªØ³ ÙĪÙĬÙĤ
ÙĤ Ø§Ø¶
ĠÙĦÙĦØ£ ÙħÙĨ
Ùģ ÙĦØ§
ĠÙħØ³ Ø§ÙĩÙħ
ĠÙĩ ÙĨØ¯Ø³Ø©
S t
ĠØ§ÙĦØ³ ÙĦÙħÙĬ
ĠØ§ÙĦØº Ø±ÙĬØ¨
Ø®ÙĦ Ø§ÙĤÙĬ
ÛĮ Ø±
Ø§ÙĦØª Ùĥ
ĠØ§ÙĦ ÙĬÙħ
Ùģ ÙģÙĬ
ĠÙħØŃ Ø±Ùħ
ĠØ§ÙĦØªÙĨ ÙĤÙĦ
ÙĬÙĤ Ø§Ø¹
Ø« Ø§Ø±Ø©
ĠØµØ§ØŃ Ø¨Ùĩ
. âĢ¬âĢ¬
Ø§Ø¦Ø± ÙĬØ©
ĠÙģ Ø¶Ø§Ø¡
ĠÙĥÙĦØ§Ùħ Ùĩ
ĠÙĪØ§ÙĦØª Ø£
ĠE n
ĠØ§ÙĦØ¬ÙĨ Ø±Ø§ÙĦ
ĠÙĪØŃ Ø¨
ĠØ§ÙĦØ¸ ÙĦØ§Ùħ
ĠÙħ ÙĦÙĥØ©
ĠÙĤØª ÙĦÙī
Ø§ÙĦ ÙĪØ§
ĠÙģÙĤ Ø§ÙĦØª
ĠØ§ÙĦØ®Øµ Ø§Ø¦Øµ
Ùĩ Ø´
Ø¨ Ø§Ø¯Ø¦
ÙģÙĬ Ø¸
Ø§Ø¬ ÙĬØ©
ĠØ´ ÙħÙĦ
ĠÙħÙĨ Ø¸Ùħ
Ø¹Ø¯ ÙĬ
ĠÙĪØ¬Ùĩ Ùĥ
ĠØ§ÙĦØªØ· Ø±Ùģ
ĠØ§ÙĦÙĦ Ø§Ø¦ØŃØ©
ĠØ§ÙĦÙħ Ø§Ø±
ĠØ£ Ø¹Ùħ
ĠÙĪ Ø§Ø±Ø¯
ĠØ§Ø³ØªØ¹Ø¯Ø§Ø¯ Ø§
ĠØ§ÙĦÙħØŃ Ø§ÙħÙĬÙĨ
ĠÙħØŃ ÙĦØ§Øª
ĠÙĦ ÙĤÙĬ
ÙĬØ³ ÙĥÙĪ
ĠÙĪØ§ÙĦØµ ÙĨØ§Ø¹Ø©
ĠÙĪØ¨ ÙĩØ°Ø§
Ø¸ Ùģ
ĠØ§ÙĦØ± Ø§ÙĩÙĨØ©
Ø±ØŃ ÙħÙĩ
ĠØªØ³Ùħ ÙĬØ©
ĠÙħÙĪ Ø§Ø¬ÙĩØ§Øª
Ø£ Øº
ĠØ§ÙĦØ« ÙĨØ§Ø¦ÙĬ
ĠØ±Ø´ ÙĬØ¯
ĠÙĪØ§Øª Ø³
Ø±Ùĥ ÙĬØ¨
ÙĦ ÙĩÙħ
ĠÙĬ ØµØ¯ÙĤ
ĠØ£ Ø·Ø¨Ø§Ø¡
ĠØ¬Ø¯ Ø§Ø±
ĠØ§Øº ÙĦØ¨
Ġ5 7
ĠØŃ Ø§Ø±
Øµ Øµ
ĠÙĪÙĬ ÙĪØ¬Ø¯
ĠØ§ÙĦÙħ Ø¨Ø¹ÙĪØ«
Ø¯ÙĬ Ùĥ
ĠØ°ÙĥØ± ÙĩØ§
ĠÙĪ Ø®Ø¯ÙħØ©
ĠØ§ÙĦØ¨Ø§Ø± Ø¯Ø©
ĠÙĥØªØ¨ Ùĩ
ĠÙĦÙĦØ¯ ÙĪÙĦ
ĠÙĬØ± Ø§Ùĩ
Ùģ Ø¥Ø°Ø§
ĠØ£ Ø³ÙĦ
ĠÙĤØªÙĦ ÙĪØ§
ĠØ§ÙĦØ¬ Ø¯Ø±Ø§ÙĨ
ÙĦÙĬÙĤ Ø§Øª
ĠØ® Ø±ÙĬØ·Ø©
ĠØ£ÙĨ Ùģ
ĠÙħØªØ± Ø¬ÙħØ©
ĠØ§ÙĦÙħØ« ÙĬØ±Ø©
Ø¨Ø¯ ÙĪÙĨ
ØªÙģ Ø§ÙĤ
ĠÙĦÙĦ ÙĪÙĦØ§ÙĬØ§Øª
Ø±Ø¨ ÙĩØ§
ĠØ§ÙĦØ¹ Ø²
ĠÙĪÙĦ Ø£
ĠØ¨ÙĤÙĬ Øª
Ø§Ø· Ø±Ø©
Ġ @
ĠØ¨ ÙĦÙĬ
ĠØ¹Ùħ Ø±ÙĬ
ĠØªÙĬÙħ ÙĬØ©
Ùħ Ø¹ÙĦÙĪÙħØ§Øª
ĠØ§ÙĦÙĥ ÙĪØ±ÙĬØ©
ÙĪ ÙĬÙĨØ©
ĠÙģØªØŃ Øª
ĠÙģÙĦ ÙĪ
ĠØ§ÙĦØª Ø²
ĠØ¬ ÙĦØ§ÙĦØ©
ĠÙĨ ØªØ¬
ĠØ£Ùģ Ø§Ø¯
ĠØ¨Ø§Ø® ØªÙĬØ§Ø±
ĠÙĪØ§ÙĦ ØŃØ¯ÙĬØ«
ĠØ¨Ø§ÙĦÙħ ØŃØ§ÙģØ¸Ø©
ĠØ§Ø³ØªØ®Ø¯Ùħ Øª
ÙĪØ« Ø§Ø¦ÙĤ
ĠØ¨Ùģ Ø§Ø±ÙĤ
ĠØ§ÙĦØŃ Ø´
ĠØŃÙħ Øµ
ĠÙĤØ¨ ÙĬÙĦØ©
ÙĪØ¯ Ø¹Ø§
ï» §
ĠØ¶ Ø®
ĠØ£ ÙĬØ¯
ØºØ± Ø§ÙģÙĬ
Ø¹ÙĪ Ø§Ùħ
ĠÙĪÙĦ ÙĦÙħ
Ø¯ Ø±ÙĬ
ĠØ§ÙĦØªØ± Ø§Ø¨
ĠØ¥ÙĦÙĥØªØ± ÙĪÙĨÙĬ
ĠÙĦÙĦ Ø¨ÙĦ
ĠÙĪØ£ ÙĤ
ĠØ§ÙĦØª ÙĤØ¯ÙĬØ±
ĠØ§Ø³ØªØ·Ø§Ø¹ Øª
Ø·Ø§ÙĦØ¨ Ø§Øª
ĠÙĦ ÙĬØ¨
ĠØ¨Ø§ÙĦ Ø´Ø±
Ø§Ùĥ ÙĪ
ĠØ§ÙĦÙħØ± Ø¬Ø¹
ĠÙĪØ£Ø® ÙĬØ±Ø§
Ø·Ùģ Ø§Ø¡
Ø§ØŃ Øª
ĠØ¹Ø¨ Ø§Ø¯
ĠØ§ÙĦØº Ø¯Ø§Ø¡
ÙĥØª Ø¨Øª
ĠÙĪØªØŃØ¯ ÙĬØ¯Ø§
Ø§ÙĦ ÙĬÙĦ
ØŃØª ÙĪÙī
ÙĪØ³ Ø§
ĠÙĦÙĦØªØŃ ÙĤÙĬÙĤ
ĠÙĬÙĨ ØªÙħÙĬ
ĠØ¹ÙħÙĦ ÙĩÙħ
ĠØ¬Ùħ Ø§Ø¹Ø§Øª
Ø¯ Ø¯Ø©
ĠÙĦÙĥ Ùī
ĠÙĤØ¯Ùħ Ùĩ
ĠØ¨ Ø§ÙĬØ±ÙĨ
Ùģ ÙĬÙĦÙħ
ĠØ§ÙĦÙħØª Ø³
ĠÙĬØ¹ Ø·
ĠÙĦÙĦ Ø¹Ø¯ÙĬØ¯
Ø¨Ø¯ Ø§Ø¯
Ø§Ø¨ ÙĦØ§Øª
ĠÙģÙĬ ÙĨØ§
Ø´Ø± ÙĪØ¨Ø§Øª
ĠØ§ÙĦÙħÙĪØ¬ ÙĩØ©
ĠÙħØª Ø¹Ø¯Ø¯
ĠÙĦÙĬ ØµÙĦ
ĠP h
ï» »
ĠÙħØ¹ Ø§ÙħÙĦØ©
Ø· Ø§ÙĨÙĬØ©
ĠØ¢ ÙĦØ§Øª
ĠÙĬØª Ø§Ø¨Ø¹
ĠØ± ÙĪÙĬ
ĠÙĪØªØ£ Ø«ÙĬØ±
Ø¹Ø§Ø± Ùģ
ĠØªÙħ Ø³
Ø§ ÙĬÙĩ
ĠÙĩ Ø²ÙĬÙħØ©
ĠØµ ÙĦØ¨
Ø«Ø± Ø§Øª
v is
Qu ote
ĠÙĩ Ø°ÙĬÙĨ
ĠÙħØŃ Ø§Ø¶Ø±Ø©
Ø§Ø± ÙĬÙģ
ĠØ´ Ø±ÙĬØŃØ©
ĠØ£ØŃ Ø§Ø¯ÙĬØ«
ĠØ§ÙĦØ£Ø´ Ø¬Ø§Ø±
ĠÙĨØ´Ø± ØªÙĩ
ĠÙĪ Ø®Ø¯ÙħØ§Øª
lo ad
ĠØ¨ÙħØ³ Ø§ØŃØ©
ÙĬ Ø®
Ġ4 1
ĠØŃÙħ ÙĬØ¯
ĠØ§ÙĦÙĥ Ø±ÙĬ
Ø§ØŃ Ùħ
ĠØ´Ø± Ø¹ÙĬ
l y
ÙĬÙĤ Ø¹
ÙĬ Ø´Ø§Ø±
ĠØ§ÙĦÙĤ Ø±Ø¶
ĠÙĦ ÙĬØ¯
ĠÙĤØ§Ø¯ ÙħØ©
ĠØ§ÙĦÙĥ ÙĪØ±
ĠÙĪØŃ ÙĤ
ĠÙĪØ§ÙĦ Ø¹Ø¯ÙĬØ¯
ĠØ§ÙĦØ§ÙĪØ± ÙĪØ¨ÙĬ
ĠØ§ÙĦØ¨Ø§ÙĦ ØºØ©
ÙħØ³ Ø§Ùĥ
ÙĨ Ø¨ÙĬØ©
ĠØ¶Ø¯ Ùĩ
ĠÙĪØ§ÙĦ Ø±Ø³
Ø§ÙĦ Ø§Ùħ
ĠÙĪÙĬ Ø®
ĠÙħØ·ÙĦ ÙĤØ§
ÙĨ ØŃ
ĠØ§ÙĦØ® ÙģÙĬÙģØ©
ĠØ§ÙĦÙħÙģ Ø§ØªÙĬØŃ
ĠØ¥ ÙģØ±
ĠØ§ÙĦØ¯ Ø±Ø¯
ĠØ§ÙĦÙħØ¯ Ø§ÙģØ¹
ĠÙĪØŃ ÙĬØ¯
ĠÙĪ Ø¨Ø§Ø±Ùĥ
ØªØ± Ø§ÙģÙĬØ©
ĠÙħØ¬ ØªÙħ
ĠØ§ÙĦØŃ Ø°Ø±
ĠØª ÙĪÙĦÙĬ
ĠØ§Ø±ØªÙĥ Ø§Ø¨
ĠÙħÙģ Ø§ØªÙĬØŃ
ĠØ§ÙĦØŃ Ø±Ø¨ÙĬØ©
ĠØ¯Ø§Ø¹ ÙĬØ§
ĠØµØ± Ø§ØŃØ©
ÙĨ Ø±
ĠØ³Ùħ ØŃ
ĠÙĪÙĤ ÙĬÙĦ
Ø®ÙĦ Ø·
ĠØ®Øµ ÙĬØµ
Ø¶ Ø¨Ø·
ĠÙħ Ø±Ø¨
ĠØ§ÙĦØ¬ ÙħÙĦ
ĠØ³ Ø±ÙĤ
ĠØ§ÙĦÙĬ ÙĪØªÙĬÙĪØ¨
ĠÙĪØªØŃ ÙĦÙĬÙĦ
ÙĦ ÙĦÙĩ
A R
ĠØ¨ÙĩØ¯Ùģ ÙĬÙĨ
ÙĪØª Øª
ĠØ¨ Ø±ÙĤÙħ
ĠÙħØ¬Ùĩ ÙĪÙĦ
Ø²Ø± Ø¹
ĠÙĥ ÙĬØ±
ĠÙħØŃ ØªÙĪÙĬ
ĠØ¬ ÙĬØ¬
ĠØ§ÙĦØ¥Ø±ÙĩØ§Ø¨ ÙĬÙĬÙĨ
ĠÙĩ ÙĦØ§ÙĦ
Ø¨ÙĬ ÙĬÙĨ
ĠÙĬÙħÙĥÙĨ ÙĩÙħ
ĠÙħØ¹Ø§Ø± Ø¶Ø©
ĠØ¨Ø£ Ø³ÙĦÙĪØ¨
ĠØ«ÙĦØ§Ø« ÙĬØ©
ĠØ§ÙĦØ¶ Ø§Ø±Ø©
ĠØ§ÙĦØ¥ÙĬØ¬ Ø§Ø¨ÙĬ
ĠÙĪØ§ÙĦØª Ùĥ
ĠÙĦÙĬ Ø´
Ø®Øµ ÙĬØ§Øª
Ø¨ØŃ ÙĪØ«
ĠÙħØ¹ ØªØ¯
Ø°ÙĥØ± Øª
Ø§ØŃ ÙĤ
ĠØª ÙĪØ¯
ÙĪÙĬ Ùĥ
ĠØ§ÙĦÙħÙĪØ§Ø· ÙĨØ©
ĠØ¹Ø±Ø¶ ÙĩØ§
ĠØ¨Ø§ÙĦÙħ Ø±ÙĥØ²
ĠØªÙģ Ø§Ø¹
ĠØ§ÙĦØ£Ø±Ø¬ ÙĨØªÙĬÙĨÙĬ
ĠØµÙĨ Ø§Ø¯ÙĬÙĤ
Ø§ÙĦØ§Øª ØŃØ§Ø¯
ĠØ§ÙĦÙĨØ§Ø² ØŃÙĬÙĨ
ĠØ¨ÙĪØ± ØµØ©
ĠÙĨ Ø§Ø¨
ĠÙĨØµ Ø¨
Ø³ÙĪ Ø§Ø±Ø§Øª
Ø§ÙĦØ± ØºÙħ
Ø¨ Ø¶
ĠØ§ÙĦÙĪØ³ ÙĬØ·
ĠØ£Ø® Ø±ÙĬ
ĠØ§ÙĦØ´Ùĩ Ø±ÙĬ
9 2
ĠÙħÙĦÙĥ ÙĬØ©
ĠØ±Ø§Ø¦ Ø¹Ø§
ĠØ³Ùħ ÙĪÙĩ
ĠØ§ÙĦÙģ ÙĬÙĦ
ĠØ§ÙĦÙħØŃ ÙĦ
ĠØ§ÙĦØµØ¯ Ø§ÙĤØ©
ĠØ§ÙĦØµÙĬÙģ ÙĬØ©
ĠÙĨ Ø§ÙĨ
6 2
... )
ĠÙħ Ø°ÙĩØ¨
Ø¬ ÙĪÙĦ
ÙĤØ¯ Ø§ÙĨ
ĠØ§ÙĦØ¥ Ø°Ø§Ø¹Ø©
ÙĪØ² Ø±Ø§Ø¡
ĠÙħØ¹ Ø§ÙħÙĦ
ĠÙĦ ØµØŃÙĬÙģØ©
ĠÙħØ§ ÙĥØ±ÙĪÙĨ
ÙĪÙĤ ÙĬØ©
Ġ8 5
Øº ÙĪØ¨
ĠØ¨Ø§ÙĦ ÙĬÙĪÙħ
ĠØªØŃ Ø³
i b
ĠØªØ´ ÙĬÙĦØ³ÙĬ
ĠØ¨Øª ØŃØ¯ÙĬØ¯
ĠØ´ Ø§ØºØ±Ø©
ĠØ¥ ÙĬÙģ
ĠØ§ÙĦÙħÙĨ Ùĩ
ÙĦÙĤ Ø¨
ĠØ§Ø¨ ÙĦ
Ø± Ø¬ÙĦ
ĠØ§ÙĦÙħ ÙĦØ§
ĠØ§ÙĦØ³Ø§Ø® ÙĨ
Ø¥ÙĨ Ø¬ÙĦÙĬØ²ÙĬØ©
ĠÙģÙĦÙħ Ø§Ø°Ø§
ĠØ§ÙĦØ§Ø± ØªÙģØ§Ø¹
ĠØªØŃ ÙĦ
ĠØ´Ùħ Ø§ÙĦÙĬ
ĠØª ØºÙĬ
ĠØ¯ ÙĬÙĦ
ĠØ§ÙĦØ± Ø§ØºØ¨ÙĬÙĨ
ĠØ¥ÙĦÙĬ ÙĥÙħ
Ø°Ùĥ Ø§Ø¡
ĠÙĦØŃ Ø³Ø§Ø¨
ÙĤØ· Ø§Øª
ĠØ³Øª Ø§Ø±
ÙĪÙĦ ÙħØ©
ĠÙĦÙħ Ø±ÙĥØ²
ØŃÙĤ Ø§Øª
ĠÙĬØ´ Ø§Ø¡
ĠØ§ÙĦØªØºÙĬÙĬØ± Ø§Øª
ĠÙħØªÙĥ Ø§ÙħÙĦ
Øª ÙĬØ±
ĠØ§ÙĦØ¨ÙĦ Ø§Øº
ĠØ§ÙĦØ§ÙĨ Ø¯Ø±ÙĪÙĬØ¯
ĠÙĦÙĤØ§Ø¡ Ø§Øª
ĠØ§ÙĦØº Ø§Ùħ
ĠØ§ÙĦØº ÙĨØ§Ø¡
Ø« Ø¨Ø§Øª
ĠØ§ÙĦØ£ Ø¬Ø²Ø§Ø¡
Ø¨ÙĬ ÙĩØ§
ĠØ§Ø¹ ØªØ±Ø§Ø¶
ĠØªØ¹ ÙĬØ¯
ĠØ§ÙĦØ¢ ØªÙĬ
ĠØ¥ÙĬØ¬ Ø§Ø¨ÙĬ
ĠØµØŃ Ùģ
ĠØ± Ø®ØµØ©
ĠØ§Ø± Ø¯
ĠÙĦØªØ´ ØºÙĬÙĦ
ĠØ§ÙĦÙĪØ± ÙĤØ©
Ø¬Ø¯ ÙĦ
ĠÙħØ§ÙĬ ÙĥÙĦ
ĠÙĦÙĦ Ø¹Ùħ
ĠØ¨Ø£ ÙģØ¶ÙĦ
ĠÙĥ Ø§ÙĦØªØ§ÙĦÙĬ
ĠØ¹Ø´ Ø§ÙĨ
Ùģ Ø¦Ø©
ÙģØ± ÙĬÙĨ
ĠÙĦ ÙĪØŃØ§Øª
ĠÙĩ ÙĬØ§
i le
ĠØ§ÙĦØªØ¹ÙĦÙĬÙħ Ø§Øª
ĠØ§ÙĦØªØ±Ùħ Ø°ÙĬ
ĠÙĤ ÙĪ
ĠØ§ÙĦØ£ Ø¬Ø±
Ø¯Ø§ ÙĬ
ĠÙĦØª Ø£
Ø£ ÙĦÙĥ
ĠÙĪÙĤ ÙģØ©
ĠØ¯ Ùī
ĠØ§ÙĦØ§Ø¨ ÙĨ
ĠÙħØ¹ Ø¨Ø±
ĠØ§ÙĦÙħØ¹ ÙĨÙĬ
ÙĥÙĦÙĬ Ø²ÙĬØ©
ĠÙĪØ§ÙĦ Ø¯Ø±
ĠØ± ÙĪÙī
ĠØªÙĨ Ø·ÙĦÙĤ
ĠØ¹ÙĨ ÙĬÙģØ©
Øº Ø¶
ĠÙģÙĦ Ø§Ø¯ÙĬÙħÙĬØ±
ÙĪÙĥ ÙĬØ§
ĠÙħ Ø¦Ø©
ĠØ§ÙĦÙĥ ÙħÙĬØ©
ĠØªÙħ Ø¯ÙĬØ¯
ĠÙĬÙĪÙģ ÙĨØªÙĪØ³
Ø¬ ÙĪØ§Ø¨
ĠÙĪØ§ÙĦ Ø±Ø¦ÙĬØ³
ĠÙĦ Ø§Øµ
ĠØ®Ø§Ø±Ø¬ ÙĬ
ĠØ§ÙĦÙĨØ¶ Ø§ÙĦ
ĠØ¨ ØŃÙĬ
ĠÙĪØ§ÙĦÙĨ ÙģØ³
ĠØ§ÙĦØª Ø±Ø¨Ø©
ĠØ± Ø²ÙĤ
ĠÙħØ´ Ø¯Ø¯Ø§
Ø¨ Ø¨
Ø£Ø³ Ø¹Ø§Ø±
ĠÙĦÙĦØª Ø¬Ø§Ø±Ø©
ĠØ± Ø§Ø¦Ø¯
ĠØ· Ø¹Ùħ
ĠÙħÙĩ ÙĨØ¯Ø³
ĠØ§ÙĦØªÙģ Ø§ØŃ
ĠÙĥÙĦ ÙĩÙħ
ĠØ§ ï»Łïº
ĠÙħØ² ÙĬØ¬
ĠÙĪØ£ ÙħÙĨ
ĠÙħØª ØµÙĦ
200 8
ĠÙĬØ® Ø§ÙĦÙģ
ĠÙħÙĨØ§Ùģ Ø³Ø©
Ùĥ ÙĦÙħØ§Øª
ĠÙħØµ Ø§ÙĨØ¹
ĠÙħ ÙĪØ¶ØŃ
ĠÙħÙģ Ø§ÙĩÙĬÙħ
ØµØŃ Ùĥ
ĠØ§ÙĦØ£Ø³ Ø§ÙĦÙĬØ¨
ĠØª ÙĪÙĦÙī
ĠØ§ÙĦÙħØ¹ÙĦ ÙĪÙħØ©
Ġ7 00
ĠØ¹ÙĤ Ø§Ø±
Ø´Ùģ Ø§Ø¡
ĠØ§ÙĦØ´Ø¹Ø± Ø§Ø¡
ĠÙĥÙĩØ±Ø¨ Ø§Ø¡
ĠØ¥ ØµØ§Ø¨Ø§Øª
ĠØ§ÙĦÙħÙģ ÙĬØ¯Ø©
ĠØªÙħ Ùĩ
ub e
Ø® Ø§Ø¨Ø§Øª
ĠØªØ£ Ø«Ø±
Ø£ ØŃØ¯
ĠÙĬØ² Ø¯Ø§Ø¯
Ø§Ø± Ø¦Ø©
ĠØ³ ØŃ
ĠÙħØ¹ ÙĤÙĪÙĦØ©
9 3
ĠØ§ÙĨ ØªÙħ
ĠØ§ÙĦÙģØ± Ø¹ÙĬØ©
ĠØ¯Ùħ Ø¬
ĠÙĥÙĨ ØªÙħ
ĠØ§ÙĨ ØªØŃ
ĠØ§ÙĦÙħØ¬ Ø§ÙĨÙĬ
Ø³ÙĬ ÙĪÙĬ
ĠØªØ³Ùħ Ø¹
ÙĤØ¯ Ø±Ø§Øª
ĠÙĥØ± Ùħ
ĠØ£Ùħ Ø§ÙĨØ©
ĠØ´Ùĩ Ø±Ø©
Ùģ ÙĬØ³Ø¨ÙĪÙĥ
ĠØ§ÙĦÙħ Ø£
ĠØ§ÙĦÙħ Ø¨Øª
ĠÙģ Ø§Ø¦ÙĤØ©
ĠÙĥ Ø§Ø¦ÙĨ
ĠØ³ ÙħØ§
ĠØ§ÙĦÙģØ¹ ÙĦÙĬ
Ø¹ÙĬ ÙĩØ§
ĠÙħØ¬ÙħÙĪØ¹ Ùĩ
8 2
ĠØ§Ø³Øª Ø·ÙĬØ¹
ÙĪØ¹ ÙĩØ§
ĠÙĦØŃ ÙĬÙĨ
ĠØ¨Ø´ Ø±ÙĥØ©
ĠÙĩ Ø§Ø´Ùħ
ĠÙĪ ÙģØ¶
ĠÙħÙħ ØªØ¹Ø©
ĠØ§ÙĦØ¹ Ø§Ø±
Ø§Ø¦ ÙģÙĬ
ĠØ¨ ÙĪÙħ
ĠÙĪØªØ´ Ø¬ÙĬØ¹
ĠØªØŃ ÙĤ
Ø§Ø³ ÙĬÙĥÙĬØ©
Ø³Ø§Ùħ ØŃ
ÙĬ Ø¹Ø¯
ĠØ£Ø¯ ÙĦØ©
ĠÙĬ ØŃØ¯
Ø¬ Ùī
ĠÙĦÙĦ ÙģØ±
ĠØªØ± ØªÙģØ¹
ĠØ§ÙĦØµ ÙĨØ¹
ĠØªØŃ Ø±ÙĬÙĥ
ĠØ® ÙĪØ¶
ÙĪØ« Ø©
ĠÙĪØ§ÙĦÙĨ ØµÙģ
o k
ĠÙĦØ£ ØµØŃØ§Ø¨
ĠØ¹ Ø°Ø§Ø¨
al ax
ĠÙĪØ§ÙĦÙĨ Ø´Ø±
ĠØ£Ø®Ø± Ø¬Ùĩ
ØªÙħ Ø©
ĠØ§ÙĦÙĪ Ø§Ø±Ø¯
ĠÙĪØª ÙĪØ¬ÙĬÙĩ
Ġ199 9
ĠØªÙħÙĬ ÙĬØ²
ĠØªØ± Ø³ÙĦ
ĠØ§ÙĦØ¨ ØªØ±
ĠØ§ÙĦÙħÙģ ÙĩÙĪÙħ
ĠØ§ÙĦØ³ ØªØ©
ĠØ§ÙĦØªØ¹ ÙĪÙĬØ¶
ĠØ§ÙĦÙĬ Ùĥ
ĠØ¨ÙĨ ÙĩØ§ÙĬØ©
ĠÙĬÙĨ Ø·Ø¨ÙĤ
. âĢ¬
ÙĪ ÙĩÙĦ
ĠØ§ÙĦÙĨÙģ ÙĪØ³
ĠÙĩ ÙĪÙĦÙĨØ¯Ø§
ĠØ§Ø³Øª ÙĤØ§ÙĦ
ĠØ¥ Ø³Ø·ÙĨØ¨ÙĪÙĦ
ĠØ³ÙĦ Ø¨ÙĬ
ĠØ§ÙĦÙģ ÙĦÙĥ
ĠÙħ Ø²Ø§ÙĬØ§
ĠØ§ÙĦØŃØ± Ø§Ùĥ
ĠÙĤ ÙĪØ§Ø¦Ùħ
ĠØ§ÙĦÙħÙĨØª Ø¬Ø©
Ø§ÙĦØ¹ Ø§ÙĦÙħ
ĠØ¨ ÙĤÙĪÙĦ
ØªØ¬ Ø§Ùĩ
alax y
ĠØŃØ§ÙĦ Ùĩ
ĠØ¨ÙĦ Ø³
ĠØ²ÙĪØ¬ ÙĬ
ĠÙħØ³ Ø§ØŃØ§Øª
ĠÙĪØ§ÙĦÙĤ Ø¶Ø§Ø¡
ïº ³
ĠØ§ÙĦÙħØ¤ ØªÙħØ±Ø§Øª
ĠØ§ÙĦÙģØ± ØŃ
ĠØ§ÙĦØ´Ùĩ Ø§Ø¯Ø§Øª
ĠØ¨Ø£ Ùħ
i x
ĠØ§ÙĦØ® ÙĬ
ĠØ£ Ø®Øª
ĠØ§ÙĦÙħ ÙĪØ¶Ø©
ĠÙĥ Ø¯
Ùģ ÙĦØ©
ĠØ§Ø´ ØªØ±Ø§Ùĥ
ÙĪÙĪ ÙĪ
Ø²ÙĦ Ø§Ø¡
ĠÙĦ Ø³ÙĨÙĪØ§Øª
Ġ ^
ĠØ§ÙĦØ¯ Ø¨
Ø§ÙĦÙģ Ø¹ÙĦ
ĠÙĨØ´ Ø£
ĠØ§Ø¬ØªÙħØ§Ø¹ Ø§
ĠØ² Ø¬Ø§Ø¬
ĠØ§ÙĦÙħØ³Ø± ØŃÙĬØ©
ĠØ§ÙĦØ§Ø³Øª Ø¹Ø§ÙĨØ©
ĠÙĪ ØŃÙĬ
ĠØ§ÙĦØ¬ ÙĪØ§Ø±
Ø§Ø¨ ØŃ
ĠØ¯ ÙĪØ§Ø¡
Ø§ÙĨ ÙĪÙĬØ©
ĠØ§ÙĦÙĤØ¶ Ø§Ø©
ĠØ§ÙĦØ§Ø¯ Ø§Ø±ÙĬØ©
ĠØ§ÙĦØ¶ ÙĪ
Ø¶Ùħ ÙĪÙĨ
ĠØ§ÙĦÙĥ ÙĪØ±ÙĬ
ĠÙĦÙĥÙĨ ÙĨØ§
ĠØªÙĨ Øµ
ĠÙĪØ¹ Ø´Ø±ÙĬÙĨ
ĠØ§ÙĨ ØªØµØ§Ø±
ĠÙĬÙħ ØªØ¯
Ø¬Ùĩ ÙĬØ²Ø§Øª
ØŃ Ø§ÙĦ
ĠØªÙĤ ÙĪØ¯
Ø£Ø³ Ø§Ø©
7 1
ØªØ¹ Ø§ÙħÙĦ
ĠÙĬØª ÙģÙĤ
ĠØ´ ÙĬÙĥ
Ø¦ Ø±Ø§ÙĨ
ĠØ§ÙĦØ§ÙĨ ÙĤØ³Ø§Ùħ
ĠÙĤÙĦÙĪØ¨ ÙĩÙħ
ĠÙĦØªØŃ ÙħÙĬÙĦ
ĠØ§ÙĦÙħØ² Ø¯
ĠÙĬØ¹ ØªØ±Ùģ
ï» ¢
ĠØŃÙħ Ø²Ø©
ĠØ§ÙĦÙħ Ø¦Ø§Øª
ĠÙĦØ§ ÙĬÙģ
ĠØ§ÙĦØªØµ Ø¯ÙĬ
Ø§Ø± ÙĨ
ĠÙĬØ¹ Ø¬Ø¨
ĠÙĨØ² ÙĦØª
ĠØ§ÙĦØ¬ ÙħØ§Ùĩ
ĠØ§ÙĦØ® Ø¨ÙĬ
ĠÙĦ Ø§Ø´
ĠÙħÙĥ Ø¹Ø¨
ĠØ§ÙĦØ´ Ø±ÙĬÙĥ
ĠØªØ´ ÙĥÙĬÙĦØ©
ĠÙħÙĪØ¯ ÙĬÙĦ
ĠØ³ÙĦØ¨ Ø§
Øª ÙĨØ§ÙĪÙĦ
ĠØ§ÙĦØ¶ ØŃÙĬØ©
ĠØ§ÙĦØŃ Ø§Ø±Ø³
ĠÙĥØ§Ùħ ÙĬØ±Ø§Øª
ĠØ§ÙĦØµÙģØ± Ø§Ø¡
Ġ www
A d
i es
ĠØ®Ø·Ø± Ø§
ÙĪØ® ÙĦØ§ÙĦ
Ø¯ Ø±Ùĥ
ĠÙĪÙĦÙĥ ÙĨÙĬ
ĠØ±Ø£ ÙĬÙĩ
ĠØªØ§Ø±ÙĬØ® ÙĩØ§
ĠØ´Ùĩ Ø±ÙĬ
ĠØ§ÙĦØªØ¬ Ø¯ÙĬØ¯
ĠØ§ÙĦÙģØ± ÙĨØ³
ĠØ§Ø« Ø§Ø«
ĠØ¨Øª ÙĨØ§ÙĪÙĦ
ĠÙħ Ø¶ÙĬ
ĠØ§Ø³Øª Ø¶Ø§ÙģØ©
ĠØ§ÙĦÙĥ Ø±Ø¨ÙĪÙĨ
ĠØªÙĤ ÙĪÙĬØ©
ĠØ§ÙĦØ¬Ø² Ø±
ĠÙĬÙģ ØªØ±Ø¶
ØªÙĬ Ø¨Ø©
ÙĪØ§ØŃ Ø¯
ĠØ§ÙĦØ¬Ø§ÙĨ Ø¨ÙĬØ©
ĠÙħ Ø§Ø¬Ø¯
Ġ, ,,
ĠÙĬÙĪÙħ ÙĬØ©
ĠØ¨Ø±Ùģ ÙĤØ©
Ø³Øª ÙĬÙĨ
ĠØ¨Ø§ÙĦØ£ ÙħØ±
ĠÙĪØ§ÙĦ Ø¬ÙĨ
ĠØ£Ùħ Ø§ÙĨ
Ø¨Øª Ø©
Ø§Ø¬ Ø§
ĠÙħÙĨ Ø¸Ø±
ĠÙħØ³Ø§Ø¹Ø¯ Ø§Øª
Ùħ ÙĪØ§
ĠØ§ÙĦÙĪØ¸ ÙĬÙģÙĬ
ĠØ§ÙĦØ§Ø´ØªØ±Ø§Ùĥ ÙĬ
ĠÙĦ ÙĪØ³
ĠÙĪ ÙĦØ¨ÙĨØ§ÙĨ
ĠÙĨ ÙĬØ©
ĠÙĪÙħ Ùĥ
ĠØ§ÙĦØ£Ùģ Ø±ÙĬÙĤÙĬ
ĠØ§ÙĦÙħ Ø®Ø·
7 3
Ø±Ø¯ Ø§Ø¯
Ø§Ø¬ Ø±Ø©
ĠÙħÙĪÙĨ Ø¯ÙĬØ§ÙĦ
ĠÙĤ ÙĪÙĬØ§
ĠØªØŃ ØµÙĬÙĦ
ĠØ§ÙĦØ¯Ùĩ ÙĨÙĬØ©
âĢª .âĢ¬âĢ¬
ĠÙĪ Ø®Ø±Ø¬
ĠØ´Ø± Ø§ÙĥØ©
ĠÙĪØ¬ Ø¨
ĠØ«ÙĤ ÙĬÙĦØ©
ĠØ§ÙĦÙģÙĬØ¯ÙĬÙĪ ÙĩØ§Øª
ĠØ®ÙĦÙĤ Ùĩ
ÙĩÙĦ Ø§Øª
ĠØ¹ÙĤØ¯ Øª
Ø§Ùĩ ÙħØ§
ĠÙĪØ§ÙĦØ« Ø§ÙĦØ«
ĠÙĪ ÙĪØ¬Ùĩ
ĠÙħØŃ Ø±ÙĥØ§Øª
ÙĪ Ø´Ø©
ÙĪØ· ÙĬÙĨ
ĠØ§ÙĦÙħÙĩ ÙĨØ©
ĠØ§ÙĦØ§ÙĨØ³ ØŃØ§Ø¨
ĠÙħ ÙĪØ±ÙĬØªØ§ÙĨÙĬØ§
ĠØªØ±Ùĥ ÙĬØ©
ĠÙĪØª Ø·ÙĪØ±
ĠÙĦÙĦÙħ Ø®
ĠØ§ÙĦØ£ ÙĬÙħÙĨ
ĠØ§ÙĦØ£Ø® Ø°
Ø§Ø³Ùħ ÙĬÙĨ
Ø® Ø§Ø¡
ĠØ¨Øª Ø¯
ĠØŃÙĦ ÙĪØ©
ĠÙĬØ± Ø³ÙĦ
Ø´ ÙģÙĬ
ĠØ§ÙĦØ¨Ø¹ Ø«Ø©
ĠØ¯Ùħ Ø§Ø¡
ĠÙĨ ÙĬØ¬
ĠØµ Ø§ÙĦØ©
ĠØ§ÙĦÙħØ¬ Ø¯
ĠØ§ÙĦÙħÙĨ Ø¯
ĠØ¹Ùħ Ø§Ø±
ĠØ§ÙĦØ® Ø³Ø§Ø±Ø©
7 2
ĠÙĦÙĦØ¥ Ø³ÙĦØ§Ùħ
ĠÙĪØ¹ Ø¨Ø±
ĠØ¯ÙĬÙĨ Ùĩ
ĠÙĬ ÙĪØŃ
ĠØ¥ ØªÙħØ§Ùħ
Ø±ÙĬ Ø¨Ùĩ
ĠØ®Ø§Øµ Ø§
r an
ĠÙĦÙĦØ£ÙĨ Ø¨Ø§Ø¡
ĠØ£Ø´ Ø¹Ø©
ĠØ§ÙĦØ³ Ø·
ĠØ¬ ÙĨÙĬÙĩØ§
ĠØ³ÙĪØ¯ Ø§Ø¡
ĠØ§ÙĦÙĥ Ø¨
ĠÙĦØµ ÙĨØ§Ø¹Ø©
ĠÙĤ Ø°
ĠØº ÙĨÙĬØ©
ÙĤØµ Ø§Ø¡
ĠØ§ÙĦÙĬÙħÙĨ Ùī
ĠØ£ Ø±Ø¬
ĠÙĪÙħØ± Ø§ÙĥØ²
ĠØªØŃØ¯ ÙĬØ§Øª
ĠØªØ¹ Ø¬Ø¨
ĠÙĥØ±Ø¨ ÙĦØ§Ø¡
ĠØ¨ Ø¹Ø¨
ĠÙĪØ¬ ÙĨÙĪØ¨
ĠØ§ÙĦØ¨ ÙĥØªÙĬØ±ÙĬØ§
ØªÙģ ÙĤ
ĠÙĦØ¥ÙĨ ÙĩØ§Ø¡
ĠØªØ³ ÙĩÙĬÙĦ
ĠØ§ÙĦØ¹ÙĤ ÙĬØ¯
Ġ5 2
ÙĤØ± Ø§Ø±Ø§Øª
Ø±Ùĥ ÙĬÙĨ
ĠÙģ Ø¨Ø¹Ø¯
ØµÙģ Ø©
ĠØ¥ Ø¬Ø§Ø²Ø©
ĠØ¶Ø± ÙĪØ±ÙĬØ©
Ø¬Ø± Øª
ÙĪØ³ ÙĬÙĨ
Ġ al
ĠÙĪØ§ÙĦØ¯ ÙĩØ§
ĠÙĬØ³ ÙĦÙħ
Ø¯Ø¯ ÙĬÙĨ
Øª Ø³Øª
ĠØ§ÙĨ ÙĤÙĦØ§Ø¨
ĠÙĬ Ø¶ÙĬÙģ
ĠØ« Ø§ÙĨÙĬØ§
E S
ĠØª ÙĩØ¯
Ø¨ Ùħ
ĠØ¨Ø§ÙĦ Ø¢
ĠØ§ÙĦÙĨÙĬ Ø§Ø¨ÙĬØ©
ĠÙĥØ±Ùĥ ÙĪÙĥ
ĠØ§ÙĦØ¯ÙĪÙĦ Ø§Ø±Ø§Øª
ĠØ¨ÙĬØ§ÙĨ Ø§
ĠØ§ÙĦÙĦ Ø§Ùħ
ĠØ§ÙĦØ³ ÙĪØ¨Ø±
ĠÙĩ Ø¯Ùħ
ĠØ§ÙĦÙħ Ø·ÙĦÙĤ
ÙĪÙĦ ÙĤØ¯
ĠØªØµ Ø¯ÙĤ
ĠØ¬ÙĨ ÙĪØ¨ÙĬ
Ø§Ø³Øª Ùĩ
ĠØ¨Ø§ÙĦ Ø§Ùħ
ĠØ¬Ø± Ø§ØŃØ©
ĠÙĬ ÙĪÙģÙĤ
ĠÙĦÙĦØªØŃ ÙħÙĬÙĦ
ĠÙĬÙĪÙħ ÙĨØ§
ĠØ£ ÙģØ¹Ø§ÙĦ
ĠØªÙĦÙĤ Øª
ĠØ§ÙĦØªØ¶ Ø®Ùħ
ĠØ§ÙĦØ² ÙĦ
Ø§Ø¯ ÙģØ©
Øª Ø¯Ø©
Ġ/ /
ĠÙĪØ§ÙĤ Ø¹Ø©
ĠÙħÙĨ ÙģØ°
Ø¨Ø§Ø± ÙĬØ³
ĠØ§ÙĦÙħØª Ø¶Ø±
ĠØ¨ØŃ Ø§ÙĦØ©
ÙĪÙĦØ§ ÙĬ
ĠÙħ Ø³ÙĦØŃØ©
ĠÙģØ´ ÙĦØª
ĠÙĪØ§ÙĦÙħ Ø§ÙĦÙĬØ©
ĠØ§ÙĦÙħ Ø±ÙĬØ®
Ø§ÙĦÙģ ØµÙĦ
ĠÙĬØªÙĨ Ø§Ø³Ø¨
ĠÙĤ ÙħØ±
Ġ199 8
ĠÙħ ÙħÙĦ
ĠR T
ĠØ§ÙĦØ±Ø¦ÙĬØ³ Ø©
ĠØ§ÙĦÙĩÙĬ ÙĥÙĦ
6 1
ĠØ§ÙĦÙħØ¨ Ø§ÙĦØº
ĠØ§ÙĦØ² ÙĩÙĪØ±
ĠØ§ÙĦÙħÙĪØ³ ÙĬÙĤÙĬØ©
ĠØ¨Ø§ÙĦ ØŃØ¨
Ġf or
ØªÙħ ÙĪÙĨ
ĠØ§ÙĦÙħ ÙĪØ¯
ĠØ¬Ø¹ÙĦ ÙĩØ§
ĠÙħ Ø§Ø¯ÙĬØ©
ĠØŃØµ ÙĬÙĦØ©
ĠØ§ÙĨØ¯ ÙĦØ§Ø¹
ĠØªÙħ Ø³Ùĥ
ÙĪØ§ÙĤ Ø¨
ĠØ¹ Ø³
Ùĥ Ùĩ
ĠØ§ÙĦØ§Ø³ Ø§Ø³ÙĬØ©
ĠÙĨØ² ÙĪÙĦ
ĠØ§ÙĦØ¹ Ø§Ø¬ÙĦ
ÙĢÙĢ Ùĩ
ĠØ·Ùģ ÙĦØ§
Ø³ ÙĤØ§Ø·
ĠÙĨ Ø§Ø±ÙĬØ©
ĠØ²Ø± Ø¹
ĠØ¹Ø±Ùģ Ø§Øª
Ø§Ø¬ Ø£
ĠØ¨Ø¯ ÙģØ¹
ĠØ§ÙĤ ÙĦÙĬÙħ
ĠØ¹Ø¯Ùħ Ùĩ
ĠØ³ ÙĪØ±
ĠØªØ³ Ø£ÙĦ
ÙģØ± Ø§ÙĨ
ĠØ´ ÙĩÙĪØ¯
ĠØª ÙĪØ¶Ø¹
ĠØ³ ÙĦÙĬÙħØ©
ĠØ§ÙĦÙħ ÙĬØ²Ø©
ĠØ¨Ø§ÙĦÙħ Ø¹Ø±ÙĪÙģ
ĠØ§ÙĦØ¹Ø±Ø¨ ÙĬÙĩ
ĠØ§ÙĦØµ ÙĪØªÙĬ
ĠØŃØ§Ùħ Ø¯
ĠØªÙĨ Ø¬ØŃ
ĠØªØ¤ ÙħÙĨ
ĠÙĦ ÙĬÙĩ
Ø¯Ø± Ø§ÙĦÙĬØ©
ĠØ§ÙĦÙħØ± ØµØ¯
ĠØª ÙĪØª
ÙĨ ÙĤÙĦ
ĠØ£ÙĪ Ø¬Ùĩ
ĠÙħØŃ Ø¨Ø©
ĠØª ØµÙģØŃ
ĠØ§ÙĦÙĦ Ø·ÙĬÙģ
ĠÙħÙĨ ØªØ®
ĠØ± Ø§ÙĬØª
ĠØ¨ ØµØŃ
ĠÙĦØŃ ÙģØ¸
ĠØ¨ØªØ´ ÙĥÙĬÙĦ
ĠÙĬÙĤØ¯Ùħ ÙĩØ§
. (
ĠÙĦÙĥÙĨ ÙĬ
ĠØ§Ø³Øª ÙĬØ±Ø§Ø¯
ĠØªÙĤ Ø±ÙĬØ¨
ĠÙĤÙĬÙħ ØªÙĩ
ï´ ¿
ĠØ§Øª Ùĩ
ÙĦ Ø¹Ø¨
ĠÙĨØ¸ ÙĬØ±
ĠØ§ÙĦØªØŃ Ø¶ÙĬØ±
ĠØ¹Ø± Ø§ÙĤ
ĠØ¯ÙĪÙĦ ÙĬØ§
ĠØ§ÙĦØ³ÙĦ Ø³ÙĦØ©
ĠÙĪÙĥ Ø§ÙĦØ§Øª
Ø´ ÙĪØ±
P h
ĠØ§ÙĦÙħØª ØµÙģØŃ
Ø¬Ø² Ø§Ùĥ
ĠÙĨÙĤ ÙĦØ§
ĠØ§ÙĦÙĦØŃ Ø¸Ø§Øª
Ø§Ø¨ ÙĬØ§
ĠØªØ¹ Ùħ
ÙħÙĨ ØŃ
ĠØ¹ ÙĦÙĬØ©
ĠÙĥ ÙĬØ³
ĠØµ ÙĬÙģ
Ø±ÙĬØ¬ ÙĬÙĨ
ĠØ¨ ÙĤØ§ÙĬØ§
ĠÙĪ ÙĤÙĬ
Ø§Ø±ÙĬ ÙĬÙĨ
3 00
ĠÙģ Ø§ÙĦØª
ĠØ¨ Ø§Ø´Ø§
ĠØ¹ÙĦÙħ Øª
ĠØ§ÙĦÙħØŃ ØªÙĦ
ĠØªØ³ Ø±Ø¨Ø§Øª
ĠØ§ÙĦÙĩ Ø§Ø¯ÙĬ
ĠÙĦØ£ ÙĨÙĬ
ĠØ§ÙĦØ¶ Ø®ÙħØ©
ĠÙĪÙĬ Ø£ØªÙĬ
ĠÙħØŃ Ø¶Ø±
ØªØ³ Ø§ÙħØ©
ĠØ§ÙĦØ§ØªØ¬Ø§Ùĩ Ø§Øª
ĠØ§Ø¹ ØªØ±Ùģ
Ø§Ùĩ ÙĦØ§
ĠØ§ÙĦ Ø§ÙģØ±
ĠØ§ÙĦÙħØ¤ÙĤØª Ø©
ĠÙĪÙĦ Øª
ĠÙĨØ¸ Ø§ÙģØ©
ĠØ§ÙĦÙħÙģØ± ÙĪØ¶
ĠÙĬØ¹ Ø²Ø²
ou s
ĠÙĪØ§Ø³Øª ÙĤØ±Ø§Ø±
ĠØ§ÙĦÙĨÙĪØ¹ ÙĬØ©
ĠØ¨ ÙĪÙĤÙģ
ĠØ³Ø± Ø¹Ø§ÙĨ
ĠØ§ÙĦÙħÙģ Ø§ØµÙĦ
ĠÙħØ³Øª ØŃ
ĠÙĪØ§ÙĦØª ÙĪØ§ØµÙĦ
ĠÙĪØ§ÙĦØ¹ Ø´Ø±ÙĪÙĨ
ĠÙĪ ÙĩØ§
ĠÙĦÙĤ ÙĪØ§Øª
ĠØ§ÙĦÙĥ ÙģØ±
ĠØ§ÙĦØ¶ Ø±ÙĬØ¨Ø©
ĠØ§ÙĦØª ÙĪÙĤÙĬØª
c o
ĠØ¨Ùĥ Ø§ÙħÙĦ
Ø´ ÙĥØ±
Ø´ ÙĪÙģ
ĠØ§ÙĦØ£ Ø¦ÙħØ©
ĠØ¹Ø§Ø¦ÙĦ ØªÙĩ
ĠØ§ÙĦØ¹Ùħ ÙĪÙħ
ĠØµ Ø±ÙĬØŃ
ÙĪÙģÙĬ ØªØ´
ÙĬÙĤ Ø§Øª
ĠØ§ÙĦØ³ Ø¹ÙĬ
ĠØ² ÙĬØ¯Ø§ÙĨ
ĠØ§ÙĦÙĦ ÙģØ¸
ĠØ¨ÙĨ Ùī
ÙĤØ§ÙĦ ÙĬÙħ
ĠÙĤÙĦÙĪØ¨ ÙĨØ§
ĠØ§ÙĨ Ø¶ÙħØ§Ùħ
ĠÙĬØªÙħ Ø«ÙĦ
ĠØ§ÙĦÙħØŃÙĦÙĬ ÙĬÙĨ
Ø§Ø¶ Ø±ÙĬÙĨ
ÙĪÙģ Ø§Ø¡
ÙĬØ¹ ÙħÙĦ
ĠÙĥ ÙĥÙĦ
ĠØ¨ÙĦ Ø¯ÙĬ
ÙģÙĨ Ø§Ø¯ÙĤ
ĠÙħØ± ØŃØ¨Ø§
ĠØ¹Ø²ÙĬØ² ÙĬ
ĠØ§ÙĦØ¯Ø³Øª ÙĪØ±ÙĬ
ÙħØ¯ ÙĬØ±
ÙĪØ§Ø¬ Ø¨Ø§Øª
ÙĥÙĬÙĨ Ø§Øª
ĠØ§ÙĦØ£Ø¯ Ø¨ÙĬ
ĠÙĪØ§ÙĦ ÙĩÙĬ
ĠÛ ĸ
ĠÙĦØª ØµÙĦ
ĠÙĦØ£ÙĨ ÙĨÙĬ
ÙĤØ§Ø· Ø¹
ĠØ§ÙĦÙĥ Ø³
ÙħÙĦ Ø£
ĠØ¯ÙĪ Ø§Ø¦Ø±
ØªØ± Ø§ÙħØ¨
ĠÙĪØ§ÙĦ ÙģØ¶
ĠØ¬ÙĦ Ø¯
ĠÙĬ Ø±Ø¨Ø·
201 9
ĠØ§ÙĦØ¨ Ø¹ÙĬØ¯
ĠØ¨ØªØŃ ÙĤÙĬÙĤ
ĠÙĪÙĥØ£ÙĨ ÙĩØ§
ĠØ§ÙĦÙħÙĩ ÙĨØ¯Ø³ÙĬÙĨ
ĠÙĤØ± Ùī
ĠØ§ÙĦØ§ØªÙĩ Ø§ÙħØ§Øª
ĠØ§ÙĦÙħÙĤ Ø§ÙĪÙħ
ĠÙĬÙĨØª ÙĤÙĦ
ĠØ¨Ø¯ Ø¹
ĠØ¨Ùħ ÙĥØ§ÙĨ
ĠØ§ÙĦØ¬ ÙĨÙĬÙĩ
Ø±ÙĬØ¨ Ø§Øª
ĠØ³Ø¨ Ø§ØŃØ©
Ø¬Ø² Ø§Øª
ĠØ³Ø§ÙĩÙħ Øª
Ø¶ Ø±Ø¨
ĠØ§ÙĦØ® ÙĨ
Ġ9 9
ĠØ§ÙĦØ¨Ø± ÙħØ¬Ø©
ĠØ¹Ø´ Ø§ÙĤ
ĠØ§ÙĦÙĤØ§Ø¨ Ø¶Ø©
Ùħ ÙĪØ³
ĠØªØ·Ø¨ÙĬÙĤ ÙĩØ§
Ġ e
ĠØ§ÙĦÙħØ« Ø§ÙĦÙĬ
ÙĪØµ ÙĬÙĦ
ĠØ§ÙĦØº Ø§ÙĬØ©
ĠÙĦÙĦØ³ÙĦ Ø·Ø©
ØŃ Ø²
Ùģ Ø¬Ø§Ø±
ĠÙĬØ³ ÙĤØ·
ĠØ§Ø³Ùħ Ùĥ
ĠØ§ÙĦÙģ ÙĬØ¯Ø±
Ġ19 48
ĠØ¨Ø§ÙĦÙĨ ÙģØ³
ĠØ§ÙĦÙĤØµ ÙĪÙī
Ø´ ÙĥØ§ÙĦ
a il
ĠÙĨ Ø²Ø¹
ĠØ¨ Ø§Ø²
ĠÙĪÙĤ ÙĪØ©
ĠÙĪØ¹ ÙħØ±
ĠÙĪØ§ÙĦ Ø«ÙĦØ§Ø«
ĠÙħØ« Ø§ÙĦÙĬ
Ø¦ ÙĬÙĦ
ĠØ¨ Ø§Ø´
ĠØ± ÙĪØ³ÙĬØ©
Ø§Ùĥ Ø¨
ĠÙĪØ§ÙĤ Ø¹ÙĬØ©
ĠØ§ÙĦØ² ÙĨ
) (
ĠØ§ÙĦÙħ ÙĪÙĦØ¯
ĠØª Ø§Ø¨
ĠØ§ÙĨØª Ø¸Ø±
ĠÙĪØ§ÙĦÙħØ± Ø£Ø©
ÙĪØ² Ø§ÙĨ
Ø§ÙĦØ¬ ÙĬØ´
ĠØªØŃ Ø§ÙģØ¸
ĠÙĪ Ø¹ÙĦØ§Ø¬
ĠØ¹ Ùĥ
ĠØ§ÙĦØ¬ Ø°
ĠØ¨Ø± ÙĪÙĥ
ĠØªØ³Øª Ø¹Ø¯
ĠØ§ÙĦØ·Ùģ ÙĦØ©
ĠÙĦ Ø¬ÙĩØ§Ø²
Ø§ÙħØ¨ ÙĪ
ĠØ§ÙĦØ£Ø«Ø± ÙĬØ©
Ø§ØŃ Ø¨Ø©
ÙĪØ§ÙĦ Ø¨
ĠØ® ÙģÙĬÙģ
ĠÙĥ Ø°
ÙĪØª ÙĩÙħ
ĠØ¨Ø§ÙĦÙħ Ø¤
ÙĦÙĬ Ø§ÙĨ
Ø§ÙĤ Ø¨ÙĬÙĨ
Ø§ÙĦÙħ Ø´
Ø§ÙĦÙĤ Ø§ÙĩØ±Ø©
ĠØ§ÙĦØ§ÙħÙĬØ± ÙĥÙĬØ©
ex t
ĠÙħØ´ Ø§Ø¨ÙĩØ©
ĠÙĨ ÙĤØ·
ĠØ§ÙĦØ¨ Ø±Ø¬
ĠØ§ÙĦØ¢ ØªÙĬØ©
ĠØ§ÙĦÙħØµ Ø§Ø±Ùģ
ĠÙģÙħ Ø§Ø°Ø§
ĠØ§ÙĦØ± Ø§Ø¦Ø¯
Ùĥ ÙĦÙħØ©
ĠØ§ÙĦÙħ Ø²Ø§ÙĬØ§
7 9
ĠØª Ø¹ÙĦÙĤ
ĠØ¨Ø§ÙĦØ· Ø±ÙĬÙĤØ©
Ġ9 5
ĠØ¹ÙĨ Ùģ
Ø¯ Ø¹Ùī
ØµØ± Ø§ØŃØ©
ĠÙĥ ÙĪÙĥ
ĠØ§ÙĦÙħ ÙħÙĦ
Ø¶ÙĬ ÙĪÙģ
ĠÙĨ Ø¬ÙĦ
ĠÙħØ§Ø² Ø§ÙĦØª
ĠØ£Ø¹ ÙĬÙĨ
ĠØ§ÙĦØ±Ùĥ Ø§Ø¨
ĠØ§ÙĦØªÙĪ Ø¨Ø©
Ø§Ø¨ ØªÙĩ
ĠÙĤØ± Øµ
Ùħ ÙħØ§
ĠØ¹Ø§Ùħ ÙĬ
ĠØ§ÙĦØŃ Ø§Ø¯ÙĬØ©
ĠØªØ¯ Ø±ÙĬØ³
ĠØµ Ø§Ùħ
ĠÙĥØ§Ø± Ø«Ø©
Ø§Ø³ Ø·
ĠØ£ØµØŃØ§Ø¨ Ùĩ
ĠØ§ÙĦØ¹ÙĤ Ø§Ø¨
ĠØ§ÙĦØªÙĨØ¸ÙĬÙħ ÙĬØ©
Ø§ÙĤØ´ Ø§Øª
ĠØ£ØŃ Ø²Ø§Ø¨
Ø´ Ø§Øª
ĠØ§ÙĦØ¹Ùħ ÙĬÙĤ
ĠØªØªØŃ Ø±Ùĥ
ĠÙĤØ¨ÙĦ Ùĩ
ĠØ§ÙĦØ£ Ø¨Ø±
ØµÙģ ØŃØ§Øª
ĠØ§ÙĦØ¥ØŃ Ø³Ø§Ø³
ĠØ£Ø± ÙĪØ§ØŃ
ĠØ§ÙĦØµ Ø§Ø¯Ø±Ø§Øª
Øº Ø§Øª
ĠØ§ÙĦÙĨ Ø¸Ùħ
ĠÙħØ³Ø±ØŃ ÙĬØ©
ĠØ® Ø§ÙĦØµ
ĠØ§ÙĦØªØ³ ÙĦÙĬÙħ
ĠÙĬØ¬ ØªÙħØ¹
ĠØ§ÙĦØªØµ Ø¹ÙĬØ¯
ĠÙĦÙĦ ØªÙħ
ĠØ§ÙĦØªØ± Ø§Ø¬Ø¹
ĠØ§ÙĦØª ÙĤØ¯
Ø¥ Ø¯Ø§Ø±Ø©
ĠÙĬ Ø®Ø·
ÙĥØ± Øª
ØªØ¨Ø§Ø± Ø§Øª
ĠØ¨Ø¹ ÙĨØ§ÙĬØ©
ĠÙĦÙĨ Ø§Ø¯ÙĬ
ĠÙĪØ§ÙĦØ§ÙĤ ØªØµØ§Ø¯
ĠØ¥ Ø¬Ùħ
ĠÙħ Ø§Ø¬Ø³ØªÙĬØ±
Ø¶ Ø§Ø±Ø©
ĠØ§ÙĦØ£ ÙģØ¹Ø§ÙĦ
ĠÙĦÙĦ Ø§Ø¬Ø¦ÙĬÙĨ
ĠØ¹ Ø§Ø±Ùģ
ĠØ§ÙĦØ§ÙħÙĬØ± ÙĥÙĬ
ĠÙģ ØµÙĪÙĦ
ĠØ§ÙĦÙħØŃ ÙĤÙĤ
ĠÙĦÙĦØª Ø´
ĠÙħØŃ ÙĦÙĬ
ĠØ§ÙĦØ¥ÙĨ ÙģØ§ÙĤ
Ø¯ ÙĪØ§
ĠØ¨ Ø«ÙĦØ§Ø«Ø©
ÙĪÙĨ ÙĩÙħ
ĠØ§ÙĦØªÙģ ØªÙĬØ´
ĠÙĬÙĨ Ø²ÙĦ
ĠÙĪØ§ÙĦØ£ Ø¹ÙħØ§ÙĦ
ĠØ¨ÙĦØ§ ÙĬ
ĠØ§ÙĦØª ÙĩÙħ
ĠÙģ ÙĪØ¬Ø¯
Ø³ÙĦ ÙĬÙĨ
ĠÙĦÙĥ Ø£Ø³
ĠØ§ÙĦØ§ØŃ ØªØ±Ø§Ùħ
ĠØ§ÙĦØµ Ø¹ÙĪØ¨Ø§Øª
ĠØ§ÙĦØ· Ø§ÙĪÙĦØ©
ĠØ§ÙĦÙĪ ÙĬÙĨØ¯ÙĪØ²
ĠØ¢ Øª
ĠØŃ Ø²ÙħØ©
Ġ5 8
ĠØ¥ Ø¬Ø±
Ø¹Øª ÙĬÙĨ
ĠÙĦ Ø·ÙĦØ¨
ĠØ§ÙĦÙģ ÙĪØ±ÙĬ
ĠØ§ÙĦØ² ÙģØ§Ùģ
Ùģ Ø¹ÙĦ
p r
ĠØŃ Ø§ÙĨ
ĠÙĥÙĦ ÙĨØ§
ĠØ§ÙĦØ³ ØŃØ¨
ĠÙĥØ§ÙĨ Ø§
ĠØ§ÙĤ ÙĪÙī
ĠØ§ÙĦØ§Ø¬ØªÙħØ§Ø¹ Ø§Øª
ÙĪÙĤ ÙĦ
ĠÙħÙĤ Ø¨ÙĪÙĦ
ĠÙĪØ´ Ø±ÙĥØ©
ĠÙĪØª Ø¨Ø§Ø¯ÙĦ
ri p
= =
Ø¯ÙĬ Ø§Ø¯
Ø¬Ø¯ ÙĪÙĦ
Ø§ØµÙĦ Ø§Øª
ĠØ§ÙĦØªÙĤ Ø§Ø¹Ø¯
ĠÙħØª ÙĦ
Ø§Ø¶ ÙĦØ©
ĠÙĦØ§Ùģ Øª
ĠØ§ÙĦÙĦ Ø¨
Ø§ÙĨ Ø¯Ø©
ĠÙĬ Ø¯Ø±Ø³
ĠÙĪØ§ÙĦ ÙĬÙħÙĨ
ĠØ§ÙĦØ§ÙĤØªØ± Ø§Ø¹
ĠØªÙĪÙĤ ÙĬÙģ
ĠØ§ÙĦØ¥ Ø¬ÙħØ§ÙĦÙĬ
ĠÙĪØ¬ ÙĪØ¨
ĠØ£Ø¨ Ø¹Ø§Ø¯
Ø¯ Ø§Øª
ĠØ¥ ØŃØ¯
ĠÙĦÙĦÙħ Ùĩ
ĠØ§ÙĦÙĨØ§Ùģ Ø°Ø©
Ø¦ ØªÙĩ
ĠØ§ÙĦÙħØ® ÙĬÙħ
ĠÙĪØªØ´ ØºÙĬÙĦ
Ø§Ùģ Ø³Ø©
ĠØµ ÙĬØ§Ùħ
ĠØ§ÙĦØ§Ø³Øª Ø¦ÙĨØ§Ùģ
ĠØ§ÙĦØ¥ÙĨ ÙĤØ§Ø°
Ø¹Øª Ø¨Ø§Ø±
Ø§Ø¯ ÙĪ
Ùģ ÙĦØ§Ùħ
ĠØ¨ Ø³Ø¨
ï» °
ĠØªØ¨ Ø¹Ø¯
Ø²Ø§ ÙĬØ¯Ø©
ĠØ§Ø´ ØªØ¨Ø§ÙĥØ§Øª
ÙĪÙģ Ø§ÙĨ
ĠØ§ÙĦÙĤØµ ÙĬØ±
ĠØ³Ùħ Ø§ØŃØ©
ĠÙħØ§ ÙĩÙĬ
ĠØ¹Ø§Ø´ ÙĪØ±
ĠØ§ÙĦÙħÙĨ Ø¸Ùħ
Ø¹ÙħÙĦ ÙĬØ©
ĠØ¬ ÙĪØ§Ø±
ĠÙĪØª Ø·
Ø¨ÙĬ ØŃØ©
ĠØ¨ Ø¯ÙĬ
ĠØ§ÙĦÙĥ ÙĦÙĬØ§Øª
ĠØ£Ø¯ Ø±ÙĬ
ĠØ·Ø§ÙĦØ¨ Ø§
Ø§Øµ ÙĬØ±
Ø¥ Ø°ÙĨ
ĠØ§ÙĦØŃ Ø§Ø¦Ø·
ĠØ§Ø¨ Ø·Ø§ÙĦ
ĠØ§ÙĦØ«Ø§Ø¨Øª Ø©
Ø±ÙĬ ÙģÙĬ
ĠÙĪØª ÙĨØ§ÙĪÙĦ
ĠØ§ÙĦÙħÙĤ ÙĬÙħÙĬÙĨ
ØµØ¯ ÙĬØ±
Ø§ÙĦ ÙĪØ·ÙĨ
ØªØ³ Ø§Ø¨
ĠÙħØª ÙģØ±ÙĤØ©
ĠÙħØ³Ø¤ÙĪÙĦ ÙĪÙĨ
ĠØ§ÙĦØ± ÙĤØ©
ĠØ§ÙĦÙĨ ÙĬØ±Ø§ÙĨ
ĠØ¨ ÙĥÙĪÙĨ
Ø§Ø¤ ÙĩÙħ
ĠØµØ¯ÙĬ ÙĤÙĬ
ÙĤØª Ø§ÙĦ
ĠØŃ Ø´Ø±Ø§Øª
ĠÙĦÙħ Ø¬Ø±Ø¯
ĠØªÙĨØª Ø´Ø±
ĠØ§ÙĦØ¥ Ø¹Ø¯Ø§Ø¯
ĠØ§ÙĦØ£ÙĤ Ø³Ø§Ùħ
ĠØ§ÙĦÙħÙĤ Ø§Ø·Ø¹Ø©
ĠØ§ÙĦÙħØª Ø§Ø¨Ø¹
ĠØª Ø§ÙħØ©
ĠØ³ ØªÙģ
ĠØ§ÙĦÙĥ Ø§Ø«
ĠÙĪØ§ÙĦØ£ Ø·ÙģØ§ÙĦ
ĠØ§ÙĦÙħØ¨ ÙĥØ±Ø©
ÙħÙĦ ÙĩØ§
Ø§ÙĦØ¨ ÙĤØ±Ø©
ĠØ§Ø³ Ø¨
Ùģ ÙĦÙĬ
ĠØ£Ø³ ÙĨØ§ÙĨ
ĠÙĦÙĦØª Ø±Ø¨ÙĬØ©
ÙģØ¹ Ø§ÙĦÙĬØ§Øª
Ø§Ø¦ ÙĥÙħ
ĠÙħÙģØ§Ø¬ Ø£Ø©
ĠØµ Ø¹ÙĪØ¨Ø§Øª
ÙĨÙĬ ÙģØ©
ĠØª Ø§ÙħØ±
ĠØ¨Ø§ÙĦØ¹ Ø±Ø¨ÙĬØ©
ĠØªØ¹ Ø§Ø¯ÙĦ
ĠØ£Ø¹ Ø±Ø¨
ĠÙħØ± Ø§Ø±Ø§
ĠØ§ÙĦÙħØª Ø£
ĠÙĦÙĦÙħÙĨ ØªØ¯Ùī
ĠØ§ÙĦØªÙĨØ¸ÙĬÙħ Ø§Øª
ĠÙĪÙĦ Ø§Ø¯Ø©
ÙĬØª Ø§Ùħ
ÙĪØ±ÙĬ Ø³
ÙĦÙĬ ÙĥÙħ
ĠØ§Ø´ Ø®Ø§Øµ
ĠÙĦ ÙĤØ·Ø§Ø¹
ĠØªØµ Ø§Ø¹Ø¯
ĠØ§ÙĦØ³ÙĦÙħ ÙĬØ©
ĠÙĪÙĨ ØŃÙĪ
Ø±ÙĬ ÙĥØ©
ĠÙĬ Ø¨ÙĤ
ĠØ§ÙĦØ§Ø³Øª Ø±
ĠÙħØ³ Ø§ÙĩÙħØ©
ĠØ§ÙĦØ´ ØºÙĦ
ÙģØ±Ø¯ Ø§Øª
ĠØ¹Ø§Øª ÙĤ
ĠØ§ÙĦØ¥ Ø¹Ø¯Ø§Ùħ
ĠÙĪÙĤØ¯ Ø±
ĠØ§ÙĦØ± ÙħÙĦ
ĠØ³ÙĤØ· Øª
Ø³Øª ÙĪÙĨ
ĠØªØ± Ø§Ø«
ĠØ¨ Ø§Ø±Ø¯
ĠØ§ÙĦÙģ Ø§Ø¶ÙĦ
ĠÙĬØ¹ ÙĦÙħÙĪÙĨ
ĠØ¬ÙĬØ± ÙħØ§ÙĨ
ĠÙĪØ§ÙĦ Ø³Ø±
ï» Ķ
ØŃØ± Ø§Ø±
Ø§ÙĦ ØªØµ
Ùį .
ĠÙĤØª ÙĬÙĦØ§
ĠØ§ÙĦØª ÙĪØ²ÙĬØ¹
ÙģØ§ÙĤ ÙĬØ©
ĠÙĪÙģ Ø±Ø¶
ÙħÙĬ Øµ
ĠØŃ ÙĤÙĬØ¨Ø©
ĠØ§ÙĦÙħØ´Ø± ÙĪØ¹Ø©
ĠÙĪØŃ ÙĥÙħ
ÙĪØ· Ø§ÙĦØ¨
Ø§ØªØ¨ Ø§Ø¹
Ġ18 0
ÙĬÙħ Ø±
ĠÙĬ Ø¶Ø§Ùģ
ĠØ² ÙĩØ±Ø©
ĠÙħØ¹ÙĦ ÙĪÙħØ©
Ø±ØŃ ÙĦØ§Øª
ĠØ£Ùħ ÙĥÙĨ
ĠÙģ ØµØ§Ø¦ÙĦ
ĠØ§ÙĦØªÙĤ ÙĪÙĬÙħ
Ø§Ø³ Ø±
ĠØ¨ÙĨÙĬ Ø§ÙħÙĬÙĨ
ĠØ¨Ø§ÙĦ Ø¨ØŃØ«
ĠØ¥ Ùĥ
ĠØ³ ØªØµ
7 4
ĠÙĪÙĦÙĥÙĨ ÙĩÙħ
ĠÙ± ÙĦ
ĠØ§ÙĦÙħÙĪ ØŃØ¯
ĠØªÙħ Ø§Ø±ÙĬÙĨ
ĠÙĦÙĦÙģ ÙĪØ²
ĠÙħÙĪØ§Ø· ÙĨÙĬÙĨ
ĠÙĪØ§ØŃØ¯ Ùĩ
ĠØ§ÙĦÙħØµ Ø¯
ĠÙĪØ¨ ÙĥÙĦ
ÙĤ ÙĪØ³
ĠØ§ÙĦÙĨ Ø¬ÙħØ©
ĠØ§ÙĨØª Ø´Ø±Øª
ĠØªØ¹ Ø·ÙĬÙĦ
Ġi OS
ĠØ§ÙĦÙħÙĨ Ø·ÙĤ
ĠÙĪÙħ Ø¬ÙħÙĪØ¹Ø©
ĠÙģ ÙħØ«ÙĦØ§
ĠÙĪØ§ÙĦÙħ Øº
ĠØ§ÙĦØµÙĪÙħ Ø§ÙĦ
ĠØ§ÙĦØ§Ø³ Ø¨Ø§ÙĨÙĬ
ĠÙħØ´ ÙĬØ±
ĠÙĪØ³ Ø¬ÙĦ
ĠØ§ÙĦØ¥ Ø±Ø§Ø¯Ø©
ĠÙĦØ£ Ø¯Ø§Ø¡
ĠØª Ø¨ÙĬ
ĠÙĦ Ø®Ø·
m ed
ĠØ²ÙĬ Ø§Ø¯
ĠØ§ÙĦØ¯ ÙĬÙĪÙĨ
ĠØ§ÙĦÙħØ³ ØŃ
Ġhttp s
ĠØ°Ø§Øª ÙĬØ©
ĠÙĪÙħÙĨ Ùĩ
ĠØ· ÙĪØ±
ĠØ¹Ø§Ø¬ ÙĦØ©
ĠØ§ÙĦØ¨ ÙĨØ¯
ĠÙĪØª ÙĤØ¯ÙĬØ±
Ø§ÙħØ± Ø£Ø©
ÙĥØ± ÙĬÙĨ
ĠÙĪØ¶ Ø¹ÙĬØ©
ÙĬØª Ø´
ĠØ¹ Ø¨Ø§Ø±Ø§Øª
ÙĩØ±Ø¬ Ø§ÙĨØ§Øª
ĠØ§ÙĦØŃ ÙĦÙģ
ĠØ§ÙĦØ¯ ÙĬÙĪØ§ÙĨ
Ø¤ÙĪÙĦ ÙĬÙĨ
Ø§Ø¨ Ø®
Ùĥ Ø±ÙĬÙħ
ĠÙĪØ§ÙĦÙħ Ø¹Ø§Ø¯ÙĨ
ØªØ± Ø§Ø¶ÙĬØ©
ĠÙħØª Ø¯
ĠØ¨ØªØŃ ÙħÙĬÙĦ
ĠØ¨Ø§ÙĦ ØŃÙĬØ§Ø©
ĠÙħØŃ Ø§ÙĪØ±
ĠØ£Ø¬ÙħØ¹ ÙĬÙĨ
ĠØ¨Ø£ ÙĩÙħÙĬØ©
ĠÙħØ³ Ø¤ÙĪÙĦØ©
ĠÙĪ Ø´Ø§Ø±Ùĥ
ĠØ§ÙĦØªØ±Ùĥ ÙĬØ¨
Ø§ØŃ ÙĨ
ĠØ§ÙĦØ¥ ÙĦ
ÙĤØª ÙĬÙĨ
Ġ199 0
ĠØ¨Ø§Ø± Ø²
ĠØ§ÙĦÙħ ÙĨØ§
ÙĪÙĨ ÙĬØ§Øª
ĠÙĪØ§Ø® ØªÙĬØ§Ø±
ĠÙħØ± Ø§ÙĤØ¨
ĠØ§ÙĦÙħÙħ Ø«ÙĦØ©
ĠØ§ÙĦØ£ ÙĪØ§ÙħØ±
ĠØµ ÙĬÙĨÙĬØ©
ĠÙĬÙģ ÙĪØ²
ĠÙĥ Ø¯Ùĩ
ĠØ§ÙĦØ¶ Ø¨Ø§Ø·
ĠØ§ÙĦÙħØ¹ Ø§ÙĨÙĬ
ĠÙĬØªØŃ Ø±Ùĥ
Ø£ ÙħØ±
Ø¯Ø§ Ùĥ
ĠØ§ÙĦÙħÙĥØª ÙĪØ¨Ø©
ĠØ§ÙĦØ£ Ø¹Ø¯Ø§Ø¡
Ùģ ÙĤØ·
ĠØ¨Ø· ÙĨ
ĠÙģ ÙĪØ±ÙĬ
ĠØ·ÙĨ Ø¬Ø©
ĠÙĪØ§ÙĦ Ø³Ø¨Ø¨
ÙĦÙĤ Ùĩ
ĠØ§ÙĦÙħÙĨ ØµØ¨
ĠÙĪØ§ÙĦØŃ ÙĥÙĪÙħØ©
ĠØ· Ø§Ø¦Ø±
ĠØ§ÙĦÙģØ¹ Ø§ÙĦØ©
ĠÙĦÙĦ Ø¯Ùħ
ĠÙĪÙĤ Ø§ÙħØª
ĠÙħØ³ ÙĤØ·
ĠÙĤÙĦ ÙĨØ§
ĠÙħÙĥØ§ÙĨ ÙĩØ§
ĠØ§ÙĦØ¹ Ø§Ø¬
ĠÙĦÙĦÙĨ ÙģØ·
ÙĤ Ø§ÙĨÙĪÙĨ
ĠÙĪÙĤ ÙĪØ§Øª
ÙĦÙĬÙģØ²ÙĬ ÙĪÙĨ
ĠØ§ÙĦÙĩ ÙĪØ§Ø¦ÙĬØ©
ÙĨÙģ Ø°
ĠØ§ÙĦØ« ÙĪÙħ
g e
Ùĭ ,
ĠØ³ÙĦ Ø·
ĠØŃ Ø§ÙģÙĦØ©
ĠÙĩØ±Ùħ ÙĪÙĨ
ĠØ§ÙĦØ§ØŃØªÙĬ Ø§Ø·ÙĬ
ĠØ¹ÙħÙĦ Ø©
Ø´ Ùħ
ĠÙĬÙĥ ÙħÙĨ
ÙĪØ· ÙĨÙĬØ©
ĠØ§ÙĦØªØ³ ÙĪÙĬØ©
Ø§Øµ Ø¯
ĠÙĪ Ø®ÙĦÙĤ
Ø§Ø§ Ø§
ĠÙĪØ§ÙĦØ§Ø³Øª Ø«ÙħØ§Ø±
ÙĬÙĨ Ø¬
ĠØ± Ø¶Ùī
ĠØ§ÙĦØ¬ Ø§ÙĦÙĬØ©
Ø¹ Ø¨ÙĬ
ÙĢ Ø³
ĠØ¨Ø´Ø± Ø§Ø¡
ĠØŃ Ø§Ø¯Ø©
ĠØ· ÙĦØ§ÙĦ
ĠÙĪØ§ÙĦÙħ Ùħ
ĠØ§ØŃ ØªÙĦ
ĠØ§Ø³Øª Ø§Ø°
Ø§ÙĦØ¹ Ø±Ø¨ÙĬØ©
ĠØ¬ ÙĪÙĩ
ĠØ§ÙĦØ³Ø¨ ÙĬÙĦ
ĠØ£Øµ Ø§Ø¨Ø¹
ĠØ§ÙĦÙĦÙĬ Ø¨Ø±
ĠØ§ÙĦØ£ÙĪ ÙĥØ±
ĠÙĪÙħ ÙĤ
Ġ5 6
ĠØ§ÙĦÙħØ±Ùĥ Ø¨Ø©
ĠØ§ÙĦØ¸ ÙĨ
ĠØ§ÙĦØ¥ÙĨØªØ§Ø¬ ÙĬØ©
ĠÙħØ± Ø§ÙĥØ´
ĠØª Ø¨Øª
u st
ÙĪØ§Ø´ ÙĨØ·ÙĨ
Ø¬ÙĦ Ø³Ø©
ĠØ¨Øª Ø·ÙĪÙĬØ±
ĠØ§ÙĦÙħØ³ Ø¬ÙĦ
ĠØ§ÙĦØªØ´ Ø±ÙĬØ¹
ĠØ¨Ø¥ Ø¶Ø§ÙģØ©
ĠØ¯Ø±Ø§Ø³Øª Ùĩ
ÙĪØ§Ø² ÙĨØ©
Ø¢ Ø¡
ĠØ¹ Ø§Ø¯Ø§Øª
Ø§Ø± Ø¹Ø©
ĠÙĨ ÙĨØ³Ùī
ĠØª Ø¯Ø±Ø³
Ù ĵ
Ùĩ ÙĬØ©
ĠØ§ÙĦÙħÙĦÙĥ Ø©
ĠÙĪØ¥ Ø³Ø±Ø§Ø¦ÙĬÙĦ
ĠØ£Ùģ Ø§Ø¯Øª
** *
O R
ĠÙĬ Ø°
ĠØ¹ÙĪØ¯ ØªÙĩ
ĠÙĦØ¯ ÙĪØ±
ĠØ¨Ùħ Ø¤
ĠØ§ÙĦØ§ÙĨÙģ Ø¬Ø§Ø±
ĠÙĪØ§ÙĦØ§Øª ØµØ§ÙĦØ§Øª
ĠÙĦØª Ø³ÙĩÙĬÙĦ
ĠØ§ÙĦÙħØŃ ÙĦØ§Øª
ĠÙĦÙĦ ØºØ©
ĠØ± ÙĪØ§
ĠØ§ÙĦÙħØ³Øª ØŃÙĬÙĦ
ĠØ® Ø¯
ĠÙħ ÙĬØ³
Ø§Ø¹ÙĬÙĦ ÙĬØ©
ĠØ§ÙĦØ³Ø¹Ø± Ø§Øª
ĠØ§ÙĦÙħ Ø°ÙĩØ¨
Ø¬Ø± Ø§Øª
ĠØ§ÙĦÙħØ± Ø³ÙĪÙħ
ĠØ§ÙĦÙĩØ¯ ÙĪØ¡
ĠØ§ÙĦÙħØµ ÙĬØ±
ĠØªØ±Ùĥ Øª
ĠÙĦØ¯ Ø®ÙĪÙĦ
ĠÙĦØ§Ø® ØªÙĬØ§Ø±
ØŃÙĪ Ø§Ø°
ĠØ§ÙĦØ±ÙĬ Ø§ÙĦ
ĠØ§ÙĦÙĤØ± ÙĪØ¶
ĠÙĦÙĦ ØµØ¯
9 4
ĠÙĤ Ø§ØªÙĦ
9 1
ĠØªØªØ± Ø¯Ø¯
ĠØ§ÙĦØ¸ Ø§ÙĦÙħ
ĠÙĥ Ø«Ø±
ĠÙĪØ¨ ØŃØ³Ø¨
Ø¸ ÙĬÙħØ§
ĠØ§ÙĦØµ Ø§ÙĦØŃØ©
ĠØ¨ÙĬ ÙĪÙħ
u re
ĠØ§ÙĦØŃ Ø§Ø±Ø©
ĠÙĪØ§ÙĦ Ø§Ø¬
ĠØ§ÙĦÙħØ¨ Ø§Ø¯Ø±Ø§Øª
ĠØ¯ÙģØ¹ Øª
ÙĬÙģ Ø±
ĠØ§ÙĦÙĩ ÙĬØ¯Ø±
ĠØ¬Ø§ÙĨØ¨ ÙĩØ§
ĠØ§ØŃØªØ¬Ø§Ø¬ Ø§
Ø£ ÙĩÙħ
ĠØ£ÙĪÙĦ ÙĬØ§Ø¡
Ġ5 4
Ø§Ø« ÙĬÙħ
ĠÙĪØ¬Ø¯ ÙĨØ§
ĠØ§ÙĦØ³ Ø§Ø¯Ø©
ĠØ³ ØªØ¨
ĠÙĦÙĦ Ø¹Ø±Ø§ÙĤ
ig ht
Ø§ÙĦÙħ ÙĦÙĥ
ĠÙĬØ± ØªÙģØ¹
ĠÙĪØµÙģ Ø©
ĠÙĥ ÙĪØ§ÙĦ
Ø¹ Ø§Ø©
Ùħ Ø³Ø©
ĠØº ÙĪØºÙĦ
ĠØªØ³Øª Ø¹ÙħÙĦ
ĠØ§ÙĦØ±Ùĥ ÙĨ
Ø´Ø± Ø¹
Øª Ø£
ĠØ§ÙĦØ£Øº ÙĦØ¨ÙĬØ©
ĠØ§ÙĦÙĨØµ Ø±Ø©
ĠÙĦØªØŃ ÙĪÙĬÙĦ
ĠØ¯ ÙĬÙĨÙĬ
ĠØªÙħÙĩ ÙĬØ¯Ø§
ĠÙģ ÙĢÙĬ
ĠØ§ÙĦØ£ Ø¬ÙĦ
ĠØ§Ø³Øª Ø¦
ĠÙĨØ§Ùĩ ÙĬÙĥ
ĠØ§ÙĦØ¬ØºØ± Ø§ÙģÙĬØ©
ĠØªØŃ Ø¸Ùī
ĠØ£ ÙĥØªØ¨
ĠÙĬÙĨ ÙģØ°
ĠÙħØ¹ Ùħ
ĠØ§ÙĦÙģ Ø§ÙĥÙĩØ©
ĠØ§ÙĦØ£Ø´ Ø¹Ø©
ĠÙĪØª ØŃØ¯Ø«
ĠØ¨Øª Ø®
ĠÙĦØªÙĨ ÙħÙĬØ©
Ġ5 1
ĠÙħØ³ Ø§Ø¦ÙĦ
ĠØ§ÙĦØ¥ ØªØµØ§ÙĦ
ĠÙĨØ¨ ÙĬÙĨØ§
s s
Ø²Ø¹ Ø¬
ÙĦØ§ ÙĪÙĬ
ĠÙĦØµ Ø§ØŃØ¨
ĠØ²ÙĪØ¬ Ùĥ
ĠØ±Ø¨ Ùĥ
ĠÙħØ± ØŃ
ĠØ± Ø¢
ĠØ¨Ø´Ø± ØªÙĥ
i an
ĠØ¬Ø³Ùħ Ùĥ
ĠÙĦ Ø«
ĠØ§ÙĦØ¨ÙĬ Ø¦ÙĬ
ĠØ³ Ø¯Ø§Ø¯
ĠÙĪØ§ÙĦ Ø¹ÙĦØ§Ø¬
ĠÙĪØ§ÙĦÙħ Ø§Ø¡
ĠÙĪØ§ÙĦÙģ ÙĥØ±
ÙĦ ÙħØ§
ĠØªØ± Ø¬Ø¹
8 3
Ø³Øª ÙĬ
Ø§Ùģ ÙĦØ§Øª
ĠØ§ÙĦØ®Øµ Ùħ
ĠØ§ÙĦØ£ÙħØ±ÙĬÙĥÙĬ ÙĬÙĨ
ĠØªÙĨ Ø´ÙĬØ·
ĠØ§ÙĦØ²ÙħÙĨ ÙĬØ©
ĠÙĪ Ø·ÙĦ
ĠÙĦÙĦØŃ Ø±ÙĥØ©
ĠØ¨Øº ÙĬØ©
ĠØ§Øª Ø¨Ø¹
ÙĪÙĥ ÙħØ§
ĠØ§ÙĦØ¥ Ø¹Ø¯
ĠØ§ÙĦÙħØŃ ÙĪØ±
ĠØŃØ§Ø¬ Ø²
ĠD e
ĠÙģÙĦ Ø§ÙĨ
ĠØ®Ø² Ø§ÙĨØ§Øª
ĠØ§ÙĦØ¨ØŃ Ø§Ø±
ĠÙĪØ§ÙĦØ¥Ø³ÙĦØ§Ùħ ÙĬØ©
ĠÙĦÙĦØ³ÙĬ Ø§ØŃØ©
ĠÙħØª Ø¹Ø©
ĠØ§ÙĨ Ø¹ÙĤØ§Ø¯
ĠØ§ÙĦØ³Ø§Ø® ÙĨØ©
ĠÙĪØ§ÙĦØª Ø®
ĠØ¹Ø³ÙĥØ±ÙĬ Ø§
ĠØ§ÙĦØŃÙħÙĦ Ø§Øª
Ø§ÙĦ Ø§ØŃ
ĠÙĪØ§ÙĦÙħ ÙĤ
ĠÙĪØ¨ Ø·
ĠØ£Ø¹ Ø·Ùī
ĠØ§ÙĦØ§ØµØ·ÙĨ Ø§Ø¹ÙĬ
ĠÙħØª Ø¹ÙĦÙĤØ©
ĠØ± Ø§ØªØ¨
ĠÙĬÙĨ Ø´Ø±
m ent
ĠÙħ Ø¢
ĠØ¯ ÙĪØª
ĠM an
Ø§ØŃ Ùģ
ĠØ³ ÙĬØ±Ø§
ĠØ± ÙĪØ¨Ø±
ĠØ§ÙĦØªØ¨ Ø§Ø¯ÙĦ
ĠØ£ÙĬ ÙħÙĨ
ĠØ§ÙĦÙħØ¤ ÙĥØ¯
ĠÙĦÙĦØª Ø³
ĠØ§ÙĦØ¨ØŃ ÙĬØ±Ø©
ĠÙĨÙĩ ÙĬØ§ÙĨ
ĠÙĦ Ø§Øº
ĠÙĪØ£ Ø¨
ĠØ§ÙĦÙĪ Ø¸ÙĬÙģ
ĠÙĦÙĦØŃ ÙĪØ§Ø±
ĠØ§ÙĦØ´ÙĬØ¹ ÙĬ
ĠÙĪØ§ÙĦÙħÙĨ Ø§Ø·ÙĤ
ĠØŃ Ø¨Ø©
ĠÙĬØŃ Ø§ÙģØ¸
ĠØ§ÙĦÙħØ¹ ØªØ¯
ĠØªÙĩ Ø±ÙĬØ¨
Ø² Ø§ÙĤ
ĠØ§ÙĦØ¥ Ø´Ø±Ø§Ùģ
ĠØ§ÙĦØ¥ Ø¬Ø±
ĠØ§ÙĦØª ÙĪØ³Ø¹
ĠØ§ÙĦÙħÙĨØª Ø´Ø±Ø©
ĠØ§ÙĦØº Ø§ÙĦÙĬ
ĠØ¹ Ø§Ø·Ùģ
ĠØ§Ø³ØªØ« ÙĨØ§Ø¦ÙĬØ©
ĠAn d
ĠÙĬØªØ± ØªØ¨
ĠÙĦØ¥ Ø²Ø§ÙĦØ©
Ġï» ³
ĠØ§ÙĦØ¨ÙĥØ§ÙĦ ÙĪØ±ÙĬÙĪØ³
ÙĥØ± ÙĪ
Ġp df
ĠØ¹Ø¶ ÙĦØ§Øª
ĠØŃØ³ Ø§Ø³ÙĬØ©
ĠØ§ÙĦØ« ÙħØ§ÙĨ
ĠØªØ¯ Ø¨ÙĬØ±
Ùģ ÙĩÙĦ
ĠØ£Ø® ÙĬÙĩ
ÙĤ Ø§Ø¯
ĠØªØ· ÙĪØ±Ø§Øª
ĠÙĪØ± Ùħ
Ø² ÙĩØ§
Ø³ Ø§Ø¨Ø§Øª
ĠØ§ÙĦØ§ÙĨ ØªÙĩØ§ÙĥØ§Øª
ĠÙĬØ¶ Ø±Ø¨
ĠU n
ĠÙĬØ³ØªØ·ÙĬØ¹ ÙĪÙĨ
ĠØ³ ÙģÙĬØ§ÙĨ
s p
ĠÙħØ· Ø§ÙĦØ¨Ø©
ĠØ§ÙĦÙħ Ø§ÙĨÙĬØ§
ĠÙĦÙĦØª ÙĤ
ĠØ¯ ÙĬÙħ
ĠÙĦÙĦØ¬Ùħ Ø¹ÙĬØ©
ĠÙĥ Ø°Ø¨
ĠÙĦÙĦØªØ¹ Ø±Ùģ
ĠÙĪØªÙĤ Ø¹
ĠØ±ÙģÙĬ Ø¹
ĠØ§ÙĦØŃ Ø±Ùģ
ĠÙĪØªØ¹ ÙĦÙĬÙħ
ĠØ³ ÙĦÙĥ
ĠØ¹ Ø«Ø±
ĠØ± ÙĪØ§ÙĬØ§Øª
ĠG alaxy
ĠÙĤ Ø§Ø¯Ùħ
ĠØ§ÙĦØªÙĨ ÙħÙĪÙĬØ©
ĠØ§ÙĦÙĨØ§Ø® Ø¨ÙĬÙĨ
ĠØ§ÙĦØ± ÙħØ§ÙĦ
ØŃØ¯ ÙĬØ§Øª
ĠØ¨Ø£ÙĨ Ùĥ
ĠÙĩ Ø§ÙĨÙĬ
ĠØ§ÙĦØ³ ØªÙĬÙĨ
ÙĢ Ø§Øª
ĠÙĪ ÙĪÙĤÙģ
ĠØ¹ Ø§Øµ
Ø³ ÙĬØ³
ĠØ§ÙĦØº ÙĨÙĬ
ĠØªØ³ Ø§ÙĤØ·
ĠØ§ÙĦÙĦØ¨ÙĨ Ø§ÙĨÙĬÙĬÙĨ
ĠØ§ÙĦØªØµ ÙĨÙĬØ¹
ĠØ¯ ÙĦØ§ÙĦØ©
ĠØ§ÙĦØ® Øª
ÙĤÙĦ ÙĬÙĨ
ĠØ§Ø³Øª Ø´ÙĩØ§Ø¯
ĠØ§ÙĦØµ Ø®ÙĪØ±
ĠØ§ÙĦÙħØ³ Ø§ÙģØ±ÙĬÙĨ
ĠØ§ÙĦØ£ Ø±ÙĥØ§ÙĨ
ĠØª Ø¬Ø±
ĠØ§ÙĦØªØ¨ ÙĦÙĬØº
ĠØ§ÙĦØ§Ùĩ ÙĦÙĬ
own load
ĠÙĪØ£ Ø¹ÙħØ§ÙĦ
ĠÙĪØ§ÙĦØ® Ø§ØµØ©
ĠØ¨ ØŃÙĬØ§Ø©
ÙĩØ¯ ÙģØ©
ĠÙģ ÙĩÙī
ĠÙħØ¯ Ø§Ø®ÙĦ
ĠØ§ ÙĬØ©
ĠØ£Ø¹ÙħØ§ÙĦ ÙĩØ§
ĠØ¨Ø§ÙĦ Ø¬Ùħ
ĠÙħ ÙĢÙĨ
ĠÙħØµ ÙħÙħ
ĠÙĦÙħ ØµÙĦØŃØ©
ĠÙĪØ¯ Ø¹Ø§
ĠÙĪØ£ ØµØŃØ§Ø¨
ĠÙĪØ§ÙĦÙģ ÙĨÙĪÙĨ
ĠØ´Ø¨ Ø§Ùĥ
ÙĪÙĬ Ø£ØªÙĬ
ĠÙĤØ¯Ùħ ÙĩØ§
ĠØ¶ ØŃ
? ?
ĠÙĦÙĦ Ø¬ÙĩØ§Ø²
ĠØª Ø¬ÙħÙĬÙĦ
ĠØ¨ØŃ ÙĪØ§ÙĦÙĬ
ĠØ§ÙĦØ¬ Ø±ÙĬØ¯Ø©
ÙĪØ± ÙĨ
ĠØ§ÙĦØ³Ùħ ÙĪÙħ
ÙĤØ± Ø§Øµ
ÙĪ ÙĥÙħ
8 4
8 1
ĠØ§ÙĦØ¯ÙĪÙĦ ØªÙĬÙĨ
is h
ĠÙħØ¯ ÙĨÙĬØ©
ĠØ§ÙĦÙĬ ÙĥÙħ
Ùħ Ø·Ø§Ø¹Ùħ
ĠØ§ÙĦØŃØ³ Ø§Ø³ÙĬØ©
ĠØ§ÙĦÙģ ÙĨÙī
ĠØ¨ÙĦ ØºØ©
Ø§ÙĨÙĬ ÙĪÙĨ
ĠØ§ÙĦØ¥Ø³Øª Ø±Ø§ØªÙĬØ¬ÙĬØ©
Ø§ÙĦ Ø¬Ø²Ø¡
ĠÙĥ ÙĦÙĬØ§Øª
ĠØ§ÙĦØ¥ Ø¶Ø§Ø¡Ø©
ĠØ§ÙĦØ£Øº ÙĨÙĬØ©
ĠÙĦØ¥ÙĨ ÙĤØ§Ø°
ĠÙĥ Ø¥
ÙģØ± Øª
' s
ĠÙĪ ÙĪØ²Ø§Ø±Ø©
ĠÙĦØªÙĨ Ø¸ÙĬÙģ
ĠØ¬Ùħ Ø§Ø¹ÙĬØ©
ĠØµ ÙħØª
ĠØ§ÙĦÙģ ÙĤÙĬÙĩ
ĠØ§ÙĦÙĨØ¬ Ùģ
ÙĢ Ùģ
ĠØ§ÙĦØ¬ÙĨØ³ ÙĬÙĨ
Ø· Ø¨Ø©
ĠÙĪØ£ ØŃÙħØ¯
ĠÙĦÙĤ Ø¶Ø§Ø¡
Ø§Ø¨ Ùĥ
Ø¬ ÙĬØ±Ø§Øª
ĠØ±Ø£ ÙĬÙĨØ§
ĠØ¬Ø§Ùĩ Ø²
ĠØ§ÙĦÙĪ Ø§Ø¬ÙĩØ©
ÙĤÙĦ Ø§Ø¹
Ø§Ùħ ÙĬÙĥ
Ø§ÙĦ ÙĤØ¯Ø³
ĠØ§ÙĦÙħÙĨ Ø¹ÙĤØ¯
ÙĨØ§ÙĨ Ø©
ĠØ§ÙĦØ®ÙĦ ÙģÙĬ
ĠÙģ Ø¶ÙĬ
ĠÙĬØ¯ Ø¹
ÙĪÙĥ ÙĪÙĦØ§Øª
ÙĦÙħ Ø§Ø¡
ĠÙħÙĨ Ø§Ø®
ĠØĮ ØĮØĮ
ĠØ§ÙĦØªØ£ ÙĩÙĬÙĦ
ĠØ¹ Ø¬ÙĦØ©
ĠØº ÙĨÙī
ĠØ§ÙĦÙģÙĤÙĩ Ø§Ø¡
ĠØ¬ Ø¯Ø±Ø§ÙĨ
ĠØ¨ ÙĪØ¹
ĠØ§ÙĦØ¨ ØµØ±
ĠØ§ÙĦÙĤÙĬ Ø§Ø³ÙĬØ©
ĠØ§ÙĦÙħØª Ø¬Ø¯Ø¯Ø©
ĠÙĦÙĦØ¥ ØµØ§Ø¨Ø©
ĠØ§ÙĦØ§Ø³Øª Ø¹Ùħ
ĠØ§ÙĦÙĪØ² Ø§Ø±Ø§Øª
Ġ re
ĠØ§ÙĦØªØ³ Ø¹ÙĬÙĨ
ĠÙħØ± ØªØ¨Ø©
ĠØ§ÙĦÙħØº ÙĨØ§Ø·
ĠÙĪ Ø¨ÙĬØ¹
Ùģ ÙħØ§
ĠÙĪØ´ Ùĥ
ĠÙĦØ£ Ùħ
ĠØ§Øµ Ø¯ÙĤ
ĠØ§ÙĦØ§ØŃØ¯ Ø§Ø«
ĠÙĨ ÙĪÙĨ
ĠÙĦ ÙĬÙħ
Ùĩ ÙĥØ°Ø§
ĠØ§ÙĦÙĤÙĨ ØµÙĦÙĬØ©
ĠÙĪØ§ÙĦ Ø¨ÙĬØ¦Ø©
ĠÙħØ¯ ÙĬØ±Ø©
ĠÙĪÙĩ Ø¯
ĠØ§ÙĨ Ø¯Ø±ÙĪÙĬØ¯
ÙħØ¦ ÙĨØ§ÙĨ
Ø§Ø¬ ÙħØ©
ĠÙħØ¨ ÙĥØ±Ø§
ĠØ¨Ø¥ Ø¯Ø§Ø±Ø©
ĠØ§ÙĦØ§Ùģ ØªØ±Ø§Ø¶ÙĬ
ĠØ§ÙĦØªÙħÙĪ ÙĬÙĨ
ĠØ§ÙĦØ£ Ø¶ØŃÙī
ĠØ«ÙĦ Ø«
ĠØŃ Ø§ØµÙĦ
ĠØ§ÙĦØ£ØŃ ÙĦØ§Ùħ
ĠØ§ÙĦØ²ÙĩØ± Ø§Ø¡
ĠØ¨Øµ ØŃØ©
Ùģ ØµÙĦ
ØªØ¯ Øª
Ø·ÙĦ Ø§ÙĤØ©
ĠÙĪØª Ø§Ø¨Ø¹
ĠÙĦÙĤ Ø§Ø¦Ùĩ
ĠÙĬØ´ Ø§ÙĩØ¯
ÙĦØª Ø²Ø§Ùħ
ĠØ§ÙĦØ·Ø¨ÙĤ Ø§Øª
Ø°Ùĩ Ø§ÙĨ
ĠØ§Ø®Øª ÙĦÙģ
ĠØª ÙĬØ±
Ø£ÙĬ ÙĬØ¯
ÙĪÙĦ Ùģ
ĠØ§ÙĦÙħØ¹ Ø§ÙħÙĦØ©
ÙĩØ§ ÙĬÙĨØ©
ĠØ§Ø¹ÙĦ Ø§ÙĨØ§Øª
ĠØ´ ÙĬØ±
ĠØ£ Ø±Ø¬Ø§Ø¡
ĠØ§ÙĦØ²ÙĬ ÙĪØª
ĠØ§ÙĦÙħØ« Ø§ÙĦÙĬØ©
ĠÙħØª ÙģÙĤ
ÙĪØ¬ ÙĬ
ĠÙħ Ø·ÙĦÙĤ
Ø¬ÙħØ¹ ÙĬØ§Øª
ĠØ¥ Ø´Ø§Ø±Ø§Øª
ÙħØ§ ÙĬÙĪ
ĠÙĪØ£ ØŃÙĬØ§ÙĨØ§
ĠÙĪÙħ Ø¬ÙĦØ³
Ġ Â·
ĠØ·Ø¨ÙĤ Ø§Øª
ĠØ´Ùĥ ÙĪÙī
ĠÙĨ ÙĬÙĦ
Ø§Ø® ÙĦÙĬØ©
Ø§Ø² ÙĪÙĨ
ÙĬÙĪÙĨ ÙĬÙĪ
ØªØ± Ø§Ø¨
ĠØ§ÙĦÙħÙĩ Ø§Ø¬Ùħ
ĠØº ÙĨ
ĠÙĥØªØ§Ø¨ Ø§
ĠØª ÙĪÙĦÙĬØ¯
ĠØ£ Ø°ÙĥØ±
ĠØ§ÙĦÙĨÙĩ ÙĪØ¶
ĠÙħØ³Ø¤ÙĪÙĦ ÙĬ
ĠØ§ÙĦØ£ Ø¶Ø±Ø§Ø±
Ùĭ ØŁ
ĠØ§ÙĦØ¥ Ø¬Ø±Ø§Ø¡
ÙĬÙĤ Ø§Ø¸
ĠØ§ÙĦØ¥ Øº
ĠÙĨ Ø§ÙĤØ´
ĠØ§ÙĦØ¨ ØµØ±ÙĬ
Ø³ÙĦ Ùĩ
ØŃ ÙģØ¸
ÙĩØ± Ø§Ùħ
ĠØ§ÙĦÙģ ØŃ
Ø£ ÙĬÙĨ
ĠÙħØ³ Ø¦
ĠÙĪØ§ÙĦØ£ Ø¬ÙĩØ²Ø©
ĠØ§ÙĦØ³ ÙħÙĨØ©
ĠÙĨ ØªÙħÙĨÙī
ĠÙĬ Ø®ÙĦÙĤ
ĠØªÙģ Ø§Ø¹ÙĦ
ØµØ± Øª
ĠØ§ÙĦÙħ Ø¶Ø§ÙģØ©
ĠÙĬØ¹ØªÙĤØ¯ ÙĪÙĨ
ĠØ§Ùģ Ø±Ø§Ø¯
ĠØ° ÙĥÙĬØ©
ÙĬØª Ø³
ĠØ§ÙĦÙģØ¹ÙĦ ÙĬØ©
ĠÙĪØ¶ Ø¨Ø·
ĠÙĪØªØµ ÙħÙĬÙħ
ĠØ³ÙĬÙĨ Ø§Ø±ÙĬÙĪ
ĠÙĦÙĦÙĨ Ø§Ø¯ÙĬ
ro id
ĠÙĪØ§ÙĦØ´ Ø¹Ø±
ĠÙħØ¤ Ø®Ø±
ĠÙĨ ÙĬÙĨ
ĠØªØµÙģ ÙĬØ©
ĠÙĬ Ø´Ø§Ø±
ĠØ§ØªÙĩ Ø§ÙħØ§Øª
ĠØ·Ùģ ÙĦØ©
ĠÙĪØ§ÙĦ ÙĤÙĬØ§Ùħ
Ø«Ø± ÙĪØ©
ĠØªØ¹ Ø·
ĠØ¥ÙĨ Ø¬ÙĦØªØ±Ø§
ĠÙģ Ø§
Ø³ ÙģÙĬ
ĠØ§Ø¨ÙĨ ÙĩØ§
ĠØ§ÙĦØ³ ÙĪØ§Ø¦ÙĦ
ĠØ§ÙĦÙħØ¬ ÙĩÙĪØ¯
ĠØ§ÙĦÙħØ·ÙĦ ÙĤØ©
ĠØªÙĨØ§ÙĪÙĦ Øª
ĠÙ ¦
ĠØ§ÙĦØ¨ÙĦØ§Ø³Øª ÙĬÙĥ
ĠØ® Ø§Ø·Ø¦Ø©
ĠØ¨Ø§ÙĦØªÙģ ØµÙĬÙĦ
ÙĬÙĦ ÙĪ
ÙĥÙĬ ÙĦÙĬ
ĠØ§ÙĦØ¥ ÙģØ±Ø§Ø¬
ĠØªÙĤØ¯Ùħ Øª
ĠØ¥ ØŃØ±
ĠØªØ£ Ø®ÙĬØ±
ĠÙĪ Ø±Ø¬
ØªÙĦÙĥ Ø§Øª
ĠØ§ÙĦØŃ Ø¶Ø±
ĠØ§ÙĦÙĨØ´Ø§Ø· Ø§Øª
ĠØ¥Ùģ Ø·Ø§Ø±
Ø¯Ø±Ø¬ Ø§Øª
ĠØ¥ Øº
ï» ¥
ĠÙĦÙĦÙĩ Ø¬Ø±Ø©
ĠÙĦÙĦÙĥ Ø´Ùģ
ĠØ§ÙĦØ´ Ø§ÙģØ¹ÙĬ
ĠØ¬ ÙĨØ¯
Ø³ Ø§ÙĦØ©
Ø³ ÙģÙĬØ©
ĠØ§ÙĦØ´ ÙĤÙĬÙĤ
ĠØ§ÙĦÙħØª Ø¹Ø©
Ø³ ÙĥÙĨØ¯Ø±ÙĬØ©
ĠÙĪØª ÙĤØ¯
ĠØª ÙĪØ«ÙĬÙĤ
ĠÙĪØª Øº
ĠÙĦØ¹ ÙĤØ¯
ĠØ§ÙĦÙħØŃ ØªØ±ÙģÙĬÙĨ
ĠØªÙĤØ± ÙĬØ±Ø§
ĠØ§ÙĦÙħØ´Ø± ÙĤ
Ø¶ Ø§ÙĨÙĬØ©
ĠØ£ Ø®Ø·
ĠØ± ØŃØ¨
ĠØ§Ø¨ ØŃØ«
ĠØ§ÙĦÙĤØ§Ø¦Ùħ ÙĬÙĨ
ĠÙĬØª ÙĪØ§Ø¬Ø¯
ĠØ§ÙĦØµÙģ ÙĤØ§Øª
ĠØ§ÙĦ ÙĢÙĢ
ĠØ§ÙĦØŃØ¶ Ø§Ø±ÙĬ
ĠÙĤ Ø·Ø§Ø±
Ø£ ØµØ¨ØŃ
ĠØ§ÙĦÙħÙĥ Ø³ÙĬÙĥ
ĠØ§ÙĦØª ÙĦÙģØ²ÙĬÙĪÙĨÙĬØ©
ÙĪØ¸ ÙĬÙģØ©
ĠØ§ÙĦÙħÙĨ Ø§ØµØ¨
ĠØ³ ÙĪÙĬØª
ĠØ¨ØŃ ÙĬØ±Ø©
Ø¬ ÙĬØ¬
ĠØª ØºØ·ÙĬ
ĠØ§ÙĦØ· Ø§ÙĩØ±
ĠÙħØµØ± Ø¹
ĠØ§ÙĦØ¨ Øµ
ØŃÙħ ÙĪØ¯
ĠÙĬØªØ¹ ÙĦÙħ
ĠÙģ ÙĢ
ĠØ§ÙĦØ£Ø¹ Ø¸Ùħ
ÙĪØ³ ÙĪÙħ
ĠØ³ Ø¬ÙĪÙĨ
ĠØ£ØŃ Ø³
ĠÙĦÙĦØ¥ Ø³Øª
ĠØ¯Ø± Ø¹Ø§
ĠØ± ÙĬØ¨
ĠÙĪÙĥØ§ÙĨ ÙĪØ§
ĠÙĪØ§Øª Ø®Ø§Ø°
ĠØ¨Ø¯ ÙĪÙĦØ©
Ø© Ø©
Ø³ÙĨ Ø§ÙĦ
ĠØ§ÙĦØ« ÙĪØ±ÙĬØ©
Ø¨ Ø§ÙĦØª
ĠØ§Ø² Ø¯Ø§Ø¯
ĠØª Ø§ÙĬÙĦ
ĠØ§ÙĦØ¨ ÙĪØª
ĠØ§ÙĦØ£Ø® ÙĪØ©
ĠØ´ Ø§Ùħ
ĠØ§ÙĦØ§ÙħØ± Ø§Ø¶
ÙĪØ§ ÙĥØ¯
ĠØªØ± ÙħØ¨
ĠÙĪÙħØ³ ÙĦÙħ
ÙħØ± Ø£Ø©
ĠÙĪÙħÙĦ ÙģØ§Øª
Ø´ Ø§Ø©
ĠÙģØ± Ø¹ÙĪÙĨ
ĠØ§Ø´ Øª
ĠØ§ÙĦØ§ ÙĬØ¬
Ġ199 4
ÙĪØ¬ Ø±
ĠÙĪ Ø°Ø§Øª
ĠØ§ÙĦÙĪ Øµ
ĠÙĪØ¹ Ø§ÙĦÙħ
Ø¨ÙĨ Ùĥ
ĠÙĪØ¨ Ø£
ĠØ« ÙĨØ§Ø¦ÙĬØ©
ĠØ£ ØªÙħ
ĠØ¨Ø§ÙĦØ¯Ùħ Ø§Ùħ
.. !
Ø§ÙĦÙħ Ø±ÙĥØ²
ĠØ§ÙĦØ§Ø¦ ØªÙĦØ§Ùģ
ĠØ§ÙĦØ§ÙĥØª Ø¦Ø§Ø¨
ĠÙĪÙĦÙĥÙĨ ÙĨØ§
Ø°Ùĩ Ø¨Øª
ĠØ§ÙĦÙģ Ø±Ø§Øª
ĠØ§ÙĦÙĥ ÙĦØ¨
ĠØ§ÙĦÙħØ³ Ø§Ø¨ÙĤØ§Øª
ĠØ¨ÙħØ³Øª ÙĪÙī
ĠØ¶ ØŃÙĬØ©
ĠÙĦ Ø³Ùħ
Ø±ÙĤ Øµ
ĠØ¯ Ø¹ÙĪ
Ø§Ø¦Ùģ ÙĬØ©
ï»´ ïºĶ
ĠØª Ø§Ø¬
ĠØ§ÙĨ ØªÙĩØ§Ùĥ
ĠÙĦØª Ø£ÙħÙĬÙĨ
Ġ ;
ĠÙħÙĪ Ø§Ø¬Ùĩ
ĠØªØ³ ÙĤØ·
ĠØªÙĤ ÙĪÙĬÙħ
ĠØªØ§Ø±ÙĬØ® ÙĬ
Ø§ÙĤ Ø§
ĠØ§ÙĦÙħ ÙĤØ·Ø¹
ØĮ âĢŃ
- :
ĠÙħØµ Ø±Ùģ
ĠÙĦÙĦÙħÙĨ Ø·ÙĤØ©
ĠØ³Ùħ ØŃØª
ĠÙħØ³ØŃ ÙĪÙĤ
ĠØ¨Ø§ÙĦÙħÙĨ ØªØ¯Ùī
ĠA pp
Ġ st
Ġ5 3
ĠØ®ØµÙĬØµ Ø§
ĠÙĬÙħ ÙĬÙĦ
Ø§Ø® ÙĬØµ
ĠÙĤÙĬ ÙĪØ¯
ĠÙĪÙĨ Ø²
ĠØ§ÙĦØ®Ø§Øµ Ùĩ
ĠØ¨ ÙĪÙĨ
ĠØ¹ Ø±ÙĤ
ĠØ§ÙĦÙĬÙĪÙĨ Ø§ÙĨÙĬØ©
ĠÙĬÙĦ Ø¬Ø£
ĠØªØ· Ø±ÙĤ
Ġ199 6
ĠØªØºÙĬÙĬØ± Ø§Øª
ĠØ§ÙĦØªÙĩØ¯ÙĬØ¯ Ø§Øª
ĠØ§ÙĦØ³ÙĬ Ø§Ø¯Ø©
ĠÙĦÙĥÙĨ ÙĨÙĬ
ĠÙĦÙĦÙħ Ø·Ø§ÙĦØ¨Ø©
ĠØ§ÙĦÙħØµ Ø§ÙĨØ¹
ĠØ§ÙĦØ¹ÙĨ ØµØ±ÙĬØ©
ĠØ§ÙĦÙĨØ³ Ø§Ø¦ÙĬ
ĠÙĪØ£ Ø¬
ÙĪÙĨ ØŃÙĨ
ĠØ§ÙĦÙħØ¹Ø¯ ÙĦ
ĠØ§Øµ Ø¯ÙĤØ§Ø¡
ĠØ§ÙĦØ¶ÙĬ ÙĪÙģ
ĠØ§ÙĦÙĬØ¯ ÙĬÙĨ
ĠØ§ÙĦØ¹ÙĬÙĨ ÙĬÙĨ
ĠØ§Ø³Øª Ø¶Ø§Ùģ
ĠØ± Ø£Øª
ĠØ¬ÙĨ Ø¨Ø§
Ø±Ø¯ ÙĬÙĨ
ĠØŃ ÙĬÙĪÙĬØ©
ĠM ar
ĠØ¶ ÙĬÙģ
ĠØ§ÙĦØ³ÙĬÙĨ Ø§Ø±ÙĬÙĪ
ĠØ§ÙĦÙħ ÙĬØ±
ĠÙĪØ§ÙĦÙħØ³ Ø§ÙĪØ§Ø©
ĠØ§ÙĦØ³ ÙħØ¹
ĠØ¨ØŃ ÙĦ
ĠØ§ÙĦØ¹ Ø´Ø±Ø©
ĠÙĨÙĪ Ø¨ÙĦ
ĠØ± ÙĪØ³
ĠØ§ÙĦØ¹ Ø³ÙĥØ±
ĠÙĪØ§ÙĦÙģ ÙĬØ¯ÙĬÙĪ
Ø³ÙĬ Ùĩ
ĠØ§ÙĦØ³ ÙĦÙĬÙħØ©
ĠÙĥ Ø¹
Ã ©
Ø´ ÙĩØ±
ĠÙĪØ§ÙĦÙħ ÙĬØ§Ùĩ
ĠØ§ÙĦØ¨ ÙĨÙĬ
ĠØ§ÙĦÙģØ§Ø¦ Ø²ÙĬÙĨ
ĠÙĦÙĦØ¯ ÙĥØªÙĪØ±
Ø· ÙĬÙħ
ĠÙħ ÙĬØ¯ÙĬØ§
ĠØ§ÙĦÙģÙĬØªØ§ÙħÙĬÙĨ Ø§Øª
ĠØ§ÙĨ Ø¹Ùĥ
ĠØ± ÙĪØª
Ø´Ø± Ø§Ùĥ
ĠØ§ÙĦÙĥØ± Ø§ÙħØ©
ĠØ§ÙĦØµÙĦ Ø¨Ø©
ĠØ§ÙĦÙĨÙģ ÙĪØ°
ĠØ§ÙĦØ¨Ø± ÙħØ¬ÙĬØ§Øª
ĠÙĪØ²ÙĪØ¬ ØªÙĩ
ĠØ§ÙĦØ£Ùĥ Ø§Ø¯ÙĬÙħÙĬ
Ùĥ Ùģ
ĠØ§ÙĦÙħØ± Ø§Øª
ĠÙģØ¹ ÙĨØ¯ÙħØ§
ĠØ§ÙĦØ£Ø³ Ø§ØªØ°Ø©
ÙĪØŃ ÙĪÙĦ
p er
Ø§Ø¹Ø¯ Ùĩ
ĠÙĦÙĦÙĬ ÙĪÙħ
ĠØªØ³Øª ÙģÙĬØ¯
ĠØ§ÙĦÙĥ Ø§Ø¨
ĠØ§ÙĦØ® ÙĬÙħØ©
ĠØ§ÙĦ ÙĪÙĦØ¯
ĠØ§ÙĦØ¨Ø· ÙĪÙĦØ§Øª
ĠØ¥ Ø¯Ø±Ø§Ø¬
ĠÙĪØ§ÙĦÙħØ¹ Ø±ÙģØ©
ĠØ§ÙĦØ¥Ø³Ø±Ø§Ø¦ÙĬÙĦÙĬ ÙĬÙĨ
ĠÙĪØ§ÙĦØ´Ø± Ø·Ø©
ĠÙħØ³Ø§ØŃ ØªÙĩØ§
Ġ Ø§ÙħÙĦ
ĠØ´ Ø§Ø´Ø§Øª
ĠÙĤ Ø¯ÙĬ
ĠØ§Ø³ØªÙĨ Ø§Ø¯Ø§
ĠÙĬØ³Øª ØºØ±ÙĤ
ĠØµÙĨ Ø§Ø¹ÙĬØ©
ĠØº Ø±Ø¨ÙĬØ©
Ø¨ ØªÙĩØ§
] ).
ØºØ± Ø§ÙģÙĬØ§
Ø§ ÙĪØ¯
ĠØ§ÙĦØ¨ Ø³ÙĬØ·
ĠØ§ÙĦØ¢ ÙĦØ§Øª
ĠØ§ÙĦØ£ Ø³Ø¨
ĠØ§ÙĦØŃ Ø§ÙģØ¸
ĠÙĬØª ÙĪØ¬Ø¨
ĠÙħØªØª Ø§ÙĦÙĬØ©
ØªØ® Ø°
ĠØ¬ ÙħØ§Ùĩ
ÙĤ Ø§ÙĨ
Ø¥ÙĨ ÙĩØ§
ĠØ§ÙĦØ´ Ø§Ø¨Ø©
ÙĪØ± Ø¯Ø©
ĠÙĪØµÙģ ÙĩØ§
ĠØ§ÙĦÙĬØ³ Ø±Ùī
ÙħØ¯ Ø§Ø¯Ø§Øª
ĠØµØ§ØŃØ¨ ÙĩØ§
ĠØ£Ø¯ ÙĪÙĬØ©
ĠØ³ ÙĬÙĪ
ĠØ¨ Ø§Ø¨ÙĦ
Ø¨Ø§ ÙĬÙĨ
ĠØŃ ÙĥÙħØ§
ĠØ° Ùĥ
ĠÙĪØ£ Ø¬ÙĩØ²Ø©
ĠØ§ÙĦØ£ Ø·Ø¨Ø§ÙĤ
Ø¹ Ø§Ø¬ÙĦ
ĠØ§ÙĦØ¬ÙĨ Ø§Ø¦ÙĬ
ĠØ§ÙĦØ£ Ø°ÙĨ
ĠØ¹ÙĬ ÙĪØ¨
ĠÙĦÙħÙĨ Ø·ÙĤØ©
Ø§Ø® ÙĬ
ĠØ§ÙĦÙħÙĬØ¯ Ø§ÙĨÙĬØ©
ĠØ§ÙĦØ·Ø± Ø§Ø²
ÙģÙĦØ³Ø·ÙĬÙĨ ÙĬÙĬÙĨ
ĠØ§ÙĦØ¹Ø¯ ÙĪÙī
ÙĪØ§Øª ÙĩØ§
ĠØ¬ ÙĨÙĬÙĨ
ĠØ§ÙĦÙĨØ¸ Ø±Ø©
ÙĪØ³ ÙĬÙĦØ©
ĠÙĬØ³Ø§Ø¹Ø¯ Ùĥ
ĠØ° ÙĥÙĬ
Ù ¬
ĠØªØ¹ ÙĦÙĬ
Ø¥ Ø°
ĠØ§ÙĦØ¬ÙĨ Ø§ØŃ
ĠØ§ÙĦØ±Ø¨ Ø·
ĠÙĩ Ø¯Ø§
ÙĦØª ÙĨØ§
Ø§Ø² Ø±
ĠÙħØ± ÙĪØ§ÙĨ
ĠØŃØª ÙħØ§
Ø·Ùĩ Ø§Ø¯
Øª ØŃØ¯Ø«
âĢı âĢı
Ø§Ø¹ Ø¯Ø§
ĠÙħØŃ ÙĦÙĬØ§
ĠØ¬Ø§ÙĨØ¨ Ø§
Ø§ÙĦØªÙĩ Ø§Ø¨Ø§Øª
ĠØ§ÙĦÙĦØº ÙĪÙĬØ©
ĠÙħØ¶ Ø§Ø¯
Ø§Ø¬ ÙĬÙĨ
ĠÙĪØ§ÙĦØ¯ ØªÙĩ
ĠØ§Ø³Øª Ø¨Ø¯Ø§ÙĦ
ĠØ§ÙĦØº Ø±ÙĬØ¨Ø©
ĠØ§Ø¹ ÙĦÙĨ
ĠØ¯Ø± Ø§Ø³ÙĬØ©
ĠØ§ÙĦÙħØ¹ Ø·ÙĬØ§Øª
ĠØ¨Øª Ø£
ÙĪØ£ Ùħ
ĠÙħØª ÙģØ±
ĠØ§ÙĦÙĥØª ÙĦØ©
ĠØ§ÙĦÙĨØ³ÙĬ Ø¬
ĠÙĪØ§ÙĦ Ø¹ÙĦØ§ÙĤØ§Øª
ĠØ§ÙĦØ£ÙĨ Ø¯Ø±ÙĪÙĬØ¯
ĠÙħÙĥÙĪÙĨ Ø©
âĢ ³
ÙĦ ØŃØ©
ĠØ§ÙĦØªØŃ Ø¶
Ø§Ø° ÙĬØ¨
ÙĨ ÙģØ³
Øµ ÙģØ±
ĠÙĦÙĦÙĨ Ø¸Ø±
Ø§Ùħ ÙĩØ§
ĠØ§ÙĦÙĨÙĤ Ø§Ø¨
ĠØ§ÙĦØ£Ùħ Ø§ÙħÙĬØ©
ĠØ§ÙĦÙħØ´Ø§Ø± ÙĥÙĪÙĨ
ØªÙĬ ÙĥÙĪ
ĠÙĪØ¯ ÙĬØ©
ĠØ¹ÙĤ Ø§Ø±Ø§Øª
ĠØ§ÙĦÙħØŃ Ø¨
Ø§ÙĦÙħ Ùĩ
ĠÙĥØ±ÙĬØ³Øª ÙĬØ§ÙĨÙĪ
ĠØ§ÙĦØµ Ø¹ÙĪØ¯
ĠØ¨ÙĦØ§Ø¯ ÙĩÙħ
ĠØ§ÙĦÙħØ¯ ÙĪÙĨØ©
ĠÙħÙĪØ³ ÙĬÙĤÙī
Ġ7 2
ĠØµÙĨ Ø§Ø¹
ĠØ§ÙĦÙĦÙĤØ§Ø¡ Ø§Øª
ĠÙĬÙĥ Ø§Ø¯
ÙĨ Ø·
ĠØ¨ Ø¹ÙħÙĦÙĬØ§Øª
ÙĦÙģ Ø¸
Ø¨ ÙĥØ§Øª
Ø² Ø±Ø©
ĠØ§ÙĦÙĥ ÙĦØ§Ø¨
ĠØªØªØŃ ÙħÙĦ
ĠÙĨÙĤÙĦ ÙĩØ§
ĠØªØ¯ Ø±Ùĥ
ĠØ§ÙĦØªÙĨ ÙĪØ¹
ØªØ± Ø§ØŃ
ĠÙģ Ø·
Ġ6 7
ĠÙĪØŃ Ø²Ø¨
ĠØ§Ø¬ ØªÙħØ¹
ÙĪÙĩ Ø§Ø¬
ĠÙĪØ§ ÙĥØª
Ø³ÙĬ ØŃ
ĠØª ÙħØ¯
Ø§ÙĦØ³ÙĬ ÙĪÙħ
ĠØ³ Ø§ÙģØ±
ĠØ° ÙĩÙĨ
ĠÙħÙĦ Ø§Ø¨
ĠØ§Ø¬ Ø±Ø§Ø¡Ø§Øª
ĠØ§ÙĦÙĤÙĦ Ø¹Ø©
ĠØ±ÙĬ Ø§Ø¶ÙĬ
ĠØ§ÙĦ ÙĨØ§
ĠÙĪØ£ ØµÙĬØ¨
ĠÙħÙĥØª Ø¨Ùĩ
ÙĢÙĢ Ø¯
ĠÙĦÙĦ ØŃØ¯ÙĬØ«
ĠØ®ÙħØ³ ÙĬÙĨ
ÙĦØª ÙĬÙĨ
ĠÙĪØ§ÙĦÙĨ Ø¸Ø§Ùħ
ĠØªØ¬Ø§ÙĪØ² Øª
ĠÙĦ ÙĪØ§Ø¡
ØºØ§Ùģ ÙĪØ±Ø©
Ø²Ø¹ Ø§Ø¬
Ø§ÙĦ ØŃÙĬØ§Ø©
T he
ĠØ§ÙĦØ´ ÙĤØ©
ĠØ§ÙĦÙģ Ø§Ø±ÙĤ
ĠÙħØ³Øª ÙĪØ·
ÙĲ :
ĠÙĪØ¹ ÙĦØ§
ĠØ¨Ø£ ÙĤÙĦ
ĠØ§ÙĦØ§Ø¨ ØªÙĥØ§Ø±
ĠØ¨Ø§ÙĦ ØŃØ±
ĠÙĪØ§ÙĦÙĨ Ø§Ø³
Ø±ØŃ ÙħØ©
ĠØ§ÙĨ ØŃØ§Ø¡
ĠÙĪØ§ÙĦÙħ Ø¹Ø¯Ø§Øª
ĠØªØ¬Ø§Ùĩ ÙĦ
ĠÙĦ ÙĤÙĪÙĦÙĩ
Ø§Ø¶ ÙĪÙĦ
ĠØ§ÙĦØ¬ ÙĪØ¹
ĠØ§ÙĦÙħÙĨ ØµØ©
ĠØ§ÙĦÙĩØ¶Ùħ ÙĬ
ĠÙĨ ÙģØ¹
ĠØ¨Ùħ Ø´Ø±ÙĪØ¹
ĠØ¨Ø§ÙĦ ØªØ¬
Ø® Ø°Ùĩ
ĠØ§ÙĦØ£ÙĪÙĦ Ø§Ø¯
Ġ14 40
ĠØ§ÙĦÙħÙĦ Ø§ØŃØ¸Ø§Øª
ĠØ§ÙĦØªÙĦ ÙĪØ«
ĠØ¯Ø¹ ÙħØ§
ĠØ³Ø£ ÙĦØª
ĠØªÙĤØª ØµØ±
ĠÙħÙĪÙĤÙģ Ùĩ
O N
ĠÙĬØ® Ø¨Ø±
ĠØ°ÙĥØ± ÙĨØ§
ĠØ§ÙĦØªÙģØ§ ÙĩÙħ
ĠØ´ Ø§ÙĥØ±
Ġd e
Ø±Ùĥ Ø¨
ĠÙĪÙĬ Øµ
ĠÙĥ ÙĪØ±Ø©
ĠÙĪØº Ø§ÙĦØ¨Ø§
ĠÙħÙĨØ§Ø²ÙĦ ÙĩÙħ
ĠØ±Ø§Ø¦Ø¹ Ùĩ
ĠØª ÙĦÙħ
Ø§Ø¦ ÙĦÙĩ
ĠØ§ÙĦØ³ÙĪÙĬØ³ Ø±ÙĬ
ĠØ´Ø±Ùĥ Ø§Ø¡
ĠØªØ±ÙĬØ¯ Ùĩ
ĠØ§ÙĦÙħ Ø¨Ø¯Ø£
ĠÙģØ¥ÙĨ Ùĥ
ÙģÙĬ Øª
ÙĪÙĥ Ø´Ùģ
Ø§ÙĦ ØªÙĩØ§
âĢ į
ĠØ¨Ø§ÙĦ ÙĤØ¯Ø³
ÙĪÙħ ÙĨÙĬ
ĠØ§ÙĦÙħØ¹ Ø§ÙĨØ§Ø©
ĠØ§ÙĦØ¹ Ø¨Ø§Ø±Ø§Øª
ĠØªØ¹ Ø²Ø²
ĠÙĬØ³Øª Ø¹Ø¯
ĠØ§ ÙĬØ¯
ĠÙĬØ¯ÙĬ Ùĥ
ĠØ¥ØŃ Ø³Ø§Ø³
ĠØ§ÙĦÙħ Ø¨Ø§ØŃØ«
ÙĪØ£ Ø®
A M
ÙĨÙħ Ø§Ø±Ùĥ
Ø§Ø³Øª ÙĩØ§
ĠÙĪØª ØºÙĬÙĬØ±
ĠØ§ÙĦØªØ± Ø¯Ø¯
ÙĤÙħ Ø§Ø±
Ø§ÙĬ Ø®
ĠØ§ÙĦØ£ ÙĦÙĬØ§Ùģ
Ø§Ø¯ Ø§Ø±Ø©
ĠØ§ÙĦØ´ ÙĪ
ÙģÙĬ Ø¹
Ø§Ø· ÙĦØ§Ø¹
ĠØ³ ÙĪÙĬÙģ
Ø³Ø¨ ØªÙħØ¨Ø±
ĠØ±Ø³ ÙĪÙĦÙĩ
Øµ ÙĤ
m an
ĠÙĬ Ø«
ÙĪ Ø§Ø±Ø§Øª
ĠØ¨Ø¯ Ø®ÙĪÙĦ
ĠAd min
ĠØ§ÙĦØ³ ØŃ
ĠÙĪØ§ÙĦØ§Ø³Øª ÙģØ§Ø¯Ø©
ĠÙĬØ® Ø§Ùģ
ĠØ¹ÙĬÙĨ ÙĬÙĩ
ĠØ£ Ø·Ø±
ĠØ¨ Ø±ÙĥØ©
ĠØ§Ø³Øª Ø¹ÙħÙĦ
ĠÙĩ Ø§Ø¦ÙĦ
ĠÙĦÙĦ ÙĤØ§Ø¡
ĠØ¬Ø± Ø§Ùħ
ÙħØ§ ÙĬ
ĠØŃ Ø¯Ø§
Ø§ÙĦØŃ ÙĥÙĪÙħØ©
ĠÙĬØ´ ØªØ±Ø·
ĠÙħ Ø§Ø³Ùĥ
ĠØªØ³Øª Ø¶ÙĬÙģ
ÙĢÙĢÙĢ Ø©
ĠØ§ÙĦÙĦ ÙĪØ§ØªÙĬ
ĠÙĨÙģ Ø·
ĠÙĪØ§ÙĦÙħÙĨ Ø¸ÙħØ§Øª
ĠØ§ÙĦØ§Ø¹ ØªÙĤØ§Ø¯
ĠØŃØ³ ÙĨØ©
ĠÙĪØ§ÙĦØ· Ø§ÙĤØ©
ĠØ¹Ø±Ø¶ Ø§
ĠÙħØ§ÙĨ Ø¹
ĠØª ÙĪÙģ
ĠÙĨØ¬Ø§ØŃ Ø§
ĠØ§ÙĦØŃ ÙĨ
ĠØ§ÙĦÙĪ Ø§Ø¯ÙĬ
ĠØ§ÙĦÙħØªØ· ÙĪØ±Ø©
ĠØ¶ ÙĬÙģÙĩ
ĠÙĦØº Ø§ÙĬØ©
Ø¨ÙĪ Ø§Ø¨Ø©
ĠÙĬ Ø¸ÙĨ
ĠØº Ø§Ø¨
ĠÙĦÙħ ÙħØ§Ø±Ø³Ø©
' '
ĠØ§ÙĦØ¥Ø® ÙĪØ©
ĠØ§ÙĦØ¬ ÙĩÙĦ
ĠØ§Ø´ ØªØ±
Ø§ÙĦÙĥ Ø«ÙĬØ±
ĠØªØ³Ø¨ Ø¨Øª
Ø§Ùĥ Ø§
ĠØ§ÙĦØ«ÙĦØ§Ø« ÙĬ
ĠØ§ÙĦØŃ Ø¸Ø±
ĠØ§ÙĦØµ ÙĦÙĬØ¨
ĠØ§Ø¯ Ø§Ø¡
ĠØ§ÙĦØªØ¹Ø¨ Ø¦Ø©
ĠØ§ÙĦÙĪØ³ ÙĬÙĦØ©
ĠÙĪØ§ÙĦ Ø®ÙĦ
Ø« Ø§Ø«
Ø³Øª ÙĬØ©
ĠØ§ÙĦÙħÙĨ Ø¨Ø±
ĠÙĪÙħÙĨ Ø·ÙĤØ©
Ø§ÙĨÙĬ Øª
U S
ĠÙħØ§ ÙĩØ±
ĠÙĦØ¯ ÙģØ¹
ĠÙĪØ´Ø± Ø§Ø¡
Ø« Ùĩ
ĠÙħØ¶ Ø§Ø¯Ø©
ĠÙĦÙĦØ® Ø·Ø±
ĠØªØªÙĨ Ø§Ø³Ø¨
Ø¶ØŃ ÙĬØ§Øª
ĠØ§ÙĦØ¥ÙĦÙĩ ÙĬ
ĠØ¹ ÙģØ±ÙĬÙĨ
ĠØ¨ Ø²ÙĬ
ĠØŃÙħÙĦ Øª
Ø¨ Ø§Ùĩ
ĠØ§ÙĦÙħØ¨Ø§Ø± ÙĥØ©
ĠØ¥ Ø¬ØªÙħØ§Ø¹
ĠØ§ ÙĪØ¨
ĠØŃÙĪÙĦ Ùĥ
ĠØ¨Ø¥ Ø³Ùħ
ĠØ§ØªØ®Ø° Øª
ĠØ§ÙĦÙĤØµ ÙĬØ¯Ø©
ĠØ³ ÙĩÙĦØ§
Ø§Ø²ÙĬØº ÙĬØ©
ĠØ§ÙĦÙħØŃ ØªÙħÙĦØ©
ÙĪØª Ø³
ĠØª ÙĥÙĦÙģ
ĠØ§ÙĦØ´ÙĬØ¹ ÙĬØ©
ĠØ§ÙĦÙĤÙĬ ÙĪØ¯
Ø±ÙĬÙĥ Ùī
ĠØ§ÙĦØ§Ø¹ Øª
ĠØ±ÙĪØŃ Ø§ÙĨÙĬ
ĠØ§ÙĦÙĥÙģ Ø§ÙĬØ©
ĠØ§ÙĦÙħØ³ÙĦ ØŃÙĬÙĨ
ĠØ§ÙĦØ³Ø¬ Ø§Ø¯
ĠÙĬØŃ ØªÙĦ
ĠØ§Ø¶Ø·Ø± Ø§Ø¨Ø§Øª
ĠØ§ÙĦØ´ Ø¬Ø±Ø©
ĠÙĩ Ø°
ĠØ´ ÙĬØ¹
ĠØ§ÙĦØ£Ø±Ø¬ ÙĨØªÙĬÙĨ
ĠÙħ ÙĤÙĦ
ØªÙģ Ùī
ĠØ§ØŃ Ø³ÙĨ
ĠØ§ÙĦÙħØ± Ø§Ø¬Ø¹Ø©
ĠØ§ÙĦØªØ£ ÙĩÙĦ
ĠØŃØ³ ÙĨØ§
ĠØ§ÙĦÙĥ Ø±Ø¨
Ø³Ùħ Øª
ĠÙĪØ¨ Ùĩ
ĠÙĬØª ÙĪÙĦÙī
ĠØ± ÙĪØ¯
ĠØ¨ Ø±Ø¨
ĠØ§ÙĦØ¯Ø±Ø¬ Ø§Øª
ĠØ§ÙĦÙħØ¨ Ø°
ĠØ§ÙĦØ§Ø¹ ÙĦÙī
ĠØªØ¹Ø¨ Ø¦Ø©
ĠØ¬Ø¨ Ø±ÙĬÙĦ
ĠP lay
ĠÙħØ±Ùĥ Ø¨Ø©
ĠØ¨ØµØ± Ø§ØŃØ©
ĠØ§ÙĦÙĤØ±Ø¢ ÙĨÙĬØ©
ĠÙģÙĬÙĩ ÙħØ§
ĠÙĥ ÙĪ
ĠÙĪØ§ÙĦØª Ø·Ø¨ÙĬÙĤ
ĠØ£Ø³ÙģØ± Øª
ĠÙĬØª ØµÙĦ
ĠÙĬØ¹ Ø§ÙĦØ¬
ĠØŃ ÙĬØ§
ĠÙĬØŃ ÙħÙĬ
ĠØ§ÙĦÙĩ Ø²ÙĬÙħØ©
ĠØªÙĨØ§ÙĪÙĦ ÙĩØ§
ĠØ§ÙĦÙħ Ø¯Ùħ
ÙĥØ³ ÙĬØ©
ĠØ¨ØµÙĬ ØºØ©
ĠØ¥Ø¯ Ø§Ø±ÙĬØ©
ÙģØ³ ÙĨØ§
ĠÙĦØ± Ø¦Ø§Ø³Ø©
ĠÙĪØ§ÙĦ Ø§ÙĩØªÙħØ§Ùħ
ĠØ§ÙĦØ¹ Ø°Ø§Ø¨
Ġ6 6
ĠØ´ Ø§Øª
ĠØ§ÙĦØ´Ø¹Ø± ÙĬØ©
ĠØ§ÙĦÙħ Ø£ÙĥÙĪÙĦØ§Øª
ĠÙĪÙĥ Ø´Ùģ
Ø« ÙĬÙģ
ĠÙĨ Ø§Ø¯Ùī
ĠØªØ¹Ø¯ ÙĬÙĦØ§Øª
ĠØ³ Ø±Ø¯
ĠØ¬ Ø±ÙĬ
Ø§ÙĦ Ø±ÙĬØ§Ø¶
ĠÙĦÙĦØ£ Ø´Ø®Ø§Øµ
ĠØ§ÙĦØ´Ø±Ùĥ Ø§Ø¡
Ġï»ĵ ï»²
ĠØ§Ø¨ØªØ¯ Ø§Ø¦ÙĬ
âĢ¦ .
ĠØ§ÙĦÙħÙĬ ÙĦÙĬØ´ÙĬØ§Øª
ĠØ²ÙĬÙĨ Ø¨
ĠÙĪØ§ÙĦØª ÙĥÙĪÙĬÙĨ
Ø§ØŃ ÙĨØ§Øª
ĠØ¨ØŃ ÙĪØ«
ĠÙĪØ§ÙĦØ³ÙĦØ§Ùħ Ø©
ĠØ§ÙĦØ£ Ø°
Ø¨Ø§Ø± ÙĬ
ØªÙĨ Ø§ÙĤ
ĠØ± ÙĪØ¹Ø©
ĠØªÙĨØª ÙĤÙĦ
ĠÙĬØŃ Ø³ÙĨ
ĠÙĪØ¨ Ø®Ø§ØµØ©
ĠØ´Ø®Øµ ÙĬØªÙĥ
ĠØŃÙħ Ø¶
ĠØ§ÙĦØ¹Ø° Ø±Ø§Ø¡
ÙħÙĨ ÙĬÙĨ
ĠÙħÙĥ Ø§Ø³Ø¨
ĠØ§ÙĦØ¥ Ø±
ĠØ§ÙĦÙħØª ÙĪÙĤØ¹Ø©
ÙĨÙĬ Ø³Øª
ĠÙĪØªØ±Ùĥ ÙĬØ¨
ĠÙĦÙģ Ø§Ø¦Ø¯Ø©
ØªØŃ Ùģ
ĠÙĪØ¥ ÙħÙĥØ§ÙĨ
ac e
ĠØ³ÙĬ Ø³Øª
ĠØ¬Ø§Ùħ Ø¹Ø§Øª
ÙĬØ¯ ÙĪÙĨ
ĠØ¢ÙħÙĨ ÙĪØ§
ØĮ âĢ®
ĠØ¶ÙħÙĨ ÙĩØ§
ĠØ§ÙĦØŃØ¯ÙĪØ¯ ÙĬØ©
ĠØ± ÙģÙĬÙĤ
ĠÙĪØ§ÙĦ ÙĦÙĬ
ĠØ° Ø±Ø§Ø¹
ĠØ§ÙĦØ§Ø³ Ø¨
ĠØªØ³ Ø¬ÙĦ
ĠÙĦÙĦ Ø¨ÙĬØ¦Ø©
Ø´Ø§Ø± ÙĬØ©
ĠØ¨Ø¨ ÙĨØ§Ø¡
ÙĨØ§Ùģ Ø³
ĠØ§ÙĦØ£Ø·ÙĦ Ø³ÙĬ
ĠØ¨Ø§ÙĦÙĥ Ø«ÙĬØ±
Ø¥ Ø³Øª
ĠØºØ° Ø§Ø¦ÙĬ
ĠÙĬÙĦØª Ø²Ùħ
ĠØ§ÙĦÙħÙĪ Ø§ÙĩØ¨
ĠÙĥØ«ÙĬØ± ÙĪÙĨ
ĠØ§ÙĦØ±Ø¯ ÙĪØ¯
ĠÙĦÙĦØ¬ Ø§ÙħØ¹Ø©
Ø£ÙĨ Ùģ
ĠÙĦÙĦØ¯ Ø®ÙĪÙĦ
ĠÙĪØ§ÙĦØ¬Ùħ Ø§ÙĦ
ĠÙĦ Ø³Ø¨Ø¨
ĠØŃ ÙĬØ²
ĠØ§ÙĦØ¬ ÙĦØ§ÙĦØ©
Ġ199 1
Ø¥ ÙĦ
ĠÙĥ ÙħØ§ÙĨ
Ø£ Ø¬Ø±
Ø¦ ÙĩØ§
ĠØ³Ùģ Ø§Ø±Ø©
ĠØ§ÙĦØª ØºÙĬØ±
ĠØ§ÙĦØ± Ø§Ø¯
Ø§Øª ÙħÙĨÙī
ĠØ§ÙĤ Ø§ÙħØ©
ĠØªØŃ ÙħÙĬ
ĠØ§ÙĦØŃÙĬ ÙĪÙĬ
ĠØ· Ø§Ø¹Ø©
ĠÙħØ¹ Ø±
ĠÙĪØ³Ø± Ø¹Ø©
ĠØµ ÙĪØªÙĬ
ØªÙĤ ÙĪÙħ
ĠØ§ÙĦØ§Ùħ Ø§ÙĥÙĨ
ĠØ§ÙĦØªØ´ Ø®ÙĬØµ
ĠØ§ÙĦØ§Ø³ ÙĨØ§ÙĨ
Ø¹Ø¨ Ø§Ø¡
ĠÙĬÙģØ¹ÙĦ Ùĩ
ĠÙĨØ³ Ø¹Ùī
ĠÙĪØ§ÙĦØ³ÙĬ Ø§Ø³ÙĬ
ĠØ§ÙĦØ² Ø§Ø¦Ø¯Ø©
ĠÙħÙĦ ØŃ
ĠÙħØ¶ Øª
ĠØ§ÙĦÙħØ± Ø§Ø¬Ø¹
ĠØª ÙĥÙĬÙĬÙģ
Ø§ÙĤ ØµØ©
ĠÙĪØ¹ÙĦ Ø§ÙĤ
Ø¹ Ø§Ø¨
ĠØ§ÙĦØ« ÙĪØ§Ø±
ĠØ§ÙĦØ£ ÙĬØ¯ÙĬ
ĠÙĨ Ø³ØªØ®Ø¯Ùħ
ĠÙĦÙĦÙħ ÙĪÙĤØ¹
Ø±ØŃ ÙĦØ©
ĠØ¨Ø£ ÙĪÙĦ
ĠØ§ÙĦÙĦØ§Øª ÙĬÙĨÙĬØ©
ĠØ§ÙĦÙħ ÙĦÙĬÙĪÙĨ
ĠÙĪÙĨ Øµ
ĠØ§ÙĦØªØ´Ø±ÙĬ Ø¹ÙĬ
ĠÙħØ³ Ø¤
ĠÙĪ ÙĪØ¬ÙĪØ¯
ĠÙĬÙģ ÙĪÙĤ
Ùĩ ÙĪØ¶
ĠØ§ÙĦØ¹ÙħÙĦ Ø§ÙĤØ©
ĠÙĪ Ø§Ø¦ÙĦ
ĠÙĬ Ø¨ÙĬÙĨ
ĠØŃØ¬Ùħ ÙĩØ§
ĠÙĥ Ø£ÙĨÙĩ
ĠØ¬ Ø¯ÙĬ
ĠÙħ ÙĦØ§Ùĥ
ÙĪØ£ Ø¹ÙĦÙĨ
ĠÙħÙĥØ§ÙĨ Ø§
ĠØ«Ø§ÙĨ ÙĪÙĬ
Ø¨ Ø¤
ĠM ic
ĠØ§ÙĩØªÙħ Ø§ÙħØ§
ĠØ§ÙĦØ£ ÙĥØ±Ø§Ø¯
ĠØ´Ø± Ùħ
ĠØŃØµ Ø±ÙĬ
ĠÙĪÙĤ ÙĬÙħ
ĠØªØ¨ Ø¹Ø§
ĠØ§ÙĦÙĥÙĪÙĨ ØºØ±Ø³
ĠØ§ÙĦØ«ÙĦ Ø§Ø¬Ø©
ĠØ±Ùĥ ÙĪØ¨
ĠØ³ ÙĪÙĬ
ĠÙĬ Ø¨Ø¹Ø¯
ĠØ§ÙĦÙĤÙĬ Ø§Ø³
ĠÙĪØ£ ÙħØ±
ĠÙħØŃ Ø¸
ĠÙĩØ§ ÙĬ
Ġ15 00
ĠÙĦÙĦØ§Ø³Øª ÙģØ§Ø¯Ø©
ĠØ¹ÙĦÙħ Ùĩ
ĠØ§ÙĦØµ ÙĦÙĬ
ÙħØ³ ÙĬÙĨ
ĠØ§ÙĦØ¬ ÙĪÙĦØ§ÙĨ
Ø±ÙĬ ÙĥØ§ÙĨ
Øµ ÙĪØª
ĠÙĥØ± ÙĪÙħ
ĠØŃ Ø±Ø¬
ÙĦÙĥ Ùĩ
ĠÙģ Ø§ØŃ
ĠØ§ÙĦÙĥ ÙħØ§ÙĦ
Ø§Ø· ÙĬØ±
ĠÙħØ±ÙĥØ² Ø§
A T
ĠØ¶ Ø¹ÙĬ
ĠØ§ÙĦØªØ® ÙĦÙĬ
ĠÙħ Ø³ÙħÙī
ÙĪØ¡ Ø©
ĠØ§ÙĦ Ø§ÙħØ©
ĠÙģ Ø®Ø±
ĠÙĦÙĦÙĥ Ø«ÙĬØ±
ĠØ§Ø³Øª ÙĤØ±
ÙĥØª Ø©
ĠØ§ÙĦÙĩ Ø¯Ø§ÙĬØ§
ÙĪÙĨ ÙĬÙĨ
ĠÙĦØ¹Ø¨ Ùĩ
ĠØ§ÙĦÙĨØŃ Ø§Ø³
ĠØ§ÙĦØ§ÙĨØªÙĤ Ø§ÙĦÙĬØ©
ĠÙħÙĨ ØµØ§Øª
ĠØ§ÙĦ Ø§Ø°
ĠØ§ÙĦÙħ Ø±Ø¨Ø¹
Ùģ Ø¯
Ø¢ Ùħ
ĠØ§ÙĦØ¹ Ø¨Ø±ÙĬØ©
ĠÙħØ²ÙĬØ¯ Ø§
ĠØ§ÙĤ Ø¯Ùħ
ĠØ¬ÙĬÙħ Ø³
ĠØ¨ Ø§Ø°ÙĨ
Ġ199 7
ĠØ¨Ø§ÙĦØ¯ Ø®ÙĪÙĦ
ĠØ§ÙĦÙħØ³Øª Ø¹ÙħÙĦØ©
ÙĬØ¨ Ø§Ø¯
ĠØŃØ± ÙĪØ¨
ĠØ§ÙĦØ·Ø§Ø² Ø¬Ø©
ĠØ¨Ø·Ø± Ø³
ĠÙĪØ§ÙĦØªØ¹ Ø§ÙħÙĦ
Ùħ ÙĬØ¯
ĠÙĪÙħ Ø²
ĠÙĪØµÙĪÙĦ Ùĩ
ØªØ² ÙĤØ©
ĠØµ ØºØ§Ø±
ĠØ¨ÙĪØ± Ø³Ø¹ÙĬØ¯
ĠØ§Ø¹ Ø¬Ø§Ø¨
ĠÙĬØ£ ÙħØ±
ĠØ§ÙĦØª ÙĪØ¹ÙĬØ©
ĠØµØŃÙĬ ØŃØ§
Ø·Ø¨ ÙĤØ©
ĠÙħÙĪØ¬ ÙĩØ©
ĠØ¨ÙĦ Ø¬ÙĬÙĥØ§
ĠØ§Øª Ø³
ĠØ£Ø³Ø§Ø³ ÙĬØ§
ĠØ® Ø°
ĠØ§ÙĦÙħÙĩ ÙĨ
ĠØ¹ÙĤ ÙĬØ¯Ø©
ĠØµÙĪØ± Ø§
Ġ Ø§Ø¯Ø±
ĠØ§ØŃØªØ¬ Ø§Ø¬Ø§Øª
ÙĬØ² Ø§ÙĨ
ĠØ§ÙĦØ¹ÙĦØ§Ø¬ ÙĬØ©
ĠØ§ÙĦÙħØ¨ ÙĬØ¯Ø§Øª
ĠØ¹Ùħ ÙĬÙĤØ©
ĠÙħØ³ Ø¬ÙĦ
ĠÙĦØ° ÙĪÙĬ
ĠØ¨ Ø§ÙĬØª
ĠÙĪÙĬ Ø¨ÙĦØº
Ø³ ÙĥØ§ÙĨ
ĠØªÙĨ Ø§ÙĦ
ĠÙĦÙĦ Ø¨Ø±ÙĨØ§ÙħØ¬
Ø§ÙĦ Ø§Ø¹
Ġ" ØĮ
ĠØ§ÙĦÙĪÙģ Ø§ÙĤ
ĠÙĪØ¥ Ø¹Ø¯Ø§Ø¯
ĠØµ Ø§Ø¯Ø±Ø§Øª
ĠØ§ÙĦ Ø§Ø²ÙħØ©
Ø¨ ÙĪØ§
ÙĬÙħ Ø§Ø±
ĠØ§ÙĦØªØ± Ø´ØŃ
ĠØ¥Ùħ Ø§Ø±Ø©
ĠØ§ÙĦÙħØŃ Ø§ÙĥÙħØ©
ĠØ£Øµ Ø¹Ø¨
ĠØ§ÙĦÙĨÙĩ Ø¬
Ø¯ ÙĦÙĬÙĦ
ĠØ¹ ÙĬØ´
Øª ÙĤØ§Ø¡
ĠÙħÙĦ Ø®Øµ
ĠØ§ÙĦØµØ± Ø§Ø¹Ø§Øª
ĠÙĬÙĨ ÙĤØµ
ĠØ£Ø¯ ÙĪØ§Ø±
ĠÙĬØ® ÙĪØ¶
Ø± Ø§Ø¶ÙĬ
ĠÙĨØ® Ø¨Ø©
ĠÙĬ ÙĪØ¶Ø¹
ÙĪØ§Øª ÙĬØ±
ĠÙĦÙĦÙħ ØŃØ§ÙģØ¸Ø©
v e
ĠØ¬ Ø±Ø¨
ĠÙĥØ§Ø± ÙĦ
ĠØ§ÙĦÙĥ Ø¹Ø¨Ø©
ĠÙĦÙĦØ¯ Ø¹Ùħ
Ø°Ø± Ø§
Ġ Q
Ø¶ÙĬ ÙĬÙĤ
ĠØ§ÙĦÙĨ ÙĤØ±
ĠØªÙĪ Ø§Ø²ÙĨ
ïº ł
ĠØªÙĦÙĤ Ø§Ø¦ÙĬ
ĠØ° ÙħØ©
ĠÙĦØª ÙĦØ¨ÙĬØ©
ĠØ§Ø³ Ø¦ÙĦØ©
ĠØ§ÙĦØ«ÙĦ Ø¬
ÙģØ± Ø§Øª
ĠÙħØŃØª ÙĪÙĬØ§Øª
ĠØ§ÙĦØ§ÙĨ ØªØµØ§Ø±
ĠØªÙĤÙĦÙĬ Øµ
Ø¨Ø± Ø§Ø¡
ĠÙĨÙĩ Ø§Ø±
Ùħ ØªÙī
ÙĩØ± ÙĬØ©
ĠØ¨ÙĤ Ø³Ùħ
ĠÙĦÙĦ Ø¹ÙĪØ¯Ø©
ĠØ§ÙĦØ¯ ÙħØ§Ùħ
ĠØª Ø°Ø§ÙĥØ±
Ø¯Ø§ ÙĪÙĦØ©
ØªØ¬ ÙĬÙĨ
ĠÙĦÙĦØ§Ø³Øª Ø®Ø¯Ø§Ùħ
! .
Ø§Ø¦ÙĦ Ø§Øª
ĠÙħ ÙĢ
ĠÙĬØŃØ§ÙĪÙĦ ÙĪÙĨ
ĠØ§ÙĦÙĩ ÙĪÙĦÙĨØ¯ÙĬ
ĠØ§ÙĦØ¯Ø± Ø§Ø¬Ø§Øª
ĠØ§Ø³Ùħ Ø§Ø¹ÙĬÙĦ
ĠØ§ÙĦÙħØ¹ ÙĬØ´
ĠØ§ÙĦØ§ÙĨ Ø¬ÙĦÙĬØ²ÙĬ
ĠØ§ÙĦØ·Ø¨ Ø§Ø¹Ø©
ĠÙĦØ£ ØºØ±Ø§Ø¶
ÙĪÙĨ Ø±ÙĪØ§
ĠØ§ÙĦØ£ ÙģÙĤ
ĠØ§ÙĦØ¹ ØªÙĬ
ÙģØ¸ Ø©
ĠÙĪÙĦ Ø¯Øª
ĠÙĨ Ø§ÙĦ
ĠÙħØ± ØªØ¨
ÙĪÙĬ ØŃ
ĠØ´Ø¹ Ø§Ø±Ø§Øª
ĠØ§ÙĦÙħÙĥ Ø§ØªØ¨
ĠØ¬Ø³ Ø¯Ùĩ
ĠØ§ÙĦÙĨØ² Ø§Ø¹Ø§Øª
ĠØ§ÙĦÙħ Ø¬ÙĦØ¯
ØªØŃ ÙħÙĦ
ot el
ÙĦ ÙĦØª
ĠÙĪØ§ÙĦØ¯ ÙĬÙĨ
ĠØŃÙĤÙĪÙĤ ÙĩÙħ
ĠØ§ÙĦØ± Ùģ
ĠÙĬØ¤ Ø¯Ùī
ĠØ§ÙĦÙħØ³ Ø§ÙĩÙħ
ÙĪÙĨ Ùĥ
ĠÙģ Ø§ÙĤ
Ø´ÙĩØ¯ Øª
ĠØª Ø®Ø·Ø·
ĠÙĨ ÙĪØŃ
Ø¶ Ø¬
ĠØ§ÙĦØ§ÙĨ ØªÙģØ§Ø¶Ø©
ĠÙģØ± ÙĨØ³
ĠØ¯ Ø§ÙĨÙĬ
Ø² Ø§Ø¹
ĠÙħØªØ£ Ø®Ø±
ĠØ§ÙĦØ² Ø±ÙĤØ§Ø¡
ĠÙĤ Ø§Ø³ÙĬØ©
Ø¬ Ø¯ÙĬØ¯
ĠØ§ÙĦØ¸ ÙĪØ§ÙĩØ±
on d
ĠØ§ÙĦÙħÙģ ÙĬØ¯
ïº Ĺ
Øº Ø§ÙĨÙĬ
ĠÙĬØµ ÙĦÙĬ
ĠÙĬØª Ùģ
ĠÙĪØ¬Ùĩ Øª
ĠÙħØ§ ÙĥØ³
Ø³ ØŃ
ĠØ¨ÙĨÙģØ³ ÙĩØ§
ØªØ¹ Ø§ÙĦ
ÙĪØª ÙĤÙĪÙĦ
Ġ3 50
ĠÙĪØ§ÙĦØ¹Ø§ÙĦÙħ ÙĬØ©
Ø§ÙĦÙħ ÙĪÙĤØ¹
ĠÙħØ³Ø¨ ÙĪÙĤØ©
ĠØ§ÙĦØ¹ Ø§ÙģÙĬØ©
ÙħØ± Ø§Ø±
ĠØ¥Ø³ ØŃØ§ÙĤ
Ø¯ÙĬ ÙĪ
ĠÙĦÙĦØ± Ø¬ÙĦ
ĠØ¥ Ø®Øª
ĠÙĬÙĪÙĦ Ø¯
Ø§ÙĦØµ ÙĬÙĨ
ØŃÙĪ Ø°
ĠÙĪØ² ÙĬØ±Ø§
ĠÙĪØ§ÙĦ ÙĤØ¯Ø±Ø©
Ġ Ø§ØµÙĦ
ĠØŃ ÙĬØ©
ĠØ§ÙĦÙĥØ± Ø¯ÙĬ
ÙĤ Ø§Ø¨Ø©
ĠØ®ÙĦÙģ Ùĩ
ĠØ± Ø§Ø¦Ø¯Ø©
Ùħ ÙĪØŃØ§Øª
Ø§Øº ÙĬØ©
ĠØ§ÙĦØªØ³ Ø§ÙħØŃ
ÙĪØ¨ Ùī
ĠØ¹ Ø¯ÙĬØ¯
Ø§ Ùī
ĠÙĪØ§ÙĦØ¥ ÙĤÙĦÙĬÙħ
ĠØ§ÙĦØ¯ Ùģ
ĠØ£Ø¹ÙħØ§ÙĦ ÙĩÙħ
ĠØ¹ ÙģØ´
ĠÙĪ Ø§ØµÙĦ
ĠØ§ÙĦÙħØª ÙĥØ±Ø±Ø©
ĠÙħØ¹ ÙĤØ¯Ø©
ĠØ§ÙĦØ§Ùģ ÙĦØ§Ùħ
ac h
ĠØ§ÙĦØ¹Ùħ ÙĪØ¯
ĠØ§ÙĦÙħØ§Ø¶ ÙĬÙĬÙĨ
ĠÙĪÙĤ ÙĪÙĦÙĩ
ĠØªØŃØ¯ ÙĬ
ĠØ§ÙĦØ§Ø¨ ØªØ¹Ø§Ø¯
ĠÙģØ¥ÙĨ ÙĩÙħ
ĠÙģÙĬ Øª
ĠØ§ÙĦÙĥ ØŃÙĪÙĦ
ĠÙħØª Ø´
ĠÙĪÙģ Ø±ÙĬÙĤ
Ø³ÙĬ ØŃÙĬ
ĠØµ Ø¯ÙĬÙĤØ©
ĠØ§ÙĦÙĨÙħ Ø§Ø°Ø¬
ĠØ§Ø³Øª Ø±Ø§ØªÙĬØ¬ÙĬØ§Øª
ĠØ§ØªÙģØ§ÙĤ ÙĬØ§Øª
ĠÙĦÙĦØ³ ÙģØ±
ĠØ§ÙĦØªØ¯Ø±ÙĬØ¨ Ø§Øª
ĠÙħØ³ Ø¬
ĠÙĦÙĦ Ø·ÙĦØ¨Ø©
ĠØªÙĥ ÙĦÙħ
ĠØµÙģØŃ ØªÙĩ
ĠØ§ÙĦØ§Ø· ÙĦØ§ÙĤ
ĠâĢ¦ .
ĠØŃ ÙĦÙĬØ¨
ĠØ§ÙĦÙħÙĨ ØµØ±
ĠØ§ÙĦØŃ Ø§ÙĦÙī
ĠÙĦÙĦÙĥ Ø¨Ø§Ø±
ĠØªÙĪØµ ÙĬØ§Øª
ĠØªØª Ø¬Ùĩ
ĠÙħØŃ ØªØ±
ĠÙĪØµ Ø§Ø±
ĠØªØ¹Ø¯ Ø¯
ĠØ§ÙĦØªØº ÙĦØ¨
ĠØ³Ø¹Ø§Ø¯ ØªÙĩ
Ø§ÙĦÙħ ØµØ¯Ø±
ĠØ§ÙĦÙĨÙĤ Øµ
ĠØ§ÙĦÙħØ¯ Ø®ÙĦ
ĠâĢľ .
ĠØªØ´ Ø±ÙĬ
ĠÙĦØ¥ Ø³Øª
ĠØµ ØºØ±
ĠÙĪØ¹ ÙĤ
ÙĬØ¯ ÙĬØ©
ĠÙĬØª Ø¶ØŃ
ĠÙĪÙĨ ØŃ
ÙĪ Ø§Ø±ÙĬ
ĠØŃÙĥ Ø§ÙĬØ©
ĠÙĦÙĦ ÙĩÙĬØ¦Ø©
ĠØ§ÙĦÙĥÙĦ ÙĪÙĬ
ĠØ¨ Ø³ÙĦØ§Ùħ
ĠØ§ÙĦÙħÙĨ Ø¹Ùħ
ĠØ£Ø¹ÙħØ§Ø± ÙĩÙħ
ĠØ§ÙĦØ§Ø³ Ø¦ÙĦØ©
ÙĪÙĬ Ø³Øª
ĠP DF
Ph one
ĠØ¨Ø§ÙĦ Ø±Ø¨Ø§Ø·
ĠØ¨Ùħ Ø¬ÙħÙĪØ¹Ø©
ĠÙĩ Ø§ÙħØ§
ĠØ³ Ø§Ø¦ÙĦ
ĠÙħÙĨØ¸ ÙĪØ±
ĠÙĤ Ø§Ø¶ÙĬ
Ø§Ùģ ÙĬÙĥ
ĠÙĬØŃ ÙĪÙĦ
ĠØ§ÙĦØ²ÙħÙĨ ÙĬ
ĠØ¨ÙĪÙĦ Ø³
ÙĥÙĨ ÙĬØ³Ø©
ĠØ®ÙĦ Ø·
ĠØ§ÙĦÙħØ³Øª Ø«ÙħØ±
r am
ĠÙĬØª ÙĩÙħ
ĠØ§ÙĦÙĦ Ø°ÙĬ
ÙĬÙĪ Ø¨ÙĬ
ĠØ¬Ø± Ø§ØŃÙĬØ©
ÙĪØª Ø¹
Ø§ÙĨ Ø¬
c k
ĠØ§ÙĦÙĪØ¬ ÙĪÙĩ
ĠØ§ÙĦØªÙĦÙģ Ø§Ø²
ĠØ¨Ø¯ Ø§Ø®
ĠØµÙĪØ± Ùĩ
ĠØ¨ Ø±ÙĬÙģ
ÙĬØ² ÙĬ
ĠØ§Ø¹ Ø±Ø¶
ĠÙĬØŃ Ø±Ùħ
ĠØ§ÙĦÙĥ Ø§ÙĦØ³ÙĬÙĪÙħ
ĠØ± Ø®ÙĬØµØ©
ĠÙĬØ³ Ø¹Ø¯
ĠÙĪØ§ÙĨ ØªÙħ
Ø±ØŃ ÙĬÙĦ
ĠØªØ¹ ÙĩØ¯
ĠÙĦØº Ø±Ø¶
ĠØ±Ø¶ ÙĪØ§ÙĨ
ĠØ¥ ÙĬØ§Ùĩ
ĠÙĬÙĨ Ø§ÙĤØ´
Ø¨Ø¹ Ø§Ø«
ĠØ² Ùħ
ĠÙĪØª ÙĬØ±Ø©
ÙĤØª ÙĩÙħ
Ø§ÙĦ Ø¨Ø±ÙĨØ§ÙħØ¬
ĠÙĥÙĬÙĦÙĪÙħ ØªØ±Ø§
Ø§Ø± ØªÙĬ
ĠØ§ÙĦØ¬ØºØ± Ø§ÙģÙĬ
ĠØª Ø¶ÙĬÙģ
V D
ĠØªÙĪ ØµÙĦØª
ĠØ§Ø¶Ø·Ø± Ø§Ø¨
ĠØ¨Ø§ÙĦØª Ø²Ø§ÙħÙĨ
l d
ĠÙĦÙĦØµØŃ ÙģÙĬÙĬÙĨ
ĠØŃ Ø§Ø³ÙĪØ¨
ĠØ§ÙĦÙħØ± Ø¬ØŃ
ĠØ§ÙĦÙģ Ø§Ø±Ø³
ĠÙĬØŃ Ø¸Ùī
ĠØ§ÙĦØ¹ Ø§Øµ
ÙĦ Ø·Ø©
ĠØ§ÙĦÙħØ¹ Ø³ÙĥØ±
ĠØ¹ÙĩØ¯ Ùĩ
ĠØ§ÙĦØ· Ø±ØŃ
ÙĪÙĥ Ø§
ĠØ§ÙĦÙħ Ø¸Ø§ÙĩØ±Ø§Øª
ĠÙĥØ¨ÙĬØ± Ùĩ
ĠÙĥÙĦÙĬÙĨ ØªÙĪÙĨ
ĠØ§ÙĦØŃ ÙĪØ¶
ĠØ¥Ø¶Ø§Ùģ ÙĬ
ĠØ§ÙĦÙĤ Ø§ØªÙĦ
ĠÙĪØ§ÙĦ ÙĪØµÙĪÙĦ
ØŃ Ø§Ø«
ĠØ¯ÙĬ Ø§Ø¨
ĠØ§ÙĦØ® Ø§Ø·Ø¦Ø©
Ø§Øº ÙĪ
ĠØ§ÙĦÙĪ ØŃÙĬ
ĠÙĪØ¥ ÙĤØ§ÙħØ©
ĠØ§ÙĦØ£Øº Ø§ÙĨÙĬ
ĠÙĬÙĨ Ø§ÙĦ
ĠÙĦØ¬ Ø§ÙħØ¹Ø©
ĠÙĬØ¹ ÙĬÙĨ
ĠÙĦØª Øª
ĠÙĦÙĦ Ø§ÙĩØªÙħØ§Ùħ
ĠÙĪØ¬ ÙĨ
ĠØ§ÙĦÙħØ®Ø§ÙĦÙģ Ø§Øª
ĠØ¨ Ø§Ùģ
ĠØŃ ØµØ§Ø±
ĠØ§ÙĦØ¥ÙĨ Ø¬Ø§Ø²
ĠÙĪ Ø¹Ø¶ÙĪ
ĠØ¨ ÙĩØ¯ÙĪØ¡
ĠØ§ÙĦØ¹Ø³ÙĥØ±ÙĬ ÙĬÙĨ
ĠØ¬ ÙĪÙĦØ§Øª
Ø³ÙĬÙĨ ÙħØ§
Ø§Ø¡ Ùĩ
ĠØ§ÙĦÙħ Ø¶ÙĬ
ĠØªØªØŃ ÙĤÙĤ
ĠÙĬ ÙĦÙĬÙĤ
ĠÙħÙĦÙĬ Ø´
Ø±Ø¨Ø¹ Ø§Ø¡
ĠÙħÙĨ Ø§Ø³
ĠØ§Ø¨ÙĨ ØªÙĩ
ĠÙĪØª Ø¯ÙħÙĬØ±
Ø§Ùĥ Ø§Øª
ĠØº Ø§Ø±Ø§Øª
ĠØ§ÙĦÙħØ® Ø§ÙĪÙģ
ĠØ¬Ø² ÙĬÙĦØ§
ÙĬØ± Ùī
ĠØ§ÙĦÙħØµ Ø·ÙģÙī
ĠØ§ÙĦÙħ Ø¨ÙĬØª
ĠØ¬ ÙĪÙĬ
ĠØ§ÙĦÙħØ® Ø§ÙĦÙģØ©
ĠÙĩØ¯ ÙģÙĩ
ĠÙĪØ§ÙĦØª Ø¨
ÙĤØ¨ Ø§Ø·
ĠØ¨ Ø§Ø¬
ĠÙĪØ§ÙĦØ¥ Ø±ÙĩØ§Ø¨
ĠØµÙĦ Ø§ØŃÙĬØ©
ĠØ§ÙĦØ³ ÙĩÙħ
ĠÙĤ Ø±ÙĬ
ĠØ§ÙĦØªÙĦÙĤ Ø§Ø¦ÙĬ
ĠÙĪÙĦÙĥ Ùħ
Ø³ Ø£
Ø®Ø± Ø·ÙĪÙħ
ĠÙħØµÙĨ ÙĪØ¹Ø©
ĠÙĬØ±ØºØ¨ ÙĪÙĨ
ĠØ¥ÙĬ ØµØ§ÙĦ
ĠØµ Ø§Ø¯
ĠÙĥ Ø±ÙĬÙħØ©
ĠØ¨Ø± ÙĪØŃ
ĠØªØº Ø°ÙĬØ©
ĠØ¯ ÙĬÙħÙĤØ±Ø§Ø·ÙĬØ©
ĠØ§ÙĦÙħÙĤØ§Øª ÙĦÙĬÙĨ
Øª Ø±ÙĬØ§Øª
ĠÙħ Ø¬ÙĦØ¯
ÙĪÙĩ ÙĬÙĨ
ĠØŃØ¶Ø± ÙħÙĪØª
ĠØ§ÙĦØ£ Ø¹ÙĪØ§Ùħ
ĠØ£Ø±Ø¨Ø¹ ÙĬÙĨ
u g
ĠØ§ÙĦØ¹ÙĦ Ø§Ø¬Ø§Øª
ĠØ§ÙĦÙĨÙħ Ø·
ĠØ¨Ùħ ÙĪØ¶ÙĪØ¹
ĠØ³Ùħ Ùĥ
ØŃ ÙĪÙħ
ĠP l
ĠØµÙĬ Øº
ĠÙĬ Ø³Ø¨
ĠØ§ÙĦØŃØ¶ Ø§Ø±Ø§Øª
Ø§Ø´ Ùĩ
ĠØµ Ùħ
ĠÙĦ ÙĪØ¬Ùĩ
ĠÙĪØ§ÙĦÙħ ØºØ±Ø¨
ĠØ§ÙĦØ· ÙħØ§Ø·Ùħ
ĠØ£Ø± ÙĪØ¹
ĠÙģÙĦ ÙĤØ¯
ĠØ§ÙĦÙħØ´Ø± Ø¹
ĠØ®Ø¯Ùħ Ø§ØªÙĩØ§
ĠÙĬ ÙĥØ±Ùĩ
ĠÙģØ§Ø± ÙĪÙĤ
ĠØ§ÙĦÙħÙĥ Ø§ÙĦÙħØ§Øª
ĠÙĦ ÙĥØ§ÙĨ
ĠÙĦÙĦ Ø¯Ø±Ø§Ø³Ø©
ÙĤØ· Ø§Ø±
ĠÙĪ Ø±ÙĬ
ĠÙĬØ¬ ÙĬØ¨
ĠÙĪÙħ ÙĥØ§ÙģØŃØ©
ÙĪØ§Øª Ùĩ
ĠØ¹Ø± Ø§ÙĤÙĬ
ĠØ§ÙĦØ¨ ÙĤØ¹
ĠÙħ ÙĪØ¬Ùĩ
ĠØ§Ø« ÙĨØ§ÙĨ
ĠØ¨Ø¥ Ø±Ø³Ø§ÙĦ
ĠØ§ÙĦØ¹ ÙĤÙĪÙĦ
ĠØªÙĪÙĤ ÙģØª
ĠØ§ÙĦØ® Ø§ÙĦ
ÙĨ ÙĨ
ĠØ§ÙĦØªØ¯ Ø§Ø¨ÙĬØ±
ĠÙħ ÙĪØ¹
ĠØ§ÙĦÙħØªØ· Ø±Ùģ
ÙĬÙĥØ§ÙĨÙĬ ÙĥÙĬØ©
ÙĪØ§Ø¬ ÙĨ
ĠØ¨Ø£ ÙħØ±Ø§Ø¶
ÙĬ ÙĥÙĪÙĨ
ĠØ± Ø¬Ø¹
ĠØ§ÙĦÙĥÙĬÙħÙĬ Ø§Ø¡
ĠÙħØ³ÙĬØ± ØªÙĩ
ĠØ¹Ø¨ Ø§Ø¯Ùĩ
ĠØ§ÙĦÙħØ³Øª ÙĨØ¯Ø§Øª
ĠÙĤØ§Ø¯Ø± ÙĬÙĨ
ĠÙĬØ³ ÙĩÙħ
ĠØªØ´ Ø§ÙĩØ¯
Ø§ÙĨ ÙĪ
ĠØ§ÙĦØ´Ø± Ø·
ĠØ§ÙĦØ£Ø³ Ø§Ø¨ÙĬØ¹
Ø« ÙĬØ©
ĠØªÙĨÙģÙĬ Ø°Ùĩ
ĠÙħÙĨ Ø§ØµØ¨
ĠÙĦ Ø®Ø¯ÙħØ§Øª
ĠØ§ÙĦØªØµ Ø±ÙĬØŃ
ĠÙħ ÙĬØ¬
ĠÙħØ± ØªÙģØ¹
ĠØªØ³ Ø±Ø¨
ĠØ£ÙħÙĬØ± ÙĥÙĬØ©
Ø§Ø³ Ø¹
ĠÙĦÙĦ ÙħØ¯ÙĬÙĨØ©
ĠØ¬Ø² Ø¦ÙĬØ§
ĠIn ter
ÙĦØª ÙĩÙħ
ĠØ§Ø¬ Ø¹ÙĦ
ÙĪØª Ø´ÙĬ
ĠÙģØ¹ ÙĦÙĬÙĥ
ĠØ§ÙĦÙħØ·Ø± ÙĪØŃØ©
ĠØªØŃ ØªÙĦ
ĠÙħØŃ Ø¨ÙĬ
ĠØªØµ Ø§ÙħÙĬÙħ
ĠØ§ÙĦÙħØµØ± ÙģÙĬ
ĠØ¢ ÙħØ§ÙĦ
ĠØ£ÙĨÙĪØ§Ø¹ ÙĩØ§
ĠÙħØ´Ø§Ø±Ùĥ Ø§Øª
ĠØŃ Ø§Ø¶
ĠÙĪØ³ÙĦØ§Ùħ Ø©
Ø¹ Ø¬Ø©
ĠØ£Ø³Ø± ØªÙĩ
ĠØ§Ø¹ Ø¯
ĠÙĨØ§Ø¦ Ø¨Ø§
ĠÙĪÙĬ Ø¤
ĠØ§ÙĦÙĨØ¨Ø§Øª ÙĬ
i al
ĠØ§ÙĦØ¯ÙĬÙĥ ÙĪØ±
ĠÙĪØ§ÙĦØ¯ ÙĪÙĦØ©
ĠØ§ÙĦØŃØ³ÙĬÙĨ ÙĬ
ĠØ® Ø±ÙĤ
ĠØŃÙĦ ÙĪ
ĠØ§ÙĦØ¹Ø§Ø¦ÙĦ ÙĬØ©
Ø· Ø¹Øª
ĠØ§ÙĦØŃØ³ ÙĨØ©
ĠØ§Ø³Øª Ø¹
ĠØ´Ùĩ ÙĬØ¯
ĠÙħØ¹Ø±Ùģ ØªÙĩ
ĠÙĪØ§ÙĦØª ÙĪØ²ÙĬØ¹
ĠÙĪØ£Ø¶Ø§Ùģ Øª
ĠØ§ÙĦÙĥÙĨ Ø§Ø¦Ø³
ĠØ§ÙĦØ± ÙĪØŃÙĬ
Ø§ÙĦØ³ ÙĬØ¯
ĠØ¹ Ø³ÙĬØ±
ĠÙĤ Ø§Øª
ÙĬÙĨØ§ ÙĬØ±
ĠÙĨØ§Ø³ ÙģØ©
ĠØ§ÙĦÙħØ´ ØªØ¨Ùĩ
ĠÙĪØ§Ø® Øª
ĠÙĪÙħ Ø§Ø²
ĠØ±Ø¤ ÙĬØªÙĩ
Ø´ ÙĤÙĤ
ĠØ§ÙĦØº ÙĬØ¨
ĠÙĦ Ø¨Ø¯Ø¡
Ø§Ø« ÙĬ
ĠØ£ Ø¸ÙĨ
Øº Ø§Ø²ÙĬ
ĠØ± ÙĪØ²
ĠØ§ÙĦÙĥ Ø§ÙģÙĬØ©
ĠÙĦÙĤ Ø§ÙĨÙĪÙĨ
ĠØ§ÙĦØ£Ùħ ÙĬØ±Ø©
Ø§Ø° Ø¨
ĠÙĦØªØ¹ ÙĦÙħ
ĠØªØ£Ø³ Ø³Øª
ĠØªÙĤØ¯ÙĬÙħ ÙĩØ§
ĠØ³Ùħ Ø§Ø¡
T C
ØºÙĦ ÙĪ
ĠÙĬØ´Ø¹Ø± ÙĪÙĨ
ĠÙĦÙĦÙĨ Ø´Ø±
ĠÙĦÙĦ Ø´Ø±Ø·Ø©
ĠØ±Ùģ ØŃ
ÙħÙĨØª Ø¯ÙĬØ§Øª
ÙĢÙĢÙĢÙĢÙĢÙĢÙĢÙĢ ÙĢÙĢÙĢ
Ø´ ØºØ§ÙĦ
ĠØ± ÙĬÙĨ
ÙĪÙģÙĬØ³ ÙĪØ±
ĠØªØ¯ Ø¹Ùī
Ø· Ø¹Ùħ
Ø§ÙĬ ÙĬØ³
ĠØ¨ÙĬØª Ùĥ
ĠØ§ÙĦØ· ÙĬØ§Ø±
ĠÙĬØŃÙħÙĦ ÙĪÙĨ
ĠØ£ÙĬ ÙĤ
ĠØ§ÙĤØªØŃ Ø§Ùħ
ĠØ£Ø® ØªÙĬ
ĠØ³ Ø§ØŃÙĦ
ĠØ§ÙĦØ´Ø± ÙĪÙĤ
ĠØ§ÙĦØ£ÙĪÙĦÙħ Ø¨ÙĬØ©
ĠØ§ÙĨ ÙĤ
ĠÙĦ ÙģØ¶
ĠØ§ÙĦØ§ÙĨØª Ø´Ø§Ø±
ĠØ§ÙĦØ· Ø§Ø¦ÙģØ©
ĠÙĪØ³ Ø§Ùħ
Ø£ÙĬ ÙĩØ§
ĠØ§ÙĦÙĪØ· ÙĨÙī
Ø¨Ø§ØŃØ« ÙĬÙĨ
ĠÙĨ Ø¨ÙĬÙĩ
ĠØ§ÙĦØ¬Ø± Ø§ØŃØ©
ĠØ§ÙĦØ§Ø³Øª Ø«
ĠÙĦÙĦ Ø¹Ø¨Ø©
ĠÙħ ÙĤØ·
ĠÙĥ ØŃ
ØŁ "
ĠØ¬Ùħ Ø§Ø¹ÙĬ
ĠÙĪÙĦ Ø¯ÙĬ
ĠØ¨Ø§ÙĦ Ø®ÙĬØ±
ĠØ¥ÙĤ ÙĨØ§Ø¹
ĠÙĪÙĥÙĦ ÙħØ§
ĠØ® ÙĦÙĬØ©
ĠÙĨÙħÙĪØ°Ø¬ Ø§
ĠØ§ÙĦØ¨Ø§Ø· ÙĨ
ĠØ§ÙĦÙħØ¤ ÙĩÙĦØ©
ĠØ§Ø® ØªÙģØ§Ø¡
ĠØ¥ Ø¨ÙĨ
ĠÙģ Ø°ÙĦÙĥ
ÙĬÙĤ Ø§
ĠÙħ Ø´Ø§Ø±
ĠØ¨Ø£ Ø³Ø±
Ø§ÙĦØ¯ ÙĥØªÙĪØ±
ĠØ§ÙĦØ¢ ÙĦÙĬØ©
ĠØªØŃ Ø±
ĠØ§Ùħ ØªØµØ§Øµ
ĠÙĤØ¯ÙĬ ÙħØ§
ĠÙħØ¹ Ø§ÙĨ
ĠÙĪØ§ÙĦØª ÙĨØ³ÙĬÙĤ
ĠØ§ÙĦÙħ ÙĬÙĨØ§Ø¡
ĠÙģÙĦ Ø³ÙģØ©
ØªØ± Ø¯Ø¯
ĠØ§ÙĦÙģ Ø§Ø®Ø±Ø©
Ø³ ÙĦÙĬ
ĠÙĦØ§Ùģ ØªØ©
Ø´ ÙĪÙĨ
ĠØ´ ÙĪÙģ
Ġ j
ÙĥÙĬ Ø§ÙĨ
Ø±Ø´ Ø§Ø¯Ø§Øª
ĠÙĦÙĩ Ø¤ÙĦØ§Ø¡
ĠØ´ÙĩØ¯ ØªÙĩØ§
ĠÙĪØµÙĦ ÙĨØ§
ĠØ± ÙĪØ³ÙĬ
ÙĪØ£ ÙģØ§Ø¯
ĠØŃØ§ÙĦ ØªÙĩ
ĠØ³Ø± Ø§
ĠÙĪØ§ÙĦ ÙĨØ³
Ùĥ ÙĢ
ĠØ¨ Ø§ÙĤØ©
ĠØ§ÙĦØ¹ Ø±ÙĤ
Ġ199 5
ĠØµÙĦØ§ØŃ ÙĬØ§Øª
vis or
ĠØ± Ùĩ
ĠÙĤØ¨ Ø§Ø¦ÙĦ
ĠØ§ÙĤØªØ± Ø§Ø¨
ĠØ§ÙĦØ§ØªÙĩ Ø§Ùħ
ĠÙĦØ§Øª Ø®Ø§Ø°
Ġ3 60
ros oft
Øª ÙģØ³ÙĬØ±
ĠØ§ÙĦØ· Ø¨ÙĬØ¹
Ø§Ø¯ ÙĦØ§Øª
ÙĩÙĦ ÙĬØ©
ĠØ§ÙĦÙĪØ± ÙĤÙĬØ©
ĠØ´ÙĬ ÙĪØ¹Ø§
ĠØ§ÙĦØ£ Ø®ÙĦØ§ÙĤÙĬØ©
ĠØ§ÙĦÙħÙĥØª Ø¨Ø§Øª
ĠÙĦ Ø¬ÙĩØ©
ĠÙĤØ¨ÙĦ ÙĩØ§
ĠØ§ÙĦÙħ ÙĬØ²Ø§Øª
ĠØªØ¶ÙħÙĨ Øª
ĠØ§ÙĦØ§Ø³ ÙĪØ¯
ĠØ§ÙĦØ£Ø¯ ÙĪØ§Ø±
ĠÙĦÙĦ Ø¬ÙĦÙĪØ³
ĠÙĦÙĨÙģØ³ Ùĥ
Ø³Ø¨ ØŃØ§ÙĨ
ĠÙĦÙĦØª Ø®
ĠØªØ± Ø´ÙĬØŃ
Ø§Ø²ÙĬ Ø§Ø¡
ĠØ§ÙĦÙħ Ø®ØªØ§Ø±
ĠØ§Ø± Ø¨Ø¹Ø©
ĠØ§ÙĦØŃ ÙĦÙĤØ§Øª
ĠÙĪØ§ÙĦÙĨ Ø¬Ø§ØŃ
ĠÙĪÙħ ØªÙĨ
s a
ĠØ¨ Ø·Ø¨ÙĬØ¹Ø©
ĠÙĥ Ùĩ
ĠØ§ÙĦÙĤ ÙĦÙħ
ĠØ¨Ø¯Ø± Ø§Ø³Ø©
ÙĪØ¨ Ø§ÙĨ
en ter
ĠÙĪ Ø¶Ø±ÙĪØ±Ø©
ĠØ£ ÙĦÙĤÙī
ĠÙĨÙĤØ¯ ÙĬØ©
Ø¨ Ø¦Ø©
ĠÙħØ±Ùĥ Ø¨Ø§Øª
ĠØ§ØŃ ØªÙģØ§ÙĦ
ĠÙĤ ÙĦÙħ
ĠØ§ÙĨ ØªÙĩØ§ÙĥØ§Øª
ĠØªØµÙĦ ØŃ
ĠØ± Ø¹Ø§
ĠØ§ÙĦØªÙĥÙĨÙĪÙĦÙĪØ¬ ÙĬØ©
Ø´Ø¨ ÙĥØ©
ĠUS B
ĠÙĬ ÙĤØ¯
ĠØ§ÙĦÙħØ´ ÙĩÙĪØ±
ØµÙĦ Ø¨
ĠØŃÙĦ ÙĩØ§
ĠØ§ÙĦØ¯ÙĪÙĦ ÙĬÙĬÙĨ
ĠØ§ÙĦÙħ Ø«ÙĬØ±
Ø¨ÙĦ ÙĪØ±
P S
ĠØŃ Ø§Ø¬Ø§Øª
ĠØ§ÙĦÙĤ Ø§Ø¨ÙĦØ©
ĠØ§ÙĦÙħÙĪ ÙĦÙī
ĠØ§ÙĦÙħØªØ®ØµØµ ÙĬÙĨ
G B
Ø« Ø§
ĠØ£ÙĤ ÙĪÙħ
Â» ..
ĠÙĪØµÙģ Ø§Øª
Ø¯ Ø§Ø±Ø§Øª
ĠØ®ØµÙĪØµ ÙĬØ©
ĠØ§ÙĦØ´ Ø±ÙĬÙģØ©
ĠØ¥Ø° Ø§Ø¹Ø©
ĠØ¨Ø¹ ÙĤØ¯
ĠÙĪÙĩ ÙĨ
Ø³ ÙĩØ§
ĠÙħÙĤ Ø§ÙĦØ©
ĠØ§ÙĦØ§Ø± Ø§Ø¶ÙĬ
ĠÙĤÙĬ Ø§Ø³ÙĬ
ĠÙħÙĩ Ø¯ÙĬ
ĠÙĩ Ø§Ø¯Ø¦
ĠÙĪØ§ÙĦØª Ø®ÙĦØµ
ĠØ§ÙĦØ£ ØªØ±Ø§Ùĥ
ĠØ§ÙĦÙĩ Ø¨ÙĪØ·
ĠØ¨Ø£ Ø¯
Ø§Ùģ ØŃ
ĠØ§ÙĦØ£Ùħ Ø¹Ø§Ø¡
ĠÙĪÙĬØ¹ ÙĪØ¯
ĠÙħØ¹ ØªÙħØ¯Ø©
Ø§ÙĦ ÙĪÙĦØ§ÙĬØ§Øª
ÙĪÙĦÙĬ Ø§Ø¡
ĠÙĦÙĦ Ø¬Ø¯ÙĦ
Ø·Ø¨ Ø§Ø¹
ĠØ´Ø§Ùĩ ÙĬÙĨ
ĠC om
ĠØ§ÙĦØ¥ÙĦÙĩ ÙĬØ©
ÙĨ ÙĪÙģÙħØ¨Ø±
ĠÙħØ¤ ÙĩÙĦ
Ø¬ÙĬ Ø¨Ø©
ĠØ§ÙĦÙħØªØ· Ø±ÙģØ©
ĠØªÙĥ ÙģÙĬ
Ø¬Ø§Ùĩ ÙĦ
ĠØ£ÙĨÙĩ ÙħØ§
ĠÙĪÙĬØ³ Ø§Ø¹Ø¯
ĠÙĨØ´ Ø¹Ø±
Ø§ÙĨ Ø¸Ø±
ĠÙĦÙĦØªØ¹ Ø¨ÙĬØ±
ĠÙĪØ¨ Øª
ĠØ¨Ø§ÙĦØ³ÙĬ Ø§Ø±Ø©
ĠØ¨Ø§ÙĦ ÙħÙĪØ¶ÙĪØ¹
ĠØªÙĤ ØªÙĦ
ĠØ¢ ÙĬÙģÙĪÙĨ
ĠØªÙĥ Ø§Ø¯
ĠÙĪØ§ÙĦÙĨ ÙĤÙĦ
ĠÙĥÙĪÙĦ ÙĪÙħ
Ø§Ø³Øª ÙĤØ¨ÙĦ
ĠØ¨ØŃ Ø¨
ĠØ³ÙĦ Ø·ÙĨØ©
ĠÙħØ¶Ùħ ÙĪÙĨ
ĠÙĪØ£ ÙĩØ¯Ø§Ùģ
ĠØ§ÙĦÙĥ ØªÙĦ
ĠÙħÙĪ ØŃØ¯
ĠØ§ØŃ ÙĬØ§ÙĨØ§
ĠØ§Ùħ ÙĬÙĨ
ĠÙĬØŃØª ÙĪÙī
4 00
ĠØ§ÙĦØª Ø«Ø¨ÙĬØª
ĠØ§ÙĦØ® Ø§ÙĦÙĬØ©
ĠØ§ÙĦØµØŃØ± Ø§ÙĪÙĬØ©
ĠØªØ£ ÙĬÙĬØ¯
ĠØ´Ø¹Ø¨ Ùĩ
ĠØ¹ ÙĦØ§Ùħ
ĠØ§ÙĦØ´Ùĩ ÙĬØ©
ĠØ¹Ùħ ÙĬÙĦ
ĠØ§Ø· ÙĦØ¹
ĠÙĨ Ø¹ÙĪØ¯
ĠÙĨØ´ Ø·Ø§Ø¡
ØªØ§ ÙĬÙĨ
ÙĬ ØŃØªÙĪÙĬ
ĠÙĪØ¥ ØŃ
ĠØŃ Ø§ØªÙħ
Ø§ÙĦ Ø§Ø®
ĠÙĪÙĬ Ø³ØªØ®Ø¯Ùħ
ĠÙĪØ§Ø³ Ø¹Ø§
Ø® Ø±ÙĬ
Ø³Øª ÙĨ
ĠÙħ ÙĬÙĪÙĨ
ĠÙĪØ§ÙĦØ¨ Ø¹Ø¶
ĠÙĦÙĦØ¨ Ø´Ø±Ø©
ĠÙħØ´Ø±ÙĪØ¹ Ø§
ĠØ§Ø´ ÙĥØ§ÙĦ
ĠØªØ¹ ÙĤ
ĠÙĨØ´Ø§Ø· Ø§Øª
ĠØ§ÙĦØ® Ø¶Ø§Ø±
Ġ* *
ĠØ§ÙĦÙĨØ§ÙĤ ÙĦØ©
Ø§ÙĦØ¹ ÙĨÙĪØ§ÙĨ
ĠØ§ÙĦØ¨Ø·Ø§Ø· Ø³
ĠØ¨Øª ÙĪØ¬ÙĬÙĩ
ĠØ§ÙĦØ¨ Ø§Ø·ÙĦ
ĠÙĪÙħ Ø¶
ĠØ§ÙĦÙħØ³Ø¦ÙĪÙĦ ÙĬÙĨ
ĠØ§Ø³ ÙģÙĦ
ĠØ¯ ÙĬØ¨
ĠØ§ÙĦØ¹ÙĨ Ùĥ
ĠØ¨ Ùī
ÙħØ³ Ø§Ø¹Ø¯Ø©
ĠØ¥Ùħ Ø§Ø±Ø§Øª
ĠØ§ÙĦÙħØª Ø¨ÙĤÙĬØ©
ĠÙħØŃÙģ ÙĪØ¸
Ø³ÙĦ Ø·
ĠØ³ Ø¹ÙĬ
ĠØ¥ÙĬØ± Ø§Ø¯Ø§Øª
ĠØ§ÙĦØ£ Ø³ØªØ±
ĠÙĨ ÙĨØªØ¸Ø±
ĠØ§ÙĦØ® ÙħØ±
ĠÙĨÙĬØ¬ ÙĬØ±ÙĬØ§
Ø¶Ø± Ø±
ĠØ¯ ÙĬØ§Ø±
ĠØ§ÙĦØ¬ÙĨ Ø¯ÙĬ
ĠØ§ÙĦØ³ ØŃØ§Ø¨
ĠÙĬØ¯ Ø§ÙģØ¹
ĠÙĦÙĦØ¹ÙħÙĦ Ø§Ø¡
ĠÙĬ ÙĩØ¯
ĠÙĪÙħØ¹ Ùĩ
ĠØ§ÙĦØ£ ØŃÙħ
ĠÙħ ÙĪØ¨Ø§ÙĬÙĦ
ĠÙĦ ÙĨØª
Ø§ÙĦØŃ ÙĦÙĤØ©
ĠÙħØ¨ Ø§Ø¯Ø±Ø§Øª
ÙĪØ§Ø¹ ÙĬØ¯
ï¿½ ï¿½
ĠØ¥ Ø¹ÙĦ
ĠØ§ÙĦØ¬Ùĩ ÙĪÙĬ
ĠØ¹Ùħ ÙĦÙĬØ§
ĠØ§ÙĦØ¥ØµÙĦØ§ØŃ Ø§Øª
ĠØªØ³ ÙĩÙħ
Ø¯ÙĬ Ùģ
ĠØ§Ø± Ø³ÙĦ
ÙĦ Ø§Ø©
ĠØ¥Ø® ØªÙĬØ§Ø±
ĠAr ch
ÙĬÙĨ ÙĬÙĨ
ĠØ¨Ø£ÙĥÙħÙĦ Ùĩ
ĠÙħÙĨØ¯ ÙĪØ¨
Ø§ÙĦ Ø´Ø±
ĠØ§Ø¹ ÙħÙĦ
ĠÙħØµ ØŃ
ĠØ§ÙĦØ± ÙĪØ¨ÙĪØª
ĠØŃ ÙĬÙĪØ§ÙĨ
ĠØ§ÙĦÙħÙĥ Ø«
ĠØ¨Ø§Ø³Øª Ø¹ÙħØ§ÙĦ
ĠØ§ÙĦØ¨ Ø·Ø±
Ø±Ùĥ ÙĬØ§
ĠØ§ÙĦØ¹ÙħÙĦ Ø§ÙĤ
ĠØ§ÙĦØ«ÙĤ Ø§ÙģØ§Øª
ĠØ¯Ø¹Ùħ ÙĩØ§
ĠØ§ÙĨ ÙħØ§
ĠØªØ® ÙĦÙĬ
ĠØ§ÙĦÙĪØ² Ø§Ø±ÙĬ
ĠÙĬÙħÙĦÙĥ ÙĪÙĨ
ĠØŃØ³Ø§Ø¨ ÙĩØ§
ÙħÙĪ Ø§Ø¶ÙĬØ¹
ĠØ§ÙĦÙħÙĨ Ø¹
Ø³Ø§ÙĨ Ø¯Ø©
ĠØ§ÙĦØ§ØªÙģØ§ÙĤ ÙĬØ§Øª
ĠØ§ÙĦØ³Ø± ÙĤØ©
Ø¹ÙĨ ÙĪØ§ÙĨ
ĠÙĪØ§ÙĦØ³ÙĬ Ø§Ø³Ø©
ÙĦÙģØ²ÙĬ ÙĪÙĨÙĬ
ĠØ§Øº ÙĨÙĬØ©
ÙĪÙĦ ÙĬÙĥÙĬØ©
ĠØ§ÙĦÙħØ³ Ø§ØŃØ§Øª
ĠÙģØ£ ØµØ¨ØŃ
ÙĬØ± Ùħ
Ø² Ø§Ø±
ĠØ§Ø®ØªØ± Ø§Ø¹
ĠØ§ÙĦØªØ± ØŃÙĬØ¨
Ø·Ø¹ ÙĨ
ĠØµ ÙĦØ§Øª
Ø± Ø³ÙĦ
ĠØºØ± Ø§Ùħ
ÙĪØ´ Ø§Øª
ĠØ§ÙĦØ³ÙĪ Ø§ØŃÙĦ
ÙĨØµ Ø§Ø¦ØŃ
ĠÙĬÙħ Øª
Ø£ ÙĦÙħ
Ø³ Ø®
ĠØ³ Ø§ÙĤ
ĠØ§ÙĦÙħÙĪ Ø§Ø¬ÙĩØ§Øª
ĠÙĦÙĦÙħØ± ØŃÙĦØ©
ÙĦ Ø±
ĠØ£ØµØŃØ§Ø¨ ÙĩØ§
Ø² Ùģ
ĠØ£Ùħ Ùħ
ÙĤ ÙĪØ©
ĠØ§ÙĦØ£Ùħ ÙĩØ§Øª
Ø¯ ÙĬØ³ÙħØ¨Ø±
ĠØ¹ Ø·Ø§Ø¡
Ø§ÙĦØªØ¹ ÙĦÙĬÙħ
ĠØ¨Ø§ÙĦÙħ Ø´Ø§Ø±ÙĥØ©
Ø¯ ÙģØ¹
ĠØ¬ Ø§Ø¯
ĠØ§ÙĦØ¥ Ø¬
ĠÙĨØ³ Ø£ÙĦ
ĠØ¨Ø° ÙĪØ±
ĠØ§ÙĦÙħØ± ÙĪØ±ÙĬØ©
Øº Ùģ
ĠØ· Ø§Ø¦ÙģØ©
ĠØ§ÙĦÙħØ¹ Øª
ĠØ§ÙĦÙĤÙĪÙĦ ÙĪÙĨ
Ø³Øª Ø§
ĠØ§ÙĦÙģØª ÙĨ
ĠØ£ ØªØ¨Ø§Ø¹
Ġ' '
ÙĥØª Ø¨Ùĩ
ĠØ§ÙĦÙĤ Ø§Ø¦ÙĦ
ĠØ§ÙĦØ§Ø¶ Ø·Ø±Ø§Ø¨Ø§Øª
ĠØ§ÙĦØ£ Ø·Ø±
ĠÙĪØ§ÙĦÙħÙĨ Ø·ÙĤØ©
ĠÙĥÙĩØ±Ø¨ Ø§Ø¦ÙĬ
ĠØ¬ ÙĩÙĦ
ĠÙħÙĥØ§Ùģ Ø£Ø©
Ġ8 8
ĠØ¯ ÙĪØ§Ùħ
ĠÙĬØ¨ØŃØ« ÙĪÙĨ
ĠC l
ĠØ£ÙĩØ¯Ø§Ùģ ÙĩØ§
ĠØ§ÙĦØ¶Ø± ÙĪØ±Ø©
ÙĦÙĬ ÙĦÙĬØ©
ĠÙĬÙĪØŃ ÙĨØ§
ĠÙĪØŃ ØµÙĦ
ĠÙĪÙħØ³Øª ÙĤØ¨ÙĦ
Ø§ÙĦØª ÙĩÙħ
ĠØ§ÙĦÙĬ ÙĤÙĬÙĨ
Ø¯ÙĬ Ø¬Ø©
ĠØ§ÙĦÙĥØ±Ø¯ Ø³ØªØ§ÙĨÙĬ
ĠÙģØ¹ ÙĦÙĬØ§
ĠØªØ¨ Ø°ÙĦ
ĠØªÙĨ ÙĪØ¹
ĠØ§ÙĦØŃØ³ Ø§Ø³Ø©
ĠØ§ÙĨØª ÙĤÙĦØª
ØªØ± Ø¬Ùħ
ĠÙĪØ§ÙĦØªÙĨ Ø¸ÙĬÙħ
ĠØ«Ø§ÙĦØ« Ø©
ĠØ§ÙĦØ¹ Ø¬ÙĪØ²
ÙĦØ¨ ÙĨ
ĠÙĬØ¬ Ø¹ÙĦÙĥ
Ġ199 2
Ø® ÙĬØ±Ø©
ĠØ¨Ùĥ ÙĬÙĨ
ĠØ§ÙĦØŃÙĦ ÙĪÙĬØ§Øª
ĠØ§ÙĦÙħÙĨØ² ÙĦÙĬ
ĠØ¨Ø£ÙĥÙħÙĦ ÙĩØ§
ĠÙĪØ¬ Ø¯Ø©
ĠØ£ÙĨ ÙĪØ±
ĠÙĪØª Ø±ÙĬØ¯
ĠØª Ø¶Ø§Ùģ
ĠØ° Ø§ÙĥØ±
ĠÙħØŃ Ø·
Ø§Ø¯ ÙĬØ§
ĠÙĨÙģ ÙĩÙħ
ĠÙĪØ§ÙĦ Ø³Ø¨
ĠØ§ÙĦØ®Ø¶Ø± ÙĪØ§Øª
ĠØ§ÙĦØ¬ Ø§Ø±
Ø¯ Ø¹Ùħ
Ġïºįï»Łï» ¤
ÙĪØ§Ø¨ Øª
Ø´ Ø§ÙĦ
ĠÙĦÙĦØ³ÙĬ Ø·Ø±Ø©
ĠÙħØ¬ Ø¯
ÙĪ ØŃØ¯Ø§Øª
ĠÙħØ± Ø¬Ø¹
ĠØº Ø±ÙĤ
ĠÙĤ Ø³Ø·
ĠÙĪ ÙĪÙģÙĤØ§
ÙĬÙĪÙĦ ÙĬÙĪ
ĠØ£ÙĪ Ø³Ø§Ø·
Ø³ÙĬØ¯ Ø³
ĠØª ÙĩÙħØ©
ĠØµÙĦ ÙĪØ§Øª
Ùģ Ø±ÙĬÙĤ
Ø§Ø¹ ÙĨØ©
ĠÙĪÙĬ Ø¸ÙĩØ±
ĠÙĪØ£ ØŃØ¯
ĠØªØ£ ÙħÙĦ
ÙĨ Ø¨ÙĬ
ĠÙĪØŃØ¯ ÙĬØ«
ĠØ§ÙĦØ·Ø§ÙĦØ¨ Ø§Øª
ĠØ§ÙĦÙĤÙĬ Ø§Ø³ÙĬ
a i
ĠÙĬÙĦ ÙĤÙĬ
Ùģ ÙĨØ¯ÙĤ
ĠØ§ÙĦØ§Ùħ ÙĬÙĨ
ĠÙ¢ÙłÙ¡Ù ¨
ĠÙĪØª Ø¶Ùħ
ĠØ§ÙĦÙħ Ø§Ø¦Ø¯Ø©
ïº ĳ
ĠØ§ÙĦØ´Ùģ Ø§ÙģÙĬØ©
ĠØ§ÙĦØ¥Ø¯ Ø§Ø±Ø§Øª
ÙħØ´ ÙĥÙĪØ±
ĠØªÙĪØ± Ø·
ĠØ¨ØªØŃ ÙĪÙĬÙĦ
ĠØ§ÙĦØªØ´Ø±ÙĬ Ø¹Ø§Øª
ĠØ§ÙĦØªØ± ÙĪÙĬØ¬
ĠØ§ÙĦØ± Ø³ÙĦ
ÙĪÙģÙĬ Ùĩ
ĠØ´Ø®Øµ ÙĬÙĨ
Ø¹ÙĦ Ø§ÙħØ©
ĠØª ØºØ·
ĠØªØ¯ Ø§Ø¹ÙĬØ§Øª
ĠØ§ÙĦÙħØŃ Ø·Ø§Øª
ĠÙħØ¨ ÙĥØ±Ø©
ĠØ§ÙĤ Ø±Ø¨
ĠØ¨Ùħ ÙĤØª
ĠØ¥ Ø¬Ø§Ø¨Ø©
ar y
Ġï ·
Ø±Ø¶ Ø§Ø¡
Ġ13 0
ĠÙĤØª Ø§ÙĦ
ĠØ§ÙĦÙħØ³ØªÙĩÙĦÙĥ ÙĬÙĨ
ĠØ§ÙĦØ¯ ÙģØ¹Ø©
ÙĥØ§ÙĨ ÙĬØ§Øª
Ø¥ÙĨ ÙĨØ§
ĠØ§ ÙĪØª
Ø§ÙĦÙĬ Ùĥ
ĠÙħØ§Ø± ØªÙĨ
ĠÙĦ Ø¬ÙħØ¹
Ø§ÙĦØª ÙĨ
ØªØ¯ Ø§ÙĦ
ĠØ§ÙĦØ§Ùģ ØªØªØ§ØŃ
Ùģ ÙĪØ§Ø¦Ø¯
ĠØ¨Ø± Ùħ
ØªØŃ ÙĪÙĦ
Ø¶ ÙĨ
ĠÙĦÙĩ ÙĬØ¦Ø©
ĠØ§ÙĦØŃØ± Ø§Ø±ÙĬ
ĠÙĨ ØµÙĦ
ĠÙĪØ§ÙĦØ´Ø± ÙĤ
Ø¸ Ø§ÙģØ©
ĠØ¯ ÙĬÙĪÙĨ
ĠØ§ÙĦÙĨØ§Ø¬ ØŃØ©
ĠØ§ÙĦØ§Ø³ Ø¯
ĠØ§ÙĦÙĪ Ø§ÙĦØ¯
ĠØ§ÙĨ Ø·ÙĦÙĤ
ĠÙĤ ØµÙĪØ±
Ø§Ø¯ ÙĩÙħ
ĠÙĦÙħØŃ Ø§Ø±Ø¨Ø©
ĠØ¨ Ø§ÙĪÙĦ
ĠÙħ Ø³Ø¨ÙĤ
ĠØ§ÙĦÙħØµ Ø±Ùģ
ĠØ§ÙĦØªØ¬ Ø³Ø³
ĠØŃÙĥ ÙĪÙħÙĬ
ĠÙĪØŃ Ø¬Ùħ
ĠÙĦÙĦÙħ ÙĪØ³Ùħ
ĠØ§ÙĦØ§ÙĨÙģ ØµØ§ÙĦ
ĠØ° ÙĨØ¨
ĠÙĪØ³ Ø£
ĠÙĦØªØ´ ÙĥÙĬÙĦ
ĠØ§ÙĦÙħÙĤ ØªØ±
ĠØ§ÙĦØ§Øµ Ø§Ø¨Ø©
Ø´ Ø¢Øª
ĠØ±Øµ ÙĬØ¯Ùĩ
Ø¹ Ø«
ĠØ§ÙĥØª Ø³Ø§Ø¨
ĠØ§ÙĦÙħÙģØ± ÙĪØ¶Ø©
ÙĬØ³ ÙĪÙĨ
ĠÙĨ Ø§ÙĬÙģ
ĠØ³Ùħ ÙĬ
ĠÙħØªØ· ÙĪØ±Ø©
Øº Ø§Ø¯Ø±
ĠØ¯ ÙĬØ²
ĠØ¯ÙĪØ± ØªÙĩ
Ø² ÙĬØª
ĠØªØº ÙĦØ¨
I S
ĠØ£ÙĨ ÙħØ§Ø·
ĠÙĨÙĬÙĨ ÙĪÙī
ÙĪØ¶ ÙĬ
Ø§ÙĦ ØŃØ±
Ø§Ùĥ Ø§Ø©
ĠØ§ÙĦÙĥ ÙĪØ¯
ĠØ· Ø§ÙĩØ±
ĠØª Ø´Ø§Ø±
ĠÙĨÙĩ Ø§Ø¦ÙĬØ§Øª
ĠØ¹ Ø·ÙĦ
ĠÙĪÙĤ ÙĪÙģ
Ùģ ÙĨØ§
ĠÙĬÙħ ÙĬÙĨ
ĠÙĬÙĤØ¯Ùħ Ùĩ
ĠØ§ÙĦØ¬Ø¯ÙĬØ¯ Ùĩ
Ø¹ Ø§ÙĦ
Ġ5 9
ĠØ§ÙĦÙĨÙĤØ¯ ÙĬ
Ø´ Ø§ÙĤ
ĠØ§ÙĦÙĨ Ø±
Ø±Ùĥ ÙĪÙĨ
ĠÙħØ± Ø§Ùĩ
Ø§ÙĦØ¥ Ø³ÙĦØ§Ùħ
ĠÙħ Ø¯ÙĬ
ĠØ§Ùĥ ØªØ±
ĠØ§ÙĦØ® ÙĦÙĬØ©
ĠÙģ Ø§Ø±ÙĤ
iv es
ĠÙĥ ÙĦÙĬØ¨
ĠÙĪØª ÙĥÙĨÙĪÙĦÙĪØ¬ÙĬØ§
ĠÙĪ Ø¹ÙĦÙĪÙħ
ÙħØ« Ø§ÙĦ
ÙĤ ÙĬÙĦ
ØªÙĩ Ø¯ÙĬØ¯
ĠÙħØŃ Ø³
ĠÙħØ² ÙĪØ¯
ĠØ§ÙĦØŃØ¯ Ø§Ø¦ÙĤ
ĠØ£Ø® Ø¶Ø±
ĠÙĪØ´ Ø±ÙĥØ§Øª
Ø¥ Ø¹ÙĦØ§ÙĨ
Ø§Ø¶ ØºØ·
ĠØ§ÙĦØ£ÙĨ Ø¸Ø§Ø±
ĠØ§ÙĦÙĨØ® Ø¨Ø©
ĠØ£ÙĨ Ø¯
ĠÙħ Ø®Ø±
ĠØ§ÙĦØ¯Ø¨ÙĦÙĪÙħ Ø§Ø³ÙĬ
ĠØŃÙĥÙħ Ùĩ
ĠÙĪÙĤ Ø·Ø§Ø¹
ĠØªØŃ Ø±ÙĥØ§Øª
ĠØ§ÙĦØ¥Ø¶Ø§Ùģ ÙĬØ©
ĠÙĦÙĦØ§Øª ØµØ§ÙĦØ§Øª
ÙĪØ§Ø¨ ÙĦ
ĠÙĪØ¥ Ø³Øª
ĠØ§ÙĦØ¥ÙĨ Ø´Ø§Ø¡
ĠÙħÙģ ØµÙĦ
re e
ĠØµ ÙĪØªÙĩ
ĠÙĦØ¬Ùħ Ø§Ø¹Ø©
ĠØ§Ø³ ÙĪØ¯
ØªÙĬØ§Ø² Ø§Øª
Øª ÙĬÙħ
ĠÙħØ¹ÙĦ ÙĪÙħ
ĠÙģ ÙħØ¹
ĠÙħ ÙĪÙĦØ¯
ĠØ§ÙĦØ± Ø§Ø³
ĠÙħÙħ Ø§Ø±Ø³Ø§Øª
ĠÙĪØ§ÙĦ Ø®Ø§Øµ
ĠØ·Ø¨ Ø§Ø¹Ø©
ĠØ§ÙĦØ´ Ø§ÙĩØ¯
ĠØ§ÙĦØ£Ùħ Ø«ÙĦØ©
ĠÙĤ Ø±Ø¶
ĠØ¨Ø¥ÙħÙĥØ§ÙĨ Ùĥ
ĠÙĦÙĦ ÙĪÙĤÙĪÙģ
ĠØ§ÙĦÙħØ¹ Ø§ÙĩØ¯
ÙĪØ£Ø® ÙĬØ±Ø§
ĠØ¨ ØµÙĪØ±
ĠÙĪØ¨ Ø±ÙĬØ·Ø§ÙĨÙĬØ§
ĠØ¹ÙĦ Ø¨Ø©
ĠØ¨Ø± ÙħØ¬Ø©
ĠØ§Ø® Ø±ÙĬ
ĠÙħØ¬ØªÙħØ¹ ÙĨØ§
ĠÙĬ Ø¨Ø¹Ø«
ĠÙĨ Ø§Ø¨ÙĦØ³
ĠÙĦ Ø§Ø±
ĠØ³ÙĬ Ø¤Ø¯ÙĬ
ĠØ¨ ÙĥØªØ§Ø¨Ø©
ĠØ¹ Ø°
Ø®Ùħ ÙĬØ³
ĠÙĨ ÙģØª
A S
Ø² Ùī
ĠØ§ÙĦØ£Ø¹ Ø´Ø§Ø¨
ĠØ®Ø§Ø± Ø·Ø©
ĠØ§ÙĦØªØ± Ø´ÙĬØŃ
ĠØ§ÙĦÙħÙĨ ØµÙĪØ±Ø©
ĠÙģØ± ÙĪØ©
ĠÙĬÙĨ Ø·ÙĦÙĤ
Ø®Ø·ÙĪØ· Ø§Øª
ĠØ¥Ø³ÙĦØ§Ùħ ÙĬ
ÙĬ ÙĤØ¯Ùħ
ĠÙĤØ¯Ø± ØªÙĩØ§
ÙĲ )
Ø§ÙĦØ£ ÙħØ±
Ø³ ÙĪÙĦ
ĠÙĪ ÙĨÙĬ
ĠØªØ³Øª ØºØ±ÙĤ
ØŃØ¯ ÙĬ
ĠÙĦÙĦÙģ ØµÙĦ
ĠØ¯ ÙĨÙĬØ§
ĠÙĪÙĦ Ø§Ø¨Ø¯
ÙĨ ÙĪØ§
ĠØªØŃ ÙĬØ·
ĠØ§ÙĦÙĥÙĬÙħÙĬ Ø§Ø¦ÙĬ
ĠÙĪØ§ÙĦÙħ Ø§ÙĦ
ĠØ§ÙĦØ± Ø§ÙħÙĬØ©
ĠØ§ÙĦÙĨØ§Ø¬ ÙħØ©
ÙĪÙĬØ± Ùī
Ø§Ùģ ØªÙĩ
ÙģØ± Øº
ĠØ§ÙĦÙģ ØµÙĪÙĦ
ĠØ¨Ø§ÙĦÙħ Ø®
ĠØ§ÙĦØ¬ÙĦ Ø¯ÙĬØ©
Øº Ø±ÙģØ©
ĠØ§ÙĦÙħØ± Ø§Ø³
ĠØµØŃ Ø§ÙģÙĬ
ĠÙĤÙĨ Ø¨ÙĦØ©
ĠØ§ÙĦÙĩ ÙĪÙĦ
ĠØ§ÙĦØ§Ø¯ Ø¹Ø§Ø¡
Ø¤ÙĦ Ø¤
ĠØ§ÙĦÙħØªÙĤØ¯Ùħ ÙĬÙĨ
ĠÙĪØ¹ Ø§Ø¦ÙĦ
ĠØ§ÙĦØªØ± Ø®ÙĬØµ
Ùĩ ÙĬÙĦØ§Øª
ĠØ± ÙĬÙħ
ĠÙħÙģ Ø§Ø¬Ø¦
Ø¨Ø§ÙĦ Ø¥ÙĨØ¬ÙĦÙĬØ²ÙĬØ©
ĠØ§ÙĦÙĪØ§Ø³ Ø¹
Ġ6 2
ĠØ£ÙĪÙĦ ÙĪÙĬØ§Øª
ĠÙĬØº Ø§Ø¯Ø±
ÙĬØ§ ÙĥÙħ
ĠÙģ Ø§ÙĬØ±
Øª Ø¯ÙĬØ§Øª
ĠØ®ÙĦØ§Ùģ Ø§Øª
ĠÙĪØ¨ Ø§Øª
Ø§Ø¦Ø¯ Ùĩ
ĠØ³ÙĬ Ø§Ø±ØªÙĩ
ĠØ§ÙĦØ¹Ø¨ Ø§Ø¯
Ø° Ø±Øª
Ø¹ Ø¨Ø±
ĠØ§ÙĦØª Ø£Ø³ÙĬØ³
ĠØ¹Ø±Ø¶ Øª
ĠØŃÙħ Ø§Ø©
ĠÙĪØŃ Ø±Øµ
ĠÙĦÙħ Ø®ØªÙĦÙģ
ĠØ¥ Ø¶Ø§Ø¡Ø©
ĠØ§ÙĦÙĥ ÙĨØ¯ÙĬØ©
ĠØ§ÙĦØ£ ÙĬØ³Ø±
ĠØ§ÙĦØ§Ø¦ ØªÙħØ§ÙĨ
Ø§Ùģ Ø²
ĠØ¨Ø§ÙĦÙĥ ÙĪÙĬØª
ÙĪØ§ÙĨ Ùĩ
ĠØ§ÙĦÙħØ± Ø§Ø©
ĠØ¹ÙħÙĦ Ø§Ø¦ÙĨØ§
ĠÙĪÙģ ÙĩÙħ
Ø¯ ÙĦØ§ÙĦ
ĠÙħÙĨÙģ ØµÙĦØ©
ĠÙħØ¶ Ø§Ø¯Ø§Øª
Ġt o
ĠÙħÙĬØ´ Ø§ÙĦ
ĠØ¨ÙĨ ÙĪØ¯
ĠØ¹ Ø¬ÙĦ
ĠØªØŃ Ø°
Ø¹Ø²ÙĬØ² ÙĬ
ĠØªÙĨ ØªÙĩ
ĠØ§ ÙĬØ¯ÙĬ
ĠØŃ ÙĥÙħØ©
ĠÙĥ Ø¨Ø±
ĠØ§ÙĦÙĦ ÙħØ³
ĠØ¨Ø± Ø³Ùħ
ĠØ¨ØŃ ÙħØ§ÙĬØ©
ĠØ§ÙĦØ¹ÙĤ Ø¨Ø§Øª
ĠØ¨Øª ÙĥÙĦÙģØ©
ØµØ§ÙĦ ØŃØ©
ĠØ³ ÙĦØ©
l ine
ĠÙĦÙĦØ£ Ùħ
ĠÙĦ Ø¹Ùħ
ĠÙħÙħ ØªØ¹
ĠÙĪØ§ÙĦØ¥ Ø¯Ø§Ø±Ø©
ĠÙĪÙħ Ø®ØªÙĦÙģ
ĠØ·Ùģ ÙĪÙĦ
ĠÙģ Ø§Ø¯
ĠÙĤÙĦ Ø¹Ø©
ĠÙĪØ§ÙĦØª Ø®Ø·ÙĬØ·
ap p
ĠØ® Ø¶Ø±
ĠØ¬Ø§ÙĨ Ø¨ÙĬØ©
ĠÙĪØª ÙĪØ¬Ùĩ
ÙĪÙĬ ØªÙĩØ§
ĠÙĦØ¥ ÙĬØ±Ø§ÙĨ
ĠÙĩØ§ ÙĪØ³
ĠØ§ÙĦÙģÙĬØ² ÙĬ
ĠØ§ÙĦØ¬Ùħ Ø§Ø±Ùĥ
ĠÙĩ Ø§Ø¬
Ùĥ Ø¨
ĠÙĪØ§Ùģ ÙĤØª
ĠØ§ÙĦØ§Ø® ÙĪØ§ÙĨ
ÙĪÙĨØ³ ÙĥÙĪ
ĠØ¨Ø¹Ø¶ ÙĨØ§
ĠØ«Ùħ Ø§ÙĨÙĬ
ĠØ²ÙĪØ¬ ØªÙĬ
ĠØ§ÙĦØ³ Ø§Ø¦Ø¯Ø©
ĠØ§ÙĦØµÙģ ÙĪÙģ
ĠØ§ÙĦØ¨ ÙĥØ§Ø¡
ĠØº Ø§Ø¶
ĠÙĬÙĨ Ø§Ùħ
ĠØ´ Ø¬
ÙĤÙĦ ÙĦ
ÙĪØ¨Ø± Ø§
ĠØªØ£ ÙĥÙĦ
ĠÙĦØ§ØŃØ¸ Øª
ĠØ§ÙĦÙħØª Ø¬Ø±
ĠÙĬ Ø±ÙĥØ²
ĠØ§ÙĦÙħÙĨ ÙĬØ§
ĠÙĦÙĦØµ ØŃØ©
ĠØ¨Ø± Ø§Ø¨Ø·
ĠÙĬØ¯ ÙĩØ§
ĠØ§ÙĦØª ÙģØ§Ø¹
ĠØ§ÙĦÙģ ÙĦÙģÙĦ
Ø§Ø· Ø¨Ø©
ĠØ§ÙĦØ¹Ø¨ Ø§Ø³
eb ook
ĠÙĤØ± ÙĪÙĨ
ĠØ§ÙĦØ£Ø¹ ØµØ§Ø¨
ĠØ·Ø±ØŃ ÙĩØ§
ĠÙħØ¹ Ø§ÙĩØ¯Ø©
Ø§ÙĦØª ÙĬÙĨ
ĠØ§ÙĦØ¨Ø· Ø§ÙĤØ§Øª
ĠØ¬ Ø¯ÙĬØ©
Ø§Ø³ ÙĬØ±
ĠØ§ÙĦØŃ Ø§Ø¯
ÙĨ ÙĤØ¯Ùħ
ĠÙĪ Ø§Ùĩ
ĠØªÙĨØ§ÙĪÙĦ Ùĩ
ĠÙĬ ØªØ±Ø§ÙĪØŃ
ĠÙģØ± ÙĨØ³ÙĬØ©
ĠØ¨Ø¯ ÙĬÙĦØ§
ĠÙĪØª ÙĤÙĬÙĬÙħ
ĠÙħØ«ÙĦ ÙĩØ§
ĠØ§ÙĦØª Ø®Ø±Ø¬
Ø³Ø± Ø§Øª
ÙĪØ± Ø¯ÙĬÙĨ
ĠÙĪØ§ÙĦØ¨ ÙĨØ§Ø¡
ĠØ§ÙĦØ±ØŃ ÙĬÙĦ
ĠÙĨÙģØ° Øª
ÙĥÙĨ Ø©
Ø® ÙĦÙī
ĠØ§ÙĦÙĥ Ø±Øª
ĠØ¨ØªÙĤ ÙĨÙĬØ©
ĠØ§ÙĦÙħÙĦ ÙĪÙĥ
a in
ĠØ¥ØµØ§Ø¨ ØªÙĩ
ÙĬ Ø£ØªÙĬ
ĠÙħØ´Ø§Ø±ÙĥØª ÙĩØ§
ĠØªØŃ ØªÙģÙĦ
ÙĪØª ÙĨØ§
ĠÙĪÙĦ Ø§Øª
Ø¢ ÙħØ±
ĠÙĪØ§ÙĦ ÙĥÙĦ
ĠØªÙģ ØªÙĬØ´
ĠÙĦ Ø¨Ø·ÙĪÙĦØ©
Ø¦ Ø§Ùħ
ĠÙĪØ§ÙĦ Ø§ÙĦØªØ²Ø§Ùħ
ĠØªÙĦ ÙĪ
ĠØ§ÙĦØ¨ØŃØ« ÙĬØ©
Ø§ÙĦÙĬ ÙĪÙĨ
ĠÙĨØ± Ø§Ùĩ
ĠÙĬ Ø¨ÙĬØ¹
ĠÙĪÙĤ Ø§ÙĨÙĪÙĨ
ĠØ§ÙĦØ£Ùħ ÙħÙĬ
ÙĤÙħ Øª
ĠØ§ÙĦØ¹Ø± ÙĪØ³
ĠØ§ÙĦÙħØ³ÙĦ ØŃ
ØªÙĥ Ø§Ø¨
ĠÙĦØ§Ø³Øª ÙĥÙħØ§ÙĦ
ĠÙħÙĨÙģ ØµÙĦ
ĠÙĪ Ø±Ùĥ
ĠÙĪØ§ÙĦØ¹ Ø±Ø¨
Ø¨Ø± Ø§Ø·
ĠÙĦÙħ Ø³ØªØ®Ø¯Ùħ
ĠØ§ÙĦØ£Ø± ÙĪØ§ØŃ
ĠØ§ÙĦ Ø§Ø·Ø±
ÙĦØ¯ ÙĬÙĨØ§
ÙĪØ¨ Ùĥ
ĠÙĪÙĤ Ø§Ø¦Ø¹
ĠØªØª ÙĪØ§Ø¬Ø¯
Ø¬Ø± Ø§ÙĨ
ĠØ±ÙģØ¶ Ùĩ
ĠÙħØ± Ø§Ø³Ùħ
Ġ3 000
ĠØ¹ Ø§Ø²
ĠÙĬ ÙĪØµÙĦ
ĠØ§ÙĦÙĤ ÙĪØ§Ø¦Ùħ
Ùĭ ØĽ
ĠÙĦÙģ ØªØ±Ø§Øª
ĠÙĪØ§ÙĦØ¬ ÙĬØ´
ĠÙĥ Ø¬Ø²Ø¡
Ġï»£ ï»¦
ĠÙħÙĥØª ÙĪÙħ
ĠØµÙģ ÙĤØ§Øª
ĠØ¯ ÙĬÙħÙĤØ±Ø§Ø·
ĠØ§ÙĦÙĪØ± Ø´Ø©
ĠØ§ÙĦØ¨ Ø§Ø¦Ø¹
Ġ6 3
Ùĥ Ø§Ø¯ÙĬÙħÙĬØ©
ĠØ§ÙĦØ¬Ø¯ ÙĬØ±
ĠÙħÙĤØ¯Ùħ ØªÙĩØ§
Ad visor
ĠÙĨØŃ Ø¨
ĠØ§ÙĦØ° ÙĨÙĪØ¨
ÙĪØª Ø£ØªÙĬ
ĠØ§ÙĦÙħØ¯ Ø¹ÙĪ
ĠØ¯ ÙĦÙĬÙĦØ§
ĠØ®ÙĦÙĬ Ø·
ĠÙĪÙĥ Ø§ÙģØ©
ĠØ§ÙĦÙħ ÙģØ³
ĠØ³ÙĬ ØŃØ¯Ø«
ĠØ¨ÙĤ ÙĦÙĬÙĦ
ĠÙĪØµ ÙĬØ§ÙĨØ©
ĠØªØµ ÙģÙĬØ§Øª
ĠØ§ÙĦÙĬÙħÙĨ ÙĬÙĬÙĨ
ĠØ§ÙĦÙħØ±Ø¬ Ø¹ÙĬØ©
ĠØ§ÙĦÙħØŃ Ø³
ĠÙģÙĬØ¯ÙĬ ÙĪÙĩØ§Øª
Ø±Ø¬ ÙĪØ¹
ĠØ¨Ø± ÙĨ
ĠØ¹ ÙĢ
ĠØ§ÙĦÙĪÙĤ Ø§Ø¦Ø¹
ĠÙħØ¨Ø± Ø±
ĠÙħØŃ ØªØ±Ùģ
ĠÙĪØ§ÙĦ Ø¹ÙĪØ¯Ø©
ĠÙĪÙĨ Ùĩ
ĠØ§ÙĦÙħØª ÙĪØ§ØµÙĦ
Ø§ÙĦ Ø¶
ĠÙĦÙĦØ¨Ø± ÙħÙĬÙĦ
Ùħ Ø§Ø¹
ÙĦ Ø§Ø¹Ø¨
ĠÙħ ÙĦØª
ĠØ§Ø³Øª Ø¯Ø¹Ø§Ø¡
ĠØªÙĪÙĤ ÙĬØª
Ø§ÙĦ ØªØ±
ĠÙĬ Ø·ÙĦØ¹
ĠØ§ÙĦÙĨØ¨ Ùī
__ __
ĠÙĪÙħ Ø¹ÙĦÙĪÙħØ§Øª
ĠØªØŃÙĤÙĬÙĤ Ùĩ
H ome
ĠÙħÙĦ Ø§ØŃØ¸
ĠØ§ÙĦØ£ Ø¹Ùħ
ĠÙĦØ§ ÙĬØª
rip Advisor
ĠØµ Ø§ÙģÙĬ
ĠÙĦÙħ Ø¨Ø§Ø±Ø§Ø©
ĠØ§Ø³Øª Ø·ÙĦØ§Ø¹
ĠØ§ØŃØªØ¬ Ø§Ø²
ĠØ§ÙĦØ¥ÙĤ ØªØµØ§Ø¯ÙĬØ©
ĠØ§ÙĦÙħØ± Ø´
ĠØ§ÙĦØªØ± ÙģÙĬÙĩ
Ùħ Ø§Ø¯Ø©
ĠØ§ÙĦØ±ÙĪØŃ ÙĬØ©
ĠØ§ÙĦÙĩ Ø§Ø¦ÙĦ
ĠÙĪØ§ÙĦØŃ Ø¨
ĠÙĤØ¨ Ø¶
ĠØ´ÙĥÙĦ Øª
ĠØ¨Ùħ Ùĩ
ĠÙĦØ§Ø³Øª Ø¹Ø§Ø¯Ø©
ĠØ§ÙĦØ£ ÙĪØ¹ÙĬØ©
ĠØ£Ùģ Ø¹ÙĦ
ĠÙĬ ÙĤØ·Ø¹
ĠØ§ÙĦÙħÙĦ Ø§Ø¹Ø¨
ØªÙĬ Ø§ÙĨ
Øµ Ùħ
ĠÙĦÙĦ Ø§Ø´
ol or
ĠÙħØŃÙħØ¯ Ø§
ĠÙħ Ø§Ø¬
ĠØ¹Ø¯ ÙĨØ§ÙĨ
ĠÙĪØ¹ Ø§Ø¯
ĠÙħÙĬØ± ÙĥÙĦ
âĹ ı
ĠØ§ÙĦØ§ÙĨ ØªØŃØ§Ø±
ĠØ§ÙĦÙħ ÙĪÙĨØ¯ÙĬØ§ÙĦ
ĠØªØ£ Ø´ÙĬØ±Ø©
ĠÙĪØ§ÙĦÙĤ ÙĪØ§ÙĨÙĬÙĨ
Ø§Ø±Øª ÙĤØ§Ø¡
Ø¯ÙĦ Ø¹Øª
ĠØ· ÙĬ
ĠØ§ÙĦØ§Ø³Øª ÙĩÙĦØ§Ùĥ
ĠØ§ÙĦÙĬØ¯ ÙĪÙĬØ©
ØŁ ..
> >
ĠÙĪØ£ Ø«Ø±
ĠØ®ÙĦÙĬ Ø¬
ĠØ§ÙĦÙĬ Ø£Ø³
ĠÙĦØŃ ÙĥÙĪÙħØ©
ĠØªØ¹Ø±Ø¶ Ùĩ
ĠØ¹Ø¨ ÙĪØ©
ĠØ ¡
Ø±Ø¨ ÙĨØ§
ĠØ¨ÙĨ Ø§Ø¯ÙĬ
ĠØ§ÙĦÙħÙĪØ³ ÙĬÙĤÙĬ
ĠØ¬ÙĬØ¬ Ø§Ø¨Ø§ÙĬØª
ĠØ£ Ø¶Ø¹Ø§Ùģ
ØŃØ§Ø¯ Ø«
ĠÙĪØ¥ÙĨ Ø´Ø§Ø¡
Ø§Ø´ ÙĨØ·ÙĨ
ĠØ¨ÙĬÙĨ ÙĬ
ĠØ§ÙĦØ´ ÙĤÙĤ
ĠØªØ´ Ø·ÙĬØ¨
ĠØ§ÙĦØªØ± ÙģÙĬÙĩÙĬØ©
ĠÙĥ Ø§ÙĦØ£
ĠÙĨ Ø±Ø¬ÙĪ
ĠÙĦÙĦØ¹ Ø§ÙħÙĦÙĬÙĨ
ĠØŃØ¶ÙĪØ± Ùĥ
ĠÙĦ Ø¹ÙħÙĦÙĬØ§Øª
ĠØ§ÙĦØ±Ø´ ÙĬØ¯
ĠØ·Ø§ÙĦØ¨ Ø§ÙĨ
ÙĦÙĩ Ø°Ø§
ĠØ§ÙĦÙħØ± Ø´Ø¯
ĠØ§ÙĨ ØªØ±ÙĨØª
ĠØªØµ Ø¹ÙĬØ¯
Ġ: )
ĠØ¬ ÙĪØ§Ø¯
ĠÙĦØ± Ø¤ÙĬØ©
ĠØ§ÙĦÙħØ±ØŃ ÙĪÙħ
Ø¨Øª ÙĬÙĨ
Ùī Ùī
ĠÙħÙĬÙĪÙĨ Ø®
ĠÙĥ Ø§Ø¯
ĠÙħØ¤ÙĤØª Ø©
ĠØ§ÙĦØ«Ùħ Ø§ÙĨÙĬØ©
ĠÙĦØ´ Ø¹Ø¨
ĠØ§ÙĦØ§Ø¬ØªÙħØ§Ø¹ Ùī
ĠØ°Ùĩ Ø¨ÙĬØ©
ĠØµ Ø¯Ø§Ø±Ø©
ĠÙĪØ§ÙĦØª ÙĤØ¯Ùħ
p e
ĠØ¹Ø±Ø¨ ÙĬØ§
ĠÙĦØ£ ØŃÙĥØ§Ùħ
ĠØ¨Ø¥ ØµØ¯Ø§Ø±
ĠØªÙĤØ¯ÙĬÙħ Ùĩ
ĠÙģÙĨ ÙĪÙĨ
ĠØ§ÙĦØªØ·Ø¨ÙĬÙĤ ÙĬØ©
ĠÙģ Ø³Ø§ØªÙĬÙĨ
Ø± Ø§Ø¨Ø¹Ø§
ĠÙħ ÙĤÙĬØ§Ø³
ĠØ¨ Ø§Øº
ĠØ§ÙĦØ« ÙĪØ±Ø§Øª
ĠØ§ÙĦØ¢Ø®Ø± ÙĪÙĨ
ĠØ§ÙĦØ§Ø® ÙĪØ©
ĠÙĪØ§ÙĦÙģ ÙĨ
ĠØ¨ Ø¦Ø±
ĠÙĪØ¨ Ø§ÙĦØ£
ĠÙģØ§ÙĦ Ø¥
ÙĪØ¸ Ùģ
ĠÙĤ ÙĪÙĤÙĦ
ĠØ§ÙĦØ§Ø³ Ø±Ø©
ĠØ·ÙĦØ¨ Ø§
ĠØ®ÙĦ ÙģÙĬØ§Øª
Ùģ ÙĩÙĪ
ĠØ§Ø³Øª Ø´Ø§Ø±Ø©
ĠØ§ÙĦØ¬Ø±ØŃ Ùī
ĠØ§ÙĦØ¯ ÙĪØ±ÙĬØ©
ØºØ¯ Ø§Ø¯ÙĬ
ĠÙĪØ§Ø³ ØªÙħØ±Ø§Ø±
ĠØªØ¹ Ø§ÙħÙĦØ§Øª
ĠÙĪÙĬ ØµØ¨ØŃ
Øµ Ø¨Ø§ØŃ
ĠØ¨Ø¥ Ø³ØªØ®Ø¯Ø§Ùħ
ĠØ§ÙĦØ£ÙĪÙĦ ÙĪÙĬØ©
ĠÙĪØ§ÙĦØ¹ ÙĨÙģ
ØªÙĨ Ø§Ùħ
Ø§ÙĤ ÙĬØ±
ĠØ£ ØªÙĦ
Ġ11 0
ĠØ¨Ø¥ Ø³Øª
ĠØª ÙĪÙĬ
ĠÙħÙĨ Ø·ÙĦÙĤ
ÙĢÙĢÙĢÙĢÙĢÙĢÙĢÙĢ ÙĢÙĢÙĢÙĢ
ÙĨ ÙĥØ±
x x
ØŃØµ Ø±ÙĬØ§
ĠØ³ Ø¤
ĠØ£ Ø®ØµØ§Ø¦ÙĬ
ÙĪØ± Ø§ÙĨ
ĠÙħØ´ ÙĩÙĪØ±
ĠØ§ÙĦÙħØ¹ ØªØ§Ø¯
ÙģØ¹ Ø§ÙĦÙĬØ©
ĠØ§ÙĦÙĥÙĨ Ø¯ÙĬ
ĠØªØŃ Ø³Ø¨
ĠØ§ØŃØªÙĬ Ø§Ø¬
ÙĪÙĬ Ø¹ØªØ¨Ø±
ĠØ§ÙĦØº Ø¨Ø§Ø±
Ø£Ø³ Ùĩ
Ø§Ø² Ø§
ĠÙģÙĬÙħÙĥÙĨ Ùĥ
ĠØ¹ ÙĬÙĨØ©
ĠØ¨Ø§ÙĦÙħ ÙĤØ§Ø±ÙĨØ©
ĠÙĪÙĥ Ø«ÙĬØ±
ĠØ§ÙĦÙĨ ÙĬØ©
ĠÙĨØ´ Ø£Øª
ĠØ§ÙĦÙħÙħÙĥÙĨ Ø©
ĠØ§ÙĦØº Ø§Ø¨Ø§Øª
ĠØ¨Ø· Ø§Ø±ÙĬØ©
Ġ14 0
ÙĪÙĤ ÙĪØ¯
ĠØ§ÙĦØŃ ÙģØ±
) ØĽ
ĠØ§ÙĦØ§Ø´ ØªØ¨Ø§ÙĥØ§Øª
ĠÙĪØ¹ Ø§Ø¯Ø©
ÙĤØ± Ø±Øª
ĠÙĪÙĬ Ø¤ÙĥØ¯
ĠÙħØ¬ ÙĩÙĪÙĦØ©
ĠØ¬ÙĦ Ø³
ĠØ¬Ø§Ø² Ø§ÙĨ
ĠØŃ ØµØ¯
ÙĤÙĬÙĤ Ùĩ
ĠÙĦØŃ ÙĤ
ï» ¼
ĠÙĪØ§ÙĦØ£ Ø±Ø¯ÙĨ
ÙħÙĦ ÙĬÙĨ
ĠØ³Ø§Ø® ÙĨ
ĠÙĬÙĤØª Ø±Ø¨
ĠÙħØµ ÙħÙħØ©
ĠÙĪ ÙĪØªØ´
ĠÙĬ Ø¯Ø±
ĠØªÙħ ÙĪØª
ĠØ¨ÙĦ Ø¯Ùĩ
ĠÙħ Ø¸Ø§ÙĩØ±Ø§Øª
ĠØªØ£ Ø¬ÙĬØ±
ĠØ¨ÙħÙĨ Ø¹
Ø§Ø³ÙĬ ÙĪÙħ
ĠØ± ÙĪØ¨
ĠØ§ÙĦÙĪØ¸ÙĬÙģ ÙĬØ©
ĠÙĬØ´ Ø±Ùģ
ĠÙĪ ÙģÙĦØ³Ø·ÙĬÙĨ
ĠÙĪØ§ÙĦÙĩ ÙĨØ¯
ĠØ¨Ø§ÙĦ Ø°
ĠØ±Ùģ ÙĤØ©
Ø¹ Ø§ÙħÙĦ
ĠÙĪØªÙĨ Ø¸ÙĬÙģ
ĠÙħ ÙĪØ±ÙĬÙĨ
ÙĪØ§Ø´ Ø§Ø±
ØªÙĩ ÙĬØ©
ØªØ¹ ÙħÙĦ
k y
ĠØ±Ø³ Ø§ÙĦØªÙĩ
ĠØ¨Ø§ÙĨØª Ø¸Ø§Ùħ
ĠØ§ÙĥØª Ø´ÙģØª
ÙĤ ÙĪØ§Øª
ĠØ§ÙĦØ³ÙĪØ¯ Ø§ÙĨÙĬÙĬÙĨ
ĠØªØŃØª ÙĪÙī
un g
ĠÙĬ ÙħØ¯
ĠÙĩØ¯Ùģ ÙĩØ§
ĠÙĪØ§ÙĦØ¢ Ø®Ø±Ø©
ĠØ¨ØªÙĨ Ø¸ÙĬÙģ
ĠØ§ÙĦÙĤ ÙĦØ¨ÙĬØ©
ĠØ§ÙĦÙħÙĤ Ø§Ø¹Ø¯
A C
Øº Ø±Ø§Øª
ĠÙĦÙĩ ÙĨ
Ø¨ÙĬ ØªÙĩ
ÙĬØ¬ Ø§ÙĨ
ĠÙĪØ§ÙĦØ§ÙĤ ØªØµØ§Ø¯ÙĬ
ĠÙĪØ§ÙĦØ¯ Ø¹Ùħ
Ùħ ÙĬØ³
ĠØ¹ Ø§ÙĦÙĬÙĩ
ĠÙĬØ¯ Ø¹ÙĬ
ĠÙĦÙĦØ£ Ø¹ÙħØ§ÙĦ
ĠÙĦ Ø§Ø¬Ø¦
ĠØ§Ø³Øª Ø´ÙĩØ¯
Ø³Øª ØºØ±Ø§Ùħ
ĠÙĦØ¥ ÙĬØ¬Ø§Ø¯
ĠØ§ÙĦØ¥ Ø´Ø¹
ĠØ´Ø¦ ÙĪÙĨ
ĠØ£ÙĨ Ø§Ø³
h er
ÙĪØŃ ØªÙī
ÙĪÙĬÙĦ Ø§
ĠØ§ÙĦØ§ÙĨ ØªÙħØ§Ø¡
ĠÙĩØ¬ ÙĪÙħØ§
) -
ĠØµÙĪØª Ø§
Ġ199 3
ĠØ§ÙĦØ³Ùģ ÙĦÙĬ
ĠÙĨØ¨ Ø¶
e y
ĠÙĦÙĦ ÙĤØ±Ø¢ÙĨ
ĠÙĪØ£ ÙĦ
ĠÙħØ§Ùĥ ÙĬÙĨØ©
ĠØ¯Ø¹ ÙĪØ§Øª
ĠÙħÙĨØ§Ùĩ Ø¬
ĠØ£Ùħ Ø«ÙĦØ©
ĠÙĪØ§ÙĦ Ø±ÙĬØ§Ø¶
ĠØ§ÙĦØ¯ Ø¹Ø§ÙĬØ©
ĠØ² ÙĦØª
ĠØªØ¯Ø±ÙĬØ¨ Ø§Øª
ÙĪÙĨ Ø²
[...]
