{"<|endoftext|>":0,"!":1,"\"":2,"#":3,"$":4,"%":5,"&":6,"'":7,"(":8,")":9,"*":10,"+":11,",":12,"-":13,".":14,"/":15,"0":16,"1":17,"2":18,"3":19,"4":20,"5":21,"6":22,"7":23,"8":24,"9":25,":":26,";":27,"<":28,"=":29,">":30,"?":31,"@":32,"A":33,"B":34,"C":35,"D":36,"E":37,"F":38,"G":39,"H":40,"I":41,"J":42,"K":43,"L":44,"M":45,"N":46,"O":47,"P":48,"Q":49,"R":50,"S":51,"T":52,"U":53,"V":54,"W":55,"X":56,"Y":57,"Z":58,"[":59,"\\":60,"]":61,"^":62,"_":63,"`":64,"a":65,"b":66,"c":67,"d":68,"e":69,"f":70,"g":71,"h":72,"i":73,"j":74,"k":75,"l":76,"m":77,"n":78,"o":79,"p":80,"q":81,"r":82,"s":83,"t":84,"u":85,"v":86,"w":87,"x":88,"y":89,"z":90,"{":91,"|":92,"}":93,"~":94,"¡":95,"¢":96,"£":97,"¤":98,"¥":99,"¦":100,"§":101,"¨":102,"©":103,"ª":104,"«":105,"¬":106,"®":107,"¯":108,"°":109,"±":110,"²":111,"³":112,"´":113,"µ":114,"¶":115,"·":116,"¸":117,"¹":118,"º":119,"»":120,"¼":121,"½":122,"¾":123,"¿":124,"À":125,"Á":126,"Â":127,"Ã":128,"Ä":129,"Å":130,"Æ":131,"Ç":132,"È":133,"É":134,"Ê":135,"Ë":136,"Ì":137,"Í":138,"Î":139,"Ï":140,"Ð":141,"Ñ":142,"Ò":143,"Ó":144,"Ô":145,"Õ":146,"Ö":147,"×":148,"Ø":149,"Ù":150,"Ú":151,"Û":152,"Ü":153,"Ý":154,"Þ":155,"ß":156,"à":157,"á":158,"â":159,"ã":160,"ä":161,"å":162,"æ":163,"ç":164,"è":165,"é":166,"ê":167,"ë":168,"ì":169,"í":170,"î":171,"ï":172,"ð":173,"ñ":174,"ò":175,"ó":176,"ô":177,"õ":178,"ö":179,"÷":180,"ø":181,"ù":182,"ú":183,"û":184,"ü":185,"ý":186,"þ":187,"ÿ":188,"Ā":189,"ā":190,"Ă":191,"ă":192,"Ą":193,"ą":194,"Ć":195,"ć":196,"Ĉ":197,"ĉ":198,"Ċ":199,"ċ":200,"Č":201,"č":202,"Ď":203,"ď":204,"Đ":205,"đ":206,"Ē":207,"ē":208,"Ĕ":209,"ĕ":210,"Ė":211,"ė":212,"Ę":213,"ę":214,"Ě":215,"ě":216,"Ĝ":217,"ĝ":218,"Ğ":219,"ğ":220,"Ġ":221,"ġ":222,"Ģ":223,"ģ":224,"Ĥ":225,"ĥ":226,"Ħ":227,"ħ":228,"Ĩ":229,"ĩ":230,"Ī":231,"ī":232,"Ĭ":233,"ĭ":234,"Į":235,"į":236,"İ":237,"ı":238,"Ĳ":239,"ĳ":240,"Ĵ":241,"ĵ":242,"Ķ":243,"ķ":244,"ĸ":245,"Ĺ":246,"ĺ":247,"Ļ":248,"ļ":249,"Ľ":250,"ľ":251,"Ŀ":252,"ŀ":253,"Ł":254,"ł":255,"Ń":256,"Ø§":257,"ÙĦ":258,"ÙĬ":259,"ĠØ":260,"Ø§ÙĦ":261,"Ùħ":262,"ÙĪ":263,"ÙĨ":264,"ĠØ§ÙĦ":265,"Ø§Ø":266,"Ø±":267,"Ø©":268,"Øª":269,"Ùĩ":270,"Ùģ":271,"Ø¯":272,"ĠØ§ÙĦØ":273,"ÙĤ":274,"Ùĥ":275,"Ø¹":276,"Ø¨":277,"ĠÙħ":278,"ĠÙĪ":279,"Ø³":280,"ĠØ¨":281,"ØŃ":282,"ĠÙĦ":283,"ĠÙģ":284,"ĠØ£":285,"ĠØ¹":286,"Ùī":287,"Ø¬":288,"ÙĬØ©":289,"ĠØ§ÙĦÙħ":290,"ĠØª":291,"Ø§Øª":292,"Ø§ÙĨ":293,"ØĮ":294,"ĠÙģÙĬ":295,"Ø·":296,"Ø§Ø±":297,"ĠÙĬ":298,"Øµ":299,"ĠÙħÙĨ":300,"ÙĬÙĨ":301,"Ø´":302,"Ø§Ùħ":303,"Ø¶":304,"ÙĦÙī":305,"Ùİ":306,"Ø®":307,"Ø£":308,"ÙĩØ§":309,"Ø²":310,"Ø°":311,"ĠØ¥":312,"ÙĬØ±":313,"ĠÙĥ":314,"ĠÙĪØ§ÙĦ":315,"Ø«":316,"ĠØ§ÙĦØª":317,"ÙĪÙĦ":318,"ÙĪÙĨ":319,"ĠØ§ÙĦØ£":320,"Ø§Ø¨":321,"Ø§Ø³":322,"ĠØŃ":323,"Ø§Ø¯":324,"Ø±ÙĬ":325,"Ø§Ø¡":326,"ĠÙĩ":327,"ĠØ³":328,"ÙĦÙĬ":329,"ĠØ§ÙĦØ¹":330,"ĠÙĤ":331,"ĠØ¹ÙĦÙī":332,"ĠÙĨ":333,"Ø§Ø¹":334,"Ø§Ø¦":335,"ĠÙĦÙĦ":336,"ĠØ£ÙĨ":337,"ÙĪØ±":338,"Øº":339,"ĠØ¬":340,"Ùĳ":341,"ĠØ±":342,"ÙĬØ¯":343,"ÙħØ§":344,"ĠØ§ÙĦØ³":345,"..":346,"Ùĭ":347,"Ø§Ùģ":348,"ÙĲ":349,"ÙĪÙħ":350,"ÙĩÙħ":351,"Ø¸":352,"ĠØ§ÙĦØŃ":353,"Ùı":354,"âĢ":355,"ĠØ¨Ø§ÙĦ":356,"ĠØ¯":357,"ĠØ´":358,"Ø§ÙĤ":359,"Ø§ØŃ":360,"ÙĢ":361,"ĠØ¹ÙĨ":362,"ÙĬÙĦ":363,"ÙĦÙĥ":364,"ĠØ®":365,"Ø³Øª":366,"ÙĨØ§":367,"Ø±Ø¨":368,"ĠØ§ÙĦØ¬":369,"Ø¥":370,"ĠØ§ÙĦÙĤ":371,"Ġ2":372,"Ø§Ø¬":373,"ØªÙħ":374,"ĠÙħØ¹":375,"ĠØ§ÙĦÙĨ":376,"ĠØ§ÙĦØ¨":377,"ĠØ§ÙĦØ¥":378,"ÙħÙĨ":379,"ÙĴ":380,"ĠØ§ÙĦØ´":381,"Ø¦":382,"ĠØ§ÙĦØ¯":383,"ĠØ§ÙĦÙĦ":384,"ÙĪØ¹":385,"ÙĦÙħ":386,"Ø¨Ø±":387,"Ø°Ø§":388,"ÙĪØ¯":389,"ĠØµ":390,"Ø±Ø©":391,"ĠØ¥ÙĦÙī":392,"ÙħÙĦ":393,"Ø¹Ø¯":394,"ÙĪÙĤ":395,"ĠØ§ÙĦÙģ":396,"Ø±Ùĥ":397,"Ø¨ÙĬ":398,"ÙĬÙħ":399,"Ġ1":400,"ÙĤØ¯":401,"ÙĬØ³":402,"ÙĦØ§":403,"ĠØ§ÙĦØ±":404,"ÙĬØ§":405,"ĠØ§ÙĨ":406,"ĠØ§ÙĦØ®":407,"Ø§Ø³Øª":408,"ØŃØ¯":409,"ĠØĮ":410,"Ø§Øµ":411,"Ø¤":412,"ĠØ§ÙĦÙĥ":413,"Ġ(":414,"ÙĥÙĨ":415,"ĠØ§ÙĦØªÙĬ":416,"ĠØ§ÙĦØµ":417,"ĠØ·":418,"ĠÙĪØª":419,"Ġ20":420,"ÙĤØ©":421,"ÙģÙĬ":422,"ÙħØ©":423,"ĠÙħØ§":424,"ĠØ§ÙĦØ°":425,"Ø¹Ø©":426,"ÙĦØ©":427,"ØªØ±":428,"Ø¹ÙĦ":429,"ÙĪØ¶":430,"Ø§Ùĩ":431,"ĠÙĦØ§":432,"Ø¨Ø©":433,"Ġ\"":434,"ĠâĢ":435,"Ø§Ø·":436,"ÙĢÙĢ":437,"ĠØ£ÙĪ":438,"ØªÙĩ":439,"ÙĪÙĬ":440,"ĠØ¹ÙĦÙĬ":441,"ÙĪØ§":442,"Ø°Ùĩ":443,"Ø§Ø¶":444,"ÙĨÙĬ":445,"ÙħØ±":446,"ØªÙĬ":447,"Ø±Ùģ":448,"Ø§Ø®":449,"ÙĪØ³":450,"ĠØ§ÙĦÙĦÙĩ":451,"ÙĬØ¹":452,"ÙĪØ¬":453,"ĠØ°":454,"ĠÙĦÙħ":455,"Ø£ÙĨ":456,"ĠØº":457,"ÙĥÙĦ":458,"Ø´Ø±":459,"Ġ.":460,"ÙĥØ±":461,"Ø¯ÙĬ":462,"ÙĪÙģ":463,"Ø¨ÙĦ":464,"ÙĬÙģ":465,"Ø¯Ø©":466,"Ø§Ø±Ø©":467,"ĠÙĥØ§ÙĨ":468,"ĠØ§ÙĦØ·":469,"Ø§Ø²":470,"ĠÙĩØ°Ø§":471,"ÙĪØ¨":472,"Ø§ÙĦÙħ":473,"ÙĤÙĬ":474,"ÙĨØª":475,"ĠØ§":476,"Ġ..":477,"ĠØ§ÙĦÙĪ":478,"Ø®Ø±":479,"ĠÙħØŃ":480,"Ġ201":481,"ĠØªØ¹":482,"ĠÙĥÙĦ":483,"Ġ-":484,"ĠØ§ÙĦØ«":485,"Ø¬Ùħ":486,"Ø³Ø¨":487,"ĠÙĪÙħ":488,"Ø³ÙĦ":489,"ÙĥÙĪÙĨ":490,"ÙĦØ§ÙĦ":491,"ĠØªØŃ":492,"ÙĳÙİ":493,"Ø¯Ø±":494,"ĠÙĪÙĩ":495,"Ø¯Ùħ":496,"Ø¨Ø¯":497,"ÙĥÙħ":498,"ÙĬØ§Øª":499,"Ø§Ø´":500,"ĠÙĩØ°Ùĩ":501,"Ø¬ÙĦ":502,"ĠØ§ÙĦØ°ÙĬ":503,"Ø¯ÙĬØ¯":504,"Ø§Ø«":505,"Ø³Ùħ":506,"ĠÙĪØ£":507,"ÙĨØ³":508,"ØµÙĦ":509,"Ø§ÙĨÙĬ":510,"ÙĦÙģ":511,"ÙĥØª":512,"Ø§Ø©":513,"Ø±Ø¶":514,"ĠØ§ÙĦÙħØª":515,"ĠØ¨ÙĬÙĨ":516,"ĠØ§ÙĦÙĬ":517,"ĠØ«":518,"Ø§Ø¯Ø©":519,"ÙĬØ±Ø©":520,"ĠØ¨Ø¹Ø¯":521,"ÙħØ¯":522,"ĠØ§Ø³Øª":523,"ÙĬØª":524,"ØµØ±":525,"ÙĪØª":526,"ÙĥØ§ÙĨ":527,"Ø¹Ùħ":528,"ÙĩØ±":529,"ØŃØ©":530,"Ġ:":531,"ĠØ¨ÙĨ":532,"ÙĤÙĦ":533,"Ø¯Ø§":534,"Ø·ÙĦ":535,"ĠØ²":536,"ĠØ¥ÙĨ":537,"ÙĬÙĪ":538,"ÙĨØ©":539,"ĠÙĪØ§ÙĦÙħ":540,"Ø¦ÙĬØ³":541,"ĠØ£ÙĬ":542,"ØªØŃ":543,"ÙĪØ¶ÙĪØ¹":544,"Ø¨Ø§Ø±":545,"ĠØ§ÙĦÙħÙĨ":546,"ĠÙĩÙĪ":547,"ÙĩØ¯":548,"ÙģØ³":549,"ĠØ¶":550,"Ø«Ø±":551,"Ø·Ø©":552,"ÙĤØ±":553,"Ø¹Ø¶":554,"Ø®Øµ":555,"ÙĬØ²":556,"ØŁ":557,"ĠØ¢":558,"ÙĪØ§Øª":559,"Ø§ÙĦÙĬ":560,"ÙĬØ«":561,"ÙĪØ±Ø©":562,"ĠÙĬØ¹":563,"Ø³ÙĬ":564,"ÙĪÙĦØ©":565,"ĠØ°ÙĦÙĥ":566,"ØªØ¹":567,"Ø´Ø§Ø±":568,"Ø¥ÙĨ":569,"Ø¡":570,"ĠÙĪØ¨":571,"ĠØªÙħ":572,"ÙģØ±":573,"ĠÙħØª":574,"ĠØ£Ùħ":575,"ĠÙģÙī":576,"ĠÙĪÙĤ":577,"ĠØ³ÙĬ":578,"âĢĿ":579,"Ø±ÙĬÙĤ":580,"ĠÙħØ³":581,"Ø§Ø±Ø§Øª":582,"Ø±ÙĥØ©":583,"ØªØµ":584,"ĠØ®ÙĦØ§ÙĦ":585,"ĠÙĬÙħ":586,"ÙĨØ¯":587,"Ø§Ø±ÙĬ":588,"ØªÙī":589,"ØªÙĩØ§":590,"Ø§Ùĥ":591,"Ø¢":592,"Ø§ÙĦØ©":593,"ĠØ§ÙĦÙħØŃ":594,"ĠØ¬Ùħ":595,"ÙĪØ²":596,"Ø§Ø°":597,"Ø§ÙĨÙĬØ©":598,"Ø±ÙĤ":599,"ĠÙĦÙĩ":600,"Ø°ÙĦÙĥ":601,"ĠÙĪØ³":602,"ĠÙħØ±":603,"ĠÙĪÙĬ":604,"ĠÙħØ¯":605,"Ø¹Ø¨":606,"ÙĦØ§Ùħ":607,"ĠØ¨Ùħ":608,"Ø¬Ø±":609,"Ġ3":610,"ÙĪØ±ÙĬ":611,"Ø³Ø±":612,"Ø§ÙģØ©":613,"ĠØ§ÙĦØ£Ùħ":614,"ĠØ¨Ø±":615,"ĠØ§ÙĦØ¹Ø§Ùħ":616,"Ø¹Ø±":617,"ĠÙĦØª":618,"ĠØ§ÙĦØº":619,"Â»":620,"ĠØ¹ÙĦÙĬÙĩ":621,"Ø«ÙĦ":622,"ĠÙĬØª":623,"ÙħÙĪØ¶ÙĪØ¹":624,"Ø¨ØŃ":625,"ĠÙĤØ¯":626,"ĠÙĪØ¬":627,"ĠØ§ÙĦÙī":628,"ĠØ§ÙĦÙĩ":629,"ÙĦØ¨":630,"Ø®ÙĦ":631,"ĠØ£Ùĥ":632,"ĠÙĦÙĦÙħ":633,"ĠØªÙĨ":634,"ĠØ¹Ø§Ùħ":635,"ÙĪÙī":636,"ĠØ¨ÙĦ":637,"ĠØ§ÙĦØ§ÙĨ":638,"ĠâĢľ":639,"Ø±Ø¨ÙĬØ©":640,"ĠØ§ÙĦÙħØ³":641,"ï»":642,"ĠØ§ÙĦØ²":643,"ĠÙĩÙĬ":644,"ĠØ§ÙĦØ¬Ùħ":645,"ÙĪÙĥ":646,"ÙĬÙĨØ©":647,"ÙĪÙĬØ©":648,"ĠØ§ÙĦÙħØ±":649,"ĠØ§ÙĦÙħØ¹":650,"ØŃÙĬ":651,"ÙĨÙĬØ©":652,"Ø§ÙĦÙĬØ©":653,"ÙĦÙĩ":654,"Ø³Ø©":655,"ÙĪÙĤØ¹":656,"ĠÙĪØ¹":657,"ĠØ§ÙĦÙĬÙĪÙħ":658,"ÙĤØ·":659,"ÙģØ¶":660,"00":661,"ĠÙĥÙħØ§":662,"Ø¨Øª":663,"ĠØ¨Ùĩ":664,"Ø«ÙĬØ±":665,"ĠØ¨Ø¯":666,"ĠØ¹ÙĨØ¯":667,"ÙĪØ©":668,"ĠØªÙĤ":669,"ĠØ¨Ø´":670,"Ø·Ø±":671,"ĠØ¨ØŃ":672,"Ø¦Ø©":673,"ĠÙĤØ¨ÙĦ":674,"ÙĦÙĬÙħ":675,"ĠØ§ÙĦØ¹Ø§ÙĦÙħ":676,"ĠØ§ÙĦØ¢":677,"ĠØ§ÙĦØ³ÙĬ":678,"ĠÙĪÙĦ":679,"Ø§Ø¹Ø©":680,"ĠØŃÙĬØ«":681,"ĠÙĬÙĤ":682,"ØªÙģ":683,"Ø¯Ø¯":684,"ĠÙĬÙħÙĥÙĨ":685,"ĠØºÙĬØ±":686,"ĠÙħØ³Øª":687,"ÙĬØ¨":688,"ĠØŃØªÙī":689,"ĠÙħØ´":690,"ĠØ§ÙĦÙħÙĪ":691,"ÙĬÙĩ":692,"Â«":693,"ÙĪØ§ÙĨ":694,"Ø³Ø·":695,"ĠØ¨Ø¹Ø¶":696,"ĠÙĬØŃ":697,"ĠØ§ÙĦÙħØ³Øª":698,"ĠÙĪØ§ÙĦØª":699,"Ø®Øª":700,"Ø¬Ø©":701,"ĠÙĪÙĦØ§":702,"Ø§ÙĦØª":703,"Ø§Ø¨Ø©":704,"Ġ,":705,"ĠØ¨Øª":706,"ĠØªØ±":707,"ĠØ§ÙĦØªØ¹":708,"ĠØ§Ø³":709,"...":710,"Ø¶Ø§":711,"ĠØ§ÙĦÙħØ¯":712,"ĠÙĦÙĬ":713,"Ġ...":714,"ĠÙĩÙĨØ§":715,"ØµÙģ":716,"ĠØ§Ø®":717,"Ø§ÙħØ¬":718,"ÙĥÙĬ":719,"ĠÙħÙĪ":720,"ĠÙĪØŃ":721,"ÙĢÙĢÙĢÙĢ":722,"ïº":723,"Ø£Ø³":724,"Ø§Ø¯ÙĬ":725,"ĠØªØª":726,"Ø§ÙħÙĦ":727,"Ø±Ø§Ø¡":728,"Ġ0":729,"ĠÙĪÙĨ":730,"Ø¹ÙĪØ¯":731,"ĠÙħØ¬":732,"ĠØ§Ø¨":733,"ĠÙĪÙħÙĨ":734,"ĠØ±Ø¯":735,"ĠÙħÙĤ":736,"ĠØªØ¬":737,"ĠØ§ÙĦØ¹ÙħÙĦ":738,"ĠÙĪØ²":739,"ĠØ¹ÙħÙĦ":740,"ĠÙĬÙĪÙħ":741,"Ùį":742,"Ø³ÙĦØ§Ùħ":743,"ĠØ§Ø¹":744,"ĠÙĬØ¬":745,"ĠØ£Ø¨":746,"Ø§ØµØ©":747,"ÙĦÙĥÙĨ":748,"ÙĩÙĦ":749,"ÙĪØŃ":750,"ĠØ§ØŃ":751,"ĠØ§ÙĦØ§Ø³Øª":752,"ØªØ¨":753,"ÙĪØ§ÙĦ":754,"Ø¸Ø±":755,"Ø±Ø¯":756,"ÙĤØ¯Ùħ":757,"ĠØ£Ø³":758,"ĠØ§ÙĦØ¯ÙĪÙĦ":759,"ĠÙĪØ¥":760,"ÙģØ¹":761,"ÙĦØ§Ø«":762,"ĠÙĥØ§ÙĨØª":763,"ÙĥØ©":764,"Ø¯Ùī":765,"Ġp":766,"ÙĦÙĤ":767,"ÙĪÙħØ©":768,"ĠØªØ´":769,"ĠØ£ÙĨÙĩ":770,"Ġ200":771,"Ø§Ø¦ÙĬ":772,"ĠÂ«":773,"Ġ4":774,"ĠØ§ÙĦÙħØµ":775,"ÙĬØ§ÙĨ":776,"ĠÙĪÙĥ":777,"ĠØ¹Ø¨Ø¯":778,"ÙĨÙĬÙĨ":779,"ÙĬØ´":780,"Ø®Ø¯":781,"ĠÙĪÙĩÙĪ":782,"Ġ)":783,"Ø§Ø¦ÙĬØ©":784,"Ø§Ø¦ÙĦ":785,"Ø¨Ùĩ":786,"ĠÙĦØ£":787,"ÙĪØ£":788,"Ø¨ÙĬØ±":789,"Ġ5":790,"ĠØªØµ":791,"ØºÙĬØ±":792,"ĠÙħØµ":793,"ĠÙĨÙģØ³":794,"ĠØ³Ø¨":795,"ĠØ§ÙĦÙħÙĤ":796,"ÙģØ©":797,"ØµÙĪÙĦ":798,"ÙģØª":799,"ÙĪÙĩ":800,"ØªÙħØ§Ø¹":801,"ĠÙĤØ§ÙĦ":802,"ÙĨØ§Ø¡":803,"ĠØ§Ùħ":804,"ĠÙĪØ§ØŃ":805,"ĠÙĬÙĥÙĪÙĨ":806,"ÙĬØ¬":807,"ÙĬÙĬÙĨ":808,"ĠÙĪÙĦÙĥÙĨ":809,"ĠØ§ÙĦÙħØ¬":810,"Ø§Ø¹Ø¯":811,"Ø¸Ø§Ùħ":812,"Ø¬ÙĦØ³":813,"ĠØ«Ùħ":814,"ØŃØ±":815,"ĠØ§Øª":816,"ØªÙĦ":817,"ÙĪØ¹Ø©":818,"ĠØ§ÙĦØ£Ø³":819,"am":820,"ĠØªØ³":821,"ĠÙĪØ§ÙĦØ£":822,"Ø²Ø©":823,"Ġpm":824,"Ø¯ÙĬØ¯Ø©":825,"ĠÙħØŃÙħØ¯":826,"Ø¹Øª":827,"ÙĤÙĬÙĤ":828,"ĠÙħØ¤":829,"ÙģÙĦ":830,"ĠÙĬÙĨ":831,"Ø§ÙĦØ¨":832,"ĠØ¨Ø£":833,"ĠØ¨ÙĩØ§":834,"Ø§Ø³Ø©":835,"ÙĬÙĤ":836,"ÙĪÙĦØ§":837,"ĠØ§ÙĦØ¶":838,"ĠâĢĵ":839,"ĠÙģÙĬÙĩØ§":840,"ĠØ¨Ø§ÙĦÙħ":841,"Ø®Ø±Ùī":842,"Ø±Ø¬":843,"Ø§Ø±Ø¬":844,"ĠØ¨Ø£ÙĨ":845,"Ø±ÙĬØ¯":846,"ĠØ§ÙĦÙĤØ±":847,"ĠØ£ÙĥØ«Ø±":848,"ÙĬÙĦØ©":849,"ØŃØ¯Ø©":850,"Ø±ÙĥØ²":851,"ĠØ±Ø¦ÙĬØ³":852,"Ø§Ø±ÙĬØ®":853,"ĠØ§ÙĦØ§":854,"ÙĪØ·":855,"Ø§Øº":856,"ĠÙĪÙģ":857,"Ø¹Ø§":858,"ĠØ§ÙĦÙħØ´":859,"ĠØ§ÙĦØ¨Ø±":860,"ĠÙĦÙĥÙĨ":861,"ÙĪØ§Ø±":862,"ÙĤØ§ÙĦ":863,"ÙĦÙĬØ©":864,"Ø§ÙĤØ©":865,"Ø±Ø§Øª":866,"Ø®Ø¯Ùħ":867,"Ø±ÙĬØ¨":868,"Ġ19":869,"Ø§Ø³ÙĬØ©":870,"Ø¹ÙĬØ©":871,"\".":872,"ØµØ©":873,"Ø§Ø¬ØªÙħØ§Ø¹":874,"ĠÙĦØ£ÙĨ":875,"Ø·ÙĤØ©":876,"ÙĨÙī":877,"ĠØ§ÙĦÙħØ¤":878,"Ø§ÙĨÙĪÙĨ":879,"ØŃØ¯Ø«":880,"ĠÙħØ«ÙĦ":881,"ĠÙģØ±":882,"ĠØ£ØŃ":883,"ØªÙĥ":884,"ĠØ¬ÙħÙĬØ¹":885,"Ø§Ø±Ø³":886,"ÙĨØ§ÙħØ¬":887,"ĠØ¸":888,"ĠÙĦÙĥ":889,"Ø§ØŃØ©":890,"ĠÙĦÙĩØ§":891,"ÙĬÙĥ":892,"Ø®ØªÙĦÙģ":893,"ĠÙģÙĬÙĩ":894,"ĠØ§ÙĦØ±Ø¦ÙĬØ³":895,"ĠÙħÙħ":896,"ĠØ³Øª":897,"ĠØ§ÙĦÙĪØ·":898,"Ø§ÙħØ©":899,"ĠÙĦÙĨ":900,"ÙĪØ±ÙĬØ©":901,"ÙģØ¶ÙĦ":902,"ĠØ¥ÙĦØ§":903,"ĠØ§ÙĦØ¹Ø±Ø¨ÙĬØ©":904,"Ø¶Ø¹":905,"ĠØ¨Ø´ÙĥÙĦ":906,"Ø¬Ùĩ":907,"ĠØªØ¯":908,"ĠØ¹ÙĦ":909,"ØµØ¯":910,"ĠÙģØ¥ÙĨ":911,"Ø§ØªÙĩ":912,"ĠÙĪØ±":913,"Ø®Ø¯Ø§Ùħ":914,"Ġam":915,"ÙĬÙĨØ§":916,"ĠØŃÙĪÙĦ":917,"Ġ6":918,"ÙĪØ§Ø¬":919,"Ø§ÙĦØŃ":920,"ĠÙĬØªÙħ":921,"ĠØ§ÙĪ":922,"ØªØ§Ø¨":923,"ĠÙħØµØ±":924,"ĠØ¥ÙĦÙĬ":925,"Ø¹ÙħÙĦ":926,"ĠØ§ÙĦØ§Ø³":927,"Ø³Ø¨Ø¨":928,"Ø§Ø¶ÙĬ":929,"Ġ_":930,"ĠÙĤØ±":931,"Ø§ÙĦØ§Øª":932,"ĠØ¹Ùħ":933,"ÙĪØµ":934,"ĠÙĬØ³Øª":935,"ÙĦÙĬÙĦ":936,"Ø¹ÙĬ":937,"ĠØ£ØŃØ¯":938,"ÙĪØ¯Ø©":939,"Ø±Ø¨ÙĬ":940,"ÙĤØ§":941,"ĠØ´ÙĬ":942,"Ø®Ø·":943,"Ø§Ø³ÙĬ":944,"ÙĦØª":945,"Ø¸Ùħ":946,"Ø³Ø·ÙĬÙĨ":947,"Ø³ÙĨ":948,"Ø´Ùģ":949,"ĠÙħØ¨":950,"ĠØ§Ø±":951,"ĠØ§ÙĦØ§Øª":952,"Ø§Ø°Ø§":953,"ĠÙĦÙĦØª":954,"ĠØ³ÙĨ":955,"ĠÙĦØŃ":956,"ĠÙĩÙĨØ§Ùĥ":957,"ĠØ¥Ø°Ø§":958,"Ø¨Ø§Øª":959,"Ø·Ø¨ÙĬ":960,"Ø²ÙĬØ¯":961,"ĠØ§ÙĦØ¨ÙĦ":962,"Ø±Ø¨Ø¹":963,"ĠÙĬØ¯":964,"20":965,"ÙĩØ©":966,"Ġ/":967,"ĠØªØ£":968,"ĠÙĨØŃ":969,"ĠØ§ÙĦØªØŃ":970,"ÙĪÙħØ§Øª":971,"Ø¶Ø±":972,"Ø±ÙĬÙĥ":973,"ĠÙĪÙĤØ¯":974,"ĠÙĪÙģÙĬ":975,"ĠØ¯Ø±":976,"Ø§Ø±ÙĬØ©":977,"ÙĩÙĬ":978,"Ø¹ÙħØ§ÙĦ":979,"ĠØ¨Ø¥":980,"Ø¨Ø¹":981,"ĠØ§ÙĦØ³Ø¹ÙĪØ¯":982,"ĠØ§ÙĦØŃÙĥ":983,"Ø§ÙģØ¸":984,"ĠØªÙģ":985,"Ø§Ø¯Ø±":986,"ĠØ¯ÙĪÙĨ":987,"ĠØ§ÙĦØªÙĨ":988,"ĠØ¯ÙĪÙĦ":989,"ĠØ®Ø·":990,"ĠØ£Øµ":991,"ĠØ§ÙĦÙħÙĨØª":992,"ĠØªØŃØª":993,"ÙĨØ§ÙĨ":994,"ĠØ¹ÙĦÙĬÙĩØ§":995,"ÙĳÙĲ":996,"ÙĥØ¯":997,"ĠØ§ÙĦØ§Ùħ":998,"ØĽ":999,"ĠØ§ÙĦØ£ÙĪÙĦ":1000,"ÙĮ":1001,"ĠØ§ÙĦØ¹Ø±":1002,"ĠØ¹Ø¯Ø¯":1003,"ÙĦØ³Ø·ÙĬÙĨ":1004,"ĠØªÙĥÙĪÙĨ":1005,"ÙĪØ§Ø¡":1006,"ÙĬØ¯Ø©":1007,"Ġ10":1008,"Ø·Ùģ":1009,"ĠØŁ":1010,"ĠÙģÙĤØ·":1011,"ÙħØ³":1012,"Ø§Ø¨Ø§Øª":1013,"ĠØ§ÙĦÙħÙħ":1014,"Ø¬Ø¯":1015,"ÙĬÙħØ©":1016,"ÙĩÙħØ§":1017,"ĠØ£Ø¹":1018,"ĠÙĪØ£ÙĨ":1019,"ÙħØ§ÙĨ":1020,"ĠØ§ÙĦØ¥Ø³ÙĦØ§Ùħ":1021,"Ġ7":1022,"ØªØ¯":1023,"Ø§ÙĤØ¹":1024,"Ø±ÙģØ©":1025,"ĠØ§ÙĦØ°ÙĬÙĨ":1026,"ØªÙħØ±":1027,"ĠÙħÙĨÙĩØ§":1028,"ĠØŃØ¯":1029,"ĠØ¨Ø¹":1030,"Ø§ØµÙĦ":1031,"ĠÙħÙĦÙĬ":1032,"ØªÙħØ¹":1033,"ĠØ§ÙĦÙĪÙĤ":1034,"ĠÙĪÙĩÙĬ":1035,"ĠÙĦØ¥":1036,"ÙĪÙĦÙī":1037,"ĠØŃÙĤ":1038,"ĠØ§ÙĦØ£Ø®":1039,"Ø£Ø©":1040,"ĠÙħÙĨØ°":1041,"ĠØªØ³Øª":1042,"ĠØ§ÙĤ":1043,"Ø²ÙĬ":1044,"ĠØªÙĦÙĥ":1045,"Ø§ÙĦÙī":1046,"ÙĥØ³":1047,"ĠØ§ÙĦÙģØ±":1048,"ĠØ±Ø³":1049,"ĠØ§ÙĦØ«ÙĦØ§Ø«":1050,"ÙĤÙĪÙĦ":1051,"ĠØ£Ø®":1052,"Ø¨ÙĬØ©":1053,"ÙħØ¨Ø±":1054,"Ø°ÙĥØ±":1055,"Ø´ÙĬ":1056,"ÙĪÙĬØ±":1057,"ØºØ©":1058,"ĠØ§ÙĦÙħØªØŃØ¯Ø©":1059,"Ġ8":1060,"Ø§Ø¦Ø±":1061,"ÙħØ§ÙĦ":1062,"Ø¯Ø§Ø±Ø©":1063,"ĠÙĪØ§ÙĨ":1064,"Ø§Ø®ÙĦ":1065,"ĠØ§ÙĦØ§ØŃ":1066,"ÙĤØ¨":1067,"Ø·Ø§Ø¹":1068,"Ø§Ø¯ÙĬØ©":1069,"Ø´Ø±ÙĪØ¹":1070,"ĠØ£ÙĬØ¶Ø§":1071,"ĠØ´Ø®Øµ":1072,"ØªØ®":1073,"ĠØ§ÙĦØ³ÙĦ":1074,"Ø¸ÙĬÙħ":1075,"Ø±ØŃ":1076,"Ø§Ø¨Ø¹":1077,"ĠØ¬Ø¯Ø§":1078,"Ø¬ÙħÙĪØ¹Ø©":1079,"ÙĪÙģÙĬ":1080,"Ø°ÙĬ":1081,"ĠÙĬØ³":1082,"Ø¯ÙĬØ«":1083,"ĠÙħÙĪÙĤØ¹":1084,"ĠÙĪØ§ÙĦØ¥":1085,"ØºÙĬ":1086,"ĠØ§ÙĦØ¹ÙĦ":1087,"Ø§ÙĬ":1088,"Ø¶Ø§Ø¡":1089,"ĠØ§ÙĦØ´ÙĬ":1090,"Ø·Ø§Ø±":1091,"ÙĤØ§Ø¡":1092,"ĠØ¹Ø¨Ø±":1093,"ÙĬÙģØ©":1094,"ĠÙĦÙĦØ£":1095,"Ø·Ø¨ÙĬÙĤ":1096,"ĠØ§ÙĦØŃØ±":1097,"ĠÙĪØ°ÙĦÙĥ":1098,"Ø²ÙĦ":1099,"Ø¨Ø§Ø¨":1100,"Ø§ÙħØ¹Ø©":1101,"Ø¹Ø§Ø±":1102,"ÙĪÙĬÙĦ":1103,"ĠØ£Ø®Ø±Ùī":1104,"ĠØ§ÙĦØ¹ÙĦÙħ":1105,"Ø¬Ø²":1106,"ÙĤÙħ":1107,"ĠØ§ÙĦØµØŃ":1108,"ØºÙħ":1109,"ĠÙĬØ´":1110,"Ø±ÙĥØ§Øª":1111,"ÙĪØ«":1112,"âĢı":1113,"ĠÙħÙĦ":1114,"ĠØ£Ø´":1115,"ĠÙĨØ³":1116,"ĠØ§ÙĦØ´Ø±":1117,"ĠØ§ÙĦØ±ÙĬ":1118,"Ø·Ø¨":1119,"ĠØ£Ø¯":1120,"ÙĬÙĬ":1121,"Ø§Ø¨ÙĤ":1122,"Ø¶Ø§ÙģØ©":1123,"ĠØ¢Ø®Ø±":1124,"ĠÙĦÙĬØ³":1125,"ÙĩØ§Ø¨":1126,"ĠØ§ÙĦØ¹Ø±Ø§ÙĤ":1127,"ÙĬØ±Ø§ÙĨ":1128,"ÙİÙĳ":1129,"ĠØ¨Ùĥ":1130,"ĠØ§ÙĦØ¯Ø±":1131,"ĠÙĪØ§ÙĦØ¹":1132,"ĠØ§ÙĦØ§ÙĤ":1133,"Ø¬ÙĨ":1134,"Ø§ÙĦÙģ":1135,"Ø¶Ø§Ùģ":1136,"ĠÙĪØ¯":1137,").":1138,"ĠØ§ÙĦÙĪØ²":1139,"Ø±ÙĬÙĤØ©":1140,"ÙĬØ§Ùħ":1141,"ĠØ´Ø±ÙĥØ©":1142,"ÙģØ§ÙĤ":1143,"ĠØ¨Ø·":1144,"Ġ9":1145,"ĠØ£ÙĪÙĦ":1146,"ĠØ§ÙĦØªØ¬":1147,"er":1148,"ĠÙĨÙĤ":1149,"Ø§ÙĪÙĦ":1150,"ØªØ¬":1151,"Ø§ÙĨØ¨":1152,"ÙħØ§Ùħ":1153,"ÙĥØ«Ø±":1154,"ĠÙĪØ§ÙĦØŃ":1155,"!!":1156,"ÙĬØ§Ø©":1157,"ĠØ§ÙĦÙĨØ§Ø³":1158,"ÙĪÙĤÙģ":1159,"ĠØ¨ÙĪ":1160,"ĠÙĥØ¨ÙĬØ±":1161,"ÙħÙĬÙĦ":1162,"ÙĪÙĨÙĬ":1163,"Ø¨ÙĬØ±Ø©":1164,"ĠØ§ÙĦÙħØº":1165,"Ġ2018":1166,"ÙĤÙĬÙĤØ©":1167,"ØªØ¨Ø±":1168,"ÙħÙĪ":1169,"ÙĦØ§Øª":1170,"ĠÙģØª":1171,"ÙĪØ§Ø¨":1172,"ĠØŃØ³":1173,"ĠÙĬØ±":1174,"ĠØ§ÙĦØ¬Ø²":1175,"ĠØ§ÙĦØ®Ùħ":1176,"ĠÙĬØ¬Ø¨":1177,"ÙĬØ±Ø§":1178,"Ø§Ø¦ÙĬÙĦ":1179,"Ġ12":1180,"ĠØ§ÙĦØ¥ÙĨØ³":1181,"ĠØ·Ø±ÙĬÙĤ":1182,"Ø§Ø¦Ø¯":1183,"ÙĭØĮ":1184,"ĠÙĪØ´":1185,"ÙħÙĬØ©":1186,"Ø«Ùħ":1187,"Ø§ÙĦÙĥ":1188,"ĠÙĪØ§ÙĦØªÙĬ":1189,"ĠØ§ÙĦØ£ÙħØ±":1190,"ØºØ·":1191,"ÙĩØ¯Ùģ":1192,"ĠØ§ÙĦØ§Ø¹":1193,"ĠÙĪØ³ÙĦÙħ":1194,"ĠØ§ÙĦØ§Ø¬ØªÙħØ§Ø¹":1195,"Ø§Ø¹Ø§Øª":1196,"Ø±ÙĬÙħ":1197,"ÙĤØª":1198,"ÙĩÙĪ":1199,"ØŃØ§Ø¯":1200,"Ø§ÙĩØ¯":1201,"ĠØ¨ÙĬ":1202,"Ġ11":1203,"Ø¨Ø·":1204,"ĠØ§ÙĦØ¹Ø§ÙħØ©":1205,"\"ØĮ":1206,"ØµØŃ":1207,"ĠÙģÙĤØ¯":1208,"ĠØ§ÙĦÙħÙĩ":1209,"ĠÙħÙĨÙĩ":1210,"Ø¹Ø§Ùħ":1211,"Ø¨ÙĬØ¹":1212,"Ø§ÙĦØ«":1213,"ĠØ§ÙĦÙĤØ¯":1214,"ĠØ§ÙĦØ£ØŃØ¯":1215,"ĠØ¨ÙĤ":1216,"ĠØ§ÙĦØ¯ÙĬÙĨ":1217,"ÙĪØ¬Ø¯":1218,"ĠØ§ÙĦØ§Ø®":1219,"Ø²Ø¨":1220,"Ġ2010":1221,"ĠØ§ÙĦÙĪÙĤØª":1222,"Ø¹ÙĦØ§Ùħ":1223,"ĠØ´Ø±":1224,"Ø§Ø¦Ùħ":1225,"Ø§Ø¯Ø§Øª":1226,"ÙĬØ·":1227,"Ø¸ÙĩØ±":1228,"ÙĥØªØ¨":1229,"ĠÙĪÙĥØ§ÙĨ":1230,"ØŁØŁ":1231,"ĠØ£Øº":1232,"Ø§ÙĬØ©":1233,"ĠØ³ÙĦ":1234,"Ø§ÙĦØ¯":1235,"ĠÙħØ¬ÙĦØ³":1236,"ĠØ¹ÙĨØ¯ÙħØ§":1237,"ĠØ§ÙĦØ¥ÙĨ":1238,"ĠÙĪØ§ÙĦØ¯":1239,"ĠÙĦÙĪ":1240,"ĠÙĦÙĦØŃ":1241,"ÙĤØ¨ÙĦ":1242,"ĠØ§ÙĨØª":1243,"ĠØ§ÙĦØ¬ÙħØ¹Ø©":1244,"ĠØ§Ùģ":1245,"ĠØ§ÙĦØ£ÙĨ":1246,"ĠÙĪÙĦÙĬ":1247,"ÙĦÙĬØ§Øª":1248,"ĠØ§ÙĦØ£Ø±Ø¨Ø¹":1249,"Ø§ÙĪÙĨ":1250,"ĠØ¨ÙħØ§":1251,"ĠØ§ÙĦØ®ÙħÙĬØ³":1252,"ØªÙĬÙĨ":1253,"Ø²ÙĬØ²":1254,"ĠÙĪØ§ÙĦÙĨ":1255,"ĠØµØŃ":1256,"Ø¹Ø§Ø¯Ø©":1257,"Ġ2011":1258,"ĠØµÙĦÙī":1259,"ĠØ£ÙħØ§Ùħ":1260,"ĠØ§ÙĦØªÙĪ":1261,"ĠØ§ÙĦØ«ÙĦØ§Ø«Ø§Ø¡":1262,"ĠØ§ÙĦØ³Ø¹ÙĪØ¯ÙĬØ©":1263,"201":1264,"ĠÙĦØ¨":1265,"Ø§Ø³Ùħ":1266,"Ø§Ø¨ÙĦ":1267,"ÙĤØ¯ÙĬÙħ":1268,"in":1269,"ÛĮ":1270,"Ø¤ÙĪÙĦ":1271,"ĠÙĦØ¯ÙĬ":1272,"ÙĬØ§Ø¯Ø©":1273,"ÙĪØ³Ø·":1274,"Ø¨ÙĬÙĨ":1275,"Ø¶ÙĬ":1276,"Ø§ÙĨÙĬØ§":1277,"Ø§ÙĨØ§":1278,"ĠØ§ÙĦØ«Ø§ÙĨÙĬ":1279,"ÙĨØ³Ø¨Ø©":1280,"ØŃÙĦØ©":1281,"ÙĨØ¹":1282,"ÙĪØ¬Ùĩ":1283,"Ø§Ø¦ÙĤ":1284,"ĠØ®Ø§ØµØ©":1285,"Ø±ÙĬÙģ":1286,"ĠØ¨Ø³Ø¨Ø¨":1287,"ÙĩÙĪØ±":1288,"ĠØ¬Ø¯ÙĬØ¯":1289,"ĠÙĬØ§":1290,"ĠØ§Ø¬":1291,"ĠØ¬Ùĩ":1292,"ĠÙĪÙħØ§":1293,"ĠA":1294,"Ø¸ÙħØ©":1295,"ĠØ§ÙĦÙĥØ«ÙĬØ±":1296,"Ø³Ø§Øª":1297,"ĠÙħØ¯ÙĬÙĨØ©":1298,"Ø§ÙħØ§":1299,"ĠÙĥÙĬÙģ":1300,"ÙĪØ±ÙĬØ§":1301,"Ø§Ø¦Ø¹":1302,"Ø¹Ø¨Ø©":1303,"ØºÙĦ":1304,"Ø¬ÙĨØ©":1305,"Ø´Ø§Ø±ÙĥØ©":1306,"ĠÙħÙħØ§":1307,"ĠØ£Ø±":1308,"ĠØ¨Ø§ÙĦØ¥":1309,"ĠØ¨Ø§ÙĦØª":1310,"ĠØ§ÙĦÙģÙĦØ³Ø·ÙĬÙĨ":1311,"ĠÙĪØ§ØŃØ¯":1312,"ĠÙħØ®ØªÙĦÙģ":1313,"ÙĥØ±ÙĬ":1314,"Ø¬ÙĬÙĦ":1315,"ĠØ§ÙĦØ¯ÙĪÙĦØ©":1316,"ĠØ§ÙĦØ®Ø§ØµØ©":1317,"ĠØ§ÙĦØªÙĤ":1318,"ÙĥØªÙĪØ±":1319,"ÙĪØ¨Ø±":1320,"ĠØ§ÙĦØ£Ø±Ø¨Ø¹Ø§Ø¡":1321,"Ø´Ø§Ø±Ùĥ":1322,"ĠØ³ÙĨØ©":1323,"Ø¨ØŃØ«":1324,"ÙĦÙħØ©":1325,"ĠØ«ÙĦØ§Ø«":1326,"ÙĪØ¶Ø¹":1327,"ĠØ§ÙĬ":1328,"ĠØ¨Ø±ÙĨØ§ÙħØ¬":1329,"ĠØ¹Ø¯Ùħ":1330,"ĠØŃØ§ÙĦ":1331,"ĠØ§ÙĦØ®Ø·":1332,"ÙĪØ¡":1333,"Ø±Ø¦ÙĬØ³":1334,"ĠØ³Ùħ":1335,"Ø§Ø¹Ø¯Ø©":1336,"Ġ[":1337,"ĠØ¶Ø¯":1338,"Ø§ÙĦØ£":1339,")ØĮ":1340,"âĢ¦":1341,"ĠÙĪÙĦÙħ":1342,"ĠØ§ÙĦØ¬Ùĩ":1343,"ØºØ±":1344,"ĠØªØ±Ùĥ":1345,"ĠØ¯Ø§Ø®ÙĦ":1346,"ĠØ§ÙĦØ³ÙĦØ§Ùħ":1347,"ĠØ¬Ø¯ÙĬØ¯Ø©":1348,"Ø§ØªÙĩØ§":1349,"ĠÙĨØª":1350,"ÙĳÙı":1351,"Ø²Ùħ":1352,"ĠØ£Ø¬ÙĦ":1353,"ĠÙĥÙĨØª":1354,"ĠØ§ÙĦØ³Ø¨Øª":1355,"ĠØ¬ÙĨ":1356,"Ø¨Ø¯Ø£":1357,"ĠØ§ÙĦØ¢ÙĨ":1358,"ĠØ¨Ø³":1359,"ĠÂ»":1360,"Ġ14":1361,"ĠØ§ÙĦÙħØ®":1362,"ĠØ§ÙĦØ£ÙĪÙĦÙī":1363,"ĠØ§ÙĦØ£ÙħÙĨ":1364,"ĠØªØ·":1365,"ĠØ£ÙĨÙĩØ§":1366,"ÙĪØ¨Ø©":1367,"ĠØ¯ÙĪØ±":1368,"ØŃØª":1369,"Ø¨ÙĨ":1370,"Ø¶Ø©":1371,"ĠÙĪÙĤØª":1372,"Ø§ÙĨØ§Øª":1373,"ĠØ§ÙĦØŃÙĥÙĪÙħØ©":1374,"Ø¬ÙħØ¹":1375,"ĠØ¹ÙĦÙħ":1376,"ÙĥÙĪ":1377,"ĠÙĥØ«ÙĬØ±":1378,"ĠØ§Ø¨ÙĨ":1379,"ĠØ¹Ø¨":1380,"ĠØŃØ±":1381,"Ø¨Ø§ØŃ":1382,"Ø§Ø¸":1383,"ĠÙĪØ®":1384,"ĠØ§ÙĦÙħÙĦÙĥ":1385,"ĠÙħÙģ":1386,"ĠØ§ÙĦØ¬ÙĨ":1387,"ĠÙĪÙĩØ°Ø§":1388,"Ø§ÙĩØ±Ø©":1389,"ĠÙĩÙĦ":1390,"Ø§ÙģÙĤ":1391,"ĠØ§ÙĦØ¹Ùħ":1392,"ØµÙĪØ±":1393,"ĠâĢı":1394,"ĠØ§Ø³ØªØ®Ø¯Ø§Ùħ":1395,"Ø¨Ø§":1396,"ĠÙĪØ¬ÙĪØ¯":1397,"ØŃÙĤ":1398,"Ø³Ø±Ø§Ø¦ÙĬÙĦ":1399,"Ø§ÙĤØ§Øª":1400,"ĠØ§ÙĦØ´Ø¹Ø¨":1401,"ĠØŃÙĬÙĨ":1402,"Ø·ÙĬØ¹":1403,"ÙĪÙĤØ§ÙĦ":1404,"ĠØ¹ÙĨÙĩ":1405,"ĠÙĥØ¨ÙĬØ±Ø©":1406,"on":1407,"Ø®Ø°":1408,"Ġ15":1409,"ØªØ¨Ø§Ø±":1410,"ĠØ§ÙĦØ®Ø§Ø±Ø¬":1411,"ĠØ£ÙģØ¶ÙĦ":1412,"ÙĪÙĪ":1413,"Ø¢ÙĨ":1414,"Ø¹ÙĬØ¯":1415,"Ø·ÙģØ§ÙĦ":1416,"Ø§Ø·ÙĤ":1417,"ĠØ£Ø«":1418,"ÙģØ§Ø¹":1419,"ĠØ¹ÙħØ±":1420,"ĠÙĬØ¤":1421,"ĠØªØ¹Ø§ÙĦÙī":1422,"ĠÙ":1423,"ĠØ§ÙĦØªØ±":1424,"ØªÙĩÙħ":1425,"Ø³ÙĬÙĨ":1426,"ĠØ§ÙĦÙħØ¨":1427,"ÙĦÙĥØ©":1428,"ĠØ§ÙĦØ¹Ø±Ø¨ÙĬ":1429,"ĠØµÙģ":1430,"ĠØ¬Ø²":1431,"ØŃÙħ":1432,"Ø¨ÙĦØº":1433,"ĠØ§ÙĦØ´Ø®Øµ":1434,"Ø¶Ùħ":1435,"Ø§Ø¨Ø¹Ø©":1436,"ĠÙħØ¬ÙħÙĪØ¹Ø©":1437,"Ø¨ÙĤ":1438,"Ø§ØµØ±":1439,"Ø¹ÙĦÙĪÙħØ§Øª":1440,"ÙģÙĬØ°":1441,"Ø¬ÙħÙĬØ¹":1442,"ĠÙĪØ¶Ø¹":1443,"ĠÙĦÙĩÙħ":1444,"ĠØ§ÙĦÙĤØ§ÙĨÙĪÙĨ":1445,"ĠÙģÙĬÙħØ§":1446,"ĠØ§ÙĦØ§ÙĤØªØµ":1447,"ĠÙģØ¹":1448,"ĠÙħÙĥØ§ÙĨ":1449,"Ø¬Ø±Ø§Ø¡":1450,"ĠØ£ÙĩÙħ":1451,"ØŃÙĨ":1452,"Ø¸ÙĬÙģ":1453,"ĠÙħØ±Ø©":1454,"ĠØ´ÙĬØ¡":1455,"Ø±Ø¨Ø©":1456,"ĠÙĪØºÙĬØ±":1457,"ĠÙĬÙĪÙĨ":1458,"ĠÙħØ®":1459,"ĠØ§ÙĦÙģØª":1460,"ÙĥØ±Ø©":1461,"Ø§ØªÙģ":1462,"ÙĪØ§Ø¹":1463,"ÙĨØ§ÙĪÙĦ":1464,"ĠØ§ÙĦØªØ¹ÙĦÙĬÙħ":1465,"ĠÙĦØ¯":1466,"Ø§ÙģÙĬØ©":1467,"ĠØ§ÙĦØ·Ø¨ÙĬ":1468,"ĠØ£Ùģ":1469,"ĠS":1470,"ĠØ§ÙĦÙħØ§Ø¶ÙĬ":1471,"Ø§Ø¦Ø¨":1472,"ĠØ§Ø´":1473,"an":1474,"ÙĪÙģØ±":1475,"ĠØ¹ÙħÙĦÙĬØ©":1476,"ĠÙĬÙģ":1477,"ÙĬØ§Ùĩ":1478,"Ø±Ùī":1479,"ĠØ§ÙĦÙħÙĦ":1480,"ĠØ£ÙĤ":1481,"ĠØ§ÙĦØ¨ØŃ":1482,"ĠØ§ÙĦØ¹Ø¯ÙĬØ¯":1483,"ĠÙĪØ¥ÙĨ":1484,"ĠØ§ÙĦØ¸":1485,"Ø§ÙģØ¸Ø©":1486,"ĠØ§ÙĦØªÙī":1487,"ÙħÙĬÙĨ":1488,"Ø·ÙĦØ¨":1489,"ĠÙĪØ·":1490,"ÙĪÙĬØª":1491,"Ø·ÙĦØ§ÙĤ":1492,"ĠØŃÙĦ":1493,"Ġ2009":1494,"Ø§Ø¦ÙħØ©":1495,"ÙĦÙħÙĬÙĨ":1496,"Ø§ÙĦØ¹":1497,"ÙģØ§":1498,"ĠØ§ÙĦØªØ¯":1499,"ĠØ§ÙĦØ´ÙĬØ®":1500,"ĠØ§ÙĦÙĨØ³":1501,"ĠØ°Ø§Øª":1502,"Ø±ÙĬØŃ":1503,"ĠÙħÙĦÙĬÙĪÙĨ":1504,"ÙħÙĬÙħ":1505,"ĠØ§ÙĦØªØµ":1506,"ĠØ§ÙĦÙĪØ·ÙĨÙĬ":1507,"Ø¯ÙĬØ©":1508,"ĠØ§ÙĦØ¹ÙĤ":1509,"ĠØ§ÙĦØ¥ÙĨØ³Ø§ÙĨ":1510,"ĠØ§ÙĦÙħØ¬ØªÙħØ¹":1511,"Ø®Ø±Ø¬":1512,"ĠP":1513,"ÙĬØ¯Ø§":1514,"Ø§ÙģÙĬ":1515,"Ø¯ÙħØ©":1516,"ĠØ´ÙĩØ±":1517,"ĠØ³Ø±":1518,"ÙĩÙħØ©":1519,"ĠÙĤØ§Ùħ":1520,"Ø§Ø§":1521,"Ø³Ø§ÙĨ":1522,"ĠÙĦÙĦØ¥":1523,"ĠØ§Ø³Ùħ":1524,"Ø§Ø³Ø¨":1525,"ĠØ§ÙĦØŃÙĬØ§Ø©":1526,"âĢ¬":1527,"ĠØ§ÙĦØ§Ø±":1528,"ĠâĢ¬":1529,"ĠÙħØ¨Ø§Ø±":1530,"Ø§Ø¬Ø©":1531,"ĠØ§ÙĦÙĨØ¸Ø§Ùħ":1532,"ĠØ§ÙĦÙħØ±ÙĥØ²":1533,"ĠÙĨØŃÙĪ":1534,"ĠØ§ÙĦØ±ÙĬØ§Ø¶":1535,"ar":1536,"ĠØ£ÙħØ±":1537,"ĠÙĥØªØ§Ø¨":1538,"ÙĩØ°Ø§":1539,"ĠÙĪØ²Ø§Ø±Ø©":1540,"ĠÙĪØ²ÙĬØ±":1541,"ĠØªØŃØ¯":1542,"ĠØ§ÙĦØ¨ÙĬ":1543,"âĢĿ.":1544,"ÙĪÙĨØ©":1545,"Ø±ÙĬÙĥÙĬØ©":1546,"ÙĥÙħØ§":1547,"ĠÙħÙĩ":1548,"Ø·ÙĦÙĤ":1549,"ÙĪÙħØ§":1550,"ĠØ¹Ø´Ø±":1551,"ÙĦØ§Ùģ":1552,"ĠØ§ÙĦØ¬Ø¯ÙĬØ¯":1553,"ĠØªÙĥ":1554,"Ø§ÙĬØ±":1555,"ĠØ¨Ø¬":1556,"Ø¹ÙĦÙĨ":1557,"ĠÙĬÙĤÙĪÙĦ":1558,"Ø±Øª":1559,"ĠØ¨Øµ":1560,"Ø³ÙĥØ±":1561,"ĠØ§ÙĦØ¥Ø«":1562,"Ø±ÙĬØ·":1563,"ĠØŃØ§ÙĦØ©":1564,"ÙĪÙĦØ§ÙĬØ§Øª":1565,"ĠØªØ®":1566,"ÙĩØ§ÙĬØ©":1567,"ØªØ±ÙĨØª":1568,"ÙħØ¹":1569,"Ø¨Ø§ÙĦ":1570,"ĠØ±ÙĬ":1571,"ĠØ§ÙĦØµÙģ":1572,"ÙĬÙĨÙĬ":1573,"or":1574,"ĠÙĪØ§Ø³Øª":1575,"ĠØ§ÙĨÙĩ":1576,"ĠÙĦÙħÙĨ":1577,"ĠØ§ÙĦÙħÙĨØ·ÙĤØ©":1578,"ĠØ§ÙĦØ®Ø§Øµ":1579,"ĠØ¯ÙĪÙĦØ§Ø±":1580,"ĠÙĦÙĦÙĨ":1581,"Ø®ÙĪÙĦ":1582,"ĠØ§ÙĦØŃØ¯ÙĬØ«":1583,"ĠÙĢ":1584,"Ø§ÙĦØ³":1585,"ĠÙĥÙħ":1586,"ÙĤÙĩ":1587,"Ø§Ø±Ùĥ":1588,"ĠØ§ÙĦØ¯ÙĪÙĦÙĬ":1589,"Ø·Ø¹":1590,"ĠØ°ÙĥØ±":1591,"ÙĪØ¨ÙĬ":1592,"Ø§ÙħÙĦØ©":1593,"Ø§Ø³Ø§Øª":1594,"ĠÙħÙĥ":1595,"ØµØ§ÙĦ":1596,"ÙģØ¸":1597,"ĠÙħÙĨØ·ÙĤØ©":1598,"ÙĬØ§Ø±":1599,"ĠØ£Ø¨ÙĪ":1600,"ĠÙĬØµ":1601,"ĠÙĨÙĪØ¹":1602,"ĠÙĬÙĪÙĦ":1603,"Ø§ØŃÙĬØ©":1604,"Ø¹Ø¯Ø§Ø¯":1605,"ÙħØª":1606,"ĠØ¶ÙħÙĨ":1607,"ÙĢÙĢÙĢÙĢÙĢÙĢÙĢÙĢ":1608,"Ø¬Ø¨":1609,"ĠØ§ÙĦØ³ÙĪØ¯":1610,"Ø§Ø³Ø¨Ø©":1611,"ĠÙĪØ§ØŃØ¯Ø©":1612,"ĠØ¹Ø¯":1613,"ĠÙĪØ§ÙĦØ´":1614,"ĠØ·Ø±Ùģ":1615,"ĠØ§ÙĦØ£ØŃ":1616,"ĠÙħØ¨Ø§Ø´":1617,"Ø§Ø¨ÙĤØ©":1618,"ĠÙĨÙģØ³Ùĩ":1619,"ĠÙĪØµ":1620,"Ø´Ø©":1621,"Ø¯ÙħØ§Øª":1622,"ĠÙĦØ§ÙĨ":1623,"Ø£Øª":1624,"....":1625,"ĠÙģÙĦ":1626,"ĠÙĨØ¬":1627,"Ø¶ÙĦ":1628,"ØµØ±ÙĬØ©":1629,"ĠÙĨØ¸Ø§Ùħ":1630,"Ø±Ø³":1631,"ĠÙĪØ§ÙĦØ³":1632,"ØŃØ§":1633,"ØªÙĤ":1634,"ØŃØ¨":1635,"Ġ18":1636,"ĠØªØ§Ø±ÙĬØ®":1637,"ĠØ§ÙĦØŃÙĤ":1638,"ÙħÙĦØ©":1639,"ØªÙĬØ¬Ø©":1640,"ØºÙĬÙĬØ±":1641,"Ø§Ø¯Ø±Ø©":1642,"ĠÙģØ±ÙĬÙĤ":1643,"ĠØ¨Ø§ÙĦØ£":1644,"Ø´Ø§Ø¡":1645,"ÙĬÙħÙĥÙĨ":1646,"ĠØ§ÙĦØ¯ÙĥØªÙĪØ±":1647,"ĠØ§ÙĦØ´Ø±ÙĥØ©":1648,"ĠØªÙĪ":1649,"ÙħÙĬ":1650,"Ø§Ø¦Ø¬":1651,"ĠØ±Ø¨":1652,"ÙĥØªÙĪØ¨Ø±":1653,"ĠÙħØ«":1654,"ĠØ§ÙĦØ«Ø§ÙĦØ«":1655,"Ø¹ÙĦÙī":1656,"ĠØ§ÙĦØŃØ¯":1657,"ĠØ³ÙĨÙĪØ§Øª":1658,"Ø£ÙĬ":1659,"Ø´Ø±Ø©":1660,"ĠØ§ÙĦØ¥Ø«ÙĨÙĬÙĨ":1661,"Ø§Ø¹ÙĬ":1662,"ĠÙĪØ¹ÙĦÙī":1663,"ĠÙĦÙĦØ´":1664,"Ø¯Ùĩ":1665,"ĠØ§ÙĦØ¨ØŃØ±":1666,"ÙĤÙĤ":1667,"ĠØ§ÙĦØ£Ø¯":1668,"Ø§Ø¹ÙĬØ©":1669,"ĠÙĪÙħØ¹":1670,"ĠØ£ÙĦÙģ":1671,"ĠØ§ÙĦØ£Ø±Ø¶":1672,"ĠØ§ÙĦØ¹Ø¯":1673,"Ø§Ø¹Ø¨":1674,"ĠÙĦÙĥÙĦ":1675,"ĠØ¥Ø°":1676,"10":1677,"ĠØ§ÙĦØªØ³":1678,"ÙĨÙģ":1679,"Ġ2008":1680,"Ø®Ø§Øµ":1681,"ĠØ§Ø¯":1682,"Ø¬ÙĬ":1683,"Ø±ÙĩØ§Ø¨":1684,"Ø¶ÙĬØ©":1685,"ĠM":1686,"ĠØ§ÙĦØªØ´":1687,"ĠØ§ÙĦØ«ÙĤ":1688,"ÙĪÙĨÙĬØ©":1689,"ĠØµÙĦ":1690,"ĠØ³ÙĪÙģ":1691,"ĠØ§ÙĦØ¯Ùħ":1692,"ÙĬØ¯ÙĬÙĪ":1693,"ĠØ§ÙĦØ±Ø³":1694,"ÙĪØ¬ÙĪØ¯":1695,"ĠØ§ÙĦÙĬÙħÙĨ":1696,"ÙĥÙĬØ©":1697,"Ø¹Ø§Øª":1698,"ĠØµÙĪØ±":1699,"ÙĪÙĦÙĩ":1700,"ÙĪÙĦÙĪØ¬":1701,"ĠØ¨ÙĥÙĦ":1702,"Ġ13":1703,"ĠØ¨ÙĬØ§ÙĨ":1704,"ÙĦÙĦ":1705,"ØµÙĪØµ":1706,"ĠÙĬÙĪÙĦÙĬÙĪ":1707,"ĠØ§ÙĦÙĦÙĬ":1708,"Ø·Ø§ÙĨ":1709,"ĠÙĦØ¯Ùī":1710,"ÙĨÙĬØ§":1711,"Ġ2012":1712,"Ø¹Ùī":1713,"ĠÙĪØ¬Ùĩ":1714,"ĠØ±Ùħ":1715,"ĠÙĪØ§ÙĦÙģ":1716,"al":1717,"ÙĦØ§Ø¡":1718,"ĠØ§ÙĦØ¬Ø¯ÙĬØ¯Ø©":1719,"ĠØ§ÙĦÙħØµØ±ÙĬ":1720,"ĠØ¬Ø§Ø¡":1721,"ÙĥÙĦØ©":1722,"ĠØ¹Ø±Ø¶":1723,"Ø¥Ø°Ø§":1724,"Ø±ÙĬÙĦ":1725,"Ø§Ø¦Ùģ":1726,"Ø§Ø±Ø¨":1727,"ĠÙĪØªØ¹":1728,"ØŃÙĬØŃ":1729,"ÙĬØ³ÙħØ¨Ø±":1730,"ĠØ§ÙĦØŃÙĦ":1731,"ØªÙĬØ§Ø±":1732,"ĠØ§ÙĦÙħÙĪØ¶ÙĪØ¹":1733,"ÙħØ§ÙĬØ©":1734,"ĠØ§ÙĦØ£ÙħÙĬØ±":1735,"ĠØ§Øµ":1736,"ĠØ£ØŃÙħØ¯":1737,"ĠØ§ÙĦØªÙģ":1738,"ĠØ¹Ø§ÙĦÙħ":1739,"Ġ2017":1740,"Ø²Ø§":1741,"ĠC":1742,"Ø§Ø¯ÙĦ":1743,"ĠÙħØ±ÙĥØ²":1744,"Ø¬Ø§ÙĦ":1745,"Ø¯Ø§ÙĬØ©":1746,"ĠÙĪØ§ÙĦÙĤ":1747,"ĠØŃÙĬØ§Øª":1748,"ĠØ§ÙĦÙħØ¹ÙĦÙĪÙħØ§Øª":1749,"ĠÙħØ³ØªÙĪÙī":1750,"ØªÙĨ":1751,"ĠÙħØ§Ø±Ø³":1752,"ĠÙħØ´Ø±ÙĪØ¹":1753,"Ø¹ÙĦÙĤ":1754,"ĠØ£ÙħØ§":1755,"Ø²Ø§Ùħ":1756,"ĠØ·ÙĦØ¨":1757,"Ùĭ.":1758,"ÙĪÙħÙĬØ©":1759,"ĠØ¨ÙĢ":1760,"ÙĩØ±Ø¨":1761,"ÙĨØªØ§Ø¬":1762,"Ø¯Ø§Ø¯":1763,"ĠÙĦØ´":1764,"ĠØ§ÙĦÙħÙĪØ³":1765,"ĠÙĪØªØŃ":1766,"Ø§ÙĨØ©":1767,"Ø°Ø±":1768,"ØªÙħØ¨Ø±":1769,"Ø±ÙĬÙĥÙĬ":1770,"ĠØ¥ÙĦÙĬÙĩ":1771,"Ø§ÙĩØ±":1772,"ĠÙĬÙĪÙĨÙĬÙĪ":1773,"Ø·Ø§Øª":1774,"ĠØ§ÙĦÙĢ":1775,"ĠØ§ÙĦÙħÙģ":1776,"ĠÙĨÙĤÙĦ":1777,"ĠØªØ¨":1778,"Ø¯Øª":1779,"ĠØ¯Ø§Ø¦":1780,"ÙĥÙħØ©":1781,"ĠØ¯ÙĬØ³ÙħØ¨Ø±":1782,"ÙĢÙĢÙĢ":1783,"ĠØ¥Ø¯Ø§Ø±Ø©":1784,"ĠÙħØ¬Ø§ÙĦ":1785,"Ø¯ÙĬÙĨ":1786,"ĠØ§ÙĦØ¯ÙĪÙĦÙĬØ©":1787,"ĠØªÙĦ":1788,"ĠÙĦÙĨØ§":1789,"ÙĩØ¨":1790,"ĠÙĪØ§ÙĦØ°ÙĬ":1791,"ÙĪØ¨Ø§":1792,"Ø§Ø¯Ø«":1793,"Ġ25":1794,"ĠÙĪÙĤØ§ÙĦ":1795,"ĠØ§ÙĦØªØ£":1796,"âĢŃ":1797,"ĠØ£ÙĥØ¨Ø±":1798,"ĠÙħØ¶":1799,"ĠØ¨ÙħÙĨ":1800,"ĠÙĦÙħØ§":1801,"ÙĥØ§Ø±":1802,"Ø§Ø³Ø·Ø©":1803,"Ø³Ø¨ÙĪØ¹":1804,"Ø¸Ø©":1805,"Ø®Ø©":1806,"ĠØ£Ø¨ÙĬ":1807,"Ø¶ÙħÙĨ":1808,"ĠØ¨Ø§Ø³Øª":1809,"Ġ16":1810,"ØªØ§Ø¬":1811,"ĠØ§ÙĦØ±Ø³Ùħ":1812,"Ø§ÙĩÙħ":1813,"ĠÙĪØ¹Ø¯":1814,"ĠÙģØ£":1815,"ĠØ¹Ø¯Ø©":1816,"Ø³Ø·Ø³":1817,"ĠÙĬÙĤÙĪÙħ":1818,"ĠØ±ÙĤÙħ":1819,"ĠØ§ÙĦÙħØ¯ÙĬÙĨØ©":1820,"Ø§Ø¯Ùĩ":1821,"ĠØ£ÙĥØªÙĪØ¨Ø±":1822,"ĠÙĬÙĨØ§":1823,"ĠÙħØ¯ÙĬØ±":1824,"ÙĪÙģÙħØ¨Ø±":1825,"Ø§Ø±Ø¯":1826,"ĠØ±Ø³ÙĪÙĦ":1827,"ØŃØ§Ø¨":1828,"ĠØ§ÙĦÙĪÙĦØ§ÙĬØ§Øª":1829,"Ġ30":1830,"Ø¬Ø§Ø²":1831,"ĠØ§ÙĦØ´Ø±ÙĤ":1832,"Ø¹Ø¶Ø§Ø¡":1833,"ĠØ§ÙĦÙĪØ·ÙĨÙĬØ©":1834,"ĠØ§ÙĦØ¯Ø§Ø®":1835,"ĠØ§ÙĦØ§Ø¨":1836,"Ø¶ÙĪØ±":1837,"ĠâĢĿ":1838,"ÙĦÙĬØ§":1839,"ØªÙģØ§Ø¹":1840,"ÙĬÙĪÙĨ":1841,"ĠØ§ÙĦØ¥Ùħ":1842,"ĠØ§ÙĦØªØ±Ùĥ":1843,"ĠØ§ÙĦØ¢Ø®Ø±":1844,"es":1845,"ĠØªØŃÙĤÙĬÙĤ":1846,"ÙĪØ¶ØŃ":1847,"ĠÙĨØ´":1848,"ĠØ§ÙĦØ¹Ø±Ø¨":1849,"ĠØ§ÙĦØ£ÙĪØ±":1850,"ĠØ³Ø¨ØªÙħØ¨Ø±":1851,"ÙĩØ¯Ø§Ùģ":1852,"ÙĤØ±ÙĬØ±":1853,"Ø§ÙĨÙĩ":1854,"Ø³Ø³Ø©":1855,"ĠØŃØ³Ø¨":1856,"ĠØ§ÙĦÙħÙĪÙĤØ¹":1857,"ĠØ²ÙĪØ¬":1858,"ĠÙħÙĪØ³":1859,"Ø¨Ø¹Ø¯":1860,"12":1861,"ÙĪÙĬØ¯":1862,"ĠØ®Ø§Ø±Ø¬":1863,"ĠØªØ·Ø¨ÙĬÙĤ":1864,"ĠÙħÙĨØª":1865,"ĠØ£ÙĪØ±":1866,"Ø·ÙĬ":1867,"ĠØ¨Ø§ÙĦÙĤ":1868,"Ø§ØªØ¨":1869,"ØªÙħØ§Ùħ":1870,"ĠØ§ÙĦÙħØ±Ø£Ø©":1871,"ĠØŃÙĥ":1872,"ĠØ§ÙĦØ¨ØŃØ«":1873,"ÙĬØ²Ø©":1874,"ÙĩÙĪØ¯":1875,"Ø¬ÙĩØ²Ø©":1876,"ĠØ³ÙĪØ±ÙĬØ§":1877,"ĠØ¯ÙĪÙĦØ©":1878,"ĠØ¹ÙĨÙĩØ§":1879,"ÙĪØ´":1880,"ĠØ¥ÙĨÙĩ":1881,"Ø¬ÙĦÙĬ":1882,"Ø§ÙĩØ¯Ø©":1883,"ĠØªÙĤÙĪÙħ":1884,"ĠÙĬÙĨØ§ÙĬØ±":1885,"ØºÙĬØ±Ø©":1886,"ĠØ§ÙĦØ³ÙĨ":1887,"Ø®ØµØµ":1888,"ĠØ§ÙĦÙħØ²ÙĬØ¯":1889,"Ø§ÙĦØ±Ø¦ÙĬØ³":1890,"ÙĪÙĦÙĬ":1891,"ĠÙĦÙĢ":1892,"ĠØ¹ÙĤ":1893,"ĠØ§ÙĦØ£ÙħØ±ÙĬÙĥÙĬØ©":1894,"ĠÙĪØ§Ø³":1895,"ÙĪÙĬØ§Øª":1896,"ĠØ§ÙĦØ£Ø®ÙĬØ±Ø©":1897,"ĠØªÙĤØ¯Ùħ":1898,"ÙĦÙĥØªØ±":1899,"ĠØ§ÙĦØ«Ø§ÙĨÙĬØ©":1900,"ĠØ§ÙĦØ§ØªØŃØ§Ø¯":1901,"Ø§ÙĦØ¬":1902,"ĠÙĪØªÙħ":1903,"ĠØ§ÙĦØ¨ÙĨ":1904,"Ø¬Ø§ÙĨ":1905,"ĠÙĨØ´Ø±":1906,"ĠØ§ÙĦØªØ§Ø±ÙĬØ®":1907,"Ø§ØŃØ¨":1908,"en":1909,"Ġ17":1910,"ĠØ§ÙĦØ¥Ø¹ÙĦØ§Ùħ":1911,"ĠØ§ÙĦØ³ÙĬØ§Ø³ÙĬØ©":1912,"ĠÙĨÙĪÙģÙħØ¨Ø±":1913,"ÙĦÙħØ§ÙĨ":1914,"ĠÙĦØ°ÙĦÙĥ":1915,"ĠÙĬÙħÙĥÙĨÙĥ":1916,"Ø§ÙĥÙĦ":1917,"ÙĩÙĨ":1918,"ÙĬØ±ÙĬ":1919,"ÙĪÙħÙĨ":1920,"ĠØ§ÙĦØ³Ø§Ø¨ÙĤ":1921,"ĠØ§ÙĦÙĨØ¨ÙĬ":1922,"ÙĦÙĬÙĤ":1923,"ÙĦØ§Ø¨":1924,"ÙĪØ§ÙĤ":1925,"Ø·ÙĨ":1926,"ÙĨØ§Ùĥ":1927,"19":1928,"ĠÙĦØªØŃ":1929,"Ø§ØµÙĬÙĦ":1930,"Ø§Ø¨Ø·":1931,"at":1932,"ÙģÙĤ":1933,"ÙĤØ±Ø§Ø±":1934,"Ø²Ø§ÙĦ":1935,"ĠÙĨØµ":1936,"ĠÙĬØ£":1937,"ĠÙĤÙĨ":1938,"Ø¨Ø±Ø§ÙĬØ±":1939,"ĠÙģÙĩÙĪ":1940,"ĠÙħØ·":1941,"ĠÙĤØ§ÙĨÙĪÙĨ":1942,"ĠØ§ÙĦÙħÙħÙĦÙĥØ©":1943,"Ø³Ø³Ø§Øª":1944,"ĠØ§ÙĦØ£Ø´":1945,"ÙĨØ³ÙĬØ©":1946,"ĠØ£ØºØ³Ø·Ø³":1947,"ĠØŃÙħ":1948,"ĠØ§ÙĦÙĨÙĩ":1949,"Ø§Ø¦Ùĩ":1950,"ĠØ·Ø¨ÙĬ":1951,"ĠØ§ÙĦØ®Ø§Ø±Ø¬ÙĬØ©":1952,"ĠØŃØ¯ÙĬØ«":1953,"ĠÙħØ§ÙĬÙĪ":1954,"ĠØ¨Ø§Ø±":1955,"ĠÙģØ§ÙĦ":1956,"ĠØ§ÙĦØ¥Ø³ÙĦØ§ÙħÙĬØ©":1957,"ĠØ¬Ø§ÙĨØ¨":1958,"ĠØ§ÙĦÙĨÙĤ":1959,"ĠØªØ¹Ø¯":1960,"ĠØ¹Ø¶":1961,"Ġ24":1962,"ĠÙĥØªØ¨":1963,"ĠØ¬Ø§ÙħØ¹Ø©":1964,"Ø§Ø¬Ø§Øª":1965,"ĠÙĬÙĥÙĨ":1966,"ĠØªØ¤":1967,"ĠØ¬Ø¯":1968,"ĠØ¬Ø±":1969,"11":1970,"ĠÙĦÙĦÙĩ":1971,"ÙģØ§Ø¡":1972,"ĠØ§ÙĦØ¨ÙĦØ§Ø¯":1973,"ĠÙĩÙħ":1974,"Ø§ÙģØ±":1975,"om":1976,"ĠØ£Ø«ÙĨØ§Ø¡":1977,"ĠØ§ÙĦÙħØ¨Ø§Ø±":1978,"ĠÙĪÙĦÙĬØ³":1979,"ØºÙĬÙĦ":1980,"ØªØ®Ø§Ø¨Ø§Øª":1981,"ĠØ§ÙĦØ´Ø¨Ø§Ø¨":1982,"ĠØ§Ø¶":1983,"ĠØ´Ø¨":1984,"ØªÙĨØ§":1985,"ĠÙĨÙĩ":1986,"ĠØ¨Ø§ÙĨ":1987,"ĠÙĨØ¸Ø±":1988,"Ø§Ø¦Ø¹Ø©":1989,"ĠØ§ÙĦÙħØ¬ÙĦØ³":1990,"ĠØ§ÙĦÙĤØ±Ø¢ÙĨ":1991,"ĠÙĪØ§ÙĦØªØ¹":1992,"Ø§Ø±Ø¹":1993,"ĠÙĦÙĤ":1994,"ĠØ¨Ø§ÙĦÙĨØ³Ø¨Ø©":1995,"ĠÙĤØµ":1996,"ĠÙĦÙĦØ¯":1997,"Ø³ÙĥØ±ÙĬØ©":1998,"Ø«ÙĤ":1999,"Ø¯Ø±Ø³Ø©":2000,"ĠÙģØ¨Ø±Ø§ÙĬØ±":2001,"ĠØ®Ø§Øµ":2002,"ĠØ§ÙĦØ£Ø®Ø±Ùī":2003,"ĠÙĥØ§ÙģØ©":2004,"Ø¹ÙĪ":2005,"ĠÙģÙĨ":2006,"Ġï»":2007,"ĠÙħÙĨÙĩÙħ":2008,"ĠØ§ÙĦÙģØ±ÙĬÙĤ":2009,"ĠØ§ÙĦØ¹Ø§ÙĦÙħÙĬØ©":2010,"ĠØ§ÙĦÙħÙĪØ§Ø·":2011,"Ø§Ø¬Ùĩ":2012,"ĠÙĪØ§ÙĦØµ":2013,"Ø§ØµÙħØ©":2014,"ÙĬØ¯ÙĬ":2015,"ĠÙĤØ¯Ùħ":2016,"ĠÙĦÙħØ¯Ø©":2017,"ĠÙĤØ¯Ø±":2018,"ĠØ§ÙĦØ³ÙĪØ±ÙĬ":2019,"ÙĦÙħØ§Øª":2020,"ÙĦØ¹":2021,"ĠØ£ØµØ¨ØŃ":2022,"Ø§ÙħÙĬ":2023,"ĠØ§ÙĦØ¬ÙĬØ´":2024,"ĠT":2025,"ĠÙĦÙĥÙħ":2026,"Ø¤Ø§ÙĦ":2027,"ĠØ¹ÙĦÙĬÙĥ":2028,"ÙĬÙĨÙĬØ©":2029,"ĠØ´Ùĩ":2030,"Ġïº":2031,"ĠÙħØªØ±":2032,"ĠØ£ÙĩÙĦ":2033,"ĠÙĥØª":2034,"ÙĪØ£Ø¶Ø§Ùģ":2035,"ĠØ£ÙĬØ§Ùħ":2036,"Ø§ÙĩÙĬÙħ":2037,"ĠÙĦØ³":2038,"Ø²ÙħØ©":2039,"ĠØ§ÙĦØ´Ùĩ":2040,"ĠÙĤØ±Ø§Ø±":2041,"ĠØ§ÙĦØ³ÙĬØ¯":2042,"ĠØ§ÙĦØ³Ø±":2043,"ĠØªÙĤØ¯ÙĬÙħ":2044,"ÙħØ´":2045,"ĠØ£Ø¬":2046,"âĢĿØĮ":2047,"Ø§ÙĦÙĦÙĩ":2048,"ĠØªØªÙħ":2049,"ÙĪØ±Ø§Øª":2050,"Ø¨Ø¯ÙĪ":2051,"Ø±Ø§ØªÙĬØ¬":2052,"ĠÙģÙĦØ³Ø·ÙĬÙĨ":2053,"ĠØ¨ÙĨØ§Ø¡":2054,"ÙĪØ¨ÙĬØ©":2055,"Ø±ÙĪÙģ":2056,"ĠØ§ÙĦØ¨Ø±ÙĨØ§ÙħØ¬":2057,"ĠØ§ÙĦÙĥØ±ÙĬÙħ":2058,"ÙĪÙħÙĬ":2059,"ĠÙĬØ®":2060,"ÙĬØµ":2061,"Ø§ÙĦØ±Ø¦ÙĬØ³ÙĬØ©":2062,"ĠØ§ÙĦÙĤØ§Ø¯":2063,"ĠÙĥØ±":2064,"Ø§Ø¨ÙĬØ©":2065,"ĠØ¨ÙĪØ§Ø³Ø·Ø©":2066,"Ø´ÙĦ":2067,"ĠØ§ÙĦÙħØ§ÙĦÙĬØ©":2068,"ÙĥØ§ÙĦ":2069,"Ø¦Ø§Øª":2070,"ĠØ¨Ø¯ÙĪÙĨ":2071,"ĠÙĥØ«":2072,"ÙģØ§Øª":2073,"ÙħÙĥØ§ÙĨ":2074,"ĠÙĪØ¢":2075,"ÙĪÙģÙĬØ±":2076,"Ø§ÙħØ¨":2077,"Ø§ÙĪ":2078,"Ø§Ø¦ÙĬÙĦÙĬ":2079,"Ø³Ø¨Ø§Ø¨":2080,"ĠØ¬ÙĦ":2081,"ÙĨØ¯ÙĤ":2082,"Ø³ÙĦØŃØ©":2083,"ĠÙħØ¹ÙĦ":2084,"ØªÙĦØ§ÙĦ":2085,"ĠØ§Ø«":2086,"ĠØ§ÙĦÙĨÙģ":2087,"ĠÙĬÙĪØ¬Ø¯":2088,"ĠÙĪØµÙĦ":2089,"ĠØ§ÙĦØ´Ø¹":2090,"Ø§ØŃÙĦ":2091,"Ø£ÙĦ":2092,"Ø§Ø¦Ø¯Ø©":2093,"ÙĨÙĬÙĩ":2094,"ĠÙĪØ§Ø¶":2095,"ĠØ§ÙĦØŃØ±Ø¨":2096,"ĠâĢ¦":2097,"ĠÙģØªØŃ":2098,"ÙĪØ¨Ø§Øª":2099,"ÙĪÙĥØ§ÙĨ":2100,"ÙĪØ³ÙĬØ§":2101,"ĠØ§ÙĦØ±ØŃ":2102,"ĠÙģØªØ±Ø©":2103,"ĠØ§ÙĦÙħÙĨØªØ¯Ùī":2104,"ĠÙģÙĦØ§":2105,"Ġ!":2106,"ÙĬÙĦØ§":2107,"ĠÙĪÙĥÙĦ":2108,"ĠØ§ÙĦØ³Ùħ":2109,"ĠØ§ÙĦÙħØ³ÙĦÙħÙĬÙĨ":2110,"Ġ2013":2111,"ĠØ§ÙĦØ´Ø¹Ø±":2112,"ĠÙĨØ¸":2113,"ĠÙĦÙĦØ¹":2114,"ĠØ¯Ø¹":2115,"ÙĬØªÙĩØ§":2116,"Ø§Ø¤":2117,"Ø§Ø¦ØŃ":2118,"ĠØ§ÙĦØ®Ø¨Ø±":2119,"ĠØ£Ø¹ÙħØ§ÙĦ":2120,"ĠØ§ÙĦØ³Ø¨":2121,"ĠÙĪØ§ÙĦØ®":2122,"ĠØ³ÙĪØ§Ø¡":2123,"ÙĦÙĬÙĨ":2124,"Ġ#":2125,"ÙģÙĬÙĨ":2126,"Ø¶Ø§ÙĨ":2127,"ÙĨÙĩ":2128,"Ġ2016":2129,"ĠØ¨Ø§ÙĦÙģ":2130,"ØŃØµ":2131,"ĠØ¨Øº":2132,"ĠØ§ÙĦÙĤØ¯Ùħ":2133,"ĠØ§ÙĦÙħØµØ±ÙĬØ©":2134,"Ø§Ø¯ÙĤ":2135,"ĠÙĦÙĦÙĤ":2136,"ĠÙĨÙĩØ§ÙĬØ©":2137,"Ø¯Ø§ÙĪÙĦ":2138,"ÙĬØŃ":2139,"Ø§Ø¬Ø¹":2140,"Ø§Ø¦ÙĦØ©":2141,"ĠØ¹Ø§ÙħØ§":2142,"ĠØ¨Ùģ":2143,"ĠØŃÙĤÙĪÙĤ":2144,"ĠØ§ÙĦØ£Ø¹ÙħØ§ÙĦ":2145,"ĠÙħÙĪØ¶ÙĪØ¹":2146,"Ø§Ø¨Ùĩ":2147,"ĠÙĦÙĩØ°Ø§":2148,"ĠÙģØ¹ÙĦ":2149,"ĠÙĪØ¨Ø¹Ø¯":2150,"ĠØ§ÙĦÙĥØªØ§Ø¨":2151,"ĠØ¥Ø³Ø±Ø§Ø¦ÙĬÙĦ":2152,"ĠÙĨØ¹":2153,"ÙĬÙĬÙĬÙĬ":2154,"ĠÙģØ¶":2155,"ĠÙĨÙģ":2156,"ĠÙħØ²":2157,"Ø¹ÙĦØ§ÙĨ":2158,"ĠÙĬØ¹ÙħÙĦ":2159,"ÙĪÙĨØ³":2160,"ÙĦÙĬÙĩ":2161,"ĠÙĬØ¹ÙĨÙĬ":2162,"Ø³ØªØ±":2163,"ÙĪÙĤØ¯":2164,"ĠØ£Ø¨Ø±ÙĬÙĦ":2165,"Ø§ÙĪØ²":2166,"ĠØ§ÙĦØµÙĦ":2167,"Â».":2168,"ĠØ§ÙĦÙĩÙĬ":2169,"ĠÙĩØ¯":2170,"ÙĪØªØ±":2171,"ĠØ§ÙĦÙĨÙģØ³":2172,"Ø§ÙĦÙĩ":2173,"ØªØ±Ùĥ":2174,"ĠÙĤØ¨":2175,"Ø§ÙĦØ¥":2176,"ÙĤØµ":2177,"ĠØ§ÙĦØ¨Ø·":2178,"ĠØ§ÙĦÙĦØºØ©":2179,"ĠÙĬÙĥ":2180,"ĠØ²ÙĬ":2181,"Ø§ÙĥÙħ":2182,"ĠØ§ÙĦØªÙĪØ§ØµÙĦ":2183,"ĠØ£ÙĨØ§":2184,"ic":2185,"Ø¬Ø§Ùĩ":2186,"ĠØ§ÙĦØŃØµÙĪÙĦ":2187,"ĠÙĪØ§ÙĦØ±":2188,"ÙĩÙĪØ±ÙĬØ©":2189,"ĠØ¶Ø±":2190,"ØŃÙĪ":2191,"ØªÙħØ¯":2192,"ĠÙĪÙĬØª":2193,"Ø³Ø§Ùħ":2194,"ĠØ§Ø¬ØªÙħØ§Ø¹":2195,"ĠØ§ÙĦØ±ÙĪØ³":2196,"ĠØ¨Ø§ÙĦØ¥Ø¶Ø§ÙģØ©":2197,"ÙĥØ§":2198,"ĠØ§ÙĦØ£Ø·ÙģØ§ÙĦ":2199,"ĠØ¨Ø§ÙĦÙĨ":2200,"Ø²ÙĬØ©":2201,"ĠØ§ÙĦØ¨ÙĬØ§ÙĨ":2202,"ÙĤØ±Ø§Ø·":2203,"ĠØ¹ÙĦÙĬÙĩÙħ":2204,"ĠÙĦÙĬØ³Øª":2205,"Ø¨ÙĬØ§":2206,"ĠØ£ÙħØ³":2207,"âĢĮ":2208,"Ø¤ÙĦØ§Ø¡":2209,"ĠØ§ÙĦØªÙħ":2210,"ĠÙĪØªÙĨ":2211,"Ø´Ø±ÙĬÙĨ":2212,"ĠØ§ÙĦÙĪØ²Ø±Ø§Ø¡":2213,"ĠÙĪÙĥØ°ÙĦÙĥ":2214,"ĠÙĬÙĦ":2215,"ĠÙĪÙĬØ¹":2216,"ĠØ§ÙĦÙģØªØ±Ø©":2217,"ĠØ¬ÙĩØ§Ø²":2218,"ĠØ§ÙĦØ®ÙĦÙĬ":2219,"ĠØ¹ÙĤØ¯":2220,"Ø®ÙĦØµ":2221,"ĠØªÙĨØ¸ÙĬÙħ":2222,"ÙĥÙĬÙģ":2223,"ĠØ¨Ø§Ø³Ùħ":2224,"Ø§ÙĩØªÙħØ§Ùħ":2225,"ĠØ±Ø¤":2226,"ÙĥÙĬÙĦ":2227,"ĠØ§ÙĦØµÙĨ":2228,"ĠØ±Ø³Ùħ":2229,"Ø³ÙĦØ³ÙĦ":2230,"ĠØ§ÙĦØ³ÙĬØ§Ø³ÙĬ":2231,"ĠÙĦÙģ":2232,"Ø·Ø§ÙĦ":2233,"ĠÙĦÙĦØº":2234,"ĠÙĪØ¶":2235,"ØµØ§Ø¨Ø©":2236,"Ġ22":2237,"ĠØ«ÙĦØ§Ø«Ø©":2238,"ĠØ§ÙĦØ®Ø§Ùħ":2239,"ØµØ§Ø±":2240,"ĠØ¨ÙĨÙģØ³":2241,"ÙĥØ§Ùħ":2242,"Ø¨ÙĪ":2243,"ĠØ¥ÙĤ":2244,"ĠÙĦØ¹":2245,"ĠB":2246,"ĠÙĪÙĬÙĨ":2247,"ÙĥØ±Ø§":2248,"Ø·Ø±Ø©":2249,"Ø·Ø§Ø¡":2250,"ÙħØŃ":2251,"ĠØ§ÙĦØ§Ø¬ØªÙħØ§Ø¹ÙĬ":2252,"Ø°ÙĩØ¨":2253,"Ø§Ø¦ÙĩØ§":2254,"ĠØªØ¹ÙħÙĦ":2255,"ĠØ¨ÙĩØ°Ø§":2256,"Ø§Ø¶ÙĬØ©":2257,"Ø°Ø©":2258,"ÙĨØ¨":2259,"Ø¬Ø§Ø±":2260,"Ø§Ø¦Ø±Ø©":2261,"14":2262,"ĠØ®Ø¯ÙħØ©":2263,"ĠØ§ÙĦØ§Ø«":2264,"ØªÙĤØ¯":2265,"ĠØŃÙĪ":2266,"Ø§ÙĦÙĤ":2267,"50":2268,"Ø³ÙĥØ±ÙĬ":2269,"ĠØ§ÙĦØ¥ÙħØ§Ø±Ø§Øª":2270,"ĠÙĤÙĦ":2271,"ØªØª":2272,"ĠÙĦØµ":2273,"ĠØ§ÙĦØ¬ÙĦ":2274,"ÙĬÙħÙĤØ±Ø§Ø·":2275,"ĠØ§ÙĦØ¥Ø±ÙĩØ§Ø¨":2276,"ĠD":2277,"Ø¬ÙħÙĪØ¹":2278,"ĠØ§ÙĦÙħØ§ÙĦ":2279,"Ø¬ÙĪÙħ":2280,"âĢ¢":2281,"Ùł":2282,"ĠØ§ÙĦØ±Ø¨":2283,"ĠÙĦÙĤØ¯":2284,"ĠØ¯Ø§Ø¦ÙħØ§":2285,"ĠÙĪØŃØ¯":2286,"ĠÙĤØ·Ø§Ø¹":2287,"ĠÙħØ¹Ø¯":2288,"ĠØ±Ø£Ø³":2289,"ĠÙĦÙĦØ¨ÙĬØ¹":2290,"ĠØ¨Ø§ÙĦØ¹":2291,"Ġ23":2292,"ĠÙĬØ³Ùħ":2293,"Ġ2014":2294,"Ø¹Ùĩ":2295,"ĠØ±Ø£":2296,"ĠØªÙĨØ§ÙĪÙĦ":2297,"ĠØ§ÙĦØ³Ø§Ø¹Ø©":2298,"000":2299,"Ø§ÙĦÙĨ":2300,"ĠØŃØ³ÙĨ":2301,"ĠÙħØ³Ø§Ø¡":2302,"ĠØ¨Ø§Ø¨":2303,"Ø§ÙĪÙĬ":2304,"ĠØ§ÙĦØ´Ø±ÙĥØ§Øª":2305,"Ø¨Ø§Ø¡":2306,"ĠÙħØ³Ø¤ÙĪÙĦ":2307,"ĠØŃØ¯Ø«":2308,"ĠØ§ÙĦØ³ÙĨØ©":2309,"ĠØ§ÙĦØ¥ÙĦÙĥØªØ±":2310,"Ġ21":2311,"ĠØ§ÙĦØ¨Ø´Ø±":2312,"ĠØ§ÙĦØµÙĪØ±":2313,"ĠH":2314,"ĠÙĤÙĪØ§Øª":2315,"ĠØ·Ø±ÙĬÙĤØ©":2316,"ĠØ®Ø¨Ø±":2317,"Ø¦Ø§":2318,"ÙĨØ§Ùĩ":2319,"ĠÙĬØ¹Ø±Ùģ":2320,"ĠÙĨØŃÙĨ":2321,"ĠÙĥØ°ÙĦÙĥ":2322,"ĠØ§Ø·":2323,"ĠÙħØ®ØªÙĦÙģØ©":2324,"Ø¶Ø§ÙĬØ§":2325,"ĠØ§ÙĦØ±Ø¬ÙĦ":2326,"Ø±ÙĬÙĨ":2327,"ĠÙĪØ§ÙĦÙĥ":2328,"Ø¤ÙĪÙĨ":2329,"ĠØ§ÙĥØ«Ø±":2330,"ĠÙħØ¹Ùĩ":2331,"ĠØ¨ÙĬØª":2332,"ĠØ¬Ø¹ÙĦ":2333,"ÙĬØ±ÙĬØ©":2334,"Ø«Ø§Ø±":2335,"ĠØ¨Ø¯Ø§ÙĬØ©":2336,"ĠÙĪØ§ÙĦØ¬":2337,"ĠØ§ÙĦØ¯Ø§Ø®ÙĦÙĬØ©":2338,"Ø¬Ø±Ø©":2339,"30":2340,"ĠÙĦÙĦØ³":2341,"ÙĦÙģØ§Øª":2342,"ĠÙĨØªÙĬØ¬Ø©":2343,"ÙĥÙĨÙĪÙĦÙĪØ¬":2344,"ÙĪØ±Ø¯":2345,"ĠØ§ÙĦØ¹Ø¨":2346,"ĠØ§ÙĦØ§Ø´":2347,"ĠØ§ØŃØ¯":2348,"ĠØ§ÙĦØ£Ø±":2349,"ĠØ§ÙĦÙħØ´Ø±ÙĪØ¹":2350,"ĠØµØ¯":2351,"ĠØ§ÙĦØ¬ÙħÙĬØ¹":2352,"Ø´Ø§Ø±ÙĬØ¹":2353,"ÙĨØ³ÙĬ":2354,"ĠÙĥÙĦÙħØ©":2355,"ĠÙĤØ³Ùħ":2356,"Ø§ÙĦØªØ§ÙĦÙĬ":2357,"Ø°Ø¨":2358,"Ø·ÙĪØ±":2359,"ĠØ¯ÙĬÙĨ":2360,"Ø¨ÙĤÙī":2361,"ÙĤØ¯Ø±":2362,"ĠÙĪØ§ÙĦÙħÙĨ":2363,"ĠG":2364,"ĠØ§ÙĦØ³Ø¹ÙĪØ¯ÙĬ":2365,"ØºØ¨":2366,"Ø§ÙĤÙĬ":2367,"Ø§Ø¯Øª":2368,"ĠÙĦÙĦÙģ":2369,"ÙĬØ±Ø§Øª":2370,"ĠØµÙĪØ±Ø©":2371,"ĠØ¯Ø¹Ùħ":2372,"ĠØ·Ø¨":2373,"ĠÙĪØ§ÙĦØ§Ø³Øª":2374,"ĠÙĦØ§Ø³Øª":2375,"ĠØ´ÙĥÙĦ":2376,"Ø¬Ø±Ø¯":2377,"ĠÙĦØ¨ÙĨØ§ÙĨ":2378,"ĠÙĥØ«ÙĬØ±Ø§":2379,"Ø§ÙĨØª":2380,"ØªÙħØ±Ø§Ø±":2381,"ĠØµØ§ØŃØ¨":2382,"ÙģØ±Ø§Ø¯":2383,"Ġ2015":2384,"ĠØµØ¨Ø§ØŃ":2385,"ĠØ±ØºÙħ":2386,"Ø¹Ø§ÙĬØ©":2387,"ĠØ§ÙĦÙĥØ±":2388,"Ø§ØªÙĩÙħ":2389,"Ø«ÙħØ§Ø±":2390,"Ø§Ø¨ÙĬ":2391,"ĠØ§ÙĦÙģÙĦØ³Ø·ÙĬÙĨÙĬØ©":2392,"Ø¬Ø±Ø§Ø¡Ø§Øª":2393,"Ø°Ùĥ":2394,"ĠØ¨Ø´Ø£ÙĨ":2395,"ĠØ¸ÙĦ":2396,"ĠØµÙĨ":2397,"ĠØ±ØŃ":2398,"ĠR":2399,"ĠÙģÙĪÙĤ":2400,"ØµÙĦØ§ØŃ":2401,"ÙĥØ¨Ø±":2402,"it":2403,"st":2404,"ĠØ§ÙĦØ·Ø¹Ø§Ùħ":2405,"ĠØ§ÙĦÙħØ®ØªÙĦÙģ":2406,"ÙĨØ¯ÙħØ§":2407,"ĠÙĪØ³Ø·":2408,"ĠØ£ÙħÙĨ":2409,"ÙĩÙĢ":2410,"ĠØ¥ÙĦ":2411,"ÙĦØ§Ùĥ":2412,"Ø§Ø¹Ø±":2413,"Ø³Ø±Ø§Ø¦ÙĬÙĦÙĬ":2414,"Ø·ÙĪÙĬØ±":2415,"ÙĪØŃØ©":2416,"ĠØ§ÙĦÙĤØ§ÙĩØ±Ø©":2417,"ĠØ§ÙĦØ£Ùģ":2418,"ĠÙħØ¨Ø§Ø´Ø±Ø©":2419,"ĠØ§ÙĦØŃÙĥÙħ":2420,"ĠØ¥ÙĦÙĬÙĩØ§":2421,"ÙħÙĩ":2422,"ĠØ¥Ø¶Ø§ÙģØ©":2423,"ÙĪÙĨÙĩ":2424,"ÙĪØ§Ø¬Ùĩ":2425,"ĠØ¨Ø§ÙĦØŃ":2426,"ĠØ§ÙĦØ¹ÙĨ":2427,"ĠØ¯Ø±Ø¬Ø©":2428,"ÙģÙĩ":2429,"le":2430,"ĠÙħÙĤØ§Ø¨ÙĦ":2431,"Ø±ÙģØ¹":2432,"ĠÙĪØ³ÙĬ":2433,"Ø¬Ø¹":2434,"ĠØ§ÙĦØ£ÙħØ±ÙĬÙĥÙĬ":2435,"ĠØ§ÙĦØŃØ³":2436,"ĠØ¨ÙĬÙĨÙħØ§":2437,"ĠØ§ÙĦÙĦØ¬ÙĨØ©":2438,"ĠØ§ÙĦØ¯ÙģØ§Ø¹":2439,"ĠØªØ¹Ø±Ùģ":2440,"ĠØ¯Ø§Ø±":2441,"ĠÙĦØ£ÙĨÙĩ":2442,"ÙĥÙĬØ¯":2443,"ĠØ§ÙĦØ·ÙģÙĦ":2444,"ĠÙĥÙĨ":2445,"ĠØ²ÙĬØ§Ø¯Ø©":2446,"ĠØ±ÙħØ¶Ø§ÙĨ":2447,"ĠÙĪØ¸":2448,"Ø³ØªØ§ÙĨ":2449,"ĠØ§ÙĦÙħØ²":2450,"ĠØ§ÙĦØ¥ÙĤ":2451,"ÙĥØ§Øª":2452,"ĠØ§ÙĦÙĤÙĬ":2453,"ØŃØ§Øª":2454,"Ø¬Ø§ØŃ":2455,"ĠØ£ÙĦ":2456,"ĠØªØ±ÙĬØ¯":2457,"ĠØ¨Ø¨":2458,"ĠØ§ÙĦØ¨Ø¯":2459,"ĠØ§ÙĦØ³ÙĪÙĤ":2460,"18":2461,"ĠØ§ÙĦØ§Ø¬ØªÙħØ§Ø¹ÙĬØ©":2462,"Ø±ÙĬØ¨Ø§":2463,"ÙħÙħ":2464,"ĠØŃØ²Ø¨":2465,"Ø±Ø§":2466,"ÙĤÙĪÙħ":2467,"ĠØ§ÙĦÙĨØ³Ø§Ø¡":2468,"ĠØ§ÙĦØ¬Ø³Ùħ":2469,"ĠØ§ÙĦÙĨØ¸Ø±":2470,"ĠØŃØ±ÙĥØ©":2471,"ĠÙĤÙĬ":2472,"ĠÙģÙĤØ§ÙĦ":2473,"ĠØºØ²Ø©":2474,"ĠÙĪØ¨ÙĬÙĨ":2475,"ĠØ§ÙĦÙħÙĬØ§Ùĩ":2476,"ĠØ¹Ø§ÙĦÙĬØ©":2477,"Ø¦Ø§Ø³Ø©":2478,"ĠØ§ÙĦØ·Ø¨":2479,"ĠØ¹Ø²":2480,"ĠÙħØ¨Ø§Ø±Ø§Ø©":2481,"Ø±ÙĬØ¨Ø©":2482,"ĠÙĪØ§ÙĦØ¨":2483,"ØŃØ¯Ùī":2484,"ĠØ§ÙĦØ±Ø¦ÙĬØ³ÙĬØ©":2485,"ĠØ§ÙĦÙħØ«":2486,"ÙĪÙĬÙĨ":2487,"ĠØ§ÙĦÙĤØ·Ø§Ø¹":2488,"ĠØ´Ø§Ø¡":2489,"ĠØ§ÙĦØ³Ùģ":2490,"Ø¹ÙĨ":2491,"ÙĪÙĬÙĦØ©":2492,"ĠØ¬Ø²Ø¡":2493,"Ø§ÙĪÙĦØ©":2494,"ĠØ¨Ø§Øª":2495,"ĠØ¨Ø§ÙĦØ³":2496,"ÙĬÙħÙĬ":2497,"ÙĬØ±Ùĩ":2498,"ĠØ´Ø¹":2499,"ĠØ§ÙĦØ°Ùī":2500,"Ø«Ø©":2501,"ĠØ§Ø°Ø§":2502,"ĠØ¨Ø°ÙĦÙĥ":2503,"ĠØ¨Ø§ÙĦÙĥ":2504,"ĠØ³Ø§Ø¹Ø©":2505,"ĠØ§ÙĦØªØ·Ø¨ÙĬÙĤ":2506,"ĠØ§ÙĦÙħØ§Ø¡":2507,"ĠØ§ÙĦØ¨ÙĬØª":2508,"Ø§Ø¬ÙĩØ©":2509,"ĠÙĪØºÙĬØ±ÙĩØ§":2510,"ĠÙĬØªØ¹":2511,"Ø±ÙĬØ¹":2512,"Ø§Ø¨Øª":2513,"ĠÙĦØ¬ÙĨØ©":2514,"Ø³ØªØ§Ø°":2515,"Ø§ÙģØ¹":2516,"ØŃÙĬÙĨ":2517,"ĠØ§ÙĦÙĦØ¨ÙĨ":2518,"ĠØ§Øº":2519,"ĠØ§ÙĦÙĤØ¨":2520,"Ø±ÙĬØ¹Ø©":2521,"ĠØ§ÙĦØ¯Ø¹":2522,"Ø±ÙĬÙĤÙĬØ§":2523,"ÙĪØ§ØµÙĦ":2524,"ĠÙħØº":2525,"ÙĩØ°Ùĩ":2526,"ĠØ§ÙĦØ¬ÙĩØ§Ø²":2527,"Ø§ÙħÙĬÙĨ":2528,"15":2529,"ĠØ§ÙĨØªÙĩ":2530,"ĠÙĪØµÙģ":2531,"ĠÙĥØ§ÙħÙĦ":2532,"ĠØªÙĨÙģÙĬØ°":2533,"Ġ26":2534,"ĠØ§ÙĦÙħÙĤØ¯":2535,"ĠØ±ÙģØ¹":2536,"ĠÙħÙĪØ§ÙĤØ¹":2537,"Ø²ÙĬÙĨ":2538,"ĠØ¹Ø±":2539,"ĠØ³ÙĬØ±":2540,"ĠØ§ÙĦØ¬Ø§Ùħ":2541,"ØªÙĪÙĬ":2542,"ĠØ§ÙĦÙħØ®ØªÙĦÙģØ©":2543,"ÙĬØ³ÙĬ":2544,"ÙĪØ§Ùħ":2545,"Ø§ØŃØ¸":2546,"Ø§Ø²ÙĦ":2547,"ĠØ§ÙĦØŃØ¨":2548,"ĠÙĬØ±ÙĬØ¯":2549,"ĠØ®ÙĦÙģ":2550,"ĠÙĨØ³Ø¨Ø©":2551,"ï»Ł":2552,"ĠØ§ÙĦØ´ÙĩØ±":2553,"ïºİ":2554,"Ø§Ø´Ø©":2555,"Ġ28":2556,"ĠØ§ÙĦÙħØ³ÙĬ":2557,"ÙĬØªÙĩ":2558,"ĠØ±ÙĬØ§ÙĦ":2559,"ĠØ§ÙĦØ·Ø±ÙĬÙĤ":2560,"Ø¨ÙĬØª":2561,"Ø²ÙĪØ¬":2562,"Ø®Ø¨Ø§Ø±":2563,"ĠØŃÙĥÙħ":2564,"Ġ27":2565,"ĠØ¥ÙĬØ±Ø§ÙĨ":2566,"ĠØ§ÙĦÙĩÙĨØ¯":2567,"ĠØ§ÙĦØ¹Ø§ÙĦÙħÙĬ":2568,"ĠØ¸ÙĩØ±":2569,"ÙĪØ§Ø¯":2570,"ÙĦÙĬÙģ":2571,"ĠÙĪØ§Ø¹":2572,"ĠØ§ÙĦÙħØ³Ø¤ÙĪÙĦ":2573,"ÙĬÙħØ§ÙĨ":2574,"Ø´Ø±Ø§Øª":2575,"Ø§ÙĦÙĦ":2576,"ÙĦØ¨ÙĬØ©":2577,"ÙĩÙĩ":2578,"Ø§Ø±Øª":2579,"ĠØ¨Ø®":2580,"ĠÙĩØ¤ÙĦØ§Ø¡":2581,"16":2582,"ĠØ§ÙĦØ®Ø¯ÙħØ§Øª":2583,"Ø³ÙĬØ©":2584,"Ø³Ø§Ø¡":2585,"ĠÙĪØ³Ø§Ø¦ÙĦ":2586,"ĠØŃØ¨":2587,"ĠØ§ÙĦÙĥÙĩØ±Ø¨":2588,"ĠØ³Ø¨ÙĬÙĦ":2589,"ĠØ£ÙĨØª":2590,"ÙħØ¯ÙĬÙĨØ©":2591,"ĠÙħÙĦÙĬØ§Ø±":2592,"ĠØªØ³Ùħ":2593,"ĠØªØ¹Ø±Ø¶":2594,"Ø§Ø²ÙĬ":2595,"ĠØªÙĩ":2596,"Ø±ÙĬÙħØ©":2597,"ĠØ¢ÙĦ":2598,"ĠØ§ÙĦØ¬Ø§ÙħØ¹Ø©":2599,"ĠØªØŃÙħÙĬÙĦ":2600,"ĠØ§ÙĦØ³ÙĪØ¯Ø§ÙĨ":2601,"ĠØ§ÙĦØ¨Ø¹Ø¶":2602,"ØªÙĤØ§ÙĦ":2603,"ĠØ§ÙĦØ³ÙĪØ±ÙĬØ©":2604,"ĠØ§ÙĦØ£Ø±Ø¯":2605,"ĠF":2606,"Ġ{":2607,"ÙĩÙĪÙĦØ©":2608,"re":2609,"ĠØ§ÙĦÙħÙĤØ¨ÙĦ":2610,"Ø±ÙĬØ¶":2611,"ĠØ§ÙĦÙģÙĬØ¯ÙĬÙĪ":2612,"ĠØ´Ø¹Ø¨":2613,"ĠØ§ÙĦÙĪØ§ÙĤØ¹":2614,"Ø§Ø´Ø±":2615,"ĠØ§ÙĦØ¹ÙħÙĦÙĬØ©":2616,"Ø¯Ø§ÙĨ":2617,"Ø´Ø·Ø©":2618,"Â»ØĮ":2619,"ĠØŃØ³Ø§Ø¨":2620,"¡Ù":2621,"ÙĬØ§Ø±Ø§Øª":2622,"ÙĤØ±Ø±":2623,"ĠØ§ÙĦÙħØºØ±Ø¨":2624,"ÙĪØ¹Ø¯":2625,"Ø´ÙģÙī":2626,"Ø§Ø¹Ø´":2627,"ĠØ§ÙĦØªØ±Ø¨ÙĬØ©":2628,"ĠÙĩÙĬØ¦Ø©":2629,"13":2630,"Ø¨Ø±Ø²":2631,"Ø§Ø¬Ø¦":2632,"Ø·Ø§ÙĦØ¨":2633,"Ø¨ÙĬÙĪØªØ±":2634,"Ø¨Ø±Ùī":2635,"ÙĲÙĳ":2636,"Ø±Ø§Ø¡Ø©":2637,"ĠØ±Ø¬ÙĦ":2638,"ĠØ§ØªÙģØ§ÙĤ":2639,"ĠØ«ÙĤ":2640,"Ø®Ø¨":2641,"ÙģØ§Ø¸":2642,"ĠØ§ÙĨØ§":2643,"ĠØ¬ÙĨÙĪØ¨":2644,"ad":2645,"ĠÙĪÙģÙĤ":2646,"ĠØ§ÙĦØ´Ùħ":2647,"ĠØªØµØ±ÙĬØŃ":2648,"ĠØ£ÙĤÙĦ":2649,"ĠØ®ÙĬØ±":2650,"ĠØ¯ÙĬ":2651,"ĠØ³ÙĬÙĥÙĪÙĨ":2652,"ÙĪÙĦØ§Øª":2653,"ĠØ£Ø´ÙĩØ±":2654,"ØµØ¨":2655,"ĠØ£ÙĨÙĪØ§Ø¹":2656,"Ø§ÙħÙĬØ©":2657,"Ø§Ø·Ø±":2658,"ĠØ§ÙĦØ³ÙĦØ·Ø©":2659,"ĠÙħØŃÙħ":2660,"ĠØ§ÙĦØ®Ø±":2661,"Ø§ØŃØ«":2662,"ØªØ§Ø²":2663,"ĠÙĬØ¬Ø¹ÙĦ":2664,"ĠÙģÙĩÙĬ":2665,"ĠØ§ÙĦØºØ°":2666,"Ø¨Ø±ÙĨØ§ÙħØ¬":2667,"ĠØ§ÙĦØ§ØŃØªÙĦØ§ÙĦ":2668,"ĠÙĥØ§ÙĨÙĪØ§":2669,"ĠØ§ÙĦØµÙĪØ±Ø©":2670,"ØŃÙĬØ©":2671,"ĠØ¨Ø³ÙĬ":2672,"ĠØ§ÙĦØµØŃØ©":2673,"ÙĪØ±Ø§":2674,"ĠÙĨØªØ§Ø¦Ø¬":2675,"ou":2676,"ĠØ§ÙĦÙħÙĨØ§Ø·ÙĤ":2677,"ĠÙĬØ¹Ø¯":2678,"ĠØ¨ÙĦØº":2679,"ĠØ§ÙĦÙĪØŃ":2680,"ĠØ§ÙĦØ§Ùģ":2681,"ØµØ¨ØŃ":2682,"ĠØ§ÙĦÙħÙĪØ§Ø¯":2683,"ÙĤØ§Ùħ":2684,"ĠØŃÙĬØ§Ø©":2685,"ĠØ§ÙĦÙĥØ¨ÙĬØ±":2686,"Ø±ÙĬÙĥØ§":2687,"Ø±ÙĬØ¯Ø©":2688,"ĠÙĤØ§Ø¦ÙħØ©":2689,"ĠØŃØµÙĦ":2690,"ĠØ§ÙĦÙĥÙĪÙĬØª":2691,"ĠØªØ·ÙĪÙĬØ±":2692,"ÙĪØº":2693,"ĠØ¨Ø§ÙĦÙĦ":2694,"ĠØ§ÙĦÙĤÙĪØ§Øª":2695,"ĠØ¹ÙħÙĦÙĬØ§Øª":2696,"ĠØ±Ø³Ø§ÙĦØ©":2697,"Ø§ÙģØŃØ©":2698,"ĠØ§ÙĦÙħØ´Ø§Ø±Ùĥ":2699,"ĠØ§ÙĦÙħØ¹Ø¯":2700,"ĠÙħØŃØ¯":2701,"ĠØ¨Ø£ÙĨÙĩ":2702,"ĠÙħØ¹Ø¸Ùħ":2703,"ĠØ§ÙĦÙĨÙģØ·":2704,"ĠØ¥Ø³Øª":2705,"Ø¹ÙĦÙĨØª":2706,"ĠØ§ÙĦÙħÙĥØ§ÙĨ":2707,"ØªØ´":2708,"ĠØ¥Ø¯":2709,"ÙĪØ¬ÙĬÙĩ":2710,"Ø§Ø¶ÙĬØ¹":2711,"Ø§Ø¦Ø²Ø©":2712,"ĠØ¥Ø·Ø§Ø±":2713,"ÙĥØ°Ø§":2714,"ĠØªØº":2715,"ÙģÙĬØ©":2716,"ĠØ§ÙĦØŃØ§ÙĦÙĬ":2717,"ĠØ§ÙĦÙħØ·ÙĦ":2718,"Ø§Ø±Ùĩ":2719,"ĠØ§ÙĦØ´Ø±Ø·Ø©":2720,"ĠØ§ÙĦØªØ¹Ø§ÙĪÙĨ":2721,"ĠØ¨Ø§ÙĦØ´":2722,"ÙĪØ§Ùĩ":2723,"ĠØ§ÙĦØ¬Ø±":2724,"ÙĪØ¸":2725,"ĠØ§ÙĦØ§ÙĪÙĦ":2726,"ĠØ§ÙĦØ£Øµ":2727,"ĠØ¨ÙĩØ°Ùĩ":2728,"ĠI":2729,"Ø§ÙĦØº":2730,"ĠØ§ÙĦÙĪØ³":2731,"ĠØ±Ø§Ø¦Ø¹":2732,"ĠÙĤÙĦØ¨":2733,"Ø¶ÙĬÙģ":2734,"ĠØ¨Ø±Ø§ÙħØ¬":2735,"ĠØ±ÙĪØ³ÙĬØ§":2736,"Ø£ÙĥØ¯":2737,"ĠØ£Ø³Ø§Ø³":2738,"ĠE":2739,"ĠØ§ÙĦØ§ÙĤØªØµØ§Ø¯ÙĬØ©":2740,"ĠØ§ÙĦØ¥ÙĬØ±":2741,"ÙĪØ§ÙĨÙĬÙĨ":2742,"Ø¹ÙĬÙĨ":2743,"ØªØ¯Ø§Ø¡":2744,"ĠØ§ÙĦÙĤØµ":2745,"ĠØ¬ÙĬØ¯":2746,"ĠÙħØµØ¯Ø±":2747,"ĠØ¯ÙģØ¹":2748,"ĠÙĪØ«":2749,"ĠÙĦÙĦÙħÙĨ":2750,"Ġ!!":2751,"ĠØ§ÙĦÙĤØ±Ø§Ø±":2752,"ĠØ§ÙĦÙĪØµÙĪÙĦ":2753,"ĠØ§ÙĦØ·Ø§ÙĤØ©":2754,"ĠØ·Ø§ÙĦØ¨":2755,"Ø³Ùĩ":2756,"ĠâĢı(":2757,"Ø¯ÙĬÙĤ":2758,"Ø®Ø¯ÙħØ©":2759,"ĠØ§ÙĦØ§Ø¯":2760,"ÙĪØ§ØŃ":2761,"ÙĪØ¬ÙĪØ¯Ø©":2762,"ĠØ§ÙĦØ¬Ø²Ø§Ø¦Ø±":2763,"ĠÙħØ¹ÙĦÙĪÙħØ§Øª":2764,"Ø³ØªØ®Ø¯Ùħ":2765,"ĠØ§ÙĦØ£Ø³Ø¨ÙĪØ¹":2766,"ĠØ£Ø±Ø¶":2767,"Ġ*":2768,"ØŃØ¯ÙĬØ«":2769,"ĠØªØ±ÙĥÙĬØ§":2770,"ĠÙĦÙĩØ°Ùĩ":2771,"Ø±Ø§Ø¹":2772,"ĠÙĪØªØ´":2773,"ĠØ§ÙĦØ§Ø³ÙĦØ§Ùħ":2774,"ĠØ§ÙĦÙħÙĨØªØ¬":2775,"ĠØ³ÙĬØ¯":2776,"ÙĨÙĬÙģ":2777,"Ø§ÙĦÙĬØ§":2778,"ĠØ§ÙĦÙģÙĦØ³Ø·ÙĬÙĨÙĬ":2779,"ĠØ³Ø¹Ø±":2780,"17":2781,"ĠØ§ÙĦÙħØ¹Ø§Ø±":2782,"Ø±ÙĬØ§Øª":2783,"ĠÙĥØ«ÙĬØ±Ø©":2784,"Ø¯Ø§Ø¡":2785,"ĠÙĤØªÙĦ":2786,"el":2787,"ÙĩÙĬØ±":2788,"Ġ100":2789,"ĠØ§ÙĦØ´Ø®ØµÙĬØ©":2790,"ĠØªØ±Ø§ÙħØ¨":2791,"Ø³ÙĪÙĨ":2792,"ĠØ§ÙĦÙĤØ¯Ø³":2793,"ĠØªØºÙĬÙĬØ±":2794,"ĠØ§ÙĦÙĤÙĨ":2795,"ØªÙħØ§Ø¯":2796,"ĠÙĦÙĥÙĬ":2797,"ÙĨÙĪÙĨ":2798,"ĠØ§ÙĦØ¹Ø³ÙĥØ±ÙĬØ©":2799,"ĠØªÙħØ§ÙħØ§":2800,"Ø¬Ø§Ø¨":2801,"ĠØªØ¹ÙĦÙħ":2802,"ĠØ®ÙĦ":2803,"ĠØ§ÙĦØ£ÙħÙħ":2804,"Ø±ÙĬØ§":2805,"ĠØ§ÙĦØ¹ÙĦØ§ÙĤØ§Øª":2806,"Ġ29":2807,"ĠØ§ÙĦØ¹Ø§ØµÙħØ©":2808,"ÙĨØ³Ø§":2809,"ĠØ§ÙĦÙĪØ·ÙĨ":2810,"ĠÙĦÙĦØºØ§ÙĬØ©":2811,"ï´":2812,"ĠÙĥØ£Ø³":2813,"ĠØ§ÙĦÙĩÙĬØ¦Ø©":2814,"ĠØ§ÙĦØ¥Ø¯Ø§Ø±Ø©":2815,"ĠÙĬÙĨØª":2816,"ĠÙĦÙĦØ¬":2817,"ĠØ§ÙĦØµÙĦØ§Ø©":2818,"ĠØ§ÙĦÙĨØµ":2819,"ØªÙĦÙĥ":2820,"Ġ199":2821,"ÙĪØ®":2822,"Ø³Ø§":2823,"ĠØ§ÙĦØ²ÙĪØ¬":2824,"ÙĤØ·Ø¹":2825,"ĠÙħØŃØ§ÙģØ¸Ø©":2826,"ĠÙĦØ±":2827,"ĠØ§ÙĦÙħØ±ØŃÙĦØ©":2828,"ot":2829,"ĠØªØŃØ¯ÙĬØ¯":2830,"ØªÙĦØ§Ùģ":2831,"ÙĪØ²ÙĬØ¹":2832,"Ø§Ø²ÙħØ©":2833,"ĠØ§Ø®ØªÙĬØ§Ø±":2834,"ĠØ§ÙĦØ¨Ø±ÙĬØ·":2835,"ĠØ¥Ø¹Ø§Ø¯Ø©":2836,"ĠL":2837,"Ø§Ø±Ø³Ø©":2838,"ĠØªØµÙĦ":2839,"ĠØµØŃÙĬÙģØ©":2840,"ĠØ§ÙĦÙĤØ±ÙĨ":2841,"Ø®ØµÙĪØµ":2842,"ĠØ§ÙĦÙħØŃÙĦÙĬØ©":2843,"ĠØ¨Ø§ÙĦØ¯":2844,"Ø£ÙħØ§":2845,"ĠÙĪÙħØ±":2846,"Ø±ÙĬØ³":2847,"ĠÙĪØº":2848,"Ø§ÙĦØ´":2849,"ĠØ¬ÙĨÙĬÙĩ":2850,"ĠÙĪØ§ÙĤ":2851,"ĠØ§ÙĦÙĨØ§Ø±":2852,"ĠØ§ÙħØ±":2853,"ĠÙĬØµÙĦ":2854,"Ø§Ø¨Ø³":2855,"ĠØ¶Ø¹":2856,"Ø´Ø§Ø±Ø©":2857,"ÙĪØ§Ø·":2858,"Ø±ÙĬØ§Ø¶":2859,"ĠÙĬØ¹ØªØ¨Ø±":2860,"ĠØ§ÙĦØ£ÙĦÙħ":2861,"ÙĥÙĨÙĪÙĦÙĪØ¬ÙĬØ§":2862,"Ø³ÙĦØ©":2863,"ĠÙĨÙĤØ·Ø©":2864,"ÙģÙī":2865,"Ø§Ø±Ø§":2866,"ĠØ§ÙĦÙĪØ±":2867,"ĠÙĪÙĬÙħÙĥÙĨ":2868,"ĠÙĦØªÙĨ":2869,"ĠÙĦÙĦØªØ¹":2870,"ĠÙĦØ¬":2871,"ĠÙĤÙĦÙĬ":2872,"Ø¶Ø¨":2873,"ĠØ§ÙĦÙħÙĥ":2874,"25":2875,"ĠØ§ÙĦØ§Øµ":2876,"Ø§ÙĦØ§":2877,"ĠÙĪÙĩÙħ":2878,"ĠØ§ÙĦØ¥ÙħØ§Ùħ":2879,"ĠØ§ÙĦØ¥Ø³ÙĦØ§ÙħÙĬ":2880,"ĠØ§ÙĦØ¥Ø³Ø±Ø§Ø¦ÙĬÙĦÙĬ":2881,"ĠØ£Ø±Ø¨":2882,"ĠØ§ÙĦØ¹ÙħØ±":2883,"ĠØ¨Ø³Ø±":2884,"ĠÙĦØ¹Ø¨Ø©":2885,"ĠØ§ÙĥØª":2886,"Ø§Ø¨Ø¯":2887,"ĠÙħØªÙĨ":2888,"ĠØ§ÙĦÙħØ¯ÙĨÙĬ":2889,"ĠØ¬ÙĩØ©":2890,"Ø¦ÙĦØ©":2891,"ÙĥÙĬÙĨ":2892,"Ø¶Ùī":2893,"Ø§ÙĦÙĬØ§Øª":2894,"ĠØ§ÙĦØ³Ø§Ø¨ÙĤØ©":2895,"ĠÙĥÙĬ":2896,"ed":2897,"ĠØ§ÙĦØ¥ÙĨØªØ±ÙĨØª":2898,"ĠØ±ÙģØ¶":2899,"Ø§ØªÙĬ":2900,"ĠÙĬÙĤØ¯Ùħ":2901,"ĠØ§Ø±ØªÙģØ§Ø¹":2902,"ĠØ¨Ø´Ø±":2903,"ĠØ§ÙĦØ£ÙħÙĪØ±":2904,"ÙĤÙĪÙĤ":2905,"ĠØ§ÙĦØŃØ¯ÙĪØ¯":2906,"Ø§Ø¨Ø§":2907,"Ġ((":2908,"ÙĬÙĤØ©":2909,"ĠØ§ÙĦØ¥Ø¯":2910,"Ø§ÙĥØ²":2911,"ÙģØ§ÙĦ":2912,"ĠÙĤØ·Ø±":2913,"Ø±ÙĬØ±":2914,"ĠÙĪØ§Øª":2915,"ĠØ¯Ø¨ÙĬ":2916,"Ø¹Ø§Ø¯":2917,"ĠØŃØ¬Ùħ":2918,"ÙĪØ§Ø²":2919,"24":2920,"ÙĪÙĬØ³":2921,"ÙĪØ§Ø¹Ø¯":2922,"ĠØ§ÙĦØªØ¹Ø§ÙħÙĦ":2923,"ĠÙĨÙģØ³ÙĩØ§":2924,"ÙĬÙĦØ§Øª":2925,"Ø¸Ø§Ø±":2926,"ÙĬØ§ÙĨØ©":2927,"âĢĵ":2928,"ĠØ§ÙĦÙħØ±Ø¶":2929,"ĠÙĤÙĪØ©":2930,"Ø´Ø¯":2931,"ĠØ´Ø±ÙĥØ§Øª":2932,"ĠÙĬØŃØ¯Ø«":2933,"ĠÙĪØ§Ø´":2934,"ÙĪØ§ÙĬØ©":2935,"ĠÙħØ¯Ùī":2936,"ØªØ§":2937,"ĠØ§ÙĦØ·ÙĦØ§Ø¨":2938,"ĠØ§ÙĦØ§ØªÙģØ§ÙĤ":2939,"ĠØ¹ÙĦÙĬÙĥÙħ":2940,"ĠØ®Ø¯ÙħØ§Øª":2941,"ĠØ§ÙĦØ¯ÙĬÙħÙĤØ±Ø§Ø·":2942,"ØªØ³":2943,"ĠâĢª":2944,"ĠØ¨ÙĦØ§":2945,"ĠØ±Ø¶ÙĬ":2946,"Ø±Ø§ØªÙĬØ¬ÙĬØ©":2947,"ĠØ§ÙĦØ¯ÙĪØ±ÙĬ":2948,"ĠØ´ÙħØ§ÙĦ":2949,"ĠØ§ÙĦØŃÙĬÙĪ":2950,"ĠØµØºÙĬØ±Ø©":2951,"ĠØ·ÙĪÙĬÙĦØ©":2952,"ĠØ¹ÙĬÙĨ":2953,"Ø¬ÙĦÙĬØ²ÙĬØ©":2954,"ĠÙħØµØ§Ø¯Ø±":2955,"ØªØ±Ø§Ùĥ":2956,"ĠÙĦØªØ¹":2957,"ĠØ¨Ø§Ø¹":2958,"ĠØ§ÙĦØªØ¬Ø§Ø±ÙĬØ©":2959,"ĠØ§ÙĦØ³ÙĬØ§Ø±Ø§Øª":2960,"ĠØ¯Ø±Ø§Ø³Ø©":2961,"ĠØ¹ÙĦÙĬÙĨØ§":2962,"ÙģÙĬØ¯":2963,"ĠÙħØ±Ø¶":2964,"Ø¹Ø±ÙĪÙģ":2965,"ĠØ§ÙĦØ§ÙĨØªØ®Ø§Ø¨Ø§Øª":2966,"ĠØ³ÙĬÙĨ":2967,"ĠØ§ÙĦÙħØ·":2968,"ĠØ´Ùĥ":2969,"ĠØ²ÙĬØ§Ø±Ø©":2970,"ĠØ®Øµ":2971,"ÙĪØ§Ùģ":2972,"ĠØ§ÙĦÙħØ´Ø§Ø±ÙĥØ©":2973,"Ø°ÙĬØ©":2974,"ĠØ§ÙĦØ²Ø±":2975,"ĠØŃÙĬ":2976,"ĠØ£Ø¹Ø¶Ø§Ø¡":2977,"ĠÙħÙĨØ§Ø·ÙĤ":2978,"ĠØ§ÙĬØ¶Ø§":2979,"ĠÙĥÙĪÙĨ":2980,"ĠÙĪØ¹Ø¯Ùħ":2981,"Ø§ÙĤØ¨Ø©":2982,"Ø§Ø¦Ø©":2983,"ĠØ§ÙĦØµØŃÙĬØ©":2984,"Ġ....":2985,"ĠÙģÙĩÙħ":2986,"ĠÙĪÙĦÙĪ":2987,"Ø°ÙĨ":2988,"Ø´ÙĬØ§Ø¡":2989,"ĠØ³ÙĪÙĤ":2990,"Ø³Ø¯":2991,"ĠØ¹Ø¶ÙĪ":2992,"ĠØ£ÙĩÙħÙĬØ©":2993,"ĠØ§ÙĦØŃØ±ÙĥØ©":2994,"âĢľ":2995,"ĠØ§ÙĦÙĤÙĦØ¨":2996,"ĠÙģÙĬÙĦÙħ":2997,"ĠÙģØ§ÙĨ":2998,"ÙĤØ¨Ø§ÙĦ":2999,"ÙĦÙĤØ¯":3000,"ÙĦÙĬØ³":3001,"ĠØ§ÙĦØ§Ø«ÙĨÙĬÙĨ":3002,"ĠØŃØ§ÙĦÙĬØ§":3003,"Ø²Ø¹":3004,"ĠÙĤÙĪÙĦÙĩ":3005,"ĠØ¨Ø§Ø³ØªØ®Ø¯Ø§Ùħ":3006,"ĠÙĦÙĦØ§Ø³Øª":3007,"ĠÙĪØŃØªÙī":3008,"ÙĪØ§Ø¦Ø¯":3009,"ĠØ§ÙĦØ³Ø§Ø¯":3010,"ĠW":3011,"ĠØ§ÙĦØµÙĬÙĨ":3012,"ÙĪÙĩØ§":3013,"ØŃØ¯ÙĬØ¯":3014,"ĠØµØ§ÙĦØŃ":3015,"ĠØ§ÙĦØ±ÙĤÙħ":3016,"ĠÙĤÙĬÙħØ©":3017,"ĠØ§ÙĦØµÙģØŃØ©":3018,"ĠØ§ÙĦÙħÙĪØ§Ø·ÙĨÙĬÙĨ":3019,"ÙĦØ§ÙħØ©":3020,"ÙĨØ¯ÙĪÙĤ":3021,"Ø¯ÙĬØ§Øª":3022,"ÙħÙĪØ°":3023,"ĠÙĨØ§Ø¯ÙĬ":3024,"Ø³ÙħØ§Ø¡":3025,"ĠØ¯Ùħ":3026,"ĠØ§ÙĦØ¶Ø±":3027,"ĠØŃØµ":3028,"ÙĤÙĬØ©":3029,"ĠØ£Ø³Ø¹Ø§Ø±":3030,"ÙĨØ³ÙĬÙĤ":3031,"ĠÙĪØ§ÙĦÙħØ±":3032,"ĠØ§ÙĦØ´ÙħØ³":3033,"ĠÙħÙĪÙĤÙģ":3034,"is":3035,"ĠØµÙĪØª":3036,"ĠØ§ÙĦÙħÙĨØ²ÙĦ":3037,"ĠÙĤÙĨØ§Ø©":3038,"ro":3039,"ĠØ¥ØŃØ¯Ùī":3040,"ĠØ¨ÙĬØ±":3041,"ĠÙĪÙħØŃ":3042,"ĠÙħÙĥØª":3043,"ĠÙħØ§Ø±":3044,"ĠØ£ÙĦÙħ":3045,"ÙĪØ³Ùģ":3046,"ĠØ´ÙĩØ¯":3047,"Ø·ÙĦØ¹":3048,"et":3049,"ÙĦØ¹Ø§Ø¨":3050,"ĠØ³Ø¨Ø¨":3051,"Ø®ØµØµØ©":3052,"ÙħÙĨØ©":3053,"ĠØªÙĤØ±ÙĬØ±":3054,"ĠÙĦØ§ØŃ":3055,"ÙĪØ±Ùĩ":3056,"Ø¶ØŃ":3057,"ĠØ§ÙĦØªØ§ÙĦÙĬØ©":3058,"ĠÙĪÙĥØ§ÙĨØª":3059,"Ø§ÙħÙĨ":3060,"ĠØ§ÙĦÙħØ¤ØªÙħØ±":3061,"ĠØ§ÙĦÙħÙĪØ³Ùħ":3062,"ĠØ§ÙĦÙģÙĨØ§ÙĨ":3063,"ĠÙĦØ§Øª":3064,"ĠØ§ÙĦÙħØ§Ø¯Ø©":3065,"ĠØ£ÙħÙĬØ±":3066,"ĠØ´Ø¨ÙĥØ©":3067,"ĠØ¥Ø·ÙĦØ§ÙĤ":3068,"ĠØªØŃØªØ§Ø¬":3069,"ÙĥÙĬØ±":3070,"ĠØ¥Ø¨Ø±":3071,"Ø²Ø±":3072,"ĠÙħØ¨Ø§Ø´Ø±":3073,"com":3074,"ĠØ§ÙĦØ®Ø¯ÙħØ©":3075,"ĠØ±Ø§Ø¦Ø¹Ø©":3076,"ĠÙĬØªØ¹ÙĦÙĤ":3077,"ĠØ§ÙĦÙĤÙĬØ§Ùħ":3078,"ĠØªØŃÙħÙĦ":3079,"ĠØµØŃÙĬØŃ":3080,"Ø¬Ø§Ø¬":3081,"22":3082,"ÙĦÙĨ":3083,"Ø´Ø§Ùģ":3084,"ĠØ³Ø¨ØŃ":3085,"ĠÙĥØ§ÙĦ":3086,"ĠØ¨ØŃØ«":3087,"ĠØ§ÙĨÙĩØ§":3088,"ĠØ£Ø®Ø¨Ø§Ø±":3089,"ĠÙĬØ³ØªØ·ÙĬØ¹":3090,"ÙĦÙĬØ¨":3091,"ØŃÙĦ":3092,"Ø²ÙĨ":3093,"ĠÙĬØŃØªØ§Ø¬":3094,"ĠÙħØ´ÙĥÙĦØ©":3095,"ĠØ¨ÙĩØ¯Ùģ":3096,"Ø§Ø§Ø§Ø§":3097,"ÙĤØ±Ø§Ø¡":3098,"Ø«ÙĦØ§Ø«":3099,"ĠØ£ØµØŃØ§Ø¨":3100,"ĠÙĪØ§ÙĦØ·":3101,"ĠØŃÙĪØ§ÙĦÙĬ":3102,"ĠØ§ÙģØ¶ÙĦ":3103,"ĠØ®ÙĦÙĤ":3104,"ĠØ§ÙĦØ®ÙĦÙĬØ¬":3105,"ÙĪÙĦÙĬØ©":3106,"ĠÙħÙĬÙĦ":3107,"ÙĤÙĦØª":3108,"Ø´Ø§Ø·":3109,"ÙĪØªÙĬ":3110,"ĠØ¹Ø´":3111,"ĠØ§ÙĦÙħØ¨Ø§Ø±Ø§Ø©":3112,"ÙģÙĬÙģ":3113,"ĠØ§ÙĦØ«Ø§ÙĨ":3114,"ĠØ§ÙĦØ£ÙĪØ³Ø·":3115,"ĠÙģÙĬØ¯ÙĬ":3116,"Ø±Ùħ":3117,"ĠØ§ÙĦØ¹ÙĦØ§Ø¬":3118,"ĠØ§ÙĦÙħØ³ØªÙĤØ¨ÙĦ":3119,"ĠÙĦØº":3120,"ĠÙĩØ§ØªÙģ":3121,"Ġ>":3122,"ĠØ§ÙĦØ¬ÙħÙĩÙĪØ±ÙĬØ©":3123,"ØªØ®Ø¨":3124,"ĠÙĪØ§Ø®":3125,"ĠØ§ÙĦØ£Ùĩ":3126,"ĠØ§ÙĦØ±ØºÙħ":3127,"Ø³Ø¬ÙĬÙĦ":3128,"ÙĬÙĦÙħ":3129,"Ø³Ø§Ø¯":3130,"ÙħÙĪØ°Ø¬":3131,"ĠØ®ØµÙĪØµ":3132,"ĠØ§ÙĦÙħØ§Ø¶ÙĬØ©":3133,"ØªØ±Ø§":3134,"ĠÙħØ§Ø°Ø§":3135,"ĠØªØµÙħÙĬÙħ":3136,"ÙĦØ§ÙĤ":3137,"ĠÙĬØªØŃ":3138,"ÙĬØ§Ø¡":3139,"ac":3140,"ĠØŃØ±Ø¨":3141,"ĠØ¨ØŃÙĬØ«":3142,"ØŃÙĩ":3143,"ĠØ¯Ø®ÙĪÙĦ":3144,"ĠØ¨Ø§ÙĦØªØ¹":3145,"ĠØ§ÙĦØªØ§ÙĦÙĬ":3146,"ĠØªØ¬Ø§Ùĩ":3147,"ĠØ¯Ø®ÙĦ":3148,"as":3149,"ĠÙĨØµÙģ":3150,"ÙĥÙĪÙĬÙĨ":3151,"ĠØ§ÙĦØŃØ²Ø¨":3152,"ĠØ¯ÙĤÙĬÙĤØ©":3153,"ĠØ§ÙĦÙĪØ¶Ø¹":3154,"ÙģÙĬØ§Øª":3155,"ĠØ§ÙĦÙĩØ§ØªÙģ":3156,"ÙģÙĨ":3157,"ĠØ§ÙĦØ¹ÙĦÙĬØ§":3158,"ĠØ£Ø¹ÙĦÙī":3159,"ÙĤØ§Ø·":3160,"ĠØ´Ø¹Ø±":3161,"ĠØ¹Ø±Ùģ":3162,"ĠØ§ÙĦØ¨ÙĬØ§ÙĨØ§Øª":3163,"Ø®Ø§Ø°":3164,"ĠØ§ÙĦØ¯Ø±Ø§Ø³Ø©":3165,"ĠØ§ÙĦØ§Ø·":3166,"ÙĪÙĤØ§Øª":3167,"Ġ50":3168,"ĠØ§ÙĦÙħØ¬Ø§ÙĦ":3169,"il":3170,"ÙĤÙĬÙĤÙĬ":3171,"ĠÙĪØ§ÙĦØ«":3172,"ĠØ§ÙĦÙĥÙħ":3173,"ĠØ¨ÙĨÙĬ":3174,"ĠØ³ÙĪÙī":3175,"ÙĪØ§Øµ":3176,"ÙĤÙī":3177,"ĠØªØ£Ø«ÙĬØ±":3178,"ĠÙĪØ§ÙĦÙħØ³":3179,"ĠN":3180,"ÙĦØ§ÙĨ":3181,"ÙĪØªÙĬÙĨ":3182,"ĠØ¨Ø§ÙĦØ¬":3183,"40":3184,"ÙĤØ§Ø¦ÙĤ":3185,"ÙĪÙĨØ§":3186,"ĠÙĤØ§Ø¦":3187,"ĠÙĪØ§ÙĦØ§ÙĨ":3188,"ĠØºØ±ÙģØ©":3189,"ĠØ§Ùĩ":3190,"ĠÙĤÙħ":3191,"Ø§Ø¨ÙĦØ©":3192,"ĠØ§ÙĦØ¬Ø§ÙĨØ¨":3193,"ĠØ§ÙĦÙħØ³ØªØ®Ø¯Ùħ":3194,"Ø®Ùģ":3195,"ĠØªØŃØ¯Ø«":3196,"Ø±ÙģØ¶":3197,"ØµØ§ÙĦØ§Øª":3198,"ĠØ®Ø§ÙĦØ¯":3199,"ĠØ§ÙĦØ§Ø¬":3200,"ĠÙħØ±Ø§Øª":3201,"ĠØ¨ÙĨØ³Ø¨Ø©":3202,"ĠØªÙĥÙĨ":3203,"Ø°ÙĬÙĨ":3204,"ĠÙĪØ¨Ø±":3205,"ĠÙĦÙĥØ±Ø©":3206,"ĠØ§ÙĦØ¹Ø²ÙĬØ²":3207,"ĠØ§ÙĦØ·Ø±ÙĤ":3208,"ĠÙĪÙģÙĤØ§":3209,"Ø§ÙĦØµ":3210,"ĠÙģÙħÙĨ":3211,"ĠØ±Ø¬Ø§ÙĦ":3212,"ĠÙģØ¥ÙĨÙĩ":3213,"Ø®ÙģØ¶":3214,"Ø§Ø¦ÙĨ":3215,"ĠØŃÙħÙĦ":3216,"Ø¬ÙħØ©":3217,"Ø®Ùħ":3218,"Ø¹Ø±Ø¶":3219,"ĠØ¹ÙĦØ§Ø¬":3220,"ĠØ¨Ø¯Ø£Øª":3221,"ĠØ§ÙĦØ¹ÙĦÙħÙĬØ©":3222,"ĠÙħÙĬ":3223,"ÙĩØ±Ø¬Ø§ÙĨ":3224,"ĠØ§ÙĦÙĨÙĪØ¹":3225,"ĠØ´ÙĬØ¦Ø§":3226,"Ø§Ø±ÙĤ":3227,"ĠØ§ÙĦØ¯ÙĨÙĬØ§":3228,"ÙĪØ²Ø§Ø±Ø©":3229,"ÙĪÙĬØ§":3230,"ĠÙĦÙĦØ¹ÙħÙĦ":3231,"Ø§Ø±Ø¨Ø©":3232,"ĠÙħÙħÙĥÙĨ":3233,"ØªÙĩÙĬ":3234,"Ø¨ÙĬØ¶":3235,"ĠØ§ÙĦÙĨÙĪ":3236,"ĠÙĪØ§ÙĦØªÙĨ":3237,"Ø¨ÙĬÙĩ":3238,"Ø¹Ø±Ø§Ø¶":3239,"ØµØ¯Ø§Ø±":3240,"ĠÙħØ¹ÙĩØ§":3241,"Ø§Ø¦Ø²":3242,"ĠÙĦÙĦØ·":3243,"ÙĦÙĬÙĥ":3244,"Ø§Ø±ÙĨØ©":3245,"ĠØ£ÙĨÙĩÙħ":3246,"ĠØ¨ØŃØ³Ø¨":3247,"ĠØ¨Ø¯Ø£":3248,"ĠÙĪÙĬØ±":3249,"ÙĪÙĪÙĪÙĪ":3250,"ÙħØ«":3251,"ØªÙħÙĬØ²":3252,"ĠÙħÙĦÙĥ":3253,"ĠØ³Ø¹ÙĪØ¯":3254,"ĠÙĪØ§ÙĦØº":3255,"ÙĬØ§Ø¨":3256,"ĠØ£Ø³Ø±":3257,"ĠØ¨Ø§ÙĦØ·":3258,"ĠÙħØ±ØŃÙĦØ©":3259,"ĠÙĤØ§ÙħØª":3260,"ĠØ§ÙĦØ£ÙĥØ«Ø±":3261,"ÙĲØĮ":3262,"ĠØ§ÙĦØºØ±Ø¨ÙĬØ©":3263,"ØªØµØ§Ø¯":3264,"ĠØªÙĦÙĤ":3265,"ĠØ§ÙĦØ³ÙĦØ·Ø§Øª":3266,"ĠØ±Ø¨ÙħØ§":3267,"ĠØ¹ÙĦØ§ÙĤØ©":3268,"he":3269,"ĠØ£ÙĪØ±ÙĪØ¨Ø§":3270,"ØªØ±Ùģ":3271,"ĠÙħÙĨØ¸ÙħØ©":3272,"ĠØ§ÙĦÙħÙĪØ§ÙĤØ¹":3273,"ÙģØ³ÙĬØ±":3274,"ĠØŃÙĥÙĪÙħØ©":3275,"ĠØ§ÙĦØ«ÙĪØ±Ø©":3276,"Ø§ÙĤÙĬØ©":3277,"ÙĬØ¨Ø©":3278,"Ø¸Ø§ÙĩØ±":3279,"ĠØ§ÙĦÙĪØ§ØŃ":3280,"ĠØ§ÙĦØ£Ø®ÙĬØ±":3281,"ĠÙħØ¤ØªÙħØ±":3282,"ĠØ³ÙĬØªÙħ":3283,"ĠÙħÙĨØªØ¬":3284,"ĠÙĤØ¶ÙĬØ©":3285,"ĠØ§ÙĦØ¯ÙĪØ±":3286,"ĠÙĪÙĩØ°Ùĩ":3287,"ĠÙĪÙħØ³":3288,"ĠØ§ÙĦØ¥Ø³Øª":3289,"ĠØ§ÙĦØ¯Ø³Øª":3290,"ĠØªÙĪÙģÙĬØ±":3291,"ÙĪÙĦØ¯":3292,"ĠØ§ÙĦØ®ÙĦ":3293,"ĠÙĦÙĦÙħØ±":3294,"ØµØ¯ÙĤ":3295,"ØªÙģØ¹":3296,"ĠØ§ÙĦØ±Ø³ÙħÙĬ":3297,"ĠÙĬØ£ØªÙĬ":3298,"ĠØ³Ø¹ÙĬØ¯":3299,"--":3300,"ĠØ§ÙĦØ¹Ø¶":3301,"ĠØ§ÙĦØ¬Ø²Ø¡":3302,"ĠÙħØ¹Ø§":3303,"ĠØ¨ÙĤÙĬ":3304,"Ø¢Ø®Ø±":3305,"ÙĥÙĨØª":3306,"ĠØ§ÙĦÙĦÙĤØ§Ø¡":3307,"ÙĪØ±Ùĥ":3308,"Ø®Ø¨Ø±":3309,"ĠÙĦØ¹Ø¯":3310,"ĠÙĥÙĦÙĬØ©":3311,"Ø¬Ø§Ø¨Ø©":3312,"ĠØ³Ø§Ø¹Ø§Øª":3313,"ÙĤØ±Ø£":3314,"ĠØ¨Ø§ÙĦÙħÙĨ":3315,"ÙĪØ§Ùĥ":3316,"ĠÙĪØ§ÙĦÙĦ":3317,"ÙĤÙĬÙĬÙħ":3318,"Ø£ÙĨÙĩ":3319,"ĠØ¨Ø§ÙĦØ±":3320,"ĠÙĪØ¨Ø§ÙĦØªØ§ÙĦÙĬ":3321,"Ø¨ØºÙĬ":3322,"ĠØ¬ÙĬØ¯Ø©":3323,"ĠØ¬ÙħØ¹":3324,"ĠÙħÙĤØ±":3325,"**":3326,"ĠÙĤØ·":3327,"ĠÙĦÙĦØ¨":3328,"Ø§ÙĪÙħØ©":3329,"ĠÙĪÙĬØ³":3330,"ĠÙĥÙĬÙģÙĬØ©":3331,"ÙĤØ±Ø©":3332,"ØªØ²":3333,"Ø§ÙĦØ¬Ø©":3334,"Ø£ÙĦØ©":3335,"ØµØ¯Ø±":3336,"ĠØªØ¹ÙĦÙĬÙħ":3337,"ĠØªØ²":3338,"ĠØ¹Øµ":3339,"ÙĪÙĦÙĥÙĨ":3340,"ĠÙħÙģØª":3341,"ĠÙĬØº":3342,"ĠÙĪÙĥØ§ÙĦØ©":3343,"ĠÙĨØ²":3344,"23":3345,"ĠÙħÙĩÙħ":3346,"ĠØ¥ÙĬØ¬":3347,"ĠØ§ÙĦØ´Ø¨":3348,"Ø¹ÙĦØ§Ø¬":3349,"ÙĪØ£Ø´Ø§Ø±":3350,"Ġm":3351,"Ø§Ø¯ÙĬÙħ":3352,"ĠÙħÙĥØªØ¨":3353,"ØŁØŁØŁØŁ":3354,"ĠØ¨ÙĬØ¹":3355,"ĠØ§ÙĦØ¯ÙĪØ±Ø©":3356,"ĠÙĪØµÙĪÙĦ":3357,"ĠØ§ÙĦØ«Ø§ÙĦØ«Ø©":3358,"ion":3359,"Ø¨ÙĬØ¨":3360,"ĠØ¨Ø·Ø±ÙĬÙĤØ©":3361,"ĠØ²Ø±":3362,"ĠÙĬÙħÙĨ":3363,"ĠØªØ³Ø§Ø¹Ø¯":3364,"ĠØ£ÙĩØ¯Ø§Ùģ":3365,"Ø¨ÙĦØ©":3366,"ĠØ¨ÙĩÙħ":3367,"ĠØªÙĤÙĪÙĦ":3368,"Ø¨ÙĩØ©":3369,"ĠÙĦÙĤØ§Ø¡":3370,"ĠØ§ÙĦÙħØŃÙĥÙħØ©":3371,"ĠØ§ÙĦØ§ØªØµØ§ÙĦ":3372,"oo":3373,"ÙĨÙĪØ§ÙĨ":3374,"ĠØŃØ¯ÙĪØ¯":3375,"ÙĪÙĬØªØ±":3376,"ĠÙħÙĤØ¯":3377,"ĠØ§ÙĦØ£ÙĪØ±ÙĪØ¨ÙĬ":3378,"ÙĦÙģØ²ÙĬ":3379,"Ø±Ø³Ø§ÙĦ":3380,"ÙĩØ§Ø±":3381,"ĠÙĪØ³Øª":3382,"ĠØ§ÙĦØ£Ø¨":3383,"ĠØ§ÙĦÙģÙĨ":3384,"ĠØ§ÙĦØ¹ÙĦÙħÙĬ":3385,"Ø¹ÙĦÙĤØ©":3386,"ÙĪØ£ÙĥØ¯":3387,"ĠÙħÙĦÙģ":3388,"ĠÙĪØ±Ø§Ø¡":3389,"ĠØ£ÙĥØ¯":3390,"ĠÙĦÙħØ¹":3391,"ĠØ§ÙĦØªØ¯Ø±ÙĬØ¨":3392,"Ø§Ø·Ø©":3393,"ĠØ§ÙĦÙħØµØ¯Ø±":3394,"Ø§ÙĦØ±":3395,"ĠØ®Ùħ":3396,"ĠÙħØŃÙħÙĪØ¯":3397,"ĠØ§ÙĦÙģÙĦ":3398,"ĠØ¨ÙħØ¹":3399,"ĠÙĦÙħØ§Ø°Ø§":3400,"ĠÙĬÙĪÙħØ§":3401,"ĠÙĪÙĪ":3402,"ĠØ§ÙĦÙħØ¤ÙħÙĨ":3403,"ĠÙģØ±ØµØ©":3404,"ÙģØ§Ø¯Ø©":3405,"ĠØ§ÙĦÙĨØª":3406,"ĠÙĦØ·":3407,"ÙĪØ§Ø¬Ø¯":3408,"ĠØ§ÙĦØ¨Ø±Ø§ÙħØ¬":3409,"Ø§Ø¨Ø±":3410,"ĠÙĦÙĦÙĥ":3411,"Ùĭ:":3412,"ĠØ£Ùĩ":3413,"ĠÙĦØ¯ÙĬÙĨØ§":3414,"Ø®Ø¯ÙħØ§Øª":3415,"ĠÙħØ´Ø§ÙĩØ¯Ø©":3416,"ĠÙħÙĩÙħØ©":3417,"200":3418,"Ø²Ø§Ø¨":3419,"ØŃÙĬØ§Ø©":3420,"ĠØ³Ø¬ÙĦ":3421,"26":3422,"ĠØ§ÙĦÙĬÙĩÙĪØ¯":3423,"ĠÙĤØ·Ø¹":3424,"ÙĬÙĪÙħ":3425,"ØªØ±Ø§Ùħ":3426,"ĠØŃÙħØ§ÙĬØ©":3427,"ÙĪØ¹ÙĬ":3428,"Ø§Ø±ÙĬØ±":3429,"].":3430,"ĠÙĬØ¤Ø¯ÙĬ":3431,"ĠØ§ÙĦØ±Ø³ÙĪÙĦ":3432,"ĠØ¶Ø±ÙĪØ±Ø©":3433,"ĠÙĪØªØ±":3434,"Ø£ØªÙĬ":3435,"ĠØ¥ÙĨØªØ§Ø¬":3436,"ÙģÙĬÙĩ":3437,"ĠO":3438,"ĠØ¬ÙĬØ¯Ø§":3439,"Ø·Ø±Ø§Ùģ":3440,"ĠØ§ÙĦÙħÙĨØªØ®Ø¨":3441,"ĠÙħÙĨØªØ¯Ùī":3442,"ĠØ§ÙĦØ£Ø´Ø®Ø§Øµ":3443,"Ø³Ø³":3444,"ĠØ§ÙĦØŃÙħ":3445,"ĠØ§ÙĦØŃÙĤÙĬÙĤØ©":3446,"ĠÙĬØ³Ø§Ø¹Ø¯":3447,"ĠØ§ÙĦØ¯Ø®ÙĪÙĦ":3448,"Ø§ÙħØ§Øª":3449,"2018":3450,"ĠÙĤØ§ÙĦØª":3451,"Ø§ÙħØ±":3452,"ĠØ§ÙĦÙĪØ²Ø§Ø±Ø©":3453,"ĠØªØ³ØªØ·ÙĬØ¹":3454,"ĠÙģÙĬØ¯ÙĬÙĪ":3455,"ĠØ§ÙĦØ¹Ø³ÙĥØ±ÙĬ":3456,"ØŃØ§Ø¡":3457,"ĠØªÙĨØª":3458,"ĠÙĪØ±Ø¯":3459,"ĠØ§ÙĦØ§ÙĨØªØ±ÙĨØª":3460,"21":3461,"ĠØ§ÙĦØ¹ÙĦÙĪÙħ":3462,"ĠØ§ÙĦØ§ÙĤØªØµØ§Ø¯":3463,"ÙģÙĪ":3464,"ĠØĽ":3465,"Ø§Ø¦ÙĩÙħ":3466,"ĠÙĪØ§ÙĦØ³ÙĬ":3467,"ĠØ§ÙĦÙħØ¯ÙĬØ±":3468,"Ø§ØŃØ§Øª":3469,"ØŃØ³Ø¨":3470,"ĠØ¨ÙĬÙĨÙĩÙħ":3471,"ĠÙĬØ¨Ø¯ÙĪ":3472,"ĠÙĩØ¯Ùģ":3473,"ĠØ§ÙĦØ£ÙĬØ§Ùħ":3474,"Ø§Ø¯Ùħ":3475,"ĠÙĦØ°Ø§":3476,"ĠØªÙĨØ¸ÙĬÙģ":3477,"ĠØ§ÙĦÙħØ¯Ø±Ø³Ø©":3478,"ĠÙĪÙĥÙĬÙģ":3479,"ĠØªØ¹ØªØ¨Ø±":3480,"ĠØ¹Ø¨Ø§Ø±Ø©":3481,"ØªÙĬØ¨":3482,"ĠØºØ±":3483,"ĠÙħØ¤Ø³Ø³Ø©":3484,"ĠØ§ÙĦØµØŃÙĬ":3485,"ĠØ§Ø®Øª":3486,"ĠØªÙĪÙĤ":3487,"ĠÙĨÙĬ":3488,"Ø§Ø¯Ø¦":3489,"ra":3490,"ĠØ£Ø®Ø°":3491,"ĠØªØªØ¹":3492,"Ø±ÙĬØ©":3493,"ĠØ£Ø¨Ø¯":3494,"ĠÙĤÙĪÙĦ":3495,"ĠÙĦØ§Ø¹Ø¨":3496,"ĠØ§ÙĦØ¹ÙĦÙħØ§Ø¡":3497,"ÙĨØ³Ø§ÙĨ":3498,"ÙĤÙĬÙĤÙĬØ©":3499,"ĠØ§ÙĦÙģÙĨÙĬ":3500,"ĠÙħØ´Ø§ÙĥÙĦ":3501,"ĠÙħØ¹Ø±ÙģØ©":3502,"ĠØ³ÙĪØ±ÙĬØ©":3503,"Ø¯Ø¹":3504,"ĠÙĦØ§Ø¹":3505,"ÙĩÙĨØ§Ùĥ":3506,"ĠØ¨ØªØ§Ø±ÙĬØ®":3507,"ĠØªØ³ØªØ®Ø¯Ùħ":3508,"Ø§ÙĬØª":3509,"Ø³Ùĥ":3510,"ĠØªØ¶":3511,"ĠØ§ÙĦØ£Ø³Ø§Ø³ÙĬØ©":3512,"27":3513,"ĠØ¹Ø¨Ø¯Ø§ÙĦÙĦÙĩ":3514,"ĠØ¹ÙĬØ¯":3515,"ÙĤØ¯ÙĬØ±":3516,"ĠØªØ³Ø¬ÙĬÙĦ":3517,"Ø§ÙĩØ§":3518,"ĠÙĦØ¯ÙĬÙĩ":3519,"ĠÙĨØ§Ø¦Ø¨":3520,"ĠØ§ÙĦØ£ÙħÙĨÙĬØ©":3521,"ÙĨØ·ÙĨ":3522,"ĠØ§ÙĦÙģØµÙĦ":3523,"ØªÙħÙĦ":3524,"ÙĨÙĬØ§Øª":3525,"Ø¯ÙĪÙĨ":3526,"ĠÙĪØ§Ø¬":3527,"ĠØ§ÙĦÙĤØ¶Ø§Ø¡":3528,"28":3529,"ĠÙħØŃØ§ÙĪÙĦØ©":3530,"ĠÙĬØŃÙħÙĦ":3531,"ĠØ±ØŃÙħ":3532,"ĠØ¥ÙĨÙĩØ§":3533,"Ø®ÙĪØ§ÙĨ":3534,"Ø¬ØªÙħØ¹":3535,"ĠÙĥØ±Ø©":3536,"ĠÙĤØµØ©":3537,"ÙĬØ²Ø§Øª":3538,"ĠØ§ÙĦØŃØ§ÙĦØ©":3539,"ĠØ§ÙĦÙħØ¤Ø³Ø³Ø§Øª":3540,"ØªØ±Ø§Ùģ":3541,"ĠØ§ÙĦØªÙĨØ¸ÙĬÙħ":3542,"ÙĦÙħÙĬ":3543,"ĠÙĪØªÙĤ":3544,"Ø¹Ø¯Ø¯Ø©":3545,"ĠØ§ÙĦØ£ÙĤÙĦ":3546,"ĠØ§ÙĦØ£ØµÙĦ":3547,"ĠØµÙĦØ§ØŃ":3548,"ĠÙħØ§ÙĨ":3549,"Ø¨ÙĦÙĪÙħ":3550,"ÙĨØ§Ùģ":3551,"ĠØ§ÙĦÙħØŃØª":3552,"Ø¹ÙĪÙĨ":3553,"ØµÙĦØŃØ©":3554,"ØŃØ§ÙģØ¸Ø©":3555,"Ø·ÙĤ":3556,"ww":3557,"ĠØ§ÙĦØ¢Ø®Ø±ÙĬÙĨ":3558,"ĠÙģÙĥØ±Ø©":3559,"Ø·Ø§ÙĤ":3560,"ĠÙĪØ§ÙĦÙĦÙĩ":3561,"Ø°Ø§Ø±":3562,"ÙĬØ³Ø©":3563,"ĠØ§ÙĦØ·Ø¨ÙĬØ©":3564,"ĠØ§ÙĦÙĥØ¨Ø±Ùī":3565,"ĠØ§ÙĦÙģØ±ÙĨØ³ÙĬØ©":3566,"Ø§Ø¬Ùħ":3567,"Ø³Ø§Ø±Ø©":3568,"ĠØ§ÙĦØ³Ø¨Ø¨":3569,"ĠØ®Ø±":3570,"ĠØ³ÙĬØ§Ø±Ø©":3571,"ÙĥØªØ§Ø¨":3572,"ĠØ§ÙĦÙħØ³ØªÙĪÙī":3573,"ĠØ§ÙĦÙĪÙģ":3574,"Ø³Ø§Ø¨":3575,"ÙĨØ§Ø¦ÙĬØ©":3576,"ĠØ¨ØªØŃ":3577,"ĠØ¬ÙħÙĬØ¹Ø§":3578,"ĠØ£ÙĦØ§":3579,"Ġ05":3580,"Ø§Ø¬Ø¹Ø©":3581,"ÙĪØ¶Ø§Ø¹":3582,"ĠÙĨÙħ":3583,"ĠØ§ÙĦØ¬Ø¯":3584,"Ø³ØªØ·ÙĬØ¹":3585,"ĠØ§ÙĦØªÙĨÙħÙĬØ©":3586,"Ø¸ÙĦ":3587,"ĠØ¥Ø¹":3588,"Ø´ÙĥÙĦ":3589,"ĠØ§ÙĦÙĨØ§Ø¯ÙĬ":3590,"ĠÙĪØ¬Ø¯":3591,"ĠØ§ÙĦØ¬ÙħØ¹ÙĬØ©":3592,"ĠÙĥØ§ÙħÙĦØ©":3593,"Ø¯Ø®ÙĦ":3594,"Ø£Ùħ":3595,"ĠØªØ¸ÙĩØ±":3596,"ĠÙĥØ§Ùħ":3597,"Ø§Ø¬Ø±":3598,"))":3599,"ÙĦØ§ÙĦØ©":3600,"Ø¶Ø§Ø¦ÙĬØ©":3601,"ĠØ·Ø±ÙĤ":3602,"ÙĩØ§Øª":3603,"ĠØ¥Ø¨Ø±Ø§ÙĩÙĬÙħ":3604,"ĠÙĦÙĦØµ":3605,"ÙĪØ±Øª":3606,"ĠØ§ÙĦØ±Ø§Ø¨Ø¹":3607,"Ø§Ø¦ØŃØ©":3608,"Ġs":3609,"ĠÙħØ¯Ø±ÙĬØ¯":3610,"ĠØ§ÙĦØŃÙĥÙĪÙħÙĬØ©":3611,"ĠØ§ÙĦÙģÙĥØ±":3612,"Ø±Ø¨ÙħØ§":3613,"ÙĤØ§Øª":3614,"Ø¬Ø§ÙĪØ²":3615,"ĠØ§ÙĦÙħØ¯Ø±":3616,"ĠØ§ÙĦØ¹Ø±Ø§ÙĤÙĬ":3617,"ĠØ§ÙĦÙĤØ§Ø¯ÙħØ©":3618,"ÙĬÙģØ§":3619,"ĠØ§ÙĦØ¨Ø´Ø±ÙĬØ©":3620,"29":3621,"Ø¸ÙħØ§Øª":3622,"ĠØ³Ø¨ØŃØ§ÙĨÙĩ":3623,"ĠØ±Ø¬":3624,"Ø¦ÙĬ":3625,"Ø±Ø´":3626,"35":3627,"ÙĤØ·Ø§Ø¹":3628,"ĠÙĪØŃØ¯Ø©":3629,"ĠÙĪØ§ÙĦÙħØ¹":3630,"ĠÙħÙĪØ§Ø¬ÙĩØ©":3631,"ĠØ§ÙĦØ¯Ø¹Ùħ":3632,"ĠØ³ÙĦÙħØ§ÙĨ":3633,"ĠÙĬØ²ÙĬØ¯":3634,"ĠÙĨÙĬÙĪ":3635,"ĠØ§ÙĦØ·Ø±ÙĬÙĤØ©":3636,"ÙĪÙĬÙĤ":3637,"ĠØ§ÙĦØ±Ø³ÙħÙĬØ©":3638,"ĠØªÙĪÙģØ±":3639,"ØªØµØ§Ø¯ÙĬØ©":3640,"ĠÙĥÙĦØ§Ùħ":3641,"ĠØ§ÙĦÙĨØ¨":3642,"ĠØ³ÙĦÙĬÙħ":3643,"ĠØ§ÙĦÙĤØ¶ÙĬØ©":3644,"39":3645,"ĠØ¥ÙħÙĥØ§ÙĨ":3646,"ĠØ¬ÙħØ§ÙĦ":3647,"ÙĪØ¹ÙĬØ©":3648,"Ø®Ø·Ø·":3649,"ĠÙħØ¬ÙħÙĪØ¹":3650,"ØŃØ¯Ø¯":3651,"ĠØ³Ùģ":3652,"ÙĪØ¬Ø¨":3653,"ĠÙĪØ®Ø§ØµØ©":3654,"Ø§ÙĨÙĬÙĬÙĨ":3655,"ĠØ·Ø±":3656,"Ø§ÙĦÙħØ²ÙĬØ¯":3657,"ĠØªØ¬Ø¯":3658,"ĠØ§ÙĦØ¹Ø±Ø§ÙĤÙĬØ©":3659,"ÙĥÙĦÙģØ©":3660,"Ø´ÙģØª":3661,"ĠØ·Ø±ØŃ":3662,"ĠØ£Øª":3663,"ĠØªØªØŃ":3664,"ĠØµÙĨØ¹":3665,"Ø®ÙĬØµ":3666,"Ø§ÙĤØ´":3667,"ĠØ³Ø§Ø¨":3668,"ĠÙĦÙĦØŃØµÙĪÙĦ":3669,"ĠØ¨Ø¯Ø¡":3670,"ÙĪØ§ÙħÙĦ":3671,"ĠØ¹Ø§ÙħØ©":3672,"ĠÙĪØªØ³":3673,"Ø§Ø²Ùħ":3674,"ĠØ¨ØµÙĪØ±Ø©":3675,"ĠØ¹ÙĨÙĪØ§ÙĨ":3676,"ĠØŃØ§ÙĪÙĦ":3677,"ĠØ§ÙĦØ´Ø±ÙĬÙģ":3678,"ĠØ§ÙĦØªØŃÙĤÙĬÙĤ":3679,"ĠÙħÙĪØ§Ø·":3680,"ĠØ§ÙĦØ²ÙħÙĨ":3681,"ĠØ¨Ø³Ø±Ø¹Ø©":3682,"ÙĥÙĪÙħØ©":3683,"ĠÙĦÙħØ³":3684,"ĠØ§ÙĪÙĦ":3685,"ĠÙģØ±Ø¶":3686,"ĠÙĨØ¨":3687,"ĠÙĪØ¥Ø°Ø§":3688,"ĠØ§ÙĦØ¬ÙĨØ³":3689,"ĠÙĦØ£ÙĨÙĩØ§":3690,"âĢİ":3691,"ĠØ¥Ø¬Ø±Ø§Ø¡":3692,"ĠÙħØ¤Ùĥ":3693,"ĠÙĬÙĪØ³Ùģ":3694,"Ø³ÙĦÙĪØ¨":3695,"ĠÙĪØ¬ÙĦ":3696,"ĠØ§ÙĦÙĩØ¯Ùģ":3697,"ĠØ§ÙĦØ§ÙĤØªØµØ§Ø¯ÙĬ":3698,"Ø§ÙĪØ±":3699,"ĠØ³Ø§Ø¨ÙĤ":3700,"ĠÙĦÙĦØ±":3701,"ch":3702,"ĠØ¢ÙĦØ§Ùģ":3703,"ĠÙħØ§ÙĬ":3704,"Ø¯Ø±ÙĪÙĬØ¯":3705,"Ø¦ÙĬØ©":3706,"ĠØ¨Ø¯Ø±":3707,"ĠØ¹ÙĨØ§ØµØ±":3708,"ĠÙģØ±ÙĨØ³Ø§":3709,"ĠÙĤØ§Ø¦ÙĦØ§":3710,"ĠØ´Ø¦":3711,"ĠÙĬØ¹ÙĬØ´":3712,"ĠØ£Ø¨ÙĨØ§Ø¡":3713,"ĠÙħÙħÙĨ":3714,"ØªØ±ÙĥØ©":3715,"ĠÙħÙĪØ¸":3716,"ĠØ§ÙĦÙħØ¬ÙħÙĪØ¹Ø©":3717,"ØªØµÙģ":3718,"ĠÙĬÙĪÙħÙĬØ§":3719,"ĠØ§ÙĦØ¨ÙĦØ¯":3720,"ĠÙħØ§Øª":3721,"ĠØ¯ÙĪØ±ÙĬ":3722,"Ġ198":3723,"ĠØ¬ÙħÙĬÙĦ":3724,"ĠØ§ÙĦØ±Ø¬Ø§ÙĦ":3725,"ĠØ§ÙĦØ´Ø¹Ø¨ÙĬØ©":3726,"ĠØ§ÙĦÙĦØŃ":3727,"ĠØ®ÙħØ³":3728,"ĠØ§ÙĦÙħÙĪØª":3729,"ÙĪØ±ÙĪ":3730,"ĠÙĥÙĬÙĦ":3731,"ĠÙĬØ¨":3732,"ØªÙĬØ§Ø¬Ø§Øª":3733,"ĠÙĦÙĥÙĨÙĩ":3734,"ĠØ¸ÙĩÙĪØ±":3735,"Ø°ÙĦ":3736,"ĠØ§ÙĦØªØ§Ø¨Ø¹Ø©":3737,"ht":3738,"ĠØ§ÙĦØ¨ÙĨÙĥ":3739,"ĠØ´Ø±ÙĤ":3740,"ĠØ§ÙĦØ¬Ø§Ø±ÙĬ":3741,"ĠÙħØ´ÙĬØ±Ø§":3742,"ÙĦØ§ÙĬÙĬÙĨ":3743,"ĠØ¨ÙħØ±":3744,"ĠØ§ÙĦÙĥÙĦØ§Ùħ":3745,"ÙĪÙĬÙĩ":3746,"ĠØ§ÙĦØ±Ø§Ø¨Ø·":3747,"ĠØ§ÙĦÙħØ³ÙĦØŃØ©":3748,"ĠÙģÙħØ§":3749,"Ø¹ØªÙĤØ¯":3750,"ĠØ§ÙĦØ·Ø¨ÙĬØ¹ÙĬØ©":3751,"Ø´Ø¨":3752,"ĠØ£ÙĬØ¶":3753,"ĠØ¹Ø´Ø±Ø©":3754,"ĠÙĪÙĨØŃÙĨ":3755,"ĠØªØ´ØºÙĬÙĦ":3756,"ĠØ¬ÙĪ":3757,"ĠØ¬Ø§ÙĨ":3758,"ĠØ·Ùģ":3759,"ĠØ§ÙĦØ±ØŃÙħÙĨ":3760,"ĠÙħØ³ÙĦØ³ÙĦ":3761,"ĠØ¨Ø«":3762,"ĠØ£Ø¬ÙĩØ²Ø©":3763,"Ø§Ø®Ø±":3764,"Ø§ÙĦØ¨ØŃØ«":3765,"Ø·ØŃ":3766,"ĠØ§ÙĦØ¹ÙĬÙĨ":3767,"ĠØ§ÙĦÙģØ±ÙĨØ³ÙĬ":3768,"Ø§ÙĨØ¯":3769,"ØªØ±Ø¶":3770,"ĠØ®ÙĦØ§ÙĦÙĩØ§":3771,"Ø´ÙĩØ¯":3772,"ÙĨØ¯Ø³":3773,"ĠØ§ÙĦØŃØ¯ÙĬØ«Ø©":3774,"Â·":3775,"ĠÙĪØ§ÙĦØªØŃ":3776,"ĠØµØºÙĬØ±":3777,"Ø«ÙħØ±":3778,"ÙĪÙĤØ§ÙĦØª":3779,"ĠÙħØ¬Ø±Ø¯":3780,"ĠÙĥÙĦÙĩØ§":3781,"ĠØ§ÙĦØªØŃØ±":3782,"ĠØ³Ø¨ÙĤ":3783,"ÙħÙĨØª":3784,"ĠØ·ÙĪÙĬÙĦ":3785,"ĠØ§ÙĦØ¹ÙĦØ§ÙĤØ©":3786,"Ø·Ø±ØŃ":3787,"ĠØ§ÙĦØ¥ÙĦÙĥØªØ±ÙĪÙĨÙĬ":3788,"Ø±ÙĬØ¬":3789,"ĠÙħØ«ÙĦØ§":3790,"ĠØ¨ÙĦØ¯":3791,"ĠØ§ÙĦØ¨Ø§ØŃØ«":3792,"ĠØ§ÙĦÙĨÙĪÙħ":3793,"Ø®Ø·ÙĬØ·":3794,"ĠØªØ¹ÙĦÙĬÙĤ":3795,"ĠÙĪØ§Ø±":3796,"ĠÙĨØ´Ø§Ø·":3797,"Ġïºį":3798,"ĠØ§ÙĦÙħØ´ÙĥÙĦØ©":3799,"ĠÙĩØ§":3800,"ĠÙĦØ¬ÙħÙĬØ¹":3801,"ÙĨØ§ÙĬØ©":3802,"Ø¹ÙĦÙĪÙħ":3803,"Ø¨Ø§Ø±Ùĥ":3804,"Ø¬ÙĦØ©":3805,"Ø§Ø¨ÙĨ":3806,"ĠÙ¢":3807,"ĠÙĨØ¬Ø§ØŃ":3808,"ĠØ§ÙĦØŃÙĦÙĤØ©":3809,"ĠØ§Ø®Ø±":3810,"ĠØ´Ø±Ø§Ø¡":3811,"ĠØ§ÙĦØ³ÙĬÙĨ":3812,"id":3813,"Ø§Ø¦Ø±Ø§Øª":3814,"ag":3815,"ĠÙĪØ§ÙĦØªØ¹ÙĦÙĬÙħ":3816,"ĠØ¥ÙĨØ´Ø§Ø¡":3817,"ĠØ§ÙĦÙĥØ¨ÙĬØ±Ø©":3818,"ĠØ§ÙĦÙĨÙĬ":3819,"ĠØ§ÙĦÙĥØª":3820,"ĠØ£Ø³Ø¨ÙĪØ¹":3821,"ĠØ§ÙĦÙĤÙĪÙĦ":3822,"ĠØ§ÙĦØ·Ø±Ùģ":3823,"Ø§Ø¬Ø¦ÙĬÙĨ":3824,"Ø§ÙĦÙĥØªØ±":3825,"ĠØ¨Ø¹ÙħÙĦ":3826,"ĠØ§ÙĦØ£Øº":3827,"ĠØ§ÙĦÙħØŃÙĦÙĬ":3828,"ĠØŃÙģØ¸":3829,"Ġ40":3830,"ÙĥØ§ÙĨØª":3831,"ĠÙħÙĨØ¹":3832,"ÙĦÙħÙĪÙĨ":3833,"ĠØ³ØªÙĥÙĪÙĨ":3834,"Ø´ØŃ":3835,"ĠØ§ÙĦØ³ÙĬØ§Ø±Ø©":3836,"ĠØ¨Ø§ÙĦÙģØ¹ÙĦ":3837,"ĠØ§ÙĦÙĤØ¯ÙĬÙħØ©":3838,"ĠØ§ÙĦÙĪØ¸":3839,"Ø§ÙģØ§Øª":3840,"36":3841,"ĠØ§ÙĦØ¥ÙĨØ³Ø§ÙĨÙĬØ©":3842,"ĠØ§ÙĦØ¥Ùģ":3843,"ĠØ£Ø³Ø¨Ø§Ø¨":3844,"Ø´ÙĨ":3845,"ÙĬØ¯Ø§ÙĨ":3846,"ĠØ±ÙĪØŃ":3847,"ĠØ§ÙĦÙĥÙĦ":3848,"ĠØ§ÙĦÙĦØ¹Ø¨Ø©":3849,"ĠØ§ÙĦÙĥÙĨ":3850,"Ġ+":3851,"ØºØ¨Ø©":3852,"ĠÙĦØ¯ÙĬÙĥ":3853,"ĠØ§ÙĦØªØ·":3854,"ĠÙħØ§Ø¯Ø©":3855,"ĠÙĦÙĦØ§ÙĨ":3856,"Ø®ØªØ§Ø±":3857,"ĠØ§ÙĦØ¹ÙĤÙĦ":3858,"ĠØ£ÙĨÙģØ³":3859,"ĠØªÙĤÙĦ":3860,"ol":3861,"ĠÙĬÙĩ":3862,"ÙĤÙĦØ§ÙĦ":3863,"ÙĪÙĨØ§Øª":3864,"Ø®Ø±Ø§":3865,"ĠØ§ÙĦØŃÙĪØ§Ø±":3866,"Ø§Ø±Ø¶":3867,"ĠØ§ÙĦÙħØ¹Ø±ÙĪÙģ":3868,"ØºØ§ÙĦ":3869,"Ø¬ÙĬØ±":3870,"ĠØ§ÙĦØ°ÙĩØ¨":3871,"ĠØ§ÙĦÙĬØ§Ø¨":3872,"ĠÙĨØ³Ø®Ø©":3873,"ĠØ´Ø®ØµÙĬØ©":3874,"Ø£Ø³ÙĬØ³":3875,"ĠØ³ÙĥØ§ÙĨ":3876,"Ø±Ø§Ø¦ÙĬÙĦ":3877,"ĠØ£ØµØ¨ØŃØª":3878,"Ø¯ÙĬÙĩ":3879,"ØŃÙĬØ§Ø¡":3880,"ĠØ§ÙĦØµØºÙĬØ±Ø©":3881,"ĠØ£Ø±Ø¯":3882,"ĠØ§Ø®Ø±Ùī":3883,"ÙģØ§Ùģ":3884,"ĠØ§ÙĦÙħÙĨØ´":3885,"ØºØ±Ø¨":3886,"ĠÙĥØ¨ÙĬØ±Ø§":3887,"ĠØ³Ø¹Ø¯":3888,"Ġ::":3889,"ØªØ¨Ø©":3890,"ĠÙĬØ¹ÙĪØ¯":3891,"ÙĩÙħÙĬØ©":3892,"ing":3893,"ĠÙĪÙĦÙĨ":3894,"Ø³Ø±Ø§Ø¦ÙĬÙĦÙĬØ©":3895,"ĠØµØŃØ©":3896,"ĠÙĥØ§Ø±":3897,"ĠØ§ÙĦÙħÙĪØ¬ÙĪØ¯Ø©":3898,"Ø§Ø¯Ùī":3899,"ĠØ¨Ø·ÙĪÙĦØ©":3900,"ĠÙĪÙĦØ¯":3901,"38":3902,"ÙĦÙĪ":3903,"ĠØ²ÙħÙĨ":3904,"ĠØ§ÙĦØ«ÙĤØ§ÙģØ©":3905,"ĠØªØ¯Ø®ÙĦ":3906,"ĠØªØ¯Ø±ÙĬØ¨":3907,"ÙĦØ§ÙĬØ§":3908,"ĠÙĪØ§ÙĦØ³ÙĦØ§Ùħ":3909,"ĠØ§ÙĦØ·ÙĦØ¨":3910,"Ø´ÙĬØ±":3911,"ĠØ§ÙĦØŃÙħÙĦ":3912,"ĠÙĪØ§":3913,"ØªØ¨Ø·":3914,"Ø§ÙĤØ¨":3915,"ĠØ§ÙĦÙħØ¶":3916,"ĠØ§ÙĦÙĤØ§Ø¯Ùħ":3917,"ĠØ´Ø¨Ø§Ø¨":3918,"ĠØ§ÙĦØ¹ÙĪØ¯Ø©":3919,"ĠØªÙģØ§ØµÙĬÙĦ":3920,"ĠÙĤÙĬØ§Ùħ":3921,"ĠÙĬÙĨØ¨ØºÙĬ":3922,"ÙĤÙĪØ·":3923,"ĠÙģÙĦÙħ":3924,"Ġ01":3925,"48":3926,"ĠØ¨ÙĪÙĥ":3927,"ĠØ¹ÙĩØ¯":3928,"ĠØ§ÙĦØ¯Ø±Ø§Ø³Ø§Øª":3929,"ĠØªÙĤØ±ÙĬØ¨Ø§":3930,"37":3931,"ĠØŃÙĤÙĬÙĤØ©":3932,"ĠØŃØ³ÙĬÙĨ":3933,"ĠØ¨Ø¹Ø¯ÙħØ§":3934,"ĠØ§ÙĦØ£ÙħÙĬØ±ÙĥÙĬØ©":3935,"Ø°Ùģ":3936,"ĠØ®ÙĦÙĬ":3937,"ĠØ§ÙĦÙħØ´Ø§Ø±ÙĥØ§Øª":3938,"ØµÙĬÙĦ":3939,"ÙĪÙĬØ¶":3940,"Ø£ÙĥÙĬØ¯":3941,"45":3942,"ĠÙĪØ§ÙĦÙĩ":3943,"ĠØ¯ÙĦÙĬÙĦ":3944,"Ø±ÙĤÙħ":3945,"ĠØªØ´ÙĥÙĬÙĦ":3946,"ĠØ£Ø¨Ø±Ø²":3947,"ĠØ§ÙĦØ´Ø±ÙĤÙĬØ©":3948,"ĠØ§ÙĦØ¥ÙĤÙĦÙĬÙħ":3949,"Ø±Ø£":3950,"ØªÙĬØŃ":3951,"ÙĪÙĨÙĩØ§":3952,"ĠØªØ¬Ø±Ø¨Ø©":3953,"ĠØ§ÙĦØ£Ø²":3954,"ĠÙģØ¥Ø°Ø§":3955,"ĠÙĬØ¸ÙĩØ±":3956,"ÙĬØ¯Ùĩ":3957,"ĠØªÙĪØ¬Ø¯":3958,"ĠØ¹ÙĤØ¨":3959,"ØµØ§Ø¨":3960,"ĠØ§ÙĦØ¥Ø³":3961,"ÙĬØ¶":3962,"ĠØ§ÙĦÙĨÙĤØ¯":3963,"Ø·ÙģÙī":3964,"ĠÙĦÙĦÙħØ³":3965,"ĠØ§ÙĦØ£ÙħØ©":3966,"ĠÙĪØ¹ÙĨ":3967,"ĠØ§ÙĦØ£Ø®Ø¨Ø§Ø±":3968,"ĠØ§ÙĦØ®Ø§ÙħØ³":3969,"ĠØ§ÙĦØ³ÙģØ±":3970,"ĠØ§ÙĦØ£Ø¬":3971,"ØµÙī":3972,"ĠØ§ÙĦØŃÙĤÙĪÙĤ":3973,"ĠØ¨ÙĬÙĨÙĩØ§":3974,"ĠÙĤØª":3975,"ĠØ§ÙĦØ§ÙĦÙĥØªØ±":3976,"ay":3977,"ĠØ§ÙĦØ±ÙĪØ³ÙĬØ©":3978,"Ø¹Ø¯ÙĦ":3979,"âĢ®":3980,"ĠØ§ÙĦÙħØ´Ø±":3981,"Ġ31":3982,"ĠØ®ØµÙĪØµØ§":3983,"Ø®ÙģØ§Ø¶":3984,"ĠØ³Ø§Ø¨ÙĤØ§":3985,"ĠØ§ÙĦÙĦØ§Ø²ÙħØ©":3986,"ĠØµØ§Ø±":3987,"ÙĪØ¶Ø©":3988,"ĠØ§ÙĦØªØ®":3989,"ĠØ§ÙĦØ®ÙĬØ±":3990,"ĠØ§ÙĦØ£Ø³ØªØ§Ø°":3991,"ĠØ¨ØºØ¯Ø§Ø¯":3992,"Ø«ÙĦØ©":3993,"ĠØªÙĪÙĨØ³":3994,"ĠØ§ÙĦØ±ÙĬØ§Ø¶ÙĬØ©":3995,"ow":3996,"ĠÙħÙĩÙħØ§":3997,"ÙĩÙĬÙĦ":3998,"ĠØºØ±Ùģ":3999,"Ġâ":4000,"ĠÙĦØ§ÙĬÙĨ":4001,"ĠÙĨÙģØ³Ùĥ":4002,"ĠÙĨØ¯":4003,"ĠØ§ÙĦÙĪÙĦ":4004,"ĠØ§ÙĦÙħØ¤Ø³Ø³Ø©":4005,"ĠØ§ÙĦØªØ±ÙĥÙĬØ©":4006,"ĠÙĬØ³ØªØ®Ø¯Ùħ":4007,"ĠØ§ÙĦÙħØŃØ§ÙģØ¸Ø©":4008,"ĠØµØ¯Ø±":4009,"ĠØ¨ÙĦØ§Ø¯":4010,"ĠØ§ÙĦØ£Ø¬ÙĩØ²Ø©":4011,"ĠØ¥Ùģ":4012,"ĠØ§ÙĦÙģÙĨÙĬØ©":4013,"ĠØªØ¹Ø²ÙĬØ²":4014,"ÙĦØ§Ø¹":4015,"Ġ09":4016,"ĠØ§ÙĦÙĨÙĪØ§Ø¨":4017,"ĠØ§ÙĦØ¹Øµ":4018,"ĠÙĦØªØŃÙĤÙĬÙĤ":4019,"Ġt":4020,"ØªÙħÙĨÙī":4021,"ĠØ§ÙĦÙģÙĨØ¯ÙĤ":4022,"Ġ07":4023,"ĠØ§ÙĦÙĥÙħØ¨ÙĬÙĪØªØ±":4024,"ÙĨØ§Øª":4025,"Ø§Ø¶Ø±":4026,"ĠØ¨ÙĪØ±":4027,"Ø¹ØªØ¨Ø±":4028,"ĠØ§ÙĦØªÙĤÙĦÙĬ":4029,"ĠØ§ÙĦÙĨØ²":4030,"ĠÙĩÙĨ":4031,"ĠÙĪÙĩÙĨØ§Ùĥ":4032,"ĠØ§ÙĦØ¬ÙĩØ§Øª":4033,"ĠØ§ÙĦÙĥØªØ¨":4034,"Ø¬Ø§Ø¡":4035,"Ø¯Ø±Ø§Øª":4036,"ĠØ¥Ø³":4037,"ĠØ§ÙĦÙĨÙĤÙĦ":4038,"ÙĪØ§Ø¨Ø·":4039,"ĠØ§ÙĦÙĪØŃÙĬØ¯":4040,"ÙĪØ§ØªÙģ":4041,"ĠÙħØ´Ø§Ø±ÙĥØ©":4042,"Ø¬ØŃ":4043,"Ø¯ÙĬØ±":4044,"ĠØ§ÙĦÙħØ¹Ø§Ø±Ø¶Ø©":4045,"ĠÙĪØ§ÙĦØ¹ÙħÙĦ":4046,"Ø®ÙĬØ±":4047,"ĠØ§ÙĦÙħÙĤØ¨ÙĦØ©":4048,"Ø¹ÙħØ§Ø±":4049,"ĠØ¹Ø±Ø¨ÙĬØ©":4050,"ĠÙĦÙĦØªØŃ":4051,"ĠØ§ÙĦØªØ¨":4052,"ĠØ§ÙĦØªÙĨÙģÙĬØ°":4053,"ĠÙģØ¶ÙĦØ§":4054,"ĠV":4055,"ĠØ§ÙĦØªØ¬Ø§Ø±Ø©":4056,"ĠØ§ÙĦØ£Ø¬ÙĨ":4057,"ØªØªØ§ØŃ":4058,"ĠØ£Ø¹ÙĦÙĨ":4059,"ĠØ£Ø¯Ø§Ø¡":4060,"ĠØ§ÙĦØŃØ§ÙĦ":4061,"ĠÙĪÙĦÙĩ":4062,"Ġ06":4063,"ĠÙħÙĨØ§":4064,"ĠØ¯ÙĤØ§Ø¦ÙĤ":4065,"ĠØ§ÙĦÙĤÙĬØ§Ø¯Ø©":4066,"ĠØ§Ø²":4067,"ÙħØ±Ø©":4068,"ĠØ§ÙħØ§Ùħ":4069,"Ġ2007":4070,"ĠØ§ÙĦØ¶ØºØ·":4071,"ĠØ§ÙĦØµÙĪØª":4072,"ÙĪØ¬ÙĦ":4073,"Ø³Ø¨ÙĤ":4074,"ĠØ³Ø¤Ø§ÙĦ":4075,"ĠØ§ÙĦØ§ÙĨØ³Ø§ÙĨ":4076,"Ø¢Øª":4077,"ĠØ§ÙĦÙĤÙĪÙī":4078,"ĠØªØ¬Ø¹ÙĦ":4079,"ĠØ§ÙĦØ³Ø§Ø¯Ø³":4080,"ÙĦØ¨Ø©":4081,"Ġ02":4082,"ÙĩÙĦØ©":4083,"ĠØ§ÙĦØªØ¹Ø¯":4084,"ĠÙħÙĨØ²":4085,"ĠØ§ÙĦØ¨Ø±ÙĦÙħØ§ÙĨ":4086,"ĠØ§ÙĦÙĨØªØ§Ø¦Ø¬":4087,"ĠØ§ÙĦØ²ÙĪØ§Ø¬":4088,"ĠÙħØ¬ØªÙħØ¹":4089,"Ø²Ø§ÙĦØ©":4090,"Ø±ÙĬØª":4091,"ĠØ£ÙĨÙĥ":4092,"ĠØ¨Ø±ÙĬØ·":4093,"ĠØ®ÙħØ³Ø©":4094,"Ġ03":4095,"ĠÙĦØ¥ÙĨ":4096,"ĠØ§ÙĦØ±ÙĪØ³ÙĬ":4097,"ĠØ§Ø¬ÙĦ":4098,"ĠØ§ÙĦØªÙģØ§ØµÙĬÙĦ":4099,"Ø¨Ùĥ":4100,"33":4101,"ĠÙĨØ¹Ùħ":4102,"ÙĪØ³ÙĬ":4103,"ĠØ®Ø·Ø±":4104,"ĠØªØŃØ±ÙĬØ±":4105,"ĠØ§ÙĦØªØ¹Ø¨":4106,"ĠØ£Ø«Ø±":4107,"ĠÙħÙĨØ§Ùģ":4108,"ÙĨØ³Ø§Ø¡":4109,"ØªØµØ§Øµ":4110,"ĠØŃÙģÙĦ":4111,"Ø§ÙĤÙģ":4112,"ĠØ±Ø¤ÙĬØ©":4113,"ĠØ§ÙĦØ¥Ø³Ø±Ø§Ø¦ÙĬÙĦÙĬØ©":4114,"ĠØ³ÙĬØ§Ø³ÙĬØ©":4115,"ĠØ³ÙĦØ³ÙĦØ©":4116,"ĠØ§ÙĦÙħÙĥØª":4117,"ÙĨÙĥ":4118,"Ø§ÙĪÙĬØ©":4119,"ĠØ§ÙĦØ¥ÙĨØªØ§Ø¬":4120,"ĠØ§ÙĦØ£Ø¨ÙĬØ¶":4121,"Ø®Ø±Ø§Ø¬":4122,"ĠÙħØŃØ§ÙģØ¸":4123,"Ø¤ÙĬØ©":4124,"ĠØ§ÙĦÙħØªØ¹ÙĦÙĤØ©":4125,"ØªÙĤÙĦ":4126,"ĠØ¥ØŃ":4127,"ĠØ§ÙĦØµØ¯":4128,"ĠØ¨ÙħØ¯ÙĬÙĨØ©":4129,"ĠÙĦØ¹Ø¨":4130,"ĠØ§ÙĦØªØ¹Ø±ÙĬÙģ":4131,"ĠØ§ÙĦØ±Ø¯":4132,"ĠØŃØ§ÙĦØ§Øª":4133,"ÙĤØ§Ø°":4134,"ĠØ§ÙĦÙĦØ§Ø¹Ø¨":4135,"ĠØ§ÙĦØ±Ø¦ÙĬØ³ÙĬ":4136,"Ġ04":4137,"ĠØ¨ÙĬØ§ÙĨØ§Øª":4138,"ĠØ¨Ø§Ø³":4139,"ØµÙĬ":4140,"ĠÙĬØ¬ÙĪØ²":4141,"ĠØ¯ÙħØ´":4142,"ĠÙħØ¹Ø±Ø¶":4143,"ĠÙħØ·ÙĦ":4144,"Ø§ÙĨÙī":4145,"Ø±Ø±":4146,"ĠØ³Ø£":4147,"Ø¬ÙĬØ©":4148,"ĠØ¨ÙħØ³":4149,"ĠØ¨ØªÙĨ":4150,"ĠÙĥØ´Ùģ":4151,"34":4152,"ĠØ§ÙĦÙĥØ±Ø©":4153,"ĠØ¨Ø§ÙĦÙĦÙĩ":4154,"ØºØ§Ø¡":4155,"ĠØªÙĤØ¹":4156,"ĠØ®Ø±Ø¬":4157,"ĠÙĦÙħØ±":4158,"ĠÙĪØ¥ÙĨÙħØ§":4159,"ĠÙĤÙĪÙĬØ©":4160,"ĠØµÙģØŃØ©":4161,"ĠØ¨ØªØ¹":4162,"ĠØ¯ÙħØ´ÙĤ":4163,"ĠØ§Ø°":4164,"ĠØ§ÙĦÙĤÙĪØ©":4165,"ĠØ·ÙĪÙĦ":4166,"ĠÙħÙĪØ¹Ø¯":4167,"ĠØ§ÙĦØ¨ÙĬØ¦Ø©":4168,"ĠØ§ÙĦØ£ØŃÙħØ±":4169,"ĠÙħÙĥØ§ÙģØŃØ©":4170,"ÙģØ§ÙĪØ¶":4171,"ĠÙĪÙĬØŃ":4172,"Ø«ÙĨØ§Ø¡":4173,"ĠØ§ÙĦØ¬ÙĪÙĬØ©":4174,"ĠÙħØ³Ø§Ø¹Ø¯":4175,"Ø¨ÙĩØ§":4176,"ĠØ§ÙĦØŃØ¬":4177,"ĠØ§ÙĦØ¨Ø§Ø¨":4178,"ĠØ§ÙĦØ¯Ùĩ":4179,"Ø¨Ø³":4180,"ĠØ§ÙĦÙĪØ³Ø·":4181,"ĠÙĨÙĤØ§Ø·":4182,"ĠØ§ÙĦÙħÙĪØ¸":4183,"ĠØ£ÙģØ±Ø§Ø¯":4184,"Ø§Ø±Ùģ":4185,"ĠØ£ÙħØ±ÙĬÙĥØ§":4186,"Ø±ÙĬØŃØ©":4187,"ĠØ±Ùĥ":4188,"Ø¹ÙĬÙħ":4189,"ĠØŃÙħÙĦØ©":4190,"Ġ197":4191,"ĠØ§ÙĦÙħÙħÙĥÙĨ":4192,"ĠÙĤÙĬÙħ":4193,"ĠÙĦÙĬÙĦØ©":4194,"ĠØ§ÙĦØ¹Ø±Ø¶":4195,"ĠÙĩØ§Ùħ":4196,"ï»Łï»":4197,"ÙĢØ©":4198,"ĠØ§ÙĦÙĩÙĪØ§Ø¡":4199,"ĠØ§ÙĦØ³ÙĨÙĪØ§Øª":4200,"ĠØ§ÙĦØªØ¹ÙĦÙĬÙħÙĬØ©":4201,"ĠØ§ÙĦØ³ÙĬØ§Ø³Ø©":4202,"ĠÙĦØ¶":4203,"ÙĪØ§Ø¬ÙĩØ©":4204,"ĠÙĬØ²":4205,"ĠØµÙĨØ§Ø¹Ø©":4206,"Ø´Ùĩ":4207,"ĠØ§ÙĦÙĤØ³Ùħ":4208,"ĠØ§ÙĦØ·Ø§ÙĦØ¨":4209,"ĠØºØ§ÙĦØ¨":4210,"ĠØ£Ø±Ø¨Ø¹Ø©":4211,"ĠØ´Ø±ØŃ":4212,"ĠØ§ÙĦÙħÙĨØ¸ÙħØ©":4213,"ÙĬØ¯Ø±":4214,"ĠÙĦÙĬØ¨ÙĬØ§":4215,"ĠØ§ÙĦØ£Ø¹ÙĦÙī":4216,"ĠØ§ÙĦØ¹ÙĨÙģ":4217,"ĠØ¬ÙĩÙĪØ¯":4218,"Ø®Ø§ÙĦ":4219,"ĠØ§ÙĦØ£Ø³Ø¯":4220,"Ø§Ø¹Ùĩ":4221,"ĠØ¯Ø§Ø¹Ø´":4222,"ÙĪØ²ÙĬØ±":4223,"ĠØ§ÙĦÙģØ¹":4224,"ĠØŃØ¶ÙĪØ±":4225,"ĠØ¨Ø¹ÙĨÙĪØ§ÙĨ":4226,"ĠÙĬÙĤÙĦ":4227,"):":4228,"ĠØ§ÙĦÙĪØ¬Ùĩ":4229,"Ø§Ø¦Ø·":4230,"Ø§ÙĥÙĨ":4231,"ĠØ£ÙĨÙĨØ§":4232,"âĢª":4233,"ĠÙĪÙĦØ§ÙĬØ©":4234,"ĠÙģØ±Øµ":4235,"Ø¯Ø±Ø³":4236,"Ø§ÙĤØ´Ø©":4237,"ĠÙħØ¯Ø©":4238,"ĠØ¨ÙĨØª":4239,"ĠÙĩÙī":4240,"Ø«Ø±Ø©":4241,"32":4242,"ĠØ§ÙĦØ¯ÙĬÙĨÙĬØ©":4243,"ÙĪØ£ÙĪØ¶ØŃ":4244,"ĠØ§ÙĦØŃØ³ÙĬÙĨ":4245,"Ø®Ø±Ø©":4246,"ØªØ©":4247,"ĠØ§ÙĦØ£ÙĩÙĦÙĬ":4248,"ÙĪØ³Øª":4249,"ØŃØ¯Ø§Ø«":4250,"ĠØ§Ø®Ø¨Ø§Ø±":4251,"ĠÙĬØ±Ø¬":4252,"ĠÙĨÙĬÙĪØ²":4253,"Ø·Ø¨Ø®":4254,"ĠØ®Ø·Ø©":4255,"ĠÙħÙĨØŃ":4256,"ÙĤÙĬØ§Ùħ":4257,"Ġ]":4258,"ÙģØ²":4259,"ÙĥØ±Ùĩ":4260,"Ø·Ø§Ø¹Ùħ":4261,"Ø«Ø¨Øª":4262,"ĠØ¨ÙĪÙĦ":4263,"ÙĢÙĬ":4264,"ĠÙĦØ¹ÙħÙĦ":4265,"Ø¶Ø±ÙĪØ±Ø©":4266,"ĠØ§ÙĦØŃØ¶":4267,"ri":4268,"ĠØŃØ§Ø¬Ø©":4269,"ĠØ§ÙĦØ£ÙĦ":4270,"ĠØ§ÙĦØ£ÙĤ":4271,"ĠØ§ÙĦÙĤØ¯Ø±Ø©":4272,"ĠÙħØ¹ÙĬÙĨØ©":4273,"ĠÙĬÙĦÙĬ":4274,"ÙģØ±Ø¯":4275,"Ø£ÙĨØ§":4276,"ĠØ§ÙĦØ°Ø§Øª":4277,"Ø³ÙĬÙħ":4278,"ĠØ¹Ø¯ÙĬØ¯Ø©":4279,"Ø§Ø¹Ø¨ÙĬÙĨ":4280,"ĠØ§ÙĦØ£Ø²ÙħØ©":4281,"ĠØ§ÙĦØªÙĤØ±ÙĬØ±":4282,"ĠØ¨ÙĨØ§":4283,"ØªØ§Ø¨Ø¹Ø©":4284,"55":4285,"ĠÙħØ§ÙĦ":4286,"ÙĥÙħØ§ÙĦ":4287,"ØŃÙħØ¯":4288,"ĠØ¹Ø§Ø¯Ø©":4289,"ĠØ£ÙĨØŃØ§Ø¡":4290,"ÙĦØ§ÙħÙĬ":4291,"ĠØ¨Ø¯ÙĦØ§":4292,"ĠØ§ÙĦØ¨Ø±ÙĬØ·Ø§ÙĨÙĬØ©":4293,"ÙĬØ¯ÙĬØ§":4294,"ÙĬÙĨÙĩ":4295,"ĠØ§ÙĦØ§ÙħØ±":4296,"ĠØ§ÙĦØµÙĩÙĬ":4297,"ĠØªØºÙĬØ±":4298,"ĠÙħØ³ÙĦÙħ":4299,"ĠÙħØ³Ø§ØŃØ©":4300,"ĠØ§ÙĦØ£ÙħÙĬØ±ÙĥÙĬ":4301,"ĠØ§ÙĦÙĤØ§ÙĨÙĪÙĨÙĬØ©":4302,"ÙĪØ°":4303,"ĠØ§ÙĦÙħØ³Ø¬Ø¯":4304,"ÙĩØ§Ùħ":4305,"ĠÙĪØ¨Ø¯":4306,"ĠÙĦØªØµ":4307,"ĠØ§ÙĦØµØŃÙģÙĬ":4308,"ĠØ§ÙĦØºØ±Ø¨":4309,"ĠØ§ÙĦÙħØ¯Ø§Ø±Ø³":4310,"ĠÙĪØ¨Ø¹Ø¶":4311,"ĠØ§ÙĦØ¹ÙĩØ¯":4312,"ĠØ´ÙĩØ§Ø¯Ø©":4313,"ĠÙĪØªØ£":4314,"Ú©":4315,"ĠÙĪØ§ÙĦÙħØª":4316,"ĠØ´Ø£ÙĨ":4317,"Ø²ÙĬØ§Ø±Ø©":4318,"ĠÙĥÙĦÙĩ":4319,"ÙĥÙĨØ¯Ø±":4320,"Ø²ÙĤ":4321,"ĠÙĪÙĤØ¹":4322,"ØºÙĦØ§ÙĦ":4323,"Ø¬Ø¹ÙĦ":4324,"Ø§Ø¦ÙĬØ§":4325,"ĠØ¬ÙħÙĬÙĦØ©":4326,"ĠÙĤÙĬØ§Ø¯Ø©":4327,"ĠØ§ÙĦÙħØ´Ø§ÙĥÙĦ":4328,"ÙĤÙĬÙħ":4329,"ÙĪÙģÙĬÙĤ":4330,"ĠÙĪÙĦÙĥ":4331,"ĠÙĬØ±Ùī":4332,"ĠÙĤØ±Ø¨":4333,"ĠÙĪØ§Ø³Ø¹Ø©":4334,"ĠØ£ÙĪÙĦØ§":4335,"31":4336,"ÙĪÙĦØ§ÙĬØ©":4337,"ÙĪØµÙĦ":4338,"ĠÙĨØ¬Ø¯":4339,"Ø§Ø¦Ø±ÙĬ":4340,"ĠØ§Ø®ØªØ±":4341,"ĠØ§ÙĦØ³Ø¬":4342,"Ø¹ÙĦÙħ":4343,"ĠPM":4344,"ĠÙħÙĨÙĥ":4345,"Ø§Ø·ÙĬ":4346,"ĠÙĪØ§ÙĦÙħØ¤":4347,"ĠÙĬØŃØªÙĪÙĬ":4348,"ĠØ§ÙĦÙĤØ§Ø¦ÙħØ©":4349,"ĠØ§ÙĦÙĤØ·":4350,"ĠØ·Ø§ÙĦ":4351,"ĠÙħØ¹ÙĨØ§":4352,"ĠØ§ÙĦØ£ØŃØ¯Ø§Ø«":4353,"ĠØªØŃØªÙĪÙĬ":4354,"ĠÙħÙĪØ¬":4355,"ĠØ§ÙĦØ¬ÙĪ":4356,"ĠØ§ÙĦÙĦÙĪÙĨ":4357,"ÙĪØ§Ø¶":4358,"ÙħØ§ÙĩÙĬØ±":4359,"ĠÙĤØ±Ø§Ø¡Ø©":4360,"Ù¡Ù":4361,"ĠØ§ÙĦØ¨ÙĨØ§Ø¡":4362,"ĠØ§ÙĦØªØ±ÙĥÙĬ":4363,"ĠÙĪÙģØ±":4364,"ĠÙĬØŃØµÙĦ":4365,"ĠØ§ÙĦÙģØ±ÙĤ":4366,"Ø¯ÙĬÙĤØ©":4367,"ĠÙĬÙħØ«ÙĦ":4368,"ĠØ§ÙĦÙĤØª":4369,"Ø·Ùĩ":4370,"ĠÙĪØªØ¯":4371,"Ø¨ÙĪÙĦ":4372,"ĠØ§ÙĦØ¥ÙĦÙĥØªØ±ÙĪÙĨÙĬØ©":4373,"05":4374,"ĠØ¨ØŃÙĤ":4375,"ĠØ¹Ø¨Ø§Ø³":4376,"ĠØ§ÙĦØ·Ø¨ÙĬØ¹ÙĬ":4377,"ĠÙģÙĩØ°Ø§":4378,"ĠÙĦØ£ÙĬ":4379,"ĠØ§ÙĦÙħÙĥØªØ¨":4380,"ÙıÙĳ":4381,"ĠØªÙħÙĨ":4382,"ĠØ§ÙĦØªØŃØ§ÙĦÙģ":4383,"ĠÙĦØ¯ÙĬÙĩÙħ":4384,"ĠÙĪØ£ÙĨØ§":4385,"ĠØ§ÙĦØ¹Ø¸ÙĬÙħ":4386,"ĠÙħØ¹ÙĩÙħ":4387,"ĠØ§ÙĦØªÙĩ":4388,"Ø¶ØºØ·":4389,"ĠÙħØ¹ÙĨÙī":4390,"ĠØ§ÙĦÙħÙĨØªØ¬Ø§Øª":4391,"ĠØ§ÙĦÙģØ±Ø¯":4392,"ĠØŃØ¯ÙĪØ«":4393,"ĠÙħØ¤Ø®Ø±Ø§":4394,"ĠÙĪÙħÙĦ":4395,"ĠØ§ÙĦÙħØ±ÙĥØ²ÙĬ":4396,"ĠØ§ÙĦØŃØ±Ø§Ø±Ø©":4397,"ĠÙĤØ§Ø¯Ø±":4398,"ĠÙĦÙĦØ³ÙĬ":4399,"ĠØ§ÙĦØŃÙĪØ«":4400,"ÙĪÙĥØ§ÙĨØª":4401,"ĠÙĦÙĦØªÙĨ":4402,"ĠÙĪØ§ÙĦØ¨Ø±":4403,"ĠÙĦØ§Ùģ":4404,"ĠØ§ÙĦÙħÙģØª":4405,"ĠØ³Ø§Ùħ":4406,"ĠÙĪÙħØ³Øª":4407,"ĠØ§ÙĦØºØ°Ø§Ø¦ÙĬØ©":4408,"Ø¯Ø±Ø§Ø³Ø©":4409,"Ø·Ø¨Ø§Ø¡":4410,"Ġ196":4411,"ĠØ§ÙĦØ¹ÙħÙĦÙĬØ§Øª":4412,"ĠØ§ÙĦØ¬Ø²ÙĬØ±Ø©":4413,"ĠØ§ÙĦÙħÙĦÙģØ§Øª":4414,"ĠØ§ÙĦØ¯ÙĬÙħÙĤØ±Ø§Ø·ÙĬØ©":4415,"ĠØ§ÙĦÙħÙĦÙģ":4416,"ĠÙħØ±ÙĪØ±":4417,"ÙģØªØ±Ø©":4418,"ĠØ¯Ø§Ø®":4419,"ĠØ§ÙĦÙĥÙĪÙĨ":4420,"ĠÙĦØ¹Ø§Ùħ":4421,"ÙĪØ§ÙģÙĤ":4422,"ĠÙĪØ§Ø´ÙĨØ·ÙĨ":4423,"ĠØ¨Ø£ÙĨÙĩØ§":4424,"08":4425,"ĠÙĪØ§ÙĦÙħØŃ":4426,"ĠØ§ÙĦØ´ÙħØ§ÙĦÙĬØ©":4427,"ĠØŃÙĬØ§ØªÙĩ":4428,"ĠÙĪØ§ÙĦØªØ±":4429,"ĠØ§ÙĦÙģÙĪØ±":4430,"ĠØ§ÙĦØºØ§Ø²":4431,"ĠØ¯ÙĪØ±Ø©":4432,"ĠÙģØµÙĦ":4433,"Ø¯Ø§Ø±":4434,"Ø§ÙĦÙĬØ¨":4435,"ÙĤÙĪÙĦÙĩ":4436,"Ø¯ÙĪØ²":4437,"ĠØ£ÙĬÙĨ":4438,"ĠÙħÙĤØ§Ø±ÙĨØ©":4439,"ĠÙĬØ¹ÙĦÙħ":4440,"Ø«ÙĪØ±":4441,"09":4442,"ĠØ§ÙĦÙĦÙĬÙĦ":4443,"ØªØ±Ø§Øª":4444,"Ù°":4445,"ÙĨÙĬØ¹":4446,"ÙĤÙĦØ©":4447,"ï»´":4448,"ĠÙģÙĨØ¯ÙĤ":4449,"ĠØ§ÙĦÙĬØ¯":4450,"ĠØ§ÙĦØ¨Ø¯Ø§ÙĬØ©":4451,"ĠØªÙħØ±":4452,"ĠØ§ÙĦØªØ§Ø³":4453,"ĠØ§ÙĦÙħÙĨØ§Ø³Ø¨Ø©":4454,"ĠØ§ÙħØ±Ø£Ø©":4455,"ĠØ§ÙĦØŃØ§ÙĦÙĬØ©":4456,"ÙĥÙħÙĦ":4457,"Ø§ÙĨØ¹":4458,"ĠØ§ÙĦØªØ³Ø¬ÙĬÙĦ":4459,"ĠØªØŃÙĪÙĬÙĦ":4460,"ĠØ§ÙĦØ£Ø±Ø¯ÙĨ":4461,"ĠÙģØ³":4462,"us":4463,"ĠØ§ÙĦØ´Ø±Ø¹ÙĬØ©":4464,"Ġ2019":4465,"ĠØ¨Ø¹Ø¯ÙĩØ§":4466,"ĠØ§ÙĦÙħØ¯ÙĨ":4467,"ĠØ§ÙĪÙĨ":4468,"ter":4469,"ĠÙĩÙĢ":4470,"ĠØ¨Ø§ÙĦÙĤØ±Ø¨":4471,"ĠØ§ÙĦÙģÙĬÙĦÙħ":4472,"ĠØ¨Ø£Ø³":4473,"ĠØ´Ø§ÙĩØ¯":4474,"ĠÙĦØ§Ø¨Ø¯":4475,"ĠÙĦØ¯ÙĬÙĩØ§":4476,"ĠØ¯Ø±Ø¬":4477,"ĠÙĦÙĥÙĨÙĩØ§":4478,"ĠØ§ÙĦØŃØ¯ÙĬØ¯":4479,"ØªØµØ§Ø±":4480,"Ø¨Ø±Ø©":4481,"ØªÙĩØ§Ø¡":4482,"ĠÙĪÙĤÙģ":4483,"ĠØ§ÙĦÙĪØ²ÙĨ":4484,"ĠØªØ¨Ø¯Ø£":4485,"ĠØ¬ÙħØ§Ø¹Ø©":4486,"ĠÙĥØªØ¨ÙĩØ§":4487,"Ø¹Ø±Ø§ÙĤ":4488,"ĠÙĬØ²Ø§ÙĦ":4489,"ĠØ§ÙĦÙĪØ²ÙĬØ±":4490,"ĠÙĪÙĦÙĥÙĨÙĩ":4491,"Ø§ÙĤØ¯":4492,"01":4493,"ĠÙĨÙĪØ±":4494,"ĠÙĪØ§ÙĦØ´Ø±":4495,"ĠØ¨ØµÙģ":4496,"Ø¬ØªÙħØ§Ø¹":4497,"ØŁ!":4498,"ĠØ§ÙĦÙĪØ«":4499,"07":4500,"Ø§Ø´Ø±Ø©":4501,"ĠØµØŃÙĬ":4502,"ĠØ¥Ø¹ÙĦØ§Ùħ":4503,"ĠØ§ÙĦØŃØ±Ø©":4504,"Ø´ÙĦÙĪÙĨØ©":4505,"ĠÙħÙĤØªÙĦ":4506,"ĠÙħÙĪØ§Ø¯":4507,"ĠÙĪØ§ÙĦØ§ÙĤ":4508,"ĠØ¨Ø¹ÙĬØ¯":4509,"Ø§Ø¦ÙĬØ§Øª":4510,"ĠÙĬÙĤØ¹":4511,"ĠÙħÙħØªØ§Ø²":4512,"ĠØ¹Ø§Ø¯":4513,"Ø¹Ø¯Ø¯":4514,"ĠÙĪØ´Ø±":4515,"Ø§ÙħØª":4516,"ĠØ¨Ø§ÙĦØµ":4517,"Ø§ÙĪÙĦØ§Øª":4518,"ÙĥÙĪÙĨØ§Øª":4519,"ĠØ§ÙĦØªÙĥ":4520,"ĠØ³ÙĪØ±Ø©":4521,"ÙĩÙĪÙħ":4522,"ÙģØ§Ø¡Ø©":4523,"ĠØ§ÙĦØ¹Ø§Ø¨":4524,"ĠØ§ÙĦØ¬ÙĪØ¯Ø©":4525,"Ø§Ø¯ÙĬÙħÙĬØ©":4526,"ĠÙĪØ£ÙĬ":4527,"ĠÙĬØ¯Ø®ÙĦ":4528,"ĠØ§ÙĦÙħØºØ±Ø¨ÙĬØ©":4529,"ÙĬÙĬÙĬÙĬÙĬÙĬÙĬÙĬ":4530,"ØªØ±ÙĬ":4531,"ÙĪØªÙĩ":4532,"ÙħØ§ÙĥÙĨ":4533,"ĠØ§ÙĦÙĨØ¬Ø§ØŃ":4534,"Ø·Ø¨ÙĤ":4535,"ÙĬÙĦÙĩ":4536,"ĠØ§ÙĦØ¹Ø§ÙĦÙĬ":4537,"ĠØ§ÙĦÙħÙĩÙħ":4538,"ĠØ³ÙĬØ§Ø³Ø©":4539,"06":4540,"Ø¹Ø§Ø¡":4541,"ĠÙĪØªØ±Ùĥ":4542,"ĠØ¥Ø¶Ø§Ùģ":4543,"ÙĨÙĬÙĬÙĨ":4544,"ÙĥØ±Ø±":4545,"ĠÙĥÙĦÙħ":4546,"ÙĬÙĤÙī":4547,"Ø¹ÙĨØ¯ÙħØ§":4548,"ĠØ§ÙĦØŃÙĤÙĬÙĤÙĬ":4549,"Ø¬ÙħØ§Øª":4550,"ĠÙĪÙħÙĨÙĩØ§":4551,"ĠØ§ÙĦØ²ÙĬ":4552,"ĠÙħØŃÙĦ":4553,"ĠÙģÙĪØ²":4554,"Ø«ÙħØ§ÙĨ":4555,"ĠØªØ£ØªÙĬ":4556,"ÙĬÙĩØ§":4557,"ĠØ¬ÙħØ¹ÙĬØ©":4558,"ĠØ´Ø±Ùĥ":4559,"ĠØºØ±Ø¨":4560,"ÙĪØ±ÙĩØ§":4561,"ĠØ§ÙĦÙĥØ§ØªØ¨":4562,"ĠØ§ÙĦÙħÙĤØ§ÙĪÙħØ©":4563,"ĠØ§ÙĦÙħØ«Ø§ÙĦ":4564,"Ġï´":4565,"ĠØ§ØªØ®Ø§Ø°":4566,"ĠØµÙĦØ§Ø©":4567,"ĠØ¶Ø±Ø¨":4568,"ĠØ§ÙĦÙģØ³Ø§Ø¯":4569,"Ø§Ø³ÙĦ":4570,"ĠØ¥Ø¹ÙĦØ§ÙĨ":4571,"56":4572,"ĠÙħØ¬Ø§ÙĨØ§":4573,"ĠØ§ÙĦØ§Ø³ØªØ«ÙħØ§Ø±":4574,"Ø§ÙģÙĤØ©":4575,"ĠÙĪØ¨Ø§ÙĦ":4576,"ÙħØ§Ø±":4577,"ĠÙħØŃÙĥÙħØ©":4578,"ÙĪÙĤØ©":4579,"ĠÙħØŃØª":4580,"ĠØ§ÙĦØ³Ø¤Ø§ÙĦ":4581,"ĠØ¨Ø§Ø¹ØªØ¨Ø§Ø±":4582,"Ø®ÙĦØ§ÙĤ":4583,"ĠØ§ÙĦØ¬ÙĪÙĦØ©":4584,"ÙĨØªÙĬÙĨ":4585,"ĠÙĬØ¨ÙĦØº":4586,"Ø§ÙĦØªØ²Ø§Ùħ":4587,"Ø§ÙĥÙħØ©":4588,"ĠØ§ÙĦØ¥Ø¬Ø±Ø§Ø¡Ø§Øª":4589,"ÙĨØ¯ÙĨ":4590,"Ø§ØªÙĥ":4591,"Ġ}":4592,"47":4593,"ĠØ§ÙĦØ£Ø´ÙĬØ§Ø¡":4594,"ØŃÙĬØ§ÙĨØ§":4595,"Ġ08":4596,"of":4597,"ĠÙħØ¬ÙĦØ©":4598,"Ø§ÙĬØ¯":4599,"ĠØ¨Ø§ÙĦØ¨":4600,"Ø·Ùħ":4601,"ĠØŃØ²":4602,"Ø´ÙĥØ±Ø§":4603,"ØªØ§ÙĨ":4604,"Ø®ÙĦÙĤ":4605,"ÙĪØ§Ø±Ø¹":4606,"ÙĪÙĦÙħ":4607,"ĠØ¨ÙħÙĨØ§Ø³Ø¨Ø©":4608,"ĠÙĤØ§Ø¹Ø¯Ø©":4609,"ĠÙĨÙģØ³ÙĬ":4610,"ÙĪØ§ÙĤØ¹":4611,"ĠØ§ÙĦØ¬ÙĨÙĪØ¨ÙĬØ©":4612,"ĠØ£Ø±Ø¨Ø¹":4613,"ĠØ³ÙĬØ§Ø±Ø§Øª":4614,"ÙĦÙĤÙī":4615,"Ø¬ÙĩØ§Ø²":4616,"ĠØ§ÙĦÙħØ³ÙĬØŃ":4617,"ĠØ§ÙĦØŃØ§ÙĦØ§Øª":4618,"ĠØ§ÙĦØ§Ùĥ":4619,"ĠØ§ÙĦØ¬ÙĨØ³ÙĬØ©":4620,"ĠØ§ÙĦØ£Ø±Ø§Ø¶ÙĬ":4621,"ĠØ§ÙĦØ¥ÙĬØ±Ø§ÙĨÙĬ":4622,"ĠØ§Ø¹ØªØ¨Ø§Ø±":4623,"ĠØ§ÙĦØ£Ø¹":4624,"ĠØ¨ØªØµ":4625,"Ø²ÙĬØ§Ø¯Ø©":4626,"ĠØ§ÙĦØŃØ§Ø¬Ø©":4627,"ĠØ§ÙĦØŃÙĬ":4628,"ĠØ°Ø§ØªÙĩ":4629,"ĠÙĪÙĬØªÙħ":4630,"ĠØ§ÙĦÙħØ´Ø§Ø±ÙĬØ¹":4631,"ĠØ§ØŃÙħØ¯":4632,"ĠØ§ÙĦØ¹Ø¯Ø¯":4633,"Ø±Ø¬Ø§ÙĦ":4634,"ĠÙħÙĦØ§ÙĬÙĬÙĨ":4635,"ĠØ§ÙĦØ£Ø³Ø±":4636,"Ø¨ØŃØ§Ø«":4637,"Ø®ÙĬ":4638,"ĠÙĪØªØª":4639,"ĠØ§ÙĦØªØºÙĬÙĬØ±":4640,"ĠØ¨Ø¹Ø¶ÙĩØ§":4641,"ĠØ§ÙĦØµØŃÙĬØŃ":4642,"ĠØ¹ØµØ±":4643,"ĠÙĥÙĦØ§":4644,"ĠØ§ÙĦÙħØŃØ§ÙģØ¸":4645,"ĠØ£Ø´Ø®Ø§Øµ":4646,"ĠÙĥÙĨØ§":4647,"Ø·ÙĦØ¨Ø§Øª":4648,"ĠØ§ÙĦÙħØ¯ÙĨÙĬØ©":4649,"46":4650,"ĠØ¨ÙĨÙģØ³Ùĥ":4651,"ĠØ¬Ø§Ùħ":4652,"ĠØ§ÙĦÙĪØ§ØŃØ¯":4653,"Ø§ÙĨØ³":4654,"49":4655,"ĠÙĪØªØµ":4656,"ĠØ§ÙĦÙĪØŃØ¯Ø©":4657,"Ø¬Ø§Ø±Ø©":4658,"ĠØ§ÙĦØ¨Ø§Ø±":4659,"ĠØªØµØ±ÙĬØŃØ§Øª":4660,"ĠØ§ÙĦØºØ±ÙģØ©":4661,"ĠØªØ±Ùī":4662,"ĠØ·ÙĪØ§ÙĦ":4663,"ĠØ§ÙĦÙĦØº":4664,"ÙĳÙĭ":4665,"ĠØ§ÙĦØ±Ùĥ":4666,"ĠØ¥ÙĤØ§ÙħØ©":4667,"ĠÙ¡Ù":4668,"ĠÙħÙħØ§Ø±Ø³Ø©":4669,"ĠØ£ÙģØ±ÙĬÙĤÙĬØ§":4670,"ÙĤØ§ÙħØ©":4671,"ĠØ§ÙĦÙħØªÙĪØ³Ø·":4672,"ĠØ§ÙĦØ¥Ø³Ø¨":4673,"ĠØ§ÙĦÙħÙĪØ§ÙģÙĤ":4674,"ĠÙħÙĨØ²ÙĦ":4675,"Ø¨ÙĪØ¹":4676,"Ø´ÙĤ":4677,"ĠØªÙħØ«ÙĦ":4678,"ĠØ¨ØŃØ§Ø¬Ø©":4679,"ĠØ§Ø³ØªÙħØ±Ø§Ø±":4680,"ÙĦÙĬØ´":4681,"Ø±Ø¨ÙĬÙĨ":4682,"Ø§Ø¯Ø±Ø§Øª":4683,"ÙĨØ¯ÙĬØ©":4684,"Ø§ÙĦØ³ÙĦØ§Ùħ":4685,"ĠØ§ÙĦÙħØªØŃØ¯Ø«":4686,"ur":4687,"ĠØ¨Ø§ÙĦÙĦØºØ©":4688,"ĠØ§ÙĦØ¬ÙĨÙĪØ¨":4689,"Ø±ÙĤØ§Ùħ":4690,"ĠÙĥÙĦÙħØ§Øª":4691,"ĠØªÙħÙĥÙĨ":4692,"ĠÙħÙĪØ³Ùī":4693,"ĠÙħØ¹Ø±ÙĪÙģ":4694,"ĠØ§ÙĦÙħØ¤ÙħÙĨÙĬÙĨ":4695,"Ø¬Ø²Ø§Ø¡":4696,"ĠÙĪØ¢ÙĦÙĩ":4697,"Ø·ÙĦÙĤØª":4698,"ĠØªØ¬Ø§ÙĪØ²":4699,"ĠU":4700,"04":4701,"ĠØ«Ø§ÙĨÙĬØ©":4702,"Ø§Ø¬Ø¯":4703,"ÙĥÙĨØ¯Ø±ÙĬØ©":4704,"Ø§ÙĦØ®":4705,"Ø§Ø²ÙĨ":4706,"Ø³Ø§Ø³":4707,"ÙģØ°":4708,"03":4709,"ĠÙħÙĪØ¬ÙĪØ¯":4710,"ĠÙĦØºØ©":4711,"ĠØ£ØŃØ¨":4712,"02":4713,"ĠØ§ÙĦØ£Ùĥ":4714,"ĠÙĥÙģ":4715,"ĠØ£ØŃØ¯Ø«":4716,"ĠØ§ÙĦÙģÙĪØ²":4717,"ĠÙĬØŃØ¨":4718,"ÙİØĮ":4719,"ĠØ§ÙĦØ§ÙĪÙĦÙī":4720,"ĠØ£Ø¬Ø±":4721,"ĠØ£Ø¹ÙĦÙĨØª":4722,"ĠÙħØ¤ÙĥØ¯Ø§":4723,"ÙĪØ¯Ùĩ":4724,"ĠÙħØªÙħ":4725,"ĠØ§ÙĦÙĥÙĩØ±Ø¨Ø§Ø¡":4726,"ĠØ§ÙĦØ³Ø¹Ø±":4727,"ÙĪØµÙĪÙĦ":4728,"ĠØ§ÙĦÙĤØ¶Ø§ÙĬØ§":4729,"ĠØ§ÙĦØ·Ø¨ÙĬØ¨":4730,"ĠÙħØ¯Ø±Ø³Ø©":4731,"ĠØ§ÙĦÙĨØ¸":4732,"Ø§Ø¹ÙĬÙĦ":4733,"ĠØ§ÙĦØ¸Ø±ÙĪÙģ":4734,"ĠÙĤØ§Ø¦Ø¯":4735,"ĠØ¥ÙħÙĥØ§ÙĨÙĬØ©":4736,"58":4737,"ØŃÙĬØ§ÙĨ":4738,"ĠØ¨Ø¶":4739,"ĠØ§ÙĦØ²ÙĬØª":4740,"//":4741,"ĠØ¨Ø§Ø±ÙĬØ³":4742,"ĠØ§ÙĦÙģÙĦØ³Ø·ÙĬÙĨÙĬÙĬÙĨ":4743,"Ø´Ø±ÙĥØ©":4744,"ĠÙħØ·Ø§Ø±":4745,"ĠØ¶ØºØ·":4746,"ØŃØ§ÙĬØ§":4747,"ĠØ§ÙĦÙħØ°Ùĥ":4748,"ĠØ·ÙģÙĦ":4749,"ĠØ§ÙĦØªØ´ØºÙĬÙĦ":4750,"Ø¦ÙĪÙĦ":4751,"ĠØ§ÙĦØ¯ÙĤÙĬÙĤØ©":4752,"ĠØ§ÙĦØ³ÙĥØ§ÙĨ":4753,"ĠØ§ÙĦÙħØºØ±Ø¨ÙĬ":4754,"ĠØ§ÙĦÙĦØ¨ÙĨØ§ÙĨÙĬØ©":4755,"ĠØ¬ÙĬ":4756,"ĠØ§ÙĦØ±Ùħ":4757,"ĠØªØŃØ³ÙĬÙĨ":4758,"ĠÙĪÙħØ¤":4759,"ĠÙĪÙħØ´":4760,"ĠÙĪØ³ÙĦ":4761,"ĠØ§ÙĦØ°Ùĩ":4762,"Ø§ÙĥØ©":4763,"ĠÙĤØ¶Ø§ÙĬØ§":4764,"Ø§Ø¬ÙĦ":4765,"ĠØ§ÙĦØ£Ø³Ø±Ø©":4766,"ĠØ¹Ø³ÙĥØ±ÙĬØ©":4767,"ÙĦÙģØ²ÙĬÙĪÙĨ":4768,"ĠØ§ÙĦØ±Ø§Ø¨Ø¹Ø©":4769,"ĠØªØ³Ø¨Ø¨":4770,"Ø£ÙĨØª":4771,"ĠÙĪÙĦØ°ÙĦÙĥ":4772,"Ø´ÙĬØ®":4773,"ĠÙĪØµÙĦØª":4774,"ĠØ§ÙĦØŃÙģØ§Ø¸":4775,"Ø´Ø±Ø§Ùģ":4776,"ĠØ¨Ø³ÙĩÙĪÙĦØ©":4777,"ĠÙĦÙĦØ¬ÙħÙĬØ¹":4778,"Ø§ÙĬÙĦ":4779,"ĠØ§ÙĦØ¢ÙĬØ©":4780,"Ø¬ÙħÙĬÙĦ":4781,"ĠÙĪÙĬØ¯":4782,"Ø°Ùī":4783,"Ø§ÙĦØªÙĩ":4784,"ĠØ§ÙĦØ¥ØµØ§Ø¨Ø©":4785,"ØªØ±ØŃ":4786,"Ø°Ø§Øª":4787,"ĠØ§ÙĦØŃØ³ÙĨ":4788,"ĠØ§ÙĦÙħØŃÙħ":4789,"ĠØ£ØµÙĦ":4790,"ĠÙĨØ·Ø§ÙĤ":4791,"ĠÙħÙĬØ§Ùĩ":4792,"ĠÙĪØ§Ø¶ØŃ":4793,"ĠØµÙĬ":4794,"ÙĥÙĦØ§Øª":4795,"ÙĬÙĥÙĬØ©":4796,"ĠØªÙĪØ§Ø¬Ùĩ":4797,"Ø§ØŃÙĬ":4798,"ĠØ§ÙĦØ±Ø¦":4799,"ÙħØ±Ø§Ø¡":4800,"ĠÙĤØ¶":4801,"ĠØ§ÙĦØ´Ø¹Ø¨ÙĬ":4802,"ÙĬÙĤØ§Ùģ":4803,"ĠØªØ¬ÙħØ¹":4804,".[":4805,"ĠÙħØªØ¹Ø¯Ø¯Ø©":4806,"ĠØ§ÙĩØªÙħØ§Ùħ":4807,"ØªØŃÙħÙĬÙĦ":4808,"ĠØ´Ø¯ÙĬØ¯":4809,"ÙĩÙĦÙĥ":4810,"ÙĩÙĦØ§":4811,"ÙĪØ³Ø¹":4812,"ĠÙħÙĨØªØ®Ø¨":4813,"ÙħÙĬØ±":4814,"Ø¬Ø§":4815,"ÙĬØ¬Ø§":4816,"ĠÙĤÙĦÙĬÙĦØ§":4817,"ÙĪØŃØ§Øª":4818,"Ø±ÙĬÙĤÙĬØ©":4819,"ĠÙĬØ³ÙħØŃ":4820,"ĠÙģÙħ":4821,"ÙĬÙħÙĬÙĨ":4822,"ĠØ±ØŃÙħÙĩ":4823,"ĠØ§ÙĦÙĨØ´Ø§Ø·":4824,"ÙģÙĪØ±":4825,"ĠÙħØ¨Ø§Ø±ÙĬØ§Øª":4826,"ĠÙĬØµØ¨ØŃ":4827,"ĠØ¥Ø®":4828,"ÙĪØ³Ø·Ø©":4829,"ĠØ´Ø§Ø±Ùĥ":4830,"ĠØ§ÙĦØ£Ø¹Ø¶Ø§Ø¡":4831,"ĠØ§ÙĦÙħØ·ÙĦÙĪØ¨":4832,"Ø§Ø¨ÙĬØ¹":4833,"ĠØ£ÙĦÙħØ§ÙĨÙĬØ§":4834,"Ø£ÙĪ":4835,"ab":4836,"ĠÙĦÙĬÙĨ":4837,"ĠÙĪØ§ÙĦÙħØ³Øª":4838,"ĠØªØ¯Ø§ÙĪÙĦ":4839,"ÙĤÙģ":4840,"ØµÙĦÙī":4841,"ĠØŃØ¶Ø±":4842,"Ø¬ÙĦÙĬØ²ÙĬ":4843,"Ø·ÙĦØ§Ø¨":4844,"ØµØ±ÙĬ":4845,"ĠØ§ÙĦÙħÙĪØ§Ø·ÙĨ":4846,"Ø§Ø±ÙĤØ©":4847,"ĠÙĬØ¤ÙĥØ¯":4848,"ĠØ¯Ø§Ø¦Ø±Ø©":4849,"ĠØ§ÙĦÙħØ³Ø±":4850,"Ġ60":4851,"ĠØ§ÙĦØ£ÙħØ±Ø§Ø¶":4852,"ĠØ¨Ø£ÙĬ":4853,"Ġ%":4854,"Ø¬ÙĬØ¹":4855,"ĠØ¹Ø¨Ø¯Ø§ÙĦØ¹":4856,"ĠÙĦÙĦØ®":4857,"ÙĥÙĪØ±":4858,"ĠØ§ÙĦØªØ±Ø¨":4859,"Ø§Ø±ÙĬÙĨ":4860,"Ø°ÙĬØ¨":4861,"ĠØ¥Ùħ":4862,"ĠØ§ÙĦØ±Ø£ÙĬ":4863,"ĠØ¥Ø¹Ø¯Ø§Ø¯":4864,"ĠÙĪØ¸Ø§Ø¦Ùģ":4865,"ĠÙĨØ¸Ø±Ø§":4866,"ĠÙħØªØŃ":4867,"ĠØ§ÙĦÙĨÙĩØ§ÙĬØ©":4868,"Ø«Ø¨ÙĬØª":4869,"ÙĬÙĪØ§ÙĨ":4870,"ĠØ¬Ø§Ø¡Øª":4871,"ĠØ³ÙĦÙħ":4872,"Ø°Ø§Ø¨":4873,"ĠØ¨ÙĥØ±":4874,"ĠØ§ÙĦÙħÙĨØ§Ø³Ø¨":4875,"Ø§Ø¦Ùĥ":4876,"Ø§Ø¯Ø§":4877,"ĠÙģØ±ÙĤ":4878,"ĠØ§Ø¨ÙĪ":4879,"ĠØ§Ø®ØªØ¨Ø§Ø±":4880,"Ø±Ø¨Ø·":4881,"ĠØ£Ø¯Ùī":4882,"ĠØ§ÙĦØ£ÙģØ¶ÙĦ":4883,"44":4884,"ÙĪÙĦÙĨ":4885,"Ø§Ø¦Øµ":4886,"Ø§Ø¶Ø©":4887,"ÙģÙĬØ°ÙĬ":4888,"ĠØ±Ø£ÙĬ":4889,"ÙĪØ§ÙĨÙĬ":4890,"ĠØ¥Ø±":4891,"Ø¹ÙĪØ¨Ø©":4892,"ÙĩÙĬØ¦Ø©":4893,"ĠÙĬÙģØ¹ÙĦ":4894,"ĠØ§ÙĦÙĪØ§ÙĤ":4895,"ÙĨØ§Ø¦ÙĬ":4896,"ĠÙģÙĪØ±":4897,"ĠØ¹Ø§Ø´":4898,"ĠØ¬Ø§Ùĩ":4899,"ĠØ¨ÙĬÙĨÙĩÙħØ§":4900,"57":4901,"ØŃÙĬØ«":4902,"ĠØªØ¹ÙĪØ¯":4903,"ĠÙĪØ§Ø¶ØŃØ©":4904,"ĠÙĬØ´Ø¹Ø±":4905,"ØµØ¯ÙĤØ§Ø¡":4906,"Ø¯Ø±Ø¬Ø©":4907,"ÙĨÙĩØ§":4908,"ĠØ§ÙĦØ¯Ø³ØªÙĪØ±":4909,"ØºØ·ÙĬØ©":4910,"ĠØ§ÙĦÙħØµØ±":4911,"ĠØ§ÙĦØ¨Ø±ÙĬØ¯":4912,"Ø§ØªÙĦ":4913,"ec":4914,"ĠÙģÙĤ":4915,"ĠØªÙĪÙĤØ¹":4916,"ÙĢÙĢÙĢÙĢÙĢÙĢÙĢÙĢÙĢÙĢÙĢÙĢÙĢÙĢÙĢÙĢ":4917,"ĠÙĪØ§ÙĦØ§Ø¬ØªÙħØ§Ø¹":4918,"ĠÙĥØªØ¨Øª":4919,"ĠØ®ÙĦØ§Ùģ":4920,"ĠØ§ØŃØªØ¬":4921,"Ø²Ø§Ø¡":4922,"ĠØ§ÙĦÙĨÙĩØ§Ø¦ÙĬ":4923,"ĠØ£ÙħÙĦ":4924,"ĠÙĦÙĨÙģØ³":4925,"ĠÙħÙĦÙģØ§Øª":4926,"ĠØ¬Ø³Ùħ":4927,"ÙįØĮ":4928,"ĠÙħØ¯Ø§Ø±":4929,"ĠØ§ÙĦØ¬ÙĨØ©":4930,"ĠØ£Ø·ÙģØ§ÙĦ":4931,"Ø±ÙĬÙĤÙĬ":4932,"ĠØ§ÙĦÙħØ§ÙĦÙĬ":4933,"Ø§Ø¦ÙĨØ§":4934,"ĠØµØ¯ÙĬÙĤ":4935,"Ø±Ø®":4936,"59":4937,"Ġ))":4938,"ĠÙģØ¹Ø§ÙĦÙĬØ§Øª":4939,"ĠØ§ÙĦØ±ÙĪØŃ":4940,"ĠØªÙħØª":4941,"Ø´Ø±Øª":4942,"Ø¶ÙĬØ±":4943,"ÙĪÙĬÙħ":4944,"ĠÙĦÙĪÙĨ":4945,"ĠÙĪØªÙģ":4946,"ĠØ²ÙĬØª":4947,"Ø«ÙĤØ§ÙģØ©":4948,"ĠÙĪØ£ÙĨÙĩ":4949,"ïº®":4950,"ĠØ§ÙĦØµÙĨØ§Ø¹ÙĬØ©":4951,"ĠØ£Ø¨Ø¯Ø§":4952,"ĠØ£Ùī":4953,"ĠØ§ÙĦØ¨ØŃØ±ÙĬÙĨ":4954,"ĠØ§ÙĦÙħÙģØ±":4955,"ØªÙħØª":4956,"ĠØ§ÙĦØ¨Ø®":4957,"ĠÙĪÙĬØ³Øª":4958,"ĠØ§ÙĦØ³ÙĥØ±":4959,"ĠØ¥ÙĬ":4960,"ĠØ³ÙĬØª":4961,"ÙĤÙĦØ¨":4962,"ĠØ§Ø³ØªØ®Ø¯Ùħ":4963,"ĠØ§ÙĦØ¥Ø¹ÙĦØ§ÙĨ":4964,"ĠÙħØ´Ø§Ø±ÙĬØ¹":4965,"ĠØªØŃÙĪÙĦ":4966,"ĠØ§ÙĦØªØŃØ±ÙĬØ±":4967,"ĠØ°ÙĪ":4968,"ĠÙĪØ§ÙĦØ§Øª":4969,"ĠÙģØ¹ÙĦØ§":4970,"ĠØ§ÙĦÙĤØ±Ø§Ø¡Ø©":4971,"Ø·Ø¹ÙħØ©":4972,"Ø«Ø§ÙĦ":4973,"ĠØ´Ø®ØµØ§":4974,"ĠØ¹Ø±Ø¨":4975,"ĠÙĤÙĦØª":4976,"ĠØªØ´Ø±ÙĬÙĨ":4977,"ĠÙĦØªØ±":4978,"ĠØ£Ø´Ø§Ø±":4979,"ĠØ§ÙĦØ§ÙĩØªÙħØ§Ùħ":4980,"ĠÙĦØµØ§ÙĦØŃ":4981,"un":4982,".âĢı":4983,"ĠØªÙĪØ²ÙĬØ¹":4984,"ĠØ¨Ø¹ÙĬØ¯Ø§":4985,"ĠØ§ÙĦØ´Ø§Ø±Ø¹":4986,"ĠÙħØªØ¹":4987,"Ø¯Ø±Ø¬":4988,"ØµÙģØŃ":4989,"\\\\":4990,"ïºĶ":4991,"ĠØ§ÙĦØµÙĬÙģ":4992,"ĠØ§ÙĦØ¹Ø§ÙħÙĦÙĬÙĨ":4993,"ĠÙĪØ§ÙĤØ¹":4994,"ÙĥÙĦÙģ":4995,"Ø´Ø§ÙĩØ¯":4996,"ĠØ§ÙĨØªØ´Ø§Ø±":4997,"ĠØ§ÙĦÙħØ®ØªØµ":4998,"ĠØ§ÙĦÙĦØ§Ø¬Ø¦ÙĬÙĨ":4999,"ĠØ§ÙĦÙħØªÙĨ":5000,"ĠÙĦØ¨Ø¹Ø¶":5001,"ĠØ§ÙĦØ³ÙĬØ·Ø±Ø©":5002,"ÙĤÙĦØ§Ø¨":5003,"em":5004,"Ø§Ø·Ø¦":5005,"ĠØ§ÙĦØªÙĤÙĨÙĬØ©":5006,"ÙĪØ°ÙĥØ±":5007,"ĠÙħØ³Ø¨":5008,"ĠØ¨ÙĬØ±ÙĪØª":5009,"ĠØ§ÙĦÙħØªØŃ":5010,"ĠØ§ÙĦØ¨Ø´Ø±Ø©":5011,"ĠØ§ÙĦÙĥÙĦÙħØ§Øª":5012,"ĠÙĦØ®":5013,"ĠÙĤÙĦÙĬÙĦ":5014,"ÙĪØ¯ÙĬ":5015,"ĠØ£Ø¹Ø¯":5016,"ÙħÙĥÙĨ":5017,"ĠØ§ÙĦØªÙģÙĥÙĬØ±":5018,"ÙĪØŃÙĬØ¯":5019,"ĠØ§ÙĦØ¥ÙĬØ·":5020,"Ø§ÙĬÙĬØ±":5021,"ĠØ§ÙĦØ±ÙĬØ§Ø¶Ø©":5022,"ĠØ§ÙĦÙħÙĩÙħØ©":5023,"ĠØ¥Ø¬Ø±Ø§Ø¡Ø§Øª":5024,"ĠØ§ÙĦØªÙĤØ¯Ùħ":5025,"ĠØŁØŁ":5026,"ĠÙĥØªØ§Ø¨Ø©":5027,"ĠØ§ÙĦØ¹ÙħÙĦØ§Ø¡":5028,"ĠÙħØ³ØªÙĤØ¨ÙĦ":5029,"Ø§ÙĥØ±Ø©":5030,"ĠØ§ÙĦØ¶ÙĪØ¡":5031,"ĠÙĬØ¶":5032,"ĠØ§ÙĦÙħØ´ØªØ±Ùĥ":5033,"ĠØ§ÙĦÙħØ¹Ø±ÙģØ©":5034,"Ø¨ÙĬØ§ÙĨ":5035,"ÙģØ¹ÙĬÙĦ":5036,"ĠØ¢ÙĨ":5037,"Ø§Ø¯ÙĦØ©":5038,"ØºÙĦØ§ÙĤ":5039,"ÙĬØ³Ùī":5040,"Ø¸ÙĪÙħØ©":5041,"ĠØ§ÙĦÙĦØ§Ø¹Ø¨ÙĬÙĨ":5042,"Ġ'":5043,"ÙĨØ§Ø¹Ø©":5044,"ØªØ¨Ø§Ø·":5045,"ĠØ¨ÙĥÙħ":5046,"ĠÙĪÙĦÙĦ":5047,"ĠØ¯Ùĩ":5048,"ĠØ£Ø®Ø±":5049,"ĠØŃØ§Ø¯Ø«":5050,"ĠØ§ÙĦÙħØµØ§Ø¯Ø±":5051,"ĠÙģÙĩÙĦ":5052,"Ġd":5053,"ĠØ¬ÙĪØ¯Ø©":5054,"ĠÙĪØ£Ø³":5055,"ĠÙĨÙĨ":5056,"ĠÙħÙĬØ²":5057,"ĠØ´Ø§Ø±Ø¹":5058,"ĠØ£Ø³Øª":5059,"ĠØªØ²Ø§ÙĦ":5060,"ĠØ§ÙĦØ®Øµ":5061,"Ø§Ø¨ÙĬÙĨ":5062,"ĠØ§ÙĦØªØº":5063,"âĢĭ":5064,"54":5065,"ĠØ§ÙĦØ¨Ø·ÙĪÙĦØ©":5066,"ĠØ§ÙĦÙħÙĨØ§Ùģ":5067,"Ø§ØŃÙĩ":5068,"ĠØ§Ùĥ":5069,"ĠØ¨ÙĨÙĥ":5070,"ĠØ§ÙĦØ£ÙĥØ¨Ø±":5071,"ĠØ¨Ø®ØµÙĪØµ":5072,"ĠÙĬØ¬Ø¯":5073,"ĠÙĦØ£ÙĪÙĦ":5074,"ĠØ¶Ø¨Ø·":5075,"ĠÙħÙĥØ©":5076,"ĠØ°Ùĩ":5077,"ĠØ³Ø§ÙĨ":5078,"ĠØ¹Ø¨Ø¯Ø§ÙĦØ¹Ø²ÙĬØ²":5079,"ÙħØŃÙħØ¯":5080,"ĠØ§ÙĦÙħØªÙħ":5081,"Ø§Ø·Ø¹":5082,"ĠÙĪÙħØª":5083,"ĠÙĬØ¨Ø¯Ø£":5084,"ĠØ§ÙĦØ¹ØµØ±":5085,"ĠØ¨Ø±ÙĬØ·Ø§ÙĨÙĬØ§":5086,"ĠØ§ÙĦØ±ÙĤ":5087,"ĠØ·ÙĨ":5088,"ĠÙħØ¹ÙĬÙĨ":5089,"ØªÙģØ§ÙĦ":5090,"ĠØ®Ø·ÙĪØ©":5091,"ÙĪØ§Ø±ÙĬØ®":5092,"Ø·ÙĪÙĦ":5093,"ĠØ§ÙĦÙĩÙĦØ§ÙĦ":5094,"ÙĩØ±Ø§ÙĨ":5095,"ÙħÙĦÙĥØ©":5096,"ĠØ§ÙĦÙĨØ¨Ø§Øª":5097,"ĠÙĪØ§ÙĬ":5098,"ĠÙħØµØ·ÙģÙī":5099,"ØŃÙħØ©":5100,"ĠÙĥØ¨Ø§Ø±":5101,"ÙĪØ¨ÙĬÙĨ":5102,"ĠÙħØ¨Ø±":5103,"ÙĤØ¯ÙħØ©":5104,"ĠÙĥÙħÙĬØ©":5105,"ĠÙĬÙħÙĦÙĥ":5106,"ĠØ¹ÙĦÙħØ§Ø¡":5107,"ĠØ£ØŃØ¯Ø§Ø«":5108,"ĠØ§ÙĨÙģ":5109,"ĠØ¨Ø±Ø´ÙĦÙĪÙĨØ©":5110,"ĠØ§ÙĦØ³ÙħØ§Ø¡":5111,"ĠÙħØ¨Ø§Ø±Ùĥ":5112,"ĠØ§ÙĦØ°ÙĥÙĬØ©":5113,"Ù¢":5114,"ĠÙĨÙħÙĪØ°Ø¬":5115,"Ġf":5116,"ĠØªØŃØ¯ÙĬØ«":5117,"ÙĢÙĨ":5118,"Ø«ÙĬÙĦ":5119,"tp":5120,"ÙĦÙĪÙĦ":5121,"ĠÙħÙĨØ§Ø³Ø¨Ø©":5122,"ĠØ¨Ø¹Ø¯Ùħ":5123,"ÙħØ§ÙĦÙĥ":5124,"ĠÙģÙģÙĬ":5125,"ØªØŃØ§ÙĨ":5126,"ĠÙĦÙĬØª":5127,"ĠØ¢Ø³":5128,"ÙĬÙĨØ§Øª":5129,"Ø²Ùĩ":5130,"ĠØ§ÙĦÙħØ³Ø§Ø¹Ø¯Ø©":5131,"ĠØ§ÙĦØµØ¨Ø§ØŃ":5132,"ĠØ§ÙĦÙĦØ¨ÙĨØ§ÙĨÙĬ":5133,"ĠØ¹Ø±Ø¨ÙĬ":5134,"ĠØ¹ÙĨÙĩÙħ":5135,"ia":5136,"Ø¶Ø§Ø±":5137,"ĠØ´Ø±ÙĪØ·":5138,"ÙĬÙģÙĪÙĨ":5139,"ĠÙĨØ³Øª":5140,"ÙĪÙĬØ¬":5141,"Ø§ÙħÙĩ":5142,"ĠÙĪÙĩÙĦ":5143,"ĠØ¹ÙħØ§ÙĨ":5144,"ĠØ§ÙĦØªØŃÙĥÙħ":5145,"ÙģÙĬØ¶":5146,"ĠØ£ÙĬØ©":5147,"ĠØ¨Ø§ÙĦØº":5148,"ĠØ·ÙĦØ§Ø¨":5149,"Ø§Ø¨Ø·Ø©":5150,"ĠØ£ÙħØ§ÙĥÙĨ":5151,"ĠØ§ÙĦØ°ÙĥØ±":5152,"ĠØ§ÙĦØ£ÙĪØ±ÙĪØ¨ÙĬØ©":5153,"ĠØ§ÙĦØ£Ø³Ø¹Ø§Ø±":5154,"ĠÙħÙĦØ¹Ø¨":5155,"ÙĨØŃÙĨ":5156,"ĠØ§ÙĦØŃØ±ÙĬØ©":5157,"ĠØ§ÙĦÙħÙĦÙĥÙĬ":5158,"ĠØ§ÙĦØ¹Ø¯ÙĦ":5159,"Ø¹ÙĪØ¯ÙĬØ©":5160,"ĠÙĦØªØ´":5161,"Ø±Øµ":5162,"Ø¯ÙħÙĬØ±":5163,"ĠØ§ÙĦÙħÙĬÙĦ":5164,"ĠØªØ¹Ø¯ÙĬÙĦ":5165,"ØªÙĬØ©":5166,"ĠØ§ÙĦØ£ÙħÙĬÙĨ":5167,"ĠØ§ÙĦØ«ÙĤØ§ÙģÙĬ":5168,"Ø¹ÙĪØ¯Ø©":5169,"ĠØ§ÙĦÙĤØ¯ÙĬÙħ":5170,"ĠØ§ÙĦØ«ÙĤØ§ÙģÙĬØ©":5171,"ĠØ§ÙĦØ¥Ø¯Ø§Ø±ÙĬØ©":5172,"Ø§Ø¯ÙĩØ§":5173,"ĠÙĪÙĬÙĥ":5174,"ĠØ§ÙĦØ¹ÙħÙĦØ§Øª":5175,"ĠØ±ØŃÙĦØ©":5176,"ĠØ²ÙĪØ¬ÙĩØ§":5177,"Ø²ÙĬÙĦ":5178,"ĠÙĦØ³ÙĨØ©":5179,"ĠÙĪØ³ÙĪÙģ":5180,"ĠÙĨØ§ØŃÙĬØ©":5181,"ĠØ¥ÙĨÙħØ§":5182,"ĠØ§ÙĦÙĬÙĪÙħÙĬØ©":5183,"ĠÙĤØ±ÙĬØ©":5184,"ĠÙĪØ£Ø¶Ø§Ùģ":5185,"ĠØ¨Ø¹Ø¶ÙĩÙħ":5186,"ĠÙĪØ¹ÙĨØ¯ÙħØ§":5187,"ĠØ§ÙĦÙħÙĪØ§Ø±Ø¯":5188,"ÙĪØ§Ø¦ÙĬØ©":5189,"Ø²ÙħØ§Øª":5190,"ĠØºÙĬØ±Ùĩ":5191,"ÙĥØ±Ùħ":5192,"ĠØ§ÙĦÙĦØ¹Ø¨":5193,"ĠØ§ÙĦÙħØ¬Ø§ÙĦØ§Øª":5194,"ĠØ¨Ø§ÙĦÙĥØ§ÙħÙĦ":5195,"ĠØ¥Ø«":5196,"ĠÙĪÙĦÙĥÙĨÙĩØ§":5197,"ĠØ§ÙĦØªØ¹ÙĦÙĬÙĤ":5198,"ĠØ§ÙĦÙĤÙĪÙħÙĬ":5199,"ĠØ§ÙĦØ¬ÙĦØ¯":5200,"Ø¬ÙĬÙĨ":5201,"ĠØ§Ø³ØªØ¹Ø¯Ø§Ø¯":5202,"ĠØ³ÙĬØ§Ø³ÙĬ":5203,"ĠØ§ÙĦÙĨØ§Ø¦Ø¨":5204,"ĠØ§ÙĦØ´ÙĥÙĦ":5205,"ØªÙħØ§ÙĦ":5206,"ĠØ¨Ø§ÙĦØªØ¹Ø§ÙĪÙĨ":5207,"ĠÙĪØ¬Ø¯Øª":5208,"ĠØ§ÙĦÙĤØ§Ø¦Ùħ":5209,"ĠØªÙģØ³ÙĬØ±":5210,"ĠØ¨Ø§ÙĦØ®":5211,"Ø£ÙģØ¶ÙĦ":5212,"ĠØ±Ø´":5213,"ĠØµÙĨØ¯ÙĪÙĤ":5214,"ĠØªØ¶Ùħ":5215,"ĠØ§ÙĦØªØ¯Ø§ÙĪÙĦ":5216,"ĠÙĦÙĦÙħØŃ":5217,"ÙĦÙĬÙĪÙĨ":5218,"ÙĪØ¨Ø¹Ø¯":5219,"ĠØ§ÙĦØ§Ø³Ùħ":5220,"52":5221,"ĠÙĬØªØ±":5222,"ĠØ§ÙĦÙħÙĪÙĤÙģ":5223,"ĠØ§ÙĦØŃØ§Ø¯Ø«":5224,"Ø°ÙĥØ±Ø©":5225,"ØºÙĪØ·":5226,"ĠØ§ÙĦØ³Ø§Ø¨Ø¹":5227,"ĠØ§ÙĦØ§Ø¨ØªØ¯":5228,"ĠØ§ÙĦÙĬÙĩ":5229,"ĠÛ":5230,"Ø´Ùĥ":5231,"ÙģÙĬØ±":5232,"ĠØ§ØªØŃØ§Ø¯":5233,"ĠØ¨Ø³ÙĬØ·Ø©":5234,"ĠØ§ÙĦØ«ÙĦØ§Ø«Ø©":5235,"ĠØ¬ÙĪØ¬ÙĦ":5236,"ĠØ§ÙĦÙĪØ¬":5237,"ĠÙĩÙĥØ°Ø§":5238,"ĠØ§ÙĦØ¯Ø§Ø®ÙĦÙĬ":5239,"ĠØ§ÙĦÙħØªÙĩÙħ":5240,"ĠØ§ÙĦØ¯Ø±Ø§Ø³ÙĬ":5241,"ĠÙħØŃØ·Ø©":5242,"ĠØªØ¹Ø±ÙĬÙģ":5243,"ÙĪÙĬÙĪØ±Ùĥ":5244,"ØµÙģØŃØ©":5245,"ĠØªØ´ÙħÙĦ":5246,"ĠØ§ÙĦØ¯Ø¹ÙĪØ©":5247,"ĠØªØ´ÙĥÙĦ":5248,"ĠÙĨØ¸Ùħ":5249,"ĠÙĨØµØ±":5250,"ĠØ§ÙĦØ±Ø§Ø¦Ø¹":5251,"ĠØªØŃÙĤÙĤ":5252,"ĠÙĪØ§ÙĨØª":5253,"ĠØ§ÙĦØ£ÙħÙĪØ§ÙĦ":5254,"ĠØŃÙħØ§Ø³":5255,"ĠØ§ÙĦÙĨÙĪÙĪÙĬ":5256,"ĠØ§ÙĦØ£ØµÙĦÙĬØ©":5257,"ĠØ§ÙĦØµØ±Ø§Ø¹":5258,"Ø³Ø§Ø¦Ø±":5259,"Ø®Ø·Ø§Ø¡":5260,"ĠØ§ÙĦØªÙĨÙģÙĬØ°ÙĬ":5261,"ĠØªÙĪØ¬ÙĬÙĩ":5262,"ĠØ¹ÙħØ§":5263,"http":5264,"ĠØ¥Ø³Ùħ":5265,"ĠØ§ÙĦÙħØ³Ø§Ø¹Ø¯":5266,"ĠØ¯Ø§Ø¦Ùħ":5267,"ØªÙħÙĬ":5268,"ĠØ§ÙĦØ¹ÙĤØ¯":5269,"ÙĪÙĩØ°Ø§":5270,"ĠÙħÙĪÙĨ":5271,"ĠÙĬØ¬Ø±ÙĬ":5272,"ĠØ§Ø¨Ø±":5273,"Ø¹Ø±Ùģ":5274,"ĠÙģÙĪØ§Ø¦Ø¯":5275,"ÙĬØ¬Ø¨":5276,"Ø§Ø¯ØªÙĩ":5277,"ĠÙĬØ¨ØŃØ«":5278,"ÙħÙī":5279,"Ø«ÙħØ§Ø±Ø§Øª":5280,"ÙĦÙĤØ§Ø¡":5281,"ĠÙĪÙħØ¯":5282,"Ø¶ÙħØ§Ùħ":5283,"ĠØ¥ÙĦÙĩ":5284,"ĠØ£Ø³ÙħØ§Ø¡":5285,"ĠÙħØ±Ø§ÙĥØ²":5286,"ĠØ§ÙĦØ±Ø³Ø§ÙĦØ©":5287,"ĠØ§ÙĦØ¬Ø§ÙħØ¹Ø§Øª":5288,"ØŃÙĥ":5289,"ĠØ§ÙĦÙħØ±ÙĬØ¶":5290,"ØºØ§ÙĨ":5291,"ĠØ£Ø²ÙħØ©":5292,"ĠÙĤÙĦÙĬÙĦØ©":5293,"ĠÙĪØ§ÙĦØ¢":5294,"Ø§ÙĦØŃØ©":5295,"ĠØ§ÙĦØ´Ø§Ø¨":5296,"ĠØ§ÙĦØªØ¬Ø§Ø±ÙĬ":5297,"ĠØ§ÙĦÙħÙĩÙĨØ¯Ø³":5298,"ĠØ§Ø³ØªØ¹ÙħØ§ÙĦ":5299,"ĠÙĥØ§ÙĨÙĪÙĨ":5300,"ĠØ¹Ø³ÙĥØ±ÙĬ":5301,"ĠØ¹Ø§Ø¦ÙĦ":5302,"ĠØ§ÙĦÙħÙĪØ§Ø¶ÙĬØ¹":5303,"ÙĪÙĥØ§ÙĦØ©":5304,"Ø§ÙĦÙĬÙĪÙħ":5305,"Ø¹Ø¯ÙĬØ¯":5306,"ĠØ§ÙĦÙĦÙĪØ§Ø¡":5307,"Ø´Ø±ÙĬ":5308,"ĠØ¨ØŃØ¶ÙĪØ±":5309,"ÙĪØ·ÙĨ":5310,"ĠØ¯Ø§":5311,"ĠØ§ÙĦØ¨ØŃØ±ÙĬØ©":5312,"ĠØ§ÙĦÙĨØ§Øª":5313,"ĠØ§Ø³ØªÙħØ±":5314,"ĠØ¥Ø³ÙĦØ§Ùħ":5315,"ĠÙĦÙĦØªØ³Ø¬ÙĬÙĦ":5316,"ÙħØ§Ùĩ":5317,"ĠØ¸Ø±ÙĪÙģ":5318,"ÙĢØ±":5319,"ĠØ¨Ø§ÙĦÙħØ¦Ø©":5320,"ĠØ§ÙĨÙĥ":5321,"ÙĪÙĥØ³":5322,"ØªÙĬØ§Øª":5323,"ĠØªÙĤØ¯":5324,"ĠÙĪØ§ÙĦØ²":5325,"ĠÙĪÙĪØ¶Ø¹":5326,"ĠØ¶Ø¹Ùģ":5327,"ĠØ§ÙĦØ£Ø³Ø¨Ø§Ø¨":5328,"ĠØ§ÙĦØ«ÙĤØ©":5329,"ï»Łïº":5330,"ĠØ§ÙĨØªÙĩØ§Ø¡":5331,"53":5332,"ĠÙĪØ±Ø¨ÙħØ§":5333,"ĠÙĪØ§ÙĦÙħØ¯":5334,"Ø¤ÙĥØ¯":5335,"ĠÙĤØ¯Ø±Ø©":5336,"ĠØ§ÙĦØªØ§Ø±ÙĬØ®ÙĬØ©":5337,"Ġc":5338,"ĠØ§ÙĦÙħØªØ·":5339,"ÙĪÙĨØ³ÙĬ":5340,"ÙĦØ§ÙħØ§Øª":5341,"ĠÙħØªØ§Ø¨Ø¹Ø©":5342,"Ø¯Ø±ÙĬØ¨":5343,"ĠÙħÙĨØ´":5344,"ĠÙĨÙĩØ§Ø¦ÙĬ":5345,"ÙĤØµÙī":5346,"41":5347,"://":5348,"Ø´Ø±ØŃ":5349,"ĠÙĬØŃØ§ÙĪÙĦ":5350,".\"":5351,"ĠØ§ÙĦÙħØ±Ø©":5352,"ĠØ§ÙĦØ¨ÙĬØ¶Ø§Ø¡":5353,"ĠÙĪØ¹ÙħÙĦ":5354,"ĠØ°ÙĪÙĬ":5355,"ĠØ§ÙĦØ®Ø±ÙĪØ¬":5356,"ĠØ§ÙĦØ¥Ø¹":5357,"ĠØ§ÙĦØŃÙħØ¯":5358,"Ø§Ø±Ùī":5359,"ÙĪÙģÙĤ":5360,"ĠØ¬Ø§Ø¦Ø²Ø©":5361,"ĠÙħÙĪÙĦ":5362,"42":5363,"ÙĪØ¯ÙĬØ©":5364,"ĠØ§ÙĦØ³ÙĬØ§ØŃØ©":5365,"ĠØ¨ÙĦØºØª":5366,"ĠÙģÙĥØ±":5367,"ĠØ¨ÙĦØ§Ø¯Ùĩ":5368,"ØªØŃØ§ÙĨØ§Øª":5369,"ĠØ¥Ø«Ø±":5370,"ĠØ§ÙĦØ§Ø³ÙĦØ§ÙħÙĬØ©":5371,"Ø±ÙģÙĬØ©":5372,"ĠÙħØµØ§ÙĦØŃ":5373,"ØµÙĪØ±Ø©":5374,"ĠÙģØ§Ø¹":5375,"ĠÙĦÙĦØ§Øª":5376,"ĠÙĪØ§ÙĦØ¬Ùħ":5377,"Ø¨Ø±ÙĬ":5378,"ĠØ§ÙĦØ£Ø³ÙĪØ§ÙĤ":5379,"ĠØ§ÙĦØ§ØªØµØ§ÙĦØ§Øª":5380,"ÙĩØ¬":5381,"Ø´Ø¹":5382,"ÙĪÙĩÙĪ":5383,"ĠØ´Ø¨Ùĩ":5384,"ĠÙĨÙĪÙħ":5385,"ÙĬØ±ÙĪØ³":5386,"ĠØ§ÙĦØºÙĬØ±":5387,"ĠX":5388,"ĠÙĪÙģØ§Ø©":5389,"ĠØ§ÙĦØ³ÙĬØ³ÙĬ":5390,"ĠÙħØ³ØªØ®Ø¯Ùħ":5391,"ĠØ¢Ø®Ø±ÙĬÙĨ":5392,"ĠØ§ÙĦÙħÙĤØ±Ø±":5393,"ĠØ§ÙĦØ«Ø§ÙĨÙĪÙĬØ©":5394,"43":5395,"ĠØºÙĬØ§Ø¨":5396,"ÙĦÙĬÙĦØ©":5397,"ĠØ§ÙĦÙĥØ´Ùģ":5398,"ÙĪØ±Ø¬":5399,"ĠØ¬ÙĦØ³Ø©":5400,"ØªÙħØªØ¹":5401,"ĠÙĥØ±ÙĬÙħ":5402,",,":5403,"ĠØªØŃØµÙĦ":5404,"ĠØ§ÙĦÙħÙĦÙĥÙĬØ©":5405,"ĠÙħÙħÙĬØ²":5406,"ĠØ°ÙĩØ¨":5407,"ĠÙħÙĨØªØµÙģ":5408,"im":5409,"ĠØ¨Ø§Ùĥ":5410,"ĠØ¹ÙħÙĦÙĩ":5411,"Ø¹ÙĦÙĬÙĩ":5412,"ĠÙħØ¬Ø§ÙĦØ§Øª":5413,"Ø¬Ø±Ùī":5414,"ent":5415,"ÙĬÙĪÙĬØ©":5416,"ĠØ§ÙĦÙħÙĪØ¬ÙĪØ¯":5417,"ĠÙĦØŃØ¸Ø©":5418,"ĠØ³ØªØ©":5419,"ðŁ":5420,"Ø£Ø¹ÙĦÙĨØª":5421,"ĠÙħØ·Ø§ÙĦØ¨":5422,"Ø¥ÙĦÙī":5423,"ĠØ¨Ø§Ø®":5424,"ĠØµÙģÙĪÙģ":5425,"ĠØ§ÙĦØ¨Ø¹":5426,"ĠØ§ÙĦÙĤØ¨Ø¶":5427,"ĠØ§ÙĦØªØµÙħÙĬÙħ":5428,"ĠÙĬØªØŃØ¯Ø«":5429,"ĠØ§ÙĦÙģØ¹ÙĦ":5430,"ĠØªØµØ¨ØŃ":5431,"ĠÙĤÙĪØ§Ø¹Ø¯":5432,"ĠÙĤÙĦÙĪØ¨":5433,"ĠØ§ÙĦØ·Ø§Ø¦Ø±Ø©":5434,"ÙĤÙĬÙĨ":5435,"Ø·Ø§":5436,"Ø±Ø¬ÙĪ":5437,"Ø¯Ø±Ø§Ø³Ø§Øª":5438,"ĠÙĪØ±Ø¦ÙĬØ³":5439,"Ø¹Ø¯Ø§Ùħ":5440,"ĠK":5441,"ĠØ§ÙĦÙħØ´ØªØ±ÙĥØ©":5442,"ØµÙĬØ¯":5443,"ĠØºÙĬØ±ÙĩØ§":5444,"ĠØªÙĪØ¬Ùĩ":5445,"ĠÙĨØ³Ø¨":5446,"51":5447,"and":5448,"ir":5449,"ĠØ³Ø·ØŃ":5450,"Ø¨ÙĪÙĥ":5451,"ĠØ¨Ø±Ø¬":5452,"Ø³ÙħØ¹":5453,"ĠØ§ÙĦØ³ÙĬØ±":5454,"ĠØªØ²ÙĬØ¯":5455,"ĠØ£Ø¨Ø·Ø§ÙĦ":5456,"ĠØªØ¨ØŃØ«":5457,"iv":5458,"ĠÙĪØªØ¹Ø§ÙĦÙī":5459,"ĠØ§ÙĥØ¨Ø±":5460,"ew":5461,"ĠÙĪØ§Ùģ":5462,"ĠØ§ÙĦØ¥Ø®ÙĪØ§ÙĨ":5463,"ĠØ¢Ø«Ø§Ø±":5464,"ĠØ³Ø±Ø¹Ø©":5465,"ĠÙģÙĥ":5466,"ĠØ§Ø¹Øª":5467,"ĠØªØ¹ÙĬØ´":5468,"Ø²Ø§ÙĬØ¯":5469,"ÙĬØ§ÙĦ":5470,"ĠÙĦÙĨØ¯ÙĨ":5471,"ĠÙĪØ§Øµ":5472,"ĠØ§ÙĦÙĩØ¬ÙĪÙħ":5473,"ĠØªÙĪØµ":5474,"ĠØŃÙĤØ§":5475,"ĠØ¥ØµØ¯Ø§Ø±":5476,"ĠØ§ÙĦÙĩÙĪØ§ØªÙģ":5477,"Ø¦Ùĥ":5478,"2017":5479,"ĠØ§ÙĦØ£Ø·Ø±Ø§Ùģ":5480,"ĠØµØ±":5481,"ĠØ§ÙĦØ§ÙĨØªØ®":5482,"ØĮØĮ":5483,"ØªØ¹Ø±Ùģ":5484,"Ø´Ø§Ø±Ø§Øª":5485,"ĠØ§Ø³ÙħÙĩ":5486,"ÙĬØ§ØªÙĩ":5487,"ĠØ§ÙĦØ¥ÙĬÙħØ§ÙĨ":5488,"Ø®ÙħØ©":5489,"ĠØªØ®Øµ":5490,"ÙĪÙħØ§ÙĨ":5491,"ĠØ³ÙĤÙĪØ·":5492,"ĠØªÙĤÙĨÙĬØ©":5493,"Ø³ØªÙĬØ±":5494,"ĠØ£Ø·ÙĦÙĤ":5495,"ÙĩÙĦØ§Ùĥ":5496,"ĠØ§ÙĦÙħÙĨØ²":5497,"ĠØ§ÙĨØ·ÙĦØ§ÙĤ":5498,"ØµÙĦØ§Ø©":5499,"ĠØ§ÙĦØ¨ÙĦØ¯Ø§ÙĨ":5500,"ĠØªØ¨ÙĤÙī":5501,"ØªØ§ÙħÙĬÙĨ":5502,"âĢ«":5503,"Ø¯Ø¯Ø§":5504,"Ø¨Ø¯Ø§Ø¹":5505,"ÙĤØ±Ø§Ø¡Ø©":5506,"ĠÙĦÙĦØ£Ø³":5507,"Ø¨Ø¹Ø§Ø¯":5508,"ĠØ§ÙĦÙħØªÙĪÙĤØ¹":5509,"ĠÙĬØ³ÙħÙī":5510,"ĠØ¯Ø±Ø¬Ø§Øª":5511,"ÙħØ«ÙĦ":5512,"ĠØ«Ø§Ø¨Øª":5513,"ĠÙĤØ±ÙĬØ¨":5514,"ĠØ¨ÙģØ¶ÙĦ":5515,"ÙĨØ³Ùī":5516,"ÙĨØ²":5517,"Ø¹ÙĦÙĬ":5518,"ĠÙĦÙħØ¹Ø§":5519,"ĠØ§ÙĦØªØŃØ¯":5520,"ÙĥØ§Ø¡":5521,"ØªØ¨Ø§Ùĩ":5522,"ĠÙĪØµØŃ":5523,"ĠÙħØ³ÙĦ":5524,"ĠÙĪØ¹Ø¯Ø¯":5525,"ĠØ±ÙĪØ§Ùĩ":5526,"ĠØ«ÙĪØ±Ø©":5527,"ĠØ§ÙĨØ³":5528,"ĠØ§ÙĦØ¹ÙħØ§ÙĦ":5529,"ØºØ§Ø±":5530,"ĠÙħØ³ØªÙĪÙĬØ§Øª":5531,"Ø²Ø²":5532,"Ġb":5533,"ĠØ§ÙĦÙħÙĤØ§ÙĦ":5534,"ĠÙĪØ§ÙĦØ§Ø¹":5535,"ĠØ¹ÙĪØ¯Ø©":5536,"ĠØ§ÙĦØ¨ÙĦØ¯ÙĬÙĨ":5537,"ĠØ§ÙģØªØªØ§ØŃ":5538,"ĠÙĬØ¶Ø¹":5539,"ĠAM":5540,"ĠØ¨ÙĤÙĪØ©":5541,"ÙĪÙĤØª":5542,"ĠØ¹Ø¯Ø¯Ø§":5543,"ĠØ§ÙĦØ´ÙĬØ¡":5544,"ĠØ¬ÙĪÙĨ":5545,"ĠÙħØ´Ø§Ø±Ùĥ":5546,"ĠÙĬØ°ÙĥØ±":5547,"ĠØ§ÙĦÙĤÙĪØ§ÙĨÙĬÙĨ":5548,"ĠØ§Ø³ØªØ·Ø§Ø¹":5549,"ĠÙħØ¤Ø³Ø³Ø§Øª":5550,"ĠØ¶ÙħØ§ÙĨ":5551,"ÙģØ§Ø¯":5552,"ĠØ§ÙĦØ®Ø§ÙħØ³Ø©":5553,"ĠØ§ÙĦØ¬Ø²Ø§Ø¦Ø±ÙĬ":5554,"ĠØ¹Ø±ÙĪØ¶":5555,"ĠØŃØªÙĬ":5556,"Ø¯Ø§Ø¹Ø´":5557,"ĠØ§ÙĦÙĨÙģØ³ÙĬØ©":5558,"Ø´Ø±Ø·Ø©":5559,"ĠØ§ÙĦÙħØªØ±":5560,"ĠÙħØ§ÙĦÙĬØ©":5561,"ÙħÙĨÙī":5562,"Ø¬ÙĬØ¨":5563,"ĠØ§ÙĦÙĥÙĦÙĬØ©":5564,"ĠÙĪØ§ÙĦØ£Ø³":5565,"ĠØ§ÙĦØ£ÙĦØ¹Ø§Ø¨":5566,"ĠÙĬØŃÙĬ":5567,"ĠÙħØ³ØªØ´ÙģÙī":5568,"Ø®Ø±ÙĪØ¬":5569,"ĠØ§ÙĦÙĤÙĬÙħ":5570,"Ø´Ø¹Ø±":5571,"ÙıØĮ":5572,"ĠØ´Ø¹Ø§Ø±":5573,"ØµÙĬØ¨":5574,"ĠØ³ÙĦÙĬÙħØ§ÙĨ":5575,"ĠØ²ÙĪØ¬ØªÙĩ":5576,"Ø§ÙĦÙħÙĨ":5577,"ÙĪØ¹ÙĦÙī":5578,"ĠØ§ÙĦØ±Ø¬":5579,"ĠÙĦØŃÙĤÙĪÙĤ":5580,"ĠÙĨÙĤØµ":5581,"Ø§ÙĦØ·":5582,"ĠØ§ÙĦÙĤØ§Ø¹Ø¯Ø©":5583,"ÙĥØ§ÙģØŃØ©":5584,"ĠÙĪØ£ÙĥØ«Ø±":5585,"ĠØ§ÙĦØ¹ÙĨØ§ØµØ±":5586,"ĠØ§ÙĦØ£ÙĦÙħØ§ÙĨÙĬØ©":5587,"ĠØ¯Ø¹ÙĪØ©":5588,"ĠÙħØ²ÙĬØ¯":5589,"ĠÙħÙĨÙĬ":5590,"Ø§ÙĩÙĦ":5591,"ĠØ§ÙĦØŃÙĬÙĪØ§ÙĨØ§Øª":5592,"Ø§ÙģÙĬØ§":5593,"Ø§ØŃØ¸Ø©":5594,"ĠØŃÙĦÙĪÙĦ":5595,"ÙĩÙĩÙĩÙĩ":5596,"ÙĥØªØ§Ø¨Ø©":5597,"ĠØ«Ø§ÙĨÙĬ":5598,"ĠØªØ¤Ø¯ÙĬ":5599,"Ø§Ø±Ø¦":5600,"Ø·Ùī":5601,"ÙĥØ´Ùģ":5602,"ÙĢÙĢÙĢÙĢÙĢ":5603,"ØºØ±ÙĤ":5604,"ĠØªØ³ÙħØŃ":5605,"ĠØ§ÙĦØ·ÙĦØ¨Ø©":5606,"ĠØ§ÙĦÙĬØ³":5607,"ĠÙĦÙĬÙģ":5608,"ĠÙĪØ§ÙĦÙħÙĦ":5609,"Ø§Ø¦Ùī":5610,"ĠØ§ÙĦØ¥ØŃ":5611,"ĠÙĨÙĪ":5612,"ĠØ®ÙĬØ§Ø±":5613,"ĠØ£ÙħÙĪØ§ÙĦ":5614,"ĠÙĥÙĦÙħØ§":5615,"ĠØ§ÙĦØµØŃÙĬÙģØ©":5616,"Ø¸Ø¨ÙĬ":5617,"ĠØªÙĪÙĤÙģ":5618,"ĠÙħØ¤Ø´Ø±":5619,"ĠÙĪØ§ÙĦØ³ÙĦ":5620,"ĠÙħØ³Ø£ÙĦØ©":5621,"ÙĪØ§ÙĨØ¨":5622,"Ø¹ÙĤØ¯":5623,"ØªÙĬØ§ÙĦ":5624,"Ø¹Ø¨Ø¯":5625,"ĠÙĪÙĤØ§ÙĦØª":5626,"ÙĩØ¯Ø§Ø¡":5627,"ĠØ£ØµØ¯Ø±":5628,"ĠÙĬØ¹ØªÙĤØ¯":5629,"Ø§ØµØ±Ø©":5630,"ĠØ¥Ø¨":5631,"ÙĦÙĥÙħ":5632,"ÛĮØ©":5633,"ĠØ£ÙĨÙģØ³ÙĩÙħ":5634,"ĠØ§ÙĦÙĥÙĬÙħÙĬ":5635,"ĠØ§ØªØ¬Ø§Ùĩ":5636,"ĠÙģÙĥØ§ÙĨ":5637,"ĠÙħÙģÙĩÙĪÙħ":5638,"ĠØªØ£Ø³ÙĬØ³":5639,"ĠÙĬØ®Ø±Ø¬":5640,"ĠØ´ÙĬØ®":5641,"ĠØ§ÙĦÙħØŃØ¯":5642,"ĠØ³ÙĦØ§Ùħ":5643,"ĠØ¨Ø¨Ø¹Ø¶":5644,"ÙĬØ¬Ø§Ø±":5645,"ØªÙĩÙħØ§":5646,"Ġï´¿":5647,"ĠØ£ØºÙĦØ¨":5648,"ĠÙĬØ´ÙĥÙĦ":5649,"ĠØ§ÙĦØ®ÙĬØ§Ø±Ø§Øª":5650,"ØªØ§Ø±":5651,"ĠØ¬Ø±Ø§Ø¡":5652,"ĠÙĪØ¬Ø¹ÙĦ":5653,"ĠÙħÙĬÙĨ":5654,"ĠØ§ÙĦÙģØ±ØµØ©":5655,"ĠØ§ÙĦÙĥÙģ":5656,"ĠØ§ÙĦØ³ÙĥÙĨ":5657,"ĠØ§ÙĦØ¯Ø§Ø®ÙĦ":5658,"ĠØ§ÙĦÙĤÙĦ":5659,"ÙģÙĬÙģØ©":5660,"ĠØ§ÙĦØ³ÙĪÙĬØ³":5661,"ĠØ§ÙĦØ§ÙĨØ³":5662,"ĠØ§ÙĦÙħØ·ÙĦÙĪØ¨Ø©":5663,"ĠØªÙħØ§Ùħ":5664,"ĠØ§ÙĦÙĥØ§Ùħ":5665,"ĠØ§ÙĦØªØ·Ø¨ÙĬÙĤØ§Øª":5666,"ÙĪØ¶ÙĬØŃ":5667,"ÙģØ¹Ø§ÙĦ":5668,"ÙĪØ¶ØŃØª":5669,"ĠÙģÙĬÙĥ":5670,"ĠØŃØ§Ø¬":5671,"Ø¬ÙħÙĪØ¹Ø§Øª":5672,"ĠÙħØ¨ÙĦØº":5673,"ĠØ§ÙĦÙĨØ³Ø®Ø©":5674,"ĠØ§ÙĦÙĥÙĩØ±Ø¨Ø§Ø¦ÙĬØ©":5675,"Ø§Ø³Ùĥ":5676,"ĠØ¨ÙĤÙĬÙħØ©":5677,"ĠÙĤØ±Ø§Ø±Ø§Øª":5678,"ĠØ£ÙĨÙĨÙĬ":5679,"ĠÙĪØ£ØŃ":5680,"ĠØŃÙĪØ§Ø±":5681,"ĠØ§ÙĦÙĥØ§ÙħÙĦØ©":5682,"ĠÙĬØ¯ÙĦ":5683,"Ø¹ÙħÙĦÙĬØ§Øª":5684,"ĠÙĤÙħØ©":5685,"ĠÙĨÙĤØ¯Ùħ":5686,"ĠØªØ±Ø§Ø¬Ø¹":5687,"ĠØ¨ÙĬØ¯":5688,"Ø¯ÙĦ":5689,"ĠØ®Ø·ÙĪØ§Øª":5690,"ÙĤØªÙĦ":5691,"ĠÙĥØªØ§Ø¨Ùĩ":5692,"ÙħØ¬":5693,"ĠØ§ÙĦÙħØ±ÙĥØ²ÙĬØ©":5694,"ĠØ§ÙĦØ¬ÙĩÙĪØ¯":5695,"ĠÙĪØ¬ÙĩØ©":5696,"Ø¹Ø§ÙĨ":5697,"ĠØ¥ÙĨØ¬Ø§Ø²":5698,"ĠÙģØªØ§Ø©":5699,"60":5700,"ĠÙĦÙħØŃ":5701,"ĠØ§ÙĦØ¬ÙħØ§Ø¹Ø©":5702,"ÙĬØ³Ø§ÙĨ":5703,"ĠØ§ÙĦØ·ÙĬØ±Ø§ÙĨ":5704,"ĠØ§ÙĦØ´Ø¨ÙĥØ©":5705,"ĠØ§ÙĦÙħØªØ¹":5706,"ÙĩØ¯Ø¯":5707,"Ø·ÙĪÙħ":5708,"ĠÙĬØ¨ÙĤÙī":5709,"ĠÙĬØ¹Ø§ÙĨÙĬ":5710,"ĠØ§ÙĦÙĨÙħÙĪ":5711,"ĠØ´Ø§Ø¨":5712,"ÙĩÙī":5713,"Ø¨ÙĬØ¹Ø§Øª":5714,"ÙģØ±ÙĤ":5715,"ĠØ§ÙĦØ¹Ø¯Ø§ÙĦØ©":5716,"ĠØŃÙħØ§Ùħ":5717,"Ø¸Ø§Ùĩ":5718,"ĠØ´Ø±Ø·Ø©":5719,"ĠØ¶ÙĪØ¡":5720,"ĠØ§ÙĦØ±Ø§Ø¦Ø¹Ø©":5721,"ĠØ§ÙĦØ£Ø³Ø§Ø³ÙĬ":5722,"ĠØ´Ùħ":5723,"ĠØ§Ùī":5724,"ĠÙĦØ¯Ø¹Ùħ":5725,"ØªØ¯Ùī":5726,"ĠØ§Ø¶Ø·Ø±":5727,"Ø§Ø´Ø§Øª":5728,"ĠØ§ÙĦØ³ÙĦØ§ØŃ":5729,"ĠØ¨Ø§ÙĦØ¹ÙħÙĦ":5730,"ĠØ¥ÙĤÙĦÙĬÙħ":5731,"ĠÙ¢Ùł":5732,"ĠØ§ÙĦÙĥÙĦÙħØ©":5733,"ĠØ§Ø³Ø±Ø§Ø¦ÙĬÙĦ":5734,"ĠØ§ÙĦØ£ØŃÙĬØ§ÙĨ":5735,"Ø±Ø§Ø¡Ø§Øª":5736,"ĠØ§ÙĤØªØ±":5737,"Ø§Ø´Ø¯":5738,"ĠØ¯ÙĪ":5739,"ÙĤØ³":5740,"ĠØ§ÙĦØªØ®ÙĦØµ":5741,"ĠØ§ÙĦØªØ¹Ø¨ÙĬØ±":5742,"ÙħØ§Ùĥ":5743,"ØªÙĪÙĨ":5744,"ĠØ§ÙĦØ¯ÙĪÙĦØ§Ø±":5745,"ĠØ§ÙĦØ¬ÙħÙĬÙĦØ©":5746,"Ø¹ÙĦØ§ÙĨØ§Øª":5747,"ĠÙģØ§Øª":5748,"ĠØ¨ÙĥØ«ÙĬØ±":5749,"ĠØ§ÙĦØ¹Ø¯ÙĪ":5750,"Ø±Ùĩ":5751,"ĠØ§ÙĦÙĨØ§Ø´":5752,"ÙĬØ¯Ø§Øª":5753,"ĠØ§ÙĦØ¹ÙĤÙĪØ¨Ø§Øª":5754,"ĠÙĪØ¬Ùħ":5755,"ĠØªØ¹ØªÙħØ¯":5756,"ĠØ§ÙĤØ±Ø£":5757,"Ø¹Ø¯ÙĬÙĦ":5758,"ÙĪØ§ÙĬØ§Øª":5759,"ÙĪÙħÙĩ":5760,"ĠÙħØ¹Ø¯ÙĦ":5761,"ÙĦØ§Ùĩ":5762,"ÙĬÙħØ§":5763,"ĠÙĥØ±ÙĬ":5764,"ĠÙĬØ¹ØªÙħØ¯":5765,"ÙģØ¹Ø©":5766,"ĠÙĥØ£":5767,"ĠÙĪØ§ÙĦØªÙĨÙħÙĬØ©":5768,"ĠØ¹Ø´Ø±Ø§Øª":5769,"ĠÙĨÙħÙĪ":5770,"ĠÙĤÙĪÙĬ":5771,"ÙĪÙĬØªØ±Ø²":5772,"ĠÙĦÙĦÙħØ³Øª":5773,"ØªØ¨Ø·Ø©":5774,"ĠØ¨Ø§ÙĦØ§ÙĨ":5775,"Ġi":5776,"Ø§Ø¶Ø§ÙģØ©":5777,"ĠÙĤØµÙĬØ±Ø©":5778,"ÙĪÙģØ©":5779,"ÙĨÙĤ":5780,"ĠØ§ÙĦÙħÙĪØ¸ÙģÙĬÙĨ":5781,"ĠØ·Ø¨ÙĬØ¹Ø©":5782,"ĠÙħØªÙĨÙĪØ¹Ø©":5783,"ĠÙħØ³Ø§Ø¹Ø¯Ø©":5784,"ĠØ§ÙĦÙħØ³ØªØ´ÙģÙī":5785,"Ø¨ÙĬØ§Ø¡":5786,"ĠØ§ÙĦÙĨÙĩØ§Ø¦ÙĬØ©":5787,"ĠØ§ÙĦÙħØ±Ùĥ":5788,"ĠÙĪØ§ÙĦØ§ØŃ":5789,"ĠØªØ¶Ø¹":5790,"ĠÙħØ¹ÙĬ":5791,"ĠØ§ÙĦØ®Ø·Ø§Ø¨":5792,"ØµÙĦØ©":5793,"ĠÙħØ§ÙĦÙĥ":5794,"ÙĪØ§Ø³":5795,"ĠØµØŃÙģÙĬ":5796,"Ø°Ø§Ø¡":5797,"ØµØ§Øµ":5798,"ĠØ§ÙĦØ´ÙħØ§ÙĦ":5799,"ĠÙģÙĬØ±":5800,"Ø³Ø¹":5801,"ØªÙħÙĥÙĨ":5802,"ĠÙĪØŃØ¯Ùĩ":5803,"ĠØ§ÙĦØ³ÙĬØ¯Ø©":5804,"ØŃÙĬÙĦ":5805,"ØªØ±Ø§Ø¶":5806,"ĠÙħÙĨØªØ¯ÙĬØ§Øª":5807,"ÙĪØ³Ø©":5808,"ÙĬØ¡":5809,"ĠØªØ´Ø¹Ø±":5810,"Ùİ:":5811,"ĠØ®ÙĬØ§Ø±Ø§Øª":5812,"ÙĤÙĬÙĩ":5813,"ĠØ·ÙĬØ¨":5814,"ĠØ§ÙĦØ¬ÙħÙĩÙĪØ±":5815,"ĠØ§ÙĦÙħØ±ÙĪØ±":5816,"ĠÙħØ§Ø¡":5817,"ĠØªØ¹ÙĦÙĨ":5818,"ĠØ¨ÙħÙĨØ·ÙĤØ©":5819,"ĠÙĤØ±ÙĬØ¨Ø§":5820,"ĠØ¯ÙĬÙĨØ§Ø±":5821,"ĠØ§ÙĦÙĨØµØ±":5822,"ĠØ¨Ø°":5823,"ĠØ§ÙĦØ®ØµÙĪØµ":5824,"ĠØ§ÙĦØ£Ø¬ÙĨØ¨ÙĬØ©":5825,"ĠØ¨Ø§ÙĦØ±ÙĬØ§Ø¶":5826,"ĠØ§ÙĦÙĦÙĩÙħ":5827,"ĠØµØ¨Ø§ØŃØ§":5828,"ĠØ§ÙĦØ¥ÙĨØ¬ÙĦÙĬØ²ÙĬØ©":5829,"ĠØ£Ø±Ø§Ø¯":5830,"ĠØªØ´ÙĩØ¯":5831,"Ø¬ÙħØ§ÙĦÙĬ":5832,"ĠØ§Ø¹ØªØ¨Ø±":5833,"lo":5834,"ĠØ§ÙĦØ´Ø§Ø´Ø©":5835,"ÙĦØ§ÙĪØ©":5836,"ĠØ§ÙĦÙĥØ§ÙħÙĦ":5837,"ĠØªØ¶ÙħÙĨ":5838,"ĠÙħÙĨØªØ¬Ø§Øª":5839,"Ø´Ø§Ø¨":5840,"ÙĤÙĨ":5841,"ĠØ§ÙĦØ´Øª":5842,"ĠÙĤØ·Ø¹Ø©":5843,"ĠØ¹ÙĦØ§ÙĤØ§Øª":5844,"ĠØ³ÙĦÙĪÙĥ":5845,"ÙĢÙĦ":5846,"Ø§ÙĦÙģØ©":5847,"ĠJ":5848,"ÙĪÙĤÙĬØª":5849,"ĠÙĬÙĤØª":5850,"ĠÙĪÙĬØ¬Ø¨":5851,"ĠØ¢ÙĦØ©":5852,"ĠÙĦÙĦÙħØ¤":5853,"Ø¬ÙĨØ¨":5854,"ĠÙħØªÙĪØ³Ø·":5855,"ut":5856,"ĠØ§ÙĦØ£ÙĨØ´Ø·Ø©":5857,"ĠØ§ÙĦØ£Ø±Ø¨":5858,"ĠÙĦÙĦØ¬Ùħ":5859,"ĠØ§ÙĦØ¥ØµÙĦØ§ØŃ":5860,"Ø§Ø±ØªÙĩ":5861,"ÙģÙĦØ³Ø·ÙĬÙĨ":5862,"ĠØ§ÙĦÙĤÙĬÙħØ©":5863,"ĠÙĪØ§ÙĦØ£ÙĨ":5864,"ĠØ¨Ø¬Ø§ÙħØ¹Ø©":5865,"ĠØ£Ø´ÙĥØ§ÙĦ":5866,"ĠØ§ÙĦØ°ÙĩØ§Ø¨":5867,"ĠØ¨Ø¯Ø§":5868,"ĠØ§ÙĦÙħØµØ±ÙĬÙĬÙĨ":5869,"ÙģØ§ÙĪØ¶Ø§Øª":5870,"ØµØ§Øª":5871,"ÙĪÙģØ§":5872,"ØªÙĪ":5873,"ĠÙĬÙĪÙģØ±":5874,"Ø³ÙģØ©":5875,"ĠØ§ÙĦÙĬÙĪÙĨ":5876,"Ø´Ø³ØªØ±":5877,"ÙĪØ±ÙĬÙĨ":5878,"ØªØ¨Ø§Ùĥ":5879,"Ø¯ÙĤ":5880,"ĠÙĪØ¹ÙĨØ¯":5881,"Ø§ÙģÙĩ":5882,"ĠØ§ÙĦÙĥØªØ§Ø¨Ø©":5883,"ap":5884,"Ø²ÙĬÙħØ©":5885,"ĠØ§ÙĦØ§Ø±Ø¯":5886,"Ø¹ÙĩØ§":5887,"ĠØ¹ÙĦØ§ÙĤ":5888,"ĠØ§ÙĦØµÙĩÙĬÙĪÙĨÙĬ":5889,"ĠÙĬØ³ØªØŃÙĤ":5890,"ĠÙĨÙĤÙĪÙħ":5891,"ĠØ§ÙĦØ£Ø¯Ø§Ø¡":5892,"ĠÙģØ±Ø¯":5893,"ĠØ§ÙĦÙħØ³ÙĦÙħ":5894,"ÙĬÙħÙĨ":5895,"Ø´ÙģÙĬØ§Øª":5896,"ĠØªÙĪÙĤÙĬØ¹":5897,"ĠØ¨Ø§ÙĤÙĬ":5898,"Ø§ØµÙĦØ©":5899,"ĠÙħØ¹Ùĥ":5900,"ĠØ§ÙĨØ®ÙģØ§Ø¶":5901,"ÙĪØ§ÙĬ":5902,"ĠØªØ¨ÙĦØº":5903,"ĠÙħØ®Øª":5904,"ĠØ§ÙĦØ´Ø¤ÙĪÙĨ":5905,"ĠÙĪØªØ¬":5906,"Ø¨Ø§Ø·":5907,"ĠØ´ÙĨ":5908,"ĠÙĬØ§Ø³":5909,"ĠØ§ÙĦÙĬÙħÙĨÙĬ":5910,"Ø¹ÙĪÙĥ":5911,"ĠØ§ÙĦÙħØ¨Ø§Ø±Ùĥ":5912,"Ù£":5913,"ĠØ£ØŃÙĬØ§ÙĨØ§":5914,"Ø§ÙĦØªØŃ":5915,"ĠØ¬ÙĬØ´":5916,"Ø§Ø«Ø©":5917,"ig":5918,"ĠØµØ±Ùģ":5919,"ĠØ§ÙĦØªØ±ÙĥÙĬØ²":5920,"ĠØ§Ø±ØªÙĥ":5921,"Ø§ÙĩÙĬØ©":5922,"ĠØ§ÙĦØ§Ø¹ÙĦØ§Ùħ":5923,"ĠØ¹Ø§Ø¦":5924,"Ø§ÙĬØ§":5925,"ĠØ®Ø·Ø£":5926,"ĠØ§ÙĦÙħØ¨Ø§Ø´Ø±":5927,"ĠØ§ÙĦØ¬ÙħØ¹":5928,"ĠÙĪØ£ÙĬØ¶Ø§":5929,"Ø¸ÙĩØ±Øª":5930,"ĠÙĪØ§ÙĦØªØµ":5931,"ÙĥÙĦÙħ":5932,"Ø·ÙĦØ§Ø¹":5933,"ĠØŃÙĬØ§ØªÙĥ":5934,"ĠØ§ÙĩÙħ":5935,"ĠØ§ÙĦØªØ¶":5936,"ĠØ¨Ø§ÙĦÙħØ±":5937,"ÙĬØ·Ø§ÙĦÙĬØ§":5938,"ĠØ¨ØªØ±":5939,"ĠØŃÙħØ¯":5940,"ĠØ§ÙĦØ£Ø³ÙĪØ¯":5941,"Ø£Ø¹ÙĦÙĨ":5942,"ĠÙĪÙĬÙĦ":5943,"ĠØªÙĤÙĬÙĬÙħ":5944,"ĠÙĪØ³ÙĬÙĦØ©":5945,"ĠØ¨Ø±Ø¦Ø§Ø³Ø©":5946,"ĠØ¹ÙħØ±ÙĪ":5947,"ĠØ§ÙĦØªØ§Ø¨Ø¹":5948,"ĠÙĥÙĩØ±Ø¨":5949,"ĠØ§ÙĦØ¯ÙģØ¹":5950,"ĠÙĪØ¹ÙĦ":5951,"ĠØ§ÙĦØµÙĬÙĨÙĬØ©":5952,"ĠÙĪÙĥØ£ÙĨ":5953,"Ø§ÙĤÙĦ":5954,"ĠØ§ÙĦØŃÙħØ§ÙĬØ©":5955,"ĠØ§ÙĦØ§ØªØ¬Ø§Ùĩ":5956,"ÙĤØ¯Ø³":5957,"Ø§ÙĤÙħ":5958,"ĠØ§ÙĦØ£ÙĩØ¯Ø§Ùģ":5959,"ĠÙĦØ´Ø±ÙĥØ©":5960,"ĠÙĬØ¯ÙģØ¹":5961,"ĠØ§ÙĦØ£ÙĪ":5962,"ĠÙĦÙĤØ¨":5963,"ĠØ³ÙĪØ¡":5964,"ĠØ¬Ø°":5965,"ĠØºØ¯Ø§":5966,"Ø³ÙħÙī":5967,"ĠØŃÙĤÙĬÙĤÙĬØ©":5968,"Ġ500":5969,"ĠØªØ¹ÙĬÙĬÙĨ":5970,"ĠØ§ÙĦØ§Ø±Ø¶":5971,"ĠØªØ°ÙĥØ±":5972,"ĠÙħØ±Ø§ØŃÙĦ":5973,"ĠØ¨ØªÙĤØ¯ÙĬÙħ":5974,"ĠØ§ÙĦØ£Ø³ÙĦØŃØ©":5975,"ØªÙĬØ§Ø²":5976,"ï»®":5977,"ĠÙħÙĩØ±Ø¬Ø§ÙĨ":5978,"ĠØ§Ø¹ØªÙħØ§Ø¯":5979,"ĠÙĪØ¥ÙĦÙī":5980,"ĠØ§ÙĦØ´Ø®ØµÙĬ":5981,"Ø¸Ø§ÙĩØ±Ø§Øª":5982,"ĠØ§ØªØµØ§ÙĦ":5983,"ĠØ§ÙĦÙĨÙĬØ§Ø¨Ø©":5984,"ÙĪØºØ§ÙĨ":5985,"ĠÙĦØ§ÙĬ":5986,"ĠØŃØ¶":5987,"ĠÙĪØ£Ùħ":5988,"ĠØ§ÙĦØ§Øº":5989,"ÙģÙĤØ¯":5990,"ĠØ§ÙĦÙħÙĦØ§Ø¨Ø³":5991,"ÙĬÙħÙĥÙĨÙĥ":5992,"ĠØŃØ±ÙĬØ©":5993,"ÙħØ±Ø§Ø¶":5994,"ĠØ§ÙĨÙĪØ§Ø¹":5995,"ĠØªØªØ¹ÙĦÙĤ":5996,"ĠØ§ÙĦØ¹Ø§Ø¦ÙĦØ©":5997,"ĠØ³ÙĬÙħØ§":5998,"ĠÙħØªØ£":5999,"ĠØ§ØªÙģØ§ÙĤÙĬØ©":6000,"ĠØ§ÙĦØºØ±Ø¨ÙĬ":6001,"ĠØ¨Ø·Ø§ÙĤØ©":6002,"ĠØ°ÙĬ":6003,"ĠÙĪØ§ÙĦØªÙĤ":6004,"ĠØ§ÙĦØ¥ÙĬØ±Ø§ÙĨÙĬØ©":6005,"ĠØªÙģØ¹ÙĦ":6006,"ĠØ§ÙĦØ´Ø¯ÙĬØ¯":6007,"ÙĪÙĤÙĬØ¹":6008,"ĠÙĦÙĦÙĬ":6009,"ĠØ§Ø¯Ø§Ø±Ø©":6010,"ĠØ§ÙĦØµØŃØ§ÙģØ©":6011,"ĠÙĨØ§Ø¬":6012,"ĠØ³ÙģØ±":6013,"ĠÙħØµÙĨØ¹":6014,"Ø±ÙĥØ§ÙĨ":6015,"ĠØ§ÙĬØ§Ùħ":6016,"ĠØ¸Ø§ÙĩØ±Ø©":6017,"ĠØ²Ø§ÙĦ":6018,"ĠØ§ÙĦØ±ÙĬØ§Ø¶ÙĬ":6019,"ĠÙĩØ¬ÙĪÙħ":6020,"ĠØ§ÙĦÙĩØ¬Ø±Ø©":6021,"ĠØ§ÙĦÙĬÙħÙĨÙĬØ©":6022,"ĠÙħØªÙī":6023,"ĠØŃÙĤÙĤ":6024,"ĠØªØµÙĪÙĬØ±":6025,"ĠÙĦØªÙĤØ¯ÙĬÙħ":6026,"ĠØ§ÙĦØŃÙħÙĦØ©":6027,"ĠØ³ÙĥÙĨ":6028,"ĠÙĪØ¸ÙĬÙģØ©":6029,"ÙĬØªÙĬÙĨ":6030,"ĠØ§ÙħØ§":6031,"Ø§Ø±ÙĩØ§":6032,"ĠØ¨Ø¥ÙĨ":6033,"ĠÙĬØ®Øµ":6034,"ï´¾":6035,"Ø¬ÙĪÙĨ":6036,"ĠÙĤØ±Ø±":6037,"((":6038,"Ø±ÙĤÙĬØ©":6039,"ĠØ¹Ø·":6040,"ĠØ¬Ø±Ùī":6041,"ĠÙĪØªØ·ÙĪÙĬØ±":6042,"ÙĨØ¬":6043,"Ø§Ø³Ø¨Ø§Øª":6044,"ØŃØ¯Ø§Øª":6045,"ĠÙĦØ¹Ø¯Ùħ":6046,"ĠØ³Ø±ÙĬØ¹Ø©":6047,"ĠØ§ÙĦØ´Ø¹ÙĪØ±":6048,"ĠÙĨØ¬Ùħ":6049,"ÙĪØ³Ø§Ø¦ÙĦ":6050,"ĠÙħÙĤØ¯Ùħ":6051,"ĠØ§ÙĦÙģÙĤÙĩ":6052,"ĠØªÙĨÙħÙĬØ©":6053,"ĠØ§ÙĦØ¥Ø¬ØªÙħØ§Ø¹":6054,"ĠØ§ÙĦØµØºÙĬØ±":6055,"ĠØ·Ø¨ÙĬØ¹ÙĬ":6056,"ĠØ³ÙĬØ¹":6057,"ĠØ§ÙĦÙħÙĤØ¯ÙħØ©":6058,"ĠØ£Ø¯ÙĪØ§Øª":6059,"ĠØ´Ø§Ø±":6060,"ĠØ§ÙĦØ³ÙĬØ§ØŃÙĬØ©":6061,"Ø¹ÙĤ":6062,"ĠØ§ÙĦØ£ÙħØ§ÙĥÙĨ":6063,"ÙĩÙĪØ©":6064,"ĠØ¨Ø¬Ø§ÙĨØ¨":6065,"Ø§ØºØ©":6066,"ÙĪÙĦÙĬÙĨ":6067,"ĠØ§ÙĦÙĨØªÙĬØ¬Ø©":6068,"ĠÙģØ±Ø¹":6069,"ĠØ§ÙĦÙħØ³ØªØ®Ø¯ÙħÙĬÙĨ":6070,"ĠØ£ØŃÙĥØ§Ùħ":6071,"ĠØ§ÙĦØ£Ø³Ø¦ÙĦØ©":6072,"Ø§ÙĥØ±":6073,"__":6074,"ĠÙĪÙĬÙģ":6075,"ĠØªÙĤØ§Ø±ÙĬØ±":6076,"ĠØ¥Ø±ÙĩØ§Ø¨":6077,"Ø§Ø°Ø¬":6078,"ĠØ¨ÙĪØ¬ÙĪØ¯":6079,"Ø§ÙĦÙħØ±":6080,"ĠØªØ®Ø±Ø¬":6081,"ÙĪØªØ§Ø¨Ø¹":6082,"ĠØ¹Ø§ÙĦÙħÙĬØ©":6083,"ĠÙĤÙħØª":6084,"ÙĥØªØ´Ùģ":6085,"ÙĪØ¬Ø©":6086,"ĠØ§ÙĦÙħØ³Ø¤ÙĪÙĦÙĬØ©":6087,"ĠØªØ·ÙĪØ±":6088,"ĠÙģØ´ÙĦ":6089,"ÙĪÙĬØ¨":6090,"ĠØ§ÙĬØ±Ø§ÙĨ":6091,"ĠÙģØ§Ø±":6092,"ÙĪØ·Ø©":6093,"Ø¯Ø§Ø¨":6094,"ĠØ§ÙĦØªÙĤÙĦÙĬØ¯ÙĬØ©":6095,"Ø±Ø¨Øª":6096,"www":6097,"ÙĢÙĩ":6098,"ØªØ±Ùħ":6099,"ĠØ§ÙĨØªØ®Ø§Ø¨Ø§Øª":6100,"Ø´ÙĬØ©":6101,"ÙĦÙĤÙĬ":6102,"Ø¸ÙĨ":6103,"ØŃØªÙī":6104,"ul":6105,"ĠØ¹ÙĦÙħØ§":6106,"ĠØ±ÙĪØ§ÙĬØ©":6107,"ĠÙĦÙħØ¹Ø§ÙĬÙĨØ©":6108,"Ø¨ØªØ¯":6109,"Ø¨Ø§Ø¹":6110,"ĠØ¨Ø§ÙĦØ°ÙĥØ±":6111,"ĠÙĦÙĦØ¹Ø§Ùħ":6112,"ĠØ§ÙĦØµØ±":6113,"ĠÙħØ¹Ø§ÙĦØ¬Ø©":6114,"ĠÙĪÙĬÙħ":6115,"ĠØ³Ùĥ":6116,"ØµÙĦØª":6117,"ĠØºØ§ÙĬØ©":6118,"ĠØ§ÙĦØ¹Ø§ÙħÙĦØ©":6119,"Ø§ÙĦÙĦÙĩÙħ":6120,"Ø§Ø·Ø¹Ø©":6121,"ĠØ¹Ø«ÙħØ§ÙĨ":6122,"ĠØ·Ø¹Ø§Ùħ":6123,"ĠØ²ÙĬÙĨ":6124,"ĠØ§ÙĦØ³Ø¬ÙĨ":6125,"ĠØ§ÙĦØ£Ø³Ø§Ø³":6126,"ĠØ¨ÙħØ«":6127,"ĠØ£ÙĤÙĪÙĦ":6128,"ĠØ§ÙĦÙģØ¶Ø§Ø¡":6129,"ÙĦÙĪÙĨ":6130,"ĠÙĨØ±Ùī":6131,"ĠÙĦÙĦØ£ÙĨ":6132,"ĠÙĪØ§ÙĦØªÙī":6133,"ĠÙĬÙĪÙħÙĬ":6134,"ĠØ§ÙĦÙħØ³Ø¤ÙĪÙĦÙĬÙĨ":6135,"Ø§ÙĦÙħÙĪØ¶ÙĪØ¹":6136,"ĠØ§ÙĦØ§ÙĬØ±":6137,"ĠØµØŃÙĬØ©":6138,"ÙĨØ¯Ø§Øª":6139,"ĠØ´Ø§Ø´Ø©":6140,"Ø¹Ø±ÙĪØ¶":6141,"ÙĦÙĤØª":6142,"ĠØ·Ø§Ø¦Ø±Ø©":6143,"ĠØ¹Ø¨Ø¯Ø§ÙĦ":6144,"ĠÙĦÙħÙĪØ§Ø¬ÙĩØ©":6145,"ÙĦÙģÙĬØ©":6146,"ĠØ¨ÙĤÙĬØ§Ø¯Ø©":6147,"ĠÙĪØ§ÙĦÙħÙĩ":6148,"Ø´Ø·":6149,"ĠØ®ÙĦÙģÙĬØ©":6150,"ĠØ¥Ø±Ø³Ø§ÙĦ":6151,"ĠØ§ÙĦØ£ÙģÙĥØ§Ø±":6152,"ĠØªØ³Ø¹Ùī":6153,"ØªÙĥØ§Ø±":6154,"ĠØ§ÙĦØ§Ø´ØªØ±Ø§Ùĥ":6155,"ÙĦÙħØ§ÙĨÙĬØ©":6156,"ĠØ¨Ø§ÙĦØµÙĪØ±":6157,"ĠØ®Ø¯Ùħ":6158,"Ø§Ø³ÙĬØ§":6159,"ĠØ§ÙĦØŃÙĤÙĬÙĤÙĬØ©":6160,"ĠÙħÙħØ«ÙĦ":6161,"ĠØ§ÙĦØªØ´Ø±ÙĬ":6162,"ĠÙĪÙĬÙĥÙĪÙĨ":6163,"ĠØ§ÙĦÙħØ¹ÙĨÙĬØ©":6164,"Ø·Ø±ÙĬØ©":6165,"Ø£ÙħÙĦ":6166,"Ø¹ÙĪØ©":6167,"ĠØ¨Ø¥ÙħÙĥØ§ÙĨ":6168,"ĠÙħØµÙĦØŃØ©":6169,"ĠÙħØªØ±Ø¬Ùħ":6170,"ĠØ¨Ø§ÙĦØ¶":6171,"ĠØ§ÙĦØµØ§ÙĦØŃ":6172,"ĠØ¨Ø±Ø³":6173,"ĠØ¢Ø¨":6174,"ĠØ§ÙĦÙħÙĬ":6175,"ĠØ¢Ø³ÙĬØ§":6176,"ÙĤÙĬØ¨":6177,"ĠØ±Ø£Ùī":6178,"ĠØ§ÙĦØªÙĪÙĨØ³ÙĬ":6179,"ĠØ¹Ø²ÙĬØ²":6180,"Ø§Ø¨ÙĦØ³":6181,"ÙĬØ±ÙĬØ§":6182,"ĠØªØ´ÙĬØ±":6183,"os":6184,"ĠØ´Ø¤ÙĪÙĨ":6185,"ĠØ§ÙĦØ´Ø¹ÙĪØ¨":6186,"ĠØ£Ø¬ÙħÙĦ":6187,"ĠÙħØ±Ùĥ":6188,"ĠØ§ÙĦØ®ÙĦØ§Ùģ":6189,"ĠØŃØµÙĦØª":6190,"ĠØ³ÙĬÙģ":6191,"ÙĤÙĪØ¯":6192,"ÙĪØŃÙĬ":6193,"ĠØ§ØµØ¨ØŃ":6194,"ĠÙĪØ§Ø³Ø¹":6195,"ÙĬØ³Ø¨ÙĪÙĥ":6196,"ĠÙĤØ§Ø¯":6197,"ĠØ¥ÙĬØ±":6198,"ĠÙĦÙģØªØ±Ø©":6199,"ØªØ±Ø§ÙĪØŃ":6200,"ĠØªØ¹Ø§ÙĨÙĬ":6201,"ĠØ¨Ø§ÙĦØªØ£ÙĥÙĬØ¯":6202,"ÙĨØ§ÙĩØ§":6203,"Ø§ÙħÙĦØ§Øª":6204,"ĠØ§ÙĦØ¨Ø±ÙĬØ·Ø§ÙĨÙĬ":6205,"ĠÙĪÙĬÙĤÙĪÙĦ":6206,"ĠØ§ÙĦÙĩØ±":6207,"ĠØ§ÙĦØ¯ÙĩÙĪÙĨ":6208,"Ø³Ùī":6209,"ĠÙħÙĪØ¬ÙĪØ¯Ø©":6210,"ĠØ«ÙĤØ§ÙģØ©":6211,"ĠØ§ÙĦØ¨Ø®Ø§Ø±ÙĬ":6212,"ĠØ§ÙĦÙħÙĥØ±":6213,"ĠØ¬Ø¯Ø©":6214,"Ø³ØªÙħØ±":6215,"Ø§Ø±Ø³Ø§Øª":6216,"ÙĪØ±Ùī":6217,"ĠØ§ÙĦÙĤØµØ©":6218,"ĠÙĬÙħÙĨØ¹":6219,"ĠÙĨØ§Ø±":6220,"ĠÙĬØ¯Ø¹ÙĪ":6221,"ÙĪØ³ÙĬØ¹":6222,"ĠØ®Ø±ÙĪØ¬":6223,"ĠÙĪØ§Ùħ":6224,"ØµØ±Ø©":6225,"ĠØ¬Ø³":6226,"ĠØ§ÙĦØŃØ§ÙĥÙħ":6227,"ĠØ§ÙĦØ³ÙĦÙĪÙĥ":6228,"ĠÙĩØ±":6229,"ĠØ·Ø¨ÙĬØ¹ÙĬØ©":6230,"ĠØ§ÙĦØ¥Ø¹ÙĦØ§ÙħÙĬ":6231,"Ġ35":6232,"ØªØ¨Ùĩ":6233,"ÙĢÙħ":6234,"ĠÙĦÙĦÙħØ´Ø§Ø±ÙĥØ©":6235,"ÙħØ´Ø§ÙĩØ¯Ø©":6236,"ĠÙĦÙĦØ£Ø·ÙģØ§ÙĦ":6237,"ĠÙģØ¶ÙĦ":6238,"Ø¶Ø±Ø§Ø±":6239,"ĠØ¯ÙĪÙĦÙĬØ©":6240,"ĠØ£ÙĪÙĦÙī":6241,"ĠØ§ÙĦÙħÙĩÙĨÙĬØ©":6242,"ĠØ§ÙĦØŃØ¬Ø±":6243,"ĠØ£Ø®ÙĬ":6244,"ĠØ§ÙĦØ«ÙĨØ§Ø¦ÙĬØ©":6245,"ĠØ§ÙĦØ·Ùģ":6246,"ĠÙĪØ§ÙĦØ§Ø³":6247,"ĠØŃÙģ":6248,"ĠØ§ÙĦØªØ¬Ø±Ø¨Ø©":6249,"ĠØ§ÙĦØ±ÙĪØ§ÙĬØ©":6250,"ĠØ³ÙħØ¹":6251,"ĠÙħØ´Ø±":6252,"ĠØ§ÙĦØ¹Ø§ÙĦÙĬØ©":6253,"ĠÙĦØªØ³":6254,"ĠØ§ÙĥØªØ´Ø§Ùģ":6255,"ĠØ§ÙĦØ¥Ø±ÙĩØ§Ø¨ÙĬØ©":6256,"ĠÙħØ¯ÙĨ":6257,"ĠÙĪØ±Ø³":6258,"ĠØ§ÙĦØ¨Ø§ÙĦØº":6259,"ĠØ§ÙĦØ¹Ø´":6260,"ÙĨØ¯Ø¹ÙĪÙĥ":6261,"ÙĦÙħØ§Ø°Ø§":6262,"ĠØ§ÙĦÙģÙĤ":6263,"ĠÙĪÙĩÙī":6264,"ĠØ£ÙģÙĥØ§Ø±":6265,"ĠÙĪÙħØµ":6266,"Ø¬ÙĪØ¡":6267,"ĠØŃÙĦØ¨":6268,"Ø´ÙĬÙģ":6269,"ĠØ£Ø¹ÙĦÙħ":6270,"ĠÙĬÙĦØª":6271,"Ø°Ø§Ùĥ":6272,"ĠØŃØ±Øµ":6273,"ĠØ§ÙĦÙħØŃÙĬØ·":6274,"ÙĤØ³Ùħ":6275,"ĠØ§ÙĦÙĪØ¸Ø§Ø¦Ùģ":6276,"ĠÙħØ³ØªÙħØ±":6277,"ĠØ«Ø§ÙĦØ«":6278,"Ø®ÙĬÙĨ":6279,"Ø¹Ø¯Ø©":6280,"Ø§ÙĪØ§Ø©":6281,"ĠÙĦÙĪØŃØ©":6282,"ĠÙĪØ§ÙĦØŃØ±":6283,"Ø¨Ø§Ø±Ø§Øª":6284,"ĠÙĬÙĪØ±ÙĪ":6285,"ĠØ¨ÙħØ«Ø§Ø¨Ø©":6286,"ĠØ§ÙĦØ¬ÙĩØ©":6287,"ĠØ§ÙĦØ³ÙĪÙĬØ¯":6288,"ĠØ¨ÙħØŃØ§ÙģØ¸Ø©":6289,"Ø¬ÙĪ":6290,"ĠØ§ÙĦØ¯Ø±Ø¬Ø©":6291,"ĠÙĪÙĩÙĥØ°Ø§":6292,"ÙĥÙĬÙħ":6293,"ĠØŃØµÙĪÙĦ":6294,"ĠØ§ÙĦØ§Ø³ØªØ®Ø¯Ø§Ùħ":6295,"ï»ł":6296,"Ø³ØªÙĩØ§":6297,"ĠØ³Ø¹":6298,"Ø¹Ø¯Ø§Øª":6299,"ĠØ¥ÙĨØ³":6300,"ĠØ·Ø¨ÙĤ":6301,"Ø³ÙĬØ·Ø±":6302,"ĠØ£ÙĤØ±Ø¨":6303,"Ø§Ø¬Ø³ØªÙĬØ±":6304,"ĠØ¨ÙĪØ¶Ø¹":6305,"ĠÙĦÙĬÙĥÙĪÙĨ":6306,"ĠØ§ÙĦØ£Ø·Ø¹ÙħØ©":6307,"Ù¥":6308,"ĠØ§ÙĦØªØ²Ø§Ùħ":6309,"ĠØ¹ÙĤÙĪØ¯":6310,"ĠØ§ÙĦÙģØ¶":6311,"Ø§Ø¡Ø§Øª":6312,"ĠØ§ÙĦØ±Ø£Ø³":6313,"ĠØ§ÙĦÙĥÙĨÙĬØ³Ø©":6314,"ĠÙħÙħÙĬØ²Ø©":6315,"ĠØ§ÙĦØ´ÙĥØ±":6316,"ÙĢØ§":6317,"ĠØ§ÙĦÙĪØ§ÙĤØ¹Ø©":6318,"ĠØŃØ¸":6319,"ĠØ£ÙħØ±ÙĬÙĥÙĬ":6320,"ĠØ§ÙĦØ£Ø±Ø¬":6321,"ÙĬÙĤÙĪÙĦ":6322,"Ø§Ø±ÙĬÙĪ":6323,"ĠÙĨØ¹Ø±Ùģ":6324,"ĠØ¯Ø¹Ø§":6325,"ĠØ³Ø±ÙĬ":6326,"Ø·Ø§ÙĦØ¨Ø©":6327,"ĠØ§ÙĦØ·Ø¨ÙĬØ¹Ø©":6328,"ĠÙĪØ§ØŃØ¯Ø§":6329,"ĠÙħÙĪØ³ÙĥÙĪ":6330,"ĠØ§ÙĦØ³ÙĪØ¯Ø§ÙĨÙĬ":6331,"ĠØªØŃØ¨":6332,"Ø§ÙĤÙĩ":6333,"ĠØªØ·Ø¨ÙĬÙĤØ§Øª":6334,"ĠØ¯ÙĪÙĨØ§ÙĦØ¯":6335,"Ø«ÙħØ±ÙĬÙĨ":6336,"Ø±Ø¨Ø§Øª":6337,"ĠÙĪØ§ÙĦÙħØ´":6338,"ĠØ§ÙĦÙĤØ¶":6339,"ĠØ²ÙĬØ§Ø±":6340,"ĠÙģÙĨØ§Ø¯ÙĤ":6341,"Ø±Ø¨Ùĩ":6342,"ĠØ§ÙĦÙĤØ±Ø§Ø±Ø§Øª":6343,"ĠØ§Ø¹ØªÙĤØ§ÙĦ":6344,"ĠØ¹Ø§Ø¦ÙĦØ©":6345,"ĠÙĬÙĤØ¨ÙĦ":6346,"ĠØ§ÙĦÙħÙĤØ±":6347,"ĠÙĦÙĦÙħØ±Ø©":6348,"ĠØ§ÙĦØ¬ÙĬÙĦ":6349,"ĠØ³ÙĦØ·Ø©":6350,"ĠÙĥÙĪØ¨":6351,"ĠÙħØ§Ø²":6352,"ĠØ§ÙĦÙħØ³ØªØ´Ø§Ø±":6353,"Ø¨Ø²":6354,"Ġ70":6355,"ØªÙĨÙĬ":6356,"Ø§ÙĦØªÙĬ":6357,"ĠØ§ÙĦÙĨØ§Ø¬":6358,"Ø¨Ø§Ø¯ÙĦ":6359,"Ø·ÙĬØ¨":6360,"ĠØªÙĬ":6361,"ÙĦÙĩØ§":6362,"ĠÙħØ¬Ø§ÙĨÙĬØ©":6363,"Ø§Ø´ÙĤ":6364,"ĠÙħÙĩØ§Ø±Ø§Øª":6365,"Ø´Ùī":6366,"ÙĨÙħ":6367,"ĠØ£Ø¬ÙĨ":6368,"ĠØ§ÙĦØ«ÙĦ":6369,"ĠØ£ÙħÙĪØ±":6370,"ĠØ¹Ø§Ø¯ÙĦ":6371,"ĠØ§ÙĦØ£Ø«":6372,"ØªÙĩÙī":6373,"ÙĤØ¯Ø§Ùħ":6374,"ĠÙħÙĪØª":6375,"Ø§Ø¶Ùī":6376,"ĠØŃØ¬Ø±":6377,"ĠØ¥ÙħØ§":6378,"ĠÙħØ¯Ø±":6379,"ĠÙĬØ±ØºØ¨":6380,"ĠØ§ÙĦØ³ÙģÙĬØ±":6381,"ĠØ§ÙĦØºØ±Ùģ":6382,"ĠØªØ±ØºØ¨":6383,"ÙĩØ±Ø©":6384,"ÙĦÙĤØ§Øª":6385,"ïºİïº":6386,"Ø§Ø¯ÙĨ":6387,"ĠØ¨Ø±ÙĬ":6388,"ĠØ§ÙĦØªÙĥÙĨÙĪÙĦÙĪØ¬ÙĬØ§":6389,"ĠÙĪØ§ÙĦØªÙģ":6390,"ÙĪØ¹Ùĩ":6391,"Ø³ÙĬØ·":6392,"ĠÙĪØªÙĤØ¯ÙĬÙħ":6393,"Ø§ÙĦÙĬÙĩ":6394,"ĠÙĬØ·ÙĦÙĤ":6395,"ĠØ±Ø³ÙħÙĬØ©":6396,"ĠØ§ÙĦØ¹Ø´Ø±ÙĬÙĨ":6397,"ĠØ§ÙĦÙħØ±Ø¶Ùī":6398,"Ø±ÙĥÙĩ":6399,"ÙĪÙģØ±Ø©":6400,"ĠØµØ§ØŃ":6401,"ĠØ¸ÙĩØ±Øª":6402,"ĠÙħØ³Ø§Ø¨ÙĤØ©":6403,"Ø¯Ø¨":6404,"âĢĻ":6405,"ĠØªØ¤ÙĥØ¯":6406,"ĠÙģÙĬÙĩÙħ":6407,"ĠØ£Ø¨ÙĪØ¸Ø¨ÙĬ":6408,"Ø§ÙĬÙħ":6409,"ĠÙĬÙĪØ§Ø¬Ùĩ":6410,"ĠÙħØ¹Ø¯Ø§Øª":6411,"ÙħØµ":6412,"ĠÙħØ±Ø¨Ø¹":6413,"80":6414,"ĠØ¨Ø³ÙĬØ·":6415,"ĠØ¨ÙĤØ¯Ø±":6416,"Ġ80":6417,"ĠØ§ÙĦØ³ÙĬØ§ÙĤ":6418,"Ø§Ø¶Ø±Ø©":6419,"ĠØ§ÙĦÙħØ¹Ø±Ø¶":6420,"ĠØ§ÙĦØ£Ø³ÙĨØ§ÙĨ":6421,"Ø¸ÙĬÙħØ©":6422,"ĠØ§ÙĦØ§Ø¶":6423,"ÙĪØ±ÙĬØª":6424,"Ø§ÙĪØ¶":6425,"Ø´Ø§Ø±ÙĥØª":6426,"ĠØ®Ø§Ø±Ø¬ÙĬØ©":6427,"ĠIn":6428,"ĠØ®ÙĬØ±Ø§":6429,"ĠØ§ÙĦØ²ÙħØ§ÙĦÙĥ":6430,"ĠØ§ÙĦØ§Ø³ØªÙģØ§Ø¯Ø©":6431,"ØªØµØ§Ø¯ÙĬ":6432,"Ġ300":6433,"ÙĬØ°ÙĥØ±":6434,"ĠØ´Ùģ":6435,"ÙĦØªÙĤÙī":6436,"ĠØ£Ø±ÙĬØ¯":6437,"ation":6438,"ĠÙħÙĦØ§Ø¨Ø³":6439,"ĠØªÙĥØ±":6440,"ÙĪØ³ÙĪÙģ":6441,"ĠÙħÙĪØ¶":6442,"ÙģÙĬØ¯ÙĬÙĪ":6443,"ĠÙĬÙĩÙħ":6444,"ĠÙĪØ£Ø®":6445,"ĠÙħØ¬Ø§ÙĨÙĬ":6446,"ĠØ§ÙĦØ£ÙĤØµÙī":6447,"ĠØ§ÙĦÙħØµÙĨ":6448,"Ø¦ÙĨØ§Ùģ":6449,"Ø¸Ø§Øª":6450,"ĠØ§ÙĦØªØ±Ø§Ø«":6451,"ÙĪÙĥØ¨":6452,"ĠØ£ÙħÙĬÙĨ":6453,"Ø§Ø¯ÙĬÙĨ":6454,"ĠÙĬØ£Ø®Ø°":6455,"ĠØªØªØ±":6456,"ĠÙĪÙĬÙĨØ¯ÙĪØ²":6457,"ĠØ§ÙĦÙĤÙħØ±":6458,"ĠØ£Ø¹Ø±Ùģ":6459,"Ø±ÙĬØ¨ÙĬ":6460,"Ø£Ø®Ø°":6461,"ĠØ§ØŃØªÙģ":6462,"Ø¹Ùĥ":6463,"ĠØ§ÙĦÙĤÙĨØ§Ø©":6464,"ĠØŃÙĬÙĨÙħØ§":6465,"ĠØ§ÙĦØ¨ÙĨÙĪÙĥ":6466,"ĠØ§ÙĤØªØµØ§Ø¯":6467,"ĠØ§ÙĦÙģØªØ§Ø©":6468,"Ø²ÙĪ":6469,"ĠØ§ÙĦØ£ØŃØ²Ø§Ø¨":6470,"Ø§ÙĩÙĨ":6471,"ÙĬØªÙĥ":6472,"][":6473,"Ø¬Ø²Ø¡":6474,"ĠØ§ÙĦØ§Ø®Ø¨Ø§Ø±":6475,"ĠØ¬Ø²ÙĬØ±Ø©":6476,"ĠØ§ÙĦØªØ®ØµØµ":6477,"Ø·Ø¨ÙĬØ¹Ø©":6478,"ĠØ§ÙĦØ®ÙĦØ§ÙĬØ§":6479,"ĠØ§ÙĦØ£ÙĦÙħØ§ÙĨÙĬ":6480,"ĠØ±Ø³ÙħÙĬ":6481,"ÙĪØµÙģ":6482,"ĠÙħØŃØ¯Ø¯Ø©":6483,"ĠÙĤØ¨ÙĪÙĦ":6484,"ĠØ§ÙĦÙħØ·Ø±":6485,"ĠØ§ÙĦØµØŃÙģ":6486,"ĠÙĪØ§ÙĦØ¹Ø§ÙĦÙħ":6487,"ĠÙĬØ¤Ø«Ø±":6488,"ÙĬØªÙĩÙħ":6489,"ĠÙħÙĪØ§Ø¶ÙĬØ¹":6490,"ĠØ§ÙĦØ§ÙĨØªÙĤ":6491,"ĠØ¨ÙħØ¹ÙĨÙī":6492,"ĠÙĪØ§ÙĦÙģØ±":6493,"ĠØºØ§ÙĦØ¨Ø§":6494,"Ø§Ø³ÙĪØ¨":6495,"ĠØ§ÙĦÙģÙĥØ±Ø©":6496,"ĠØ§ÙĦØ´Ø±ÙĪØ·":6497,"ĠØ¨Ø·ÙĦ":6498,"ĠÙħØ³Ø¤ÙĪÙĦÙĬØ©":6499,"ĠØªØ¨Ø¯ÙĪ":6500,"ĠÙĬØ·ÙĦØ¨":6501,"ĠØ§ÙĦØ¹ÙħÙĪÙħÙĬØ©":6502,"ÙĪØ§ÙĦÙħ":6503,"ĠØ§ÙĦØ´Ø±ÙĬØ¹Ø©":6504,"ĠØ¨ÙħØŃ":6505,"ĠØ¨ÙĨØ§Øª":6506,"ĠØ§ÙĦØ¯Ø¨ÙĦÙĪÙħ":6507,"ĠØªÙĩØ¯Ùģ":6508,"ĠÙģØ§ÙĦÙħ":6509,"ÙĪÙĨØ¯":6510,"ĠÙĨØ¬ÙĪÙħ":6511,"ĠÙĨÙĬÙĪÙĬÙĪØ±Ùĥ":6512,"ĠÙĤØµØ±":6513,"ĠØ±Ø³Ø§Ø¦ÙĦ":6514,"ĠØ§ÙĦØªØ¯Ø®ÙĦ":6515,"ĠØ§ÙĦØ¬ÙħÙĬÙĦ":6516,"ĠØ¯Ø±ÙĩÙħ":6517,"ĠØ¹ÙĦÙħÙĬØ©":6518,"ĠÙĪØ£ØµØ¨ØŃ":6519,"Ø¬Ø±ÙĬ":6520,"ĠØ§ÙĦØ¨ÙĬØ¹":6521,"ØŃØªØ§Ø¬":6522,"ĠØ§ÙĦØ§ØŃØ¯":6523,"ĠÙħØ¬Ùĩ":6524,"Ø¨ÙĦØ§Ø¯":6525,"ĠÙħÙĨØ§Ø³Ø¨":6526,"ĠØ§Ø«ÙĨÙĬÙĨ":6527,"ĠØ§ÙĦØŃØ¬Ùħ":6528,"ĠØ§ÙĦÙĪØ³Ø§Ø¦ÙĦ":6529,"ĠØ§ÙĦØ§ÙĦØªØ²Ø§Ùħ":6530,"ĠØ´ÙĥØ±":6531,"ĠØ°ÙĥØ±Øª":6532,"ĠØ³ÙĩÙĦØ©":6533,"ÙĨØ¹Ùħ":6534,"Ø´Ø±Ø§Ø¡":6535,"ĠØŃÙĦÙħ":6536,"ĠØ£ÙħØ±Ø§Ø¶":6537,"ĠÙħÙĨØµÙĪØ±":6538,"ĠØ§ÙĦØ£ÙĩÙĦ":6539,"ÙģØªØ§Ø¡":6540,"Ø¨Ø¯Ø¡":6541,"ĠØªØ¤Ø«Ø±":6542,"ĠØ§ÙĦÙĨÙĬÙĦ":6543,"ĠØ§Ø³ØªØ®Ø¯Ø§ÙħÙĩØ§":6544,"99":6545,"ĠØ£Ø¨ÙĨ":6546,"ĠØªØ±ØªÙĬØ¨":6547,"Ø¨Ø§ØŃØ«":6548,"Ø§ÙĦØµÙģØŃØ©":6549,"ÙĪØ¯Ø§":6550,"ØµØ§Ø¦ÙĦ":6551,"ĠØ±Ø¦Ø§Ø³Ø©":6552,"ĠØ¨ÙĤÙĬØ©":6553,"ĠØªØŃÙĦÙĬÙĦ":6554,"ĠØªÙĤÙĦÙĬ":6555,"ĠØ®Ø²":6556,"Ø³ÙĪÙĨØ¬":6557,"ĠÙħÙĨÙĥÙħ":6558,"ÙĦØ§ÙħÙĬØ°":6559,"Ø®ÙĦØ§Øµ":6560,"ĠØ®ÙĦØ§ÙĦÙĩ":6561,"ĠØ²Ø§ÙĬØ¯":6562,"ĠØªÙħÙĦÙĥ":6563,"ĠØ§ÙĦØ´Ø§Ùħ":6564,"ĠØ§ÙĦØ¯ÙĬÙħÙĤØ±Ø§Ø·ÙĬ":6565,"ĠÙĤÙĪØ§ÙĨÙĬÙĨ":6566,"ĠØ¬Ø±Ø§Ø¦Ùħ":6567,"ĠØ§ÙĦØ§ÙħÙĬØ±":6568,"ĠØ§ÙĦØ±Ø³Ø§Ø¦ÙĦ":6569,"ÙĤØ§ÙĦØ©":6570,"ĠØ§ÙĦØªØ£ÙħÙĬÙĨ":6571,"ØŃÙī":6572,"ind":6573,"ĠÙĨØ³Ø®":6574,"ĠÙĥÙĪØ±ÙĬØ§":6575,"ĠÙĬØªØ¹Ø±Ø¶":6576,"Ø³ÙĬÙĦ":6577,"ÙĬØ³Ø±":6578,"ĠØ§ÙĦØ¯ÙĬÙĨÙĬ":6579,"Ø¬ÙĦØ¯":6580,"ÙĢÙĢÙĢÙĢÙĢÙĢ":6581,"ÙħØ§Ø·":6582,"ĠØ£Ø²":6583,"Ġ......":6584,"ĠØ´ÙĥØ±Ø§":6585,"Ø§ÙĨØ§Ø©":6586,"ĠØ§ÙĦØ²Ø±Ø§Ø¹Ø©":6587,"ĠØ§Ø³ØªØ±Ø§ØªÙĬØ¬ÙĬØ©":6588,"ĠØªÙĥÙĪÙĬÙĨ":6589,"ÙĬØ§ØªÙĩØ§":6590,"ĠØ¥ÙĦÙĬÙĥ":6591,"ÙĪÙĤØ±":6592,"ĠØ§ÙĦØ³Ø±ÙĬØ¹":6593,"ĠØ¥ÙĨØ³Ø§ÙĨ":6594,"ĠÙĬØ³Ø¨Ø¨":6595,"ĠÙĪÙĨØª":6596,"Ø§Ø¨Ø±Ø§Øª":6597,"ĠØ³ÙĦØ§ÙħØ©":6598,"ĠØ¹ÙĨØ¯Ùĩ":6599,"ĠØ¬ÙħÙĩÙĪØ±ÙĬØ©":6600,"ØŃØ§ÙĪÙĦØ©":6601,"ĠØªÙĪÙĬØªØ±":6602,"ĠÙħÙĨÙĩÙħØ§":6603,"ĠØ§ÙĦØ®ÙħØ³":6604,"ĠÙĥØ£ÙĨ":6605,"Ø§ÙħØ±Ø©":6606,"ĠØ³ÙĦØ·Ø§ÙĨ":6607,"Ø¦ÙĬÙĨ":6608,"ĠÙĪØ§ÙĦØ¯Ùĩ":6609,"Ø£ÙĪÙĦ":6610,"Ø¬ÙĦØ§Øª":6611,"ĠØ±Ø³ÙħÙĬØ§":6612,"ĠØªØµØ¯Ø±":6613,"ÙīØ¡":6614,"ÙĥÙĪÙħ":6615,"ĠÙħØ¦Ø§Øª":6616,"ĠÙĪÙĤØ¹Øª":6617,"ÙĤØ§Ø¨":6618,"ÙĪÙĤÙĪÙģ":6619,"ĠØ¬Ø±ÙĬØ¯Ø©":6620,"ÙĬÙĦÙĪÙĦ":6621,"ĠØ£Ø¨ÙĪØ§Ø¨":6622,"ĠØ¥ØµÙĦØ§ØŃ":6623,"ĠÙĬÙĤÙģ":6624,"Ø²ÙĬØ§Ø¡":6625,"ĠØ§ÙĦØ¶Ø¹":6626,"ĠØ§ÙĦØ¬ÙĦØ³Ø©":6627,"ĠØ§ÙĦØªØ®Ø·ÙĬØ·":6628,"ĠØ§ÙĦØ´ÙĬØ·Ø§ÙĨ":6629,"Ø¬ÙĪØ²":6630,"ĠØ§ÙĦØ£ÙģØ±Ø§Ø¯":6631,"Ø³ÙĪÙģ":6632,"ĠØ£Ø®Ø¨Ø±":6633,"ĠÙĦØ§Ø®":6634,"ĠØ±Ùģ":6635,"ĠØ£Ø¶":6636,"ĠØ¨ØŃØ±":6637,"ĠÙĬÙĨØ¸Ø±":6638,"ĠØ§ÙĦØ£Ø·Ø¨Ø§Ø¡":6639,"ÙĨÙĬØ§ÙĩÙĪ":6640,"ĠØ§ÙĦØ¬Ø±ÙĬÙħØ©":6641,"ĠØ¨Ø¬ÙħÙĬØ¹":6642,"Ø§Ø³ÙĬÙĬÙĨ":6643,"ÙģÙĬÙĤ":6644,"ĠÙĦØ¶ÙħØ§ÙĨ":6645,"ĠÙħÙģØ±":6646,"ÙĪØªÙĬÙĪØ¨":6647,"ĠØ¥ÙĦÙĥØªØ±":6648,"ĠØ§ÙĦØŃÙģÙĦ":6649,"ĠÙħØ±Øª":6650,"ĠÙĪÙĬØ´":6651,"ĠØ¥ÙģØ±ÙĬÙĤÙĬØ§":6652,"Ø§ÙĦØ³Ø§Ø¨ÙĤ":6653,"\":":6654,"ÙĩÙĬØ§Ø±":6655,"ĠØ¹Ø§ÙħÙĦ":6656,"ĠØ§ÙĦÙħØ´Ø§Ø±ÙĥÙĬÙĨ":6657,"ĠØ¬Ø¨ÙĦ":6658,"um":6659,"Ø§ÙģÙĦØ©":6660,"ĠØ¹Ø§ØµÙħØ©":6661,"ĠÙĬØŃÙĤÙĤ":6662,"ĠØªØµØ±Ùģ":6663,"ĠØ§ÙĦÙħØ³ÙĦØ³ÙĦ":6664,"ÙħØ§Ø°Ø§":6665,"ĠØ§ÙĦØ®Ø§Ø±Ø¬ÙĬ":6666,"ĠÙĦÙħØ¹Ø±ÙģØ©":6667,"ĠØ¹ÙħØ±Ùĩ":6668,"ĠØ§ÙĦØ¹Ø«ÙĪØ±":6669,"ĠØ¨Ø§":6670,"ØŃØ§ÙĪÙĦ":6671,"Ø³ÙĬØ¯":6672,"ĠThe":6673,"ĠØ§ÙĦØµÙĬ":6674,"ÙĬÙĪØ±":6675,"ĠÙĦÙħØ´":6676,"ĠÙĨÙĤÙĪÙĦ":6677,"ĠØ±Ø§ØŃ":6678,"ĠØªØ±ÙĥÙĬØ¨":6679,"ĠÙĬÙħØ±":6680,"ĠØ¹ÙĦØ§ÙħØ©":6681,"ĠÙĤÙĪÙī":6682,"ĠÙħØ³Ø±ØŃ":6683,"ĠØªØ®ØªÙĦÙģ":6684,"Ø§ØµÙģØ§Øª":6685,"ĠØ§ÙĦØ´Ø§Ø¹Ø±":6686,"ĠÙħÙĪØ§ÙĤÙģ":6687,"ĠÙħÙĨØµØ¨":6688,"Ø§ÙĦÙĩØ§":6689,"ĠØ¨Ø´Ø§Ø±":6690,"Ø¯Ø±Ø§Ùĥ":6691,"ØªØº":6692,"ĠØ§Ø¶Ø§ÙģØ©":6693,"ĠØ§ÙĦØ¥ÙĦÙĩ":6694,"ĠØ¨Ø³Ø¹Ø±":6695,"ĠØ³ÙĬÙĨØ§Ø¡":6696,"ĠØ§ÙĦØ£ÙĪØ¶Ø§Ø¹":6697,"ĠØ¨Ø®Ø·":6698,"ĠØ¨ØŃØ¬Ùħ":6699,"ĠØ®Ø¨Ø±Ø©":6700,"ĠØ§ÙĦØµØ¹Ø¨":6701,"ĠØ§ÙĦØ£ÙģÙĦØ§Ùħ":6702,"ah":6703,"ĠÙĪØ¯Ø¹Ùħ":6704,"ĠÙĬØªØ·ÙĦØ¨":6705,"ĠØ¹ÙĤÙĦ":6706,"ub":6707,"ĠØ§ÙĦØ§Ø®ØªØ¨Ø§Ø±":6708,"ØŃÙĪÙĦ":6709,"ĠØ§ÙĦØ¥ÙĬØ¬":6710,"ĠØ§ÙĦØ³ÙĪØ±ÙĬÙĬÙĨ":6711,"ĠØ¢Ùħ":6712,"ĠØ¹ÙĥØ³":6713,"ÙĩØ§ÙĨ":6714,"ĠØŃØ±Ø§Ø±Ø©":6715,"ĠØ¥ÙĨØª":6716,"ĠØ¨Ø§ØŃ":6717,"ĠØ§ÙĦØµÙĬØ¯":6718,"ĠÙĨØ§Ø³":6719,"ess":6720,"ĠØ§ÙĦØ²Ø±Ø§Ø¹ÙĬØ©":6721,"ĠØªØ³ÙĦÙĬÙħ":6722,"ÙĬÙĥØ§":6723,"ĠØ§ÙĦÙħØ³ØªÙħØ±":6724,"ĠØ§ÙĦØ¥Ø´Ø§Ø±Ø©":6725,"ĠÙĪØ®ØµÙĪØµ":6726,"ØºØ§":6727,"ØºÙĬØ±Ø§Øª":6728,"ĠÙĪÙĥÙĬÙĦ":6729,"ĠÙĪØ°":6730,"ĠØ§ÙĦØŃØ´Ø±Ø§Øª":6731,"ĠÙĪØ£Ø¹":6732,"ĠÙħÙĪØ³Ùħ":6733,"ĠÙħÙĥÙĪÙĨ":6734,"ĠØ§ÙĦØŃØ¯Ø«":6735,"ĠØ§ÙĦØ®Ø²":6736,"ĠÙħØ±Ø§Ø¬Ø¹Ø©":6737,"Ø§Ø¹Ùħ":6738,"ĠØ¨ÙĦØ¯Ø©":6739,"ĠØªØ¹Ø¨ÙĬØ±":6740,"ĠØªÙĩØ¯ÙĬØ¯":6741,"ĠØ§ÙĦØ´Ø£ÙĨ":6742,"ÙģØªØŃ":6743,"ĠØ§ÙĦÙĤØ¶Ø§Ø¦ÙĬØ©":6744,"ĠØ¬Ø§ÙĨØ¨Ùĩ":6745,"Ø§Ø¶ÙĦ":6746,"ĠØ§ÙĦÙĪÙĥ":6747,"ĠØªÙĪØ§ØµÙĦ":6748,"ÙĪØ§Ø´":6749,"ĠØ§ÙĦØªÙĦ":6750,"ĠÙĪÙĦÙĩØ°Ø§":6751,"ĠØ§ÙĦØ£Ø¯ÙĪÙĬØ©":6752,"ĠØ§ÙĦØ¥Ø³Ø¨Ø§ÙĨÙĬ":6753,"ÙĪÙĦÙĬØ¯":6754,"th":6755,"Ø¹Ø¶ÙĪ":6756,"ĠØ§ÙĦØŃØ±ÙħÙĬÙĨ":6757,"ĠÙĤØ§Ø¯Ø©":6758,"ÙĪÙģÙī":6759,"ĠØ§ÙĦÙĨÙĪØ±":6760,"ĠÙĤØ±Ø±Øª":6761,"ÙĳØĮ":6762,"ex":6763,"ĠÙħØ¯ÙĬØ±ÙĬØ©":6764,"ĠØ§ÙĦØ²ÙĬØ§Ø±Ø©":6765,"ĠÙĪÙģØ¯":6766,"ĠØºØ¶":6767,"ĠÙĦÙħØ¯":6768,"ĠØ§ÙĪØ±":6769,"ĠÙĦÙĦÙĪØµÙĪÙĦ":6770,"ĠØ¹ÙĦÙĪÙħ":6771,"ÙħØ¤":6772,"ÙģØ§ÙĨ":6773,"ĠÙĦÙĦØ£ÙħÙħ":6774,"ÙĪÙĨØ§ÙĦØ¯":6775,"ĠØ§ÙĦØ°Ø§ØªÙĬØ©":6776,"ĠÙĦØŃÙħØ§ÙĬØ©":6777,"ĠØ§ÙĦØŃÙħØ§Ùħ":6778,"Ø§Ø¹ÙĦ":6779,"ĠÙĪÙģÙī":6780,"ÙĤØ¹":6781,"ĠØªØŃØ§ÙĪÙĦ":6782,"ĠØ§ÙĦØ£ØµÙĦÙĬ":6783,"ïºĺ":6784,"Ø§Ø±Ø¬ÙĪ":6785,"ĠØ·ÙĩØ±Ø§ÙĨ":6786,"Ø§Ø²Ø©":6787,"Ø²Ø§ÙĬØ§":6788,"ĠÙĦØ§ÙĨÙĩ":6789,"ĠØ§ÙĦØ®Ø·ÙĪØ§Øª":6790,"ĠØ®ÙĦÙĬÙģØ©":6791,"ĠØ¬Ø¯ÙĪÙĦ":6792,"ĠÙĪØ§ÙĨØ§":6793,"ØµØŃØ§Ø¨":6794,"ĠÙĪØ²Ø±Ø§Ø¡":6795,"ĠØªØªØ¶ÙħÙĨ":6796,"ĠØ¨ÙħØ³Øª":6797,"ĠØ§ÙĦØ¥Ø·ÙĦØ§ÙĤ":6798,"ĠØ±Ø§Ø¨Ø·":6799,"ĠÙħØ´ØªØ±Ùĥ":6800,"ĠÙĥÙĪÙħ":6801,"ĠØ§ÙĦØ¶ÙģØ©":6802,"ĠØ§ÙĦØ¢Ø«Ø§Ø±":6803,"ÙĦÙĬØ´ÙĬØ§Øª":6804,"ĠØ§ÙĦØ®Ø¶":6805,"Ø´ÙĬÙĨ":6806,"ĠØ±Ø¹Ø§ÙĬØ©":6807,"ĠØ¨ÙĪØ§Ø¨Ø©":6808,"ĠÙĪØ£ÙĥØ¯":6809,"ĠØ§ÙĦØ®Ø·ÙĪØ©":6810,"ĠØ¨ÙħÙĪØ¬Ø¨":6811,"ĠØ§ÙĦØ±Ø´":6812,"ÙĪÙĩÙħ":6813,"ÙħØµØ±":6814,"ĠÙħØ£":6815,"ØªÙĥÙħ":6816,"ĠØ§ÙĦØ¯Ø±Ø§Ø³ÙĬØ©":6817,"Ùª":6818,"ĠÙĦØªÙĥÙĪÙĨ":6819,"Ø§Ø·Ùģ":6820,"ĠØ£Ø±Ø³ÙĦ":6821,"ÙĬÙĬØ±":6822,"ÙĲ.":6823,"ĠØ®Ø·Ø§Ø¨":6824,"ïºª":6825,"ĠÙĪØªØ®":6826,"Ù¡":6827,"ĠØ³Ø±ÙĬØ¹":6828,"ĠØµØ¹Ø¨":6829,"ĠØ³ÙĨÙĪÙĬØ§":6830,"ĠÙħØªÙĥ":6831,"ĠØ§ÙĦÙħÙĨØ¸ÙħØ§Øª":6832,"ĠØ³ÙĬÙĦ":6833,"ĠØ§ÙĦØ¹ÙħÙĬÙĦ":6834,"Ø´Ø£":6835,"Ø¬ÙĩÙĪØ¯":6836,"Ġ90":6837,"ĠØ§ÙĦÙĩØ¯":6838,"ĠØ±Ø§Ùħ":6839,"ÙĤØ§ÙĦØª":6840,"ÙĬØ´Ø©":6841,"ĠØ§ÙĦÙĨØ¬Ùħ":6842,"ĠÙģØ¦Ø©":6843,"ĠØ§ÙĦØ¥ÙĨØª":6844,"ĠØ§ÙĦÙħØ¦Ø©":6845,"Ø§Ø¹ÙĬØ¯":6846,"ØªØ¶":6847,"ĠÙĪØ±ØŃÙħØ©":6848,"ĠØ§ÙĦØ¥Ø¹ÙĦØ§ÙħÙĬØ©":6849,"ĠØ§ÙĦØªØ§Ø³Ø¹":6850,"ĠØ§ÙĦØ§Ø³Ø±":6851,"ĠÙĬØ¶Ùħ":6852,"ĠØ§ÙĦØ£Ø³ÙĩÙħ":6853,"ĠØ§ÙĦØ§Ø³ØªØ±Ø§ØªÙĬØ¬ÙĬØ©":6854,"ØªØ±ÙĪÙĦ":6855,"ĠØ§ÙĦØµØ§Ø¯Ø±":6856,"Ù¤":6857,"ĠØ§ÙĦØªØ£Ø«ÙĬØ±":6858,"ÙĤØ³Ø§Ùħ":6859,"Ø¯Ø§ÙħØ©":6860,"Ġ2000":6861,"ĠØ§ÙĦØ§ÙħÙĨ":6862,"ĠØ§ÙĦÙĤØ§Ø¶ÙĬ":6863,"ĠÙĪØ§ÙĦØ§Ø¬ØªÙħØ§Ø¹ÙĬØ©":6864,"ĠØ£ÙĪÙĨ":6865,"ĠØ£Ø³ØªØ§Ø°":6866,"Ġ2006":6867,"ĠÙĪØ§Ø¬Ùĩ":6868,"ĠÙĬØ¹Ø·ÙĬ":6869,"Ø§ÙĪÙħ":6870,"ĠÙħØ¹Ø±ÙĥØ©":6871,"ĠØ§ÙĦØ§Ø±ÙĩØ§Ø¨":6872,"Ø§Ø²ÙĬÙĦ":6873,"ĠÙĥÙĬÙĦÙĪ":6874,"ĠØŃØª":6875,"ĠØ§ÙĦØ§ÙĪØ±":6876,"ĠÙĥÙģØ±":6877,"Ø§ÙĪØ±Ø©":6878,"ØŃØ¨Ø§":6879,"ĠØ§ÙĦÙĨÙģØ³ÙĬ":6880,"Ġï»£":6881,"ĠÙĬÙĥØªØ¨":6882,"Ġ.....":6883,"ĠØŃØ¨ÙĬØ¨":6884,"ĠØ§Ø®ØªÙĦØ§Ùģ":6885,"ĠØ§ÙĦØ§ÙħØ§Ø±Ø§Øª":6886,"ĠÙĦÙĦØµÙģ":6887,"ĠØ³ÙĤØ·":6888,"ĠØªØµÙĨÙĬÙģ":6889,"Ø§Ø·ÙĦ":6890,"ĠÙħÙĬØ¯":6891,"ĠØ§ÙĦØ§ÙĨØªÙĩØ§Ø¡":6892,"ĠØ§ÙĦØµØŃØ±Ø§Ø¡":6893,"ĠØªÙĤØ¨ÙĦ":6894,"ØªØ§Ùħ":6895,"ĠÙĬÙĥÙģÙĬ":6896,"ĠÙĬÙħØªÙĦÙĥ":6897,"ÙħÙĦØª":6898,"ĠÙħÙĬØ±":6899,"ĠØ£ÙħÙĨÙĬØ©":6900,"ĠØ§ÙĦÙĤÙĬØ§ÙħØ©":6901,"Ø¨Ø¹Ø«":6902,"ĠØ£ÙĤØ±":6903,"ĠØ³ÙĬØªÙĬ":6904,"Ø¦ÙĪÙĨ":6905,"ĠØ§ÙĦØµØ¯Ø±":6906,"ĠØ§ÙĦØ£ØŃÙĪØ§ÙĦ":6907,"ĠØ§ÙĦÙħØµØ±Ùī":6908,"ĠØ§ÙĦØ¹ÙĬØ¯":6909,"Ø±ÙĬØ¶Ø©":6910,"Ø±ÙĬØ·Ø©":6911,"ĠÙħÙĪØ§Ø·ÙĨ":6912,"ĠØ¯ÙĤÙĬÙĤ":6913,"Ø¹ÙĪØ§":6914,"ÙĪØ§Ø±Ø¯":6915,"ĠØ¹ÙĬ":6916,"ĠØ§ÙĦÙĤÙĨÙĪØ§Øª":6917,"Ø§Ø¬Ø±ÙĬÙĨ":6918,"ĠÙĪØ§ÙĦØ¥ÙĨ":6919,"ĠØ¨ÙħØ¯":6920,"ØŃØ³ÙĨ":6921,"ĠØ§ÙĦØŃØµ":6922,"ÙĪØ§Ø¦ÙĬ":6923,"ĠØ£Ø¬Ø²Ø§Ø¡":6924,"ĠÙĨÙĤØ¯":6925,"ĠØªÙĤØ¯ÙĬØ±":6926,"ĠÙħØ´Ø§ÙĩØ¯":6927,"ĠØ¬Ø¯ÙĬØ¯Ø§":6928,"ĠÙĬØ¯ÙĬ":6929,"ĠØ¨Ø²":6930,"Ø§Ø·ÙĬØ©":6931,"Ø¨ÙĨØ§Ø¡":6932,"ÙĪØ£Ø¶Ø§ÙģØª":6933,"Ġof":6934,"ĠØ²Ø§ÙĦØª":6935,"Ø¬Ø£":6936,"ĠØªØ¹Ø§ÙĪÙĨ":6937,"Ġ&":6938,"ĠØ§ÙĦÙħØ¨Ø§Ø¯Ø±Ø©":6939,"ĠÙĥØ±Ø¯":6940,"ĠÙĦØ³Ø§ÙĨ":6941,"ĠØ§ÙĦÙħØ¯Ùī":6942,"Ø§Ø¤Ùĩ":6943,"ÙĪÙĥÙĦ":6944,"Ø£ÙħÙĬÙĨ":6945,"ĠØ§ÙĦØ§ÙĦÙĥØªØ±ÙĪÙĨÙĬ":6946,"ÙĬØ¬Ø§Ø¯":6947,"Ø±ÙĬØ§Ø¶Ø©":6948,"ĠÙĤØ§Ø¯Ø±Ø©":6949,"ĠÙĦÙĦØ¨Ø±":6950,"ĠØªØ£Ø®Ø°":6951,"ÙĬØ³Øª":6952,"ĠØ§Ø«ÙĨØ§Ø¡":6953,"ĠÙĬØ´Ø§Ø±Ùĥ":6954,"ĠØ§ÙĦÙħØ³ÙĬØŃÙĬ":6955,"ĠÙĨÙĥÙĪÙĨ":6956,"ĠØ§ÙĦØ§ÙĨØªÙĤØ§ÙĦ":6957,"ĠÙħØ³ÙĬØ±Ø©":6958,"Ġ36":6959,"ĠØ§ÙĦÙħØ¯ÙĨÙĬÙĬÙĨ":6960,"Ø¨Ø·ÙĪÙĦØ©":6961,"ĠØ£ØµÙĪÙĦ":6962,"ÙĬÙģÙĩ":6963,"ĠØ§ÙĦÙħØ®Ø¯Ø±Ø§Øª":6964,"ĠØ®Ø¨Ø±Ø§Ø¡":6965,"ĠØ§ÙĦÙħØ³ÙĦ":6966,"ĠØ§ÙĦØ®Ø·Ø£":6967,"ĠÙħØ®Ø§ÙĦÙģ":6968,"ÙħØ§Øª":6969,"ĠÙĪØ§Ø¨":6970,"Ø±ÙĪØ©":6971,"ĠÙĬÙĨØªØ¸Ø±":6972,"Ø¨ÙĬØ¦Ø©":6973,"ĠØ§ÙĦÙģÙĤØ±":6974,"ĠØ´ÙĩØ¯Øª":6975,"ĠØ§ÙĦÙħØ¯Ø±Ø¨":6976,"ĠØ§ÙĦØ³ÙģØ§Ø±Ø©":6977,"ĠØ§ÙĦÙĤÙħØ©":6978,"ĠØªØ¹ÙĨÙĬ":6979,"Ġ48":6980,"ĠÙģÙĥÙĦ":6981,"Ø±ÙĬÙĩ":6982,"ĠÙĪÙĩÙĨØ§":6983,"ĠØ§ÙĦÙĦØŃØ¸Ø©":6984,"ĠØ§ÙĦØ§ÙĨØª":6985,"ĠØ¥Ø¶Ø§ÙģÙĬØ©":6986,"Ø°Ø§ÙĨ":6987,"ĠØ³ÙĪØ¯":6988,"ĠØ§ÙĦØ³ÙĪØ¯Ø§ÙĨÙĬØ©":6989,"ĠØ§ÙĦÙħØŃØªÙĦØ©":6990,"ĠØ§Ø¶ØºØ·":6991,"ĠØ«ÙħÙĨ":6992,"ØªÙĬØ´":6993,"ĠÙĨØ§ØµØ±":6994,"ĠÙħØ¹ÙĩØ¯":6995,"ĠØ¯ÙĪØ±Ø§":6996,"ĠØ¹ÙĨØµØ±":6997,"ÙĢØ¯":6998,"ĠØ§ÙĦØ±Ø¹Ø§ÙĬØ©":6999,"!!!":7000,"ĠØ§ÙĦÙĪØ¹ÙĬ":7001,"ĠØ¥Ø²Ø§ÙĦØ©":7002,"ĠÙħØ¶ÙĬÙģØ§":7003,"ĠØ§ÙĦÙħØ³ØªØ®Ø¯ÙħØ©":7004,"ĠØ³ÙĬØ§ÙĤ":7005,"ĠÙĪØ°ÙĥØ±":7006,"Ø§ÙĩÙħØ©":7007,"op":7008,"ĠØ¬Ø±ÙĬÙħØ©":7009,"ĠØªÙģØ¹ÙĬÙĦ":7010,"ĠÙĪØ£ÙĨØª":7011,"ØŃØ«":7012,"ÙĤÙĦÙĤ":7013,"ĠØ£ÙĪØ¨":7014,"ĠÙĬÙĤØ§ÙĦ":7015,"ØµÙĬØ±":7016,"ĠÙĤØ§ÙĦÙĪØ§":7017,"ĠØºØ°":7018,"ĠÙħØ¯Ø±Ø¨":7019,"Ø³Ø¨Ø§ÙĨÙĬØ§":7020,"ĠÙĪÙĨØµÙģ":7021,"ĠØ§ÙĦØ³ÙĪØ¯Ø§Ø¡":7022,"ĠÙħØŃÙĦÙĬØ©":7023,"ĠØ§ÙĦÙħØ¬ØªÙħØ¹Ø§Øª":7024,"ĠØ§ÙĦÙĬÙĩØ§":7025,"ĠØ§ÙĦØŃØ¶ÙĪØ±":7026,"ĠØ§ÙĦØµÙĨØ§Ø¹Ø©":7027,"ĠØ¨Ø§ÙĦØ§Ø³Øª":7028,"ĠØ§ÙĦØ·Ø±ÙģÙĬÙĨ":7029,"ĠØ§ÙĦØªØ¹ÙĦÙĬÙĤØ§Øª":7030,"ĠÙĬØ·":7031,"ÙħØ§Ø±Ø³Ø©":7032,"ĠØ¬Ø²Ø¡Ø§":7033,"Ø¨ÙĪØ¨":7034,"ĠØ³ÙĩÙĦ":7035,"ÙĦÙĬÙħØ©":7036,"ĠØ¬Ø¹":7037,"ĠÙĨØ³Ø§Ø¡":7038,"ÙĤÙĬØ§Ø³":7039,"ĠØ§ÙĦØ§Ø³ØªÙĤØ±Ø§Ø±":7040,"ÙģØ§Ø±":7041,"ĠØ§ÙĦØ¥ÙĨØ¬ÙĦÙĬØ²ÙĬ":7042,"ĠØªØ§Ø¨Ø¹":7043,"ĠÙĤÙĬØ¯":7044,"ĠØ±Øº":7045,"ĠØµØ¹ÙĪØ¨Ø©":7046,"ĠØ³ÙĦØ§ØŃ":7047,"ĠÙħØ·ÙĦØ¹":7048,"ĠØ§ÙĦÙħÙģØ§ÙĪØ¶Ø§Øª":7049,"ĠØ§ÙĦØ§Ø¹ØªØ¨Ø§Ø±":7050,"ĠØ§ÙĦØ¯ÙħØ§Øº":7051,"ĠØ¨Ø¬Ø±":7052,"ĠØ§ÙĦØ¬ÙħØ§ÙĩÙĬØ±":7053,"Ø§Ø¯Ø«Ø§Øª":7054,"Ø£Ø«Ø±":7055,"ĠØ§ÙĦØ³Ø§ØŃ":7056,"ĠØªØªØ¨Ø¹":7057,"ĠØ¨ÙĬØ¦Ø©":7058,"ĠØ¥ØµØ§Ø¨Ø©":7059,"ĠÙĦØ§Ø³":7060,"ĠÙĪØ¬Ø±":7061,"ĠØ³ÙĬØ¯ÙĨØ§":7062,"Ø¦ÙĪÙĦÙĬØ©":7063,"ĠÙĨØ§Ùģ":7064,"ÙĪÙĩÙĬ":7065,"ĠØ§ÙĦØ§Ø·ÙģØ§ÙĦ":7066,"ĠÙĨÙĪØ¹ÙĬØ©":7067,"ĠØ§ÙĦØ®Ø¨Ø±Ø©":7068,"ĠÙħØ§ÙĨØ´Ø³ØªØ±":7069,"ĠØ§ÙĦÙĨÙĤØ§Ø·":7070,"ĠØ§ÙĦØ´Ø®ØµÙĬØ§Øª":7071,"ĠØ§ÙĦÙĥØ±Ø¯":7072,"Ø·Ø±ÙĬÙĤØ©":7073,"ĠÙĬØ³Ø¹Ùī":7074,"ĠØ³Ø§ÙĩÙħ":7075,"ĠØ¹ÙĨØ¯ÙĬ":7076,"Ø®ØµØ©":7077,"ÙħØ¬Ø©":7078,"ĠØ§ÙĦØ³Ø§ØŃØ©":7079,"ÙĪØ¶Ùī":7080,"ĠØ±ØŃÙħØ©":7081,"ĠØ§ÙĦØ¹ÙĪØ§ÙħÙĦ":7082,"ĠÙĬØ¹ÙĦÙĨ":7083,"Ø§ÙĦØªØ¹":7084,"Ø§ÙħÙĨØ©":7085,"ĠÙħØ±Ø§ÙĤØ¨Ø©":7086,"Ø«ÙĦØ§Ø«Ø©":7087,"ïºį":7088,"ĠÙģØ¥ÙĨÙĩØ§":7089,"ĠÙĬØ±Ø¯":7090,"ĠÙĪÙĤØ¨ÙĦ":7091,"eb":7092,"ĠØªØ®ØµØµ":7093,"ÙĪØ¹Ø§Øª":7094,"ĠØŃØ¯ÙĬØ«Ø©":7095,"ĠØ§ÙĦØ¬Ø²Ø§Ø¦Ø±ÙĬØ©":7096,"Ø¯ÙĬØ§ÙĨ":7097,"Ġ45":7098,"ĠØ§ÙĦÙħÙĬØ²":7099,"ĠØ§ÙĦØµÙĪÙħ":7100,"Ġ32":7101,"ÙĥÙĦÙĬ":7102,"ĠÙĦØªÙħ":7103,"ï»¤":7104,"ĠØ§ÙĦØŃÙĪ":7105,"ĠØ§ÙĦØ±ÙĤÙħÙĬØ©":7106,"ov":7107,"ĠÙĪÙĥØ°Ø§":7108,"ĠØ§ÙĦØ³Ø§Ø¯Ø³Ø©":7109,"ĠØ§ÙĦØ®Ø¨Ø±Ø§Ø¡":7110,"ĠØ§ÙĦÙĪØ§Ø¬":7111,"ÙĪÙĤØ¹Ø©":7112,"ØŁØŁØŁ":7113,"Ø³ØªÙĪØ±":7114,"ĠØ§ÙĦÙħØŃØ±":7115,"ĠÙĪØ§Ø¨ÙĨ":7116,"Ø§Ø¦ÙģØ©":7117,"ĠÙĬØªÙħØªØ¹":7118,"ĠÙħØ°Ùĩ":7119,"ØµØŃÙĬÙģØ©":7120,"ÙĪÙģÙĤØ§":7121,"ÙĬØ¨ÙĬØ¯ÙĬØ§":7122,"ĠØ§ÙĦÙĤØ§Ø¦Ø¯":7123,"ĠØ¨Ø¯ÙĦ":7124,"ĠØ§ÙĦÙħÙĪØ³ÙĪØ¹Ø©":7125,"ÙĪØ¶ÙĪØŃ":7126,"ĠØ§ÙĦØ®ÙĪÙģ":7127,"ĠØ¢ÙħÙĨ":7128,"Ø³Ùģ":7129,"Ġhttp":7130,"Ø§ÙĤØ¶":7131,"ĠÙĩÙħØ§":7132,"ĠØªÙħÙĪÙĬÙĦ":7133,"ĠØ§ÙĦÙħÙĨÙĪØ±Ø©":7134,"ĠØªØ¨ÙĬÙĨ":7135,"ØŃÙĬØ¨":7136,"ĠÙĦÙĦØ¯ÙĪÙĦØ©":7137,"Ø¨ÙĪØ·":7138,"ĠØ§ØŃØªØ±Ø§Ùħ":7139,"ĠØ§ÙĦØŃØ±ÙĬØ±ÙĬ":7140,"ĠHD":7141,"ĠØ§ÙĦØ£ÙħÙĦ":7142,"Ø¹Ø¯Ø§Ø¯Ø§Øª":7143,"ĠØ§ÙĦÙħØ¹Ùħ":7144,"ĠÙĩØ´":7145,"ĠÙĬØªÙĨ":7146,"ĠÙĪØ¨Ø¯Ø£":7147,"ĠÙĬÙĦØ¹Ø¨":7148,"Ø¹ÙĨØ¯":7149,"ĠÙħØ¨Ø§Ø¯Ø±Ø©":7150,"ĠÙĨØ±ÙĬØ¯":7151,"Ġh":7152,"ĠSt":7153,"ÙĬÙĪØ®":7154,"ÙĦÙħÙĩ":7155,"ĠØ§ÙĦÙĪØ§Ø¶":7156,"ĠØ¢ÙĬØ©":7157,"ĠØ§ÙĦÙħÙĪØµÙĦ":7158,"ĠØ§ØªØ®Ø°":7159,"ÙĨØ¯Ø³Ø©":7160,"ĠØ·ÙĦ":7161,"ĠÙĦÙĬÙĦ":7162,"2016":7163,"ÙģØ´":7164,"Ø§ØªÙĨØ§":7165,"ĠØ§ÙĦØªØ¹ÙĦÙħ":7166,"ĠØ®Ø·ÙĬØ±Ø©":7167,"ĠØ§ÙĦØ¨ÙĪ":7168,"ĠÙħØ³Ø¬Ø¯":7169,"Ġ:-":7170,"ĠÙĪØ£Ø¯":7171,"ĠØ§ÙĦØ³Ø±Ø·Ø§ÙĨ":7172,"ĠØ§ÙĦØªØ¹Ø±Ùģ":7173,"ĠØ§ÙĦØ§Ø±Ø¨Ø¹":7174,"ĠÙĦØŃÙĦ":7175,"ĠØ£ÙĤÙĪÙī":7176,"ĠÙĬØ¬ÙħØ¹":7177,"Ġ=":7178,"ĠÙģØ®":7179,"Ø¯Ø±Ø§ÙĨ":7180,"ĠØªÙĪØ±":7181,"ÙĬÙħØ§Øª":7182,"ĠØ³ÙĨØª":7183,"ĠÙĥØ¨Ø±Ùī":7184,"ĠØ§ÙĦÙħØ±Ø§Ùĩ":7185,"Ø§ÙĦØ§ÙĨ":7186,"ĠØ§ÙĦØªØ±Ø¬":7187,"ĠØ¨ØµÙģØ©":7188,"ĠØ§Ø¹ÙħØ§ÙĦ":7189,"ĠØ§ÙĦØ±ØŃÙĬÙħ":7190,"ĠØ¥ÙĦØºØ§Ø¡":7191,"ĠØ§ÙĦÙħÙĨØ§Ø²ÙĦ":7192,"ĠØ§ÙĦØ§Ø®Ø±Ùī":7193,"Ø±ÙĬØ´":7194,"ĠÙĪØ§Ø¯":7195,"ĠØ³ØŃØ¨":7196,"ĠØ§Ø³ØªÙĤØ¨Ø§ÙĦ":7197,"Ø¬ÙĩØ©":7198,"Ø§Ø®Ø¨Ø§Ø±":7199,"Ø¬Ø§Ùħ":7200,"ĠÙĦØ£ØŃØ¯":7201,"ĠØ§ÙĦÙĤÙĪÙħÙĬØ©":7202,"Ø¹ÙĦØ§ÙĤØ§Øª":7203,"ĠØ£ÙĤØ¯Ùħ":7204,"Ø§Ø§Ø§Ø§Ø§Ø§Ø§Ø§":7205,"ĠØ±Ø¨Ø·":7206,"ÙģØªØ§ØŃ":7207,"ĠØ§ÙĦØ´Ùģ":7208,"Ø±Ø¨ÙĪÙĦ":7209,"ĠØ£Ø³ÙĦÙĪØ¨":7210,"ĠØ§ÙĦØªÙĨÙģÙĬØ°ÙĬØ©":7211,"ĠÙģØ§Ø²":7212,"ĠÙħØ³Ø§Ø±":7213,"ĠÙĨØ¸ÙĬÙģØ©":7214,"ÙĪØ¹Ø§":7215,"ĠØ§ÙĦØ¹Ø«Ùħ":7216,"ÙĩÙĪØ±ÙĬ":7217,"ĠÙħÙĥØªØ¨Ø©":7218,"ĠØ§ÙĦØ¬ÙħØ§ÙĦ":7219,"ĠØ§ÙĦØ±Ø¤ÙĬØ©":7220,"ĠØ§ÙĦÙĦØ¬ÙĪØ¡":7221,"ĠÙĦÙĦÙħØ¹":7222,"ĠÙĦØªØ·ÙĪÙĬØ±":7223,"ĠÙĪØ¬ÙħÙĬØ¹":7224,"ĠØ§ÙĦØµØ¹ÙĬØ¯":7225,"ĠØ®Ø§Ø¯Ùħ":7226,"Ø±ÙĥÙħ":7227,"Ø§Ø´ÙĤØ¬ÙĬ":7228,"ĠÙĤÙĨÙĪØ§Øª":7229,"ĠØªØ£ÙĥÙĬØ¯":7230,"ĠØ¨Ø§Ø³ØªÙħØ±Ø§Ø±":7231,"ĠØ®Ø·Ø·":7232,"ĠÙĪØ§ÙĦØ«ÙĤ":7233,"ĠØ§Ø®ÙĬ":7234,"ĠØ§ÙĦÙĪÙģØ¯":7235,"ĠÙĤÙĬÙĦ":7236,"ĠØ¥Ø´Ø§Ø±Ø©":7237,"ĠØ¨ØªØ´":7238,"ĠÙĬØ¹Ø±Ø¶":7239,"ĠØ§ÙĦØªÙĬØ§Ø±":7240,"âĢ¦]":7241,"ĠØ´Ø¹Ø¨ÙĬØ©":7242,"ĠØ§ÙĦØ§ÙĨÙģ":7243,"ĠØªÙĥØ´Ùģ":7244,"ĠØ§ÙĦØ·ÙĬØ¨":7245,"Ø¸Ùī":7246,"Ø·ÙĬÙĥ":7247,"ĠØ§ÙĦØ¹Ø¯ÙĪØ§ÙĨ":7248,"ĠØ§ÙĦØ¥ÙģØ·Ø§Ø±":7249,"ĠØ§ÙĦØ´ÙĩÙĬØ¯":7250,"ĠÙĬØ¹Ø§ÙĨÙĪÙĨ":7251,"ĠÙĦÙĦØªØµ":7252,"Ø´ØŃÙĬÙĨ":7253,"ĠØ§ØŃØªÙĬØ§Ø¬Ø§Øª":7254,"ĠÙĤØ¶Ø§Ø¡":7255,"ØŃÙĤÙĤ":7256,"ĠØ¨ÙĨØ¸Ø§Ùħ":7257,"ĠØ§ÙĨØªØ®":7258,"ĠØ¨Ø®ÙĬØ±":7259,"ĠÙħØŃØ±Ùĥ":7260,"ĠØ§ÙĦÙĬØ§Ø¨Ø§ÙĨ":7261,"ĠÙĪØ§ÙĦØ¶":7262,"ĠØªØ§Ø¨Ø¹Ø©":7263,"Ø§Ø¡Ø©":7264,"ÙĤÙĬØ§Ø¯Ø©":7265,"ĠØµØ¯ÙĪØ±":7266,"ĠÙĪØ§ÙĦØ¨ØŃ":7267,"ĠÙħÙĨØµØ©":7268,"ÙħÙĪÙĤØ¹":7269,"ĠÙĥØ³Ø§Ø±Ø©":7270,"ĠØ§ÙĦØ«Ø¯ÙĬ":7271,"Ø¨Ø¹Ø¶":7272,"ĠÙĪØ¬Ø¨Ø©":7273,"ĠÙħØ·Ø¹Ùħ":7274,"Ġ,,":7275,"ĠØ§ÙĦÙħØ´ÙĩØ¯":7276,"ĠÙħÙĨØ§Ø²ÙĦ":7277,"ĠØ§ÙĦÙħÙĩØ¯ÙĬ":7278,"ĠÙĤØµØµ":7279,"ĠØ§ÙĦØ®Ø±Ø·ÙĪÙħ":7280,"ÙĪØ¹ÙĨ":7281,"Ø§ÙĪÙģ":7282,"ĠØ§ÙĦØªÙĨØ¸ÙĬÙģ":7283,"ĠØ§Ø³ØªØºÙĦØ§ÙĦ":7284,"ĠÙħÙĨØ³":7285,"ĠÙħÙĪØ¸ÙģÙĬ":7286,"ĠØ§ÙĦØ¹Ø¶ÙĪ":7287,"ĠÙĬØ´ÙĬØ±":7288,"Ø¤Ø¯ÙĬ":7289,"ĠØºØ¯":7290,"ĠÙĪÙĥÙħØ§":7291,"iz":7292,"ĠØ§ÙĦØ¥ÙĤØ§ÙħØ©":7293,"Ø§ÙĦØ¨Ø©":7294,"ĠØ§ÙĦØ´ÙĩÙĬØ±":7295,"ĠØŃØ±Ùģ":7296,"ĠÙĪØ§ÙĦØ¨ØŃØ«":7297,"ĠØ´Ø±Ùģ":7298,"ÙĬØªÙħ":7299,"ÙĩØ§Ø¡":7300,"ers":7301,"ĠÙĦØªÙĤ":7302,"ĠØ¹ÙĬØ³Ùī":7303,"ÙĪØ§Ø³Øª":7304,"ØµØ§Ø¨Ø§Øª":7305,"ĠØ£ØµØ¯ÙĤ":7306,"ĠØ§ÙĦØ¬ÙĪÙĬ":7307,"Ø£Ø±":7308,"ĠØ§ÙĦØ³ÙĦØ¹":7309,"ĠÙĬØ®ØªÙĦÙģ":7310,"ĠØ§ÙĦÙĨÙħ":7311,"ĠØ§ÙĦØªÙħÙĪÙĬÙĦ":7312,"ĠØ§ÙĦØ³ÙĦÙħ":7313,"ĠØ§ÙĦÙĩÙĨØ¯Ø³Ø©":7314,"ÙĪØªÙĪ":7315,"ĠØ§ÙĦÙħÙĨØ§Ø®":7316,"ĠÙħØºÙĦ":7317,"ĠÙĪÙĤÙĪØ¹":7318,"ĠØ§ÙĦØ§ØŃØªØ¬":7319,"ĠÙĦØ¬Ùħ":7320,"ĠØ³ÙħØ¹Øª":7321,"ĠØ¹Ø¸ÙĬÙħ":7322,"ØŃÙĥØ§Ùħ":7323,"ĠØ·Ø¨Ø¹Ø§":7324,"ĠØ§ÙĦØ·Ø§Ø¦Ø±Ø§Øª":7325,"ĠØ¨Ø²ÙĬØ§Ø±Ø©":7326,"ÙĪÙĬØªÙĬ":7327,"ĠØ¬ÙħÙĦØ©":7328,"ĠØ§ÙĨÙĬ":7329,"ĠØ§ÙĦØ®ÙĬØ§Ø±":7330,"ĠØ°Ø§ØªÙĩØ§":7331,"ĠØ§ÙĦØ£Ø®Ø¶Ø±":7332,"ĠÙħØ±Ùĩ":7333,"ĠØ§Ø¨Ø±Ø§ÙĩÙĬÙħ":7334,"ĠØ§ÙĦØŃÙħØ±Ø§Ø¡":7335,"ĠÙĦÙĦÙħØ¯":7336,"ĠØ¥ÙĬØ¬Ø§Ø¯":7337,"ĠØ£ÙĨØ¸ÙħØ©":7338,"ĠØ§ÙĦÙĪÙĦØ§Ø¯Ø©":7339,"ĠØ§Ø¬ÙħÙĦ":7340,"ĠØ«Ø§ÙĨ":7341,"ĠØ§ÙĦÙĥØ±Ø§Ùħ":7342,"ÙĪØ§Ø¦ÙĦ":7343,"ĠØ£ÙĥØ¯Øª":7344,"ĠØ§ÙĤØªØµØ§Ø¯ÙĬØ©":7345,"Ø´ÙĬØ·":7346,"ØªØ¯ÙĬ":7347,"Ø§Ø·ÙħØ©":7348,"ÙĦØ³":7349,"ĠÙĪØ·ÙĨÙĬØ©":7350,"ÙĪÙĬÙģ":7351,"ĠØ³Ø§Ø¨ÙĤØ©":7352,"ĠØ§ÙĦØŃØ§Ø¬":7353,"ĠÙģØ¬":7354,"ĠØ§ÙĦØ³Ø±Ø¹Ø©":7355,"ÙĦÙĬÙĩØ§":7356,"ĠÙĨØ±":7357,"ĠØ§ÙĦØªÙĨØ³ÙĬÙĤ":7358,"Ø¤ÙħÙĨ":7359,"ĠØ¨Ø§ÙĤ":7360,"Ø¦Ø§Ø¨":7361,"ĠØ§ÙĦØ´ÙĩØ¯Ø§Ø¡":7362,"ĠØ§ÙħØªØ¯":7363,"ĠØ§ÙĦÙģØ¦Ø©":7364,"ĠÙĦÙħØ¬ÙĦØ³":7365,"ĠØªØ¨Ø±":7366,"Ø§Ø²Ø§Øª":7367,"ĠØ§ÙĦØ±Ø¦Ø§Ø³Ø©":7368,"ĠØ§ÙĦØ®Ø·ÙĪØ·":7369,"ĠÙĥØ³":7370,"ĠØ§ÙĨØªÙĩÙī":7371,"Ø¹ÙĤØ©":7372,"ĠØ§ÙĦØŃÙĦÙĪÙĦ":7373,"ĠØ£ÙģÙĦØ§Ùħ":7374,"ÙĦÙģØª":7375,"ĠØ¹Ø¯ÙĦ":7376,"ĠØ¨ÙĨÙģØ³Ùĩ":7377,"ĠÙĬØ¯Ø¹Ùħ":7378,"ĠØ§ÙĦÙĤØ±ÙĬØ©":7379,"ÙĪØ¬Ø§Ø¡":7380,"ĠØ§ÙĦÙħØ®Øª":7381,"Ø§Ø´ÙĬ":7382,"Ø§ÙĦØ¹Ø§Ø¨":7383,"Ø¨Ø§ÙĦÙģ":7384,"ĠØ§ÙĦØ¥Ø®":7385,"ĠÙĤØ±ÙĬØ¨Ø©":7386,"ĠØ¬ÙĨØ³":7387,"Ø§ØªÙħ":7388,"ĠÙĤØ¯ÙħØª":7389,"ĠâĢİ":7390,"ĠØµÙĬØ§ÙĨØ©":7391,"ĠØ¨Ø´Ø¯Ø©":7392,"ĠÙħØ±ØªÙĬÙĨ":7393,"ÙĤØ±Ø¢ÙĨ":7394,"ĠØ¹ÙĪØ¯":7395,"ĠØ§ÙĦÙħØŃØ§ÙģØ¸Ø§Øª":7396,"ĠØ§ÙĦØµØŃÙĬØŃØ©":7397,"ĠØ§ÙĦØ¥Ø¯Ø§Ø±ÙĬ":7398,"ĠØ¨Ø¯Ø¹Ùħ":7399,"ĠØ´Ø¯ÙĬØ¯Ø©":7400,"Ø¬Ø§Ø²Ø§Øª":7401,"ïºİï»":7402,"ĠØ£ÙĦØ¹Ø§Ø¨":7403,"ĠØ§ÙĦØ¯Ø§Ø±":7404,"ĠÙĪØ¹Ùħ":7405,"ĠÙĪÙĬÙĥÙĬØ¨ÙĬØ¯ÙĬØ§":7406,"Ø¯ÙĬØ§ÙĦ":7407,"ĠØ§ÙĦÙĨØ´Ø±":7408,"ĠÙĪØ¢Ø®Ø±":7409,"ĠØ¶Ùħ":7410,"ĠØ±ÙĬØ§Ø¶":7411,"ĠØ§ÙĦÙħØ´Ø§ÙĩØ¯":7412,".....":7413,"ØŃØ§ÙĨ":7414,"ĠØ§ÙĦÙħÙĨØ§ÙģØ³Ø©":7415,"Ø²Øª":7416,"ĠØ¨Ø§ØªØ¬Ø§Ùĩ":7417,"Ø§ÙĬÙĨ":7418,"ĠØ¢Ø¯Ùħ":7419,"Ø§ÙĦÙĬØ¯":7420,"ĠØ§ÙĦÙĪÙĥØ§ÙĦØ©":7421,"Ġ).":7422,"ÙĥØªØ´Ø§Ùģ":7423,"ĠÙĬØªÙħÙĥÙĨ":7424,"ÙĪØ§Ø±Ø¦":7425,"ĠØ§ÙĦØ§Ùĩ":7426,"ĠÙħÙĪØ¯":7427,"Ø§ÙĬØªØ¯":7428,"Ø¯Ø¯Øª":7429,"ĠÙĪØ¬Ø§Ø¡":7430,"ĠØ§ÙĦÙĦÙĬØ¨ÙĬ":7431,"ĠØ£Ø³Ø§Ø¨ÙĬØ¹":7432,"ĠÙĬÙĪÙħÙĬÙĨ":7433,"ĠØ§ÙĦÙħÙħØªØ§Ø²":7434,"Ø«Ùī":7435,"ĠØ·Ø¨ÙĬØ¨":7436,"Ø¸Ø§ÙĩØ±Ø©":7437,"ÙĨÙĪØ¨":7438,"ÙĪÙħØ¹":7439,"ĠÙĥÙĪØ±":7440,"ÙĢÙĢØª":7441,"Ø®Ø·ÙĪØ·":7442,"ĠØ§ÙĦØ§ÙħØ§Ùħ":7443,"70":7444,"ĠØ³ÙĬØ³":7445,"ĠØ§ÙĦØ¥ÙĬØ·Ø§ÙĦÙĬ":7446,"ĠÙĦÙĬØ¹":7447,"ĠØ§ÙĦÙĪØŃÙĬØ¯Ø©":7448,"ĠØ§ÙĦØ«Ø§ÙħÙĨ":7449,"ĠÙģØŃØ³Ø¨":7450,"ĠØªØ£ÙħÙĬÙĨ":7451,"ĠØŃØ³Ø§Ø¨Ø§Øª":7452,"Ø§Ø±Ø¯Ø©":7453,"ÙĬÙħÙĤØ±Ø§Ø·ÙĬØ©":7454,"ĠØ§ÙĦØµØ±Ùģ":7455,"ĠØ§ÙĦÙħØ¬ÙħÙĪØ¹Ø§Øª":7456,"ĠØ§ÙĦØ§ÙĦ":7457,"ĠØ®ÙģØ¶":7458,"ĠØ¹ÙĦØ§ÙħØ§Øª":7459,"ĠØ§ÙĤØª":7460,"ĠÙħÙħØ§Ø±":7461,"ĠØ¨Ø¯ÙĤØ©":7462,"ĠØ§ÙĦÙĨØ¬":7463,"ĠÙĩÙĪØ§ØªÙģ":7464,"ĠØªØ¯Ø¹Ùħ":7465,"ĠØ±ÙĤ":7466,"ĠØŃÙĤÙĬÙĤÙĬ":7467,"ĠÙħÙĨØ®ÙģØ¶":7468,"Ġ[âĢ¦]":7469,"ĠØ§ÙĦÙħØªØ§ØŃØ©":7470,"ĠØ³Ø¨Ø¹Ø©":7471,"ĠØ§ÙĦØ£ÙĦØ¨":7472,"od":7473,"ÙĨÙĬÙĩØ§":7474,"ĠØ§ÙĦØªØµÙĪÙĬØ±":7475,"ĠØ£ÙĬØ¯ÙĬ":7476,"âĢ¬âĢ¬":7477,"ĠØ¨ÙħØ´Ø§Ø±ÙĥØ©":7478,"ØªØŃØ§Ø¯":7479,"ĠØ§ÙĨØªØ¸Ø§Ø±":7480,"ĠØ¨Ø§Ø±Ùĥ":7481,"ĠØªØ±Ø¨":7482,"ĠØ¨Ø§ÙĦØªØŃ":7483,"ĠØ·Ø¨ÙĬØ©":7484,"ÙĬØ¦Ø©":7485,"ĠÙĬØªØ¶ÙħÙĨ":7486,"ĠØ¨Ø¥Ø°ÙĨ":7487,"ĠØ§ÙĦØ§ÙħØ±ÙĬÙĥÙĬØ©":7488,"ĠÙĪØ³Ùħ":7489,"ĠÙħÙĤØ¯ÙħØ©":7490,"ĠØ¹Ø§Ø¬":7491,"ĠØ¨ØºÙĬØ±":7492,"Ø¢ÙĦ":7493,"ĠØ§ÙĨÙĩÙħ":7494,"ĠÙĪØ±ÙĤØ©":7495,"ĠÙĤÙĦÙĤ":7496,"ĠØ§ÙĦØ¨ÙĪÙĦ":7497,"ÙģØ§Ø¹ÙĦ":7498,"Ø¨Ø¹Ø©":7499,"ĠÙĨØ¸Ø±Ø©":7500,"ĠÙĪØªØŃÙĤÙĬÙĤ":7501,"ĠØ¥Ø°ÙĨ":7502,"ĠØ§ÙĦØ¨Ø´Ø±ÙĬ":7503,"ĠØ§ÙĦØ§ÙĨØªØ®Ø§Ø¨ÙĬØ©":7504,"ĠÙħÙĨÙģ":7505,"ĠÙĨØ®":7506,"ÙĥØ±ÙĪÙĨ":7507,"ĠØ¬ÙĩØ¯":7508,"ÙĪØ§ÙĦÙĬ":7509,"ĠØ§ÙĦØ²ÙħØ§ÙĨ":7510,"Ø§Ø¦ÙĥØ©":7511,"ĠØ§ÙĦØ°Ø§ÙĥØ±Ø©":7512,"ĠØ§ÙĦØ¥ÙĨØ³Ø§ÙĨÙĬ":7513,"ĠÙģÙĬØµÙĦ":7514,"ĠÙĪØ¨Ø±Ùĥ":7515,"Ø¹ÙĪØ¨Ø§Øª":7516,"ĠØ§ÙĦØªØµÙĪÙĬØª":7517,"ĠØ§ÙĦØ£Ø±Ø¯ÙĨÙĬØ©":7518,"ĠØ§ÙĦÙħÙĪØ¬":7519,"Ø§ÙĦÙħØ´Ø§Ø±ÙĥØ©":7520,"oc":7521,"ÙĪØªÙĩØ§":7522,"ĠØ§ÙĦØºØ±":7523,"ĠÙĦØ§ØŃÙĤØ§":7524,"ĠØ§ÙĦÙĦÙĬÙĦØ©":7525,"ĠØ§ÙĦÙħÙĪØ³ÙĬÙĤÙī":7526,"ĠÙħØ´Ø§Ø¹Ø±":7527,"ĠØ§ÙĦØ¨ÙĤØ§Ø¡":7528,"ĠØ¯Ø±Ø§Ø³Øª":7529,"ĠØªÙĥÙĨÙĪÙĦÙĪØ¬ÙĬØ§":7530,"âĹ":7531,"ĠØ±Ø³ÙĪÙħ":7532,"ĠÙĪØ¨ÙĨØ§Ø¡":7533,"ĠÙĪØ®ØµÙĪØµØ§":7534,"ĠØ§ÙĦØ¹Ø§Ø¯ÙĬØ©":7535,"ĠÙģÙĤØ¯Ø§ÙĨ":7536,"ĠÙĬØªØ±Ùĥ":7537,"ÙĪÙħÙĬÙĨ":7538,"Ø§ÙĩØ©":7539,"ĠØ§Ø¹Ø±Ùģ":7540,"ĠØ±Ø¨Ø¹":7541,"ĠØªÙĪØ§Ø¬Ø¯":7542,"ĠÙĦØŃÙħ":7543,"ÙĦÙĦØ¨ÙĬØ¹":7544,"ĠÙĦÙĦÙħØ±Ø£Ø©":7545,"ÙħÙĨÙĬ":7546,"ĠØ£ÙĨØ´Ø·Ø©":7547,"ĠÙģÙĥÙĬÙģ":7548,"ĠØ§ÙĦØ¸ÙĩØ±":7549,"ĠØ§ï»":7550,"ĠØ§ÙĦÙħØµØ§ÙĦØŃ":7551,"ĠØ²ÙĪØ§Ø¬":7552,"Ø®Ø¨Ø§Ø±ÙĬØ©":7553,"ĠØ§ÙĦØ¬ÙĨÙĪØ¨ÙĬ":7554,"ĠØ§ÙĦÙħØ¹ÙĦÙħ":7555,"ĠØ§ÙĦÙħØ¬Ø±":7556,"ĠØ¬ÙĪØ±Ø¬":7557,"ĠØ§ÙĦÙħØªØ®ØµØµØ©":7558,"ĠØ§ÙĦØ¹ÙĨØ§ÙĬØ©":7559,"ĠØ§ÙĦÙħØ§Ø¦Ø©":7560,"Ø·Ø±ÙĤ":7561,"ØºØ§ÙĨØ³ØªØ§ÙĨ":7562,"ĠØ¨Ø§ÙĦØ±ØºÙħ":7563,"ĠÙĩÙĨØ§ÙĦÙĥ":7564,"ĠÙħØ¹Ø±Ùģ":7565,"ÙĪØ§Ø·ÙĨÙĬÙĨ":7566,"ĠØ´ÙħØ³":7567,"ĠÙĬÙħÙĥÙĨÙĨØ§":7568,"ĠØ®Ø·ÙĪØ·":7569,"ĠØµÙģØŃØ§Øª":7570,"Ø·ÙĦØŃ":7571,"ĠÙħØªØ¬Ø±":7572,"ĠØ¨Ø§ÙĦÙĩ":7573,"ĠÙħØ¬ÙħÙĪØ¹Ø§Øª":7574,"ĠØ§ÙĦÙħÙĤØ§Ø¨ÙĦ":7575,"ĠØ§ÙĦØ§Ø³Ø¨ÙĪØ¹":7576,"ĠØ§ÙĦØ²Ø¨":7577,"ĠÙĬØµØ¯Ø±":7578,"ĠÙĬØ´ÙħÙĦ":7579,"ĠØ§ÙĦØŃØ¨ÙĬØ¨":7580,"ĠÙĦØ³Øª":7581,"ĠÙĦÙĦØ§Ø³":7582,"ĠÙħØ¤ÙĤØª":7583,"Ø±Ø§ØªÙĬØ¬ÙĬ":7584,"ĠØ£ÙĬÙĩØ§":7585,"ĠØ§ÙĦÙĨØµÙģ":7586,"ĠØªØ¨Ø§Ø¯ÙĦ":7587,"ĠØ§ÙĦØ¯Ø§Ø¦Ùħ":7588,"ĠÙĦÙĦØ²":7589,"ĠØ§ÙĦÙħÙĩØ±Ø¬Ø§ÙĨ":7590,"ĠÙģÙĨØŃÙĨ":7591,"Ø§Ø¦ÙĤØ©":7592,"ĠØ§ÙĨØªÙĩØª":7593,"Ø§ÙħÙĦÙĬÙĨ":7594,"ĠØªØªØŃØ¯Ø«":7595,"ĠØ§ÙĦØ§Ø¹ØªÙħØ§Ø¯":7596,"ĠØ§ÙĦÙħØ¹ÙĨÙī":7597,"ĠØ¯ÙĪÙħØ§":7598,"ÙĥØªÙĪØ±Ø©":7599,"ÙĨØ§Ø¹":7600,"Ø¯Ø§Ùħ":7601,"ĠØ§ÙĦÙħÙĬÙĦØ§Ø¯":7602,"ĠAn":7603,"ĠÙĬÙĪÙĨØ§ÙĬØªØ¯":7604,"ĠØ±ØºØ¨Ø©":7605,"ĠØ§ÙĦÙħÙĤØ¯Ø³":7606,"ĠÙĦÙħÙĪÙĤØ¹":7607,"ĠØ§ÙĦØ§ÙĦÙĥØªØ±ÙĪÙĨÙĬØ©":7608,"ĠØªÙħØªÙĦÙĥ":7609,"ĠÙħÙģØªÙĪØŃ":7610,"Ø§Ø¤ÙĩØ§":7611,"ĠØ§ÙĦØ´ÙĬØ¹Ø©":7612,"ĠÙĪØ§ÙĦØ§Ø®":7613,"ĠÙĩØ§ÙħØ©":7614,"ĠÙĪØ²ÙĬØ§Ø¯Ø©":7615,"ĠØ±Ø¦ÙĬØ³Ø§":7616,"ĠØ£Ø¹ØªÙĤØ¯":7617,"ĠØ£ÙĤØµÙī":7618,"ĠØ§ÙĦØ¬ØºØ±":7619,"ĠÙħØ¨Ø¯Ø£":7620,"ĠØ§ÙĦÙģØ§Ø¦Ø¯Ø©":7621,"Ø·ÙĨØ©":7622,"ĠØ§ÙĦÙħØ¤ÙĦÙģ":7623,"ĠØ£Ø³ÙĩÙħ":7624,"ĠÙĪÙĤØ§Ùħ":7625,"ĠØ¥ÙĦÙĬÙĩÙħ":7626,"ÙĪÙĦÙĪØ¬ÙĬØ©":7627,"ĠØ§ÙĦØ³ÙħÙĪ":7628,"ĠØ§ÙĦÙħØ¹Ø¯Ø§Øª":7629,"ĠÙĭ":7630,"ĠØ³Ø§ÙĦÙħ":7631,"ĠÙĨØªÙĨÙĬØ§ÙĩÙĪ":7632,"ĠÙĦÙĦØªÙĨÙħÙĬØ©":7633,"ĠØ§ÙĦØŃØ³Ø§Ø¨":7634,"ĠØ§ÙĨØªÙĤ":7635,"ĠØ¹Ø§ÙĦ":7636,"ĠØ§ÙĦØ¨ÙĦØ¯ÙĬØ©":7637,"ĠÙħØ¨ÙĨÙī":7638,"ĠØ§ÙĦØµØ§Ø¯Ø±Ø©":7639,"ĠØºØ±ÙĬØ¨":7640,"ĠØ§ÙĦÙħØ®ØªØµØ©":7641,"ĠØ°ÙĥØ±Ùī":7642,"ĠÙĨÙĩØ±":7643,"ĠØ§ÙĦÙĪØ¬ÙĪØ¯":7644,"ØŃØªÙĪÙĬ":7645,"ĠØ£ØŃØ³ÙĨ":7646,"ĠØ£Ø³Ùħ":7647,"ĠØ§ÙĦØ¥ÙĤÙĦÙĬÙħÙĬØ©":7648,"Ġw":7649,"ĠØ§ÙĦØªÙĤØ§Ø±ÙĬØ±":7650,"ĠÙĪØªÙĥÙĪÙĨ":7651,"ĠÙģØŃØµ":7652,"ĠØ§ÙĦØµÙĨØ¯ÙĪÙĤ":7653,"ĠØ±ØµØ¯":7654,"ĠØ§ÙĦØŃÙĬÙĪÙĬØ©":7655,"ĠØ£ÙĪØ¶ØŃ":7656,"ĠÙĦÙħÙĨØ¹":7657,"ĠØ§ÙĦÙħØ¹Ø§Ø±Ø¶":7658,"Ø±Ø¨ÙĪÙĨ":7659,"ĠØ§ÙĦØ²ÙĬØªÙĪÙĨ":7660,"ĠØ§ÙĦØ¬ÙħØ§Ø¹Ø§Øª":7661,"Ø§ØµØ¨":7662,"ĠØ§ÙĦØ£Ø¯Ø¨":7663,"ĠØ§ÙĦÙĥØ«":7664,"ĠØ§ÙĦÙħØ°ÙĥÙĪØ±Ø©":7665,"Ø®Ø¨Ø§Ø±Ø§Øª":7666,"Ø±Ø§ÙĨ":7667,"ÙĥÙĦÙĬØ©":7668,"ÙĪØ¯Ø§ÙĨ":7669,"ĠØ§ÙĦØ§Ø¦":7670,"ĠØ§ÙĦØŃÙĥÙĪÙħÙĬ":7671,"ÙħÙĪÙĨ":7672,"Ø§ÙĦØ³ÙĬ":7673,"Ø¨Ø§Ø±Ø§Ø©":7674,"Ø°ÙĬØ±":7675,"Ø§ØªØ°Ø©":7676,"ĠÙĪØŃØ¯Ø§Øª":7677,"ĠØ¨Ø¹ÙĬÙĨ":7678,"ÙĬØ±Ø§Ø¯":7679,"ĠØ£ÙĤÙĬÙħ":7680,"ĠØ§ÙĦÙģÙĨØ§ÙĨØ©":7681,"ĠØ¯ÙĬØ±":7682,"ĠØªØ¯ÙģØ¹":7683,"ĠØ§ÙĦÙģÙĨØ§Ø¯ÙĤ":7684,"ĠÙĨÙĬØ³Ø§ÙĨ":7685,"ĠØ§ÙĦØ§Ø¹Ø¶Ø§Ø¡":7686,"ĠÙħØµØ±ÙĬ":7687,"ĠØ¥Ø¬":7688,"ĠÙħØ¬Ø¯Ø¯Ø§":7689,"ĠØ§ÙĦØªØ·ÙĪØ±":7690,"ĠÙħØ¯Ø§Ø±Ø³":7691,"ĠØ¨ÙħÙĦ":7692,"ØŃØ±ÙĬØ©":7693,"ĠØ§ÙĦØ¹Ø±ÙĪØ¶":7694,"ĠÙĪØ§ÙĦÙħØ¬ØªÙħØ¹":7695,"ØŃÙģ":7696,"ĠØªØ¬ÙĨØ¨":7697,"ÙħØ§Ø±Ø§Øª":7698,"ĠØ§ÙĦØ¨Ø¯Ø¡":7699,"ĠÙĦÙĦØ§ØŃ":7700,"Ġ\".":7701,"ĠØŃÙĬÙĨÙĩØ§":7702,"ĠØ§ÙĦÙĤØªØ§ÙĦ":7703,"ĠØ£Ø¹Ø·":7704,"ĠØ§ÙĦØ´Ùĥ":7705,"Ø§Ø¬ÙĩØ²Ø©":7706,"Ø¤ÙĪÙĦØ©":7707,"Ø¬Ø²Ø§Ø¦Ø±":7708,"ĠÙĪÙĨÙĤÙĦ":7709,"ĠØ£Ø³Ø¦ÙĦØ©":7710,"ĠØŃØ²ÙĬØ±Ø§ÙĨ":7711,"ĠØĮØĮ":7712,"ĠØ§ÙĦØ³Ø§Ø¨Ø¹Ø©":7713,"Ø´Øª":7714,"ĠØ´ÙĩÙĪØ±":7715,"ĠÙĥØ§Ø¨":7716,"ï»²":7717,"ÙĤØ§ÙĪÙħØ©":7718,"ĠØ£Ø¹Ø¸Ùħ":7719,"ĠØ«ÙĤØ©":7720,"ĠØ£ÙĨÙĬ":7721,"ĠØ´Ø±ÙĬÙĥ":7722,"ĠØ¯Ø§ÙĪØ¯":7723,"ĠØ³Ø§ÙħØ³ÙĪÙĨØ¬":7724,"ĠÙĥÙĬÙĦÙĪÙħ":7725,"ĠÙĪØ³Ø±":7726,"ĠØ®Ø§Ø´ÙĤØ¬ÙĬ":7727,"ĠØ§ÙĦØºØ°Ø§Ø¡":7728,"ĠÙĪØ±ÙģØ¹":7729,"ĠÙĦØ§Ùħ":7730,"ĠÙĦÙĦØ§":7731,"ĠØ§ÙĦØ£ÙħÙĨÙĬ":7732,"ĠØ§ÙĦØ§ÙĤØªØ±":7733,"Ġïºįï»Łï»":7734,"ĠØ§ÙĦØªØŃØªÙĬØ©":7735,"ĠØ§ÙĦÙĨÙĩØ§Ø±":7736,"ĠØ£Ø±Ø§Ø¶ÙĬ":7737,"ĠØ§ÙĦÙģÙĥØ±ÙĬØ©":7738,"ĠØ³ØªØŃ":7739,"ĠØ§ÙĦØ£ÙĦÙĪØ§ÙĨ":7740,"ĠØ³ØªÙĬ":7741,"ĠØ§ÙĦÙħØ·Ø§Ø±":7742,"ØºÙĦØ¨":7743,"ĠØ§ÙĦØ¬Ø¨ÙĩØ©":7744,"ĠÙĪØºÙĬØ±ÙĩÙħ":7745,"Ø§Ø±ØªÙĩØ§":7746,"ĠØ§ÙĦØ³ÙĬÙĨÙħ":7747,"ĠØ§ÙĦØ¹ÙĦØ§ÙħØ©":7748,"ĠÙĢÙĢ":7749,"ĠØ§Ø³Ø±":7750,"ĠÙĬØªØ¬Ø§ÙĪØ²":7751,"Ø¨Ø§ÙĦØµÙĪØ±":7752,"ĠÙĨØ¶":7753,"ĠÙĪØ³ÙĨ":7754,"ØªÙħØ±Ø§Øª":7755,"ĠÙĦØ¥Ø¹Ø§Ø¯Ø©":7756,"Ø§ÙĦÙħØ³":7757,"ĠØ§ØŃØªÙĬ":7758,"ĠØ§ÙĦØªÙħØ±":7759,"Ø§ÙĬÙĬÙĨ":7760,"ĠØ§ÙĦÙħÙĪØ§ÙĤÙģ":7761,"Ø§ÙģØª":7762,"ĠØ®ÙĬ":7763,"ØªÙģÙĦ":7764,"Ø§Ø±ÙĬØ§":7765,"ØªØ§Ø¨Ø¹":7766,"ĠØªØ¬Ø¯ÙĬØ¯":7767,"ĠØ§ÙĦÙĪØ§ØŃØ¯Ø©":7768,"ĠÙĪÙĥÙĬÙģÙĬØ©":7769,"ĠØ§ÙĦØ¯ÙħÙĪÙĬØ©":7770,"ĠÙĪØ§ÙĦØªØ¬":7771,"ØªØ§ØŃ":7772,"Ø³ÙĪÙħ":7773,"Ø±ÙĬØŃØ§Øª":7774,"ÙħØ¨":7775,"ĠÙĬÙĤÙĪØ¯":7776,"Ø¶Ø§Ø¡Ø©":7777,"ĠØ§ÙĦØ§Ø³ØªØ§Ø°":7778,"ØªÙĤØ§Ø¯":7779,"ĠÙĪØ§ÙĦØ§":7780,"ĠØªØªÙħÙĬØ²":7781,"ØªØ¬Ø§Øª":7782,"ĠÙĨØ²ÙĦ":7783,"Ġv":7784,"ĠØ§ÙĦØ§ØªØŃ":7785,"Ø¨ÙĪØ§Ø³Ø·Ø©":7786,"ĠØ£Ø³Ø±Ø©":7787,"ĠÙĬØ³ÙĪØ¹":7788,"ĠØ¨ÙĦØ¯Ø§ÙĨ":7789,"ĠØ§ÙĦØªØŃØ¯ÙĬØ§Øª":7790,"ĠÙĦÙĦØŃÙģØ§Ø¸":7791,"Ø¨Øº":7792,"rab":7793,"ÙĪÙĬØ´":7794,"Ø·ÙĦØ¨Ø©":7795,"ĠÙħØ´ØªØ±ÙĥØ©":7796,"Ø·ÙĬÙĨ":7797,"Ø£Ùĥ":7798,"ĠÙĦØªÙĨÙģÙĬØ°":7799,"ĠØ³Ø§Ø¹Ø¯":7800,"ÙĤÙĦÙĬÙħ":7801,"ĠØ§ÙĦÙĤØªÙĦ":7802,"ĠØªØŃØ§ÙĦÙģ":7803,"ĠØ§ÙĦÙħØ³Ø£ÙĦØ©":7804,"ĠØ§ÙĦØ±Ø¨Ø¹":7805,"ĠÙĥØ³Ø±":7806,"ĠØ§ÙĦØ¹Ø§ÙĦÙħÙĬÙĨ":7807,"ĠØ§ÙĦØ¨ÙĬØ¶":7808,"ĠÙ¢ÙłÙ¡Ù":7809,"ĠØ§ÙĦÙĨØ§ØŃÙĬØ©":7810,"ĠÙĬÙĥØ´Ùģ":7811,"ĠÙħÙģØ§Ø¬":7812,"ÙĨØªÙĩØ§":7813,"ĠØ§ÙĦÙħØ¹ÙĩØ¯":7814,"ĠØ¥Ø³ÙħØ§Ø¹ÙĬÙĦ":7815,"ĠØ¯ÙģØ§Ø¹":7816,"ĠØ¯Ø®ÙĦØª":7817,"ĠÙģÙĦÙĬ":7818,"ØŃØ§ÙĤ":7819,"ĠÙĪØ¶Ø¹Øª":7820,"ĠÙĥØ§ÙģÙĬØ©":7821,"ĠÙģÙĪØ±Ø§":7822,"ĠÙĦÙĨÙĤÙĦ":7823,"Ø³ÙĪ":7824,"ĠØ§ÙĦØ±Ø§ØŃØ©":7825,"ÙĪÙĪÙĪÙĪÙĪÙĪÙĪÙĪ":7826,"ĠØ¨Ø¯ÙĪØ±":7827,"ĠÙĦÙĦØ±Ø¦ÙĬØ³":7828,"ĠØ¨ÙĦØ¯ÙĬØ©":7829,"ĠØ§ÙĦØ¹Ø¨Ø¯":7830,"Ø§Ø¸Ø±":7831,"ĠÙĪØªØŃÙħÙĬÙĦ":7832,"ĠØ¨Ø§ÙĦØ§Ø¶Ø§ÙģØ©":7833,"ÙģÙĥØ§Ø±":7834,"ĠÙĪØ±ØºÙħ":7835,"ĠØ£Ø¯ÙĨÙī":7836,"ĠØ§ÙĦØ·Ø§Ø¦Ùģ":7837,"ĠØ£Ø·Ø±Ø§Ùģ":7838,"ĠØ§ÙĦÙħÙĤØ¯Ø³Ø©":7839,"ĠØµØ¹Ø¨Ø©":7840,"ĠØ¨Ø§ÙĦÙħØ¯ÙĬÙĨØ©":7841,"Ø¯ÙĩØ§":7842,"ĠÙĦØ³ÙĬ":7843,"ĠØ²Ø§Ø¯":7844,"ĠØ¹ÙĪØ§ÙħÙĦ":7845,"ĠÙĪÙĦÙĬØ³Øª":7846,"ÙģØ§ÙĬØ§Øª":7847,"ĠØ¨ÙĤÙĪÙĦÙĩ":7848,"ĠØ§ÙĦØ¹ÙĬØ´":7849,"ĠØ¹ÙħÙĦÙĬ":7850,"Ø§Ø³ÙĬÙħØ§":7851,"ĠØ§ÙĦØ´ÙħØ§ÙĦÙĬ":7852,"ĠÙĤÙĬØ§Ø³":7853,"ĠØ§ÙĦÙħÙĨØ²ÙĦÙĬØ©":7854,"ÙģØ±ÙĤØ©":7855,"ĠÙĪØ§ÙĦØ¹Ø´Ø±ÙĬÙĨ":7856,"ØªÙĩØ§ÙĥØ§Øª":7857,"ÙħØ¦":7858,"ĠØ§ÙĦÙģØ±Øµ":7859,"ĠØ§ÙĦÙĪØ§Ø³":7860,"ØªØµØ§Ø¨":7861,"ÙĦÙĪØ§ÙĨ":7862,"ĠØ§ÙĦØ±Ø¤":7863,"ĠØ§ÙĦØ±Ø§ØŃÙĦ":7864,"ĠØ§ÙĦØªÙĪØ§ÙĦÙĬ":7865,"Ø§Ø¯ÙĤØ©":7866,"ĠØ§ÙĦØ¹Ø¸Ùħ":7867,"ĠØ£Ø´ÙĬØ§Ø¡":7868,"Ø³Ø§Ø·Ø©":7869,"ĠÙĪØ§ÙĦØªØ´":7870,"ĠØ§ÙĦØ£Ø²ÙĩØ±":7871,"ĠØ³ÙĬØ±ÙģØ±":7872,"Ø¨Ø·Ø§ÙĦ":7873,"ĠØªÙĤØª":7874,"ĠÙħØŃØªÙĪÙī":7875,"ĠØ§ÙĦÙħØŃØªÙĪÙī":7876,"ĠÙĥÙĪÙĦ":7877,"ÙĪØ§ÙĦÙī":7878,"ĠØ§ÙĦØ³ÙĨÙĪÙĬ":7879,"ĠÙĦÙĦØ§Ø¹":7880,"ĠÙĦÙĦØ³ÙĦ":7881,"ĠÙħØ³Ø§ÙģØ©":7882,"ĠÙĥÙħÙĬØ§Øª":7883,"Ø±ÙģÙĬÙĨ":7884,"Ġ2005":7885,"ĠØ¥Ø´":7886,"ĠØ£Ø«Ø¨Øª":7887,"ĠÙħØªØ·":7888,"ØªÙħØªØ§Ø¹":7889,"Ù§":7890,"ĠØ§ÙĦØ³ÙĥØ±ÙĬ":7891,"Ø§Ø±Ø³Ø§ÙĦ":7892,"ĠØŃÙĦÙĤØ©":7893,"ĠØ§ÙĦÙĪØ«Ø§Ø¦ÙĤ":7894,"ÙĪØ³ÙĬØ©":7895,"ĠØ§ÙĦØ£Ø«Ø±":7896,"ĠÙģØ£ÙĨ":7897,"ØªÙģØ§Ø¡":7898,"ĠØ´ÙĪ":7899,"ĠØ§ÙĦØ£ÙĨØ¸ÙħØ©":7900,"ĠØ§ÙĦØ±Ø³ÙĪÙħ":7901,"ĠØ§ÙĦØ®Ø·Ø©":7902,"ÙĤØ¯Ø±Ø©":7903,"ĠØ§ÙĦÙĨÙĪÙĪÙĬØ©":7904,"Ø¦Ùĩ":7905,"ĠØ¬ÙĬÙĦ":7906,"ĠØ§ØŃØªØ¬Ø§Ø¬":7907,"Ø²ÙĪÙĨ":7908,":\"":7909,"Ø§ÙģÙĦ":7910,"ĠØ§ÙĦÙħØ³Ø§Ø¹Ø¯Ø§Øª":7911,"ÙĥÙĥ":7912,"ĠØ§ÙĦÙħØ¹Ø¯Ø©":7913,"ĠØªÙĩÙħ":7914,"Ø¦Ø°":7915,"ÙĬØ±ÙĪÙĨ":7916,"ĠÙĪØ¨Ø±ÙĥØ§ØªÙĩ":7917,"ĠØ¨Ø§ÙĦÙħØ§Ø¡":7918,"Ø§Ø®Ø±Ø©":7919,"ĠØ³ÙĬØ¯ÙĬ":7920,"ĠÙģÙĨÙĬØ©":7921,"Ø¨Ø«":7922,"ÙĪØ§ØµÙĦØ©":7923,"ĠÙĤÙĦØ¨ÙĬ":7924,"ak":7925,"Ø£Ùī":7926,"ĠÙĪÙĨØ´Ø±":7927,"ĠØ§ÙĦÙģÙĬØ±ÙĪØ³":7928,"Ø¥Ø¶Ø§ÙģØ©":7929,"ĠØ§ÙĦØ¥Ø³ÙĥÙĨØ¯Ø±ÙĬØ©":7930,"Ø§ÙĪÙī":7931,"ĠØ§ÙĦÙĤÙĩÙĪØ©":7932,"ĠÙģÙĩØ¯":7933,"Ø§Ø¹Ø§Ø©":7934,"ĠØ§ÙĦØ´ØªØ§Ø¡":7935,"ÙĪØ¶ÙĬØ©":7936,"ĠØ§ÙĦÙħØ³ÙĦÙħÙĪÙĨ":7937,"ĠÙĥÙħØ§ÙĦ":7938,"ĠÙĦØ¹ÙĦØ§Ø¬":7939,"ÙĨØ¯ÙĬ":7940,"ĠØ¥ØºÙĦØ§ÙĤ":7941,"ĠØ§ÙĦØªÙĪØ¬Ùĩ":7942,"Ġn":7943,"2014":7944,"Ù¦":7945,"Ø§ÙĩØ¯Ø§Ùģ":7946,"ĠÙĦÙĦØµØŃ":7947,"ĠØ§Ø±Ø¶":7948,"ĠØ§ÙĦØ±Ø¨ÙĬØ¹":7949,"ĠØ§ÙĦØµÙĬÙĨÙĬ":7950,"ĠØµØ¯ÙĤ":7951,"Ø·ÙĬÙĦ":7952,"ĠÙĬØ´ÙĩØ¯":7953,"ĠØªØ¬Ø§Ø±ÙĬØ©":7954,"ÙĬØ·Ø©":7955,"ĠØ³ØªØ¹":7956,"ĠØ¨Ø§Ùħ":7957,"ÙĪØ«ÙĬÙĤ":7958,"ĠØªÙĥÙĦÙģØ©":7959,"Ø¬ÙĬØ§ÙĦ":7960,"ĠÙĦÙĦØ¨ÙĨ":7961,"ĠÙĥØ±ÙĬØ³Øª":7962,"ĠØŃØµØ±ÙĬØ§":7963,"ĠØªØµÙĨÙĬØ¹":7964,"ĠØ§ÙĦØ³Ø¹Ø§Ø¯Ø©":7965,"ĠÙĨØ´Ø±Øª":7966,"2015":7967,"Ø®ÙĬÙĦ":7968,"ine":7969,"ĠÙĪÙĦÙĤØ¯":7970,"ÙĪÙĨÙĬØ§":7971,"ÙĪØ§Ø¦Ùħ":7972,"ĠØ§ÙĨØ¯":7973,"ĠÙħØ¹Ø§ÙĬÙĬØ±":7974,"ĠØ¯Ø±Ø§Ø³Ø§Øª":7975,"ĠØ§ÙĦÙħØ¹Ø±ÙĪÙģØ©":7976,"ĠÙĬÙħØ§Ø±Ø³":7977,"Ø±Ø§Ø¯":7978,"ĠØ§ÙĦØªØ¯Ø±ÙĬØ³":7979,"ĠØ£Ø¹Ø¯Ø§Ø¯":7980,"ĠÙħØªØ®ØµØµ":7981,"Ø§ÙĦØ°ÙĬ":7982,"ĠØ§ÙĦØ§ÙĨØ¬ÙĦÙĬØ²ÙĬØ©":7983,"ĠØ§ÙĦÙĤØ¯Ø±":7984,"ĠÙħØµÙĬØ±":7985,"ĠØ§Ø¨Øª":7986,"ĠØ§ÙĦØ§Ø¹ØªØ±Ø§Ùģ":7987,"ĠÙĪØ§ÙĦØ®Ø¯ÙħØ§Øª":7988,"ĠØ§ÙĦÙĨØ¯":7989,"ÙĪØªØ´":7990,"ĠØ¯ÙĥØªÙĪØ±":7991,"Ø¨Ø±Ø§":7992,"ĠØ§ÙĦØ´ÙĩÙĬØ±Ø©":7993,"ĠØ§ÙĦØ¬Ø±Ø§Ø¦Ùħ":7994,"ĠØ§ÙĦØ´Ø±ÙĬÙģÙĬÙĨ":7995,"ĠØ°Ø§":7996,"ĠÙĦÙħØ³Øª":7997,"ĠØ§ÙĦÙĨØµÙĪØµ":7998,"ĠØ§ÙĦØ³ÙĬÙĨÙħØ§":7999,"ĠØ§ÙĦÙĪØ³Ø·Ùī":8000,"ĠØ±ØŃÙĦØ§Øª":8001,"Ø¨Ø§ÙĨ":8002,"ÙħÙĪØŃ":8003,"ĠØ¨ØªÙĤ":8004,"ĠØ£Ø¹Ø±Ø§Ø¶":8005,"ĠØ±ÙĬÙģ":8006,"ĠØ´Ø±Ø·":8007,"ÙĦØ£ÙĨ":8008,"ĠØ¨Ø§ÙĦÙħØ³":8009,"Ø¨ÙĪØ±":8010,"ĠØ±Ø¶":8011,"Ø§ÙģØ³":8012,"ĠÙĦØ±Ø¦ÙĬØ³":8013,"ĠØ£ÙĪØ±Ø§ÙĤ":8014,"ĠÙħØ¬ÙħØ¹":8015,"ĠÙħØ³ØªÙħØ±Ø©":8016,"ÙĪØ§ØªØ¨":8017,"ĠØ§ÙĦÙħØ¹ØªÙĤÙĦ":8018,"ĠØ£Ø³Ø±Ø¹":8019,"ÙĪØ¸Ø§Ø¦Ùģ":8020,"ØºØ·ÙĬ":8021,"ĠÙĪØ£Ø´":8022,"ĠØ£Ø³ÙģÙĦ":8023,"ĠÙĪØ§Ø«":8024,"ÙĪÙĨØ§ÙĦØ¯ÙĪ":8025,"ÙĥÙĬÙĥ":8026,"ÙĥÙħØ¨ÙĬÙĪØªØ±":8027,"ÛĮÙĨ":8028,"2013":8029,"ĠØ«ÙĦ":8030,"ï»¨":8031,"ĠÙĪØªØ¹Ø²ÙĬØ²":8032,"ĠÙĤÙĪÙħ":8033,"ÙģÙĪÙĨ":8034,"Ø±Ø¬Ø§Ø¡":8035,"ØªÙħØ¯Ø©":8036,"Ġg":8037,"ĠØ£ÙĪØ¨Ø§ÙħØ§":8038,"Ø¨ÙĬØ§ÙĨØ§Øª":8039,"ĠÙħÙĤØ§ÙĪÙħØ©":8040,"ĠØ§ÙĦØ´ÙĪØ§Ø±Ø¹":8041,"ĠÙĦØ£Ø¬ÙĦ":8042,"ĠÙģØ¬Ø±":8043,"ĠØ£Ø³Ø³":8044,"ĠØ§ÙĦØ§Ø³ØªÙĤÙĦØ§ÙĦ":8045,"ĠØ¹Ø¯ÙĨ":8046,"Ø§Ø¹ÙħØ©":8047,"ĠÙħÙħØªØ§Ø²Ø©":8048,"ĠØ§ÙħØ³":8049,"ĠÙĥØ´ÙģØª":8050,"ĠØªØ«Ø¨ÙĬØª":8051,"ĠÙĪØ§Ùĥ":8052,"ĠØ§ÙĦÙħÙħÙĬØ²Ø©":8053,"ÙĪØ³Ùħ":8054,"ĠØ±Ø£ÙĬØª":8055,"ÙĥÙĦÙĩ":8056,"ĠØ±ÙĪ":8057,"ĠÙĦØ§ÙģØªØ§":8058,"ï»¿":8059,"ĠØŃÙĬØ§ØªÙĨØ§":8060,"ØªØ±Ø§ÙĤ":8061,"ĠØ§ÙĦÙħØ³Ø§Ø¨ÙĤØ©":8062,"Ø±ÙĬØ®":8063,"ĠÙĥÙĪÙĨÙĩ":8064,"ĠÙĬÙģØ¶ÙĦ":8065,"Ø³ØªØ§ÙĨÙĬ":8066,"ĠØµÙģÙĤØ©":8067,"Ù¨":8068,"ĠØ§ÙĦØ£ÙĨØ¨Ø§Ø¡":8069,"ĠÙĪØ§ÙĦØ¯ÙĬ":8070,"ĠÙĬØ¤ÙħÙĨ":8071,"ĠØ¢Ø°Ø§Ø±":8072,"ĠØ§ÙĦÙħÙĩÙĨÙĬ":8073,"ĠÙĦØ¢":8074,"Ø·Ø±Ø¯":8075,"ĠÙĨØ¨ÙĬ":8076,"ĠØŃØ§Ùħ":8077,"ØªÙģØ¸":8078,"ÙĢÙĢÙĢÙĢÙĢÙĢÙĢ":8079,"ĠØ§ÙĦØªÙĪØµÙĦ":8080,"Ġ2003":8081,"ĠÙĥØ§Ùģ":8082,"ĠØ´Ø§ÙħÙĦØ©":8083,"ĠØ¹Ø§ÙĦÙħÙĬØ§":8084,"ĠØ¢ÙĬ":8085,"ĠØ§ÙĦØªÙĪÙĨØ³":8086,"::":8087,"ØŃÙĩØ§":8088,"Ø§ÙĥÙĬ":8089,"ÙĬØ§ÙĨØ§":8090,"Ġ150":8091,"ĠÙħÙĦÙħ":8092,"Ø§ÙħÙĬÙħ":8093,"ĠØ§ÙĦØ¹ÙħÙĦØ©":8094,"ĠÙħÙĬØ¬Ø§":8095,"ĠÙĦØªÙĦÙĥ":8096,"ÙĪÙĦØª":8097,"ĠÙħØŃØ§ÙĪÙĦØ§Øª":8098,"ĠØªØŃÙĥÙħ":8099,"ĠØªØ±Ø¬ÙħØ©":8100,"Ø§ÙĬØ´":8101,"ĠØ§ÙĦØ¬Ø¯Ø¯":8102,"ĠÙĦÙĦØªØ±":8103,"ĠØ§ÙĦÙħÙĥÙĪÙĨØ§Øª":8104,"ĠÙĪØ·ÙĨ":8105,"ĠÙĪØ§ÙĦÙħØµ":8106,"ĠØ·ÙĦØ¨Ø§Øª":8107,"ĠØ§ÙĦÙĩØ§ÙħØ©":8108,"ĠØ§ÙĦØ¹Ø§Ø·":8109,"ĠÙĪØ§ÙĦØ£ÙħÙĨ":8110,"ĠÙĪØªÙĪÙģÙĬØ±":8111,"ĠØªÙĨØªÙĩÙĬ":8112,"ĠØŁ!":8113,"ĠØ§ÙĦÙĨÙħÙĪØ°Ø¬":8114,"ĠÙħÙĬØ²Ø©":8115,"Ø±ÙĬØ¨ÙĬØ©":8116,"ØŃÙĪÙĨ":8117,"ĠØ³ÙĬØ·Ø±":8118,"ĠØ§ÙĦÙĥØ±ÙĬÙħØ©":8119,"ĠÙĬØ°ÙĩØ¨":8120,"ĠØ¹ÙħÙĦÙĩØ§":8121,"ØºÙĪ":8122,"ĠØ³Ø§ØŃØ©":8123,"ĠØ§ÙĦØ£ØµÙĪÙĦ":8124,"ÙģÙĬÙĬÙĨ":8125,"ĠØµÙĨØ¹Ø§Ø¡":8126,"ĠØ§ÙĦØªÙĪØªØ±":8127,"ĠØ£Ø¬Ø¯":8128,"ÙģÙģ":8129,"ĠÙģØ¹ÙĦÙĩ":8130,"ĠØ·Ø§Ø±ÙĤ":8131,"ĠØ¨ØŃØ¯":8132,"ĠØ§ÙĦØ§Ø¹ÙħØ§ÙĦ":8133,"ÙħØªØ¹":8134,"Ø¸ÙĦÙħ":8135,"ĠÙĪØ§ÙĦÙħØ¤Ø³Ø³Ø§Øª":8136,"ĠØ£ÙĪØ¯":8137,"2012":8138,"Ø®ÙĦØ§Ùģ":8139,"Ø´Ø±ÙĤ":8140,"ĠÙĪÙĥÙħ":8141,"ÙĥØ±ÙĪØ³ÙĪÙģ":8142,"ĠØ§ÙĦØ§ØŃØªÙĬØ§Ø¬Ø§Øª":8143,"ĠØ§ÙĦØ¥Ø·Ø§Ø±":8144,"ĠØ§ÙĦÙħØ±Ø§ÙĥØ²":8145,"ĠÙĪØ±ÙĤ":8146,"ĠØ§ÙĦÙħØ±Ø§Ø¯":8147,"ĠØ§ÙĦÙħØ¨ÙĦØº":8148,"ĠÙħÙĨØ¸ÙĪÙħØ©":8149,"Ġ400":8150,"ĠØªÙĪÙģÙĬ":8151,"Ø¸ÙĩØ§Ø±":8152,"ĠØ§ÙĦØ±Ø¦Ø§Ø³ÙĬØ©":8153,"ĠØ£Ø¯Ø§Ø©":8154,"ĠÙĨÙģØ°":8155,"ĠØ¨Ø¶Ø±ÙĪØ±Ø©":8156,"ĠØ§ÙĦØ§ØŃØªÙĬ":8157,"ĠÙĪØ¥Ø¹Ø§Ø¯Ø©":8158,"if":8159,"one":8160,"ĠÙħØµÙĨ":8161,"ĠØªØªÙĨ":8162,"ĠÙĨÙĪØ¹Ø§":8163,"ĠØªÙħÙĪØ²":8164,"ĠØ¥ÙĨÙĬ":8165,"ĠØ§ÙĦØµØŃØ§Ø¨Ø©":8166,"ĠÙĪØ§ÙĦØ°ÙĬÙĨ":8167,"ĠØ¨Ø¹Ø¯Ùĩ":8168,"Ø§Ø¦Ø³":8169,"ÙĦÙĬØº":8170,"ÙĦÙĥÙĬØ©":8171,"ĠØ§ÙĦØ«Ø§ÙħÙĨØ©":8172,"ĠÙħØºÙĦÙĤØ©":8173,"Ø¬ÙĨÙĪØ¨":8174,"ĠÙĬØªØµ":8175,"ØªÙģØ§ØµÙĬÙĦ":8176,"ĠÙħÙĩØ§Ùħ":8177,"ĠØ¬ÙĪÙĦØ©":8178,"ĠØ§ÙĦØ®ÙĦÙĤ":8179,"ĠØ§ÙĦÙģØªÙĬØ§Øª":8180,"ĠØ§ÙĦØ§Ø®ÙĬØ±Ø©":8181,"ÙĥØ±ÙĪØ³ÙĪÙģØª":8182,"ĠØ§ÙĦØ³ÙĦØ·Ø§ÙĨ":8183,"Ø³ÙĬØ·Ø©":8184,"ĠÙģÙĩÙĨØ§Ùĥ":8185,"ĠÙģÙĬØ³Ø¨":8186,"ĠØ§ÙĦÙĤØ§ÙĨÙĪÙĨÙĬ":8187,"ĠØ¨ÙħØ¬Ø±Ø¯":8188,"90":8189,"ĠØŃÙĬØ§ØªÙĩÙħ":8190,"ĠØ§ÙħØª":8191,"ĠÙĩØ§Ø¯":8192,"ĠØ§ÙĦØ£ØŃÙĥØ§Ùħ":8193,"ĠØ§ÙĨØ´Ø§Ø¡":8194,"ĠØ§ÙĦØ³Ø¨Ø¹":8195,"ĠØ§ÙĦÙģØ¶Ø§Ø¦ÙĬØ©":8196,"ĠØ¹Ø¯Ø§":8197,"Ġï»Ń":8198,"ĠØ§ÙĦÙħØ®Ø§Ø·Ø±":8199,"Ġ37":8200,"ĠØ¬ÙĬØ±":8201,"ĠÙĦÙĦÙĤÙĬØ§Ùħ":8202,"ĠØªØ´Ø§Ø±Ùĥ":8203,"ĠÙģÙĦÙĨ":8204,"ÙĪÙĬØ¹":8205,"ØŃØ§Ø¯ÙĬØ«":8206,"ĠØ§ÙĦØ´Ø±ÙĤÙĬ":8207,"ĠØ§ÙĦÙħØ¹ÙĦ":8208,"ĠØ§ÙĦÙħØ³ØªÙĩÙĦÙĥ":8209,"ÃĹ":8210,"ÙĩÙĨØ§":8211,"ĠØ¢ÙĦÙĩ":8212,"ĠØ§ÙĦÙģÙĬØ²":8213,"ĠØ§ÙĦÙħØ¹Ø±ÙĥØ©":8214,"Ø£Ø¨ÙĪ":8215,"ore":8216,"ĠØ§Ø¹Ø¶Ø§Ø¡":8217,"Ø§ÙĬØ§Øª":8218,"ĠÙĨØµØ§Ø¦ØŃ":8219,"ĠØ§ÙĦØªØŃØ¯ÙĬØ«":8220,"ĠØ§ÙĦØµØ§Ø¯ÙĤ":8221,"ÙģÙĬØ²":8222,"ÙĦÙĥÙĬ":8223,"ĠØ§ÙĦØµÙģØ±":8224,"ĠØ§ÙĦØ£ÙĪØ±Ø§ÙĤ":8225,"ĠÙĪÙĤØ±":8226,"ĠØ§ÙĦØ§Ø³Ø±Ø§Ø¦ÙĬÙĦÙĬ":8227,"ĠÙħÙĪØ¶Ø¹":8228,"ĠÙĦÙħÙĥØ§ÙģØŃØ©":8229,"ĠØ§ÙĦØªØ±Ø¨ÙĪÙĬØ©":8230,"ĠÙħÙĨØ§ÙĤØ´Ø©":8231,"ØŃØµÙĦ":8232,"ĠØ§ÙĦØ·ÙĪÙĬÙĦ":8233,"ÙĪÙģÙĬØ©":8234,"ĠØ§ÙĦÙħÙĥØ±ÙħØ©":8235,"ĠØ¨ØªØ³":8236,"ĠØ§ÙĦÙĤØ¨ÙĪÙĦ":8237,"]ØĮ":8238,"ĠØ§ÙĦÙħØ±ØŃ":8239,"ĠØ§ÙĦØªØŃÙħÙĬÙĦ":8240,"Ø§Ø²ÙĨØ©":8241,"ĠØ¬Ø³Ø¯":8242,"ĠØ§ÙĦØ¨ÙĪØ±":8243,"ĠØ§ÙĦØ£ÙĪÙĦÙĬØ©":8244,"ĠØ¯Ø§Ø±ÙģÙĪØ±":8245,"ĠÙĬØªÙĬØŃ":8246,"Ø·ÙĦÙĪØ¨":8247,"ĠØ§ÙĦÙħØ³Ø±ØŃ":8248,"Ù©":8249,"ĠØ§ÙĦÙħØ§Ø¦ÙĬØ©":8250,"ip":8251,"ĠØµØŃÙĬØŃØ©":8252,"ĠÙħÙĨØµ":8253,"ĠØ£ÙĪÙĦØ¦Ùĥ":8254,"ĠØ°Ø§Ùĥ":8255,"Ø§ØªÙĬÙĨ":8256,"ĠØ²ÙħÙĦ":8257,"ĠÙħØŃÙĬØ·":8258,"ĠÙĪØ§Ø³ØªØ®Ø¯Ø§Ùħ":8259,"ÙĥØ§Ø©":8260,"ĠØ¨Ø§ÙĦØ³ÙĬ":8261,"ĠÙĨØ³ØªØ·ÙĬØ¹":8262,"ĠØ§ÙĦØµØŃÙģÙĬÙĬÙĨ":8263,"ĠØ§ÙĦØ´ÙĩØ§Ø¯Ø©":8264,"ĠÙĬØ·Ø§ÙĦØ¨":8265,"ĠØ¨Ø§ÙĦØ·Ø¨Ø¹":8266,"ĠØ§ÙĦÙĪÙĤÙĪØ¯":8267,"ĠØ§Ø¬ØªÙħØ§Ø¹ÙĬØ©":8268,"ÙĢØª":8269,"ĠØ§ÙĦÙĨØŃÙĪ":8270,"ĠÙĪØ¨Ø§ÙĦØª":8271,"Ø¨Ø§ÙĦÙģÙĬØ¯ÙĬÙĪ":8272,"ĠØ²ÙħØ§ÙĨ":8273,"ĠØªØªØ¬Ø§ÙĪØ²":8274,"ĠÙĦØ²":8275,"Ø§ØªÙĬØŃ":8276,"ĠØ¨ÙĪØªÙĬÙĨ":8277,"Ø§ÙĩÙĬ":8278,"Ø±ØºÙħ":8279,"ĠÙħØ±Ùģ":8280,"ĠÙħØ§Ø¯":8281,"Ø¯Ø±Ø§Ø¬":8282,"ĠØ´ÙĤÙĬÙĤ":8283,"ĠÙģØ§Ø¦Ø¯Ø©":8284,"ĠÙĦÙĪØ²Ø§Ø±Ø©":8285,"ĠØ¬Ø¨ÙĩØ©":8286,"ĠØ´ÙĬØ¦":8287,"ĠÙħØ³ØªØ´Ø§Ø±":8288,"Ø§ÙĨÙĥ":8289,"ĠØ§Ø³ØªÙĤØ±Ø§Ø±":8290,"ĠØ§ÙĦÙĤÙĪØ§Ø¹Ø¯":8291,"ĠØ³Ø¬":8292,"Ø¨ÙĪØª":8293,"ĠÙħØ²Ø¯":8294,"ÙģØ³Ø§Ø¯":8295,"ĠØµØ¯ÙĬ":8296,"ĠÙĦØ£ÙĥØ«Ø±":8297,"ĠØ§ÙĦØ±ÙĤØ§Ø¨Ø©":8298,"ÙĪØ§ØªÙĬ":8299,"ĠØ§ÙĦØ±ÙĬØ§Ø¶ÙĬØ§Øª":8300,"ĠÙģØ´":8301,"ĠÙĦØ®Ø¯ÙħØ©":8302,"ĠØ§ÙĦØ²ÙĪØ¬Ø©":8303,"ĠØªØ¬Ùĩ":8304,"ĠØªÙĬÙħ":8305,"ĠØ§ÙĦÙħØ´ÙĥÙĦØ§Øª":8306,"ĠÙĬÙĤØ¯Ø±":8307,"ĠØ§ÙĦØ¬Ø§Ùĩ":8308,"ĠÙĬØ±ÙĬØ¯ÙĪÙĨ":8309,"Ġï":8310,"ĠØ§ÙĦÙħÙģØ¶":8311,"ĠØ§ÙĨÙĨØ§":8312,"ĠØ§ÙĦØ¹ÙĤÙĪØ¯":8313,"Ø·ÙĪÙĨ":8314,"ÙģØ±Ø©":8315,"ĠÙħØªØ§Ø¨Ø¹":8316,"ĠØ¬ÙĪØ²":8317,"Ø¶Ø¹Ùģ":8318,"ĠÙĦØ¥Ø¯Ø§Ø±Ø©":8319,"Ø¸Ø±ÙĪÙģ":8320,"ĠØ§ÙĦØŃØµØ§Ø±":8321,"ĠÙĪØªÙĥ":8322,"ĠRe":8323,"ĠÙĪØªØ³Øª":8324,"ĠØ³ÙĩÙĪÙĦØ©":8325,"ĠÛĮ":8326,"ĠØ§ÙĦØ§Ø¯Ø§Ø±Ø©":8327,"ĠÙĦÙĦØ´Ø¹Ø¨":8328,"ĠØ°ÙĥØ±Ùĩ":8329,"ĠØ§ÙĦÙĤÙĪÙħ":8330,"ĠÙĤØ§Ø¨ÙĦØ©":8331,"Ø¨ÙĥØ©":8332,"ĠÙģØ±ÙĬÙĤÙĩ":8333,"ĠØ§ÙĦØ§Ø±Ø¨Ø¹Ø§Ø¡":8334,"Ø§Ø·Ø¨":8335,"ĠØ§Ø³ØªÙĨ":8336,"ĠØ¶ØŃØ§ÙĬØ§":8337,"ĠØ¹Ø¬Ø²":8338,"ĠÙģÙĬØ³Ø¨ÙĪÙĥ":8339,"ĠØ¨Ø¬Ø¯":8340,"Ø§Ø´Ø§":8341,"ĠØ§ÙĦØ¯Ø¹Ø§Ø¡":8342,"ÙĪØŃØ¯Ø©":8343,"ĠÙĪØ§Ø¯ÙĬ":8344,"ĠÙħØ®Ø§Ø·Ø±":8345,"ĠÙĬÙĩÙĪØ¯":8346,"ĠØ£Ø³Ø§Ø³ÙĬ":8347,"ĠÙĦÙħØ¤":8348,"ĠØŃØ°Ùģ":8349,"ÙĦÙģØ©":8350,"ØŃÙĨØ©":8351,"ØªÙħØ§Ø¡":8352,"ĠØ§ÙĨØ´":8353,"ĠØªÙħÙĬØ²":8354,"Ø´Ø±ÙĪÙĨ":8355,"ÙĪØ§ÙĥÙĩ":8356,"Ø´Ø®Ø§Øµ":8357,"Ø§ÙĩØ¨":8358,"ĠÙħÙĤØ§Ø¨ÙĦØ©":8359,"ØªØ¹Ø§Ø¯":8360,"ĠØ§ÙĦÙĤØ·Ø§Ø¹Ø§Øª":8361,"ĠØ§ÙĦØªØ¬ÙħØ¹":8362,"ĠÙĨØ¸ÙĬØ±Ùĩ":8363,"ĠØµÙģØŃ":8364,"ĠØ§ÙĦØ¯Ø®ÙĦ":8365,"ĠØ§ÙĦÙĪØ§Ø±Ø¯Ø©":8366,"ĠØ§ÙĦØ±ÙĪÙħ":8367,"Ġl":8368,"ĠÙĦØ£ÙĨÙĩÙħ":8369,"ĠÙĥÙĨØ¯Ø§":8370,"ĠÙĪØ§Ø¬Ø¨":8371,"ĠØªØ¬Ø±ÙĬ":8372,"ĠÙĦÙĦØ´Ø¨Ø§Ø¨":8373,"Ġ38":8374,"ĠØ§ÙĦØ´Ø§ÙħÙĦ":8375,"Ø§Ø¬ÙĩØ§Øª":8376,"ĠØ£Ø±Ø¯ÙĪØºØ§ÙĨ":8377,"Ġ!!!":8378,"ĠØ·Ø§Ø¦Ø±Ø§Øª":8379,"ĠØ´Ø£ÙĨÙĩØ§":8380,"ĠØ§ÙĦÙģØªØ§ØŃ":8381,"Ø¨ÙĦØ§Øº":8382,"ĠØ¯Ø±Ø³":8383,"ĠÙĪØºÙĬØ±Ùĩ":8384,"ÙĪØªØ§":8385,"ĠØ§ÙĦØŃÙĪØ«ÙĬ":8386,"ØªØ¨Ø§ÙĥØ§Øª":8387,"ĠØ¨ÙĬÙĨÙĨØ§":8388,"ĠØªØ¯Ø¹ÙĪ":8389,"ĠØ§ÙĦØ¸Ø§ÙĩØ±Ø©":8390,"ĠØ§ÙĦÙģÙĪØ±ÙĥØ³":8391,"ĠÙĬØªÙħÙĬØ²":8392,"ĠØ§ÙĦØ«Ø§ÙĨÙī":8393,"ÙħÙĨØ°":8394,"ĠÙĨØ§Ø´":8395,"ĠÙĦØ¹ÙĦ":8396,"ĠØ§ÙĦØ³Ø§Ø®":8397,"ÙĪÙĬÙĬÙĨ":8398,"Ø¦Øª":8399,"ĠÙĪØ¹Ø±Ø¶":8400,"gle":8401,"ĠÙĦØ§ØŃØ¸":8402,"ĠÙĪØ®Ø·":8403,"ĠØ¯Ø±ÙĪØ³":8404,"ĠØ§ÙĦØ¯Ø§Ø¦Ø±Ø©":8405,"ÙĨØªØ§Ø¦Ø¬":8406,"ĠØªÙĦÙĤÙĬ":8407,"ØªØ¹ÙĦÙħ":8408,"ØªØ¨Ø§Ø¹":8409,"Ø·ÙĬÙģ":8410,"ĠØªÙĨØ¸Ùħ":8411,"ĠÙĪØ§ÙĦØªÙħ":8412,"ĠØ§ØªØ¨Ø§Ø¹":8413,"ĠØ§ÙĦØªØ³ÙĪÙĬÙĤ":8414,"ĠØªØ¹Ø±Ø¶Øª":8415,"ĠÙĪØ¹ÙĦÙħ":8416,"ĠØ§ÙĦÙģØ§Øª":8417,"ĠØ¹Ø§Ø¦Ø´Ø©":8418,"ĠØ§ÙĦØºØ§ÙĦØ¨":8419,"ĠØ´Ø±Ø¨":8420,"Ø«ÙħØ§Ø±ÙĬØ©":8421,"ÙĳÙį":8422,"ÙĳÙĮ":8423,"ĠØ§ÙĦÙĤÙĦÙĤ":8424,"ĠØ³Ø¬ÙĨ":8425,"ĠÙĬÙĤÙĪÙĦÙĪÙĨ":8426,"ĠØ±Ø§Ø³":8427,"ØªØ±Ø·":8428,"ĠÙĦØ¨ÙĨØ§Ø¡":8429,"ĠÙĬÙĩØ¯Ùģ":8430,"ĠØªØ¬Ø§Ø±Ø¨":8431,"ĠØ§ÙĦÙĤØ°":8432,"ĠØµØ±ØŃ":8433,"ĠÙĪØ¥ÙĦØ§":8434,"Ø§Ø¤ÙĦ":8435,"ĠØªØ®ÙĦ":8436,"ĠØ§ÙĥØ³":8437,"ĠØªØ¬Ø±Ø¨":8438,"ĠØ§ÙĦØºØ°Ø§Ø¦ÙĬ":8439,"Ø¯ÙĪ":8440,"ĠÙħÙĤØ§ÙĦ":8441,"ĠØ§ÙĦØµØŃØ±":8442,"ĠØ§ÙĨØ¸Ø±":8443,"ĠØªÙĤÙģ":8444,"ĠØ´Ø§ÙħÙĦ":8445,"ĠÙĪØ§ÙĦØ¥Ø¹ÙĦØ§Ùħ":8446,"ĠØ¨Ø§ÙĦÙĤØ§ÙĩØ±Ø©":8447,"ĠØ§ÙĦØ³Øª":8448,"ĠÙĪØ®Ø§Ø±Ø¬":8449,"ĠØ§ÙĦØªÙĪÙĨØ³ÙĬØ©":8450,"Ø±Ø§Ø¶":8451,"ĠØ§ÙĦÙĪØµÙģ":8452,"ort":8453,"ØŃØ¶":8454,"Ø§Ø¯ÙĬÙĤ":8455,"ĠÙĦÙĦÙĤÙĪØ§Øª":8456,"ĠÙĦØªÙĨØ¸ÙĬÙħ":8457,"66":8458,"ĠØ§ÙĦØ®ÙĬØ±ÙĬØ©":8459,"ĠÙĤØµØ¯":8460,"ĠØ§ÙĦÙĥÙĦÙī":8461,"ĠØ§ÙĦÙħØªÙĤØ¯Ùħ":8462,"ob":8463,"ĠØ¨Ø§ÙĦØ£Ø³":8464,"ĠÙĦØ§ÙĤ":8465,"ĠØ§ÙĦØ³ÙĬØ§Ø³Ø§Øª":8466,"ĠØŃØ¨ÙĬ":8467,"ĠØ¬Ø¨":8468,"ĠØ¯Ø§Ùģ":8469,"ĠØ§ÙĦÙħØ´Ø±ÙĪØ¹Ø§Øª":8470,"ĠØ§ÙĦÙħÙĩØ§Ùħ":8471,"ĠÙħØ§ÙĦÙĬ":8472,"Ø¶Ø§Ø¹":8473,"ĠÙĦØºÙĬØ±":8474,"ĠØ§ÙĦØ§Ø¹ØªØ¯Ø§Ø¡":8475,"ĠÙħÙħØ«":8476,"ĠØ§ÙĦØ±ØºØ¨Ø©":8477,"Re":8478,"ĠØ§ÙĦÙĦØºØ§Øª":8479,"Ø´ÙĬØŃ":8480,"ĠØ§Ø®ØªÙĬ":8481,"ĠÙħØ³ØŃ":8482,"ĠØ§ÙĦØ¯ÙĪ":8483,"ĠØ§ÙĤÙĦ":8484,"100":8485,"Ø¹ÙħØ±":8486,"ĠÙħÙĨØ·":8487,"ØµÙĬØ©":8488,"ĠÙģØŃ":8489,"Ø¨Ùī":8490,"ĠØ³Ø¹Ø§Ø¯Ø©":8491,"ĠÙħØ±ÙĬÙħ":8492,"ØªØŃØª":8493,"ĠØ§ÙĦÙħØ·Ø¨Ø®":8494,"ĠØ§ÙĦÙħØ´Ø§Ø±":8495,"ĠØ§ÙĦØ§ÙĨÙĤÙĦØ§Ø¨":8496,"ĠÙĨØ¬ØŃ":8497,"ØªØ§Ø¯":8498,"2011":8499,"ĠÙĦØªÙģ":8500,"ĠØ§ÙĦØ£Ø¯ÙĪØ§Øª":8501,"ĠâĢĭ":8502,"ĠØ§ÙĦØµÙĨØ§Ø¹ÙĬ":8503,"ĠØ§ÙĦØŃÙĤØ§Ø¦ÙĤ":8504,"ÙĪØ¨Ùĩ":8505,"ĠÙħÙħØ§Ø±Ø³ØªÙĩØ§":8506,"âĢı.âĢı":8507,"ĠÙģØ§Ø³":8508,"ĠØŃØ¬Ø²":8509,"ĠØ§ÙĦÙĩÙĪÙĬØ©":8510,"ĠÙħØŃØ±":8511,"ĠØ¬Ø¹ÙģØ±":8512,"ĠÙĤØ§Ø¨ÙĦ":8513,"ĠØªÙĤØ¯Ø±":8514,"ĠØªØ·ÙĦÙĤ":8515,"ĠØ£ÙħØ±Ø§":8516,"Ø¬Ø§Ø²Ø©":8517,"ĠØ§Ø³ØªØ®Ø¯Ø§ÙħÙĩ":8518,"ÙĪØ¥ÙĨ":8519,"ĠØ±Ø¬Ø¨":8520,"ĠØ¥Ø·":8521,"ĠØ·ÙĬØ±Ø§ÙĨ":8522,"ĠÙħÙĬØª":8523,"ÙĬÙĦÙĬ":8524,"ÙħÙĨØªØ¯Ùī":8525,"ĠØ§ÙĦÙĥÙĬØ§ÙĨ":8526,"ĠØ¬ÙĪØ§Ø²":8527,"ĠØ¨ÙģØ¹ÙĦ":8528,"ÙĨØµ":8529,"Ø¹Ø¯Ùħ":8530,"ÙĤÙĪÙĦØ©":8531,"ĠØ§ÙĦÙħØªØ¸Ø§ÙĩØ±":8532,"ĠÙħÙĪØ§ÙģÙĤØ©":8533,"ĠÙħØ¹Ø¯ÙĦØ§Øª":8534,"Ġïºįï»Łïº":8535,"ĠØ§ÙĦÙĪÙĩØ§Ø¨":8536,"ĠØ§ÙĦØ¬Ø§ÙħØ¹ÙĬØ©":8537,"ĠÙĪÙĤØªÙĩØ§":8538,"ĠØ§ÙĦÙĤØ±ÙĬØ¨":8539,"ĠØªØ³ØªÙĩØ¯Ùģ":8540,"ĠÙħØªØ®ØµØµØ©":8541,"ĠØµØ±Ø§Ø¹":8542,"ĠØ¥ÙĬÙĤØ§Ùģ":8543,"ÙĦØ§ÙĦØ§Øª":8544,"Ø¦ÙĦ":8545,"ĠÙĥÙĪÙĨÙĩØ§":8546,"ÙĪÙĥÙĪÙĦ":8547,"ÙĪØ¥Ø°Ø§":8548,"ĠÙĤØ¨ÙĬÙĦ":8549,"ĠØªØ¹Ø§ÙħÙĦ":8550,"ĠØ¯Ø¨ÙĦÙĪÙħ":8551,"ĠÙĬÙĥÙĪÙĨÙĪØ§":8552,"ĠØ§ÙĦØªÙĦÙģØ²ÙĬÙĪÙĨ":8553,"ĠÙħÙĤØª":8554,"ĠØ§ÙĦÙħÙĬØ¯":8555,"ĠÙĤØ§ÙĨÙĪÙĨÙĬØ©":8556,"ĠØ§ÙĦÙħØ§Ø¯ÙĬØ©":8557,"ĠØ¥ÙĬØ·Ø§ÙĦÙĬØ§":8558,"ĠØ§ÙĦØªØ§Ø³Ø¹Ø©":8559,"ÙħØ²":8560,"ĠØŃÙĬØ§ØªÙĬ":8561,"ĠØªØ®ØµÙĬØµ":8562,"ĠØ§ÙĦÙĨØ¶":8563,"Ø±ÙĥÙĬØ©":8564,"ĠØŃÙĪÙĦÙĩ":8565,"Ø±ÙĩØ§":8566,"ĠØŃØ±ÙĬ":8567,"ĠØ§ÙĦÙģÙħ":8568,"ÙĦÙĬÙħÙĪÙĨ":8569,"ĠØ§ÙĦØ¶Ø±ÙĪØ±ÙĬ":8570,"ØªØ±ÙģÙĬÙĨ":8571,"ĠØ·ÙĪÙĬÙĦØ§":8572,"ĠÙĤØ¯ÙĬÙħ":8573,"ĠØ§ÙĦÙĨÙĩØ¶Ø©":8574,"ĠØºØ¶Ø¨":8575,"ÙħÙĪØ±":8576,"ĠÙĩØ§ÙħØ´":8577,"ĠØ§ÙĦÙħÙĩØ§Ø±Ø§Øª":8578,"ÙĪÙĤØ¹Ø§Øª":8579,"ĠØ³ØªØ±":8580,"ews":8581,"ĠØªØ¹Ø¨":8582,"ĠØ§ÙĦÙĤÙĦÙĬÙĦØ©":8583,"ĠÙĪØ§ÙĦØ¹Ø±Ø§ÙĤ":8584,"Ø§Ø³Ùī":8585,"ĠØ§ÙĦØ°ÙĥØ±Ùī":8586,"ĠØ§ÙĦÙħØ³ØªØ«ÙħØ±ÙĬÙĨ":8587,"Ø£ÙĪÙĦØ§":8588,"ĠØ¬ÙħÙĩÙĪØ±":8589,"Ø§ØŃØ¸Ø§Øª":8590,"ĠØ¶ÙĬ":8591,"ĠØŃØ°":8592,"Ø§ÙĦØ¯ÙĬÙĨ":8593,"ĠØ³ÙĬØ·Ø±Ø©":8594,"rt":8595,"ĠØŃÙĦÙģ":8596,"ĠÙĪØ§ÙĦØªØ¹Ø§ÙĪÙĨ":8597,"ĠÙģÙĬØªØ§ÙħÙĬÙĨ":8598,"Ø³ÙĬØ±":8599,"ĠØ§ÙĦØ¥Ø¬Ø§Ø¨Ø©":8600,"ĠØ§ÙĦÙħØ¨Ø§Ø±ÙĬØ§Øª":8601,"ĠØ¶Ø®ÙħØ©":8602,"ĠØ§Ø¨ØªØ¯Ø§Ø¡":8603,"Ø¦ÙħØ©":8604,"ĠØ´Ø£ÙĨÙĩ":8605,"ĠØ§ÙĦØ¹Ø§Ø¦ÙĦ":8606,"ĠØ§ÙĦØªØ¬Ø§Ø±Ø¨":8607,"Ø§ØŃÙĤØ©":8608,"ĠØ§ÙĦØ¨Ø±Ø§Ø²ÙĬÙĦ":8609,"ĠØ§ÙĦØ¥ÙħÙĥØ§ÙĨ":8610,"ate":8611,"Ø³ÙĦÙħ":8612,"Ø¨ÙĬØ§Øª":8613,"ĠØ§ÙĨØªØ§Ø¬":8614,"ĠØªØ¯ÙĪØ±":8615,"ĠØ¨Ø±ÙĬØ¯":8616,"Ø£Ø®":8617,"ĠÙĬØ±Ø¬Ø¹":8618,"ĠØ·ÙģÙĦÙĥ":8619,"Ø§ÙĨÙĬÙĩ":8620,"ØŃØ³":8621,"ĠØ§ÙĦÙĤÙĦÙĬÙĦ":8622,"est":8623,"ĠØµÙĦØ©":8624,"ĠÙĪØ«ÙĬÙĤØ©":8625,"Ø±ÙĪØ§":8626,"ĠØ§ÙĦØ³ÙĦØ¨ÙĬØ©":8627,"ĠØ§ÙĦØªÙĩØ§Ø¨":8628,"ĠÙĬÙģÙĩÙħ":8629,"ĠØ§ÙĦÙĪØŃØ¯Ø§Øª":8630,"ce":8631,"ĠØ§ÙĦÙĨØ´":8632,"Ø§ÙĦÙĬÙģ":8633,"ĠØ§ÙĦÙĬÙħÙĬÙĨ":8634,"ĠØ¯Ø§Ùħ":8635,"ĠØ²Ø¹ÙĬÙħ":8636,"Ø±Ø§ØªÙĬØ¬ÙĬØ§Øª":8637,"ĠÙĬØ¯Ùĩ":8638,"ÙĢÙĢØ©":8639,"ĠØ±ÙģÙĬ":8640,"ĠÙĬØ¹Ø¨Ø±":8641,"ĠØ§ÙĦØªØŃÙĦÙĬÙĦ":8642,"ĠØ«Ø¨Øª":8643,"ĠØ§ÙĦÙħØŃÙĬØ·Ø©":8644,"ĠÙħÙĤØ§Øª":8645,"ĠØªØªØ·ÙĦØ¨":8646,"ĠØ¥Ø¬ÙħØ§ÙĦÙĬ":8647,"ĠØ¨Ø¬ÙĪØ§Ø±":8648,"Ø§Ø¶Ø±Ø§Øª":8649,"ĠÙĬØ±Ø¬Ùī":8650,"ĠØ£Ø¹ÙĪØ§Ùħ":8651,"ÙĦØ¹Ø¨Ø©":8652,"ĠØºÙĬ":8653,"ÙĬØ§ØªÙĬ":8654,"ĠØ§ÙĦØ§ØŃØªÙģ":8655,"ĠÙĦØªØ¹Ø²ÙĬØ²":8656,"ĠÙĪØ§ÙĦØµØŃ":8657,"ĠØ§ÙĦØ£ÙĨØ¨ÙĬØ§Ø¡":8658,"ĠØ§ÙĦØªØ·ÙĪÙĬØ±":8659,"Ø±Ø¶ÙĬ":8660,"ĠÙģÙĩØ°Ùĩ":8661,"ĠÙĪØ¨ÙĦ":8662,"ĠØ§ÙĦØ¹Ø§Ø¯ÙĬ":8663,"ĠÙĪØ²ÙĪØ¬":8664,"ĠÙģØ¨":8665,"ĠÙĦÙĬÙģØ±Ø¨ÙĪÙĦ":8666,"ĠØ·Ø§ÙĦÙħØ§":8667,"ĠÙħÙĦÙĬØ§Ø±Ø§Øª":8668,"ĠÙħÙĬØ¯Ø§ÙĨ":8669,"ĠØ¨Ø§ÙĦØ¯Ùħ":8670,"Ø¹ÙħÙĤ":8671,"ĠØ¨ÙĬÙĥ":8672,"ĠØªØ±Ø¯Ø¯":8673,"oogle":8674,"ĠØ§ÙĦØ¨ÙĨÙĬØ©":8675,"ĠØ§ÙĦÙħØ³Ø§ØŃØ©":8676,"ĠÙĬØŃØ¯Ø¯":8677,"ĠÙħÙģÙĬØ¯Ø©":8678,"ĠØ§ÙĦØ¬Ø§ÙħØ¹ÙĬ":8679,"ĠÙĪØ§ÙĦØ¹Ø¯":8680,"ĠØªÙĪØ¸ÙĬÙģ":8681,"ĠØ§ÙĦØªÙĪÙģÙĬÙĤ":8682,"ĠØ¢ÙĦÙĬØ©":8683,"Ø§Ø¨ÙĤØ§Øª":8684,"ĠÙģØ§Ø·ÙħØ©":8685,"ĠÙģØ³ÙĬ":8686,"Ø¯ÙħØ§Ø¬":8687,"ÙħØ³Øª":8688,"ĠØ§ÙĦØ§Ø²":8689,"ĠÙĦØŃØ²Ø¨":8690,"ĠÙħØ¹Ø§ÙĦØ¬":8691,"ĠØ§ÙĦÙħØ®Ø§Ø¨Ø±Ø§Øª":8692,"Ø§Ø¨ÙĬØ±":8693,"ØºÙĨ":8694,"âĢ¦âĢ¦":8695,"ÙĦØ°ÙĦÙĥ":8696,"ĠÙģØ¥":8697,"ØªØ¨Ø¹":8698,"ĠÙĬØ¯Ø±Ùĥ":8699,"ĠØ§ÙĦØ¹Ø³ÙĦ":8700,"ĠØªØ³ØªÙħØ±":8701,"ĠØ§ÙĦØ¶ÙĬ":8702,"ĠÙĬÙħÙĥÙĨÙĩ":8703,"ÙĤÙĬØ¨Ø©":8704,"ĠØªÙĦØ¹Ø¨":8705,"ĠØ£Ø³ÙģØ±":8706,"ĠÙĪÙĨØ³":8707,"ĠØ§ÙĦÙħØŃÙħÙĪÙĦ":8708,"ĠÙĪØ¬ÙĩÙĩ":8709,"ĠØªÙĤØ³ÙĬÙħ":8710,"ĠØ§ÙĦÙĪØ§Ø¶ØŃ":8711,"ĠØ®Ø·ÙĪØ±Ø©":8712,"ĠÙĪØ¨Ø¹Ø¯ÙĩØ§":8713,"ĠØ£ÙĥÙħÙĦ":8714,"ĠØ®Ø³Ø§Ø¦Ø±":8715,"ĠÙĬØŃÙĬÙī":8716,"ĠAd":8717,"ĠÙħØŃØ¯ÙĪØ¯Ø©":8718,"ĠÙħØ¶Ùħ":8719,"ĠÙĦÙĪØ¶Ø¹":8720,"ĠØ·Ø¨ÙĬØ¹":8721,"ĠØ´Ø¹Ø¨ÙĨØ§":8722,"ĠÙĥÙĦÙĬ":8723,"ÙĪØ§ÙĬØ§":8724,"ĠÙĦØ²ÙĬØ§Ø¯Ø©":8725,"ĠÙĥØ§Øª":8726,"ĠØ¯ÙĬÙĥ":8727,"ĠÙĬØ±ÙģØ¶":8728,"ĠØ³ÙĪØ±ÙĬ":8729,"ĠØ±Ø¶Ø§":8730,"ĠØ§ÙĦØ¯Ø³ØªÙĪØ±ÙĬØ©":8731,"ĠØ§ÙĦÙĬÙĪÙħÙĬ":8732,"ĠØ§ÙĦØ¹Ø§ÙħÙĦ":8733,"ĠØ·Ø§ÙĤØ©":8734,"ĠØ¹Ø±ÙģØª":8735,"ĠØ§ÙĦØ³ÙĦØ§ÙħØ©":8736,"ĠÙĬÙģØª":8737,"ĠØªØ¯ÙĦ":8738,"ÙĦØ¯":8739,"ĠØªØªÙħØªØ¹":8740,"ĠØªÙģÙĬØ¯":8741,"all":8742,"ĠØ®ØµØ§Ø¦Øµ":8743,"ĠØ§ØŃØªÙħØ§ÙĦ":8744,"Ø§Ø®Øª":8745,"ĠÙĦÙĦÙħØ³ØªØ®Ø¯Ùħ":8746,"ĠØ£Ø´Ø¯":8747,"av":8748,"ĠÙĪØ¨Ø°ÙĦÙĥ":8749,"ĠØ¨Ø§ÙĦØ§Øª":8750,"ĠØ§ÙĦÙħØ¹ÙĦÙħÙĬÙĨ":8751,"ĠØ§ÙĦØ¬Ø¨ÙĦ":8752,"ØµÙĪØ¯":8753,"ĠÙĦØ°":8754,"ĠØ¹Ø§ÙħÙĬÙĨ":8755,"ÙĪÙĬÙĤÙĪÙĦ":8756,"ĠÙħØ±Ø³ÙĬ":8757,"ĠÙħØ¹ØªØ¨Ø±":8758,"ĠØŃØ¯ÙĬÙĤØ©":8759,"ĠØ¬ÙĩØ§Ø²Ùĥ":8760,"ĠÙģØ§ÙĬ":8761,"ĠØŁØŁØŁ":8762,"ĠÙĬØªÙĥÙĪÙĨ":8763,"ĠØ§ÙĦØ¹ÙĥØ³":8764,"ĠØ§ÙĦÙħØ±Ø¡":8765,"ĠØ§ÙĦÙħØªÙĤØ¯ÙħØ©":8766,"ĠØ§ÙĦØ´ØŃÙĨ":8767,"ĠÙĪØ§ÙĦØ§Ùħ":8768,"ĠÙĦÙĦÙĨØ§Ø³":8769,"ĠØªÙĤØ±":8770,"ĠØªØ¹Ø·ÙĬ":8771,"ï»³":8772,"ĠØ§ÙĦÙħÙĦØ¹Ø¨":8773,"pt":8774,"ĠØ¢Ø±":8775,"ĠØ¬ÙĩØ§Øª":8776,"ĠØ§ÙĦØ¢ÙĦØ§Ùģ":8777,"ĠØ§ÙĦØ£ØµØ¯ÙĤØ§Ø¡":8778,"ĠØ§ÙĦÙĥØ¨Ø§Ø±":8779,"ĠØªØªØ¹Ø±Ø¶":8780,"ÙĪÙĩØ§Øª":8781,"ĠØ§ÙĦØ®Ø¶Ø±":8782,"ÙĪØªÙħ":8783,"ØªØ¹Ø©":8784,"ĠØ±Ø¬ÙĦØ§":8785,"ÙĪØ¨ØŃØ³Ø¨":8786,"ĠÙĬÙĦØ²Ùħ":8787,"ÙĪØ§ÙģÙĤØ©":8788,"ï»¦":8789,"ĠØ§ÙĦØªÙĩØ¯ÙĬØ¯":8790,"ĠÙħÙģØªÙĪØŃØ©":8791,"ĠØ§ÙĦØ£Ø±Ø¯ÙĨÙĬ":8792,"ĠØ§ÙĦØ£ÙĥØ§Ø¯ÙĬÙħÙĬØ©":8793,"Ø§ÙĨÙĩØ§":8794,"ĠØªØ¬Ø§Ø±Ø©":8795,"ĠØµØ¹ÙĬØ¯":8796,"ĠØ§ÙĦÙħØ±Ø¬":8797,"ĠØ§ÙĦØ³Ø§Ø¹Ø§Øª":8798,"ĠÙĪØ£Ø´Ø§Ø±":8799,"ĠØ¥ÙĬÙħØ§ÙĨ":8800,"ĠÙħÙĪØ¶ØŃØ§":8801,"ĠØ¨Ø§ÙĦØ§Ø¹":8802,"ÙĪÙĤØ§Ùģ":8803,"ĠY":8804,"ĠÙĪØ¨ØŃ":8805,"ĠÙĪØ³ÙĦØ§Ùħ":8806,"ĠØ¥ÙħØ§Ùħ":8807,"ØªÙģØ¹Ø©":8808,"ĠÙĪÙĬØ¹ØªØ¨Ø±":8809,"ĠÙģÙĦÙħØ§":8810,"ĠÙħÙĨØ¯":8811,"ĠØ¹ÙħÙĪÙħØ§":8812,"ĠÙĦÙĥÙĪÙĨ":8813,"ĠØ§ÙĦØ³ÙħØ§ØŃ":8814,"ĠØªØªÙģ":8815,"ĠØ§ÙĦØ°Ø§ØªÙĬ":8816,"ĠØ§ÙĦØ´Ø§ÙĬ":8817,"Ġ$":8818,"Ø§ÙĦØ²":8819,"ĠØ§ÙĦÙĨØ§ØªØ¬":8820,"Ø«Ø§ÙĨÙĬØ§":8821,"Ø¬ÙĦØ¨":8822,"ĠÙĪØ§ÙĦØ¥Ø³ÙĦØ§Ùħ":8823,"ĠØ§ÙĦÙĨØ²Ø§Ø¹":8824,"ĠØ¨Ø§ÙĦÙħÙĨØ·ÙĤØ©":8825,"ĠØ£Ø¬ÙħØ¹":8826,"ĠØ¨ØµÙĪØª":8827,"ĠÙħØªØ·ÙĦØ¨Ø§Øª":8828,"ĠØ§ÙĦØ´Ø±Ùĥ":8829,"ĠØ§ÙĦØŃØ±ÙĪØ¨":8830,"ĠØ§ÙĦØ§Ø¨ØªØ¯Ø§Ø¦ÙĬØ©":8831,"ĠØªØ¯ÙħÙĬØ±":8832,"ÙĬÙĪØ·":8833,"Ø§Ø¹Ø§":8834,"ĠØ¥Ø¯Ø®Ø§ÙĦ":8835,"Ø¥Ø³Ø±Ø§Ø¦ÙĬÙĦ":8836,"ĠÙĦÙĦØ¨ØŃØ«":8837,"ost":8838,"ĠØ§ÙĦØªØŃÙĤÙĬÙĤØ§Øª":8839,"ĠØªØ·ÙĦØ¨":8840,"ĠØ§ÙĦØ¨ØŃÙĪØ«":8841,"Ø°Ø§ÙĥØ±":8842,"ĠÙĪÙħØµØ±":8843,"ĠØºØ±ÙĬØ¨Ø©":8844,"ĠØ§ÙĦÙħØ±ØªØ¨Ø·Ø©":8845,"ĠØŃØ¬":8846,"ØºØ§Ùħ":8847,"ĠÙĪÙĬÙħÙĥÙĨÙĥ":8848,"Ø²Ø§ÙħÙĨ":8849,"Ø¨Ø§ÙĨÙĬ":8850,"ĠØ§ÙĦØ¯ÙĪØ§Ø¡":8851,"ĠØ§ÙĦØ±Ø¬ÙĪØ¹":8852,"ĠÙĬÙĩØªÙħ":8853,"Ø±Ø§Ø¯Ø©":8854,"ĠØ§ÙĦÙħÙħØ«ÙĦ":8855,"ĠØªÙĨØ³":8856,"ĠØ§ÙĦÙħØ®ÙĦ":8857,"ĠØ¨Ø¹Ø«":8858,"ÙĨØ§Ø©":8859,"ĠØ¬Ø±Øª":8860,"ĠØ³ÙĥØ±":8861,"ĠÙ£":8862,"Ø¯ÙĪØ¯":8863,"ĠØ§ÙĦÙĪØ¯":8864,"ĠÙħØ°ÙĥØ±Ø©":8865,"ĠØ§ÙĦØ´ÙĪØ·":8866,"77":8867,"ĠØ²ÙĬØ¯":8868,"Ø±Ø§ÙĦ":8869,"ĠØªØ¨Ø¯":8870,"ĠØ§ÙĦØ§Ø®ØªÙĬØ§Ø±":8871,"ØŃØ²Ø¨":8872,"ĠØ§ÙĦÙĦÙĬØ¨ÙĬØ©":8873,"ĠØ´ÙĤØ©":8874,"ĠØ¨ÙĬÙĪØª":8875,"Ø§ÙģØ±ÙĬÙĨ":8876,"ĠÙĦÙĦÙģØ±ÙĬÙĤ":8877,"ĠØ¨ÙħØ®ØªÙĦÙģ":8878,"ÙĪÙĦÙģØª":8879,"OS":8880,"ĠÙħÙĨØ¸":8881,"ĠØ§ÙĦØ·Ø±":8882,"ĠØ§ÙĦØªØ¬ÙħÙĬÙĦ":8883,"ĠØ§ÙĦØ³ÙħØ§":8884,"ĠÙĤØ§Ø¨":8885,"ĠØ¨Ø§ÙĬ":8886,"ĠØ§ÙĦØ£Ø±Ø¨Ø¹Ø©":8887,"ĠØ§ÙĨØªÙĤØ§ÙĦ":8888,"ĠØ§ÙĦØ§ÙħÙĪØ±":8889,"Ø§ØµÙĦØ§ØŃ":8890,"ĠÙĨÙĩØ§Ø¦ÙĬØ§":8891,"Ø§ÙĤØ·":8892,"ĠÙĬØŃØª":8893,"ĠØ§Ø³Ø¹Ø§Ø±":8894,"ĠÙĥØ§ÙħÙĦØ§":8895,"Ø§ÙĦØ§Ø³Øª":8896,"ĠÙĨÙĥ":8897,"ĠÙĦØªØŃØ¯ÙĬØ¯":8898,"ĠÙĥÙĬÙĨ":8899,"ĠØ²ÙĪØ¬Ø©":8900,"Ø§ÙĬÙģ":8901,"ĠØ£Ø³Ø§Ø³ÙĬØ©":8902,"ĠÙĦÙĬÙĪÙħ":8903,"ĠÙĪØ§ÙĦØ§ÙĤØªØµØ§Ø¯ÙĬØ©":8904,"ĠØ¹ÙĨØ¯ÙĩØ§":8905,"ĠÙĪØ¨ÙĨ":8906,"ĠØ§ÙĦÙĤÙħ":8907,"ĠÙħØ³Ø¦ÙĪÙĦ":8908,"ĠØ§ÙĦØ¬ÙĨÙĪØ¯":8909,"ĠÙĪØ§ÙĦÙħØ®":8910,"Ø²Ø±Ø§Ø¹Ø©":8911,"ĠØ§ÙĦØ´ÙĬØ¹":8912,"ĠØ±Ø§Ø´Ø¯":8913,"ÙĥØ´ÙģØª":8914,"ĠØ§ÙĦØŃÙĦÙĬØ¨":8915,"ĠØ³ØªØ¬Ø¯":8916,"ĠØ§ÙĦØ¬ÙĩØ¯":8917,"ÙĪØ§ÙĦÙĦÙĩ":8918,"ÙĬØ²ÙĬØ¯":8919,"ĠØ¹Ø§Ø±":8920,"ØµØª":8921,"ĠÙĦØ¯Ø±Ø¬Ø©":8922,"([":8923,"ĠØ§ÙĦØ£Ø¨ØŃØ§Ø«":8924,"ĠÙĬØªÙĪÙĤØ¹":8925,"art":8926,"ĠØ±Ø¨ÙĬØ¹":8927,"ØºØ±Ø§Ø¶":8928,"ĠÙĦØ¨ÙĨ":8929,"ĠØ´Ø±ÙĬØ·":8930,"ĠØ§ÙĦØ£Ø¬Ø§ÙĨØ¨":8931,"ÙĤØ§Ø¨ÙĦ":8932,"ĠØ³Ø¨Ø¹":8933,"ĠØ§ÙĦÙģØ¬Ø±":8934,"ĠØ±ØŃÙĦ":8935,"ĠØ³Ø§Øª":8936,"ĠØ®ÙĦØ§ÙĬØ§":8937,"ÙĥÙĬØ§Ø¬":8938,"Ø§Ø¨ÙĩØ§":8939,"ĠØ§ÙĦØªØ§Ø±ÙĬØ®ÙĬ":8940,"ĠØŃØ¸Ø±":8941,"ÙĪØ£Ø´Ø§Ø±Øª":8942,"ĠØ§ÙĦØ¨Ø§ØŃØ«ÙĬÙĨ":8943,"ĠØ§ÙĦÙĤÙĦÙĪØ¨":8944,"ĠÙħÙħØ§Ø«":8945,"ĠØ§ÙĦØ´Ø§ÙħÙĦØ©":8946,"ĠÙĦØ¹Ø¯Ø¯":8947,"Ø±Ø§Ùģ":8948,"ÙĪØ§ÙĥØ¨":8949,"ĠÙĪÙĦØ¹ÙĦ":8950,"Ø¯Ø§ÙĬØ§":8951,"ĠØ§ÙĦØªÙħÙĬ":8952,"ĠØ±ÙĪÙĨØ§ÙĦØ¯ÙĪ":8953,"ĠØ£Ø±Ø´ÙĬÙģ":8954,"ĠâĢ¢":8955,"ĠØ§ÙĦØ®Ø¶Ø±Ø§Ø¡":8956,"ĠÙĤÙĬØ§Ø¯Ø§Øª":8957,"ĠØ§Ø¹ÙĦ":8958,"ĠØ£ÙĥÙĪÙĨ":8959,"ĠØ³Ø¹ÙĪØ¯ÙĬ":8960,"ĠØ§ÙĦÙħØµÙĨØ¹":8961,"ÙĬØ¹ØªØ¨Ø±":8962,"ĠØ§ÙĦÙĩÙħ":8963,"ĠØ§ÙĦÙħÙĩØ§Ø¬Ø±ÙĬÙĨ":8964,"Ø¨Ø§ÙĦÙĨØ³Ø¨Ø©":8965,"ĠØ§ÙĦØ£Ø®Ø·Ø§Ø¡":8966,"ÙĬØ±ÙĩØ§":8967,"ĠØ±Ø§Ø¦ØŃØ©":8968,"ĠØ§ÙĩÙĦ":8969,"ĠØ¹ÙĨÙĥ":8970,"ĠØ§ÙĦÙĤÙĪÙĬØ©":8971,"ÙĤØ¯Ø©":8972,"ĠØ±Ø§Ùģ":8973,"ĠØ£Ø¨Ø§":8974,"ĠÙĤØ¨Ø±":8975,"ĠØ¨Ø§ÙĦÙħØ¹":8976,"ack":8977,"ØªÙĩØ¯":8978,"Ø±ÙĪÙĬØªØ±Ø²":8979,"ĠØ¨ØŃÙĦÙĪÙĦ":8980,"ĠØ¥ÙĨÙĩØ§Ø¡":8981,"ĠÙĦÙĦØŃÙĥÙĪÙħØ©":8982,"ĠØ§ÙĦÙĤØ·Ø¹":8983,"Ùı:":8984,"ĠØ§ÙĦÙħØ¬ØªÙħ":8985,"ĠÙĪÙĩÙħØ§":8986,"ÙĦØªØ²Ùħ":8987,"ĠØ§ÙĦØ¨Ø§ØŃØ«ÙĪÙĨ":8988,"ÙĪÙĦÙĪ":8989,"ĠØ·Ø¨ÙĤØ§":8990,"ĠØ§ÙĦØ¬ÙĩØ§Ø¯":8991,"ĠØ§ÙĦÙĥÙĬÙħÙĬØ§Ø¦ÙĬØ©":8992,"ĠØ¬ÙĨÙĪØ¯":8993,"ĠÙĩØ´Ø§Ùħ":8994,"ĠØ§ÙĦÙĨØ§Ø²":8995,"ĠÙħÙĦØ¹ÙĤØ©":8996,"ĠØ§ÙĦÙģØ·Ø±":8997,"ĠÙĤØµÙģ":8998,"ĠØ§ÙĦØªØµØ±Ùģ":8999,"Ø³ÙĨÙĪØ§Øª":9000,"ÙĦØºØ§Ø¡":9001,"ĠØ§ÙĦØ§ØŃØªÙģØ§ÙĦ":9002,"ĠØ§ÙĦØµØ¨Ø±":9003,"Ø±Ø³Ø§ÙĦØ©":9004,"ĠÙĬØ«Ø¨Øª":9005,"ĠØŃØ§ÙģØ¸":9006,"ĠÙĨØ¹ÙĦÙħ":9007,"ØŃØ¶Ø±":9008,"ĠÙĬØ´Ø¨Ùĩ":9009,"ĠØ§ÙĦØµØ¯ÙĬÙĤ":9010,"ĠØ§ÙĦÙħØ¹Ø§ÙĬÙĬØ±":9011,"ĠØ³ÙħÙĪ":9012,"ĠØ§ÙĦÙħØ¬Ø§ÙĪØ±Ø©":9013,"ĠØ§Ø¬Ùĩ":9014,"ÙĪØ°ÙĥØ±Øª":9015,"ĠØ§ÙĦØªØ£ÙĥØ¯":9016,"ĠÙĦØªØ®":9017,"ĠØ£ÙĨØ³":9018,"ĠØ§Ø³ØªØ¹Ø§Ø¯Ø©":9019,"ĠÙħØ¨Øª":9020,"ĠØ¨Ø¢":9021,"ĠØ£ØŃØ±":9022,"ĠØªØµÙģ":9023,"Ø³ÙĩÙĬÙĦ":9024,"ĠØ§ÙĦÙħØ¤ÙĤØª":9025,"ĠØŃØ¯ÙĬØ«Ùĩ":9026,"ĠØ§ÙĦØ«Ø§Ø¨Øª":9027,"........":9028,"ĠÙĪØ±Ø´Ø©":9029,"ÙĩØ±Ø¨Ø§Ø¡":9030,"ĠÙĪØ·ÙĨÙĬ":9031,"Ø§ÙĦØŃÙħØ¯":9032,"ĠØ§ÙĦÙĨØ¬ÙĪÙħ":9033,"ĠØ§ÙĦÙħØ³ØªÙĪÙĬØ§Øª":9034,"Ø§ÙģØ¶ÙĦ":9035,"ĠØ§ÙĦØ¬ÙĨØ§Ø¦ÙĬØ©":9036,"ÙĥÙĬÙĬÙģ":9037,"ĠØ§ÙĦØ¨Ø§ÙĦ":9038,"ĠØ§ÙĦÙĥØªØ±":9039,"ĠØµÙģØ©":9040,"ØŁØŁØŁØŁØŁØŁØŁØŁ":9041,"Ø±ØŃÙħÙĨ":9042,"ĠÙħØ³ØªØ¹Ø¯":9043,"ĠØ£Ø±Ùī":9044,"ÙģÙĬÙħØ§":9045,"ĠØªØ®ÙģÙĬØ¶":9046,"ĠØ§ÙĦØ±ØŃÙĦØ©":9047,"ĠØ³Ø¹Ø§Ø¯":9048,"ĠØ±ÙħØ²":9049,"ĠØ§Ø¯Ø®ÙĦ":9050,"ĠÙĪØŃÙĤÙĪÙĤ":9051,"ĠÙĪÙĬØ¨":9052,"ĠØ§ÙĦØ¬ÙĨØ³ÙĬ":9053,"ÙģØ³Ø§Ø±":9054,"Ø£ÙĩÙĦ":9055,"ĠØ§ÙĦÙħØ±Ø§ÙģÙĤ":9056,"ĠÙĬØ³ØªÙħØ±":9057,"ĠØ§ÙĦÙħØ¨Ø§Ø´Ø±Ø©":9058,"ĠØ¯ÙĪØ±Ø§Øª":9059,"ÙĨØ¸Ø±":9060,"ØªÙħÙĦØ©":9061,"ÙĥØ§ÙĨÙĬØ©":9062,"ĠØ¨Ø§ÙĦØ¥ÙĨ":9063,"ØªÙģØ¹Øª":9064,"ĠØ§ÙĦØ²ÙĪØ¬ÙĬØ©":9065,"ÙĦÙģÙĦ":9066,"ĠÙĬØ±ÙģØ¹":9067,"ĠÙĪØ¨Ø´ÙĥÙĦ":9068,"Ùĭ)":9069,"Ø·ÙĬØ§Øª":9070,"ĠØ§ÙĦØ£ÙĩÙĦÙĬØ©":9071,"ĠØ±Ø£Ø³Ùĩ":9072,"¿½":9073,"ĠØ§ÙĦØ¹ÙĨÙĪØ§ÙĨ":9074,"ĠØ§ÙĦØ´Ø±Ø¹ÙĬ":9075,"ĠÙĬØªØ¨Ø¹":9076,"ĠÙĪØ¹ÙĦÙĬ":9077,"ĠØ§ÙĦÙģÙĨÙĪÙĨ":9078,"ĠØªØªØ±Ø§ÙĪØŃ":9079,"ĠÙĪØ§ÙĦÙĤØ±":9080,"ĠØ§ÙĦØ¯Ø¬Ø§Ø¬":9081,"ĠØ£Ø³ÙĪØ§ÙĤ":9082,"ĠÙħÙĬÙĦØ§Ø¯":9083,"Ø¨Ø±Ø§Øª":9084,"ĠØ§ÙĦÙħØ±ØªØ¨Ø©":9085,"ĠÙĦÙĦØ´Ø±ÙĥØ©":9086,"ĠØ§ÙĦØ§ÙĥØª":9087,"ĠÙĬØªÙĨØ§ÙĪÙĦ":9088,"ĠØ£ÙĨØ¯Ø±ÙĪÙĬØ¯":9089,"ĠØ§ÙĦÙĤØ§Ø¯Ø±":9090,"ĠÙĪÙĤÙĦ":9091,"ĠØ§ÙĦØªÙĪØµ":9092,"ĠØªØ®Ø²ÙĬÙĨ":9093,"ĠÙĪØ£ÙĨÙĩØ§":9094,"ĠØ§ÙĦØŃØ§Ø¶Ø±":9095,"Ø³Ø±Ø¹":9096,"Ø£ÙĦÙģ":9097,"ØµØ±Ùģ":9098,"ĠÙĬØŃÙĤ":9099,"ĠØ§ÙĦØªØ±Ùħ":9100,"ĠÙĪØ§ÙĨÙħØ§":9101,"ĠØ´Ø¨ÙĥØ§Øª":9102,"ĠÙĪØªØŃØ¯ÙĬØ¯":9103,"ÙĩÙĬØ¯":9104,":âĢı":9105,"ÙĤØ¯Ø§Ø±":9106,"ĠØ§ÙĦØ¢ÙĬØ§Øª":9107,"ĠØ£ØŃØ¯ÙĩÙħ":9108,"Ø£Ø¹":9109,"Ø±Ø´Ø§Ø¯":9110,"ĠØ§ÙĦØªÙĨÙģØ³":9111,"ĠØ¨Ø¹ÙĬØ¯Ø©":9112,"ĠØ§ÙĦØ¶Ø±Ø§Ø¦Ø¨":9113,"ĠØ¥Ø¹Ø·Ø§Ø¡":9114,"ĠØ§ÙĦÙĥØ§Ø¦ÙĨ":9115,"ows":9116,"ĠØ«ÙħØ§ÙĨÙĬØ©":9117,"ÙĤØ°":9118,"ÙĬÙĤÙĬØ©":9119,"88":9120,"Ø¶ØŃÙĥ":9121,"ĠÙģØ§ÙĦØ£":9122,"ĠØ§ÙĦØªØºØ°ÙĬØ©":9123,"ĠØ£Ø³Ø·":9124,"ĠÙĪÙĤØ¯Ùħ":9125,"ĠÙĦÙĨØ¸Ø§Ùħ":9126,"ĠÙĦÙĦÙħØ´":9127,"ĠØ±Ø¤Ø³Ø§Ø¡":9128,"Ø¹Ø§ÙĨØ©":9129,"ĠØ£Ø¯Øª":9130,"ĠÙħÙĦØ§Ùħ":9131,"ĠØ§ÙĦØ¬ÙħÙĩÙĪØ±ÙĬ":9132,"ĠØ§ÙĦÙĩØ¶Ùħ":9133,"ĠØ¨Ø¬ÙĪØ¯Ø©":9134,"Ø¯Ø§Ø¹":9135,"ĠØ´Ø®ØµÙĬØ§Øª":9136,"ØªØ²Ùħ":9137,"ĠØ§ÙĦÙħØ³Ø¦ÙĪÙĦ":9138,"ĠØ§ÙĦØ³Ø§ØŃÙĦ":9139,"ĠØ§ÙĦØ´Ø±Ø§Ø¡":9140,"ĠØ§ÙĦØ§Ø¹Ø¯":9141,"ĠØ¨ØµØ±":9142,"ÙĪÙĩØ°Ùĩ":9143,"Ø¶Øª":9144,"ĠØªØ¹ÙĦÙĬÙĤØ§Øª":9145,"ĠØ§ÙĦØ¹ÙĬÙĪÙĨ":9146,"Ø·Ø¨Ø§ÙĤ":9147,"ĠØ¯Ø§Ø¹":9148,"ĠØ§ÙĦØŃØ¸":9149,"ĠÙħÙĦØŃÙĪ":9150,"net":9151,"Ø°ÙĪØ±":9152,"ĠÙģÙĤØ±":9153,"ĠÙĬØ¹ÙħÙĦÙĪÙĨ":9154,"Ø§ÙĥØ³":9155,"Ø§Ø°ÙĨ":9156,"ĠØ¬ÙĦØ§ÙĦ":9157,"ĠÙĥÙģØ§Ø¡Ø©":9158,"Ø§Ø²ÙĬÙĨ":9159,"ĠØ´Ø¹ÙĪØ±":9160,"ĠÙĪØ§ÙĦØ¹ÙĦÙħ":9161,"ĠØ±Ø£Ø³ÙĩØ§":9162,"ĠÙħÙĪÙĤØ¹ÙĨØ§":9163,"ĠØºØ³ÙĦ":9164,"ĠØ§ÙĦÙĪÙĦØ§ÙĬØ©":9165,"ĠÙģÙĨÙĬ":9166,"ĠÙħØ¨Ø§Ø¯Ø¦":9167,"Ø¹ÙĥØ³":9168,"ĠØªØ³ØªØŃÙĤ":9169,"ĠØ§ÙĦÙģØ§Ø±":9170,"ĠØ§ÙĦÙĪØ§Ø¬Ø¨":9171,"Ø¬ÙĦÙĪØ³":9172,"ØªÙģØ§Ø¶Ø©":9173,"ĠØªØªÙħÙĥÙĨ":9174,"ĠØªØ³ÙĦ":9175,"ĠÙģÙĦÙĬØ³":9176,"ĠØªØ±ÙĬ":9177,"ĠØ§ÙĬÙĩ":9178,"Ø§ÙĦØ¬Ùħ":9179,"ĠØ§ÙĦÙħØ°ÙĥÙĪØ±":9180,"ĠØ£Ø°":9181,"ĠÙħÙĨØ§ÙģØ³Ø§Øª":9182,"ĠØ·Ø±ÙĬÙĤÙĩ":9183,"ĠØ§ÙĦØŃØ±Ø§Ùħ":9184,"Ø§ÙĥÙĩØ©":9185,"ĠØ±Ø¦ÙĬØ³Ø©":9186,"ĠØ¯ÙĦ":9187,"ĠØ§ÙĦØ·Ø¨ÙĤØ©":9188,"ĠÙħØ¨Ø¯":9189,"ÙĦØ¨ÙĨØ§ÙĨ":9190,"ĠØ£ÙħØ±ÙĬÙĥÙĬØ©":9191,"Ġ33":9192,"Ø³ØªÙĩ":9193,"ĠØ¨Ø§ÙĨØª":9194,"ĠØ§ÙĦÙĤØ±ÙĬØ¨Ø©":9195,"ĠØ§ÙĦØµØ¹Ø¨Ø©":9196,"ĠØŃØ¯Ø¯":9197,"ĠØ§ÙĦØ¬ÙĬØ¯":9198,"ĠÙĤÙĦØ¨Ùĩ":9199,"ĠÙħØ³ÙĬ":9200,"ĠØªØ§Ø±ÙĬØ®ÙĬØ©":9201,"ĠØ§Ø·ÙĦØ§ÙĤ":9202,"ĠØ§ÙĦØ³ÙĨÙĬÙĨ":9203,"ĠØ§ÙĦØ¨ÙĨØ§Øª":9204,"ĠØ§ÙĦØ§ØªÙģØ§ÙĤÙĬØ©":9205,"Ø¦ÙĪÙĬØ©":9206,"Ġ1000":9207,"ĠÙģØµ":9208,"Ø§Ø¨ÙĪÙĨ":9209,"ĠØ¯Ø§Ø®ÙĦÙĬØ©":9210,"ĠÙĪÙĥØ±":9211,"Ø¹ÙĪÙħØ©":9212,"ĠØ®Ø´":9213,"Ø¬ÙĩØ§":9214,"ÙĦØ§ØŃØ¸":9215,"ĠØ§ÙĦØ§ØªÙĩ":9216,"Ø±Ø¬Ø§Ø¹":9217,"ĠØ§ÙĦØªØ¯Ø±ÙĬØ¨ÙĬØ©":9218,"Ø·ÙĪØ§ÙĨ":9219,"ÙħØ«Ø¨":9220,"ĠÙĪØ¨ÙħØ§":9221,"ĠØ§ÙĦØ¯ÙĥØªÙĪØ±Ø©":9222,"ĠØ§ÙĦØ¥ÙĤÙĦÙĬÙħÙĬ":9223,"ĠØ§ÙĦØ§Ø±Ø¯ÙĨ":9224,"ĠØ§ÙĦØ§ÙĬØ§Ùħ":9225,"ĠÙĦÙĦÙĨØ¸Ø§Ùħ":9226,"ĠØ§ØŃØ¯Ø«":9227,"Ø£Ø«ÙĬØ±":9228,"ĠÙĪÙħÙĩ":9229,"ĠØ§ÙĦØŃÙĪØ«ÙĬÙĬÙĨ":9230,"ĠØ§ÙĦØ§Ø³ÙĦØ§ÙħÙĬ":9231,"ĠAl":9232,"ĠÙĬØ¶ÙħÙĨ":9233,"ÙĪØ¨Ø§ÙĬÙĦ":9234,"ØªÙĪÙĬØªØ±":9235,"ĠØ¨ØªÙĦÙĥ":9236,"ĠÙĦÙĦØ¹Ø§ÙĦÙħ":9237,"ĠØ§Ø³ØªØ«":9238,"ĠÙĦØ§Ø¨":9239,"ĠØ§ÙĦØ¹ÙĤØ§Ø±ÙĬ":9240,"ĠØ®ÙĦÙĬÙĦ":9241,"âĢı,":9242,"ĠØ§ÙĦØŃØ§Ø³Ø¨":9243,"ĠØ§ÙĦØ¹Ø§Ø´Ø±Ø©":9244,"ĠÙĪØ§ÙĦØªØ³":9245,"ĠÙħØ´ÙĬØ±Ø©":9246,"ÙĪØ£ÙĪØ¶ØŃØª":9247,"ÙħØ¨Ø±Ø§Ø·":9248,"ĠÙħÙĪØ§ØµÙĦØ©":9249,"ĠØ§ÙĦÙħØªØ¹Ø¯Ø¯Ø©":9250,"ĠÙģØ§Ø±Ø³":9251,"ĠØ§ÙĦØ´ÙħØ³ÙĬØ©":9252,"ĠØ§ÙĦØ·ÙĤØ³":9253,"ĠÙħØŃØ¯Ø¯":9254,"ĠÙħØŃØ¨":9255,"ĠØ²Ø±Ø§Ø¹Ø©":9256,"ĠØ§ÙĦØ¯ÙĦÙĬÙĦ":9257,"ÙģØ±Ø§Ø¬":9258,"ĠØ§ÙĦØ£Ø³ÙħØ§Ø¡":9259,"ĠØ¨ÙĦØ§Øº":9260,"ĠÙĬÙģÙĬØ¯":9261,"ÙĤÙĬØª":9262,"ĠÙĪØªØ·Ø¨ÙĬÙĤ":9263,"ĠØ§Ø¹ØªÙĤØ¯":9264,"ĠØ§ÙĦØ£Ø´ÙĩØ±":9265,"ĠØ³Ø£ÙĦ":9266,"ĠÙĦÙĦÙĤØ¶Ø§Ø¡":9267,"ĠØ§ØŃØªØ±":9268,"ĠØ§ÙĦØµØ§Ø±":9269,"ĠØ§ÙĦÙħØ«ÙĦ":9270,"ĠØºØ²":9271,"ĠÙĦÙĦÙħÙĦ":9272,"Ø²ÙĪØ¬Ø©":9273,"ĠØ§ÙĦÙĤØ§Ø±Ø¦":9274,"ĠØ®Ø§Ø¶":9275,"ĠØ¯ÙĬÙģ":9276,"ĠØ§ÙĦØ·ÙĪØ§Ø±Ø¦":9277,"ĠØ§ÙĦØªÙĤØ¯ÙĬÙħ":9278,"ĠÙħÙĤØ·Ø¹":9279,"ĠÙħØ³ØªÙĤÙĦØ©":9280,"ĠÙĩØ§Ø±":9281,"ĠØ¹Ø§ÙĦÙĬ":9282,"ĠÙĬÙĤØ±Ø£":9283,"ĠØ®Ø§Ùħ":9284,"ĠÙĩÙĬÙĦ":9285,"ÙĦØ§ÙĬÙĨ":9286,"Ø§Ø·Ø¦Ø©":9287,"ĠÙĦØ§Ø²":9288,"Ø°Ø§Ø¹Ø©":9289,"ĠØªØ±Ø¨ÙĬØ©":9290,"ĠÙģØ£ÙĨØª":9291,"ote":9292,"ĠØ§ÙĦÙĥØ¨Ø¯":9293,"ĠÙĬÙĪ":9294,"Ø§Ø¬ÙĬ":9295,"ĠØ§ÙĦÙĥÙĪÙĬØªÙĬ":9296,"ĠÙĦØ§Ø³ØªØ®Ø¯Ø§Ùħ":9297,"ĠØ§ÙĦØ³ÙĪÙģÙĬ":9298,"ĠÙĪØ§ÙĦÙĬ":9299,"ĠÙĥØ§Ø³":9300,"ĠØªØŃØ±Ùĥ":9301,"ĠØ§ÙĦÙħÙĬØª":9302,"ÙĪØ±ÙĬÙĪØ³":9303,"Ġ2004":9304,"ĠØ±Ø¯ÙĪØ¯":9305,"ĠÙĪØ§ÙĦØ£Ø¯":9306,"ÙĬØ±ÙĪ":9307,"ĠØ³Ø§Ø®":9308,"ĠÙĦÙĦØ«":9309,"ĠÙħÙĬÙĨØ§Ø¡":9310,"ĠØ¯ÙĪÙĦÙĬ":9311,"ĠØ·ÙĬØ¨Ø©":9312,"ĠØ§Ø³Ø¨ÙĪØ¹":9313,"ĠÙĤØ§ÙħÙĪØ§":9314,"ĠÙģØ±ÙĬØ¯":9315,"ÙĦÙĤØ©":9316,"ĠØ§ÙĦÙĤØ±Ùī":9317,"ĠØ§ÙĦÙģÙĬØ³":9318,"ĠØ§ÙĦÙĤØ·Ø±ÙĬØ©":9319,"ĠÙħØ¶Ùī":9320,"Ø¹ÙħÙĦØ©":9321,"ĠØ£ÙĪÙĤØ§Øª":9322,"Ø£Ø®Ø±":9323,"ĠÙĦØ§ØŃÙĤ":9324,"ØµØ±ØŃ":9325,"ï»Į":9326,"ĠÙĦÙħØµØ±":9327,"ĠÙĪØ¨Ùħ":9328,"ĠØ¹Ø¯Ø¯ÙĩØ§":9329,"ĠÙĦÙĩÙħØ§":9330,"Ø¨Ø¯Ø§ÙĦ":9331,"ÙĨØ¯Ø³ÙĬÙĨ":9332,"ĠÙĪØŃÙĬÙĨ":9333,"ĠØ§ÙĦØ¨Ø·ÙĨ":9334,"ĠÙĪØ¶Ø¹ÙĩØ§":9335,"ĠØ§ÙĦÙĪØ¸ÙĬÙģØ©":9336,"Ø¬ÙĩÙĬØ²":9337,"qu":9338,"ĠØ·Ø±Ø¯":9339,"ĠÙ±":9340,"ĠØ±ÙĪÙħØ§":9341,"ĠØ§ÙĦÙħØµØ§Ø¨ÙĬÙĨ":9342,"ĠØ§ÙĦÙĤØµØ±":9343,"ĠØ£ÙĬÙĦÙĪÙĦ":9344,"Ø§Ø¯Ùģ":9345,"ØŃÙħØ§Ùħ":9346,"ĠÙħÙĥÙĪÙĨØ§Øª":9347,"ĠØ§ÙĦÙħØŃØ§ÙĥÙħ":9348,"ĠØ§ÙĦØ¯Ø¹ÙĪÙī":9349,"ÙħØ«Ø¨ÙĢÙĢØª":9350,"ĠØ§ÙĦØ¶ÙħØ§ÙĨ":9351,"ĠÙĪØ¹ÙĦÙĬÙĩ":9352,"ĠØ§ÙĦÙħØ¯Ø©":9353,"Ø§Ø·ÙĬÙĨ":9354,"ĠØ§ÙĦØ§ØµÙĦÙĬ":9355,"ĠÙĨØ¸Ø±ÙĬØ©":9356,"ĠÙĦØªÙĪÙģÙĬØ±":9357,"ĠÙĨØµÙĬØ¨":9358,"ĠØ§ÙĦÙĪÙĤÙĪÙģ":9359,"ĠÙĬÙģØªØŃ":9360,"ĠØ§ÙĦØ°ÙĩØ¨ÙĬ":9361,"ĠØ§ÙĦÙĪÙĬØ¨":9362,"ĠÙĨÙħØ·":9363,"ĠÙħÙĤØ§Ø·Ø¹Ø©":9364,"ĠÙĨØ¯ÙĪØ©":9365,"Ø§Ø£":9366,"ĠÙĬØªÙĪÙĤÙģ":9367,"Ø¯ÙĤØ§Ø¡":9368,"ĠØ¨ÙĨØŃÙĪ":9369,"ĠØ§ÙĦÙħØ±Ø§ØŃÙĦ":9370,"ĠÙħØ±Ø§Ø¹Ø§Ø©":9371,"ĠØ¨ØªÙĩÙħØ©":9372,"ÙĪØ§ÙħØ±":9373,"ĠÙĦÙĦØŃØ¯":9374,"ĠÙĤØ§Ø¹Ø©":9375,"ĠÙĪØ£Ø®Ø°":9376,"ĠØ£ÙĪØ¶Ø§Ø¹":9377,"ĠØ·Ø±Ø§Ø¨ÙĦØ³":9378,"ĠÙĦÙĦØªØ¹ÙĦÙĬÙħ":9379,"ĠØ¨Ø¹Ø¯Ø¯":9380,"ĠØ§ÙĦÙĤØ·Ø±ÙĬ":9381,"ĠØ³ÙĬØ¯Ø©":9382,"ĠØ§ÙĦØ¹Ø´Ø§Ø¡":9383,"ĠØ¨ÙħØµØ±":9384,"ØªÙĩÙĨ":9385,"ĠØŃÙĥÙĪÙħÙĬØ©":9386,"ĠØ§Ø³ØªÙĩÙĦØ§Ùĥ":9387,"ĠÙĥØ«Ø±Ø©":9388,"ĠØ£Ø·ÙĪÙĦ":9389,"ĠØ§ÙĦØŃÙĥÙĪÙħØ§Øª":9390,"ÙĥÙĦØ§Ùħ":9391,"ÙĥÙĬÙĦØ©":9392,"ĠØ§ÙĦÙħÙĪØ§ÙģÙĤØ©":9393,"ĠØ¬ÙĨÙĬÙģ":9394,"Ø±ÙĬØ§ÙĨ":9395,"ĠØ§ÙĦØ¬Ø³":9396,"ĠÙĬØ®Øª":9397,"ØºÙģØ±":9398,"ÙĪØ§Ø¶ÙĬØ¹":9399,"ĠÙħÙĪØ¸Ùģ":9400,"ÙħØ±Øª":9401,"indows":9402,"ĠØªØªÙĪÙģØ±":9403,"ĠÙħÙĤØ§ÙĦØ§Øª":9404,"Ø®Ø§Ùħ":9405,"ĠØ±Ø¨ÙĬ":9406,"ĠØ§ÙĦØ¨Ø§Ø¨Ø§":9407,"ct":9408,"ÙģØ§Ø¯Øª":9409,"ĠØ¹ÙĬÙĪÙĨ":9410,"ĠØ£ÙĦÙĪØ§ÙĨ":9411,"ĠÙĪÙħØ¨":9412,"Ø±Ø§Ø±":9413,"2010":9414,"ĠØ³Ø§Ø¹":9415,"ÙĥÙĬÙģÙĬØ©":9416,"ĠØŃØ§ÙĪÙĦØª":9417,"ĠØ§ÙĦØ®Ø·Ø±":9418,"ĠÙĨØ³ÙĬ":9419,"ĠØ§ÙĦØºØ¶Ø¨":9420,"ĠÙĪØ¥ØµØ§Ø¨Ø©":9421,"ĠØ¨Ø§ÙĦØ²":9422,"Ġïºĳ":9423,"ĠÙĦØ´Ø±Ø§Ø¡":9424,"ĠØ§ÙĦØªÙĤÙĨÙĬØ§Øª":9425,"ĠØ²Ø¹Ùħ":9426,"ĠØ£Ø±Ø¨Ø§ØŃ":9427,"ĠØ§ÙĦÙĨÙĤØ§Ø´":9428,"ĠÙĨÙĪØ¹ÙĩØ§":9429,"ĠØ¥ÙĨÙĩÙħ":9430,"Ġ00":9431,"ĠÙĤØ¯ÙĬÙħØ©":9432,"ĠÙĩØ±Ùħ":9433,"ÙĪØ²Ø¹":9434,"Ø³Ø§Ø·":9435,"ĠØ§ÙĦÙģØ§Ø¦":9436,"ĠâĨ":9437,"ĠØªØŃØ¯Ø¯":9438,"ĠÙĪØ§Ø·":9439,"ĠÙĪØŃØ³Ø¨":9440,"ĠØ³ÙĩÙħ":9441,"ĠÙħØ§Ø¦Ø©":9442,"ØŃÙħÙĦ":9443,"ĠÙĬÙĪØªÙĬÙĪØ¨":9444,"ĠØ®Ø±Ø¬Øª":9445,"ĠØ§ÙĦÙĦØ§Ø²Ùħ":9446,"ÙĬÙĥØ§ÙĨÙĬ":9447,"pp":9448,"ĠØªØ³ÙħÙī":9449,"ĠØ´ØŃÙĨ":9450,"Ø´ÙĩØ§Ø¯":9451,"âĢĺ":9452,"ĠÙĦØ´Ø®Øµ":9453,"ĠØªÙģØ³":9454,"ĠÙĪØªØŃØ³ÙĬÙĨ":9455,"ÙģÙĤØ§Øª":9456,"ÙĥØ±Ø§ÙĨÙĬØ§":9457,"ĠÙħØ·Ø±":9458,"ÙĬØ²ÙĬØ§":9459,"Ø¬Ø²ÙĬØ±Ø©":9460,"ÙĬÙģÙĬØ©":9461,"75":9462,"ĠÙĪØŃÙħØ§ÙĬØ©":9463,"Ø·ÙĨØ¨ÙĪÙĦ":9464,"ĠÙĪØ§ÙĦØ¬Ø±":9465,"ĠØ§ÙĦÙħØ®ØµØµØ©":9466,"ÙĥÙī":9467,"ĠØ¹Ø²ÙĦ":9468,"Ø±ÙĬÙģØ©":9469,"ĠArab":9470,"ĠÙħÙĨÙĩØ¬":9471,"ÙłÙł":9472,"ĠØ®Ø³Ø±":9473,"ÙħÙĪØ¯":9474,"ĠØ§Ø´ÙĩØ±":9475,"ĠÙħØµØ±ÙĬØ©":9476,"ĠÙĪØªØŃØ¯":9477,"ĠØªÙģÙĤØ¯":9478,"ÙĦÙħØ³":9479,"ĠØ§ÙĦØ¨ØµØ±Ø©":9480,"ĠØªÙħÙĥÙĨØª":9481,"ĠØ§ÙĦØ±ØŃÙħ":9482,"ĠØ§ÙĦØ§Ø®ØªÙĦØ§Ùģ":9483,"ĠÙĤØ¯Ø±Ø§Øª":9484,"ĠØ³ÙĨØªÙĬÙĨ":9485,"ĠØ§ÙĦÙħØ³ÙĬØŃÙĬØ©":9486,"ĠØŃÙĤÙĬÙĤ":9487,"ĠØªÙĦÙĤÙī":9488,"ĠÙĦÙĦØªØ®ÙĦØµ":9489,"ĠØ§ÙĦØ¹Ø§Ø´Ø±":9490,"Ġ75":9491,"ĠØªØ°ÙĩØ¨":9492,"Ø®Ø±ÙĬØ©":9493,"ĠÙħÙĤØ§Ø·Ø¹":9494,"ĠØ¨ØªØµÙħÙĬÙħ":9495,"ĠÙĨØ³ÙħØ©":9496,"ĠØ§ÙĦÙħØ±Ùģ":9497,"ĠØ´Ø®ØµÙĬØ§":9498,"Ø¬ÙĩØ§Ø¯":9499,"Ø§ÙĦØ¨Ø±":9500,"ĠÙģÙĬØ³":9501,"ĠÙĬÙĤÙĪÙħÙĪÙĨ":9502,"ĠØ§ÙĦØªÙħÙĬÙĬØ²":9503,"ĠØ§ØŃØ¯Ùī":9504,"ÙĪØ§ÙĩØ§":9505,"ĠØ£Ø®ÙĬØ±Ø§":9506,"Ø±ØŃÙħ":9507,"ÙĬÙħÙĪÙĨ":9508,"Ø·Ø¨ÙĬØ¹":9509,"ĠØ§ÙĦÙĨØ¸Ø±ÙĬØ©":9510,"ĠÙħØ«ÙĦÙħØ§":9511,"Ø¬Ø§Ø¹Ø©":9512,"Ø¥ÙĨÙĩ":9513,"ĠØªÙĨØ³ÙĬÙĤ":9514,"ĠÙĪÙĦÙħØ§":9515,"ĠØ¨ÙĬÙĨÙĩ":9516,"ĠØ£Ø´Ø±Ùģ":9517,"ĠØ£ÙĩØ§ÙĦÙĬ":9518,"ĠØ¨Ø¨Ø±":9519,"ĠØ³Ø¨ÙĦ":9520,"ĠØ§ÙĦÙħØ¨Ø¯":9521,"ĠØ£Ø±Ø¯Øª":9522,"ĠØ¨ØŃÙĥÙħ":9523,"ÙĬØ±ÙĬÙĨ":9524,"ĠÙĤØ§Ø¦Ùħ":9525,"Ø®Ø§ÙĨ":9526,"ĠØ§ÙĦØŃØ§Ø³ÙĪØ¨":9527,"ĠØ§ÙĦÙħØ®Ø±Ø¬":9528,"ĠÙĬÙĥØª":9529,"ĠØ§Ø³ØªØ±":9530,"ĠØ¨Ø§ØªØª":9531,"ĠØ§ÙĦØ¯Ø±Ø³":9532,"ĠØ§ØŃØª":9533,"ĠØ§Ø¨ØªØ¯":9534,"ĠØ§ÙĦÙĬØ§Ø¨Ø§ÙĨÙĬØ©":9535,"ĠÙĦÙĦØ§ØªØŃØ§Ø¯":9536,"ĠØ³ÙĨÙĩ":9537,"Ø§Ø³Ùĩ":9538,"ÙĪØ±ÙĬØ¯":9539,"ĠØªØ·ÙĦ":9540,"ØµÙĦØŃ":9541,"ÙĬÙĥØ³":9542,"96":9543,"ity":9544,"ĠØ§ÙĦØ§Ø®Ø±":9545,"ĠØ§ÙĦØ¹Ø¸Ø§Ùħ":9546,"ĠØ§ÙĦØ¹ÙĤØ§Ø±ÙĬØ©":9547,"ĠÙĤÙĬÙħØªÙĩØ§":9548,"ĠØ§ÙĦÙħÙħÙĬØ²":9549,"ĠØ§ÙĦÙħØ³Ø§Ø±":9550,"ĠØ¨Ø°ÙĦ":9551,"ĠØ§ÙĦØªØ¹Ø±Ø¶":9552,"Ø²ÙĦØ©":9553,"ĠØ§ÙĦÙħØ¹Ø§ÙĦØ¬":9554,"Ø§Ø¯ÙĬÙħÙĬ":9555,"ĠØ¥Ø¯ÙĦØ¨":9556,"ma":9557,"ĠØ³Ø¯":9558,"ĠØ¨Ø§Ø·":9559,"ĠÙħØ®Ø§ÙĦÙģØ©":9560,"ĠÙħØ§Ùĥ":9561,"ØªÙĤØ¯Ùħ":9562,"ĠØ§ÙĦÙħÙĤØ§Ùħ":9563,"ĠØ§ÙĦØ£Ø¯ÙĨÙī":9564,"ĠÙĦØ£Ø³":9565,"Ø§ÙĦÙĬÙĨ":9566,"Ø§ÙĩÙĬØ±":9567,"ÙĬÙĪØ§ÙĨØ§Øª":9568,"Ø¬Ø¯ÙĬØ±":9569,"ÙĬÙħÙĪÙĤØ±":9570,"ĠØ§ÙĦÙħÙĦØŃ":9571,"ĠØ§ÙĦØ·ÙĬÙĪØ±":9572,"ĠØ§ÙģØ±ÙĬÙĤÙĬØ§":9573,"ĠØ±Ø§Ø¬Ø¹":9574,"ĠØ§ÙĦØŃÙĦÙħ":9575,"ĠØ§ÙĬÙĨ":9576,"ĠÙĦÙĦØ·ÙĦØ§Ø¨":9577,"Ø§ÙĦØ£ÙĨ":9578,"ĠØ§ÙĦØ¬Ø³Ø¯":9579,"ĠØªØªØ±Ùĥ":9580,"Ø®ÙĦØ§ÙĦ":9581,"ÙĬØªÙĬ":9582,"ĠØ¨ØªÙĨÙģÙĬØ°":9583,"ĠÙĦÙĦØ®Ø¨Ø±":9584,"ĠØ¨Ø±Ùģ":9585,"ĠØ§ÙĦØ£ÙħØ·Ø§Ø±":9586,"ĠØ§Ø±ÙĬØ¯":9587,"ÙĪÙĬØ³Ø±Ø§":9588,"ĠØ§ÙĦÙħØ³Ø§Ø¬Ø¯":9589,"ĠØ§ÙĦØ¹Ø§Ø¯Ø©":9590,"ĠØ§ÙĦØ§Ø³ØªÙħØ±Ø§Ø±":9591,"Ø§ØµÙģØ©":9592,"ĠØªØ°":9593,"ĠØ¹ÙħØ±Ø§ÙĨ":9594,"ĠØ£Ø¹ÙĦØ§Ùĩ":9595,"ÙĨØªØ¸Ø±":9596,"ĠØ§ÙĦÙģØ´ÙĦ":9597,"Ø±Ø¨Ø§":9598,"ĠØªØ§ÙĬÙħ":9599,"ĠØµØ§Ø¯Ø±":9600,"ĠØ¨ÙĬØªÙĩ":9601,"ÙĥØ±ÙĬØ§Øª":9602,"ĠØ§ÙĦØŃÙĥÙħØ©":9603,"ĠÙĦØ£Ø³Ø¨Ø§Ø¨":9604,"ĠÙĪØ£Ø±":9605,"ĠØ§ÙĦØ¬ÙĪØ§ÙĦ":9606,"ĠØ§ÙĬØ¬":9607,"ĠØ¨Ø§ÙĦÙĤÙĪÙĦ":9608,"ĠÙĪØ¥Ø¯Ø§Ø±Ø©":9609,"ĠØ§ÙĦÙħØ·Ø§Ø¹Ùħ":9610,"ĠÙħÙĤØ¹Ø¯":9611,"ĠØ¨Ø·Ø±":9612,"ĠØ§ÙĦÙĨØ§ØµØ±":9613,"ĠØ£ØµÙĪØ§Øª":9614,"Ø¬ÙħØ§Ø¹":9615,"ÙĨØ§ÙĩØ¬":9616,"Ø§Ø¯ØªÙĩØ§":9617,"Ø¨Ø±ÙĬØ©":9618,"ont":9619,"ĠÙĦØ·ÙĬÙģ":9620,"ĠØ§ÙĦÙħØ¯Ø±Ø³ÙĬØ©":9621,"ĠØªØ³ÙĬØ±":9622,"ĠØ§ÙĦÙĤÙĪÙĬ":9623,"ĠØ¢ÙĨØ°Ø§Ùĥ":9624,"ĠØ§ÙĦØ¬Ø¨":9625,"ÙĥØ´Ø§Ùģ":9626,"ĠÙĦÙĪÙĥØ§ÙĦØ©":9627,"ĠÙĪØ¨Ø¯ÙĪÙĨ":9628,"ĠØ§ÙĦØ£ØµÙĪØ§Øª":9629,"ĠÙħØ¬Ø±":9630,"ĠÙĩØ§Ø¯ÙĬ":9631,"ĠØ£Ø³ÙĦØŃØ©":9632,"ÙģØ³ÙĩÙħ":9633,"ĠØ°ÙĩØ¨Øª":9634,"ĠØ±Ø§":9635,"ĠÙĦÙĦØ¯ÙģØ§Ø¹":9636,"ÙĤØ§ÙĦÙĬØ¯":9637,"ĠÙĥØ§ØªØ¨":9638,"ĠØ§ÙĦØªÙĪØ¬ÙĬÙĩ":9639,"ĠÙħØŃØ§ÙģØ¸Ø§Øª":9640,"Ø¹Ø¯Ø§Ø¡":9641,"ĠØ£Ø·":9642,"ØªØµØ§ÙĦ":9643,"ĠØ§ÙĦÙĥÙĪÙĬØªÙĬØ©":9644,"ÙĥØªÙĬØ±ÙĬØ§":9645,"ĠØ§ÙĦØªØ·ÙĪØ±Ø§Øª":9646,"ĠØªØ®Øª":9647,"ĠÙĪÙĦÙĬØ¯":9648,"ÙģÙĪØ¸Ø©":9649,"ĠØ§ÙĦÙħØ³ØªØ´ÙģÙĬØ§Øª":9650,"ĠØ§ÙĦØ®Ø¨Ø²":9651,"ĠØŃØ¯Ø©":9652,"ĠØªØ´Ø¬ÙĬØ¹":9653,"ĠØ§ÙĦÙĪØ³Ùħ":9654,"Ø±Ø³ÙĪÙĦ":9655,"ØµÙĦÙĬØ©":9656,"ĠÙħØ³ØªÙĤØ¨":9657,"ĠØªÙĥØ±Ø§Ø±":9658,"ĠØ´ÙĪØ§Ø±Ø¹":9659,"ĠØ±Ø¨ÙĨØ§":9660,"ĠÙħØ®ÙĬÙħ":9661,"ĠØ§ÙĦÙħØ¨Ø±":9662,"ĠØ§ÙĦØ³ÙĩÙĦ":9663,"ĠÙħØ·ÙĦÙĪØ¨":9664,"ĠÙħØ®ØªØµ":9665,"ĠÙĪÙħØŃÙħØ¯":9666,"ĠØ§ÙĦÙĤØ±Ø§ÙĨ":9667,"ĠØ¨Ø¹ÙħÙĦÙĬØ©":9668,"ĠÙĪØ²ÙĬØ±Ø©":9669,"ĠØ§Ø±ØªØ¨Ø§Ø·":9670,"ĠØ£ÙĪØ§Ø®Ø±":9671,"ĠØ§ÙĦØ£Ø¹Ø±Ø§Ø¶":9672,"ĠÙĦÙĨÙģØ³Ùĩ":9673,"ĠØ¥ÙĬØ¬Ø§Ø¨ÙĬØ©":9674,"min":9675,"ĠØ§ÙĦÙĥÙĪÙħ":9676,"ĠÙħÙģØ§ÙĪØ¶":9677,"ØªØ¹ØªØ¨Ø±":9678,"ĠØ´Ø¨Ø§Ø·":9679,"ĠÙĪÙħÙĨØ¹":9680,"ĠØ§Ø³ÙħÙĩØ§":9681,"ĠØ£Ø«Ø§Ø±":9682,"ĠØ§ÙĦØ§Ø³ØªØ«ÙħØ§Ø±Ø§Øª":9683,"ĠØ³ÙĬØ§Ø³Ø§Øª":9684,"ĠØªÙĨÙģÙĬ":9685,"ĠØ±Ø¨Ùĩ":9686,"ĠØªØ§Ùħ":9687,"ook":9688,"ĠÙħØ¹Ø³ÙĥØ±":9689,"ØªÙħÙĬÙĨ":9690,"ĠØ¹Ø¬":9691,"ĠØ§ÙĦØ£Ø±ÙĤØ§Ùħ":9692,"ĠØ¨Ø£Ø³Ø¹Ø§Ø±":9693,"ĠØ§ÙĦØ«ÙĤÙĬÙĦØ©":9694,"ĠÙħØŃØ·Ø§Øª":9695,"ĠØ¢ÙĬØ§Øª":9696,"ĠØ§Ø¹Ø§Ø¯Ø©":9697,"ÙĪØ§ØŃÙĬ":9698,"ĠØ¹ÙĦÙħÙĬ":9699,"ĠÙĪØ£ÙĪÙĦ":9700,"Ø²Ø§ÙĨ":9701,"Ø§ÙģØ§":9702,"Ø³Ø±Ø¹Ø©":9703,"ÙĥÙĨØ§":9704,"ØªØ±ÙĤ":9705,"ĠØ§ÙĦÙħØ®Ø§ÙĦÙģ":9706,"ĠÙħØ«Ø§ÙĦ":9707,"Ø®ÙĦÙĬ":9708,"ĠÙħØ¹Ø±ÙĪÙģØ©":9709,"Ø³Ø§Ø¡ÙĦ":9710,"ÙģÙĤØ§ÙĦ":9711,"Ø£Ø³Ùħ":9712,"ĠØ§ÙĦÙĥØ§ÙħÙĬØ±Ø§":9713,"ĠØ§ÙĦØ¯ÙĪØŃØ©":9714,"ĠÙĪØ§ÙĦØ«ÙĤØ§ÙģØ©":9715,"Ø±ÙĬØ¬ÙĬ":9716,"ĠÙħØ³ØªÙĪÙĬ":9717,"Qu":9718,"ĠÙĬÙĤØ¶ÙĬ":9719,"ard":9720,"ĠÙĬÙĨØªÙĩÙĬ":9721,"ÙĪØ§Ø¯Ø±":9722,"Ø§Ø²ÙĬÙĦÙĬ":9723,"ĠØ§ÙĦØµÙĦØ©":9724,"ĠØ§ÙĦÙħÙģØªÙĪØŃ":9725,"ÙĮØĮ":9726,"ĠØ§ÙĦØªÙĦÙģ":9727,"ĠØ¨Ø§ÙĦØ¨Ø±":9728,"ĠØ¹ØµÙĬØ±":9729,"Ø£ØŃÙħØ¯":9730,"ĠØ§ÙĦØªØ¯Ø®ÙĬÙĨ":9731,"ĠØ§ÙĦØ³ÙĨÙĪÙĬØ©":9732,"Ø¯ÙħØ¬":9733,"ÙĥØ§ÙĦÙĬÙģ":9734,"ÙĬØŃØ©":9735,"ĠÙĦÙĦÙħØ¬ÙĦØ³":9736,"ĠØ¹ÙħØ§ÙĦ":9737,"ØŃØ§ÙĦØ©":9738,"ĠØ¥Ø³Ø¨Ø§ÙĨÙĬØ§":9739,"ĠØ§ÙĦÙĨØ¨ÙĪÙĬ":9740,"ØªÙģØª":9741,"ĠØ¨Ø£Ø¹ÙħØ§ÙĦ":9742,"ĠÙĩÙĪÙĬØ©":9743,"ÙĦØ·":9744,"ĠÙĨØ¸ÙĬÙģ":9745,"ÙĪÙĥØ©":9746,"ĠØ³ÙĬØ¦Ø©":9747,"ĠÙĩØ±ÙĬØ±Ø©":9748,"ĠØ§Ø³ØªÙĩØ¯Ø§Ùģ":9749,"ĠØ³Ø±Ø·Ø§ÙĨ":9750,"ĠØ§ÙĦØ²Ø¹ÙĬÙħ":9751,"ĠØ¯Ø¨":9752,"ĠØ£ØµÙĦØ§":9753,"ĠØ§ÙĦÙħØªØ®ØµØµ":9754,"ĠØ§ÙĦØ±Ø¬Ø§Ø¡":9755,"Ø¹Ø§Ø±Ø¶Ø©":9756,"ĠÙĪØ£ÙĩÙħ":9757,"ĠØ¨Ø§ØŃØ«":9758,"ÙĤØ§Ø±ÙĨØ©":9759,"ĠØ§Ø¨ÙĨØ§Ø¡":9760,"ĠØµØŃÙģÙĬØ©":9761,"ĠØ§ÙĦÙĤØ³":9762,"ĠÙĬØ¯ÙĪØ±":9763,"ĠØ¹ÙħÙĦØª":9764,"Ø§Ø¨ÙĬØ¨":9765,"ÙħØ¬ÙħÙĪØ¹Ø©":9766,"ĠÙħØ¯ÙĪÙĨØ©":9767,"ĠØ³Ø¨Ø§ÙĤ":9768,"Ø£Ùĩ":9769,"ĠØ§ÙĦÙĥÙĦÙĬ":9770,"ĠÙĨØ¹ÙĬØ´":9771,"ĠÙĪØ§ÙĦØ§Ø¨":9772,"ĠØªÙĤØ¯ÙħÙĩØ§":9773,"ĠØ¨Ø§ÙĦØªÙģ":9774,"ĠØ§ÙĦØ¥Ø´":9775,"ĠØ§Ø®ØªØµØ§Øµ":9776,"Ø¬ÙĦØªØ±Ø§":9777,"ĠØ¨ÙĪØ²Ø§Ø±Ø©":9778,"ĠØªØ£Ø®Ø±":9779,"ĠØ§ÙĦØ£ØŃÙĬØ§Ø¡":9780,"ĠØ¹ÙĨÙĩÙħØ§":9781,"ĠØ§ÙĦØµÙĪØªÙĬØ©":9782,"ÙĪÙĨØº":9783,"ĠØ¢Ø®Ø±ÙĪÙĨ":9784,"ĠØ§ÙĦØ£Ø³Ø·":9785,"ĠÙĦØªØŃØ³ÙĬÙĨ":9786,"ĠÙĦÙĬÙĦØ§":9787,"ĠØªØ®Ø·":9788,"Ø§ÙħØŃ":9789,"ÙħØ±ÙĥØ²":9790,"lay":9791,"ome":9792,"ĠØ§ÙĦØ²ÙĪØ§Ø±":9793,"ÙĨØ¯Ø§":9794,"ĠØŃÙĬØ§ØªÙĩØ§":9795,"ĠÙħÙĬØ²Ø§ÙĨ":9796,"Ø³Ø¨Øª":9797,"ĠÙħØ®Ø·Ø·":9798,"ĠØŃØµØ±":9799,"ĠØ§ÙĦØ³Ø¬ÙĪÙĨ":9800,"ĠðŁ":9801,"ÙĦÙĬØ¯":9802,"ĠÙĪÙĥÙĨØª":9803,"ĠØ¨ÙĬÙĦ":9804,"ĠÙĪØ§ÙĦØªÙĩ":9805,"Ø¯Ø¹Ø§Ø¡":9806,"Ø§ÙħØ¹Ø§Øª":9807,"%ØĮ":9808,"ĠÙħØ¨ÙĬØ¹Ø§Øª":9809,"ÙĢØ¨":9810,"Ø§ÙģÙĬÙĩ":9811,"ĠØ¬ÙĦØ¨":9812,"ĠØ§ÙĦØºØ±Ø¶":9813,"Ø³ØªØ±Ø§ÙĦÙĬØ§":9814,"ĠØªØ¯Ø±ÙĬØ¨ÙĬØ©":9815,"ĠØ§ÙĦØŃØ³Ø§Ø¨Ø§Øª":9816,"ĠØ´Ø¬Ø±Ø©":9817,"ĠØŃÙĪÙĦÙĩØ§":9818,"ĠØºØ¶ÙĪÙĨ":9819,"ĠÙĤØ³":9820,"ĠØ¨ÙĨØ´Ø±":9821,"ĠØ§ÙĦØ¨Ø±ÙĦÙħØ§ÙĨÙĬØ©":9822,"ĠØ§ÙĦÙħØ´Ø±ÙĪØ¨Ø§Øª":9823,"ĠÙħÙģÙĬØ¯":9824,"Ø§ÙĦÙħØŃ":9825,"ĠØ£ÙĦØ¨":9826,"ĠØ±ØºØ¨":9827,"ĠØ§ÙĦÙĨØŃ":9828,"ĠØ£ÙĩÙħÙĩØ§":9829,"ĠØ§ÙĦÙħØ³Ùħ":9830,"ÙĦÙĬØ§Ùģ":9831,"ĠÙĪÙĤØªÙĦ":9832,"ĠØ§ÙĦÙĤØµØµ":9833,"ĠØªÙĪØ§ÙģÙĤ":9834,"ĠÙĪØªÙĤØ¯Ùħ":9835,"ĠØ§ÙĦØªØ¹Ø§ÙĤØ¯":9836,"Ø±ÙĥÙĬ":9837,"ĠØ®ØªØ§Ùħ":9838,"ĠÙĪØ§ÙĦØ³ÙĬØ§Ø³ÙĬØ©":9839,"ÙĪØ§Ø¦ØŃ":9840,"ĠØ§ÙĦÙħÙĪØ§Ø¬ÙĩØ©":9841,"Ø¤Ø§Ø¯":9842,"ĠÙĩØ¬ÙħØ§Øª":9843,"ĠÙĤÙĦØ©":9844,"ĠØ¨ØªÙģ":9845,"ÙĬÙĨØª":9846,"ÙĪØ§Ø¶Ø§Ùģ":9847,"Ø¹ÙħØ©":9848,"ĠÙĪØ§ÙĦÙĤØ§ÙĨÙĪÙĨ":9849,"ĠÙħÙĪØ±":9850,"ax":9851,"ĠÙħØ¨Ø§ÙĦØº":9852,"ĠØªÙģÙĪÙĤ":9853,"ĠØ¨ÙĥØ§ÙģØ©":9854,"ĠØ§ÙĦØµÙĨØ§Ø¹Ø§Øª":9855,"ĠØ§ÙĦØªÙĦØ§ÙħÙĬØ°":9856,"ĠÙģÙĬÙĤÙĪÙĦ":9857,"ĠØ±Ø¦ÙĬØ³ÙĬØ©":9858,"ph":9859,"ĠÙħØ³ÙĬØ±":9860,"ĠØ¬ÙĪÙĦ":9861,"Ø¬Ø§Øª":9862,"ĠØ§ÙĦÙģÙĪÙĦ":9863,"ĠØ§ÙĦØ¬Ø§Ø¦Ø²Ø©":9864,"ĠÙĦÙĦØ¶":9865,"ĠØ®Ø³Ø§Ø±Ø©":9866,"ĠÙħØªØ³":9867,"Ø§Ø«ÙĬØ©":9868,"ĠØªØ±ÙĥÙĬ":9869,"ĠØ£ØµÙĬØ¨":9870,"ĠØ§ÙĦØ¬ÙĦÙĪØ³":9871,"ĠÙħØ§Ø³":9872,"ĠØªÙģØªØŃ":9873,"ĠØµÙģØ±":9874,"ĠØ§ÙĦÙħÙģØªÙĪØŃØ©":9875,"ĠØ§ÙĦØªØ±Ø¬ÙħØ©":9876,"ÙĪØ§Ø±Ø«":9877,"ĠÙĦÙħÙĦ":9878,"ast":9879,"ĠØ§ÙĦØŃØ¶Ø§Ø±Ø©":9880,"ĠØ§ÙĦÙĥÙĩ":9881,"ĠØªÙĪØµÙĦ":9882,"ĠØ¹ÙħØ±ÙĩØ§":9883,"ĠØªÙĨØªØ¸Ø±":9884,"ĠÙĬÙĨØµØŃ":9885,"ĠØ§ÙĦØ³Ø±ÙĬØ©":9886,"ĠØªØªÙĬØŃ":9887,"ĠØ§ÙĦØ°ÙĥØ§Ø¡":9888,"Ø¹Ø§Ùģ":9889,"ĠÙĪØ¨ÙĬ":9890,"ĠØ£ÙĬØ§Ø±":9891,"ĠÙħØ¯Ø®ÙĦ":9892,"ĠÙģÙĬØ¬Ø¨":9893,"ĠØ§ÙĦÙĪØ¹":9894,"ĠÙĪÙĬØ¹ÙħÙĦ":9895,"ÙĤÙĩØ§":9896,"ĠØ£ØŃØ¯Ø§":9897,"Ø£Ø®Ø¨Ø§Ø±":9898,"ĠØ§ÙĨØªÙĤÙĦ":9899,"ĠØ§ÙĦÙħÙĥØªØ¨Ø©":9900,"ĠØ¹Ø§ÙĦÙħÙĬ":9901,"ØŃÙĬØ·":9902,"ĠØ£Ø³Ø§ÙĦÙĬØ¨":9903,"ĠÙĩÙĪÙĦ":9904,"ÙĦÙĨØ¯Ø§":9905,"ÙĤÙĬØ¯":9906,"Ø«ÙĬ":9907,"ĠØ§ÙĦÙģÙĬØª":9908,"ĠÙħØªÙģ":9909,"ĠØ§ÙĦØ¨ØªØ±ÙĪÙĦ":9910,"Ø®ÙĦØ§ÙĤÙĬØ©":9911,"ĠÙģÙĬÙħÙĥÙĨ":9912,"ĠÙĪØ¬ÙĪÙĩ":9913,"ĠØ§ÙĦÙĨØµØ§Ø¦ØŃ":9914,"ØªÙĩØ±":9915,"ØªØ±Ø§Ø¶ÙĬ":9916,"ĠØ§ÙĦÙĨÙĤØ·Ø©":9917,"ĠØ§ÙĦÙħØ³ØªÙĤÙĦØ©":9918,"Ø¨ØªÙĥ":9919,"ĠØ§ÙĦØ¬ÙħØ¹ÙĬØ§Øª":9920,"ĠØªÙħÙĨØ¹":9921,"Ø¹ÙĦÙĥ":9922,"ÙĬØ¯Ø§Ø¹":9923,"ĠØ¬ÙĪØ§Ø¦Ø²":9924,"ĠØªÙĤÙĦÙĬÙĦ":9925,"Ø³Ø¨Ùĩ":9926,"ĠÙħØ®Ø±Ø¬":9927,"ĠÙĪØ·ÙĦØ¨":9928,"ĠØ§ÙĦØ¨Ø³ÙĬØ·Ø©":9929,"ĠØ¨ÙĪÙĦØ§ÙĬØ©":9930,"ĠÙĪÙĬÙĤÙĪÙħ":9931,"ĠØ¬Ø§Ø¨Ø±":9932,"ĠÙĤØ±Ø§Ø¡":9933,"ĠÙħØ·Ø§Ø¹Ùħ":9934,"ĠØ§ÙĦØ¨Ø±ØªØº":9935,"Ø·Ø±Ø§Ø¨Ø§Øª":9936,"ĠØ£ØŃÙĦØ§Ùħ":9937,"ĠÙĪØ§Ø¶ØŃØ§":9938,"Ø¬ÙĩØ§Øª":9939,"ĠØ§ÙĦØ«ÙĪØ±ÙĬ":9940,"Ø±Ø¬Ø¹":9941,"Ø±Ø¯ÙĨ":9942,"ĠÙĬØ¹ÙĬØ´ÙĪÙĨ":9943,"ĠÙĦØ¹Ø¯Ø©":9944,"ĠØ§Ø³ØªØ«ÙħØ§Ø±":9945,"ĠØ§ÙĦÙħÙĤØ§ÙĦØ©":9946,"Ø³ØªØ®Ø¯Ø§Ùħ":9947,"ĠÙħØ§Ø±Ùĥ":9948,"ĠØ®ÙģÙĬÙģØ©":9949,"ĠØ¨ÙħÙĪÙĤØ¹":9950,"ĠØµØ§Ø±ÙĪØ®":9951,"ÙĬÙĦÙĬØ©":9952,"Ø§ÙĥØ´":9953,"ĠÙĬØŃÙĥÙħ":9954,"ĠØªØ¹Ø¨Ø±":9955,"ĠØ±Ø¨ØŃ":9956,"ĠØ§ØµØ¯Ø§Ø±":9957,"ĠÙĪØ£ÙħØ§":9958,"ĠÙģØ±ÙĪØ¹":9959,"ĠØ§Ø¨ÙĨÙĩ":9960,"ĠØ§Ø³ØªÙĤÙĦØ§ÙĦ":9961,"ĠØ§ÙĦØ¥ÙĬØ·Ø§ÙĦÙĬØ©":9962,"ĠØ¨Ø§ÙĦØªØ§ÙĦÙĬ":9963,"ĠÙĪÙħØ®":9964,"ĠÙĪØ§ÙĦØ£ØŃ":9965,"ĠØ§ÙĦØ²Ø¬Ø§Ø¬":9966,"ĠØ§ÙĦÙħØ¹Ø§Ø¯ÙĨ":9967,"ĠØ¬ÙĩØªÙĩ":9968,"ĠÙĦØ¨ÙĦ":9969,"ÙĪØ§ØµÙģØ§Øª":9970,"ĠÙħÙĬØ³ÙĬ":9971,"ĠØ§ÙĦÙĤØ¯Ø±Ø§Øª":9972,"ĠØ¹ÙĪØ¶":9973,"ĠØ§ÙĦØ¯ÙĤÙĬÙĤ":9974,"ĠØ§ÙĦØ§ÙħØ±ÙĬÙĥÙĬ":9975,"ĠØ¨ÙĪØª":9976,"ĠÙħØ´Ø§Ø±ÙĥØª":9977,"Ø®Ø·Ø£":9978,"ĠØ®Ø§ÙĨ":9979,"ĠÙĪØ§ÙĬØ¶Ø§":9980,"ĠØ¥Ø®Ø±Ø§Ø¬":9981,"ĠÙĦÙģØ±ÙĬÙĤ":9982,"ĠØ§ÙĦØ³Ø±ÙĬØ¹Ø©":9983,"ĠÙĪØªØ¨":9984,"ĠØ§ÙĦØ£ÙħØ§ÙĨØ©":9985,"ĠØ§ÙĥØªØ´Ùģ":9986,"ĠØªÙĥØ§ÙĦÙĬÙģ":9987,"ĠØ¨Ø§ÙĦÙĦÙĪÙĨ":9988,"ĠØ§ÙĦØ¯ÙĬÙĥ":9989,"ĠØ§ÙĦØµÙĩÙĬÙĪÙĨÙĬØ©":9990,"ĠØ§ÙĦØ³ÙĥÙĨÙĬØ©":9991,"ĠØŃØ§ÙħÙĦ":9992,"ĠØªÙĪØ³ÙĬØ¹":9993,"ĠØ´Ø§Ùĩ":9994,"ĠØ´Ø±Ø¹ÙĬØ©":9995,"ĠØ¨Ø¨Ø³Ø§Ø·Ø©":9996,"ĠØ´ÙĤÙĤ":9997,"ÙĢÙĢÙĬ":9998,"ĠØ®ÙĪÙģ":9999,"ØªÙĬÙĥ":10000,"ĠÙĪØªØ§Ø±ÙĬØ®":10001,"ĠØ§ÙĦØ§Ø¨Ø§ØŃÙĬØ©":10002,"ĠÙĦØ§Ø¨ÙĨ":10003,"Ġï»ĭ":10004,"ĠÙĪØ«ÙĤ":10005,"ĠÙĩØ§ØªÙģÙĥ":10006,"ØºÙĨÙĬ":10007,"ÙĩÙĦÙĩ":10008,"ĠØ³Ø§Ø¦ÙĤ":10009,"Ġ39":10010,"ĠØ§ÙĦØ¨ØŃØ±ÙĬ":10011,"ĠØŃØ¯Ø«Øª":10012,"ĠØ¨ÙĪØ´":10013,"ĠØ§ÙĦÙĩØ¬ÙħØ§Øª":10014,"âĢı,âĢı":10015,"Ø¶Ø§Ø¦Ø¹":10016,"ĠÙĬÙĤØ±Ø¨":10017,"ist":10018,"ĠÙĬØµØ¹Ø¨":10019,"Ø£Ø¨":10020,"ĠØ¨ØªÙĪÙĤÙĬØª":10021,"ĠØ¥Ø³ØªØ®Ø¯Ø§Ùħ":10022,"ud":10023,"ĠØ§ÙĦØ¸ÙĦÙħ":10024,"ïºĴ":10025,"ĠÙĬØ§Ø³Ø±":10026,"ĠØ§ÙĦØµÙĬØ§ÙĨØ©":10027,"Ġ120":10028,"ĠØªÙģØ¶ÙĦ":10029,"ĠÙĤØ§ÙĦÙĩ":10030,"ĠÙĪØ§ÙĦÙĥØ±":10031,"Ø§Ø±ØªÙģØ§Ø¹":10032,"ĠØ¹ÙĪÙĨ":10033,"ÙĪÙĦÙĨØ¯Ø§":10034,"Ø§ÙĦÙħØ¤":10035,"500":10036,"ĠÙģØ£ÙĨØ§":10037,"ĠØ§ÙĦØ®ÙĦÙĬØ¬ÙĬØ©":10038,"ĠØªØ·Ø§ÙĦØ¨":10039,"ĠØ§ÙĦØ¶ØŃØ§ÙĬØ§":10040,"Ġ~":10041,"ĠØ¨Ø§Ø¹ØªØ¨Ø§Ø±ÙĩØ§":10042,"ĠÙģØ¹Ø§ÙĦÙĬØ©":10043,"ĠØ±Øµ":10044,"ĠÙĪØ§ÙĦØ¨ÙĦ":10045,"ĠØ§ÙĦØ¨ÙĦØ§Ø³Øª":10046,"ĠÙĦÙĦØ£Ø³Ùģ":10047,"ĠØ§ÙĦØ·ÙĪÙĬÙĦØ©":10048,"ĠØ§ÙĦÙħØ¤Ø´Ø±":10049,"ĠØªÙĤÙĨÙĬØ§Øª":10050,"ĠØªØŃØ¶ÙĬØ±":10051,"ÙĪØ¥":10052,"ĠÙĨØ¹ÙħÙĦ":10053,"ĠÙĦØ§Ø¦ØŃØ©":10054,"Ø·ÙĬØ©":10055,"ĠÙĦØ§Ø³ÙĬÙħØ§":10056,"Ġï»ĵ":10057,"ĠØ¨ØªÙħ":10058,"!!!!":10059,"ĠØ·Ùĩ":10060,"ĠØ¨Ø§ÙĦÙħØ§Ø¦Ø©":10061,"ĠÙĪØªÙĩ":10062,"ĠØ¹ÙĨØ¯Ùĥ":10063,"ØªØ±Ùī":10064,"ÙħØ«ÙĦØ§":10065,"ÙĬÙĨØ§Ø¡":10066,"ĠØ§Ø®ØªØ§Ø±":10067,"ĠØªÙĥØ±ÙĬÙħ":10068,"Ø§Ø¦ÙħØ§":10069,"ĠØ§ÙĨÙģØ¬Ø§Ø±":10070,"ĠCh":10071,"ĠØ¨ÙģØªØŃ":10072,"ĠÙģÙĦØ³Ø·ÙĬÙĨÙĬ":10073,"Ø¯ÙĬØ¨":10074,"ant":10075,"ĠØ§ÙĦØ¨ÙĬØ¦ÙĬØ©":10076,"ĠØ§ÙĦÙħØ¬Ø§ÙĨÙĬØ©":10077,"ĠØ®Ø¶":10078,"ĠØ§ÙĦØ´Ø§Ø±ÙĤØ©":10079,"ĠÙĦØ¢Ø®Ø±":10080,"Ø¨Ø±Øª":10081,"ĠØ§Ø·Ø§Ø±":10082,"Ø§ÙģÙĬÙĬÙĨ":10083,"\"..":10084,"ĠÙĬÙĤØªÙĦ":10085,"ĠØ§ÙĦØ±ÙĪØ§Ø¨Ø·":10086,"ĠÙĬÙħÙĥÙĨÙĩØ§":10087,"Ùİ.":10088,"Ġ--":10089,"are":10090,"ĠÙĦÙĬÙĪÙĨ":10091,"ĠØ§ÙĦÙħØ³Ø§Ø¡":10092,"ÙĩØ§ÙĬ":10093,"ĠØ¨ØºØ¶":10094,"ĠØ§ÙĦÙħØµÙĨØ¹Ø©":10095,"ĠÙĦØŃØ¯":10096,"ÙĥØªØ§Øª":10097,"ØªØ²Ø§Ø²":10098,"ĠØ¬ÙĪØ§ÙĨØ¨":10099,"Ġ:\"":10100,"Ø±Ø²":10101,"ĠÙħØ®ØµØµ":10102,"ØµÙĦÙĬ":10103,"ĠØ«Ø±":10104,"ÙĪÙĤÙĬ":10105,"ĠØ§ÙĦØ±Ø§Ø¦Ø¯Ø©":10106,"ĠØ§ÙĦÙħÙģØ¶ÙĦØ©":10107,"ĠÙĪØ§ÙĦØ®Ø§Ø±Ø¬":10108,"ĠÙĨØ§Ø¯Ø±":10109,"ĠØªÙĦÙģ":10110,"ĠÙĦÙĦØ¬ÙĬØ´":10111,"ĠØ§ÙĦØ¥ØŃØµ":10112,"ĠÙħÙĥØ§Ùģ":10113,"Ø·Ø¨Ø¹Ø§":10114,"ĠØ´ÙĩØ±ÙĬÙĨ":10115,"ĠØ£Ø±ÙĤØ§Ùħ":10116,"Ø§Ø¨Ø§ÙĬØª":10117,"ĠÙĪØ²ÙĨ":10118,"ĠØ¹Ø§Ø¯ÙĬ":10119,"ĠØ£ÙħÙĬØ±ÙĥØ§":10120,"ĠØ¬ÙĦØ³Ø§Øª":10121,"ĠÙĪØ§ÙĦØ³ÙĨØ©":10122,"Ġ250":10123,"ÙĪÙģØ¯":10124,"ĠØ¹ÙħÙĬÙĤ":10125,"ĠÙĪØªÙĨØ¸ÙĬÙħ":10126,"Ø§Ø¨Ø¹Ø§":10127,"ĠØ·Ø±Ø§Ø²":10128,"Ø«Ø±Øª":10129,"ØªØºÙĦ":10130,"ØµØ§ÙĦØŃ":10131,"ĠÙĪØ·Ø±ÙĤ":10132,"ĠØ¨Ø£ÙĥÙħÙĦ":10133,"Ø§ÙĦÙĬÙħ":10134,"Ġthe":10135,"ĠÙĬØ«ÙĬØ±":10136,"ĠØ¨Ø§ÙĦÙħØ³Øª":10137,"ĠÙĬØªØŃÙħÙĦ":10138,"ĠÙģØ¥ÙĨÙĨØ§":10139,"ĠØ§ÙĦÙħØ´Ø§Ø¹Ø±":10140,"ĠÙ¡":10141,"ĠØ¹Ø§Øª":10142,"Ø«Ø§ÙĦØ«":10143,"ÙĪØ§ÙĩØ±":10144,"ĠØ§ÙĦØ³ÙĦÙĬÙħ":10145,"ĠØ§Ø®Ø°":10146,"ĠÙĪØ§ÙĦØ°Ùī":10147,"ÙħØ¬ÙĬØ§Øª":10148,"Ø¯ÙĪØ±":10149,"ĠØ¨ÙģØ±":10150,"ĠÙĪØ¯ÙĪØ¯":10151,"ĠØ§ÙĦØªÙĤÙĦÙĬØ¯ÙĬ":10152,"ĠÙģÙĬÙĦ":10153,"ĠÙģÙĬÙĨ":10154,"ĠØ¨ÙħÙĤØ±":10155,"ÙģÙĩÙħ":10156,"ĠÙĪØ¯ÙĪÙĦ":10157,"ĠØ³ÙģÙĬØ±":10158,"ĠØ§Ø¹ÙĦØ§ÙĨ":10159,"Ø§ÙĦØ¨Ø§":10160,"ĠØ§ÙĦØªÙħØ«ÙĬÙĦ":10161,"ĠØ§ÙĪÙĦØ§":10162,"Ø§ÙĨÙĬÙĨ":10163,"ĠØ§ÙĦÙĤØµÙĬØ±Ø©":10164,"ĠØªØ¹Ø±":10165,"ĠØ¢ÙħÙĨØ©":10166,"ÙĤØ§ÙħØª":10167,"ĠØ§ÙĦØµÙĦØ¨":10168,"ĠØªØªÙħØ«ÙĦ":10169,"ĠÙħÙĨØ²ÙĦÙĩ":10170,"[/":10171,"ĠÙħÙĥØ«":10172,"ĠØ¨ÙĥÙĦÙĬØ©":10173,"ĠØ§ÙĦÙĥÙĩØ±Ø¨Ø§Ø¦ÙĬ":10174,"ĠØ§ÙĦØµØ¯Ø¯":10175,"ĠØ¹Ø´Ø±ÙĬÙĨ":10176,"ĠÙĪÙħÙħ":10177,"ĠØ¨Ø·ÙĦØ¨":10178,"ĠÙĤØµÙĬØ±":10179,"Ø·Ø§Ùģ":10180,"âĸ":10181,"ĠØ§ÙĦÙħØªØ¸Ø§ÙĩØ±ÙĬÙĨ":10182,"ĠØ§ÙĦØ¹Ø¶ÙĦØ§Øª":10183,"ĠØ§ÙĦØ¥Ø±ÙĩØ§Ø¨ÙĬ":10184,"ĠÙĦØ±ÙģØ¹":10185,"Ø£ÙĥØ«Ø±":10186,"ĠØ§ÙĦØŃØ±ÙĥØ§Øª":10187,"ÙĤØ¨ÙĪÙĦ":10188,"ĠØ¹ÙĨØ¯ÙĩÙħ":10189,"ĠØªØ³Ø¨":10190,"ĠØªÙĪÙĦ":10191,"ĠÙĦÙĦÙĥÙħØ¨ÙĬÙĪØªØ±":10192,"ĠØ£ÙĥÙĦ":10193,"ĠØ´Ø±ÙĬÙģ":10194,"ĠÙħØ¹Ø§Ø±":10195,"ĠØ§ÙĦØ§Ø¬ÙĩØ²Ø©":10196,"df":10197,"ĠØ¨Ø·Ø§ÙĤØ§Øª":10198,"ĠÙĤØ§Ø±":10199,"ĠÙĤØ±Ø§Ø±Ø§":10200,"Ùĭ..":10201,"ĠÙģØ¹Ø§ÙĦ":10202,"ĠØ§ÙģÙĦØ§Ùħ":10203,"Ø§ØµÙĬ":10204,"ĠÙħÙĥØ§ÙĨØ©":10205,"ĠØ±Ø¦ÙĬØ³ÙĬ":10206,"Ø¹ÙĪØ±":10207,"ĠØ£ÙĨÙģØ³ÙĨØ§":10208,"ĠØ§ÙĦØ¨Ø±ÙĬØ©":10209,"ĠØ§ÙĦØªØŃÙĪÙĦ":10210,"ĠØ§ÙĦØ±Ø§Ùģ":10211,"ï¿½":10212,"ĠØ£Ø³ØªØ·ÙĬØ¹":10213,"ØªØ¹Ø§ÙĪÙĨ":10214,"ĠÙĥØ°Ø§":10215,"ĠØ³ÙĦØ·Ø§Øª":10216,"ĠØ§ÙĦØ«ÙħÙĨ":10217,"ĠØ§ÙĦØªØŃÙĥÙĬÙħ":10218,"ĠØ¯ÙĬÙĨÙĬØ©":10219,"ĠØªÙħØ§Ø±Ø³":10220,"ĠØªÙĩØªÙħ":10221,"ĠØ²ÙĬØ§Ø±ØªÙĩ":10222,"ĠØ§ÙĦØ¨Ø´ÙĬØ±":10223,"ĠPro":10224,"ĠÙĬØŃÙģØ¸":10225,"ĠØ¹Ø¸ÙĬÙħØ©":10226,"ĠÙĩØ°Ø©":10227,"ØªØµØ§Ø±Ø§Øª":10228,"Ø£Ø´":10229,"ĠØ§Ø³ØªÙħØ±Øª":10230,"ĠÙħØµØ¯":10231,"ĠØ§ÙĦÙģØ¦Ø§Øª":10232,"ĠØ«ÙĨØ§Ø¦ÙĬ":10233,"67":10234,"ĠØ§ÙĦÙĦØ¬Ø§ÙĨ":10235,"ĠØ§ÙĦÙħØ±Ø§ÙĤØ¨Ø©":10236,"ĠØ£ÙħÙĩ":10237,"ÙĢØ¹":10238,"Ø¬Ø§ÙħØ¹Ø©":10239,"ĠØ§ÙĦØ¨Ø§Ø·":10240,"ĠØ·ÙĬÙĦØ©":10241,"ÙĪØ¸ÙĬÙģ":10242,"Ø´Ø§":10243,"ĠÙģÙĥØ§ÙĨØª":10244,"ĠÙĦÙĦÙĨØ³Ø§Ø¡":10245,"ĠØ§ÙĦØ³Ø§Ø¦ÙĤ":10246,"ĠÙĪØ¸ÙĬÙģ":10247,"ØµÙĨ":10248,"ĠØ³ÙĦØ¨":10249,"ĠØ§ÙĦØ·ÙĦØ§ÙĤ":10250,"ØºØ±Ø³":10251,"ĠÙħØ¸ÙĩØ±":10252,"ĠÙĬØ³Ø£ÙĦ":10253,"ĠÙĦØ¹Ø±Ø¶":10254,"ÙĬÙĤØ¸":10255,"ÙĬÙģÙĬ":10256,"ĠØ§ÙĦØ¬ÙħØ§Ø¹ÙĬ":10257,"ĠØ¨Ø§ÙĦÙħØºØ±Ø¨":10258,"ĠØªØ±Ø¯":10259,"Ø§Ø´ÙĬØ©":10260,"ĠØ§ÙĦØ¥Ø®Ø¨Ø§Ø±ÙĬØ©":10261,"ĠØ§ÙĦÙĨØ§Ø·ÙĤ":10262,"ÙĦÙĦÙħ":10263,"Ø¦ÙĨ":10264,"ĠØ§ÙĦÙħØ§ÙĦÙĥÙĬ":10265,"ĠØ§ÙĦØŃÙĬÙĨ":10266,"se":10267,"ÙĪØ¯Ø¹":10268,"ĠØ¨Ø¹Ø±Ø¶":10269,"ï»¬":10270,"ĠØ§ÙĦØ¯Ø¨ÙĦÙĪÙħØ§Ø³ÙĬØ©":10271,"ĠÙħÙħØ«ÙĦØ©":10272,"Â»:":10273,"Ø±ÙĬØ§ÙĦ":10274,"Ø¨Ø§ØŃÙĬØ©":10275,"ÙĦÙĬØª":10276,"ÙĪØ§Ø±Ø¨":10277,"ĠØ§ÙĦØ§ÙĦÙħ":10278,"ĠØ§ÙĦÙħÙĨØªØ¸Ø±":10279,"ĠØ§ÙĦØŃÙĥÙĬÙħ":10280,"ĠÙĨÙĬÙĥ":10281,"ØªÙĩØ§Ùĥ":10282,"Ø¹Ø§ÙĬÙĬØ±":10283,"ĠÙĦÙĦÙħÙĪØ§Ø·ÙĨÙĬÙĨ":10284,"ice":10285,"ĠØ§ÙĦÙĨØ®":10286,"Ø§ÙĦÙħØ§Øª":10287,"ĠØ§ÙĦØ´Ø±Ø§ÙĥØ©":10288,"ĠØ¹Ø¶ÙĪØ§":10289,"ĠØ§ÙĦÙĨØ¨Ø§ØªØ§Øª":10290,"ĠØ¨Ø±ÙħÙĬÙĦ":10291,"ĠÙħÙĪØ§Ø±Ø¯":10292,"Ø§Ø³ØªØ®Ø¯Ø§Ùħ":10293,"Ø§Ø¦Ø¨Ø©":10294,"ĠØ§ÙĦÙĦÙĬÙħÙĪÙĨ":10295,"ĠØ§ÙĦØ®ÙĦÙģ":10296,"ĠÙĩØ¯ÙģØ§":10297,"ĠØ§ÙĦØ§ØªØŃØ§Ø¯ÙĬØ©":10298,"ĠÙĤØ±Ø§Ø¨Ø©":10299,"ĠØ§ÙĦØ®ÙĦÙģÙĬØ©":10300,"ĠÙĦØ§ÙĨÙĩØ§":10301,"ĠØ¨Ø§ÙĦÙħÙĦ":10302,"ĠØ³Ø¨Ø¨Ø§":10303,"ĠÙħØ®ÙĦ":10304,"ĠØ§ÙĦÙħØ·Ø¹Ùħ":10305,"ĠÙĬÙħÙĪØª":10306,"ĠÙĨÙħØ§Ø°Ø¬":10307,"ĠØ§ÙĦØ£Ø²Ø±ÙĤ":10308,"ĠØ¹Ø±Ø¶Ø©":10309,"ĠØ§ÙĦØ·Ø¨ÙĤ":10310,"Ø§Ø³Ø§":10311,"ĠØ¨Ø¬Ùħ":10312,"âĢı:âĢı":10313,"ĠØ§ÙĦÙĬÙĩÙĪØ¯ÙĬØ©":10314,"ĠØ¨ØªØ¬":10315,"Ø¨ÙĪÙĨ":10316,"ĠØ²ÙħÙĬÙĦ":10317,"ĠØ§ÙĦÙĦØŃÙħ":10318,"ĠÙĬÙĤØ§Ø±Ø¨":10319,"ĠØ§ÙĦÙħØŃØ¯Ø¯":10320,"ĠØ§ÙĦØ§Ø«Ø§Ø«":10321,"ĠÙĪØ§ÙĦØ«Ø§ÙĨÙĬ":10322,"ĠÙĬÙħÙĥÙĨÙĨÙĬ":10323,"ĠÙĦÙĦØ§Ø³ØªØ«ÙħØ§Ø±":10324,"ĠØªÙĨØ¸Ø±":10325,"ÙĨØ³Ø®Ø©":10326,"ĠØ§ÙĦØ¢Ø®Ø±Ø©":10327,"Ø§ØºØ¨ÙĬÙĨ":10328,"ĠØ§ÙĦØ¨Ø¯ÙĨÙĬØ©":10329,"ĠØªØ±ÙĥÙĬØ²":10330,"ĠÙħØ¹Ø§Ø±Ø¶":10331,"ĠØ°Ø§ÙĥØ±Ø©":10332,"Ø±Ø®Ø§Ø¡":10333,"ĠÙħØ¹ÙĥÙħ":10334,"ĠØ§ÙĦØ°ÙĩØ¨ÙĬØ©":10335,"ĠÙĥØ±Ø¯Ø³ØªØ§ÙĨ":10336,"ĠØªØ¬ÙĩÙĬØ²":10337,"ĠÙħØ¹Ø§ÙĦÙħ":10338,"ĠÙĦØªØ¬":10339,"ĠÙĦØ¹ÙħÙĦÙĬØ©":10340,"ĠØ§ÙĦÙĨÙĤØ§Ø¨Ø©":10341,"ĠØ§ÙĦÙħÙĤØµÙĪØ¯":10342,"ÙĦØŃ":10343,"ĠÙħÙģØ§ÙĪØ¶Ø§Øª":10344,"ĠÙĦÙĦØ§Ø·":10345,"Ø®ÙĪØ±":10346,"ĠØ§ÙĦÙĨØ§Ùģ":10347,"ĠØªÙĪØ¶ÙĬØŃ":10348,"ĠÙģØ±Ø§ÙĨØ³":10349,"ĠØµØ§Ø¯ÙĤ":10350,"ÙĬÙĦØ§Ø¡":10351,"ÙĪÙĦÙĪØ¬ÙĬØ§":10352,"ĠØ£ÙĨØ¨Ø§Ø¡":10353,"ĠØ®Ø§ÙĦ":10354,"ĠØ£Ø¬ÙĪØ§Ø¡":10355,"Ø´ÙĬØ¡":10356,"ÙģÙĬÙĩÙĬØ©":10357,"Ġ34":10358,"ĠÙĩØ²":10359,"ĠØ§ÙĦØ¢ÙĦÙĬ":10360,"ĠØ§ÙĦØ¬ÙĪØ§ÙĨØ¨":10361,"ĠÙħØŃØ§Ø±Ø¨Ø©":10362,"ĠØ§ÙĦØ¥Ø¶Ø§Ùģ":10363,"ĠÙĦÙģØª":10364,"ĠÙĪØŃØ¯ÙĩØ§":10365,"Ø¨Ø§ÙĦØº":10366,"ĠØ§ÙĦØ¶Ø±ÙĪØ±ÙĬØ©":10367,"ĠØ§ÙĦØ£Ø³Ø¨ÙĤ":10368,"ÙĩØ¯ÙĪØ¡":10369,"ĠÙħØ¹Ø§ÙĦÙĬ":10370,"ĠØ§ÙĦØ£ÙĩÙħÙĬØ©":10371,"ĠØ§ÙĦØªØ±Ø¨ÙĪÙĬ":10372,"ØªÙĩØ§Ø¯":10373,"ĠÙĦÙĦØ¬ÙĨØ©":10374,"ĠÙĪÙģØªØŃ":10375,"ĠØ¨Ø§ÙĦØªØ±":10376,"ĠØ¸Ø§ÙĩØ±":10377,"ĠØ¹Ø¨Ø¯Ø§ÙĦØ±ØŃÙħÙĨ":10378,"ĠØ§ÙĦÙħÙĤØ¯Ùħ":10379,"ĠØªØ²ÙĪÙĬØ¯":10380,"ĠÙĬÙĨØªØ¬":10381,"ĠØ¨Ø£ÙĨÙĩÙħ":10382,"ĠØ§ÙĦÙħØ§Ø¬Ø³ØªÙĬØ±":10383,"ne":10384,"Ø¯ÙĪØ±Ø©":10385,"ĠØ§ÙĦØªØ¹Ø¯ÙĬÙĨ":10386,"ÙĤØ±ÙĬØ©":10387,"ĠÙĨØ§Ø¯":10388,"ĠØ§ÙĦÙħØ±Ø´ØŃÙĬÙĨ":10389,"Ø³Ø¹ÙĬØ¯":10390,"Ø±ÙĪÙĨ":10391,"ĠØ£ÙĪÙĦØ§Ø¯":10392,"ĠØ§ÙĦÙħØ¯ÙĬØ±ÙĬØ©":10393,"ĠÙĥØ§ÙħÙĬØ±Ø§":10394,"Ø³ÙĬÙĥ":10395,"ĠØ§ÙĦÙħØµØ§Ø¨":10396,"ÙĬÙĪÙĦ":10397,"ÙĦÙħØª":10398,"ĠØ§ÙĦØ£Ø®ÙĦØ§ÙĤ":10399,"ĠØ§ÙĤØªØŃ":10400,"Ø§Ø¯ÙĬØ«":10401,"ĠÙĪØŃØ³ÙĨ":10402,"ĠÙĦÙģØ¸":10403,"ĠÙĥØ¨":10404,"Ø¹Ø§Ø±Ø¶":10405,"ĠØªØ¬Ùħ":10406,"ĠÙĦÙĦØ¹ÙĦÙĪÙħ":10407,"ĠØ¨ØŃØ±ÙĬØ©":10408,"ÙģØ¥ÙĨ":10409,"ĠØ´Ø±Ø§Ø¦ØŃ":10410,"ĠØ§ÙĦØªÙĥÙĨÙĪÙĦÙĪØ¬":10411,"ĠØ§ÙĦØ§ÙĨØªØ§Ø¬":10412,"ĠØ¨Ø¯ÙĪØ±Ùĩ":10413,"ĠØŃÙĦÙĤØ§Øª":10414,"Ø£Ø¯":10415,"ĠØŃØµØ©":10416,"ĠÙĪØ³Ø¨":10417,"ĠØ§ÙĦÙħÙĪØ±":10418,"ÙĪØ£ÙĥØ¯Øª":10419,"ĠØ«Ø§Ø¨ØªØ©":10420,"ĠØªÙĨÙĤÙĦ":10421,"ĠØ±ÙĪØ§Ø¯":10422,"ĠÙĪÙħÙĨÙĩÙħ":10423,"ÙĬØ¹Ø§Ø¨":10424,"ÙĤÙĪØ§":10425,"ĠØ§ÙĦÙħØ¹Ø§ØµØ±":10426,"ĠÙħØ¤ÙĥØ¯Ø©":10427,"ĠØ§ÙĦØ§Ø³ØªØ®Ø¨Ø§Ø±Ø§Øª":10428,"ĠÙĬØ¹Ø±ÙģÙĪÙĨ":10429,"ĠÙģØ¹ÙĦÙī":10430,"ØªÙħØ§ÙĨ":10431,"ĠÙĦÙĦØªÙģ":10432,"ĠØ§ÙĦØ¥Ø¨Ø¯Ø§Ø¹":10433,"ĠØ§ÙĦÙħÙĨÙĩØ¬":10434,"ĠÙģÙĦØ³Ø·ÙĬÙĨÙĬØ©":10435,"ĠÙĬØ³ÙĬØ±":10436,"Ø§ÙĥÙĨØ©":10437,"ĠÙĦØ¥Ø¬Ø±Ø§Ø¡":10438,"ĠØ§ÙĦÙĨÙĤØ¯ÙĬØ©":10439,"aw":10440,"ÙĩØ§Ø¯Ø©":10441,"Ø¨ÙĩØ§Øª":10442,"ĠÙĦØªÙĨØ§ÙĪÙĦ":10443,"ĠÙĪÙħÙģ":10444,"ĠÙħÙģØªØ§ØŃ":10445,"ĠØ³Ø§Ø¦Ø±":10446,"ĠØ§ÙĦÙģÙĪØ§Ø¦Ø¯":10447,"ĠØ§ÙĦÙħØ¨ÙĨÙī":10448,"sh":10449,"ĠØªØºØ·ÙĬØ©":10450,"Ø±Ø§Ùħ":10451,"ĠÙĥØªÙĦØ©":10452,"ĠØ¨Ø§ÙĦØ³Ø¬ÙĨ":10453,"ĠÙħØªÙĪØ³Ø·Ø©":10454,"ĠØ§ÙĦÙĪÙĤØ§ÙĬØ©":10455,"ÙĤÙĪØ¨":10456,"ĠØªÙĨØ²ÙĬÙĦ":10457,"ĠÙĪØ§ÙĦØ¹Ùħ":10458,"ĠØ¨Ø²ÙĬØ§Ø¯Ø©":10459,"ĠÙĦÙĦØ·Ø§ÙĤØ©":10460,"ĠÙĤØ§Ø³Ùħ":10461,"ĠÙĨÙĤÙĦÙĩ":10462,"ĠÙħØ«ÙĬØ±Ø©":10463,"ĠØ¨Ø§ÙĦØ³ÙĦ":10464,"ĠØ§ØºØªÙĬØ§ÙĦ":10465,"ĠÙĬÙĪÙģ":10466,"ÙĦÙĪØ¨":10467,"ĠØ³Ø±ÙĬØ¹Ø§":10468,"ĠØ¥ÙĨØ³Ø§ÙĨÙĬØ©":10469,"ÙĦÙģØ²ÙĬÙĪÙĨÙĬØ©":10470,"ĠØ¬ÙĬÙĨ":10471,"ĠØ¬ÙĬØ¬Ø§":10472,"ĠÙĦÙĦØ¹Ø¨":10473,"ĠØ§ÙĦØ§Ø·ÙĦØ§Ø¹":10474,"ĠÙģØ§Ø³Øª":10475,"ĠØ§ÙĦØªÙĪØ§Ø²ÙĨ":10476,"ĠÙħØŃÙĪØ±":10477,"ĠÙĨÙģØ³ÙĬØ©":10478,"ĠØ§ÙĦØ±Ø¶":10479,"ĠÙħÙĪØ¬Ø©":10480,"ĠØºÙĬØ±ÙĩÙħ":10481,"ĠØ®Ø§ÙĦÙĬØ©":10482,"ĠØ§ÙĦØ·ÙĬØ¨Ø©":10483,"ĠØ£Ø¶Ø§Ùģ":10484,"ĠØ§ÙĦØ£Ø«Ø§Ø«":10485,"Ø·Ø¨Ø¹":10486,"ĠØ¬Ø¹ÙĦØª":10487,"ĠÙĪØ¹ÙĬ":10488,"ĠÙħØ³Ø¹ÙĪØ¯":10489,"ĠÙģØ³Ø§Ø¯":10490,"ĠØ§ÙĦØ³Ø¨Ø§ØŃØ©":10491,"ĠØ¨Ø§ÙĦØªØ¯":10492,"ĠÙĦÙĬØµØ¨ØŃ":10493,"ĠØ«ÙħØ©":10494,"ĠÙħÙĨØ¸ÙħØ§Øª":10495,"ĠØŃØ³ÙĨÙĬ":10496,"ĠØªÙĨØ§Ø³Ø¨":10497,"ĠØ¨Ø§ÙĦØ¹Ø§ØµÙħØ©":10498,"ĠØ¥Ø±ÙĩØ§Ø¨ÙĬØ©":10499,"ĠØ§ÙĦØ¹Ø±Ø§ÙĤÙĬÙĬÙĨ":10500,"ĠØ§ÙĦÙģÙĥ":10501,"ĠØ±ØµÙĬØ¯":10502,"ĠØ§ÙĦÙħØ³ØªØ¯Ø§ÙħØ©":10503,"ĠØªØªÙĥÙĪÙĨ":10504,"ĠØ§ÙĦØ¨Ø¹Ø«":10505,"ĠØ§ÙĦÙħØ¨Ø§ÙĨÙĬ":10506,"97":10507,"ĠØ§ÙĦÙħØ³Ø§Ø¦ÙĦ":10508,"Ø§ÙĦÙħØ³Øª":10509,"ĠØ§ÙĦØ¹ÙħÙĬØ¯":10510,"ÙĪØ¨ÙĪØª":10511,"ie":10512,"ĠÙĪØ³ÙĪØ±ÙĬØ§":10513,"ĠØ§ÙĦÙģØ¹Ø§ÙĦÙĬØ§Øª":10514,"ĠØ§ÙĦØ´Ø§Ø·Ø¦":10515,"ĠØ±ÙĬØ§Ø¶ÙĬØ©":10516,"ĠØ£Ø¯Ø®ÙĦ":10517,"ĠØ£ÙģØ±":10518,"ĠØ£ØŃØ¯ÙĩÙħØ§":10519,"ĠØ£ÙĦÙĤ":10520,"ĠÙĦÙĪØ¬ÙĪØ¯":10521,"ĠÙĪÙĬÙĤ":10522,"ĠØ§ÙĦØ®ÙĦÙĬØ¬ÙĬ":10523,"Ø¥ÙĦØ§":10524,"ÙħØ·ÙĦÙĪØ¨":10525,"ÙĥØ±Ø±Ø©":10526,"ĠÙħØ¸":10527,"ÙĬØ«Ø§ÙĤ":10528,"ÙĩØ¯ÙģØª":10529,"ĠØ§ÙĦØ²ÙĩØ±":10530,"ĠØ¨ÙĨØ¬Ø§ØŃ":10531,"ĠØ§ÙĦØªØ±ØªÙĬØ¨":10532,"ĠØ§ÙĦØ£ÙĪÙĦÙĬ":10533,"ĠØ±Ø¤ÙĪØ³":10534,"ĠØ¨Ø§ÙĦØ§Ø³":10535,"ĠØªØ¨Ø¹":10536,"ĠØªØ£Ø¬ÙĬÙĦ":10537,"ĠÙĦØ´Ø¤ÙĪÙĨ":10538,"ĠØ§ÙĦÙħØµÙĦØŃØ©":10539,"ĠØ§Ø³Ø·ÙĨØ¨ÙĪÙĦ":10540,"ĠØ³ÙĨÙĬÙĨ":10541,"ĠØŃØ³Ø§Ø¨Ùĩ":10542,"ÙħÙĪÙĬØ©":10543,"ĠÙħØªÙħÙĬØ²":10544,"ĠØ¨Ø³Ùħ":10545,"ĠÙĦÙĦØ¢":10546,"ĠØ§ÙĦÙĥÙĪÙĦ":10547,"98":10548,"ĠØ§ÙĦÙĨØ§Ø´Ø±":10549,"ĠÙĬØµÙģ":10550,"Ø§Ø´Ùħ":10551,"ĠØ§ÙĦØ²ÙĬØ§Ø¯Ø©":10552,"ĠØ£Ø³Ø§Ø³Ø§":10553,"ĠØ§ÙĦØ¨ÙĥØ§ÙĦ":10554,"ĠØ§ÙĦØ²Ø§Ø¦Ø±":10555,"ĠØ£Ø·ÙĦÙĤØª":10556,"ĠØªÙĥØªØ¨":10557,"ĠØ§ÙĦØŃØ¯ÙĬØ¯Ø©":10558,"ĠØ¹ÙĤÙĪØ¨Ø§Øª":10559,"ĠÙĪØ«Ø§Ø¦ÙĤ":10560,"ĠØ¶Ø±Ø¨Ø©":10561,"ĠØ·ÙĦØ¨Øª":10562,"ĠØ§ÙĦÙħØ¹ØªÙĤÙĦÙĬÙĨ":10563,"Ø®Ø·Ø§Ø±":10564,"ÙĪÙĦØ§Ø±":10565,"ĠØ¨ÙĨÙĤÙĦ":10566,"ĠØ§ÙĦÙģØªØŃ":10567,"ĠØ§ÙĦØªØ§Ùħ":10568,"ĠÙĪØ´ÙĥØ±Ø§":10569,"Ġin":10570,"ĠÙĪØ§Ø°Ø§":10571,"ĠÙĪØ³ÙĬØªÙħ":10572,"ĠÙĨÙĤØ§Ø¨Ø©":10573,"ĠÙĦÙĥØ§ÙģØ©":10574,"ĠÙĪØ¯ÙĪÙĨ":10575,"ĠØ¬Ø§ÙħØ¹":10576,"ĠÙĪØ§Ø¬ÙĩØ©":10577,"ĠØ£ÙĨØµØ§Ø±":10578,"ĠÙħØŃÙģÙĪØ¸Ø©":10579,"ĠÙħØ§ÙĬÙĥØ±ÙĪØ³ÙĪÙģØª":10580,"ĠÙĪØªÙĦ":10581,"ill":10582,"65":10583,"ĠØ§ÙĦÙĨØ³ÙĬ":10584,"Ġk":10585,"ĠØ§ÙĦØµÙĪØ§Ø±ÙĬØ®":10586,"ĠØ§ÙĦÙĤØ§Ø¯Ø©":10587,"ĠÙħØ§ÙĩÙĪ":10588,"ĠØŃÙĪØ§Ø¯Ø«":10589,"ĠÙĨØ§ÙĤ":10590,"ĠØ¬ÙĪÙĩØ±":10591,"ØŃØ¨Ø§Ø·":10592,"ĠØ§ÙĦÙħÙĦÙĬ":10593,"ĠÙĤÙħÙĨØ§":10594,"Ø°ÙĩØ§Ø¨":10595,"ĠØ§ÙĦØªØ£ÙĥÙĬØ¯":10596,"ĠÙĪØ®ÙĦØ§ÙĦ":10597,"Ø¹ÙĤØ§Ø¯":10598,"ĠÙĨØ¨Ø§Øª":10599,"ĠØ§Ø«Ø±":10600,"ĠØ£ØºÙĨÙĬØ©":10601,"ĠØ§ÙĦØ°ÙĥÙĬ":10602,"ĠâĢĶ":10603,"ass":10604,"ÙĩØ¯Øª":10605,"ÙĪØ§ÙĦØ¯":10606,"Ø±ÙĬØº":10607,"ĠØªØ«Ø¨Øª":10608,"ÙĪÙĦÙĬØ³":10609,"ĠØ§Ø¬Ø±Ø§Ø¡":10610,"ĠÙĤØ±Ø£":10611,"ĠØ¯ÙĪØ±ÙĩØ§":10612,"ĠØ£ØªÙħÙĨÙī":10613,"ĠÙħØ³ØªÙĤÙĦ":10614,"ĠØ¹ÙĨØ¯ÙĨØ§":10615,"ÙģÙĥ":10616,"ĠØ§ÙĦØ£Ø±Ø¶ÙĬØ©":10617,"ĠØŃØ¯ÙĬØ«Ø§":10618,"ÙĩÙĬØ¨":10619,"ĠØ§ÙĦØ³Ùĥ":10620,"ĠØ§ÙĦØ±Ø¨ØŃ":10621,"ØŃÙĥÙħ":10622,"ĠÙĪØ±ÙģØ¶":10623,"ĠÙĪØªØ¹ØªØ¨Ø±":10624,"ĠÙħØ³Ø§ØŃ":10625,"ĠÙĦÙĦÙĤØ§ÙĨÙĪÙĨ":10626,"ĠØ´Ø§ØŃ":10627,"ĠGoogle":10628,"ĠØ§ÙĦØ´Ø±Ùģ":10629,"ĠØªÙĥØª":10630,"ang":10631,"ĠØ§ÙĦÙħØµØ§ÙĦØŃØ©":10632,"ĠØ§ÙĦØ³ÙĬØ±Ø©":10633,"ĠØ¥Ø¹ÙĦØ§ÙħÙĬØ©":10634,"ĠØ§ÙĦÙħØªÙĩÙħÙĬÙĨ":10635,"ĠØ§ÙĦØ§ÙĬØ±Ø§ÙĨÙĬ":10636,"ĠØ§ÙĦØ¬Ø§ÙĨ":10637,"Ø³ÙĨØ©":10638,"ĠØ§ÙĦÙĪØ¬Ø¨Ø§Øª":10639,"ÙĨØ§Ø¹Ø§Øª":10640,"ĠØ¨Ø§ÙĦÙħØ¯":10641,"ĠØ§Ø±Ø¬ÙĪ":10642,"ĠÙĥØ±Ø¨":10643,"ĠØ§ØŃØ¨":10644,"ĠØ§ÙĦØ®Ø¨Ø±Ø§Øª":10645,"ĠØ§ÙĦÙħÙĨØ·":10646,"ĠÙĬØµÙĬØ¨":10647,"ĠØŃØ±ÙĤ":10648,"ĠØ§ÙĦÙģÙĨØ§ÙĨÙĬÙĨ":10649,"ĠØ§ÙĦØ¹Ø´Ø±":10650,"ĠØºØ§Ø²":10651,"ĠØ¥Ø«Ø¨Ø§Øª":10652,"ĠÙħØ¯ÙĬÙĨ":10653,"ĠØ¶Ø§Ø¨Ø·":10654,"ĠØ§ÙĦØ£ÙĨØ¯ÙĬØ©":10655,"ĠØ·ÙĦØ¨Ø©":10656,"ÙĪÙĨÙī":10657,"ĠØ§ÙĦØ¥Ø³Ø¨Ø§ÙĨÙĬØ©":10658,"ĠÙĬÙģÙĥØ±":10659,"ĠÙĦÙĦØ¯Ø±Ø§Ø³Ø§Øª":10660,"ØºØ±Ø§Ùħ":10661,"ĠØ§ÙĦÙĦÙĤØ¨":10662,"ize":10663,"ĠÙģÙĪÙĦ":10664,"ĠØ±ÙĬØ§Ø¶Ø©":10665,"ĠØ¢ÙĦÙĬØ§Øª":10666,"ÙħÙĨØ§":10667,":-":10668,"ĠÙħØ³Ø¨ÙĤØ§":10669,"ĠØ§ÙĦØ£Ø³Ø±Ùī":10670,"ĠÙĬØ¹Ø§Ø¯ÙĦ":10671,"ÙĪØ²ÙĬ":10672,"ĠÙħØªØ§ØŃ":10673,"ÙħÙĥ":10674,"ĠØ§ÙĦÙħØ¹Ø±":10675,"ĠÙĪØ§ÙĦÙĨØ³Ø§Ø¡":10676,"ĠÙĪØ±Ø³ÙĪÙĦÙĩ":10677,"ĠØ§ÙĦÙħØ³Ø¨":10678,"ĠØ§ÙĦÙħØ¹Ø¯ÙĨÙĬØ©":10679,"ĠÙĪØ§ÙĦØ¹ÙĦÙĪÙħ":10680,"ĠÙĪØµÙĪÙĦØ§":10681,"ĠØ§ÙĦØ¥ÙħØ§Ø±Ø§ØªÙĬ":10682,"ĠÙĪØ§ÙĦØ£Ùħ":10683,"ĠÙħÙĬØ´":10684,"ĠÙĪØ§ÙĦØ«ÙĤØ§ÙģÙĬØ©":10685,"ĠÙĦØŃØ±ÙĥØ©":10686,"ĠØ§ÙĦÙģÙĪØ¶Ùī":10687,"Ø´ÙĤØ©":10688,"rtl":10689,"ĠØªØ£ÙĩÙĬÙĦ":10690,"ĠØ±Ø§Ø¦":10691,"ĠØ³ØªÙĨ":10692,"ĠØ£ÙģØºØ§ÙĨØ³ØªØ§ÙĨ":10693,"ĠÙħÙĦØ§ØŃØ¸Ø©":10694,"Ø§ÙĬØ²":10695,"Ø¯Ø¹ÙĬ":10696,"ĠØ£Ø¯Ø±Ùĥ":10697,"ÙĦÙħØ§ÙĨÙĬØ§":10698,"ĠØ¨Ø´ÙĬØ¡":10699,"ĠØ§ÙĦØ£ÙħØ§ÙĨ":10700,"ĠØ§ÙĦØ¯ÙĤØ©":10701,"ĠÙĨÙģÙĪØ³":10702,"ĠÙĪÙħÙĨØ°":10703,"ĠÙħØ¤Ø³Ø³":10704,"ĠÙģØ±ÙĬØ¯Ø©":10705,"Ø§ÙĦÙħØ¹":10706,"ĠØ¨Ø³ÙĦ":10707,"ĠØ¥ÙĤØ§Ùħ":10708,"ĠÙĪØ£Ø®Ø±Ùī":10709,"ĠØ§ÙĦÙĤØ¨Ø§Ø¦ÙĦ":10710,"ĠØ§ÙĦØ¶Ø±Ø±":10711,"Ø¨ÙĬÙĨÙħØ§":10712,"Ø¹ÙĪØ¨":10713,"ĠØŃØ°Ø±":10714,"ĠØ§ÙĦØªÙģØ§ÙĪØ¶":10715,"ĠÙĪØªÙĨÙģÙĬØ°":10716,"ØºØ§Ø«Ø©":10717,"ĠØ¬Ø¨Ø§ÙĦ":10718,"ĠØªÙģØ±Ø¶":10719,"ord":10720,"ĠØ§Ø¨Ø¯Ø§":10721,"ĠÙĦØªØµØ¨ØŃ":10722,"ÙģØ·":10723,"ÙĪÙĥÙĬ":10724,"ĠÙħÙĨØ·ÙĤ":10725,"ÙĬØ±Ùĥ":10726,"ĠÙħØ®ØµØµØ©":10727,"ÙĬÙħÙĬÙĦ":10728,"ĠØªÙģØª":10729,"Ø°Ø§ÙĥØ±Ø©":10730,"ĠØ¨ÙĤØ±Ø§Ø±":10731,"ĠØ§ÙĦØ³ÙĬÙĨÙħØ§Ø¦ÙĬ":10732,"ĠÙħÙĬÙĦØ§ÙĨ":10733,"ĠØ¨Ø£ÙĥØ«Ø±":10734,"ĠØ§ÙĦØ¬ÙĬ":10735,"ĠÙĪØ§ÙĦØ¨ÙĨ":10736,"Ø¶Ø±Ø§Ø¨":10737,"ĠØ§ÙĦØªÙĪÙĤÙĬØ¹":10738,"Ø§ÙĤÙĬÙĨ":10739,"ĠØ¬Ø§Ø²":10740,"Ø³ÙĬÙĬØ±":10741,"ĠØ§ÙĦØ³ÙĬØ§Ø³ÙĬÙĬÙĨ":10742,"68":10743,"ĠØ¬ÙĨØ¨":10744,"ĠØ§ÙĦØ§ÙĨØªØ¸Ø§Ø±":10745,"ØµØ§Ùģ":10746,"ĠÙħØ¶Ø§Ø¹":10747,"ĠÙģØ±ÙĤØ©":10748,"Ġ600":10749,"Ġx":10750,"ĠØ¨ÙĦØ§Ø¯ÙĨØ§":10751,"ĠØ§Ø¬ÙĩØ²Ø©":10752,"ĠØ§ÙĦØ¯Ø±ÙĪØ³":10753,"ĠØ¨ÙħØ±Ø¶":10754,"ĠØ§ÙĦØªØ´Ø±ÙĬØ¹ÙĬØ©":10755,"ĠØ´Ø¹ÙĪØ¨":10756,"ĠØ§ÙĦÙĨØ¨ÙĪÙĬØ©":10757,"ĠØŃÙĥÙĪÙħ":10758,"ĠÙĦÙĦØ³ÙĬØ§Ø±Ø§Øª":10759,"ĠØ¹ÙĦÙĬÙĩÙħØ§":10760,"ĠÙĦÙħÙĨØ§ÙĤØ´Ø©":10761,"ĠØ§ÙĦØŃØ±Ø§Ø±ÙĬØ©":10762,"Ø¸ÙĩÙĪØ±":10763,"ĠØ§ÙĦÙħÙĬØ¯Ø§ÙĨ":10764,"ÙĪØ°ÙĦÙĥ":10765,"ĠÙĦÙħØ´Ø±ÙĪØ¹":10766,"ĠØ³Ø±Ø§ØŃ":10767,"ĠØµØ¯Ø§Ùħ":10768,"ĠÙĪØ§ÙĦØŃØ¯":10769,"ĠÙģØ¹Ø§ÙĦØ©":10770,"ĠÙĨØ¶Ø¹":10771,"Ø§Ø¨ÙĩØ©":10772,"ĠØ§ÙĦÙħÙĨØ³":10773,"ĠÙħÙĦØŃÙĪØ¸":10774,"ĠØ§ÙĦÙģØ§Ø¹":10775,"ÙĤØ§Ø±":10776,"ĠÙĦÙī":10777,"ĠØ§ÙĦØ¨Ø·Ø§ÙĦØ©":10778,"ĠÙħÙĥØ§ØªØ¨":10779,"ĠØ§ÙĦÙħÙħØ§Ø±Ø³Ø§Øª":10780,"ĠØ·Ø¨ÙĤØ©":10781,"ĠØ§ÙĦØ³Ø§Ø¨ÙĤÙĬÙĨ":10782,"ĠØ§ÙĦÙħØ¨ÙĥØ±":10783,"Ø±ÙĥÙĬØ²":10784,"ĠØ§ÙĦØ£ÙĪÙĤØ§Øª":10785,"ĠØ§ÙĦØ§ÙĤÙĦÙĬÙħ":10786,"ĠÙħØ¹Ø§ÙĨØ§Ø©":10787,"ÙĥØ±Ø§Ø¯":10788,"ĠÙĦÙĦØ±Ø¬Ø§ÙĦ":10789,"ĠØ¨Ø§Ø¹ØªØ¨Ø§Ø±Ùĩ":10790,"ÙĨØ§ÙĬØ§Øª":10791,"Ø¨ØªÙĩ":10792,"ĠØ§ÙĦØ¬Ø§ÙħØ¹":10793,"ĠØ¨Ø§ÙĦØŃÙĤ":10794,"ÙĥÙĪÙĥ":10795,"ĠØ§ÙĦØ³ÙĪ":10796,"ÙĬÙģÙĪØ±":10797,"ĠÙĬØ®ÙĦ":10798,"Ø®Ø§Ø±":10799,"ĠØ±Ø¦":10800,"ÙĪÙĩÙĨØ§Ùĥ":10801,"ĠØŃØ¯ÙĬØ¯":10802,"ĠÙĪØ·Ø§ÙĦØ¨":10803,"ĠØ§ÙĦÙħØ³Ø§ÙĩÙħØ©":10804,"Ø³Ø±ØŃ":10805,"ĠØ§ÙĦØªØ¹Ø¯ÙĬÙĦ":10806,"ĠÙĪØ§ÙĦÙħÙģ":10807,"ĠØ§ÙĦØ¬ÙĬØ¯Ø©":10808,"Ġ2002":10809,"ĠÙĥÙĬØ§ÙĨ":10810,"ĠØ§ÙĦÙĤØ±Ø¢":10811,"Ø¬Øª":10812,"Ø¯ÙħØ§ÙĨ":10813,"ÙĪØ§Ø·ÙĨ":10814,"ĠØ¨ÙĨØªÙĬØ¬Ø©":10815,"ect":10816,"ÙĦÙĬÙĬÙĨ":10817,"ĠØ§ÙĥØªÙĪØ¨Ø±":10818,"Ø¬ÙħÙĦ":10819,"ĠØºØ§Ø¯Ø±":10820,"Ø§ØºØ±Ø©":10821,"Ø¨ÙĬÙĥ":10822,"ĠØ³Ø±ÙĬØ©":10823,"ÙĤØ·Ø§Ø¨":10824,"ĠØ§ØµØŃØ§Ø¨":10825,"ÙĩØ±Ø§Øª":10826,"ĠØ²ÙĪØ§Ø±":10827,"ĠÙħÙĪÙĤØ¹Ùĥ":10828,"ĠØ·ØŃÙĨ":10829,"ĠÙħØŃØ§Ø¯Ø«Ø§Øª":10830,"ĠØ§ÙĦØ«Ùħ":10831,"ĠØ¥Ø³Ø±Ø§Ø¦ÙĬÙĦÙĬ":10832,"ĠØ§ÙĦØ¹Ø¶ÙĪÙĬØ©":10833,"ĠØ£Ø®Ø·Ø§Ø¡":10834,"ĠÙĦÙĦØŃØ²Ø¨":10835,"ÙĪØ¬ÙĬÙĨ":10836,"ØŃØ±Øµ":10837,"ÙħØ§Ø¡":10838,"ĠØ£ÙĪØ§Ø¦ÙĦ":10839,"ÙĪÙĦÙĪØ¬ÙĬ":10840,"Ùİ)":10841,"ĠØ§ÙĦØ¹ØµÙĪØ±":10842,"ĠØµØ¨":10843,"Ø±ÙĬØ§Ø¡":10844,"ĠØ§ÙĦØŃØ±Ø³":10845,"ĠØªØ´Ø¨Ùĩ":10846,"Ø±Ø¨Ø¹Ø©":10847,"ĠØªØ¹ØªÙĤØ¯":10848,"Ø§ÙħÙī":10849,"ĠØ³ÙĬØ§Ø³ÙĬØ§":10850,"ĠØ¨Ø±ØµÙĬØ¯":10851,"ĠØŃÙĤÙĩ":10852,"ĠØ¨ÙĤÙĦÙħ":10853,"ÙĩØ±ÙĬ":10854,"ĠØ¨ÙĤØ§Ø¡":10855,"ĠZ":10856,"ĠÙħØ³Ùħ":10857,"Ø¢Ø¢":10858,"ĠÙħØ·Ø¨Ø®":10859,"ĠØªÙĤØ±Ø±":10860,"ĠÙĬØŃÙĦ":10861,"Ø¨Ø¯Ø§":10862,"ĠØªØ³Ø§ÙĩÙħ":10863,"ÙĪØ¯ÙĩØ§":10864,"ĠØ§ØªØµÙĦ":10865,"ĠØ§ÙĦÙĤØ§Ø±Ø©":10866,"ĠØ§ÙĦØ¬ÙħÙĦØ©":10867,"ĠÙħØ¸Ø§ÙĩØ±":10868,"Ø±ØŃØ¨":10869,"ĠØ§ÙĦÙģØ±Ø¯ÙĬØ©":10870,"ĠØ¥Ø³ÙĦØ§ÙħÙĬØ©":10871,"Ø¹ÙĦÙĩ":10872,"ÙħÙĩØ§":10873,"ĠÙħÙĨØ²ÙĦÙĥ":10874,"ĠÙĬÙģØ³":10875,"ĠØ®Ø·ÙĬØ±":10876,"ĠÙĬØ³Ø§ÙĩÙħ":10877,"ĠØ§ÙĦØ£Ø¨Ø·Ø§ÙĦ":10878,"ĠÙĪÙħÙĥØ§ÙĨ":10879,"ĠÙĬØªØ³Ø¨Ø¨":10880,"ĠØ§ÙĦØŃÙĬØ©":10881,"ÙĦÙĬÙģØ²ÙĬ":10882,"ĠÙĦÙĦØ´Ø®Øµ":10883,"ĠÙħØ¤ÙĥØ¯":10884,"ĠØ§ÙĦØªØ®ØµØµØ§Øª":10885,"ĠØ§ÙĦØŃÙĪØ§Ø¯Ø«":10886,"ĠØŃÙĪØ¶":10887,"ĠØ§ÙĦØ¬Ø§ÙĨØ¨ÙĬÙĨ":10888,"ĠÙĬØŃØ¶Ø±":10889,"Ø§Ø¨Ø¹Øª":10890,"ĠÙĤÙĦØ¨Ùĥ":10891,"ĠÙħØ¬ÙĩÙĪØ¯":10892,"ĠØªØ±ÙģØ¹":10893,"Ġ47":10894,"ÙĪØ³ÙĬÙĤÙī":10895,"ÙĪÙħØ§ÙĨØ³ÙĬØ©":10896,"ĠÙĨØ§Øª":10897,"ÙĩÙħØ§ÙĦ":10898,"ĠØ¨Ø¯Ùħ":10899,"ĠØ§ÙĦØ¨ÙĬÙĪØª":10900,"ĠØ§ÙĦÙħØªÙħÙĬØ²":10901,"ĠØ¨Ø·Ø±ÙĬÙĤ":10902,"ÙħØ§ÙĨØ©":10903,"ÙĬØ³ÙĬØ§":10904,"ĠÙĦÙĦÙħØ¬ØªÙħØ¹":10905,"ĠÂ":10906,"ØªØºØ§ÙĦ":10907,"ĠÙĬÙĪØ¶ØŃ":10908,"ĠÙĨØ´Ø±ÙĩØ§":10909,"ĠØ¯Ùģ":10910,"ĠØ£Ø³ÙĪØ£":10911,"ĠØªÙĪÙĤØ¹Ø§Øª":10912,"ĠÙĤØ§ÙĨÙĪÙĨÙĬ":10913,"ĠØ§ÙĦÙģÙĬ":10914,"ĠØ§ÙĦÙĤØ§Ø³Ùħ":10915,"ĠØ§ÙĦÙħØŃØ¯Ø¯Ø©":10916,".âĢĿ":10917,"ĠØ¨Ø§ÙĦÙħÙħÙĦÙĥØ©":10918,"ĠØ§ÙĦØ¢Ø¨Ø§Ø¡":10919,"ĠØªØªØ®Ø°":10920,"ÙĨÙĬÙĥ":10921,"ĠÙĬÙĦØªÙĤÙĬ":10922,"Ġ64":10923,"ĠÙĦÙħØ¬ÙħÙĪØ¹Ø©":10924,"ĠØ£ÙħÙĬ":10925,"ĠÙĬØ³ÙĩÙĦ":10926,"ĠØªØ®ÙģÙĬÙģ":10927,"ĠÙĪØ§ÙĦÙī":10928,"ĠØ§ÙĦØ¨Ø¹Ø¯":10929,"ĠØ§ÙĦØ¨Ø±Ø§Ø²ÙĬÙĦÙĬ":10930,"Ø¶Ø¹Ø§Ùģ":10931,"ĠÙĤØ±Ø£Øª":10932,"ĠØ§ÙĦØ´Ø¨ÙĥØ§Øª":10933,"ĠØ±Ø§ÙĬ":10934,"up":10935,"ÙĪÙģØ§Ø©":10936,"ĠÙĪÙģØ¹":10937,"ĠØ§ÙĦÙħØŃÙħÙĪÙĦØ©":10938,"ĠÙĪÙĦØ£ÙĨ":10939,"ĠØ§ÙĦØ¬ÙħØ§Ø¹ÙĬØ©":10940,"ĠØ§ÙĦØ¶ØºÙĪØ·":10941,"ĠØªØ§ÙĬÙħØ²":10942,"ĠØ§ÙĦÙħØ§Ø¯ÙĬ":10943,"ĠØ§Ø±Ø³Ø§ÙĦ":10944,"Ø³Ø±Ø·Ø§ÙĨ":10945,"ĠØ§ÙĦØµÙģØ§Øª":10946,"ĠØ§ÙĦØ¥Ø¬ØªÙħØ§Ø¹ÙĬ":10947,"ver":10948,"ĠØªØ¬Ø§Ø±ÙĬ":10949,"ÙĪØ±ÙĬØªØ§ÙĨÙĬØ§":10950,"ĠØ§ÙĦÙħØ·Ø¨":10951,"ÙĬÙĨÙĬØ§Øª":10952,"ĠØ§ÙĦØ¥Ø³Ùħ":10953,"Ø¨Ø¹ÙĪØ«":10954,"ĠØ£ÙĤØ³Ø§Ùħ":10955,"ĠØ§ÙĦØ¹ÙĤÙĦÙĬØ©":10956,"ĠØ§ÙĦÙħÙĦØ§ÙĬÙĬÙĨ":10957,"ÙĪØªÙĥ":10958,"ÙĨÙĬØª":10959,"ĠÙĪÙģÙĬÙĩ":10960,"ĠÙĦØ¥Ø³Ø±Ø§Ø¦ÙĬÙĦ":10961,"ĠØ§ÙĦØ¨Ø¯ÙĬÙĦ":10962,"ÙĬÙĬØ¯":10963,"ĠØ§ÙĦØ±ÙĬØ§ØŃ":10964,"ĠØ§ÙĦÙģØ±ÙĤØ©":10965,"ĠÙĥÙĨÙĬØ³Ø©":10966,"ĠØ¨Ø§Ø¯":10967,"ĠØ³ÙĥÙĨÙĬØ©":10968,"ĠÙģÙĬØ±ÙĪØ³":10969,"ĠØªØ£ÙĥØ¯":10970,"ĠØ§ÙĦØ£Ø²ÙħØ§Øª":10971,"ÙĪØ®Ø©":10972,"ĠØ¥ØŃØµ":10973,"ĠØ§ÙĦÙħØ³ØªÙĤØ¨ÙĦÙĬØ©":10974,"ĠØ§ÙĦØ§Ø®ÙĬØ±":10975,"ĠØ¨ÙĪØµÙģ":10976,"ĠÙĨØ¹ÙħØ©":10977,"ĠØ§ÙĦØ¹ÙĤÙĬØ¯Ø©":10978,"Ø¨ÙĨÙī":10979,"ĠØªØªØµ":10980,"Ø§ØŃØ¯":10981,"ĠØ¨Ø§ÙĦØ¶Ø±ÙĪØ±Ø©":10982,"ĠØ¹ÙħÙĦØ§":10983,"ĠØ±Ø¯Ø§":10984,"ĠØ§ÙĦØªÙĪØŃÙĬØ¯":10985,"ĠØ§ÙĦØ£ÙĩÙħ":10986,"ĠÙħÙĪØ²":10987,"ĠØ§ÙĦØ§Ø¨ØªØ¯Ø§Ø¦ÙĬ":10988,"ĠØ§ÙĦÙĨÙģØ·ÙĬØ©":10989,"ĠÙħØ´ÙĥÙĦØ§Øª":10990,"ĠÙĬØ·Ø±ØŃ":10991,"ĠØ§ÙĦÙħØ´ÙĬ":10992,"Ø·ÙĦØŃØ§Øª":10993,"ĠÙħØ±ØªØ¨Ø·":10994,"ff":10995,"ĠØ¨ÙĪØ¶ÙĪØŃ":10996,"ĠØ³ÙħÙĬØ±":10997,"ĠÙħØ³Ø±":10998,"ïº´":10999,"Ø´ÙĬØ¯":11000,"ĠØ§ÙĦØ¥Ø·":11001,"ĠØªØªÙĪÙĤÙģ":11002,"ĠØŃÙģØ¸Ùĩ":11003,"ĠØ¨ÙħØ±ÙĥØ²":11004,"ĠÙĪØ®ÙĦ":11005,"ĠØ§ÙĦØ®ØµÙĪØµÙĬØ©":11006,"ĠØ°ÙĩØ§Ø¨":11007,"ĠÙĦØ§Ø¹Ø¨ÙĬ":11008,"ĠØ§ÙĦÙģØ±ÙĨ":11009,"ĠØ§ÙĦÙħØªØ´":11010,"ĠÙħÙĦØªÙĤÙī":11011,"ĠØ£Ø´Ø¹Ø±":11012,"ÙĪØ§ÙĤÙģ":11013,"ĠÙģØªØ±Ø§Øª":11014,"ĠWindows":11015,"),":11016,"ÙģÙĩÙĪÙħ":11017,"Ø³ÙĬØ®":11018,"Ø§ÙĦÙħØª":11019,"Ġ55":11020,"%.":11021,"ĠØ§ÙĦÙģØ¶ÙĦ":11022,"ĠØ¥ÙĥØ³":11023,"ĠØ³ÙħØ§Ø¹":11024,"ØµØ±Ø§Ø±":11025,"ĠØ§ÙĦØ¹ÙħØ§ÙĦØ©":11026,"ĠØ³Ø§ÙĨØª":11027,"ĠØ§ÙĦØ¨ÙĤ":11028,"ÙĪÙĦØ§ÙĨ":11029,"ĠØ¬ÙħØ§ÙĩÙĬØ±":11030,"ÙħÙĪØª":11031,"ÙĦØ§ÙħÙĬØ©":11032,"ĠÙĦØŃØ¶ÙĪØ±":11033,"ĠØ¥ÙĨØ´":11034,"ĠÙħØ´ÙĥÙĦ":11035,"ÙĨØ§Ø¯ÙĤ":11036,"ĠØ´ØºÙĦ":11037,"ĠÙĦØ£ÙĨÙĨØ§":11038,"ĠØ§ÙĦØ±Ø§ÙĩÙĨ":11039,"ĠÙħØ´ÙĩØ¯":11040,"Ø¨ÙħØ§":11041,"ĠØ§ÙĦÙħØ³ØªÙĪØ·":11042,"ĠÙģØ±Ø¬":11043,"ÙĬØ§ÙĩØ§":11044,"Ø¹Ø¯Ùī":11045,"ĠÙĬØ¯Ø¹Ùī":11046,"ĠØ§ÙĦØ§ÙħÙħ":11047,"ĠØ§ÙĦØµÙĬØ§Ùħ":11048,"ĠÙĩØ§Ø¦ÙĦØ©":11049,"ÙĬÙĪØ¬Ø¯":11050,"ĠÙĦØ²ÙĬØ§Ø±Ø©":11051,"ĠØ¨Ø§ÙĦÙģØ±":11052,"ĠÙĪØ§ÙĦØŃÙħØ¯":11053,"ĠÙħÙħÙĦÙĥØ©":11054,"ĠØ§ÙĦØ®ÙĦØ§ÙģØ§Øª":11055,"ĠØ§Ø¹Ø¯Ø§Ø¯":11056,"ĠÙħÙĨØ§Ùĩ":11057,"ÙģØ£":11058,"ÙĪÙĤØ§":11059,"ĠÙĦÙĦØŃÙĬØ§Ø©":11060,"ĠØ§ÙĦÙĦÙī":11061,"ĠÙĦÙĦØ§ÙĨØªØ®Ø§Ø¨Ø§Øª":11062,"ÙĨØ¬Ø±":11063,"ĠØ¨Ø¯Ø§Ø®ÙĦ":11064,"ĠØ§ØªÙħÙĨÙī":11065,"ĠØ´Ø±ÙĤÙĬ":11066,"ĠØ§ØªÙĩØ§Ùħ":11067,"ĠÙĪØ§Øº":11068,"Ø¬Ø±Ø§Ùħ":11069,"ĠØ§ÙĦÙĨØ³Ø®":11070,"ĠØ§ÙĤÙĪÙĦ":11071,"ĠØŃÙĤÙĤØª":11072,"ØªÙĨØ§Ø¹":11073,"ĠÙĪÙĦÙħØ§Ø°Ø§":11074,"ĠÙĪØ¬ÙĩØ§Øª":11075,"ĠØ£ÙĩÙĦÙĩ":11076,"ĠÙĨØ³Ø¨ÙĬØ§":11077,"ĠArabic":11078,"ĠØªØ¶Ø±":11079,"Ø¬Ø²Ø©":11080,"ĠØ§ÙĦØ£Ø¨Ø¹Ø§Ø¯":11081,"ĠÙħØŃØ§ÙĥÙħØ©":11082,"ĠØ§ÙĨÙĩÙĬØ§Ø±":11083,"ÙĪØ§Ø¬Ø¨":11084,"ĠØµÙĪØ§Ø±ÙĬØ®":11085,"ĠØ³ÙĪØ¨Ø±":11086,"ĠØ§ÙĦØ¨Ø±ÙĬ":11087,"ÙĢÙĢØ§":11088,"ĠØ±Ø§Ø¯":11089,"ĠØ¥Ø³ÙĤØ§Ø·":11090,"ĠØ§ÙĦØºØ¯":11091,"ĠØ§ÙĩØªÙħ":11092,"ĠÙħÙĪØ«":11093,"Ø§ÙħØ¹":11094,"Ġr":11095,"Ø§Ø¤ÙĦØ§Øª":11096,"ĠÙĨØµÙĪØµ":11097,"ĠÙĦÙħØ³Ø§Ø¹Ø¯Ø©":11098,"ĠØ£Ø±ÙĥØ§ÙĨ":11099,"ĠØ£ØŃÙħØ±":11100,"Ø³ÙĪØ±Ø©":11101,"ĠØªÙħÙĬ":11102,"Ø³Ø§ÙĩÙħØ©":11103,"ĠØŃØ§Ø±Ø³":11104,"ĠÙĥØ³Ø¨":11105,"ĠØ§ÙĦÙħÙĨØªØ¯ÙĬØ§Øª":11106,"ĠØ¸ÙĨ":11107,"ĠØ§ÙĦÙģÙĦØ³ÙģØ©":11108,"ĠØ¹ÙĬÙĨÙĬ":11109,"Ø§Ø´Ùī":11110,"ĠØ§ØŃØªÙħ":11111,"ĠÙħØ´Ø±ÙĪØ¹Ø§Øª":11112,"ĠØ§ÙĦØªØ¬Ø§Ø±":11113,"ĠÙĦØ¨Ø±ÙĨØ§ÙħØ¬":11114,"ĠÙĬØµØŃ":11115,"ĠØ¨ÙĪØ³Øª":11116,"ĠÙħØªÙħÙĬØ²Ø©":11117,"ĠÙĪØ§ÙĦØ¯ÙĪÙĦÙĬØ©":11118,"Ø¨Ø¯Ø§ÙĬØ©":11119,"ĠØ§ÙĦÙĨÙĩØ±":11120,"ĠØ§ÙħØ±ÙĬÙĥØ§":11121,"ĠØ§ÙĦØ±ØŃÙĦØ§Øª":11122,"age":11123,"ĠØ§ÙĦØ§ÙħØªØŃØ§ÙĨØ§Øª":11124,"ĠØ§ÙĦÙģØŃÙħ":11125,"ĠØµÙĦÙĬ":11126,"ï»ĺ":11127,"Ø«ÙĬØ±Ø§":11128,"ĠØ§ÙĦÙħÙģØªØ±Ø¶":11129,"ĠØ§ÙĦØ¥Ø³Ø±":11130,"ĠØ§ÙĦÙĩØ±Ùħ":11131,"Ø´ÙĪ":11132,"ĠØµÙĬØ¯":11133,"ĠØ§ÙĦÙħØ¹Ø§Ø±Ùĥ":11134,"ĠÙģØ¹ÙĦØª":11135,"ĠØ¹Ø¨ÙĬØ¯":11136,"ĠØ®Ø§ØµÙĬØ©":11137,"ĠÙĦÙĪÙĥ":11138,"ĠØ§ÙĦÙģØ±Ø§Øº":11139,"ĠØ§ÙĦÙħØºØ§Ø±Ø¨Ø©":11140,"ĠÙĬØ¯ÙĬÙĩ":11141,"ĠÙĦÙĦØ¥ÙĨØ³Ø§ÙĨ":11142,"ĠØ§ØªØµØ§ÙĦØ§Øª":11143,"ĠØ¨Ø¬Ø§Ø¦Ø²Ø©":11144,"ĠÙĪØ´Ø¹Ø¨":11145,"ÙĪØ£ÙĨ":11146,"Ø³ÙĪÙĤ":11147,"ØºØª":11148,"ĠØ§ÙĦØ¥Ø¹ÙĦØ§ÙĨØ§Øª":11149,"ĠØ´ØªÙī":11150,"ĠØªØ³ÙĦÙħ":11151,"ĠÙħØ¯ÙĨÙĬ":11152,"Ø³ÙĬÙĪÙĬØ©":11153,"ĠØ§ÙĦØŃØ²ÙĨ":11154,"ĠØ¬ÙħØ¹Ø©":11155,"ĠØ§ÙĦÙĤØ°Ø§ÙģÙĬ":11156,"ĠØ§ÙĦØ£ØŃØ§Ø¯ÙĬØ«":11157,"ĠÙħÙĪØ§ÙĦÙĬØ¯":11158,"ĠÙĪÙĨØ¸":11159,"Ø§ÙĦÙħØ§Ø¯Ø©":11160,"ĠØ§ÙĦÙĥØ«ÙĬØ±ÙĬÙĨ":11161,"ÙĬØªÙĨØ§":11162,"ĠØ§ÙĦØ±ÙĤÙħÙĬ":11163,"ĠÙĪØ§ÙĦØ±ÙĬØ§Ø¶Ø©":11164,"ĠØ§ÙĦÙħÙģØ§ÙĩÙĬÙħ":11165,"ĠÙħÙĩØ¯":11166,"ØŃØ³Ø§ÙĨ":11167,"ĠØªØ¯Ø±ÙĬØ¬":11168,"ĠÙħØ±ÙĬØŃØ©":11169,"ĠØ¨Ø§ÙĦØ´ÙĥÙĦ":11170,"ĠÙģÙĨØ§ÙĨ":11171,"eg":11172,"Ø§Ø´ØªØ±Ø§Ùĥ":11173,"ĠØ¥ØŃØ¯Ø§Ø«":11174,"ĠÙĨØŃØªØ§Ø¬":11175,"Ø®Ø§ØµØ©":11176,"Ġ2001":11177,"ĠÙĥÙĪØ¯":11178,"ĠØ§ÙĦÙĨÙģØ§ÙĬØ§Øª":11179,"ÙĬÙĨÙĬØ§":11180,"ĠØªÙĪØµÙĬÙĦ":11181,"ĠØ§ÙĨÙĤØ±":11182,"ĠØªÙĪØ¨":11183,"ĠØ§ÙĦÙĪØ¶":11184,"ĠÙĪØ´ÙħØ§ÙĦ":11185,"ĠØªØ²ÙĪØ¬":11186,"ĠØ§ÙĦØ¹ÙģÙĪ":11187,"ĠÙĬØ®Ø¯Ùħ":11188,"ĠÙĪØ¶Ø¹Ùĩ":11189,"ĠØ§ÙĦÙħÙĦØ§Ø¦ÙĥØ©":11190,"ÙĢÙĥ":11191,"ĠØªØ®ØªØ§Ø±":11192,"ĠØ§ÙĦØ§ÙħØªØŃØ§ÙĨ":11193,"ĠØ§ÙĦØªÙĤÙĬÙĬÙħ":11194,"ĠØ§ÙĦØ¨Ø±ÙĪØªÙĬÙĨ":11195,"Ø§ÙĪÙĬÙĨ":11196,"ĠØ£Ø³ÙĪØ¯":11197,"ĠØ¨Ø±Ø¹Ø§ÙĬØ©":11198,"ĠØ£Ø®Ø±Ø¬":11199,"ĠØ§Ø³ØªÙĥÙħØ§ÙĦ":11200,"ĠØ¨ÙĪØ¬Ùĩ":11201,"ĠØŃØ§ÙĥÙħ":11202,"ĠÙĥÙħØ¨ÙĬÙĪØªØ±":11203,"ĠØ¹Ø§Ø¯ÙĬØ©":11204,"95":11205,"ĠØ£Ø¨Ø±":11206,"ĠØ¨Ø±ÙģØ¹":11207,"ĠØ£ØµØºØ±":11208,"ĠØ¨Ø¨Ø·":11209,"ĠØ§ÙĨØ³Ø§ÙĨ":11210,"ĠØ§ÙĦÙħØ³Ø§ÙĪØ§Ø©":11211,"Ġ>>":11212,"ĠÙĪØ§ÙĦÙĬÙĪÙħ":11213,"ĠÙĦÙĬØ±":11214,"ĠÙĥØ´":11215,"ĠÙĨÙĪØ§Ø¨":11216,"ÙģÙĦÙĪÙĨ":11217,"ĠØºØ±Ø§Ø±":11218,"ĠØ¹Ø§ÙħØ±":11219,"ĠØ§ÙĦØµØºØ±":11220,"ÙħØ¬ÙĦØ³":11221,"ÙĤÙĪÙĨ":11222,"ĠØ§ÙĦØªÙħÙĬØ²":11223,"ĠÙĬØ³Ø±":11224,"ĠØ§ÙĦÙħØ¬ÙħØ¹":11225,"ĠØ§ÙĨÙĤØ·Ø§Ø¹":11226,"Ø¶ØŃÙī":11227,"og":11228,"ØªØ§Ø±ÙĬØ®":11229,"ĠØ¬Ø§Ùĥ":11230,"ØºØ±Ø§ÙģÙĬØ©":11231,"Ø¯ÙĬÙĩØ§":11232,"ĠÙħØ®Ø·":11233,"ĠØ§ÙĦØ£Ø³ÙħØ§Ùĥ":11234,"ĠØ¥ØµØ§Ø¨":11235,"ĠÙĬÙĨÙģØ¹":11236,"ĠÙĥÙĦÙħØªÙĩ":11237,"ĠØ¹Ø§Ø¬ÙĦ":11238,"Ø¬Ø¯Ø§Øª":11239,"ĠØ±ÙĪÙħ":11240,"ĠØ§ÙĦØ³Ø¹ÙĬØ¯":11241,"ĠØ¥ÙĬÙĩ":11242,"ĠØ§ÙĦÙĦØŃÙĪÙħ":11243,"ÙħØªÙĩØ§":11244,"ĠØ±ÙĥÙĨ":11245,"ĠØ§ÙĦØ³ÙĬØ§ØŃ":11246,"Ø²ÙĪÙĦ":11247,"ÙĤØ§ÙĦØ§Øª":11248,"ĠØ¹ÙħÙĤ":11249,"ĠØ§ÙĦÙħÙĪØ§Ø²ÙĨØ©":11250,"ĠØ§ÙĦØ¹ÙĤØ§Ø±Ø§Øª":11251,"ĠØ§ÙĦØªÙģØ§Ø¹ÙĦ":11252,"Ø¢Ø®Ø±ÙĬÙĨ":11253,"ĠØ§ÙħØªØŃØ§ÙĨØ§Øª":11254,"ire":11255,"ĠÙĨÙĩØ§":11256,"ĠØ¨ØŃÙĤÙĪÙĤ":11257,"ĠØ§ÙĦÙħØ³ØªÙħØ±Ø©":11258,"Ø§Ø¸Ùħ":11259,"ĠÙħØ³ØªØ®Ø¯ÙħÙĬ":11260,"ĠØ§ÙĦØ§ÙĨØªØ¨Ø§Ùĩ":11261,"ĠØµÙģØ§Øª":11262,"Ø§Ø«Ø±":11263,"ÙĬÙĨØº":11264,"ĠØŃØ¯Ø«ÙĨØ§":11265,"ĠØ§ÙĦÙħÙĨØŃ":11266,"ĠØ§ÙĦÙĨØ¯ÙĪØ©":11267,"ĠØªØµØŃÙĬØŃ":11268,"ĠØ§ÙĦÙģÙĬØ±ÙĪØ³Ø§Øª":11269,"Ø¹Ø·":11270,"Ø®ØµØ§Ø¦ÙĬ":11271,"ĠØ¹ÙĤØ¯Ùĩ":11272,"ÙĤØ±Ø¨":11273,"ĠÙĪØ§ÙĦØ§Ø³ØªÙĤØ±Ø§Ø±":11274,"ĠØ§ÙĦÙħØªÙģ":11275,"ĠØªÙĨÙģÙĬØ°ÙĩØ§":11276,"ĠØ§Ø®ØªØ±Ø§ÙĤ":11277,"Ø·Ø¨Ø§Ø¹Ø©":11278,"ĠØªÙĪÙħ":11279,"ĠØ§ÙĦØ£ÙģØ±ÙĬÙĤÙĬØ©":11280,"Ø¹Ø¬":11281,"ĠØ§ÙĦÙħØ«ÙĤ":11282,"ĠØ§ÙĦÙĥØ±Ø¯ÙĬØ©":11283,"ĠÙĬÙħÙĬØ²":11284,"ĠØªØ£Ø³":11285,"ĠÙĪØ§ÙĦØ£Ø±Ø¶":11286,"ĠØ£ØµØ§Ø¨":11287,"ĠØ§ÙĦÙħØŃØ§ÙħÙĬ":11288,"ĠØ§ÙĦØµØºØ§Ø±":11289,"ĠØ¨ØªÙĪÙģÙĬØ±":11290,"Ø³ÙħØŃ":11291,"Ø¨Ø¯ÙĦ":11292,"size":11293,"ĠØ§ÙĦØ£ÙĪÙĦÙħ":11294,"ĠØ¹ÙĨØ§":11295,"Ø§ÙĦØ¹ÙħÙĦ":11296,"ĠØ§ÙĦØ£ÙħØ«ÙĦ":11297,"ØªÙĤÙĬ":11298,"ĠØ£Ø¸ÙĩØ±Øª":11299,"ĠØ§ÙĦØ¬ÙĨÙĬÙĨ":11300,"Ġ65":11301,"ÙĨØªÙĪØ³":11302,"ĠØ§ÙĦÙĨØ³Ø¨Ø©":11303,"ĠÙĪÙĦÙĩØ§":11304,"ĠÙĦÙĦØ§Ø®":11305,"ĠØ§ÙĦÙħÙĪØ§ØµÙģØ§Øª":11306,"ĠØ§ÙĦØ¹Ø´Ø±Ø§Øª":11307,"ĠØ§ÙĦØŃØ¬Ø²":11308,"ĠÙĦØªØŃØ±ÙĬØ±":11309,"ĠØ³Ø±ÙĤØ©":11310,"ĠØ¥ÙĨÙĤØ§Ø°":11311,"ĠÙĬÙĩØ¯Ø¯":11312,"ĠØ§ÙĦØ´ÙĬÙĪØ®":11313,"ÙħØ±Ùĩ":11314,"ĠÙħØ¹Ø§ÙĨÙĬ":11315,"ĠØ§Ø¬ØªÙħØ§Ø¹Ø§Øª":11316,"ĠØ¬ÙĪÙĬØ©":11317,"ĠØ£Ø¨Ø¹Ø¯":11318,"ĠØ¬ÙħÙĬØ¹ÙĩØ§":11319,"ĠØ³ÙĪ":11320,"ĠØ§ÙĦØºØ²":11321,"ĠÙĬØ¹ÙĬØ¯":11322,"ĠÙĦÙĦØ´Ø±ÙĥØ§Øª":11323,"ĠØªØ¹ÙĪÙĬØ¶":11324,"ĠÙĪØ§ÙģÙĤ":11325,"ĠÙĪØ±ÙĪØ³ÙĬØ§":11326,"ĠÙħØ±ÙĬØ¶":11327,"ĠØ¨Ø¥Ø·ÙĦØ§ÙĤ":11328,"ĠØ§ÙĦØ§ÙĦØ¹Ø§Ø¨":11329,"ÙĪØ§ÙĨØ§":11330,"ĠØ§ÙĦÙĩØ§Ùħ":11331,"ĠØ§ÙĦØ£ÙĨÙĪØ§Ø¹":11332,"ĠØ§ÙĦØ¹ÙĬ":11333,"Ø¹Ø²":11334,"ĠØ§ÙĦÙħØ²Ø§Ø±Ø¹":11335,"ĠÙĦØ·ÙĬÙģØ©":11336,"ĠØ§ÙħØªØŃØ§ÙĨ":11337,"ĠØ§ÙĦØ±ØŃÙħØ©":11338,"ĠØ´Øº":11339,"ĠØ§ÙĦØ§ÙħÙĨÙĬØ©":11340,"ĠØ¨ÙħØ¬ÙĦØ³":11341,"ĠØ§ÙĦØªØ¹ÙĦÙĬÙħÙĬ":11342,"ĠÙĨØ¬ØŃØª":11343,"ĠØ§ÙĦÙħÙĦØªÙĤÙī":11344,"ĠØ¬ÙĬÙħ":11345,"ĠØ§ÙĦØ¨ÙĪØ§Ø¨Ø©":11346,"ĠÙĬÙĤÙĬÙħ":11347,"ĠØ§ÙĦØªÙĥÙĪÙĬÙĨ":11348,"Ø¦ÙĬØ§":11349,"ĠïºĹ":11350,"Ø¨ÙĬØŃ":11351,"ĠØ§ÙĦÙħØ¤Ø±Ø®":11352,"ĠÙħØ¨ÙĬÙĨØ§":11353,"ĠØ§ÙĦÙħØªÙĨÙĪØ¹Ø©":11354,"ĠÙħØ¤Ø´Ø±Ø§Øª":11355,"Ø´Ø±ÙĪØ·":11356,"ĠÙĦÙĬØªÙħ":11357,"ĠÙĬÙĤØµØ¯":11358,"own":11359,"ĠØ£ÙĦÙģØ§":11360,"Ø¹ÙĦØ§ÙĤØ©":11361,"ĠÙĪØ¬ÙĩÙĩØ§":11362,"Ø´Ø§ÙĨ":11363,"ĠÙĩØ¯ÙĬØ©":11364,"Ø§ÙĤØªØµØ§Ø¯":11365,"ĠØ£Ø³Ø¨ÙĪØ¹ÙĬÙĨ":11366,"ĠÙħØ±Ø§Ø³":11367,"Ø¬Ø¯Ø¯Ø©":11368,"ĠØ¬Ø¯ÙĪÙī":11369,"ĠØ§ÙĦØ¯ÙĪØ±Ø§Øª":11370,"ĠØŃØ§Ø¯Ø«Ø©":11371,"ĠÙħØ±ØªØ¨Ø·Ø©":11372,"ĠØ§ÙĦÙħØ§ÙĦÙĥ":11373,"ĠÙĦØ¬Ø§ÙĨ":11374,"ÙĪØ²ÙĨ":11375,"ĠØ§ÙĦÙħÙĨØ´Ø¢Øª":11376,"ĠØ§ÙĦÙģÙĥØ±ÙĬ":11377,"ĠØªÙģÙĥØ±":11378,"ĠØ¨Ø§ÙĦØ«":11379,"ĠÙĩØ§Øª":11380,"ĠØ§ÙĦÙħØ¯Ø±Ø³ÙĬ":11381,"ĠØ±ÙĪØ§Ø¨Ø·":11382,"ĠØªÙħØªØ¯":11383,"ĠØ§ÙĦÙħØªØ¯":11384,"ĠØ§ÙĦØŃØ§Ø±":11385,"ĠØ§ÙĦØŃØ¨ÙĪØ¨":11386,"Ļ¥":11387,"Ø®ØµÙĬØµ":11388,"ĠØªØ¹ÙĦ":11389,"ĠØ§ÙĦÙħÙĤØ§Øª":11390,"Ø¨Ø¯Ø£Øª":11391,"ĠØ§ÙĦØªØ¨Ø±":11392,"ĠØ§ÙĦØ³ÙħÙĥ":11393,"ÙĨØ§ØµØ±":11394,"ĠØ§ÙĦÙħØªÙĪØ³Ø·Ø©":11395,"ĠØ§ÙĦÙģØ±Ø¹":11396,"ĠØ§ÙĦØ´ÙĪØ±Ùī":11397,"ik":11398,"ĠØ¨Ø¯Ø¡Ø§":11399,"ĠØ§ÙĦØ£ÙĨØ³":11400,"ØºØ°ÙĬØ©":11401,"ÙĪØ´Ø¯Ø¯":11402,"ĠÙĦÙħØªØ§Ø¨Ø¹Ø©":11403,"Ø±Ø¶Ùī":11404,"ÙĨØ´Ø±":11405,"ĠÙħØ¹ÙĨ":11406,"ĠØ¢ÙĦØ§Ùħ":11407,"ÙĪÙĬÙħÙĥÙĨ":11408,"ĠØ¯ÙĤØ©":11409,"ĠØ¥ÙĬÙħ":11410,"Ø´Ø§Ø±ÙĬ":11411,"ĠÙĬÙĨØ¸Ùħ":11412,"ĠÙĦÙĦØ·ÙĬØ±Ø§ÙĨ":11413,"ĠÙĪØ§ÙĦØµÙĦØ§Ø©":11414,"ĠØªØ±ÙģØ¶":11415,"ĠÙĪØªÙĤÙĪÙħ":11416,"ÙĦØ¨Ø³":11417,"ĠØ§ÙĥØ¯":11418,"ÙģÙĪØ§":11419,"ĠØ±ÙģØ¶Øª":11420,"ĠÙģØ¦Ø§Øª":11421,"Ø§Ø¯ÙĬØ±":11422,"Ø±Ø§Ø¦ÙĬÙĦÙĬØ©":11423,"ber":11424,"ÙħØ±ØŃØ¨Ø§":11425,"ĠØ¨Ø§ÙĦØ¶Ø¨Ø·":11426,"ĠØ¬ÙĨØ§ØŃ":11427,"ÙĢØ¢":11428,"ĠØªØ«":11429,"ĠØ§ÙĦØŃØ§Ø¯ÙĬ":11430,"ĠØ¹ÙħØ§Ø¯":11431,"ĠØªØ±Ø¨Ø·":11432,"ĠØ£ÙĩÙĦÙĩØ§":11433,"ĠØ£Ø®Ø°Øª":11434,"ĠÙĦÙĦØ§Ùħ":11435,"ĠÙĦÙĪÙĤÙģ":11436,"ĠØ§ÙĦØ±ÙĪØ§ÙĬØ§Øª":11437,"ĠØ§ÙĦØªÙĪÙĤÙģ":11438,"ØŃØ·":11439,"ĠÙĪØ¯Ùħ":11440,"ĠØ§ÙĦØ¹Ø¨Ø§Ø¯ÙĬ":11441,"ĠØªÙģØ±":11442,"ÙĨØ¨ÙĪÙĦ":11443,"ĠØ£Ø¹ÙħØ§ÙĦÙĩ":11444,"ĠØ¨ÙħØ¹Ø¯ÙĦ":11445,"ĠØ§ÙĦÙħØ°":11446,"ÙĢÙĢÙĦ":11447,"ĠÙĤÙĪÙħÙĬ":11448,"ĠØ§ÙĦÙħØ±ÙĥØ¨Ø§Øª":11449,"ĠØ¥ÙĦÙĬÙĨØ§":11450,"ĠØ§ÙĦÙĪÙĥÙĬÙĦ":11451,"ĠØ¥Ø²Ø§Ø¡":11452,"ĠØ§ÙĦØ¹Ø¸ÙħÙī":11453,"ĠØ§ÙĦØ¨Ø±ØªØºØ§ÙĦÙĬ":11454,"ĠØ§ÙĦÙħØ·Ø§Ùģ":11455,"ĠÙĬØ³ÙħØ¹":11456,"ĠØ§ÙĦÙĥØ§Ø±":11457,"ĠØ§ÙĦØ£Ø¬ÙĨØ¨ÙĬ":11458,"ĠØ¯Ø¹ÙĪÙī":11459,"ĠÙĦØŃØ¸Ø§Øª":11460,"âĢĶ":11461,"ĠÙģØ¬Ø£Ø©":11462,"ĠÙĦØ¥Ø·ÙĦØ§ÙĤ":11463,"ÙĪØ§Ø©":11464,"ĠØ¨Ø§ÙĦØªÙĨ":11465,"Ø§ÙĪØ§Øª":11466,"ĠÙĬÙĨØ³":11467,"Ø§ÙħØ±Ø§Øª":11468,"ĠØ¨Ø¯Ø±Ø¬Ø©":11469,"ĠÙħÙĨØ®ÙģØ¶Ø©":11470,"ĠØ³ÙĦØ¨ÙĬØ©":11471,"ÙĪØ§ÙģØ±":11472,"ĠØ§ÙĦÙĪØ§Ø³Ø¹Ø©":11473,"ÙĤØ§ÙĬØ§":11474,"ÙĪÙĨØ¯ÙĬØ§ÙĦ":11475,"ĠØ§ÙĦØ¥ØµØ¯Ø§Ø±":11476,"ĠØ§ÙħØªÙĦØ§Ùĥ":11477,"Ġï»Ł":11478,"ĠÙħØŃØ·Ùħ":11479,"ĠØ§ÙĦØ¥ØªØŃØ§Ø¯":11480,"ĠØ¯Ø³Øª":11481,"ĠÙħØªØŃÙģ":11482,"ĠØ§ÙĨØªØ®Ø§Ø¨":11483,"ĠØ§ÙĦÙħØ·Ø§ÙĦØ¨":11484,"ĠÙĪØ§ÙĦØŃÙģØ§Ø¸":11485,"Ø§ÙĬØ±ÙĨ":11486,"ĠØ§ÙĦÙĨØ§ÙĤ":11487,"ĠØ§ÙĦØ³Ø¯":11488,"ÙĤØ·Ø¹Ø©":11489,"ĠØ§ÙĦØ£Ø®Ø±":11490,"ĠØ¨Ø¯ÙĬÙĦ":11491,"ĠØ§Ø±ØªÙģØ¹":11492,"ĠØ®Ø¨ÙĬØ±":11493,"Ġ_--":11494,"ĠØ³ØªØª":11495,"Ø³Ø§ØªÙĬÙĨ":11496,"ĠØ§ÙĦÙħØ¶Ø§Ø¯Ø©":11497,"ĠØŃØ³Ø§Ùħ":11498,"Ø¹Ø·Ø§Ø¡":11499,"ĠØ³ÙĦÙģ":11500,"ĠØ²ÙĦ":11501,"ÙĨØªÙĬÙĨÙĬ":11502,"ĠØ¶ÙĬÙĤ":11503,"ĠÙĦÙĦÙĥØªØ§Ø¨":11504,"ĠÙĦÙħØ¯ÙĬÙĨØ©":11505,"ĠÙĪØŃØ±":11506,"ĠSp":11507,"ĠØ¹ÙĤÙĪØ¨Ø©":11508,"ĠÙħØ¹ÙĦÙħ":11509,"ĠØªÙħÙĥÙĬÙĨ":11510,"our":11511,"Ø¨Ø±Ùĩ":11512,"ĠØ§ÙĦÙĨØ·Ø§ÙĤ":11513,"Ø¨Ø±Ø§ÙĩÙĬÙħ":11514,"ĠØ§ÙĦØŃÙĬÙĪØ§ÙĨ":11515,"ÙĤØ§Ø¹Ø¯":11516,"ÙĨØ´":11517,"ĠÙĬÙĪÙĨØ³":11518,"ØªØ·Ø¨ÙĬÙĤ":11519,"Ø§Ø¹Ùī":11520,"ÙĦØ£":11521,"ĠØ¯Ø§Ø®ÙĦÙĬ":11522,"ÙĤØ·Ø©":11523,"ĠØ¨Ø¥Ø¹Ø§Ø¯Ø©":11524,"ĠØ§ÙĦØ§ÙĨØ³Ø§ÙĨÙĬØ©":11525,"ĠØ§ÙĦØ£ÙĪØ³":11526,"ĠØ§ÙĦØ¹ÙĦØ§ÙħØ§Øª":11527,"ĠØ²Ø§Ø¯Øª":11528,"ĠÙĬÙĤØ±":11529,"ĠØªØ¬ÙĨ":11530,"ÙĪØ±Ø§ÙĤ":11531,"78":11532,"ĠØ§ÙĦÙħØ¤Ø³":11533,"ĠØ§ÙĦØ¥ÙģØ±ÙĬÙĤÙĬØ©":11534,"ĠØ§Ø¹ØªØ¨Ø§Ø±Ø§":11535,"ĠØ§ÙĦÙģØŃØµ":11536,"ĠØ¯ÙĬÙĪØ§ÙĨ":11537,"ØªØŃØ§Ø±":11538,"ÙĪÙĨØ¬":11539,"ĠÙĪÙģØ§ØªÙĩ":11540,"ĠØ£Ø´Ø§Ø±Øª":11541,"ĠØ§ÙĦÙĨØ§Ø®":11542,"ĠØ¨Ø§ÙĦÙħØŃ":11543,"ĠØ§ÙĦÙħØŃØ±Ùĥ":11544,"ØºÙĦÙĤ":11545,"ĠØ§ÙĦØ³ØŃØ±":11546,"ĠØ§ÙĦØ³Ø±ÙĬ":11547,"ĠØ§ÙĦØ¬Ø±ØŃ":11548,"ĠÙĪÙĥÙĨ":11549,"ĠÙĬØªÙĤØ¯Ùħ":11550,"ĠØ§ÙĦÙĤØ§Ø¨":11551,"ĠÙĩÙĪÙĬ":11552,"ĠØ´Ø®ØµÙĬ":11553,"ĠÙħØªØª":11554,"ĠÙĪØ±Ø´":11555,"ĠØ§ÙĦÙħÙĥÙĪÙĨ":11556,"ĠØ§ÙĦØ¨Ø·Ø§Ø·":11557,"ĠØ§ÙĦØ·Ø§Ø¦ÙģÙĬØ©":11558,"ÙĪÙĨÙĤÙĦØª":11559,"ĠØ¨Ø¯ÙĪØ±ÙĩØ§":11560,"ĠÙĪØŃÙĦ":11561,"ĠØ§ÙĦÙħØªÙĥ":11562,"ĠØ³Ø§":11563,"ĠØ¹ÙĦØ§Ø¡":11564,"ĠÙĪÙĪØµÙģ":11565,"Ø§ÙĦØ£Ø³":11566,"ĠØ§ÙĦÙħÙĤØ§ÙĦØ§Øª":11567,"ĠØ§ÙĦØ¬Ø¨Ø§ÙĦ":11568,"ĠÙħØªØ§ØŃØ©":11569,"ĠØºØ°Ø§Ø¦ÙĬØ©":11570,"ÙĪÙģØ§Øª":11571,"Ø§ÙĦØ¯ÙĪÙĦØ©":11572,"ÙħÙĦØ§Ø¡":11573,"ØªØ¹Ø±Ø¶":11574,"ĠÙĬØªØ³":11575,"ĠØ§ÙĦÙħØ´Ø±Ùģ":11576,"ĠØ§ØŃÙĦÙī":11577,"ĠØ§ÙĦÙĬØ³Ø§Ø±":11578,"ĠØ´Ø§Ø±ÙĥØª":11579,"ĠØŃÙĤÙĦ":11580,"ĠØ¯ÙģØ¹Ø©":11581,"ĠÙĦØ¨Ø±":11582,"ĠØµØ¹ÙĪØ¯":11583,"ĠØ§ÙĦÙģÙĤØ±Ø§Ø¡":11584,"ĠØªÙĪØ¶ØŃ":11585,"ÙĬØ§Ùĥ":11586,"ĠÙĦÙħØ´Ø§ÙĩØ¯Ø©":11587,"ĠØ´ÙĩØ§Ø¯Ø§Øª":11588,"ĠÙĪÙħØ¹Ø±ÙģØ©":11589,"ĠØŃØ§ÙĦÙĬ":11590,"ĠØ°Ø±":11591,"ĠØ§ÙĦØªÙħÙĪ":11592,"ÙĪÙĤØ§ÙĬØ©":11593,"ĠØ¨Ø§ÙĦØªØµ":11594,"Ø§ÙĦØ³Ø¹ÙĪØ¯ÙĬØ©":11595,"ĠØ§ÙĦÙĪØ«ÙĬÙĤØ©":11596,"ĠØ§Ø³ØªÙĤØ¨ÙĦ":11597,"ÙĤØ·ÙĬØ¹":11598,"ĠØ§ÙĦØ¹ÙĦÙĪÙĬ":11599,"ØªØ±ØŃØ§Øª":11600,"ĠØ£Ø¸ÙĩØ±":11601,"ĠØ§ÙĦØŃÙħÙĬØ¯":11602,"ĠØ§ÙĦØ¹ÙĤØ§Ø±":11603,"ĠØ£ØªÙī":11604,"ĠØ§ÙĦØ³ÙĬØ¯Ø§Øª":11605,"Ø±ÙĬØ·Ø§ÙĨÙĬØ§":11606,"Ø¦Ø±":11607,"ĠÙĦÙĦØ·ÙģÙĦ":11608,"ĠÙĨÙĩØ¬":11609,"ĠØªØ¬ÙħÙĬØ¹":11610,"ĠØ§ÙĦØ·ÙģÙĪÙĦØ©":11611,"ØŃÙĤØ§ÙĤ":11612,"ĠØ³Ø§Ø±":11613,"ĠØµØ¯Ø±Øª":11614,"ĠØªØªÙĪÙĤØ¹":11615,"ĠØ£ÙħØ©":11616,"ĠÙĪØ§ÙĦØªÙĥÙĨÙĪÙĦÙĪØ¬ÙĬØ§":11617,"Ø¨ÙĤÙĬØ©":11618,"ĠØªØŃØ¯ÙĬØ¯Ø§":11619,"ĠØ§ÙĦØ³Ø§Ø¦ÙĦ":11620,"ĠÙĨØ§ÙģØ°Ø©":11621,"ĠØ§ØªÙĩÙħ":11622,"ĠØ§ÙĦØµÙģÙĤØ©":11623,"ĠÙĪØ§ÙĦÙħØ¹ÙĦÙĪÙħØ§Øª":11624,"Ø§ÙĦÙĪÙĨ":11625,"ĠØ´Ø±Ø¹":11626,"ÙģØ·Ø§Ø±":11627,"ĠØªØ³ÙĪÙĬØ©":11628,"ÙĨØ§Ø·":11629,"ĠÙĪØ¬ÙĪØ¯Ùĩ":11630,"ĠØ§ÙĦØ·Ø§Ø²":11631,"ox":11632,"ĠØ£ØµØ¯ÙĤØ§Ø¡":11633,"ĠÙĪÙħØªØ§Ø¨Ø¹Ø©":11634,"ĠÙĪØ§ÙĦÙĪÙĦØ§ÙĬØ§Øª":11635,"ĠØªÙĨØªØ¬":11636,"ÙĦÙĬØ·":11637,"ĠØªØ³Ø¹Ø©":11638,"ÙħØ±Ø§Øª":11639,"ÙĦÙĬÙģØ©":11640,"ĠÙĦØ£ÙĨÙĥ":11641,"ĠÙĦØ§Ø¬":11642,"ĠÙĪØ§ÙĦØµØŃØ©":11643,"ĠØ¨ÙĥÙĦÙħØ©":11644,"ĠØ¥Ø³Ø±Ø§Ø¦ÙĬÙĦÙĬØ©":11645,"ĠÙĪØ§ÙĦØªØ¯Ø±ÙĬØ¨":11646,"Ø¢Ø©":11647,"ÙģØ±ÙĬ":11648,"ĠÙĨØ¸Ø±ÙĬ":11649,"ÙħØ·":11650,"ĠØ§Ø¨ÙĬ":11651,"ell":11652,"Ø¤ÙĪÙĦÙĬØ©":11653,"ĠÙĦØ¥ÙĨØ´Ø§Ø¡":11654,"Ġ46":11655,"ĠÙĪØ£Ø¹Ø¶Ø§Ø¡":11656,"ĠØ§ÙĦØ²Ø§Ø¦Ø¯":11657,"ĠÙĦÙĦØ³ÙĨØ©":11658,"ĠØ§ÙĦØµÙģØŃØ§Øª":11659,"ĠÙĦÙĦØ§ÙĬØ¬Ø§Ø±":11660,"ĠØ§ÙĦÙħØŃØªÙħÙĦ":11661,"Ø§ÙĦÙħØ¯":11662,"ĠÙĬØ²ÙĪØ±":11663,"ĠÙĪÙĨØ¸Ø±":11664,"ØªØµÙģØŃ":11665,"ÙģÙĬÙĩØ§":11666,"ĠØªÙĦØ¨ÙĬØ©":11667,"ĠØ§ÙħÙĬØ±":11668,"ĠÙħØ¨Ø§ØŃØ«":11669,"ĠÙĪÙħØ¯ÙĬØ±":11670,"ĠÙĥÙĪÙĥØ¨":11671,"Ø²Ø§Ø²":11672,"ĠØ£Ø¨ÙĬÙĩ":11673,"ĠØ§ÙĦÙħØ¬ÙĦØ©":11674,"ĠØ§ÙĦØ²Ø±Ø§Ø¹ÙĬ":11675,"ÙģØ³Ø§Ø±Ø§Øª":11676,"Ø±Ø¨ØŃ":11677,"Ø¨Ø³Ùħ":11678,"ĠØ´ÙĩØ¯Ø§Ø¡":11679,"ĠÙĪØ§Ø¬ØªÙħØ§Ø¹":11680,"ĠØªØ¯ÙģÙĤ":11681,"âĹĦ":11682,"ĠØ§ÙĦÙģØµØ§Ø¦ÙĦ":11683,"ĠÙĤØ§Ø¦ÙĦØ©":11684,"ĠØ§ÙĦØ§Ø´Ø®Ø§Øµ":11685,"ĠØ§ÙĨÙĨÙĬ":11686,"ĠØªÙĦÙĤØ§Ø¦ÙĬØ§":11687,"ÙĩÙĪØ±Ø©":11688,"ĠÙħÙĤØ¨":11689,"ĠØ§ÙĦØ§ØµØ·ÙĨ":11690,"ĠØµÙĬØ§ØºØ©":11691,"ĠÙĪØ¯ÙģØ¹":11692,"ĠÙĪØµÙģÙĩ":11693,"ĠÙĬØ®ØªØ§Ø±":11694,"ĠØ§ÙĦØ¥Ø¨Ø§ØŃÙĬØ©":11695,"ÙĬØªØ§":11696,"ĠØ§ÙĦØ¹Ø¸ÙĬÙħØ©":11697,"ÙĪÙĤÙģØª":11698,"ĠÙģØ¤Ø§Ø¯":11699,"ĠØ¬Ø§Ø±":11700,"ĠØ§ÙĦØ§Ø¨ÙĬØ¶":11701,"ĠØ§ÙĦÙħØªÙĪÙģØ±Ø©":11702,"Ø§ÙģÙī":11703,"ĠØ§ÙĦØ§Ø³Ø¹Ø§Ø±":11704,"Ø±ÙĤØ§Ø¡":11705,"ĠÙĦØªØ·Ø¨ÙĬÙĤ":11706,"ĠÙħØ·ØŃÙĨØ©":11707,"ĠØ¨Ø¬Ø¯Ø©":11708,"ĠØ§ÙĦÙģØ§Ø³":11709,"ĠØ§ÙĦÙħÙĬØ²Ø§ÙĨÙĬØ©":11710,"ĠÙĦÙĦØ´ÙĬØ®":11711,"ĠØ§ÙģØª":11712,"ĠØ§ÙĦÙĩÙĨØ¯ÙĬ":11713,"ĠÙĪØªØ²":11714,"ĠÙĦÙĦØ³ÙĦØ§Ùħ":11715,"ĠØ¨Ø¹Ø¶Ø§":11716,"ĠØŃÙĪØ§ÙĦÙī":11717,"ĠØ§ÙĦØªÙģØ³ÙĬØ±":11718,"ĠØºØ§ÙĦØ¨ÙĬØ©":11719,"ĠØªØ¹ÙĦÙĬÙħÙĬØ©":11720,"ĠÙĩØ¬":11721,"ĠØ§ÙĦØ®ÙħØ³Ø©":11722,"ĠØ¹Ø²Ùħ":11723,"ĠØ§ÙĦØŃØ¬Ø©":11724,"ÙĤÙĦÙĬØ©":11725,"ĠÙĪÙĨØ¸Ø§Ùħ":11726,"ĠØ£ÙĤÙĪØ§ÙĦ":11727,"ĠØ¹Ø·ÙĦØ©":11728,"ĠØ¥ÙĦÙĤØ§Ø¡":11729,"ĠØ¶Ø¨Ø§Ø·":11730,"ear":11731,"ØªØ¹Ø¯":11732,"ÙĪÙĦÙĩØ§":11733,"Ø¥Ø±Ø³Ø§ÙĦ":11734,"Ø§Ø¶Ø¹":11735,"ĠÙģØ¯":11736,"Ø·ÙĪØ¨Ø©":11737,"ĠÙĦØ§Ø²Ùħ":11738,"ĠØ§ÙĦØ¹Ø§ÙĦ":11739,"Ġ42":11740,"ĠØ³ÙĪÙĬØ³Ø±Ø§":11741,"ØºÙī":11742,"ĠÙĨÙĤÙĦØª":11743,"ĠÙĬÙģÙĤØ¯":11744,"ÙħÙĨØ¹":11745,"ĠØ§ÙĦÙħØ¨Ø§Ø¯Ø¦":11746,"ĠÙħØ±Ø´":11747,"ĠØ£Ø¨Ø±Ø²ÙĩØ§":11748,"ÙĬÙĦØ³ÙĬ":11749,"ĠØ§Ø¹ØªØ±Ø§Ùģ":11750,"ÙħÙħØ©":11751,"ĠØ¥ÙĤØ±Ø§Ø±":11752,"ĠÙħØªØµÙģØŃ":11753,"ÙĦÙħÙĬØ°":11754,"ĠØ§ÙĦØ§Ø®ØªØµØ§Øµ":11755,"Ġ\\\\":11756,"ĠØ£ÙħÙĨÙĬ":11757,"ĠØ§ÙĦÙħÙģØ¶ÙĦ":11758,"ĠÙħØŃÙģ":11759,"ĠØ¶Ø±ÙĪØ±ÙĬ":11760,"ark":11761,"Ø³Ø§Ø¡Ø©":11762,"ĠØªØ¹ÙĥØ³":11763,"2009":11764,"ĠÙĪØ¶ÙĪØŃ":11765,"ĠÙĨÙĬØ§Ø¨Ø©":11766,"ĠØ§ÙĨØ·ÙĦÙĤØª":11767,"ĠØ¹ÙħÙĬØ¯":11768,"ĠØ´Ø¹Ø±Øª":11769,"Ø§ÙĩÙĨØ©":11770,"ÙħÙĦØ§ØŃØ¸Ø©":11771,"ĠØ¨Ø§ÙĦØ¶ØºØ·":11772,"Ø§ÙĦØ´ÙĬØ®":11773,"ĠØ§ÙĦØ¥Ø³ÙĥØ§ÙĨ":11774,"ĠÙĪØ§ÙĦØªØ§Ø±ÙĬØ®":11775,"Ø§Ø¦Ø¹Ø§Øª":11776,"----":11777,"ĠØ§ÙĦØ£ØºØ°ÙĬØ©":11778,"ĠØ£Ø¨ÙĦØº":11779,"ĠÙĨØ§Ùĩ":11780,"ĠÙĪØŃØ§ÙĪÙĦ":11781,"ĠØ§ÙĦØ´Ø±Ø¹":11782,"ĠØ±ÙħÙĪØ²":11783,"ĠÙĪØ§ÙĦÙħØ³ÙĦÙħÙĬÙĨ":11784,"Ġ2020":11785,"ĠÙĪÙħØ¬":11786,"ĠØ§ÙĦØŃØ±ÙĪÙģ":11787,"ĠÙĬØ³ØªÙĤØ¨ÙĦ":11788,"Ø±ÙĪØ§Ùĩ":11789,"ĠØ§ÙĦÙĨØ¸Ø§ÙģØ©":11790,"ĠÙĪØ§ÙĦØ´Ø±ÙĥØ§Øª":11791,"Ø§ÙĩØ¯ÙĬÙĨ":11792,"ĠØ£Ø´Ø±Ø·Ø©":11793,"ĠØ¨ØªÙĨØ¸ÙĬÙħ":11794,"ĠØ§ÙĦØ³ÙĬØ¦Ø©":11795,"ĠØ§ÙĦØ¯Ø±Ø¬":11796,"ÙĦØªÙĤÙĬ":11797,"ĠØªØ±Ø¬Ùħ":11798,"ĠÙĬØ¹ÙĥØ³":11799,"ĠØ¨Ø§ÙĨÙĩ":11800,"ĠØ§ÙĦØ¨ÙĦØ¯Ø©":11801,"ĠØ§ÙĦÙģØ±ÙĬÙĤÙĬÙĨ":11802,"ÙĢÙĢØ±":11803,"ĠØ§ÙĦØ³Ø¹ÙĪØ¯ÙĬÙĬÙĨ":11804,"ĠØ¢Ø¨ÙĦ":11805,"ØªÙĤØ±ÙĬØ±":11806,"ĠÙģÛĮ":11807,"ï»£":11808,"ĠÙħØ§Ø²Ø§ÙĦ":11809,"Ø´Ø§Ø±Ø¹":11810,"ĠØ¨Ø§ÙĦØªÙĤ":11811,"ÙĬØ³ÙĬØ©":11812,"ĠØ§ÙĦØªÙĥÙĦÙģØ©":11813,"ĠØ¨ÙĬØ¶Ø§Ø¡":11814,"Ø¤Ø«Ø±":11815,"ĠÙĪÙĪØ¬Ø¯":11816,"ĠÙħØ±Ø¶Ùī":11817,"ĠÙĬÙĨØ§Ø³Ø¨":11818,"ĠÙħÙĥØ§ÙĨÙĩ":11819,"ĠÙħØ°":11820,"ĠÙĪØ¯ÙĬ":11821,"ĠÙĦØ¯Ø±Ø§Ø³Ø©":11822,"ĠØ§ÙĦÙģÙĤØ±Ø©":11823,"ĠØ§ÙĦÙħØ¨ÙĬØ¹Ø§Øª":11824,"ĠØ¬Ø§ÙĩØ²Ø©":11825,"ÙĪØºÙĦ":11826,"ĠØ§ÙĦØ¨ÙĪØ±ØµØ©":11827,"ĠØ§ÙĦØµÙħØª":11828,"ĠÙģØ±ØŃ":11829,"ĠÙĪÙĨØ¯":11830,"ĠØ§ÙĦÙĦØ°ÙĬÙĨ":11831,"ĠØ¶Ø¹ÙĬÙģ":11832,"ĠØ§ÙĦØ¯Ø§Ø¦ÙħØ©":11833,"ĠØ§ÙĦØŃØ§ØµÙĦ":11834,"ĠÙĩÙĨØ¯":11835,"ĠâĢĺ":11836,"ĠÙħÙĬØ²Ø§ÙĨÙĬØ©":11837,"ĠÙĪØ£Ùģ":11838,"ĠØ§ÙĦØŃØ´Ø¯":11839,"ĠØºØ±Ø¨ÙĬ":11840,"ĠØ§ÙĦÙħØ®ØµØµ":11841,"ĠØ§ÙĦØ§Ø³Ø±Ø§Ø¦ÙĬÙĦÙĬØ©":11842,"ĠÙħØ¤ÙħÙĨ":11843,"ÙħØªÙĩ":11844,"ÙĬØ§ÙĨÙĪ":11845,"ĠØ§ÙĦÙħØªÙħÙĬØ²Ø©":11846,"ĠØ§ÙĦØ·ÙĦÙĤ":11847,"])":11848,"ĠUS":11849,"Ø¢Ø¨":11850,"âĢľ.":11851,"ĠØ§ÙĦÙĨØ§Ø´Ø¦Ø©":11852,"ĠØ§ÙĦØ®ÙĦÙĬÙĦ":11853,"ĠØ§ÙĦØ®ÙĬØ§ÙĦ":11854,"Ø®ØµÙĬØ©":11855,"ĠÙĦØ¨ÙĬØ¹":11856,"ĠÙĦØ³ÙĦ":11857,"Ø§ÙĦØ§ÙĦ":11858,"ĠØ¨ÙħØ«ÙĦ":11859,"ĠÙĬÙģØ±Ø¶":11860,"ĠØºØ§Ùħ":11861,"ĠØ§ÙĤØªØ±Ø§ØŃ":11862,"ĠØ§ÙĦØ¨Ø·Ø§ÙĤØ©":11863,
[...]
