{"<|endoftext|>":0,"!":1,"\"":2,"#":3,"$":4,"%":5,"&":6,"'":7,"(":8,")":9,"*":10,"+":11,",":12,"-":13,".":14,"/":15,"0":16,"1":17,"2":18,"3":19,"4":20,"5":21,"6":22,"7":23,"8":24,"9":25,":":26,";":27,"<":28,"=":29,">":30,"?":31,"@":32,"A":33,"B":34,"C":35,"D":36,"E":37,"F":38,"G":39,"H":40,"I":41,"J":42,"K":43,"L":44,"M":45,"N":46,"O":47,"P":48,"Q":49,"R":50,"S":51,"T":52,"U":53,"V":54,"W":55,"X":56,"Y":57,"Z":58,"[":59,"\\":60,"]":61,"^":62,"_":63,"`":64,"a":65,"b":66,"c":67,"d":68,"e":69,"f":70,"g":71,"h":72,"i":73,"j":74,"k":75,"l":76,"m":77,"n":78,"o":79,"p":80,"q":81,"r":82,"s":83,"t":84,"u":85,"v":86,"w":87,"x":88,"y":89,"z":90,"{":91,"|":92,"}":93,"~":94,"¡":95,"¢":96,"£":97,"¤":98,"¥":99,"¦":100,"§":101,"¨":102,"©":103,"ª":104,"«":105,"¬":106,"®":107,"¯":108,"°":109,"±":110,"²":111,"³":112,"´":113,"µ":114,"¶":115,"·":116,"¸":117,"¹":118,"º":119,"»":120,"¼":121,"½":122,"¾":123,"¿":124,"À":125,"Á":126,"Â":127,"Ã":128,"Ä":129,"Å":130,"Æ":131,"Ç":132,"È":133,"É":134,"Ê":135,"Ë":136,"Ì":137,"Í":138,"Î":139,"Ï":140,"Ð":141,"Ñ":142,"Ò":143,"Ó":144,"Ô":145,"Õ":146,"Ö":147,"×":148,"Ø":149,"Ù":150,"Ú":151,"Û":152,"Ü":153,"Ý":154,"Þ":155,"ß":156,"à":157,"á":158,"â":159,"ã":160,"ä":161,"å":162,"æ":163,"ç":164,"è":165,"é":166,"ê":167,"ë":168,"ì":169,"í":170,"î":171,"ï":172,"ð":173,"ñ":174,"ò":175,"ó":176,"ô":177,"õ":178,"ö":179,"÷":180,"ø":181,"ù":182,"ú":183,"û":184,"ü":185,"ý":186,"þ":187,"ÿ":188,"Ā":189,"ā":190,"Ă":191,"ă":192,"Ą":193,"ą":194,"Ć":195,"ć":196,"Ĉ":197,"ĉ":198,"Ċ":199,"ċ":200,"Č":201,"č":202,"Ď":203,"ď":204,"Đ":205,"đ":206,"Ē":207,"ē":208,"Ĕ":209,"ĕ":210,"Ė":211,"ė":212,"Ę":213,"ę":214,"Ě":215,"ě":216,"Ĝ":217,"ĝ":218,"Ğ":219,"ğ":220,"Ġ":221,"ġ":222,"Ģ":223,"ģ":224,"Ĥ":225,"ĥ":226,"Ħ":227,"ħ":228,"Ĩ":229,"ĩ":230,"Ī":231,"ī":232,"Ĭ":233,"ĭ":234,"Į":235,"į":236,"İ":237,"ı":238,"Ĳ":239,"ĳ":240,"Ĵ":241,"ĵ":242,"Ķ":243,"ķ":244,"ĸ":245,"Ĺ":246,"ĺ":247,"Ļ":248,"ļ":249,"Ľ":250,"ľ":251,"Ŀ":252,"ŀ":253,"Ł":254,"ł":255,"Ń":256,"Î±":257,"Î¿":258,"ÏĦ":259,"Î¹":260,"Îµ":261,"Î½":262,"Ïĥ":263,"Ïģ":264,"Îº":265,"ÏĢ":266,"Î·":267,"ÏĤ":268,"Ïħ":269,"Î¼":270,"Î»":271,"ĠÏĦ":272,"Î¯":273,"Î¬":274,"ÏĮ":275,"Î¿Ïħ":276,"ÎŃ":277,"Î³":278,"Î´":279,"ĠÏĢ":280,"ĠÎº":281,"ĠÏĥ":282,"Ïī":283,"Î®":284,"ĠÎ±":285,"Î±Î¹":286,"Ïĩ":287,"ĠÎµ":288,"ĠÎ¼":289,"Î¸":290,"Î¹Îº":291,"Ïį":292,"ÎµÎ¹":293,"Î½Î±":294,"Î¹Î±":295,"ÏĨ":296,"ĠÏĦÎ·":297,"Ïİ":298,"ÏĦÎ±":299,"ÏĦÎ¿":300,"ĠÎ´":301,"ĠÎºÎ±Î¹":302,"ÏģÎ¿":303,"Î²":304,"ÏģÎ±":305,"ÏĦÎµ":306,"ÏĦÎ·":307,"ĠÏĦÎ¿":308,"ĠÏĦÎ¿Ïħ":309,"ÏĢÎ¿":310,"Î¼Î±":311,"ÏĥÎ·":312,"Î¯Î±":313,"Îĳ":314,"ÏīÎ½":315,"ĠÎ³":316,"ĠÎ¿":317,"ÏģÎ¹":318,"Îķ":319,"ĠÎ¼Îµ":320,"ĠÎ½Î±":321,"Î¾":322,"Î½Î¿":323,"Î¼Îµ":324,"ĠÎŃ":325,"ÏĦÎ¹Îº":326,"ĠÏĦÎ·ÏĤ":327,"Î»Î¿":328,"Î¶":329,"Î£":330,"ÏĢÏĮ":331,"ÏĦÎ¹":332,"Îł":333,"Î¤":334,"ÎµÎ¯":335,"ĠÏĦÎ·Î½":336,"ÎµÏĤ":337,"ĠÎºÎ±":338,"Î¯Î½":339,"Î¿Ïį":340,"ÎŁ":341,"Î±Î½":342,"ĠÏĮ":343,"Îļ":344,"ĠÎ³Î¹Î±":345,"ÏİÎ½":346,"Î¹Ïĥ":347,"Î»Î»":348,"ĠÎ¸":349,"ĠÎ±ÏĢÏĮ":350,"ĠÏĩ":351,"ĠÏĢÎ¿Ïħ":352,"ĠÎ·":353,"Îľ":354,"ÏģÎ¬":355,"ÏĦÎ¬":356,"ĠÏĥÏħ":357,"ĠÎĳ":358,"ÏģÎ¯":359,"ÎŃÏĤ":360,"ĠÏĥÏĦÎ¿":361,"ÏĦÎ±Î¹":362,"ÎµÎ½":363,"ĠÎķ":364,"Î¿ÏħÎ½":365,"ÏģÏĮ":366,"ĠÏĦÎ±":367,"Î¹Î¿":368,"ĠÏĢÏģÎ¿":369,"ĠÎµÏĢ":370,"ĠÎł":371,"ÏĥÎµÎ¹":372,"..":373,"ĠÏĥÏĦÎ·":374,"Î±ÏĤ":375,"ÎĶ":376,"Î¬Î½":377,"Î¼Î¿":378,"Î®ÏĤ":379,"ĠÎ²":380,"ĠÏĨ":381,"ÏģÎ³":382,"Î¼ÎŃ":383,"ĠÏĥÎµ":384,"ÎĹ":385,"Î»Î±":386,"Î»Î·":387,"Î»Îµ":388,"ÎĻ":389,"ĠÏĢÎ±":390,"ĠÎļ":391,"ĠÎ±Î½":392,"ÏīÏĤ":393,"ĠÎ£":394,"ĠÏħ":395,"Î¯Î½Î±Î¹":396,"ĠÏĦÏīÎ½":397,"Î½Î·":398,"ÏĥÎµ":399,"ÏĦÎ®":400,"ÏĦÏĮ":401,"ÏģÎµ":402,"ĠÎ¤":403,"Î¿Î»":404,"ĠÎµÎ¯Î½Î±Î¹":405,"ĠÎľ":406,"ÎĿ":407,"Ġ(":408,"Î¿ÏħÏĤ":409,"ÎºÎµ":410,"Î¿Î½":411,"ĠÎ±Ïħ":412,"ĠÎ¸Î±":413,"ÏĪ":414,"âĢ":415,"ĠÏĥÏĦÎ·Î½":416,"ĠÏĢÎµ":417,"ĠÏĦÎ¿Î½":418,"ÏģÏī":419,"Î¯Î±ÏĤ":420,"Îĵ":421,"ĠÏĦÎ¿ÏħÏĤ":422,"Î¹Î¬":423,"ÏģÎ·":424,"ĠÏĦÎ¹":425,"ĠÎĶ":426,"ÏĥÎ·ÏĤ":427,"Â»":428,"Â«":429,"ĠÎ¬":430,"ÎºÎ±":431,"Î¸Î·":432,"Î¹ÎºÏĮ":433,"ĠÎ´Î¹Î±":434,"ĠÎ±ÏĢÎ¿":435,"Î½Îµ":436,"ĠÎ»":437,"Î¸Îµ":438,"ÏĥÎµÎ¹ÏĤ":439,"ÏĢÎ±":440,"Î¿Î¹":441,"Ġ2":442,"ĠÎ´ÎµÎ½":443,"Ġ1":444,"ĠÎ®":445,"ÏĩÎµÎ¹":446,"ĠÎ¿Î¹":447,"Î¹ÎºÎ®":448,"ÏĥÎ±":449,"ĠÏĦÎ¹ÏĤ":450,"ÏģÏİ":451,"ĠÂ«":452,"ÏģÎ¹Ïĥ":453,"Î¯Î´":454,"Î¼ÏĮ":455,"ĠÎŁ":456,"ÏĢÎµ":457,"ĠÎ±Î½Î±":458,"ĠÎ¼ÎŃ":459,"ÏģÎŃ":460,"Î¼Î¬":461,"Î±Ïĥ":462,"Î¿ÏĤ":463,"ÎĽ":464,"ĠÎµÎº":465,"ÏĦÎ±Î½":466,"Î»Î»Î¬":467,"ĠÎµÎ½":468,"ÏģÏĩ":469,"Î»Î¿Î³":470,"Î¥":471,"Î¡":472,"ÏĥÏĦÎµ":473,"ÏĥÎ¹":474,"Î´Î¿":475,"ÏĦÎ¯":476,"ĠÎĵ":477,"ĠÎŃÎ½Î±":478,"...":479,"ĠÎµÏĢÎ¹":480,"ĠÏĮÏĦÎ¹":481,"ÏĢÎ¿Ïħ":482,"ÏĦÎŃ":483,"ÎĴ":484,"ÎºÎ¿":485,"ÏĨÎ¿":486,"Î¼Î±ÏĦÎ±":487,"ÏĦÎ¹ÎºÏĮ":488,"ĠÎºÎ¬":489,"ÎºÏĮ":490,"ĠÎ½":491,"ĠÎ¼Î±ÏĤ":492,"Î»Î®":493,"Î¹ÎºÎ¬":494,"Î¿ÏħÎ¼Îµ":495,"Î·Î½":496,"ÎµÏĦÎ±Î¹":497,"Î»Î¬":498,"Î»ÎŃ":499,"ĠÏĢÎ¿Î»":500,"ÏĦÎ¹ÎºÎ®":501,"ÏģÎ®":502,"Î¾Îµ":503,"Î·ÏĤ":504,"ÏĦÎ±ÏĤ":505,"ÎŃÏģ":506,"ÏĩÎµ":507,"Î¼Î²":508,"ĠÎĿ":509,"Î§":510,"Î´Î±":511,"ÏĦÎ¿ÏĤ":512,"ÏįÎ½":513,"ĠÏĥÏħÎ½":514,"Î¬Î»":515,"ÏĦÏħ":516,"Îĺ":517,"ÏĦÎ¹ÎºÎ¬":518,"ÏĥÎ¿":519,"Î¼Î·":520,"ĠÏĥÏĦÎ±":521,"ĠÎµÎ¯":522,"ĠÎ¼Î¹Î±":523,"Î¹Î´":524,"ĠÏĢÎ¿":525,"ĠÎĹ":526,"ÏĢÎ¬":527,"ÏĦÏģÎ¿":528,"ĠÏĢÏģÎ¿Ïĥ":529,"Ġ-":530,"ÎµÎ¹ÏĤ":531,"ĠÎµÎ¾":532,"ĠÎĴ":533,"ĠÎ´Î·":534,"ÏĦÎµÏĤ":535,"Ġ20":536,"ĠÏĢÎ±ÏģÎ±":537,"ÏĢÎ¿Î¹":538,"ĠÏĢÎµÏģÎ¹":539,"ÎµÎ¹Î±":540,"Î±Î»":541,"Î¦":542,"ĠÎ¶":543,"Î³ÏģÎ±":544,"Î¯Ïĥ":545,"ĠÎºÎ±ÏĦÎ±":546,"ÏģÎ¹Î±":547,"Î³Îº":548,"ĠÏĥÏĦÎ¹":549,"ĠÎ¿ÏĢÎ¿":550,"ĠÎ¼Î±":551,"Î¸ÎµÎ¯":552,"ÏģÎµÎ¯":553,"ÏģÎ¿Ïħ":554,"Î¼ÏĢ":555,"ĠÎ±Î³":556,"Î½ÏīÎ½":557,"ĠÎĻ":558,"ÏİÏĤ":559,"ĠÎ±ÏĢ":560,"ĠâĢ":561,"ÎµÏħ":562,"ĠÎ¼ÏĢÎ¿":563,"ÎĪ":564,"ĠÎµÏħ":565,"Î¯Î¿Ïħ":566,"ĠÎŃÏĩÎµÎ¹":567,"Î¯Î¶":568,"Î¹Î½":569,"ÏħÏĥ":570,"ĠÏĢÏģÏĮ":571,"er":572,"ĠÎ¼Î¿Ïħ":573,"ĠÎ¸ÎŃ":574,"ÎµÏģ":575,"Î¹ÎºÎ¿":576,"ÏĮÏĦÎµ":577,"ÏĮÏĤ":578,"Î¯ÎµÏĤ":579,"ÏģÎµÏĤ":580,"ÏĦÏī":581,"ÏĥÏĦÎ·":582,"ÎµÎ»":583,"Î¾Î·":584,"ĠÎ±Î»Î»Î¬":585,"ĠÎ±ÏħÏĦÏĮ":586,"Î±Ïģ":587,"Î¯Îº":588,"ĠÎºÎ±ÏĦÎ¬":589,"ÏħÎ½":590,"ĠÎŃÏĩ":591,"ĠÏħÏĢÎ¿":592,"ĠÎ§":593,"ĠÏĥÏĦÎ¿Î½":594,"Î¼Î¹":595,"ÏĦÏİÎ½":596,"Î¹ÎºÎ®ÏĤ":597,"00":598,"ĠÏĥÎ±ÏĤ":599,"ÏĮÎ½":600,"ĠÏĥÏĦÎ¹ÏĤ":601,"ÏĮÎ³":602,"Î¿ÏįÎ½":603,"Î¼ÏĨ":604,"ÏĦÎ·ÏĦÎ±":605,"ÎŃÎ½":606,"ÏĦÎ¿Ïħ":607,"Î¼Î®":608,"ĠÎĽ":609,"Î½Ïī":610,"ÏĦÎŃÏĤ":611,"ÏįÏĦÎµ":612,"Î´Î·":613,"ĠÎ´Î¹":614,"ĠÎĺ":615,"ÏĢÎ·":616,"ÏģÎ¯Î±":617,"ÏĦÏīÎ½":618,"Î¹ÎºÎ¿Ïį":619,"ÏĢÎµÎ¹":620,"ÏĥÏī":621,"Î»ÎµÏħ":622,"ÏĪÎ·":623,"ÏĥÎ¯Î±":624,"ÏĬ":625,"Î½Î¿Î¼":626,"ÏģÎ¹Î½":627,"Î¼ÎŃÎ½Î¿":628,"Î»Î¹":629,"ÎĮ":630,"Î¤Î¿":631,"ÏģÎ±Î³":632,"Î¸Î·ÎºÎµ":633,"Î±Î³":634,"Î¼Î¿Ïį":635,"ĠÏĥÎ·":636,"ÏİÏģÎ±":637,"Ġ201":638,"Î¯Î¿":639,"ÏĢÏīÏĤ":640,"ÏĥÏĦÎ±":641,"Î²Î±":642,"ÏģÎ¿ÏĤ":643,"in":644,"Î¼ÎŃÎ½":645,"Î³ÏģÎ±ÏĨ":646,"ĠÏĥÏĩ":647,"ĠÎ¼ÎµÎ³":648,"ÏĦÎ¿Ïį":649,"ĠÎºÏħ":650,"Î¿Ïģ":651,"ĠÎ¦":652,"ĠÎºÎ±Î¸":653,"ĠÎ¹Ïĥ":654,"ĠÎ´Îµ":655,"ÏĦÏģÎ±":656,"Î¬Ïģ":657,"Î»Î¿ÏĤ":658,"ÏħÎ½Î±":659,"ÏģÎ¿Ïį":660,"ÏĩÎ½":661,"ĠÎłÎ±":662,"Î´Î¹Î±":663,"Ġ\"":664,"ĠÎ±Ïĥ":665,"ÏĥÎ±Î½":666,"ĠÎ¼ÎµÏĦÎ±":667,"Î¸Î®":668,"ÏĢÎ¹":669,"âĢ¦":670,"Î¼Î±ÏĦÎ¿ÏĤ":671,"ĠÏĦÎµ":672,"ĠÎĪ":673,"Î¹ÎºÎŃÏĤ":674,"ĠÎ½ÎŃ":675,"ÏģÎº":676,"Î»ÎµÎ¹":677,"Î»Î»Î·Î½":678,"ÏģÎ¯Î¿Ïħ":679,"ĠÎ¾Îµ":680,"Î±Î¹Î´":681,"ÏĩÎ±":682,"Î©":683,"Î»Î¿Î¹":684,"Ġ3":685,"ĠÏĥÏį":686,"ĠÎºÏĮ":687,"ÏģÎ¹Î¿":688,"ÎºÎ±Î½":689,"ÏĦÎ¿ÏħÏĤ":690,"ÏĥÎ¿ÏħÎ½":691,"ĠÎºÎ¬Î½":692,"Î·ÏĥÎ·":693,"ĠÎºÎ¹":694,"Î¿Î½ÏĦÎ±Î¹":695,"ĠÎ®ÏĦÎ±Î½":696,"ĠÎºÎ¿Î¹":697,"ĠÏĩÏģÏĮ":698,"ĠÎļÎ±":699,"ÏĩÎ®":700,"ĠÎ¼ÏĮ":701,"Î´Î®":702,"Î³Î¿":703,"ÎºÎ¬":704,"Î¹ÎºÏİÎ½":705,"ÏĥÎºÎµ":706,"Î¸ÎŃ":707,"!!":708,"ÎºÎ¹":709,"Î¯Î½ÎµÎ¹":710,"Î½Î¿Î½":711,"ÏīÏĥÎ·":712,"on":713,"ĠÎ¬Î»Î»":714,"ĠÎ¤Î¿":715,"an":716,"ĠÏĢÏģÏİ":717,"ĠÎµÏĢÎ¯":718,"ÏĦÎ¹ÎºÎŃÏĤ":719,"ÏĦÎ¹ÎºÎ®ÏĤ":720,"ĠÎ¸Îµ":721,"ÏĨÎ±":722,"ÏĦÎ¹Ïĥ":723,"Î»Î¿Î½":724,"ĠÎ´Î¹Î¬":725,"ĠÏĩÎ±":726,"ÏģÎ¿Î½":727,"ĠÎ±Î½Î¬":728,"ĠÎ¹Î´":729,"ĠÏīÏĤ":730,"ĠÎŃÏĩÎ¿ÏħÎ½":731,"ĠÏĥÎ¿Ïħ":732,"Î¼Î±Î½":733,"ĠÎ¼ÏĢÎ¿ÏģÎµÎ¯":734,"ĠÏĢÎ¿Î»Ïį":735,"ÏĥÎ¹Î±":736,"Î³Îµ":737,"Î´Îµ":738,"Î²Î¬":739,"Î¼ÎµÎ½Î¿":740,"ĠÎ±Îº":741,"ĠÎ¾":742,"ĠS":743,"ÏĥÏĦÎ¿":744,"ĠÎ´Ïį":745,"ÏĦÎµÎ¯":746,"ĠÏĢÎ¿Î»Î¹":747,"ĠÏĥÏħÎ½Îµ":748,"Î¶ÎµÎ¹":749,"ĠÎķÎ»Î»Î¬":750,"Î»Ïħ":751,"ĠâĢĵ":752,"ĠÏĮÏĢÏīÏĤ":753,"ÏĦÎ·ÏĤ":754,"ĠÏĢÎ±ÏģÎ¬":755,"es":756,"ĠÎ±ÏģÏĩ":757,"Î¼ÎŃÎ½Î·":758,"ÏĥÎµÏīÎ½":759,"ÎĨ":760,"Î»ÎµÎ¯":761,"ar":762,"ĠÎ¥":763,"ÏĦÏİ":764,"ÏģÎŃÏĢÎµÎ¹":765,"ÏĨÎ®":766,"ÎºÎ®":767,"ĠÏĦÎŃ":768,"ĠÏĢÎµÏģÎ¯":769,"ÏģÏħ":770,"ÏĦÎ·ÏĥÎ·":771,"ĠÎ±ÏħÏĦÎ®":772,"ĠÏħÏĢÎ¬":773,"ĠÏĢÏĮ":774,"Î½Î¹Î±":775,"ĠÎ±Î½ÏĦÎ¹":776,"or":777,"Î½ÏĮ":778,"âĢĻ":779,"ĠÎµÏģÎ³":780,"Î³Î®":781,"ÎŁÎ¥":782,"ĠÏĢÎ¹Î¿":783,"ĠÏĢÏģÏī":784,"ÏĦÎ¹Î±":785,"ÏģÎ¸":786,"ÏĦÎ¹ÎºÎ¿Ïį":787,"Î¼ÏĮÏĤ":788,"Î»Î¿Ïħ":789,"Î³Î³":790,"Î½Î®":791,"ÏĩÎ¿":792,"ĠÎºÎ±Î»":793,"Î¹Î¿ÏĤ":794,"ĠÏĩÏī":795,"ĠÏĢÎ¬Î½":796,"ĠÏĪ":797,"ĠÎĳÎ½":798,"ĠÎ¼ÎµÏĦÎ¬":799,"ĠÎľÎµ":800,"ĠÏĢÏīÏĤ":801,"ĠÎ¡":802,"Î»Î¿Ïį":803,"ĠÎ¿Î¹ÎºÎ¿":804,"ĠA":805,"ÎµÎ¯Î¿":806,"Î¼Î¼Î±":807,"ÏĦÎ¹ÎºÏİÎ½":808,"ÏĦÏģ":809,"Î¹Î»":810,"ĠÏĨÎ¿":811,"ĠÏĢÎ»Î·":812,"Ġ4":813,"Î½Î±Î½":814,"ÏĦÎ¿Î½":815,"ĠÎ´Î·Î¼Î¿":816,"ÎºÎ»Î·":817,"ÏĦÎ®ÏĤ":818,"Î¼ÎŃÎ½Î±":819,"ĠC":820,"ĠÎ¼ÏĮÎ½Î¿":821,"Î¼ÏīÏĤ":822,"ÎĻÎĳ":823,"ÏĩÎ¹":824,"ÎµÏį":825,"ÏĨÎŃÏģ":826,"ÏĢÎ¹Ïĥ":827,"ĠÏĢÏģÎŃÏĢÎµÎ¹":828,"ĠÎ±ÎºÏĮ":829,"ĠÏĢÎ±Î¹Î´":830,"ĠÎºÎ¿":831,"ĠÎ¯Î´":832,"Îĸ":833,"Î¼Î¿Ïħ":834,"ÏĢÎ¿ÏħÏģÎ³":835,"ÏħÏĦÏĮ":836,"ĠÎ¬Î½":837,"Î»Ïī":838,"ĠÎ´Î¹Îº":839,"al":840,"ĠÏĥÏĩÎµ":841,"Î³ÏģÎ¬":842,"ĠÎ»ÏĮÎ³":843,"Ġ5":844,"Î³Î±":845,"Î½Î±ÏĤ":846,"ĠÏĥÏħÎ¼":847,"Î»Î»Î·":848,"ĠM":849,"ÏĢÎ¿Î¯":850,"ÏĥÏĦÎ¬":851,"ÎŁÎ¹":852,"ĠÏĥÏĦÎ¿ÏħÏĤ":853,"ÏĩÎ±Î½":854,"Â».":855,"ĠÎµÏĢÎ¹Ïĥ":856,"ÏģÎ±Î³Î¼Î±":857,"ĠÎºÎ¬Î¸Îµ":858,"ĠB":859,"ÎºÏģÎ¹":860,"en":861,"ÏģÎ±Îº":862,"ĠÏĢÎµÏģÎ¹Ïĥ":863,"Î´ÎµÏĤ":864,"ÏĨÎ·":865,"Î¸Î¿ÏįÎ½":866,"ÎµÎ¯ÏĤ":867,"Î½Î¿Ïį":868,"ÏĥÏĮÏĦÎµ":869,"ÏĢÎ¯":870,"ĠÎ¶Ïī":871,"Î¼Î¬ÏĦÏīÎ½":872,"ĠÏĦÏĮ":873,"ĠÎĮ":874,"Î®Î¼Îµ":875,"ĠÎ½Îµ":876,"Î¸Î½":877,"ĠÎ»Î±":878,"ĠÎĨ":879,"ĠÎķÏħ":880,"ĠÎĶÎ·":881,"ĠP":882,"ÏĨÎµ":883,"Î½Î¿ÏĤ":884,"ÏĥÎ¹Î¼Î¿":885,"Î¹Ïİ":886,"ÏĢÎ®":887,"ĠÏĮÎ»":888,"ĠÎľÎ±":889,"ĠÎ¼Î·":890,"gr":891,"Ġ19":892,"ĠÎ¿ÏĢÎ¿Î¯Î±":893,"ĠÎĺÎµ":894,"Î¯Î´Î±":895,"ÏģÎ¯Î¶":896,"Î¬Î¶":897,"ĠÎ»ÎŃ":898,"ĠÎ±ÏħÏĦÎ¿":899,"ĠÏĢÎµÏģÎ¹Î¿":900,"ĠÎµÎ½Ïİ":901,"it":902,"ÏĦÏĥÎ¹":903,").":904,"ĠT":905,"ĠÎķÎ»Î»Î¬Î´Î±":906,"ĠÏĩÏģÎ®":907,"Î½ÎµÏĤ":908,"ĠÎ£Ïħ":909,"ĠÎ¼ÎŃÏĥÎ±":910,"Î´Ïħ":911,"Î¯ÏīÎ½":912,"ÏĦÎµÏģ":913,"ÎºÎ·":914,"ÏĩÎ·":915,"ÏĥÏĦÎ®":916,"ĠÏĩÏģÏĮÎ½Î¹Î±":917,"ĠÏĮÎ¼ÏīÏĤ":918,"ĠÎ¼ÎµÎ³Î¬":919,"Î½Î·ÏĤ":920,"ĠÎ¹ÏĥÏĦÎ¿":921,"ÏģÎµÎ¹":922,"ĠÏĩÏģÎ·":923,"ÏĢÎŃ":924,"ĠÎ±Ïģ":925,"ĠÎµÎ³":926,"),":927,"ÏĦÏĮÏĤ":928,"Â»,":929,"20":930,"Î´Î¹Îº":931,"ĠF":932,"ÏģÎ¯ÏĤ":933,"Î®Î¼ÎµÏģÎ±":934,"ĠÎ±ÏĢÎ¿ÏĦÎµ":935,"ĠÎµÎ¯ÏĩÎµ":936,"ÏģÎ±ÏĤ":937,"ĠÎ´ÏįÎ¿":938,"ÏĨÎŃ":939,"ĠÎºÏĮÏĥ":940,"ÏįÏĢ":941,"ĠÏĢÏģÎ±Î³Î¼Î±":942,"ÏĨÎ¿ÏģÎ¬":943,"Î»Ïİ":944,"ĠÏĢÏģÎ¿ÏĤ":945,"Î·Î³":946,"ĠÎ±Î¾":947,"ÏĦÎµÎ¹":948,"ÏģÏİÎ½":949,"Î¿ÏħÎ»":950,"Î½Ïİ":951,"Î¸Ïħ":952,"ĠÎ¼Î·Î½":953,"Î³Î¹":954,"ĠÎ¼Î®":955,"Î´ÏĮ":956,"Î¯Î½Î·":957,"ÎºÏģÎ±":958,"ÎĳÎ£":959,"ĠÏĢÎµÏģÎ¹ÏĥÏĥÏĮÏĦÎµ":960,"Î¿ÏħÏģÎ³":961,"ĠÏĢÎ¬":962,"ÏĥÎºÎµÏħ":963,"Î´Î¹":964,"ĠÎºÎ¬ÏĢÎ¿":965,"ÏĩÏī":966,"Î»Î¯":967,"ĠÎŁÎ¹":968,"Î¿Î½ÏĦÎ±ÏĤ":969,"ÎºÎµÎ¹":970,"ÎºÎŃ":971,"ĠÏĮÏĦÎ±Î½":972,"ÏĦÎ¿Î¹":973,"at":974,"st":975,"ÎľÎµ":976,"oo":977,"Î¶Î¯":978,"Î´Ïİ":979,"ĠÏĩÏİ":980,"ÏĩÏģÎ¹":981,"Î¿ÏįÎ¼Îµ":982,"Î´ÏģÎ¿":983,"ĠÎ¤Î±":984,"ÏĥÎ¿ÏħÎ¼Îµ":985,"Î¯Î½ÎµÏĦÎ±Î¹":986,"ĠÎ»Î¯":987,"ÏĥÎµÏĦÎµ":988,"Î¾ÎµÎ¹":989,"ĠÎ»Îµ":990,"Î¸ÎµÏĥÎ·":991,"Î»Î¹Î±":992,"ĠÎµÎ»Î»Î·Î½":993,"ĠÏħÏĢÏĮ":994,"Î±Î½Î±":995,"Î¯Î¶ÎµÎ¹":996,"ÏģÎ¿ÏįÎ½":997,"ĠÎ²Î¬":998,"ĠÎ¼Î¹Îº":999,"ÏĨÏħ":1000,"Î¼Î¹Î¿ÏħÏģÎ³":1001,"ĠÏĥÏħÎ¼Î²":1002,"Î»ÏĮ":1003,"ĠÎ³Îµ":1004,"ĠÎ¼Î¯Î±":1005,"ĠÏĮÎ»Î±":1006,"ĠÎ³Î½Ïī":1007,"ĠÏİ":1008,"ÏĥÎ¼Î±":1009,"ĠÏĦÏģÏĮ":1010,"ÏĦÎ·ÏĦÎ±ÏĤ":1011,"ĠÎºÎ±Î¸ÏİÏĤ":1012,"ÏĥÎ¯Î±ÏĤ":1013,"ĠÏĢÏģÎ¿Î²":1014,"ĠÎºÎ±Î½":1015,"Î¤Î±":1016,"il":1017,"Ġ,":1018,"Î¼Î¿ÏĤ":1019,"âĢĿ":1020,"ĠÎ¿Î¼Î¬":1021,"ÎºÎ¿Ïį":1022,"ÏģÎ¯ÎµÏĤ":1023,"á½":1024,"ĠÎµÏĢÎ¹Îº":1025,"ĠÎ±ÏĨ":1026,"Î¹Î²":1027,"ÎºÎ±Î¹":1028,"Î¼Î±Î¹":1029,"om":1030,"Î´Î¹Î¿":1031,"ĠÎºÏħÎ²":1032,"Î´Î±ÏĤ":1033,"ĠÏĥÏħÎ³":1034,"ĠÎµÎºÎµÎ¯":1035,"Îŀ":1036,"ÏĥÏĦÎ±ÏĥÎ·":1037,"ÏĦÎµÏį":1038,"ÏīÎ½Î±":1039,"Î¸ÏģÏī":1040,"ÏĦÎ¿ÏħÏģÎ³":1041,"ĠÎłÏģÎ¿":1042,"Ġ6":1043,"ĠÎ´ÏħÎ½Î±":1044,"el":1045,"ĠÏĩÏİÏģÎ±":1046,"Î»Î·ÏĤ":1047,"ĠÎ£Îµ":1048,"ÎµÏĦÎµ":1049,"ÏĥÏĦÏĮ":1050,"et":1051,"ic":1052,"ÏĥÎ¯":1053,"ĠÎŃÎº":1054,"ÏĩÏħ":1055,"ĠÎ¬Î»":1056,"ĠÎ½Î¿":1057,"ÏĮÏĦÎ·ÏĦÎ±":1058,"Î±Î½Îµ":1059,"ĠÏĥÎ®Î¼ÎµÏģÎ±":1060,"Î¹ÎºÏĮÏĤ":1061,"Î¸Î·ÎºÎ±Î½":1062,"ĠÎºÎ¿Î¹Î½ÏīÎ½":1063,"ĠÎ±ÏĢÎ±":1064,"ĠÏĩÏīÏģÎ¯ÏĤ":1065,"ĠÎ¼Î¿":1066,"ÎŁÎ£":1067,"Î¹ÏİÎ½":1068,"ĠÏĥÏĩÎŃ":1069,"ĠÏĮÏĩÎ¹":1070,"Î»ÎµÏħÏĦÎ±":1071,"ĠÎ¼ÎŃÏĩÏģÎ¹":1072,"ĠÎ¼Î¬":1073,"ÎĻÎļ":1074,"ÏģÎ¿ÏħÏĤ":1075,"ÏģÏį":1076,"ÎķÎĻ":1077,"ÏĥÎ¹Î¿":1078,"ĠÎłÎµ":1079,"Î´ÎµÎ¹":1080,"ÏĢÎ·ÏģÎµ":1081,"ĠÎ´Î·Î¼Î¹Î¿ÏħÏģÎ³":1082,"ÏĦÎµÏħ":1083,"ÏģÏĩÎµÎ¹":1084,"Î¾Î·ÏĤ":1085,"ĠÎ²ÏģÎ¯":1086,"ĠÏĢÎŃ":1087,"ĠG":1088,"ĠÎµÎ¹Ïĥ":1089,"ĠÏĥÏħÎ½ÎŃ":1090,"ac":1091,"ĠÏĨÏī":1092,"Î½Î¬":1093,"ÏĨÏĮ":1094,"ĠÏĢÎ±ÏģÎ¿Ïħ":1095,"ĠL":1096,"lo":1097,"ĠE":1098,"ĠÎ²Î±":1099,"ro":1100,"Î³Î¼Î±":1101,"ÏĢÏģÎ¿":1102,"ĠÎ¿Î¹ÎºÎ¿Î½Î¿Î¼":1103,"ÎĵÎ¹Î±":1104,"ĠÏĢÏģÎ¬":1105,"Î¼Î±ÏĥÏĦÎµ":1106,"Î¸Î±":1107,"Î¾ÎµÎ¹ÏĤ":1108,"ÎµÎ¹ÏĦÎ¿ÏħÏģÎ³":1109,"ĠÎ±ÏħÏĦÎ¬":1110,"ĠâĢľ":1111,"Î»Î¹Î¿":1112,"Î¼ÎŃÎ½ÏīÎ½":1113,"ÏĦÏħÏĩ":1114,"ÎĹÎ£":1115,"ÏĥÏĥÎ±":1116,"ĠÎ³ÏģÎ±":1117,"Î½Î¿Î¹":1118,"ĠÎĵÎ¹Î±":1119,"Î³Ïī":1120,"ÏĨÎ±Î»":1121,"ÏĩÏģÎ¿":1122,"ÏĢÎ¿ÏĤ":1123,"Î»ÎµÎº":1124,"ÎºÎ¿Î»":1125,"ÎĳÎĻ":1126,"ÏĦÏģÎŃ":1127,"ÎŃÏģÎ½Î·":1128,"is":1129,"ĠÎ±Î½ÏĦÎ¯":1130,"ĠÎ´Î¹Îµ":1131,"ĠÎ³Î¹Î±ÏĦÎ¯":1132,"ÏħÎ¼Î±":1133,"Î²Îµ":1134,"ĠÎºÎ¬Î½ÎµÎ¹":1135,"ÏĥÎ¹Î¼Î¿ÏĢÎ¿Î¹":1136,"ÏģÏīÎ½":1137,"ĠÎ³ÎµÎ½":1138,"Î»ÏĮÎ³":1139,"ĠD":1140,"Î»Î»Î±":1141,"ÏīÎ¼Î±":1142,"ĠR":1143,"Î¯ÏĦÎµ":1144,"ÏĮÎ¼Îµ":1145,"Î±Î¹Î¿":1146,"ÎµÎ¯ÏĦÎµ":1147,"ĠÎļÏħ":1148,"ĠÏĦÎµÎ»ÎµÏħÏĦÎ±":1149,"ĠÎºÎ±Î»ÏįÏĦÎµ":1150,"ÏĦÏĥ":1151,"ĠÎļÎ±Î¹":1152,"ĠÎµÎ¹Î´":1153,"ĠÎ²Î¿":1154,"Î¸ÏģÏİ":1155,"Î³Î·":1156,"ÏĥÎ¼":1157,"re":1158,"ÏģÎ¿Î¹":1159,"ÏĦÎ¿ÏįÎ½":1160,"ĠÎ»ÎµÎ¹ÏĦÎ¿ÏħÏģÎ³":1161,"Î´ÎŃ":1162,"âĸ":1163,"ĠH":1164,"ÎļÎ±":1165,"ĠÎµÏħÏģÏİ":1166,"Î¼Î¼":1167,"Î½Î¿Î½ÏĦÎ±Î¹":1168,"Î¿Î¹Î½ÏīÎ½":1169,"ÏĨÎ¿Ïģ":1170,"Î¼ÎŃÎ½Î¿Ïħ":1171,"Î¼ÏĨÏīÎ½Î±":1172,"ÏĥÎº":1173,"ÏĦÎ·Î½":1174,"ĠÏĢÎ»Î±":1175,"Î±Î½Î¬":1176,"Ġ7":1177,"Î³Î¬":1178,"ĠÏĢÏģÎ¹Î½":1179,"Î³ÎµÎ¹":1180,"201":1181,"ĠÏĦÎµÎ»":1182,"ĠÎķÎº":1183,"Î¹Îµ":1184,"Î±ÏĥÎ¯Î±":1185,"ĠÏĥÏħÎ³Îº":1186,"am":1187,"Î¼Î¿Ïģ":1188,"ÏĢÎ¿Î¯Î·ÏĥÎ·":1189,"ĠÎ´Î¿":1190,"ÎłÎĳ":1191,"ĠÎĳÏħ":1192,"ĠÏĢÏģÏĮÏĥ":1193,"ĠÏĥÎ·Î¼Îµ":1194,"Î²Î¿Î»":1195,"Î¼Î²ÏģÎ¯Î¿Ïħ":1196,"ÏĦÏį":1197,"Î½ÎµÎ¹":1198,"Î»Î·Î¼Î±":1199,"Ġ10":1200,"ĠÎłÎ¿Î»":1201,"ÏĦÎ¯Î±":1202,"Î¡ÎĻ":1203,"ÏħÏĩ":1204,"ĠÎĶÎµÎ½":1205,"âĸº":1206,"ĠÎ¿ÏĢÎ¿Î¯Î¿":1207,"Î¸ÎµÎ¹Î±":1208,"ÏĥÎ¹Î¬":1209,"ÏĦÎ¶":1210,"ÎŃÎ±":1211,"ĠÏħÏĢÎµ":1212,"ĠÎŃÎ½Î±Î½":1213,"ÏĦÎ®ÏĥÎµÎ¹ÏĤ":1214,"ÏĥÏĦÎ·Î¼Î±":1215,"Î»Î¹Ïĥ":1216,"Î¸Î¿":1217,"ĠÎ½ÎŃÎ±":1218,"ĠÏĮÏĢÎ¿Ïħ":1219,"Ġ_":1220,"ÏĪÎµ":1221,"ĠÏħÏĢÎ¬ÏģÏĩÎµÎ¹":1222,"Î»Î¯Î±":1223,"ÏĨÎ¬Î»":1224,"ÏģÎ³Î±Î½":1225,"ĠÏĦÎ¯":1226,"ĠÎ¼Î±Î¶Î¯":1227,"ÏĨÎŃÏģÎµÎ¹":1228,"ĠÎŃÎ½":1229,"Ġ...":1230,"ÏĩÎµÎ¯":1231,"ĠÏĥÏħÎ¼Î¼Îµ":1232,"Î»ÎŃÎ¿Î½":1233,"ÏīÎ½Î¹Ïĥ":1234,"ou":1235,"Î¹ÏĥÎµ":1236,"Ġ8":1237,"ÏĥÏį":1238,"Î¹Î½Î®":1239,"Î¯ÎºÎ·":1240,"ÏģÎ¹Î¬":1241,"ÏĥÎ®":1242,"ĠÏĩÏģÎ·ÏĥÎ¹Î¼Î¿ÏĢÎ¿Î¹":1243,"Î¼ÏĢÎ¿":1244,"ĠN":1245,"ÏģÏĩÎ¿ÏħÎ½":1246,"ĠÎµÎ´Ïİ":1247,"ĠÎ¿ÏĢÎ¿Î¯":1248,"Î»Î¹Îº":1249,"Î¼Î¯":1250,"ĠÎ±Î½Î¸ÏģÏİ":1251,"ĠÎ¿Ïħ":1252,"ĠÏī":1253,"ĠÎµÏĦÎ±Î¹":1254,"ĠÎ±Î½Îµ":1255,"Ġs":1256,"ĠÎ±ÎºÏĮÎ¼Î±":1257,"ĠÎºÎ¬ÏĦÎ¹":1258,"ÏĪÎµÎ¹":1259,"ÏīÏĥÎµ":1260,"ĠÎĳÎ½Î±":1261,"ĠÎŃÎ½Î±ÏĤ":1262,"ter":1263,"Î¾Ïį":1264,"Î»Î»Î±Î³":1265,"Î´Î¹Î¬":1266,"Î¤Îķ":1267,"ÏģÏīÏĥÎ·":1268,"ÏĦÎ¿ÏĢÎ¿Î¹":1269,"ÏĢÎ¿ÏĦÎµ":1270,"ÏģÎ¿ÏĨÎ¿":1271,"ĠÎĸ":1272,"ĠÎ½ÏĮ":1273,"Î³ÏģÎ¬ÏĨ":1274,"ÎºÎ¿Ïħ":1275,"ĠÏĥÏĦÎ¹Î³":1276,"ĠÏĦÏĮÏĥÎ¿":1277,"ÏĦÎ¹ÎºÎ¿":1278,"ĠÎ¼ÎµÎ³Î±Î»":1279,"Î¤Îĳ":1280,"ĠÎºÏģÎ±":1281,"ĠÏĥÏħÎ¼ÏĨ":1282,"Î¼Î¿ÏįÏĤ":1283,"Î¸ÏħÎ½":1284,"ĠÎµÏĨ":1285,"Î¼Î¯Î±":1286,"id":1287,"ÏģÏīÏĢÎ±":1288,"ĠÎĶÎ¹Î±":1289,"ĠÎĳÎ³":1290,"ĠÎ¶Î·":1291,"ĠÎŃÏģÎ³":1292,"ĠÎ±ÏĢÎ¿ÏĨ":1293,"Ġc":1294,"Î³ÏģÎ±Î¼Î¼Î±":1295,"ĠÎķÏĢÎ¹":1296,"ĠÎ´Î¹Î¿":1297,"ĠÏĢÎ¹":1298,"ĠÏĥÏĦÎ¿Î¹":1299,"ĠÎºÏħÎ²ÎŃÏģÎ½Î·":1300,"ĠÎ´Î®":1301,"as":1302,"Î»ÎµÏį":1303,"Î³Î¿Î½":1304,"ĠÎ¶ÏīÎ®":1305,"Î¤ÎŁ":1306,"ÎºÎµÎºÏģÎ¹":1307,"ĠÎºÎ¿Ïħ":1308,"ĠÏĥÏĦÏģÎ±":1309,"ĠÎµÎ¼ÏĢ":1310,"Î³Î½Ïī":1311,"ĠÏĢÏģÎ¿ÏĥÏī":1312,"Î»Î±Î¼Î²":1313,"ĠÎ²Î±Ïĥ":1314,"ĠÏĩÎ±ÏģÎ±Îº":1315,"ÏĥÏĦ":1316,"ÏĢÎ¬Î½":1317,"Î»Ïį":1318,"ĠÎĶÎ·Î¼Î¿":1319,"ĠÏĥÏĩÎ¿Î»":1320,"ĠÎ»Î¿Î³":1321,"ĠÎ·Î¼ÎŃ":1322,"ĠÏĥÏħÎ½ÎµÏĩ":1323,"ÏģÎ·ÏĤ":1324,"ÏĦÎ·ÏĦÎµÏĤ":1325,"Ġ2018":1326,"Î¯Î½Î¿ÏħÎ½":1327,"ĠÏĢÎ¬Î½Ïī":1328,"ĠÏį":1329,"ĠÏĥÎºÎ¿":1330,"ĠÏĢÎ±Î¹":1331,"ĠÏĥÎ±Î½":1332,"ÏĩÏį":1333,"ÏĦÏīÏĥÎ·":1334,"Î¼ÎŃÎ½ÎµÏĤ":1335,"ÎĳÎ½":1336,"ĠÏĨÏħÏĥ":1337,"ĠÎ±Î¹":1338,"ĠÏĥÎ·Î¼Î±Î½":1339,"Î»ÏİÎ½":1340,"ĠÏĨÎ¿ÏģÎ¬":1341,"ĠÏĢÎ¹Ïĥ":1342,"Î²Î¬Î»":1343,"ÏĦÎ¹Î¬":1344,"ook":1345,"ÏģÎ±Î½":1346,"Î¸ÎµÎ¹":1347,"ÎĶÎµÎ½":1348,"ĠÎ±ÏĢÎ¿Îº":1349,"ĠÏĦÏİÏģÎ±":1350,"ĠÏħÏĢÎ·ÏģÎµ":1351,"Î¼ÎµÎ¹":1352,"ÏĦÎ¿Î³ÏģÎ±ÏĨ":1353,"Î½Î¿Î½ÏĦÎ±ÏĤ":1354,"ÏĢÏĦÏħ":1355,"ÏĦÎ¹ÎºÏĮÏĤ":1356,"ĠÎĳÏĢÏĮ":1357,"ĠÏĢÎ±Î¹Î´Î¹Î¬":1358,"ĠÎĿÎ¿":1359,"ĠÏĢÏģÏİÏĦÎ·":1360,"ĠÎµÎºÏĢ":1361,"le":1362,"ĠÏĦÏģÎ¿":1363,"ĠÎµÎ¼ÏĨ":1364,"ÏĢÏī":1365,"ĠÎ¬Î½Î¸ÏģÏī":1366,"ÏģÏĮÏĤ":1367,"ĠÎĿÎ±":1368,"ĠÎķÎ»Î»Î·Î½":1369,"ĠÎ±Î½ÎŃ":1370,"ÏĩÏĮ":1371,"ÎłÎ±":1372,"Ġ.":1373,"Î¼ÎµÎ¯":1374,"ĠÎºÏį":1375,"Ġ9":1376,"Î¶Î·":1377,"ĠÎµÎ½Î·":1378,"ÏģÎ·ÏĥÎ·":1379,"ĠÎ±ÏĢÎµ":1380,"ÎºÎ®ÏĤ":1381,"ĠÎµÎ½ÏĮÏĤ":1382,"000":1383,"Î¡Îĳ":1384,"ÏģÎµÏħ":1385,"ĠÎ±ÎºÏĮÎ¼Î·":1386,"ĠÎ»Î¹":1387,"ÎºÎ¹Î±":1388,"Î¼ÎŃÎ½Î¿ÏĤ":1389,"ÏĩÎµÎ¯Î±":1390,"ÏĢÎ±Î½":1391,"ĠÏħÏĢÎ¿ÏħÏģÎ³":1392,"ĠÎ¤Î¿Ïħ":1393,"Î»ÎµÏĥÎ¼Î±":1394,"ĠÎ»Î¬":1395,"Ġ200":1396,"ÏģÏīÏĢÎ±ÏĬ":1397,"ÏĥÎºÎ¿":1398,"ĠÎ³Î¯Î½ÎµÎ¹":1399,"Î¾Î¹":1400,"ĠÏĥÏįÎ½":1401,"ÎµÎ¯Î¿Ïħ":1402,"ÎķÎ£":1403,"ÏģÎµÎ¯Î±":1404,"Î¸Î¿ÏĤ":1405,"ĠÎ¼ÎµÏĦÎ±Î¾Ïį":1406,"ÎºÎ¯Î½Î·":1407,"ĠÎµÏĢÎ¹ÏĩÎµÎ¹":1408,"ÎºÏİÎ½":1409,"ĠÎ¿Î´Î·":1410,"Ġ:":1411,"ĠÎµÏģÎ³Î±Ïĥ":1412,"ĠÏĥÏĦÏĮ":1413,"ing":1414,"ma":1415,"ĠÎ¼ÏĢÎ¿ÏģÎ¿Ïį":1416,"ĠÏĦÏģÎ±":1417,"Î¼ÎµÏģ":1418,"ÏĩÎ¿ÏĤ":1419,"ĠÏĥÏħÎ½ÎµÏģÎ³":1420,"ÎµÎ¯ÏĦÎ±Î¹":1421,"ĠÏĥÎ¿":1422,"Î»Î¿ÏįÎ½":1423,"ĠI":1424,"ĠÎ¸ÎµÏī":1425,"ĠÏĢÎ¿Î¹":1426,"Î½Î¿Ïħ":1427,"ĠÏĥÏħÎ½Î¿":1428,"ĠÏĢÏģÎ¿ÏĥÏīÏĢ":1429,"ÏĥÎ±Î¹":1430,"Ġt":1431,"Î¼Î¿Î½":1432,"ĠÏĥÎ·Î¼Î±":1433,"ÏĨÎ¹":1434,"ĠÎ¸ÎŃÎ¼Î±":1435,"log":1436,"ÎµÎ´":1437,"ĠÏħÏĢÎ¬ÏģÏĩÎ¿ÏħÎ½":1438,"ĠÎµÎºÎ±":1439,"ÏĬÏĮÎ½":1440,"ĠÎµÎ¾Îµ":1441,"ĠÎ¬ÏģÎ¸":1442,"Î»Î¿ÏħÏĤ":1443,"ÎłÏģÎ¿":1444,"Î¬Î½ÎµÎ¹":1445,"ÏĪÎµÎ¹ÏĤ":1446,"ĠÏĮÏĥÎ¿":1447,"ĠÏĢÎ±ÏģÎŃ":1448,"ĠÎ·Î»ÎµÎº":1449,"Î¿ÏģÎ¬":1450,"ĠÎ²Î¹Î²":1451,"Ġb":1452,"ÏģÎ±Ïĥ":1453,"Î®ÏĦÎ·":1454,"ĠÏİÏĥÏĦÎµ":1455,"Ġ&":1456,"ĠÎ¸ÎŃÏĥÎ·":1457,"ÏĢÎ¿Ïį":1458,"ÏĥÏĦÎ¹":1459,"Î³Î¿Ïħ":1460,"ÎºÏħ":1461,"ĠÎĶÎµ":1462,"ÎľÎķ":1463,"ÎŃÏģÎ³":1464,"ĠÎ´Î¹Î±Î´Î¹Îº":1465,"ĠÏĢÎ±Î½":1466,"ĠÎºÎ±Î¸Î·":1467,"ĠÎ´ÎµÎ¯":1468,"ĠÏĢÎ»Î®":1469,"Î²Î±Î¹":1470,"ĠÏĦÏģÏĮÏĢÎ¿":1471,"ÎºÎ·ÏĤ":1472,"Î½Î¿Î¯":1473,"ÏĢÎ¿ÏħÏĤ":1474,"ĠÏĩÎ¬":1475,"ĠÎŃÎ³Î¹":1476,"ĠÎ¼ÎµÎ³Î±Î»ÏįÏĦÎµ":1477,"ÏĦÎ¯Î±ÏĤ":1478,"!!!":1479,"ĠÏĥÏħÎ³ÎºÎµÎºÏģÎ¹":1480,"ÏĩÎ®ÏĤ":1481,"ÎĳÎ½Î±":1482,"ĠÎŃÏĦÏĥÎ¹":1483,"ĠÎµÎ¹":1484,"Î¹ÎºÎ±":1485,"Ġp":1486,"ÏİÎ½ÏĦÎ±ÏĤ":1487,"ÏģÎ¯Î±ÏĤ":1488,"ÏĢÏĮÎ½":1489,"ĠÎ¿Î¼Î¬Î´Î±":1490,"Ġ0":1491,"ĠÎµÏĢÎ¯ÏĥÎ·ÏĤ":1492,"ÂŃ":1493,"ed":1494,"ÎĦ":1495,"ĠÏİÏģÎ±":1496,"....":1497,"ÎµÎº":1498,"Î³ÏģÎ±ÏĨÎ®":1499,"ÎłÎŁ":1500,"Î£Îµ":1501,"ĠÎ¼ÎŃÏĥÏī":1502,"ĠÎĶÎ®":1503,"ÎµÏģÎ¿":1504,"ĠÎ¬Î»Î»Î¿":1505,"ĠÏĨÎ¯":1506,"ot":1507,"ĠÏĢÎ¬Î½ÏĦÎ±":1508,"ĠÎ´ÏħÎ½Î±ÏĦÏĮ":1509,"ĠÎµÏĢÎ¿":1510,"Î¬Ïĥ":1511,"Âµ":1512,"ĠÏĦÏĮÏĦÎµ":1513,"Î¹Ïī":1514,"ĠÎ»Î¿Î¹":1515,"ĠÎ±ÏħÏĦÎ¿Ïį":1516,"ĠÏĢÎ¿Î»Î»Î¬":1517,"á¼":1518,"Î»Î¿Î³Î¯Î±":1519,"ĠÎķÎ¯Î½Î±Î¹":1520,"ĠÏĨÎ¿Ïģ":1521,"ĠÏĩÎµÎ¹":1522,"ĠÎ»ÎµÏĢ":1523,"Î¹ÎºÎ¿ÏįÏĤ":1524,"ĠW":1525,"Î¼ÏİÎ½":1526,"ĠÏĢÎ»Î·ÏģÎ¿ÏĨÎ¿":1527,"Î¸ÎµÎ½":1528,"Î»ÏĢ":1529,"ĠÎºÏĮÏĥÎ¼Î¿":1530,"ÏĢÏĦÏīÏĥÎ·":1531,"ÏĢÎµÎ¶":1532,"Î£Ïħ":1533,"ĠÎ¼Î¿Î½":1534,"ĠÎ²Î±Î¸":1535,"ĠÎ¬Î»Î»Î±":1536,"ĠÎļÎ¿":1537,"ĠÎºÎµ":1538,"Î¯Î´Î¹":1539,"Î´Î¿ÏĤ":1540,"ĠÏĨÎ±":1541,"ĠÏĢÏģÎ¿ÏĬÏĮÎ½":1542,"ĠÏĥÏĦÎµ":1543,"ÏģÎµÏį":1544,"Î¿ÏįÏĤ":1545,"Î´Î¿Ïħ":1546,"Ġ18":1547,"Î©ÎĿ":1548,"ĠÎµÏĨÎ±Ïģ":1549,"Î¼Î±ÏĦÎ¿":1550,"ĠÎŃÏīÏĤ":1551,"ĠO":1552,"Î±ÏģÎ¯Î¿Ïħ":1553,"Î¶Î¿ÏħÎ½":1554,"ĠÎºÏģÎ¯":1555,"ÏĥÎºÎµÏĦÎ±Î¹":1556,"Î»Î±Î½":1557,"ÎĳÎĿ":1558,"ÏĨÏīÎ½":1559,"ĠÎºÎ±ÏĦÎ·":1560,"ÏĥÏĥ":1561,"ĠÏĢÎ±Î¹ÏĩÎ½":1562,"Ġ15":1563,"ol":1564,"Î³ÎµÎ½":1565,"ĠÎµÏį":1566,"Î¯Î¶Î¿ÏħÎ½":1567,"eb":1568,"ÏĦÏīÏĤ":1569,"ĠÎłÏģÏĮ":1570,"ĠÎ¿ÏįÏĦÎµ":1571,"ĠÎµÏĥ":1572,"Î¿Î´Î¿":1573,"Î±Î³Î³":1574,"ĠÎºÎ±Î»Î¬":1575,"ĠÏĢÏħ":1576,"Î®ÏĥÎµÎ¹":1577,"19":1578,"10":1579,"ĠÎŃÏĩÎ¿ÏħÎ¼Îµ":1580,"Î¹Î¿Î¹":1581,"ĠÎµÏģÎ³Î±":1582,"ĠÎ±Î´":1583,"ĠÎ¯Î´Î¹Î±":1584,"ĠÎĳÎ¸Î®":1585,"Î¶ÏĮ":1586,"ÏĩÎ¹Ïĥ":1587,"Î¾Ïī":1588,"ĠÎ¼ÎµÎ³Î¬Î»Î·":1589,"Î¼ÎŃÏĤ":1590,"ÏĦÏģÎ¿Î½":1591,"ÏĦÏģÎ¹":1592,"ĠÏĮÏĥ":1593,"ĠÏĦÎ¬":1594,"ÎļÎ±Î¹":1595,"Î´ÏīÎ½":1596,"ĠÎ±Î¯":1597,"ĠÏĨÎ¹":1598,"Î¼ÎŃÎ½Î¿Î¹":1599,"ĠÏĢÎ®":1600,"ÏİÏĥÎµÎ¹":1601,"ad":1602,"ĠÏĢÎµÏģ":1603,"ĠÎ²Î»ÎŃ":1604,"ÏĩÎŃÏĤ":1605,"Î³Î¼Î±ÏĦÎ±":1606,"ĠÎ½ÎŃÎ¿":1607,"ĠÏĥÎµÎ»":1608,"ĠÎ±Î³Î¿ÏģÎ¬":1609,"ĠÏĥÏĦÎ¹Î³Î¼Î®":1610,"ĠÎµÎ¯ÏĩÎ±Î½":1611,"Î»Î»Î®":1612,"ĠÏĪÎ·":1613,"ÏİÎ½Î±":1614,"ĠÎ£ÏħÎ½":1615,"ĠÏĦÏģÎ±Î³":1616,"Î»Î¹Î¬":1617,"ÏĦÎ®ÏģÎ¹Î¿":1618,"ÎĳÏĢÏĮ":1619,"Î¼ÏīÎ½":1620,"ĠÎ£Î±":1621,"ĠÎ¿Î»Î¿":1622,"ĠÎ±ÏĨÎ¿Ïį":1623,"Î»ÎµÎ³":1624,"ĠÎºÎ±Ïģ":1625,"Î¿ÏħÏĥ":1626,"ÏĦÎ·ÎºÎµ":1627,"Î²Î¿":1628,"ÎµÏģÎ¼Î±Î½":1629,"he":1630,"ĠÎµÎ½Î´Î¹Î±":1631,"Î½Î¿Î´Î¿":1632,"ĠÏĢÎ¬Ïģ":1633,"ĠÎºÎ¹Î½Î·":1634,"ÏİÎ½ÎµÎ¹":1635,"Î»ÎµÏĤ":1636,"Îī":1637,"ĠÏĩÏģÏĮÎ½Î¿":1638,"os":1639,"ÏĥÎ±Î¼Îµ":1640,"ĠÎ³ÏħÎ½Î±":1641,"Î¼ÎµÏĥÎ±":1642,"ĠÏĨÏį":1643,"ĠÎ±Î³Î±":1644,"Î³ÎŃÎ½":1645,"ÏĥÎ¼Î±ÏĦÎ±":1646,"ĠÏĥÏī":1647,"Î»Î±Î´Î®":1648,"ĠÏĢÎ»ÎŃÎ¿Î½":1649,"ÏĢÎ¿Î¯Î·":1650,"ion":1651,"Î¶Îµ":1652,"ĠÎ´Ïħ":1653,"Î¯Î¶ÎµÏĦÎ±Î¹":1654,"Î¾Î±Î½":1655,"ĠÎºÏģÎ¬":1656,"ĠÎ³Î½Ïİ":1657,"ĠÏĨÏħ":1658,"Î½Î¿Î¼Î±":1659,"ÏģÎ¹Î¸":1660,"ÎľÎĳ":1661,"Ġe":1662,"ĠÎ³Î¯Î½ÎµÏĦÎ±Î¹":1663,"ĠÎ£Ïį":1664,"ÏĨÎ±Î½":1665,"ĠÎµÎ¯Î´":1666,"Î¹Î¿Î½":1667,"ÏĦÎŃÏģÎ±":1668,"ĠÎ±ÏħÏĦÎŃÏĤ":1669,"Î¹ÎºÎ·":1670,"ĠÎ´Ïī":1671,"ĠÎºÏħÎ²ÎŃÏģÎ½Î·ÏĥÎ·":1672,"ĠÏĮÎ»ÎµÏĤ":1673,"Î³ÏĮ":1674,"ĠÎ±Î¾Î¹Î¿":1675,"ÏĦÎ±ÏĥÎ·":1676,"Î³Î®ÏĤ":1677,"ĠÎ³ÏģÎ¬":1678,"Î¹ÏĥÎ¼ÏĮ":1679,"ÏĩÎµÎ¹Î±":1680,"ÏĦÏģÎ¿ÏĨ":1681,"ÏĥÏĩ":1682,"ÏĦÎ®ÏĥÎµÎ¹":1683,"ÏīÏĥÎ·ÏĤ":1684,"Î¹Î¿Ïį":1685,"ĠÏĨÏĮ":1686,"ĠÏĥÏĢÎ¯":1687,"ĠÎ²ÏģÎ¯ÏĥÎºÎµÏĦÎ±Î¹":1688,"ĠÎ±ÏĢÎŃ":1689,"Î»Î¿Î³Î®":1690,"ag":1691,"Î¸Î±Î½":1692,"ĠÏĨÏīÏĦÎ¿Î³ÏģÎ±ÏĨ":1693,"ĠÎ»ÏĮÎ³Ïī":1694,"Ġ12":1695,"ew":1696,"ÏħÎ¼":1697,"ÏĥÎ¯ÎµÏĤ":1698,"ÎºÎµÏĤ":1699,"Î¼ÎµÎ½Î±":1700,"ĠÏĢÎ¯Ïĥ":1701,"Î¸Ïį":1702,"ĠÎ¼ÏĢÎ¿ÏģÎ¿ÏįÎ½":1703,"ĠÎ´Î¿Ïħ":1704,"ĠÏĩÏģÎ¿Î½":1705,"Î¹ÏĥÏĦÎ±":1706,"Î¹ÏĮ":1707,"Î¡ÎŁ":1708,"ĠÎľÎ±Ïģ":1709,"ÎŃÎ½Î±":1710,"ÏĦÏħÎ½Î¿Î¼":1711,"ĠÏĩÏģÎµÎ¹":1712,"ĠÎ´ÏģÏĮ":1713,"Î¹ÎºÎ±Î½":1714,"ÎºÎŃÏĤ":1715,"Î»ÏīÎ½":1716,"ĠÎ¼Î¹Î±ÏĤ":1717,"Ġm":1718,"ÏģÎ¯Î¶ÎµÎ¹":1719,"ĠÎĺÎµÏĥÏĥÎ±":1720,"ĠÏĢÎµÏģÎ¹Î¿ÏĩÎ®":1721,"ÎºÎ±ÏĦÎ±":1722,"ÎºÏĦÎ·":1723,"ÏĩÏİ":1724,"ĠÎµÏĢÏĮ":1725,"ĠÎºÎ¿Î½":1726,"ĠÎ³ÎµÎ³Î¿Î½":1727,"ĠÎ±Î½ÏĦÎ¹Î¼Îµ":1728,"Î¼Î¹Ïĥ":1729,"ÎµÎ¹Î±ÏĤ":1730,"ĠÏĥÏĩÏĮ":1731,"Î´Î¬":1732,"ĠV":1733,"ĠÏĥÎº":1734,"Î²Î´Î¿":1735,"Î¨":1736,"ĠÎºÎ±ÏĦÎ¿":1737,"ĠÎĳÏģÏĩ":1738,"Î¬Î»Î¹":1739,"ĠÏĢÎµÏģÎ¯ÏĢÏĦÏīÏĥÎ·":1740,"ia":1741,"ĠÏĢÎ¿Î»Î»":1742,"ĠÏĥÏħÎ½Î±":1743,"ĠÏĥÎµÎ¹":1744,"Î¯ÏĥÎµÎ¹":1745,"ĠÏĥÏħÎ¼ÏĨÏīÎ½":1746,"ÏĦÎ¹ÎºÏĮÏĦÎ·ÏĦÎ±":1747,"ĠÏĦÎ·Î»Îµ":1748,"ĠÏĮÎ»Î¿ÏħÏĤ":1749,"ĠÎ´ÏħÏĥ":1750,"ÏĥÎºÎµÏħÎ®":1751,"ĠÎ¼Î¬Î»":1752,"Î½ÎµÏģÎ³":1753,"ĠÎ»Î¯Î³Î¿":1754,"ĠÎ±ÏģÎºÎµ":1755,"ÏĢÎ¿Î½":1756,"ÎŃÎ»":1757,"ĠÎ²Î¿Î·":1758,"ĠÏĥÎ±":1759,"ĠÎ¬Î»Î»Î·":1760,"ÏĢÎ»Î±":1761,"ĠÏĥÏįÎ¼ÏĨÏīÎ½Î±":1762,"Î´Î®ÏĢÎ¿ÏĦÎµ":1763,"ĠÎķÏħÏģÏİ":1764,"ĠÏĦÎŃÎ»Î¿ÏĤ":1765,"ÏĨÎŃÏģÎ¿Î½":1766,"ĠÎłÎ±ÏģÎ±":1767,"Î¼Î¹Î±":1768,"ĠÎ»Ïį":1769,"ĠÎµÎ¯ÏĢÎµ":1770,"ĠÎ¼Î¿ÏħÏĥ":1771,"ÎŃÏģÎ±":1772,"ĠÎĳÏħÏĦÏĮ":1773,"ÏĥÏĮ":1774,"Î»Î¬Î²":1775,"ĠÎŀ":1776,"ÏģÎ¬ÏĤ":1777,"ÏĦÎ¹ÎºÎ¿ÏįÏĤ":1778,"ĠÎ±Î½ÏĦÎ±":1779,"ĠÎ£Î¥":1780,"ĠÏĩÎ±ÏģÎ±ÎºÏĦÎ·":1781,"ĠÎ´ÏģÎ¬":1782,"ÏĥÏħ":1783,"ĠÎ´Î¯":1784,"Î±Î¹Î½":1785,"ĠÎ»Î¿Î¹ÏĢÏĮÎ½":1786,"ÏĥÏĦÎµÏĤ":1787,"ĠÎ¼Î¹":1788,"ĠÎ±ÏĢÎ¿ÏĦÎµÎ»ÎµÎ¯":1789,"ĠÎµÏĢÎµÎ¹":1790,"ĠÎ¼ÏĢ":1791,"ĠÎłÎµÏģÎ¹":1792,"ĠÎ±ÏĢÎ¿ÏĦÎŃ":1793,"ĠÎºÎ±ÏĦÎ·Î³Î¿":1794,"ĠÎ¿ÏģÎ³Î±Î½":1795,"ĠÎ´Î·Î¼ÏĮ":1796,"ĠÏĮÎ»Î¿Î¹":1797,"ÎºÎ»Î¿":1798,"ÏĩÎ¬":1799,"ÏĥÏĦÎ·ÎºÎµ":1800,"Î»Î¬ÏĩÎ¹Ïĥ":1801,"ÏĢÏīÎ½":1802,"Î³ÏīÎ½Î¹Ïĥ":1803,"Î¼ÎµÏĤ":1804,"ĠÎ´Î¹Î±ÏĨÎ¿":1805,"ÎķÎĽ":1806,"ÏĢÏĦÎµ":1807,"Î£ÏĦÎ¿":1808,"ĠÎŃÎ³Î¹Î½Îµ":1809,"Î»Î»Î¹":1810,"ÎĹÎĿ":1811,"ĠÏĥÏħÎ¼ÏĢ":1812,"ĠÎłÎ¿Î»Î¹":1813,"ĠÎ¤Îµ":1814,"Î¹Î¬ÏĤ":1815,"ÏĦÏģÎ¿ÏĨÎ®":1816,"Î´Î¯Î±":1817,"ĠÎ§ÏģÎ¹Ïĥ":1818,"ÎŃÎ½ÏĦÏģÎ¿":1819,"ĠÎ´ÎµÏįÏĦÎµ":1820,"ĠÏĢÏģÎ¿ÏĥÏĢÎ¬":1821,"Î¤Î¹":1822,"ĠÎµÎ¾Î±":1823,"Î¹ÏĥÎ¼Î¿Ïį":1824,"ÎµÎ´ÏģÎ¿ÏĤ":1825,"ĠÎ´ÏģÎ±":1826,"ÎŁÎļ":1827,"iv":1828,"ĠÎ¼Î±Î¸Î·":1829,"ĠÎĳÏĥ":1830,"Î¹ÎºÎ¿Î¯":1831,"ĠÎĵÎ¹":1832,"ĠÎ´Î¹Î¬ÏģÎº":1833,"Î¶ÎµÏĦÎ±Î¹":1834,"Î³Î¹Î±":1835,"Î¼ÎµÏģÎ¯":1836,"ÎłÏģÎ¹Î½":1837,"ĠÎµÎ¹ÎºÏĮ":1838,"ÏĩÎ¿ÏħÎ½":1839,"ĠÏĦÎ±Î¾":1840,"ĠÎľÎŃ":1841,"ÎºÎ±Î½Îµ":1842,"ĠÎ±Î½Î¬Î³Îº":1843,"Î¼ÎµÎ¯ÏĤ":1844,"ĠÎ¹Î´Î¹Î±":1845,"ĠÏĩÏģÎ®ÏĥÎ·":1846,"Ġf":1847,"ÏĢÎµÏģÎ¹":1848,"Î±Î¹ÏģÎµ":1849,"ĠÎ±Î½ÏĦÎ¹Îº":1850,"ĠÏĢÎ¿ÏĦÎŃ":1851,"ĠÏĥÏĦÎ¿Î¹ÏĩÎµÎ¯Î±":1852,"Î¼ÎµÏģÎ¹Î½":1853,"Î¿ÏĢ":1854,"Î¬Î½Î¹":1855,"ĠÎĺÎ±":1856,"ĠÏĩÏİÏģÎ¿":1857,"ĠÏĢÎ±ÏģÎ¿ÏħÏĥÎ¯Î±":1858,"ww":1859,"ĠÎķÎ¸Î½":1860,"ĠÏĢÎ¿Î»Ïħ":1861,"ĠÎ´Î¹ÎºÎ±Î¹":1862,"ÏĦÎ·ÏĥÎ·ÏĤ":1863,"ĠÎ¼Ïħ":1864,"ÏĦÎ®ÏģÎ¹Î±":1865,"ĠÎłÎ¿":1866,"ĠÎ´ÎµÎ´Î¿":1867,"ĠÎµÎ³Îº":1868,"Î»Î¹ÎºÎ¬":1869,"ĠÎµÎ¾ÎŃ":1870,"ÏģÏħÎ¸":1871,"ĠÎ¦Îµ":1872,"ĠÎ®Î´Î·":1873,"Ġá¼":1874,"ÏģÎµÎ¹ÏĤ":1875,"ĠK":1876,"ĠÎµÎ¸Î½":1877,"Î²Î·":1878,"ÏĨÎµÎ¹":1879,"ĠÎ¤Î¹":1880,"ĠÎ¼Î¿Î½Î±":1881,"Ġ/":1882,"ĠÎ¸Î¬":1883,"ĠÎĳÏĢ":1884,"ÎºÎµÎ¹ÏĦÎ±Î¹":1885,"Î½Î¹":1886,"ĠÎºÎ¬Î½Î¿ÏħÎ½":1887,"ÏĥÎ¼ÏĮ":1888,"ÏĨÎµÏģ":1889,"ÏĦÎ¿Î¼Î±":1890,"ÏħÎ½Î¬":1891,"ĠÎ¹Î´Î¹Î±Î¯ÏĦÎµ":1892,"ĠÎ¼Î¹Ïĥ":1893,"ĠÎµÎ²Î´Î¿":1894,"ĠÎłÎĳ":1895,"ĠÏĢÎ¿Î»Î¹ÏĦÎ¹ÎºÎ®":1896,"ÏħÏĥÎ·":1897,"Î¸Î¬":1898,"ÎĲ":1899,"Î¼Î¿ÏģÏĨ":1900,"Î·Î¸ÎµÎ¯":1901,"Î»ÏīÏĥÎ·":1902,"ÏĢÎµÎ´Î¿":1903,"Î±Î¹Î´ÎµÏħ":1904,"ĠÎ¿ÏĢÎ¿Î¯Î¿ÏĤ":1905,"ĠÎĳÏĢÎ¿":1906,"ĠÎ¾ÎŃ":1907,"Î´Î¿ÏĥÎ·":1908,"ĠÎ±Î»":1909,"ĠÎµÏĢÎŃ":1910,"ĠÏĢÏģÎ±Î³Î¼Î±ÏĦÎ¿ÏĢÎ¿Î¹":1911,"ĠÏĢÏģÏīÏĦÎ¿":1912,"ĠÎ¼ÎŃÏģÎ¿ÏĤ":1913,"ÏĦÎµÎ¿":1914,"ĠÎ·Î»ÎµÎºÏĦÏģÎ¿Î½":1915,"ĠÏĢÎµÎ¹":1916,"Î¼Î²Î±":1917,"Î´Ïī":1918,"Ġ11":1919,"ÏĦÏģÎ¹Î±":1920,"Î¶Î¿":1921,"ĠÏĢÏģÎ¿ÏĥÏĦÎ±":1922,"Î¸Î»Î·":1923,"ĠÎ¼ÏĢÎ±":1924,"ÏĢÎ»Î·":1925,"ht":1926,"ĠÏĦÎµÎ»ÎµÏħÏĦÎ±Î¯Î±":1927,"ĠÎĺÎµÏĥÏĥÎ±Î»Î¿Î½":1928,"ĠÏģÎµ":1929,"ĠÏĥÏĩÎŃÏĥÎ·":1930,"Î¿ÏħÎ»ÎµÏħ":1931,"ĠÎľÎ·":1932,"Î®ÏĥÎµÎ¹ÏĤ":1933,"Î¼Î¿Î¹":1934,"ĠÏĢÎ»Î±Î¯Ïĥ":1935,"Î¿ÏħÎ»Î¯Î¿Ïħ":1936,"ĠÎµÎ¼ÏĨÎ±Î½":1937,"ĠÎ¯Î´Î¹Î¿":1938,"Î»ÎŃÎ³":1939,"Î»Î®ÏĤ":1940,"ĠÎ±ÏĢÎ¿ÏĦÎŃÎ»ÎµÏĥÎ¼Î±":1941,"Î±Î½ÎµÏĢÎ¹Ïĥ":1942,"ĠÏĢÎ±ÏģÎ±Î³Ïī":1943,"ig":1944,"ĠÎ¿Î´Î·Î³":1945,"ÎµÎ½ÏĦÏģ":1946,"ĠÏĦÏį":1947,"ĠÎŃÎºÎ±Î½Îµ":1948,"ĠÏĦÏħ":1949,"ĠÏĢÏģÏİÏĦÎ¿":1950,"ÏĨÎµÏģÎµ":1951,"ĠÎºÎ¿Ïģ":1952,"ĠÎ½Î¿Î¼":1953,"Î¶Î®":1954,"Ìģ":1955,"ĠÏĥÏĦÎ¬":1956,"ĠÎ¹ÏĥÏĦÎ¿ÏģÎ¯Î±":1957,"Î±Î³Î³ÎµÎ»":1958,"ÎĶÎ¹Î±":1959,"ÏĥÏĦÎ¹ÎºÎ¬":1960,"ÏĥÏĦÎµÎ¯":1961,"Î»Î¿Î³ÎŃÏĤ":1962,"ÎĻÎĿ":1963,"Î¹ÎºÎ¿Î½Î¿Î¼":1964,"ÏĩÎ¿Î»":1965,"ÏİÏĥÎµÎ¹ÏĤ":1966,"ĠÏĢÎ»Î·ÏģÎ¿ÏĨÎ¿ÏģÎ¯ÎµÏĤ":1967,"mail":1968,"ĠÎµÏĨÎ±ÏģÎ¼Î¿":1969,"ĠÎ£ÏĦÎ±":1970,"ĠÎºÎ±ÏĦÎŃ":1971,"ĠÎµÎ¾Ïī":1972,"Î½ÏİÎ½":1973,"ĠÏĢÎ±ÏģÎ¿ÏħÏĥÎ¹Î¬":1974,"ÏĦÎµÏģÎ±":1975,"ÎºÎ¿Î¯Î½":1976,"Î»Î±Î¹":1977,"Î¬Î¶ÎµÏĦÎ±Î¹":1978,"Î¿ÏįÎ½ÏĦÎ±Î¹":1979,"ĠÎ´Î¹Î¬ÏģÎºÎµÎ¹Î±":1980,"Ġd":1981,"ÏĦÎ¹ÎºÎ¿Î¯":1982,"ĠÎĽÎ±":1983,"Ġ2017":1984,"Ġ--":1985,"ĠÎ¼ÎµÎ¹":1986,"ĠÎ½Î·":1987,"ĠÎ±ÏģÎ¹Î¸":1988,"ĠÏĢÏģÏĮÎ³ÏģÎ±Î¼Î¼Î±":1989,"ÏĢÎµÏģ":1990,"ĠÎ³Ïį":1991,"ĠÏĦÏģÎ¯":1992,"ĠÎ´Î¹Î±ÏĨÎ¿ÏģÎµ":1993,"ĠÎ´Î·Î»Î±Î´Î®":1994,"ÏĩÎ½Î¿":1995,"Î¹ÏĥÎ¼ÏĮÏĤ":1996,"ĠÎ±ÏĨÎ®":1997,"Î»Î®Î¼Î±ÏĦÎ±":1998,"ĠÏĩÎ¿":1999,"Î´Î¿Î½":2000,"ÏģÎ·Î¼Î±":2001,"Ġ[":2002,"ĠÎµÎ¯ÏĦÎµ":2003,"ĠÎ´ÎŃ":2004,"Ġ'":2005,"á¿":2006,"Î¯Î´ÎµÏĤ":2007,"ĠÎŃÏĩÏī":2008,"ÎķÎļ":2009,"ĠÏĮÎ»Î¿":2010,"ĠÏĢÎ±Î¯":2011,"ĠÏĢÎ±Î³":2012,"ĠÏĥÏħÎ½ÎŃÏĩÎµÎ¹Î±":2013,"ÏĢÎ±Î¯Î´":2014,"ĠÏĥÏİ":2015,"ĠÏħÏĪÎ·":2016,"us":2017,"ĠÏĥÎºÎŃ":2018,"ĠÎµÎ²Î´Î¿Î¼Î¬":2019,"Î´ÎµÎ¯":2020,"Î¯Î½ÏĦÎµÎ¿":2021,"ĠÎ¼ÎµÎ³Î¬Î»Î¿":2022,"ĠÎ¤ÎŁ":2023,"ĠJ":2024,"ĠÎ±ÏĢÏĮÏĨÎ±":2025,"ĠÎ±Ïį":2026,"30":2027,"ĠÎ±Î½Î¬ÏĢÏĦÏħ":2028,"ĠÎºÎ¬ÏĢÎ¿Î¹Î±":2029,"ĠÎŃÏĢ":2030,"ÏģÎ³Î¬Î½":2031,"ÏĨÎ±Î¹":2032,"ÏģÎ¹ÏĮ":2033,"ĠÎļÎ¬":2034,"ÎķÎĿ":2035,"Î»Î¯Î¿Ïħ":2036,"ĠÎ¥ÏĢÎ¿ÏħÏģÎ³":2037,"ĠÏĥÏĩÎµÏĦÎ¹ÎºÎ¬":2038,"Ïĭ":2039,"ÏģÎ±ÏĥÎ·":2040,"ĠÏĢÎ¯":2041,"ĠÏĢÏģÎ¿Î·Î³":2042,"ÏĩÎµÏĦÎµ":2043,"ĠÎ±ÎºÏģÎ¹":2044,"Î¿Î»Î¿Ïħ":2045,"ÎºÏĮÏĤ":2046,"ĠÏĢÎ¿Î»Î»ÎŃÏĤ":2047,"ĠÏĨÎ¿ÏģÎŃÏĤ":2048,"Î´Î¹ÎºÏĮ":2049,"Î¾Î±":2050,"ec":2051,"ÏĦÎµÏĩÎ½":2052,"ĠÏĢÎµÏģÎ¹ÏĥÏĥÏĮÏĦÎµÏģÎ¿":2053,"ĠÎºÎ¬ÏĦÏī":2054,"ĠÎ´Î¹Î±Î¸ÎŃ":2055,"ĠÎ¤Î¿ÏħÏģÎº":2056,"ĠÎ¸ÎŃÎ»":2057,"Î¾Î¿ÏħÎ½":2058,"ĠÏĩÏİÏģÎ±ÏĤ":2059,"ÏĦÏģÎµ":2060,"ĠÎ±Î»Î»Î±Î³":2061,"ĠÏģÏĮ":2062,"ĠÎ±ÏĢÎ±Î¹":2063,"ÏģÎ¯ÏīÏĤ":2064,"ĠÎ»ÎŃÎµÎ¹":2065,"ĠÎĳÎ¸Î®Î½Î±":2066,"Î¼Î¼Î±ÏĦÎ±":2067,"Î¬Î½ÏĦÎ·ÏĥÎ·":2068,"Î¯Î´Î¹Î±":2069,"ĠÏĢÎ±ÏģÎµ":2070,"ÏģÎ±Î¯":2071,"ĠÎľÎ¬":2072,"op":2073,"ĠÎķÎ»Î»Î¬Î´Î±ÏĤ":2074,"ĠÏĥÏĢÎ¯ÏĦÎ¹":2075,"ĠÏİÏģÎµÏĤ":2076,"ÏĥÎ¿Ïħ":2077,"ÏģÎ¹ÏĥÏĦÎµ":2078,"Î¼ÎµÎ½":2079,"Î²Î¬Î»Î»Î¿Î½":2080,"ĠÏĦÎ¿ÏĢÎ¿":2081,"ÎĻÎ£":2082,"ÏģÎ¹Î±ÎºÎ®":2083,"Î£ÏĦÎ·Î½":2084,"ebook":2085,"ÏģÏĮÎ½":2086,"ĠÎ±ÎµÏģÎ¿":2087,"ĠÏĥÏħÎ¼Î¼ÎµÏĦÎ¿":2088,"ĠÏĢÎµÏģÎ¯ÏĢÎ¿Ïħ":2089,"ÏģÎ½":2090,"Î´Î¯":2091,"ÎµÏħÏĥÎ·":2092,"ÎºÎ¹Î½Î®":2093,"ÏĦÎ¯Î¿Ïħ":2094,"Î²Î¿Î»Î®":2095,"ĠÎ²Î¬ÏĥÎ·":2096,"ĠÎ·Î»Î¹Îº":2097,"ir":2098,"Î³ÎºÎ±":2099,"ĠÎ¼ÎµÎ³Î¬Î»":2100,"ÏģÏħÏĥ":2101,"ÏĥÏĦÎ±Î½":2102,"Î³Î³ÎµÎ»":2103,"ÏĩÎ±ÏģÎ¹Ïĥ":2104,"Ġ30":2105,"ÏĥÎµÎ»":2106,"ĠÏĢÏģÏĮÎ²":2107,"ĠÎµÎºÏĦÏĮÏĤ":2108,"Î¼ÎµÎ½Î·":2109,"ĠÏĢÎ»ÎµÏħ":2110,"Î½ÎµÏĦÎ±Î¹":2111,"ÏĥÏĦÏĮÏĥÎ¿":2112,"ĠÎ³Î¹":2113,"ĠÎłÎ±Î½Î±":2114,"\".":2115,"Î¼Î¿Î¯":2116,"est":2117,"ĠÏĦÎ¿ÏĢ":2118,"ÏĦÎµÎ¯Î±":2119,"ÏĨÏį":2120,"Ġ25":2121,"acebook":2122,"of":2123,"Î»ÎµÏįÎ¸Îµ":2124,"12":2125,"ÏĦÏģÏĮ":2126,"Î¼Î¿ÏħÏĤ":2127,"ĠÎ¼Î®Î½ÎµÏĤ":2128,"ĠÎ±Î¹Ïĥ":2129,"Î»Î¹ÏĤ":2130,"Î½Î¿ÏįÏĤ":2131,"ÏĮÏĦÎµÏģÎ±":2132,"ÏĩÎ¿ÏħÏĤ":2133,"Î»Î¿Î¯":2134,"ĠÏħÏĢ":2135,"ÎĳÏĢÎ¿":2136,"ĠÎºÎ±Î¸Î·Î¼ÎµÏģÎ¹Î½":2137,"Î¶Î®ÏĦÎ·ÏĥÎ·":2138,"ĠÎºÎ±ÏĦÎ¬ÏĥÏĦÎ±ÏĥÎ·":2139,"ÏģÎ¹ÎºÎ®":2140,"ĠÏĢÏģÎ¿ÎŃ":2141,"Î¶Î±":2142,"ĠÏĨÎ±Î½":2143,"ĠÏĢÎ¯ÏĥÏī":2144,"ĠÏĮÎ»Î·":2145,"ĠÎĵÎµÎ½":2146,"Î¸ÏħÎ½ÏĥÎ·":2147,"ĠÏĢÏģÎ¿ÎºÎ±":2148,"ews":2149,"ur":2150,"ÏĦÏĥÎ±":2151,"ĠÎ¼ÎŃÏģÎ±":2152,"ĠÎµÎ½ÎµÏģÎ³":2153,"ÎºÎ¿Î»Î¿Ïħ":2154,"ÏģÎ±Î¹":2155,"ÏģÏĩÎµÏĦÎ±Î¹":2156,"Î»Î»ÎµÎ¹":2157,"ÏģÎ¹ÏİÎ½":2158,"ĠÎ¾ÎµÎ½Î¿Î´Î¿":2159,"Î¤Î·Î½":2160,"ĠÎ¶ÏīÎ®ÏĤ":2161,"ÏĦÎµÏģÎ¿":2162,"Î¿Î¹ÏģÎ±":2163,"ĠÎ±ÏĨÎ¿ÏģÎ¬":2164,"ĠÏĨÎ¬":2165,"ay":2166,"ÎķÎ¯Î½Î±Î¹":2167,"ĠÎ·Î¼Îµ":2168,"ĠÎŃÏģÎµ":2169,"ĠÏĦÎŃÏĦÎ¿":2170,"ÎºÏĮÏĥÎ¼":2171,"Î®Î¼Î±":2172,"ÎĿÎ±":2173,"ĠÏħÏĢÎ®":2174,"ÎµÏģÎ³":2175,"ÏĦÏģÎ¿ÏĢÎ®":2176,"ÏĢÎ¿ÏħÎ»Î¿ÏĤ":2177,"ĠÎ£ÏĦÎ¿":2178,"Î¶Î±Î½":2179,"and":2180,"ĠÎĻÏĥ":2181,"Î»Î»Î¿Î½":2182,"Î´Ïį":2183,"ĠÏĥÏįÏĥÏĦÎ·Î¼Î±":2184,"ĠÎ±Î½Î±ÎºÎ¿Î¯Î½":2185,"Î¬ÏĤ":2186,"ĠÏĥÏĩÏĮÎ»Î¹Î±":2187,"ÎĳÏħ":2188,"ĠÎµÎ½ÎŃÏģÎ³":2189,"ĠÎ±ÎºÎ¿Î»Î¿Ïħ":2190,"ÏģÎµÎ¯ÏĦÎµ":2191,"ĠÎ´Î·Î¼Î¿ÏĥÎ¹":2192,"ĠÎ¿Î¹ÎºÎ¿Î³ÎŃÎ½":2193,"ĠÎļÎĳÎĻ":2194,"ÏĦÏĤ":2195,"ĠÎºÏħÏģÎ¯ÏīÏĤ":2196,"ĠÎłÎ¬":2197,"ĠÎ´Î¹ÎµÏħ":2198,"ĠÎ¼Î¿Ïģ":2199,"ÏĦÎ¹Î¿":2200,"im":2201,"ĠÏĢÏģÎ¬Î³Î¼Î±ÏĦÎ±":2202,"ĠÎ¬Î»Î»ÎµÏĤ":2203,"ÎĽÎĳ":2204,"ĠÎ¬ÏģÎ¸ÏģÎ¿":2205,"ĠÎºÎ±Î½ÎµÎ¯ÏĤ":2206,"ĠÎ±ÎºÏģÎ¹Î²":2207,"ÏĦÏģÎ¬":2208,"ĠÎ¼Î·ÏĩÎ±Î½":2209,"ĠÏĦÎ±Î¹Î½":2210,"ĠÎ±ÏĥÏĦÏħÎ½Î¿Î¼":2211,"ĠÏĨÎ¹Î»Î¿":2212,"Î»ÎŃÏĤ":2213,"ĠÎ±ÏĢÎ¿ÎºÎ±":2214,"Î»Î»Î·Î½ÎµÏĤ":2215,"Î±Î½Î¿Ïħ":2216,"ĠÎ²ÏģÎ¯ÏĥÎº":2217,"Ġ14":2218,"ÏģÎ¹ÏĥÎ·":2219,"ÏģÎ®ÏĥÎµÎ¹ÏĤ":2220,"ÏĩÎµÎ¯Î¿":2221,"ĠÎºÎ¿Î¹Î½ÏĮ":2222,"ĠÎŁÎº":2223,"ÏģÎ¯ÏīÎ½":2224,"ĠÎĵÎµ":2225,"ĠÏĢÎ¹Î¸Î±Î½":2226,"Î±Î¯":2227,"ĠÎķÏħÏģÏīÏĢÎ±ÏĬ":2228,"Î´ÏĮÎ½":2229,"ent":2230,"ĠÎĴÎ±Ïĥ":2231,"ÏģÎ±ÏĢÎµ":2232,"Ġ24":2233,"ĠÎ¿ÏģÎ¹Ïĥ":2234,"ĠÎºÎ±Î»Î¿":2235,"ĠÏĨÎ¹Î»":2236,"Î¹Î½Î¬":2237,"Î¸Î·ÏĥÎ·":2238,"Î³Î¿Ïį":2239,"Î¾Î¿":2240,"Î·Î¼Î±":2241,"ĠÎµÏĢÎ¹ÎºÎ¿Î¹Î½ÏīÎ½":2242,"ĠÎ¸Ïħ":2243,"ĠÏĩÎ±ÏģÎ±ÎºÏĦÎ·ÏģÎ¹Ïĥ":2244,"ĠÎī":2245,"ĠÏħÎ³Îµ":2246,"ĠÎĹÎłÎĳ":2247,"ÏĩÎ¿Ïħ":2248,"ÎºÎ¿Î¹":2249,"ĠÎµÎ³Ïİ":2250,"ĠÎŃÏģÎ³Î¿":2251,"Î²ÏģÎ¿Ïħ":2252,"ĠÎ£ÏħÎ¼Î²":2253,"ĠÏħÏĢÎ¿Ïĩ":2254,"ĠÎŃÎ´":2255,"Î®ÏĨ":2256,"ÎºÏį":2257,"Î¼Î¹Î¿":2258,"ĠÎµÏģÏī":2259,"ÏĨÎ·Î¼ÎµÏģÎ¯":2260,"ÏĦÏģÎ¿ÏĢ":2261,"ĠÎºÎ±Î¸Î±":2262,"Î¸ÎŃÏĥÎµÎ¹ÏĤ":2263,"ĠÎ±ÏģÎ³":2264,"ĠÂ»":2265,"ĠÏĢÏģÎ¿ÏĥÏĢÎ±":2266,"ide":2267,"Î½ÎµÏį":2268,"ÏĦÎ¹ÏĥÎ¼Î¿Ïį":2269,"ĠÏĥÎ·Î¼ÎµÎ¹":2270,"Î»ÏħÎ¼ÏĢ":2271,"ĠÏĮÎ»ÏīÎ½":2272,"ĠÏĦÎ¿Ïį":2273,"ĠÎ¹":2274,"Î¼ÎµÎ½Î¿Î¹":2275,"ÏĨÎ¯":2276,"ĠÎłÎŃ":2277,"ĠÎ³ÎµÎ³Î¿Î½ÏĮÏĤ":2278,"Ġ17":2279,"ĠÏĢÎŃÏģÎ±":2280,"ĠÎ´Î¿ÏħÎ»ÎµÎ¹":2281,"Ġ16":2282,"Î¼Î·ÏĤ":2283,"Î®Î¸Î·ÎºÎµ":2284,"ÏĥÏīÏĦÎµÏģ":2285,"Î¼Î¿ÎºÏģÎ±":2286,"ĠÎµÎºÏĢÎ±Î¹Î´ÎµÏħ":2287,"un":2288,"11":2289,"ĠÎ±ÏĢÏĮÏĨÎ±ÏĥÎ·":2290,"ÏĢÎ¿ÏĦÎ±":2291,"Î¶Î¹":2292,"ÏģÎ¬ÏĢÎµÎ¶":2293,"ĠÎ¸ÎµÏģ":2294,"ĠÎ²Î¹Î¿":2295,"ĠÎºÎ¿Î¼":2296,"ĠÎºÎ¯Î½":2297,"ĠÏĢÎµÏģÎ¹ÏĥÏĥÏĮÏĦÎµÏģÎ±":2298,"ÏĦÎ·ÏĥÎµ":2299,"ÏģÎ¹ÎºÎ¬":2300,"Î»Î»Î¿Î³":2301,"ĠÎµÏĦÏİÎ½":2302,"Î¯Î´Î±ÏĤ":2303,"Î±Î³Ïī":2304,"ĠÎĳÎ¼ÎµÏģ":2305,"ch":2306,"ÏĥÏĦÎ¿Î»Î®":2307,"ÏĥÏĦÎµÎ¯ÏĦÎµ":2308,"ĠÎµÏįÎºÎ¿":2309,"ĠÎ²ÏģÎ¬":2310,"ĠÎĵÎµÏģÎ¼Î±Î½":2311,"Ġ13":2312,"ÏĥÎ¹ÏİÎ½":2313,"Î»ÏİÏĥÎµÎ¹ÏĤ":2314,"ĠÎ¼Î¹ÎºÏģÏĮ":2315,"ĠÎ§Î±":2316,"ÏĮÏĦÎ·ÏĦÎ±ÏĤ":2317,"ĠÎ±Î³ÏİÎ½Î±":2318,"ĠÎĳÎ¹":2319,"ĠÎķÏĢ":2320,"Î¹Î½Î±Î¹":2321,"ÏĥÏĨÎ±Î¹":2322,"ĠÎ¼Î®Î½":2323,"Î¯ÏīÏĥÎ·":2324,"ÎĳÏħÏĦÏĮ":2325,"ĠÎ©":2326,"\",":2327,"ÎłÎķ":2328,"ĠÏĨÎ±Î¯Î½ÎµÏĦÎ±Î¹":2329,"ĠÏĢÏİÏĤ":2330,"ĠÎµÎ½Î·Î¼ÎŃ":2331,"Î¸ÏħÏĢÎ¿ÏħÏģÎ³":2332,"ĠÏĢÏģÏĮÎ²Î»Î·Î¼Î±":2333,"ĠÎµÎ¯ÏĩÎ±":2334,"ĠÏĥÏħÎ½ÏĦÎ±":2335,"ĠÎłÏģÏī":2336,"ÏĦÎ¬Ïģ":2337,"ÏĥÏĥÎµ":2338,"ÏģÎµÏĦÎ±Î¹":2339,"ĠÎ£Î¬":2340,"ĠÎ¹ÏĥÏĩÏħ":2341,"ĠÏĢÎ»Î±Î¯ÏĥÎ¹Î¿":2342,"ine":2343,"ĠÎ»ÏĮÎ³Î¿":2344,"ÏĥÎµÏĤ":2345,"ÎĺÎ±":2346,"ÏĦÎ¿ÏįÎ¼Îµ":2347,"ÎºÎµÎ¹Î¼ÎŃÎ½Î¿Ïħ":2348,"ÏģÎ¹Î¿ÏĤ":2349,"ĠÎºÏħÎºÎ»Î¿":2350,"ĠÎ³Î±":2351,"ÏĢÎ¯ÏĥÎ·ÏĤ":2352,"ĠÏĪÏħ":2353,"ap":2354,"ĠÎ¬Î½Î¸ÏģÏīÏĢÎ¿Î¹":2355,"ÏĢÎ¹Î±":2356,"Î»Î¹ÎºÏĮ":2357,"Î¡ÎĻÎĸ":2358,"Î¼Î¼Î±ÏĦÎ¿ÏĤ":2359,"ĠÏĢÏī":2360,"ÎķÎ³":2361,"ĠÎ±ÏĢÎ¿ÏĦÎµÎ»ÎŃ":2362,"ÎłÎµ":2363,"ÏĪÎ·ÏĤ":2364,"ĠÏĨÎŃÏģ":2365,"ĠÏĥÎµÎ»Î¯Î´Î±":2366,"ĠÎµÏĢÎ±Î½Î±":2367,"ĠÎºÎ¿Î½ÏĦÎ¬":2368,"ĠÎ´ÏģÎ±ÏĥÏĦÎ·":2369,"Î¼ÎµÎ½Î¿ÏĤ":2370,"ÏĦÎ¯ÎµÏĤ":2371,"ĠÎĻÎ±Î½Î¿Ïħ":2372,"ÏĢÏģÏĮ":2373,"ÎłÎ¿":2374,"ĠÎ³Î¿Î½":2375,"ĠÎµÏĢÎµÎ¹Î´Î®":2376,"ÏĦÏİÏĥÎµÎ¹ÏĤ":2377,"ÏģÎŃÏĤ":2378,"ÏĥÎ¿Î½":2379,"ĠÎ¿ÏĢÎ¿Î¯ÎµÏĤ":2380,"ÏĦÎ¿ÏħÎ½":2381,"ĠÎ¿ÏĦÎ¹":2382,"ĠÎ²ÏģÎ±":2383,"Î¹Î»Î¹Î¬":2384,"um":2385,"ĠÎ¤ÎŁÎ¥":2386,"ĠÎļÏįÏĢ":2387,"ĠÏĢÏģÏĮÏĥÏī":2388,"ÏĥÏĦÎ¬ÏĥÎµÎ¹ÏĤ":2389,"Î¹ÏİÏģÎ³":2390,"ĠÎµÏħÎºÎ±Î¹":2391,"Î²Î±Ïĥ":2392,"ÎºÎ¿ÏĤ":2393,"ĠÏĨÏĦÎ¬":2394,"ÏĩÎ¸ÎµÎ¯":2395,"ÏĨÏģÎ¬":2396,"ĠÎĿÎĳ":2397,"Î¼ÎŃÎ½Î¿ÏħÏĤ":2398,"ÏĦÎ·Î¼Î±":2399,"ÏĦÎ®ÏģÎ¹":2400,"Î±ÏħÏĦÏĮ":2401,"ĠÎ±ÏħÏĦÏĮÏĤ":2402,"ĠÎ´ÏħÎ¿":2403,"Î²Î²Î±":2404,"ĠÎ´Î®Î»Ïī":2405,"ĠÎµÎ½Î±":2406,"ÏģÏīÎ¼Î±":2407,"ĠÎĵÎ±":2408,"ĠÎµÎ½Î·Î¼Îµ":2409,"ĠÎ±ÏĢÎ±Î½":2410,"com":2411,"ĠÏĢÎ¬Î»Î¹":2412,"ĠÎ¼Î¬Î»Î¹ÏĥÏĦÎ±":2413,"ÏģÏīÏĥÎ·ÏĤ":2414,"ĠÎºÏħÎ²ÎµÏģ":2415,"ÏĦÎ¹ÏĤ":2416,"ĠÎºÏģÎ¹":2417,"ĠÏĢÏģÎ¿Î²Î»Î®Î¼Î±ÏĦÎ±":2418,"ÎŁÎĽ":2419,"ĠÏģÎ¿":2420,"ĠÎ´Î·Î¼Î¿ÏĥÎ¹Î¿":2421,"ĠÏĢÏĮÎ»Î·":2422,"ĠÏĥÏħÎ¼ÏĢÎµÏģÎ¹":2423,"Î¯ÎºÎµÏĤ":2424,"ÎļÎĳ":2425,"Î¸Î·Î¼Î±":2426,"ĠÎ¦ÎµÎ²ÏģÎ¿Ïħ":2427,"ĠÎºÎ±ÏĦÎ±Ïĥ":2428,"ĠÎ¯Ïĥ":2429,"ĠÎ¸ÎŃÎ¼Î±ÏĦÎ±":2430,"ÏģÎ¯Î¶Î¿ÏħÎ½":2431,"ÎŁÎĿ":2432,"ĠâĢ¦":2433,"ÎĳÏģÏĩ":2434,"ĠÎ´Ïİ":2435,"Î±ÏĥÎ¯Î±ÏĤ":2436,"ĠÎµÎ¼ÏĢÎµÎ¹":2437,"ÎºÎµÎ´Î¿Î½":2438,"ĠÎ¹ÏĥÏĩÏį":2439,"Î¸ÏĮ":2440,"ĠÎµÎ¯Î¼Î±ÏĥÏĦÎµ":2441,"ĠÎ±Î½ÏĦÎ¹Î¼ÎµÏĦÏī":2442,"ĠÏĢÎ±Î¹ÏĩÎ½Î¯Î´Î¹":2443,"ĠÎ±ÎºÎ¿Ïį":2444,"ĠÎ·Î¼ÎŃÏģÎµÏĤ":2445,"ĠÎ²ÎµÎ»":2446,"ÏĥÏĦÎ¿Ïħ":2447,"Î¤ÎĻÎļ":2448,"ĠÏĥÎµÎ¹ÏģÎ¬":2449,"ĠÎµÎ¹Î½Î±Î¹":2450,"ĠÎĪÎ»Î»Î·Î½ÎµÏĤ":2451,"ÏĢÎ¬Î½Ïī":2452,"Î²Î±Î½":2453,"ĠÎŁÎ»ÏħÎ¼ÏĢ":2454,"ĠÎµÏģÎ³Î±ÏĥÎ¯Î±ÏĤ":2455,"ĠÎºÎµÏģ":2456,"ĠÎ¾ÎŃÏģ":2457,"ĠÏħÏĢÎµÏģ":2458,"Î£Ïį":2459,"ĠÎ¼ÎŃÏģÎµÏĤ":2460,"ĠÎ´Î¹Î¬ÏĨÎ¿":2461,"ÏĦÎ®Î¼Î±ÏĦÎ±":2462,"Î¤ÎĹ":2463,"ĠÎµÏĢÎ±":2464,"Î¯ÎºÎ±":2465,"ĠÏĢÏģÎ¿ÎºÎµÎ¹Î¼ÎŃÎ½Î¿Ïħ":2466,"Î¯Î³Î¿Ïħ":2467,"ĠÎ¿Î»Î¿ÎºÎ»Î·":2468,"ĠÎļÎ¹":2469,"ĠÎµÏĢÎµ":2470,"ÏħÏĢ":2471,"ĠÎŁÎ¹ÎºÎ¿Î½Î¿Î¼":2472,"Î³ÎµÏĤ":2473,"ÏīÎ¸ÎµÎ¯":2474,"ĠFacebook":2475,"ik":2476,"ÏĦÎ¹ÏĥÎ¼ÏĮ":2477,"ĠBlog":2478,"Î©Î£":2479,"ĠÎĶÎ¹":2480,"Î¼Î¹ÏĥÎ·":2481,"ĠÎ¬Î»Î»ÏīÎ½":2482,"ĠÏĢÎ¿Î»Î¯":2483,"ĠÎºÎ±Î»ÏĮ":2484,"ÏĦÎ®Î¸Î·ÎºÎµ":2485,"Î¯ÎºÎ·ÏĤ":2486,"ÏĥÎ¬":2487,"Î»ÎµÏħÎ¸Îµ":2488,"ĠÎ±Î½Î®":2489,"ĠÎ¸ÎŃÎ»ÎµÎ¹":2490,"ĠÎ´ÎµÎ¯ÏĩÎ½":2491,"Î»Î¯Î±ÏĤ":2492,"ĠÏĦÎ¯ÏĦ":2493,"ĠÎŃÏĥ":2494,"ÏĦÎ¿Î¼Î¼":2495,"Î¿Î¹ÏģÎ±ÏĥÏĦÎµÎ¯ÏĦÎµ":2496,"Î¸Î¹":2497,"Î¶Î¿Î½ÏĦÎ±Î¹":2498,"ĠÎ´Î¹Î±Î´Î¹ÎºÎ±ÏĥÎ¯Î±":2499,"ÎºÎµÎ¼Î²ÏģÎ¯Î¿Ïħ":2500,"Î»Î»Î·Î»Î±":2501,"Î»Î¿Î³Î¯Î±ÏĤ":2502,"ĠÎ¼ÎŃÏĦÏģÎ±":2503,"ÏģÎ¹ÎºÏĮ":2504,"18":2505,"ÏĩÏģÎ¿Î½":2506,"ĠÏĥÎ·Î¼Î±Î½ÏĦÎ¹ÎºÏĮ":2507,"Î¼ÎµÎ¯Î¿":2508,"ÎŃÎ²Î±Î¹":2509,"Î»ÎµÎ¹Î±":2510,"ĠÎĳÎ¸Î·":2511,"ÏĢÎ¿Î¹Î·":2512,"Î»Î¬ÏĩÎ¹ÏĥÏĦÎ¿Î½":2513,"ĠÎµÏĢÎ±Î³Î³ÎµÎ»":2514,"ÏĦÏħÏĩÎ¯Î±":2515,"ĠÎ·Î¼ÎŃÏģÎ±":2516,"ĠÎļÎĳ":2517,"ĠÎ¼ÏĢÎ¿ÏģÎµÎ¯ÏĦÎµ":2518,"ĠÎµÎ»Î»Î·Î½Î¹ÎºÎ®":2519,"ĠÏĦÎ¼Î®":2520,"ÏĦÎ¬ÏĥÎµÎ¹ÏĤ":2521,"ĠÎ¶Î®ÏĦÎ·":2522,"ĠÏĦÎ¿ÏĢÎ¿Î¸Îµ":2523,"ĠÏĨÎŃ":2524,"ĠÎµÎ½Î´Î¹Î±ÏĨÎŃÏģÎ¿Î½":2525,"ÎķÎº":2526,"Î·Î³Î®":2527,"ÏĢÏĦÎµÎ¼Î²ÏģÎ¯Î¿Ïħ":2528,"ÏĥÎ¯ÏĢ":2529,"ies":2530,"ÏĮÏĦÎ¹":2531,"ĠÎĶÎ·Î¼Î¿ÎºÏģÎ±":2532,"ĠÏĩÏģÎŃ":2533,"Î¡ÎĻÎĸÎĳ":2534,"ĠÎµÏĢÎ¹Î²":2535,"ĠÎºÎ¿ÏģÏħ":2536,"Î¼Î®ÏĤ":2537,"ÏĨÎŃÏĤ":2538,"ĠÎ´ÏĮ":2539,"âĤ":2540,"ĠÏĨÎ¿ÏģÎ¿":2541,"ĠÎºÎ¬ÏĢÎ¿Î¹":2542,"ĠÎ£ÏĦÎ·Î½":2543,"âĤ¬":2544,"ĠÎµÎ¾ÏīÏĦÎµÏģ":2545,"ÏĦÎ¿Î¯":2546,"ĠÎķÏħÏģÏİÏĢÎ·":2547,"ĠÎ¼ÏĢÏģÎ¿":2548,"ĠÏĢÏģÎ¿Ïĭ":2549,"ĠÎ³Î¬":2550,"ĠÎļÏĮ":2551,"ÏĥÏīÏĤ":2552,"ĠÎ¼ÎŃÎ»Î·":2553,"ĠÎ§ÏģÎ®":2554,"ĠÎºÎ±Î»Î®":2555,"ĠÏĪÏħÏĩ":2556,"ĠÎĶÎµÎºÎµÎ¼Î²ÏģÎ¯Î¿Ïħ":2557,"ĠÎ´ÏħÎ½Î¬":2558,"ÏĨÎ¿ÏĤ":2559,"ĠSt":2560,"ÏĥÏĦÎ¹ÎºÎ®":2561,"Î»ÎµÎ¹Î¿":2562,"Ġ2016":2563,"ĠÏĮÏĥÎ±":2564,"ow":2565,"Î¯Î¶Ïī":2566,"ĠÎłÎ±ÏĢÎ±":2567,"Î²Î±ÏĥÎ·":2568,"Î´Î¹ÎºÎ®":2569,"ĠÎŃÏĩÎµÏĦÎµ":2570,"ĠÎ¨":2571,"ĠÏĦÏģÎŃ":2572,"Î¹Î½ÏĮ":2573,"Î¯ÎºÏĦÏħ":2574,"ÏĥÏĦÎ¿Î¹":2575,"ÏĥÎ¯Î¿Ïħ":2576,"ĠÎ´ÎµÎºÎ±":2577,"ort":2578,"ĠÎµÏĢÎ±Î³Î³ÎµÎ»Î¼Î±":2579,"ĠÎķÎ½":2580,"ĠÏĢÎ±ÏģÎ±ÏĢÎ¬Î½Ïī":2581,"Î¹Î±ÏĤ":2582,"ÏĥÎµÏīÏĤ":2583,"ĠÎ²Î¹Î²Î»":2584,"ĠÎ¼Î®Î½ÏħÎ¼Î±":2585,"ĠÎ±Î»Î®":2586,"ĠÎ±ÏĥÏĨÎ±Î»":2587,"ĠÎ£ÎµÏĢÏĦÎµÎ¼Î²ÏģÎ¯Î¿Ïħ":2588,"ĠÎ±ÏħÏĦÎ¿ÏįÏĤ":2589,"ĠÏĢÎ±Î¹Î´Î¯":2590,"ĠÎłÎ±Î½ÎµÏĢÎ¹Ïĥ":2591,"Ġ21":2592,"ĠÏĢÎ¹ÏĥÏĦÎµÏį":2593,"Î¼ÎŃÎ½Î·ÏĤ":2594,"ĠÎŃÎ»ÎµÎ³":2595,"ĠÏĦÏģÎµÎ¹ÏĤ":2596,"ĠÏģÏħÎ¸":2597,"ĠÎ´Î¹Î±ÏĢ":2598,"Î²Î²Î±ÏĦÎ¿":2599,"ĠÎĵÎ¹ÏİÏģÎ³":2600,"ĠÎķÎĽ":2601,"ĠÎĳÎĿ":2602,"ĠÎ»ÎµÏĢÏĦÎ¬":2603,"ĠÏĥÏħÏĩÎ½":2604,"ÏĢÎ·ÏĤ":2605,"ÏĨÎ¿ÏģÎŃÏĤ":2606,"ĠÎ´ÏįÏĥÎºÎ¿":2607,"ÏĨÎµÎ¯":2608,"ĠÎ±ÏħÏĦÎ®Î½":2609,"ĠÏĢÎ»Î¬":2610,"ĠÏĥÎ·Î¼Î±Î¯Î½ÎµÎ¹":2611,"ĠÎ£Î¥Î¡ÎĻÎĸÎĳ":2612,"ÏĨÎ¬":2613,"art":2614,"ĠÎ²Î¬ÏģÎ¿ÏĤ":2615,"Î¼ÏĢÎ¬":2616,"Î¸Ïİ":2617,"ĠU":2618,"ut":2619,"ĠÎĿÎŃ":2620,"ĠÏħÏĢÎŃ":2621,"ÏĢÎ±Ïģ":2622,"ĠÎ´ÏħÎ½Î±ÏĦÏĮÏĦÎ·ÏĦÎ±":2623,"ĠÎ±Î³ÏīÎ½Î¹Ïĥ":2624,"ĠÎµÎ¯Î¼Î±Î¹":2625,"ess":2626,"ÏĥÏĦÎ®ÏģÎ¹":2627,"ĠÎ±ÏĢÎ»Î¬":2628,"Ġl":2629,"ĠÎµÎ¼ÏĢÎ¿":2630,"ĠÏħÏĢÎ¿Î»Î¿Î³":2631,"ĠÎ²ÏģÎµ":2632,"ĠÏĥÏįÎ³":2633,"ÏĪÎ¿ÏħÎ½":2634,"ĠÎµÎ½ÏĦÎ¿":2635,"ĠÎĿÎŃÎ±":2636,"Î³Î½Ïİ":2637,"ÎºÏģ":2638,"ÎľÎ±":2639,"ĠÏĩÏİÏģÎµÏĤ":2640,"ĠÎ´Î¹Î±ÎºÎ¿":2641,"ĠÏĦÎµÏĩÎ½":2642,"ĠÎ¿Î»ÏĮ":2643,"ĠÏĩÎ±Î¼Î·":2644,"ĠÏĩÏģÏİ":2645,"ĠÎ¼Î½Î·":2646,"Î´Î·ÏĤ":2647,"oc":2648,"ÏĦÎ¹Ïī":2649,"ĠÎŃÏģÎµÏħÎ½Î±":2650,"Î¸Î®ÎºÎµÏĤ":2651,"ĠÎĵÎ¹Î¬Î½":2652,"Ġ*":2653,"Î´ÎµÎ¹Îº":2654,"ĠÎĳÎ»":2655,"Î¯Î¶Î¿Î½ÏĦÎ±Î¹":2656,"Î¿ÏħÏĥÎ±":2657,"ĠÎ±Î³Î¬":2658,"Î²Î¹":2659,"Î¼Î¹ÎºÏĮ":2660,"ĠÎľÏĢÎ¿":2661,"ÎĶÎ·":2662,"ÏīÎ½ÏĥÏĦÎ±Î½":2663,"Î¼Î·ÏĥÎ·":2664,"ĠÎ¿Î¼Î¿":2665,"ĠÎ´ÏįÎ½Î±":2666,"ÏĮÏģ":2667,"ÎĬ":2668,"ĠÏĥÎ·Î¼ÎµÎ¯Î¿":2669,"ÏĦÏģÎ¯":2670,"ÏĥÎ¿ÎºÎ¿":2671,"Î»ÎµÎ¯Î±":2672,"ĠÎ¹ÏĥÏĦÎ¿ÏĥÎµÎ»":2673,"ĠÎĻÎ±Î½Î¿ÏħÎ±ÏģÎ¯Î¿Ïħ":2674,"ÏģÎ¿ÏįÏĤ":2675,"ĠÎµÏĢÎ¹ÏĥÎºÎŃ":2676,"Î¼ÏĢÎ±":2677,"ÏĥÏĦÏİÎ½":2678,"ĠÏħÏĢÏĮÎ»Î¿Î¹":2679,"Î±Î¹Ïĥ":2680,"ĠÎ±ÏģÏĩÎ®":2681,"ĠÏĦÎµÏĩÎ½Î¿":2682,"ÏĮÏĦÎµÏģÎ¿":2683,"Î½Î¿ÏįÎ½":2684,"Î¿ÏįÎ»Î¹Î¿":2685,"ĠÎĶÎ¹Îº":2686,"50":2687,"ĠÏĥÏĦÎŃ":2688,"ÏģÎ·ÏĥÎ·ÏĤ":2689,"ĠÎ¦ÎµÎ²ÏģÎ¿ÏħÎ±ÏģÎ¯Î¿Ïħ":2690,"Î»Î±Îº":2691,"ĠÎŃÏĩÎµÎ¹ÏĤ":2692,"ue":2693,"ĠÎŃÏĨ":2694,"ĠÎµÎ»ÎŃÎ³":2695,"Î±ÏģÎ¹Î±":2696,"Î¶ÏĮÎ¼Îµ":2697,"Ġ100":2698,"ÏĦÏīÎ²":2699,"ĠÎĶÎµÏħ":2700,"ÏĦÎ¹Î½":2701,"ĠÎ¾Î±Î½Î±":2702,"ĠÏħÏĢÎ¿ÏĩÏģÎµ":2703,"Î¼ÎŃÎ½ÎµÎ¹":2704,"ĠÎ±Î½Î¸ÏģÏİÏĢÎ¿ÏħÏĤ":2705,"ĠIn":2706,"ÏģÎ®Î³Î¿":2707,"ĠÎ¤ÏĥÎ¯ÏĢ":2708,"ĠÏĢÎµÏģÎ¹Î»Î±Î¼Î²":2709,"ĠÎ´Î¹Î±Î²Î¬":2710,"ÎºÎ»Î®":2711,"ÏĥÎŃ":2712,"ĠÎ½ÎµÏģÏĮ":2713,"ĠÎ¼ÏĢÏģÎ¿ÏĥÏĦÎ¬":2714,"ĠÎ¤ÏģÎ¯":2715,"ĠÏĦÎ¯ÏĢÎ¿ÏĦÎ±":2716,"ĠÏĥÎ¿Î²Î±":2717,"Î»ÏİÏĤ":2718,"ĠÎ±ÏħÏĦÏĮÎ½":2719,"ĠÎ¼ÏĮÎ»Î¹ÏĤ":2720,"ip":2721,"ers":2722,"ĠÏĥÏħÎ¼Î²Î±":2723,"ĠÎŁÎ»ÏħÎ¼ÏĢÎ¹Î±":2724,"ÎŃÏģÎ¹Î±":2725,"Î³Î¿ÏħÎ½":2726,"up":2727,"ÎŃÎ²Î±Î¹Î±":2728,"ĠÏĥÏħÏĥÏĦÎ®":2729,"Ġ2015":2730,"ĠÏĢÎ¿ÏĥÎ¿":2731,"Î³ÎµÏĦÎ±Î¹":2732,"ĠÎ´Î¿ÏħÎ»ÎµÎ¹Î¬":2733,"ĠÏĦÏģÎ¹":2734,"ÏĩÏİÎ½":2735,"ÎľÎ¹Î±":2736,"ÏĩÎ¿Î¹":2737,"ĠÏĦÎµÎ»Î¹ÎºÎ¬":2738,"ĠÎ®Î¸Îµ":2739,"ĠÎ¹Î´Î¹Î±Î¯ÏĦÎµÏģÎ±":2740,"ĠÎ±Î³Î±ÏĢÎ·":2741,"ÏĢÏĦÏİÏĥÎµÎ¹ÏĤ":2742,"Î¯Î½Î±":2743,"ÏĢÎµÎ¯":2744,"ÎºÎ±ÏĦÎ¬":2745,"ĠÏĢÏģÎ¿Î³ÏģÎ¬":2746,"ĠÎ±Î½Î¬ÏĢÏĦÏħÎ¾Î·":2747,"ÏĩÏīÎ½":2748,"ĠÎ²Î¯Î½ÏĦÎµÎ¿":2749,"ÏģÎµÎ¯ÏĤ":2750,"ÎŃÎ½ÏĦ":2751,"ÏĥÏĢÎ±":2752,"ĠÎ¼ÎŃÎ»Î»Î¿Î½":2753,"ÎµÎ¯Î¼ÎµÎ½Î¿":2754,"ÏĦÏīÎ²ÏģÎ¯Î¿Ïħ":2755,"ĠÎ¹Î´Î¹Ïī":2756,"Î¼ÎµÎ¯Î¿Ïħ":2757,"ĠÏĢÏģÏĮÎµÎ´ÏģÎ¿ÏĤ":2758,"Î¬ÏĥÎµÎ¹ÏĤ":2759,"ĠÎ¯ÏĥÏīÏĤ":2760,"ĠÏĥÏĩÎµÎ´ÏĮÎ½":2761,"ub":2762,"ideo":2763,"ĠÏĮÎ½Î¿Î¼Î±":2764,"Î¼Î±ÏģÏĩ":2765,"ĠÎºÎŃÎ½ÏĦÏģÎ¿":2766,"ĠÎ±ÏĨÎ¿":2767,"ĠÏĦÎ¹Î¼Î®":2768,"ra":2769,"Î¯ÏĥÎ¿ÏħÎ½":2770,"ÎļÎķ":2771,"ĠÎµÏĢÎ¯ÏĢÎµÎ´Î¿":2772,"ÏģÎ¯Î¶ÎµÏĦÎ±Î¹":2773,"ÏĥÏĦÎµÏħ":2774,"ÎµÏįÎ¸ÏħÎ½ÏĥÎ·":2775,"ÏĮÎ½Î¹":2776,"ĠÎ³ÏįÏģÏī":2777,"ĠÏĥÏįÎ½Î¿":2778,"ĠÎµÎ»ÎµÏįÎ¸Îµ":2779,"ĠÎ£ÏĩÎ¿Î»":2780,"ÏĮÎ´Î¿Ïħ":2781,"ÎĪÎ½Î±":2782,"ĠÏĢÏģÏīÏĦÎ±":2783,"ĠÏĢÎµÏģÎ¯Î¿Î´Î¿":2784,"ÎłÎ¿Î»":2785,"ĠÎ²Î¿Î®":2786,"Î¼ÏĢÎµ":2787,"ĠÎ±ÎºÏģÎ¹Î²ÏİÏĤ":2788,"Ġ50":2789,"ĠÎ±Î¸Î»Î·":2790,"Î½Î¿ÏħÏĤ":2791,"ÏĥÎ¼ÏĮÏĤ":2792,"ĠÎºÎ±ÏĦÎ±ÏĥÎºÎµÏħ":2793,"ÎºÎ¬ÏĦÏī":2794,"ĠÎľÎķ":2795,"ÏĦÎ·Î³":2796,"Î»Î¿ÏįÏĤ":2797,"ÏģÎ¹ÎºÎŃÏĤ":2798,"ĠÏĢÎµÏģÎ¬":2799,"ĠÎ»Î¿Î³Î±ÏģÎ¹Î±":2800,"ĠÎ±Î½Î¬Ïģ":2801,"ĠÎµÏĥÏīÏĦÎµÏģ":2802,"ÎºÏģÎ¿":2803,"ÏĨÎŃÏģÎ¿ÏħÎ½":2804,"Î¸Ïī":2805,"ÎŃÎ½ÏĦÎµ":2806,"ĠÏħÏĢÎ±":2807,"ĠÎ±ÏĥÏĨÎ¬Î»":2808,"ÏĩÎ·Î¼Î±":2809,"ĠÏĢÏģÎ¿ÏĥÎµ":2810,"ĠÏĥÏĢÎ¿Ïħ":2811,"ĠÎľÎ±ÏģÏĦÎ¯Î¿Ïħ":2812,"Î´ÎµÎ½":2813,"Î½ÏīÏĥÎ·":2814,"ĠÎ±ÏħÏĦÎ¿Î¯":2815,"ĠÎµÏĨÎ·Î¼ÎµÏģÎ¯":2816,"ĠÏĥÎºÎµ":2817,"Î¸ÎµÏĤ":2818,"ĠÎ²ÏģÎŃ":2819,"ÏİÎ½ÎµÏĦÎ±Î¹":2820,"ĠÏĥÎ¯Î³Î¿Ïħ":2821,"ĠÏĢÎµÏģÎ¹Îµ":2822,"ĠÎ¡Ïī":2823,"ĠÎµÎ¾Î±Î¹ÏģÎµ":2824,"ĠÏĢÏģÏĮÎºÎµÎ¹ÏĦÎ±Î¹":2825,"ĠÎºÎ±Î»ÏįÏĦÎµÏģÎ±":2826,"ĠÎ´Î®Î»ÏīÏĥÎµ":2827,"ĠÎµÏĢÎ¹Î¸Ïħ":2828,"Î¹Î¿Ïģ":2829,"ĠÏĦÎ±ÏħÏĦÏĮ":2830,"ĠÎŁÎºÏĦÏīÎ²ÏģÎ¯Î¿Ïħ":2831,"Î¬Î½Î¿ÏħÎ½":2832,"ÏĢÎ¿Î¯Î·ÏĥÎ·ÏĤ":2833,"Î»Î·ÏĪÎ·":2834,"Î¬Î»Ïħ":2835,"Î»Î¿Î³Î¹ÎºÎ®":2836,"ÎµÎ¹ÎµÏĤ":2837,"ĠÏĢÏģÏīÎ¸ÏħÏĢÎ¿ÏħÏģÎ³":2838,"ĠÏĢÎµÏģÎ¹Î²Î¬Î»Î»Î¿Î½":2839,"ĠÎµÎ¯ÏĥÎ±Î¹":2840,"ĠÎµÏĢÎµÎ½":2841,"Î³Î±Î½":2842,"ĠÏĥÎ¹":2843,"ĠÏĥÏħÎ½Î´Ïħ":2844,"ĠÎ¤Î·Î½":2845,"ul":2846,"ĠÎµÎ¹ÎºÏĮÎ½Î±":2847,"wit":2848,"ĠÎ´Î±Î½":2849,"ĠÏĥÏħÎ¼Î¼ÎµÏĦÎ¿ÏĩÎ®":2850,"ĠÎ¿Î»ÏĮÎºÎ»Î·":2851,"ĠÎ¬ÏĦÎ¿Î¼Î±":2852,"ĠÎ¬Ïĥ":2853,"Î¿ÏħÎ½Î¯Î¿Ïħ":2854,"Î¯Î½Î¿Î½ÏĦÎ±Î¹":2855,"ÏģÎµÎ¯ÏĦÎ±Î¹":2856,"Î¿Î¹Î½Î¿":2857,"ĠÏħÏĢÎ¿ÏĥÏĦÎ·":2858,"ÎķÏĢÎ¹":2859,"ĠÎ³ÏģÎ®Î³Î¿":2860,"ĠÎºÎ¬ÏĢÎ¿Î¹Î¿ÏĤ":2861,"ĠÎ¼Î¿Î½Î¬":2862,"ÏįÎµÎ¹":2863,"âĢ¢":2864,"ĠÎ±ÏĢÎ¿ÏĨÎ±Ïĥ":2865,"ĠÎ³Ïħ":2866,"Î³ÎŃÏĤ":2867,"ĠÎŃÎºÎ±":2868,"ÎµÏħÏĥÎ·ÏĤ":2869,"Î¯Î½Î¿Ïħ":2870,"ĠÎļÎ¿Ïħ":2871,"ĠÏĥÎ·Î¼ÎµÏģÎ¹Î½":2872,"ÏħÎ½Î±Î¹":2873,"ÏĮÎ»":2874,"ÏģÎµÎ¬Î½":2875,"ĠÏĥÏħÎ½Î±Î½":2876,"ĠÎºÏī":2877,"ĠÎºÎ»ÎµÎ¯":2878,"em":2879,"ĠÏĢÏģÎ¿ÏĥÏĢÎ¬Î¸ÎµÎ¹Î±":2880,"15":2881,"ĠÎ±ÏĢÎ¿ÎºÎ»ÎµÎ¹":2882,"ĠÎ³Î»Ïİ":2883,"Î¸Î¿ÏįÎ¼Îµ":2884,"ÏĨÎ¹Î±":2885,"Î¿Î»Î¬":2886,"ĠÏĢÏģÏİÎ·Î½":2887,"ĠÎ±ÏħÏĦÏİÎ½":2888,"Î½Î¿ÏħÎ½":2889,"ĠÏĥÏħÎ½Î®":2890,"Î½Î±ÏĦÎ¿":2891,"ĠÎ±Î½Î±ÏĢ":2892,"ÏİÎ½ÎµÏĤ":2893,"ÎķÎĻÎ£":2894,"ĠÏħÏĢÎ·ÏģÎµÏĥÎ¯ÎµÏĤ":2895,"Î³Î¹Î¿":2896,"ĠÏĦÎ¿ÏħÎ»Î¬ÏĩÎ¹ÏĥÏĦÎ¿Î½":2897,"ĠÎ¼ÎµÎ»ÎŃ":2898,"Î»Î¹ÎºÎ®":2899,"Î¼Î¬ÏĤ":2900,"ĠÎ¼ÏħÏĥ":2901,"ÎºÏģÎ¬":2902,"Î¼Î·Î½":2903,"ÏģÎ¹ÏĥÎ¼ÏĮ":2904,"ÎµÎ¯Î±":2905,"ÏĦÏħÏĩÏİÏĤ":2906,"Ġ22":2907,"ĠÎ¼ÏĢÎ¿ÏģÎ¿ÏįÏĥÎµ":2908,"Î¸Î¹Ïĥ":2909,"ÏĪÎ±Î½":2910,"ĠÎ²Î¹Î²Î»Î¯Î¿":2911,"ĠÎŁÏħ":2912,"ĠÎ±ÏįÎ¾Î·":2913,"ĠÎºÏģÎ¯ÏĥÎ·":2914,"ĠÎ½Î¿Î¼Î¿":2915,"ĠÎµÏĢÎ¿ÏĩÎ®":2916,"ĠÎ»ÎµÎ¹ÏĦÎ¿ÏħÏģÎ³Î¯Î±":2917,"ĠÎ±ÏĢÏĮÎ»Ïħ":2918,"Î¯ÏĥÏĦÎ±":2919,"ĠÎµÎ¾Î¿Ïħ":2920,"Î»ÎµÏĦÎµ":2921,"ĠÎ¹Î´Î¹Î¿":2922,"ÏĥÏĦÎ¹ÎºÏĮ":2923,"ĠÎµÎ¼ÎµÎ¯ÏĤ":2924,"ĠÏĥÏħÎ½ÎµÏģÎ³Î±ÏĥÎ¯Î±":2925,"Î½Î¹Î¿":2926,"ĠÎµÏħÏģÏīÏĢÎ±ÏĬ":2927,"ÎµÎ¼Î²ÏģÎ¯Î¿Ïħ":2928,"Î´ÎµÎ¹Î³Î¼Î±":2929,"ÎľÎ¿Î¹ÏģÎ±ÏĥÏĦÎµÎ¯ÏĦÎµ":2930,"ÏģÎ®ÏĥÎµÎ¹":2931,"ĠÎ±ÏĢÎ±ÏģÎ±Î¯":2932,"ĠÎ±Î½ÎµÎ¾":2933,"ĠÎºÎ¹Î½":2934,"ĠÎ²Î¿ÏħÎ»ÎµÏħ":2935,"ĠÎ³Î»Ïħ":2936,"ÏĪÎ·ÏĨ":2937,"ĠÎµÏħÎºÎ±Î¹ÏģÎ¯Î±":2938,"ĠÎĻÎ¿ÏħÎ½Î¯Î¿Ïħ":2939,"ĠÏĥÎºÎ¿ÏĢÏĮ":2940,"ĠÎ´Î±":2941,"ĠÎ¤Î¿ÏħÏģÎºÎ¯Î±":2942,".,":2943,"Î¶Ïī":2944,"ÏĢÎ»ÎŃÎ¿Î½":2945,"Î¸ÏįÎ½":2946,"ĠÎ¹Î±":2947,"ĠÎµÏħÏĩÎ±ÏģÎ¹Ïĥ":2948,"ÏĥÎ¼Î¿Ïį":2949,"ĠÎ±Î½Î¬Î¼ÎµÏĥÎ±":2950,"ÎŁÎĻ":2951,"ĠÎľÏĮ":2952,"ÏİÎ¼Î±ÏĦÎ±":2953,"ĠÎļÏħÏģÎ¹Î±ÎºÎ®":2954,"ĠÏĩÏģÎµÎ¹Î¬Î¶ÎµÏĦÎ±Î¹":2955,"ĠÎ±ÏħÏĦÎ¿ÎºÎ¯Î½Î·":2956,"ÏģÎµÎ¯Î±ÏĤ":2957,"ĠÎºÏĮÏĥÎ¼Î¿Ïħ":2958,"ÎµÎ½ÏĦ":2959,"ĠÎłÎ±Î¹Î´":2960,"ĠÎľÎ±ÎºÎµÎ´Î¿Î½":2961,"ĠÎµÎ¬Î½":2962,"ĠÏĨÎµ":2963,"Î¯ÏģÎ¹":2964,"ĠÏĢÏĮÎ»Î·ÏĤ":2965,"ĠÎ´Î¹Î¬ÏĥÏĦÎ·Î¼Î±":2966,"Î¬Î½Îµ":2967,"ĠÎ³ÏģÎ±ÏĨ":2968,"ĠÎ¼Î®Î½Î±":2969,"ĠÎ²ÏģÎ¯ÏĥÎºÎ¿Î½ÏĦÎ±Î¹":2970,"ĠÎ±ÏģÏĩÎŃÏĤ":2971,"ÎµÎ¯ÏīÎ½":2972,"Î²Î¬ÏĥÏĦÎµ":2973,"ĠÎ³ÏħÎ½Î±Î¯ÎºÎµÏĤ":2974,"ÏĮÎ»Î¿Ïħ":2975,"ÏĥÏĦÎ±ÏĥÎ·ÏĤ":2976,"ĠÎķÎķ":2977,"ÏģÎ·ÏĥÎµ":2978,"ĠÎ±ÏħÎ¾":2979,"ĠÎ±ÏĢÎ¿ÏĦÎµÎ»ÎŃÏĥÎ¼Î±ÏĦÎ±":2980,"ĠÎ´Î¯Î½ÎµÎ¹":2981,"ĠÎŃÎ¾Ïī":2982,"ĠÎķÏģÎ³":2983,"ÎļÎ¬":2984,"ĠÎ´Î·Î¼Î¿ÏĥÎ¹ÎµÏį":2985,"Î£ÏįÎ¼ÏĨÏīÎ½Î±":2986,"ĠÎµÏĦÎ±Î¹ÏģÎµÎ¯Î±":2987,"Ġ)":2988,"Î»Î·ÏĥÎ·":2989,"ĠÎºÎ±Î¼Î¯Î±":2990,"Î¯ÎºÏĦÏħÎ¿":2991,"Î½Î±Î½ÏĦÎ¹":2992,"ÏģÎµÏĢÎµ":2993,"ĠÏĢÏģÎ¿Î²Î»ÎŃ":2994,"Î¸Î®ÎºÎ·":2995,"ĠÎ´Î¿ÎºÎ¹":2996,"ĠÎ¾ÎµÎºÎ¯Î½Î·":2997,"ĠÎ³ÏħÎ½Î±Î¯ÎºÎ±":2998,"Î¼ÏĢÏĮ":2999,"ĠÎĵÏģÎ±":3000,"ÎºÎ¿Î»Î¿Ïį":3001,"Î¼ÎŃÎ±":3002,"ĠÎ´Î¹ÎºÎ®":3003,"ĠÎĽÎµ":3004,"ĠÎ´Î¹Î±Ïĥ":3005,"ĠÎķÎ¹Î´":3006,"ĠÎµÏħÎ¸Ïį":3007,"ÎłÏģÏĮ":3008,"Î¼Î¹ÎºÎ®":3009,"ĠÎ±Î½Î¬Î³ÎºÎ·":3010,"ĠÎ±Î½Î±Î¼ÎŃ":3011,"ĠÎ¿ÏĢÎ¿Î¯Î¿Î¹":3012,"ĠÎĿÎ¿ÎµÎ¼Î²ÏģÎ¯Î¿Ïħ":3013,"Î®Î»":3014,"ĠÎŃÎ³Îº":3015,"Ġ2014":3016,"ĠÎĶÎ¹Î¿":3017,"ÏĦÏİÎ½ÏĦÎ±ÏĤ":3018,"ĠÏĨÏħÏĥÎ¹ÎºÎ¬":3019,"ĠÎ´ÎµÎ¹":3020,"ÏĩÎ½Î·":3021,"ĠÎ±ÏħÏĦÎ®ÏĤ":3022,"Î¯ÏĥÏĦÎ·ÎºÎµ":3023,"ĠÎ¬Î»Î»Î¿ÏħÏĤ":3024,"ÏįÏĩ":3025,"ĠÏĢÏģÎ±Îº":3026,"ĠÎµÎ½Î¿":3027,"ĠÏĩÏģÎ®ÏĥÎ·ÏĤ":3028,"Î½Î·ÏĥÎ·":3029,"ÏĦÎ±Î¾Î·":3030,"Î¤ÎĻ":3031,"ĠÎ±ÏģÎºÎµÏĦÎ¬":3032,"ÏĢÎ¿Î»Î¯":3033,"ĠÎºÎ¬ÏĢÎ¿Î¹Î¿":3034,"Î®ÏĥÎ¿ÏħÎ½":3035,"ÏĦÎ¬ÏĤ":3036,"ĠÎłÎ±Î½":3037,"ÎķÎł":3038,"ÏīÏģÎ³":3039,"ĠÏĥÏħÎ¶Î·":3040,"ĠÎĻÏī":3041,"ĠÏĢÏģÎ¿ÏĥÏĨÎŃÏģÎµÎ¹":3042,"ĠÎºÎ¬Î½Î¿ÏħÎ¼Îµ":3043,"Î½Î¿Î¼Î¬":3044,"Î´ÏİÎ½":3045,"Î¾ÏĦÎµ":3046,"ÏĦÏģÏīÎ½":3047,"Î¼Î¿Î½Î®":3048,"ĠÏĦÎ±ÏĩÏħ":3049,"ÏĥÏįÎ½Î·":3050,"ÏĥÎ·Î¼Î±":3051,";;":3052,"ĠÎ²ÏģÎ¬Î´Ïħ":3053,"Î´Î¹ÎºÎ¬":3054,"ov":3055,"ĠÎ´Î¹ÎºÏĮ":3056,"ĠÎ´Î¹ÎºÎ±Ïĥ":3057,"ĠÎµÎºÏĢÎ±Î¯Î´":3058,"ĠÎµÏĨÎ±ÏģÎ¼Î¿Î³Î®":3059,"ÏĨÎ¬Î½":3060,"ÎºÏĦÎ¹ÎºÎ®":3061,"ĠÎľÏĢ":3062,"ĠÎµÎºÎ±ÏĦÎ¿Î¼Î¼":3063,"ÏĦÎ®ÏģÎ±":3064,"ĠÎµÏĢÎ¹Î»Î¿Î³Î®":3065,"Ġ199":3066,"Î³Î·ÏĥÎ·":3067,"ĠâĢĺ":3068,"ĠÎ´ÏģÏĮÎ¼Î¿":3069,"Î¿ÏħÎ»Î®":3070,"ĠÎļÏīÎ½ÏĥÏĦÎ±Î½":3071,"ĠÏĢÎ±ÏģÎ¿":3072,"ĠÎ±Î½Î¿Î¯":3073,"ĠÎľÎ¿ÏħÏĥ":3074,"Î¸ÎŃÎ½":3075,"Î¼ÎµÎ¹ÏĤ":3076,"ĠÏĪÎ¬":3077,"ĠÎºÎ±Î»ÏįÏĦÎµÏģÎ·":3078,"ĠÎĳÎ½Î¬":3079,"ÏĨÏī":3080,"Ġin":3081,"ĠÎµÎºÎ»Î¿Î³ÎŃÏĤ":3082,"Ġ23":3083,"ĠÏĩÎ¹Î»Î¹Î¬":3084,"ĠÏģÏī":3085,"Î²ÎµÎ¹":3086,"ĠÎ¤Î¿Ïį":3087,"ÎŃÎ»Î¿ÏĤ":3088,"witter":3089,"ÏĦÎ±Î½Î¬":3090,"ĠÎ²Î¿Î·Î¸Î®":3091,"Î¸ÎµÎ¯ÏĦÎµ":3092,"ĠÏĢÎ¿ÏģÎµÎ¯Î±":3093,"ĠÏĢÎ¹Î±":3094,"ĠÎķÎ¯":3095,"ÎµÏħÎ¼Î±":3096,"ĠÏĢÎ¬ÏģÎµÎ¹":3097,"ĠÎºÎ±Î»Î»Î¹":3098,"ĠÏĩÎŃÏģÎ¹Î±":3099,"ĠÎľÎµÏĦÎ±":3100,"ĠÏĢÎ»Î¿Ïį":3101,"Î´ÏģÎ±":3102,"Î½Î¿Î¹Ïĩ":3103,"ĠÎµÏĢÎ¹ÏĩÎµÎ¯":3104,"ÏĦÎŃÏģ":3105,"ĠÎºÎ±Î¸Î¿":3106,"ĠÎµÎ³ÎºÎ±ÏĦÎ±":3107,"ĠÏĨÏīÏĦÎ¿Î³ÏģÎ±ÏĨÎ¯ÎµÏĤ":3108,"Î®Î¼Î±ÏĦÎ±":3109,"Ġv":3110,"ĠÎ²Î³":3111,"ĠÎ¸ÎµÏģÎ±ÏĢÎµ":3112,"th":3113,"ĠÎĻÎ¿ÏħÎ»Î¯Î¿Ïħ":3114,"Î¼Î±Ïģ":3115,"ÏĦÎ·Î¼Î¿Î½":3116,"ĠÎ±Î½Î±Ïģ":3117,"ĠÎµÎºÎ±ÏĦ":3118,"ÏĦÏħÏĢÏī":3119,"ĠÎ´Î¹Ïĥ":3120,"ĠÏĥÏĩÎµÎ´Î¹Î±":3121,"ÎºÏĦÎ¿":3122,"Î´ÏģÏĮ":3123,"od":3124,"ĠÎµÎ²Î´Î¿Î¼Î¬Î´Î±":3125,"www":3126,"ĠÎĶÎ®Î¼Î¿Ïħ":3127,"ak":3128,"ÏĦÎ®ÏĦÏīÎ½":3129,"ÏĩÏĮÎ¼ÎµÎ½Î¿":3130,"ÏĩÎµÏĦÎ±Î¹":3131,"ĠÎ´Î¹ÏĢ":3132,"Î´Î¯Î´":3133,"ĠÏĢÎ»ÎµÏħÏģÎ¬":3134,"ĠÏĥÏħÎ½Î¸Î®ÎºÎµÏĤ":3135,"ĠÎłÏĮ":3136,"ĠÎ´Î¹Î±ÏĦÎ·":3137,"ĠÎ½ÎŃÎµÏĤ":3138,"ĠÏĢÎ±ÏģÎ±ÎºÎ¬ÏĦÏī":3139,"Î¼Î¬ÏĦÎ¹":3140,"ÏģÎ¹ÏĥÎ¼Î±":3141,"ÏħÏģÎ¿":3142,"ÏĨÎŃÏģÎµÏĦÎ±Î¹":3143,"ĠÎ´ÎµÎºÎ±Îµ":3144,"ĠÎ¿ÏģÎ³Î¬Î½":3145,"ĠÏĨÏīÎ½":3146,"ĠÎ±Î»Î®Î¸ÎµÎ¹Î±":3147,"Î¼Î·ÏĩÎ±Î½":3148,"Î´Î®Î»ÏīÏĥÎ·":3149,"Î½ÎµÏħÎ¼Î±":3150,"Î±Î»ÏĮ":3151,"ĠÏĢÏģÎ¿ÏĬÏĮÎ½ÏĦÎ±":3152,"ĠÎ¬Î³":3153,"Î´ÏģÎ¿Ïħ":3154,"ÎĶÎĳ":3155,"ĠÏĢÏģÏĮÏĥÏĨÎ±":3156,"ĠÏĢÏģÎ¿ÏĭÏĢÎ¿":3157,"ĠÏĢÎ¿Ïį":3158,"ÎĳÏģÏĩÎ¹ÎºÎ®":3159,"ÏįÏģÎ¹Î±":3160,"ĠÏĦÏģÎ±Î³Î¿Ïį":3161,"ĠÏĥÏİÎ¼Î±":3162,"ĠÎ±Î½Î¿":3163,"16":3164,"ĠÏĢÏģÏīÎ¯":3165,"uro":3166,"ÎľÎµÏĦÎ¬":3167,"ĠÎĵÎĻÎĳ":3168,"Î¯Î´Î·ÏĤ":3169,"ĠÎ´Î¹ÎºÎ±Î¯":3170,"ĠÎ¸ÎŃÏĥÎµÎ¹ÏĤ":3171,"ĠÏĢÏģÎ¿ÏĥÎŃ":3172,"ĠÏĢÏģÎ¿Î·Î³Î¿ÏįÎ¼Îµ":3173,"Î²Î±Î»":3174,"ĠÎ¬Î½Î¸ÏģÏīÏĢÎ¿ÏĤ":3175,"ĠÏĢÏģÎ¿ÏĩÏī":3176,"ĠÎĵÎ¹Î±ÏĦÎ¯":3177,"ĠÎłÎĳÎ£":3178,"tp":3179,"ĠÎ¯Î´Î¹Î¿ÏĤ":3180,"ĠÏĢÏģÏİÏĦÎ±":3181,"ĠÏĢÏģÎ¿ÏĥÏīÏĢÎ¹ÎºÏĮ":3182,"ĠÎ»Î®":3183,"ĠÎĳÎ»ÎŃ":3184,"ĠÎ±Î½Î±Î³Î½Ïī":3185,"ĠÎľÎ¹Î±":3186,"ĠÎµÎ¾Î®ÏĤ":3187,"ĠÎ¿Î¼Î¬Î´Î±ÏĤ":3188,"Î»Î±Ïĥ":3189,"ĠÎ¥ÏĢÎ¿":3190,"ĠÎ¤Î¶":3191,"ĠÎ¼ÎµÎ³Î±Î»ÏįÏĦÎµÏģÎ·":3192,"ĠÎĳÎ»Î»Î¬":3193,"ÏģÏĩÎ¿Î½ÏĦÎ±Î¹":3194,"ĠÎ´Î¹ÎµÎ¸Î½":3195,"ĠÏĢÏģÎ¿Îµ":3196,"ĠÎºÎµÏĨÎ¬Î»":3197,"ĠÏģÎ±":3198,"200":3199,"ĠÎµÎ±ÏħÏĦÏĮ":3200,"Î»Î¿Î³Î±":3201,"ĠÏĥÏħÎ¼ÏĨÏīÎ½Î¯Î±":3202,"ĠÏģÏĮÎ»Î¿":3203,"ĠÎµÎºÎ´Î·":3204,"ÏģÎ¹Î»Î¯Î¿Ïħ":3205,"ÏĦÏģÎ¿ÏĢÎ®ÏĤ":3206,"ĠÎ±ÏĢÎµÎ¹":3207,"ÏĥÏĦÎŃÏĤ":3208,"ÏģÎŃÏĥÎµÎ¹":3209,"Î¯Î½ÎµÏĦÎµ":3210,"Ġof":3211,"ĠÏĥÏĦÏĮÏĩÎ¿":3212,"Î²Î¬Î¸":3213,"Î´ÏģÎŃ":3214,"17":3215,"Î½Î¿Î¹Î±":3216,"ĠÎºÎ±ÏĦÎµ":3217,"ĠÎ¶Ïİ":3218,"ÏĢÎŃÏĤ":3219,"ĠÎ»ÏįÏĥÎ·":3220,"ÏĮÏĦÎ±":3221,"ĠÎ±Î³Î¬ÏĢÎ·":3222,"//":3223,"ab":3224,"Î¯Î¶Î¿Î½ÏĦÎ±ÏĤ":3225,"ĠÏĨÎ±Î¹":3226,"Î¯Î½Î¿ÏħÎ¼Îµ":3227,"Î¸ÏĮÎ½":3228,"ÏĦÏħÏĢ":3229,"ĠÎļÎ±ÏĦÎ±":3230,"ÎĮÏĦÎ±Î½":3231,"ĠÎĺÎµÏĥÏĥÎ±Î»Î¿Î½Î¯ÎºÎ·ÏĤ":3232,"ĠÎºÎµÎ½ÏĦÏģ":3233,"ĠÎ¬ÏģÏĩ":3234,"ÎķÎ¯":3235,"ĠÎ±Î½Î±ÏĨÎŃÏģÎµÎ¹":3236,"ĠÎĳÏĢÏģÎ¹Î»Î¯Î¿Ïħ":3237,"ĠÎºÏħÎºÎ»Î¿ÏĨÎ¿":3238,"ie":3239,"ÎľÎŃ":3240,"ĠÏĢÎ¬ÎµÎ¹":3241,"ĠÎĪÏĦÏĥÎ¹":3242,"Î»Î¹Î½":3243,"Î³ÏīÎ½":3244,"ĠÎĳÎłÎŁ":3245,"ÏĦÎ¬Î¾ÎµÎ¹ÏĤ":3246,"Î¬ÎºÎ¹":3247,"ĠÎĳÏĦ":3248,"ĠÏĢÎ±Î¯Îº":3249,"Î¯ÏīÏĤ":3250,"Î»Î±Î²Îµ":3251,"ĠÏĢÎ¿Î»Î¹ÏĦÎ¹ÎºÎ®ÏĤ":3252,"ĠÏĢÎ±Ïģ":3253,"Î¹ÎºÎ¿Î¹Î½ÏīÎ½":3254,"ĠÎ½Î¯ÎºÎ·":3255,"ĠÏĩÏģÎ·Î¼Î±ÏĦÎ¿":3256,"Ġ!":3257,"ĠÎ¼ÏĢÎ¿ÏģÎ¿ÏįÎ¼Îµ":3258,"ĠÎ¬Î¼Îµ":3259,"ĠÏĦÏĮÎ½":3260,"Î»Î¿Î³Î¹ÎºÏĮ":3261,"Î¾ÎµÏīÎ½":3262,"ĠÎĮÏĦÎ±Î½":3263,"ĠÏĦÎµÏģÎ¬":3264,"ĠÎĳÏĨ":3265,"ÏĦÎ¹ÏĥÎ¼ÏĮÏĤ":3266,"ĠÎ±ÏĥÎ¸ÎµÎ½":3267,"ĠÎºÎ±Î¹ÏģÏĮ":3268,"http":3269,"ĠÎļÏģÎ®":3270,"ĠÎºÎ»ÎµÎ¹":3271,"ĠÏĢÎµÏģÎ¹ÏĥÏĥÏĮÏĦÎµÏģÎµÏĤ":3272,"ard":3273,"!!!!":3274,"13":3275,"ĠÎµÎ¼ÏĢÎµÎ¹ÏģÎ¯Î±":3276,"ÏĢÎ±ÏģÎ¬":3277,"Î¼Ïī":3278,"Ġn":3279,"ĠÎ±ÏĤ":3280,"ĠÎ²Î¬Î»":3281,"Î²Î®":3282,"ĠÎºÎ¿Î¹Î½ÏīÎ½Î¯Î±":3283,"ĠÏĢÎ¿Î»Î¯ÏĦÎµÏĤ":3284,"ĠÎ¿Î¹Îº":3285,"ÏģÏĮÏĦÎ·ÏĦÎ±":3286,"ÏĮÏĦÎ·ÏĦÎµÏĤ":3287,"ĠÎĶÎ·Î¼Î®":3288,"Â·":3289,"ĠÎłÎ±ÏģÎ±ÏĥÎºÎµÏħÎ®":3290,"ÎķÎ½":3291,"ĠÎ±Î½ÏĦÎ¹Î¼ÎµÏĦÏīÏĢ":3292,"ĠÎ»Î¹Î³":3293,"Î»Î»Î®Î½ÏīÎ½":3294,"14":3295,"ÏĩÏģÎ¿Î½Î·":3296,"ĠÎ±Î½ÏĦÎ¯ÏĥÏĦÎ¿Î¹":3297,"ÏįÎ¼Î±ÏĦÎ±":3298,"ĠÎºÏħÎ²ÎŃÏģÎ½Î·ÏĥÎ·ÏĤ":3299,"ĠÏĥÏħÎ¼Î¼ÎµÏĦÎŃ":3300,"all":3301,"Ġ40":3302,"Î¬Î½Î¹ÏĥÎ·":3303,"ĠÎĻÏĦÎ±":3304,"://":3305,"ÏģÏĦÎ±":3306,"ÎŃÏģÎ¿Î½":3307,"ÎºÏĦÎ®":3308,"ĠÎĽÎ¬":3309,"ĠÏĮÎ¼Î¿Ïģ":3310,"Î³Î¿ÏįÏĥÏĦÎ¿Ïħ":3311,"ĠÎĻÎµ":3312,"Î»Î»ÏĮÎ³":3313,"ĠÎµÏĢÎ¹Î»ÎŃ":3314,"ĠÎ±ÏĢÎ¿Ïģ":3315,"ĠÎ´Î¹ÎºÎ±Î¹Î¿":3316,"ÏİÎ½Î¿ÏħÎ½":3317,"Î½Î±Î½ÏĦÎ¯":3318,"ĠÎ±ÏįÎ¾Î·ÏĥÎ·":3319,"ĠÏĥÏĦÏģÎ±ÏĦÎ¹Ïī":3320,"Ġon":3321,"ĠÎľÎ¹":3322,"ÏĦÎŃÏģÎ±ÏĤ":3323,"ĠAn":3324,"ĠÎ±ÏĢÎŃÎ½Î±Î½ÏĦÎ¹":3325,"ĠÎ½ÎµÎ¿":3326,"Ġemail":3327,"ÎķÎ³Î³ÏģÎ±ÏĨÎ®":3328,"ĠÎ¼Î¿ÏģÏĨÎ®":3329,"ÏĥÏĦÏģÎ±":3330,"ÎĺÎŃ":3331,"ĠÎºÎ±Î½Î¿Î½":3332,"ĠÏĦÎ¿Î¼ÎŃÎ±":3333,"ation":3334,"ÏĦÎ¿ÏįÏĤ":3335,"ĠÏĢÏĮÏĥÎ¿":3336,"Î¬Î½Ïī":3337,"ĠÏħÏĢÎ¿ÏĥÏĦÎ®ÏģÎ¹":3338,"Î¹ÏĥÎ¼Î±":3339,"Î¯ÎºÎ·ÏĥÎ·":3340,"Î¸ÏīÏĤ":3341,"ÎŃÎ½Î±ÏĤ":3342,"ĠÎ¼Î¹Î»Î¬":3343,"ĠÎŃÏĢÏģÎµÏĢÎµ":3344,"Î»Î»Î¿":3345,"ĠLe":3346,"ĠÎ¼Î¿Î½Î¿":3347,"ĠÏĥÏĦÎ±Î¸Îµ":3348,"ĠÎ»Î±Î¼Î²":3349,"ĠÎ¤ÎĹÎ£":3350,"2018":3351,"ĠÏįÏĪ":3352,"ĠÏĢÏĮÎ»Îµ":3353,"ĠÎ³Î¹Î¿Ïģ":3354,"ĠÎ¾ÎµÎ½Î¿Î´Î¿ÏĩÎµÎ¯Î¿":3355,"Î½Î±Î¹":3356,"Î½Î±ÏĬ":3357,"ĠÎ±ÏģÎ¹ÏĥÏĦÎµ":3358,"Ġg":3359,"ĠÎĿÎĶ":3360,"ĠÏĦÎ±ÏĩÏħÎ´ÏģÎ¿":3361,"ĠÏĢÎ»Î¿":3362,"ÏĩÎ¸Î·ÎºÎµ":3363,"Î·Ïĥ":3364,"ĠÎ¸ÎŃÎ»Î¿ÏħÎ½":3365,"ÏĨÏİÎ½":3366,"ÎĽÎĹ":3367,"Î¬Î½ÎµÏĦÎ±Î¹":3368,"Î¬ÏģÏĦÎ·":3369,"ĠÎºÎ¿Î¹Î½Î¿":3370,"ÎŃÏģÎ¹":3371,"ĠÏĢÎ±ÏģÎ¬Î´ÎµÎ¹Î³Î¼Î±":3372,"ĠÏĢÏģÎ±Î³Î¼Î±ÏĦÎ¹ÎºÎ¬":3373,"ÏĩÏģÎ¿Î½Î¿ÏĤ":3374,"ÎĮÏĢÏīÏĤ":3375,"Î´Î¿Ïį":3376,"ĠÎ±Î¼ÎŃ":3377,"ĠÎķÎºÎºÎ»Î·":3378,"ĠÎµÎ½ÏĦÏĮÏĤ":3379,"ĠÎºÎ±Î¸Îµ":3380,"ÏĩÎ¿ÏħÎ¼Îµ":3381,"Î¯Î¶Î¿ÏħÎ¼Îµ":3382,"ĠÎ¿Î¼Î¬Î´ÎµÏĤ":3383,"ĠÎºÎ±ÏģÎ´Î¹Î¬":3384,"ĠÎ´ÏįÎ½Î±Î¼Î·":3385,"ÏĢÎ»Î¿":3386,"ÏĨÎ±Î¯":3387,"ĠÎµÎ»Î»Î·Î½Î¹ÎºÏĮ":3388,"ÎĶÎµÎ¯ÏĦÎµ":3389,"ĠÎĺÎµÏĥÏĥÎ±Î»Î¿Î½Î¯ÎºÎ·":3390,"ÏĩÏģÎ¿Î½Î±":3391,"ĠÏĥÏĦÎ±Î¸":3392,"ĠÎºÎ»ÏĢ":3393,"ĠÎ¼Î¬ÏĦÎ¹Î±":3394,"ĠÎ´Î·Î¼Î¹Î¿ÏħÏģÎ³Î¯Î±":3395,"ĠÎ²Îµ":3396,"ÏģÏİÏĥÎµÎ¹":3397,"Î¸Î®Î¼Î±ÏĦÎ±":3398,"Î»ÎµÏĢ":3399,"ÏĦÎ¿Î³":3400,"ÏģÎ¼Î±":3401,"Î´ÏģÎ¬":3402,"ÏĢÎ¿Î¼ÏĢ":3403,"ĠCh":3404,"ĠÎłÎ±ÏģÎ¬":3405,"ĠÎ»ÏĮÎ³Î¹Î±":3406,"ÏģÎµÏħÎ½Î·":3407,"ĠÏĢÎ±Î³ÎºÏĮÏĥÎ¼":3408,"ĠÏħÏĢÎŃÏģ":3409,"ĠÎļÏİ":3410,"ĠÎ³Î½ÏīÏģÎ¯Î¶":3411,"Î£ÏĦÎ·":3412,"ĠÎµÎºÏĦÎµ":3413,"ĠTwitter":3414,"ÏĢÎ¿Î»Î·":3415,"ĠÏģÎ¯":3416,"Î·ÏĥÎµ":3417,"ĠÎ±ÏĢÎµÏħ":3418,"ÎķÎ¡":3419,"ĠÏĦÎ¿ÏħÏģÎº":3420,"ĠÏĢÎµÏģÎ¹Î¿ÏĩÎŃÏĤ":3421,"ÎĮÏģÎ¿Î¹":3422,"ĠÎµÎ»ÏĢ":3423,"ĠÎ¤Ïį":3424,"ĠÎĳÏħÎ³Î¿ÏįÏĥÏĦÎ¿Ïħ":3425,"ĠÎĿÎ¯Îº":3426,"ĠÎķÏĢÎ¯ÏĥÎ·ÏĤ":3427,"Î¸ÎµÏĥÎ·ÏĤ":3428,"ÏģÎ¹Î¿Ïį":3429,"ĠÎµÏĢÎ¹ÏĩÎµÎ¹ÏģÎ·Î¼Î±":3430,"ĠÏĢÏģÎ±Î³Î¼Î±ÏĦÎ¹ÎºÏĮÏĦÎ·ÏĦÎ±":3431,"ĠÎĶÎ¹Îµ":3432,"ger":3433,"Î¾ÎµÎ½":3434,"Î¼Î¯Î¿Ïħ":3435,"Î¼ÏĢÏĦÎ·":3436,"ĠÏĦÏģÎ¬ÏĢÎµÎ¶":3437,"Ġ28":3438,"ĠÎ±Î¼ÏĨ":3439,"ÏĪÎ±":3440,"ÎºÎºÎ¹":3441,"ĠÏĮÏĥÎ¿ÏħÏĤ":3442,"ĠÎĪÎ½Î±":3443,"ĠÎĬ":3444,"ÏģÎ¹ÏĥÏĥÏĮÏĦÎµ":3445,"ÏĥÏĦÎ·ÎºÎ±Î½":3446,"ĠÎ¼Î¹ÎºÏģÎ¿":3447,"Î½ÏĦÎ±":3448,"ĠÎ±ÏĢÏİ":3449,"Ġ2012":3450,"ĠÎµÎ¾Î±Ïĥ":3451,"ÏĪÎ®ÏĨ":3452,"Î»ÎµÎ¯Î±ÏĤ":3453,"ĠÎĶÎµÏħÏĦÎŃÏģÎ±":3454,"ĠÎ¾Î±Î½Î¬":3455,"ĠÏĨÎ¿Î¹":3456,"ĠÎ»ÎŃÎ½Îµ":3457,"Ġ2013":3458,"ĠÏĥÏĦ":3459,"ÎĻÎĳÎ£":3460,"Î¼Î¹Î¬":3461,"ĠÏħÏĢÎ¿ÏħÏģÎ³ÏĮÏĤ":3462,"ĠÏĦÎŃÏĥÏĥÎµ":3463,"ÏĥÏĩÎµ":3464,"ÎĵÎ¹Î±ÏĦÎ¯":3465,"Î¿Î»ÏĮÎ³":3466,"ĠÎ²ÎŃÎ²Î±Î¹Î±":3467,"ĠÎµÎ³Î³":3468,"ĠÎ´ÏİÏĥÎµÎ¹":3469,"ĠÎºÏģÏį":3470,"Î½ÏĦ":3471,"ÏĮÏĦÎµÏģÎµÏĤ":3472,"ÏīÏģÎ¯ÏĤ":3473,"Î¼Î²Î±ÏĥÎ·":3474,"ĠÏīÏĥÏĦÏĮÏĥÎ¿":3475,"Î¼Î¬Î½":3476,"Î²Î¯":3477,"ÏģÎ¿ÏįÎ¼Îµ":3478,"ĠÎĵÎ±Î»Î»":3479,"ĠÎ¤Îĳ":3480,"ĠÎ¸Î·":3481,"Î¯Î´Î·":3482,"ĠÎµÏģÏİ":3483,"ĠÎ´ÎµÎ¯ÏĦÎµ":3484,"ĠÏħÏĢÎ®ÏģÏĩ":3485,"Î¹ÏĥÎ±Î½":3486,"ĠÎ¿Î¹ÎºÎ¿Î½Î¿Î¼Î¹ÎºÎ®":3487,"ÏħÎ³":3488,"ĠÎĻÏĥÏĦÎ¿":3489,"Î¹ÏĥÏĦÎ¬":3490,"ĠÎ¿ÏĨÎµÎ¯":3491,"ÏģÎ¹ÏĤ":3492,"ÏģÎ¹ÏĥÎ¼Î¿Ïį":3493,"ell":3494,"ĠÏĥÎºÎ·Î½":3495,"Î¼Î±ÏĦÎ¬":3496,"ĠÎ¾ÎµÎºÎ¹Î½Î®":3497,"ĠÎºÏĮÏĥÎ¼Î¿ÏĤ":3498,"ĠÏĥÏĩÎŃÎ´Î¹Î¿":3499,"ĠÏĦÎ¯ÏĦÎ»Î¿":3500,"ĠÏĥÎºÎ»Î·":3501,"ĠÎµÎºÏĨÏģÎ¬":3502,"ĠÎ´Î·Î¼ÏĮÏĥÎ¹Î±":3503,"Î¼Î¿ÏħÎ½":3504,"ĠÎºÎ±ÏĦÎ±Î½":3505,"ĠÎĳÏģ":3506,"ĠÎºÎ±Î»ÏįÏĦÎµÏģÎ¿":3507,"Î¯Î»Î·":3508,"ĠÏĨÎ±Î½ÏĦÎ±":3509,"Î®ÏĥÏĦÎµ":3510,"Î²Î¿Ïħ":3511,"ĠÏĩÎ±Ïģ":3512,"Î±Ïħ":3513,"Î´ÎµÎ¹ÎºÎ½":3514,"ĠÎ¤ÎµÏĦÎ¬Ïģ":3515,"ĠÏħÎ³ÎµÎ¯Î±":3516,"ĠÎ±Î¼ÎµÏģ":3517,"ĠÎłÎ±Î³":3518,"ĠÏĨÎ±Ïģ":3519,"ÏĦÎ·Î¸ÎµÎ¯":3520,"ĠÎºÎŃÏģ":3521,"ÏĦÎ®ÏĥÎ¿ÏħÎ½":3522,"ÏħÎº":3523,"Î±ÏĦÏģ":3524,"ÏĦÎµÎ¯ÏĦÎ±Î¹":3525,"ĠÎķÎ»Î»Î®Î½ÏīÎ½":3526,"ĠÎļÎ±Ïģ":3527,"ĠÎ¥Î³Îµ":3528,"ĠÏĩÎ±ÏģÎ±ÎºÏĦÎ·ÏģÎ¹ÏĥÏĦÎ¹ÎºÎ¬":3529,"ĠÏĢÎ±ÏģÎµÎ»":3530,"ĠÏĩÎ±ÏģÎ¬":3531,"Î¾ÎµÏģÎ³":3532,"av":3533,"ĠÎ´Î¹Î´":3534,"ĠÏĢÎŃÎ½ÏĦÎµ":3535,"ÎµÎ¯Î±ÏĤ":3536,"ĠÂµ":3537,"ĠÎłÎµÎ¹":3538,"ĠÎ¼ÎµÎ¯ÏīÏĥÎ·":3539,"ĠÎµÏĢÎ¹ÏĥÎºÎµ":3540,"ĠÎµÏĢÎ¹ÏĦÏħÏĩÎ¯Î±":3541,"Î¹ÏĥÏĦÎµÎ¯":3542,"ĠÎ´Î¹ÏĮÏĦÎ¹":3543,"ĠÎ±ÏĢÎ¬Î½ÏĦÎ·ÏĥÎ·":3544,"ÏįÏĢÏĦÎµÎ¹":3545,"ĠÎ£Î¬Î²Î²Î±ÏĦÎ¿":3546,"ĠÎ´ÎµÎ´Î¿Î¼ÎŃÎ½Î±":3547,"ÎķÎ¥":3548,"ĠÏĢÎµÏģÎ¹ÎŃ":3549,"ĠÎ¬Î»Î»Î¿Î¹":3550,"ist":3551,"ÏĢÎ¿ÏħÎ½":3552,"ÎµÎ¿":3553,"Î³ÎŃ":3554,"ĠÎ´Î¹ÎŃ":3555,"ÏģÏĨ":3556,"ĠÎºÏģÎ¬ÏĦÎ¿ÏĤ":3557,"ĠÎ±Î½Î¸ÏģÏī":3558,"ÏĨÎ¿ÏģÎ¬ÏĤ":3559,"ÎºÏīÎ½":3560,"ĠÎµÎ»Î±":3561,"Î¾Î¿ÏħÎ¼Îµ":3562,"ĠÎ³ÏģÎ±Î¼":3563,"Ġh":3564,"ÏĦÎ¯Î¸Îµ":3565,"ĠÎĳÎ¸Î·Î½ÏİÎ½":3566,"ÏĦÏĥÎ¿":3567,"ĠÏħÎ»Î¿":3568,"Î²Î¿Ïį":3569,"ĠÎµÎ¹ÏĤ":3570,"ive":3571,"ÏĦÎ·ÎºÎ±Î½":3572,"ĠÎŃÏģÎ³Î±":3573,"ĠÎµÏĢÎ¹ÏĥÏĦÎ®":3574,"Î»ÎµÏĥÎµ":3575,"ÎºÏī":3576,"ÏİÎ¸Î·ÎºÎµ":3577,"ĠÏĥÏīÎ¼Î±":3578,"ĠÎ´Î·Î¼Î¿ÎºÏģÎ±":3579,"ĠÎºÎ¯Î½Î´Ïħ":3580,"ÎľÏĢÎ¿":3581,"ÏĥÏĩÎŃ":3582,"ĠÏĥÏħÎ½Î´ÎŃ":3583,"ĠÎ±Î½Î±Î³Î½Ïİ":3584,"ĠÎµÎ¾ÎŃÎ»Î¹":3585,"ĠÎºÎ¹Î½Î®":3586,"ÎŃÎ½ÏĦÎµÏħ":3587,"Ġw":3588,"Î¶Î¿ÏħÎ¼Îµ":3589,"ĠÏĦÏģÎ±ÏĢÎµÎ¶":3590,"ĠÎ¬Î¼ÎµÏĥÎ±":3591,"Î¾Î¯Î±":3592,"ĠÎ¼Î±Ïį":3593,"ĠÎĶÎ·Î¼Î®ÏĦ":3594,"ĠÏĦÎµÎ»ÎµÏħÏĦÎ±Î¯Î¿":3595,"Ġcook":3596,"ĠÎ±Î½Î±ÎºÎ¿Î¹":3597,"ĠÎ¶ÏīÎ½":3598,"ĠÎ´ÎµÏįÏĦÎµÏģÎ·":3599,"ĠÎºÎ¬Î½ÎµÎ¹ÏĤ":3600,"ĠÏĥÏħÎ½ÎµÎ´":3601,"ĠÏĮÏĢÎ¿":3602,"ĠÎĺÎµÎ¿":3603,"ÎłÏİÏĤ":3604,"ĠÏħÏĢÏĮÎ¸ÎµÏĥÎ·":3605,"ĠÎŃÎ½ÏĦÎ¿":3606,"21":3607,"ĠÎ¹Îµ":3608,"Î´Î¯Î¿Ïħ":3609,"ĠÎµÏĢÎ¹ÏĦÏģÎŃ":3610,"ĠÏĥÎµÎ¾":3611,"ĠÎºÎ¬Î½Ïī":3612,"ĠÏĦÎ¹Î¼ÎŃÏĤ":3613,"Î²ÏĮ":3614,"ĠÏĢÎ¿Î´Î¿":3615,"Î²Î¬Î»Î»":3616,"ĠÏĥÏħÏĩÎ½Î¬":3617,"Î¿ÏįÏĥÎµ":3618,"ĠÎ±Î½Î¸ÏģÏİÏĢÎ¹":3619,"ĠÏĩÎ¹Î»Î¹Î¬Î´ÎµÏĤ":3620,"ÎłÎ±ÏģÎ±":3621,"ĠÎ¼Î±Î¶":3622,"ĠÎ¿ÏħÏĥÎ¹Î±":3623,"ÎºÎ±ÏĤ":3624,"ĠÎľÏĢÎ±":3625,"ĠÎ¬ÏĢÎ¿":3626,"ÎµÎ½Î¬":3627,"Î¹ÏĥÎ·":3628,"Î³Î¹Î¬":3629,"Î¾Î¹Î¿":3630,"ĠÏĢÎ¿ÏĥÏĮ":3631,"ÏĦÏĦÎ±":3632,"ĠÎ±Î»Î»Î·":3633,"ĠÎºÎ±ÏĦÎ·Î³Î¿ÏģÎ¯Î±":3634,"ÎºÏĦÎ¿Î½":3635,"ĠÎ£Î¿":3636,"ÎĿÎĳ":3637,"ÎķÏħ":3638,"ĠÎ±Î¹Ïİ":3639,"ĠÎ´ÏħÎ½Î¬Î¼ÎµÎ¹ÏĤ":3640,"ĠÎ·Î¼ÎµÏģÎ¿":3641,"Î¹ÏĥÏĦÎ¹ÎºÎ®":3642,"ĠÎ¤ÎĹÎĿ":3643,"ÏĥÎ¼Îµ":3644,"ĠÏĢÎ±ÏģÎµÎ»Î¸ÏĮÎ½":3645,"ĠÎµÏĢÎ¹ÏĥÏĦÏģÎŃ":3646,"ĠÎļÎ±ÏģÎ±":3647,"ĠÎ±ÏĢÎ¿ÏĦÎµÎ»Î¿ÏįÎ½":3648,"Î»Î¿Î³Î¿":3649,"ĠÎ¹ÎºÎ±":3650,"one":3651,"Î»Î¬Î²ÎµÎ¹":3652,"ĠÏĨÏĦÎ¹Î¬":3653,"ĠÎ¸Î¬Î»Î±":3654,"ÏĢÎµÎ´Î±":3655,"ĠÎ¼ÏĢÎ¬":3656,"ĠÏĦÎŃÏĦÎ¿Î¹Î±":3657,"ĠÏĩÏģÎ¿Î½Î¹Î¬":3658,"ĠÎ±Î½ÏĦÎ¹Î¼ÎµÏĦÏİ":3659,"ÏĢÎ¿Î»Î¹":3660,"Î¸ÏħÏĥ":3661,"ĠÎ´Î·Î¼Î¿ÏĥÎ¯":3662,"ĠÎºÎ¬Î½ÎµÏĦÎµ":3663,"ĠÎ¾ÎµÏĩÏī":3664,"ĠÎ¼Î±Î¸Î·ÏĦÎŃÏĤ":3665,"âĢĵ":3666,"ĠÎµÎ½Î±Î½ÏĦÎ¯":3667,"ĠÎ±Î½Î±ÎºÎ±":3668,"ce":3669,"ĠÏīÏģÎ±":3670,"ĠÎ³ÏħÎ½Î±Î¹":3671,"ĠÏħÏĢÎ·ÏģÎµÏĥÎ¹ÏİÎ½":3672,"ÎµÎ¹Î¿":3673,"ÏĢÏģÎ¿Ïĥ":3674,"ĠÎ½ÎŃÎ¿Ïħ":3675,"''":3676,"ĠÎµÎ¾Î¿":3677,"ĠÎºÎ»Î¬":3678,"ÏģÎ¸Îµ":3679,"Î¼Î¹ÎºÎ¬":3680,"ite":3681,"ĠAl":3682,"Î¯Î½Ïī":3683,"ÏģÎ¯ÏĥÎµÎ¹":3684,"Ġ27":3685,"Î¼Î¬ÏĦÎ¹Î±":3686,"ĠÎ»Î±ÏĬ":3687,"ÏģÎ¹ÏĥÎµ":3688,"Î²ÎŃÏģÎ½Î·":3689,"ĠÎ´ÏīÏģÎµÎ¬Î½":3690,"ĠÏĢÎ±ÏģÎ±Î´Î¿":3691,"ant":3692,"ĠÎ³Î¯Î½Î¿Î½ÏĦÎ±Î¹":3693,"Ġ26":3694,"ÏĩÎ¸":3695,"Î¿Î½ÏĦÎ±Î½":3696,"ĠÎĴÎ±":3697,"Î£ÏĦÎ±":3698,"ĠÏĢÏģÎ¿ÏĥÎ±":3699,"ĠÎ³Î½ÏīÏĥÏĦÏĮ":3700,"ĠÏĦÏģÎ±ÏħÎ¼Î±":3701,"Î¬Î¶Î¿Î½ÏĦÎ±Î¹":3702,"??":3703,"ĠÎŃÏģÏĩÎµÏĦÎ±Î¹":3704,"ÏĢÎµÏĦÎ±Î¹":3705,"ĠÎķÏĢÎ¹Ïĥ":3706,"ĠÎļÎ¿Î¹Î½ÏīÎ½":3707,"ĠÏĦÎ±Î¹Î½Î¯Î±":3708,"line":3709,"ĠÏĢÎ±ÏģÏĮ":3710,"Î¼ÎµÏĦÎ±":3711,"ĠÎ·Î»ÎµÎºÏĦÏģÎ¿Î½Î¹ÎºÎ¿Ïį":3712,"ĠÎĿÏĮ":3713,"ĠÎºÏģÎµ":3714,"ĠÏĥÏħÎ½Î´ÏħÎ±Ïĥ":3715,"24":3716,"ĠÎºÎµÏģÎ´":3717,"ÏĦÎµÏģÎ·":3718,"Î½ÎŃ":3719,"ĠÎ¼ÎŃÎ»Î¿ÏĤ":3720,"ĠÎµÏĢÎ¹ÏĩÎµÎ¹ÏģÎ®ÏĥÎµÎ¹ÏĤ":3721,"ÏĦÎ¿Î»Î®":3722,"Î¸ÎµÎ¹ÎµÏĤ":3723,"ÎŁÎ¥Î£":3724,"ÏģÎ¹ÏĥÎ¼ÏĮÏĤ":3725,"ĠÎ´Î¹ÎºÎ±Î¯ÏīÎ¼Î±":3726,"ÏĥÎºÎ±":3727,"ĠÏĢÏģÎ¿Î¿":3728,"ĠÏĥÎºÏĮ":3729,"Î¾Î®":3730,"ĠÏĦÎ±Î¾Î¹Î´":3731,"ĠÎ´Î¹Î±ÏĩÎµÎ¯":3732,"ĠÏĦÏģÎ¯Î±":3733,"ÏĢÎ¹Î½":3734,"Î»Î¿Î³Î¹ÎºÎ¬":3735,"ĠÎµÎ¹Î´Î¹ÎºÎ¬":3736,"ĠÏĥÏħÎ³Î³ÏģÎ±ÏĨ":3737,"Î´ÏĮÏĥÎµÎ¹ÏĤ":3738,"Î±ÏĢÏĮ":3739,"ÏģÎµÏĦÎµ":3740,"Î¶Î¿Î½ÏĦÎ±ÏĤ":3741,"ĠÏĢÎ±ÏģÎ±ÎºÎ¿Î»Î¿Ïħ":3742,"Î½ÏīÏĥÎ·ÏĤ":3743,"ĠÎ±Î³ÏīÎ½":3744,"ĠÎ¹ÏĥÏĦÎ¿ÏĥÎµÎ»Î¯Î´Î±":3745,"ÏĥÎ±ÏĦÎµ":3746,"Î²Î»Î·":3747,"ĠÏĢÏģÎ¿ÏĦÎµ":3748,"ĠÎŃÏĦÎ¿Î¹":3749,"ĠÎºÎ»Î¯":3750,"ĠÏĢÎ¿Î»Î¹ÏĦÎ¹Ïĥ":3751,"ÎĳÎĽ":3752,"ĠÎµÎ½Î¹Ïĥ":3753,"ĠÎ¼Î¿ÏħÏĥÎ¹ÎºÎ®":3754,"ĠÎ¸ÏģÎ·":3755,"ĠÎ¤Î¿ÏįÏģÎº":3756,".)":3757,"ĠÎ±Î½Î¬Î³ÎºÎµÏĤ":3758,"Î»Î±Î²Î±":3759,"ĠÎºÎ±ÏĦÎ±Î½Î±":3760,"Î»Î¿Î³Î·":3761,"ĠÎµÎ½Î±Î½ÏĦÎ¯Î¿Î½":3762,"ĠÏĢÏģÏĮÏĦÎ±ÏĥÎ·":3763,"ĠÎłÎĳÎ£ÎŁÎļ":3764,"ÏĮÎ¼ÎµÎ½Î·":3765,"ĠÎ±Î½Î±ÎºÎ¿Î¯Î½ÏīÏĥÎ·":3766,"ĠÎ´ÏģÎ¬ÏĥÎ·":3767,"ĠÎ´Î¹ÎµÏįÎ¸ÏħÎ½ÏĥÎ·":3768,"ĠÎĳÎ½ÏĦÎ¹":3769,"Î·ÏĥÎ·ÏĤ":3770,"Î¿ÏįÏģ":3771,"ĠÎ±Î³Î³":3772,"ĠÏĢÎµÏģÎ¹ÏĢÏĦÏİÏĥÎµÎ¹ÏĤ":3773,"ĠÎ¼Î¹ÎºÏģÎ®":3774,"ĠÏĢÎ®ÏģÎµ":3775,"ĠÏĢÎµÎ¯":3776,"ĠÎĨÎ½":3777,"ÏĥÎ¼Î¿":3778,"ph":3779,"Î»Î®Î¼Î±ÏĦÎ¿ÏĤ":3780,"Î¡ÎŁÎ£":3781,"ÎºÎ»Î·ÏĥÎ·":3782,"Î»Î±Î²":3783,"ĠÎ±Î½Î¸ÏģÏİÏĢÏīÎ½":3784,"Î£ÏħÎ½":3785,"ĠÎ¼ÎµÎ³Î±Î»ÏįÏĦÎµÏģÎ¿":3786,"ÎĻÎŁ":3787,"ĠÏĢÎ±ÏģÎ±ÏĦÎ·":3788,"ĠÎĽÎ¹":3789,"Î¤Îµ":3790,"Î¸Î·Î½Î±ÏĬ":3791,"ÎµÏģÎ¼Î±":3792,"ĠÎ¼ÎµÎ³Î¬Î»ÎµÏĤ":3793,"ĠÎµÏĢÎ¹ÏĥÎºÎŃÏĢ":3794,"ĠÎµÏĢÎ¯Î¸ÎµÏĥÎ·":3795,"ĠÎ´ÎµÏįÏĦÎµÏģÎ¿":3796,"ĠÎŃÏģÎ¸":3797,"ĠÎ»ÏĮÎ³Î¿ÏĤ":3798,"ĠÎĳÎ³Î¯Î¿Ïħ":3799,"Ġ2011":3800,"ĠÎĺÎŃ":3801,"ĠÎ´Î¿Î»Î¿":3802,"ĠÎłÎ±Î»":3803,"ÏģÎ±Î²":3804,"ĠÎĽÎŃ":3805,"ÎºÎ±Î¯ÏģÎ¹":3806,"ĠÎ±Î½Î¿Î¹Ïĩ":3807,"Î½ÎµÏĦÎµ":3808,"Î¬Î¶Î¿ÏħÎ½":3809,"ĠÎ·Î³Îµ":3810,"ost":3811,"ĠÎ³Î¿Î½ÎµÎ¯ÏĤ":3812,"ĠÎ¸ÎŃÎ±":3813,"ĠÏĦÏįÏĢÎ¿Ïħ":3814,"ĠÎ¿Î»Î¿ÎºÎ»Î·ÏģÏī":3815,"Î»Î»Î¿Ïħ":3816,"ĠÎ¹ÎºÎ±Î½":3817,"ĠEuro":3818,"Î¬Î½ÏĦÎ±":3819,"ĠÎŃÎºÎ¸ÎµÏĥÎ·":3820,"ĠÎ±ÏĥÏĨÎ±":3821,"Î¼Ïį":3822,"ÏĨÎµÏģÎµÎ¹Î±":3823,"ÏĢÏĮÏĦÎµ":3824,"ĠÎ´Î¿ÏįÎ¼Îµ":3825,"ĠÏħÏĢÎ¬Ïģ":3826,"Î¹ÏĥÏĦÎ¹ÎºÏĮ":3827,"ĠÎºÎ±Î½ÎŃÎ½Î±":3828,"ĠÎµÏĢÎ¹ÏĥÏĦÎ·Î¼Î¿Î½":3829,"22":3830,"ĠÎ²ÏģÎ®":3831,"ÏĩÏģÎ¿Î½Î¿":3832,"ĠÏĩÎ¸ÎµÏĤ":3833,"ĠÎĴÏģÎµ":3834,"Î¼ÎŃÎ½Î¿ÏħÎ½":3835,"ĠÎŃÎ´ÏīÏĥÎµ":3836,"ĠÎºÎ¯Î½Î·":3837,"ÏĢÎ¹ÏĥÎ·":3838,"ÎķÏĢ":3839,"ĠÏĩÏģÏĮÎ½Î¿Ïħ":3840,"ĠÏĩÏģÎ®Î¼Î±ÏĦÎ±":3841,"ĠÎĶÎķ":3842,"ĠÎµÏĢÎ·":3843,"Î¼Ïİ":3844,"Î³ÏģÎ±ÏĪÎµ":3845,"ĠÎ±ÏĢÎ¿ÏĦÎµÎ»ÎµÏĥÎ¼Î±":3846,"Î³Î¿Î½ÏĦÎ±ÏĤ":3847,"Î¸ÎµÏĥÎµ":3848,"Î¸Î·ÏĥÎµ":3849,"ĠÎ½ÎŃÏīÎ½":3850,"ÎĿÎ¤":3851,"Î¹ÏĥÏĦÎŃÏĤ":3852,"ĠÏĢÎ±ÏģÏĮÎ½":3853,"ĠÎ´ÎµÎ¯ÏĩÎ½ÎµÎ¹":3854,"ÏĦÎŃÏģÏī":3855,"ĠÎŃÎ²":3856,"ĠÏĥÏĦÏģÎ±ÏĦÎ·Î³":3857,"Î¸Î·ÏĥÎ±Î½":3858,"ĠÎºÏģÏħ":3859,"ĠÎµÎºÎºÎ»Î·":3860,"ĠÎµÎºÎµÎ¯Î½Î·":3861,"ĠÎ³ÎŃ":3862,"ĠÏĦÏģÎ±Î³Î¿Ïħ":3863,"ĠÎµÏįÎºÎ¿Î»Î±":3864,"io":3865,"ĠÎľÎµÏĦÎ¬":3866,"Î¬Î½Î·":3867,"ĠÎ¼Î¬Î»Î»Î¿Î½":3868,"ĠÎµÎºÎ´Î®Î»ÏīÏĥÎ·":3869,"ĠÎļÎ±ÏĦÎ¬":3870,"ÎµÎ´ÏģÎ¿":3871,"ĠÎ¬Î½Î¿Î¹":3872,"Î¼ÏĮÏĦÎ·ÏĦÎ±":3873,"port":3874,"ĠÏĢÏģÎ¬Î³Î¼Î±":3875,"ĠÎ½Î¿ÏĥÎ¿ÎºÎ¿":3876,"ÏĨÎ¸ÎµÎ¯":3877,"ĠÎµÎ½Î´Îµ":3878,"ĠÎ¹ÎºÎ±Î½Î¿":3879,"ĠÏĢÎ¿Î»Î»Î¿Î¯":3880,"ĠÎľÎ¿Î½":3881,"ĠÎ±Î½Î±Î¼ÎŃÎ½ÎµÏĦÎ±Î¹":3882,"ÏĨÎµÏģÏĮ":3883,"ĠÎĻÎ½":3884,"Î¯ÏĥÎ¿ÏħÎ¼Îµ":3885,"ĠÎ±Î½ÏĦÎ¹ÎºÎ±":3886,"ĠÎŃÎºÎ´Î¿ÏĥÎ·":3887,"ĠÎĳÏħÏĦÎ®":3888,"ĠÏĥÏĩÎŃÏĥÎµÎ¹ÏĤ":3889,"ĠÎ¼Î¿Î½ÏĦÎŃ":3890,"ĠÎ¤Î¼Î®":3891,"Î´Î¿ÏħÏĤ":3892,"Î¼ÎŃÎ½ÏīÏĤ":3893,"ÏĥÏĦÎ¹Î±":3894,"ĠÎµÎ¾Ïħ":3895,"ĠÎ±Î¹ÏİÎ½Î±":3896,"ĠÎ±Î»Î»Î±Î³ÎŃÏĤ":3897,"Î¾ÎµÏĦÎµ":3898,"ĠÏĨÎŃÏĦÎ¿ÏĤ":3899,"ĠY":3900,"25":3901,"ĠÎ¦Î¹":3902,"ÎºÎ¹Î½":3903,"ÏĦÎ¿Î¹Î¼Î¬":3904,"ĠÏĨÏģÎ¿Î½":3905,"ÏģÎ±Î¼Î±":3906,"Î¹ÏĥÏĦÎ¿":3907,"ĠÎļÏį":3908,"ĠÎµÏĢÏĮÎ¼ÎµÎ½Î·":3909,"ĠÎµÎºÏĦÎ¹":3910,"ĠÎ·Î»Î¹ÎºÎ¯Î±":3911,"ĠÎĴÎ¿ÏħÎ»":3912,"ĠÎ±Î»Î»Î±Î³Î®":3913,"ĠÎ±Î½Î±Î¶Î·":3914,"ÏĦÎµÎ¯Î±ÏĤ":3915,"ĠÎ¿Î¼Î¹":3916,"ĠÎľÎ¿":3917,"Ġhttp":3918,"ge":3919,"Î¹ÎºÎ¿Î½":3920,"ÏĦÏħÏĢÎ¿":3921,"ĠÎ¶Î®ÏĦÎ·Î¼Î±":3922,"ĠÎµÏĢÎµÎ¾ÎµÏģÎ³":3923,"Î¼ÎµÎ½ÎµÏĤ":3924,"Î¯ÏĥÏĩÏħ":3925,"ĠÎµÏĥÏį":3926,"ÏĦÏįÏĢ":3927,"ĠÏĢÏģÎ¿ÏĢÎ¿":3928,"ĠÏĢÏģÏĮÏĥÏīÏĢÎ¿":3929,"ÏĢÏİÎ½":3930,"ÏģÏīÏĥÎµ":3931,"ĠÎ¤ÎµÏĦÎ¬ÏģÏĦÎ·":3932,"ob":3933,"ĠÎ¿ÏĢÎ¿Î¹Î±":3934,"ĠÎºÎ±Î¸Î·Î³Î·":3935,"ĠÏĨÎ¿Î¹ÏĦÎ·":3936,"ÏĢÏģÎ¿ÏĥÏī":3937,"ĠÎķÎļ":3938,"ĠÎ³ÎµÏį":3939,"ack":3940,"ĠÎ£ÏĦÎ·":3941,"tom":3942,"ĠÎļÎµ":3943,"ĠÏĢÎµÏģÎ¹Î¿ÏĩÎ®ÏĤ":3944,"ĠÎłÎ±Î½Î±Î³":3945,"Î¼Î¯ÏĥÎµÎ¹ÏĤ":3946,"ĠÏĢÎ±Î¹Î´Î¹ÏİÎ½":3947,"Î¼Î¯Î±ÏĤ":3948,"ĠÎµÎ½ÏĦÏħÏĢÏī":3949,"Î½ÎµÏħ":3950,"Î±ÏĥÏĦÎµÎ¯":3951,"ĠÎ»Î¬Î¸Î¿ÏĤ":3952,"ĠÏĦÎ¼Î®Î¼Î±":3953,"ĠÏĢÎ½ÎµÏħÎ¼Î±":3954,"ĠÎ³Î¯Î½Î¿ÏħÎ½":3955,"ĠÎµÏĢÎ¹Î²Îµ":3956,"ĠÎµÎºÏĢÎ¿Î¼ÏĢ":3957,"ĠÏĢÏģÎ¿ÏĥÎ¸ÎŃ":3958,"ÎºÏģÎ¹Î¬":3959,"ĠÎµÎ¾ÎµÎ»Î¯":3960,"ĠÏĥÏħÏĥÏĦÎ®Î¼Î±ÏĦÎ¿ÏĤ":3961,"ĠÎ´Î¯Îº":3962,"if":3963,"ĠÎ»ÏĮÎ³Î¿ÏħÏĤ":3964,"ÏĨÏģÎ±":3965,"ÎºÏģÎ¯":3966,"ĠÎľÎĳÎ£":3967,"ĠÏĢÎ¿Î¹Î¿":3968,"ÏĦÎ¹ÎºÎ±":3969,"ÏĦÎ¹ÎºÏĮÏĦÎ·ÏĦÎ±ÏĤ":3970,"ĠÎ³ÏģÎ®Î³Î¿ÏģÎ±":3971,"ĠÏĢÎ·Î³":3972,"Î²Î¿ÏħÎ»":3973,"Î¯Î½Î·ÏĤ":3974,"ĠÎ¼Ïį":3975,"ÎºÎ¯":3976,"ÏģÎ¹ÏĥÎ·ÏĤ":3977,"ĠÏĥÏĦÎ®ÏģÎ¹":3978,"Ġst":3979,"ÎĻÎļÎĹ":3980,"ĠÎ½Î¹Ïİ":3981,"Î¸Î»Î·Î¼Î±":3982,"ĠÎ¼ÏĢÎ¿ÏģÎµÎ¯ÏĤ":3983,"ĠÏĢÎ±Î»Î¹":3984,"Î¹Î¬Î¶ÎµÎ¹":3985,"ÏģÎ®ÏĥÎµÏīÎ½":3986,"ÏįÎ¸Ïħ":3987,"ĠÎ³Î·":3988,"ÎµÏĥÎ·":3989,"ĠÎ²Î¬Ïģ":3990,"ĠÏĢÎ¹Î¬":3991,"ÏģÎ¿Î¯":3992,"Î´ÎµÏį":3993,"ÏģÎŃÎ±":3994,"ÎµÎ¹Î¬":3995,"ÏģÎ¹ÎºÎ®ÏĤ":3996,"ĠÎ¼Î½Î®":3997,"ast":3998,"Î¶ÏĮÎ½":3999,"ĠÎ²Î¿Î®Î¸ÎµÎ¹Î±":4000,"Ġcookies":4001,"ĠÎµÎ¯ÏĥÏĦÎµ":4002,"ĠÎĵÎµÏģÎ¼Î±Î½Î¯Î±":4003,"ÎµÎ¯Î¼ÎµÎ½Î±":4004,"ĠÎµÏĢÎ¯ÏĥÎ·":4005,"ÏĥÏįÎ½Î·ÏĤ":4006,"ore":4007,"ĠÎ±Î¼ÎŃÏĥÏīÏĤ":4008,"ĠÎłÎµÎ¹ÏģÎ±Î¹":4009,"ĠÏĦÎ±ÏĩÏħÎ´ÏģÎ¿Î¼ÎµÎ¯Î¿Ïħ":4010,"Î£ÏĦÎ¹ÏĤ":4011,"ĠÏĢÎ±Î¹ÏĩÎ½Î¯Î´Î¹Î±":4012,"ÏĨÎ®ÏĤ":4013,"ĠÎĳÎ»Îµ":4014,"Î¼ÎµÎ¯Î±":4015,"ĠÎ¬Ïģ":4016,"ÎŁÎĵ":4017,"ÎķÎĳ":4018,"ĠÎµÎ¾ÎŃÎ»Î¹Î¾Î·":4019,"ĠÎºÎ±ÏģÎº":4020,"Î³ÎµÏħÎ¼Î±":4021,"ÏĦÎ®ÏĥÏĦÎµ":4022,"ĠÎµÎ¼Î¬ÏĤ":4023,"ĠÎ´Î¹ÎµÎ¸":4024,"ĠÎłÎŃÎ¼ÏĢÏĦÎ·":4025,"ÏģÎ¼Î·":4026,"ĠÎĶÎ·Î¼ÏĮ":4027,"ĠÎºÎ¬ÏĢÎ¿Î¹ÎµÏĤ":4028,"ÏĥÎ¿ÏĤ":4029,"ĠÏĥÏħÎ½Î¬Î½ÏĦÎ·ÏĥÎ·":4030,"ÏħÎ½ÏĥÎ·":4031,"ĠÏĦÏģÏĮÏĢÎ¿ÏĤ":4032,"ĠÎ¿Î¹ÎºÎ¿Î³ÎŃÎ½ÎµÎ¹Î±":4033,"ÎĲÎ¿Ïħ":4034,"ÏĦÏĥÎ¹Î±":4035,"ĠÏĢÎ¿ÏĥÎ¿ÏĥÏĦÏĮ":4036,"Î´ÎµÎ¹Î±":4037,"Î¼Î¿Ïĥ":4038,"ĠÏĥÏħÎ¼ÏĢÎ»Î·":4039,"ĠÏĢÎ·":4040,"ĠÎ½ÏįÏĩ":4041,"ÏĩÎŃ":4042,"ÎļÎ¹":4043,"ĠÎµÏģÎµÏħÎ½Î·":4044,"ĠÏĥÏħÎ¶Î®ÏĦÎ·ÏĥÎ·":4045,"ĠÎ¿Î¹ÎºÎ¿Î½Î¿Î¼Î¯Î±":4046,"ĠÎºÎ±Î¹Î½Î¿Ïį":4047,"ĠÎĮÏĢÏīÏĤ":4048,"Î¡Î©":4049,"ĠÎķÎ¾":4050,"ight":4051,"ĠÎĴÎ¿ÏħÎ»Î®":4052,"ĠÎ³Î»ÏİÏĥÏĥÎ±":4053,"Î±ÏĥÎ¯ÎµÏĤ":4054,"ĠÎ±Î½ÏĦÎ¹Ïĥ":4055,"ĠÎŃÎ¾":4056,"ĠÎ³ÏħÎ¼":4057,"ÏĨÎ±Î»Î®ÏĤ":4058,"ĠÏĥÏĦÎ¬ÏĥÎ·":4059,"ex":4060,"ĠÏĥÎ·Î¼Î±ÏĥÎ¯Î±":4061,"ÏĮÏĦÎ±Î½":4062,"ĠÎ¹ÏĥÏĦÏĮ":4063,"ĠÏĨÏīÏĤ":4064,"ÏĦÏħÎ±":4065,"ÏĦÎ·ÏģÎ¯Î¿Ïħ":4066,"ĠÎ¾ÎŃÏģÏī":4067,"ĠÏĩÏģÏİÎ¼Î±":4068,"ÏĩÎµÏĤ":4069,"ĠÏĥÏħÎ¼Î²Î±Î¯Î½ÎµÎ¹":4070,"ÏĦÏģÎ¿ÏĨÎ®ÏĤ":4071,"ÏĨÎ¿ÏħÏĤ":4072,"ĠÏĦÎµÎ»ÎµÎ¹":4073,"ĠÏĦÏĥÎ¹":4074,"ĠÎĽÎµÏħ":4075,"ĠÏĢÏģÎ¿ÏĬÏĮÎ½ÏĦÏīÎ½":4076,"Î¿Î¯":4077,"ĠÏĥÏħÎ½ÎŃÎ½ÏĦÎµÏħ":4078,"ÏĨÎ¿ÏģÎ¼Î®":4079,"ĠÏħÎ³ÎµÎ¯Î±ÏĤ":4080,"ĠÎ´Î¹ÎµÎº":4081,"ĠÎ£ÏĦÏģÎ±":4082,"ĠÎķÎł":4083,"ĠÏĩÎŃÏģÎ¹":4084,"Î¹ÎºÏĮÏĦÎµÏģÎ±":4085,"ĠÎłÎ±Î½ÎµÏĢÎ¹ÏĥÏĦÎ·":4086,"ĠÎĵÎ¹ÏİÏģÎ³Î¿ÏĤ":4087,"ÎķÎĶ":4088,"ĠÏĥÏħÏĥÎºÎµÏħ":4089,"ĠÎºÎ±ÏĦ":4090,"ÎºÏĦÎ¹ÎºÎ¬":4091,"ĠÎ¼ÏĢÎ¿ÏģÏİ":4092,"Ġ29":4093,"ĠÎºÎ±Î»Î¿ÎºÎ±Î¯ÏģÎ¹":4094,"Ġi":4095,"ĠÎ³ÎµÏģÎ¼Î±Î½":4096,"ĠÎ£ÏįÎ½":4097,"Î¾Î¹Î¬":4098,"ĠÏĨÎ±Î¹Î½ÏĮ":4099,"ĠÏĢÎ¿Î»Î¹ÏĦÎ¹ÎºÏĮ":4100,"ĠÎ±ÏģÎ½Î·":4101,"ĠÎ¥ÏĢÎ·ÏģÎµ":4102,"ÏīÏĥÏĦÎµ":4103,"ĠÏĪÎ·ÏĨ":4104,"Î»ÎµÏħÏĥÎ·":4105,"Î¼Î½Î·":4106,"ĠÎºÎ±ÏĦÎ¿Î¹Îº":4107,"ĠÎľÎĳ":4108,"ĠÎľÎ±ÎĲÎ¿Ïħ":4109,"ĠÎĪÎ»Î»Î·":4110,"ÏĥÏĦÎ·ÏĤ":4111,"ÏĥÏĦÎ¿ÏĤ":4112,"ÏĥÎ¹Î¼Î·":4113,"ÎºÎ¿ÏįÏĤ":4114,"ÏİÎ½Î·":4115,"ĠÏħÏĢÎ®Ïģ":4116,"ĠÎ±Î½ÏĦ":4117,"Î³ÏģÎ±ÏĨÎ¯Î±":4118,"á½¶":4119,"ĠÎ¼Î±Ïģ":4120,"ĠÎµÎºÎ±ÏĦÎ¿Î¼Î¼ÏįÏģÎ¹Î±":4121,"ĠÏĢÎ±Î¯Ïģ":4122,"Î³ÏİÎ½":4123,"Î»ÎµÏĥ":4124,"Î¿Î»Î®":4125,"40":4126,"Ġ2010":4127,"ague":4128,"ĠÏĢÎ¿Î»Îµ":4129,"ĠÎµÏĢÎ·ÏģÎµ":4130,"ÏĦÎ®Î¼Î¹Î¿":4131,"ĠÏĥÏĦÎ±Î¼Î±":4132,"ĠÎŃÎ»ÎµÎ³ÏĩÎ¿":4133,"ĠâĤ¬":4134,"ĠÏħÏĢÎŃÏģÎ¿":4135,"ÏģÎµÏĥ":4136,"ĠÎŃÎºÎ±Î½Î±Î½":4137,"23":4138,"ĠÎ´Î¹ÎºÎ±Î¹ÏİÎ¼Î±ÏĦÎ±":4139,"ÎĹÎľ":4140,"ĠÎ±Î³Î¿Ïģ":4141,"ĠÎłÎ±Î½Î±Î¸Î·Î½Î±ÏĬ":4142,"ÏģÎ±Î³Ïī":4143,"ĠÎ±Î½Î±Î³ÎºÎ±":4144,"ÏģÏįÎ¸":4145,"his":4146,"ĠÎ±Î¼ÎµÏģÎ¹ÎºÎ±Î½":4147,"Î®ÏĥÎµÏĦÎµ":4148,"ĠÎºÎ»Î·":4149,"ĠÏĢÏģÎ¿Î³ÏģÎ±Î¼Î¼Î±":4150,"ĠÎķÎ»Î»Î¬Î´Î¿ÏĤ":4151,"ĠÎ±Î½ÏĦÎ±Î³ÏīÎ½Î¹Ïĥ":4152,"ĠÏĥÏĩÎ¿Î»ÎµÎ¯Î¿":4153,"ĠÎ±Î³ÏİÎ½ÎµÏĤ":4154,"ĠÎ´Î¹Î¿ÏģÎ³Î±Î½":4155,"ÏĮÎ´Î¿":4156,"ĠÎ¤ÏģÎ±":4157,"ĠÎ±ÏģÎ¼ÏĮ":4158,"ÏģÏĦÎ®Î¸Î·ÎºÎµ":4159,"ĠÎ´Î·Î¼Î¿ÏĥÎ¹Î¿Î³ÏģÎ¬ÏĨ":4160,"Î³ÏģÎ±Î¼":4161,"ĠÏĨÎ¯Î»Î¿ÏħÏĤ":4162,"ĠÎ±ÏģÎ³ÏĮÏĦÎµÏģÎ±":4163,"ĠÎ¾ÎµÎºÎ¯Î½Î·ÏĥÎµ":4164,"ĠÎĶÎ·Î¼Î¿ÎºÏģÎ±ÏĦÎ¯Î±ÏĤ":4165,"ĠÏĩÎµÎ¹ÏģÏĮ":4166,"Î´ÏģÎ¿Î¼Î®":4167,"ÎŁÎ¥ÎĿ":4168,"ĠÎ³Î®":4169,"Î»Î¿ÏįÎ½ÏĦÎ±Î¹":4170,"ÎļÎŁ":4171,"ĠÎ²Ïħ":4172,"ĠÏĨÎ±Î³":4173,"ĠÎ¬Î½Î´":4174,"ĠÎ¹ÏĥÎ¿":4175,"Î´ÎµÏĥÎ·":4176,"ÎºÎ±Î¼Îµ":4177,"ĠÎĳÎ¹Î³Î±":4178,"ÏĦÎ·ÏĦÎ¬":4179,"ĠÏĥÏħÎ½ÎµÎ¹":4180,"ĠÎ¥Î³ÎµÎ¯Î±ÏĤ":4181,"ÏĢÎ¿ÏħÎ»Î¿":4182,"ĠÎ²ÏģÎµÎ¯ÏĦÎµ":4183,"ĠÎĴÎµÎ½":4184,"Î»Î»ÏĮÎ³Î¿Ïħ":4185,"ÏģÏĮÏĥÏī":4186,"ĠÎµÏĢÎ±Î½":4187,"Î»ÏĮÎ³Î¹Î¿":4188,"ĠÎ±ÏĢÎ¬Î½":4189,"Î´Î¯Î±ÏĤ":4190,"ĠÎµÎ»Î»Î·Î½Î¹ÎºÎ®ÏĤ":4191,"Ġ198":4192,"Î¸Î¿Ïħ":4193,"ĠÏĢÏģÎ¿ÏĥÏĦÎ±ÏĥÎ¯Î±":4194,"ÏĢÏģÎ¬":4195,"ĠÏĢÎ»Î·ÏģÏī":4196,"ĠÏĥÏįÎ½Î¿Î»Î¿":4197,"ÎļÎ¿Î¹Î½Î¿":4198,"ĠÏĢÎ»Î±Î½":4199,"ÏĨÎ¿Î½":4200,"ÎłÎ±ÏģÎ¬":4201,"ĠÏĨÏīÏĦÎ¿Î³ÏģÎ±ÏĨÎ¯Î±":4202,"ĠÎ¯Î´Î¹":4203,"ÏĦÎ¬ÎµÎ¹":4204,"ĠÎĻÏīÎ¬Î½":4205,"Î¿ÏįÎ¼ÎµÎ½Î¿":4206,"ĠÎºÏĮÏĥÏĦÎ¿ÏĤ":4207,"ĠÎ±ÏģÏĩÎ±":4208,"ĠÎ¥ÏĢÎ¬":4209,"ill":4210,"ĠÎĵÎµÏīÏģÎ³":4211,"ÏĦÏįÎ¿Ïħ":4212,"Ġblog":4213,"ĠÎ£Î¤ÎŁ":4214,"ĠÎ¸ÎŃÎ»ÎµÏĦÎµ":4215,"ÏĢÎµÏĤ":4216,"ĠÎ¼Î±Î³":4217,"ÏĩÎ½Î·ÏĤ":4218,"ĠÎ´ÎµÎ´Î¿Î¼ÎŃÎ½ÏīÎ½":4219,"Ġá½":4220,"ĠÏĦÎŃÏĦÎ¿Î¹Î¿":4221,"ĠÎ§ÏģÎ®ÏĥÎ·ÏĤ":4222,"ÎĳÏĢÎ¿ÏĥÏĦÎ¿Î»Î®":4223,"ĠÎ´ÏģÎ±ÏĥÏĦÎ·ÏģÎ¹ÏĮ":4224,"ĠÎŃÏĨÏĦÎ±":4225,"ĠÎ´Î·Î»ÏİÏĥÎµÎ¹ÏĤ":4226,"Î¶Î®ÏĦÎ·":4227,"ĠÎ±Î»Î·":4228,"ÏĢÎ¿Ïģ":4229,"Ġá¼Ĳ":4230,"ĠÏĥÏħÎ¼ÏĨÎŃÏģÎ¿Î½":4231,"ÎĳÎ½Î±ÏģÏĦÎ®Î¸Î·ÎºÎµ":4232,"Î»ÏĮÎ³Î·ÏĥÎ·":4233,"ĠÎ´Î¹Î±Î¸ÎŃÏĦÎµÎ¹":4234,"ĠÎ±ÏħÏĦÎ¿ÎºÎ¯Î½Î·ÏĦÎ¿":4235,"ĠÎĳÏģÎ³":4236,"ĠÎĳÎ¸Î®Î½Î±ÏĤ":4237,"ĠÏĢÎ»Î·Î¸ÏħÏĥ":4238,"Î¬ÏģÎ¼Î±":4239,"ĠÎ»ÎµÎ¹ÏĦÎ¿ÏħÏģÎ³Î¯Î±ÏĤ":4240,"ĠBlogger":4241,"ĠÎµÎ½Î·Î¼ÎŃÏģÏīÏĥÎ·":4242,"ĠÎ±ÏĢÎ¿Î´Î¿":4243,"ĠÎ´Î¯ÏĢÎ»Î±":4244,"ÏĮÎ½ÎµÏĤ":4245,"ÎĶÎ¹Î±Î²Î¬ÏĥÏĦÎµ":4246,"ĠÎºÎ¯Î½Î·ÏĥÎ·":4247,"ĠÎ±ÏĨÎ¿ÏģÎ¼Î®":4248,"ĠÎŃÎ³":4249,"ĠÎŃÏĦÎ¿ÏĤ":4250,"ĠÎ±ÏħÎ¾Î·":4251,"ĠÎºÎµÎ¯Î¼ÎµÎ½Î¿":4252,"ĠÎ£Î¤":4253,"ĠÎ»ÎµÏħ":4254,"ĠÎ¸ÎŃÎ»Ïī":4255,"ĠÏĥÏħÎ³ÎºÎµÎºÏģÎ¹Î¼ÎŃÎ½Î¿":4256,"ÎºÎµÏħ":4257,"ĠÎ´Î¹Î±ÏģÎº":4258,"ĠÎ¼ÎµÎ³Î¬Î»Î±":4259,"ÏĥÏħÎ½":4260,"ĠÎµÎ»Î¬ÏĩÎ¹Ïĥ":4261,"ĠRe":4262,"ĠÎµÏĨÎ±ÏģÎ¼ÏĮ":4263,"ĠÎ»Î·":4264,"ĠÎĶÏħ":4265,"ĠÎķÏħÏģÏİÏĢÎ·ÏĤ":4266,"ÏĢÎ¿ÏħÎ»Î¿Ïħ":4267,"ÏĥÎ¿Î¹":4268,"ĠÎļÎ±Î»":4269,"Î»Î±ÏĤ":4270,"ĠÎļÎ±Ïĥ":4271,"ĠÏĢÏģÎ¿Î³ÏģÎ¬Î¼Î¼Î±ÏĦÎ¿ÏĤ":4272,"ĠÎ½ÎµÎº":4273,"ĠÎ±ÏĨÎ¿ÏģÎ¿ÏįÎ½":4274,"Î»Î¯ÎµÏĤ":4275,"ĠÏĩÎ¹":4276,"ĠÎŃÎ»Îµ":4277,"ĠÎ£ÎºÎ¿":4278,"ĠÎŁÎ¹ÎºÎ¿Î½Î¿Î¼Î¹ÎºÏİÎ½":4279,"ĠÎķÏĢÎ¹ÏĦÏģÎ¿ÏĢÎ®":4280,"âĢĿ,":4281,"Î´ÎµÏħ":4282,"Î±ÏĨ":4283,"Î¬Î½ÏĦÎ¹Î±":4284,"ÏģÎ¬Î½":4285,"ĠÎ»Î¯Î³ÎµÏĤ":4286,"ĠÎ¤ÎŃ":4287,"ĠÎµÏħÎ¸ÏįÎ½Î·":4288,"ÏģÎµÎ¯ÎµÏĤ":4289,"ĠÎĽÎ¿":4290,"ÏĦÏģÎ¿Ïħ":4291,"ĠÎ´Î¹Î±ÏĨÎ¿ÏģÎ¬":4292,"ĠÎµÎ½ÎŃÏģÎ³ÎµÎ¹Î±":4293,"Î¾Î¹Î±":4294,"Î¼ÏĢÎ¹":4295,"ÏģÎ¹Îº":4296,"ĠÎ±Î³ÏģÎ¿":4297,"ĠÏĢÎ±ÏģÎ±Î´Î¿ÏĥÎ¹Î±":4298,"âĢĿ.":4299,"ĠÎ¤ÏģÎ¯ÏĦÎ·":4300,"ĠÎ±Î½ÎŃÏĨÎµÏģÎµ":4301,"ĠÎ»ÎµÏĢÏĦÎ¿":4302,"ĠÎºÎ±Î¸Î·Î¼ÎµÏģÎ¹Î½Î¬":4303,"ĠÎµÎ»ÎµÏħÎ¸Îµ":4304,"ĠÎ£ÏħÎ½ÎŃ":4305,"ÏĨÎ¿ÏģÎ¯Î±ÏĤ":4306,"ÎºÎ¿ÏĥÎ¼":4307,"ÎļÎ±ÏĦÎ¬":4308,"Î¯Î½ÎµÏĤ":4309,"ĠÎķÎ£":4310,"ĠÎµÎºÏĢÏģÏĮÏĥÏī":4311,"ÏĥÎ¿ÏĩÎ®":4312,"ĠÎµÏĢÎ¯Î´":4313,"ĠÏĥÏħÎ½Î®Î¸ÏīÏĤ":4314,"ĠÏĥÏħÎ½Î±Î¹Ïĥ":4315,"Î¿Î½ÏĦÎ±":4316,"ĠÎµÏĢÎ¯Ïĥ":4317,"ĠÏĢÎµÏģÎ¹Î»Î±Î¼Î²Î¬Î½ÎµÎ¹":4318,"ĠÎ§ÏģÏħÏĥ":4319,"ÏĢÎµÎ¹ÏĦÎ±":4320,"ĠÏĢÏħÏģÎ¿":4321,"ĠÏĥÎ·Î¼ÎµÎ¯Î±":4322,"ÏĢÎ½":4323,"Î¹ÏīÎ¼Î±":4324,"ĠÎ±ÏĢÎ¿ÏĨÎ¬Ïĥ":4325,"ĠÎ¼ÎµÎ»ÎŃÏĦÎ·":4326,"Atom":4327,"ĠÎ±ÏĥÏĨÎ±Î»Î¹Ïĥ":4328,"ĠÎµÎ½Î·Î¼ÎŃÏģÏīÏĥÎ·ÏĤ":4329,"ĠÎ±Î½Î±ÏĨÎŃÏģÎµÏĦÎ±Î¹":4330,"ĠÎ´ÎŃÏģ":4331,"ĠÎ½Î±Ïħ":4332,"ĠÎ´ÎµÏħ":4333,"ĠÎ¹Î´Î±Î½":4334,"ÏĥÎ¼Î¿ÏįÏĤ":4335,"ĠÎ¬ÏĢÎ¿ÏĪÎ·":4336,"ĠÎľÎ¬Ïģ":4337,"ĠÎºÎ±ÏĦÎ±Î»Î®":4338,"ĠÎłÎĳÎŁÎļ":4339,"Î»Î¹ÎºÎ®ÏĤ":4340,"ĠÂ":4341,"ÏĦÎ¿Î¹Îº":4342,"ĠÏĢÎµÏģÎ±Ïĥ":4343,"Î³ÎµÏģ":4344,"ÎŀÎµ":4345,"ĠÎľÎ±Î½":4346,"ÏĦÎµÏħÏĥÎ·":4347,"ĠÎºÎ±ÏĦÎ¬Î»Î»Î·":4348,"ĠÏĢÎµÏģÎ¹ÎµÏĩÏĮÎ¼ÎµÎ½Î¿":4349,"ĠÎ¼Î±Î½":4350,"60":4351,"ÎļÎ¿Î¹Î½Î¿ÏĢÎ¿Î¯Î·ÏĥÎ·":4352,"Î¼Î¿ÏįÎ½":4353,"ÏĨÏīÎ½Î¿":4354,"ĠÎłÏģÏĮÎµÎ´ÏģÎ¿ÏĤ":4355,"ĠÏĢÎ±ÏģÎ±Î³ÏīÎ³Î®":4356,"ĠÏĩÏģÎ¹Ïĥ":4357,"ĠÏĦÏĮÎ½Î¹ÏĥÎµ":4358,"ĠÎ²Î®Î¼Î±":4359,"Î³ÎºÎ¿":4360,"ĠÎ²ÎµÎ»ÏĦÎ¹":4361,"ÏĪÎ¹":4362,"ĠÏĥÎ¯Î³Î¿ÏħÏģÎ±":4363,"ĠÏħÎ³Î¹":4364,"ĠÎ¦Ïī":4365,"ÏĨÎµÏģÎ±Î½":4366,"ĠÏĥÏħÎ³ÎºÎµÎºÏģÎ¹Î¼ÎŃÎ½Î±":4367,"ĠÎ´Î¹Î±Î³ÏīÎ½Î¹Ïĥ":4368,"net":4369,"Î¿ÏĢÎ»Î¹Ïĥ":4370,"ĠÎµÏĦÎ±Î¹ÏģÎµÎ¯Î±ÏĤ":4371,"ÏĦÎ¬Î¸Î»Î·Î¼Î±":4372,"ÏģÏīÏĤ":4373,"ÏĢÎ¿Î»Î·ÏĤ":4374,"ĠÎºÏħÏģÎ¹Î±":4375,"ĠÎºÎ»Î¯Î¼Î±":4376,"ĠÎ¤ÏįÏĢÎ¿Ïħ":4377,"ĠÎ³ÎºÎ¿Î»":4378,"ÎĳÏħÏĦÎ®":4379,"ĠÎ±ÏĢÎ±ÏģÎ±Î¯ÏĦÎ·":4380,"Î²ÎµÏģ":4381,"ÏģÏİÏĥÎµÎ¹ÏĤ":4382,"ĠÎ¼Î±Î»Î»":4383,"ĠÏĥÏĦÎ®":4384,"ek":4385,"ĠÏĩÏģÎµ":4386,"ĠÎ£Î¿Ïħ":4387,"âĢľ":4388,"ĠÎŃÎ»Î»ÎµÎ¹":4389,"ÏĦÎ®ÏĥÎµÏīÎ½":4390,"ĠÎ¹ÏĥÏĦÏĮÏĦÎ¿":4391,"ark":4392,"Î¯Î¿ÏĤ":4393,"ud":4394,"Î¹Î¶":4395,"ÏĥÏīÎ½":4396,"Î¾ÎŃ":4397,"ĠÎļÏįÏĢÏģÎ¿":4398,"ĠÎ¿ÏĢÎ¿Î¯ÏīÎ½":4399,"ĠÎ±ÏģÎ¹Î¸Î¼ÏĮ":4400,"ĠX":4401,"ĠÎļÎŃÎ½ÏĦÏģÎ¿":4402,"ĠÎ¼Î±ÎºÏģÎ¹Î¬":4403,"ĠÎ´Î·Î¼ÏĮÏĥÎ¹Î¿":4404,"Î»Î¹Î¿ÏĤ":4405,"ĠÎ»Î¿Î³Î±ÏģÎ¹Î±ÏĥÎ¼ÏĮ":4406,"ĠÏĥÏĢÎ¹":4407,"ÎµÏĨÎ±Î»Î®ÏĤ":4408,"ĠÏĮÏĥÎ¿Î¹":4409,"ĠÎĪÏĩÎµÎ¹":4410,"ĠÎ±Î¯Ïĥ":4411,"Î¶Î¿Î¼ÎŃÎ½ÏīÎ½":4412,"ĠÎ§Î±Î»":4413,"Ġ197":4414,"):":4415,"ĠÎĳÏħÏĦÎ¿":4416,"ĠÎ±ÏĢÎ¿Î»Ïį":4417,"ĠÎľÎ¿Ïħ":4418,"ÏģÎ¿ÏħÎ½":4419,"ĠÎ¿ÏģÎ¸":4420,"ĠÎ±Î½Î±Î³Îº":4421,"ÏĨÎ¯Î±":4422,"ÏĩÏĮÎ»Î¹Î±":4423,"ĠÎ®ÏģÎ¸Îµ":4424,"ÎºÏĦÎ¹ÎºÏĮ":4425,"our":4426,"ĠÏĢÎ¿Î´Î¿ÏĥÏĨÎ±Î¹":4427,"Î»Î±Î¯Î¿Ïħ":4428,"ER":4429,"ÏģÏİÎ½ÎµÎ¹":4430,"ÏģÎµÏĥÎ·":4431,"ĠÏĢÎ¿Î»Î¹ÏĦÏİÎ½":4432,"ĠÎĳÎķÎļ":4433,"ÏĢÎ»Î¬":4434,"ĠÎ¾ÎµÎº":4435,"Î¼ÏĮÏģÏĨ":4436,"ĠÎ¹Î´ÎŃÎ±":4437,"Î´ÎµÎ¹Î¾Î·":4438,"ĠÎµÎ¯ÏĩÎ±Î¼Îµ":4439,"ĠÏĢÎ¿Î»Î»Î¿ÏįÏĤ":4440,"Î»Î®ÏĨ":4441,"ĠÎµÏģÎ³Î¿":4442,"ÏĮÏĥÎ¿":4443,"ĠÎłÎ»Î·":4444,"ĠÏĢÎ±ÏģÎ¿ÏħÏĥÎ¯Î±ÏĥÎ·":4445,"Î¼ÏħÎ½Î±":4446,"ĠÎ¬Î¼ÎµÏĥÎ·":4447,"ÏģÎ¯Î¶Î¿Î½ÏĦÎ±Î¹":4448,"ÏĥÏĦÎ¹Î²Î¬Î»":4449,"Î¯ÎºÎ·ÏĥÎ·ÏĤ":4450,"ÏĨÎ±Ïĥ":4451,"ĠÎ²Î±Î¸Î¼ÏĮ":4452,"Î¼Î¿Î½ÎµÏĤ":4453,"ĠÎĴÎ¿":4454,"ĠÏĥÏħÎ»Î»Î¿Î³":4455,"ĠÎķÎ»Î»Î·Î½Î¹ÎºÎ®":4456,"Î¬Î½Î¿Î½ÏĦÎ±Î¹":4457,"Î²ÎŃ":4458,"ÏĩÎµÎ¯ÏīÎ½":4459,"Î¼ÏĢÎ¿Ïħ":4460,"Î½Î®ÏĤ":4461,"ĠÎ³ÎµÎ¼Î¬":4462,"ĠÎµÏĢÎµÎ½Î´Ïį":4463,"ÎĮÎ»Î±":4464,"ÏİÏĦÎ±":4465,"ĠÎ´Î±Î½ÎµÎ¹":4466,"ĠÏĩÎ±ÏģÎ±ÎºÏĦÎ®ÏģÎ±":4467,"ĠÎ½Î¿Î¼Î¿Î¸Îµ":4468,"ĠÎ¿Î½ÏĮ":4469,"Î¼ÏĨÏīÎ½":4470,"ĠÏĦÎ±Î¾Î¯Î´Î¹":4471,"ÏĦÎ¹ÏİÎ½":4472,"ÏģÎ³Î±":4473,"ÎºÏĦÎ±":4474,"ĠÏĢÏģÏİÏĦÎµÏĤ":4475,"Î±Î³ÏīÎ³Î®":4476,"ĠÎ¤ÏĥÎ¯ÏĢÏģÎ±ÏĤ":4477,"ÏĨÏĮÏĥÎ¿Î½":4478,"âĨ":4479,"ĠÎĳÏĥÏĦÏħÎ½Î¿Î¼":4480,"ÏĢÎ¿ÏįÎ»Î¿Ïħ":4481,"2017":4482,"Ġ60":4483,"ĠÏĩÏģÏħÏĥ":4484,"ĠÏĥÏħÎ³ÎºÎµÎºÏģÎ¹Î¼ÎŃÎ½Î·":4485,"ĠÎĳÎ³Î³":4486,"ĠÎºÎ»Î¹":4487,"ian":4488,"ĠÏħÏĢÎ¿ÏĩÏģÎµÏī":4489,"ĠÎ¹Î±ÏĦÏģ":4490,"ĠÎ¿ÏĢÎ¿Î¹Î±Î´Î®ÏĢÎ¿ÏĦÎµ":4491,"Î¡ÎĻÎ£":4492,"ĠÎ¼ÎŃÏĥÎ¿":4493,"ĠÏĢÎµÎ»Î¬":4494,"Î¼Î²Î¿Ïħ":4495,"ĠÎ´Î¹Î¬Î¸ÎµÏĥÎ·":4496,"ĠÏĢÎµÏģÎ¬ÏĥÎµÎ¹":4497,"ĠÎºÎ±ÏĦÎ¿Î¯Îº":4498,"ĠÎĶÎķÎĿ":4499,"ĠÎ¼Ïī":4500,"ÎŃÎ½ÏĦÏģÎ±":4501,"ĠÎ£ÏħÎ¼Î²Î¿ÏįÎ»Î¹Î¿":4502,"ĠÏĢÎ±Î»Î±Î¹":4503,"ĠÎ´ÏģÎ¿":4504,"ĠÎĶÎµÎ¯ÏĦÎµ":4505,"Î»Î¹ÎºÎ¿Ïį":4506,"ÏİÎ½Î±ÏĤ":4507,"ĠÎµÎ½Î¹ÏĥÏĩÏį":4508,"ÏĦÎ±Î¯":4509,"ĠÏĥÎ·Î¼Î±Î½ÏĦÎ¹ÎºÎ®":4510,"ĠÎºÏĮÎ¼Î¼Î±":4511,"Î³Î³Ïį":4512,"ÏĢÏģÎ±":4513,"ĠÎŃÎ½Î±Ïģ":4514,"ĠÏĥÏįÎ³Îº":4515,"ĠÏĪÏħÏĩÎ¿":4516,"ĠÎ¤ÏĥÎ¯ÏĢÏģÎ±":4517,"Î¼Î¹Î¿Ïį":4518,"ĠÏĩÏīÏģÎ¹ÏĮ":4519,"ĠÎŃÏģÎ³Î¿Ïħ":4520,"ĠÎºÏħÎ²ÎµÏģÎ½Î·":4521,"ĠÎ±ÏĢÎ±Ïĥ":4522,"ÏģÎ¹ÏĥÏĦÎ¿":4523,"Î´ÎŃÎ»":4524,"ĠÎ²Î¹Î²Î»Î¯Î±":4525,"inter":4526,"ÏĮÏĦÎµÏģÎ·":4527,"ÏģÎ¹ÏĥÎºÏĮ":4528,"ÏģÎ¹Î±ÎºÎ®ÏĤ":4529,"Î½Î®Î¸Î·ÎºÎµ":4530,"ĠÎ±Î½Î±ÏĢÏĦÏį":4531,"ĠÎ±ÏģÎŃÏĥÎµÎ¹":4532,"ÎºÎ±Î´Î·":4533,"ĠÏĢÎ¿Ïģ":4534,"ĠÎºÎ¿Î¼Î¼Î¬ÏĦÎ¹":4535,"Î¬ÏĦÎµÏĤ":4536,"ĠÎ§Î¬":4537,"ÏĥÎ¹Î¼Î±":4538,"ĠÎ£ÏħÎ¼Î²Î¿ÏħÎ»Î¯Î¿Ïħ":4539,"ĠÎ±ÏĢÎ¿ÎºÎ»ÎµÎ¹ÏĥÏĦÎ¹ÎºÎ¬":4540,"Î¯Î´ÏīÎ½":4541,"Î¹ÏĥÏĦÎ®":4542,"ĠÎ±Î½ÏĦÎ¯Î¸Îµ":4543,"ate":4544,"ĠÏĢÎ»Îµ":4545,"ĠÎµÎ¾Î±ÏĥÏĨÎ±Î»":4546,"ÎŁÎ¡":4547,"ĠÎ¤ÏģÎ¬ÏĢÎµÎ¶":4548,"AR":4549,"Ġ''":4550,"ĠÎµÏĨÎ·Î¼ÎµÏģÎ¯Î´Î±":4551,"ĠÏĨÎ±Î³Î·":4552,"ĠÏĢÏģÎ¬Î¾Î·":4553,"ÏĦÎµÏģÏĮ":4554,"ÎĿÎŃÎ±":4555,"Î»Î¿ÏįÎ¼Îµ":4556,"ĠÏĢÎ±ÏģÎ±Î¼ÎŃÎ½ÎµÎ¹":4557,"ÏĦÎ¯Î¿":4558,"ĠÎ£Î±Î¼Î±":4559,"ĠÎ³ÎµÏī":4560,"ĠÎ¬ÏĨÎ·":4561,"ĠÎ¸ÎµÏģÎ¼Î¿ÎºÏģÎ±":4562,"ĠÏĦÎŃÏĦÎ¿Î¹":4563,"ĠÎľÎµÎ³Î¬":4564,"ĠÏĢÏĦÏİ":4565,"ĠÎłÎ±Î»Î±Î¹":4566,"ÏĦÎ¿Î¹Î¼Î±":4567,"ĠÎ±Î¾Î¯Î±":4568,"Î»ÎµÎ¯ÏĦÎ±Î¹":4569,"ĠÎµÏĢÎ¹Î´":4570,"Ġthe":4571,"ĠÎ¤Î·":4572,"ĠÎķÎºÏĢÎ±Î¯Î´":4573,"ÏģÎ¬ÎºÎ¹":4574,"ĠÏĢÏģÏĮÏĥÎ²Î±ÏĥÎ·":4575,"ĠÎŃÏĢÎ±Î¹":4576,"ÏħÎ¼Î¿":4577,"ĠÎķÎºÎµÎ¯":4578,"ĠÏĮÏģÎ¿ÏħÏĤ":4579,"ĠÏĢÎ»Î®ÏģÎ·":4580,"ĠÎŃÎ³Î¹Î½Î±Î½":4581,"ĠÎ´Î¹Î±ÏĢÎ¹Ïĥ":4582,"ĠÎ³Î½ÏİÎ¼Î·":4583,"ĠÎ¸Î¬Î»Î±ÏĥÏĥÎ±":4584,"ĠÎµÎ»Î»Î·Î½Î¹ÎºÎ¿Ïį":4585,"ĠÎ»Î¿Ïħ":4586,"ĠÎŀÎµ":4587,"ÏĦÏģÎµÏĤ":4588,"ĠÎ´Î¹Î±Î¼Î¿ÏģÏĨ":4589,"ome":4590,"ĠÎŁÏģÎ³Î±Î½":4591,"ial":4592,"Î¼Î¹ÎºÎ¿Ïį":4593,"ĠÎ±Î½Î±ÏģÏĦÎ®ÏĥÎµÎ¹ÏĤ":4594,"ĠÎ±ÏĢÏĮÎ³ÎµÏħÎ¼Î±":4595,"ĠÏħÏĢÎ¿ÏħÏģÎ³ÎµÎ¯Î¿":4596,"ĠÎ¼ÎµÏĦÎŃ":4597,"ĠÎ´Î¹Î¬ÏĨÎ¿ÏģÎ±":4598,"ix":4599,"ĠÎµÎ¹ÎºÏĮÎ½ÎµÏĤ":4600,"ĠÏĢÎ¬ÏģÎ±":4601,"ĠÏĨÎ¬ÏĥÎ·":4602,"ĠÎ»ÎµÎ¹ÏĦÎ¿ÏħÏģÎ³ÎµÎ¯":4603,"ÎŃÎµÏĤ":4604,"ĠÏĦÎ±ÏħÏĦÏĮÏĩÏģÎ¿Î½Î±":4605,"ĠÎ¿Î¹ÎºÎ¿Î³ÎµÎ½":4606,"ĠÎ¸ÏħÎ¼Î¬":4607,"ĠÎºÎ¬ÏĢÎ¿Î¹Î¿Î¹":4608,"ĠÏĢÎ±ÏģÎ¬Î»Î»Î·Î»Î±":4609,"ĠÎ±ÏĢÎ¯":4610,"ĠÏĢÎ¬Î½ÏĦÏīÏĤ":4611,"ÏĥÏĦÎ±ÏĤ":4612,"Ġ31":4613,"ĠÎ±Î´ÏħÎ½Î±":4614,"ĠÎµÏĢÎ¹ÎºÎµÏĨÎ±Î»Î®ÏĤ":4615,"ĠÎĴÏģÎµÏĦÎ±Î½":4616,"ĠÎłÎ±ÏĢÎ±Î½":4617,"ĠÎķÏĢÎ¹ÏĦÏģÎ¿ÏĢÎ®ÏĤ":4618,"ĠÎ±ÏįÏģÎ¹Î¿":4619,"ĠÎ±Î³Î¿ÏģÎ¬ÏĤ":4620,"ĠÏĪÎ®ÏĨ":4621,"ĠÏħÏĢÎ¿Î´Î¿":4622,"ity":4623,"ÏĦÎ¿Î¼Î¿":4624,"ĠÎ·Î¼ÎµÏģÎ¿Î¼Î·Î½":4625,"Î¶Î¬":4626,"ĠÎ¶Îµ":4627,"ĠÎµÎ½ÏĦÏħÏĢÏīÏĥÎ¹Î±":4628,"ÏģÎµÏĥÎµ":4629,"ĠÎ²Î±Ïģ":4630,"ĠÎķÎ¡":4631,"ĠÏĨÎŃÏģÎµÎ¹":4632,"ĠÎ¿Î½Î¿Î¼Î±":4633,"ĠÎ»Î±Î¿Ïį":4634,"ÏģÎ¬Îº":4635,"ÏĦÎ±Î³Î¼Î±":4636,"ÏģÎ¿ÏįÎ½ÏĦÎ±Î¹":4637,"Î²Î¿Î»Î®ÏĤ":4638,"ĠÎłÎ±Î¹Î´ÎµÎ¯Î±ÏĤ":4639,"ĠÎµÏħÏģÏī":4640,"Î±ÏĢÎ¿":4641,"af":4642,"ĠÏĩÏĦÏħ":4643,"ĠÏĦÏģÎ¿ÏĢÎ¿":4644,"ĠÎ¼ÏħÎ±Î»ÏĮ":4645,"ÏĢÎµÏģÎ¬":4646,"Î»Î¬ÎºÎ¹":4647,"ĠÎµÎ½ÏĦÎµ":4648,"ord":4649,"ÏĢÎ»Î·ÏģÏī":4650,"ĠÏĢÎ±Î¯ÎºÏĦÎµÏĤ":4651,"ĠÎ½ÎµÎ±":4652,"ĠÎ´Î¬":4653,"ÏĥÏĦÎ¿ÏįÎ½":4654,"Î³Î¿Î½ÏĦÎ±Î¹":4655,"Î¼Î¹Îº":4656,"ÏĦÎ¯Î¶ÎµÎ¹":4657,"ÎŃÎ±ÏĤ":4658,"ĠÎµÏĢÎ¯ÏĢÎµÎ´Î±":4659,"Î´ÏĮÏĦÎ·ÏĥÎ·":4660,"ĠÎ¸Î¬Î½Î±ÏĦÎ¿":4661,"Î¹ÏĥÎ¼Î¿ÏįÏĤ":4662,"ÏĢÎ¹ÏĦÎ±":4663,"ÏĦÏħÏĩÎ·":4664,"ĠÎ¿ÏĢ":4665,"ĠÎµÎ¿Ïģ":4666,"Î¹ÎŃ":4667,"ĠÎµÎ½Î¯ÏĥÏĩÏħ":4668,"Î¼ÎŃÏģÎ±":4669,"ĠÎµÎ¾ÏīÏĦÎµÏģÎ¹ÎºÏĮ":4670,"ĠÏĮÎ½ÎµÎ¹":4671,"ÏģÏģÎ¿":4672,"ĠÏĨÎ±ÏģÎ¼Î±":4673,"Î¬Î¶ÎµÎ¹":4674,"Î¯ÏīÏĥÎµ":4675,"ĠÏĦÎ·Î»ÎµÏĮ":4676,"ĠÏĢÎ±ÏģÎŃÏĩÎµÎ¹":4677,"ĠÏĢÏģÎ¿ÏĢÎ¿Î½Î·":4678,"ĠÎĪÎ½ÏīÏĥÎ·":4679,"ÏĦÎ¯Î¸ÎµÏĦÎ±Î¹":4680,"Î¸ÎµÎ¹Î±ÏĤ":4681,"ĠÎµÎ¯Î´Î¿ÏħÏĤ":4682,"Î²Î±Î»Îµ":4683,"ÏĨÎ¯Î»":4684,"ĠÏĥÏĩÎ¿":4685,"ĠÎ±Î½Î¬ÏĢÏĦÏħÎ¾Î·ÏĤ":4686,"ĠÎ¬Î½Î¸ÏģÏīÏĢÎ¿":4687,"ĠÎ¿Î»Î¿ÎºÎ»Î®":4688,"ĠÎķÎ¸Î½Î¹ÎºÎ®ÏĤ":4689,"ĠÎĽÎ¯":4690,"Ġk":4691,"ÏĪÎ¿ÏħÎ¼Îµ":4692,"ÏĩÎ±Ïĥ":4693,"ĠÎ±ÏĢÎµÏģÎ³":4694,"ĠÎµÎ¼ÏĨÎ¬Î½Î¹ÏĥÎ·":4695,"ÎºÎ¹Î½Î·":4696,"Î³Î½ÏīÏĥÎ·":4697,"ĠÎŃÎ¼ÏĢ":4698,"ĠÎµÎ¾Î¿ÏĢÎ»Î¹Ïĥ":4699,"Î´Î¿ÏĥÎ·ÏĤ":4700,"ÏĥÏĦÎµÏģÎ±":4701,"ĠÏĢÎµÏģÎ½Î¬":4702,"ĠÎ¤Î¿Î½":4703,"ĠÎłÎ±Î³ÎºÏĮÏĥÎ¼":4704,"ĠÎµÏģÎ³Î±ÏĥÎ¯Î±":4705,"ĠÎ¿Î´Î®":4706,"ĠÎķÎ³":4707,"Î»Î¼":4708,"ĠÎķÎ¸Î½Î¹ÎºÎ®":4709,"ĠÏģÎ¹":4710,"ĠÏĢÎ¿Î»Î¹ÏĦÎ¹ÎºÎŃÏĤ":4711,"ĠÎĮÎ»Î±":4712,"ĠÎ¾Ïį":4713,"ĠÎµÎ¹ÏĥÎ¹":4714,"Î¸ÏģÎ¿":4715,"ÏĦÎ®ÏģÎ·ÏĥÎ·":4716,"ĠÎµÏģÎ³Î±Î¶ÏĮ":4717,"ĠÎ±Î»Î»Î±":4718,"ĠÎķÏĦÎ±Î¹":4719,"ĠÎµÎºÏĢÎ±Î¯Î´ÎµÏħÏĥÎ·":4720,"This":4721,"ĠÏĢÏģÏīÎ¸ÏħÏĢÎ¿ÏħÏģÎ³ÏĮÏĤ":4722,"ind":4723,"ĠÎºÎ±ÎºÏĮ":4724,"ĠÏħÏĢÎ¬ÏģÎ¾ÎµÎ¹":4725,"ĠÎ³ÏģÎ±Î¼Î¼":4726,"ĠÎµÏĢÎ¹ÎºÎ¯Î½":4727,"ĠÎ¿Î´Î·Î³Î®":4728,"ÏįÎ¼Î±":4729,"Î´Î¯ÎºÏĦÏħÎ¿":4730,"ĠÏĦÎ±ÏĩÏį":4731,"ĠÎ±ÏĢÎ¿ÏĨÎ¬ÏĥÎµÎ¹ÏĤ":4732,"Î»Î·ÏĢ":4733,"ĠÎ·Î»Î¹ÎºÎ¯Î±ÏĤ":4734,"ĠÏĨÎ¿ÏģÎ¿Î»Î¿Î³":4735,"ĠÎ¼Î±ÏĦÏĤ":4736,"á¿¦":4737,"ĠÎ³ÎµÎ¹":4738,"ÏĢÎ±Î¹":4739,"ĠÏħÎ»Î¹ÎºÏĮ":4740,"ĠÏĢÎ¿Î¹Îº":4741,"ĠÏĢÎ±ÏģÎ±Î³ÏīÎ³Î®ÏĤ":4742,"ĠÎĽÎ¿Ïħ":4743,"ĠÎ¡Ïİ":4744,"ĠÎ»Î¯Î³Î±":4745,"Î¼Î±ÏģÏĩÎ¿ÏĤ":4746,"Î»ÎµÏģ":4747,"ĠÏĨÏģÎ¬":4748,"ĠÏĦÎ·Î»ÎµÎ¿ÏĢ":4749,"ĠÎ²Î¹Î¿Î¼Î·ÏĩÎ±Î½":4750,"ĠÎ£Î·":4751,"ĠÎºÏįÎº":4752,"ĠÎĺÎµÏĮ":4753,"ĠÏħÏĢÎ®ÏģÏĩÎµ":4754,"ĠÎłÎ±Î½ÎµÏĢÎ¹ÏĥÏĦÎ·Î¼Î¯Î¿Ïħ":4755,"ÏĪÏī":4756,"ĠÎ½Î·ÏĥÎ¯":4757,"ĠÎºÏħÏģÎ¹Î±ÏģÏĩ":4758,"ÏĥÎºÏĮ":4759,"ĠÎºÏģÎ¯ÏĥÎ·ÏĤ":4760,"ĠÎŃÎ´ÎµÎ¹":4761,"ĠÎºÎ±ÏĦÎ±Î½Î¿":4762,"ÏĦÎ¿Î³Î¬Î½":4763,"ĠÏĥÏħÎ³ÎºÎµÎ½ÏĦ":4764,"ÏģÏİÎ¼Î±ÏĦÎ±":4765,"ĠÏĩÏģÎ·ÏĥÎ¹Î¼Î¿ÏĢÎ¿Î¹ÎµÎ¯":4766,"ÏĦÏģÎ¿Ïį":4767,"ÎºÏģÎ¹Î½":4768,"ĠÎ¬Î½Ïī":4769,"ĠÏĥÎ·Î¼Î±Î½ÏĦÎ¹ÎºÎ¬":4770,"Î¼Ïħ":4771,"ĠÎ¶ÎµÏħ":4772,"ĠÎ´Î¹Î¿Î¹ÎºÎ·":4773,"ĠÎµÏĩÎ¸":4774,"Î·Î¸Î¿ÏįÎ½":4775,"ĠÎ´Î·Î»ÏİÎ½":4776,"ĠÎĻÏĥÏģÎ±":4777,"ĠÎ¼ÎµÏģÎ¹ÎºÎŃÏĤ":4778,"ĠÎ¡Îµ":4779,"ĠÏĢÎµÏģÎ¹Î¿ÏģÎ¹Ïĥ":4780,"ÎĶÎµ":4781,"Î»Î·ÏĥÎ·ÏĤ":4782,"ĠÎ¿Î¹ÎºÎ¿Î½Î¿Î¼Î¹ÎºÎ¬":4783,"ÏģÎµÎ¯Î¿":4784,"ĠÎłÏİÏĤ":4785,"ĠÎ±ÏĥÏĨÎ¬Î»ÎµÎ¹Î±":4786,"ĠÎ±Î½Î±ÎºÎ¿Î¯Î½ÏīÏĥÎµ":4787,"Î¯Î½Î¹":4788,"ÏĨÎ¬Î½ÎµÎ¹Î±":4789,"Î»ÏīÎ¼Î±":4790,"ĠÏĢÎ±Î½ÎµÏĢÎ¹Ïĥ":4791,"ĠÏĥÏħÎ½Î´Îµ":4792,"ĠÏĢÏģÎ¿ÏĦÎ¹":4793,"ÏĥÏĥÎ±ÏĤ":4794,"Ġ2009":4795,"ĠÎ²ÏĮ":4796,"ĠÏĢÎµÏģÎ¹Î¿Ïħ":4797,"ĠÏĢÎ¿Î¹Î±":4798,"Î¸ÎµÎ¯ÏĤ":4799,"ĠÏĥÎºÎŃÏĨ":4800,"Î¯ÏĥÎµÎ¹ÏĤ":4801,"Î»Î»Î±Î³Î®":4802,"ĠBlogThis":4803,"ÏģÎ½ÏĦÎ¿Î³Î¬Î½":4804,"ÏģÎ·ÏĥÎ¹Î¼Î¿ÏĢÎ¿Î¹":4805,"ĠÎ·Î¸Î¿":4806,"ĠÏĢÎ»ÎµÎ¹Î¿":4807,"ĠNews":4808,"ĠÎ²ÏģÎŃÎ¸Î·ÎºÎµ":4809,"ĠÎĿÎµ":4810,"Î®ÏĥÎ¿ÏħÎ¼Îµ":4811,"ĠÎĶÎĻÎĳ":4812,"ĠÎºÎ±Î¯":4813,"ĠÎºÎ»Î±":4814,"ÏĥÏĦÏģÎµ":4815,"ĠÎºÎ»Î¹Îº":4816,"ĠÏĥÎ·Î¼ÎµÏģÎ¹Î½Î®":4817,"ens":4818,"ĠÎµÏĢÎ¹ÏĢÎ»ÎŃÎ¿Î½":4819,"Î´ÎµÎ¹ÎºÎ½Ïį":4820,"ĠÎŃÏĢÎµ":4821,"ĠÎµÎ¾Î±Î¹":4822,"Î²Î¹Î±":4823,"ĠÏĢÏģÏīÏĦÎ¿Î²Î¿ÏħÎ»":4824,"ÏĢÎ¿Î¯Î·ÏĥÎµ":4825,"ĠÎ£ÏħÎ½Îµ":4826,"Î»ÎµÎ³Î³Ïį":4827,"ĠÎ±Î¾Î¹ÏīÎ¼Î±":4828,"Î¯Î½ÎµÎ¹ÏĤ":4829,"Î¾ÏīÏĦÎµÏģ":4830,"ÏĦÏģÎŃÏĢÎµÎ¹":4831,"ÏĥÎºÎ·ÏĥÎ·":4832,"ĠÏĦÏģÎ¬ÏĢÎµÎ¶ÎµÏĤ":4833,"ĠÎ£ÏĩÏĮÎ»Î¹Î±":4834,"Ġ;":4835,"ĠÎłÎŁÎ¥":4836,"ÎĿÎŁ":4837,"ĠÎ¼ÎµÏĥÎ·":4838,"ĠÎ¿ÏĢÏĮÏĦÎµ":4839,"ĠÎ¼Î¹Î»Î®":4840,"ĠÏĢÏģÏĮÏĥÏīÏĢÎ±":4841,"ĠÎ±ÏĢÏĮÏĪÎµÎ¹ÏĤ":4842,"ĠÎºÎ±ÎºÎ¿":4843,"ÏİÎ½Î¿Î½ÏĦÎ±Î¹":4844,"ÏĢÏģÎ¿ÏĥÏİ":4845,"ĠÎ¬Î´ÎµÎ¹Î±":4846,"ĠÎĵÎ¹Î¬Î½Î½Î·ÏĤ":4847,"ĠÎĿÎŃÎ±ÏĤ":4848,"ĠÎ´ÏħÏĥÎºÎ¿Î»":4849,"ĠÎ¸ÏħÎ¼":4850,"ĠÎºÏĮÎºÎºÎ¹":4851,"Î»ÎŃÏĥÎµÎ¹":4852,"Î¯Î½Î·ÏĥÎ·":4853,"ĠÎ±Î¹ÏĥÎ¸Î·":4854,"ĠÎ§ÏģÎ¹ÏĥÏĦÎ¿Ïį":4855,"ĠÎ¡ÏīÏĥÎ¯Î±":4856,"Î´ÎµÎ»":4857,"ĠÎµÎ»Î»Î·Î½Î¹ÎºÎ¬":4858,"ĠÏĢÎ±ÏģÎ±ÎºÎ±":4859,"ÏĦÎ¿ÏįÏĥÎµ":4860,"mg":4861,"Î¸ÏİÎ½":4862,"ĠÏĥÏħÎ½Î·":4863,"ress":4864,"ĠÎµÎ½Î·Î¼ÎµÏģÏī":4865,"Î»Î±Î¹Î¿":4866,"ĠÎ½ÏĦÎ¿":4867,"ÏģÏİÎ¸Î·ÎºÎµ":4868,"ĠÎ´Î¹ÎºÎ¬":4869,"ĠÎĪÎ½ÏīÏĥÎ·ÏĤ":4870,"ĠÎµÏĦÎ±Î¹ÏģÎµÎ¯ÎµÏĤ":4871,"ĠÎ¾ÎµÎºÎ¹Î½Î¬":4872,"ĠÎĨÎ³":4873,"ĠÎ±Î¯Î¸":4874,"ĠÎµÎºÎ»Î¿Î³":4875,"ĠÎµÎ¼ÏĢÏĮ":4876,"ĠÎ´ÎµÎºÎ¬":4877,"ÎºÏĮÎ¼Î±":4878,"ĠÏĥÏĦÎµÎ»ÎŃ":4879,"Î£ÏĩÎµ":4880,"ĠÎºÎ¿ÏģÏħÏĨÎ±":4881,"ÏħÏĢÎ¿":4882,"ĠÎĳÎ½Î¬ÏĢÏĦÏħ":4883,"ÏģÎµÎ¹Î±":4884,"Î¼ÎµÏĦÎ¬":4885,"ĠÎ½Î±Î¹":4886,"ĠÎ¾ÎµÏĩÏīÏģÎ¹Ïĥ":4887,"Î½ÏĮÏĤ":4888,"ĠÎļÏī":4889,"Î£Î®Î¼ÎµÏģÎ±":4890,"ĠÎ¬Î½Îµ":4891,"ĠLeague":4892,"ĠÎ¼ÎµÎ³Î±":4893,"ĠÎºÏĦÎ¯":4894,"ĠÎ±ÏħÏĦÎ¿ÎºÎ¹Î½Î®":4895,"ĠÎ¿ÏĨÎµÎ¹":4896,"ĠÏĢÏģÎ¿ÏĦÎ¬ÏĥÎµÎ¹ÏĤ":4897,"ĠÏĨÏīÏĦÎ¹Î¬":4898,"ÎļÎ±ÏĦÎ±":4899,"ĠÎ¦ÏħÏĥ":4900,"ĠÎĶÎ¹Î¬":4901,"ĠÏĢÎ±ÏĦÏģÎ¯":4902,"ĠÎ»Î±ÏĮ":4903,"ÏĦÎ¿ÏħÎ¼Îµ":4904,"ĠÎµÎ½ÎŃÏģÎ³ÎµÎ¹Î±ÏĤ":4905,"ĠÎ´ÎµÎ¯ÏĩÎ½Î¿ÏħÎ½":4906,"ber":4907,"ĠÎ±Î½Î¬Î»Î¿Î³Î±":4908,"ÎĪÏĦÏĥÎ¹":4909,"ĠÎ£ÏįÎ¼ÏĨÏīÎ½Î±":4910,"Î»Î¬Ïĥ":4911,"ont":4912,"ĠÎ¼Î¬ÏĩÎ·":4913,"ĠÎ¼ÏĢÎ¿Ïħ":4914,"ĠÎ£Îķ":4915,"interest":4916,"ÎºÏģÎ¹ÏĥÎ·":4917,"ĠÎºÏģÎ¬ÏĦÎ¿ÏħÏĤ":4918,"ĠÎºÏģÎŃ":4919,"Î¥ÏĢÎ¬":4920,"ĠÏĢÎ¿Î»ÎŃ":4921,"%.":4922,"ĠÎµÏĢÎ¯ÏĥÎºÎµ":4923,"ĠÎļÎµÎ½ÏĦÏģ":4924,"ĠÎµÎ¾ÎµÏĦÎ¬":4925,"ÏĨÏħÎ³Îµ":4926,"ĠÎµÎ¾ÎµÎ»Î¯Î¾ÎµÎ¹ÏĤ":4927,"ĠÎ©ÏĥÏĦÏĮÏĥÎ¿":4928,"ĠÎµÏĢÎ¹Î»Î¿Î³ÎŃÏĤ":4929,"Î¼Î¬Î´Î±":4930,"Î»Î¬Î½":4931,"ĠÎ±Î»Î»Î¬Î¾ÎµÎ¹":4932,"ÎºÎ·Î½Î¿":4933,"Î´Î¿ÏĢÎ¿Î¹":4934,"ĠÎ³ÏģÎ¬ÏĨ":4935,"ÏįÎ½ÎµÎ¹":4936,"ÎĺÎµ":4937,"ĠÎºÎ¿Î¹Î½ÏīÎ½Î¹ÎºÎ®":4938,"ĠÎºÎ·":4939,"Î½Î¯":4940,"ÏĢÎµÎ¹Î±":4941,"ĠÎļÎ¿Î¹":4942,"ĠPinterest":4943,"ĠÏħÏĢÎ·ÏģÎµÏĥÎ¯Î±":4944,"ÎķÏĢÎ¯ÏĥÎ·ÏĤ":4945,"ĠÏĢÎ»ÎµÎ¹Î¿ÏĪÎ·ÏĨ":4946,"ĠÎłÎŁÎĽ":4947,"ĠÏĥÏĦÎµÎ¯":4948,"ĠÎ¼Î¿Î¹":4949,"ĠÏĪÎ·ÏĨÎ¿":4950,"ÎķÎĻÎĳ":4951,"ĠÎºÎ±ÏĨÎŃ":4952,"ĠÎ±ÎºÎ¿Î»Î¿ÏħÎ¸Î®":4953,"ĠÏĥÏĩÎ¿Î»ÎµÎ¯Î±":4954,"ĠÏĥÏĩÎµÏĦÎ¹ÎºÎ®":4955,"Î¬Î»ÏħÏĥÎ·":4956,"Î²Î¿ÏħÎ½":4957,"ĠÎŃÏĥÏĦÏī":4958,"Î¼Î²ÏģÎ¹Î¿":4959,"ĠÎ±Î½ÏĦÎ¹Î´ÏģÎ¬":4960,"ÏĥÎ±ÏĤ":4961,"Î·ÏĥÏħÏĩ":4962,"ĠÎµÏĢÎ¹Î¸Îµ":4963,"ĠÎ´Î¹Î±ÏĩÎµÎ¹":4964,"ĠÎµÎ½Î¬Î½ÏĦÎ¹Î±":4965,"ĠÎ¼Î·ÏĦÎŃÏģÎ±":4966,"ÏģÎ¹ÎºÏİÎ½":4967,"Î·Î³ÏĮ":4968,"ĠÎ³ÏģÎ±Î¼Î¼Î®":4969,"ĠÎ¬ÏģÎ¸ÏģÎ±":4970,"Î¹ÎºÏĮÏĦÎ·ÏĦÎ±":4971,"ĠÏĩÎ¬ÏģÎ·":4972,"ÏģÎ¹ÏĮÏĦÎ·ÏĦÎ±":4973,"ÏĦÎ¹Î¿Ïį":4974,"ĠÎ±ÏģÎ¹Î¸Î¼ÏĮÏĤ":4975,"ĠÎĹÎ½Ïī":4976,"ĠÏħÏĢÎµÏįÎ¸Ïħ":4977,"ĠÏĩÏİÏģÎ¿ÏħÏĤ":4978,"ĠÎ¼ÎµÏĦÎ±Î½Î¬":4979,"Î¸ÎµÏĦÎµ":4980,"ĠÎ±Î½Î¬ÏģÏĦÎ·ÏĥÎ·ÏĤ":4981,"gle":4982,"ĠÎºÏħÏģÎ¯Î±":4983,"ĠÎ¹ÏĥÏĩÏįÎµÎ¹":4984,"ĠÎĿÎ¯ÎºÎ¿ÏĤ":4985,"ĠOn":4986,"Ġ#":4987,"ĠÎ±Î½Î±Î»Ïħ":4988,"ĠÎ»ÎµÏĤ":4989,"ĠÎ»Î¹Î³ÏĮÏĦÎµÏģÎ¿":4990,"ÏĦÏģÎ±ÏĤ":4991,"ĠÎŃÎ½Î±Î½ÏĦÎ¹":4992,"ÎĳÎ¡":4993,"ĠÎ±ÏĢÎ¿Ïĥ":4994,"ĠÎ»Î±ÏĮÏĤ":4995,"ĠÎ±ÏĢÎ¿Î´ÎµÎ¯":4996,"ĠÎµÏĢÏĮÎ¼ÎµÎ½Î¿":4997,"ĠÎºÎ±Î¸ÏĮÎ»Î¿Ïħ":4998,"Î´ÏģÎ¹Î¿":4999,"Ġ35":5000,"Î³Î¼Î±ÏĦÎ¿ÏĤ":5001,"ÏĩÎ±ÏģÎ·":5002,"Î´ÏģÎŃÎ¿Ïħ":5003,"ĠÏĥÏĩÎ·Î¼Î±":5004,"ÏĢÏİ":5005,"Î¿Î½ÏĦÎµÏĤ":5006,"ĠÏĢÏĮÎ´Î¹Î±":5007,"ĠÎ¬ÏģÎ¸ÏģÎ¿Ïħ":5008,"ĠÎĴÎ±ÏĥÎ¯":5009,"ĠÏĢÎ±ÏģÎ±Î¼Îµ":5010,"á½¸":5011,"Î®Î¸Î·ÎºÎ±Î½":5012,"ĠÏĢÎµÎ½":5013,"ĠÏĢÎ¿Ïĥ":5014,"ĠÎ´ÏįÏĥÎºÎ¿Î»Î¿":5015,"ĠÎŃÏĦÎ¿ÏħÏĤ":5016,"ĠÏĦÎµÎ»ÎµÏħÏĦÎ±Î¯ÎµÏĤ":5017,"ÏĦÎµÎ¯ÏĦÎµ":5018,"ĠÏĪÏħÏĩÎ®":5019,"ĠÎ±Î´ÎµÎ»":5020,"ÏĦÏĥÎµ":5021,"ect":5022,"ĠÎ´ÎŃÎºÎ±":5023,"Î¸Î¿ÏħÏĤ":5024,"ĠÏĦÎ¿ÏħÏģÎ¹Ïĥ":5025,"ĠÎĺÎµÎ¿Ïį":5026,"ĠThe":5027,"ĠÎ´Î¹Î±ÏĨÎ·":5028,"ĠÎ±Î³Î¿ÏģÎŃÏĤ":5029,"ĠÎ´Î¿Î»Î¿ÏĨÎ¿Î½":5030,"ĠÎµÎ¯ÏĥÎ¿":5031,"ĠÏįÏĢÎ±Ïģ":5032,"ĠÎļÎ±Î½":5033,"ÏĩÎ¿Î½ÏĦÎ±Î¹":5034,"ĠÎłÏģÏīÏĦÎ¿":5035,"ĠÎ±Î½Î·ÏĥÏħÏĩ":5036,"ĠÎ¿Î½Î¿Î¼Î¬":5037,"ĠÎĮÎ¼ÏīÏĤ":5038,"ĠÎºÎ¯Î½Î´ÏħÎ½Î¿":5039,"ĠÏĥÏħÎ³ÎºÎŃÎ½ÏĦ":5040,"Î´ÏħÎ½Î±":5041,"ĠÏĢÎ¯Î½Î±":5042,"ÏĦÎ¿ÏĢÎ¿Î¯Î·ÏĥÎ·":5043,"ĠÏĨÏħÏĥÎ¹ÎºÏĮ":5044,"ĠÎ¯":5045,"ÏĨÎ¿Ïħ":5046,"Ġ80":5047,"ĠÎ¼ÏĮÎ½Î·":5048,"ĠÎºÎ±ÏĦÎ±Î½Î¬Î»":5049,"ĠÎ´Î±Ïĥ":5050,"Î¬Î»Î¹ÏĥÏĦÎ±":5051,"ĠÏĩÏģÏĮÎ½Î¿ÏĤ":5052,"ÏħÎ½ÎµÏĤ":5053,"ÏĢÎ±ÏģÎ±":5054,"ÏīÎ¼Î¬ÏĦÏīÎ½":5055,"ĠÎ¿ÏħÏĥÎ¯Î±":5056,"ĠÏĥÎºÎµÏĨ":5057,"ĠÏĢÏģÎ¿ÏĭÏĢÎ¿Î»Î¿Î³":5058,"ĠÎµÎ¯Î´Î±":5059,"ÎºÎ¬Î»Ïħ":5060,"ÏĨÏĦÎ¬":5061,"ĠÎ²ÏģÎ¿":5062,"ĠÎµÎ²Î´Î¿Î¼Î¬Î´ÎµÏĤ":5063,"ĠÎĵÏģÎ±Î¼Î¼Î±":5064,"ĠÎ¾Î·":5065,"ĠÎ±ÏĢÎ¿Î´Îµ":5066,"ĠÎºÎ¿ÏģÎ¯":5067,"ĠÎ»ÎŃÎ¾Î·":5068,"ĠÎ¼Î±Ïĥ":5069,"ĠÏĢÎµÏģÎ¹ÏĥÏĦÎ±":5070,"ĠÎ´Î¹Î±ÏĢÏģÎ±Î³Î¼Î±":5071,"ÎķÎķ":5072,"ĠÏĢÎ¿Î¹Î¿ÏĤ":5073,"ÎºÏģÏħ":5074,"ĠÎºÎ¬ÏĢÎ¿Î¹Î¿Î½":5075,"ĠÎµÏģÎ³Î±Î¶Î¿Î¼ÎŃÎ½ÏīÎ½":5076,"ĠÏĦÎ·Î»ÎŃ":5077,"ĠÎ´Î¹Î¬ÏĨÎ¿ÏģÎµÏĤ":5078,"ĠÎ²ÏģÎµÎ¹":5079,"ĠÏĨÎ¹Î»Î¿Î¾ÎµÎ½":5080,"ĠÎŃÎ¾Î¹":5081,"ÏĪÎ®":5082,"ĠÎ±ÏģÎº":5083,"Î¬Î½ÏĦÎµ":5084,"ĠÎ¼Î¹ÎºÏģÎ¬":5085,"ĠÎµÎ¾Î¬":5086,"28":5087,"ĠÎ»Î¯ÏĥÏĦÎ±":5088,"ĠÎ¼Î¬Ïģ":5089,"ĠÏĦÏģÎµ":5090,"ĠTwitterÎľÎ¿Î¹ÏģÎ±ÏĥÏĦÎµÎ¯ÏĦÎµ":5091,"ĠÏĨÏħÎ»Î±":5092,"ĠÏĦÎ¬Î¾Î·":5093,"Î½Î®ÏĥÎµÎ¹ÏĤ":5094,"ĠÏĢÏģÎ¿ÏĨÎ¯Î»":5095,"ÏģÏĩÎ·":5096,"ics":5097,"ÏİÏĥÎ¿ÏħÎ½":5098,"Î¯ÏĥÏī":5099,"ĠÎ²Î¬ÏģÎ¿ÏħÏĤ":5100,"ĠÎķÏĢÎ±":5101,"ĠÎ±ÏĢÎ¿ÏĥÏĦÎ¿Î»Î®":5102,"ĠÎļÏįÏĢÏģÎ¿Ïħ":5103,"ĠÎºÎ±ÏĦÎ±Î½Î±Î»Ïī":5104,"ÏĥÎ¹Î¼ÎµÏĤ":5105,"ĠÏĢÎµÏģÎ¹ÏĥÏĥÏĮÏĦÎµÏģÎ¿Î¹":5106,"az":5107,"ĠÎŃÏģÎ¸ÎµÎ¹":5108,"ĠÎ¼ÎŃÏģÎ·":5109,"ĠÎ³Î½ÏīÏĥ":5110,"ĠÏĦÏģÎ±Î³Î¿ÏįÎ´Î¹":5111,"ĠÎ²Î¬Î¶":5112,"ĠÎĳÏĦÏĦÎ¹ÎºÎ®ÏĤ":5113,"ĠÎµÎ½Î½Î¿":5114,"ÏĢÏĦÎŃ":5115,"ÏĦÎ±Î¾Î·ÏĤ":5116,"ĠÎ´ÏħÎ½Î±ÏĦÏĮÎ½":5117,"ĠÏĢÏģÎ¿Î³ÏģÎ¬Î¼Î¼Î±ÏĦÎ±":5118,"Î¹ÎŃÏĤ":5119,"ĠÎķÏģÎ½ÏĦÎ¿Î³Î¬Î½":5120,"ĠÎĳÏģÎ¹ÏĥÏĦÎµ":5121,"ĠÎºÎ±ÏĦÎ±ÏĥÏĦÎ®":5122,"ĠÏĥÏĩÎŃÎ´Î¹Î±":5123,"ĠÎĻÏĥÏĢÎ±Î½":5124,"ĠÎīÏĦÎ±Î½":5125,"ĠÏħÏĢÎ®ÏģÎ¾Îµ":5126,"video":5127,"ĠÎ¿Î¼Î±":5128,"ĠÏħÏĢÎ¿ÏĪÎ®ÏĨ":5129,"ÏģÏįÏĦÎµ":5130,"ĠÏĢÏģÎ¿ÏĨÎ±Î½":5131,"ĠÏĨÏīÏĦÎ¿":5132,"ÏĢÎ·ÏģÎŃ":5133,"ĠÎĿÎ±Ïħ":5134,"oogle":5135,"Î¿ÏħÎ±Î»":5136,"Î¸Î·ÎºÎ±":5137,"Î£Î·":5138,"ĠÏĥÏħÎ½ÎµÎ´ÏģÎ¯Î±":5139,"ĠÎ½ÎŃÎ±ÏĤ":5140,"ĠÎ±ÏĦ":5141,"ĠÎ±Î½ÏĦÎ¹Î¼ÎµÏĦÏİÏĢÎ¹ÏĥÎ·":5142,"Î»Î±Î¼Î²Î¬Î½ÎµÎ¹":5143,"Î¹ÏĤ":5144,"ĠÏĢÏģÎ¿ÏĥÏİ":5145,"ĠÎ¼ÎµÏĦ":5146,"Î¸ÏħÏģÎ¿":5147,"ĠÎ²Î³Î¬Î»":5148,"ĠÎ¿Î´Î®Î³Î·":5149,"ÏĦÏĥÎ¿ÏĦÎ¬":5150,"ĠÎ®Î¸ÎµÎ»Î±":5151,"ĠÏĢÎ¿Î¹ÏĮÏĦÎ·ÏĦÎ±":5152,"ĠÎłÎ±Î½ÎµÏĢÎ¹ÏĥÏĦÎ®Î¼Î¹Î¿":5153,"Î¼ÏĢÎ¿Ïį":5154,"ÏĥÎ¯ÏīÎ½":5155,"45":5156,"ĠÎķÎĿ":5157,"Î³ÏģÎ±ÏĨÎ¿":5158,"ĠÎ²Î³Î±":5159,"ÏĦÎ±Î¼":5160,"ĠÎ¤Î¿ÏħÏģÎºÎ¯Î±ÏĤ":5161,"ĠGre":5162,"ĠÎ³ÎµÎ³Î¿Î½ÏĮÏĦÎ±":5163,"ĠÏĦÏĮÏĢÎ¿":5164,"ĠÎ³ÏģÎ¬ÏĨÎµÎ¹":5165,"ĠÏĢÏģÎ¿ÏĥÏĦÎ±ÏĦÎµÏį":5166,"ĠÎ±ÏĦÏĮ":5167,"ÏĥÎ¹Î¿ÏĤ":5168,"ĠÏĥÏĦÎ¹Î³Î¼ÎŃÏĤ":5169,"ass":5170,"ĠÎµÏĢÎ¿ÏĩÎ®ÏĤ":5171,"Î¤ÎĹÎ£":5172,"ÏĦÏħÏĢÎ±":5173,"ÏģÎ¬ÎºÎ·":5174,"ÎĪÎ½Î±ÏĤ":5175,"ĠÎļÎ¿Ïģ":5176,"ran":5177,"Î»ÏĮÏĤ":5178,"--":5179,"Î»Î»Î¹ÏİÏĤ":5180,"ĠÎ²ÎµÎ»ÏĦÎ¯":5181,"ĠÎĶÎ¹Î¿Î¹ÎºÎ·":5182,"ĠÎµÎ¾Î¿ÏħÏĥÎ¯Î±":5183,"Î¯Î¿ÏħÏĤ":5184,"ÏĮÏģÎµÎ¹Î±":5185,"ĠÎľÎ±ÎºÎµÎ´Î¿Î½Î¯Î±ÏĤ":5186,"ĠÏĩÎµÎ¹ÏģÎ¿":5187,"ĠÎ¼ÏĮÎ½Î¹":5188,"ÏĦÎ¹ÎºÎ·":5189,"ĠÏĢÎ±ÏģÎ±Î³ÏīÎ³":5190,"Î³ÏģÎ±ÏĨÎŃÏĤ":5191,"ĠÎµÎ¼Î²":5192,"ĠÎµÏĢÎ¹ÏĥÎºÎŃÏĢÏĦÎµÏĤ":5193,"ĠÎµÏĢÎ¹ÎºÎ¿Î¹Î½ÏīÎ½Î¯Î±ÏĤ":5194,"ĠÎ·Î¸":5195,"Î´Î¯ÏīÎ½":5196,"ĠÎ¸ÎµÏīÏģÎµÎ¯ÏĦÎ±Î¹":5197,"ĠÎĶÏį":5198,"ĠÎµÏĢÎµÎ½Î´Ïħ":5199,"ĠÏĨÎ¬ÏģÎ¼Î±":5200,"ĠÎ±ÏĢÏİÎ»ÎµÎ¹Î±":5201,"ĠÎľÎľÎķ":5202,"ĠÎ½ÎŃÎ¿ÏħÏĤ":5203,"ÏģÎ¹ÏĥÏĥÏĮÏĦÎµÏģÎ±":5204,"ĠÎºÎµÏĨÎ±":5205,"ĠÎłÏģÎ¿Ïĥ":5206,"let":5207,"Î¸ÎµÏĥÎ¹":5208,"ĠÏĨÎ±Ïĥ":5209,"Î¼Î±ÏĦÎ¹ÎºÎ®":5210,"ĠÎ¬Î»Î»Î¿ÏĤ":5211,"ĠÎ¼Î¿Î½Î±Î´Î¹ÎºÏĮ":5212,"ĠÎºÎ¿Î»":5213,"ÏĮÎ¼Î±ÏĥÏĦÎµ":5214,"ĠÏĢÏģÎ¿Îº":5215,"ĠÎµÏĢÎ¹ÏĩÎµÎ¯ÏģÎ·ÏĥÎ·":5216,"ĠÎ´Î¿ÎºÎ¹Î¼Î¬":5217,"Î¼ÎµÎ¹Î½Îµ":5218,"ĠÏĢÏģÎ¿ÎºÎ±Î»ÎµÎ¯":5219,"ĠFacebookÎļÎ¿Î¹Î½Î¿ÏĢÎ¿Î¯Î·ÏĥÎ·":5220,"ÎłÏģÎ¿Ïĥ":5221,"ĠÏĢÏģÎ¿Î²Î»Î·Î¼Î±":5222,"ĠÎµÏĥÎµÎ¯ÏĤ":5223,"ĠÎ¹Î´Î¹Î¿ÎºÏĦÎ®":5224,"ĠÏĢÎ±Î»Î¹Î¬":5225,"Î»Î±Ïį":5226,"ĠÎºÎ±ÏĦÎ±ÏĥÎºÎµÏħÎ®":5227,"ĠÎ¸Î±Î½Î¬":5228,"ĠÎ±ÏĥÏĩÎ¿":5229,"ÎºÎ¿ÏħÎ½":5230,"ĠÎķÎ¾ÏīÏĦÎµÏģ":5231,"âĢ¦.":5232,"ĠÎ£ÏĦÎ¹ÏĤ":5233,"ĠÏĥÏħÎ³Î³":5234,"ĠÎķÎĻÎĿ":5235,"ÏģÎ¹Î±ÎºÏĮ":5236,"ĠÎŃÏĩÎ¿Î½ÏĦÎ±ÏĤ":5237,"ĠÏĩÏģÎŃÎ¿ÏħÏĤ":5238,"ĠÏĢÏģÎ¿ÏĥÎ±Ïģ":5239,"ĠÎłÎ¹":5240,"ÏĨÎ¿ÏģÎ¯Î±":5241,"ĠÎ±ÎŃÏģÎ±":5242,"ĠÏĢÏİ":5243,"ÏĩÏİÏģÎ·ÏĥÎ·":5244,"ĠÎ¼ÎŃÏĦÏģÏīÎ½":5245,"ÏģÎ·Î½":5246,"ĠÎ´Î¹Î¿ÏģÎ³Î¬Î½":5247,"ĠÎ»ÎµÏĢÏĦÎ¿Î¼ÎŃ":5248,"ĠÎĶÎĿÎ¤":5249,"ĠÎķÏħÏģÏī":5250,"ĠÏĩÏģÎŃÎ¿ÏĤ":5251,"ÎŃÎ»Î±":5252,"Î®Î³Î·":5253,"Î¿ÏįÏĥÎ±Î½":5254,"ĠÎĴÎ¹Î²":5255,"ĠÎ´Î·Î¼ÏĮÏĥÎ¹":5256,"ĠÎ¼Î¹Î»":5257,"ĠÏĨÎ¿ÏģÎµÎ¯ÏĤ":5258,"Î»ÎµÎ¹ÏĤ":5259,"Î¸Î±Ïģ":5260,"ĠÎ·Î»ÎµÎºÏĦÏģ":5261,"ĠÎ²Î¿Î·Î¸Î®ÏĥÎµÎ¹":5262,"ĠÎ£ÏĦÎŃ":5263,"ĠÎµÏģÎ³Î±Î¶ÏĮÎ¼Îµ":5264,"ÎºÎ»Î±":5265,"ĠÎķÏħÏģÏīÏĢÎ±ÏĬÎºÎ®":5266,"ice":5267,"ĠÎ±Î³Ïī":5268,"ĠAr":5269,"ĠÎµÎ³ÎºÎ±":5270,"ĠÎĶÎ¹ÎµÏħ":5271,"Î»ÎµÎ¯Î¿Ïħ":5272,"ĠÏĥÏĩÏĮÎ»Î¹Î¿":5273,"Î¼ÎµÏīÎ½":5274,"ĠÎ¿Î¼Î¿ÏģÏĨ":5275,"ĠÎ¤Î¬":5276,"ÎºÎµÏģ":5277,"ĠÎ´Î¹ÎµÎ¾":5278,"Î¸Î¿ÏħÎ½":5279,"ĠÏĢÎ±ÏģÎ¬Î³Î¿Î½":5280,"ĠÏĢÏģÏİÏĦÎ¿ÏĤ":5281,"ĠÎķÎĻÎĿÎĳÎĻ":5282,"ĠÏħÎ»Î¹ÎºÎ¬":5283,"ĠÏĦÎµÎ»Î¹ÎºÏĮ":5284,"ĠÎ³ÎµÎ¹ÏĦÎ¿Î½":5285,"ĠÏĥÏĢÎ¯ÏĦÎ¹Î±":5286,"ĠÎ¸ÎµÏģÎ±ÏĢÎµÎ¯Î±":5287,"ĠÎ£ÏĦÎµ":5288,"ÏĨÎŃÏģÎµÎ¹Î±":5289,"ĠÏĢÏģÎ±Î³Î¼Î±ÏĦÎ¿ÏĢÎ¿Î¹Î®Î¸Î·ÎºÎµ":5290,"ĠÏĢÎ·Î³Î±":5291,"ĠÎºÎµÎ½":5292,"ĠÏĥÎºÎ¬":5293,"Î£ÏħÎ½Îµ":5294,"ĠÎ±Î½Î¬ÏģÏĦÎ·ÏĥÎ·":5295,"Î¶ÏĮÏĦÎ±Î½":5296,"ĠÎ¾ÎµÎºÎ¹Î½Î®ÏĥÎµÎ¹":5297,"ÏĢÎ¿ÏħÎ¼Îµ":5298,"ĠÎ²Î¿Î·Î¸Î¬":5299,"ÏģÏįÎ¸Î¼Î¹ÏĥÎ·":5300,"ĠÎºÎ±á½¶":5301,"80":5302,"ĠÏĥÏħÎ½Î¿Î»Î¹ÎºÎ¬":5303,"Î¶Î®ÏĦÎ·ÏĥÎ·ÏĤ":5304,"ĠÏģÎ¿Ïį":5305,"ĠÎĳÎ½Î±ÏĦÎ¿":5306,"ĠÎ¬ÏģÏĩÎ¹ÏĥÎµ":5307,"Î¤Î¿Î½":5308,"ĠÎľÎµÏĥ":5309,"ÎºÎ¿ÏħÏĤ":5310,"ĠÏĥÎµÎ¶ÏĮÎ½":5311,"ĠÎĸÏī":5312,"ÎłÎ¿Î»Î¹":5313,"ĠÎ·Î³ÎŃ":5314,"27":5315,"ÏĪÏĦÎµ":5316,"ÏģÎ¹ÏĥÎ±":5317,"ĠÎµÏĨÏĮÏĥÎ¿Î½":5318,"ros":5319,"ĠÎļÏģÎ®ÏĦÎ·ÏĤ":5320,"ÏģÎ¬ÎºÎ·ÏĤ":5321,"ĠÎ¿Î¹ÎºÎ¿Î½Î¿Î¼Î¹ÎºÎ®ÏĤ":5322,"ĠÎ¸ÎŃÎ»Î¿ÏħÎ¼Îµ":5323,"ĠÎµÎ¾Î±Î¹ÏģÎµÏĦÎ¹ÎºÎ¬":5324,"ĠÎļÎļÎķ":5325,"Î½Î¹Î¬":5326,"ĠÏĢÎ¿Î»Î»Î±":5327,"ĠÎķÎ»Î»Î·Î½Î¹ÎºÎ®ÏĤ":5328,"ĠÎłÎ±Î½Îµ":5329,"ĠÎ±Î½ÏĦÎŃ":5330,"ÏĨÎ¿ÏģÏİÎ½":5331,"ÎĺÎŃÎ¼Î±":5332,"Î³Î¿ÏģÎµÏį":5333,"ÏĢÎ¿ÏįÏĤ":5334,"Î¸ÎµÎ»Î¿Î½":5335,"ĠÎ±Î½ÏĦÎ±ÏĢÎ¿":5336,"ĠÎľÎ¹Îº":5337,"ÏģÏĩÎ·ÏĤ":5338,"Î³ÏīÎ³":5339,"ĠÎ±ÏĢÎ»ÏİÏĤ":5340,"ĠÏĥÏħÎ¼Î¼ÎµÏĦÎµÎ¯":5341,"ĠÎµÏĦÎ¿Î¹Î¼Î¬":5342,"ĠÎ±Î½Î±ÏĨÎ¿ÏģÎ¬":5343,"ĠÏĥÏħÎ½Î¬":5344,"Î¥Î£":5345,"ĠÏĥÏħÎ½ÎŃÎ½ÏĦÎµÏħÎ¾Î·":5346,"ĠÎ½ÎŃÎ¿ÏĤ":5347,"Ġr":5348,"ĠÎľÎ®":5349,"ĠÎ¬Î³Î½Ïī":5350,"ĠÎ·Î¼ÎŃÏģÎ±ÏĤ":5351,"Ġ>":5352,"ĠÎ´ÏģÏĮÎ¼Î¿ÏħÏĤ":5353,"ĠÎ±Î»Î·Î¸":5354,"ct":5355,"ĠÎºÎ¿Î¹Î½ÏīÎ½Î¯Î±ÏĤ":5356,"ĠÎ±ÏĢÏĮÏĥÏĦÎ±ÏĥÎ·":5357,"ĠÏĢÎ¿Î¹Î·":5358,"ÏĦÎ¹ÎºÎŃ":5359,"ĠÏĥÏħÎ½ÏĦÎ¬":5360,"ĠÏĩÏİÏģÎ¿Ïħ":5361,"ĠÏĨÏįÏĥÎ·":5362,"Î²Î¿ÏĤ":5363,"ĠÎ´Î®Î»ÏīÏĥÎ·":5364,"ĠÏĪÎ®":5365,"ĠÏĢÎ½ÎµÏį":5366,"ÏĪÎµÏĦÎµ":5367,"26":5368,"ĠÎ¼ÎŃÎ½Î±":5369,"ĠÎ±Î½Î¸ÏģÏİÏĢÎ¿Ïħ":5370,"Î»Î»Î¿Î³Î®":5371,"Î½ÎŃÏĤ":5372,"ĠÎ´Î¯Î½Î¿ÏħÎ½":5373,"Î±ÏĥÎºÎ±":5374,"Î²Î¬Î¸Î¼Î¹Î±":5375,"ĠÎºÎµÏĨÎ¬Î»Î¹":5376,"Ġ..":5377,"ĠÎ·Î¸Î¿ÏĢÎ¿Î¹":5378,"Î³ÏģÎ¬ÏĨÎ·":5379,"ĠÎ´ÏħÎ½Î±ÏĦÎ®":5380,"ĠÎµÎºÎ´Î·Î»ÏİÏĥÎµÎ¹ÏĤ":5381,"ĠÎ¼ÏĮÎ½Î¿ÏĤ":5382,"ĠÎºÎ¬Î»Ïħ":5383,"ash":5384,"ÎºÎ¿Î½":5385,"ĠÎµÏĢÎ±Î½Î¬":5386,"ĠÎµÏħÏģÏįÏĦÎµ":5387,"Ġonline":5388,"ĠÏĥÏĢÎ¿ÏħÎ´":5389,"ÏĦÎ®ÏĥÎ¿ÏħÎ¼Îµ":5390,"29":5391,"ÏĦÎµÎ¹Î±":5392,"ÏĢÎµÎ¹Î´Î®":5393,"ĠÎ±ÏĢÎ¿Î´ÎŃ":5394,"ĠÎ±Î´Î¹Î±":5395,"ĠÎ´ÎµÏĥÎ¼Îµ":5396,"ĠÎ½ÏĮÎ¼Î¹":5397,"ÏĦÎ¯Î¶ÎµÏĦÎ±Î¹":5398,"ĠÏĦÎµÏģÎ¬ÏĥÏĦÎ¹":5399,"ĠÎ²ÏģÎ±Î²":5400,"ÏĩÎ¸Î¿ÏįÎ½":5401,"ĠÏĥÎºÎ±":5402,"ĠÎ¼ÏĮÎ½Î¿Î½":5403,"ĠÏĥÎºÏį":5404,"ÏģÎºÎ±":5405,"ĠÏĢÏģÏīÏĦÏĮ":5406,"ÏĥÎ®ÏĤ":5407,"Î²Î¬Î»Î»ÎµÎ¹":5408,"ĠÎ´Î¹Î±ÎºÎ¿ÏĢÎŃÏĤ":5409,"ÏĦÎ¬Î¼Îµ":5410,"ÏģÎ¹ÎºÎ¿Ïį":5411,"ĠÎ´Î¹Î±Î¼Î±Ïģ":5412,"ĠÎ³ÎŃÎ½":5413,"ÏīÏģÎ¯":5414,"To":5415,"ĠÎ±Î½Î®ÎºÎµÎ¹":5416,"ĠÎ±Î´Ïį":5417,"ĠÎ´Î¹Î±Î¹":5418,"ÏģÎµÏħÏĥÎ·":5419,"ĠÎ¼ÎµÏģÎ¹ÎºÎ¬":5420,"ĠÎµÏģÎ¼Î·":5421,"ĠÎ´Î¹Î±ÏĦÏģÎ¿ÏĨÎ®":5422,"ĠÎ¡Î¿":5423,"Ġsite":5424,"ĠÏĢÎ±ÏģÎ±Î²":5425,"ĠÏĦÎŃÏĥÏĥÎµÏģÎ¹ÏĤ":5426,"ep":5427,"ĠÎµÎ½ÏĦÎµÎ»ÏİÏĤ":5428,"Î¸ÎŃÏĦÎ·ÏĥÎ·":5429,"ĠÎºÎ¿Ïĥ":5430,"ÏĩÏĦÎ·ÎºÎµ":5431,"ÎľÏĮ":5432,"ĠÎ´Î¹Î±ÏĦÎ±":5433,"Î´ÏģÏĮÎ¼Î¹Î¿":5434,"ÏĬÎºÎ®":5435,"ĠÏĪÎµÏħ":5436,"Î»Î»ÎµÏĤ":5437,"ĠÎ¡Î±":5438,"ĠÏĥÏīÏĥÏĦÎ¬":5439,"ÏĦÎ¹Î½Î®":5440,"ĠÎ´ÎµÎ»":5441,"ĠÏĢÎ±Î¯Î¶ÎµÎ¹":5442,"ĠÎºÎ±ÏĦÎ¬ÏĨÎµÏģÎµ":5443,"ĠÎ¥ÏĢÎ¿ÏħÏģÎ³ÎµÎ¯Î¿":5444,"ĠÎµÏĩÎµÎ¹":5445,"ĠÎ£Î±Î½":5446,"ĠÎŁÎĽ":5447,"Î»Î¿ÏįÏĥÎµ":5448,"ÏĮÎ¼ÎµÎ½Î±":5449,"ĠÏħÏĨ":5450,"ÏĦÎ¯Î½Î±":5451,"ĠÎ½ÎµÏģÎ¿Ïį":5452,"ĠÏĩÏİÏģÎ¿ÏĤ":5453,"ĠÎµÎºÎ´Î¿":5454,"ĠÏįÏĢ":5455,"Î»ÎµÎºÏĦÏģÎ¿Î½":5456,"ĠÎºÎ¿Î¹Î½ÏīÎ½Î¹ÎºÎ®ÏĤ":5457,"ĠÎ»Î¿Î³Î¿":5458,"ĠÏĥÎµÎ²Î±Ïĥ":5459,"ĠÎ¿Î¹ÎºÎ¿Î½Î¿Î¼Î¯Î±ÏĤ":5460,"ĠÎķÏį":5461,"ÎµÎ¯Î´Î·":5462,"ĠÎ²Î¹Î²Î»Î¹Î¿":5463,"ĠÏĢÏĮÏĦÎµ":5464,"ĠÏĨÎ¿ÏģÎŃ":5465,"ĠÏĦÎµÎ»ÎµÎ¯":5466,"Î´ÏįÎ½":5467,"ĠÏĦÎµÏģÎ¬ÏĥÏĦÎ¹Î±":5468,"ĠÏģÎµÏį":5469,"ĠÎ²Î¹":5470,"uper":5471,"ÎŃÎ½ÏĦÏģÎ¿Ïħ":5472,"ÏħÎ¼Î¬":5473,"ĠÎ´Î·Î»Ïİ":5474,"Î²ÏģÎ±":5475,"ĠÎºÎ±ÏĦÏĮ":5476,"ĠÏħÏĢÎ¿ÏĥÏĦÎ®ÏģÎ¹Î¾Î·":5477,"ĠÎłÎķ":5478,"Î¼Î¿ÏĥÏĢÎ¿Î½":5479,"ÏīÏģÎ·":5480,"ĠÎ£ÏįÎ»Î»Î¿Î³":5481,"ĠÎ±Î½Î±ÏĦÎ¿":5482,"ĠÎ±Îµ":5483,"Î¾Î¯":5484,"Î´ÏīÏĥÎµ":5485,"ÎĻÎļÎŁ":5486,"ĠÎ±ÏĦÎ¿":5487,"sp":5488,"ĠÎ¹Î´ÎµÎ¿":5489,"Î¤ÎŃÎ»Î¿ÏĤ":5490,"ĠÎĺÎµÏĮÏĤ":5491,"ĠÎ¿ÏħÏĥÎ¹Î±ÏĥÏĦÎ¹ÎºÎ¬":5492,"ĠÎ»ÎŃÎ¾ÎµÎ¹ÏĤ":5493,"ĠÎĵÎ±Î»Î»Î¯Î±":5494,"ĠÎłÏģÏİ":5495,"ĠÏĢÏģÏīÏĦÎ¬Î¸Î»Î·Î¼Î±":5496,"erv":5497,"Î¤Î¿Ïħ":5498,"Î²ÎŃÏģÎ½Î·ÏĥÎ·":5499,"ÏĢÎ¹ÏĦÎ±Î»Î¹Ïĥ":5500,"ĠÏĢÎ¿Î»Î¹ÏĦÎ¹ÎºÏİÎ½":5501,"ĠÎĳÎ¥":5502,"ĠÏĢÎ¿Î½":5503,"ĠÎłÎ±ÏĢÎ±Î½Î´ÏģÎŃÎ¿Ïħ":5504,"ĠÎµÏĢÎµÎ¹ÏĥÏĮ":5505,"ĠÎ±ÏĥÏĨÎ±Î»ÎµÎ¯Î±ÏĤ":5506,"ÏĥÏĦÎ¹ÎºÎ®ÏĤ":5507,"ĠÎĳÎ¼ÎµÏģÎ¹ÎºÎ±Î½":5508,"ĠÎĴÎ±Î»":5509,"ĠÏĢÏģÎ±Î³Î¼Î±ÏĦÎ¿ÏĢÎ¿Î¹Î·Î¸ÎµÎ¯":5510,"ÏĢÎ¯Î±":5511,"ÏĮÏĢÏīÏĤ":5512,"ĠÏħÎ¹Î¿":5513,"ĠÏĢÏģÎ¿ÎµÏĦÎ¿Î¹Î¼Î±":5514,"Î±Î¹ÏĥÎ¸Î·":5515,"ĠÎ£ÎµÏģ":5516,"ĠÎĶÎķÎĹ":5517,"ĠÏĢÎ±Î¯ÏģÎ½ÎµÎ¹":5518,"ĠÏĥÎºÎ·Î½Î¿":5519,"Î½ÏĦÎ¿":5520,"ĠÎ¼ÎµÏĦÎ¿":5521,"ĠÎ»Ïħ":5522,"ĠÏĦÏģÎ¿Î¼Î¿ÎºÏģÎ±":5523,"ĠÏĢÏĮÎ½":5524,"ÏĦÎ·ÏģÎ¯ÏīÎ½":5525,"ĠÎµÏĢÎ¹Î²ÎµÎ²Î±Î¹":5526,"ĠÏįÏĪÎ¿ÏĤ":5527,"Î¸ÎŃÎ±":5528,"ĠÎµÎ¯Î´Î¿ÏĤ":5529,"ĠÎŃÎ½Î±ÏģÎ¾Î·":5530,"ĠÎ±Î½ÎµÏģÎ³":5531,"ĠÏĥÏĦÎµÎ»ÎŃÏĩÎ·":5532,"ĠÏĩÎ¿ÏģÎ·":5533,"ĠÎ¬Î½Î´ÏģÎµÏĤ":5534,"Î¼Î¼Îµ":5535,"ĠÎµÎ¯Î´Î·":5536,"ÏĩÏİÏģÎ·ÏĥÎµ":5537,"ÎķÏĢÎ¹Ïĥ":5538,"out":5539,"ĠÎļÎ±Î»Î±":5540,"ÏĨÎŃÏģÎ¸Î·ÎºÎµ":5541,"ĠÏĥÏįÎ¶":5542,"ĠÏĩÏģÎ¿":5543,"Î½Î¿ÏħÎ¼Îµ":5544,"ĠÏĥÏĦÏĮÏĩÎ¿ÏĤ":5545,"Î¡ÎĻÎĳ":5546,"ĠÎļÏħÏĢ":5547,"IS":5548,"Î¼Î·Î½Î¿":5549,"ĠÎ´Î¹Î±ÏĩÎµÎ¯ÏģÎ¹ÏĥÎ·":5550,"IN":5551,"ĠÎ»ÎŃÏī":5552,"ÏĦÎŃÏģÏīÎ½":5553,"ĠÎµÎ¾Î±Ïģ":5554,"ĠÎ½ÏĮÎ¼Î¿Ïħ":5555,"ĠÎĳÏħÏĥ":5556,"ĠÏĢÎŃÏģÎ±ÏĥÎµ":5557,"OS":5558,"ĠÎµÏĢÎ¹ÏĥÏĦÏģÎ¿ÏĨÎ®":5559,"Î¬Î½Î·ÏĤ":5560,"%,":5561,"Î¼ÎŃÏģÎ¹":5562,"ĠÎµÏĢÎ¹ÏĩÎµÎ¹ÏģÎ®ÏĥÎµÏīÎ½":5563,"ĠÎºÎ±Î»Î»":5564,"ĠÎ£Ïī":5565,"end":5566,"36":5567,"ĠÎ¼ÎµÎ»ÏİÎ½":5568,"ĠÎµÎ½ÎµÏģÎ³Î¿":5569,"ÏĦÏįÏĢÏīÏĥÎ·":5570,"iz":5571,"ĠÎ±Î¼":5572,"Î¯Î½Îµ":5573,"ĠÎ±Î½Î±ÎºÎ¿Î¹Î½Ïİ":5574,"ĠÏĢÏģÎ¿ÏĥÎ¿ÏĩÎ®":5575,"Î¶ÏĮÎ¼Î±ÏĥÏĦÎµ":5576,"ĠÎ¼ÏĢÎ®":5577,"ĠÎºÎ±ÏĦÎ·Î³Î¿ÏģÎ¯ÎµÏĤ":5578,"Î¸Î·ÏĥÎ·ÏĤ":5579,"ÏĢÎ®ÏĤ":5580,"ĠÎŁÏģÎ¸":5581,"ÏĢÎµÎ½":5582,"ĠÎ³Î½ÏİÏĥÎ·":5583,"ĠÎºÎ»Î®":5584,"ĠÎ±Î¯Î¼Î±":5585,"Î¸Î¹Î±":5586,"ÏĦÎ¬Î¾ÎµÎ¹":5587,"ĠÏĢÎ·Î³Î®":5588,"ĠÏĢÏģÎ¬ÏĥÎ¹":5589,"ĠÏĥÏĦÎ¯":5590,"ĠÎ¿ÏĢÎ¿Î¹Î¿":5591,"ox":5592,"ĠÎºÎ±ÏĦÎ±Î»Î¬Î²":5593,"ĠÎ¬ÏĥÎºÎ·ÏĥÎ·":5594,"ÏīÏĥÎ±Î½":5595,"ĠÏĩÏģÎ¹ÏĥÏĦÎ¹Î±":5596,"ĠÎ¶Î·ÏĦÎ®Î¼Î±ÏĦÎ±":5597,"ĠÎĵÎ¹Î¬Î½Î½Î·":5598,"ĠÎķÏĢÎ¹ÎºÎ¿Î¹Î½ÏīÎ½":5599,"ÎłÎµÏģÎ¹":5600,"ĠÎĳÎĵ":5601,"ĠÏĢÏĮÎ»ÎµÎ¼Î¿":5602,"Î³Î¹Ïĥ":5603,"ĠÎµÎ¯ÏĢÎ±":5604,"ĠÎ²ÏģÎ¹ÏĥÎºÏĮ":5605,"ĠÏĥÎ¿Ïį":5606,".Â»":5607,"ĠÎ¼ÎµÎ¯Î½ÎµÎ¹":5608,"Î±Î¹ÏĮÏĦÎ·ÏĦÎ±":5609,"Ġwww":5610,"ĠÎºÎ±Î»Î¿ÎºÎ±Î¹":5611,"ÏĦÎ¿ÏįÎ½ÏĦÎ±Î¹":5612,"ĠÏĩÏģÎ®ÏĥÏĦÎ·":5613,"ĠÎķÎ¹Ïĥ":5614,"ĠÎķÏħÏģÏīÏĢÎ±ÏĬÎºÎ®ÏĤ":5615,"ĠÏĦÎ·Î»ÎµÏĮÏģÎ±ÏĥÎ·":5616,"Î±Î¹Î±":5617,"ĠÎ´Î¹ÎµÏħÎ¸ÏħÎ½":5618,"ĠÎĶÎ·Î¼Î®ÏĦÏģÎ·ÏĤ":5619,"OR":5620,"ÏĩÏģÎ·":5621,"ĠÏĨÎ¯Î»Î¿Î¹":5622,"ĠÎºÎ®":5623,"ĠÎŃÏģÏĩÎ¿Î½ÏĦÎ±Î¹":5624,"ÏĨÎŃÏģÎ¿Î½ÏĦÎ±Î¹":5625,"Î³ÎºÎµÎºÏģÎ¹":5626,"ÎĳÏĤ":5627,"ĠÎµÎ½ÏĦÎ±":5628,"Ġx":5629,"ÎºÏĮÎ¼Î·":5630,"ÏģÎµÏħÎ½":5631,"ÏĨÏģÎ±ÏĥÎ·":5632,"ÎĳÎł":5633,"ĠÏĢÎ±ÏģÎ¿ÏħÏĥÎ¹Î¬Î¶ÎµÎ¹":5634,"ĠÎºÎ±ÏĦÎµÏį":5635,"35":5636,"ÏĦÎ±Ïģ":5637,"ÏģÎµÎ¹ÎµÏĤ":5638,"Î¼Î¹ÎºÎ®ÏĤ":5639,"ĠÎ¿ÏģÎ³Î¬Î½ÏīÏĥÎ·":5640,"Î³Î³ÎµÎ»Î¼Î±":5641,"Î³ÎµÎ¸Î¿ÏĤ":5642,"ĠÏĥÏħÎ½ÎµÏĩÏİÏĤ":5643,"ĠÎºÎ¿Î¼Î¼Î±":5644,"Î¬Î»Î¹Î±":5645,"2016":5646,"are":5647,"ÏİÎ¼Î±ÏĦÎ¿ÏĤ":5648,"ĠÎľÎ·ÏĦÏĥÎ¿ÏĦÎ¬":5649,"ĠÎ³Î½ÏīÏĥÏĦÎ®":5650,"ĠÎķÎ¬Î½":5651,"ĠÎľÏĢÎ¬":5652,"Î¾Î±Î½Î´":5653,"ÏĮÎ»Î±":5654,"Î®ÏĥÎµÏīÎ½":5655,"ĠÎ³ÏģÎ±Î¼Î¼Î±":5656,"Î»Î¿Î³Î¯ÎµÏĤ":5657,"ĠÎºÎ¿Î¹Î½Î®":5658,"ĠÎºÎ¿Ïį":5659,"Î²Î±Î»Î»Î¿Î½":5660,"Î¤ÎĳÎ£":5661,"ĠÏĢÎ¬Î½Îµ":5662,"ĠÎļÏģÎ®ÏĦÎ·":5663,"ĠÎĻÏĦÎ±Î»Î¯Î±":5664,"ĠÏĢÎ·Î³ÎŃÏĤ":5665,"ÎļÎ±Î»":5666,"ÏĩÎ¿Î¼Î±Î¹":5667,"Î¯Î½ÏīÎ½":5668,"ĠÎ¤ÏĥÎ±":5669,"ann":5670,"ĠÎ¶ÎµÏħÎ³Î¬":5671,"ĠÎ´Î¹Î±ÏĦÎ¬Î¾ÎµÎ¹ÏĤ":5672,"ĠÎµÎ¹ÏĥÎ¿":5673,"ÏĢÎŃÏģÎ±":5674,"ÏĦÎ¿ÏĢÎ¿Î¹Î·":5675,"ĠÎŃÏģÏī":5676,"Î¸ÎµÎ¯Î±ÏĤ":5677,"ÎļÏħ":5678,"ÎĳÎ»Î»Î¬":5679,"ĠÎ¾ÎŃÏģÎµÎ¹":5680,"ĠÎµÎ¸Î½Î¹ÎºÎ®":5681,"ÏģÎ¸ÏģÎ¿":5682,"ĠÎ¿ÏĢÎ¿Î¯Î¿ÏħÏĤ":5683,"ÎºÏĦÎ·ÏĥÎ·":5684,"ĠÎ»ÎµÏī":5685,"ÎºÏĮÏĥ":5686,"ÏģÎµÎ¼Î±":5687,"ĠÎ±Î½ÏĦÎ¯Î´":5688,"Ġ+":5689,"edia":5690,"ĠÏĢÎ±ÏģÎ¬ÏĥÏĦÎ±ÏĥÎ·":5691,"ÏĨÎŃÏģÎ¿ÏħÎ¼Îµ":5692,"Î¼ÎµÏģÎ±":5693,"ÏģÎ±ÏĥÎ¹":5694,"ĠÎºÎ±Î¼Î¹Î¬":5695,"ĠÎľÎ±ÎºÎµÎ´Î¿Î½Î¯Î±":5696,"ĠÎµÎºÏĢÎ±Î¯Î´ÎµÏħÏĥÎ·ÏĤ":5697,"ĠÎºÎµÎ¹":5698,"ÏĢÎ¿Î¹Î¿ÏĤ":5699,"ÏĦÎŃÎ»Î¿ÏħÏĤ":5700,"Î»ÎµÏħÎ¸ÎŃ":5701,"ÏĨÎµÎ¯Î±":5702,"ĠÏĦÏģÎ±Î³Î¿ÏįÎ´Î¹Î±":5703,"ĠÏĥÏįÎ½ÏĦÎ¿Î¼Î±":5704,"ÏĦÎµÏħÏĥÎ·ÏĤ":5705,"ĠÎĽÎ¿Î½":5706,"ĠÏĦÎ¿ÏĢÎ¿Î¸ÎµÏĥÎ¯Î±":5707,"ĠÏĥÏĨ":5708,"Î¼Î¼Î¿ÏħÎ½":5709,"Ġ70":5710,"ĠÏĢÎ»Î±Î¯ÏĥÎ¹Î±":5711,"Î¿ÏģÏģÎ¿":5712,"Î²Î±Î¸":5713,"ĠÎºÎ¿ÏģÏħÏĨÎ®":5714,"ĠÎ³ÏģÎ±ÏĨÎµÎ¯Î¿":5715,"Î¼Î¯ÎµÏĤ":5716,"á½Ĳ":5717,"ĠÎºÎ±ÏĦÎµÏħ":5718,"ĠÎ´Î¹Î±ÏĨÎ¿ÏģÎµÏĦÎ¹ÎºÎ¬":5719,"ÎŁÎ¥ÎľÎķ":5720,"ĠÏĢÏģÎ¿ÏĥÏĨÎ¿ÏģÎ¬":5721,"ÎĹÎľÎĳ":5722,"Ġ500":5723,"ÏĥÏĦÏİÏĤ":5724,"ĠÎĳÎ¡":5725,"ĠÎµÏĢÎ±ÏĨÎ®":5726,"Ġ2008":5727,"ĠÎĶÎ®Î¼Î¿":5728,"ĠÎ¼ÎŃÏģÎ¿ÏħÏĤ":5729,"Î¤Î·":5730,"Î²Î¹Î¿":5731,"ĠÏĦÏī":5732,"01":5733,"Ġand":5734,"Î»Î¿Î³Î¹ÎºÎŃÏĤ":5735,"ĠÎ´Î¹ÎµÎ¸Î½Î®":5736,"Î³ÏģÎ¬ÏĨÎµÎ¹":5737,"Î²Î¿ÏħÎ»ÎµÏħ":5738,"ĠÎ¤ÏģÎ±Î¼ÏĢ":5739,"ĠÏĢÎ±Î¯ÏģÎ½":5740,"Î¼Î¹Î¿ÏįÏģÎ³":5741,"ĠÏĩÏģÎ¿Î½Î¹ÎºÏĮ":5742,"ÏģÎ¿ÏħÏģÎ³":5743,"ĠÎ¼Î¯Î»Î·":5744,"ĠÎ»Î¿Î³Î¹ÎºÎ®":5745,"Î½Î±Î»":5746,"ĠÎĹÏģÎ±Îº":5747,"ĠÎºÎ±ÏĦÎ±Î¸ÎŃ":5748,"ÎłÎŁÎ¥":5749,"ĠÎ£ÏħÎ»Î»ÏĮÎ³Î¿Ïħ":5750,"ĠÏĢÏģÎ¿ÏĥÏīÏĢÎ¹ÎºÎ®":5751,"ĠÎ¿Î´Î·Î³ÎµÎ¯":5752,"ĠÎ¤ÏİÏģÎ±":5753,"ĠÎ¹Î´ÎŃÎµÏĤ":5754,"ĠÏĥÏħÎ½Î´ÏħÎ±ÏĥÎ¼ÏĮ":5755,"ĠÎ»ÎŃÎ¼Îµ":5756,"Î¹ÏĦÎµ":5757,"ĠÎµÏĥÏīÏĦÎµÏģÎ¹ÎºÏĮ":5758,"ĠÎ¼ÏĢÎ¬Î½":5759,"ĠÎĴÏĮ":5760,"ĠÏĩÎ·":5761,"ĠÏĨÏĦÎ¬ÏĥÎµÎ¹":5762,"ĠÏĥÏħÎ¼ÏĢÎµÏģÎ¹ÏĨÎ¿ÏģÎ¬":5763,"ĠÏĮÏģÎ¹Î±":5764,"ĠÎºÎ±ÏĦÎ±Î»Î±Î²Î±":5765,"ĠÎĳÎ»Î²Î±Î½":5766,"ĠÏĢÎ¿Î¹ÏĮÏĦÎ·ÏĦÎ±ÏĤ":5767,"ÏĦÎ·ÏĥÎ±Î½":5768,"ĠÎºÎ¿Î¹Î½ÏīÎ½Î¹ÎºÏİÎ½":5769,"ĠÏĥÏħÎ½ÎµÏĩÎ¯Î¶ÎµÎ¹":5770,"ĠÏĢÎ»Î®ÏģÏīÏĤ":5771,"ĠÎ±ÎºÎ¿Î»Î¿ÏħÎ¸ÎµÎ¯":5772,"ry":5773,"ĠÎŃÎ´ÏģÎ±":5774,"Î³Î¿ÏħÎ¼Îµ":5775,"Î¹Î»Î¯Î±":5776,"ĠÎºÎ±Î¹Î½Î¿ÏįÏģÎ³":5777,"ĠÎ±Î½Î¬Î»ÏħÏĥÎ·":5778,"ÏĦÎŃÎ»Îµ":5779,"ĠÎ´ÏģÎ±ÏĥÏĦÎ·ÏģÎ¹ÏĮÏĦÎ·ÏĦÎµÏĤ":5780,"ÏĦÎ¯Î¼Î·ÏĥÎ·":5781,"ĠÎłÎ»Î±":5782,"ĠÎ¿ÏģÎ³Î±Î½Ïī":5783,"ÏģÎ¯Î½":5784,"Î±Î¹ÏĦÎŃÏģÏī":5785,"ĠÎļÎ¿Î¹Î½Î¿":5786,"ĠÎŃÎ½Î½Î¿Î¹Î±":5787,"ĠÎĴÎ±Ïģ":5788,"orn":5789,"ĠÏĥÏħÏĥÏĦÎ±":5790,"ĠÎ¼ÎµÏĥÎ·Î¼ÎŃÏģÎ¹":5791,"Î³ÎµÏĦÎµ":5792,"Î¾Î¹Î¿Ïį":5793,"ĠÎµÎ¾ÏħÏĢÎ·ÏģÎµ":5794,"ÏĥÏĦÎ¹ÎºÎŃÏĤ":5795,"ĠÏĥÏħÎ½ÎµÎ¹Î´Î·":5796,"ÎķÎ¹Î´":5797,"ĠÎľÎ·ÏĦÏģÎ¿":5798,"ĠÏĢÎ»Î±Î½Î®ÏĦÎ·":5799,"ÏģÎ¿ÏįÏĥÎµ":5800,"ĠSp":5801,"Î¥ÏĢÎ¿":5802,"ĠÏĢÏģÏĮÏĥÏĨÎ±ÏĦÎ±":5803,"ĠÏĢÎ±ÏģÎ¬Î´Î¿ÏĥÎ·":5804,"ĠÎ¼Î¿Î½Î±Î´Î¹ÎºÎ®":5805,"Î³ÎºÎµÎºÏģÎ¹Î¼ÎŃÎ½Î±":5806,"ĠÎłÏģÏĮÎºÎµÎ¹ÏĦÎ±Î¹":5807,"ĠÎĸÎ±":5808,"ÎķÎ´Ïİ":5809,"ood":5810,"ĠÎ¿Î¹ÎºÎ¿Î³ÎµÎ½ÎµÎ¹Î±":5811,"Î¤ÎĳÎĻ":5812,"ĠÏĥÎºÎŃÏĪÎ·":5813,"ÏĦÎ¯ÏĥÎµÎ¹":5814,"ĠÎ½Î¿Î¼Î¯Î¶Ïī":5815,"ĠÎ¼Î½Î·Î¼ÏĮ":5816,"sh":5817,"ĠÏĥÏĦÎ¿Î¹ÏĩÎµÎ¯ÏīÎ½":5818,"ĠÏĢÏģÎ¿Î¿ÏĢ":5819,"ĠÎ¶ÏīÎ½ÏĦÎ±Î½":5820,"ĠÎ±ÏģÏĩÎ¹ÎºÎ¬":5821,"ÎºÏĦÎ·ÏĤ":5822,"ÏĦÎ¯Î¶Î¿ÏħÎ½":5823,"ĠÎ§Î±Î½":5824,"ĠZ":5825,"Î¯ÎºÎ¿":5826,"og":5827,"199":5828,"ĠÏĥÎµÎ¾Î¿ÏħÎ±Î»":5829,"ff":5830,"ĠÎµÏĢÎ¹ÎºÏģÎ±":5831,"ĠÎ±Î»Î»Î¹ÏİÏĤ":5832,"ĠÎºÏģ":5833,"ÏĩÎ½ÎµÎ¹":5834,"ain":5835,"Î¡ÎĳÎ£":5836,"Î´Î¹ÎºÎ±":5837,"Î¼Î¹ÎºÏİÎ½":5838,"ĠÎºÎ¹Î½Î´ÏįÎ½":5839,"ĠÏĦÎ±Î¹Î½Î¯ÎµÏĤ":5840,"ÏĥÎºÎ¬":5841,"ĠÎ²Î±Î¸Î¼Î¿":5842,"ÏĦÎ¬Î¶":5843,"ÎºÎ®ÏģÏħ":5844,"ĠÏĩÏģÎ®ÏĥÏĦÎµÏĤ":5845,"ĠÎ¿ÏĢÎ¿Î¯Î¿Ïħ":5846,"ĠÎ±ÎºÏģÎ¿":5847,"ÏĢÎ±Î¹Î´ÎµÏħ":5848,"ev":5849,"ĠÎµÎ¹Î´Î¹ÎºÏĮ":5850,"ĠÎ§Î±Î»Îº":5851,"ĠÎĶÏī":5852,"ÎµÎ¹ÏİÎ½":5853,"ĠÎ§Î±ÏĦÎ¶":5854,"Î¼ÎµÎ½Î¿ÏħÏĤ":5855,"ES":5856,"ĠÎłÎ¡ÎŁ":5857,"Î¡Îķ":5858,"ÎºÎ¿Î¯":5859,"ĠÎłÎµÎ¹ÏģÎ±Î¹Î¬":5860,"ĠÎĻÎ±":5861,"ĠÎ±ÏĢÎ»Î®":5862,"sc":5863,"ĠÎ±Î»Î»Î¿":5864,"ĠÎĳÎ¯":5865,"ÎľÎŁÎ£":5866,"ĠÏĩÎ»Î¼":5867,"ĠÎ£Î®Î¼ÎµÏģÎ±":5868,"ĠÎºÎ±Î¸ÎµÏĥÏĦÏİÏĤ":5869,"ĠÎĶÎ·Î¼Î¿ÎºÏģÎ±ÏĦÎ¯Î±":5870,"ĠÎµÎ½Î¯ÏĥÏĩÏħÏĥÎ·":5871,"Îİ":5872,"ĠÎ®Î¸ÎµÎ»Îµ":5873,"Î´Î¯Î¿":5874,"ĠÎ²Î¿Ïħ":5875,"ĠÎĺÎĳ":5876,"ĠÎĮÏĩÎ¹":5877,"ÎºÎ±Ïģ":5878,"ĠÎºÎ±Î»ÏįÏĦÎµÏģÎµÏĤ":5879,"ĠÎĻÏĥÏģÎ±Î®Î»":5880,"ĠÏĨÏīÎ½Î®":5881,"ĠÎ±ÏĢÎ¯ÏĥÏĦÎµÏħ":5882,"Î´Î¹ÎºÎ¿Ïį":5883,"ÏģÎ·Î¸ÎµÎ¯":5884,"ĠÎłÎ¿Ïħ":5885,"oun":5886,"ĠÏĢÎµÏģÎ¹ÎŃÏĩÎµÎ¹":5887,"ĠÏĦÎ·Î»ÎµÏĨÏīÎ½":5888,"ĠÏĢÎ±ÏģÎ±Î»Î¯Î±":5889,"ĠÎºÎ±Î¹ÏģÏĮÏĤ":5890,"ÏĩÏģÎ¿Î½Î¿Ïħ":5891,"ĠÎ¬Î´ÎµÎ¹":5892,"ĠÎ¹Î´ÏģÏį":5893,"ĠÎµÏĢÎ¹ÏĥÎ·Î¼Î±":5894,"amp":5895,"ÏĩÎ½Î¬":5896,"ÏĦÎ±ÏĥÎ·ÏĤ":5897,"Î»ÎµÏħÏĦÎ±Î¯Î±":5898,"ĠSh":5899,"ĠÎ¼Î½Î®Î¼Î·":5900,"ĠÏĢÎ¿ÏįÎ¼Îµ":5901,"ĠÏĥÎŃ":5902,"ĠÏĩÏģÏİÎ¼Î±ÏĦÎ±":5903,"ĠÏĥÎºÎ¿Ïħ":5904,"ĠÎ»ÏįÏĥÎµÎ¹ÏĤ":5905,"ĠÎ¼ÎµÏĦÎ±Ïģ":5906,"Î£Î±ÏĤ":5907,"ĠÎłÎ¿Î»Ïħ":5908,"ĠÎ¼ÏĢÎ¿ÏģÎ¿ÏįÏĥÎ±Î½":5909,"Î¹ÎµÏģÏī":5910,"ĠÎľÏĢÎ¿ÏģÎµÎ¯":5911,"ĠÏĥÏħÎ½ÏĦÎµ":5912,"Î¯ÏĥÎºÎ¿":5913,"ÏģÎ¹Î½Î®":5914,"ck":5915,"Î¼Î¹ÎºÎŃÏĤ":5916,"ĠÏĢÏģÎ¿ÎµÎ¹":5917,"ĠÎķÎ¥":5918,"ĠÎµÏĥÎ¬ÏĤ":5919,"ÏģÎ®ÏĤ":5920,"Î¯Î¿Î¹":5921,"ĠÎµÏħÏĩÎ±ÏģÎ¹ÏĥÏĦÏİ":5922,"ÎĳÎ½Î±Î¶Î®ÏĦÎ·ÏĥÎ·":5923,"ĠÎ¼Î±Î»Î»Î¹Î¬":5924,"ÏĩÎ½ÎµÏĤ":5925,"ÏģÎ¹Î½Î¬":5926,"Ġá¼Ģ":5927,"Î¼Î¹ÏĥÎ·ÏĤ":5928,"ÏĦÎ¿Î½ÏĦÎ±ÏĤ":5929,"Î¹Î±ÎºÏĮ":5930,"ÏĥÏīÏĢ":5931,"Î¹ÏĥÏĦÎµÏį":5932,"ÏĥÎ¹Î½":5933,"ĠÏĢÎ±Î³ÎºÏĮÏĥÎ¼Î¹Î±":5934,"ĠÎµÏĢÎ¹ÏĥÏĦÎ¿Î»Î®":5935,"ÏĥÏĦÏģÎ¿":5936,"ĠÎ½ÏįÏĩÏĦÎ±":5937,"ĠÎ¹Î´Î¹ÏĮ":5938,"ĠÏĢÎ±ÏģÎŃÎ±":5939,"ey":5940,"Î¹ÏĥÏĦÎ®ÏĤ":5941,"ÎºÏģÎ·":5942,"ĠÎ·Î¼ÎµÏģÎ¿Î¼Î·Î½Î¯Î±":5943,"ĠGoogle":5944,"Î£ÏĦÎ¿Î½":5945,"ÎĵÎµÎ½":5946,"ÏĦÏģÏİÎ½":5947,"ÏĮÎ½ÏĦÏīÎ½":5948,"ĠMar":5949,"ĠÏĢÎ»ÎµÎ¹Î¿ÏĪÎ·ÏĨÎ¯Î±":5950,"ĠÎĪÎ½Î±ÏĤ":5951,"ĠÎ±ÏĢÎ¿ÏĨÎ¬ÏĥÎ¹ÏĥÎµ":5952,"ÎĶÎ·Î¼Î¿":5953,"ĠÎµÏĢÎ¯Îº":5954,"ÏįÎ³Î¿Ïħ":5955,"ĠÎ¹Î´Î¹Î±Î¯ÏĦÎµÏģÎ·":5956,"ĠÎľÎ±ÏģÎ¯Î±":5957,"eg":5958,"Î»ÏīÏĥÎ·ÏĤ":5959,"ĠÎµÎ³ÎºÎ±ÏĦÎ¬":5960,"ĠÏĢÎ»ÎµÎ¿Î½":5961,"ĠÎ³ÎµÎ½Î¹ÎºÎ¬":5962,"ĠÎµÎ¾Î·Î³":5963,"Î±ÏĨÎ½":5964,"ĠÎłÎµÏģÎ¹ÏĨÎµÏģÎµÎ¹Î±":5965,"ĠÏĪÎ·ÏĨÎ¹Î±":5966,"Î¿ÏħÏĥÎµÏĤ":5967,"ĠÎ´Î¬Ïĥ":5968,"ĠÎ´Î¹Î¿Î¯ÎºÎ·ÏĥÎ·":5969,"ĠÏĢÏģÎ¿ÎºÎ¬":5970,"ÏĢÎµÏħ":5971,"ÏĦÏħÎ»":5972,"Î²Î±Ïģ":5973,"ĠÏĥÏīÏĥÏĦÎ®":5974,"Ġ90":5975,"ĠÎ¼ÎµÏĦÎ±Î½Î±":5976,"ĠÏĮÏģÎ¿":5977,"ÏĦÏģÎŃÏĨ":5978,"Î¹ÏĥÏĦÎ¿ÏįÎ½":5979,"ĠÎ£ÎµÎ»":5980,"ĠÎµÎºÏĢÎ¿Î¼ÏĢÎ®":5981,"AN":5982,"ath":5983,"ĠÎ±Î¾Î¹ÏĮ":5984,"Î¬Î½Î¹Î±":5985,"ĠÎ´Î¹Î±Î´Î¯ÎºÏĦÏħÎ¿":5986,"ĠÏĥÏħÎ¼Î¼ÎµÏĦÎ¿ÏĩÎ®ÏĤ":5987,"ÏģÏĮÎ½Î¹Î±":5988,"Ġ45":5989,"ĠÎ±ÏģÏĩÎ·Î³":5990,"ÎłÏīÏĤ":5991,"ous":5992,"Ġo":5993,"ĠÎ±ÏģÏĩÎ¯ÏĥÎµÎ¹":5994,"ÎľÎ·":5995,"ÎºÏģÎµ":5996,"ĠÏĥÎµÎ½Î¬":5997,"ri":5998,"Î¼ÏĮÏģÏĨÏīÏĥÎ·":5999,"ank":6000,"ÏİÏĥÎµÏīÎ½":6001,"ĠÎķÎ¾ÏīÏĦÎµÏģÎ¹ÎºÏİÎ½":6002,"ĠÎŃÎ³ÏģÎ±ÏĪÎµ":6003,"ĠÎºÎ±ÏĦÎ¬Ïģ":6004,"Ġ196":6005,"ĠÎ±ÏĢÎ»ÏĮ":6006,"ÏĦÏİÎ¼Î±ÏĦÎ±":6007,"ĠÎ±Î½ÏĦÎ¹ÎºÎµÎ¹":6008,"ĠÏħÏĢÎ±Î»Î»Î®":6009,"ĠÏĮÏĥÎ¿Î½":6010,"Î¼ÎŃÎ½Î¿ÏħÎ¼Îµ":6011,"ĠÎ¥ÏĢÎ¿ÏħÏģÎ³ÎµÎ¯Î¿Ïħ":6012,"ĠÎºÎ±ÏĦÎµÏįÎ¸ÏħÎ½ÏĥÎ·":6013,"ĠÏĢÎµÏĦÏį":6014,"ÎµÏĢÎ¹":6015,"ÏĦÎ¹Î´Î±":6016,"ĠÏĥÏĦÎ¿Î¹ÏĩÎµÎ¯Î¿":6017,"ĠÏĢÎ±Î³ÎºÎ¿ÏĥÎ¼":6018,"lay":6019,"ĠÎ±Î¹ÏİÎ½":6020,"ÏĦÎ®Î¼Î±ÏĦÎ¿ÏĤ":6021,"ĠÎłÎ¿Ïį":6022,"ÏĨÏįÎ»Î±":6023,"ĠÎ±ÏģÎºÎµÏĦÎŃÏĤ":6024,"Î¼Î±ÏĤ":6025,"Î¼ÏĮÏĦÎ·ÏĦÎ±ÏĤ":6026,"ÏģÎºÏī":6027,"ĠÎ±ÏĥÎ¸ÎµÎ½ÎµÎ¯ÏĤ":6028,"ÏİÎ½Î¿Î½ÏĦÎ±ÏĤ":6029,"ĠÎ³Î®ÏĢÎµÎ´Î¿":6030,"ÏģÏİÏĥÎ¿ÏħÎ½":6031,"ÎĻÎĶ":6032,"ÏĦÎ¬ÏĥÏĦÎ±ÏĥÎ·":6033,"ĠÏĨÏĦÏī":6034,"ĠÏĦÎ¬Î¾Î·ÏĤ":6035,"ĠÏĦÎ±Î¹":6036,"Î³Î¹Î¬Î½":6037,"ĠÎļÎ¥":6038,"ĠÎ¿Ïģ":6039,"Î¸ÏħÎ¼":6040,"ĠÎľÏħ":6041,"ĠÎ¡ÏĮ":6042,"ÎŃÏģÎ³ÎµÎ¹Î±":6043,"ĠÎłÏģÎ¿ÏĥÏĦÎ±":6044,"ĠÏĢÏģÏīÏĦÎ±Î³ÏīÎ½Î¹Ïĥ":6045,"ĠÎ±ÏĢÎ¿ÎºÎ±Î»":6046,"ĠÎºÏİ":6047,"ĠÎĶÎ¹ÎµÎ¸Î½":6048,"Î´Î·Î³":6049,"ĠÏĢÎ±ÏģÎ¿ÏĩÎ®":6050,"ĠÎµÎ½Î±Î»Î»Î±":6051,"ĠÎ±ÏĥÏĦÎµ":6052,"ĠÎ´Î¹Î±Î´Î¹ÎºÎ±ÏĥÎ¯ÎµÏĤ":6053,"ĠÎķÎºÎºÎ»Î·ÏĥÎ¯Î±":6054,"70":6055,"ÏĦÎµÎ¯ÎµÏĤ":6056,"ÏĦÎ¿Î½ÏĦÎ¬":6057,"ĠÏĥÏħÎ¼Î²ÎµÎ¯":6058,"ĠÏĢÏģÏĮÎµÎ´ÏģÎ¿":6059,"ĠÎºÏįÏģÎ¹":6060,"Î½Î±Î¼Îµ":6061,"Ġa":6062,"ĠÎ¼Î¿Î½Î¬Î´ÎµÏĤ":6063,"ĠÎ±ÏĢÎ¿ÎºÎ¬Î»Ïħ":6064,"ĠÎµÏģÏİÏĦÎ·Î¼Î±":6065,"Î¤ÎŁÎ£":6066,"ĠÎ½ÏĮÎ¼Î¿":6067,"ĠÎ¹ÏĥÏĦÎ¿ÏģÎ¯Î±ÏĤ":6068,"Î¹ÏİÏĦÎ·ÏĤ":6069,"ÎºÎµÎ»":6070,"ĠÎķÏĢÎ¹ÏĩÎµÎ¹":6071,"ÏĨÏĮÏģ":6072,"ÎºÎ¬Î¸Î±":6073,"ĠÎļÏģÎ¬":6074,"ĠÎ£ÏĩÎµ":6075,"ĠÏĢÏģÎ¿ÏĥÏīÏĢÎ¹ÎºÎ¬":6076,"Î´Î¹ÎºÏĮÏĤ":6077,"ĠÎ±Î½ÏĦÎ¹ÏĢÎ¿Î»Î¯":6078,"ĠÎ±Î½Î´":6079,"Î¸Î»Î¹":6080,"ĠÎºÎ±Î¹Î½Î¿":6081,"ĠÎ¿ÏĢÎ±":6082,"Î»Î»Î·Î½Î¿":6083,"ĠÎ»ÎµÏĨÏĦÎ¬":6084,"ÏİÏĦÎµÏĤ":6085,"ĠÎ´ÎŃÏģÎ¼Î±":6086,"ĠÎ¸ÏģÎ·ÏĥÎºÎµÏħ":6087,"Î±ÏģÎ¯Î±":6088,"ĠÎµÏģÏİÏĦÎ·ÏĥÎ·":6089,"ĠÏĥÏħÎ½Î¿Î¼Î¹":6090,"ĠÎ¼ÎµÎ»Îµ":6091,"ĠÏĥÏħÎ¼Î²Î¬":6092,"ĠÎ·Î¼ÎµÏģÏİÎ½":6093,"co":6094,"ĠÏĥÏħÎ»Î»Î¿Î³Î®":6095,"ĠÎ²ÎµÎ»ÏĦÎ¯ÏīÏĥÎ·":6096,"ÏĦÎ·Î³Î¿":6097,"ĠÎ²Î±Î¸Î¼Î¿ÏįÏĤ":6098,"ĠÎ´ÏģÎ±ÏĥÏĦÎ·ÏģÎ¹Î¿":6099,"Î³ÏģÎ¬ÏĨÎ¿Ïħ":6100,"ĠÏĢÎ¹ÏĥÏĦÎµÏįÏī":6101,"Î´Î·Î¼Î¿":6102,"Î¼Î²Î¿":6103,"ĠÎ£ÎµÏĢÏĦÎŃ":6104,"ĠÎ²Î±ÏĥÎ¹ÎºÏĮ":6105,"ÏĢÎ±ÏģÎ±Î³Ïī":6106,"44":6107,"ĠÎ±Î³ÏĮ":6108,"ick":6109,"ĠÎŃÎ»ÎµÎ³Îµ":6110,"ĠÏĢÎ¿Î´Î¿ÏĥÏĨÎ±Î¹ÏģÎ¹Ïĥ":6111,"ĠÏĥÎ¿Î²Î±ÏģÎ¬":6112,"Î´ÏīÏĥÎ±Î½":6113,"ĠÎŁÎ¼Î¿ÏĥÏĢÎ¿Î½":6114,"ĠÏĥÏħÎ¼ÏĢÎµÏģÎ¹Î»Î±Î¼Î²":6115,"ÏĢÎ¿ÏįÎ½":6116,"ĠÎ¼ÎŃÏĥÎ·":6117,"ĠÎ´Î¹Î±Î¼Î±ÏģÏĦÏħ":6118,"ÏĨÎ¸Î¿":6119,"ÏĩÏĦÎµÎ¯":6120,"Î³Î¿Ïģ":6121,"ĠÎ£ÏĢ":6122,"ÎŃÏīÎ½":6123,"ĠÎ¼ÎŃÎ³ÎµÎ¸Î¿ÏĤ":6124,"ÏĬÎºÏĮ":6125,"ust":6126,"Î¼Î¬Î½Î¹":6127,"ĠÎĶÏģÎ¬":6128,"ÏįÏĢÏĦÎ¿ÏħÎ½":6129,"Î¼ÎµÏģÎ¿":6130,"ĠÏĨÏħÏĥÎ¹Î¿":6131,"Î»ÏĮÎ³Î·ÏĥÎ·ÏĤ":6132,"ÏĩÎ¯Î±":6133,"ĠÎºÎ±ÏĦÎ±ÏĥÏĦÏģÎ¿ÏĨÎ®":6134,"ĠÎ´Î·Î¼Î¹Î¿ÏįÏģÎ³":6135,"ĠÏĥÏħÎ½ÏĦÎ¿Î½":6136,"ÏĦÎ¿Î½ÏĦÎ±Î¹":6137,"ĠÎµÏĢÎ¹Î»Î¿Î³":6138,"ÏĦÎ·ÏĥÎ®":6139,"ĠÏĦÎµÎ»Îµ":6140,"ĠÏĢÎ±ÏĦÎŃÏģÎ±":6141,"ÏįÏģÎ±":6142,"ĠÎ¿Î¼ÏĮ":6143,"ĠÎºÎ±Î¸ÎŃÎ½Î±ÏĤ":6144,"ĠÎµÎ¾Î±ÎºÎ¿Î»Î¿Ïħ":6145,"ĠÎĳÎ½ÏĦÏİÎ½":6146,"Î»Î¬ÎºÎ¹Î±":6147,".....":6148,"ĠÏĦÎŃÎ»Î·":6149,"Î¬Î½Î´Î±":6150,"ĠÎ¼ÎŃÎ¸Î¿":6151,"ĠÎ¤ÏĮ":6152,"ÏĦÎ®ÏĥÏī":6153,"ĠÎĳÎĽ":6154,"ÏĦÎµÏģÎµÏĤ":6155,"ĠÎºÎ¿Î¹Î½ÏīÎ½Î¹ÎºÏĮ":6156,"ĠÏīÏģÎ±Î¯Î±":6157,"ÎŁÎľ":6158,"ĠÏĢÎ±Î¹ÏĩÎ½Î¹Î´":6159,"ĠÎ±ÏĥÏĦÏħÎ½Î¿Î¼Î¯Î±":6160,"Î¸ÎµÏģÎ±ÏĢÎµ":6161,"ĠÎ£Î¹":6162,"ĠÎ¶Î®ÏĦÎ·ÏĥÎµ":6163,"ĠÎ²Î»ÎŃÏĢÏī":6164,"ĠÎºÏĮÎ¼Î¼Î±ÏĦÎ±":6165,"ĠÎ¿Î»ÏĮÎºÎ»Î·ÏģÎ·":6166,"ÏħÏĥÏĦÏħÏĩÏİÏĤ":6167,"ÏĥÎºÎ¿ÏĢ":6168,"ĠÎĳÎ½Î¬ÏĢÏĦÏħÎ¾Î·ÏĤ":6169,"ĠÎĳÏĤ":6170,"ĠÏĢÎ±ÏģÎ±ÎºÎ¿Î»Î¿Ïį":6171,"ĠÏĢÏģÎ¿ÏĥÏīÏĢÎ¹ÎºÎ¿Ïį":6172,"ĠÏĩÏīÏģÏİÎ½":6173,"ĠÎ±ÎºÎ¿Î»Î¿Ïį":6174,"Î´ÎµÏĥ":6175,"ĠÏĢÏĮÎ»ÎµÎ¹ÏĤ":6176,"ÎµÎ½ÎµÏģÎ³":6177,"ĠÎ´ÏģÎ±ÏĥÏĦÎ·ÏģÎ¹ÏĮÏĦÎ·ÏĦÎ±":6178,"ĠBl":6179,"ĠÎĶÎ¹ÎµÎ¸":6180,"ĠÎ±Î¯ÏĥÎ¸Î·ÏĥÎ·":6181,"ĠÎ£ÏħÏģÎ¯Î±":6182,"ĠÎ±ÏħÏĥÏĦÎ·":6183,"ĠÎ¤Î¼Î®Î¼Î±":6184,"Î¬ÎºÎ¹Î±":6185,"ÎĻÎļÎĳ":6186,"ĠÎ´Î¹Î±ÏĢÏģÎ±Î³Î¼Î±ÏĦÎµÏį":6187,"ÏĮÏĢÎ¿ÏħÎ»Î¿ÏĤ":6188,"ĠÎ¼Î¿Î½ÏĦÎŃÎ»Î¿":6189,"ĠÎµÏĦÎ®":6190,"ĠÏħÏĢÎ¿ÏħÏģÎ³ÎµÎ¯Î¿Ïħ":6191,"ĠÎµÏĢÎ¹ÏĦÏģÎŃÏĢÎµÎ¹":6192,"ĠÎµÏĢÎ¹ÏĥÏĦÎ®Î¼Î¿Î½ÎµÏĤ":6193,"ÏĥÏĦÎµÏģ":6194,"ĠÎļÎ¿Î½":6195,"ÏĨÎ¿Î¹":6196,"ĠÎľÎ·Î½":6197,"Î²Î±ÏĥÎ·ÏĤ":6198,"man":6199,"ĠÎ»ÎµÎ¯":6200,"ÏĢÏģÏĮÎ¸Îµ":6201,"ÏİÎ½ÏīÎ½":6202,"ĠÎ´Î·Î¼Î¹Î¿ÏħÏģÎ³ÎµÎ¯":6203,"ÎºÏĦÎµÏĤ":6204,"AS":6205,"ĠÏĢÎ»Î®ÏģÎ¿ÏħÏĤ":6206,"ĠÎķÏģÎ³Î±ÏĥÎ¯Î±ÏĤ":6207,"ÏĮÎ½Î¹Î±":6208,"ĠÏĢÎ¬ÏģÎ¿ÏħÎ½":6209,"ÎºÎ±Î»Î¹Î¬":6210,"ĠÎ¿ÏģÎ³":6211,"ĠÎ³Î½ÏīÏģÎ¯Î¶ÎµÎ¹":6212,"ÏĨÎ¿Ïį":6213,"ĠÎ´Î¿ÏħÎ»ÎµÏį":6214,"ĠÏĦÏģÏĮÏĢÎ¿ÏħÏĤ":6215,"ĠÏĨÎ±Î³Î·ÏĦÏĮ":6216,"ĠÎ±Î»Î»":6217,"ĠÎ¬Î»Î»ÏīÏĥÏĦÎµ":6218,"**":6219,"ĠÎµÏĦÎ±Î¹ÏģÎ¯Î±":6220,"02":6221,"ĠÏĢÎ»Î±ÏĦÎµÎ¯Î±":6222,"ĠÎ¼Î±Î¸Î·ÏĦÏİÎ½":6223,"ĠÏĦÎµÏĩÎ½Î¿Î»Î¿Î³Î¯Î±":6224,"ĠÎ±Î¾Î¯Î¶ÎµÎ¹":6225,"ĠÎµÎºÏĢÏģÎ¿ÏĥÏİ":6226,"ĠÏĢÎµÏģÎ±Î¹ÏĦÎŃÏģÏī":6227,"ĠÎ¶Î®":6228,"ĠÎ¼ÏĢÎ¿ÏģÎŃ":6229,"Î±Î³Î³ÎŃ":6230,"ĠÎ½ÎµÎºÏģÎ¿":6231,"ĠÎ²ÏģÎµÎ¸ÎµÎ¯":6232,"ĠÏĥÏħÎ½ÎŃÎ²Î·":6233,"ĠÎ´Î±ÏĢÎ¬Î½":6234,"ĠÎĵÏħÎ¼":6235,"Î±Î½Î¿":6236,"ĠÏĥÏĦÎŃÎ»":6237,"ĠÎ¬ÏĦÎ¿Î¼Î¿":6238,"ĠÎĳÎ»ÎµÎ¾":6239,"ĠÎķÎ»Î»Î·Î½Î¹ÎºÏĮ":6240,"ĠÎ¸Î¬Î½Î±":6241,"ĠÎ½Î·ÏĥÎ¹":6242,"ĠÎ¼ÎµÏĥÎ±":6243,"ĠÎĪÎ»Î»Î·Î½Î±ÏĤ":6244,"ĠÏĥÏĦÎ®ÏģÎ¹Î¾Î·":6245,"ĠÏĥÎºÎ¿Ïģ":6246,"ĠÏįÏĪÎ¿ÏħÏĤ":6247,"ĠÎ¡Î¬":6248,"ĠÏĥÎµÎ»Î¯Î´Î±ÏĤ":6249,"ĠÎ´Î¯ÎºÏĦÏħÎ¿":6250,"Î¹ÎºÏĮÎ½ÎµÏĤ":6251,"ÏĦÎ¯Î¶Î¿Î½ÏĦÎ±Î¹":6252,"ĠÏĦÏħÏĩÎ±":6253,"ĠÏĦÎŃÏĥÏĥÎµÏģÎ±":6254,"ÏĦÎ®ÏĥÎµÏĦÎµ":6255,"Î¼Î±ÏĦÎ¹ÎºÎ¬":6256,"ĠÏĢÏģÏīÏĦÎ±Î¸":6257,"á½°":6258,"ach":6259,"09":6260,"ÎłÏģÎ¿Î²Î¿Î»Î®":6261,"ĠÎŃÏĢÎµÎ¹ÏĦÎ±":6262,"ĠÎµÎ½ÎµÏģÎ³ÎµÎ¹Î±":6263,"ĠÎ»Î¬Î²ÎµÎ¹":6264,"Î¬ÏĥÏĦÎ·ÎºÎµ":6265,"Î§Î±":6266,"ĠÏĢÏģÎ¿ÏĥÏĨÏħ":6267,"ĠÏĥÏħÎ½ÎµÏģÎ³Î±ÏĥÎ¯Î±ÏĤ":6268,"ĠÏĨÏģÎ¿Ïį":6269,"ly":6270,"ĠÎ¼Î±ÎºÏģÎ¿":6271,"Î¼Î¼ÎŃÎ½Î¿":6272,"ĠÎ±Î½ÏĦÎ¯ÏĢÎ±":6273,"ĠÎ½Î¹ÎºÎ·":6274,"ÏĩÎ®Î¼Î±ÏĦÎ±":6275,"ÎŃÎ½Î±Î½":6276,"ĠÏħÎ»Î¿ÏĢÎ¿Î¹":6277,"ĠÎ´Î¹ÎºÎ±Î¹Î¿Ïį":6278,"ĠÎ±Î½Î±Ïĥ":6279,"ĠÎŃÎ¾Î¿":6280,"ĠÎ³ÏħÎ¼Î½Î±":6281,"ĠÎµÏģÎ³Î±Î¶ÏĮÎ¼ÎµÎ½Î¿Î¹":6282,"ĠÎ¿Î»ÏĮÎºÎ»Î·ÏģÎ¿":6283,"Î»Î¿Î³Î¿ÏĤ":6284,"Î»Î·Î¸ÎµÎ¯":6285,"ÏĦÏģÎ·ÏĥÎ·":6286,"ĠÏĢÎ±ÏģÎ±Î³Î³ÎµÎ»":6287,"ĠÎ¼Î¹ÏĥÎ¸":6288,"qu":6289,"ĠÏĢÏģÎ¿Î²Î¿Î»":6290,"ĠÎĳÎ£":6291,"Î³ÎºÏħ":6292,"ĠÎ¶Î·ÏĦÎ¬":6293,"ĠÎµÏģÏĩ":6294,"ÎºÎ±Î¸Î±":6295,"ĠÏĥÏĢÎ¬Î½":6296,"ĠÎ²Î¿Ïį":6297,"Î½Î¿Î¼Î¿":6298,"ĠÏĢÎµÎ´Î¯Î¿":6299,"ĠÎłÎ±Ïģ":6300,"ĠÏģÎ·":6301,"Ġre":6302,"ÏĮÎ¼ÎµÎ½ÎµÏĤ":6303,"ĠÎ¦Î¿":6304,"ĠÎ¹ÏĥÎ¿ÏģÏģÎ¿":6305,"ĠÎºÎ±ÏĢÎ¹ÏĦÎ±Î»Î¹Ïĥ":6306,"ĠÎļÎ¬Î¸Îµ":6307,"ĠÎºÎ±Î»Ïį":6308,"ĠÎºÎ¬Î½Î¿Î½ÏĦÎ±ÏĤ":6309,"ĠÎķÎºÎºÎ»Î·ÏĥÎ¯Î±ÏĤ":6310,"Î»Î¿Î³Î¹ÎºÎ®ÏĤ":6311,"ĠÏĢÎŃÏĨ":6312,"ĠÎµÎ»ÎŃÎ³ÏĩÎ¿Ïħ":6313,"Î´Î¹ÎºÎŃÏĤ":6314,"ĠÎºÎ¿ÏħÎ¶Î¯":6315,"ĠÎĴÎµÎ½Î¹Î¶":6316,"ĠÎ½Î¿ÏĥÎ¿ÎºÎ¿Î¼ÎµÎ¯Î¿":6317,"ĠÎ¼Î·Î½ÏįÎ¼Î±ÏĦÎ±":6318,"ÎłÎ¬":6319,"ĠÎ¤Î©ÎĿ":6320,"Î»ÏħÏĥÎ·":6321,"ĠÎķÎ»":6322,"ĠÎµÎ¼ÏĨÎ±Î½Î¯Î¶ÎµÏĦÎ±Î¹":6323,"ĠÎ±ÏĢÎ¿ÏĥÏĦÎ¿":6324,"ĠÎķÎĶ":6325,"ĠÎºÏģÎ¹ÏĦÎ¹ÎºÎ®":6326,"ĠÎµÎ»":6327,"ÏĦÎ®ÏģÎµÏĤ":6328,"Î½Î±Îº":6329,"ĠÎ¼ÏĢÎµÎ¹":6330,"ĠÎ±ÏĢÎ¿Ïħ":6331,"ĠÎ¹Î½":6332,"ÎĽÎĹÎĿ":6333,"ĠÏĥÏİÎ¼Î±ÏĦÎ¿ÏĤ":6334,"ĠÎķÎ¹":6335,"Î±Î³Î³Îµ":6336,"ÎľÎĹ":6337,"Ġ!!!":6338,"ĠÎµÏģÎ³Î±ÏĥÎ¯ÎµÏĤ":6339,"ÏĮÎ¼ÎµÎ½Î¿":6340,"ĠÏĨÎ¹Î»Î¿ÏĥÎ¿":6341,"Î»ÏĮÎ³Î¿Ïħ":6342,"ĠÎ¹Î´Î¹Î¿ÎºÏĦÎ·":6343,"ÏĥÎ¹Î±Î»Î¹Ïĥ":6344,"ĠÎ¾ÎŃÏģÎµÎ¹ÏĤ":6345,"ĠÏĩÏħ":6346,"ĠÏĥÎºÏħ":6347,"ĠÎļÏİÏĥÏĦÎ±ÏĤ":6348,"Î³ÏģÎ±ÏĨÎ±":6349,"Î¼ÏħÎ½Î±ÏĤ":6350,"ĠÏĥÏĢÎ±":6351,"ĠÎľÎ¿ÏħÏĥÎµÎ¯Î¿":6352,"ĠÎ²Î»ÎŃÏĢÎ¿ÏħÎ¼Îµ":6353,"ĠÎĳÎ½Î´ÏģÎŃ":6354,"ĠÎ¼ÎµÎ¯":6355,"Î¸Î±Î½Îµ":6356,"ĠÎµÏįÎºÎ¿Î»Î¿":6357,"ax":6358,"ĠÎµÎ³ÎºÎ»Î·Î¼Î±":6359,"ĠÎ¦ÎµÏĥÏĦÎ¹Î²Î¬Î»":6360,"ĠÎĵÎ¿Ïħ":6361,"ĠÎĶÎ®Î¼Î¿ÏĤ":6362,"ĠÎ¤ÎŁÎĿ":6363,"Î¹ÏĥÏĦÎ¹ÎºÎ¬":6364,"Î¯ÏĥÏĦÎ·ÎºÎ±Î½":6365,"ĠÏĢÎ±ÏģÎ¬Î¸ÏħÏģÎ¿":6366,"Î³Î±Î¹":6367,"ĠÏĦÏģÎ±ÏĢÎŃ":6368,"Î¯Î¶ÎµÎ¹ÏĤ":6369,"ĠÎºÎ±ÏĦÎ±ÏĥÎºÎµÏħÎ±Ïĥ":6370,"ĠÏħÏĢÎ¬Î»Î»Î·":6371,"Î¼ÏĢÎ±Î½":6372,"ÏĦÏĥÎ±ÏĤ":6373,"ĠÎºÎ¹Î»Î¬":6374,"ÏīÏĥÎ®":6375,"ĠÏĢÎ±ÏĦÎŃÏģÎ±ÏĤ":6376,"ÏģÎ·ÏĥÎ±Î½":6377,"ÎĻÎĽ":6378,"ond":6379,"Î¹ÏĥÏĦÏİÎ½":6380,"ĠÎŃÏĨÏĦÎ±ÏĥÎµ":6381,"ÏģÎ®ÏĥÎ¿ÏħÎ½":6382,"Î³ÏģÎ¬ÏĨÎ¿ÏĤ":6383,"Î²ÎŃÎ½":6384,"ink":6385,"ĠÎ³ÏģÎ±ÏĨÎµÎ¯Î±":6386,"ĠÎ±Î½Ïī":6387,"ĠÏĢÎ±ÎºÎŃ":6388,"ÏĥÎ´Î®ÏĢÎ¿ÏĦÎµ":6389,"ÏĥÎ¼ÏİÎ½":6390,"ĠÎµÎ½ÎŃÏģÎ³ÎµÎ¹ÎµÏĤ":6391,"ÏĨÎŃÏģÎµÎ¹Î±ÏĤ":6392,"ÏİÎ½Î·ÏĤ":6393,"ĠÎłÏģÎ¬":6394,"ĠÏĩÏģÎµÎ¹Î±ÏĥÏĦÎµÎ¯":6395,"ĠÎ¯Î´Î¹Î¿Î¹":6396,"Î¼Î¹Î½Î¬":6397,"Î¼Î¬ÏĦÎ¹Î¿":6398,"ĠÏĢÏģÎµ":6399,"ĠÎ´ÏįÏĥÎºÎ¿Î»Î·":6400,"ÏįÏģÎ¿ÏĤ":6401,"ÏĦÏĮÏĦÎ·ÏĦÎ±":6402,"ĠÎ³Î±Î»Î»":6403,"ĠÎĿÎ¹Îº":6404,".:":6405,"ĠÎ¬ÎºÎ¿Ïħ":6406,"Î¾Î±Î¼Îµ":6407,"ÏĢÎ±Î³":6408,"ĠÎµÏģÏīÏĦÎ®ÏĥÎµÎ¹ÏĤ":6409,"ĠÎĪÎº":6410,"Ph":6411,"ĠÎ´ÎµÎºÎ¬Î´ÎµÏĤ":6412,"ĠÎĴÎ¬":6413,"ĠÎµÏĢÏĮÎ¼ÎµÎ½ÎµÏĤ":6414,"ĠÎ²Î³Î®":6415,"ĠÎ»Î¬Î¸Î·":6416,"ĠÎ¼Î±Î¸Î®Î¼Î±ÏĦÎ±":6417,"Î£Î¥":6418,"Î¸Î®ÏĥÎµÎ¹ÏĤ":6419,"ĠÏĦÏģÏİ":6420,"Î¸Î±Î»":6421,"ternet":6422,"Î£ÏĩÎµÏĦÎ¹ÎºÎ¬":6423,"ĠÏĨÏģÎŃ":6424,"Î²Î¬Î»Î»ÎµÏĦÎ±Î¹":6425,"ĠÎ£Î¤ÎĹÎĿ":6426,"ÏĦÏħÏĩÎµ":6427,"ĠÎ±Î³ÏİÎ½Î±ÏĤ":6428,"ĠÏĢÎ¿Î»Î¹ÏĦÎ¹ÎºÎ¬":6429,"ĠÏĦÏģÎ¹ÏİÎ½":6430,"Î¹ÏĥÎ·ÏĤ":6431,"ĠâĢĻ":6432,"ĠÎºÎ¿Î¹Î½Î¿Ïį":6433,"ĠÎľÏĢÎ¿Ïħ":6434,"Î¸ÏİÎ½ÏĦÎ±ÏĤ":6435,"oy":6436,"ĠÏĢÎ¹ÎŃ":6437,"ĠÎ±Î»Î»Î¬Î¶ÎµÎ¹":6438,"Î¼ÎµÏĦÎ±Î»Î»":6439,"iss":6440,"ĠÏĥÏĩÎµÎ´Î¹Î¬":6441,"ÏĦÎ¿ÏĦÎµ":6442,"ĠÎ³ÏīÎ½":6443,"ĠÎłÎ¿Î¹":6444,"ĠÎºÏĮÎ¼Î¼Î±ÏĦÎ¿ÏĤ":6445,"ĠÏĢÎ®Î³Îµ":6446,"ĠÎºÎ±Î»Î»Î¹ÏĦÎŃ":6447,"ĠÎºÏįÏģÎ¹Î¿":6448,"ÏĨÏħÎ³ÎµÏĤ":6449,"ĠAp":6450,"ĠÎ¼ÏĢÏĮ":6451,"ĠÎµÏĢÎ¯ÏĥÎºÎµÏĪÎ·":6452,"ĠÎķÎºÏĢÎ±Î¯Î´ÎµÏħÏĥÎ·ÏĤ":6453,"ĠÎµÎºÎµÎ¯Î½Î¿":6454,"ÏģÎ¯Î½Î±":6455,"ĠÎºÎ¬ÏĦÎ¿Î¹Îº":6456,"ĠÏĢÏģÎ¿Î·Î³Î¿ÏįÎ¼ÎµÎ½Î·":6457,"ĠÏĢÎµÏģÎ¹ÎµÏĩÎ¿":6458,"ĠÏĢÎ¿Î¯":6459,"ĠÎĴÎ¹Î¿":6460,"ID":6461,"Î´Î±ÏĨÎ¿ÏĤ":6462,"ÏĦÏįÏĢÎ·":6463,"ĠÎ±Î³Î¿":6464,"ĠÎ±ÏĢÎ±ÏĥÏĩÏĮ":6465,"ÏģÎµÎ¯Î¿Ïħ":6466,"ĠÎ´ÏħÏĥÏĦÏħÏĩÏİÏĤ":6467,"ĠÎ²Î¿ÏħÎ»ÎµÏħÏĦÎŃÏĤ":6468,"ĠÎµÎ¸ÎµÎ»Î¿Î½":6469,"ĠÎ²Î¬Î»ÎµÎ¹":6470,"ĠÎ²Î¹Ïİ":6471,"ĠÏĪÎŃ":6472,"Î¶ÎµÏĦÎµ":6473,"ĠPro":6474,"Î¼ÏĢÎŃ":6475,"ĠÎĿÎ¿ÏĥÎ¿ÎºÎ¿":6476,"ĠÎŃÎ»Î»ÎµÎ¹ÏĪÎ·":6477,"ÎłÎ¿Î»Ïį":6478,"ÏģÎ®ÏĦÎ¿Ïħ":6479,"ĠÎµÎ¾Î±Î¹ÏĦÎ¯Î±ÏĤ":6480,"ĠÎķÎ»ÎŃ":6481,"Î»Î·ÏĥÎµ":6482,"ÏĦÏĥÎµÏĤ":6483,"ĠÎ®ÏģÎ¸":6484,"ĠÎĴÎ¿ÏħÎ»Î®ÏĤ":6485,"Î³Î»Î¿Ïħ":6486,"ĠÎ´ÎµÎ¹ÏĤ":6487,"ĠÎºÎ±Î½ÏĮÎ½ÎµÏĤ":6488,"Ġï":6489,"ĠÎµÏĥÏĦÎ¹Î±":6490,"ÏĨÎ¹Î»":6491,"ÏĨÏĮÏģÏīÎ½":6492,"ĠÎľÎ½Î·":6493,"Î¾Î¹ÎºÏĮ":6494,"ÎĿÎ¿":6495,"ĠÎ¦Î±":6496,"ĠÎºÎ±Î»Î±":6497,"ÎķÎ¬Î½":6498,"Î¿ÏħÎ»ÎŃÏĤ":6499,"ĠÏħÏĪÎ·Î»Î®ÏĤ":6500,"ĠÎļÎ¯Î½Î±":6501,"Î¤ÏİÏģÎ±":6502,"ĠÎ±Î³ÏīÎ½Î¹ÏĥÏĦÎ¹ÎºÎ®":6503,"ĠÎ¿Î¸ÏĮ":6504,"ĠÎµÎ½ÏĥÏī":6505,"ĠÏĢÎ±ÏĦÏģÎ¯Î´Î±":6506,"ĠÎ±ÏĢÎ¿Î»Î±Ïį":6507,"ĠÎ²Î»ÎŃÏĢÎµÎ¹":6508,"ĠÏĥÏĦÏģÎ±ÏĦÏĮ":6509,"ĠÎ±ÏĢÏĮÎ»ÏħÏĦÎ±":6510,"ĠÏĩÎ¬ÏĥÎµÎ¹":6511,"Î½Î¿Î¼Î®":6512,"Î»Î±Î²Î±Î½":6513,"ĠÎ²Î³ÎµÎ¹":6514,"Î¼Î·ÏĥÎ·ÏĤ":6515,"ĠÏĢÏģÎ¿ÏĥÏĦÎ±ÏĥÎ¯Î±ÏĤ":6516,"33":6517,"ĠÎ³Î½ÏīÏģÎ¯Î¶Î¿ÏħÎ½":6518,"ĠÏĢÏģÎ¿ÏĥÎŃÎ³Î³":6519,"ĠÎ½Î·ÏĥÎ¹Î¬":6520,"05":6521,"pe":6522,"ÏĥÏĦÎ¬ÏĥÎµÏīÎ½":6523,"ĠÎ´Î¹ÎºÎ±Î¹ÏīÎ¼Î¬ÏĦÏīÎ½":6524,"ĠÏĥÏĢÎ¿ÏħÎ´Î±":6525,"ĠÏĢÎ±ÏģÎ¬Î³Î¿Î½ÏĦÎµÏĤ":6526,"age":6527,"ÏīÏģÎ¿":6528,"ÏĢÎ±ÏĤ":6529,"ĠÎ±ÏĢÎ¿Î¼Î±":6530,"Î»Î¿Î³Î¯Î¿Ïħ":6531,"ĠÎĳÏĥÏĨÎ¬Î»":6532,"ĠÎ±Î½ÏĦÎ¹ÎºÎµÎ¯Î¼ÎµÎ½Î¿":6533,"Î±ÏĥÎµ":6534,"âĢ¦]":6535,"ĠÎ±ÏĥÎºÎ®":6536,"ÏģÏĩÎ¯Î±":6537,"ĠÏĮÏģÎ³":6538,"Ġ300":6539,"ĠÎ¡Î¿Ïħ":6540,"ĠÏĢÎ¯ÎµÏĥÎ·":6541,"ĠÎłÎ¿Ïģ":6542,"ĠÏģÎ¬":6543,"Î»Î¹ÎºÏİÎ½":6544,"ÏĦÎ±ÏĦÎ¿":6545,"06":6546,"ÏĢÎŃÎ´Î¿Ïħ":6547,"ĠÎºÏĮÎ½":6548,"ĠÎĶÎ·Î¼Î¿ÏĦÎ¹ÎºÏĮ":6549,"ĠÏĢÎ±Î¹Î´Î¹Î¿Ïį":6550,"ĠÏĢÎ»Î·ÏģÎ¿":6551,"ĠÎĳÎ¼ÎµÏģÎ¹ÎºÎ®":6552,"ÏĮÏģÎº":6553,"ĠÎºÏĮÏģÎ·":6554,"ĠÏĢÎµÏĦÏģÎµ":6555,"ĠÏĦÎŃÏĩÎ½Î·":6556,"ÏģÎ®Î¼Î±ÏĦÎ±":6557,"ĠÎ¹Î´Î¹":6558,"Î²Î±Î¯Î½ÎµÎ¹":6559,"ÏģÎ¹Î½ÏĮ":6560,"Î³Î¿Î¯":6561,"ÏĥÏĥÎµÏĦÎ±Î¹":6562,"ube":6563,"ÏįÏģÎ¹Î¿":6564,"ĠÎ²Î¹Î²Î»Î¯Î¿Ïħ":6565,"ÏĥÎ²Îµ":6566,"Ġ36":6567,"ĠÏĦÎ¹Î¼Ïī":6568,"Î»ÎµÏĦÎ±Î¹":6569,"ÏĨÏīÎ½Î±":6570,"ĠÏĢÏĮÏģÏĦÎ±":6571,"ÏĦÎ¹ÏĥÎ·":6572,"Î´ÎŃÏĩÎµÏĦÎ±Î¹":6573,"ĠÏĦÏħÏĩ":6574,"Î»Î®ÏĥÎµÎ¹ÏĤ":6575,"ÎºÎ¯Î½Î·ÏĥÎ·":6576,"ĠÎ½Î¿Î¼Î¹":6577,"ÏĥÎ¼Î±ÏĦÎ¿ÏĤ":6578,"ĠÏĢÏģÎ±Î³Î¼Î±ÏĦÎ¹ÎºÎ®":6579,"03":6580,"ĠÏĥÎºÎŃÏĪÎµÎ¹ÏĤ":6581,"Î´Î¹ÏĮ":6582,"ĠÏĦÎµÎ»Î¹ÎºÎ®":6583,"ĠÎºÎ±ÏĦÎ±ÏģÎ³":6584,"ĠÏĢÏģÎ¿ÏĥÏĢÎ¬Î¸ÎµÎ¹ÎµÏĤ":6585,"ÎºÏĮÏģ":6586,"ĠÎĵÎ¹Î±Î½":6587,"ĠÎ¸ÎŃÎ»ÎµÎ¹ÏĤ":6588,"ports":6589,"ĠÎ¼Î®ÏĢÏīÏĤ":6590,"ÎķÎ¾":6591,"Î»Î»Î±Î½":6592,"ĠÎµÎ»Î±ÏĨ":6593,"Î¸ÎŃÏĦÎµÎ¹":6594,"ÏģÎ¯Î¶Î¿Î½ÏĦÎ±ÏĤ":6595,"Ġ2019":6596,"ĠÎ¿Î¼Î¹Î»Î¯Î±":6597,"Î´Î¹ÎºÎ±Î»":6598,"ÏĦÏģÏĮÏĤ":6599,"ĠÎ¼ÎµÏĦÎ±ÏĨÎ¿ÏģÎ¬":6600,"07":6601,"ON":6602,"ÏĩÏģÎ¿Î½Î·ÏĤ":6603,"ĠÏģÏīÏĥ":6604,"Î»ÎµÎ¹Î±ÏĤ":6605,"ĠÏĦÎ¿Î¯":6606,"ÎµÎ¯Î½Î±Î¹":6607,"ĠÎ±Î¯Î¸Î¿ÏħÏĥÎ±":6608,"ĠÎºÎ±ÏģÎ¹":6609,"ÏĦÎ¬ÎºÎ¹Î±":6610,"ĠÎ²ÏģÎŃÎ¸Î·ÎºÎ±Î½":6611,"ÏĦÎ¹ÎºÎŃÏĦÎµÏĤ":6612,"ĠÎ±Î½Ïİ":6613,"ĠÎ¶ÏīÎ³ÏģÎ±ÏĨ":6614,"ĠÎ¿ÏĢÎ¿Î¹Î¿Î´Î®ÏĢÎ¿ÏĦÎµ":6615,"ĠÏĢÏģÎ¿ÎŃÎ´ÏģÎ¿Ïħ":6616,"ĠÎľÎµÏĥÎ¿":6617,"ÎľÏĢÎ¿ÏģÎµÎ¯":6618,"ĠÏĥÏĢ":6619,"ĠÏĢÎµÏģÎ¹ÏĮÎ´Î¿Ïħ":6620,"ĠÎĿÏĦÏĮ":6621,"Î¹ÏĮÎ½":6622,"ĠÎ£Î±Î²":6623,"Î¹ÏĥÎ¼ÎŃÎ½Î·":6624,"ĠÎ¤Î¯":6625,"ĠÏħÏĢÏĮÎ»Î¿Î¹ÏĢÎ±":6626,"ÏħÏĥÎ±Î½":6627,"ÏĪÎµÏīÎ½":6628,"ĠÎ´Î¿Î»Î¬":6629,"ĠÎ£ÏĦÎ¬":6630,"ĠÎºÎ±ÏģÎºÎ¯":6631,"ĠÏĢÏĦÏİÏĥÎ·":6632,"ÎĶÎķ":6633,"ĠÎŁÎĻ":6634,"ĠÎ±ÏģÏĩÎ¯Î¶ÎµÎ¹":6635,"ĠÎ¤ÎµÏĩÎ½Î¿":6636,"Î¹ÏİÏĦÎ·":6637,"ĠÎ±Î½Î±Î»Ïį":6638,"ĠÎµÏĢÎ¹Î´Î¹Ïİ":6639,"ÏĦÎ¹Î½Î¿Ïį":6640,"Î®Î³Î·ÏĥÎ·":6641,"ĠÎ´ÏħÎ½Î¬Î¼ÎµÏīÎ½":6642,"Î§ÎĻ":6643,"ĠÎºÏħÎ½Î·":6644,"ĠÎ±ÏĢÎ¿Î¶Î·":6645,"ÏģÎ¬ÎºÎ¹Î±":6646,"ĠÏĦÎ¼Î®Î¼Î±ÏĦÎ±":6647,"ĠÎµÏĢÎ¹ÎºÎ¿Î¹Î½ÏīÎ½Î¯Î±":6648,"ÏĥÏĩÎŃÎ´Î¹Î¿":6649,"ĠÏĢÎ±ÏģÎ¿Ïį":6650,"ĠÎ±Î½Î±Î¶Î®ÏĦÎ·ÏĥÎ·":6651,"ĠÎ»ÎµÏĢÏĦÎ¿Î¼ÎŃÏģÎµÎ¹ÎµÏĤ":6652,"ĠÎºÎ±ÏĦÎ¬ÏģÎ³":6653,"ĠÎ´ÎµÎºÎ±ÎµÏĦÎ¯Î±":6654,"ĠÎķÎ´Ïİ":6655,"ĠÎ²Î±Î¸Î¹Î¬":6656,"ĠÎµÏĢÎ¯ÏĥÎ·Î¼Î·":6657,"Ġvideo":6658,"ĠÎ¿Î½ÏĮÎ¼Î±ÏĦÎ±":6659,"ĠÎ±Î¼ÏĨÎ¹Ïĥ":6660,"ĠÏĥÎ¹Î³Î¬":6661,"ĠÏĥÏħÎ½Î¬Î½":6662,"ĠÎºÎ¹Î½Î®ÏĥÎµÎ¹ÏĤ":6663,"ĠÎ®ÏģÏī":6664,"ÏĥÎ¹Î±ÏĤ":6665,"ÎķÏĢÎ¹ÎºÎ¿Î¹Î½ÏīÎ½":6666,"Î»Î¹ÏİÎ½":6667,"ĠÎ´Î¹Î±Î´Î¹ÎºÏĦÏħÎ±":6668,"ĠÎ±Î³ÏģÏĮ":6669,"Î»Î¹ÎºÎŃÏĤ":6670,"ĠÎ±ÎµÏģÎ¿Î´ÏģÏĮÎ¼Î¹Î¿":6671,"ÏģÎ³Î¿":6672,"ĠÏĢÎµÏģÎ¹Î¿Î´Î¹ÎºÏĮ":6673,"ĠÎľÏĮÎ½Î¿":6674,"ÏģÎºÎ¿":6675,"ĠÎĵÎµÏģÎ¼Î±":6676,"ÏĨÎ¿ÏģÎ¹ÎºÎ¬":6677,"ĠÎ¾ÎµÎ½Î¿Î´Î¿ÏĩÎµÎ¯Î±":6678,"ÎĶÎĻÎĳ":6679,"ÏĥÏĩÎ¿Î»":6680,"ÏĥÏĦÎ®ÏĤ":6681,"ĠÏįÏĥÏĦÎµÏģÎ±":6682,"ĠÎ¼Î±ÏģÏĦÏħ":6683,"ĠÎµÎ½ÏĮ":6684,"Î³ÏīÎ³Î®":6685,"ÏģÏİÎ½ÏĦÎ±ÏĤ":6686,"ĠÏĮÎ½":6687,"ÏĩÎ¹Î±":6688,"ĠÏĦÏģÎ¯ÏĦÎ¿":6689,"ĠÎµÏģÎ³Î±Î¶ÏĮÎ¼ÎµÎ½Î¿ÏħÏĤ":6690,"ĠÎ±ÏĢÎ¿ÎºÎ»ÎµÎ¯":6691,"ÏĨÏĮÏģÎ¿":6692,"ÏĦÏİÎ²":6693,"ĠÎµÏĢÎ¹ÎºÎ¯Î½Î´Ïħ":6694,"Î´ÏĮÏĦÎ·ÏĥÎ·ÏĤ":6695,"ĠÏĢÏģÎ¿ÏĥÏĢÎ±Î¸ÎµÎ¯":6696,"ĠÎºÎ±ÏĦÎ±Ïģ":6697,"ĠÏĩÏģÎ¿Î½Î¿":6698,"ĠÏĢÎ¿Î»ÎŃÎ¼Î¿Ïħ":6699,"ĠÎµÎºÎ±ÏĦÎ¿Î½ÏĦÎ¬":6700,"ĠÎ¼Î¯Î»Î·ÏĥÎµ":6701,"ĠÏĦÏģÎ±Î³Î¿ÏħÎ´":6702,"ĠÎ»ÎµÏĢÏĦÏĮ":6703,"ĠÏĢÎ¬Î¼Îµ":6704,"ĠÏĩÏģÏī":6705,"ĠÎµÎ¼ÏĢÎ¹ÏĥÏĦÎ¿":6706,"ĠÏĦÎ®ÏĤ":6707,"ĠÎŁÎ»ÏħÎ¼ÏĢÎ¹Î±ÎºÏĮÏĤ":6708,"ĠÎºÎ±ÏĦÎ±Î³Î³ÎµÎ»":6709,"ĠÎ¤ÏģÎ¿":6710,"ĠÏĢÏģÎ¿ÏĥÏĨÎŃÏģÎ¿ÏħÎ½":6711,"ĠÏĢÏģÎ±Î³Î¼Î±ÏĦÎ¹ÎºÏĮ":6712,"38":6713,"Î½Î·Î¼ÎŃ":6714,"ĠÎ´ÏħÎ½Î±ÏĦÏĮÏĦÎ·ÏĦÎµÏĤ":6715,"ĠÎĶÎ·Î¼Î®ÏĦÏģÎ·":6716,"ĠÎµÎºÏĦÎŃÎ»Îµ":6717,"Î»Î¯Ïĥ":6718,"á¿¶":6719,"ĠÎ¶ÏİÎ±":6720,"ĠÏĥÏħÎ½ÎµÎ´ÏģÎ¯Î±ÏĥÎ·":6721,"ÏĥÎ¹ÎµÏį":6722,"ĠÎ±ÏĢÎ±Î½ÏĦÎ®ÏĥÎµÎ¹ÏĤ":6723,"ĠÎŃÏĥÏĦÎµÎ¹":6724,"ĠÏĢÎ±Î½Î·Î³":6725,"ĠÎºÎ±ÏĦÎ±ÏĥÏĦÏģÎ¿ÏĨ":6726,"ĠÎŃÎ´Î±ÏĨÎ¿ÏĤ":6727,"ĠÎ¼ÎµÎ½":6728,"ĠÎºÎ±ÏĦÎ±Î½Î¬Î»ÏīÏĥÎ·":6729,"ĠÎ¶ÎµÎ¹":6730,"ĠÎµÏĢÎ¹ÎºÏģÎ¬":6731,"ÂµÎ±":6732,"ÏĨÎ·Î¼ÎµÏģÎ¯Î´Î±":6733,"08":6734,"Î»ÎµÎ³Îº":6735,"ÎµÎ¾":6736,"ÏģÏİÎ½Î¿ÏħÎ½":6737,"ĠÏĥÏħÎ¼ÏĨÎŃÏģÎ¿Î½ÏĦÎ±":6738,"ÎºÏĦÎ¹ÎºÎŃÏĤ":6739,"ĠÏĢÏģÎ¿ÏĭÏĢÎ¿Î¸ÎŃÏĥÎµÎ¹ÏĤ":6740,"ĠÎ±ÏĢÏĮÎ´Î¿ÏĥÎ·":6741,"Î¿Î¼Î±Î¹":6742,"ĠÎ¼Î¿Î¹ÏģÎ¬":6743,"ÏĦÎ·ÏģÎ¯Î±":6744,"ĠÎļÎ±Î¸Î·":6745,"ĠÏĥÏħÎ¼Î¼ÎµÏĦÎŃÏĩÎ¿ÏħÎ½":6746,"ĠÎ´Î·Î¼Î¹Î¿ÏħÏģÎ³Î®ÏĥÎµÎ¹":6747,"ÏģÎ¹ÏĥÏĦÎµÎ¯":6748,"ÏĦÎ¿ÏįÏĥÎ±Î½":6749,"ĠÏĥÎ®":6750,"ÏħÎ¸":6751,"ĠÎ¶Î¬":6752,"ĠÎµÎ¹Î´Î®ÏĥÎµÎ¹ÏĤ":6753,"ĠÏĩÎ¹Î»Î¹":6754,"500":6755,"ĠÏĥÏħÎ½Î±Ïħ":6756,"ĠÏħÏĢÏĮÏĪÎ·":6757,"ĠÎłÏģÎŃÏĢÎµÎ¹":6758,"ĠÎĳÎł":6759,"ĠÏĥÎ¹Î´":6760,"ĠÎ¿Îº":6761,"Î±Î±":6762,"ĠÎ±ÎºÏĮÎ»Î¿Ïħ":6763,"ĠÎ±Î¾Î¹Î¿Î»ÏĮÎ³Î·ÏĥÎ·":6764,"ĠÏĢÎ¿Î»Î»ÏİÎ½":6765,"ĠÎ¯Î´ÏģÏħ":6766,"ÏīÎ¸Î¿ÏįÎ½":6767,"ĠÎŃÏĢÎµÏĥÎµ":6768,"ÏĦÎ·ÏĦÎŃÏĤ":6769,"ĠÏħÏĢÎ¿Î³ÏģÎ¬":6770,"ĠÏĢÏģÎ¿ÏĦÎµÏģ":6771,"Î¼Î²Î¿ÏħÎ»Î¿ÏĤ":6772,"ĠÏĥÎºÎ·Î½Î®":6773,"Î½ÏĮÏĦÎ·ÏĦÎ±":6774,"ĠÏĨÎŃÏģÎ½ÎµÎ¹":6775,"ĠÏĥÏħÎ¼ÏĢÎ»Î®":6776,"ĠÏĨÎ±Î¹Î½ÏĮÎ¼ÎµÎ½Î¿":6777,"ĠÎ³Î¿":6778,"ĠÎķÎ»Î»Î·Î½Î¹ÎºÎ¿Ïį":6779,"ton":6780,"ĠÎ±ÏĦÎ¼ÏĮ":6781,"ĠÎ§ÏģÎ¹ÏĥÏĦÎ¹Î±":6782,"ĠÏĥÏĩÎ®Î¼Î±":6783,"ĠÎ±Î³Î±ÏĢÎ¬":6784,"ĠÏĩÏģÎ·ÏĥÎ¹Î¼Î¿ÏĢÎ¿Î¹Î¿ÏįÎ½":6785,"Î¯ÏĥÎ¸Î·":6786,"ĠÎ´ÏģÎ¬ÏĥÎµÎ¹ÏĤ":6787,"Î¤Î¡ÎŁ":6788,"Î³ÎµÎ¹Î±":6789,"ĠÎºÎ±Î»Î»Î¹ÏĦÎµÏĩÎ½":6790,"ĠÏħÏĢÎµÏģÎ²Î¿Î»":6791,"inews":6792,"ÏĥÎ¿Ïį":6793,"ĠÏĢÎŃÏģ":6794,"ÎľÎ¬":6795,"ĠÎµÎ»ÏĢÎ¯Î´Î±":6796,"ĠÎµÏĢÎ¹ÏĦÏħÏĩ":6797,"ÏĥÏħÏĩ":6798,"ĠÎ±Î´ÏįÎ½Î±":6799,"ĠÎĿÎĳÎ¤ÎŁ":6800,"ĠÎľÎŃÏĥÎ±":6801,"ky":6802,"Î»ÎµÎ³Î³ÏįÎ·ÏĤ":6803,"ĠÎºÎ¿Î¼Î¼Î¬ÏĦÎ¹Î±":6804,"ÎŃÏģÎ¼Î±Î½":6805,"ĠÏĥÏħÎ³ÎºÏģÎ¿":6806,"ece":6807,"ĠÎľÎŃÏģ":6808,"Î¤ÎķÎ£":6809,"Î´ÏĮÏĤ":6810,"Î¸Î®ÏĥÏĦÎµ":6811,"ĠÎŃÏģÎµÏħÎ½ÎµÏĤ":6812,"ĠÎµÎ³ÎºÎµ":6813,"ĠÎ±Î³Î½Î¿":6814,"ĠÎķÎ¡Î¤":6815,"ĠÎµÎ¾ÎµÏĦÎ¬ÏĥÎµÎ¹ÏĤ":6816,"ĠÎłÎ±Ïį":6817,"ÎĺÎķ":6818,"ĠÎ¿ÏħÏģÎ±":6819,"ĠÎ¾Î±ÏĨÎ½":6820,"ĠÎ±ÏĢÎ¿Î»ÏįÏĦÏīÏĤ":6821,"otel":6822,"hn":6823,"ĠÏĥÏħÎ½ÎµÏģÎ³Î¬ÏĦÎµÏĤ":6824,"ĠÏĢÎ±Î½ÏĦÎ¿Ïį":6825,"Î³ÎµÎ¯":6826,"ÎºÏĦÏĮ":6827,"ĠÎ²Î¯Î±":6828,"á½·":6829,"ĠÎ·Î³ÎµÏĥÎ¯Î±":6830,"ÏĦÎ¯Î½Î¿ÏĤ":6831,"ĠÎ´Î¹Î´Î±ÏĥÎºÎ±":6832,"Î±Î»Î»Î¬":6833,"ĠÎµÎºÏĢÎ»Î·":6834,"ĠÎķÎ¹Î´Î®ÏĥÎµÎ¹ÏĤ":6835,"ÏħÏģÏĮ":6836,"ÎºÎ»ÎµÎ¹":6837,"ÏģÎ¹ÏĥÏĦÎ·":6838,"ĠÎºÎ±Î½Î±":6839,"ĠÏģÏįÎ¸Î¼Î¹ÏĥÎ·":6840,"ÏĨÎ¯Î¼ÏīÎ½":6841,"ĠÎłÏį":6842,"ÎĵÎĳ":6843,"ÎŃÎ¶":6844,"ÏģÎµÏħÎ½Î±":6845,"ÎĽÎĻ":6846,"ÎĶÎ¹":6847,"Î»Î®ÏĪÎµÎ¹ÏĤ":6848,"ĠÎĶÎ·Î¼Î¿ÏĦÎ¹ÎºÎ¿Ïį":6849,"ĠÎ³ÏħÎ½Î±Î¹ÎºÏİÎ½":6850,"Ġfor":6851,"ĠÎ±Î¯ÏĦÎ·Î¼Î±":6852,"ĠÎ±ÎºÎ¯Î½Î·":6853,"ÏĢÏİÏĤ":6854,"ĠÏĢÏģÏīÏĦÎ¿Î²Î¿ÏħÎ»Î¯Î±":6855,"ÏĦÎ¿ÏĩÎ®":6856,"ĠÎ£ÏħÏĥ":6857,"ÎľÎµÏĦÎ±":6858,"ĠÎ¹ÏĥÏĦÎ¿ÏģÎ¹ÎºÏĮ":6859,"ÎµÏĥÏĦÎµ":6860,"ĠÏĥÏĢÎ¬":6861,"ĠÎµÏģÎ³Î±Î»":6862,"ĠÎ±Î½ÏĦÎ¹ÏĢÏģÎ¿ÏĥÏī":6863,"ĠÎµÎ»Î»Î·Î½Î¹ÎºÎŃÏĤ":6864,"ĠÎ´Î¿Î¸ÎµÎ¯":6865,"ĠÎĻÎ´":6866,"ĠÎ¼Î±Î¸Î±":6867,"ÎºÎ¬Ïģ":6868,"Î³ÏģÎ±ÏĨÎ®ÏĤ":6869,"ĠÎ´Î·Î»ÏİÎ½ÎµÎ¹":6870,"ĠÎµÎ³Î³Ïħ":6871,"ÏĩÎ¿Î½ÏĦÎ±ÏĤ":6872,"ĠÎ´Î¹Î±ÏĨÎ¿ÏģÎµÏĦÎ¹ÎºÎŃÏĤ":6873,"Î¹ÏĥÎ¼ÏİÎ½":6874,"ĠÎµÎ½ÏĦÎ¿ÏĢ":6875,"ĠÎ±Î¾Î¯Î±ÏĤ":6876,"ĠÎµÎ¾ÎµÎ¹":6877,"ÎºÎµÏħÏĥÎ·":6878,"ĠÎµÎ¾Î±ÏĨÎ±Î½":6879,"ĠÎ¸ÏħÏĥ":6880,"ÏĢÎ¯ÏĥÎµÎ¹":6881,"ĠÎłÎµÎ»Î¿":6882,"ĠÎµÎºÏĢÏģÏĮÏĥÏīÏĢÎ¿ÏĤ":6883,"ÎłÎ¿Î»Î¹ÏĦÎ¹ÎºÎ®":6884,"ÏİÎ´Î·":6885,"2015":6886,"ĠÎ¾ÎµÎºÎ¬Î¸Î±":6887,"ĠÎµÎ¼ÎŃÎ½Î±":6888,"ĠÎºÎŃÏģÎ´":6889,"ĠÎ±ÏĢÎµÏħÎ¸ÎµÎ¯Î±ÏĤ":6890,"ÏĦÎ·ÏģÎ·":6891,"ÏĦÎ¯ÏīÎ½":6892,"ĠÏĦÏįÏĩÎ·":6893,"ĠÏĥÏħÎ¼Î²Î¿Î»":6894,"ĠÏĦÏĮÏĥÎ±":6895,"ĠÎ´Î¹Î±ÏĨÎ¿ÏģÎµÏĦÎ¹ÎºÏĮ":6896,"Î¸ÎµÏĥÎ®":6897,"Ġgr":6898,"ĠÎĶÎ¹ÎºÎ±Î¹Î¿":6899,"Î´ÏģÎ¿Î¼Î¿":6900,"ĠÏĥÏĩÎ¿Î»Î¹Î±":6901,"ÎĿÎĹ":6902,"ĠÎ§ÏīÏģÎ¯ÏĤ":6903,"ĠÎ²Î¯":6904,"ĠÎºÎ±Î½ÎŃÎ½Î±Î½":6905,"ĠÎ±ÏģÎ³Î¬":6906,"ÎľÎ·Î½":6907,"ĠAir":6908,"Î½Î¿Î¹Îº":6909,"ĠÎ¿Î¼Î¯":6910,"Î¸ÎŃÏĥÎµÏīÎ½":6911,"ĠÎµÏħÏĩÎ¬":6912,"ĠÎ±Î½Î±ÎºÎ¬Î»Ïħ":6913,"ĠÏĪÎ±":6914,"ĠÎ±ÏĥÏĩÎ¿Î»":6915,"ÎĵÎ¡Îĳ":6916,"ĠÏĢÏģÎ¿ÎºÎ±Î»ÎŃÏĥÎµÎ¹":6917,"Î¼Î®ÏĥÎµÎ¹ÏĤ":6918,"ĠÎ±ÏĢÏĮÎ»ÏħÏĦÎ·":6919,"Î¤ÎĻÎļÎĹ":6920,"ĠÎ¤ÎµÎ»":6921,"ĠÏĥÏħÎ½ÎŃÏĢÎµÎ¹":6922,"ĠÏĥÏħÎ¼Î¼Î±":6923,"ĠÎ½ÏĦÎµ":6924,"ĠÎ´Î¹Î´Î¬":6925,"Î´Î¯Î´ÎµÎ¹":6926,"ĠÏĢÎµÏģÎ¹ÎµÏĩÎ¿Î¼ÎŃÎ½Î¿Ïħ":6927,"ÏĩÎ·ÏĤ":6928,"ĠÎ±Î½Î±Î»Î¬Î²ÎµÎ¹":6929,"ĠÎ¿Î¼Î¬Î´ÏīÎ½":6930,"ĠÏģÎ¿ÏįÏĩÎ±":6931,"ĠÎŃÏģÎ³ÏīÎ½":6932,"ĠÎ±Î¯ÏĦÎ·ÏĥÎ·":6933,"ĠÎ¿ÏĢÎ¿Î¯Î±ÏĤ":6934,"ĠÎºÎµÎ¯Î¼ÎµÎ½Î±":6935,"ÏĢÎ¿Î¹Î±":6936,"ĠÏĢÏį":6937,"ĠÎĳÎ¹Î³Î±Î¯Î¿Ïħ":6938,"ÎĮÏĩÎ¹":6939,"ĠÎ´Î¹Î´Î±":6940,"ÏĦÎ¯Î½Î¿Ïħ":6941,"Î¯ÏĦÎ·":6942,"ÏĢÎµÎ¹ÏĤ":6943,"ĠÎ¼Î¹ÎºÏģÎŃÏĤ":6944,"ĠÎ²Î®Î¼Î±ÏĦÎ±":6945,"ĠÎºÎ»Î±Ïĥ":6946,"ÏĦÏģÎ¹ÎµÏĤ":6947,"ĠÎĶÎĹÎľ":6948,"Î»Î®ÏĨÎ¸Î·":6949,"ÎĵÎ¹":6950,"ÏİÎ¸Î·ÎºÎ±Î½":6951,"!)":6952,"ĠFor":6953,"Â»:":6954,"ĠÎ²Î¬Î¸Î¿ÏĤ":6955,"ĠÏĥÏĦÏĮÎ¼Î±":6956,"ĠÎĶÎ·Î¼ÏĮÏĥÎ¹Î¿":6957,"ÎºÏģÏĮ":6958,"ÎĪÏĩÎµÎ¹":6959,"ĠÎ¼Î¿Î¹Î¬Î¶ÎµÎ¹":6960,"oup":6961,"ÎļÎ¬Î¸Îµ":6962,"ĠÎ³ÎµÎ½Î½Î®Î¸Î·ÎºÎµ":6963,"ĠÎ¼ÎµÏģÎ¯":6964,"ĠÏĥÏħÎ½ÏĦÎ¬Î¾ÎµÎ¹ÏĤ":6965,"ĠÎłÏģÎ¿ÎŃ":6966,"ĠÎ¶Î¿ÏħÎ½":6967,"ÎŁÎł":6968,"ĠÎµÏĨÎ·":6969,"blog":6970,"ĠÏĥÏįÎ½Î´ÎµÏĥÎ·":6971,"ĠÏĢÎµÎ»Î¬ÏĦÎµÏĤ":6972,"ĠÎµÎ¹ÏĥÎ¿Î´Î®":6973,"Î¼ÎµÎ»Î·":6974,"Î±Î³Î³ÎµÎ»ÎŃ":6975,"ĠÎ±ÏħÏĦÎ±":6976,"ĠÏĥÏĦÏĮÏĩÎ¿ÏħÏĤ":6977,"ĠÏĥÏħÎ¼ÏĢÎ±":6978,"Î²Î¹ÏĦÏĤ":6979,"ĠÂµÎµ":6980,"ĠÎ²ÎµÎ²Î±":6981,"ĠÎ´ÏīÎ¼Î¬ÏĦÎ¹Î±":6982,"ÎłÏģÏİ":6983,"ĠÎ¿Î´Î·Î³Î®ÏĥÎµÎ¹":6984,"ÏīÎ¼ÎŃÎ½Î·":6985,"ĠÏĦÏĮÏĢÎ¿Ïħ":6986,"ÏįÎ¿ÏħÎ½":6987,"ĠÎµÎ½Î¿Ïĩ":6988,"ĠÎļÎ¿Ïį":6989,"ĠÎ¼ÎµÎ³Î¬Î»Î¿ÏĤ":6990,"ÏĢÎ¿Î¹ÎµÎ¯":6991,"ĠÎµÎºÎ´Î·Î»Ïİ":6992,"Î¡Îĵ":6993,"ĠÎ¤ÎµÏĩÎ½":6994,"ÎĹÎľÎķ":6995,"ĠÎ¬ÏĨÎ·ÏĥÎµ":6996,"Â»!":6997,"Î´Î¹ÎºÏİÎ½":6998,"Î±Î³ÏīÎ³":6999,"ĠÎ¸Î±Î½Î¬ÏĦÎ¿Ïħ":7000,"Î¼Î¿Î½Î®ÏĤ":7001,"ĠÎµÎºÎ¼ÎµÏĦÎ±Î»Î»":7002,"Î¸ÎµÎ½ÏĦÎ±Î¹":7003,"ĠÏĢÏģÏīÏĦÎµÏį":7004,"Ġpro":7005,"ĠMic":7006,"ĠÏĩÎ±Î»Î±":7007,"ĠÏĥÎ·Î¼ÎµÎ¯ÏīÏĥÎµ":7008,"ĠÎºÎ»Î·ÏģÎ¿":7009,"ĠÎŃÎºÎ»ÎµÎ¹":7010,"ĠÎ±ÏĥÎ¸ÎŃÎ½":7011,"ĠÏĥÎ·Î¼Î±Î½ÏĦÎ¹ÎºÎŃÏĤ":7012,"ÏģÎ¹Î¬ÏĤ":7013,"ĠÎ±ÏģÎ¹ÏĥÏĦÎµÏģÎ¬":7014,"31":7015,"Î³Î¿ÏĤ":7016,"ÏĥÏĦÎ¹ÏĦÎ¿Ïį":7017,"ĠÏĨÎ¿Î¹ÏĦÎ·ÏĦÎŃÏĤ":7018,"ĠÏĥÏħÎ³Î³ÏģÎ±ÏĨÎŃÎ±ÏĤ":7019,"ĠÎ´Î¹Ïİ":7020,"ĠÏĩÏģÏĮÎ½ÏīÎ½":7021,"ĠÏħÎ¹Î¿Î¸Îµ":7022,"Î¼ÎµÎ½Îµ":7023,"ĠÎ³ÏģÎ±Î¼Î¼ÎŃÏĤ":7024,"ĠÏĢÏħÏģÎºÎ±":7025,"ĠÏĥÎºÎ¿ÏĦÏİ":7026,"ÏĨÎ±Ïģ":7027,"ĠÎ¦Î¯":7028,"Î´Î¿Î¾":7029,"ĠÏĮÎ¼Î¿ÏģÏĨÎ·":7030,"ÎłÎ»Î·":7031,"ÎĳÎļ":7032,"Î½Î¯Î±":7033,"Î»ÎµÏħÏĥÎ·ÏĤ":7034,"2013":7035,"ÏģÎ¯Î¶Î¿ÏħÎ¼Îµ":7036,"ÏĥÏĥÎµÎ¹":7037,"ĠÏĦÏģÎ¯ÏĦÎ·":7038,"ĠÏħÏĢÎ¿ÏĥÏĦÎ·ÏģÎ¯Î¶ÎµÎ¹":7039,"Î¤Î©ÎĿ":7040,"04":7041,"ÏģÏĦÎµÏĤ":7042,"ĠÏĨÏħÏĥÎ¹ÎºÎ®":7043,"ĠÎĴÎ±ÏĥÎ¹":7044,"ĠÎµÏĢÎ¹ÏĨÎ¬Î½ÎµÎ¹Î±":7045,"ĠÎľÎµÎ»":7046,"ĠÎ¿Î¹ÎºÎ¿Î³ÎŃÎ½ÎµÎ¹Î±ÏĤ":7047,"ÏĥÎºÎµÎ¹":7048,"ĠÎ¬ÏģÎµÏĥÎµ":7049,"ĠÎ§ÏģÎ¹ÏĥÏĦÏĮ":7050,"ĠÏĦÏĥÎ±":7051,"ĠÎºÎ±Î¸Î·Î¼ÎµÏģÎ¹Î½Î®":7052,"ÎķÎ»Î»Î·Î½":7053,"ĠÎ±Î½Î±Î½Îµ":7054,"ĠÎ¾ÎµÏĢÎµÏģ":7055,"ÏĨÎ¸Î¿ÏįÎ½":7056,"ĠTh":7057,"Ġde":7058,"ĠÎ±ÏĦÏĮÎ¼ÏīÎ½":7059,"ĠÏĥÏħÎ½ÎŃÏĢÎµÎ¹Î±":7060,"ĠÎºÏīÎ´Î¹ÎºÏĮ":7061,"ÎĳÏħÏĦÏĮÏĤ":7062,"ĠÎĳÎ¹Î³Î±Î¯Î¿":7063,"ĠÎµÎºÎµÎ¯Î½Î¿ÏĤ":7064,"ĠÎ´Î¹Î¬ÏĥÎ·":7065,"Î¹Î±ÎºÎ®":7066,"ÏģÎ¯ÏĥÎ¿ÏħÎ½":7067,"Î¼Î¼ÎŃÎ½Î±":7068,"ÎµÏĥÎ±Î¹":7069,"ÏįÎº":7070,"ĠÏĥÎ¬":7071,"ĠÎ¦Î¹Î»Î¿":7072,"ĠÎŃÏģÎµÏħÎ½Î±ÏĤ":7073,"ÎŃÏģÎ³ÎµÎ¹Î±ÏĤ":7074,"ĠÎ±ÏģÏĩÎ±Î¹Î¿":7075,"Î³ÏīÎ³Î®ÏĤ":7076,"Î®Î½":7077,"ĠÎ¿Î¹ÎºÎ¿Î½Î¿Î¼Î¹ÎºÏĮ":7078,"Î»Î»Î±Î³ÎŃÏĤ":7079,"ĠÎ±Î´Î¹Î¬":7080,"ĠÏĦÎ±ÏĩÏįÏĦÎ·ÏĦÎ±":7081,"ĠÏĢÎµÏģÎ¯ÎµÏģÎ³":7082,"ĠÎĻÎ±ÏĦÏģ":7083,"ĠÎ´Î¯Ïĩ":7084,"ĠÏħÏĪÎ·Î»":7085,"ĠÎºÎ»Î¹Î¼Î±":7086,"ĠÎºÎ±Î½ÎŃÎ½Î±ÏĤ":7087,"ĠÎĶÎ¿":7088,"yr":7089,"ÎĹÎķ":7090,"ail":7091,"ĠÏĥÎ¹Ïī":7092,"ĠÎłÏģÏīÎ¸ÏħÏĢÎ¿ÏħÏģÎ³":7093,"Î´Î¿Î¹":7094,"ĠÏĥÏħÎ³ÎºÎŃÎ½ÏĦÏģÏīÏĥÎ·":7095,"ows":7096,"ĠÎºÎ±ÏĦÎ±ÏĥÏĦÎ¬ÏĥÎµÎ¹ÏĤ":7097,"ĠÏĢÏģÎ¿ÎµÎ´":7098,"ĠÏĪÏī":7099,"ÏĢÎ»ÏīÎ½":7100,"ÏĦÏģÎ¿ÏĤ":7101,"ĠÎ¥ÏĮÏģÎº":7102,"ĠÎºÎ¯Î½Î·Î¼Î±":7103,"ĠEn":7104,"Î¬ÏģÎ¹":7105,"ĠÎ±Î½Î±ÎºÎ±Î»Ïį":7106,"ĠÏĢÏģÎ¿Ïİ":7107,"ĠÎĿÎ¿ÎŃ":7108,"ĠÏħÏĢÎ¿Î»Î¿Î³Î¹ÏĥÏĦÎ®":7109,"ĠÎłÎ¿Î»Î¹ÏĦÎ¹ÎºÎ®":7110,"ĠÎ±Î½Î±Î¼Îµ":7111,"ĠÎ½ÎŃÎ¿Î¹":7112,"Ġ2007":7113,"ĠÎĶÎ¹ÎºÎ±Ïĥ":7114,"ĠÎ¥ÏĢÎ¬ÏģÏĩÎ¿ÏħÎ½":7115,"ĠÏĩÏģÎ·ÏĥÎ¹Î¼Î¿ÏĢÎ¿Î¹ÎµÎ¯ÏĦÎ±Î¹":7116,"Î¿Î´Î¿ÏĤ":7117,"ĠÎ¼ÎµÎ³Î¬Î»ÏīÎ½":7118,"ĠÎłÎ¿Î»Î¹ÏĦÎ¹ÏĥÎ¼Î¿Ïį":7119,";Â»":7120,"ĠÎ²Î¹ÏĦÎ±Î¼":7121,"ĠÎµÎ³ÎºÎ±ÏĦÎ±ÏĥÏĦÎ¬ÏĥÎµÎ¹ÏĤ":7122,"ĠÎ®Î¾Îµ":7123,"ĠÏħÎ³":7124,"Î¹ÎµÏģÎ³":7125,"ĠÎ¼ÎµÏĦÎ±Î½Î¬ÏĥÏĦÎµÏĤ":7126,"ÎĽÎ¯":7127,"ĠÏĦÏħÏĩÏĮÎ½":7128,"ĠÎ±Î½Î±ÏĢÏĦÏħ":7129,"Î¬Î½ÏĦÏīÏĤ":7130,"ĠÎ±ÏģÎ¼Î¿":7131,"ĠÎ¸ÎµÏģÎ¼Î¿ÎºÏģÎ±ÏĥÎ¯Î±":7132,"Î½Î¿ÏįÎ½ÏĦÎ±Î¹":7133,"ĠÎµÎºÎ´ÏĮ":7134,"ĠÏĩÏģÎ·Î¼Î±":7135,"ĠÏĦÎ·Î»ÎŃÏĨÏīÎ½Î¿":7136,"ÎĳÎĵ":7137,"ÏĥÎ¼Î¿Ïħ":7138,"Î¯ÏĥÎ¼Î±ÏĦÎ±":7139,"ĠÎºÎ±Î¸Î®":7140,"Î¯Î±Î½":7141,"ĠÎµÏĢÎ¹ÏĦÎµ":7142,"ĠÎ¾ÎµÏĩÎ¬":7143,"ĠÏĦÎµÎº":7144,"ÎłÏģÏĮÏĥ":7145,"ÏĢÏĮÎ¼ÎµÎ½Î¿":7146,"ĠÎ´Î¹Î±ÏĨÎ¿ÏģÎµÏĦÎ¹ÎºÎ®":7147,"ÏĥÎµÎ½":7148,"Î³ÎµÎ¹Î¿":7149,"46":7150,"Î¸ÎµÎ¹ÏĤ":7151,"ĠÏĥÎ¿Î²Î±ÏģÏĮ":7152,"ÎºÎ¹Î¬":7153,"ÎĹÎ£ÎĹ":7154,"ĠÎłÎ¿Î»Ïį":7155,"ĠÎ¸ÎµÎ±ÏĦÏģ":7156,"ĠÎĿÎ¹ÎºÏĮ":7157,"Î¤ÎķÎŁ":7158,"ĠÎ®Î¼Î¿ÏħÎ½":7159,"ĠÏĨÎ¸":7160,"ÏģÎ®Î½Î·":7161,"Î¬ÏģÎ¹Î¿":7162,"ÏĦÎ¿ÏħÎ³ÎµÎ½":7163,"48":7164,"ĠÎ¸ÎµÎ±":7165,"ĠÂ©":7166,"ĠÎŁÎºÏĦÏİÎ²":7167,"Î¹Î»ÏĮ":7168,"ĠÎ´ÎµÎ¾Î¹Î¬":7169,"ÏĦÎµÏģÏĮÎ»ÎµÏĢ":7170,"ÏģÎ¿ÏĨÎ¿ÏģÎ¯ÎµÏĤ":7171,"ĠÎºÎ¬ÏĢÎ¿Ïħ":7172,"ĠÎ¸ÎµÏīÏģÎµÎ¯":7173,"ĠÎ½Î¿ÏĥÎ·":7174,"Î¸ÏģÎ±":7175,"ĠÎĿÎ¬":7176,"Î³ÎµÎ¯Î±":7177,"ĠÎ¿Î»Î¿ÎºÎ»Î®ÏģÏīÏĥÎ·":7178,"ĠÎ±Î½ÏĦÎ¯ÏĥÏĦÎ¿Î¹ÏĩÎ±":7179,"ĠÎļÏİÏĥÏĦÎ±":7180,"ÎºÎ±ÏĦÎ¿Î¼Î¼":7181,"37":7182,"ĠÎ¿Î´ÏĮ":7183,"ĠÎľÎµÎ³":7184,"ĠÏĥÏħÎ³Î³ÎµÎ½":7185,"Î¤ÎµÎ»ÎµÏħÏĦÎ±Î¯Î±":7186,"ĠÎ´ÏģÎ¬ÏĥÎ·ÏĤ":7187,"ĠÎĳÎ¸Î»Î·":7188,"Î½ÏĮÎ·":7189,"ĠÎ´Î¿Î»Î¬ÏģÎ¹Î±":7190,"ÏĦÏģÎ¹Î¬":7191,"ĠÎºÎ±Î¸Ïħ":7192,"ÏĥÏĦÎ·Î¼Î¬ÏĦÏīÎ½":7193,"ĠÎŃÏĦÎ·":7194,"ĠÎ³ÏģÎ¬ÏĪÎµÎ¹":7195,"ĠÎ±ÏĨÎµ":7196,"ÏĦÎ¹Î½Î¿":7197,"ĠÎµÏĢÏĦÎ¬":7198,"ĠÎºÎ±ÏĦÎ¿Î¯ÎºÎ¿ÏħÏĤ":7199,"ĠÏħÏĢÎ¿ÏĩÏģÎŃ":7200,"Î»Î·ÏĪÎ·ÏĤ":7201,"Î²ÎµÎ¯Î±":7202,"ĠÎĴÏģÎ±":7203,"ĠÏĩÎ±Î»Î¬":7204,"ÏĦÎ¹Î¼Î¿":7205,"ron":7206,"ĠÏĨÎ±Î½ÏĦÎ¬":7207,"oft":7208,"ĠÏĢÎ»ÎµÎ¹":7209,"Î¦Ïī":7210,"ĠÏĦÎ¯ÏĢÎ¿ÏĦÎµ":7211,"Î³ÏģÎ±ÏĨÎ¹ÎºÏĮ":7212,"Î³ÎºÎ¹":7213,"ĠÎ±ÏĦÎ¼ÏĮÏĥÏĨÎ±Î¹":7214,"ĠÎµÎ¯ÏĥÎ¿Î´Î¿":7215,"ĠÎ´ÏįÏĥÎºÎ¿Î»Î±":7216,"ĠÎļÎŃÏģ":7217,"ĠÎµÎ»ÎµÏħÎ¸ÎµÏģÎ¯Î±":7218,"ĠÏĩÏģÎµÎ¹Î¬Î¶Î¿Î½ÏĦÎ±Î¹":7219,"ĠÎ¼ÏĢÎ¬Î»Î±":7220,"ĠÎ¼ÎµÏĥÎ¿":7221,"ĠÎ±Î½ÎµÎ¾Î±Ïģ":7222,"ÏĨÎŃÎ»Î·":7223,"ĠÎ´Î¹ÎºÎ·Î³ÏĮ":7224,"ĠÎµÏģÎµÏħÎ½Î·ÏĦÎŃÏĤ":7225,"ÏĨÎ¸Î·ÎºÎµ":7226,"ĠÎļÎ¯":7227,"ĠÎºÎ¿Î¹ÏĦÎ¬":7228,"ĠÎºÎ±ÏĦÎ±Îº":7229,"ĠÎ¼ÎµÏĦÎ±ÏĦÏģÎŃ":7230,"ĠÎ±Î½Î±Î¸Îµ":7231,"ĠÎ±ÏħÏĦÎ¿ÎºÎ¯Î½Î·ÏĦÎ±":7232,"ĠÎ¹ÏĦÎ±":7233,"ÏģÎ±ÏĥÎ·ÏĤ":7234,"ĠÎºÎ¬ÏĢÎ¿ÏĦÎµ":7235,"ÎĳÎ½ÏĦÎ¹":7236,"ĠÎŃÎºÏĦÎ±":7237,"ĠÎĳÏħÏĦÎ¬":7238,"ĠÏįÏĢÎ±ÏģÎ¾Î·":7239,"ĠÏĥÏħÎ³ÎºÏģÏĮ":7240,"Î¼Î¿Î¹Î±":7241,"ĠÎ²ÏģÎ®ÎºÎµ":7242,"ĠÏĢÏģÎ¿ÎºÏįÏĢÏĦÎµÎ¹":7243,"ina":7244,"ĠÎ´ÏħÎ½Î±Î¼Î¹ÎºÏĮ":7245,"Ġ195":7246,"ĠÎ£ÎµÎ»Î¯Î´Î±":7247,"ĠÎķÏĥ":7248,"ĠÏĩÎ¬ÏģÏĦÎ·":7249,"ĠÏĢÏģÎ¿ÏĩÏīÏģÎ®ÏĥÎµÎ¹":7250,"ÏģÎ¹Î¼":7251,"ĠÎ²Î¿ÏħÎ»ÎµÏħÏĦÎ®ÏĤ":7252,"ÏĦÎ¬ÏĦÎ±Î¹":7253,"Î²Î»Î®":7254,"ĠÎµÎ¹Î´Î¹ÎºÎ®":7255,"ĠÎ´Î¹ÎºÏĦÏįÎ¿Ïħ":7256,"ÏĦÎ»":7257,"Î¯ÏĥÏĦÏģÎ¹Î±":7258,"ÏĩÎ±ÏģÎ¹ÏĥÏĦÏİ":7259,"ĠÎ³Î¬Î»Î±":7260,"ÎºÎµÎ¯":7261,"ĠÎ¼ÎµÎ»Î»Î¿Î½":7262,"ĠÎºÎ±Î»Ïħ":7263,"ĠÏĨÏĦÎ¬Î½ÎµÎ¹":7264,"ÏĦÎ¯Î´Î±":7265,"ĠÎ½Î±ÏģÎºÏī":7266,"ĠÎ±Î½ÏĦÎ¯Î´ÏģÎ±ÏĥÎ·":7267,"ĠÎ²Î¿ÏħÎ½":7268,"ÏĦÎ·Î¸Î¿ÏįÎ½":7269,"ĠÎłÏģÏĮÎ³ÏģÎ±Î¼Î¼Î±":7270,"Î´ÏĮÏĥÏĨÎ±Î¹":7271,"ĠÎľÎ¬Î»Î¹ÏĥÏĦÎ±":7272,"ÏĦÎ¹Î½ÏĮ":7273,"Î±ÏĥÎ·":7274,"ÏĢÏĮÏĤ":7275,"ĠÎ¼Î±Î³Î±":7276,"gram":7277,"ĠÎĻÏĥÏĦÎ¿ÏģÎ¯Î±":7278,"ĠÎ»Î¹Î¼Î¬Î½Î¹":7279,"ĠÎ´ÏģÏĮÎ¼Î¿ÏĤ":7280,"Î¼Î²Î¬ÏĥÎµÎ¹ÏĤ":7281,"ÏĦÎŃÎ±ÏĤ":7282,"ĠÏĥÏĦÎ±Î´Î¹Î±":7283,"Î¼Î²Î±ÏĥÎ·ÏĤ":7284,"ĠÎµÎ½Ïħ":7285,"ÏĢÎ¿Î¹Î·Î¸ÎµÎ¯":7286,"ĠÎºÎ±Î¼ÏĢ":7287,"Î²Î¬Î»ÎµÎ¹":7288,"ÎŃÎ±ÏĦÏģÎ¿":7289,"Î©Î¤ÎŁ":7290,"ĠÎĶÎµÎºÎŃ":7291,"ea":7292,"ĠÏĥÎµÎ»Î¯Î´ÎµÏĤ":7293,"Î²ÎŃÏģÎ½Î·ÏĥÎ·ÏĤ":7294,"Î¯ÎºÎ±ÏĤ":7295,"ĠÎ³Î½ÏīÏģÎ¯Î¶Î¿ÏħÎ¼Îµ":7296,"ĠÎ¼ÎµÎ³Î¬Î»Î·ÏĤ":7297,"Ġ[âĢ¦]":7298,"ĠÏĢÏģÎ¿ÏĥÎ´Î¹Î¿":7299,"ÏĨÎµÏģÎµÎ¹Î¬":7300,"ĠÎ¸ÎŃÎ¼Î±ÏĦÎ¿ÏĤ":7301,"ĠÎ²Î±Î»":7302,"Home":7303,"Î²ÎµÎ½":7304,"Î²Î¬Î»Î»Î¿ÏħÎ½":7305,"ĠÎµÎºÏĢÎ±Î¹Î´ÎµÏħÏĦÎ¹ÎºÏİÎ½":7306,"ĠÏĨÎ¬ÏģÎ¼Î±ÎºÎ±":7307,"ÎĿÎ±Î¹":7308,"ĠÎµÎ½ÏĦÎ¬":7309,"ÏĢÏĮÎ¸ÎµÏĥÎ·":7310,"ĠÏĢÎµÏģÎ¹Î²Î±Î»Î»Î¿Î½":7311,"ĠÎłÎ±ÏģÎ¯":7312,"ĠÏĪÎ·Î»Î¬":7313,"ĠÏģÎ¿Ïħ":7314,".\"":7315,"ĠÏĩÏģÎ·ÏĥÎ¹Î¼Î¿ÏĢÎ¿Î¹ÏİÎ½ÏĦÎ±ÏĤ":7316,"ĠÎ±ÏĢÎ¿ÎºÎ±Î»Ïį":7317,"The":7318,"ÎĶÎŁ":7319,"ĠÏĥÏħÎ½Î´Î¹ÎºÎ±Î»":7320,"ĠÎ±Î½ÏĦÎ¹ÎºÎ±ÏĦÎ±":7321,"ÏīÎ¼ÎŃÎ½Î¿":7322,"Î³Î±Î¼Îµ":7323,"ĠÎ±ÏĢÎ¿ÏĨÏį":7324,"ĠÏĢÎµÏģÎ¹ÎºÎ¿":7325,"ĠUn":7326,"ĠÎ¿Î´Î·Î³Î¯ÎµÏĤ":7327,"ĠÎ³ÎµÏįÏĥÎ·":7328,"ĠÎ£Î¥ÎĿ":7329,"ĠÎłÎµÏģÎ¹Î²Î¬Î»Î»Î¿Î½":7330,"ĠÏħÏĢÎµÏģÎ±Ïĥ":7331,"ĠÎ±ÏĨÎ±Î¹":7332,"ĠÏĦÏģÎ±ÏĢÎŃÎ¶Î¹":7333,"ÎłÎ·Î³Î®":7334,"ĠÎµÎ¾Î¿ÏħÏĥÎ¯Î±ÏĤ":7335,"ĠÎłÎ±Î½ÎµÎ»Î»Î®":7336,"Î»Î¹ÎŃÏĤ":7337,"ÏĦÎµÎ¹Î½ÏĮ":7338,"Îª":7339,"Î´ÏĮÏĥÏĨÎ±Î¹ÏģÎ¿":7340,"ĠÏĩÎµÎ¹ÏģÎ¿ÏħÏģÎ³":7341,"ĠÎ¹ÏĥÏĩÏħÏģÏĮ":7342,"ÏĩÎ¸Î·ÎºÎ±Î½":7343,"ÎµÎ½ÏĮÏĤ":7344,"Î½Î¿Î¼Î·":7345,"ĠÏĥÏħÎ½ÎµÎ¯Î´Î·":7346,"ÏīÏģÎ¯ÏĦÎµÏģÎ±":7347,"ĠÏĢÏģÎ¿ÏĥÏĨÎ¿ÏģÎŃÏĤ":7348,"Î§ÏģÎ·ÏĥÎ¹Î¼Î¿ÏĢÎ¿Î¹":7349,"ĠÎ´Î¹ÎºÎŃÏĤ":7350,"ĠÏĢÏģÎ¿Î²Î»ÎŃÏĢÎµÎ¹":7351,"ĠÎ¾Ïħ":7352,"ĠÎŃÏĨÎµÏģÎµ":7353,"Î¬Î½Î¸Î·":7354,"ĠÎ´ÎµÎºÎ±ÎµÏĦÎ¯ÎµÏĤ":7355,"ÏģÎ¹Î¬Î¶ÎµÎ¹":7356,"ĠÎ¤ÏģÎ¬ÏĢÎµÎ¶Î±":7357,"Î¯ÏĢ":7358,"ÏĥÎ¼ÎŃÎ½Î¿":7359,"2014":7360,"ĠÎºÎ±Î¸ÏħÏĥÏĦÎµ":7361,"ĠÎĳÏģÏĩÎ¹ÎºÎ®":7362,"ĠÏĥÏħÎ¼Î¼ÎµÏĦÎ¬":7363,"ĠÏĥÎ·Î¼Î¬":7364,"ĠÎ¸Ïį":7365,"ÏĢÎ¹Î¿":7366,"ĠÏĦÎ±Ïħ":7367,"ĠÎ´ÏįÏĥ":7368,"ĠÎ»Î¿Î³Î¹Ïĥ":7369,"ĠÎĳÎ¼ÎµÏģÎ¹ÎºÎ®ÏĤ":7370,"ĠÎºÏĮÎ½ÏĦÏģÎ±":7371,"Î¹Î»Î¹Îº":7372,"ĠÏĢÎ±Î½Îµ":7373,"ĠÎ±Î½ÎµÎ¾Î¬ÏģÏĦÎ·":7374,"ÏİÏģÎ³":7375,"ĠÎ´ÎµÏħÏĦÎµÏģÏĮÎ»ÎµÏĢ":7376,"Î²ÎµÏĦÎ±Î¹":7377,"ĠÏĢÏģÏĮÏĥÏĨÏħÎ³ÎµÏĤ":7378,"Î¸Î±Î½Î±":7379,"ĠÎ¤Î¿ÏĢ":7380,"ĠÎ±ÏĢÎ±Î¹ÏĦÎµÎ¯ÏĦÎ±Î¹":7381,"ĠÎºÎ±Ïį":7382,"ĠÎķÎ³Ïİ":7383,"Î¯Î´Î¿Ïħ":7384,"ĠÎŁÎĳ":7385,"ĠÎ±Î³ÎºÎ±Î»Î¹Î¬":7386,"90":7387,"ÏĥÎºÎµÏĦ":7388,"ĠÎĳÎ³ÏģÎ¿":7389,"TE":7390,"ÎĳÏħÏĦÎ¬":7391,"ĠÎºÎ±Î¸Î±ÏģÎ¬":7392,"ĠÎķÎ¸Î½Î¹ÎºÏĮ":7393,"ÏħÏĥÎ·ÏĤ":7394,"Îı":7395,"ÎºÎ¬Î»":7396,"Î²ÎŃÏģ":7397,"ĠÏĢÏģÎ¿ÏĦÎµÎ¯Î½ÎµÎ¹":7398,"ĠÎµÎ½ÏĦÎ¿Î»Î®":7399,"ĠÎ´Î¹ÏĤ":7400,"ĠÎ¸ÎŃÎ±ÏĦÏģÎ¿":7401,"ĠÎ»ÎµÎ¹ÏĦÎ¿ÏħÏģÎ³Î¿ÏįÎ½":7402,"Î²Î¬Î¸Î¼Î¹ÏĥÎ·":7403,"ĠÎĳÎ½ÏĦÎ¯":7404,"Î³ÎµÎ½Î½Î±":7405,"ĠÎķÏħÏģÏīÏĢÎ±":7406,"ÏĦÎŃÏģÎ¿Ïħ":7407,"ĠÏĥÏħÎ½ÎŃÏĢÎµÎ¹ÎµÏĤ":7408,"ĠÎ´ÏİÏĥÎ¿ÏħÎ½":7409,"Î¯Î½Î¿Î½ÏĦÎ±ÏĤ":7410,"vi":7411,"ĠÏĥÏħÎ½ÏĦÎ±Î¾Î¹Î¿Ïį":7412,"ĠÎµÏįÎºÎ¿Î»Î·":7413,"ĠÎ§Î¿":7414,"ĠÎ£ÏĮ":7415,"ĠÎ²ÎµÎ²Î±Î¹":7416,"ĠÎĳÎ»ÎµÎ¾Î¬Î½":7417,"ĠÎķÏĥÏīÏĦÎµÏģ":7418,"ĠÏĩÏģÎ·Î¼Î±ÏĦÎ¿Î´Î¿":7419,"ĠÎ½ÎµÏģÎ¬":7420,"ĠÎ´Î¹Î±ÏĩÎµÎ¯ÏģÎ¹ÏĥÎ·ÏĤ":7421,"ĠÏĢÎµÎ´Î¯Î±":7422,"ĠÎ¼ÎµÏĦÎµ":7423,"ÎĶÏį":7424,"ĠÎµÏĢÎ¯Î´Î¿":7425,"ĠÏĢÎµÏģÎ¹ÏĨÎµÏģÎµÎ¹Î±":7426,"ÏĢÎµÏĦÎµ":7427,"Ġ....":7428,"Î¼Î¿Î½Î±":7429,"ĠÏĥÏħÎ¼ÏĢÏĦÏİÎ¼Î±ÏĦÎ±":7430,"ĠÎºÎ±ÏĦÎ±ÏĥÏĦÎ®Î¼Î±ÏĦÎ±":7431,"Î³Î±ÏĤ":7432,"ÏĢÏĦÏħÏĩ":7433,"ĠÎļÎ±Î¼":7434,"ÎĴÎ±Ïĥ":7435,"ÏĦÎ¿ÏħÎ³ÎµÎ½Î½Î¹Î¬":7436,"ĠÎºÎ¹Î½Î·ÏĦÏĮ":7437,"ĠÎ£ÏĩÎŃ":7438,"ÏģÎ±Î³Î¼Î¬":7439,"AL":7440,"ĠÎ±Î½Î¿Î¹Îº":7441,"Î¹ÏĦÎµÎºÏĦÎ¿Î½":7442,"ĠÏħÏĢÎ®ÏģÏĩÎ±Î½":7443,"ĠÎ¤ÎŁÎ¥Î£":7444,"Î¬ÎºÎ·":7445,"ĠÏĥÏħÏĥÏĦÎ®Î¼Î±ÏĦÎ±":7446,"ÏģÏįÏĢ":7447,"ÏĦÏģÎµÏį":7448,"ĠÎ»ÎµÏīÏĨÎ¿":7449,"ĠÎºÏģÎ¬ÏĦÎ·":7450,"ÏģÎ¯ÏĥÏĦÎ·ÎºÎµ":7451,"ĠÎ¤ÏĮÏĦÎµ":7452,"Î¶ÎµÎ¹ÏĤ":7453,"ĠÎ±Î¹ÏĦÎ¯Î±":7454,"ĠÎķÎ»Î»Î·Î½Î¹ÎºÎ¬":7455,"ĠÏĢÏģÎ¿ÏĥÏİÏĢÎ¿Ïħ":7456,"ĠÏģÎ±Î½":7457,"ĠÎ¼Î±Î¼Î¬":7458,"ĠÏĩÎ¹Î»":7459,"ĠÎ³Î¹Î½ÏĮ":7460,"ĠÎľÎ·ÏĩÎ±Î½":7461,"ĠÎ´ÏģÎ¿Î¼Î¿":7462,"ÏĦÎ¬ÎºÎ¹":7463,"ÏĦÏĮÏĩÎ¿ÏĤ":7464,"ĠÎºÎ¬ÏĦÎ¿Î¹ÎºÎ¿Î¹":7465,"ster":7466,"ĠÎķÏĢÎ¯":7467,"ĠÏĢÏģÏİÏĦÎ·ÏĤ":7468,"âĨ³":7469,"ĠÎ²ÏĮÎ»":7470,"int":7471,"ame":7472,"ĠÎ£ÏĦÎ¿Î½":7473,"ÏģÎ¿ÏħÏĥÎ¯Î±":7474,"ĠÎµÎ¾ÏĮ":7475,"Î³Î¿ÏħÏĤ":7476,"ĠÏĥÏħÎ½ÎµÏĩÎ¯ÏĥÎµÎ¹":7477,"ment":7478,"Î»Î·Î¼Î¬ÏĦÏīÎ½":7479,"ÏİÏĥÎ¿ÏħÎ¼Îµ":7480,"Î´Î¿Îº":7481,"ĠÎķÏĢÎ¹Îº":7482,"ÏĢÎ·ÏĥÎ·":7483,"ĠÎ¤ÏģÎ¹":7484,"ÏģÏĩÎ¿Ïħ":7485,"Î»ÏĮÎ³Î¹Î±":7486,"ĠÏĩÎ±Î¼Î·Î»":7487,"ĠÎ½ÏĮÎ·Î¼Î±":7488,"ĠÏĥÏįÎ½Î¿ÏģÎ±":7489,"ace":7490,"ÎŃÎ¹":7491,"ÏģÎ±Î¼Îµ":7492,"ÎĮÎ»ÎµÏĤ":7493,"ish":7494,"ĠÎµÏĢÎ¬Î½Ïī":7495,"ĠÎºÎ¬Î»ÏħÏĪÎ·":7496,"ĠÎºÎ±ÏĦÎŃÎ»Î·":7497,"ÏĦÏīÏĥÎ·ÏĤ":7498,"ĠÏĥÏħÎ½ÎµÎ½":7499,"Î¯Î½Î¹Î±":7500,"ĠCl":7501,"ok":7502,"ĠÎ¼Î¬Î¸Î·Î¼Î±":7503,"ĠÎ´Î¹Î±Î´ÏģÎ¿Î¼Î®":7504,"ÏģÎ¹ÏĥÎ±ÏĤ":7505,"ĠÎŃÏĥÎ¿":7506,"ĠÎ¹ÏĥÏĦÎ¿ÏģÎ¹ÎºÎ®":7507,"39":7508,"ĠÎļÏħÏģÎ¹Î±ÎºÎ®ÏĤ":7509,"ĠÎ®ÏĦÏĦÎ±":7510,"ĠÎ¼Î±ÏĦÎ¹Î¬":7511,"ĠÎºÎµÎ½ÏĦÏģÎ¹ÎºÎ®":7512,"ĠÎķÎ¼ÏĢÎ¿":7513,"Î¶Î¿Ïħ":7514,"ĠÎĵÎº":7515,"ĠÎ²Î¬ÏĥÎµÎ¹":7516,"ĠÎ±ÏĥÏį":7517,"ĠÎŁÎ»ÏħÎ¼ÏĢÎ¹Î±ÎºÏĮ":7518,"Î±Î½ÏĦÎ±":7519,"ĠÎºÎ±ÏĦÎ¬ÏĥÏĦÎ·Î¼Î±":7520,"Î¿ÏģÎµÎ¹Î¿":7521,"ĠÎĳÏħÏĦÏĮÏĤ":7522,"ĠÎµÎ³Ïī":7523,"ÎļÎ¿":7524,"ĠĠ":7525,"ĠÎŃÏĩÎ±ÏĥÎµ":7526,"ÎłÎŃ":7527,"ĠÎķÏĢÎ¹ÏĢÎ»ÎŃÎ¿Î½":7528,"ĠÏĥÎ·Î¼ÎµÎ¹ÏīÎ¸ÎµÎ¯":7529,"ĠÎµÏħÏĦÏħÏĩ":7530,"ÎłÏģÏĮÎºÎµÎ¹ÏĦÎ±Î¹":7531,"Î²Î¯Î±":7532,"Î»Î®ÏĥÎµÎ¹":7533,"ÎĿÎµ":7534,"Î¤Î£":7535,"ĠÏĢÎ¿ÏĥÏĮÏĦÎ·ÏĦÎ±":7536,"ĠÎ´ÏİÏģÎ¿":7537,"ĠÎ¤Î¼Î®Î¼Î±ÏĦÎ¿ÏĤ":7538,"ĠÎ´Î¹Î±Î´Î·":7539,"ĠÏĢÎµÎ»Î±":7540,"Î»Î¯Îº":7541,"ĠÎµÏħÎ±Î¹ÏĥÎ¸Î·":7542,"Î³ÎµÎ»Î¿":7543,"ĠÎ¼Î±Î³ÎµÎ¹":7544,"ĠÎ¿Ïį":7545,"Ġ38":7546,"ĠÎŃÎºÏĢÎ»Î·":7547,"ĠÎ»Î®ÏĪÎ·":7548,"ĠÏĨÎµÏį":7549,"Î³Î³ÎŃ":7550,"ĠÏĦÎŃÏĦÎ¿Î¹ÎµÏĤ":7551,"Î¼ÎµÏĦÎ¬Î»Î»":7552,"ÏģÎ¹ÏĥÎ¼Î¿ÏįÏĤ":7553,"ĠÎµÎ¼":7554,"ÎľÎ¯Î±":7555,"ÎĻÎĿÎ¤ÎķÎŁ":7556,"ĠÎ©ÏĤ":7557,"ÏĢÎ¿ÏģÏĦÎ¬Î¶":7558,"ĠÎµÎ¸Î½Î¹ÎºÎ®ÏĤ":7559,"ÏģÎ¹ÏĥÏĦÎ¹ÎºÎ¬":7560,"ĠÎ¶ÎµÏħÎ³Î¬ÏģÎ¹":7561,"ĠÎ¿ÏĨÎµÎ¯Î»ÎµÏĦÎ±Î¹":7562,"ÎłÏģÎ¿Î·Î³":7563,"Î¹Î¿Ïħ":7564,"ÏĥÎ¼Î·":7565,"Î¹ÏĥÎ±":7566,"ÏĥÎ¼Î¿Î¯":7567,"ĠÏĢÎµÏģÎ¹Î¼ÎŃÎ½ÎµÎ¹":7568,"ĠÏĦÎ¿Î¼ÎµÎ¯ÏĤ":7569,"ult":7570,"Î½ÎµÏħÏĥ":7571,"ÏĦÏīÎ¼Î±":7572,"Î´Î¯Î½Î¿":7573,"ĠÎµÏĢÎ¹ÏĦÏģÎŃÏĢÎµÏĦÎ±Î¹":7574,"ĠâĢ¢":7575,"ÏĥÏĦÎ·Î½":7576,"ĠÎºÏģÎ¹ÏĦÎ®ÏģÎ¹Î±":7577,"ĠÎºÎ±Î¸Î·Î³Î·ÏĦÎ®ÏĤ":7578,"ÎľÎł":7579,"Î¹ÏĥÎ¼Î¿Î¯":7580,"ĠÏĮÎ¼Î¿ÏģÏĨÎ¿":7581,"ĠÎ¼Î¿Ïį":7582,"ĠÎ»Î¿Î³Î¿ÏĦÎµÏĩÎ½":7583,"32":7584,"ĠÎ³ÎµÎ½Îµ":7585,"ÏĥÎºÎµÏĪÎ·":7586,"ĠÏĦÎŃÏĩÎ½Î·ÏĤ":7587,"ĠÎķÎºÏĢÎ±Î¹Î´ÎµÏħ":7588,"ĠÏĥÏĦÎ¬Î´Î¹Î¿":7589,"ĠÏħÏĢÎ¿ÏĩÏģÎµÏİÏĥÎµÎ¹ÏĤ":7590,"ĠÎ½ÏĮÎ¼Î¿ÏĤ":7591,"ĠÎĽÎ¬ÏģÎ¹ÏĥÎ±ÏĤ":7592,"Ġ32":7593,"ĠÎ±Î½Î±ÏĨÎŃÏģÎ¿ÏħÎ½":7594,"Î±Î½Î¸":7595,"Î¶Î¹Î¬":7596,"ĠÎ³Î¹Î¿ÏģÏĦÎ®":7597,"ĠÎºÎ¿ÏĢÎŃ":7598,"Î©ÏĤ":7599,"ĠÎłÎ±ÏģÎ¬Î»Î»Î·Î»Î±":7600,"ĠÎ±Î½ÏĦÎ¯Î¸ÎµÏĥÎ·":7601,"ĠÎ±ÏĢÎ±Î¹ÏĦÎ®ÏĥÎµÎ¹ÏĤ":7602,"ĠÏĢÎ®ÏģÎ±Î½":7603,"Î´ÎµÎ¹ÎºÎ½ÏįÎµÎ¹":7604,"ĠÎµÏĢÎ±Î³Î³ÎµÎ»Î¼Î±ÏĦÎ¯ÎµÏĤ":7605,"ĠÎ¼Î®ÎºÎ¿ÏĤ":7606,"Î´Î¿ÏįÏĤ":7607,"ĠÏĮÎ¼Î¿ÏģÏĨÎ±":7608,"Î¬Î½Î¿Ïħ":7609,"ĠÏĢÏģÏĮÏĥÎ¸ÎµÏĥÎµ":7610,"ĠÎ±ÎºÎ¹Î½Î®":7611,"ÎºÎµÎ¯Î±":7612,"ml":7613,"Î´ÏħÏĥÎ·":7614,"ĠÎ¼Î±ÏįÏģÎ¿":7615,"ĠÎĳÎ³Î¯Î±ÏĤ":7616,"ĠÎµÎ¸Î½Î¹ÎºÏĮ":7617,"ÎŃÏĦÎ±Î¹":7618,"ĠÎµÎ½Î´ÎµÏĩÏĮÎ¼ÎµÎ½Î¿":7619,"ign":7620,"ĠÎ±Î½ÏĦÎ¹Î´ÏģÎ¬ÏĥÎµÎ¹ÏĤ":7621,"Î¸Î®ÎºÎ±Î¼Îµ":7622,"ĠÎłÎµÏģ":7623,"ĠÏĢÏģÎ±":7624,"ĠÏĢÎ¯ÏĥÏĦÎ·":7625,"ĠÎłÎµÏģÎ¹ÏĨÎŃÏģÎµÎ¹Î±":7626,"Î´Î¹Ïī":7627,"ĠÎ´Î¹ÎºÏĦÏį":7628,"ĠÎŃÎ»Î±Î²Îµ":7629,"ĠÏĥÏħÎ½Î±Î´ÎŃÎ»":7630,"ĠÎ³Î·ÏĤ":7631,"ĠCom":7632,"ĠÎµÎ»ÎµÏįÎ¸ÎµÏģÎ·":7633,"ĠÎ´Î¹Î±ÏĥÏĨÎ±Î»":7634,"ert":7635,"ĠÎµÎ¼ÏĨÎ±Î½Î¯Î¶Î¿Î½ÏĦÎ±Î¹":7636,"ÏĢÏĦÎ¿":7637,"Î¬Î½ÎµÎ¹Î±":7638,"ĠSuper":7639,"ĠÎ´ÏīÎ¼Î¬ÏĦÎ¹Î¿":7640,"ĠÏĢÏģÎ¿Î·Î³Î¿ÏįÎ¼ÎµÎ½Î¿":7641,"Î©Î£ÎĹ":7642,"ĠÏģÎ®":7643,"old":7644,"Î¯ÏĥÏĦÎ±ÏĦÎ±Î¹":7645,"ÎķÎ³Ïİ":7646,"ĠÎ²Î±ÏĥÎ¹ÎºÎ¬":7647,"ĠÎŃÎ¼ÏĨ":7648,"ĠÎ¿Î½ÎµÎ¹":7649,"Î´Î·Î¼Î±":7650,"Î¼ÏĪÎ·":7651,"ĠÎĵÎµÎ½Î¹ÎºÎ®":7652,"ĠÎ»Î±ÏĩÎ±Î½":7653,"ĠÎĶÎ±":7654,"ÏĢÏĦÎ¹ÎºÎ®":7655,"ĠÎ±Î½Î·":7656,"ĠÏĮÎ½Î¿Î¼Î¬":7657,"Î¯Î»Î¹Î±":7658,"EW":7659,"ĠÏĥÎµÏģ":7660,"ĠÎ¤ÏĥÎ¹":7661,"ĠÎ¼Î¿Î»":7662,"ĠÏħÎ³Î¹ÎµÎ¹":7663,"ÎķÎĻÎ¤Îķ":7664,"ÏĦÏģÎ¹ÎºÎ®":7665,"ĠÎŁÎ¹Îº":7666,"ĠÏĥÏĦÎ±Î¼Î±ÏĦÎ®ÏĥÎµÎ¹":7667,"ÎºÏĦÎ±ÏĥÎ·":7668,"ĠÎµÏĢÎ¹ÏĦÎŃÎ»Î¿ÏħÏĤ":7669,"ĠÎ±ÏĢÎµÏħÎ¸Ïį":7670,"ĠÎµÏĢÎ¯ÏĥÎ·Î¼Î±":7671,"ĠÏĥÏĦÎ¹Î³Î¼Î®ÏĤ":7672,"ĠÏĢÎ»Î®Î¸Î¿ÏĤ":7673,"ĠÎĽÎµÎ¹ÏĦÎ¿ÏħÏģÎ³":7674,"ĠÏĢÎ¹ÏĥÏĦÏī":7675,"ÏģÎ¹ÏĥÏĦÎ¹ÎºÏĮ":7676,"ĠÎµÎºÎ±ÏĦÎ¿Î½ÏĦÎ¬Î´ÎµÏĤ":7677,"Î¤Î¥":7678,"Î¿ÏħÏĥÎ±ÏĤ":7679,"ĠÏĢÎ±ÏģÎ±Î¼ÎŃÎ½Î¿ÏħÎ½":7680,"ĠÎ¹ÏĥÏĦÎ¿ÏģÎ¯ÎµÏĤ":7681,"ÏĦÏīÏĥÎµ":7682,"ĠÎ¼Î¹Î»Î¬Î¼Îµ":7683,"ĠÎĶÎµÎ»":7684,"Î½Î·ÏĥÎµ":7685,"Î³ÏģÎ¬ÏĨÎ¿":7686,"ÎľÎµÎ³Î¬":7687,"ĠÎµÎºÎºÎ»Î·ÏĥÎ¯Î±":7688,"ĠÎ£Î±ÏĤ":7689,"ÏĥÎ¹ÎµÏĤ":7690,"ĠÎ±Î½ÏĦÎ¹ÎºÎµÎ¯Î¼ÎµÎ½Î±":7691,"Î¤ÎĻÎļÎĳ":7692,"ĠÏĩÎ¹Î»Î¹ÏĮÎ¼Îµ":7693,"ĠÎĸÎ¬":7694,"ĠÏĥÏħÎ»Î»":7695,"ÏİÎ½Ïħ":7696,"Î¿ÏħÎ¼ÎµÎ½":7697,"ĠÎ´Î¹Î±ÏĨÏīÎ½":7698,"Î¯Î¶ÎµÏĦÎµ":7699,"ĠÎĴÏģÏħ":7700,"ĠÎ²Î±ÏģÏį":7701,"ÏĨÎ¹Î¼Î±":7702,"ĠÎŃÎºÎ±Î½Î±":7703,"Î¯ÏģÎµ":7704,"EN":7705,"ĠÎŃÎ½ÏĦÎ¿Î½Î·":7706,"ĠÎµÎ½Î´Î¿":7707,"Î´ÏİÏĥÎµÎ¹":7708,"ĠÎºÎ±ÏĦÎ¬ÏģÎ³Î·ÏĥÎ·":7709,"ÎĿÎŃ":7710,"ĠÏĢÏģÎ±Î³Î¼Î±ÏĦÎ¿":7711,"Î¶Î¹Î±":7712,"ĠÏĦÎ¿ÏĢÎ¹ÎºÎ®":7713,"ĠÎķÏģÎ³Î±":7714,"Î¬ÏģÏīÎ½":7715,"ÏĢÎ¿Î¹ÎµÎ¯ÏĦÎ±Î¹":7716,"Î£ÏħÎ½Î¿":7717,"ĠÎºÏĮÎºÎºÎ¹Î½Î¿":7718,"ĠÏĦÎŃÏĦÎ±Ïģ":7719,"ĠÏĢÎ±ÏģÎ¿ÏħÏĥÎ¹Î±":7720,"ĠÏĢÏģÎ¿ÏĨÎ±Î½ÏİÏĤ":7721,"ĠÎ»ÎŃÎ³Î¿Î½ÏĦÎ±ÏĤ":7722,"ĠÎŃÏĢÎ±":7723,"ĠÎ±ÎµÏģÎ¿ÏĢÎ¿":7724,"Î¯ÏĦÎ·ÏĥÎ·":7725,"ÎµÎ¸Î½":7726,"ÏįÏģÎ¿Ïħ":7727,"ĠÎĳÎ½Îµ":7728,"ĠÎ£Î±Î¼Î±ÏģÎ¬":7729,"Î²Î¬Î¸Î¼Î¹Î±ÏĤ":7730,"Î´ÏħÎ½ÎµÏį":7731,"ĠÏĢÏģÎ¬Î¾ÎµÎ¹ÏĤ":7732,"ĠÎµÎ½Î¹Î±":7733,"Î½ÎµÎ¯Î±":7734,"ĠÎºÎ±ÏĦÏĮÏĢÎ¹Î½":7735,"Î¹ÏĥÏĦÎ¹ÎºÎŃÏĤ":7736,"ĠÏĥÏħÎ½Î¿Î´ÎµÏį":7737,"ĠÏĥÏĦÎ±Î¸Î¼ÏĮ":7738,"47":7739,"ĠÎ²Î»ÎŃÏĢÎ¿ÏħÎ½":7740,"ĠÏĥÏħÎ½ÏĦÎ±Î³Î®":7741,"ĠÎķÏģ":7742,"ĠÎ±ÏĥÏĨÎ¬Î»ÎµÎ¹Î±ÏĤ":7743,"ĠÎ±Î½Î®ÎºÎ¿ÏħÎ½":7744,"Î¹Î»Î¿":7745,"ĠÎłÎ¬Ïĥ":7746,"ĠÎļÎ±ÏģÎ±Î¼Î±Î½":7747,"Î½Î·ÏĥÎ·ÏĤ":7748,"ÏĦÎŃÎ±":7749,"ĠÎºÎ¿Î¹Î½ÏĮÏĦÎ·ÏĦÎ±":7750,"ĠÎĳÎºÎ±Î´Î·":7751,"ĠÎ¥ÏĢÎ¬ÏģÏĩÎµÎ¹":7752,"ĠÎ£ÏįÎ»Î»Î¿Î³Î¿ÏĤ":7753,"ĠÏĢÏģÎ¿ÎµÎº":7754,"ĠÎµÏĢÎ¹ÏĦÎ±":7755,"ang":7756,"ĠÎµÏĢÎµÎº":7757,"ÏĢÎ¬Ïģ":7758,"ĠÎ±ÏĨÎ®Î½ÎµÎ¹":7759,"ÏĢÎ¿Î½ÏĦÎ±Î¹":7760,"ĠÎ¼ÎµÏĦÎ±ÏģÏģÏħÎ¸":7761,"ÎļÎ±Î½":7762,"Î¯ÏĦ":7763,"ĠÎĨÎ³Î¹Î¿":7764,"ĠÎ¼Î¿Î¯":7765,"ĠÏĢÏģÎ¿ÎºÎ»Î®":7766,"ĠÎ´ÎµÎ»ÏĦÎ¯Î¿":7767,"ĠÎ¸ÎµÏīÏģÎ¿ÏįÎ½":7768,"Î²Î»ÎŃ":7769,"ĠÎ¼ÎŃÏĦÏģÎ¿":7770,"Î»Î¬ÏĦÎ¹":7771,"ĠÎŃÎ½ÏĦÎ±ÏĥÎ·":7772,"ÏĦÎ®ÏģÎ±ÏĤ":7773,"Î¼Î²ÏģÎ·":7774,"und":7775,"Î´Î¹ÎºÎ®ÏĤ":7776,"ÏģÎ¹ÎµÏĤ":7777,"Î»Î»ÏīÏĥÏĦÎµ":7778,"ÎŃÏĨÎ±":7779,"ĠÎµÎ½Î¸Î¿Ïħ":7780,"ĠÎ¿Î¸ÏĮÎ½Î·":7781,"ÏĩÎ±Ïģ":7782,"ĠÎºÏĮÎ»":7783,"ĠÎĮÎ»Î¿Î¹":7784,"ĠÎİ":7785,"ĠÏĢÏģÎ¿Î¼Î·":7786,"ĠÎ±ÏĢÎ±ÏģÎ±Î¯ÏĦÎ·ÏĦÎ±":7787,"ÏİÏģÎ·ÏĥÎ·":7788,"ĠÎ¬Î»Î»Î¿Ïħ":7789,"ĠÎľÎŃÏģÎºÎµÎ»":7790,"ĠÎĵÎµÏģÎ¼Î±Î½Î¯Î±ÏĤ":7791,"ĠÎºÎ±ÏĢÎ½":7792,"ÏĨÏħÏĢÎ¿ÏħÏģÎ³":7793,"ĠÎºÎ±Î»ÎµÎ¯":7794,"ĠÏģÎ±Î´Î¹Î¿":7795,"ĠÎĶÎ¹ÎµÏħÎ¸ÏħÎ½":7796,"ÏģÎ·Î³Î¿":7797,"ĠÎŁÎ»Î¿":7798,"ĠÎ´Î¹Î±ÏĢÎ¹ÏĥÏĦÏİ":7799,"ĠÎĳÎ³Î¯Î±":7800,"ĠÎºÎ¿Î¼Î¼Î¿ÏħÎ½":7801,"ĠÎłÎµÏģÎ¹ÏĨÎŃÏģÎµÎ¹Î±ÏĤ":7802,"ĠÏĢÎ½ÎµÏįÎ¼Î±":7803,"ĠÎŁÎ»ÏħÎ¼ÏĢÎ¹Î±ÎºÎ¿Ïį":7804,"ĠÎĮÏĥÎ¿":7805,"Î²Î±Î»Î±Î½":7806,"ĠÎµÏĢÎµÎ½Î´ÏįÏĥÎµÎ¹ÏĤ":7807,"ÏģÏİÎ½Î¿Î½ÏĦÎ±Î¹":7808,"ĠÎłÎ¿Î»Î¹ÏĦÎ¹Ïĥ":7809,"ĠÎ±ÏĢÏĮÏĨÎ±ÏĥÎ·ÏĤ":7810,"ĠÎ±Î¼ÏħÎ½":7811,"ĠÏĥÏĦÏģÎ±ÏĦÎ·Î³Î¹ÎºÎ®":7812,"ÏįÎ½Î´ÎµÏĥÎ·":7813,"ÏİÏĦÎ·ÏĤ":7814,"ĠÎ¹ÎºÎ±Î½Î¿ÏĢÎ¿Î¹Î·":7815,"ĠÏĮÏģÎ³Î±Î½Î±":7816,"ÏĦÎµÎ»":7817,"ĠÎ±ÏĢÎ±Î¹ÏĦÎµÎ¯":7818,"ib":7819,"ĠÎ±ÏĢÎµÎ»ÎµÏħÎ¸ÎŃ":7820,"ĠÎµÏĢÎ¹ÎºÎ±Î¹":7821,"Î¯ÏĥÎ¼Î±ÏĦÎ¿ÏĤ":7822,"Î¸ÎµÏĥÎ¼":7823,"ĠÏĦÎ¿Î»":7824,"Î´Î¹ÎºÎ¿":7825,"ÎĶÎ¹Î¬":7826,"ĠÎµÏĢÎ¹Î»Î¿Î³Î®ÏĤ":7827,"ĠÎ´Î¹ÏĥÎµ":7828,"ĠÎµÏĢÎ±Î½Îµ":7829,"ĠÎĽÎĳ":7830,"ĠÎºÎ»ÎŃ":7831,"ĠÎ±Î´ÎµÏģ":7832,"ĠÏĢÎµÏģÎ¹Î¸Ïİ":7833,"ĠÏĮÏĢÎ»Î±":7834,"Î³ÏģÎ¬ÏĨÎµÏĦÎ±Î¹":7835,"ĠÏĩÎ±Î»":7836,"Î¹ÏĥÎ¼ÎŃÎ½Î¿":7837,"ĠÎµÎºÎ»Î¿Î³ÏİÎ½":7838,"ĠÎ¼Î·Î½ÏİÎ½":7839,"ĠÏĢÎŃÏĥÎµÎ¹":7840,"ÎºÏģÎ±ÏĦÎ¿":7841,"Î¼Î¿Î½Î¹Î±":7842,"Î½Î¿Î½ÏĦÎ±Î½":7843,"Î¼ÎµÎ½ÏīÎ½":7844,"ĠÏĥÏĦÎ¿ÏĩÎµ":7845,"ÎĳÎ³":7846,"ĠÎ¼ÎµÏĦÎ±Î»Î»":7847,"ĠÎºÎ±Î½ÏĮ":7848,"ĠÎ½Î·ÏĥÎ¹Î¿Ïį":7849,"ĠÏĢÏģÎ¿ÎºÎ¬Î»ÎµÏĥÎµ":7850,"ÏĦÎ±Î¾Îµ":7851,"ĠÎ±ÏħÏĦÎ¿ÎºÎ¹Î½Î®ÏĦÎ¿Ïħ":7852,"ĠÎ¹ÎºÎ±Î½ÏĮÏĦÎ·ÏĦÎ±":7853,"Î¼ÏĢÎ»Îµ":7854,"ĠÏĢÎ»Î±ÏĦ":7855,"ĠÏħÏĪÎ·Î»Î®":7856,"ĠÏĥÏħÎ½Î±Ïģ":7857,"ĠÎ¸ÎŃÏĥÎµÏīÎ½":7858,"ĠÎ¬Î½ÏĦÏģÎµÏĤ":7859,"ĠÎĦ":7860,"ĠÎļÎ±ÏĦÎµ":7861,"ĠÎ´Î®Î¸ÎµÎ½":7862,"ÏĩÎ¸Î·":7863,"Î¹Î¬Î¶Î¿ÏħÎ½":7864,"ÏĦÎµÎ²Î¿Ïį":7865,"ĠÎĶÎ·Î¼Î¹Î¿ÏħÏģÎ³":7866,"ĠÏĥÏħÎ»Î»Î±":7867,"ĠÎºÎŃÏģÎ´Î·":7868,"ĠÏĥÏħÏĥ":7869,"ica":7870,"ÎµÎ½ÏĦÏģÎ¿":7871,"ÎľÎĳÎ¤Îĳ":7872,"ĠÎµÏĢÎ¹ÏĥÎºÎµÏĨ":7873,"ĠÎĵÎ¹ÏİÏģÎ³Î¿Ïħ":7874,"Î¼Î±ÏĥÏĦÎ±Î½":7875,"ĠÎ¡Î¯":7876,"ĠÎ¸Î±Î»Î¬Ïĥ":7877,"Î¼Î¹ÏĥÎ¼Î±":7878,"34":7879,"ĠÎ±ÏĢÎ¬Î½ÏĦÎ·ÏĥÎµ":7880,"ÎĮÏĥÎ¿":7881,"Î²Î±ÏĥÎµ":7882,"ĠÎ±ÏĦÎ¼ÏĮÏĥÏĨÎ±Î¹ÏģÎ±":7883,"ĠÎŃÎ¼ÎµÎ¹Î½Îµ":7884,"Î©ÏĥÏĦÏĮÏĥÎ¿":7885,"ĠÏĢÎ±Î¯ÏģÎ½Î¿ÏħÎ½":7886,"sta":7887,"ure":7888,"ĠÎłÎĳÎĿ":7889,"ĠÎ¼ÎŃÏĥÏīÎ½":7890,"Î¤ÎĻÎļÎŁ":7891,"ĠÎ±ÏĢÎ¿Î³Î¿":7892,"Ġsh":7893,"ions":7894,"mer":7895,"ÎºÎ¿Î¼":7896,"ĠÎ±ÏģÎºÎµÎ¯":7897,"ĠÎºÎ¿ÏģÏħÏĨÎ±Î¯Î±":7898,"EO":7899,"ÏĦÎ¬Î½":7900,"ĠÎ¾ÎŃÏģÎ¿ÏħÎ¼Îµ":7901,"ĠÏĢÎ¹Î¸Î±Î½ÏĮ":7902,"ĠÎ´Î¹Î±Î¸ÎŃÏĦÎ¿ÏħÎ½":7903,"ĠÎºÎŃÎ½ÏĦÏģÎ±":7904,"spot":7905,"ĠÎłÎ±Î¹":7906,"ĠÏģÏİ":7907,"ĠÎµÎ³Î³ÏģÎ±ÏĨÎ®":7908,"ĠÏĢÎ±Î½ÎµÏĢÎ¹ÏĥÏĦÎ·":7909,"ĠÎ·Î»ÎµÎºÏĦÏģÎ¿Î½Î¹ÎºÎ®":7910,"ÏģÎ±ÎºÏĦÎ·":7911,"ĠÏĢÏģÎ¿Î²Î¿Î»Î®":7912,"ĠÎºÎ¬Î½ÏĦÎµ":7913,"ĠÏĩÎ±Î¼ÏĮ":7914,"Î¬ÏĥÎµÎ¹":7915,"ĠÏĩÏĦÏįÏĢÎ·":7916,"ĠÎºÎ±Î»ÎŃÏĤ":7917,"ĠÎ½Î¿Ïħ":7918,"Î¸ÎµÏħ":7919,"Î¬ÎºÎ·ÏĤ":7920,"ĠÏĢÎ±ÏģÎ±ÎºÎ±Î»Ïİ":7921,"ĠÎ´Î¹Î±ÏĦÏģÎ¿ÏĨÎ®ÏĤ":7922,"ĠÎ±ÏĢÎ¿Î´ÎµÎ¹ÎºÎ½Ïį":7923,"ĠÎµÎ¯Î´Îµ":7924,"ÎĶÎľ":7925,"ĠÎºÎµÎ½ÏĦÏģÎ¹ÎºÏĮ":7926,"ĠÎ´Î¹ÎµÎ¸Î½ÎµÎ¯ÏĤ":7927,"ĠÎľÎ¹ÏĩÎ¬":7928,"ÏĦÎ¯Î¸ÎµÎ½ÏĦÎ±Î¹":7929,"ĠÎ±Î½Î±ÏĢÎ»Î·ÏģÏī":7930,"ĠÎ±ÏĢÎ±Î³Î¿ÏģÎµÏį":7931,"ÎľÎŁ":7932,"Î¸Î¿ÏħÎ¼Îµ":7933,"ĠÎºÎ±Î»Î»Î¹ÎµÏģÎ³":7934,"ĠÎµÎ»Î»Î·Î½Î¹ÎºÏİÎ½":7935,"Î¸Î®ÏĥÎµÎ¹":7936,"2012":7937,"Î³ÏģÎ±Î¼Î¼Î¬ÏĦÏīÎ½":7938,"ÎīÏĦÎ±Î½":7939,"Î¸ÏİÏĤ":7940,"ĠÎ±Î¾Î¹Î¿ÏĢ":7941,"Ġy":7942,"ĠÏĢÎµÏģÎ¹ÏĥÏĥÏĮÏĦÎµÏģÎ¿ÏħÏĤ":7943,"âĢ¦âĢ¦":7944,"ĠÎ¾ÎµÏĩÎ½Î¬":7945,"Î£Î¿":7946,"ĠÏĥÏĦÎ·ÏģÎ¯":7947,"ÎłÏģÏī":7948,"ĠÏĥÏīÏĥÏĦÏĮ":7949,"ĠÎµÏĢÎ¹Î¸ÎŃÏĥÎµÎ¹ÏĤ":7950,"Î»ÎŃÎ½":7951,"ĠÎºÎ»Î¹Î½":7952,"ork":7953,"ĠÏħÎ´ÏģÎ¿":7954,"ĠÎµÎ¾ÏħÏĢÎ·ÏģÎŃ":7955,"ÏĦÏģÎ·":7956,"ĠÎķÎĽÎĽÎĹÎĿ":7957,"ĠÎļÎ¹Î½Î·":7958,"ĠÎ·Î¸Î¿ÏĢÎ¿Î¹ÏĮÏĤ":7959,"ug":7960,"ĠÎ¼ÎµÎ³ÎŃ":7961,"ah":7962,"ĠÎ¬ÏģÎ±":7963,"Î§ÎķÎĻ":7964,"ÏĪÎ¯Î±":7965,"100":7966,"Î»Î±ÏĥÎ·":7967,"ĠDe":7968,"Î»Î¹Î¿Ïį":7969,"ĠÎŃÏĥÎ¿Î´Î±":7970,"ÏĩÎ½Î¿ÏħÎ½":7971,"ĠÏĢÏİÎ»Î·ÏĥÎ·":7972,"ĠÎ´Î¹Î±Î´Î¹ÎºÎ±ÏĥÎ¯Î±ÏĤ":7973,"Î³ÎºÎµ":7974,"Î¼Î¬ÏĦÎ±":7975,"ĠÎ£Î¯":7976,"ĠÏĥÎŃÎ½Î±":7977,"ĠÎ±Î½Î±ÏģÏī":7978,"ĠÎķÏĨÎ·Î¼ÎµÏģÎ¯Î´Î±":7979,"Î¿Î»Î¬Î¿Ïħ":7980,"ĠÏĥÏħÏģ":7981,"ĠÎ²ÏģÎ¹ÏĥÎºÏĮÏĦÎ±Î½":7982,"Î¬ÏĥÎµÏīÎ½":7983,"ĠÏĥÏħÎ³ÎºÏħ":7984,"ĠÏĢÎµÏģÎ¹Î¼ÎŃ":7985,"ÏģÎ¹ÏĥÎ±Î½":7986,"ĠÎ¿ÏģÎ³Î±Î½Î¹ÏĥÎ¼ÏĮ":7987,"ÎĮÎ»Î¿Î¹":7988,"ÎµÏĦÎ¯Î±":7989,"Ġto":7990,"ĠÎ²Î±ÏĥÎ¹Î»":7991,"Î¸ÏħÎ½ÏĥÎ·ÏĤ":7992,"ĠÎłÏģÏĮÎµÎ´ÏģÎ¿":7993,"ĠÎłÏģÎ¿ÏĥÏĦÎ±ÏĥÎ¯Î±ÏĤ":7994,"Ġ400":7995,"ĠÎ¾ÎŃÎ½":7996,"ÎĴÎĳ":7997,"ĠÏħÏĢÎ¿ÏħÏģÎ³ÏĮ":7998,"ĠÏĦÎ±Îº":7999,"ĠÎµÏĢÎµÎ¾ÎµÏģÎ³Î±ÏĥÎ¯Î±":8000,"ĠÎµÎ¿ÏģÏĦÎ±":8001,"ĠÏĨÏĮÏģÎ¿Ïħ":8002,"Î³ÏģÎ±Î¼Î¼":8003,"ĠÎ³ÏģÎ±ÏĢ":8004,"ĠÏĦÎµÏĩÎ½Î¿Î»Î¿Î³Î¯Î±ÏĤ":8005,"letter":8006,"ÎºÏĦÎ·ÏĥÎµ":8007,"ĠÎ¿Î¹ÎºÎ¿Î³ÎŃÎ½ÎµÎ¹ÎµÏĤ":8008,"ĠÎµÎ³ÎºÎ±ÏĦÎ±Î»ÎµÎ¯":8009,"ÏĨÎ¿Î¯":8010,"ĠÎłÎ¬Ïģ":8011,"ÏĥÎ¿ÏħÏĤ":8012,"ĠEx":8013,"ĠÎŃÎ¾ÏħÏĢ":8014,"ĠÎĺÎŃÎ±ÏĦÏģÎ¿":8015,"ÎºÏįÏģÎ¹Î±":8016,"ÏĢÏģÏī":8017,"ÏĨÎ¯Î±ÏĤ":8018,"ĠÏĢÏģÏİÏĦÎ¿Ïħ":8019,"Î¼Î·ÏĥÎµ":8020,"indows":8021,"ĠÏĢÏģÎ¿ÏĥÏĨÏį":8022,"âĢĶ":8023,"ĠÎ¸ÎµÏģÎ±ÏĢÎµÏħ":8024,"ĠÎ¼ÎŃÎ½ÎµÎ¹":8025,"ĠÎ´ÎµÏĥÎ¼ÎµÏį":8026,"ĠÎ³ÎµÎ½Î¹ÎºÏĮ":8027,"ÏĦÎµÏĦÎ±Î¹":8028,"ĠÎłÏģÎ¿ÏĥÏīÏĢ":8029,"ĠÎŃÎ´ÎµÎ¹Î¾Îµ":8030,"ĠÎ¸ÏįÎ¼Î±ÏĦÎ±":8031,"ock":8032,"ĠÎĴÎµ":8033,"ĠÎ´Î·Î¼Î¿ÎºÏģÎ±ÏĦÎ¯Î±":8034,"ÎºÎ¹Î¿":8035,"ĠÎ±ÎºÎ±Î´Î·":8036,"ĠQ":8037,"ÏĢÏĮÎ»Îµ":8038,"ÏĥÏĦÏİ":8039,"Ġ150":8040,"Î¼ÏİÎ½Î±":8041,"ÎĻÏĥÏĦÎ¿":8042,"ĠÎ´Î¹ÎµÏħÎ¸ÏįÎ½":8043,"ÏģÏİÎ½ÎµÏĦÎ±Î¹":8044,"ĠÏĥÏĩÎµÏĦÎ¹ÎºÏĮ":8045,"ĠÎĳÏĢÎ¿Ïģ":8046,"Ġ2000":8047,"ire":8048,"Î¬Î½Î¿ÏħÎ¼Îµ":8049,"Î³Î³Ïħ":8050,"ĠÎŁÎ¹ÎºÎ¿":8051,"Î½Î¿Î¼Î±Î¹":8052,"ĠÎ±ÏĢÏģÏĮ":8053,"ĠÎ±Î¯Î¼Î±ÏĦÎ¿ÏĤ":8054,"act":8055,"ÎĵÏģÎ¬":8056,"ĠÎĽÎŃÏĥ":8057,"ĠÏĦÎ¬ÏĥÎ·":8058,"ÏĢÎ¿Î½ÏĦÎ±ÏĤ":8059,"ÏģÎ¹ÏĥÏĥÏĮÏĦÎµÏģÎµÏĤ":8060,"Ġ:)":8061,"ĠÏĢÏģÎ¿ÏĥÏĢÎ±Î¸Î¿ÏįÎ½":8062,"ĠÎ´Î¹Î±ÏĦÎ±ÏģÎ±":8063,"ĠÎĻÎ½ÏĥÏĦÎ¹ÏĦÎ¿Ïį":8064,"ĠÎ´ÎµÎ¯Î¾ÎµÎ¹":8065,"ĠÎłÎ¿Î»Î¹ÏĦÎ¹ÎºÎ®ÏĤ":8066,"ĠÎ±á½Ĳ":8067,"ĠÎłÎ¡ÎŁÎ£":8068,"Î»ÏİÎ½ÏĦÎ±ÏĤ":8069,"Î¹Î±ÎºÎ¬":8070,"ÎºÎ®ÏģÏħÎ¾Î·":8071,"ĠÎĴÎŃ":8072,"ĠÎĳÎµÏģÎ¿":8073,"ĠÎ±ÏģÏĩÎ±Î¯Î±":8074,"ÏİÏĥÎµÏĦÎµ":8075,"ĠÏĢÏģÎ¿ÏĥÏĦÎ±ÏĦÎµÏħ":8076,"ĠÏĩÎ±ÏģÎ±ÎºÏĦÎ·ÏģÎ¹ÏĥÏĦÎ¹ÎºÏĮ":8077,"ĠÎ¿Î¾":8078,"ĠÎµÎ½Î´Î¹Î±ÏĨÎµÏģÏĮ":8079,"ÎļÎ¬Î½ÏĦÎµ":8080,"ĠÎ¼ÎµÎ³Î±Î»ÏįÏĦÎµÏģÎµÏĤ":8081,"ĠÎ¥ÏĢÎ¿ÏħÏģÎ³ÏĮÏĤ":8082,"ĠÎĻÏĥÏĢÎ±Î½Î¯Î±":8083,"ĠÎ¾ÎŃÏģÎ¿ÏħÎ½":8084,"ÎłÎ±ÏģÎ¬Î»Î»Î·Î»Î±":8085,"ĠÎ£ÏĩÎ¿Î»Î®":8086,"ÏģÎ¿ÏħÏĥÎ·":8087,"ĠÎĶÏħÏĦÎ¹ÎºÎ®ÏĤ":8088,"ĠÎºÎµÏģÎ´Î¿":8089,"Î»ÏĮÎ³Î¿ÏĤ":8090,"Î²ÎµÎ¹Î±":8091,"ĠÏĢÎ¿Î´ÏĮÏĥÏĨÎ±Î¹ÏģÎ¿":8092,"ĠÏĮÏĥÏīÎ½":8093,"ĠÏĥÏĩÎ¿Î»ÎµÎ¯Î¿Ïħ":8094,"Î¹ÎºÏİÏĤ":8095,"ĠÎļÏģÎ±":8096,"ĠÎ·Î»ÎµÎºÏĦÏģÎ¿":8097,"ĠÏĢÏģÎ¿ÎºÎ±Î»Î¿ÏįÎ½":8098,"ĠÎµÏĢÎ¹ÏĢÏĦÏİÏĥÎµÎ¹ÏĤ":8099,"ĠÎłÎ¬ÏĥÏĩÎ±":8100,"ĠÎ¡ÏīÏĥÎ¯Î±ÏĤ":8101,"ĠÎºÎ¿Î¹Î½ÏīÎ½Î¹ÎºÎŃÏĤ":8102,"ĠÎ´Î·Î¼Î¿ÏĨÎ¹":8103,"ĠÎ¬Î»Î»Î¿Î½":8104,"ÏįÎ½Î¿ÏħÎ½":8105,"Î¼Î±ÏĦÎ¿Î³ÏģÎ±ÏĨ":8106,"ĠÎµÏĨÎ±ÏģÎ¼Î¿Î³Î®ÏĤ":8107,"ĠÏĢÎ±ÏĦÎ¬":8108,"ĠÎµÏĢÎ¹ÏĦÏģÎ¿ÏĢÎ®":8109,"IA":8110,"ÏĥÏĥÎµÏĤ":8111,"ĠÎĶÎµÎ´Î¿":8112,"ĠÎĵÎ·":8113,"ĠÎºÎµÏĨÎ¬Î»Î±Î¹Î¿":8114,"ĠÎºÎ¹Î½Î·ÏĦÎ¿ÏĢÎ¿Î¹":8115,"49":8116,"ĠÏĩÎ¿ÏģÎ®":8117,"ÎŃÏģÎ±ÏĤ":8118,"ÏĥÏĥÎ¿Î½ÏĦÎ±Î¹":8119,"ÏģÎ¿ÏįÏĥÎ±Î½":8120,"ĠÎ±ÏĢÎ¿ÏĨÎµÏį":8121,"Î³Î±ÏĢÎ·":8122,"43":8123,"ĠÎ¤ÎŃÎ»Î¿ÏĤ":8124,"ĠÎµÎ»Î±Î¹":8125,"Î¯ÏĥÎµÏĦÎµ":8126,"Î³Î¿Î¹":8127,"ĠÏĦÏģÎ±ÏĢÎµÎ¶ÏİÎ½":8128,"ĠÎºÎµÏĨÎ±Î»":8129,"ĠÏĢÎ±ÏģÎŃÎ¼Î²Î±ÏĥÎ·":8130,"ĠÎ´Î¹Î±ÏĨÎ®":8131,"ĠÎĶÎ·Î»Î±Î´Î®":8132,"ĠÎľÎµÎ³Î¬Î»Î·":8133,"ĠÏĢÎ»Î·Î¸ÏħÏĥÎ¼Î¿Ïį":8134,"ÏĦÎ¹ÏĥÎ¼Î¿ÏįÏĤ":8135,"ĠÎ±ÏĢÎ¿ÏĩÏī":8136,"ÏĮÏĩÎ¹":8137,"Ġj":8138,"ĠÎŃÎ´ÏģÎ±ÏĤ":8139,"ĠÏĥÏĩÎµÎ´Î¹Î±ÏĥÎ¼ÏĮ":8140,"ĠÎ¼Î¿Î¹ÏģÎ±":8141,"ÎķÎ¯Î¼Î±Î¹":8142,"vid":8143,"ĠÎ½Î¿Î¹ÎºÎ¿":8144,"ĠÎºÎ¿Î¹Î½ÏīÎ½Î¹ÎºÎ¬":8145,"ĠÎ²ÏģÎµÏĦÎ±Î½":8146,"ĠÎ³Î¹Î¿ÏģÏĦÎ¬":8147,"Î¿Î¹ÎºÎ¿Î½Î¿Î¼":8148,"ĠÎºÏĦÎ·":8149,"Î·ÏĥÎ±Î½":8150,"ĠÎĽÎ¿Î½Î´Î¯Î½Î¿":8151,"Î»ÎµÎ¯Î¿":8152,"ĠÎĽÏħ":8153,"ĠÏĦÎµÏĩÎ½Î¹ÎºÎ®":8154,"ĠÎ±Î´ÎµÎ¹":8155,"á¿ĸ":8156,"ÏĦÏģÏİ":8157,"ĠÎ´Î¯Î±Î¹":8158,"ĠÎ¿ÏĨÎŃÎ»Î·":8159,"ĠÎ¼ÎµÎ¸ÏĮ":8160,"ĠÎºÎ±ÏĦÎ±ÏĢÎ¿":8161,"ĠÎ±ÎºÏģÎ¯":8162,"ĠÎ¿Î¯Îº":8163,"ĠÎµÎ¾ÎµÎ¹Î´Î¹Îº":8164,"Î»Î¿Î³Î¹ÎºÏİÎ½":8165,"Î²Î²Î±ÏĦÎ¿ÎºÏįÏģÎ¹Î±":8166,"ĠÏĩÎ¬ÏĥÎµÏĦÎµ":8167,"ĠÎºÏįÏģÎ¹Î±":8168,"mi":8169,"ĠÎ¼ÎµÎ³Î¬Î»Î¿Ïħ":8170,"Î¼Î¿Î¹Î²":8171,"ÏģÎ±Î³Îµ":8172,"ĠÎ±ÏĨÎ·":8173,"ĠÎŃÎ»ÎµÎ³ÏĩÎ¿ÏĤ":8174,"ĠÎµÎ½Î¿Î¹Îº":8175,"ÎĮÎ¼ÏīÏĤ":8176,"ÏĥÎ¼ÎŃÎ½Î·":8177,"ĠÎ½ÏīÏģÎ¯ÏĤ":8178,"ÏĮÎ½Î±":8179,"ĠÎĻÎ¿ÏįÎ½":8180,"ĠÎ¼Î¹Î»Î¬ÎµÎ¹":8181,"oom":8182,"ĠÎ¸ÎµÏĥÎ¼":8183,"ĠAnd":8184,"ĠÎķÎ½Ïİ":8185,"ĠÎºÎ»ÎµÎ¯ÏĥÎµÎ¹":8186,"ĠÏĥÏħÏĥÏĦÎ·Î¼Î±":8187,"ĠÎºÏĦÎ»":8188,"ĠÎŃÎ´ÏīÏĥÎ±Î½":8189,"ĠÏĢÎµÏģÏĢÎ±":8190,"ĠÎ²Î¹Î±":8191,"ĠÎ´Î¹Î±ÏĩÎµÎ¹ÏģÎ¹Ïĥ":8192,"ĠÏĥÏįÎ³ÏĩÏģÎ¿Î½Î·":8193,"ĠÎ¼Î¹ÏĥÏĮ":8194,"ĠÎ¼Î¿ÏħÏĥÎ¹ÎºÎ®ÏĤ":8195,"ÎĵÎĶÎľ":8196,"á¿Ĩ":8197,";;;":8198,"ĠÏĩÎ¿ÏģÎ·Î³":8199,"Î»Î»ÏīÎ½":8200,"ĠÎºÏħÎºÎ»Î¿ÏĨÎ¿ÏģÎ¯Î±ÏĤ":8201,"!Â»":8202,"ĠÏĦÏħÏĢ":8203,"55":8204,"ĠÎ¼ÎµÏģ":8205,"ĠÎľÎŁÎ¥":8206,"ÏĢÏĮÎ½Î·ÏĥÎ·":8207,"ÎĳÎ½Î¿Î¯":8208,"ĠÎºÎ±Î½Î¿Î½Î¹ÎºÎ¬":8209,"ĠÎµÎ½Î®":8210,"Î¦ÏħÏĥ":8211,"Î»Î±Î¼Îµ":8212,"ĠÏĩÏģÎ¿Î½Î¹Î¬ÏĤ":8213,"Î³Ïĩ":8214,"ĠÏĨÏįÎ³ÎµÎ¹":8215,"ĠÎ¤ÎĹ":8216,"ĠÎºÎµÏģÎ±":8217,"ÏģÎµÎ¹ÏİÎ½":8218,"ĠÎķÎ»ÎµÏħÎ¸Îµ":8219,"ÎłÎ¿Î¹Î±":8220,"ĠÏĢÎ»Î¿ÏįÏĥÎ¹Î±":8221,"ĠÎŃÎ¾Î¿Î´Î¿":8222,"ÏĦÎ±Î¹Î³":8223,"ĠBr":8224,"ĠÎłÏīÏĤ":8225,"ĠÎłÎĳÎķ":8226,"ĠÏĢÏĮÎ½Î¿":8227,"ĠÎ±ÎºÎ¿Ïħ":8228,"Î¤ÎŁÎ¥":8229,"ĠÎĵÎ¹ÏİÏģÎ³Î¿":8230,"ĠÎļÏħÏģÎ¹Î¬":8231,"Î´ÎµÎ¯Î±":8232,"ĠÎ¼ÎµÎ³Î±Î»Î¿":8233,"ĠÎ¸Î±ÏħÎ¼Î±":8234,"ÏĦÎµÎ½":8235,"ĠÎ·Î¼Î¹":8236,"Î²ÎµÏĤ":8237,"ĠHotel":8238,"ÏĦÏİÎ½ÎµÎ¹":8239,"ĠÎ±Î½Î±ÏĨÎŃÏģÎ¸Î·ÎºÎµ":8240,"ĠÎ¬ÎºÏģÎ·":8241,"ÏĦÎ¹ÏĥÎµ":8242,"41":8243,"Î´Î¹ÎºÎ±Ïĥ":8244,"ĠÎ¼Î¿ÏģÏĨÎŃÏĤ":8245,"ĠÏĩÎµÎ¯":8246,"ÏĦÏįÏĩÎ·Î¼Î±":8247,"ĠÎ¤Î¿ÏįÏģÎºÎ¿Î¹":8248,"ĠÎ±Î¼Î±Ïģ":8249,"ĠÎłÎ±ÏģÎ±ÏĥÎºÎµÏħ":8250,"Î±ÏĥÎ±Î½":8251,"ĠÎŃÎ½ÏĦÎ¿Î½Î±":8252,"ÏģÎ¹ÏĥÏĦÎ±":8253,"Î¬Î½Î¿Î½ÏĦÎ±ÏĤ":8254,"ĠÏĢÎ¬Î½ÏĦÎ¿ÏĦÎµ":8255,"ĠÎĿÏĦÎ±":8256,"ĠÎºÎŃÏģÎ´Î¹ÏĥÎµ":8257,"ĠÎ¿ÏģÎµÎ¹":8258,"Î¹Ïĩ":8259,"ÏĥÎ¹Î±ÎºÏĮ":8260,"Î£Î±Î½":8261,"ÎķÏĦÎ¹ÎºÎŃÏĦÎµÏĤ":8262,"ĠÏĢÎ»Î·ÏĥÎ¹Î¬":8263,"ÏħÎºÎµÎ¯Î¿Ïħ":8264,"ĠÎµÎ¾Î·Î³Î®":8265,"Phone":8266,"ĠÎĵÎµÏİÏģÎ³":8267,"ĠÎłÏģÎ¿ÎŃÎ´ÏģÎ¿Ïħ":8268,"Î»Î¿ÏįÏĥÎ±Î½":8269,"ĠÎºÎ±ÏĦÎ¿Î¯ÎºÏīÎ½":8270,"ĠÎ±ÏĢÎ¿ÏĦÎµÎ»ÎµÎ¯ÏĦÎ±Î¹":8271,"ĠÎĻÏīÎ±Î½":8272,"org":8273,"ĠÏĦÎ¶":8274,"ĠÏĢÎµÏģÎ¹Î²Î¬Î»Î»Î¿Î½ÏĦÎ¿ÏĤ":8275,"ĠÏħÏĢÎ¬ÏģÏĩ":8276,"ĠÏħÏĪÎ·Î»ÏĮ":8277,"ĠÏĮÏģÎ¹Î¿":8278,"ĠÎļÎŃÎ½ÏĦÏģÎ¿Ïħ":8279,"ĠÎ»ÎŃÎ³ÎµÏĦÎ±Î¹":8280,"ÎłÏģÎŃÏĢÎµÎ¹":8281,"ĠÏģÏĮÎ»Î¿ÏĤ":8282,"ĠÎ£ÏħÎ½ÎŃÎ´ÏģÎ¹Î¿":8283,"ÎºÏģÏį":8284,"stagram":8285,"ÏĦÎ·Î¼Î¬ÏĦÏīÎ½":8286,"ĠÏģÏħÎ¸Î¼Î¯ÏĥÎµÎ¹ÏĤ":8287,"Î¸ÏįÎ½ÎµÏĤ":8288,"ld":8289,"ÎĴÎ¯Î½ÏĦÎµÎ¿":8290,"ĠÎºÎ±ÏĦÎ±Î»Î¬Î²ÎµÎ¹":8291,"ĠÎłÎ±ÏģÎ¯ÏĥÎ¹":8292,"ĠÎµá¼":8293,"ĠÎĳÎ»ÎŃÎ¾Î·ÏĤ":8294,"ĠÎºÎ¿ÏħÎ¶Î¯Î½Î±":8295,"ĠÎ¼ÎµÎ»ÎŃÏĦÎµÏĤ":8296,"ĠÎĪÎ»Î»Î·Î½Î±":8297,"Î¼ÏĨÎ¬Î½Î¹ÏĥÎ·":8298,"ĠÎ¾Î±ÏĨÎ½Î¹ÎºÎ¬":8299,"ĠÏĢÎ±ÏģÎ±Î¼Ïį":8300,"ĠÎ¹Î´ÏģÏħ":8301,"ÏħÏģÎ¯ÏīÎ½":8302,"ĠÎ´ÏħÏĥÎºÎ¿Î»Î¯ÎµÏĤ":8303,"ĠÏĢÏģÎ¿ÎŃÏģÏĩÎµÏĦÎ±Î¹":8304,"ĠÏĥÏĦÏģÎ±ÏĦÎ¹":8305,"ple":8306,"ĠÎļÎŃÏģÎºÏħ":8307,"ÏĦÏĮÏĦÎ·ÏĦÎ±ÏĤ":8308,"ĠÎ±Î³ÏģÏĮÏĦÎµÏĤ":8309,"ÎłÎ¿Î¹":8310,"ĠÏĢÏģÎ¿ÏĥÎŃÎ³Î³Î¹ÏĥÎ·":8311,"ĠÎµÎ¹Î»Î¹Îº":8312,"ÏħÏĩÎ¿":8313,"ĠÎºÎ±ÏģÎºÎ¯Î½Î¿":8314,"ĠÎµÏĢÎ¹ÏĦÏħÏĩÎ·":8315,"ĠÎĶÎ¹Î±Î²Î¬ÏĥÏĦÎµ":8316,"ĠÎºÎ±ÏĦÎ±ÏĨÎŃÏģÎµÎ¹":8317,"ĠÎľÎŃÏĩÏģÎ¹":8318,"ĠÎ´Î¿ÎºÎ¹Î¼Î±":8319,"ÏĦÎ¹ÏĥÏĦÎµÎ¯":8320,"ÎĽÎ±":8321,"ĠÎµÏĥÏĦÎ¹Î±ÏĦÏĮ":8322,"ĠÎĳÎ½Î±ÏĥÏĦÎ±":8323,"Î¼Î¯ÏĥÎµÏīÎ½":8324,"ĠÎºÎ¿ÏģÎ¯ÏĦÏĥÎ¹Î±":8325,"ĠÎĴÎ¹Î²Î»Î¹Î¿":8326,"ĠÏĥÏĢÎ¹ÏĦÎ¹Î¿Ïį":8327,"ÏĦÎ¯ÏĥÏĦÎ·ÎºÎµ":8328,"ĠÎłÎ±Î½Î±Î¸Î·Î½Î±ÏĬÎºÏĮÏĤ":8329,"ĠÏĥÏħÎ³ÎºÎµÎºÏģÎ¹Î¼ÎŃÎ½ÎµÏĤ":8330,"ĠÏĢÎµÏģÎ¹ÏĢÎŃ":8331,"ons":8332,"ĠÎĳÎ»ÎŃÎ¾Î·":8333,"ĠÎºÎ¬ÏĢÎ¿Î¹Î¿ÏħÏĤ":8334,"ĠÎµÏģÎ±ÏĥÎ¹":8335,"ĠÎĴÎ¹":8336,"ÏĩÏĦÏħ":8337,"ĠÏģÎ±ÏĦÏĥ":8338,"Î¤ÎµÎ»":8339,"Î³ÏģÎ±ÏĨÎµÎ¯ÏĦÎµ":8340,"ĠÎĴÎ¿Ïį":8341,"ĠÎ²Î»Î¬Î²":8342,"ĠÏĨÎ¿Î²":8343,"ĠÎ´ÎµÏħÏĦÎµÏģÏĮÎ»ÎµÏĢÏĦÎ±":8344,"ĠÎµÏĢÎŃÏĥÏĦÏģÎµ":8345,"ĠÏĦÏģÏĮÏĨÎ¹Î¼Î±":8346,"ĠÏĢÎ±Î³ÎºÏĮÏĥÎ¼Î¹Î¿":8347,"ĠÎ±ÎµÏģÎ¿ÏĥÎºÎ¬":8348,"ĠÎ¿Î»Î¿ÎºÎ»Î·ÏģÏīÎ¸ÎµÎ¯":8349,"Î£Îķ":8350,"ĠÎµÎ½ÏĥÏīÎ¼Î±":8351,"ĠAll":8352,"ĠÎºÎ±ÏĦÎµÎ²Î¬":8353,"ĠÎĳÎķÎł":8354,"ÏĢÎ¿Î¹Î®ÏĥÎµÎ¹":8355,"Î²Î±ÏĤ":8356,"ĠÎŁÎĹÎķ":8357,"ÏĨÎ¬Î½ÎµÎ¹":8358,"ĠÎĿÎµÎ¿":8359,"EWS":8360,"ÏĦÎ¶Î±":8361,"ĠÎ±ÏĢÎ¿Ïĩ":8362,"ĠÏĢÎ»Î·ÏģÎ¿ÏĨÎ¿ÏģÎ¹ÏİÎ½":8363,"St":8364,"á½³":8365,"ĠÎºÎ±ÏģÎ´Î¹Î±":8366,"ĠÏģÎµÎºÏĮÏģ":8367,"ĠÎ±Î¾Î¹Î¿Î»ÏĮÎ³Î·ÏĥÎ·ÏĤ":8368,"ĠÎµÎ¾Î±Î¹ÏģÎµÏĦÎ¹ÎºÎ®":8369,"ÏĦÏģÎ¿Î¯":8370,"att":8371,"ĠÎķÎĽÎĽÎĳ":8372,"ĠÎĳÏģÎ¹ÏĥÏĦÎ¿":8373,"ÏĩÎ±Î½Î¿":8374,"ĠÎ´Î·Î¼Î¿ÏĥÎ¯ÎµÏħÏĥÎ·":8375,"ĠÏĢÎ±Î½ÎŃ":8376,"ĠÎ´Î·Î¼Î¿ÏĥÎ¹Î¿Î½Î¿Î¼":8377,"ĠÎ³Î»ÏħÎºÏĮ":8378,"ĠÎµÎ¹ÏĥÏĮ":8379,"ĠÏĨÎ¯Î»Î¿ÏĤ":8380,"ike":8381,"ĠÎĨÎ³Î¹Î¿ÏĤ":8382,"ĠÎĴÏħ":8383,"ĠÎµÎ¹ÎºÏĮÎ½Î±ÏĤ":8384,"ÏģÎ¹Î¶Îµ":8385,"ĠÏĥÏħÎ¶Î·ÏĦÎ®ÏĥÎµÎ¹ÏĤ":8386,"ĠÎ±ÏĢÎ±ÏģÎ±Î¯ÏĦÎ·ÏĦÎ·":8387,"Ġ33":8388,"ĠÎµÏĨÎ¿":8389,"ĠÎ½Î¬":8390,"ĠÏĨÏĮÏģÎ¼Î±":8391,"ĠÎ¯Î´Î¹ÎµÏĤ":8392,"Î²Î»Îµ":8393,"ĠÏĥÏħÎ¼Î¼ÎµÏĦÎŃÏĩÎµÎ¹":8394,"ĠÎµÎºÎ¼ÎµÏĦÎ¬Î»Î»":8395,"Ġ48":8396,"ear":8397,"ĠÎ¸ÎµÏĤ":8398,"ĠÏĦÏħÏĩÎµ":8399,"Î¥ÏĢÎ¬ÏģÏĩÎ¿ÏħÎ½":8400,"ĠÏĩÎ¸ÎµÏĥÎ¹":8401,"ÏĦÎ®Î¸Î·ÎºÎ±Î½":8402,"ĠÎµÏĢÏĮÎ¼ÎµÎ½Î±":8403,"ĠÎ¿Î¼Î¿ÏģÏĨÎ¹Î¬":8404,"ĠÎ²ÏģÎµÎ¹ÏĤ":8405,"ĠÎ±Î½ÏīÏĦÎŃÏģÏī":8406,"Î»Î¬ÎµÎ¹":8407,"ĠÏĢÎ¿Î»Î¹ÏĦÎ¹ÎºÎ¿Ïį":8408,"ĠÎºÎ¯Î½Î´ÏħÎ½Î¿ÏĤ":8409,"mp":8410,"Î®Î¼ÎµÏģÎ¿":8411,"ÏħÎ½Î®":8412,"á¿¶Î½":8413,"ÏĦÎ¿ÏĢ":8414,"Î´ÏģÎ¿Î¼ÎŃÏĤ":8415,"ÏĢÏĦÎ¹ÎºÏĮ":8416,"ĠÎ£ÎºÏĮ":8417,"Î¼ÏĢÎ¯":8418,"ĠÎłÎŁ":8419,"ĠÎľÎ¯":8420,"Î»ÎµÎ¯ÏĤ":8421,"ĠÎµÏĢÎ¹Î´ÏĮ":8422,"ĠÏĥÏĦÏħÎ»":8423,"ĠÏĩÏīÏģÎ¹Î¬":8424,"Ġ37":8425,"ĠÏħÏĢÎ¿ÏħÏģÎ³Î¿Ïį":8426,"ĠÎ´ÎŃÎ½":8427,"ĠÎºÎ»Î·ÏģÎ¿Î½Î¿Î¼":8428,"ĠÎ¿ÏģÎ³Î¬Î½ÏīÏĥÎ·ÏĤ":8429,"ĠÎĴÎ¿ÏħÎ»Î³":8430,"ĠÏĢÎ¹Î¸Î±Î½ÏĮÏĦÎ·ÏĦÎ±":8431,"ĠÏĢÎ¯Î½Î±ÎºÎ±":8432,"Î¬Î½ÎµÏĦÎµ":8433,"ĠÎºÏģÎ±ÏĥÎ¯":8434,"ĠÏĢÏĮÎ»ÎµÎ¼Î¿ÏĤ":8435,"ÎºÎ¿Î»ÎµÏĤ":8436,"ĠÎµÎ¯Î´Î·ÏĥÎ·":8437,"ĠÏģÎ¯Î¶":8438,"Ġâ":8439,"Î»ÏĮÎ³ÏīÎ½":8440,"ĠÎĨÏģÎ·":8441,"ĠÎĳÎºÏĮÎ¼Î±":8442,"Î¼Î¹Î½":8443,"ĠÎŃÎ³ÎºÏħ":8444,"ĠÎ¬Î½Î¿Î¹Î¾Îµ":8445,"ĠÎķÏħÏģÏīÏĢÎ±ÏĬÎºÏĮ":8446,"ĠÎ³ÎµÎ½Î¹ÎºÎ®":8447,"ĠÎºÏħÎºÎ»Î¿ÏĨÎ¿ÏģÎ¯Î±":8448,"ĠÎĶÎ¹ÎµÏįÎ¸ÏħÎ½ÏĥÎ·":8449,"ĠÎºÏģÎµÎ²Î¬":8450,"ĠÎŃÎ½Î¿":8451,"ĠÏħÏĢÎ¿Î³ÏģÎ±ÏĨÎ®":8452,"ĠÎ³Î½ÏīÏĥÏĦÏĮÏĤ":8453,"RO":8454,"Î»Î¿ÏħÎ½":8455,"ÏĩÎ¹ÏĥÎµ":8456,"ÏİÏĦÎ·":8457,"ĠÎ¦Î¬":8458,"ĠÎ¾ÎµÏĢÎµÏģÎ¬":8459,"ÏįÏģÎ¿":8460,"ĠÎ±Î½Î±ÏĨÎŃÏģÎ¿Î½ÏĦÎ±Î¹":8461,"ĠÎ±Î½ÎµÎ²Î¬":8462,"ĠÎļÏħÎ²ÎŃÏģÎ½Î·ÏĥÎ·":8463,"ĠÏħÎ»Î¿ÏĢÎ¿Î¯Î·ÏĥÎ·":8464,"ĠÏĩÎ¹Î»Î¹ÏĮÎ¼ÎµÏĦÏģÎ±":8465,"Î´ÎµÎ¹ÏĤ":8466,"ĠÎŃÎ²Î±Î»Îµ":8467,"ÏĦÏīÏĢÎ¿":8468,"ĠÎ²Î¿Î»":8469,"Î¼Î·ÏĦ":8470,"Î²Î®ÏĦÎ·":8471,"Î´Î¹ÏİÎ½":8472,"ĠPh":8473,"rip":8474,"ĠÎ¼Î¬Î¶":8475,"ÎļÎ±Î»Î·":8476,"ĠÎ¦Î¹Î»":8477,"ĠÎ¿ÏĢÎ¿Î¹":8478,"ĠÎ±Î½Î±Î¶Î®ÏĦÎ·ÏĥÎ·ÏĤ":8479,"ĠÎ±Î½ÏĦÎ¹Î¼ÎµÏĦÏīÏĢÎ¯Î¶ÎµÎ¹":8480,"xit":8481,"ĠÎķÎ»ÎŃÎ½Î·":8482,"ÎĶÎĻ":8483,"ĠRes":8484,"ÏĦÎµÏģÎ¿ÏĤ":8485,"ÏĥÏĩÎµÎ¹":8486,"ĠÎ±ÏĢÎ±ÏģÎ±Î¯ÏĦÎ·ÏĦÎ¿":8487,"ĠÎŃÏĥÏĦÎµÎ¹Î»Îµ":8488,"ĠÎ±Î³ÏİÎ½ÏīÎ½":8489,"Î¥ÏĢÎ¬ÏģÏĩÎµÎ¹":8490,"Î¼Î¹ÏİÎ½":8491,"2011":8492,"ĠÏĢÏģÏīÏĦÎµ":8493,"ĠÎ¿ÏģÎ¹ÏĥÎ¼ÎŃÎ½ÎµÏĤ":8494,"Î¿ÏģÏħ":8495,"ÎºÏĦÏİÎ½":8496,"ĠÏĢÎ±Î¯Î¶Î¿ÏħÎ½":8497,"ÎĳÎ½Î¬":8498,"Î¯ÏĦÎµÏĤ":8499,"ĠÎĴÎµÏģÎ¿":8500,"ĠÎ²Î±ÏĥÎ¹":8501,"ĠÎ´Î¬Î½ÎµÎ¹Î±":8502,"viv":8503,"ĠÏĥÏħÎ½Î±Î¹ÏĥÎ¸Î·Î¼Î±":8504,"ĠÎ¿Î¹ÎºÎ¿Î½Î¿Î¼Î¹ÎºÏİÎ½":8505,"ÎľÎŃÏĥÎ±":8506,"ĠÎĳÎ¸Î·Î½Î±":8507,"ĠÏĥÏħÎ¼Î¼ÎµÏĦÎµÎ¯ÏĩÎ±Î½":8508,"ÎķÎºÎµÎ¯":8509,"ÏĨÏĮÏģÎ¼Î±":8510,"ĠÎ²Î¿Î·Î¸Î®ÏĥÎ¿ÏħÎ½":8511,"ĠÎµÏħÎ¸ÏįÎ½ÎµÏĤ":8512,"ory":8513,"á½´":8514,"ĠÎ»ÎµÎ³":8515,"ĠÎ±Î»Î»Î¿Î´Î±":8516,"Ġ=":8517,"ĠÏĢÏģÎ¿Ïī":8518,"Î³ÏħÏĢ":8519,"ĠÎ´Î¹ÏĥÎµÎºÎ±ÏĦÎ¿Î¼Î¼":8520,"Î¯ÏģÎµÏĥÎ·":8521,"ĠÏĢÏģÎµÏĥ":8522,"ĠÎ´Î¯Ïĥ":8523,"Î»ÎµÎ¾Îµ":8524,"ĠÎ±ÎºÏħ":8525,"ĠÎµÎ½ÏĮÏĦÎ·ÏĦÎ±":8526,"ĠÎ½Î¿Î¼Î¿ÏĥÏĩÎŃÎ´Î¹Î¿":8527,"ĠÏĢÎ±ÏģÎ±Î¼ÎµÎ¯Î½ÎµÎ¹":8528,"ĠÎĻÎ·Ïĥ":8529,"ĠÏĦÎµÏģÎ¬ÏĥÏĦÎ¹Î¿":8530,"ĠÎ¼Î±ÏĩÎ·":8531,"Î¸ÎµÏĥÎ¯Î±":8532,"ĠÎºÎ±ÏĦÎ·Î³Î¿Ïģ":8533,"ÏĦÏĥÎŃ":8534,"ÎķÏĢÏĮÎ¼ÎµÎ½Î¿":8535,"ĠÎºÎ¿Î¹Î½ÏīÎ½Î¹ÎºÎ¿Ïį":8536,"ĠÎľÎ±Îº":8537,"Î¹ÏİÏĦÎµÏĤ":8538,"ĠÎŃÎ¼Î±":8539,"ĠÎĳÏĢÏģÎ¯":8540,"ÎĶÎ·Î¼Î¹Î¿ÏħÏģÎ³":8541,"ĠÎ´Î¹Î±Î¹ÏĦÎ·":8542,"ĠÎĳÏįÎ³Î¿Ïħ":8543,"ĠÏĢÏģÏĮÏĥÏĨÎ±ÏĦÎ·":8544,"Î»Î¹Î¿Ïħ":8545,"ĠÎ¼ÏīÏģÏĮ":8546,"Î»Î¹ÏĥÎ¼ÏĮ":8547,"ĠÏĥÏħÎ¼ÏĢÎµÏģÎ¹Î»Î±Î¼Î²Î±Î½Î¿":8548,"ĠÏĢÏģÎ¿ÎºÎ»Î·":8549,"ĠÎŃÎ»":8550,"Î¼Î¬ÏĦÎ±Î¹":8551,"ÎºÎµÏĦÎ±Î¹":8552,"ÏĥÎ¬Î½":8553,"ĠÎ´Î¹Î¿ÏģÎ¸":8554,"ÏĨÎ¹ÏĥÎ·":8555,"ĠÎľÎ·ÏĦÏģÎ¿ÏĢÎ¿Î»Î¯":8556,"ĠÎµÎ¾ÎŃÏĨÏģÎ±":8557,"IC":8558,"ĠÎ»Î¯ÏĢÎ¿ÏĤ":8559,"ÏĥÎ¼ÎŃÎ½Î±":8560,"ÎµÏįÎµÎ¹":8561,"ĠÎºÎµÏģÎ´Î¯ÏĥÎµÎ¹":8562,"ĠÎ±Î»Î»Î¿Ïį":8563,"aw":8564,"ĠÎµÏģÎ³Î±ÏĥÎ¹ÏİÎ½":8565,"ĠÎ¿ÎºÏĦÏİ":8566,"ĠÎĴÎ±ÏĥÎ¯Î»Î·ÏĤ":8567,"ĠÎĺÎ¬":8568,"ĠÎµÎºÎ´ÏĮÏĥÎµÎ¹ÏĤ":8569,"ĠÎ´Î¿Ïį":8570,"ĠÎ¬ÏģÏĩÎ¹ÏĥÎ±Î½":8571,"ĠÎ¼ÏĮÎ½Î¿Î¹":8572,"ĠÎºÎ¬ÏģÏĦÎ±":8573,"ĠÎĹÎ»ÎµÎºÏĦÏģÎ¿Î½":8574,"Î²ÎµÎ²Î±Î¹":8575,"mart":8576,"ĠÎ±Î´Î¹Îº":8577,"Î»Î®Î½Î·":8578,"ĠÎļÎ¿Î¹Î½ÏīÎ½Î¹ÎºÎ®ÏĤ":8579,"ĠÏĥÏįÎ½ÏĦÎ±Î¾Î·":8580,"ĠÎµÎ´Î¬":8581,"Î¯Î±ÏĥÎ·":8582,"ĠÎµÏħÎ½Î¿":8583,"AT":8584,"Î§Îĳ":8585,"ĠÎ±ÏħÏĦÎ¿ÎºÎ¹Î½Î®ÏĦÏīÎ½":8586,"ĠÏĥÏħÎ¼Î²Î¿ÏħÎ»ÎŃÏĤ":8587,"ĠÎ±Î½ÎµÏĢÎ¹":8588,"ĠÎµÎ½Î®Î»Î¹Îº":8589,"ĠÎ²Î»ÎŃÏĢÎµÎ¹ÏĤ":8590,"ĠÎ¦ÎłÎĳ":8591,"ĠÎºÎ±ÏĦÎ¿ÏĩÎ®":8592,"ĠÎļÎ¿Î¶":8593,"ÏĩÎµÎ¯Î¿Ïħ":8594,"ET":8595,"ÎµÎ½Îµ":8596,"ĠÎµÏĢÎŃÎ½":8597,"ĠÎ±Î½Î¿Î¯Î¾ÎµÎ¹":8598,"Î¦ÎĹ":8599,"ĠÎŀÎ¬Î½Î¸Î·":8600,"ĠÏĥÏħÎ¼ÏĨÏīÎ½Î¯Î±ÏĤ":8601,"ital":8602,"ĠÎĳÏħÏĥÏĦÏģÎ±":8603,"ĠÎĶÎĻ":8604,"ĠÏĥÏĩÎŃÏĥÎµÏīÎ½":8605,"ĠÏĢÎ¿Î»Î¹ÏĦÎ¹ÏĥÎ¼Î¿Ïį":8606,"Î¼Î¿Î½Ïī":8607,"ĠÎºÏħÏĢ":8608,"ĠÎĿÎ±Î¹":8609,"ÏĥÏĨÎ±Î¯":8610,"ĠÎłÏģÎ¿Î³ÏģÎ¬":8611,"ĠÎ½ÏīÏģÎ¯ÏĦÎµÏģÎ±":8612,"ĠÎ½ÏĦÏĮ":8613,"ĠÎºÏįÏģÎ¹Î¿ÏĤ":8614,"Î¿ÎºÎ¿":8615,"ĠÎ½ÎµÎºÏģÎ¿Î¯":8616,"Î¸Î®ÎºÎ·ÏĤ":8617,"ÎĴÎĳÎ£":8618,"ĠÎ±ÏĨÎ®ÏĥÎµÎ¹":8619,"ĠÎ½Î¿Î¹ÎºÎ¿ÎºÏħ":8620,"ĠÎ·Î»ÎµÎºÏĦÏģÎ¿Î½Î¹ÎºÏĮ":8621,"ĠÎ±Î¹Ïĩ":8622,"ĠÎ¿Î½Î¿Î¼Î±ÏĥÎ¯Î±":8623,"ĠÏĢÏģÎ¿ÏĥÎ±ÏģÎ¼Î¿":8624,"ĠÏĢÏģÎ¿ÏĥÏīÏĢÎ¹ÎºÏİÎ½":8625,"ĠÎľÏĢÎ¿ÏģÎµÎ¯ÏĦÎµ":8626,"ĠÎºÏħÎ²ÎµÏģÎ½Î®":8627,"Î¹Î²Î±Ïĥ":8628,"198":8629,"ĠÎ¸ÎµÏīÏģÎ¯Î±":8630,"ĠÎºÎ±ÏĦÎ±ÏĥÎºÎµÏħÎ®ÏĤ":8631,"Î¤ÎĻÎĳ":8632,"ĠÎ¶Î¬ÏĩÎ±ÏģÎ·":8633,"Î¬Î»Î»Î¿Î½":8634,"Î´Î¿ÏĥÎ¯Î±":8635,"Ġnews":8636,"ÎĪÏĩÏī":8637,"ĠÏĨÏĦÏİ":8638,"ÏħÏĥÎ¯":8639,"ĠÏĮÎ½ÎµÎ¹ÏģÎ¿":8640,"ÏģÏĩÎ¯Î±ÏĤ":8641,"ĠÎĽÏį":8642,"ĠÎ§ÏģÎ¹ÏĥÏĦÎ¿ÏįÎ³ÎµÎ½Î½Î±":8643,"ÏĨÎµÏį":8644,"Î»ÏīÏĥÏĥ":8645,"ĠÎĳÎ½Î´":8646,"Î¼Î¼Ïį":8647,"ÏĦÎŃÎ»ÎµÎ¹":8648,"Î±Î¯ÏĥÎ¸Î·":8649,"Ġ2004":8650,"Ġch":8651,"ĠÎµÏħÎºÎ¿Î»":8652,"ĠÎ´Î¹ÏĢÎ»ÏīÎ¼Î±":8653,"ÏĮÎ¼ÎµÎ½Î¿ÏĤ":8654,"ĠÎ´Î¹Î±ÎºÏħ":8655,"ĠÎ´Î¹ÎµÎ¸Î½Î¿ÏįÏĤ":8656,"Î§ÎĹ":8657,"ĠÏĩÎµ":8658,"ĠÏĢÎ¿Î»Î¹ÏĦÎ¹ÎºÎ¿Î¯":8659,"ĠÏĥÏįÎ»Î»Î·":8660,"ĠÏĢÎ¿ÏģÏĦÎ¿":8661,"ĠÎļÎĳÎĿ":8662,"ĠÎ¼ÏĢÎ®ÎºÎµ":8663,"ÏģÎ¹ÎºÏĮÏĤ":8664,"ĠÎ±Î½Î¿Î¯Î³ÎµÎ¹":8665,"ÏĥÏħÎ³Îº":8666,"ĠÎµÎºÎµÎ¯Î½Î±":8667,"ĠÎĹÎ¼ÎŃÏģÎ±":8668,"Î¾Î¹Î¼Î¿":8669,"Î·ÏģÎ¿":8670,"ĠÎ¿Î´Î·Î³Î¿ÏįÎ½":8671,"ĠÎ¼Î¯Î±ÏĤ":8672,"ĠÎµÏģÏīÏĦÎ®Î¼Î±ÏĦÎ±":8673,"Î¯ÏīÏĥÎ·ÏĤ":8674,"ĠÏĢÎ»ÎŃ":8675,"group":8676,"ĠÎ±Î½Î±ÏĢÎ·":8677,"ime":8678,"Î¾Î¯Î±ÏĤ":8679,"ĠÎºÎ±ÏģÎ¹ÎŃÏģÎ±":8680,"ĠÎ¸ÎµÏīÏģÎ·":8681,"ĠÏĥÏįÎ»Î»Î¿Î³":8682,"ĠÎ§ÎµÎ¹":8683,"ÏĥÏĢÎ±ÏĥÎ¼Î±":8684,"Ġal":8685,"Î±ÏģÏĩ":8686,"ĠÎ±ÏĢÎµÏģÎ³Î¯Î±":8687,"ĠÏĢÎµÏģÎ¹ÏĥÏĦÎ±ÏĦÎ¹ÎºÏĮ":8688,"Î³ÏģÎ±ÏĨÎ¹ÎºÎ®":8689,"ÎŃÎ»Î¸ÎµÎ¹":8690,"ÏĢÎ¿Î¹Î®ÏĥÎµÎ¹ÏĤ":8691,"ĠÎ±Î½Î¸ÏģÏİÏĢÎ¹Î½Î·":8692,"ÎłÎ¿Î¹Î¿ÏĤ":8693,"ĠÎ±Î½Î±Î´ÎµÎ¯":8694,"Î»Î¹ÏĢ":8695,"ĠÎŃÎ²Î³Î±":8696,"Î¸ÎµÎ¹Î¬":8697,"ĠÏĦÏģÎ±Î³Ïī":8698,"ĠÎ¨ÏħÏĩ":8699,"ĠiPhone":8700,"ÏģÎ®Î¸Î·ÎºÎµ":8701,"ĠÏĢÏģÏīÏĦÎ±Î¸Î»Î®Î¼Î±ÏĦÎ¿ÏĤ":8702,"ĠÎºÏĦÎ¹":8703,"ÏħÏĥÏĦÎŃ":8704,"ĠÏĢÎµÏĦÏģÎµÎ»Î±Î¯Î¿Ïħ":8705,"ĠÎ³ÏħÎ±Î»":8706,"Î»Î¿Î³Î¹ÎºÎ¿Ïį":8707,"ĠÎ£ÏħÎ½Î¿":8708,"ĠÎ¬ÏĥÎºÎ·":8709,"2010":8710,"ÏĨÎµÏģÎ¸ÎµÎ¯":8711,"ĠÏģÏħÎ¸Î¼ÏĮ":8712,"Î¹ÎºÎ¬Î½":8713,"IT":8714,"ĠÏĢÎµÏģÎ¹Î¼ÎŃÎ½Î¿ÏħÎ½":8715,"ĠÎºÎ¹Î½Î·Î¼Î±ÏĦÎ¿":8716,"ĠÏĩÏģÎµÎ¹Î±":8717,"Î§ÏīÏģÎ¯ÏĤ":8718,"ĠÎ¾ÏħÏĢ":8719,"ÏĦÎ¹ÏĥÎ·ÏĤ":8720,"Î¡ÎķÎ£":8721,"ĠÏĥÏĦÎµÎ»Îµ":8722,"ĠÎ¶Î·ÏĦÎ®ÏĥÎµÎ¹":8723,"ĠÎºÎ¿ÏħÏĦÎ±":8724,"ini":8725,"ÏĦÎµÎ¹Î¿":8726,"ĠÏĮÏĢÎ¿Î¹Î±":8727,"ĠÎľÎ±Î³":8728,"ĠÎµÎºÎµÎ¯Î½Î¿ÏħÏĤ":8729,"ĠÎĳÎłÎķ":8730,"ĠÎ±Î½Î±Î³Î½ÏİÏĥÏĦÎµÏĤ":8731,"ÏĨÎŃÏģÎ¿Î½ÏĦÎ±ÏĤ":8732,"ÎłÏģÎ¿Î·Î³Î¿ÏįÎ¼ÎµÎ½Î¿":8733,"ĠÎŃÏĨÏħÎ³Îµ":8734,"ÏģÎµÎ¬":8735,"ĠÎ£ÏĢÎ¿Ïħ":8736,"ÏģÎ½Î¬":8737,"ÏĥÎºÎ¹":8738,"'s":8739,"ĠÏĢÏĦÏħÏĩ":8740,"ĠÎĿÎ·":8741,"ĠÎ±Î»ÎºÎ¿":8742,"ĠÎ¶Î·ÏĦÎ¿ÏįÎ½":8743,"ĠÏħÏĢÎ¿ÏĩÏģÎµÏīÏĦÎ¹ÎºÎ¬":8744,"ĠÎĳÎ½Î±Ïģ":8745,"ĠÎºÎ±ÏĦÎ±ÏĨÎŃÏģ":8746,"ĠÎ±ÏĢÎµÎ¹Î»Î®":8747,"ĠÎŁÏįÏĦÎµ":8748,"ÏħÏģÎ¯":8749,"ĠÏĨÏħÎ»Î±ÎºÎ®":8750,"ĠÏĢÎ¿Î»Î¹ÏĦÎ¹ÎºÎ¿ÏįÏĤ":8751,"ett":8752,"ĠÎ¿Î´Î·Î³ÏĮÏĤ":8753,"ĠÎ£ÏĦ":8754,"ĠÎ¼Î·ÏĩÎ±Î½Î®":8755,"ÏģÎ³Î¿Ïħ":8756,"ĠÎĴÏģÎµÏĦÎ±Î½Î¯Î±":8757,"ĠÎºÎ¿ÏģÎ¯ÏĦÏĥÎ¹":8758,"ĠÏĨÏģÎ¬ÏĥÎ·":8759,"ĠÏĢÏģÎ¿Î²Î»Î·Î¼Î¬ÏĦÏīÎ½":8760,"ĠÏĥÏħÎ½Î´ÎµÎ´Îµ":8761,"ĠÎĻÏīÎ±Î½Î½":8762,"ĠÎĳÎ¼ÎµÏģÎ¹ÎºÎ±":8763,"ĠÏĢÎ¬Ïī":8764,"ĠÎµÎ¯ÏĢÎ±Î½":8765,"ĠÎ¸ÎµÏĦÎ¹ÎºÎ¬":8766,"ĠÎłÏģÏĮÏĥ":8767,"Î¼Î¯Î´ÎµÏĤ":8768,"ĠÎ¿Î´Î®Î³Î·ÏĥÎµ":8769,"ĠÎºÎ¬ÏĢÏīÏĤ":8770,"ĠÎ²Î¯Î±ÏĤ":8771,"ĠÎŃÏģÏīÏĦÎ±":8772,"ÎºÏİ":8773,"ĠÏĢÎ±ÏģÎ¿ÏħÏĥÎ¯Î±ÏĥÎµ":8774,"Î´Î¹ÎŃ":8775,"ĠÎ²Î¬Î¶ÎµÎ¹":8776,"Î»Î±Î¼Î²Î¬Î½Î¿ÏħÎ½":8777,"ĠÎµÏħÎºÎ±Î¹ÏģÎ¯ÎµÏĤ":8778,"ĠÏĦÎ¿Î½Î¯Î¶ÎµÎ¹":8779,"ĠÎºÎ¹Î½Î´ÏħÎ½ÎµÏį":8780,"ĠÎºÏĦÎ¯ÏģÎ¹Î¿":8781,"ĠÏĢÎµÏģÎ¹Î¼ÎŃÎ½Î¿ÏħÎ¼Îµ":8782,"ĠÎ²Î³Î±Î¯Î½ÎµÎ¹":8783,"Î¹ÏĥÏĦÎ¹ÎºÎ®ÏĤ":8784,"ÏĥÏĦÎ¿Ïį":8785,"ÏģÏīÎ¸ÎµÎ¯":8786,"ĠÎķÎ¼ÎµÎ¯ÏĤ":8787,"ĠÎ²Î³Î¬":8788,"Ġpost":8789,"ĠÎµÏĩÏī":8790,"ĠÏĢÎ¿Î¹Î½":8791,"ĠÏĨÎ¿Î²Î¬":8792,"ĠÏħÏĢÎ¿ÏĩÏģÎŃÏīÏĥÎ·":8793,"ĠÎĴÎ¿Ïħ":8794,"ĠÏĩÏģÎ·Î¼Î±ÏĦÎ¿Î´ÏĮÏĦÎ·ÏĥÎ·":8795,"ĠÎºÏħÎ²ÎµÏģÎ½Î®ÏĥÎµÎ¹ÏĤ":8796,"ĠÎ³ÎµÎ½Î¹ÎºÏĮÏĦÎµÏģÎ±":8797,"ĠÎ±Î½ÏĦÎ¹Î»Î±Î¼Î²":8798,"ĠÏĢÎ±ÏĦÏģÎ¹":8799,"ss":8800,"ĠÎľÎ¯Î±":8801,"ĠÎĳÏģÎ±Î²":8802,"Î£Î±":8803,"ĠÏĥÎµÎ½Î¬ÏģÎ¹Î¿":8804,"ne":8805,"ĠÎľÏĢÎŃ":8806,"ÏĪÎ®ÏĨÎ¹ÏĥÎ¼Î±":8807,"ĠÏĢÏģÎ±Î³":8808,"Î¼ÎŃÎ»ÎµÎ¹Î±":8809,"Î¡ÎŁÎĿ":8810,"ĠÎ±ÏĢÎ¿Î¸Î·ÎºÎµ":8811,"Î»ÎŃÎ¾ÏĦÎµ":8812,"Î²Î¯Î½ÏĦÎµÎ¿":8813,"ĠÏĢÎµÏģÎ½Î¬ÎµÎ¹":8814,"Î¹ÏĥÏĦÎ¬Î½":8815,"ĠÎ´Î¹Î±Î¼ÎŃ":8816,"Î¼ÏĮÎ½Î¹":8817,"ĠÏĢÏģÏĮÏĥÎ¸Îµ":8818,"ĠÏĢÎ¹ÏĥÏĦÎµÏįÎ¿ÏħÎ½":8819,"ÏĥÏĩÎ±":8820,"ĠÎ»Î±Î¹":8821,"ÏĨÏħÎ³Î®":8822,"ÎĽÎŁ":8823,"á½±":8824,"ÏĥÏĦÎ±Î»":8825,"ĠÎ¿Î¹ÎºÎ¿Î½Î¿Î¼Î¹ÎºÎŃÏĤ":8826,"ÏĢÎµÏģÎ¯":8827,"ĠTV":8828,"ĠÎ´Î¹Î¿ÏģÎ³Î¬Î½ÏīÏĥÎ·":8829,"ĠÎºÎ±Î¹ÏģÎ¿Ïį":8830,"ĠÎļÏīÎ½ÏĥÏĦÎ±Î½ÏĦÎ¹Î½Î¿Ïį":8831,"blogspot":8832,"ĠÎ´Î¹Î±ÏĨÎ¸Î¿":8833,"ÎĳÏĥ":8834,"ĠÎµÎ¸Î½Î¹Îº":8835,"ĠGr":8836,"ĠÏĢÎµÎ¸":8837,"ĠÎ³Î½ÏİÏĥÎµÎ¹ÏĤ":8838,"ĠÎ´Î·Î¼Î¿ÏĥÎ¹ÎµÏħ":8839,"ĠÏĥÏħÏĥÎºÎµÏħÎŃÏĤ":8840,"ED":8841,"ĠÎ½Î¿Î·":8842,"ĠÎłÏģÎ¹Î½":8843,"ĠÏĥÏįÎ½Î´Îµ":8844,"Î¼Î²ÏģÎ¹Î¿ÏĤ":8845,"ĠÎķÎ¯Î¼Î±ÏĥÏĦÎµ":8846,"ĠÎµÏĦÎ±Î¯":8847,"ÏĬÎºÎ®ÏĤ":8848,"ĠÎ´Î¹ÎºÎ±":8849,"ÏĦÏĥÎ¬":8850,"ĠÏĢÎ±ÏĢÎ¿Ïį":8851,"ĠÎ¼Î¹ÏĥÎ¸Î¿":8852,"ĠÏĩÎµÎ¹Î¼ÏİÎ½Î±":8853,"ĠÎµÏĢÎ¹Î»ÎŃÎ³":8854,"ĠÎ£ÏįÎ½ÏĦÎ±Î³Î¼Î±":8855,"ĠPr":8856,"GR":8857,"ĠÏĢÎµÎ¹ÏĤ":8858,"ĠÎ¼ÎµÎ¯Î½ÎµÏĦÎµ":8859,"ject":8860,"EL":8861,"Î´ÏģÏħ":8862,"ĠÎ´Î¿Î»Î¿ÏĨÎ¿Î½Î¯Î±":8863,"ĠÎ²ÏģÎ¿ÏħÎ½":8864,"ĠÏĥÏħÎ½Î¬Î´ÎµÎ»":8865,"Î¼ÏĢÎµÎ¹":8866,"Î±Î¼Îµ":8867,"ĠÎ¼Î¬Î½Î±":8868,"ĠÎľÏĢÏĮ":8869,"ĠÏĢÎ»Î¿Î¯Î¿":8870,"ÏĩÎ¬ÏĥÎ±ÏĦÎµ":8871,"ĠÎĺÎķ":8872,"ĠÎ¿Î½":8873,"ĠÎºÏįÎºÎ»Î¿":8874,"ĠÏĢÎµÎ¶Î¿":8875,"ĠÎĳÏĢÎ±":8876,"ĠÏĢÎ±Î»Î¹ÏĮ":8877,"ĠÎ±Î¾Î¯ÎµÏĤ":8878,"ÎķÏĢÎ¯":8879,"ĠÎĺÎµÎ¿Î´Ïī":8880,"ÏģÎ¹Îµ":8881,"ĠÎ±Î»ÏħÏĥ":8882,"ĠÏĦÎ¿ÏħÏģÎºÎ¹ÎºÎ®":8883,"ĠÎĬÏĥÏīÏĤ":8884,"ĠÎĻÏģÎ¬Î½":8885,"ĠÎ¼Î¬ÏĦÎ¹":8886,"Î¶ÏĮÎ¼ÎµÎ½Î±":8887,"ĠÎºÎ±Ïħ":8888,"ĠÏģÎ±Î½ÏĦÎµÎ²Î¿Ïį":8889,"ĠÏĢÏħÏģÎ·Î½":8890,"ĠÏĩÏĦÏħÏĢÎ®":8891,"ĠÎłÎ¿Î¹Î¿ÏĤ":8892,"ĠÎµÎ½ÎŃ":8893,"Ġby":8894,"ĠÎ³ÎµÎ½Î½Î·":8895,"Î¼Î¯ÏĥÎµÎ¹":8896,"ĠÎ±Î¸Î»Î·ÏĦÎŃÏĤ":8897,"ĠÏĢÏģÎ¿Î²Î»ÎŃÏĢÎµÏĦÎ±Î¹":8898,"ream":8899,"ĠÎĴÎµÎ»":8900,"ĠÏĢÏģÎ¿Î±Î½Î±":8901,"ĠÎºÎ±ÏĦÎ±Î¹Î³":8902,"ĠÎ£Î±Î¼Î±ÏģÎ¬ÏĤ":8903,"ĠÎµÎºÎµÎ¯Î½Î¿Î¹":8904,"ÎºÎ¿Î»Î¬":8905,"ĠÎµÏĢÎ±Ïģ":8906,"ĠÎ´Î¹Î±ÎºÏģÎ¹":8907,"ĠÎĶÎ¹ÎºÎ±Î¹":8908,"ĠÏĦÎ±ÎºÏĦÎ¹ÎºÎ®":8909,"Î¼ÎµÏģÎ¯Î´Î±":8910,"ĠÎĳÏĢÎ¿ÏģÏģÎ®ÏĦÎ¿Ïħ":8911,"ĠÏĨÎ¸Î·":8912,"ÏĨÏħÎ»Î±Îº":8913,"ĠÎĻÎµÏģÎ¬":8914,"ĠÎ±Î½ÏĦÎ¹ÎºÎµÎ¹Î¼ÎµÎ½":8915,"Î¼Î¹ÏĥÎµ":8916,"ĠÎŃÎºÏĢÎ»Î·Î¾Î·":8917,"ĠÏĦÎ¼Î®Î¼Î±ÏĦÎ¿ÏĤ":8918,"ĠÏĥÎºÎ·Î½Î¿Î¸ÎŃ":8919,"ĠÎ³ÏįÏģÎ¿":8920,"ĠÏĢÏģÎ¿ÎŃÎºÏħ":8921,"ÏģÎ¿Î¼Î±Î¹":8922,"ĠÎĵÏģÎ±ÏĨ":8923,"ĠÎ¤ÎķÎĻ":8924,"ÎłÎµÏģÎ¹ÏĥÏĥÏĮÏĦÎµÏģÎ±":8925,"ÏģÎµÎ½":8926,"ĠÎ±ÎºÎ¿Î»Î¿ÏħÎ¸Î¿ÏįÎ½":8927,"ĠÎĺÏģÎ·":8928,"ĠÏĥÏħÎ½Î±Î¹ÏĥÎ¸Î®Î¼Î±ÏĦÎ±":8929,"Ġ?":8930,"Ġfacebook":8931,"ĠÎ±ÏģÎµ":8932,"ĠWindows":8933,"Î¸Î·ÎºÏİÎ½":8934,"ÏģÏĮÏĦÎ·ÏĦÎ±ÏĤ":8935,"ĠÎ¼Î¯Ïĥ":8936,"ĠÎ£ÏħÎ¼ÏĨÏīÎ½":8937,"ĠÎ³Î¹Î½ÏĮÏĦÎ±Î½":8938,"ÎľÏĮÎ½Î¿":8939,"ÏĦÎ¬Î³Î¼Î±ÏĦÎ¿ÏĤ":8940,"ÎĶÏįÎ¿":8941,"Î³Î³ÎµÎ¹":8942,"ĠÎµÎ¾ÎµÎ¹Î´Î¹ÎºÎµÏħ":8943,"ĠÎ£ÏĩÎ¿Î»Î®ÏĤ":8944,"ĠÎºÎ±Î¸ÏħÏĥÏĦÎŃ":8945,"ĠÏĢÏģÏīÎ¸ÏħÏĢÎ¿ÏħÏģÎ³Î¿Ïį":8946,"ĠÎ³ÎµÏīÏģÎ³":8947,"ÎºÎ±Î»Ïİ":8948,"ĠÏĮÏģÎ¿ÏĤ":8949,"ÏģÎºÎµ":8950,"ĠÎŁÎ»Î»Î±Î½":8951,"ĠÏĥÎµÎ¹ÏģÎ¬ÏĤ":8952,"ÏĢÏĦÏĮ":8953,"ÏĬÎºÎ¿Ïį":8954,"ĠÎµÎ¸":8955,"ÏħÏĩÎ®":8956,"ĠÎµÎ½ÏĦÏįÏĢÏīÏĥÎ·":8957,"ĠÎĵÏħÎ¼Î½Î±":8958,"ĠÎłÎ±Ïĥ":8959,"ocial":8960,"ÏģÎµÎ¹Î¿":8961,"ÎºÎ¬ÏģÎ¹":8962,"ÎĳÎºÎ¿Î»Î¿Ïħ":8963,"ĠÎĽÏĮÎ³":8964,"ĠÎ¸ÎµÎ¼Îµ":8965,"ĠÏĥÎ·Î¼ÎµÎ¹ÏİÎ½ÎµÎ¹":8966,"Î¸ÎµÎ½Î¬":8967,"ÏĦÎ¯Î¸ÎµÏĦÎ±":8968,"42":8969,"ĠÏĥÏħÎ½ÎµÏĩÎ¯Î¶ÎµÏĦÎ±Î¹":8970,"ĠÎºÏģÎŃÎ¼Î±":8971,"Ġ69":8972,"ĠÎ´Î·Î¼Î¿ÏĥÎ¯ÎµÏħÎ¼Î±":8973,"âĢ¦Â»":8974,"Î¼ÎŃÎ½Î¿Î½":8975,"ĠÎĿÎ¹ÎºÏĮÎ»Î±":8976,"ĠÏĢÎ¿ÏĦÎ±":8977,"ĠÏĥÎºÎ¿ÏħÏĢ":8978,"ÎľÏĢÎ¿ÏģÎµÎ¯ÏĦÎµ":8979,"ĠÎĨÎ»":8980,"ĠÏĨÎ¿ÏįÏģ":8981,"ĠÎ´Î¹Î±Î½":8982,"ÏĪÎ¿":8983,"ÏģÎŃÎ±ÏĤ":8984,"ĠÎ´Î·Î¼Î¹Î¿ÏħÏģÎ³Î¿ÏįÎ½":8985,"ĠÏĢÎ±Î¯Î¾ÎµÎ¹":8986,"ĠÎ¼ÎµÏĦÎ±Î²Î¿Î»":8987,"ÏĢÎ¿Î¹Î¿":8988,"Î¼ÎµÎ¯ÏīÎ½":8989,"ĠÏĢÎ®Î³Î±Î¹":8990,"ÏĥÏĨÎ±Î¯ÏģÎ¿Ïħ":8991,"pl":8992,"ĠÎ¶Î¿ÏįÎ¼Îµ":8993,"ĠÏĥÏįÎ¶ÏħÎ³":8994,"Î¬Î»ÎµÎ¹":8995,"ĠÎ¸ÎŃÏģÎ¼Î±Î½":8996,"ĠÎ´Î®Î¼Î±ÏģÏĩÎ¿ÏĤ":8997,"ÎłÏĮ":8998,"ĠNov":8999,"ÎľÎŃÏĩÏģÎ¹":9000,"ĠÏĥÏħÎ½ÏĦÎ±Î³Î¼Î±":9001,"ĠÏĢÎ¿Î¹ÎºÎ¹Î»Î¯Î±":9002,"ĠÎ±Î½ÏĦÎ¹ÏĢÏģÏĮ":9003,"ĠÎºÎ¿ÏģÎ¹":9004,"ĠÎŃÎ¶Î·":9005,"ĠÎ¸ÏģÎ·ÏĥÎºÎµ":9006,"ĠÏĥÎ¿Î²Î±Ïģ":9007,"ĠÎºÎµÏĨÎ±Î»Î±Î¯Î¿Ïħ":9008,"ĠÎ¹Î´Î±Î½Î¹ÎºÏĮ":9009,"Î±Î½Î±ÏĦÎ¿":9010,"Î´Î¹ÎŃÏĤ":9011,"ĠÏĮÏĢÎ¿Î¹Î¿ÏĤ":9012,"ĠÎ¼ÏħÏĥÏĦÎ¹ÎºÎ¬":9013,"Î¬Î»Î¿Ïħ":9014,"ÏĨÎµÎ»Î¿ÏĤ":9015,"ÏĦÎµÎ¯Î¿":9016,"ĠÏħÏĢÎ¿ÏĪÎ·":9017,"ĠÎĿÎ¯ÎºÎ¿Ïħ":9018,"ĠÎłÎ¿Î¹Î±":9019,"ÎµÎ»Î»Î·Î½":9020,"Î´Î¹Î¿Ïį":9021,"ĠÎ±ÏĢÎ¿ÎºÏĦÎ®ÏĥÎµÎ¹":9022,"Î»Î¯Î½Î¿":9023,"ĠÎķÎ¸Î½Î¹ÎºÎ¿Ïį":9024,"ĠÏģÎµÏįÎ¼Î±":9025,"ĠÎ³ÎµÎ½Î¹Î¬":9026,"Î¼ÎµÎ½Î·ÏĤ":9027,"ĠÎ´Î¹ÎµÎºÎ´Î¹ÎºÎ®":9028,"ĠÏĦÎ±Î»Î±Î¹":9029,"ĠÏĨÎ¿ÏģÎŃÏīÎ½":9030,"ĠÎ±ÏģÏĩÎ¹ÏĦÎµÎºÏĦÎ¿Î½":9031,"ĠÎ¼Î¹Î»ÏİÎ½ÏĦÎ±ÏĤ":9032,"ĠÎ´Î¹Î±ÎºÏģÎ¯":9033,"ÎĵÎļ":9034,"ĠÎ»Î¬Î´Î¹":9035,"ĠÏĩÏģÎ·ÏĥÎ¹Î¼Î¿ÏĢÎ¿Î¹Î¿ÏįÎ½ÏĦÎ±Î¹":9036,"ĠÎ¼Î¬Î¸ÎµÎ¹":9037,"Î±Î½ÏĦ":9038,"ÏĢÎ¿Î¹Î¿Î¹":9039,"ĠÎµÏĢÎŃÎºÏĦÎ±ÏĥÎ·":9040,"ĠÎłÎµÏģÎ¯":9041,"ĠÏĮÎ½ÏĦÏīÏĤ":9042,"ĠÏĥÏħÎ³ÎºÏģÎ¿Ïį":9043,"ĠÎºÎ±ÏĦÏİ":9044,"ĠÏĨÎ±Î¹Î½ÏĮÎ¼ÎµÎ½Î±":9045,"Î»Î»ÎŃÏĤ":9046,"ĠÏĩÏģÎ·ÏĥÎ¹Î¼Î¿":9047,"ÏĦÎŃÎ¸Î·ÎºÎµ":9048,"Ġ75":9049,"ÏĨÏĮÏĤ":9050,"Ġ2006":9051,"ÏĮÏĦÎ·ÏĦÎ¬":9052,"ĠÎ±ÎºÏģÎ¯Î²ÎµÎ¹Î±":9053,"Î»Î»ÎµÎ¯":9054,"opyr":9055,"ĠÎļÎ±Î½Î±":9056,"ÎłÎµÏģÎ¯":9057,"ĠÏĦÏģÎ¿ÏĩÎ±":9058,"ĠÎ±Î³Î±ÏĢÎ·Î¼ÎŃÎ½Î¿":9059,"ĠÏĨÏħÏĥÎ¹ÎºÎ¿Ïį":9060,"Î¸ÎŃÏĦÎ¿ÏħÎ¼Îµ":9061,"ĠÎ¼ÎµÏĦÎ±Î½Î±ÏĥÏĦÏİÎ½":9062,"ÏħÏĥÎ¹":9063,"Î½Î¿Î¹Î±ÏĤ":9064,"ĠÎ±Î½ÏĦÎ¹ÏĢÏģÎ¿ÏĥÏīÏĢÎµ":9065,"ef":9066,"ĠÎ´Î¹Î±ÏĢÎ¯Ïĥ":9067,"ĠÏĦÎ±Î¹Î½Î¯Î±ÏĤ":9068,"ĠÎµÎ¹ÎºÎ¿Î½":9069,"ĠÎµÎ¹ÎºÎ¿":9070,"ĠÎµÎºÏĦÎŃÎ»ÎµÏĥÎ·":9071,"ĠÎ²Î³Î®ÎºÎµ":9072,"opyright":9073,"ÎŃÏģÎ±ÏĥÎ¼Î±":9074,"ĠÎµÎ³ÎºÎ±ÏĦÎ¬ÏĥÏĦÎ±ÏĥÎ·":9075,"ĠÎ¿ÏģÎ¸Î¿":9076,"ĠÏĥÏĦÎ±ÏĦÎ¹Ïĥ":9077,"Î³ÎºÎ¿Ïħ":9078,"ÎľÎ¿Ïħ":9079,"ĠÏĢÎ¹ÏĥÏĦÎµÏįÎµÎ¹":9080,"ÎĵÎĻÎĳ":9081,"ÏĢÎ¿Î¹ÎµÏĤ":9082,"Î³ÏģÎ¬ÏĨÎ¿Î½ÏĦÎ±Î¹":9083,"Î»Î¿ÎºÎ®":9084,"ĠÏĥÏĩÎ¿Î»Î¹Î¬":9085,"ĠÎķÏĥÏīÏĦÎµÏģÎ¹ÎºÏİÎ½":9086,"ĠÏĦÏģÎ¿ÏĨÎ¯Î¼ÏīÎ½":9087,"ĠÏĢÎ¿ÏĦÎ¬":9088,"Î±Î³ÏīÎ³Î®ÏĤ":9089,"ĠÏĢÎ»Î¿ÏįÏĥÎ¹Î¿":9090,"ÏģÎ¹Î±ÎºÎ¿Ïį":9091,"ÏĨÏħÎ»Î¬":9092,"Î»ÏħÎ½":9093,"ĠÎ¤ÎĻ":9094,"ĠÎļÎ¿Î»":9095,"ĠÏĢÏģÎ¿ÎµÏĦÎ¿Î¹Î¼Î±ÏĥÎ¯Î±":9096,"ĠÏĢÏģÏĮÏĥÎ²Î±ÏĥÎ·ÏĤ":9097,"Î¸Î±Î½Î¬":9098,"ĠÎ¤Î¹ÏĤ":9099,"ĠÏĩÏīÏģÎ¹Î¿Ïį":9100,"ÏĢÏħ":9101,"ĠÎ¸ÎµÏĦÎ¹ÎºÎ®":9102,"ĠÎĵÎµÏī":9103,"ĠÎ´Î¹ÏĮ":9104,"ĠÏĢÏģÎ¿Î¿ÏĢÏĦÎ¹ÎºÎ®":9105,"Î½Î¿ÏįÏĥÎµ":9106,"ĠÎµÏĢÎµÎ¹ÏĥÏĮÎ´Î¹Î¿":9107,"ĠÎ¿Î¹ÎºÎ¿Î´Î¿":9108,"ÏĢÎ¿Î¹Î¿ÏįÎ½ÏĦÎ±Î¹":9109,"ĠÎļÎŁ":9110,"ĠÎ±Î¾Î¹ÏīÎ¼Î±ÏĦÎ¿Ïį":9111,"ĠÎĻÎ±ÏĢÏīÎ½":9112,"ĠÎłÎµÏģÎ¹Î²Î¬Î»Î»Î¿Î½ÏĦÎ¿ÏĤ":9113,"Î¹ÎºÎ¿Î½ÏĮ":9114,"ĠÎľÎ¿Î½Î¬":9115,"Î»ÎµÎ»ÎµÏįÎ¸Îµ":9116,"ĠÏĥÏħÎ½ÏĮ":9117,"ĠÏĥÏħÏĥÏĦÎ±ÏĦÎ¹ÎºÎ¬":9118,"ĠÎļÏīÎ½ÏĥÏĦÎ±Î½ÏĦÎ¯Î½Î¿ÏĤ":9119,"ĠÎĳÎ½Î±ÏģÏĦÎ®ÏĥÎµÎ¹ÏĤ":9120,"ĠÎµÎºÎ´Î®":9121,"ĠÎ³Î½ÏīÏĥÏĦÎ¿":9122,"ĠBre":9123,"ĠÎ²ÏģÏī":9124,"ĠÎºÏħÏģÎ¹Î¿":9125,"ĠÏĦÏģÏħ":9126,"ĠÎļÎķ":9127,"ÏĮÎ³ÎµÎ¹Î¿":9128,"ĠÎĶÎ®Î¼Î±ÏģÏĩÎ¿ÏĤ":9129,"ĠÏĢÎ±Î³ÎºÎ¿ÏĥÎ¼Î¯ÏīÏĤ":9130,"ĠÎĽÎ¬ÏģÎ¹ÏĥÎ±":9131,"ĠÏĢÏģÎ¿Î²Î»Î®Î¼Î±ÏĦÎ¿ÏĤ":9132,"ĠÏĢÎ±ÏĤ":9133,"ĠÎ²Î»Î¬":9134,"ÏĥÏĦÎ¬ÏĥÎ¹Î¿":9135,"ool":9136,"Î»ÏħÏĦÎ¹ÎºÎ¬":9137,"ĠÎ±ÏĢÎ¬":9138,"AC":9139,"ĠÏĥÏįÎ¼Î²Î¿":9140,"ĠÏĢÎ±ÏģÎ¿ÏįÏĥÎ±":9141,"ÎºÎ·ÏģÏį":9142,"Î¤Î©":9143,"Î³Î±ÏģÎ¿":9144,"ĠMan":9145,"ĠÎºÎ±ÏĦÎ¬ÏĥÏĦÎ±ÏĥÎ·ÏĤ":9146,"ĠÏĢÏģÎ¿ÏĥÎµÎ³Î³":9147,"Ġ39":9148,"ĠÏĦÎ¿ÏĢÎ¿Î¸ÎŃÏĦÎ·ÏĥÎ·":9149,"ĠÎ¾ÎŃÏģÎµÏĦÎµ":9150,"ĠÎ±ÏĢÎ±ÏģÎ¬":9151,"Î¡ÎŁÎ¥":9152,"ĠÎ¼ÎµÏĦÎ±ÏĨÎ¿ÏģÎ¬ÏĤ":9153,"Î³ÏģÎ±ÏĨÎµÎ¯":9154,"Î¤Î¹ÏĤ":9155,"ĠÏĢÏģÎ¿ÏİÎ¸Î·ÏĥÎ·":9156,"ÏĩÎ±ÏĩÎ±":9157,"ĠÎµÎ¹ÏĥÎ·":9158,"ĠÎ´Î¹Î±Î³ÏīÎ½Î¹ÏĥÎ¼ÏĮ":9159,"Î½Î·Î¼ÎŃÏģÏīÏĥÎ·":9160,"ÎºÎ¿ÏįÎ½":9161,"ĠSP":9162,"ÏĩÎ·Î¼Î¬ÏĦÏīÎ½":9163,"56":9164,"ĠÎ²Î±ÏĥÎ¹ÎºÎŃÏĤ":9165,"per":9166,"Î½ÏİÎ¼Î·":9167,"Î¹ÎµÏĤ":9168,"ĠÎºÎ±ÏĦÎ±Î½ÏĮ":9169,"ĠÎµÏĢÎ¹ÏĥÏĦÏģÎŃÏĨÎµÎ¹":9170,"ÎºÏĦÏģÎ¿":9171,"ĠÏīÏģÎ±Î¯Î¿":9172,"ĠÏĥÏħÎ½Î¹ÏĥÏĦÎ¬":9173,"ĠÎµÏĢÎ¬":9174,"ĠÎ¼Î¬ÏģÏĦÏħ":9175,"ĠÏĥÎ±ÏĨ":9176,"ĠÏĢÎ»Î¬ÏĦÎ·":9177,"ĠÏĢÎ»Î±Î¹":9178,"ĠÏĨÏĮÎ²Î¿":9179,"ĠÏĥÏħÎ»Î»ÏĮÎ³Î¿Ïħ":9180,"ĠÏĨÎ¿Ïħ":9181,"ĠÎµÎ±Ïħ":9182,"ĠÎŁÏħÎºÏģÎ±":9183,"ÏİÏĥÏĦÎµ":9184,"ĠÎµÎ¾ÎµÏĦÎ±":9185,"ĠÎ®Î»Î¹Î¿":9186,"ĠÎ³Î¹Î±ÏĦÎ¹":9187,"ÎĽÎķ":9188,"ĠÎ¼Î¿ÏħÏĥÎ¿ÏħÎ»":9189,"Î¹ÏĥÏĦÎ¹ÎºÎ¿Ïį":9190,"ĠÏĥÏħÏĥÎºÎµÏħÎ®":9191,"Î³ÎºÎ¬":9192,"ĠÎĳÏģÏĩÎ¹Îµ":9193,"ĠÎµÎ¼ÏĢÎ¿Î´":9194,"ĠÎµÎºÏĨÏģÎ¬Î¶ÎµÎ¹":9195,"ĠÎĻÎ£":9196,"ÏĦÎ®ÏģÎ·ÏĥÎ·ÏĤ":9197,"ÏĢÎ»Î®":9198,"Î»Î±Î¯Î±":9199,"ĠÎ±Î¼ÏĨÎ¹ÏĥÎ²Î·":9200,"ĠÎŃÎ´Î¹":9201,"ĠÏĢÏģÎ¿Î¸ÎµÏĥÎ¼":9202,"ĠÎ´ÏħÎ½Î±Î¼Î¹ÎºÎ®":9203,"ĠÏĢÎ±ÏģÎ±Î¹":9204,"ĠÎµÎ½Î´Î¹Î±ÏĨÎŃÏģÎµÎ¹":9205,"ĠÎºÏħÎºÎ»Î¿ÏĨÎ¿ÏģÎµÎ¯":9206,"Î»Î»Î¬Î´Î±":9207,"son":9208,"ĠÎ±Î³Î¬ÏĢÎ·ÏĤ":9209,"ĠÎ´ÏĮÏĥÎ·":9210,"ĠÎ¥ÏĢÎ·ÏģÎµÏĥÎ¯Î±":9211,"ÎĻÎŁÎ¥":9212,"Î¼ÏĮÎ½ÏīÎ½":9213,"ĠÎ±Î½Î¸ÏģÏīÏĢÏĮ":9214,"ĠÎ±Î¼ÏĨÎ¹Î²":9215,"ĠÏĢÏģÏīÎ¸ÏħÏĢÎ¿ÏħÏģÎ³ÏĮ":9216,"ĠÎµÏħÏģÏīÏĢÎ±ÏĬÎºÎ®":9217,"ĠÎ±Î½ÏĦÎµ":9218,"ÎłÎ±ÏģÎ±ÏĥÎºÎµÏħÎ®":9219,"Î²Î¿ÏįÎ»Î¹Î¿":9220,"ĠÏĪÎµÏį":9221,"ĠÎ´Î¬ÏĥÎºÎ±":9222,"ĠÎ´Î¹Î±ÏĨÎ¿ÏģÎŃÏĤ":9223,"ĠÎ²ÏĮÎ»ÏĦÎ±":9224,"ÎłÏĮÏĥÎ¿":9225,"ĠÎµÏģÎ³Î±Î»ÎµÎ¯Î±":9226,"ĠÎµÏĢÎ¹ÏĩÎµÎ¯ÏģÎ·ÏĥÎ·ÏĤ":9227,"ĠÏĩÎ¬Ïģ":9228,"ĠÎ¹Î´Îµ":9229,"ĠÎµÏĢÎ±Î½Î¬ÏĥÏĦÎ±ÏĥÎ·":9230,"ĠÎµÏĢÎ¹Î²ÎµÎ²Î±":9231,"ĠÏĢÎ¿Î»ÏįÏĦÎ¹":9232,"ĠÎļÎµÎ½ÏĦÏģÎ¹ÎºÎ®ÏĤ":9233,"ÏĥÏĦÎ·ÏģÎ¹Î±":9234,"ĠÏĮÏĨÎµÎ»Î¿ÏĤ":9235,"ÎµÏĢÎ¹Ïĥ":9236,"ĠÏĢÏģÎ¿ÏĥÏĨÏįÎ³ÏīÎ½":9237,"ĠÏĩÎ±ÏģÏĦÎ¯":9238,"Î¹ÏĥÎ¼ÎŃÎ½Î¿Î¹":9239,"ĠÎ³Î½ÏīÏĥÏĦÎ¬":9240,"ĠÏĢÎ±Î¹ÏĩÎ½Î¹Î´Î¹Î¿Ïį":9241,"ĠÎłÎ¿Î»ÏħÏĦÎµÏĩÎ½":9242,"ĠÏĦÎµÏĦÏģÎ¬":9243,"ĠÎĿÎ¯ÎºÎ¿":9244,"Î´ÎŃÎ½":9245,"ĠÎļÎ±Î»Î»Î¹":9246,"ĠÎ²ÏģÎ±Î²ÎµÎ¯Î¿":9247,"ĠÏĥÏħÎ½ÎµÏĩÎ®":9248,"ile":9249,"ĠÎ±Î½ÏĦÎ¹ÏĥÏĦÎ¿Î¹":9250,"ĠÎ±Î½ÏĦÎ¹Î¼ÎµÏĦÏīÏĢÎ¯ÏĥÎµÎ¹":9251,"ĠÎ±ÎºÏģÎ±":9252,"ĠÎ´Î¯ÏĩÏīÏĤ":9253,"ĠÎ½ÎµÏħ":9254,"ĠÎĿÏĮÏĦÎ¹Î±":9255,"ĠÏĦÎµÎ¯":9256,"ĠÎ»ÏĮÎ³Î¿Ïħ":9257,"59":9258,"Î¹ÏĮÏĦÎ¹":9259,"ĠÏĢÏģÎ¿ÎºÏį":9260,"ĠÎľÎµÏģ":9261,"ĠÎ´Î®Î¼Î¿Ïħ":9262,"ĠÎłÎ±ÏĢÎ±Î´ÏĮ":9263,"ĠÎµÏĨÎ±ÏģÎ¼Î¿Î³ÎŃÏĤ":9264,"ĠÎ²Î±ÏĥÎ¯Î¶ÎµÏĦÎ±Î¹":9265,"ĠÏĥÏħÎ½ÎŃÎ´ÏģÎ¹Î¿":9266,"ÏĦÏģÏī":9267,"ĠÎ¼Î¿Î¯ÏģÎ±":9268,"ĠÎµÎºÎ¬":9269,"ĠÎ±ÏģÎŃ":9270,"ĠAnt":9271,"Î»ÎŃÏĦÎ±":9272,"ĠÏĢÎµÏģÎ±ÏĥÎ¼ÎŃÎ½Î¿":9273,"ĠÎ´ÏģÏĮÎ¼Î¿Ïħ":9274,"ĠÎµÎ¹Î´Î¹ÎºÎŃÏĤ":9275,"Î½ÎŃÎ±":9276,"Î»Î·ÏĨÎ¸ÎµÎ¯":9277,"ĠÎ´Î¹Î±ÏĦÎ®ÏģÎ·ÏĥÎ·":9278,"ĠÏĢÎ»Î±ÏĦÏĨÏĮÏģÎ¼Î±":9279,"ĠÎ¼ÏħÏĥÏĦÎ¹ÎºÏĮ":9280,"ÎĽÎŁÎĵ":9281,"ĠÏĢÎ¬Î¸Î¿ÏĤ":9282,"ĠÎºÎ¿Î¼Î¼Î¬ÏĦÏīÎ½":9283,"ÎĻÎķÎ£":9284,"ĠÎĨÎ¼ÏħÎ½Î±ÏĤ":9285,"ĠÎ±Î½Î±ÏĨÎŃ":9286,"Î³ÎµÎ»Î¿ÏĤ":9287,"ĠÏģÎµÏĢÎ¿ÏģÏĦÎ¬Î¶":9288,"ÎºÎ¿Î¯Î½ÏīÏĥÎ·":9289,"ĠÎµÏĢÎ¯ÏĦÎµÏħ":9290,"urviv":9291,"ĠÎĶÎ·Î¼Î¿ÏĥÎ¯Î¿Ïħ":9292,"ĠÎµÏĢÎ¹Î´Î¿":9293,"ĠÏĢÎ±Î¹Î´ÎµÎ¯Î±":9294,"ĠÏĢÏģÏİÏĦÎ¿Î¹":9295,"Î£ÏħÎ³ÎºÎµÎºÏģÎ¹Î¼ÎŃÎ½Î±":9296,"ĠâĨ":9297,"ĠÎ½ÏĮÏĦÎ¹Î±":9298,"ĠÏħÏĢÏĮÎ»Î¿Î¹ÏĢÎ¿":9299,"ĠÎ´Î¯ÎºÎ±Î¹Î¿":9300,"ĠÎķÎ¦":9301,"ĠÎ±ÏĥÏĨÎ±Î»Î®":9302,"ĠÎµÏĦÎ±Î¹ÏģÎµÎ¹ÏİÎ½":9303,"ĠÎ²ÏģÎ¯ÏĥÎºÎµÎ¹":9304,"ÏĢÎµÎ¹ÏģÎ±":9305,"ĠÎ¿Î½Î¿Î¼Î¬Î¶ÎµÏĦÎ±Î¹":9306,"ĠÎ»ÎµÏħÎºÏĮ":9307,"ĠÏĢÏģÎ¿ÎŃÏģÏĩÎ¿Î½ÏĦÎ±Î¹":9308,"arket":9309,"ĠÏĢÏģÎ±ÎºÏĦÎ¹ÎºÎ®":9310,"ĠÏĥÏįÎ¼Î²Î±ÏĥÎ·":9311,"ĠÏĨÎ¯Î»Î¿":9312,"ĠÎµÎºÏĢÏģÎ¿ÏĥÏī":9313,"ĠÏĥÎµÎ¼Î¹Î½Î¬":9314,"ÎķÎ¸Î½":9315,"ÏģÏģÎ¿Î®":9316,"ĠÎ¼ÎµÎ³Î±Î»ÏįÏĦÎµÏģÎ±":9317,"ÎµÎ¹Î´Î®":9318,"Ã©":9319,"ÎłÎĹ":9320,"ĠÎºÎ±Î»ÏĮÏĤ":9321,"ĠÏĢÏģÎ¿Î´Î¹Î±":9322,"ĠÎľÏĢÎµ":9323,"ĠÎ±Î½Î±ÏĨÎ¿ÏģÎŃÏĤ":9324,"ĠÏĢÏģÎ¬Î³Î¼Î±ÏĦÎ¹":9325,"ÏĢÎ¿Î¯Î·ÏĥÎ±Î½":9326,"ÏĢÏĦÎ¹ÎºÎ¬":9327,"ĠÏĩÏģÎ®Î¼Î±":9328,"Î½Î¯Î±ÏĤ":9329,"ĠÏĦÎŃÎ»ÎµÎ¹Î±":9330,"ÏĩÎ±Î¹":9331,"Î¤ÎŃ":9332,"ÏĨÏħÏĥ":9333,"ĠÎ±Î´ÏħÎ½Î±Î¼Î¯Î±":9334,"ĠÎµÎºÏĥÏĦÏģÎ±":9335,"ĠÏĥÏĩÎµÎ´Î¯Î¿Ïħ":9336,"ĠÎ³Î¬Î¼Î¿":9337,"ĠÎ¤Î¿ÏħÏĤ":9338,"ĠÎ´ÎµÎºÎ±ÎµÏĦÎ¯Î±ÏĤ":9339,"ĠÎ¤ÏģÎ¬ÏĢÎµÎ¶Î±ÏĤ":9340,"ĠÏĦÎ±ÏħÏĦÏĮÏĦÎ·ÏĦÎ±":9341,"ĠÏĦÏģÎ¬ÏĢÎµÎ¶Î±":9342,"ĠÎ±Î½Î¸ÏģÏİÏĢÎ¹Î½Î¿":9343,"ĠÏĥÎµÎ²Î±ÏĥÎ¼ÏĮ":9344,"ÏĥÎ·Î¼Î¿":9345,"ĠÏħÏĢÎµÎ½":9346,"ĠÎ²Î³Î¬Î»ÎµÎ¹":9347,"ĠÏĦÎ±Î»Î±Î¹ÏĢÏī":9348,"ĠÎļÎ±ÏĥÏĦÎ¿":9349,"AM":9350,"ĠÎ²ÏģÎ±Î´Î¹Î¬":9351,"ÏĥÏĢÎ¬":9352,"ĠÎľÏĢÎ±Ïģ":9353,"ĠÏĨÎ±ÏģÎ¼Î¬":9354,"ĠÎµÏĢÎ¹Î¸ÏħÎ¼Î¯Î±":9355,"ĠPl":9356,"Î»Î»Î±Î³Î®ÏĤ":9357,"ÏĦÎ¶Î®":9358,"Î¯Î´Î¹Î¿":9359,"ĠÎµÏĢÎµÎ¹ÏĥÏĮÎ´Î¹Î±":9360,"fo":9361,"Î½ÏĮÏĦÎ·ÏĦÎ±ÏĤ":9362,"ĠÎľÎ·ÏĦÏĥÎ¿ÏĦÎ¬ÎºÎ·ÏĤ":9363,"Î£ÏħÎ½ÎµÏĩ":9364,"ĠÎ±Î½ÎµÏģÎ³Î¯Î±":9365,"ÎĿÎķ":9366,"ĠÎķÎºÏĦÏĮÏĤ":9367,"ĠÎµÎ¹ÏĥÎ±Î³ÏīÎ³Î®":9368,"ÏĦÎµÎ¯ÏĤ":9369,"ĠÎĳÎ½Î±ÏĦÎ¿Î»Î®":9370,"ĠÎ´Î¹ÎµÏħÎ¸ÏħÎ½ÏĦÎ®ÏĤ":9371,"ĠÏĢÎ¿Î»Î¹ÏĦÎ¹ÎºÏĮÏĤ":9372,"ĠÎ§Î±ÏĦÎ¶Î·":9373,"ĠÏĦÏĮÏĢÎ¿ÏĤ":9374,"ĠÎ´Î¯Î½Î¿Î½ÏĦÎ±ÏĤ":9375,"ÏĦÎ·ÎºÎ±":9376,"Î¬ÏģÏĦÎ·ÏĦÎ±":9377,"ÏģÎ¯ÏĥÎ¿ÏħÎ¼Îµ":9378,"ĠÏĢÎ¿Î»Î¯ÏĦÎ·":9379,"ĠÎµÏĢÎŃÎ¼Î²Î±ÏĥÎ·":9380,"Î¹Î±ÎºÎŃÏĤ":9381,"ĠÎ¹Î´Î¹ÏĮÏĦÎ·ÏĦÎµÏĤ":9382,"ĠÎ¼Î¯":9383,"ÏĨÏĮÏģÎ·ÏĥÎµ":9384,"ÏĢÏĦÏİ":9385,"ĠÏĢÏģÎ¿Î¼Î®":9386,"ÎłÎ¿Ïħ":9387,"ĠÎľÎ¹ÏĩÎ±":9388,"ÏĢÎ±ÏģÎº":9389,"Ġ55":9390,"Î»Î±Î½Î´Î¯Î±":9391,"ÏĥÎŃÎ»Î¹":9392,"ĠÎ±Î½ÎµÏģÎ³Î¯Î±ÏĤ":9393,"ÎļÎĹ":9394,"ÎŃÏĥÏĦÎµ":9395,"ĠDr":9396,"ĠÏĮÎ¼Î¿ÏģÏĨ":9397,"ĠÎ¿ÏģÎ¹ÏĥÎ¼ÎŃÎ½Î±":9398,"ĠÎµÏħÎ±Î¯ÏĥÎ¸Î·":9399,"ĠÎ±ÏĨÎ¹ÎµÏģÏī":9400,"ÎºÎµÎ¹Î¿":9401,"ĠÎ±ÏĢÎ±ÏĥÏĩÎ¿":9402,"ÏĮÎ»Î±ÏĤ":9403,"ĠÏĢÏģÎ¿ÏĬÏĮÎ½ÏĦÎ¿ÏĤ":9404,"ĠÎ´Î·Î¼Î¹Î¿ÏħÏģÎ³Î¯Î±ÏĤ":9405,"ĠÎ´Î¯ÎºÎ¹Î¿":9406,"ÎļÎ¿Î¹Î½ÏīÎ½":9407,"ĠÎĶÎ¹Î±ÏĩÎµÎ¯":9408,"ĠÎ±ÏĢÎ¿ÎºÎ±Î»ÏįÏĢÏĦÎµÎ¹":9409,"ĠÎĻÏīÎ¬Î½Î½Î·ÏĤ":9410,"ĠÏĩÏģÎ¹ÏĥÏĦÎ¹Î±Î½":9411,"Î¡ÎĹ":9412,"ĠÏĥÏħÎ½Î¿Î»Î¹ÎºÎ®":9413,"ĠÎºÎ±ÏĦÎ·Î³Î¿ÏģÎ¯Î±ÏĤ":9414,"ĠÎ£ÏħÎ½Î±":9415,"ĠÎ¿ÏĨÎµÎ¯Î»ÎµÎ¹":9416,"Î²Î¬ÏĦÎµÏĤ":9417,"ĠÎļÎ·":9418,"ĠÎ³ÏħÎ½Î±Î¯ÎºÎ±ÏĤ":9419,"ĠÏĥÏĦÎµÎ³":9420,"ĠÏĥÎ¿ÏĥÎ¹Î±Î»Î¹Ïĥ":9421,"ÏĪÎ¹Î¼Î¿":9422,"Î»Î¬ÏĤ":9423,"ĠÏĢÎ»Î¿Ïħ":9424,"ÎĺÎĳ":9425,"ĠÎ£Î±Î²Î²Î±ÏĦÎ¿ÎºÏįÏģÎ¹Î±":9426,"ĠÎ´Î¹ÎµÎ¾Î¬":9427,"ai":9428,"ĠÎłÎ»Î¬":9429,"ĠÎķÏĢÎ¹Î¼ÎµÎ»Î·":9430,"ĠÏĦá½¸":9431,"Sc":9432,"ĠÎµÎ¹ÏĥÎ¹ÏĦÎ®ÏģÎ¹Î±":9433,"ĠÎ´Î¹Î±ÏĢÏģÎ±Î³Î¼Î±ÏĦÎµÏįÏĥÎµÎ¹ÏĤ":9434,"ÏģÎµÎ¹Î±ÏĤ":9435,"ĠÎµÎ½ÏĦÎ¿ÏĢÎ¹Ïĥ":9436,"ÏħÎ¼Î¬ÏĦÏīÎ½":9437,"ÏĩÎµÎ¹ÏĤ":9438,"ĠÎ¼ÏĢÎ¬ÏĥÎºÎµÏĦ":9439,"uc":9440,"ĠÎ¼ÏĢÎ±Î¯Î½ÎµÎ¹":9441,"ĠÎ¬Î³ÏĩÎ¿ÏĤ":9442,"ĠÏĥÎ·Î¼ÎµÏģÎ¹Î½ÏĮ":9443,"ĠÏĥÏħÎ¼Î²Î¿Ïį":9444,"ĠÏĢÎµÎ¹ÏģÎ¬":9445,"ĠÎ±ÏģÏĩÎµÎ¯Î¿":9446,"ĠÎ±Î½Î¸ÏģÏİÏĢÎ¹Î½":9447,"ÎķÎ¯Î¼Î±ÏĥÏĦÎµ":9448,"ĠÎ¹ÏĥÏĩÏħÏģÎ®":9449,"ĠÎµÎ¾ÎŃÏĦÎ±ÏĥÎ·":9450,"ÎµÏĢ":9451,"Î¯Î³Î¿ÏħÏģÎ±":9452,"ĠÏĮÎ¼Î¹":9453,"ĠÎĳÏģÏĩÎ±":9454,"ĠÎ½Î¿Î¼Î¿Î¸ÎµÏĥÎ¯Î±":9455,"ĠÎľÎ±ÏĤ":9456,"ĠÏĦÎ¿á¿¦":9457,"ÎĶÎĹ":9458,"ĠÎłÎĳÎĻ":9459,"Î¶ÎŃ":9460,"ÎķÏĢÎµÎ¹Î´Î®":9461,"ĠÏĢÎ¬ÏģÎ¿ÏħÎ¼Îµ":9462,"ĠÏĨÏĮÏģ":9463,"ĠÎķÎĶÎ©":9464,"ĠAd":9465,"ĠÎ²ÏĮÏģÎµÎ¹Î±":9466,"ĠÎ±ÏĢÎ¿ÎºÎ±ÏĦÎ¬ÏĥÏĦÎ±ÏĥÎ·":9467,"ĠÎĪÏģÎµÏħÎ½Î±":9468,"Ġ34":9469,"ĠÎĿÎķÎĳ":9470,"ĠÎ¿ÏĦÎ¹Î´Î®ÏĢÎ¿ÏĦÎµ":9471,"ĠÎ£Î§":9472,"ÏĩÎ½Î¿ÏħÎ¼Îµ":9473,"Î»Î·ÏĦÎ®ÏģÎ¹Î¿":9474,"anc":9475,"ÏĥÏĩÎ¿ÏħÎ½":9476,"ĠÏĩÏģÎµÎ¿ÎºÎ¿":9477,"Î»ÏħÎ¼Î±":9478,"oll":9479,"ÏĦÎŃÏģÎµÏĤ":9480,"ĠÎ¼Î½Î·Î¼ÏĮÎ½Î¹Î¿":9481,"ÏĢÎ¯ÏĥÏĦÎµÏħ":9482,"ĠÎ±ÎºÎ¹Î½Î®ÏĦÏīÎ½":9483,"ĠÎµÏĢÎ¹ÏĥÏĦÎ·Î¼Î¿Î½Î¹ÎºÎ®":9484,"ÏĨÎ®ÏĥÏĦÎµ":9485,"ĠÎ´Î·Î¼Î¿ÏĥÎ¹Î¿Î³ÏģÎ¬ÏĨÎ¿ÏĤ":9486,"ĠÎ²ÎµÎ²Î±Î¯ÏīÏĤ":9487,"Î¾ÎŃÎ»Î»ÎµÏĤ":9488,"Î³Î¹Î¬Î½Î½Î·":9489,"Î³Î±Î»":9490,"ĠÎľÎŁÎĿ":9491,"ĠÎłÎ¬ÏĦÏģÎ±":9492,"ĠÎ´Î¿ÏħÎ½":9493,"ier":9494,"ĠÎºÎ±Î¹Î½Î¿ÏĦÎ¿":9495,"ĠÏĢÎ±Î³Ïī":9496,"ĠÎ£ÎĳÎ£":9497,"ĠÎµÏĥÏīÏĦÎµÏģÎ¹ÎºÎ®":9498,"ĠÎµÎ¹Î´Î¿ÏĢÎ¿Î¹":9499,"ĠÎ±Î¸":9500,"ĠÏĩÎ¿Ïģ":9501,"ĠÎ´ÎµÎ¾Î¹":9502,"ĠÎ¶ÏİÎ½Î·":9503,"ĠÏĢÏģÎ¿ÎµÎ¹Î´Î¿ÏĢÎ¿Î¹":9504,"ĠÎµÏģÎ³Î±Î»ÎµÎ¯Î¿":9505,"ÎºÏĮÏĥÎ¼Î¹":9506,"ÎļÎ±Î»Î®":9507,"ĠÏĢÏģÎ¿ÏĭÏĢÏĮÎ¸ÎµÏĥÎ·":9508,"ĠÎ³Î»ÏİÏĥÏĥÎ±ÏĤ":9509,"ÎºÎ±Î¸Î¬":9510,"ĠÎ´Î·Î¼Î¹Î¿ÏįÏģÎ³Î·ÏĥÎµ":9511,"ÏĢÎ½Î¿":9512,"ĠÏĩÏģÎŃÎ·":9513,"ĠÎ£ÏįÎ½Î´ÎµÏĥ":9514,"ĠÎ²Î¹ÏİÎ½":9515,"ĠÎµÎ¾Î¯Ïĥ":9516,"Î¸Î±Î¹":9517,"ĠÎŃÎ¼ÏĨÎ±ÏĥÎ·":9518,"ÏĩÎ¿Î½ÏĦÎµÏĤ":9519,"ÏĩÎ¿Î¼ÎŃÎ½ÏīÏĤ":9520,"ÏĢÎ¿Î»Ïį":9521,"ĠÏĢÎ¹Î¸Î±Î½ÏĮÎ½":9522,"ĠÎºÏģÎ±ÏĦÎ¬":9523,"ĠÎºÎ±ÏģÎ±":9524,"ĠÎĴÎ±ÏĥÎ¯Î»Î·":9525,"ĠÎµÏĢÎ±Î½Î±ÏĥÏĦÎ±":9526,"ĠÎłÎ±Î³ÎºÏĮÏĥÎ¼Î¹Î¿":9527,"Î¹ÏĥÎ¼ÎŃÎ½Î¿ÏĤ":9528,"Î³ÎºÏĦÎ¿Î½":9529,"ĠÎ¼ÏĢÎ±ÏĦÎ±":9530,"ĠÏĥÏįÎ½Î¸ÎµÏĥÎ·":9531,"ĠÏħÏĢÎ·ÏģÎµÏĥÎ¯Î±ÏĤ":9532,"ÏįÏĦÎµÏģÎ·":9533,"Î¼ÏįÏģ":9534,"pt":9535,"ĠÎ·Î»Î¹ÎºÎ¹Ïī":9536,"Ġ250":9537,"ĠÎºÏħÏģÎ¹":9538,"ĠÏĢÎ±ÎºÎŃÏĦÎ¿":9539,"ĠÎ§Îĳ":9540,"ĠÏĢÎ±ÏģÎ±Î¼Î¿Î½Î®":9541,"ĠÎ±Î½ÏĦÎ¹Î¼ÎµÏĦÏīÏĢÎ¯Î¶Î¿ÏħÎ½":9542,"ĠÎ·ÏģÎµ":9543,"Ġsp":9544,"ĠÎķÏįÎ²Î¿":9545,"ÎľÎ®":9546,"ÏĥÏĦÎ·ÏĥÎµ":9547,"ĠÎ±Î¼Î¿Î¹Î²":9548,"Î´Î·Î¼Î¿ÎºÏģÎ±":9549,"ĠÎ¼ÏħÎ¸Î¹Ïĥ":9550,"ĠÎºÎ±ÎºÎ®":9551,"ĠÎ¹ÏĥÏĦÎ¿Î»Î¿Î³Î¯Î¿Ïħ":9552,"ĠÎ±ÏĢÎ¿ÏģÏģÎ¯":9553,"ÎĳÎ½Î¿Î¯Î³ÎµÎ¹":9554,"ĠÏĩÏģÎµÎ¹Î¬Î¶":9555,"Ġ120":9556,"ĠÏĥÏħÎ½Î¸ÎŃ":9557,"ĠÎľÎ¿Î½Î±":9558,"%)":9559,"Î¯Ïī":9560,"ĠÎ´Î¹Î±ÏĦÎ·ÏģÎµÎ¯":9561,"ĠÏĩÎ±ÏģÎ¿Ïį":9562,"ĠÎĽÏħÎºÎµÎ¯Î¿Ïħ":9563,"Î¾Î¯Î¶ÎµÎ¹":9564,"Î¹Î±ÎºÏİÎ½":9565,"ĠÎ·ÏģÏī":9566,"ĠÎĴÎ±ÏĥÎ¹Î»":9567,"ĠÎºÎ¹Î½Î´ÏįÎ½Î¿Ïħ":9568,"ĠÎ±ÎºÎ¿Î»Î¿ÏħÎ¸Î®ÏĥÎµÎ¹":9569,"Î´Î±Î³ÏīÎ³":9570,"Â©":9571,"yn":9572,"ĠÏĢÎ¿ÏħÎ¸ÎµÎ½Î¬":9573,"ÏĢÎµÎ»Î»Î¿":9574,"ĠÏĢÏģÎ¿Î³ÏģÎ±Î¼Î¼Î±ÏĦÎ¹Ïĥ":9575,"ari":9576,"ĠÎ£Î¿ÏħÎ·":9577,"ĠÎµÎ¼ÏĢÎ¹ÏĥÏĦÎ¿ÏĥÏįÎ½Î·":9578,"ĠÎ±ÏĢÎ±ÏĥÏĩÎ¿Î»":9579,"ĠÎŃÎ³Î³ÏģÎ±ÏĨÎ¿":9580,"ÏģÎ¬ÎºÎ»ÎµÎ¹Î¿":9581,"ĠÎ¦Ïį":9582,"ational":9583,"ĠÎµÏĦÎ±Î¹ÏģÎ¯Î±ÏĤ":9584,"Î¾Î±Î½Î´ÏģÎ¿ÏĤ":9585,"ĠÎ»Î¯Î³Î·":9586,"ĠÎķÏĢÎ¿":9587,"ĠÎºÎ±ÏĦÎ¬Î»Î»Î·Î»Î·":9588,"ĠÏĦÎ¿ÏĢÎ¹ÎºÎŃÏĤ":9589,"ĠÏĢÎ»Î¿Î¯Î±":9590,"ĠÎľÎ·ÏĦÏĥÎ¿ÏĦÎ¬ÎºÎ·":9591,"ÏģÎ¹Î±ÎºÎŃÏĤ":9592,"ĠÎ´Î¹Î±ÏĩÏģÎ¿Î½":9593,"ĠÎ´Î¹Î±ÏĥÎºÎµ":9594,"Î¼Î±Î½ÏĦÎŃÏģ":9595,"Î±ÏĦÎµ":9596,"ĠÎ½ÎµÏĨ":9597,"ĠÎºÏģÎµÎ²Î¬ÏĦÎ¹":9598,"ĠÏĦÎ¿ÏįÏĦÎ¿Ïħ":9599,"ĠÏĦÏģÎ¿ÏĨÎŃÏĤ":9600,"Î¶Ïį":9601,"ĠÎ¼Î½Î·Î¼Î¿Î½":9602,"ĠÎ±Î¹ÏĥÎ¸":9603,"Î½Î·Î¼Îµ":9604,"ÏĢÏģÎ¬ÏĥÎ¹":9605,"ĠÎĶÎ¹ÎµÎ¸Î½Î¿ÏįÏĤ":9606,"ĠÎºÎ±ÏĦÎ±Î´Î¹ÎºÎ¬":9607,"ĠÎ¾ÎµÎ½":9608,"urvivor":9609,"ĠÎµÏĢÎ¹Î´ÎµÏģ":9610,"ĠÎ´Î¹Î±ÏĩÏī":9611,"ĠÏĥÎ·Î¼Î±Î¯Î±":9612,"ĠÎļÎµÏĨÎ±":9613,"Î´ÏģÎ¯":9614,"ĠÎ±Î¹ÏĦÎ®ÏĥÎµÎ¹ÏĤ":9615,"Î¼ÏĢÎµÏģ":9616,"ĠÏĢÎµÏģÎ¯ÏĨÎ·":9617,"ÎºÎŃÎ´Î±":9618,"ĠÎ¿ÏĩÎ®Î¼Î±ÏĦÎ±":9619,"ĠÎµÎºÏĢÎ»Î®":9620,"75":9621,"ĠÎ»ÏĮÎ³Î¿Î¹":9622,"ÎµÏįÎ¸ÏħÎ½ÏĥÎ·ÏĤ":9623,"âĢĻâĢĻ":9624,"Î¤ÎĳÎĿ":9625,"ĠÎķÎłÎĳ":9626,"ÎµÎ¯ÎµÏĤ":9627,"ÎĽÎ¥":9628,"ÏĢÎŃÎ»Î»Î¿Ïħ":9629,"ĠÏĥÏĩÎµÏĦÎ¹ÎºÎŃÏĤ":9630,"ĠÏĥÏĦÎ±Î´Î¹Î±ÎºÎ¬":9631,"ĠÎ¼ÏĢÎ»Îµ":9632,"ĠÎ¦ÏīÏĦÎ¿Î³ÏģÎ±ÏĨ":9633,"ÏĦÏģÎŃÏĪÎµÎ¹":9634,"ĠÏĥÏħÎ³ÎºÎ»Î¿Î½":9635,"ÎºÎ¹Î½Î¿ÏįÎ½":9636,"ĠÎ´Î¹ÎºÎ±Î¹Î¿Î»Î¿Î³Î·":9637,"ĠÎĵÎµÏīÏģÎ³Î¯Î¿Ïħ":9638,"ÎļÏĮ":9639,"ĠÎµÏĢÎ¹ÏĥÏĦÏģÎŃÏĪÎµÎ¹":9640,"Î¯ÎºÏĦÏħÎ±":9641,"Ġ!!":9642,"otos":9643,"ĠÎ²Î±ÏĥÎ±Î½":9644,"ĠÎ´Î¹Î±Î¼Î¿Î½Î®":9645,"ĠÎĳÏħÎ³Î®ÏĤ":9646,"ÎºÎ±Î»ÎµÎ¯":9647,"ĠÏĦÎ¹Î¼Î®ÏĤ":9648,"ĠÏĦÏĥÎ¬":9649,"Î¼ÏĢÎµÏģÎ¹Î±":9650,"ĠÎ±ÏĥÏĦÏģÎ¿":9651,"ÏģÏħÎ½ÏĥÎ·":9652,"ĠÎ´Î¯Î´":9653,"ĠÏĢÏģÎ¿Î²Î¿Î»ÎŃÏĤ":9654,"ĠÎĳÎºÏĮÎ¼Î·":9655,"ĠÎľÏį":9656,"ĠÎ¹Î´Î¹Î±Î¹":9657,"ĠÎ£ÏħÎ³Îº":9658,"Ġant":9659,"ĠÎĳÏĦÏĦÎ¹ÎºÎ®":9660,"rom":9661,"ĠÎ¡ÎŃ":9662,"ĠÎķÎºÏĢÎ±Î¯Î´ÎµÏħÏĥÎ·":9663,"ĠÎ´Î¹Î±ÏĢÏģÎ±Î³Î¼Î¬":9664,"ĠÎłÎ®":9665,"ĠÎºÎ¹Î½Î·Î¼Î±ÏĦÎ¿Î³ÏģÎ±ÏĨ":9666,"ĠâĢĶ":9667,"ĠÎĿÏĦÎ¬":9668,"ĠÎļÎ¿ÏģÏħ":9669,"ĠÎ±ÏģÏĩÎ¹ÎºÎ®":9670,"ĠÎĶÏħÎ½Î¬":9671,"ÏģÏİÎ¸Î·ÎºÎ±Î½":9672,"ĠÎķÎłÎĻ":9673,"ÎķÎĻÎŁ":9674,"ĠÎµÏĢÎ¹Î¸ÏħÎ¼Î¿ÏįÎ½":9675,"ĠÏĢÎ»ÎµÏħÏģÎ¬ÏĤ":9676,"ĠÏĢÎµÏģÎ¯Î¿Î´Î¿ÏĤ":9677,"Î³Î·ÏĥÎ·ÏĤ":9678,"ĠÏħÏĢÎ¿ÏĥÏĦÎ·ÏģÎ¯Î¶Î¿ÏħÎ½":9679,"ĠÏĥÏħÎ³Î³ÏģÎ±ÏĨÎŃÎ±":9680,"ĠÎ³Îº":9681,"ĠÎ´Î¹ÎºÎ±ÏĥÏĦÎ®ÏģÎ¹Î¿":9682,"ĠÎ¹Î´Î¹Î±Î¯ÏĦÎµÏģÎ¿":9683,"ĠÏĨÎŃÏģÎ¿ÏħÎ½":9684,"ĠÎłÎµÏģÎ¹ÏĥÏĥÏĮÏĦÎµÏģÎ±":9685,"ĠÏĩÎ±Î¼Î¿":9686,"ĠÎ´Î¹Î¿ÏģÎ³Î±Î½ÏİÎ½ÎµÎ¹":9687,"ĠÎ§ÏģÎ®ÏĥÏĦÎ¿ÏĤ":9688,"ĠÏĨÎ±Î¹Î½Î¿":9689,"ĠÎºÎ±Îº":9690,"ÎĳÎĿÎĳ":9691,"ÏĥÏĦÏģÎ¹Î±":9692,"ĠÎµÎºÎ´Î·Î»ÏİÏĥÎµÏīÎ½":9693,"ÎºÏģÎ¹Î²":9694,"ĠÎ¬Î½ÎµÏģÎ³":9695,"ĠÏĮÏĢÎ»Î¿":9696,"Î¡ÎĹÎ£":9697,"Î¸Î½Î¿ÏĤ":9698,"ĠÎ·ÏĦÎ±Î½":9699,"ĠÎ¼Î±Î¸Î®":9700,"ĠÎ±ÏĢÎ¿ÏĦÎµÎ»ÎŃÏĥÎµÎ¹":9701,"ĠÎºÎ±ÏĦÎ¬ÏĨÎµÏģÎ±Î½":9702,"ĠÎ´ÏħÎ½Î±ÏĦÎ¬":9703,"__":9704,"Î¼Î¯Î¶Ïī":9705,"ĠÎ£ÏīÎ¼Î±":9706,"ÏĢÎ¹ÏĥÎ·ÏĤ":9707,"ĠÎµÎ¹ÏĥÏĮÎ´Î·Î¼Î±":9708,"Î³Ïİ":9709,"ÏģÎŃÏĥ":9710,"ÏīÏģÎ±":9711,"ÏĩÎ±ÏģÎ·ÏĦÎ®ÏģÎ¹Î±":9712,"ence":9713,"ĠÏĪÏħÏĩÎ®ÏĤ":9714,"ĠÏĢÏģÏĮÎºÎ»Î·ÏĥÎ·":9715,"ĠÎµÎ¾Î±Î³":9716,"ĠÏĥÎ¿Î²Î±ÏģÎ®":9717,"ĠÎºÎµÎ½ÏĮ":9718,"ĠJo":9719,"ĠÎĵÏħÎ½Î±Î¹":9720,"ĠÎĳÎķ":9721,"ĠNEWS":9722,"ĠÏĥÏħÎ½Î·Î¸Î¹Ïĥ":9723,"ĠÏĥÎ·Î¼Î±ÏĥÎ¯Î±ÏĤ":9724,"ĠÏĢÎ¿ÏĥÎ¿ÏĥÏĦÎ¬":9725,"ĠTr":9726,"ÏĦÏĦÎ¬":9727,"Î¦ÎĻÎĳ":9728,"ÎķÎ¹Ïĥ":9729,"ĠÎĶÎ±Î½":9730,"Î½Î¿Î¼Î¯Î±":9731,"ĠÎºÎ¬Î¼ÎµÏģÎ±":9732,"ĠÏĥÏįÎ¼Î²Î¿ÏħÎ»Î¿ÏĤ":9733,"ĠÎĳÎŁ":9734,"ĠÎµÎ³ÎºÏħÎ¼Î¿":9735,"ÏĥÎ¹ÏĤ":9736,"Î¼Î±ÏģÏĩÎ¿":9737,"ĠÏĨÎ¹Î»Î¿Î¾Îµ":9738,"ĠÎłÎµÎ½":9739,"ĠÎ±ÏĢÎ±Î³ÏĮ":9740,"ĠÎµÏħÏģÏīÏĢÎ±ÏĬÎºÏĮ":9741,"ĠÎĳÎ»Î»Î·":9742,"ĠÎ¤ÏĥÎ¬":9743,"ĠÎ´Î·Î¼Î¹Î¿ÏħÏģÎ³Î·Î¸ÎµÎ¯":9744,"ĠÏĢÏģÎ±ÎºÏĦÎ¹ÎºÎŃÏĤ":9745,"ĠÎºÎ±ÏģÎ´Î¹Î¬ÏĤ":9746,"ĠÎŁÏħÎ¬":9747,"ÏĮÎ´Î¿Î¾":9748,"Î¶Î¿Î½":9749,"ĠÏĦÎ±Î¹ÏģÎ¹Î¬Î¶ÎµÎ¹":9750,"ÏħÎ³ÏĮ":9751,"ĠÎ´Î¹Î±ÎºÏĮ":9752,"ĠÎķÎľ":9753,"ĠÎµÏĨÎ·Î¼ÎµÏģÎ¯Î´Î±ÏĤ":9754,"own":9755,"ĠÎµÎ»Î»ÎµÎ¯":9756,"ĠÎľÎ®ÏĢÏīÏĤ":9757,"ÏĨÏĮÏģÎ±":9758,"ĠÎ¬Î»Î»Î±Î¾Îµ":9759,"ĠÎ±ÎºÏĦÎ¹Î½Î¿":9760,"ÏĦÎ¹ÎºÎµÏĤ":9761,"ÎłÎŁÎĻ":9762,"ĠÎĳÎ¹Î³":9763,"ĠÏĩÎ¿Î½":9764,"ĠInstagram":9765,"ĠÎĺÎµÏī":9766,"Î³Î·ÏĦÎ®ÏĤ":9767,"Î»ÎµÎ¹ÎµÏĤ":9768,"ÎķÎºÏĦÏĮÏĤ":9769,"ĠÎµÎ²Î´Î¿Î¼Î¬Î´Î±ÏĤ":9770,"Î¶Î¿Î¼Î±Î¹":9771,"ĠÎ´Î¹ÎºÎ±Î¹Î¿ÏĥÏįÎ½Î·":9772,"ĠÎµÎ½Î´Î¹Î±ÏĨÎŃÏģ":9773,"ĠÏĥÏħÎ½ÎµÏģÎ³Î¬":9774,"Î»ÎµÏįÎµÎ¹":9775,"ÏģÎ¹ÏĥÏĦÎ¹ÎºÎ®":9776,"ĠÎµÎ¹ÏĥÎ±Î³Î³ÎµÎ»ÎŃ":9777,"ĠÎ´Î¹Î±Î»Ïį":9778,"ĠÎĳÎļ":9779,"ĠÎºÏħÎº":9780,"In":9781,"ĠÎ±ÏĢÏģÎ¿":9782,"ÏĮÎ¼ÎµÎ½ÏīÎ½":9783,"ĠÎ±ÏģÎ¼ÏĮÎ´Î¹":9784,"ĠÎ´Î±ÏĢÎ¬Î½ÎµÏĤ":9785,"Ġá½ģ":9786,"ĠÎŃÎ¾Î¿Î´Î±":9787,"ÎķÎ¼ÎµÎ¯ÏĤ":9788,"ĠÏĥÏįÎ³ÎºÏģÎ¹ÏĥÎ·":9789,"ĠÎļÎ¹Î½":9790,"sports":9791,"ÏĥÏĩÏĮ":9792,"ĠÎ´Î¹Î±ÏĦÎ¬":9793,"Ġ08":9794,"ĠÎķÎ¯Î¼Î±Î¹":9795,"Î³Î¼ÎŃÎ½Î·":9796,"ĠÏĢÎµÏģÎ¹Î¿ÏħÏĥÎ¯Î±":9797,"ĠÎłÎŁÎĽÎĻ":9798,"ĠÏħÎ²":9799,"ĠÎĸÎ·":9800,"Î²Î¬Î½":9801,"ĠÎ¿ÏħÏģÎ±Î½ÏĮ":9802,"ĠÏĢÎ¹ÏĥÏĦÎ¿ÏĢÎ¿Î¹Î·":9803,"ĠÎ´Î¹ÎµÎ¾Î±":9804,"ĠÎ¥ÏĮÏģÎºÎ·":9805,"ĠÏĦÏģÏĮÏĢÎ¿Î¹":9806,"ĠÎ¬Î½Î´ÏģÎ±ÏĤ":9807,"ĠÎĶÎ£":9808,"ĠÎ³ÎºÎ±":9809,"ĠÎ±ÏĢÎµÎ»ÎµÏħÎ¸Îµ":9810,"ÏĩÏģÏī":9811,"Î¸Î¿ÏįÏĥÎµ":9812,"ĠÎ³Î½ÏīÏģÎ¹":9813,"ÏĦÏĥÎ¿Ïħ":9814,"ĠCar":9815,"ÏĦÎ¹Î¿ÏĤ":9816,"ĠÎ±ÎºÎ¿ÏįÏĥÎµÎ¹":9817,"Î¼Î¹ÎŃÏĤ":9818,"Ġcl":9819,"ĠÎ±Î½Î±ÏĦÏģÎ¿ÏĢÎ®":9820,"Îĩ":9821,"ÎłÎ¿Î¹Î¿Î¹":9822,"ĠÎ¶Î±":9823,"ĠÎķÏħÏģÏīÏĢÎ±ÏĬÎºÎ¿Ïį":9824,"ĠÎ²Î¿Î¼Î²":9825,"Î²Î·ÏĤ":9826,"Î¼ÎµÎ¹Î½Î±Î½":9827,"ĠÏĢÎ»ÎµÏħÏģÎŃÏĤ":9828,"ĠÏħÏĪ":9829,"ĠÏĩÏģÏħÏĥÏĮ":9830,"ĠÎ±Î½ÏĦÎ¯Î»Î·ÏĪÎ·":9831,"ĠÏĥÏħÎ½ÏĦÎµÎ»Îµ":9832,"ÏģÎ¿ÏħÏĥÎ¯Î±ÏĥÎ·":9833,"ĠÎ±ÏģÏĩÎ±Î¹":9834,"Î¶ÏİÎ½Î·":9835,"ĠÎĵÏģÎ¬":9836,"ÏĥÎ¼ÎŃÎ½Î¿ÏĤ":9837,"Î´ÎµÎ¯Î¾ÎµÎ¹ÏĤ":9838,"ĠÏĢÏģÎ¿Î³ÏģÎ±Î¼Î¼Î¬ÏĦÏīÎ½":9839,"ĠÏĥÏħÎ½Î´ÎŃÎµÏĦÎ±Î¹":9840,"ĠÏĢÏģÏīÏĦÎµÏįÎ¿ÏħÏĥÎ±":9841,"ĠÎºÎ±Î»Ïī":9842,"ÏĥÏĢÎ¿Î½":9843,"ĠÏĢÎŃÎ¸Î±Î½Îµ":9844,"ĠÎ²Î»ÎŃÏĢÎµÏĦÎµ":9845,"ĠÎ£Î¼ÏįÏģ":9846,"ĠÎ²Î¿ÏģÎµÎ¹Î¿":9847,"ÏĦÎ¬ÏĥÎµÏīÎ½":9848,"ĠÎľÎ¬Î½":9849,"ĠÏħÏĢÎ¿Î²Î¿Î»Î®ÏĤ":9850,"ĠÏĢÎµÏģÎ¹ÎŃÏĩÎ¿ÏħÎ½":9851,"ĠÎ´Î¹Î±Î»ÎŃ":9852,"ÏģÏİÎ½Î¿ÏħÎ¼Îµ":9853,"Î»Î»Î¿ÏħÎ½":9854,"ĠÎ±ÏģÎ¸":9855,"ĠÏĨÏįÎ»Î»Î±":9856,"ĠÏĢÎ±ÏģÎ±Î´ÎµÎ¯":9857,"ĠÏħÏĢÎ¿Î²Î¿Î»Î®":9858,"ÏģÎ®ÏĥÎ¿ÏħÎ¼Îµ":9859,"ĠÎķÎŀ":9860,"ĠÎ¸ÏįÎ¼Î±":9861,"ÏĦÏģÎ¯Î±":9862,"ÏħÏģÎ¿Ïį":9863,"ÎķÏĢÎ¹ÎºÎ¿Î¹Î½ÏīÎ½Î®ÏĥÏĦÎµ":9864,"ĠÎ½ÏħÏĩ":9865,"ĠÎĴÏģÏħÎ¾ÎŃÎ»Î»ÎµÏĤ":9866,"ĠÏĢÏħÎº":9867,"ĠÎłÎ¿ÏįÏĦÎ¹Î½":9868,"ĠÎ½Î¿Ïį":9869,"ĠÏħÏĢÎ¿ÏĦÎ¹":9870,"ÏģÏĮÎ»Î±":9871,"ower":9872,"ĠÎ¹Î´Î¹ÏīÏĦÎ¹ÎºÏĮ":9873,"ĠÎµÏĢÎ¹Î²Î±Ïģ":9874,"ĠÎ³Î¹Î±ÏĦÏģÏĮÏĤ":9875,"ĠÎ±Î³Î±ÏĢÎ·Î¼ÎŃÎ½Î±":9876,"ĠÏĥÎ®Î¼Î±":9877,"ĠÎķÎ½ÎŃÏģÎ³ÎµÎ¹Î±ÏĤ":9878,"ĠÏĢÏĮÎ½ÏĦÎ¿ÏħÏĤ":9879,"Î²Î»Î·Î¸ÎµÎ¯":9880,"ĠÎĶÎ¹ÎµÎ¸Î½ÎŃÏĤ":9881,"ĠÏĢÏģÎ¿ÏĥÎ´Î¿Îº":9882,"á½¹":9883,"ÏĢÎµÎ¯ÏģÎ¿Ïħ":9884,"ĠÎ¼ÏĢÎ»Î¿":9885,"ÎºÎ±Î»Î±":9886,"ÎŃÏĥ":9887,"ĠÎ´Î¹ÎµÎ¸Î½ÎŃÏĤ":9888,"ĠÎ¼Î¿Î½Î¬Î´Î±":9889,"Î±Î½ÏĮ":9890,"ĠÏĨÎŃÏģÎµÏĦÎ±Î¹":9891,"ĠÎ¼Î¹ÎºÏģÏĮÏĤ":9892,"ĠÎ±Î³ÏīÎ½Î¹ÏĥÏĦÎ¹ÎºÎ®ÏĤ":9893,"ĠÏĢÎ±ÏĢ":9894,"ung":9895,"ĠÎłÏĮÎ»Îµ":9896,"ĠÏĨÎ±ÏģÎ¼Î±ÎºÎµÏħ":9897,"Î¼Î·ÏĦÏģÎ¯Î¿Ïħ":9898,".).":9899,".),":9900,"ÏģÎ®Î½Î·ÏĤ":9901,"ĠÎ¼ÏĢÎ±Î»":9902,"ĠCr":9903,"ĠÏĦÎ¹Î¼Î·":9904,"ÎĻÎĶÎĳ":9905,"ÏģÎ¿Î½ÏĦÎ±Î¹":9906,"ĠÎ´Î¹ÎºÎ±Î¹ÏİÎ¼Î±ÏĦÎ¿ÏĤ":9907,"ĠÎºÎŃ":9908,"ĠÎ´ÎŃÏĩÎµÏĦÎ±Î¹":9909,"ĠÏĢÎ¿Î»Î¹ÏĦÎ¹ÏĥÎ¼ÏĮ":9910,"ĠBe":9911,"ĠÏĮÎ½ÎµÎ¹ÏģÎ±":9912,"ĠÎ±ÏĢÎ¿Î¼Î±ÎºÏģ":9913,"ĠÎłÎ±Î½Î±Î¸Î·Î½Î±ÏĬÎºÏĮ":9914,"ĠÎ¿ÏģÎ±":9915,"ĠÎĳÏģÎ¹ÏĥÏĦÎµÏģÎ¬ÏĤ":9916,"ĠÎ³Î¹Î¿":9917,"ĠÎµÎºÏĦÎ¯Î¼Î·ÏĥÎ·":9918,"ĠÎŃÎ³ÎºÏģÎ¹ÏĥÎ·":9919,"ĠÏĢÎµÏģÎ¬ÏĥÎ¿ÏħÎ½":9920,"ĠÎ±Î½Î±ÏĨÎµÏģÏĮ":9921,"ĠÎ±Î½ÏĦÎ¹ÏĢÎ¿Î»Î¯ÏĦÎµÏħÏĥÎ·":9922,"ĠÏĦÎµÏĩÎ½Î¹ÎºÎŃÏĤ":9923,"ĠÎ´ÏħÏĥÎºÎ¿":9924,"ĠÏĢÏģÎ¿ÏĭÏĢÎ¿Î»Î¿Î³Î¹ÏĥÎ¼Î¿Ïį":9925,"ĠÎ´Î¹Î±ÏĥÏĦÎ¬ÏĥÎµÎ¹ÏĤ":9926,"ÏģÏĮÎ½ÏĦÏīÎ½":9927,"ĠÎ²Î±ÏĥÎ¹ÎºÎ®":9928,"ĠÎłÎµÎ»Î¿ÏĢÎ¿Î½":9929,"ĠÎķÏĢÎµÎ¹Î´Î®":9930,"Î®ÏĥÏī":9931,"ĠÏĨÎ±Î½Îµ":9932,"ĠÏĥÏĢÎ¿ÏħÎ´ÏİÎ½":9933,"ÎĨÎ³":9934,"ÏĦÎµÏģÎ½Îµ":9935,"ÎķÏĢÎ¹ÏĢÎ»ÎŃÎ¿Î½":9936,"ÏĨÎ±ÏĥÎ·":9937,"ll":9938,"ÏĢÏģÏĮÏĥ":9939,"Î´Î¿Î¯":9940,"Î»Î±Î¹Î±":9941,"Ġma":9942,"ÏĦÎµÎ¯Î¿Ïħ":9943,"ĠÎŃÎºÏĦÎ±ÏĥÎ·":9944,"Î¹Î±Î½":9945,"ĠÎ£ÎµÏĢÏĦÎŃÎ¼Î²ÏģÎ¹Î¿":9946,"ĠÎ§ÏģÏħÏĥÎ®ÏĤ":9947,"ÎĿÎµÏĮÏĦÎµÏģÎµÏĤ":9948,"Ġ65":9949,"ĠÎ¸ÎµÎ¿":9950,"Î³Î¹Î±ÏĦÎ¯":9951,"ÏĢÎ¯ÏīÎ½":9952,"Î²Î¹Îµ":9953,"ĠÎ´Î¿Î¼Î®":9954,"Î¥Îĵ":9955,"ĠÎķÏĢÎ¹ÏĥÏĦÎ®":9956,"ĠÎ±ÏħÎ¸ÎµÎ½":9957,"ĠÏĢÏģÏīÎ¹Î½ÏĮ":9958,"Î´Î±Ïĥ":9959,"ÏĦÎ·ÏĦÎ¬ÏĤ":9960,"Î¯ÏīÎ¼Î±":9961,"ĠÎºÏĮÏĥÏĦÎ¿ÏħÏĤ":9962,"ĠÏĨÏįÏĥÎ·ÏĤ":9963,"ĠÎŃÏĨÏĦÎ¹Î±":9964,"ĠÎŃÎ³ÎºÎ»Î·Î¼Î±":9965,"ĠÏĥÏħÎ½ÏĦÏģÎ¹":9966,"ÏĥÎ¹Î±ÎºÎ¬":9967,"ĠÎ´Î±ÏĢÎ±Î½":9968,"ĠÎ¼ÎµÏĦÏģÎ¬":9969,"ĠÎĴÏĮÏģÎµÎ¹Î±":9970,"ĠÏĢÏģÎ¿Î²Î»ÎŃÏĪÎµÎ¹ÏĤ":9971,"ÏĦÏģÎ¿ÏĢÎŃÏĤ":9972,"ÎºÏĦÎ¿Î½Î¯Î±":9973,"ĠÏĢÎ¿ÏĥÎ¬":9974,"ĠÎ±Î½ÎŃÎ»Î±Î²Îµ":9975,"á¾":9976,"ĠÎºÏģÎ±ÏĦÏİÎ½":9977,"ĠSc":9978,"ĠÎĨÏģ":9979,"ĠÏĥÏĮ":9980,"ĠÏĥÎ¿ÎºÎ¿Î»Î¬":9981,"Î¿ÏħÎ»ÏĦÎ¿Ïį":9982,"ĠÏĥÏħÎ¼Î²Î±Î¯Î½Î¿ÏħÎ½":9983,"Î³ÎµÎ³ÏģÎ±Î¼":9984,"ĠÎ¤Î·ÏĤ":9985,"ĠÏĥÎºÎ¬Î½Î´Î±":9986,"ĠÎ£ÎŃÏģ":9987,"ĠÎ±Î½Î¿Î¹ÏĩÏĦÎ¬":9988,"ĠÎ´ÏĮÎ¸Î·ÎºÎµ":9989,"ĠEurogroup":9990,"ĠÏįÏĢÎ½Î¿":9991,"ĠÎºÎ¹ÏĮÎ»Î±ÏĤ":9992,"ĠÎ¤Î±Î¼ÎµÎ¯Î¿":9993,"ĠÎ´Î·Î¼Î¹Î¿ÏħÏģÎ³Î®Î¸Î·ÎºÎµ":9994,"ĠÎºÎ»Î¿":9995,"Î³Ïħ":9996,"ÏĩÏģÎµ":9997,"ĠÏĦÏįÏĢÎ¿":9998,"ĠÎ£Î¿Ïį":9999,"ÎŃÏģÎ¼Î±":10000,"rosoft":10001,"Î¬Î»ÎµÏĤ":10002,"ĠÎµÎ¼ÏĢÎµÎ¹ÏģÎ¯ÎµÏĤ":10003,"ĠÎĨÎ³ÎºÏħ":10004,"ĠÎºÎ±ÏģÎºÎ¯Î½Î¿Ïħ":10005,"ĠÎºÎ±ÏĦÎ¹":10006,"ĠÎ²Î»ÎŃÎ¼Î¼Î±":10007,"ĠSky":10008,"Î¯ÏĦÎ±":10009,"ĠÎºÎ¿ÏħÎ²ÎŃÎ½":10010,"Î¬ÏĦÏģÎ¿Ïħ":10011,"ĠÎ¹ÏĥÏĦÎ¿ÏĥÎµÎ»Î¯Î´Î±ÏĤ":10012,"ÏĥÏĦÎ¹ÎºÏİÎ½":10013,"ÏĥÏĦÎ¿Î½":10014,"ĠÏĦÏĥÎŃ":10015,"Î²Î¿Î½ÏĦÎ±Î¹":10016,"ÏĢÏĦÎ·":10017,"ÏĨÎ¿ÏģÎ¿":10018,"ÏģÎ¹Î¿Ïħ":10019,"ĠÎ²Î¿Î·Î¸Î¿ÏįÎ½":10020,"ĠÎ²ÎŃ":10021,"ÏĬÎºÎ¬":10022,"ÏĩÎ½Îµ":10023,"ĠÏĩÎ¹Î»Î¹Î¿":10024,"ĠÎ±Î½Î±ÏĢÏĦÏħÎ¾Î¹Î±":10025,"ĠÎµÏħÎ¸ÏįÎ½Î·ÏĤ":10026,"ĠÏĩÏīÏģÎ¬":10027,"ĠÎ´Î·Î¼Î¿ÏĪÎ®ÏĨÎ¹ÏĥÎ¼Î±":10028,"ĠÎłÎ¿Î»Î¹ÏĦÎµÎ¯ÎµÏĤ":10029,"ĠÎ´ÏİÏĥÎ¿ÏħÎ¼Îµ":10030,"ĠÎºÎ¹Î½ÎµÎ¯ÏĦÎ±Î¹":10031,"ĠÎŃÎ²Î»Îµ":10032,"ĠÎ¼ÎµÎ¸Î¿":10033,"ĠÏĦÎµÏģÎ¼Î±":10034,"ĠÎĴÏģÎ±Î¶":10035,"ĠÎ£ÏħÎ½ÎµÎ´":10036,"ĠÎłÎ»Î·ÏģÎ¿":10037,"ÏĥÏĦÎ¿ÏĦÎµ":10038,"ĠÏħÏĢÎŃÏģÎ¿ÏĩÎ¿":10039,"ÎºÎ¯Î½Î·ÏĥÎ·ÏĤ":10040,"ĠÎ±Î¾Î¹ÏĮÏĢÎ¹Ïĥ":10041,"ĠÎĳÏĢÎ¿ÏĦÎµ":10042,"Ġweb":10043,"ĠÎ´Î±Î½ÎµÎ¹ÏĥÏĦÎŃÏĤ":10044,"Î»ÎµÎºÏĦÎ¹ÎºÎ¬":10045,"Î¬Î¶Î¿Î½ÏĦÎ±ÏĤ":10046,"tern":10047,"ĠÎ³Î¹Î¿ÏĤ":10048,"ĠÏĩÎ±Î¹ÏģÎµ":10049,"ĠÎ±Î³Î¹Î¬":10050,"ÏĨÎ¿ÏģÎ¹ÎºÎ®ÏĤ":10051,"ĠÎ±Î½Î±Î³Î½ÏİÏģÎ¹ÏĥÎ·":10052,"ĠÎ¸ÏħÎ¼Î¬Î¼Î±Î¹":10053,"ĠÏĦÎ¿ÏĢÎ¹ÎºÎ¬":10054,"ĠÎºÎ¿ÏĢÎŃÎ»Î±":10055,"ĠÎ¸Î¬Î½Î±ÏĦÎ¿ÏĤ":10056,"ĠÎĳÏħÎ³Î®":10057,"ĠÎ³ÎµÎ¼":10058,"ĠTo":10059,"ÏĦÏħÏĢÎ·":10060,"ĠÏĮÏĩÎ·Î¼Î±":10061,"ĠÎ£Î¤Îĳ":10062,"ĠÎ±ÏĥÏĦÏħÎ½Î¿Î¼Î¹ÎºÎ¿Î¯":10063,"Î³ÏģÎ±ÏĨÎ¯Î±ÏĤ":10064,"ĠÎĻÎ´ÏģÏį":10065,"Î²Î¿ÏħÏĤ":10066,"ĠÎłÎ¿Î»Îµ":10067,"ĠÎłÎ±Î³ÎºÏĮÏĥÎ¼Î¹Î±":10068,"ĠÎĳÎ³Î³ÎµÎ»":10069,"ĠÎ´Î¹ÎµÏħÎºÎ¿Î»":10070,"ĠÏĨÎ±Î½ÏĦÎ±ÏĥÎ¯Î±":10071,"ĠÎµÎ¾Î·Î³ÎµÎ¯":10072,"ĠÎ¸Î±ÏħÎ¼Î¬":10073,"ĠÎļÎµÎ½ÏĦÏģÎ¹ÎºÎ®":10074,"ĠÏĢÎ±ÏĢÎ¿ÏįÏĦÏĥÎ¹Î±":10075,"ĠÎ¹Î´Î¯ÏīÏĤ":10076,"ĠÎ´Î¹Î±Î²Î¬ÏĥÎµÎ¹":10077,"ĠÎ´Î¯Î±Î¹ÏĦÎ±":10078,"ĠÎºÎ±Î¸Î±ÏģÏĮ":10079,"ĠÎ»Î¿ÏħÎ»Î¿Ïį":10080,"ĠÏĥÏħÎ¼Î²Î¿Î»Î®":10081,"ĠÏĥÏĩÎµÏĦÎ¯Î¶Î¿Î½ÏĦÎ±Î¹":10082,"ĠÎ±Î½Î¿Î¹ÏĩÏĦÏĮ":10083,"ÏĮÎ´ÏīÎ½":10084,"ÏĢÎ¬ÏĤ":10085,"ÏĦÎ¿Î³Î±Î»":10086,"ext":10087,"ĠÎµÏĦÎ±Î¹ÏģÎ¯ÎµÏĤ":10088,"ĠÎ¼Î¹Î»Î®ÏĥÎµÎ¹":10089,"Î¤ÎķÎĽ":10090,"ĠÏĦÏħÏĨ":10091,"ĠÎ±Î½Î±Î²Î¬Î¸Î¼Î¹ÏĥÎ·":10092,"ĠÏĢÏģÎ¿ÏĢÎ¿Î½Î·ÏĦÎ®ÏĤ":10093,"Î¹Î¬Î½":10094,"ĠÏĢÏģÎ¿ÏĬ":10095,"ĠÎ´ÏĮÏĥÎµÎ¹ÏĤ":10096,"ĠÏĢÏģÎ¬ÏĥÎ¹Î½Î¿":10097,"ĠÏĥÏħÎ¼Î¼ÎµÏĦÎµÎ¯ÏĩÎµ":10098,"ÎŃÏĩÎµÎ¹":10099,"ĠÎļÏįÏĢÏģÎ¿ÏĤ":10100,"ÏĮÏĦÎ±ÏĦÎ±":10101,"ĠÎºÎ±Î¹ÏģÎ¿ÏįÏĤ":10102,"ĠÏĨÏģÎ¿ÏįÏĦÎ±":10103,"ÏĥÏħÎ³":10104,"ĠÏĩÏģÎ·ÏĥÎ¹Î¼Î¿ÏĢÎ¿Î¹ÎµÎ¯ÏĦÎµ":10105,"Î¼Î¯Î´Î±":10106,"Î¹ÎºÎ±Ïĥ":10107,"ĠÏĥÏħÎ¼Î²Î¿ÏįÎ»Î¹Î¿":10108,"Î½ÏİÎ½ÎµÎ¹":10109,"ĠÎ´Î¹Î¿Î¯ÎºÎ·ÏĥÎ·ÏĤ":10110,"ĠÏĥÏįÎ³ÎºÏģÎ¿ÏħÏĥÎ·":10111,"Î¼Î¹ÎŃÏģÎ±":10112,"omb":10113,"ÏĢÎµÏģÎ±":10114,"ĠÏĢÎ±ÏģÎ±ÏĩÏī":10115,"ĠÎµÎ»Î¬":10116,"ĠÎłÏģÎµÏĥ":10117,"ĠÎ±Î½ÎµÎ¾Î±ÏģÏĦÎ·":10118,"ĠÎ¥ÎłÎķ":10119,"ĠÎµÎ¹ÏĥÎ¬":10120,"ĠÎŃÎ½ÏĦÎ±Î¾Î·":10121,"ĠÏĢÎŃÏģÎ±Î½":10122,"Î»ÏĦÎµ":10123,"ĠÎµÎºÎ´Î®Î»ÏīÏĥÎ·ÏĤ":10124,"99":10125,"ĠÎ´Î¹Î±ÏĦÎµ":10126,"Î´Î¯Î´ÎµÏĦÎ±Î¹":10127,"ĠÎµÏĢÎ¹ÏĦÏħ":10128,"ĠÎ±ÏĨÎ±Î¯":10129,"ĠÎ¸ÎµÏīÏģÏİ":10130,"ÏĦÎŃÏģÎ¼ÏĢÎ¹":10131,"Î¼ÎµÏģÎ®":10132,"ĠÎµÎºÎ¬ÏĥÏĦÎ¿ÏĦÎµ":10133,"ĠÎ¶ÏİÏīÎ½":10134,"Î»ÎµÎ¹ÏĦÎ¿ÏħÏģÎ³":10135,"ÏĨÎ¹Ïĥ":10136,"ĠÏĢÎµÎ¸Î±":10137,"ĠÎĳÎ»ÎµÎ¾Î±Î½Î´":10138,"ĠÎłÎ±Î»Î±Î¹ÏĮÏĦÎµÏģÎµÏĤ":10139,"ĠÎ±ÏĢÎ±Î½ÏĦÎ¬":10140,"ĠÎ±ÏħÏĦÎ¿Î´Î¹Î¿":10141,"ĠÎĳÎ³Î¿":10142,"ĠÎ´Î¹ÎºÎ±Î¯Î¿Ïħ":10143,"ÎºÎ¹Î¼Î±Î½ÏĦÎŃÏģ":10144,"ĠÎ½ÏĦÎ¿Ïħ":10145,"ĠÎķÎĽÎĽÎĳÎĶÎĳ":10146,"IV":10147,"ÏįÏĦÎµÏģÎ¿":10148,"ĠÎ´ÏİÏģÎ±":10149,"ÏĦÎ¿Ïģ":10150,"ich":10151,"ÏĦÎ¿Î½ÎµÏĤ":10152,"Î¹Î½Î·":10153,"ÏįÎ¾Î·":10154,"ĠÏĢÏģÎ¿Î¿ÏģÎ¹ÏĥÎ¼ÏĮ":10155,"ĠÎ¿ÏģÎ³Î±Î½ÏİÏĥÎµÎ¹ÏĤ":10156,"ĠÎłÎ±ÏģÎ±ÏĥÎºÎµÏħÎ®ÏĤ":10157,"ĠÎµÏĢÎ¹ÏĥÎ·Î¼Î±Î¯Î½ÎµÎ¹":10158,"Î»ÎµÎ³Î³ÏįÎ·":10159,"ÎľÎķÎĿ":10160,"ĠÏĢÎ±Î¯ÎºÏĦÎ·ÏĤ":10161,"ĠÎ®Î¸ÎµÎ»Î±Î½":10162,"ĠÎ´Î¯ÎºÎ·":10163,"Ġhttps":10164,"Î¡ÎĻÎŁ":10165,"ĠÎ¼ÏĢÎ¿ÏģÎŃÏĥÎµÎ¹":10166,"ÏĦÏģÎ±ÏĢÎµÎ¯":10167,"ĠÎłÎµÎ¹ÏģÎ±Î¹ÏİÏĤ":10168,"ĠÎ¤Ïĥ":10169,"ĠÎºÎ±Î½Î¬Î»Î¹":10170,"ĠÎ¾ÎµÎºÎ¯Î½Î·ÏĥÎ±Î½":10171,"ĠÏĢÎ±ÏģÎ¿ÏħÏĥÎ¹Î¬Î¶Î¿ÏħÎ½":10172,"ÎĵÎµ":10173,"ĠÎ±ÏĢÎ¿ÏħÏĥÎ¯Î±":10174,"ÎºÎ¿Î½ÏĦÎ±Î¹":10175,"ĠÎµÎ³Î³ÏģÎ¬":10176,"ĠÎ¤ÏĥÎµ":10177,"ĠÏħÎ»Î¹ÎºÎ¿Ïį":10178,"ĠÎ·Î»ÎµÎºÏĦÏģÎ¿Î½Î¹ÎºÎ¬":10179,"ĠÏĢÏģÎ±ÎºÏĦÎ¿":10180,"ĠÎ´Î¹ÎµÏħÎºÏģÎ¹Î½":10181,"ĠÎ¶ÏīÎ½ÏĦÎ±Î½Î¬":10182,"ĠÎ±ÏģÏĩÎ®ÏĤ":10183,"ĠÎĳÏģÎ¹ÏĥÏĦÎµÏģÎ¬":10184,"ÏĦÎ·ÏĥÎ±":10185,"ĠÎ±ÏĢÎµÎ»ÎµÏħÎ¸ÎŃÏģÏīÏĥÎ·":10186,"ĠÎĺÎµÏĥÏĥÎ±Î»Î¯Î±ÏĤ":10187,"Î±ÏĢÎ±":10188,"ĠÎ³Î¯":10189,"ĠÏĥÏħÎ½ÎµÏĩÎ¯Î¶Î¿ÏħÎ½":10190,"ĠÎ¦ÏħÏĥÎ¹ÎºÎ¬":10191,"ĠÏĢÏģÎ¿Î²Î»Îµ":10192,"ÏĥÎµÏĦÎ±Î¹":10193,"ĠÎ±Î½Î¬Î´ÎµÎ¹Î¾Î·":10194,"ĠÎ»Î®Î¾Î·":10195,"ĠÎ±ÎºÎ±Î´Î·Î¼Î±":10196,"ĠÏĩÏģÎ·ÏĥÎ¹Î¼Î¿ÏĢÎ¿Î¹Î·Î¸ÎµÎ¯":10197,"ĠÏĢÏģÎ¿Î¼Î·Î¸ÎµÏħ":10198,"Ġmedia":10199,"ĠÎ·Î³ÎŃÏĦÎµÏĤ":10200,"ĠÎĻÎ¿ÏįÎ½Î¹Î¿":10201,"ĠÏĢÎ¿Î¹ÎµÏĤ":10202,"ĠÎĳÏħÏĦÎ¿Î¯":10203,"ĠÎ·Î¼Î¯":10204,"Î£ÏĩÎ¿Î»":10205,"ĠÏĥÎºÎ¿ÏĦÎµÎ¹":10206,"ÏĩÎ±ÏģÎ¯":10207,"iki":10208,"ĠÎŃÎ³Î³ÏģÎ±ÏĨÎ±":10209,"ĠÏĥÏħÎ½Î´ÏģÎ¿":10210,"ÏĢÏīÏģÎ¿":10211,"ĠÏĢÎ±Î½Î·Î³Ïħ":10212,"ĠÏĢÏģÏīÏĦÎ±Î¸Î»Î·":10213,"ĠÎ³Î¿Ïħ":10214,"ĠÎ³Î¹Î±ÏĦÏģÎ¿Ïį":10215,"Î»ÏİÎ½ÎµÎ¹":10216,"ĠÎ´Î¹Î±Î»ÏĮÎ³Î¿Ïħ":10217,"ĠÎ±ÏĥÏĦÏħÎ½Î¿Î¼Î¹ÎºÎ¿ÏįÏĤ":10218,"Ġ2005":10219,"ĠÎĴÎ±Î³Î³ÎŃ":10220,"pa":10221,"ÎĳÏĢ":10222,"Î±ÏĢ":10223,"ĠÎµÎ½Î´Î¹Î±ÏĨÎŃÏģÎ¿Î½ÏĦÎ¿ÏĤ":10224,"ĠÎµÎ»ÎµÎ³":10225,"].":10226,"ĠÏĦÎµÏĦÏģÎ±":10227,"ĠÎºÎ¬Î½Î±Î¼Îµ":10228,"ĠÏĥÎ¿ÏįÏĢÎµÏģ":10229,"Î±ÏĥÎ¹ÏİÎ½":10230,"ÎºÏĦÎ·Î¼Î±":10231,"ĠÏĥÏĦÎµÎ»ÎµÏĩÏİÎ½":10232,"ĠÎĳÏģÏĩÎ®":10233,"ĠÎ¿Î¾Ïį":10234,"ĠÏģÏħÎ¸Î¼Î¿ÏįÏĤ":10235,"ĠÎ±ÏģÏĩÎ·Î³ÏĮÏĤ":10236,"ĠÎļÎ¿Î»Î¿":10237,"ĠÏĢÎµÏĦÎ¬":10238,"ĠÎ»Î±Î¼ÏĢ":10239,"ĠÎºÎ±Î»ÏįÏĢÏĦÎµÎ¹":10240,"ĠÎ¬Î½Î¿Î´Î¿":10241,"ÎłÎŁÎ¡":10242,"ĠÎ¤ÏģÏĮ":10243,"ĠÎ¬Î»Î»Î¿ÏĦÎµ":10244,"ÏĨÏħÎ»Î±":10245,"53":10246,"ĠÎķÏĢÎ¹ÎºÎ¿Î¹Î½ÏīÎ½Î¯Î±":10247,"ĠÏĥÏĦÎ±Î¼Î¬":10248,"ĠÎºÎ±ÏĦÎ¬Î»Î»Î·Î»Î¿":10249,"ĠÎ¼Î¹ÎºÏģÎ¿Ïį":10250,"ĠÎ±ÏģÏĩÎµÎ¯Î±":10251,"ĠÏĦÎ¿ÏįÏĦÎ¿":10252,"ĠÎĴÏĮÎ»Î¿Ïħ":10253,"ÏĦÏĦÎ±ÏģÎ±":10254,"ÏĥÏĦÎ±Î¸ÎµÎ¯":10255,"Î´ÎµÎ¹Î¾Îµ":10256,"Î¼Î¬ÏĦÎ±ÏĤ":10257,"ĠÎºÎ¹Î½Î®Î¼Î±ÏĦÎ¿ÏĤ":10258,"Î£Î¬":10259,"ĠÎ³Î½ÏīÏģÎ¯Î¶ÎµÏĦÎµ":10260,"ĠÎ½Î¹ÎºÎ®":10261,"ÏĥÎ¹Î¿Ïħ":10262,"ĠÎµÎºÎµÎ¯Î½ÎµÏĤ":10263,"ÏģÎ¹Î¶Î±":10264,"ÏĨÎµÎ»":10265,"ÏģÏİÏĥÏĦÎµ":10266,"Î»Î±ÏĦÎ¿":10267,"ĠÎ±ÏħÏĦÎ¿ÎºÎ¹Î½Î·":10268,"ver":10269,"ÏįÏĦÎµÏģÎ±":10270,"ĠÎ£ÎŁÎ¥":10271,"ĠÎłÏģÏīÏĦÎ±":10272,"ĠÏĢÎµÏģÎ¹Î»Î±Î¼Î²Î¬Î½Î¿Î½ÏĦÎ±Î¹":10273,"Î¹Î¿Î½Î´Î®ÏĢÎ¿ÏĦÎµ":10274,"Î´ÏįÎ½Î±":10275,"ĠÎŃÏģÎ¹":10276,"ĠÏħÏĢÎ±Î»Î»Î®Î»ÏīÎ½":10277,"ĠÎµÏĢÎ¹ÏĩÎµÎ¹ÏģÎ·":10278,"ĠÎĳÏģÏĩÎ±Î¹Î¿":10279,"ĠÏĨÏĦÎ±Î¯":10280,"Î¼ÏĢÎµÏģÎ¹Î±Î»Î¹Ïĥ":10281,"ĠÏĥÏħÎ½Î±Î½ÏĦÎ®ÏĥÎµÎ¹ÏĤ":10282,"ĠÎ±ÏģÎ¹Ïĥ":10283,"ĠÎ¸ÏħÎ¼Î¯Î¶ÎµÎ¹":10284,"ĠÎĶÎ¹ÎºÎ±Î¹Î¿ÏĥÏįÎ½Î·ÏĤ":10285,"ĠÎºÎ¿Î¹Î½Î¿Î²Î¿ÏħÎ»ÎµÏħ":10286,"Video":10287,"ÎľÎ¹Îº":10288,"Ġth":10289,"Î¡ÎĳÎĵ":10290,"ÏĪÏħÏĩ":10291,"ĠÏĢÎµÏģÎ¹Î»Î±Î¼Î²Î¬Î½Î¿ÏħÎ½":10292,"ĠÎºÎ±ÏģÎŃ":10293,"ĠÎ´Î·Î¼Î¿ÏĥÎ¹ÏĮÏĦÎ·ÏĦÎ±":10294,"ĠÎ¼Î¿Î½Î¬Î´ÏīÎ½":10295,"ĠBar":10296,"ĠÏĦÎµÎ»ÎµÎ¹ÏİÏĥÎµÎ¹":10297,"ĠÎµÎ¹ÏĥÏĢÏģÎ¬":10298,"ĠÎºÎ±Î»ÏįÏĦÎµÏģÎ¿ÏĤ":10299,"Î¼Î±ÏĦÎ¹ÎºÏĮ":10300,"ĠÎ¦Î±Ïģ":10301,"Î£ÏħÎ³Îº":10302,"ĠÎĳÏĨÎ¿Ïį":10303,"ĠÏħÏĢÎ¿ÏĪÎ·ÏĨ":10304,"row":10305,"ĠÎ²Î¿Î·Î¸Î¬ÎµÎ¹":10306,"ĠÎĪÏĩÎ¿ÏħÎ¼Îµ":10307,"Î¸ÎµÏģÎ±ÏĢÎµÎ¯Î±":10308,"ĠÏĦÏģÎ¿ÏĨÎ¿":10309,"ĠÎ¼Î¿Î½ÏĦÎŃÎ»Î±":10310,"ĠÎĵÎ½Ïī":10311,"Î©Î¡Îĳ":10312,"Î¦Î©Î¤ÎŁ":10313,"ÏģÎ³ÏīÎ½":10314,"ÏĥÎ¹Î±ÎºÎ®":10315,"ĠÎ³ÎŃÏĨÏħ":10316,"ĠÏģÎµÏħÏĥ":10317,"ĠÎ¼Î½Î®Î¼Î·ÏĤ":10318,"ĠÎ¿ÏĩÎ·Î¼Î¬ÏĦÏīÎ½":10319,"ĠÎµÏĢÎ¯ÎºÎµÎ½ÏĦÏģÎ¿":10320,"ĠÏĥÎºÎ»Î·ÏģÏĮ":10321,"ĠÎµÏħÎ³ÎµÎ½":10322,"ena":10323,"ÏĥÏĦÎµÎ¯Î±":10324,"ÏįÏģÏī":10325,"ÏģÎºÎµÎ¹Î±":10326,"ĠÎ¼ÎŃÎ»Î¹":10327,"ĠÏĥÏħÎ½ÎµÎ¯Î´Î·ÏĥÎ·":10328,"ĠâĨĴ":10329,"Î¹ÏĥÎ®":10330,"Î½Î®ÏĥÎ¿Ïħ":10331,"ĠÏĥÎºÎ»Î·ÏģÎ®":10332,"ÏĦÎ¬ÏģÎ¹Î±":10333,"ĠÎ´Î¹Î±ÏĦÏģÎ¿ÏĨ":10334,"Î·ÏĦÎµÏħ":10335,"ĠÎ£ÎµÏģÏģÏİÎ½":10336,"ĠÎ±ÏĢÎ±Ïģ":10337,"ĠÎ±ÏĢÎ¿ÏĦÏħÏĢ":10338,"ĠÎ´Î·Î¼ÏĮÏĥÎ¹Î±ÏĤ":10339,"ÏĦÎ¬ÏģÎ¹":10340,"ĠÏĨÎµÏĥÏĦÎ¹Î²Î¬Î»":10341,"Î¼Î¬Ïģ":10342,"ĠÎ±Î½Î±ÏĨÎ¿ÏģÎ¹ÎºÎ¬":10343,"ĠÏĢÎ¿Î»ÏħÏĦÎµ":10344,"ĠÎ§ÏģÎ¹ÏĥÏĦÏĮÏĤ":10345,"ÏĨÎµÏħ":10346,"ĠÎ³ÎµÎ³Î¿Î½ÏĮ":10347,"Î³Î³Î±":10348,"ÏİÎ½Î¿ÏħÎ¼Îµ":10349,"ĠÎ¸ÎµÏĦÎ¹ÎºÏĮ":10350,"ĠÏĢÎµÏģÎ¹ÏĥÏĥÏĮÏĦÎµÏģÎ·":10351,";)":10352,"ĠÎºÎ±ÏĦÎ±ÏĢÎ»Î·":10353,"ÏģÎ¯ÏĥÎ¼Î±ÏĦÎ±":10354,"ĠÎµÎ³Î³Ïį":10355,"ĠÏĪÏīÎ¼Î¯":10356,"ĠÏĥÏħÎ½ÎµÏģÎ³Î±":10357,"Î¬Î»Î»Î¿Ïħ":10358,"ĠÏĢÎ½ÎµÏħÎ¼Î±ÏĦÎ¹ÎºÎ®":10359,"Î²Î¬ÏĦÎ¿Ïħ":10360,"ĠÎ¼Î¿Î½ÏĮ":10361,"ĠÏĢÏģÎ¿ÏĢÏĮÎ½Î·ÏĥÎ·":10362,"ĠÎ±ÏģÎºÎµÏĦÏĮ":10363,"ĠÎ»Î±Î¼Î²Î¬Î½ÎµÎ¹":10364,"ĠÎ§Î±Î»ÎºÎ¹Î´":10365,"Î¸ÏģÎ±Îº":10366,"ÎķÎ¤Îķ":10367,"ĠÎ³ÎµÎ¼Î¬ÏĦÎ·":10368,"ĠÏĦÎµÎ»ÎµÎ¯ÏīÏĤ":10369,"ĠÎ¼ÎµÎ¹Î¿Î½":10370,"ĠÎķÎ»ÏĢ":10371,"ĠÎ±Î½Î±ÏĢÏĮ":10372,"ĠÏĢÏģÎ±Î³Î¼Î±ÏĦÎ¿ÏĢÎ¿Î¹ÎµÎ¯ÏĦÎ±Î¹":10373,"ÎľÎ±ÎºÎµÎ´Î¿Î½":10374,"ÎŃÎ½ÏĦÎ±":10375,"ÎĻÎļÎĹÎ£":10376,"ĠÏĨÎ¬Î½Î·":10377,"Î¼Î¬ÏģÏĩÎ¿Ïħ":10378,"ĠÏĢÏģÎ¿ÏĥÏİÏĢÏīÎ½":10379,"ĠÎ±Î»Î»Î·Î»ÎµÎ³Î³ÏįÎ·ÏĤ":10380,"ĠÏĥÏħÎ¼ÏĨÎµ":10381,"ĠÏĦÎ¿ÏĢÎ¯Î¿":10382,"ĠÎ¼ÏĢÎ¬Î½Î¹Î¿":10383,"ĠÏĢÏīÎ»Î®ÏĥÎµÎ¹ÏĤ":10384,"ĠÎļÏģÎ¯":10385,"ĠÎŁÎ¹ÎºÎ¿Î½Î¿Î¼Î¯Î±ÏĤ":10386,"ĠÎ£ÏħÎ½ÏĦÎ¬Î³Î¼Î±ÏĦÎ¿ÏĤ":10387,"ĠÏĨÏĦÎ¹Î±":10388,"Î¹ÏĦ":10389,"ÎłÎ±Î½":10390,"ĠÏĦÎ¹Î¼ÏİÎ½":10391,"ĠÎ»Î±ÏĩÎ±Î½Î¹ÎºÎ¬":10392,"ĠÏĢÎ¹Î¸Î±Î½ÏĮÏĦÎ·ÏĦÎµÏĤ":10393,"ÏĢÏĦÎµÎ¹":10394,"ĠÎĿÏĦÎ¹":10395,"ĠÎ±Î½Î±ÏĢÎ±ÏģÎ±Î³Ïī":10396,"ĠÎµÎºÎ±ÏĦÎ¿Î¼Î¼ÏħÏģÎ¯ÏīÎ½":10397,"ĠÎ¨Î·":10398,"ĠÎµÏĢÎ¹ÏĢÎŃÎ´Î¿Ïħ":10399,"ĠÏĨÎ¹Î»Î¿ÏĥÎ¿ÏĨÎ¯Î±":10400,"ĠÎĹÏģÎ±ÎºÎ»ÎµÎ¯Î¿Ïħ":10401,"ĠYou":10402,"ĠÏĢÎŃÏģÏħÏĥÎ¹":10403,"ÏīÎ½Î¯Î±":10404,"ĠÏĥÏħÎ½ÏĦÎ¬Î¾ÎµÏīÎ½":10405,"ĠÎķÎ»Î²Îµ":10406,"ames":10407,"ĠÎŁÎ¼Î¬Î´Î±":10408,"ern":10409,"CO":10410,"ÎŃÏģÎ¹Î¿":10411,"ĠÎµÏĢÎ¹ÏĥÏĦÎ®Î¼Î·":10412,"ĠÎ±ÎºÎ¿":10413,"ĠÎłÏħÏģÎ¿":10414,"ĠÎ¤ÎĻÎ£":10415,"ÎĴÏģÎ¯":10416,"ĠÎµÎ¹Î´ÏİÎ½":10417,"ĠÎĻÏĥÏĦÎ¿ÏģÎ¯Î±ÏĤ":10418,"ĠÎłÎ±Î½Î±Î¸Î·Î½Î±ÏĬÎºÎ¿Ïį":10419,"ĠÎķÏĦÎ±Î¹ÏģÎµÎ¯Î±":10420,"Î¯ÏĥÎ±Î¹":10421,"ĠÎŀÎŃ":10422,"ĠÏĥÎ±Î»":10423,"ĠÏĢÏģÎ¿ÏĥÏĨÎŃÏģÎ¿ÏħÎ¼Îµ":10424,"ĠÎ±Î½Î¬Î³ÎºÎ·ÏĤ":10425,"ÏĨÎ±Î½ÏİÏĤ":10426,"ÏĥÏĢÎ¹Ïĥ":10427,"ĠÎ±Î½Î±Î¼ÎŃÏĦÏģÎ·ÏĥÎ·":10428,"ĠÎŃÎºÏģÎ·":10429,"ĠÎ¹Î´Î¹Î¿ÎºÏĦÎ®ÏĦÎµÏĤ":10430,"ÎºÏħÏĥ":10431,"ĠÂ·":10432,"Î¶ÏİÎ½Î·ÏĤ":10433,"ĠÎºÏģÎ¬ÏĦÎ·ÏĥÎ·":10434,"ĠÎ´Î¹Î±ÏģÎºÏİÏĤ":10435,"á¿ĨÏĤ":10436,"ĠÏĢÎ±ÏģÎµÎ¼Î²Î¬ÏĥÎµÎ¹ÏĤ":10437,"ĠÎ²Î¹Î¿Î¼Î·ÏĩÎ±Î½Î¯Î±":10438,"ĠÎ³Î¹Î±ÏĦÏģÎ¿Î¯":10439,"ĠÏĢÏģÎ¿ÏĥÎ±Î½Î±ÏĦÎ¿":10440,"ĠÏĢÎŃÏĨÏĦÎµÎ¹":10441,"ĠÎµÎ¹ÏĥÎŃ":10442,"ĠÏĢÎ±ÏģÎ±ÎºÎ¿Î»Î¿ÏħÎ¸Î®":10443,"Î»ÎµÏĥÎ±Î½":10444,"ĠÎ±Î½Ïħ":10445,"ĠÎ£ÏĩÎ¿Î»ÎµÎ¯Î¿":10446,"ĠÎµÏģÎ±ÏĥÎ¹ÏĦÎµÏĩÎ½":10447,"ÏģÎµÏħÏĥÎ·ÏĤ":10448,"ÏģÎ¹Î±ÎºÎ¬":10449,"ÏĦÎµÏģÎ¬":10450,"ĠÎ´ÎŃÏģÎ¼Î±ÏĦÎ¿ÏĤ":10451,"Ġ09":10452,"ĠÎ±ÎºÎ¿Î»Î¿ÏįÎ¸Î·ÏĥÎµ":10453,"ÎºÏģÎ¹Î½Îµ":10454,"ĠÎ³ÎµÎ¯":10455,"ĠÎĳÏħÏĦÎ¿Î´Î¹Î¿":10456,"ĠÎµÏĢÎ¹Î»ÎµÎ³":10457,"Î¼ÎµÎ½Î¿Ïħ":10458,"ĠÎ±ÎºÎ±":10459,"ĠÏĩÏģÎ®ÏĥÏĦÎ·ÏĤ":10460,"ĠÎµÏĢÎ¹Î´ÎµÎ¯":10461,"ĠÏĢÏģÏĮÏĥÎºÎ»Î·ÏĥÎ·":10462,"ĠÎµÎ½Î´ÎµÏĩÎ¿Î¼ÎŃÎ½ÏīÏĤ":10463,"ĠÎ£ÏħÎ³ÎºÎµÎºÏģÎ¹Î¼ÎŃÎ½Î±":10464,"ĠÏĥÏįÎ½ÏĦÏģÎ¿":10465,"ĠÎ±ÏĢÎ¿ÎºÎ¬Î»ÏħÏĪÎµ":10466,"ÏĨÏįÎ»Î±Î¾Î·":10467,"ÏĥÏĦÎŃ":10468,"ĠÎ±ÏĢÎ¿ÏĨÎ±ÏĥÎ¯ÏĥÎµÎ¹":10469,"ĠÎµÎ¼ÏĨÎ±Î½Î¯ÏĥÎµÎ¹ÏĤ":10470,"ĠÏĩÎ±ÏģÏĦÎ¿":10471,"ÏģÎ³Î±Î½Î¿":10472,"Î¸Î¿Ïį":10473,"ĠÎ¬Î¼ÏħÎ½Î±":10474,"ĠÎ±Î½Î±Î¼ÎµÎ½ÏĮ":10475,"ĠÎ³Î¹Î±ÏĦÏģÏĮ":10476,"ÎºÎ±ÏĦÎ¿Î¹Îº":10477,"ĠÎ±Î¾Î¹Î¿ÏĢÎ¿Î¯Î·ÏĥÎ·":10478,"ĠÎĽÎ¿Ïį":10479,"ĠÎ´Î¹ÎºÎ¿":10480,"ĠÏĩÎ±ÏģÎ±ÎºÏĦÎ®ÏģÎ¹":10481,"ÏģÏİÏĤ":10482,"ĠÎ¹Î±ÏĦÏģÎ¹ÎºÎ®":10483,"ÏĨÏĮÏģÎ¿ÏĤ":10484,"for":10485,"ÏĥÏħÏģ":10486,"Î³ÎµÏģÏĥÎ·":10487,"ĠÎŃÎºÏĨÏģÎ±ÏĥÎ·":10488,"ĠÎĳÎ½ÎµÎ¾":10489,"ĠÏĥÏįÎ³ÏĩÏģÎ¿Î½Î¿":10490,"ĠÎ´Î¹ÎµÎºÎ´Î¹Îº":10491,"ĠÏĦÎ¿ÏħÏģ":10492,"ĠÏĦÎµÎºÎ¼Î·":10493,"ÏĢÎ¹Î¬":10494,"ÏĦÎ®Î¼Î¹Î±":10495,"ĠÎĬÎ´ÏģÏħ":10496,"Î±ÏģÎ¹ÏĥÏĦÎµ":10497,"pics":10498,"ĠÎ±Î½ÏĦÎ¹ÏĢ":10499,"ĠÏĦÎ±ÏĢÎµÎ¹":10500,"ÏģÏİÏĥÎµÏĦÎµ":10501,"ĠÎĵÎ±Î»Î»Î¯Î±ÏĤ":10502,"ĠÏĢÎ»Î·ÏģÏİÏĥÎµÎ¹":10503,"ĠÎłÏģÎ¿ÏĬÏĮÎ½":10504,"ĠÎĳÏįÎ³Î¿ÏħÏĥÏĦÎ¿":10505,"ĠÎ´Î¹Î±Î¸ÎŃÏĥÎ¹Î¼Î¿":10506,"ĠÎ´Î¹Î±ÏĥÎºÎŃÎ´Î±":10507,"ĠÏħÏĢÎ¿ÏĪÎ®ÏĨÎ¹Î¿ÏĤ":10508,"ĠÎŃÎºÎ»ÎµÎ¹ÏĥÎµ":10509,"ĠÎºÎ±Î¸ÎµÏĥÏĦÏİ":10510,"ÏĨÎ¬Î»Î¹ÏĥÎ·":10511,"ÏĦÏĥÎ¿Ïį":10512,"ĠÎµÏħÏģÏįÏĦÎµÏģÎ·":10513,"ĠÏĥÎ·Î¼Î¬Î´Î¹Î±":10514,"ĠÎ±ÏĢÏĮÎ»ÏħÏĦÎ¿":10515,"ĠÎºÎ±Î¸Î®ÎºÎ¿Î½":10516,"ĠÎŃÎºÎ¸ÎµÏĥÎ·ÏĤ":10517,"ĠÎ¿Î¹ÎºÎ¿Î³ÎŃÎ½ÎµÎ¹Î¬":10518,"66":10519,"ĠÏĨÏģÎ¿Î½ÏĦÎ¯Î´Î±":10520,"ĠÎ±ÏĢÎ¿Î¸Î®":10521,"ĠÏĦÏįÏĢÎ¿ÏĤ":10522,"ĠÎ±Î½ÏĦÎ¯ÏĥÏĦÎ¿Î¹ÏĩÎ¿":10523,"ĠÎ±Î½Î±Î»ÏħÏĦÎ¹ÎºÎ¬":10524,"ÎĳÎ³Î±ÏĢÎ·":10525,"ÎľÎ¬Î»Î¹ÏĥÏĦÎ±":10526,"ĠÏĢÎ¹ÏĥÏĦÎŃ":10527,"ÎºÏģÎ¬ÏĦÎµÏĤ":10528,"ĠÎµÏĢÎ¹ÎºÎ±Î¹ÏģÏĮÏĦÎ·ÏĦÎ±":10529,"ĠÎµÏĢÎ¹Î²Î±":10530,"Î¸ÏįÎ¼Î·":10531,"ĠÎµÎ¹ÏĥÎ¿Î´Î®Î¼Î±ÏĦÎ¿ÏĤ":10532,"ĠÏĥÏĦÎ¿Î¹ÏĩÎµÎ¹":10533,"ĠÏĥÏħÎ¼ÏĢÎµÏģÎ¬":10534,"ĠÎłÎ±ÏĢ":10535,"58":10536,"ĠÎµÏĢÎ±Î³Î³ÎµÎ»Î¼Î±ÏĦÎ¹ÎºÎ®":10537,"ÎµÎ¹Î´":10538,"ĠÎ±Î½ÏĦÎ¹ÏĢÎ¿Î»Î¯ÏĦÎµÏħÏĥÎ·ÏĤ":10539,"ÏģÎ¯ÏĥÎµÎ¹ÏĤ":10540,"ĠÎ´Î·Î¼Î¿ÏĥÎ¯Î¿Ïħ":10541,"ĠÎ´Î¹Î±Î´Î¹ÎºÏĦÏįÎ¿Ïħ":10542,"ĠApple":10543,"Î»ÎŃÏĦÎµÏĤ":10544,"ĠÎ¸ÎµÎ»":10545,"ĠÏĢÎ¿Î´Î¿ÏĥÏĨÎ±Î¯ÏģÎ¿Ïħ":10546,"Î¯Î¸":10547,"á½»":10548,"ĠÏĥÏĦÎ¬Î¸":10549,"Î·Î»":10550,"ĠÎĳÏĥÏĨÎ±":10551,"ĠÏĢÏģÎ¿ÏĩÏİÏģÎ·ÏĥÎµ":10552,"ĠÎĶÎ¹Î¿Î¯ÎºÎ·ÏĥÎ·ÏĤ":10553,"ĠÎµÎ»Î±Î¹ÏĮÎ»Î±":10554,"ĠÎºÎ±ÏĦÎŃÎ»Î·Î¾Îµ":10555,"Î³Î¼ÎŃÎ½Î¿":10556,"ĠÎķÏĢÎ±Î³Î³ÎµÎ»Î¼Î±":10557,"ÏģÏĩÎ¿":10558,"yl":10559,"ĠÎ´Î¹Î¬ÏĦÎ±Î¾Î·":10560,"ÎľÎĴ":10561,"ĠÎ±ÏĥÏħ":10562,"Î¬Î³":10563,"ĠÏĦÎ®":10564,"ĠÏĢÏģÎ¿Î·Î³Î¿ÏįÎ¼ÎµÎ½ÎµÏĤ":10565,"ĠÏĦÎµÏģ":10566,"Î¼ÎŃÏĦÏī":10567,"ĠÏĨÏįÎ»Î±":10568,"ĠÎ¾ÎµÎºÎ¹Î½Î¬ÎµÎ¹":10569,"err":10570,"ĠOnsports":10571,"Î¼ÏĢÎ¬Î¼Î±":10572,"ĠÎľÎ¬Î¹Î¿":10573,"ĠÎ³ÎºÎ¬":10574,"ĠÎ±ÏĢÏĮÎºÏĦÎ·ÏĥÎ·":10575,"ĠÎ·Î»Î¹Î±":10576,"ĠÎ¼ÎµÎ³Î¬Î»Î¿ÏħÏĤ":10577,"ĠÎºÎ»ÎµÎ¯ÏĥÎ¹Î¼Î¿":10578,"ĠÎµÎ½Î¹ÏĥÏĩÏħ":10579,"ĠÎĪÎ½":10580,"ĠÎ´Î¹Î´Î±ÏĥÎºÎ±Î»Î¯Î±":10581,"ĠÎµÏĢÎ¹ÏĥÎ·":10582,"ĠÎ±ÎµÏģÎ¯Î¿Ïħ":10583,"ÏĥÎ¿ÏħÎ¬Ïģ":10584,"ĠÏĩÏģÎ·ÏĥÏĦÏİÎ½":10585,"ĠÎºÎ±Î»Î·":10586,"ĠÏĥÏħÎ½Î·Î¸":10587,"ĠÎĵÎ¬Î»":10588,"Ġ44":10589,"ÏĨÏģÎ±Ïĥ":10590,"Ġ42":10591,"ĠÎłÏħ":10592,"ĠÎ½ÏĦÎŃÏģÎ¼ÏĢÎ¹":10593,"ÎºÎ»Î¬":10594,"ĠÎ´Î¹Î¬ÏĥÏī":10595,"ĠMicrosoft":10596,"Î´Î¹Î±Î¯ÏĦÎµ":10597,"ĠÎºÎ±ÏĦÎ±Î²Î¿Î»Î®":10598,"Î»Î¿ÏħÎ¼Îµ":10599,"ĠÎ±Î½Î±Î³ÎºÏİÎ½":10600,"ÏĩÏģÎ¿Î½ÎµÏĤ":10601,"ĠÎµÎºÎºÏģÎµ":10602,"ÏįÏģÏīÏĥÎ·":10603,"ĠÏĥÎºÎ·Î½Î¹ÎºÏĮ":10604,"ÎºÎµÎ¯Î¿":10605,"ĠÎ§ÏģÎ·ÏĥÎ¹Î¼Î¿ÏĢÎ¿Î¹":10606,"ĠÎĴÎµÎ½Î¹Î¶ÎŃÎ»Î¿ÏĤ":10607,"ÎļÎĽ":10608,"ÏĩÎ½Î¿Î½ÏĦÎ±ÏĤ":10609,"Î´Î¿Î¾Î¯Î±":10610,"ĠÎłÏģÎ±Îº":10611,"low":10612,"ĠÎĽÎ¹Î²":10613,"ĠÎĽÎµÏħÎºÏī":10614,"ĠÏĥÏħÎ½ÎŃÏĩÎ¹ÏĥÎµ":10615,"ubl":10616,"ĠÎŃÎ²Î±":10617,"ĠÏĢÏģÏīÏĦÎ¿ÏĥÎŃÎ»Î¹":10618,"ĠÏĥÏħÎ½Î±ÏħÎ»Î¯Î±":10619,"ĠÎ¼ÏĢÎ¿ÏģÎ¿ÏįÏĥÎ±":10620,"ÎĵÎ½Ïī":10621,"ĠÏģÎµÎ±Î»":10622,"ÏĮÏģÎ±":10623,"ĠÎ£ÎºÏĮÏĢÎ¹Î±":10624,"ĠÎŁÎ¹ÎºÎ¿ÏħÎ¼ÎµÎ½":10625,"air":10626,"ĠÏĢÏģÎ¿ÎµÎ¹Î´Î¿":10627,"ĠÎµÏĢÎ±Î½Î±Î»Î±Î¼Î²":10628,"ĠÏĦÎµÎ»ÎµÏħÏĦÎ±Î¯ÏīÎ½":10629,"ĠÎµÎ¾Î±ÎºÎ¿Î»Î¿ÏħÎ¸ÎµÎ¯":10630,"ĠÎķÎ³Îº":10631,"ĠÎĳÎ½Î´ÏģÎŃÎ±":10632,"ĠÏĥÏħÎ½ÏĦÎ·ÏģÎ·":10633,"ÏģÏħÏĥÎ¿":10634,"Î»ÏīÎ²":10635,"orld":10636,"Â»;":10637,"Î½Î¿Î¼Î®ÏĤ":10638,"ĠÎ±ÏģÏĩÏİÎ½":10639,"ĠÏĢÎµÏģÎ±ÏĥÎ¼ÎŃÎ½Î·":10640,"ĠÎ±Î½Î±Î½ÎŃ":10641,"roid":10642,"ĠÎµÎ¾ÎŃÏĨÏģÎ±ÏĥÎµ":10643,"ÏģÎ¬Î½ÏĦÎ±":10644,"ĠÎµÏĥÎŃÎ½Î±":10645,"ÎĺÎŃÎ»Ïī":10646,"ĠÎ¤Î¿ÏįÏģÎºÎ¿ÏħÏĤ":10647,"ĠÏĥÏĢÎ¿ÏħÎ´ÎŃÏĤ":10648,"ÎĶÎµÎ»":10649,"Î½ÎµÎ¹ÏĤ":10650,"ĠÏĥÎ¬Î»":10651,"ĠÎļÏīÎ½ÏĥÏĦÎ±Î½ÏĦÎ¯Î½Î¿Ïħ":10652,"ĠÎ±ÏģÎ¼ÏĮÎ´Î¹Î±":10653,"ĠÎµÎ½ÏĦÏħÏĢÏīÏĥÎ¹Î±ÎºÏĮ":10654,"ÎŃÏģÎ³ÎµÎ¹ÎµÏĤ":10655,"ĠÎĹÎ½ÏīÎ¼ÎŃÎ½ÎµÏĤ":10656,"ĠÏĥÎ·Î¼ÎµÎ¹ÏİÎ¸Î·ÎºÎµ":10657,"ÎĺÎĹ":10658,"ÏĦÏģÎ±Î³":10659,"Î¬Î¶Î¿ÏħÎ¼Îµ":10660,"ÎłÏģÎ¬":10661,"ĠÏĢÎµÎ½ÏĦÎ±":10662,"ĠÎĳÎ³Î³Î»Î¯Î±":10663,"ĠÎµÏĥÏĦÎ¯Î±":10664,"ĠÎ¥Î³ÎµÎ¯Î±":10665,"ĠÏĦÏĥÎ¹Î³Î¬":10666,"ĠÏĢÏģÎ¿ÏĢÎ±Î³":10667,"ĠÎ¹Î´Î¹ÏīÏĦÎ¹ÎºÎ¿":10668,"ĠÏĦÎµÏĩÎ½Î·":10669,"57":10670,"ĠÎ±Î»Î¬ÏĦÎ¹":10671,"ĠÎ²Î¹Î½":10672,"ĠÎ§ÏģÏħÏĥÎ®":10673,"ÏģÏĩÎ¿ÏĤ":10674,"ÏīÎ¾Î·":10675,"Î´ÏĮÏĦÎµÏĤ":10676,"ĠÎ´ÏįÏĥÎºÎ¿Î»ÎµÏĤ":10677,"ÏĥÏĦÏģÎ¬":10678,"ĠÎµÏģÎµ":10679,"ĠÎµÎ¾ÏħÏĢÎ·ÏģÎŃÏĦÎ·ÏĥÎ·":10680,"ĠÎĺÏģÎ·ÏĥÎºÎµÏħ":10681,"ĠÎ¼Î±ÏĩÎ±":10682,"ĠÎ±Î¹Î¼Î¿":10683,"ĠÏĩÏģÎ·ÏĥÎ¹Î¼Î¿ÏĢÎ¿Î¹Î·Î¸Î¿ÏįÎ½":10684,"ĠÏĪÏħÎ³":10685,"ild":10686,"ĠÏĥÏĢÎ¬Î½Î¹Î±":10687,"ĠÎ±ÏĢÎ±ÏĥÏĩÏĮÎ»Î·ÏĥÎ·ÏĤ":10688,"ĠÎ²Î³Î¬Î¶ÎµÎ¹":10689,"ĠÎ¬ÏģÎ±Î³Îµ":10690,"ĠÎ±Î³Î¹Î¬Î¶Î¹":10691,"ĠÎºÎ±ÏĦÎ±Î³Î³ÎŃ":10692,"ĠÏħÏĢÎ¿Î³ÏģÎ±Î¼Î¼":10693,"ĠAR":10694,"ĠÎŃÎ¼ÏĢÎµÎ¹":10695,"ĠÎĺÎ±Î½Î¬":10696,"ÏĨÎ¬Î»Î¿Ïħ":10697,"Î¿Î»ÏĮÎ³Î¿ÏĤ":10698,"Ġlive":10699,"ĠÎ±ÏĢÎ¿Î»Î¿Î³":10700,"ĠÎŁÎ§ÎĻ":10701,"ĠÎµÎ³ÏĩÏİ":10702,"ĠÎ¿Î»Î¿ÎºÎ»Î·ÏģÏİÎ¸Î·ÎºÎµ":10703,"ĠÏĥÏħÎ½ÏĦÎ±Î¾Î¹Î¿":10704,"ĠÎºÎ»Î¬Î´Î¿":10705,"ĠÎ±ÏħÏĦÏĮÎ¼Î±ÏĦÎ±":10706,"FA":10707,"ĠÎļÎ¬Ïģ":10708,"ĠÎºÏħÏģÎ¹Î±ÏģÏĩÎ¯Î±":10709,"ĠÎ£ÏħÎ½ÎµÏģÎ³":10710,"ÎµÏĨ":10711,"ĠÎ¿ÏħÏĥÎ¯ÎµÏĤ":10712,"ĠÎ³ÎµÎ¼Î¬ÏĦÎ¿":10713,"ĠÎ¬Î½ÏĦÏģÎ±ÏĤ":10714,"Î¬ÏģÎ·":10715,"ĠÏĢÎ±Î¹Î´Î¹ÎºÎ®":10716,"ĠÎ¿ÏģÎ³Î±Î½Î¹ÏĥÎ¼Î¿Ïį":10717,"ĠÎ³ÎµÏħ":10718,"ĠÎłÎ¿Î½":10719,"ĠÎĻÏīÎ¬Î½Î½Î·":10720,"ĠÎµÎ»Î»Î·Î½Î¿":10721,"ĠÎķÎļÎ¤":10722,"ÎºÏģÏīÏĤ":10723,"ÎºÎºÎ¹Î½":10724,"oto":10725,"Î»Î¹Î¬ÏĤ":10726,"ĠÎ±ÏĢÎ¿ÏĥÏĢÎ¬":10727,"Ġ07":10728,"ĠÎºÏģÎŃÎ±ÏĤ":10729,"Î´ÏħÏĥ":10730,"ĠÎĿÎķ":10731,"ĠÏĨÎ¿ÏģÎŃÎ±":10732,"ĠÏĢÎ±ÏģÏĮÎ½ÏĦÎ¿ÏĤ":10733,"ĠÏĢÎ±ÏģÎ±ÏĥÏĦÎ¬ÏĥÎµÎ¹ÏĤ":10734,"ĠÎºÏģÏįÎ¿":10735,"ĠÎĳÎ½Î´ÏģÎŃÎ±ÏĤ":10736,"ĠÎ±Î½ÏİÏĦÎ±":10737,"ÎłÎ»Î·ÏģÎ¿ÏĨÎ¿ÏģÎ¯ÎµÏĤ":10738,"ĠÎ³ÎµÏģÎ¼Î±Î½Î¹ÎºÎ®":10739,"ÎłÏģÎ¿ÏĤ":10740,"ÎĶÎ¹Îµ":10741,"ÏĦÏģÎ¹Î±ÏĤ":10742,"Ġ(Â«":10743,"ĠÎµÎ¯Î´Î±Î¼Îµ":10744,"ĠÎµÎ¾ÎµÎ»Î¹":10745,"Î´ÎµÏįÎµÎ¹":10746,"ÏĦÎ¿ÏįÎ¼ÎµÎ½Î¿":10747,"ĠÏĦÎ±Î¾Î¹Î´ÎŃ":10748,"Î¼ÎµÏĦÏģÎ¿":10749,"ĠÏĥÏĦÏģÎ±ÏĦÎ¹ÏīÏĦÎ¹ÎºÎ®":10750,"ÏģÎ³Îº":10751,"ĠÎĺÎŃÎ¼Î±":10752,"ÏĢÎ¹Î¿Î½":10753,"ĠÎķÏģÏī":10754,"ĠÏĢÏĦÎ®ÏĥÎµÎ¹ÏĤ":10755,"Ġcom":10756,"ĠÎ´Î¹Î±ÏĨÏĮÏģÏīÎ½":10757,"ĠIS":10758,"ĠÎ±ÏĥÏĦÎŃ":10759,"ÎłÎµÏģÎ¹ÏĥÏĥÏĮÏĦÎµÏģÎµÏĤ":10760,"ĠÎŃÎ³ÎºÎ±Î¹":10761,"ĠÎµÎ´":10762,"ĠÎ´ÎŃÏĥÎ¼Îµ":10763,"ĠÏĢÏģÎ¿ÏĢÎ¿Î½Î·ÏĦÎ®":10764,"ĠÎ±ÏĢÎ¿ÏģÏģÎ¿":10765,"ĠÏĥÏħÎ¼Î¼ÎµÏĦÎŃÏĩÎ¿Î½ÏĦÎµÏĤ":10766,"ĠÎºÎ¬ÏĢÎ¿Î¹Î¿Ïħ":10767,"ĠÎ»ÎµÎ¹":10768,"oot":10769,"ÏĩÏīÏģÎ¯ÏĤ":10770,"Î³Î»Ïħ":10771,"ĠÎľÎ½Î·Î¼ÏĮ":10772,"ĠÏħÏĢÎ¿ÏĥÏĩÎŃ":10773,"ĠÎ´Î¹Î±Î½Î¿":10774,"Î»Î®Î¸Î·ÎºÎµ":10775,"ÎºÎ¿Î¹Î½Ïİ":10776,"ĠÎ»Î±Î¼Î²Î¬Î½Î¿ÏħÎ½":10777,"ĠÎ±ÏĢÎ¿Î´ÎµÎ¹":10778,"ĠÎ¯Î´Î¹Î¿Ïħ":10779,"ĠÎµÏĢÎ±Î½ÎŃ":10780,"ĠÏĮÏĢÎ¿Î¹Î¿Î½":10781,"ĠÎĹÏģÎ¬ÎºÎ»ÎµÎ¹Î¿":10782,"ÏįÏĥÎµÎ¹":10783,"Î½Î¿ÏħÎ¬":10784,"ĠÎ´Î¹Î¬Î»Î¿Î³Î¿":10785,"ÏĦÏģÎ¹ÎºÏĮ":10786,"ĠÎºÎ±ÏĦÎ¬Î¸ÎµÏĥÎ·":10787,"ÎĻÏĥ":10788,"ĠÏĥÏħÎ¼ÏĢÎŃÏģÎ±ÏĥÎ¼Î±":10789,"ĠÏĢÏģÎ¿ÎºÎ±ÏĦÎ±":10790,"ĠÎŁÎºÏĦÏİÎ²ÏģÎ¹Î¿":10791,"ÏĮÎ»Î±Î¹Î¿":10792,"ÎĴÎ±":10793,"ĠÎ±Î´Î¹ÎŃ":10794,"ÎºÎ¿ÏĥÎ¹":10795,"ĠÎ¼ÎµÎ»ÎŃÏĦÎ·ÏĤ":10796,"ĠÎ´Î¹Î±ÎºÎ¿ÏĢÎ®":10797,"Î£ÏħÎ¼ÏĢ":10798,"ĠÎ´Î¿ÏħÎ»ÎµÎ¹ÎŃÏĤ":10799,"ĠÎµÎ½ÏĮÏĪÎµÎ¹":10800,"ĠÎłÎµÎ»Î¿ÏĢÎ¿Î½Î½Î®ÏĥÎ¿Ïħ":10801,"Î¹Î½ÎŃÏĤ":10802,"ÏĩÎµÏĥÏĦÎµ":10803,"ĠÎµÎºÏĢÏģÏĮÏĥÏīÏĢÎ¿Î¹":10804,"ĠÏĢÎ»Î·ÏģÎ¿ÏĨÎ¿ÏģÎ¯Î±":10805,"ĠÎĳÏĥÏĦÏħÎ½Î¿Î¼Î¯Î±":10806,"ÏģÎµÏįÎµÎ¹":10807,"ĠÎĹÏĢÎµÎ¯ÏģÎ¿Ïħ":10808,"ÎĴÏģÎµÎ¯ÏĦÎµ":10809,"ĠÏĢÎ±ÏģÎ¿ÏħÏĥÎ¹Î¬ÏĥÎµÎ¹":10810,"ÏĦÎ¹Î´Î±ÏĤ":10811,"ĠÏĦÏģÎŃÏĩ":10812,"ĠÎ¼ÎµÏĦÎ±ÏĨÎŃÏģÎµÎ¹":10813,"Î¾ÎµÏīÏĤ":10814,"ĠÎºÎ±ÏĦÎ¬Î¸Î»Î¹":10815,"ĠÎµÎºÏĢÎ±Î¹Î´ÎµÏħÏĦÎ¹ÎºÏĮ":10816,"ĠÎµÏĢÎ¹Î¸ÏħÎ¼ÎµÎ¯":10817,"ÏİÏģÎ¿Ïħ":10818,"ĠÎºÎ±Î¸ÏħÏĥÏĦÎŃÏģÎ·ÏĥÎ·":10819,"......":10820,"ĠÎµÎºÎ¼ÎµÏĦÎ±Î»Î»ÎµÏħ":10821,"ĠÎ²ÎµÎ½":10822,"ĠÎ¹ÏĢ":10823,"68":10824,"ĠÎłÎ±Î½Î±Î³Î¹ÏİÏĦÎ·ÏĤ":10825,"ĠÏĨÏħÏĦÎ¬":10826,"ĠÏĩÎµÎ¹ÏģÏĮÏĦÎµÏģÎ¿":10827,"Î¼Î·Î¼Î¬ÏĦÏīÎ½":10828,"ĠÏĦÎ·Î»ÎµÏĨÏİÎ½":10829,"ĠÎĴÎµÎ½Î¹Î¶ÎŃ":10830,"erg":10831,"ĠÎŁÏģÎ³Î±Î½Î¹ÏĥÎ¼Î¿Ïį":10832,"ĠÎµÏĢÎ¹ÏĦÏģÎ¿ÏĢÎ®ÏĤ":10833,"ĠÎ¿Î´Î¿Ïį":10834,"Î¶ÏĮÎ¼ÎµÎ½Î·":10835,"ĠÎ±ÏĢÎ¿ÏĨÎ¬ÏĥÎµÏīÎ½":10836,"Î»Î¿Î³ÎµÎ¯":10837,"Î¯ÏĦÏĥÎ±":10838,"ĠÎĳÏĥÏĦÏħÎ½Î¿Î¼Î¯Î±ÏĤ":10839,"???":10840,"ĠÎ¿ÏĨ":10841,"ĠÏĦÎµÎ»ÎµÏĦÎ®":10842,"ĠÎµÎ½Î¸Î¿ÏħÏĥÎ¹Î±":10843,"ÎĶÎŁÎ£":10844,"ĠÏĦÎ±Ïĩ":10845,"ĠÏĥÎ·Îº":10846,"ĠÎ±Î½Î¸ÏģÏīÏĢÎ¿":10847,"ÏģÏĦÎ¶":10848,"ÏĥÏĢÎ¿":10849,"NA":10850,"ĠÎµÎ¾ÏīÏĦÎµÏģÎ¹ÎºÎ®":10851,"ĠÎ²ÏģÎ¿ÏįÎ¼Îµ":10852,"ife":10853,"Ġ05":10854,"ĠÎĳÏģÎ³ÎµÎ½":10855,"ĠÎ¿Î¼Î¿ÏĥÏĢÎ¿Î½":10856,"ĠÎ¼Î·Î½Î¹Î±":10857,"ĠÎ±Î³ÏīÎ³Î®":10858,"ĠÏĢÎ±ÏģÎ±ÏĢÎŃ":10859,"ĠÎĳÎ¥Î¤ÎŁ":10860,"Î½Î¿Î®":10861,"ĠÏĦÎ±Î¾Î¯Î´Î¹Î±":10862,"ĠÏĢÎ±ÏģÎ±Î»Î¯ÎµÏĤ":10863,"ĠÏĪÎ¬ÏģÎ¹Î±":10864,"ĠÏĢÎŃÏģÎ±ÏĥÎ±Î½":10865,"ĠÏĦÎµÎ¸ÎµÎ¯":10866,"Î´Î¬ÎºÎ¹":10867,"ÎºÎ±ÏĦÎµ":10868,"Î¹ÎºÏĮÏĦÎ·ÏĦÎ±ÏĤ":10869,"Î»Î®Î¸ÎµÎ¹Î±":10870,"ĠÏĦÎ¶Î±":10871,"ĠÎĵÎ¹Î¿Ïħ":10872,"ĠÎļÎ¬ÏĦÎ¹":10873,"ĠÎĶÎ¹Î¿Î½":10874,"ĠÎ»ÏĮ":10875,"Î¤ÎĻÎ£":10876,"ĠÏħÏĢÎ¿Îº":10877,"ĠÎĻÏģÎ¬Îº":10878,"ĠÎµÏħÏģÏį":10879,"ĠÎºÎ±Î»ÏįÏĢ":10880,"Î³ÏģÎ±ÏĨÎ¹ÎºÎ¬":10881,"ĠÎ»Î±ÏĬÎºÎ®":10882,"ĠÏĢÏģÎ¿ÏĥÏĢÎ±Î¸Î®":10883,"Î®Î»Î¸Îµ":10884,"Î²Î¿ÏħÎ¼Îµ":10885,"ĠÎ±Î½ÎµÎ¾Î¬ÏģÏĦÎ·ÏĦÎ±":10886,"ÎºÎ®Î½Î¹Î¿":10887,"ĠÎ±ÏĨÎµÎ½":10888,"vent":10889,"ĠÎµÎ³ÎºÎŃÏĨÎ±":10890,"ÏĦÎ±Î½Îµ":10891,"ĠÎ¼Î·Î´ÎµÎ½":10892,"ĠÏĢÎ¿Î¹Î¿Î¹":10893,"Î¸ÏģÏīÏĢ":10894,"ÏįÎ¸":10895,"ĠÎ´Î±Î½ÎµÎ¯ÏīÎ½":10896,"ĠÏĦÏĥÎµ":10897,"ĠÏĢÏĮÏģÏīÎ½":10898,"ĠÏĢÏģÎ¿ÏĥÏĦÎ¬":10899,"Î¼Î·Î¼Î±":10900,"ĠÎ³Î¹Î±Î³Î¹Î¬":10901,"ĠÎºÎ¯":10902,"ĠÎµÎ½Ïī":10903,"ÏģÏİÎ½Î¿Î½ÏĦÎ±ÏĤ":10904,"ĠÎ¸ÎŃÏĥÎ·ÏĤ":10905,"ĠÎ®ÏģÎ¸Î±Î½":10906,"ÎŀÎĹ":10907,"Î»Î¯ÏīÎ½":10908,"ĠÏĢÎ±Î½ÎŃÎ¼Î¿Ïģ":10909,"ĠÏĦÏĥ":10910,"ĠÏĥÏħÎ½ÎŃÏĩÎ¹":10911,"ĠÎ³Î¹Î¬":10912,"ĠÎºÏģÎ±ÏĦÎ®ÏĥÎµÎ¹":10913,"ĠÏĦÎ¬ÏĥÎµÎ¹ÏĤ":10914,"ĠÏĥÎ±ÏĨÎŃÏĤ":10915,"Ġ600":10916,"ÏĦÎµÏģÎ½ÎµÏĦ":10917,"ĠÎĶÏħÏĥÏĦÏħÏĩÏİÏĤ":10918,"ÎľÎ®ÏĢÏīÏĤ":10919,"ĠÎ½Î¿Î¼Î¹Î¼Î¿":10920,"ĠÏĥÏĦÎ±Î¸ÎµÏģÎ®":10921,"ĠÏĥÏħÎ½Î¿Î»Î¹ÎºÏĮ":10922,"Î´Î±Î½":10923,"ĠÎ¦ÏĮ":10924,"ĠÎĳÎ»ÎŃÎ¾Î±Î½Î´ÏģÎ¿ÏĤ":10925,"ÏĨÎµÎ½":10926,"ÏģÎµÏħÎ½ÏİÎ½":10927,"Ġ06":10928,"ÏĢÎ±Î½Î±":10929,"ĠÏħÏĢÎ¿Î¸ÎŃÏĥÎµÎ¹ÏĤ":10930,"ĠÏĢÎ»ÎµÎ¹ÏĥÏĦÎ·ÏģÎ¹Î±":10931,"ĠÎ±Î³ÏīÎ½Î¯Î±":10932,"ÏĢÎµÎ¹ÏģÎ¿":10933,"ĠÏĨÎ±Î¯Î½Î¿Î½ÏĦÎ±Î¹":10934,"ĠÎ£ÏĢÎ¿ÏħÎ´ÏİÎ½":10935,"ĠÎ±Î¼ÏĨÎ¹Î²Î¿Î»":10936,"ĠÎ³ÏģÎ¬Î¼Î¼Î±ÏĦÎ±":10937,"ĠÏĢÏĦÎ®":10938,"ams":10939,"ĠÎ¶ÏīÎ½ÏĦÎ±Î½Î®":10940,"ĠÎ¸ÏħÎ¼Î¬ÏĥÎ±Î¹":10941,"ĠÏħÎ³ÏģÎ±":10942,"ĠÎ§ÏģÎ¹ÏĥÏĦÎ¿Ïħ":10943,"ĠÎºÎ¿ÏħÎ»ÏĦÎ¿Ïį":10944,"ĠÏĨÎ¿ÏįÏģÎ½Î¿":10945,"ĠÏĩÏĦÏħÏĢÎ¬":10946,"ĠÎĵÎºÎ±":10947,"ÎŁÎ»Î¿":10948,"ÎŁÎĽÎŁÎĵ":10949,"ÎĳÏĨÎ¿Ïį":10950,"ĠÏĢÏģÎ¿ÎºÎ»Î®ÏĥÎµÎ¹ÏĤ":10951,"ĠÎĿÎŃÎ¿":10952,"ĠÎ¹Î´Î±Î½Î¹ÎºÎ®":10953,"ĠÎ¸Î±ÏįÎ¼Î±":10954,"ÎļÎĳÎĻ":10955,"ĠÎ¾ÏįÎ»Î¿":10956,"ĠÏħÏĢÎ¿ÏĪÎ®ÏĨÎ¹Î¿Î¹":10957,"ĠÏĢÎ±ÏģÎ¬Î³ÎµÎ¹":10958,"ĠÏĢÎ»ÎµÏħÏģÏĮ":10959,"ĠÏĦÏģÎ¿ÏĨÎ®":10960,"ĠÎĳÎ¼Î±":10961,"ĠÎķÏĢÎ±Î½Î¬":10962,"ĠInternet":10963,"ÎĶÏħÏĥÏĦÏħÏĩÏİÏĤ":10964,"ĠÎŀÎµÎ½Î¿Î´Î¿":10965,"ÏĥÎ¯ÏīÏĤ":10966,"ĠÎ¼ÎµÎ³Î¬Î»Î¿Î¹":10967,"ÎĵÎ±":10968,"ino":10969,"ÏĩÎ¯Î±ÏĤ":10970,"ĠÎŃÏĢÎ±Î¹Ïģ":10971,"ĠÎµÎ»ÎµÏįÎ¸ÎµÏģÎ±":10972,"ĠÎ¼Î¿Î½Î¿ÏĢÎ¬":10973,"ÏĨÎ±ÏģÎ¼Î¿":10974,"ĠÎ¥Îł":10975,"ĠÏĩÎ±Î¼Î·Î»ÏĮ":10976,"ĠÏĦÏįÏĢ":10977,"Î³Î³Î¹":10978,"ĠÎ³ÏģÎ®Î³Î¿ÏģÎ·":10979,"ÏĪÎ±Î¼Îµ":10980,"ÏĦÏģÎµÏħ":10981,"ĠÏĪÎŃÎ¼Î±ÏĦÎ±":10982,"Î¼Î¼ÎŃÎ½Î·":10983,"ĠÎ¹ÏĥÏĦÎ¿ÏģÎ¹ÎºÎ¬":10984,"Î¬Î½ÎµÎ¹ÏĤ":10985,"ÏĦÏĮÏĢÎ¿ÏħÎ»Î¿":10986,"ĠÎ¸ÎµÎ¼ÎµÎ»Î¹":10987,"ÏĦÏģÎ¹Î±ÏģÏĩ":10988,"ĠÎ´Î¹Î¬ÏģÎºÎµÎ¹Î±ÏĤ":10989,"ĠÎĳÏĨÏģÎ¹ÎºÎ®":10990,"ĠÏĥÎµÎ¾Î¿ÏħÎ±Î»Î¹ÎºÎ®":10991,"ĠÎ´Î¯Î½ÎµÏĦÎ±Î¹":10992,"ÎĻÎĿÎ©ÎĿ":10993,"78":10994,"ull":10995,"ĠÎ±Î½Î±Î³ÎºÎ±Î¯Î±":10996,"ÎĪÏĩÎ¿ÏħÎ¼Îµ":10997,"ĠÎłÏĮÎ½":10998,"ĠÏĢÏģÎ¿ÏĦÎµÏģÎ±Î¹ÏĮÏĦÎ·ÏĦÎ±":10999,"ĠÎµÎºÏĢÎ±Î¹Î´ÎµÏħÏĦÎ¹ÎºÎ¿ÏįÏĤ":11000,"ĠÏĥÏħÎ»Î»ÎŃ":11001,"ĠÎ±ÏĥÎºÎ®ÏĥÎµÎ¹ÏĤ":11002,"ÏģÎ¯Î´Î·ÏĤ":11003,"ÏĦÏĮÎ½":11004,"ĠÎ±Î½Î¸Îµ":11005,"ÏģÎ·Î³ÏĮ":11006,"Î¾Î¿Ïħ":11007,"...\"":11008,"ĠÎĳÎ½ÏĦÏİÎ½Î·ÏĤ":11009,"Î¾Î¿Î´Î¿":11010,"ĠÏĢÏģÎ¿ÏĥÏĨÏħÎ³":11011,"ÏĥÏĦÎ®ÏģÎ¹Î¿":11012,"ĠÏĥÏįÎ¼ÏĢÎ±Î½":11013,"Î·Î¼Îµ":11014,"ĠÎ±ÏĨÎ¹ÎŃ":11015,"ĠÎ²ÏģÏİ":11016,"Î¼Î®ÏĥÎµÎ¹":11017,"eek":11018,"ÏĦÏģÎ·ÏĥÎ·ÏĤ":11019,"ĠÎĶÎ¹Î´":11020,"ĠÏħÏĢÎ¬Î»Î»Î·Î»Î¿Î¹":11021,"ĠÎ±ÏģÎ¼Î¿Î´Î¹":11022,"ĠÏĢÏģÎ¿ÏĥÏīÏĢÎ¹ÎºÎŃÏĤ":11023,"ĠÎ±Î½ÏĦÎ¯Î¸ÎµÏĦÎ±":11024,"ÏĥÎ±ÏģÎº":11025,"ĠÏĩÎ¿ÏģÎ®Î³Î·ÏĥÎ·":11026,"ĠÎ±Î¹ÏİÎ½ÎµÏĤ":11027,"app":11028,"Î²Î¬Î»Î¿ÏħÎ½":11029,"ars":11030,"ĠÏĢÎ¯Îµ":11031,"Î¹ÏĥÏĦÎ¹ÎºÏİÎ½":11032,"Î¼Î¿Î½Î¿":11033,"ÎķÎ»Î»Î¬Î´Î±":11034,"ĠÏĥÎºÎ¿ÏĢÏĮÏĤ":11035,"ĠÎ¾Î·Î¼Îµ":11036,"ĠÎļÎ±Î½Î¿Î½":11037,"ĠÏĥÏħÎ¼ÏĨÎµÏģÏĮÎ½ÏĦÏīÎ½":11038,"ĠÏĢÎŃÏĦÏħÏĩÎµ":11039,"ORT":11040,"ĠÎĵÎ»Ïħ":11041,"ĠÏĦÎ±Î¼ÎµÎ¯Î±":11042,"ĠÎºÎ±ÏĦÎ±Î»Î®Î³ÎµÎ¹":11043,"ĠÎ¹ÏĥÏĩÏįÎ¿ÏħÎ½":11044,"ĠÎĪÏĩÏī":11045,"ĠÎĵÎµÏİÏģÎ³Î¹Î¿ÏĤ":11046,"ĠÎ¬Î½ÏĦÏģÎ±":11047,"Î²Î¬Î»Î»Î¿Î½ÏĦÎ±Î¹":11048,"ĠÎ»Î¹Î³Î¿":11049,"ĠÎ¥ÏĢÎ¿ÏħÏģÎ³ÏĮ":11050,"ÎĿÎŃÎ¿":11051,"ÎłÎ¬Î½ÏĦÏīÏĤ":11052,"ÏĩÎ®Î¼Î±ÏĦÎ¿ÏĤ":11053,"ĠÎ¾ÎµÎºÎ±Î¸Î±":11054,"ĠÎ±ÏĢÎ±ÏģÎ±Î¯ÏĦÎ·ÏĦÎµÏĤ":11055,"Î³ÎŃÎ½Î½ÏīÎ½":11056,"ÎĹÎ»ÎµÎºÏĦÏģÎ¿Î½":11057,"ĠÏĦÏģÎ¿Ïĩ":11058,"ĠÎ¬Î³ÏģÎ¹Î±":11059,"ĠÏĢÎ¯ÏĥÏĦÎµÏħ":11060,"ĠÎ¥ÏĢÎ¿ÏħÏģÎ³Î¿Ïį":11061,"ÏĦÎ±Î½ÏĮ":11062,"52":11063,"ĠÎ´Î¹ÎµÎ½ÎµÏģÎ³":11064,"ĠÏĨÏģÎ¿Ïħ":11065,"ĠÎ¾ÎŃÎ½ÏīÎ½":11066,"ĠÎ±Î½Î±Î»Î±Î¼Î²Î¬Î½ÎµÎ¹":11067,"ĠÎĵÎµÏģÎ¼Î±Î½Î¿Î¯":11068,"Î¹ÏĥÎ¼ÎŃÎ½Î±":11069,"ĠÏĢÏģÎ¿ÏĥÏĢÎ¬Î¸Î·ÏĥÎµ":11070,"ÏĢÏĮÎ»ÎµÏīÏĤ":11071,"ĠÏĥÎºÎ¹":11072,"ĠÎºÎµÎ¹Î¼ÎŃÎ½Î¿Ïħ":11073,"ÏĥÏĦÎ¿ÏħÏĤ":11074,"Î½Î¿Î´Î¿ÏĤ":11075,"press":11076,"ans":11077,"ĠÎ±Î½Î´ÏģÏİÎ½":11078,"US":11079,"ĠÎµÎ¼ÏĨÎ±Î½Î¯ÏĥÏĦÎ·ÎºÎµ":11080,"ĠÏĥÏħÎ½ÎµÎ¹Î´Î·ÏĦÎ¿ÏĢÎ¿Î¹":11081,"ĠÎ¦Ïħ":11082,"ĠÎ±ÏĢÎ¿ÏĥÏĦÎ¿Î»Î®ÏĤ":11083,"Tube":11084,"á½²":11085,"ĠÏĥÎ¯Î³Î¿ÏħÏģÎ¿":11086,"Î¸ÎŃÏĦÏīÏĤ":11087,"ĠÎ´Î¹Î±ÎºÏģ":11088,"Î¼ÎµÏĥÎ·":11089,"ĠÏĦÏģÎ±Î³ÏīÎ´Î¯Î±":11090,"ĠÎĿÏĦÎµ":11091,"ĠÏĢÎµÎ¯ÏĦÎµ":11092,"ĠÎĳÎ»Î²Î±Î½Î¯Î±":11093,"ĠÏĦÎ¶Î¹":11094,"ĠÎ±Î½ÏĦÎ¿ÏĩÎ®":11095,"ĠÎµÎ¾ÏīÏĦÎµÏģÎ¹ÎºÎ¿Ïį":11096,"ĠÎ±ÏħÎ¾Î¬Î½ÎµÎ¹":11097,"ĠÎĶÎµÎ´Î¿Î¼ÎŃÎ½ÏīÎ½":11098,"ĠÎ¼Î±Î»Î±":11099,"ÏģÎ¹ÏĥÎ¼ÎŃÎ½Î¿":11100,"ĠÎ¦ÏģÎ±Î½":11101,"ÎļÎ¿Ïħ":11102,"ÏĦÎ·ÏģÎ¹":11103,"ound":11104,"Î¼ÏĨÎ±Î½":11105,"ĠÎĿÎ¿ÏĥÎ¿ÎºÎ¿Î¼ÎµÎ¯Î¿":11106,"ĠÎ´ÏģÎ±Ïĥ":11107,"ĠÎ³Î»ÏİÏĥÏĥÎµÏĤ":11108,"Î¼Î±ÏĦÎ¹ÎºÎŃÏĤ":11109,"ĠÏĨÎ±Î½Î±":11110,"ĠÎºÎ±ÏĨÎµ":11111,"ĠÎ£ÏħÎ½ÎŃÎ»ÎµÏħÏĥÎ·":11112,"Î²ÏīÎ½":11113,"ĠÏĢÎ¿ÏħÎ½":11114,"ĠÎ±ÏĢÎ¬Î½ÏĦÎ·ÏĥÎ·ÏĤ":11115,"ĠÏĢÎ¿Î¹Î½Î®":11116,"ĠÏĥÏĨÎ±Î³":11117,"ĠÎ¼ÎµÎ»Î±":11118,"ÎµÎ¹Î±ÎºÎ®":11119,"ĠGreece":11120,"MW":11121,"Î»ÏĢÎ¹Ïĥ":11122,"ree":11123,"Î¿ÏħÎ´Î®ÏĢÎ¿ÏĦÎµ":11124,"ĠÏĢÎ¹Îº":11125,"Î¬ÏģÏĦÎ·ÏĥÎ·":11126,"ĠÏĥÏĨÎ±Î¯":11127,"ĠÎºÎ±Î»Î»Î¹ÏĦÎŃÏĩÎ½ÎµÏĤ":11128,"ĠÎµÎ¾Î±ÏģÏĦÎ¬ÏĦÎ±Î¹":11129,"Î»Î®ÏĨÎ¸Î·ÏĥÎ±Î½":11130,"ĠÎ½Î¿ÏĦÎ¹Î¿":11131,"ĠÎ±Î½ÏĦÎ¯Î¸ÎµÏĦÎ¿":11132,"ĠÏĢÎµÏĦÏįÏĩÎµÎ¹":11133,"ĠÎ±Î½Î±ÏģÏīÏĦÎ¹":11134,"ĠÎĶÎ¹Î¿Î¯ÎºÎ·ÏĥÎ·":11135,"ÏĥÎ¼ÎŃÎ½Î¿Î¹":11136,"ĠÎļÏģÎ¹":11137,"ÏĨÏģÎ¿":11138,"ĠÎļÎ¿ÏĦÎ¶":11139,"ĠÎ¹ÏĥÏĩÏįÎ¿ÏĤ":11140,"ĠÎ¿ÏĢÎ¿Î¹Î¿Î½Î´Î®ÏĢÎ¿ÏĦÎµ":11141,"ĠÏģÏħ":11142,".-":11143,"ĠÏĩÏģÏīÎ¼Î±":11144,"ĠÎľÎµÏĥÏĥÎ·":11145,"ĠÎĶÏīÏģÎµÎ¬Î½":11146,"ĠÎķÎ»Î»Î·Î½Î¿":11147,"ĠÎ±ÏĥÎ¸ÎµÎ½ÏİÎ½":11148,"ĠÏĢÎµÎ»Î±ÏĦÏİÎ½":11149,"ĠÎ´Î·Î»ÏİÏĥÎµÎ¹":11150,"ĠÎµÏĢÎ·ÏģÎµÎ¬Î¶ÎµÎ¹":11151,"erc":11152,"ĠÏĦÎŃÎ»ÎµÎ¹":11153,"ĠÎ²ÏģÎ®ÎºÎ±Î½":11154,"esign":11155,"ĠÎ¬Î½Î´ÏģÎ±":11156,"ĠÎºÎ¿Î¹Î½ÏĮÏĦÎ·ÏĦÎ±ÏĤ":11157,"ĠÎ±Î³Î±ÏĢÎ·Î¼ÎŃÎ½Î·":11158,"enn":11159,"Î¤ÎµÎ»Î¹ÎºÎ¬":11160,"ĠÏĥÏħÎ³Î³ÎµÎ½ÎµÎ¯ÏĤ":11161,"ĠÏħÏĨÏħÏĢÎ¿ÏħÏģÎ³":11162,"ĠÎķÎ¾Îµ":11163,"ĠÏĥÏħÎ³ÎºÎµÎ½ÏĦÏģÏī":11164,"ĠÎłÎĳÎ¡Îĳ":11165,"ĠÏĦÏħÏĩÎ±Î¯Î±":11166,"ĠÎ¼ÏĢÎ±Ïģ":11167,"ĠÎŃÏĢÎ¹Î±":11168,"ĠÎĴÎ¿ÏħÎ»ÎµÏħ":11169,"ĠÎµÏħÏģÏīÏĢÎ±ÏĬÎºÎŃÏĤ":11170,"ĠÎ»ÎµÎ¹ÏĦÎ¿ÏħÏģÎ³Î®ÏĥÎµÎ¹":11171,"ĠÎĿÎ±ÏĮ":11172,"ĠÎ´Î¿ÏħÎ»ÎŃ":11173,"ĠÎłÎ±Î½Î±Î³Î¯Î±ÏĤ":11174,"ĠÏĨÎµÏĦÎ¹Î½Î®":11175,"ĠÎĳÏĥÏĨÎ±Î»ÎµÎ¯Î±ÏĤ":11176,"ÏĦÎ·Î³Î¿ÏģÎ¯Î±":11177,"ĠÎļÎĳÎ¤Îĳ":11178,"ĠÎ±ÏĢÎ¿Î»Ïħ":11179,"ĠÎµÏĢÎ¹ÏĦÎµÏħ":11180,"ĠÎ²Î±ÏĥÎ¯":11181,"ĠÏĥÏĦÎ¿Î¯":11182,"ĠÎ¼Î¹Î»Î¿ÏįÎ½":11183,"ĠÏĢÏģÏĮÏĦÎµÎ¹":11184,"ÏģÎµÎ¹Î¬Î¶ÎµÏĦÎ±Î¹":11185,"ÏĨÎµÏĥÎ·":11186,"ÏģÏĩÎ®":11187,"ĠÎļÎ±ÏĦÎµÏģÎ¯Î½Î±":11188,"ĠÎŃÏĦÎ¿Î¹Î¼Î¿Î¹":11189,"ĠÎµÎ½Î´ÎŃÏĩÎµÏĦÎ±Î¹":11190,"ĠÎ½Î¯ÎºÎµÏĤ":11191,"Î¬ÏĥÎ¼Î±ÏĦÎ±":11192,"Î³Î¼ÎŃÎ½Î±":11193,"ÏĥÏĥÎ¬ÏģÏīÎ½":11194,"ĠÎ¾ÎµÏĢÎµÏģÎ½Î¬":11195,"ÏĦÎ¿Î¼Î·":11196,"ĠÎ´Î·Î¼Î¿ÎºÏģÎ±ÏĦÎ¯Î±ÏĤ":11197,"Î§ÏģÎ¹Ïĥ":11198,"ĠÎ·Î¼ÎµÏģÎ®":11199,"ĠÎłÏĮÏĥÎ¿":11200,"Ham":11201,"ĠÏĨÎ¯Î»Î·":11202,"ĠÎºÎµÎ¯":11203,"ĠÏĢÎ¿Î´Î·":11204,"ĠÎĶÏįÎ¿":11205,"ĠÎ§ÏģÎ¹ÏĥÏĦÎ¿ÏħÎ³ÎŃÎ½Î½ÏīÎ½":11206,"ĠÏĩÎ±Î¼Î·Î»Î¬":11207,"ĠÎĻÎ¿Ïį":11208,"ĠÎŁÎ¼ÏĢÎ¬Î¼Î±":11209,"ĠÏĢÎµÏģÎ¹ÏĥÏĥÏĮÏĦÎµÏģÏīÎ½":11210,"ĠÏħÏĢÎ¿Î¼Î¿Î½Î®":11211,"ĠÏĢÏģÎ¿ÏĭÏĢÎ¿Î»Î¿Î³Î¹ÏĥÎ¼ÏĮ":11212,"ĠÏĥÎºÎŃÏĪÎ·ÏĤ":11213,"ÏĮÎ¼ÎµÎ½Î·ÏĤ":11214,"ĠÎĴÏħÎ¶Î±Î½":11215,"ĠÎľÎ¿Î½Î®":11216,"ÏģÎ¹ÎŃÏĤ":11217,"ĠÎµÏĢÎ¿Î¼ÎŃÎ½ÏīÏĤ":11218,"ĠÎ¼Î¿Î½ÏĦÎŃÏģ":11219,"ĠÎµÎ¼ÏĨÎ¬Î½":11220,"ÏĦÎ¹ÏĥÏĦÎ·":11221,"ĠÏĦÎ¹Î¼Î¿":11222,"ights":11223,"Î¼Î¬Î´Î±ÏĤ":11224,"ĠÏĦÎµÏĥÏĦ":11225,"ĠÎĳÎ¼ÏĨ":11226,"ÏģÎ³Î¬Î½ÏīÏĥÎ·":11227,"Ġ210":11228,"ĠÏĢÎ¿Î¹ÎºÎ¯":11229,"ĠÎŃÎ»ÎµÎ³Î±Î½":11230,"ĠÎŃÏģÎ¸Î¿ÏħÎ½":11231,"ÏĦÎ·Î¼ÏİÎ½":11232,"ĠÏĦÎµÏį":11233,"ĠÏĥÎºÎ¿ÏĢÎ¿ÏįÏĤ":11234,"ĠÎµÏĢÎŃÎ½Î´ÏħÏĥÎ·":11235,"ĠÎ¼ÎµÎ¯Î³Î¼Î±":11236,"ĠÎ¶Î®ÏĥÎµÎ¹":11237,"ĠÏĩÎ¬Î½ÎµÎ¹":11238,"ÏĥÎ¼Î¿ÏĤ":11239,"ĠÏĥÎºÎ¿Ïį":11240,"ĠÏĢÏģÎ¿ÎµÏĦÎ¿Î¹Î¼Î¬":11241,"ĠÎ£Î±Î²Î²Î±ÏĦÎ¿ÎºÏįÏģÎ¹Î±ÎºÎ¿":11242,"ĠÏĦÎ¯ÏĦÎ»Î¿ÏĤ":11243,"IDEO":11244,"ĠÎķÎ²":11245,"ĠÎ±ÎµÏģÎ¿ÏĢÎ»Î¬":11246,"ĠÎ³Î»ÏħÎºÎ¬":11247,"ĠÎĶÎ¹ÏĮÏĦÎ¹":11248,"ĠÎ¡ÏĮÎ´Î¿Ïħ":11249,"ÎĪÎº":11250,"ĠÎĳÎ¼":11251,"ĠÎŃÎ»ÎµÎ³Î±":11252,"ĠÏģÎ¯Î¶ÎµÏĤ":11253,"ĠÎ¶ÎµÏĥÏĦÏĮ":11254,"ÏĨÏĮÏģÎ¿Ïħ":11255,"ĠÎºÎ±Î¸ÎŃÎ½Î±":11256,"ĠÎ»ÎµÎ¹ÏĦÎ¿ÏħÏģÎ³Î¯ÎµÏĤ":11257,"ÎľÎµÎ³Î¬Î»Î·":11258,"ĠÎµÏĢÎ¯Î´ÏģÎ±ÏĥÎ·":11259,"ĠÏĥÏĦÏģÎ±ÏĦÎ¹ÏİÏĦÎµÏĤ":11260,"ĠÏħÎ´Î±":11261,"ÎķÎ§":11262,"ĠÏĥÏĢÏĮ":11263,"ĠÎ£Î±Î²Î²Î¬ÏĦÎ¿Ïħ":11264,"ĠÏĢÏģÎ¿ÏĩÏīÏģÎ¬":11265,"ĠÎ±Î½Î±ÏĥÏĨÎ¬Î»":11266,"ĠÏĩÎ¹Î¿":11267,"ĠÎ±ÏģÎ½Î·ÏĦÎ¹ÎºÎ¬":11268,"Î»ÏİÎ½ÎµÏĦÎ±Î¹":11269,"Î¹Î½ÏĮÏĢÏīÏģÎ¿":11270,"ĠÏĦÏģÎ¬":11271,"ĠÏģÎµÏįÎ¼Î±ÏĦÎ¿ÏĤ":11272,"ĠÏĥÏħÏĥÏĦÎ·Î¼Î¬ÏĦÏīÎ½":11273,"ÏģÎ¹Î½Î®ÏĤ":11274,"ĠÎ²Î´Î¿":11275,"ĠÎ¼ÎŃÎ½Î¿ÏħÎ½":11276,"ÏģÎ¯Î¶Ïī":11277,"ÏĨÎ¿Î²":11278,"ÏĥÏĢÎ±ÏĥÎµ":11279,"ĠÎ£Î±Ïģ":11280,"ÏĦÎ¿Î¼Î±Î¹":11281,"ĠÎĴÎµÎ½Îµ":11282,"ĠÎºÎ¿ÏħÎ½":11283,"ĠÎºÎ±ÏĦÎ±Î½Î±Î»ÏīÏĦÎŃÏĤ":11284,"ĠÎ¹ÏĥÏĦÎ¿Î»ÏĮÎ³Î¹Î¿":11285,"ÎłÎ±Î¹Î´":11286,"ĠÎ½Î±ÏģÎºÏīÏĦÎ¹ÎºÏİÎ½":11287,"ĠÎĳÏĢÎ»Î¬":11288,"ĠÎ±ÏĢÎ±ÏģÎ¬Î´Îµ":11289,"ĠÎ´Î¹ÎµÎ¸Î½Î®ÏĤ":11290,"ĠÎ³ÎµÎ½ÎŃ":11291,"Î¯ÏĥÏĦÎµ":11292,"ĠÎµÎ¹Î´Î®ÏĥÎµÏīÎ½":11293,"ĠÎķÏģÎ³Î±Ïĥ":11294,"ĠÎĪÎºÎ¸ÎµÏĥÎ·":11295,"ÏħÏĦÏĮÏĩÏģÎ¿Î½Î±":11296,"ĠÎĿÏĦÎŃ":11297,"ĠÎµÎ¾Î±Î½ÏĦ":11298,"65":11299,"ĠÎ±ÏĥÏĩÎ¿Î»Î·":11300,"ÏİÎ´ÎµÏĤ":11301,"ÎºÏĮÎ½":11302,"ĠÏĥÏĦÎ®ÏģÎ¹Î¾Î·ÏĤ":11303,"Î±Î½ÏĦÎ¹":11304,"77":11305,"ÎłÎ±Î³":11306,
[...]
