#version: 0.2
h á
Ġ n
Ġ Ä
ĠÄ ĳ
Ã ł
i á
h Ã
há »
Æ °
Ġ v
n h
Ġ l
iá »
Ã ¡
Ġ k
Ġ b
Ġ m
ĠÄĳ á
há º
t r
Ġ tr
Æ° á
Æ°á »
Ġ s
c h
º ¡
º ¿
Ġ g
c á
Ġ cá
Ã ª
Ġ d
á º¡
Ġn g
ĠÄĳá »
Ġ h
º £
´ n
iá» ĩ
Ġv á
Ġ p
Ã ³
t á
Ġ tá
Ġ T
t h
u á
Ġ th
Ġm á
´n g
Ãª n
Ġs á
Ġ ch
» Ļ
Ġn h
Ġvá »
Ġb á
Æ ¡
Ġcá »
Ġv Ãł
a n
º ¥
» ĳ
Ã ¢
t há»
Ġ thá»
Ġk hÃ
o n
u y
iá º¿
Ġ q
Ġl Ãł
Ġ há»
Æ°á» Ŀ
Ġ N
Ľ i
Ã ¬
ĥ n
Ġ r
Ġtá »
c Ã¡
Ġ cÃ¡
Ġ C
º §
Ġ x
Ãł n
Æ°á» £
§ a
Ġcá» §a
c Ã³
Ġl á
c há»
Ġ cÃ³
º Ń
Ġ chá»
Ġg i
áº¡ i
t hÃ
Ġ thÃ
Ġd á
on g
Æ¡ n
Ã ´
Ġk h
Ġ H
â Ģ
¯ n
Ġtr á
Ã ´ng
iá» ģ
Ġp hÃ
Ã £
Æ°á»£ c
uy á
Ä ĥn
º£ n
Ġdá »
Ġ á
áº¡ n
i Ãªn
háº ¥
»Ļ t
ĠkhÃ ´ng
Ã¬ nh
Ġsá »
ĠÄ Ĳ
ĠcÃ¡ c
iá»ĩ n
Ġch o
Ġq u
Ġ V
c hÃ
¯n g
Ġ chÃ
ĠÄĳ Æ°á»£c
Ãł y
i nh
Ġmá »
Ġ B
Ġbá »
Ġlá »
a y
º¥ t
Ġn há»
© n
Æ°á»Ŀ i
Ã Ń
a nh
Ġtr ong
Ġmá »Ļt
Æ°á» Ľ
Ġp háº
a o
º ·
an g
i n
Ġn á
Ġvá» Ľi
iá»ģ u
Æ°á»Ŀ n
ĥ m
Ġ M
Ãł nh
Ãłn g
uyá »
Æ°á»Ŀn g
Ġng Æ°á»Ŀi
Ġ 1
Ãł i
Ġ hÃ
uá »ĳ
Ġtrá »
©n g
Ġr á
a m
Ã ¹
² n
t háº
Æ° Æ¡n
Ġ tháº
u n
Ã¡ n
Æ°Æ¡n g
Ġ 2
a i
iáº¿ t
Ġ L
© c
Ġnh Æ°
º§ n
ĠÄĳá» Ļ
Ġnhá» ¯ng
Ã¢ y
º ¯
háº¥ t
Ġá »
Ġ S
Æ°á»Ľ c
Ġk á
un g
± c
º§ u
Ã º
Äĥn g
º¿ n
Ã´ i
Ã ½
Ġh o
ĠÄĳá» ĥ
iáº¿ n
ĠÄĳ Ã£
Ġ P
Ã¢ n
Ġthá» ĥ
Ŀ i
ĵ n
¢ n
Ġb áº¡n
Ġng h
ĠkhÃ ¡
Ġ K
. .
háº Ń
Ġsá º
į c
iá»ĩ t
a u
c Ã´ng
ĠT r
Ġ cÃ´ng
£ i
Ġn hÃ
Ġ âĢ
Ã¡ c
Ġg á
Ġn Ãły
Ã ²n
« n
Ã¹ n
Ã¹n g
Ġ (
Ä ĥm
Ġkh i
Ġg iá»
Ġvá» ģ
Ġsá »ĳ
Ġcá º£
Ġ G
ĠÄĳá º¿n
ĠlÃł m
Ġ D
iá»ĩ u
Ġg iá
Ġ -
Ġsáº ½
Ä Ĳ
Ġdá» ¥
Ġ háº
Å ©ng
Ġr a
± n
t áº¡i
Ġ táº¡i
ĵn g
±n g
º¿ t
Ġá» Ł
ºŃ t
e m
Ãª u
ĠphÃ ¡
Ġ Q
ĠÄĳ Ã³
0 1
Ġp há»
Ġh Ãłng
į n
ĠN g
á »Ļ
Ġgi Ã¡
Ġná »
Ġtá» «
c Å©ng
e o
Ġnh iá»ģu
Ġ cÅ©ng
Ġm Ãł
c háº
ĠvÃł o
Ġl áº¡i
Ãł o
ºŃ n
Ġ cháº
ĠÄĳá» ĭ
Ġtr Ãªn
Ġp h
Ġnh Ãł
Ġn háº¥t
Ġq uá
iá»ĩ c
ĠÄĲ á
Ġchá» ī
ĭ ch
Ń nh
t o
Ġdá»¥ n
Ġdá»¥n g
ĠÄĳá»Ļ n
ĠT h
ĠÄĳá»Ļn g
Ġhá» įc
Ġbá» ĭ
Ġsá» ±
ĠÄĳá º§u
Ġ A
¡ n
¥ c
Ġn Ã³
ķ i
Ġn háºŃ
Ä ©
Ġh iá»ĩn
º£ i
uá»ĳ c
âĢ Ŀ
Æ¡ i
ºŃ p
Ġn Äĥm
Ġv iá»ĩc
© m
Ì ģ
Ġpháº £i
º· c
t Ã´i
Ġth Ãłnh
Ġ tÃ´i
º· t
t ÃŃ
uy Ãªn
Ġ tÃŃ
Æ°á»£ n
ĠchÃ º
Ġtá »ĳ
Ã¢ m
t in
Æ°á»£n g
uá »
Ġng á
0 0
Ġng Ãły
Ġd o
ĠÄĳ i
ģ n
ĳ n
º ±ng
ĠÄĳá º¡
iá» ĥm
Ġn Æ°á»Ľc
Ġ to
º »
º ¹
o áº¡i
Ã¡ o
» ĵ
Ġqu an
ĠthÃ ¬
uyá» ĩ
ĠN am
Ġm Ã¡
£ p
ĠT á
Ã ©
Ġsá º£n
Ġngh iá»ĩ
Ġ 3
ĠchÃ Ńnh
t a
Ġ tin
Ġ y
§ n
º «n
ĠnhÃ ¢n
ĠV iá»ĩt
¡n g
Ġhá» Ļ
º¯ t
»Ļ c
Ġmá» Ľi
ĠâĢ ľ
uá»ĳ n
Ġh Æ¡n
ĠM á
Ġkh o
Ġhá» £p
Ġká »
Æ° a
Ġtháº ¿
ĠH á
ĠÄĳá» ģ
Ã¢ u
Ġgi a
º£ o
e n
ĠÄĳá»ĭ nh
ĠthÃ ´ng
º£n g
e r
º¥ y
Ġs inh
Ì £
Ì Ģ
Ġm Ã¬nh
Ġsá» Ń
¯ a
Ġn Ãªn
c ao
iá» ĥn
ĳn g
Ġ cao
º¥ p
iá»ģ n
Ã ´n
ħ n
c on
º¥ n
Ġth uá
ĠcÃ¡ ch
Ġtr Æ°á»Ŀng
º¿ u
Ã¡n g
ĠÄĳ iá»ģu
c Ã²n
ĳ i
Ġrá º¥t
Ġ cÃ²n
Ġthá» Ŀi
c Æ¡
Ã¡ ch
h i
Ġ con
ĠB á
t i
Ġ cÆ¡
Ġk háº
ĠÄĳá» ĵng
Æ°á» Ł
Ġth eo
ĥ u
.. .
iá» ĥu
Ġs au
Ġthá» ±c
Æ°á»Ł n
Æ°á»Łn g
¬ nh
uyá» ģn
Ġv iÃªn
ĠhÃ ¬nh
u a
Ã¡ nh
t Æ°
Ġ tÆ°
uá º¥t
ĠkhÃ¡ ch
Ġ2 01
Ġng há»
Ġpháº ©m
Ġk há»
Ġvá» ¥
áº¡ o
Ġl Ã½
ĠchÃº n
ĠchÃºn g
Ġb iáº¿t
á»Ļ i
Ġ ta
i a
uyá»ĩ n
ĠÄĳ ang
Ġtr Ã¬nh
t háº¥
Ġ tháº¥
ĠÄĳ Ã¢y
Ġn Ãło
²n g
ĠC hÃ
c Ã¹ng
Ń a
Ġcá º¥p
Ġ cÃ¹ng
ĠkhÃ¡ c
Ġngá »
Ġh Ãłnh
º¯ c
«n g
ĠÄĲá »
ĩ nh
ĠnhÆ° n
ĠnhÆ°n g
Ã¡ i
Ġqu a
ĠnÃ³ i
Ġcá º§n
Ġn Äĥng
ĠphÃ¡ t
ĠnháºŃ n
T r
įn g
Ġnghiá»ĩ p
Ġl Ãªn
ķ n
ĠmÃ¡ y
Ġx á
Ġgá »
Ã²n g
³ n
Ġlá» Ľ
N G
iáº¿ p
Ġl Æ°á»£ng
Ġn háº
ĠC á
áº¡ t
ĠâĢ ĵ
Ã ²
c háº¥t
Ġtá» ±
į i
Ġ ti
hÃ ¡
Ġ anh
Ġ cháº¥t
Æ°á»Ľ n
Ãº c
áº¡n g
Æ°á»Ľn g
Ġká º¿t
Ġ em
Ġ X
t iáº¿n
º£ m
º¥ u
Ġ tiáº¿n
Ġgi an
Ġh ay
Ġmá º·t
Ġg Ã¬
Ãº p
Ġtr Æ°á»Ľc
ĠN h
Ġbá »Ļ
Ġto Ãłn
a r
t Ã¢m
Ġbá º£o
Ġ tÃ¢m
Ġtá º¿
hÃ ´ng
Ġhá»Ļ i
º£ nh
á º·c
³n g
ºŃ y
Ġth iáº¿t
Ġk inh
Ġv Ã¬
H á
Ġd Ã¢n
Ġh iá»ĩu
Ġbá º±ng
Ġtá»ĳ t
Ġ 4
ĠphÃ ²ng
Ġx uáº¥t
Ġ 5
Ġhá» ĩ
Ġthá» ĭ
ĠT há»
Ġ Ã½
Ġquá º£
Ġx e
uyá º¿t
iá» ħn
uá »Ļc
ĠÄĳ iá»ĥm
ĠTá »
t Ã¬nh
Ġtháº¥ y
³ a
t áº¡o
Ġbá º£n
º¹ p
Ġ tÃ¬nh
Ġ táº¡o
o Ãłi
»Ļ i
Ã³ n
ĠMá »
ĠS á
t Ã¡c
Ġchá» §
Ġ tÃ¡c
ĠÄĳá» ĳi
c o
Ġ Ã´ng
Ġgi Ãºp
Ã¡ t
uyá» ĥn
Ġgiá» Ľi
Ġl oáº¡i
»ĵ i
ĠÄ ĥn
ĠtÃŃ nh
t y
Ġth u
t iáº¿p
Ġ tiáº¿p
ĠÄĳ Æ°á»Ŀng
ı i
Å ©
Ġhá» į
Ĺ i
Ġká º¿
âĢ ¦
Æ° u
Ġcá º§u
ĠÄĳ iá»ĩn
Ġn ay
Ġvá» ĭ
ķn g
Ã¬ m
« a
Ġtr ang
ĠÄĳá º¹p
Ġtrá» ĭ
Ġbá» ĩnh
© u
ÄĲ á
Ġnh iÃªn
Ġv i
Ġth Æ°á»Ŀng
ÃŃ ch
c Ã´
Ġho áº·c
Ġchá» ©c
ĠV á
Ġdá» ±
uá» ķi
á º¿u
Ì ī
»ĳ i
Ġl iÃªn
Ġ Ã
2 01
áº¡ ch
Ġtá» Ľi
T h
i m
ĠQ uá»ĳc
Ġthá» ©c
Ġdo anh
Ġ cÃ´
Ġpháº §n
ĠC h
áº¡ nh
Ġcháº ¿
Ġ R
ĠHá »
t Ãłi
Ġcáº£ m
Ġsá»ĳ n
Ġsá»ĳn g
Ġy Ãªu
Ġá º£nh
Ġ tÃłi
ĠphÃ¡ p
ĠÄĳ o
ĠÄĳáº¡ i
Ġlá»Ľ n
ĠH Ãł
»Ļ n
ĠthÃ ¡ng
Ł i
ĠG i
Ġd Ã¹ng
Ãª m
Ġkho á
Ġ "
Ġgiá º£i
Ġb Ãłi
t e
iá»ĩ m
Æ° n
Æ°n g
t iá»ģn
Ġm uá»ĳn
N g
Ġ tiá»ģn
Ġtháº Ń
Ġvá º¥n
uá ºŃn
Ġtá ºŃp
Ġb Ã¡n
Ġqu Ã¡
Ġchá» įn
a l
Ġtr iá»ĥn
Ġ ty
u Ã´n
Ġvá º«n
Ġ Ã¡n
Ġdá» ĭch
Ġs ao
Ġh ai
Ã µ
Ġd Æ°á»
º ©n
ĠH o
ĠN á»Ļi
Ġb Ã¡o
t Äĥng
Ġvá ºŃy
Ġ tÄĥng
Ġm ua
o r
ĠthÃ ª
t ay
e s
Ġth Æ°Æ¡ng
ĠhÃ ³a
Ġthá» ĳng
Ġ an
Ġtrá» įng
c uá»Ļc
Ġ tay
Ġ cuá»Ļc
Ġ 6
Ġdá º«n
Ġti Ãªu
Ġlá º§n
ĠTr ung
¯ c
Ã¡ p
Ã³ c
Ġm ang
Ġtrá» Ł
t Ã¬m
Ġth i
Ń ch
Ġháº ¡
Ġ tÃ¬m
Ġlá» ĭch
Ġb iá»ĩt
h o
ĠC Ã´ng
Ġho áº¡t
Ġd a
ĠP hÃ
Ġngh Ä©
Ġv Äĥn
Ġthá» §
Ġchá» ĭ
Ġch i
º ¯ng
Ġq uá»ĳc
Ġtiáº¿n g
»Ļn g
Ġtrá º»
Ġl iá»ĩu
Ġb ao
Ġbá º¥t
ĠcÃ¡ i
Ġrá »ĵi
Ġtr ÃŃ
Ġlá» ±c
uá»ĳn g
Ġch iáº¿
ī nh
Ġhá» ĵ
ĠÄĳ Æ¡n
e b
Ġv iáº¿t
uyá º¿n
ĠthÃª m
Ġ I
Ġná »Ļi
Ġgiá» Ŀ
¬ n
Ġch Æ°a
ĠÄĳá»ģ u
M á
Ġgi ao
Ã ¨
Ġnh au
Há »
Ġho Ãłn
Ġrá »
há» ¯ng
º§ m
ĠÄĳá»ĭ a
Ġth am
ĠphÃ Ń
Ġch uyÃªn
ĠÄĳá» ķi
Ãº n
Ġb Ãªn
u i
ĠC há»
Ġtr ung
Ġrá º±ng
Ġng oÃłi
Ġq uy
Ġph Æ°Æ¡ng
Ġ U
Ġkh u
e t
Ġx em
Ġs Ã¡ng
ĠÄĳá º¥t
Ġ F
Ġs Ã¡ch
ĠnháºŃ p
Ġnghá» ĩ
Ġd u
ĠkhÃ ³
T á
£ o
Ġ1 0
Ġmá º¯t
Ãºn g
Ġmá» įi
ĠP h
Ġ 7
Ġsá» Ł
Ġsá» ©c
ĠthÃ ¢n
Ġl o
Ġ E
£ n
ÄĲá »
º¯ m
ĠtÃŃ ch
ĠthÃ Ńch
Ġá» ©ng
Ġq uyá»ģn
Ġthuá ºŃt
Ġq uyáº¿t
c a
Ġ 0
ĠVá »
º ¯n
Ġná º¿u
Ã³n g
Ġtá» Ń
Ġlá» Ŀi
» Ń
Ġthá» ©
Ġnh anh
º c
Ġgiá º£m
ĠL á
t uá»ķi
I á
º· n
Ġ tuá»ķi
Ġvá» «a
Ġs o
Ġch uyá»ĥn
t iáº¿t
háºŃ t
Ġtrá» £
Ġk Ã½
Ġdá» ±ng
Ġ tiáº¿t
ĠÄĳá º·c
Ġtá» ķ
uá ºŃt
áº¡ c
« u
Ġb Ã¬nh
N H
ĠTr á
ĠMá» ¹
º· p
Ġl uÃ´n
ĠA nh
Ġ 8
Ġng ay
Ġl Ã²ng
Ã© t
Ġvá ºŃt
i Ãªu
H Ã
± m
l e
Ġh Æ°á»Ľng
Ġbá º¯t
Ġná» ¯
Ġphá» ĳ
Ġphá» ¥
ĠÄĳá º·t
Ã¡ m
Ġn Æ¡i
Ġk iáº¿n
ĠnhÃ ¬n
Ġm áº¡nh
ĠÄĳ Äĥng
Ġtá» ¥c
© p
Ġnhá» ı
ĠÄĳ Ã¬nh
Ġphá» ¥c
± a
uá º©n
Ġnghiá»ĩ m
Ġx Ã£
Ġmá º¹
ĠÄĳ Ã¡nh
Ġx Ã¢y
B á
Ġgá º§n
Ġ W
ĠmÃł u
Ġl Ãºc
Ġká» ³
uá» ĵn
c ung
Ġk iá»ĩn
iáº¿ u
C h
ĠthÃ ¡
uá»ĳ i
Ġb iáº¿n
¯ u
Ġg Ã¢y
Ġ cung
ĠtháºŃ t
Ġs Ä©
£ y
Ġchá» ©ng
Ġ Y
Ġl Ã£
Ġlá ºŃp
Ġth ay
º§ y
ĠD á
ĠSá »
¿ t
t iÃªn
º t
Ġ tiÃªn
c Äĥn
ĠÄĳáº¡ o
V á
ĠT háº
Ġd iá»ħn
ĠgiÃ¡ o
Ġdá» ħ
Ġbá» Łi
ĠQ u
Ġvá» ±c
Ġth anh
uyá» ħn
ĠCá »
Ġch Æ¡i
Ġkh iáº¿n
ĠÄĳá» ĵ
Ġná» ¯a
Ġ cÄĥn
Ġb Ã©
Ġch uyá»ĩn
Ġd iá»ĩn
S á
Ġng uyÃªn
Ġtá» īnh
¡ m
Ġháº ¿t
ĠK á
Ġ w
º¥ m
Ġ ,
iáº¿ m
e l
Ġlá» £i
Ġ 9
ĠÄĳ Æ°a
ĠÄĳá» §
Ã Ģ
Ġtr iá»ĩu
Ġvá» ĩ
Ġ ca
ĠchÃ Ń
a s
Ġ :
t Æ°á»£ng
Ġch ung
º·n g
Ġbá» ı
Ġ tÆ°á»£ng
Ġquá º£n
Ġbá »ĳ
Ġv Ã´
Ġtr a
ĠcÃ¡ o
ĠphÃ ¢n
Ġtá» «ng
ĠB á»Ļ
o o
t inh
t Ãªn
Ġmá º
Ġtr uyá»ģn
Ġth Æ°
Ġtrá» ±c
Ġmá» Ĺi
Ġch iáº¿n
uyá»ĩ t
Ġcá» ©u
Ġ tÃªn
º¯ p
Ä© nh
Ġh iá»ĥu
Ġthuá »Ļc
Ġhá» ıi
ĠT P
Ġ tinh
s i
Ġ ai
Ġmá» ¥c
ĠNg uyá»ħn
Ġcá» Ńa
Ġná» ķi
Ġchiáº¿ c
háº¥ p
ĠÄĳ a
ĠM inh
¡ y
Ġcáº£ nh
r o
Ġth o
Ġd ung
ĠhÃ ´
Ġb Ãłn
ĠÄĳá» Ŀi
Ġ201 8
ÃŃ nh
ºŃ u
ĠB Ã¬nh
Ġnh iá»ĩm
Ġd Ãłi
ĠdÆ°á» Ľi
Ġtá º¥t
C Ã¡c
Ġ _
T há»
Ã£ i
Ġcá» ķ
Ġhá» ¯u
ÃŃ t
c Ã¢u
iÃªn g
a c
) .
§ y
ĠA n
Ġ cÃ¢u
Ġgá º·p
Ġkh ai
Ã ģ
Ġ co
00 0
ĠV Äĥn
ĠLá »
Ãł m
Ġch uáº©n
Iá »
Ġsá º¯c
Ġs Ã¡t
Ġtrá º£
Æ ¯
© a
Ġb a
º¿ p
Ġho a
Ġgiá» ¯a
i c
Ġv ui
Ì ĥ
Ġkhoá º£ng
Ġtá» ©c
ĠchÃ ¢n
Ġb ay
ı e
º ¢
Ġmá» ©c
Ġdá»¥ c
Ġmá º¥t
Ġch ia
Ġx Ã¡c
ĠÄĳá º§y
âĢ ľ
Ġph ong
Ġá º¥y
ĠÄĳ Ãºng
Ġm áº¡ng
Ãł u
Ġkháº ©u
ĠÄĳ Ãłn
Tá »
ĠÄĳá»Ļ i
ĠkhÃ Ń
Æ°á»£ t
ĠDá »
Ġqu Ã½
Ġl uáºŃn
Ġ1 9
ĠÄĳÃ³ n
Ġcá» ĳ
Ġtá» ·
Ġm Ã¹
Ġ1 2
Ġth oáº¡i
Ġr Ãµ
ĠN á
Ġká» ¹
N há»¯ng
Ġk iá»ĥm
C á
Vá »
Ġth uá»ĳc
Ġ O
¥ n
Ġhá» Ĺ
a d
Ġl Æ°u
Ġ Ã¡p
Ġb an
c Æ°
Ġg Ã³
Ġkhá» ıe
Ġmá» Ł
Ġ cÆ°
Ġkháº £
Ã² a
Ġtr anh
Ġgá» įi
Ġw eb
c Ãłng
Ġto Ã¡n
Ġ cÃłng
Ġ .
¢ u
Ġb Ãł
Ġchá» ĳng
Ġm inh
Ġkho a
ĠÄĲ áº¡i
Ġkhoá º£n
Ġlá» ±a
N h
Ã¢n g
âĢ ĵ
Ġtá»ĳ i
c Ã¢y
ĠChÃ º
Ġ2 0
u s
Ġ cÃ¢y
B áº¡n
t iá»ĩn
Ġl uáºŃt
Ġtr Æ°á»Łng
Ġ tiá»ĩn
Ġháº ¡n
ĠC Ã¡c
Ġcá º¡
ĠÄĳá º£m
Ġh Æ°á»Łng
C M
t Æ°Æ¡ng
Ġsáº »
Ä ĳ
Ġs ang
ĠT hÃ¡
Ġcá» ©
Ġtá» ķng
Ã¡ y
»ĳ n
Ġch Æ°Æ¡ng
ĠhÃ £y
i s
Ġlá º¥y
ĠÄĳ Ã¢u
Ġ in
Ġcá» ±c
Ġg Ã¡i
ĠdÆ°á» ¡ng
Ġb iá»ĥu
C hÃ
Ġgiá» ¯
Ġy áº¿u
Ġgiá º£
ĠÄĳá»Ļ c
Ġ tÆ°Æ¡ng
Ġmáº «u
t Æ°á»Łng
ĠBá »
Ġ tÆ°á»Łng
iá»ĩ p
º ½
ĠphÃ ©p
âĢĿ .
C há»
Ġng uá»ĵn
t er
Ġ ÃŃt
Ġk iáº¿m
1 0
Ġd i
Ġng Ãłnh
Ã Ķ
Ġ J
t háº¥t
Ń i
ĠnghÄ© a
Ġ tháº¥t
Ġd anh
c uá»ĳi
Ġv iá»ĩn
ĠÄĳá º¥u
Ġngh e
Ġ cuá»ĳi
µ n
i d
uá º§n
Ġs Æ¡
Ġcá» ¥
Ġb Ã³ng
ĠÄĳo Ãłn
ĠHá »ĵ
ĠtÃŃ n
ĠT hÃ
ĠphÃ ¹
u Ã¢n
Ġ Ã´
Ġngh i
¡ t
t Ã´
) ,
Ġx in
ĠN háºŃt
l o
Ġd Ã¹
l in
Ġ ÃŃch
Ġcáº¡ nh
ĠÄĳáº¡ t
Ġ Ã¢m
u r
ĠÄĳá º
Ġn am
Ġthu Ãª
Ġxá »Ń
ĠNh Ãł
Ġrá »Ļng
Ġchá»ĭ u
Ġtr áº¡ng
»ĳ c
Ġmá ºŃt
on e
ĠTr ong
Ġvá ºŃn
Ġrá º»
ĠH á»Ļi
ĠP hÃ¡
Ġd Ãłnh
Ġtháº §n
ĠChÃ Ńnh
Ġgá» Ńi
ĠÄĳ Ã¡
Ġv Ã¹ng
Ġr iÃªng
co m
a p
ĠÄĳ Ã¡ng
ĠTh anh
ĠT R
Ġx uá»ĳng
¡ c
ĠÄĳ au
º§n g
Ġl Ã¢u
ĠÄĳ Ã´
Ġchá» ¯a
si te
º ±m
Ġm Ã´i
Ġcá ºŃp
ĠN áº¿u
Ġb iá»ĥn
Ãº i
º£ y
Ġho áº¡ch
ĠphÃ Ńa
in g
»ĵ m
ĠK hÃ´ng
Ãº t
ai l
Ġpháº ¡m
T T
D á
Ġlá»Ľ p
Ġ1 5
Ġ Ã¡o
Ã£ y
ĠTh Ãłnh
ĠÄĲá» ©c
201 8
Ġ uá»ĳng
Ġnghá» ĭ
Ġx a
Ġm Ã´
ĠÄĲ Ã´ng
Ġngá» §
´ i
Tr ong
o m
a g
ĠvÃł n
o l
Ġgá »ĵm
ĠQ uá
ĠnhÃ ©
Ġcháº ¯c
Æ° Æ¡
Ġph im
Ġqu Ã¢n
º ¾
Ġháº ¯n
ĠKá »
Ġn Ã¢ng
Ġphá» §
ĠP háº
B Ãłi
Æ°á» Ľi
ĠT H
© y
Ġm Ã³n
t uyáº¿n
Ġs Æ°
Ġ tuyáº¿n
º ¤
Ġká» ĥ
ĠvÃłn g
ĠhÃ´ m
ĠhÃ ²
ĠC Ã³
Ġcháº¿ t
Ġb Æ°á»Ľc
Ġtá º£i
ĠÃ ģ
ĠV i
ĠChÃ Ń
Ġ Æ°u
Ġhá»ĵ i
u m
Ġ háºŃ
T in
ĠÄĳá» įc
Ġgiá º£n
Ġnh u
ĠB áº¡n
t uyá»ĩt
º ł
ĠK h
ĠÄĳ Ã´i
Ġ tuyá»ĩt
Ġ f
Ġth iá»ĩn
Dá »
»ĳn g
Ġ201 7
t uáº§n
Ġd áº¡ng
ĠT uy
ģ m
Ġ3 0
Ġ tÃ´
Ġtr Ã²
Ġvá º»
Ġb Ã¡c
ĠChá» §
Ġtrá º¯ng
ĠMá »Ļt
ĭ a
Má »Ļt
Ã£ n
ĠBá º£n
ĭ p
e d
Ġ tuáº§n
Th eo
Ġtr Ã¡ch
ĠBá º¯c
§n g
³ m
Ġnhá» Ľ
Ġvá» ĳn
Â »
Ġ ...
Ġd Ã²ng
Ġx Ã©t
Ġ1 1
L á
ĠmÃ¹ a
ĠT o
Ġ &
Ġs Ã¢n
Ġlá» ĩ
ĠTrá »
t uyá»ĥn
Ġcá »Ļng
Ġd áº¡
ĠG iá
Ġm áº¡i
Ġtrá ºŃn
Ġ tuyá»ĥn
Ġth iáº¿u
Ġn Ãłng
Ġchá» ĵng
¹ n
ĠnháºŃ t
ĠÄĳo áº¡n
Ġkhá» ıi
Ġng oáº¡i
ĠNh Æ°ng
ĠT Ã´i
Ġv Ã²ng
ĠÄĳ Ã´ng
ĠHo a
Ġk ÃŃch
Ã© o
Ġmá» ģm
Ġx anh
Iá» Ĩ
ĠÄĳ Ã¡p
háº¥ n
Ġcháº ¡y
C Ã´ng
ĠTá» ķng
ĠNg Æ°á»Ŀi
Ġná º±m
am e
1 1
c Ã¢n
Ġtá º§ng
Ġl ao
Ġm iá»ħn
i l
Ġtrá» Ŀi
Ġl áº¡nh
ĠhÃ² a
Ġ cÃ¢n
Ġtr Ã¡i
á»Ļ n
Má »
ĠhÃ ºt
ĠvÃł i
Ġm Ã´n
Ġh iá»ĥm
ĠT Ã¢y
ĠN há»¯ng
1 2
Ġgiá» ĳng
Ġ i
T hÃ´ng
háº ¿
P h
iá»ģ m
H CM
Ġgi Ã¡c
ĠháºŃ u
v n
C Ã³
ĠÄĳÃ³n g
ĠD Æ°Æ¡ng
Ġvá» £
ĠphÃ ºt
ĠH Ãłn
Ġmá» ¹
ĠT hÃ´ng
Ġng uy
ĠchÃº t
¥n g
K hÃ´ng
Ġnh iá»ĩt
Ġpháº £n
lin e
i Ãª
ĠgÃ³ p
ĠÄĳá» ĳ
Ġsá»Ń a
Ġvá» įng
Ã Ĭ
Ġr Äĥng
Ġ2 00
ĠD o
Ġth Æ¡
hÃ ¢n
ĠÄĳá» ©ng
Ġd Ãłng
á»Ļn g
Ġngh iÃªn
Ġcháº ³ng
ĠThÃ¡ i
u Ã´i
Ġgiá º¥y
ĠHo Ãłng
C H
a t
Ġná» ģn
ĠnÃ³ n
ĠHá º£i
Ġnháº ¡c
G i
Ġtá» ĭch
Ġthuá ºŃn
ĠlÃł n
Ġl a
ĠthÃ ´i
Ġm ong
Ġtr Ã¡nh
Sá »
áº¡ p
ĠL ong
Ġlá» ħ
Æ° Æ¡i
Ġdá º¥u
Ġxá »
Ġkh Äĥn
ĠÄĲ iá»ģu
Ġdá º§u
ĠI n
ĠlÃ£ nh
ĠkhÃ ³a
r e
£n g
Ġch Äĥm
Ġg hi
Ġkháº £o
ĠQ uáºŃn
Ġs Ã¢u
ĠÄĲá» ĵng
ĠS au
ĠkhÃ¡ m
U á
Ã¨ n
ĠÄĳ Ãło
ĠK hi
Ġweb site
Ġbá» ķ
âĢĿ ,
Ġnghá» ī
u p
Ġs Ã³c
Ġháº¡ i
Ġphá» ĳi
Ġng Ã¢n
Ġ háº¥p
į t
ĠnÃ³n g
ĠhÃ £ng
Ġth iá»ĩu
iá» ħ
c Æ°á»Ŀi
Ġch iá»ģu
ĠchÃ ³ng
ĠÄĳ Ãªm
ĠThá» ĭ
ĠNg há»
ĠnhÃ ³m
Ġs áº¡ch
Ġquá ºŃn
i t
N D
Ġtr ai
Ġ1 00
ĠNg á
Ġ cÆ°á»Ŀi
Ġm Ãłn
Ľ m
ĠB an
ĠL iÃªn
ı n
ı a
ĠTr Æ°á»Ŀng
Ġs uáº¥t
Ġnháº ¹
Ġmá º¯c
c am
ĠS Æ¡n
ĠTr ang
Æ¯ á
Æ¯á »
Ġcáº£ i
l i
Ġ Ã¡nh
Ġbá ºŃt
Ġnghá» ģ
ĠmÃ¡ u
Ġth ai
N áº¿u
Ġxá º£y
Ġtháº ©m
ın g
Ġchá» Ĺ
Ġnháº ±m
Ġthá» Ń
Ġk Ãª
Ġquá º£ng
ĠU S
Ġth iÃªn
2 0
ĠVá» Ľi
ĠN G
© t
t Æ°á»Ľng
ĠK hÃ¡
Ġ tÆ°á»Ľng
ĠPhÃ º
. âĢĿ
Ġd uy
ĠÄĳá º£o
Ġk ÃŃnh
Ġh uyá»ĩn
Ġ1 8
e w
Ġ uy
Ġchá»ī nh
ĠP há»
Ġtá ºŃn
ĠthÃ º
ĠthÃ¡ i
Ġl Ä©nh
Ġ cam
ĠÄĲ Ã¢y
p h
c u
Ġn Ã´ng
Ġ2 4
º ©m
Ġsá» Ľm
ĠÄĲ Ãł
t u
t ai
ĠÃ Ķ
Ġk Ã©o
áº¡ m
Ġh Æ¡i
K á
oo k
Ġb uá»ķi
uá»ĳ t
t Ã³c
Ä ĥ
T Ã´i
Ġtháº¥ p
i g
Ġcá ºŃu
Ġ tÃ³c
an d
ĠNgá »
Ġná »ĳi
Ġmá º·c
Ġtr Ã¬
t iá»ĥu
ĠmÃ¡ i
ĠT in
Ġx uyÃªn
iáº¿n g
ĠPhÃ¡ p
Ġm a
Tr ang
t Ã¹
ĠÃ Ĥ
Ġngá» Ŀ
Ġ Æ¡n
ĵ i
Ġqu anh
Ġ tiá»ĥu
Ġtháº £o
c háº¥p
ĠÄĳá» ı
ĠV Ãł
Ġs iÃªu
Ġ tai
Ġ cháº¥p
Ġká» ·
ĠV Ã¬
o s
ĠÄĳ em
c Æ°á»Ŀng
Ġlá »Ļ
Ġk iá»ĥu
Ĥ N
ĠTrá º§n
Ġng Ã´i
Ġ cÆ°á»Ŀng
Ġ tÃ¹
Ġ /
Ġth Æ°á»Łng
Ġthuá º¿
Ġtháº ¯ng
Ġth ao
Ġtrá º£i
Ġqu en
S au
ĠTháº ¿
ĠÄĲ Äĥng
Ġs uy
Ġx Ãºc
ĠE m
Lá »
Ġkháº ¯c
Ġngá »ĵi
Vá» Ľi
c Å©
Ġm Ã£
Ġ cÅ©
Ġlá» Ĺi
ĠThá» §
Ġng hÃ
Ġh uy
Ġl inh
Ġthá»§ y
Ġs ai
Ġcháº ¯n
ĠT Ã¢n
Ġ cu
Ġ1 6
ĠK inh
ĠGi Ã¡o
Ġth Äĥm
Ġ1 3
Ġl áº¡c
Ġn iá»ĩm
Ġm iá»ģn
Ġcháº ·
ĠK ho
ÄĲ Äĥng
Å© i
Ġng on
ĠC hi
Ġd Ã¢y
Ġv ai
Ã£ o
Ġvi Ãªm
Ġlá º½
Ġdáº¡ y
Ġquá º§n
Ġkhá» Łi
Ġ o
ĠChÃº a
Ġs áº¡n
Ġn iÃªn
Ġqu ay
Ġk ia
ĠPhÃ ²ng
º ¬
Ġnhá» Ŀ
Ġn áº¡n
ĠhÃ ¡t
ĠChÃ ¢u
Ġv a
Ġá º¥n
ÄĲá» ĭa
k e
ĠL an
Ġtá»ĳ c
Ġ Â»
Ġv Æ°á»£t
Ġsá» £
ĠChÃº n
ĠChÃºn g
Ġm ay
ĠTh iÃªn
ĠNá »
Ġg ame
Ġb Ã¡nh
Ng Æ°á»Ŀi
Ġchá» ©
Ġtá º·ng
1 9
Ġn uÃ´i
iá»ħ m
K hi
G iá
Ġ201 6
C Ã¡ch
§ u
Ãµ i
n et
Ġ1 4
Ġphá» ķ
Bá »
201 7
Ġtr uy
Ġná º·ng
ĠÄĳáº ©y
ĠL Ãª
º µn
Ġmá º¥y
e x
ĠQuá º£ng
Ġph iÃªn
Ġ ?
ĭ nh
ĠUS D
Ġchá» Ŀ
ĠkhÃ¡ n
Ġgá» Ĺ
Ġsá» ¯a
ĠgiÃ¡ m
ÄĲá» ĥ
r a
Æ ł
Ġbá º¿p
Ġch a
ĠX uÃ¢n
¥ p
ĠR á
d o
ĠKá» ³
U Y
ĠÄĳ en
ĠphÃ ºc
ĠG ia
ĠphÃ ª
Tr á
Ġl uyá»ĩn
ĠTá» «
ºµn g
Ġngá» ¯
Ã³ a
Ġ0 9
Ġl áº¡
Ġb ÃŃ
ĠHá» įc
L iÃªn
ĠÄĳá»ĳ c
Ń n
ĠD u
Ġchá» ¯
Ġ2 5
Ġtr uyá»ĩn
Ã¨ m
Ġl iá»ģn
Ġtá º¥n
H o
Ġsáº µn
Ã ©m
Ġs ung
Ġchá» ©a
¢ m
iá» Ľi
Ġcá º¥u
ĠH Ã²a
ĠthÃ ºc
ÃĬ N
Ġti m
ĠP hi
Ġxá º¿p
Ġh Ãłi
Ġd Ã¡ng
t Ãłu
T Ã¬m
ĠBá º£o
Ġl Ã¡
ĠhÃ ´n
ĠSá» Ł
Ġm Æ¡
Ġm Ã£i
ĠNg h
Ġtho á
Ġ tÃłu
ĠchÃ ¡
Ġng Äĥn
Ġháº¡ nh
ĠNg a
Th iáº¿t
Ġbá» ©c
ĠchÃ ¢u
Ġ5 0
ĠNg uyÃªn
X em
ĠtÆ° Æ¡i
o b
Ġng Æ°Æ¡i
ĠNá ºµng
Ġbá º£ng
ĠC H
Ġtr Ãºc
ĠÃĶ n
ÄĲ iá»ģu
Ġtá »Ļi
ĠGi ang
Ġsá º¯p
" .
ĠÄĳ ÃŃch
Ġgi ai
Ġbá º§u
Ġqu Ã¡n
Ġnh iá»ħm
v er
Ġtá »Ļc
Ġká º»
Ã¹ i
Ġph a
Ġá» ķn
Ġh Æ°Æ¡ng
Ġtá º§m
ĩ t
v i
ChÃ Ńnh
ĠT Ãłi
ĠSá »ĳ
Ġy Ãªn
Ġtháº ³ng
ĠTh eo
Ġtr ao
¹n g
iá»ĩn g
Ġ1 7
âĢ Ļ
º n
l l
ĠÃĶn g
ĠB a
ĠÄĳáº ³ng
Dá» ĭch
ĠcÃ¡ n
ĠT Æ°
Ã³ i
Ġdá» ¯
ĠÄĳ Ã¨n
Ġv Ã©
Ġcá» Ń
Ġk iá»ĩm
p p
ĠH Ã£y
c Ãł
ĠN hÃ¢n
ĠP háºŃt
uá º¥n
Ġx o
Ġ on
Ã² i
uá »Ļt
Ġ cÃł
Ġgá »ĳc
Ġlá º¯m
I N
Ġ a
Ġngá º¯n
ĠNg oÃłi
eb ook
Ġnghi Ãªm
Ġthá»ĭ t
Ġcá º¯t
Ġkh uyáº¿n
Ġmá »ĳi
Ġs uá»ĳt
Ġb Ãły
Ġnh iÃªu
H Æ°á»Ľng
o p
Ġco i
Ġm iá»ĩng
ĠÄĳá» «ng
Ġm Å©i
ĠÄĲ iá»ĩn
ĠPh Æ°Æ¡ng
r i
ºn g
Ġdá» ĭ
3 0
ĠChá» ī
ĠÄĲá» ĥ
Ġb uá»Ļc
Æ°á» ¡ng
ĠcÃ¡ nh
ĠmÃ¡ t
Ġpháº Ńn
Ġ [
ĠG á
C hi
Ġx ong
Ng Ãły
Ġ '
t uy
º¢ nh
ĠN inh
»ĳ t
ĠNgá» įc
ac ebook
Ġn inh
ĠB Ã¡o
Ġlá º¯p
Ġd Æ°Æ¡ng
Q u
Ġso Ã¡t
Ġk ÃŃ
Ġvá» Ŀi
Ġqu Ãªn
Ġl Æ°Æ¡ng
ĠL Ã½
ĠC ao
Iá º¾
Ġtá º¯c
Ġhá» ĵng
Ġbá» ģn
Ġháº ¡ng
Ġdá º§n
Ġng Å©
Ġl ai
Ġcá º§m
Ã© p
ĠNh a
Ġ tuy
Ġqu Ãł
c háºŃ
ĠL uáºŃt
ĠS Ãłi
ĠÃĤ u
Ġk im
Ġháº¡ t
ĠGi Ã¡
C ho
c Æ°á»Ľi
ĠgÃ³ i
H iá»ĩn
Tá» ķng
Ġ cÆ°á»Ľi
o Ãłn
A N
Ġ cháºŃ
ĠC on
Ġhá»į a
Ġm Ãª
Ġch uyáº¿n
c k
Ġb iÃªn
i Ãªm
¡ nh
Ġch u
ĠÄĳá º¥y
ĠPh ong
Ġg hÃ
ĠCh o
Ġn Ã©t
Ġ tu
ĠÄĳ Ã¡o
ĠG Ã²n
5 0
Ġchá» ¥p
Ġchiáº¿ u
§ m
Tá» «
Ġk Ã¨m
ĠâĢ ¦
ĠÄĲá º£ng
Ġv Å©
Ph one
B ND
ĠK im
ĠkhÃ ´
ĠSá º£n
Ġlá º¯ng
T hÃ
Ġr Ãłng
Ġmá» ¥n
Ġ ung
ĠC Ã´
iáº¿ c
Ġ !
Ġh uyáº¿t
Ġm áº¡ch
Ġá º¥m
t Ã²a
Ġtrá» ĵng
Ġx u
Ġs Ã´ng
Ġ tÃ²a
Ġxá º¥u
Ġk Ã©m
Æ°á»£ u
ĠT áº¡i
t t
Ġmá» «ng
ĠThÃ ¡ng
Ġvá» ¯ng
t Ã¡i
er a
Ġn iá»ģm
l a
Ġd Ãµi
t an
HÃ ģ
t Ã´n
ĠhÃ ¨
Ġnh a
Ġm Æ°a
ĠL inh
¯ p
ĠÄĳá»Ļ t
P hÃ
ĠL o
Ġ tÃ¡i
ĠNg Ãły
Ġb Ã¨
Ġ201 5
ĠÄĲ Æ°á»Ŀng
ĠThá» Ŀi
A M
Ġl Ã¡i
Ġtháº »
Ġ tÃ´n
i r
V N
Äĳ á
Ġho Ãłng
ĠQu ang
Ġtháº §y
c uá»ĳn
Ġb Ãło
ĠG I
Ġgi Ã³
Ġgi Ãłu
ÃĶ n
t uyÃªn
Ľ p
Ġg háº¿
ĠQu Ã½
Ġ cuá»ĳn
t Ãºi
º ¦
o u
Ġth Æ°á»Ľc
P T
ĠH Ãłng
Ġ tuyÃªn
Ã³ t
Ġgiá º£ng
ĠSá» ±
Ġh a
en t
Ġl Æ°á»£c
Ġ tÃºi
T áº¡i
ĠlÃł nh
ĠHá» ĵng
Ġch Ãłng
Ġrá» Ńa
Ch Æ°Æ¡ng
Ġx ung
Ġá º©m
Ġtho Ã¡t
Ġkhá» ĳi
Ġ Æ°á»Ľc
ChÃ ºng
ĠÄĲ Ã¬nh
ÃĶn g
ĠPhÃ ³
ĠTh iáº¿t
ĠchÃ ¡y
Ġthá» ¥
t am
Ġl Æ°á»£t
- -
Ġd Ãły
a k
Ġthá» «a
Ġkhá» ķ
ĠtÃ¹ y
Ġchá» £
Ġs Ã³ng
Ġhá»į p
Ġthoá º£i
ĠV N
Ġng o
V Äĥn
Thá» Ŀi
c an
Ġná º¯ng
1 8
P háº
D u
ĠKho a
ĠH ai
Ġ Z
Ġná º¯m
Ġv ay
ĠT Há»
ĠchÃ¡ u
ĠV Å©
ĠtháºŃ n
M Ã¡y
ºł I
ar d
ĠÄĳo Ã¡n
Ġgá º¯n
Ġlá» Ńa
Nh Ãł
i le
ĠTh u
lo g
Ġmá» Ŀi
Ġs Ãłn
ĠM ar
Ġtr Ã¹ng
Ġon line
ĠthÃ Ń
B á»Ļ
ĠTh Æ°Æ¡ng
Ġr Æ°á»£u
ĠB Ãł
ĠtháºŃ m
Ġb iá»ĩn
Ķ NG
G á
ÃĶ NG
ĠÄĳá» ķ
Ġb áº¡c
Ġ2 2
Ġtháº £
Ġx inh
ĠNghá» ĩ
Ġph i
Ġb Ã¢y
ĠL a
Ä Ĥ
t Æ°á»Ŀng
Ġn Ãºi
ĠB Ãłi
Ġtá º¯m
ĠÄĳÃ£ i
Ġnháº ¯c
Ġng Ã´n
Ġ tÆ°á»Ŀng
Ġsá» ķ
2 00
ĠVi et
Ä© a
Ġkháº ³ng
Ġcá» ©ng
ĠM Ã¡y
Ġth uyáº¿t
háºŃ n
ĠC á»Ļng
Ġtá» §
Ġtá º¥m
Ġg Ãł
Ġ2 1
h t
Ġi Phone
Ġchiáº¿ m
Ng oÃłi
Ġbá» ¥ng
Ã Į
ĠKh u
Ġdá» ĭp
ĠÄĳ Ã¡m
Ġ +
ĠH CM
ĠÄĳá» ©a
c m
Ġtá» ĵn
Ľ t
º ©y
.. ..
201 6
Ġthá» ±
Ġl y
Ġr Æ¡i
Ġb uá»ĵn
ĠTá º¿t
Ġháº £o
ic k
ĠphÃ ³ng
Ġho Ã¡
º¤ T
Ġháº §u
Ġtá» ı
ĠL Ã¢m
ter net
ĠL Ãłm
i e
ĠÄĳá» £i
Cá »
Ġk Ã¬
Ġcá ºŃn
es s
ĠPhÃ¡ t
Ġ4 0
Ġmáº ½
Ġn háº¥n
g le
u e
m ar
Ġr au
Ã Ŀ
Ġquá »
1 5
ĠC Æ¡
l d
Ã Ĥ
Ġlá» įc
Ġgá» įn
Ġl Ã´ng
Â ©
ĠV iá»ĩc
ĠR e
ĠÄĳ Ãª
ĠC Ã¡ch
Ġvá º¿t
oo gle
ĠU BND
ĠGi Ã¡m
ĠPháº ¡m
Ġl iá»ĩt
į a
ĠTá» ķ
Ġtá» Ŀ
" ,
Ġdá»± a
Ġph iáº¿u
ÄĲ Ã¢y
Ġng áº¡i
Ġtá» ī
ĠH iá»ĩn
ĠthÃ¡ c
A nh
or e
2 4
T uy
ĠTá ºŃp
Ġtr i
ĠlÃ£ o
a x
Ġbá» ¯a
E m
á»Ļ c
Ġbá» įn
H Ã£y
ĠDá» ĭch
Ġnháº ¯n
Ġs Ãłng
o d
Ġtr Äĥm
ĠT iÃªn
Ġlo áº¡t
Ġr Ãºt
ĠH ÃĢ
Ġng uyá»ĩn
Ġl Æ°ng
UY á
Ġháº £i
Ġgá º¥p
Ġká» ĭp
i f
ĠÄĳá» ¡
. "
Ġhá» ģ
o i
Ġkháº ¯p
Ġgá º¯ng
ĠM ai
Ġná º¥u
Ġcá» ¥c
ĠmÃ¹ i
Sá º£n
¨ o
? âĢĿ
ºŃ c
ĠNg Ã¢n
ac k
L Ãłm
Ġ Æ°Æ¡ng
a v
K hÃ¡
º «u
Ġd uyá»ĩt
ĠPh Æ°á»Ŀng
Ġtá» ¥
Ġtrá» ©ng
Ġkh uÃ´n
Ġg Ã³c
Ġrá »ĳi
ĠTr uyá»ģn
Ġch Ãło
i ty
ĠlÃłn g
ĠY Ãªn
Ã¹ a
D anh
Ġlo áº¡n
Ã ĵ
Ġd inh
ĠF acebook
ĠGiá º£i
º¥ c
ÄĲ Æ°á»£c
uá º¿
Ġcháº· t
B Ã¡n
0 9
ĠS inh
Ġd Æ°
ĠÄĲ Ã³
2 3
Ġrá» «ng
ti on
Ġs a
N á
Ġtr Æ°ng
Ġbá ºŃc
Ġsá» ©
1 6
Ġpháº ¡t
ĠK hÃ
or d
ĠTR á
ĠÄĳ Æ°Æ¡ng
ĠQ uy
Chá» ī
ĠH Æ°ng
Ġv Æ°á»Ŀn
ĠN Äĥm
ĠT Ã¢m
Ġháº ³n
Ġ2 3
t áº¡m
ĠN háº¥t
T C
K inh
Ġ can
tin g
Ġ >
ĠcháºŃ m
201 5
Ġná» Ńa
Q uy
ĠÄĲá º§u
K h
ĠV ÃĢ
t áº¡p
T Æ°
á º£ng
c Æ¡n
Ġvi d
Ġná» £
Ġkh iá»ĥn
Ġ táº¡p
Ġem ail
HÃ ĶNG
Ġx Æ°Æ¡ng
Ġvid eo
Ġqu Ãª
ĠkhÃ ºc
Ġngá» ±c
Ġh iá»ĥn
Ġs ong
1 7
Ġá» ŀ
I NH
u b
I ÃĬN
ĠÄĳá» ©c
! !
Ġ táº¡m
ÄĲ T
Ġth a
uá» ĵng
ĠkhÃ¡n g
ĠCh Æ°Æ¡ng
Ġlá º«n
E O
ĠGiá º¥y
ĠC HÃ
Ġná» Ĺi
Ġ e
Ġng Æ°á»£c
Ġ 01
Tr Æ°á»Ľc
Chá» §
f f
ĠDá» ±
/ /
ĠBá» ĩnh
Ġ cÆ¡n
Ġ201 4
c Äĥng
Ġs Æ¡n
Ġbá »Ļt
Ġá» §y
ĠCá º§u
Ġtrá» «
ĠP ar
ĠÄĲ a
ĠCá» ķ
Ġdá» «ng
Ġtrá» ¥
Ġhá»Ļ p
³ i
ĠTá» Ń
Ġk em
Vá» ģ
Ġmá» ¡
Ġcháº £y
Ġxá» ©
Ġá º©n
Ġtháº £i
Ġ cÄĥng
ĠC am
ĠS a
ĠÄĳ iá»ĥn
Ġtá» ĩ
0 5
0 7
Ġph Æ°á»Ŀng
Ġtá º£
ĭ n
Ã´ m
ĠCá º§n
ĠcÆ¡ m
0 8
Sá» ±
ĠThÃ¡ nh
Ġkhá» §ng
ĠN hÃ
m á
uá» ĩ
ĠX e
Ġná »Ļ
Ġh y
tt p
Ġngá» įt
Ã¡ u
ĠNh Æ°
Ġhá» ĵn
ĠPháº §n
Ġth ang
uá» ³
Ġpháº «u
ºŃ m
Gi Ã¡
ĠO n
Ká »
d a
Ġb i
ĠÄĲá º·c
ļ I
ag e
0 6
Th Ãłnh
Tr ung
: //
º¢ N
ĠNghá» ĭ
ĠÄĳ Ã²i
Ġg Æ°Æ¡ng
ĠÄĲ oÃłn
ĠHá» į
Ġrá» Ŀi
D o
Ġtho Ã¡ng
T háº
C Æ¡
ĠVá ºŃy
ĠphÃ º
1 4
ĠnghÃ ¨o
ĠthÃ ´n
ĠQuá º£n
Ġngá» «ng
Ġch e
ĠH Ã³a
in e
Ġá º¢nh
Ġthá» ıa
Trá »
T V
V Ã¬
Ġá »ĳng
ĠThá» ±c
Ġháº ¹n
Ġ2 6
ĠB iÃªn
ĠÄĲá» ĭnh
Ġh Ãło
ĠN Ã³
r y
c Ãłi
t on
n am
Ġx Æ°a
Ġg an
ĠQu Ã¢n
Ġthá» Ł
ig ht
Ġ2 8
Ġb áº¡i
, âĢ¦
ĠÄĳá» ĩ
»Ń i
Ġcá º·p
Ġtrá» ¯
ĠTP HCM
ĠW eb
Ġgi Ãł
Ġ cÃłi
Ġng Ãłn
ĠN ew
Ġmá »Ļ
Ġb Äĥng
Ġtá º¯t
ho p
i o
Ġdá ºŃy
ĠL e
Ġl an
l y
Ġnh Ãłng
ĠK H
Ġh iá»ĩp
¡ i
Ġ )
ĠâĢ ĺ
1 3
c e
0 2
ĠC Há»
ĠX em
¦ y
as s
ph one
ĠN Há
ĠC Ã²n
b á
ĠN o
Ġb inh
ĠV iá»ĩn
w w
ĠT p
ĠG oogle
ĠM a
Ġ6 0
ĠKhÃ¡ ch
ĺ I
t Ä©nh
ĠÄĲ Ãło
o x
Ġcháº· n
ĠG iá»Ľi
§ i
ĠÄĲá »ĳi
Ġ tÄ©nh
Ġlá »ĳi
ĠchÃº c
Ġm i
ĠthÆ¡ m
Ġ2 7
Ġm ai
0 4
ĠV in
Ġm Ãły
Ġk o
º ¨
0 3
an k
Ġtá» ķn
Há» įc
Ã¨ o
Uá »
Ġsá º¯t
te l
ĠV inh
ĠV Æ°Æ¡ng
Ġtrá» įn
Q uá
Ġmá º¯n
ĠkÃŃ n
Ġtr Ãł
Ġl oÃłi
2 5
d e
Ġng ang
ĠB Ãªn
Ġá º¤
ĠD Ã¢n
Ġvá º·t
Ġh Ãłm
Ġthá» Ŀ
ĠDo anh
£ t
Bá º£n
ĠC háº
Ġnhá» ±a
y r
háº¥ m
ĠÄĲ á»Ļ
ĠMá º¹
Ġb Æ¡
tam in
s e
ĠÄĳ Æ°Æ¡
ĠKá º¿
Ġlá» ĩnh
ĠV Iá»Ĩ
Ġtr Ã´ng
ĠbÃ© o
ĠÄĲ á»Ļng
Ġb Ãª
Ġd Æ°á»£c
v e
Ġnh i
ĠÄĳ Ãłi
Nh Æ°ng
Ġd Ã¡m
¥ i
ĠV Ã¢n
P hÃ¡
ĠN H
Ġgi Ãłnh
Ġkh ung
háº¥ u
º «
ĠTh e
ĠT Ã¬nh
Ġk Ãªu
Ġb Ã£i
ÃĮ NH
Ġbá» ģ
ĠLá» ĭch
T Ãłi
Ã ©n
am s
Ġkh uáº©n
Ġlá º§m
Ã£n g
ta r
Ġg iáº¿t
ĠK háº
ĠPhÃ ºc
ĠTá º¥t
Ġgi Æ°á»Ŀng
ĠH Æ°Æ¡ng
ĠH áº¡
Ġqu ang
ĠH iá»ĩp
â ĸ
Dá» ±
Ġtá»ĳ n
Ġth Æ°á»£ng
ĠX Ã£
ÃĢ I
ĠlÃ£ i
Ġn Ã£o
Į C
ĠK há»
Ġh Æ°
Ġlá» ¥c
ĠPh an
Sá »ĳ
Ġná» ķ
Ĺ n
ĠMá» Ľi
Ġná»Ļ p
Ġgi Ã¢y
Ġ Ã©p
Ġm Æ°á»Ŀi
Ġhá» ©ng
or t
u Ã´ng
Ġmá» ĩnh
ÄĲá »ĳi
Ġmá» ĩt
ĠthÃ ¹
2 2
e c
Ġlá» Ĺ
ĠÄĳá º£ng
Ġth iá»ĥu
Ġsá»ĳ t
C Ã¢u
Ġá» ¦y
ĠP Há
ĠT iá»ĥu
UYá »
ĠT a
Ká º¿t
Ġ2 9
Ġsá º¯m
Ġá» §ng
Ġtr Æ°Æ¡ng
s á
N á»Ļi
ĠÄĳ ua
do w
ĠÄĳá ºŃu
Ġh ttp
Æ¯ Æł
G iá»Ľi
V iá»ĩc
ĠB ÃŃ
Ġgiá º¥c
Ġkho Ã¡n
Ġl Ã´
Ġ201 3
t Ã¢y
ĠX Ã¢y
Ġn on
ĠÄĲ Ãłi
ĠNh iá»ģu
i k
Ġgiá» ıi
in k
ĠchÃ ³
Æ¯á» ľ
ĠG iá»
ĠC up
Ġlá º»
Ã³ m
ĠT iáº¿ng
Ġ tÃ¢y
K ho
ĠchÃ ¹
Ġv ÃŃ
ĠÄĳá» īnh
Ãº a
ÄĲ áº¡i
Ġv ong
um p
C Ã´
Ġkh uyÃªn
Ġn a
Ġcam era
Chi a
Ġ áº¡
t Ã´ng
Ġgi Ãły
ĠD iá»ħn
Ġth iá»ĩt
to p
Ãģ C
Ġ tan
ĠphÃ¡ i
Ġnh uáºŃn
háºŃ p
Ġsá» ¹
P há»
Ġgiá» įng
ĠÄĳá»ĭ ch
Ĺn g
id eo
Ġ19 9
A O
± u
ĠGi ao
T Ãªn
u l
I I
Ġmá» ıi
ĠKá º¿t
Bá» ĩnh
in dow
Ġngá» «a
¡ ch
l ick
H Ã¬nh
Ġtr Ãło
ĠB Ã¡n
Ġ tÃ´ng
c háº¥m
Ġ *
mar t
A NH
º¬ T
t iá»ģm
ĠT iáº¿n
uá» Ĺi
Æ¯Æł NG
ĠP HÃ
t Ãłn
Ġd iá»ĩt
ĠHá» ĩ
ĠÄĲá» ĭa
Giá º¥y
Ġ tiá»ģm
8 8
ĠA r
ĠL Ãł
ĠtháºŃ p
ĠNg oáº¡i
Há» Ĺ
Ġlá º·ng
Ġp in
Ġ cháº¥m
ĠV iÃªn
tá »
Ġkhá» Ľp
Ġ tÃłn
Ġtr Ãłn
ĠÄĲá º¿n
ĠN há»
Ġtr Ã²n
B Ã¡o
h a
Ġch ua
Ġm áº¡c
Ġr Ã£i
Ġl ÃŃ
ĠH Ã¬nh
ĠkhÃ³ c
Ġtr Ãº
âĢ ¢
Ġ5 00
Thá» ±c
ĠBá» Łi
Giá º£i
ĠVá» ģ
¨ n
m e
ĠV Ä©nh
R á
ĠKhÃ¡ nh
ams ung
B Æ°á»Ľc
ĠÄĲá º¥t
Ġs u
HÃ Ģ
ĠÃ ļ
Ġb Ã²
Ġtháº ¯c
g i
Ġtrá º§n
Tr Ãªn
Thá» §
ĠCá» ¥c
ĠMá º·t
ĠTRá »
o t
ĠH Ã¹ng
uá »Ļng
ĠÃ´ m
ĠÄĲ Æ°á»£c
Ġm Ã£n
ĠkÃª nh
Ġmá» ±c
or ld
Ġbá» Ŀ
Nh iá»ģu
Ġv Æ¡
Ġcháº ¡m
Ġtr eo
Ġgi Ã£n
o ur
ĠchÃ ¬
Ġvá º½
t Ã¢n
ĠhÃ´ i
b er
ĠSá »Ń
Ġ201 2
ĠTr Æ°á»Ľc
Ġtrá º§m
Ġvá» ¡
m m
ĠhÃ ¹ng
Ġhá» §y
2 1
M ua
Iáº¾ T
Ġphá» ©c
T háº¿
Ġl Æ°á»Ľi
ĠThá» §y
Ġ Æ°a
ĠthÃ ©p
ª m
ĠC a
Ġvi tamin
ĠÃ Ŀ
ĠT Ã²a
Ġná» Ĺ
Ġ tÃ¢n
ĠC ÃĶNG
ĠTháº §n
ĠD i
ĠThá» ĥ
ĠPhá» ¥
ĠTr iá»ģu
Ġb Æ¡i
Ġm ÃŃ
Iá»Ĩ N
»Ļ m
ĠL ao
Æ°á»Ľ p
Ġb Ã³
uá»³ nh
G P
Ġbá» ¥i
ĠC an
ĠÄĳá º¿
ĳ t
Ġcá º©n
ĠphÃ ³
ho w
g o
ĠQ U
ĠVá» ¥
º¦ N
Ãģ O
Ġbá» ĵi
B Ãªn
li p
Ġn Ãªu
Ġth ua
ĠH Ãłnh
Ġvá» ı
Ġph u
ĠT uáº¥n
ĠÄĳ iá»ĩu
Ġ3 6
ĠMá» Ĺi
d ro
¥ y
ĠBá º¥t
ĠH y
w n
ĠThá» ©
Ġgá» £i
C on
ĠT iá»ģn
ĠÄĳá» ±ng
ĠTá» ±
s u
Ġd Ã¢u
Ġr o
Ġch uá»Ļt
Ġdá» ©t
T P
ĠthÃ ³i
Ġs Ã¡nh
ĠQu an
201 4
t ung
Ġ7 0
ĠIn ternet
Ãº y
ĠC ity
Ġhá» ıng
ĠthÃ¡ ch
ĠÄĲ H
Äĳá »
Ġbá»ĳ n
ÄĲ ang
ĠT NH
Ġk háº¥u
Ġcá º¥m
Ġhuy nh
ĠnghÃ ¬n
Ġp háº¥n
ĠTr ump
Ġvá º£i
ĠTNH H
x i
hi m
Pháº §n
ĠNá» ¯
Ġl Å©
Ġk iÃªn
) :
L V
Ġn Ãºt
H á»Ļi
Ġáº¤ n
ĠH O
H Ãł
Ġtháº£ m
ĠL i
uá» ·
pp le
ing ap
t iá»ĩc
ĠP l
ĠÄĳ uá»ķi
Ġ tung
Ġs e
Ġmá» ĭn
ĠH uy
c Æ°Æ¡ng
Ġ tiá»ĩc
Ġbá º¯n
% .
Ġ cÆ°Æ¡ng
ĠNg Ãłi
Ġb Ã£o
Ġ ong
Ĵ NG
ĠHá» ĮC
Ġh uáº¥n
ĠM ua
N Äĥm
ÄĲá» ĵng
Ġd Ã¢m
a b
ingap ore
Ġchá» ¥c
ĠS p
ĠN háº
º¬ N
ĠL Æ°u
Ġx Ã¢m
ĠB Ã¡c
Há» ĩ
Ġho ang
¨ C
Ġx uÃ¢n
ĠHo Ãłn
U NG
Ġho t
ĠTh Æ¡
ĠlÃ£ n
Ġá º£o
¦ A
ĠÄĳá ºŃm
ĠTh Æ°á»Ŀng
ĠlÃ£n g
ĠTrá» įng
ad a
ĠH Æ°á»Ľng
ĠkhÃ Ńch
Ġv iá»ĩt
ĠphÃ¡ n
C P
Ġká» ĭch
uá »Ļn
ĠT IN
ĠÃļ c
Ĭ CH
Ġbá »ĳi
t Ã¡n
in i
ĠEm ail
ke ting
Bá º£o
Ġl i
ĠCá» ¦A
ĠH D
Ġgiá ºŃn
Ġg a
k hÃ´ng
Ġ tÃ¡n
ĠÄĳáº¡ p
ĠW orld
Ġng Ã£
Ġtháº §u
indow s
Ġd ao
ĠTh uáºŃn
Ġh iáº¿m
Æ°á»Ľ t
s ia
Ná »
Ã ĥ
Ġcá »Ļt
ĠM al
e p
ĠY Ãªu
Ġtrá º¥n
t Ãºc
Ġtá ºŃt
Ġ tÃºc
ĠÄĳá» £t
¯ t
ĠH uáº¿
Ġgá» ¡
i z
ĠN Ã´ng
ĠTH PT
Ġ3 00
Ġ8 0
Ġr Ã¡c
k g
Bá º¥t
ĠKá» ¹
Nh Æ°
ĠOn line
m a
Ġs Ãºng
ĠD uy
Ġtá º©y
ĠthÃ ¢m
ĠC o
! âĢĿ
ĠnhÃ ¡nh
Ġh uá»ĳng
Ġgiá º·t
Ġx Ã³a
» ŀ
Ġm Ãłng
ĠQ uyáº¿t
Ġb uÃ´n
Ġ Ã¡c
ĠnhÃ £n
ĠHá» £p
ĠM an
Ľ n
Ġh i
Ġlo a
ĠTo Ãłn
y o
ĠT Há
h e
T iÃªu
Ġl Ã¢m
ĠLá» ħ
ĠN Æ°á»Ľc
á »ŀ
c anh
ĠD Å©ng
ĠV Ãµ
ĠS ingapore
âĸ º
Ġs Ã´i
c Ã¢
ĠTá» īnh
Ġ9 0
Ġs Æ°u
Cá º§n
201 3
Ġtr áº¡i
Ġn Æ°á»Ľng
ĠM i
C N
Ġ3 5
Ġs im
ĠÄĳá ºŃp
ĠTr Ãªn
ĠB iá»ĥn
Ġcá» ķng
Ġ cÃ¢
¥ t
ĠLo an
Ch uyÃªn
Iá» Ģ
ĠU n
ĠT O
o k
Ġhá» ©a
ĠA l
ĠgiÃ¡ p
s a
Ġm Ã³c
, ...
v a
Ġr ao
v á
ĠthÃ¡ nh
2 6
Ġso áº¡n
ĠN AM
Ġ â
Ġ201 1
to r
ĠTh Æ°
ĠS amsung
Ġb ang
Ġ u
L Æ°u
t Ã¡o
Ġng Æ°Æ¡
Ġtá º¿t
Ġbá» ķng
į NH
Ġná» Ł
PhÃ ²ng
Ġth uyá»ģn
ĠRá »
t iáº¿c
ĠCh iáº¿n
ĠB áº¡ch
Ġtá º£ng
ĠHá» ¯u
Ġv inh
Ġ Æ¡i
Ġ tiáº¿c
V Ã©
Ġ tÃ¡o
Ġnháº £y
L Ãł
Ġchá» «ng
Ġch Äĥn
ÄĲá º¿n
9 9
Ġng Æ°á»¡ng
ĠbÆ¡ m
s o
ĠÄĳá»ĳ t
T S
Ġphá» ıng
ĠCá º£nh
c Ãº
Ġng áº¡c
ĠÄĳ Ä©a
dro id
Tá º¥t
il l
o g
ĠG al
Ġ canh
ĠD N
Ġv ang
Ġn o
ĠnhÃ ¢
Ġ Ã¡i
4 5
ĠC háº¥t
Ġthá» ķ
Gá »Ńi
f t
Ġv Ã¡y
Ä ĤN
Ġm uá»ĳi
N hÃ
ĠX in
ĠlÃ£ m
G iá»
PhÃ¡ t
ĠTr Æ°á»Łng
ĠHÃĢ NG
C O
Ġv ua
es t
ĠVIá»Ĩ T
ĠWeb site
Ġngá ºŃp
d i
ĠBá º±ng
Ġg áº¡o
Ġ cÃº
ĠPh Æ°á»Ľc
A Y
Ġcá» Ŀ
ĠL Æ°Æ¡ng
2 8
KhÃ¡ ch
Ġvá »Ļi
N háºŃn
X H
ĠC Ã¹ng
ĠB l
Th Æ°
Ġcá»ĳ t
ĠphÃŃ m
ĠchÃŃ n
Ġv iá»ħn
Ġh Ãł
ar e
Ġb Ã¬
C Äĥn
ĠchÃ¹ a
D iá»ħn
ĠA pple
u ll
Ġtrá »Ļn
ĠTr Æ°Æ¡ng
Ġcá º£n
Uá» Ĳ
m p
Ġchá» Ł
ĠÄĳ e
ĠS Æ°
Ġkh en
Ġb Ã´ng
Ġ201 0
Ġ3 1
ap top
Ġlá» «a
ĠS ao
? "
Ġr uá»Ļt
Ġx Äĥng
V Ãł
n e
Ġs ex
ĠD Ã¹
f e
ĠA ir
Ġy á
ĠÄĳ ai
B Ã¬nh
© o
ÄĲ Ã¡nh
Ġ4 5
ĠK iáº¿n
Ã£ nh
ĠTh Æ°á»£ng
ĠthÃ¡ o
ĠT Ãłu
ĠNg Ã´
ĠTrá» ĭ
A I
ĠW indows
b e
Tr Æ°á»Ŀng
ĠchÃ ª
g e
A n
ĠT Ã¬m
as h
Ġná º¥m
Ġd Æ°á»Ŀng
ax y
ĠK iá»ĥm
Ġb áº¡o
am a
V i
in a
ĠÄĲá» ģ
ĠT ÃŃnh
á º¢nh
l á
Ġtr ÃŃch
Ġmá º£nh
Má» įi
Ġtr Æ°a
¨n g
Ġm iáº¿ng
ĠC uá»Ļc
ĠMá º·c
Ġph un
C uá»Ļc
Ġgiá ºŃt
ĠÄĳ am
T H
Ġx Ã¡ch
Ġmá» ĵ
ĠA i
k m
Ġti Ãª
ĠÄĳ Ãłm
B ÃŃ
ĠL ai
Ġkho Ã¡ng
Ġhá»Ĺ n
s t
Phá» ¥
ºł N
Ġrá» §i
Æ¯á» ļ
ĠL áº¡t
Ġd uyÃªn
Ġ Ãł
ĠG D
Ġtá»± a
Ġk Ä©
V iá»ĩt
ÃĢ N
ĠM y
Ġngá º¯m
Ġtrá »ĳng
Ph Æ°Æ¡ng
º¹ n
ĠÄĳ eo
H ai
O NG
Ġs Äĥn
Ġ0 2
ĠT Ã´
T Ã¬nh
ĠH LV
ĠNG H
ĠT iÃªu
om e
lo ad
ĠP ro
Ġcá» ı
Ġxo ay
Ġquá» ¹
O S
Ġtrá» ¥c
d on
Ġd Ã¡n
r an
q u
A NG
ĠH a
mart phone
ĠS h
C S
º« y
7 5
t uá»ĩ
Ġkh a
Ġ tuá»ĩ
Ġtrá »Ļi
u t
al l
Ġbá» įc
ĠCh uyÃªn
Ġn Ã¡m
ĠPar k
ÄĤ NG
ro up
»ĳ p
ĠTá º¿
Ġcá» ¡
ĠX á
º ®
ĠCá» §a
Ġthá» į
> >
Ġk m
º ¶
T op
Ġtá» ıa
ĠMá» įi
Lá» ĭch
ĠTh i
ĠÄĲ áº¡o
Æ¯á» ¢
\ Ā
ĠÄĳ Ã¢
Ġb áº¡ch
Ġx Æ°á»Łng
Ġho áº£ng
Ġtr Ãºng
ĠC Äĥn
Ġmá» ıng
ÄĲá» ģ
Ġ te
3 5
\Ā \Ā
Ġr Å©
Ġtháº¥ m
ĠH ay
ĠC P
X in
ĠV I
an o
ĠS o
ĠL Ãºc
c Æ°á»Ľp
Ho áº¡t
ĠH Æ¡n
% ,
Ġn áº¡
ĠC S
ĠR i
Ġxá» ©ng
ic ro
ĠCh a
thÃ ¡ng
on al
Chá» ĭ
Ġdá»ĭ u
ĠT iáº¿p
Ġng Æ¡i
C Å©ng
ta l
ĠC Ã¡i
ĠTr ÃŃ
er s
Ġ am
ĠÄĳá º¯c
ĠÄĳá º¯t
un d
ĠC Å©ng
ĠChá» ĭ
2 7
i te
Ġp ro
S E
Ġh iÃª
8 0
ĠQ Uá
3 6
ĠPhi m
Ġv Ãµ
Ġl Ã²
c háº¥n
N hÃ¢n
Kh u
Ġná» ¥
ob ile
ĠT y
Ġchá» ĳi
Ã ĤN
Ng uyÃªn
Ġ Â©
Ġf ile
ĠTháº £o
Ġcá» §
4 0
Ġbá» Ľt
Ġv Ãª
Ġgá »ĳi
Æ¯á»ľ NG
Ġ cÆ°á»Ľp
Ġ cháº¥n
Ġch uá»Ļng
Ġs ay
m ail
Ġm áº¡n
ĠAn droid
ĠÄĳ iá»ĩp
º¹ o
Ġháº ±ng
ĠSá» ©c
ĠMá» ¥c
Ġb Ã¡
ĠT Ã´n
Há »ĵ
ĠGá »
Ġb Ã¡t
ĠcÃ¡ p
Ġq uyáº¿n
Ġtrá »Ļm
ĠH iá»ĩu
ĠTh uáºŃt
ĠM Ã£
ĠghÃ ©p
Ġv Æ°Æ¡ng
r ess
ĠS EO
ĠVá» ĭ
ĠÄĲ Ã´
ĠN háºŃn
el l
ĠT am
ĠT Y
ĠM Æ°á»Ŀi
âĢ¦ ]
ĠGI Ãģ
t Ã¡ch
ĺ NG
ÄĲ áº·c
iá»ħ u
° C
ĠCh u
ĠN ai
Th am
ĠC N
Ġmá º§m
2 9
Ġ tÃ¡ch
P him
X e
ĠhÃ ¢m
Ġtháº ±ng
TT TT
ĠD Æ°á»£c
Ġng Ãµ
Ġ =
ĠGi Ãª
c lick
ĠQ ua
ĠNg ay
ĠT T
Ġm Æ°u
Ġth Äĥng
ĠC Ã¢u
ĠcÃ¡ t
Ġmá» įc
Ãģ N
ĠÄĳ Ãł
? ?
Ġb Ã¡m
C C
ĠGal axy
Æ°á» ¡i
m i
Ġnháº ¡y
Ġmá» Ŀ
ĠTháº ¯ng
Ġng á»Ļ
f a
ic e
Ġháº §m
al o
I n
Ġbá ºŃn
ay sia
ĠthÃ ¹ng
Ġ_ --
ĠC ung
Ġtrá »ĳn
Ġng Ãłi
ĠB e
C Ã²n
C háº
u c
Ġch Äĥng
Ġ Ã¢n
¯ m
Ġtr iá»ĩt
ÄĲ iá»ĥm
Ġbá º¥m
Ġbá º©n
Ġm Ã¬
Ġd ÃŃnh
ĠTá ºłI
Ġdá» įa
ĠS ong
Ġch uá»Ĺi
ĠchÃ ¡n
Ġbá» ĥ
Ġtr Ã´i
Ġl ink
or k
´ m
i p
Ġch im
Ġ click
ĠT Ä©nh
Ch Ãło
ĠL Ãło
Ġcá ºŃy
u k
ĠPhá» ĳ
ĠM o
Ġá »ĳc
Ġcá» ±u
Ġrá» ¡
ĠthÃ ´
ĠÃ Ĳ
on s
Thá» ©
Ġnhá» ĭp
ĠÄĲá »ĵ
ĠchÃ ©p
Ġ im
r us
ĠTrá º»
ĠP HÃģ
Ġb ia
ĠCh ung
ĠN hi
ĠK iáº¿m
Ġá» ķ
ĠHá» Ĺ
e ar
K hÃ
Ká» ¹
Ġhá» ĳi
ĠÄĳi Ãª
Ġng Ã³n
Ġ[ âĢ¦]
ThÃ ¡ng
ĠThá» ĳng
O N
t Ãłng
u ch
ĠK HÃģ
ĠchÃº a
E D
Ġcá º¥t
Ġm en
Ġ0 3
Ġl Æ¡
ĠN Ãªn
Ġph iá»ģn
C Ã¹ng
Ġl Ã¡t
7 0
A T
Ġtháº §m
Ġ201 9
Ġin ternet
Ġ tÃłng
Ġs Ã´
Ġmá» ī
Vá ºŃy
A S
t Ãºy
Ġvá º¹n
Ġ tÃºy
ĠE x
ĠD ung
ĠNgh Ä©a
ĠN Ã³i
ĠC om
B an
ĠÄĲ i
Ġto p
Gi Ã¡o
Ġth an
t Ã¡
ĠD a
ĠD iá»ĩn
º¦ U
ĠCá º£m
ĠH uyá»ĩn
6 0
Ng há»
wn load
Ġkháº ©n
Ġnháº «n
ĠtÃ´ m
Ġ tÃ¡
c ong
Ġv Ã¢
ĠMá ºŃt
ĠkhÃ¡ t
¹ o
Ãģ CH
Má» ¹
Ġháº ¹
Ġmá º»
ĠTo Ã¡n
ÄĲ iá»ĩn
ĠMal aysia
Ġs Ã³t
Ġnh o
ĠThá» į
Ġv Ä©
Ġnh Æ°á»£ng
Ġl ang
ĠP r
ĠM e
ĠL ÃĢ
Ġs martphone
ĠD anh
Ġ0 8
º¾ T
yr ight
âĢ¦ .
N háº
ol d
ĠÄĲ Ã£
ĠÄĲ iá»ĥm
ĠB ar
Ġch anh
Ġqu Ã¡i
ĠH ÄĲ
Ã į
g á
Ġx Æ¡
ĠB log
ĠL áº¡c
Ġh iáº¿n
Ġsá» £i
Ġb iÃª
201 2
ĠVá º¥n
c ar
i x
op yright
ĠNgh iá»ĩp
D Ã¹
Kho a
ĠI I
ĠBá º¿n
º¢ I
ĠTr iá»ĩu
Iá»Ĩ U
ĠA d
ĠthÃ ¢
S Ã¡ng
Th anh
Ġph o
Ġf an
ĠCH O
Ġlá»ĩ ch
6 8
ĠÄĲá» «ng
ĠCan ada
Ġh Ãłn
Ġ3 2
Ġtrá ºŃt
s on
ĠNHá º¤T
ĠChÃ ºc
Ġm uá»Ļn
Ġv Ã¢n
ĠT Äĥng
Ġn áº¡p
L B
ĠPháº ©m
ti c
ĠM Ã¬nh
ĠÄĳá» ģn
c Æ°á»Ľc
Ġngá» įn
en d
ĠÄĲ á»Ļi
o c
Æ ¯u
Ġ cÆ°á»Ľc
Ġháº¹ p
Ġ Â
ĠViet nam
ĠB H
ĠT inh
ĠT e
ass age
ÃĤ Y
Ġd Ä©
Má» Ĺi
Ġm áº¡o
Ġká» ĩ
ĠM Ã´i
Ġgiá º¥u
ĠTá º§ng
¤ C
Ġd Ãłn
Ġtháº ¡ch
ĠÄĲá º¹p
b o
x y
t uÃ¢n
u g
Ġkh uyáº¿t
ĠThá» ¥y
Ġsáº ¹o
G ia
Ġchá» §ng
c Ã£i
V ideo
Ġá» ©c
Ġlá» ĵ
ĠghÃ ©
ĠÄĳá»ĩ m
Ġthuá º§n
e v
Ġ tuÃ¢n
ĠTh am
ag ue
ÃŃ n
Ġ0 5
Ġ cÃ£i
3 3
Ġl ong
Ġs áº¡c
º¬ P
5 00
ĠÃĤ m
Ġvi Ãª
Ġbá º¯c
Ġf or
Sá »Ń
cá »
ĠS an
ĠCá º£
Sá» ©c
Ġdá» «a
u d
ĠL á»Ļc
ac e
Ġ15 0
N Ã³i
Ġbá» Ĺng
Cá º£m
ĠT Æ¯
Ġ200 9
Ġnh iÃª
Ġ j
Ġng a
ĭ t
Ch Äĥm
B Ãł
d á
ĠÄĳo áº¡t
1 00
Ġo f
Ġth iá»ĩp
ĠP H
º¨ M
ĠT háºŃt
Ġhá» ķ
Ġ Ã¡m
Ã¹ m
T R
Ġká» ģ
t Ãª
ĠR o
G B
ĠV iáº¿t
Ġn ang
Ġs Ã¡u
Ġxá º¿
ĠÄĲ Ãłn
Ġl aptop
vá »
c lip
Uá»Ĳ C
Ġto ur
Ġcá º¯m
Q ÄĲ
Ġthá» £
Ġg áº¡ch
ĠM iá»ģn
ÃĶ I
Ġrá» ±c
ĳ c
Ġkhoá º»
Ġtá» įa
Ġb u
m l
Ġdá» įc
Ġso i
Ġkhá» ķng
r is
Ġs on
ĠCá º¥p
in es
g er
k y
ĠR es
ĠT háº¥t
º ©u
Ġb Ãºt
Ġkhá» ©
I M
Ġnháº ¡t
M áº·c
Ġm Æ°Æ¡i
Ġ Æ¡
Ġv u
Quá º£n
Ħ N
5 5
Ġtrá» į
ch i
ĠV ui
Ġ tÃª
T a
Lá» Ŀi
Ġn Ã©n
a te
ĠÄĲ inh
Ġngá º§m
Ġhá» ıa
H Ã´m
ĠC Æ°á»Ŀng
3 8
ĠMá» ļI
ĠcÃ¡ m
Ġ clip
Ġmá »Ļng
Ġm Ã¢y
ĠTháº §y
ĠTh ay
Ġs how
ĠTá º¥n
Ġ cong
ed ia
»ĳ m
g Æ°á»Ŀi
Ġnhá» ī
6 6
Ġchi Ãªu
ĠU y
n gÆ°á»Ŀi
Ġcháº £
! "
ĠD O
uy en
Ġná º¿p
t ang
Ġtr Ã¡ng
ĠX uáº¥t
ĠhÃ £i
ÄĲ Ã£
Ġch Æ°
Ġgi am
Ġl au
ĠT HÃĶNG
ĠNá» ĺI
m an
ĠSá º¢N
Æ°á»Ł i
Ġch ai
Ġv áº¡n
ĠN HÃ
ĠL iá»ĩu
I V
ĠNháº ¡c
W eb
ĠHá ºŃu
Ġn Ã´
Ġbá º£y
ĠTá» ©c
ĠÄĲ Æ¡n
ĠB Ã¹i
Ġná» ĵng
Bá º£ng
ĠÄĳÃ³ i
iá»ģn g
ĠTrá» Ŀi
T iáº¿p
E R
ÄĲá º·t
º¢ O
Ġnh Å©ng
Ġmá º¿n
t ao
Ġb Ã³n
ĠÄĳá» ĵn
Ġho an
ĠPháº £i
ĠÄĲá »ĳng
es ter
Ġs p
ĠCá» ¥
ĠC Ã¡t
ĠVá ºŃt
Ġd Ã£
r id
oo m
Ġch uyá»ģn
ĠChá» ©ng
Ng h
Ġrá º¯n
ĠH uyá»ģn
ĠJ o
ĠÄĳ Ã¢m
ĠVá» ¤
Ġl eo
Ġtr áº¡m
Ġb log
ĠN háºŃp
T M
âĢ ĭ
Ġl Ã¢y
o w
Ġti a
Ġcháº ½
e e
ĠL am
ĠP Há»
Ġvi sa
Iá» Ĥ
Th ay
Ġkho Ã¡c
Ġtá» Ľ
n a
ĠC ar
n Äĥm
ĠK Ã½
ĠÄ Ĥ
uá »Ļi
ĠSá »ĳng
ThÃ ªm
Ġl Ãºa
ĠÄĤ n
Ġm ar
tr á
Ġdá» įn
ĠÄĳá º¯p
Ġ0 4
ÄĲá º§u
Ġ3 8
Iá»Ģ U
ĠTo p
ĠPl us
Ġl Ã¹i
Ġv Ä©nh
Ġcá º£ng
H Ãłng
B C
c Ãºng
ĠTr Ãł
Ġtháº ¯t
Ng ay
li pp
Ho a
ĠtÃŃ m
I A
Ġ cÃºng
Ġná» ĵi
ĠS un
ĠkhÃ ©o
o v
ð Ł
Ng á
u ro
Ġti Ãªm
ĠDá º§u
ÄĤ M
Iáº¾ N
ĠLá» £i
B a
t em
Ġ Ã´n
g Ãły
Ġd Ã²
ĠTh Äĥng
* *
201 1
ĠÄĳá» Ľn
n gÃły
Ġs hop
N am
Ġchá» ĳt
º¯ k
Ġng Ãło
Ġl ÃŃnh
ĠT Ã¡c
tr al
an s
E C
Ġbá º¯p
Ġngá» įc
ĠchÃ¬ m
t s
A R
ĠÄĲá» Ĺ
Ġtr Ãłng
ĠÄĳáº¡ n
Gi ao
Ġ tang
co in
am p
Má º«u
Ġth e
ĠG ame
Ġb Ã¹
Em ail
B S
oo d
Ġxá º£
b ank
e al
ĠT V
Ġh uyá»ģn
Ġr Ãło
ĠRá º¥t
Ġch iáº¿t
Ġx áº¡
Ĳ NG
yr ia
ĠchÃ ¢m
ĠháºŃ n
ĠTháº ¡nh
uy Ãª
ĠBá» ĭ
Ġl iá»ģu
ĠkhÃ ´n
ĠV Å©ng
c ay
Ġhá» įng
ĠN HÃĢ
ĠL oáº¡i
M Ã´
ĠÄĲá» įc
ĠkhÃ³ i
ÄĲá» «ng
ÃĢ Y
V Ãło
3 7
Ń t
ĠHá» ĺI
b a
ĠS Ã¡ng
Ġ tao
ĠÄĳ iÃªn
Ġlá º§u
ĠM áº¡nh
ĠnhÃ ´m
Ġl Ã³t
ĠS Ä©
º¤ N
ĠT im
ĠCHÃ įNH
ĠTr Æ°ng
Ġtr Ä©
t iá»ħn
Ng uá»ĵn
Ġtho Ã¡i
ĠNGH Iá»Ĩ
háºŃ m
ĠÄĳ Ãºc
) ;
Ġcá»ĳ c
Ġb Ã´i
H ome
Vá» ĭ
Ġ tiá»ħn
z a
l or
Ġtr Æ°Æ¡
ĠG Iá
ĠK i
Ġm assage
as er
ĠNgh iÃªn
Ġkh iáº¿u
Ġlá» ıng
Ġr ung
Ġ0 6
E T
F F
Thá» ĥ
ĠH Ã´m
Ġl Ã´i
M Ã¬nh
Ġmá »ĳc
Ġx Äĥm
ĠVá» Ģ
Ġx Ã³m
m in
x it
on y
ĠPhÃ ¢n
ĠQ Uá»ĲC
ĠF or
ĠTháº ©m
Quá º£ng
Sá» Ńa
Ġngá» ±a
Ġlá» ¡
Ġm Ã³ng
£ m
Ġ Ãªm
ĠH áº¡nh
Ġb om
V ui
ĠV Ãłng
ĠV Ãło
Ġ cay
Ġ19 8
ĠC ÃģC
E S
I C
Ġ200 8
Ġvi ew
ĠS yria
en s
Ġ al
ĠS Ã¡ch
Ġtá º§n
Ġv en
º¹ t
ĠthÃ¡ p
ĠT áº¡o
3 4
Ġ #
ĠCá» Ńa
Ġng u
ĠChÃ ¡nh
us e
Thá» ĭ
Ġng Æ°
UY ÃĬN
Ġtho a
Ġnháº §m
ĠChá» įn
ĠQ uyá»ģn
ĠT Ã¹ng
Ġpro te
ar a
ĠÄĳá» Ĺ
ÄĲ S
Ġá» ĵn
ĠkhÃ¡ i
ĠQU AN
T Ã¡c
Ġng Ã¢m
Ġlá º¯c
Ġb o
T IN
oo l
l and
ĠThÃ ¢n
º º
Ġso fa
9 0
º¾ N
O á
sá »
N há»
Ch Æ°a
Ģ N
T hÃ¡
Ġx Ã´ng
Do anh
ĠPhi lipp
Ġnháº ¯m
E M
T uyá»ĥn
le x
c Æ°á»£c
Ġmá º£ng
º¢ NG
ĠÄĲá» ĺNG
Ġ cÆ°á»£c
so ft
Sá» Ł
U S
ChÃ ºc
Ġbá º¿n
ÄĲ Ã³
ĠVá ºŃn
Ġbá»ĳ c
ĠÄĳ ÃŃnh
ĠLá» Ŀi
ĠKh ai
ĠNg hi
Ġho Ãł
Ġn iÃªm
Ġd áº¡o
Ġkho e
Æ¯á»ļ C
Ġ4 00
p t
Ġs Æ°á»Ľng
Ġngo Ã¡i
Ġtháº¥ u
ĠCam p
ĠA s
ĠM ay
ĠDá» °
¡ o
Ġtr Æ°á»£t
ĠDá» ¥ng
Ã½ t
ĠD Æ°á»Ľi
ĠY á
ĠHá »ĵi
E N
ĠTr Ã¬nh
ĠN Æ¡i
Ġl Ã¹ng
ĠkhÃ ´i
ĠK iá»ģu
Ġvá º¯ng
ĠH ar
Uá º¬T
âĢ¦ âĢ¦
ĠTh iáº¿u
ĠBá ºłN
k h
Web site
Ġkho an
ĠC LB
Ġ3 4
ľ I
k á
ĠN Äĥng
Ġgi Æ¡
SE AN
Th u
N ÄĲ
Ġm Ã©t
º« m
ĠCá ºŃp
ĠV ideo
ĠÄĲ T
ĠThÃ º
ĠE n
ĠÄĳá º»
ĠphÃ ¢
ÄĲ i
Ġmá» ķ
ĠPHá º¨M
Ġtr Ã¢n
Ġmáº¹ o
ĠT Ãªn
Ġl Ãª
Ġh ung
Ġphá» ķi
ĠLá ºŃp
ĠÄĳ Ã¹a
Ġná» ģ
Ġ Ã³c
ĠS er
O A
A i
ĠD Ã¹ng
Ġnh Äĥn
Ġvá º£
Ġbá»ı n
or n
Ġcá»¥ m
L Ãºc
Ġm e
Ġbá»ın g
NhÃ ¬n
Ġk g
Ġvi rus
Ġpháº ¿
ĠL iÃªm
l an
ĠS e
ĠN a
Ġr Ã¨n
ĠâĢ Ŀ
má »
Ġ0 7
ĠT uyá»ĥn
on da
Ġh eo
ÃĬ U
ĠGiÃª su
Ġqu Ã©t
Ġv uÃ´ng
N N
Ġm u
B Ã³ng
ĠGá »Ńi
dá »
Ġbá» ĵn
má »Ļt
ĠThá»ĭ nh
â ľ
ĠC Há
ĠL IÃĬN
Tá ºŃp
Ġrá »ĳt
3 2
Ġm au
ÄĲá» įc
Ġl Äĥn
Ġin ch
P S
Qu Ã½
g mail
3 9
Ġqu Ã¡t
u x
Ġg Ã£
ww w
bá »
Ġcá» ĳng
Ġv Ãº
ĠM icro
ĠM Ãł
g a
Má º·t
ĠU á
h n
HÃĢ NH
Tháº £o
ÄĲá »ĵ
Ġtá» ©
I D
ap p
Ġ3 7
C Ã¡i
ÄĲ Æ°á»Ŀng
ĠL y
K há»
H Æ¡n
ĠkhÃ ¢u
C a
Ġn Ã¢u
T HÃĶNG
ĠBá »ĵ
Ġl áº¡m
n áº¿u
ĠTá »ĳt
Ġch inh
Ch uyá»ĩn
ĠLe ague
C ÃĶNG
ĠTr Ã¡i
ĠGiá» Ŀ
Ġh ang
ĠQ uá»³nh
. )
ÄĲ Æ¡n
ĠC Ãł
M T
3 1
in o
ĠÄĲá» Ŀi
p hÃ
it coin
ĠMá º«u
ĠCHÃ ļ
ĠghÃ ©t
Ãģ Y
Ġng háº
Ġm Ã²n
KhÃ¡ m
Vi et
ĠHo t
Ġháº £
Ġkho Äĥn
G hi
Ġkh e
Ġn Æ°Æ¡ng
ĠT S
ĠÄĲá º·ng
G T
i es
T ag
ĠH uá»³nh
º» o
or g
t Æ¡
is s
³ c
ĠB ao
Ġnh Æ°á»£c
Chá» įn
on a
t Ã¢
ag en
en n
ĠD iá»ĩp
ÃĤ M
ĠI s
es ia
uch ia
Ġx ay
N Æ°á»Ľc
Ã Ļ
L uáºŃt
Má º¹
ĠNG Há»
ĠA SEAN
tr e
ĠT ÃŃn
ĠT uyÃªn
Ġngo an
Ġb uÃ´ng
Ġng uyá»ĩt
Ã¹ y
K iáº¿n
Ġtr Æ¡n
ch a
ÄĤ n
P hÃ¢n
Ġ tÃ¢
c el
Ġr es
Ġm Å©
Ġl Æ°á»¡i
ĠCháº ³ng
c Æ°á»¡ng
e y
Ġmar keting
ĠTr inh
Ġn Ã¡t
Ġm ini
Ġlá ºŃu
Ġl Äĥng
ĠB r
T iáº¿ng
p ress
Ġb Äĥn
Ġlá» įt
Ĳ I
ĠPhilipp ines
ĠCá »Ń
ĠT ai
Tá» ķ
ĠdÃ¢n g
Ġx ÃŃ
v Ãł
vi et
Ġlá »Ļc
Ch uyá»ĥn
g on
Ġrá» ¥ng
H iá»ĥn
Ġrá »Ļn
ĠSá» Ńa
Ġ20 20
y m
ĠV ÃŃ
te d
ĠH á»Ļ
Ġb Ã´
Ġl Ãµi
os t
ĠQuá º£
º¤ P
ĠHá º¯n
lá »
Ġp m
Ġ cÆ°á»¡ng
B Ã¡c
Ġb e
X á
Ġnhá» ĭ
Ġ5 5
ĠHá º±ng
ĠM U
L Ã½
p s
ĠL Ã£nh
al i
4 8
Ġgiá» įt
ĠThÃ Ńch
Th uá»ĳc
ĠX anh
Ġo xy
Ġtá»± u
Ġlá» £n
Ġgá ºŃt
Ġf acebook
Há» į
Ġthá» ķi
ĠgÃ¬ n
ĠD e
ĠR a
yo ta
Ġv Æ°Æ¡n
C háº¥t
don esia
ĠÃģ o
ĠY ou
Ġti vi
Ġnhá» ©c
ĠNHÃ ĤN
Ġth un
Má» Ľi
Ġph Æ¡i
Ġm Ã¨o
ĠÄĲ Ã¡nh
I T
Ġnh ang
Ġ z
om es
ĠCh uyá»ĥn
ĠNhÃ ¬n
ĠC uá»ĳi
ad e
Ġlá» ĵng
ĠTháº ¡ch
Ġl ÃŃt
Ġr e
Ġkho ai
Ġdá »ĳi
ĠÄĳá º§m
ĠL Äĥng
Ġlá» ©a
g r
ĠT áº¡p
c Ã´n
Ġm Äĥ
n á
ch o
ĠChi a
ĠChÃ ¢n
ĠH i
ĠThÃ ªm
Ġ19 7
k ho
ĠS eo
ĠP V
s en
ĠG r
ĠMar keting
Tá º£i
E L
ĠÄĳá»ĵ i
ĠphÃ¡ o
ĠS iÃªu
Ġca fe
B TTTT
onal d
m ent
Ġg Å©i
Ġb Ã¹ng
º· m
ĠCá ºŃu
Ġ cÃ´n
ĠT HÃ
ĠÄĳ u
ÄĲ á»Ļi
Ġv Ã¡ch
Ġth Æ°a
Ġvá º¥t
Ġ Æ°á»Ľt
Ġr Ã´
i re
T háºŃt
D Ã¢n
Ġ cm
Ġlá º¥p
Ġsá»ĳ c
Ġn áº¡i
ĠM Ãłu
tr ong
ĠÄĲá º
ĠÄĳá º±ng
t iá»ĩm
Ch iá»ģu
¨ m
Ġd Æ°a
if i
ĠM iá»ħn
Ġá» ¨ng
ĠK HÃĶNG
¤ NG
Ġchu Ã´ng
Æł N
Ġ4 8
ĠHá» Ĩ
ĠThá» ķ
X Ã¢y
C T
Ġ tÆ¡
ĠB ÄĲS
Ġs Æ°Æ¡ng
Ġn Ã©m
ĠI S
Ġ tiá»ĩm
ĠTR ONG
Ġtr iá»ģu
ĠD áº¡
Æ¯á»ľ I
Ã Ĵ
ĠHo áº¡t
ĠA N
uá» ¹
Ġsá» ī
ĠC en
ur e
cÃ¡ c
Vá» ¥
S inh
ĠÄĳ Ã¡y
ĠC Ãĵ
Ġngá» £i
Ġlá »Ļn
Ġg Ãµ
Iá» ĦN
Ġg Ã¡nh
G D
X uáº¥t
t Ã¡m
Ġcá º¯p
Ġtr Äĥng
t uyáº¿t
i en
201 0
K H
Ġ tam
ĠÄĲá» Ĭ
ĠV Ã´
ĠS ai
UYá» ĢN
ĠV ÄĤN
ĠM ac
lo ck
Ġh ao
ĠCamp uchia
Y Ãªu
Ġxá» ī
Ġ tuyáº¿t
ĠT HÃĢNH
b um
Ġ ad
ĠcháºŃ u
ĠVá º¤N
Ġquá» ·
Ġl Æ°á»¡ng
Ġg am
ĠPh Æ°á»£ng
Ġl Æ°á»Ŀng
ĠK iá»ĩn
ĠK iÃªn
Ġ7 5
ĠPar is
T our
Ġnh an
ĠB ay
ĠG roup
ĠnghÃ ª
S o
ĠCh uyá»ĩn
ĠT Ãº
4 6
en e
C ung
ĠNhá» Ŀ
Q ua
Ná» ¯
an a
Ġ tÃ¡m
ĠM á»Ļc
ĠPhá» §
ĠS INH
ĠH oÃłi
ĠB Ã¢y
Ġm o
Ġh am
ĠA m
Ġ ..
ĠA ll
º ª
Ġd iá»ĩu
Ġcháº ©n
Ġv Æ°á»Ľng
ĠNGHIá»Ĩ P
I S
Ġs en
Ġch uá»ĳi
Ġq uyá»ĥn
i co
ĠGiá º£m
Ġqu áº¡t
T Äĥng
ĠIn donesia
ĠÄĲá º·t
ĺ T
ĠTrá» ĭnh
Ġk iÃªng
w e
4 9
Ġkho Ã¡
ĠLá» ¥c
ĠThá» ©c
Ġ3 9
ĠChá» ©c
Ġgi Ã¡n
p e
ĠBá º£ng
Ġ12 0
t Ã¹ng
M Ã³n
Ġkho Ã¡i
p háº
á º£n
Ã ļ
ĠM Ã´n
Ġ tÃ¹ng
ĠÄĳ uÃ´i
Ġv áº¡ch
º¶ T
T O
ol f
T iá»ĥu
Ġkhoá º£nh
ĠthÃ¡ m
Ġ3 3
ChÃ º
Ġá» Ľt
Ġtr e
ĠG old
Rá º¥t
Ġ2 000
Ġho Ãłi
Ġh Æ°u
ĠYá º¿n
Ġ200 7
ĠS hop
ĠY ork
Ķ I
Æ¯á»¢ C
âĢ¦ âĢĿ
ie u
ĠphÃ ´
ĠthÃ ¨m
ĠS u
ĠTr iá»ĥn
h en
P ad
Ġm Ã²
/ .
T ÃŃnh
ĠT uyáº¿t
ĠnhÃ £
N Ãªn
Ġl u
l et
ĠLá º§n
4 7
Ġx i
V Ã¢ng
Ġká» ī
Ļ n
ĠÃ´ tÃ´
tr a
K háº
6 5
ĠN ÄĤM
Ġlá º·p
Ġthoá º£ng
Ġthuá º«n
ĠÃģ nh
ĠL ÃĿ
Gá »
® NG
ĠRá »ĵi
Ng uyá»ħn
ĠÄĳ iá»ģn
ĠVi Ãª
Ġa xit
Ġlá» ģ
ĠCh Æ°a
D Æ°á»Ľi
háº¥ y
Ġthi Ãª
c ua
ĠUS B
ĠÄĲ o
Ġho áº¡i
Ġr áº¡ng
ĠRi ver
ĠViet tel
Ġv s
v es
!! !
Ġk iÃª
ĠM Ã¹a
ĠS Ã³c
Ġm Ã´ng
ĠF PT
ĠF ull
ĠB Ãłn
ĠT ÃĶI
Ġl ung
Ġdá º¯t
Ġch ay
ĠNh Æ¡n
Ġlo go
ĠTá º§n
ĠnhÃ Ń
Lá» ħ
ĠI P
Ġr un
Ġto a
Ġs er
ĠhÃ ª
Ġh iáº¿u
Ġr Ãł
Ġ6 00
ĠDá» ¤NG
Ġgi ang
Ġtrá º¯c
b ao
Ġh iá»ģn
ĠKHÃģ CH
Ġcá» ĵn
ĠÄĲá º£o
Ġ6 5
c uá»ĵng
Ġch iÃªn
ĠC Ã¡
ĠRe al
ĠÄĲá ºłI
Ġv Ã³c
ĠB Ã©
ĠKhÃ¡ c
ĠP C
ĠT uá»ķi
N háºŃp
Ġw ww
T oÃłn
Ġrá» ī
ĠM ad
ĠNg uyá»ĩt
Ġngá» ©a
Ġkh uy
Ġcá º¯n
Ġ9 9
Ãģ o
Ġbá»Ļ i
Ġs Ã¢m
ĠR ao
Ġtá» ıi
Ġtrá» «ng
ĠkhÃ ©p
ĠC Ã¢y
» ¨ng
á »¨ng
Ġchá»£ t
Ä ¨
Ġthá»ĭ nh
ĠPhÃ Ń
ĠH onda
av a
ĠchÃ ©n
Ġl am
Ġmá» ı
ĠÄĲ Iá»ĨN
Ġr Ã¡p
D uy
ĠT N
Qu Ãªn
Ġs Æ°ng
C uá»ĳi
ĠA c
Ġ Ã¢u
Ġb Ãº
Ġá º¢
c ri
ĠB ang
u ong
Ġ6 4
s p
Ġl Ã¢n
\Ā\Ā \Ā\Ā
ĠTh oáº¡i
Ġ cuá»ĵng
ar ao
ĠS tar
tr o
Ch iáº¿n
g h
Ġhá» Ł
ĠCá º©m
Ph ong
ĠSá» Ĳ
ĠL H
Ġn Ã´n
Ã³ p
ĠT u
Ġxo a
ĠV Iáº¾T
PhÃ ³
ĠÄĳ Ãłnh
ph cm
ĠhÃ ²n
Ġká º½
Qu an
ĠA P
Ġdá »ĳc
Ġsá º¥y
b y
ĠL ED
Tá» ±
ĠB ÃģO
ĠÄĲ iá»ģn
ĠA us
Ġs an
ĠC ol
Ġkhi Ãªu
ĠNg uá»ĵn
ĠB i
6 7
ĠNo te
A L
ĠPHá º¦N
Q T
ĠB Ã¡ch
ĠÄĲá º¦U
ĠG Iá»
Tr uyá»ĩn
Ġm uÃ´n
Há» ®NG
ĠN Ãłng
ĠC al
Cá º£nh
Ġ Æ°
Ġl Ã©o
ĠÄĳá º¯n
Ġl Ã¢
ĠMicro soft
A C
Ġngá »Ļt
Ġná º£y
ĠG Ã²
ĠLá» ĩ
ĠVá» ļI
arao ke
ĠC ai
Ġm Äĥng
Ġtá» ¥ng
Â ®
Ġná º¯p
Ġtr Æ¡
ĠT ÃĤM
ĠM au
ing ton
ĠHo áº·c
c ai
Ġqu i
ĠM ob
C opyright
Ġrá º¯c
Ġngh iá»ĩn
Ġs Ãºt
Ngh iÃªn
en g
Ġbá» ī
ĠM on
4 4
o a
Ġtr o
Ġv Ã¢y
ĠV IÃĬN
ĠTR ÃĮNH
ĠM áº¡ng
ĠGi Ã¡ng
Ġmá »Ļc
a ti
Ho áº·c
Thá» ĳng
Ġ ac
ĠÃģ N
ĠchÃ ¨
» ¿
ï »¿
Ġ Æ°ng
ĠTo yota
ĠH S
i er
Ġan d
k a
Ġv an
ĠT háºŃm
ĠTR UNG
ly mp
ÄĲ Ãºng
ĠCá »ĳ
c Ãºi
K iá»ĥm
ĠTHá» Ĥ
ĠV iá»ħn
V iÃªm
Ġhttp s
C am
Ġh Æ¡
ĠS Ã¡u
ĠM ÃģY
Ġná º§y
ĠNG Æ¯á»ľI
ĠThÃ¡ p
ĠÄĲ iá»ĥn
am es
Ġh Æ°á»Ľc
Ġ cÃºi
ĠCh Äĥm
ĠTh iá»ĩn
ĠNh Ä©
Ġx Ã¡
ĠÄĲ Ãºng
Ġmá»ī m
Ġ tem
Ġngh iÃªng
L C
U BND
tral ia
ĠchÃ¡ nh
re en
ĠÄĳá º·n
ard en
Ġn Æ°Æ¡
ĠL Æ°á»£ng
T hi
ĠÄĲ áº¡t
s h
ĠC háº¿
7 7
ĠKhá» Łi
ĠO b
ĠGI A
Ġchi Ãªm
n er
ĠNh anh
Q uyáº¿t
ĠE d
G S
Ġm anh
L ÄĲ
ºł O
Ġná »ĳt
Ġb uá»ĵng
ĠSá» ¬
Ġm od
Ġ cai
ĠB Æ°á»Ľc
Ġph anh
Ġv o
ĠthÃ¬ a
th er
Ġdá ºŃp
ĠKh ang
T ÃŃch
Ġgiá» ı
ĠCá» Ķ
ĠTá º¾
l ay
ĠB iáº¿t
ĠC Ã¡o
ĠNh iÃªn
Ġdo wnload
Ńn g
Ġng Ã¢y
Ġá º¥p
ĠK ÃĿ
ĠVinh omes
6 9
ĠT ay
T áº¡o
ĠPHÃģ P
Ġdá» Ł
ĠKhá» ıe
g iá
ĠKá º¾
ĠÄĳá º¯ng
Ġ25 0
ĠGi Ãºp
ĠchÃª nh
er o
Ġlá º¥n
Ġb ar
Ġpháº ³ng
ĠLÃĢ M
ĠA u
ĠKh uyáº¿n
ĠPHÃ ĴNG
Ġnhá» Ł
º¥n g
i ch
ĠCá»Ń u
Ġmá º·n
ĠD onald
ĠM obile
g ia
8 9
Ġ up
º ±n
S ao
Ġm Æ°á»£n
Ġl Æ°á»Ľt
Ġg ai
Ġs anh
en tin
Ġnghi Ãª
ĠV TV
Ġd e
in t
ĠGá º§n
ĠP u
Ġl ui
ĠLá» ĬCH
w it
ĠT Æ°á»Ŀng
ĠB Ã³ng
S Æ¡
ĠB Äĥng
Ġ8 00
Ãº m
ĠÄĲ ang
ĠM Ã´
Ġlá ºŃt
Ká º¿
ĠT HÃģ
H Ãłnh
lin es
ÃĢ O
ĠO lymp
Ġngá» ¥
ĠCháº ¯c
ĠM er
t Ã³m
ar k
ĠE U
Ġvá» Ł
Ġháº »
Ġ1 000
Ġná» ©t
ĠPHÃ į
ĠQu Ã¡n
ĠPhá» ¥c
Ġb ong
b an
ĠT uáº§n
v ed
Trá» ¥
Ġr Ã¨m
ight s
Ġn Ã¡ch
Ġng Ã´
5 4
Ġngá º§n
ĠKhÃ¡ m
Ġh iáº¿p
Ġi OS
Ġmá º¯m
Ġá »ĳp
ĠÄĲ Ã¡
Ġdá »Ļi
Cá» Ńa
Ġ car
ĠAn g
Ġm Ãºa
ĠVá» ĩ
ĠThá» «a
Ġng Æ°ng
ĠB ra
ĠD U
Ġprote in
Há» ıi
Ġm an
ī a
re e
ĠchÃ ¢
ĠNgá» ¯
KhÃ ³a
Ġxá» ķ
Ġdá» ĵi
ĠÄĳáº¡ c
ĠS H
ĠTR Æ¯á»ľNG
Ġ Ãło
ĠF ord
º¨ m
Ġcá» §ng
Ġl uÃ¢n
Ġm m
ĠTRá» ¢
r á
ĠÄĳá» Ľi
UYá» ĤN
d io
Ġ tÃ³m
Ġb y
T N
Ngá »
ĠSá» °
Ġyá º¿n
t phcm
t áº¡
ĠL á»Ļ
le y
is a
ĠS Ã´ng
Ġi Pad
Ġd áº¡i
Ġbá º¿
O T
ĠÄĳá» ¥ng
tá» «
Ãª nh
ĠC l
ĠCHá» ¦
Cá» ¥
Ġkhá» ĳng
Ġm Ã¢u
¨ NG
ĠChá» £
ĠK iá»ĩt
l Ãłm
ĠNh uáºŃn
Iá»Ĥ M
z il
ĠÄĳ c
Ġx Ãł
Ġngá º«u
vi ew
ĠTá º£i
ĠJ ava
trá »
L Ãªn
Ġx Ã¡m
Ġrá» ĵng
Ġ táº¡
ĠNgh e
Ġk iá»ĩt
Ġ cua
as t
. /.
ĠchÃ¬ a
ĠW ord
n o
Ġyá º¿t
Ġ4 9
p y
ĠH iá»ģn
ap h
M S
ĠNg Ã£i
ĺ C
M Ã£
ta in
« m
ĠCHÃļ NG
ĠTr e
ex t
Ġin ox
Ġd Ã£y
Ġk iáº¿p
Ġtr inh
A D
G ame
u ck
B ank
Ġ eo
Ġhá» ¥t
ĠC O
Trá º»
ch e
ĠK ÃŃch
a h
ĠQ uá»¹
al e
ĠAus tralia
ĠÄĲ an
r l
ĠHo Ãł
as ter
Ġcá» Łi
ĠS Æ¡
ĠNew s
ĠS te
ĠDá» ĬCH
Ġnghá» ĭch
ĠL áº¡i
ĠBá º£y
ĠX i
Th Æ°Æ¡ng
Bá» ĭ
ĠTr Ãºc
hi p
d er
Ġ ao
A P
Ġth on
Ġnháº ·
5 8
ĠhÃ ¡i
ĠmÃł o
3 00
ĠCN TT
Ġk i
-- --
ĠLá» ±c
Giá º£m
ĠÄĲ Ã´i
ĠS ony
se a
ĠVá º¥p
C háº¿
ĠK ÃŃnh
Ġ Æ¯u
to m
tu be
ĠT Ã´ng
g iá»
Ġ $
ĠO r
Ġdá» ĵn
ĠS en
cri pt
lo w
Ġr Ã¢
Ġr uá»Ļng
Ġg Ã¡c
ĠTr Ã¬
Ġm Æ°á»£t
ĠM uá»ĳn
Ġ4 2
ĠC AO
Th e
ĠThÃº y
ĠB áº¡c
Ġd Å©ng
ĠphÃ ¬
t Ã²
ĠH P
ĠÄĳáº¡ m
Ġm áº¡
ĠJo hn
p er
ĠbÃ³ p
Ġ tphcm
Ġta xi
Ġnhá» ĭn
Ġs uá»ĳi
ĠB iá»ĩt
Ġh Æ°ng
Ġtr iáº¿t
a z
Ġb Äĥ
ĠKá» ·
ar t
ĠHá» Ĵ
Ġs Ã¹i
ĠC Æ°
Ġtr Ã¹m
Ġ tÃ²
ĠTrá º¯ng
ĠTr anh
Ġ7 00
ĠBá »ĳ
Lá º§n
si de
Ġxá º¯n
ĠG arden
Iá» ĤN
Iá»Ģ N
ear l
Ġth iá»ģn
ĠO p
ĠCh iáº¿c
ĠÄĲá º¿
Ġx ÃŃch
id e
Ġkhá» Ń
ĠV áº¡n
ĠHá» ıi
Gá º§n
ÄĲá» ©c
B ÃĢI
ĠTá» ·
Ġl uá»ĵng
ui ld
Chá»ĭ u
ĠN iÃªn
ĠTr uyá»ĩn
¹ a
T Ã²a
Ìģ ,
5 9
und ai
Ġv iáº¿ng
Tr Ã¬nh
im e
Ġcan xi
ĠA M
Cá ºŃp
N Æ¡i
Ġd ai
ĠAir lines
A ND
Ġsá» ¥p
Nghá» ĩ
Æ¯á»¢ NG
ĠK INH
Ġv e
Ġá »ĳm
Ġx Ã³t
is t
Ch iáº¿c
ÃĻ NG
ĠH iá»ĥu
Ġm Ãłi
Ġkh iáº¿p
ĠB itcoin
ĠTh uá»ĳc
ĠX uyÃªn
ĠOb ama
Cá º£
ĠHot line
¥ a
Bá» Łi
ĠP an
ĠA FF
es si
i ca
Ġho Ãłnh
ia l
Ġkháº ½
ĠBH XH
ĠN Æ¯á»ļC
ĠÄĳáº¿ m
ĠP al
Pháº £i
Ġbá º¥y
e u
Ġnhá» Ļn
ĠÄĳ un
Ng he
, âĢĿ
og a
ĠTá »ĳi
) )
ĠcÃ³ c
ĠKhÃ Ń
Ġkh Æ¡i
ĠKi tÃ´
ĠHÃĢ NH
Ġrá» ĥ
Ġk Ã¨o
C B
ĠTH Æ¯ÆłNG
c t
ĠR iÃªng
D Ã¹ng
a ch
ĠNG ÃĢY
ĠB ÃģN
ĠNg Ã´i
Ġl Æ°Æ¡
ĠB ÃŃch
M Ã¹a
ĠNG á
ĠN i
Ġcá» įc
Ġph e
7 9
Ġvá» Ĺ
Ġg Ã£y
ĠH iáº¿u
ĠB o
Ġth uá»·
ĠNhÃ ³m
Ġnhá» ¥c
Ġk y
b ook
ar y
200 8
Ġkh iáº¿t
ĠSá º½
ĠT Æ°á»Łng
ĠPh iÃªn
ĠBá º¢N
ĠÄĳá» ©t
ĠÄĳ Äĥ
Ġthá» īnh
n há»¯ng
er ved
Ġs Ã©t
Ġdá º»o
o th
ĠâĢ ¢
ĠS ÃģCH
Oá ºłI
Ġchá» ĳn
200 9
Ġco mm
Ġtrá» ĩt
UYá» Ĩ
ĠG S
er n
ĠÄĳá º¯m
Há º¯n
r oom
ĠÃĲ á
Ġ4 3
ĠH iáº¿n
ĠP e
Ġháº» m
i um
ĠCá º¤P
os e
ĠM INH
Má» ¥c
Æ¯á»ļ NG
Ġx ao
Ġdá º¹p
Ġgá º¯t
er ry
L oáº¡i
ĠO ff
Ĩ Ĵ
C Ã¢y
ĠMá ºŃu
Ġtrá» ħ
ĠT iáº¿t
ĠMad rid
ĠS Ã¢n
ĠTá» ¨C
Ġth iÃªng
O R
S Ã¡ch
4 3
ĠHá º§u
B Ãłn
ĠS ky
ĠB Ã¡
Ġcháº·n g
Ġngh iá»ģn
F A
ĠI II
c uá»Ļn
Ġ9 5
N háºŃt
ºł T
Ġs Ãºc
ĠV al
Ġcá» ±
ĠG hi
Ġb Ãłng
ĠTH U
ĠH ong
k i
Ġx en
Ġháº¡ ch
Ġdá º·m
ĠKháº £i
Cá ºŃu
ĠQu Ã¡
Chá» ©ng
ĠTrá» ±c
N Ã¢ng
ĠD T
s ta
ĠTr a
ash ington
C D
at ch
ĠX Ã´
Tr uyá»ģn
el sea
ĠBá º¢O
Ġk iÃªm
k in
ĠT Iáº¾
ĠTh uáº¿
ĠD iá»ĩu
C om
Ġr Ã¢u
Ġcáº¡ n
l u
ĠM Ã³n
Vá» «a
ĠÄĲá»Ĭ NH
ĠH ang
ĠDO ANH
Ġg Ãłng
ĠBl ack
K ÃŃch
ĠT M
Ġ uá»ĳn
ho áº·c
Ch ung
Ġrá »Ļ
ĠchÃ ©m
ĠL Ã£o
Ġbá» ĵ
ĠCh amp
Bá º¯t
Ġ cuá»Ļn
ĠC ÄĲ
ĠhÃ Ńt
Æ¯ U
4 2
5 6
ĠÄĲá» ĴNG
ĠchÃ¡ o
Má» Ł
ĠNg Ã´n
Ġdá º·n
Y T
ĠR ob
Ġv Ã²i
Ġpho to
Ho Ãłng
ĠHÃł m
ĠlÅ© y
ĠXá »
ĠTH CS
ĠS im
Ġchi p
ao mi
ĠPhá» ķ
s s
ĠÄĲá» Ĥ
Ġdá» ĩt
ĠIn ter
7 2
Ġk araoke
Ġx Ã´i
er m
ĠNg Å©
Ġqu Ã£ng
is h
ĠVá» «a
¢ P
Ľ c
ra b
Ġb Ã¡ch
Ġná» į
v an
Ġl Æ°
Ġ200 6
ĠL G
Ġhot line
ĠDá º«n
ĠCh Æ¡i
Ã ī
Ġb áº¡
ĠD ÃĤN
ag on
ĠM ax
Vá º¥n
Ġg o
ĠM od
Ġtá» ĵi
in d
ĠKháº £
Ġx Ã¬
º¿ m
Ġx Ãło
Ġm uá»Ļi
ĠOn e
Ġká º¹t
ĠC opyright
Ġrá» ĩt
ĠT Æ°Æ¡ng
ĠÄĳá» ĳng
M Ãłu
Ġbu Ã½t
Ġb Ã£
ĠI ran
t Æ°á»Ľi
B ao
ºª N
ĠKho áº£n
Ġvá»ĭ t
º ³ng
ĠNGHá» Ĩ
wit ter
Ġdá» Ĺ
ĠÄĲá º¯k
Há» £p
Ġv iá»ģn
ĠCam era
Ġg áº¡t
Ġá» §i
Ġsá» Ŀ
. ,
ur a
ĠTá» ª
h am
ĠÄĳá» įng
Ġlá» į
º® C
ĠÄĲ Ãłm
Ġk eo
ÄĲ oÃłn
Ġ tÆ°á»Ľi
ĠE uro
Vá ºŃn
Ph iÃªn
ap a
ĠKá º¾T
19 9
Ġ4 7
t ui
Ġgá» «ng
ĠMá» Ł
Ġká º¹o
c ard
Ġcomm ent
ká »
Ġbá» «ng
Ġnhá»Ŀ n
Ġkho ang
ná »
onal do
Ġ8 5
Má» Ŀi
Ġcá º¥y
Ġcá º±m
ĠB S
tr ol
ĠÄĳ an
ĠDá» ¥c
Ġnh iáº¿p
i b
Ġ6 8
ĠP ho
Ġgá» Łi
ĠKhÃ ³a
tr ess
ĠC r
si on
ra el
ĠTH I
ĠC as
nh Ãł
Ġx Æ°ng
ĠW ashington
l us
ĠÄĳ Ã²n
ĠH Ã£ng
ÄĲ Ãło
A G
Ġ> >
M uá»ĳn
Ġchá» įc
Ġsp a
Ġd Ã©p
Ġr Ã¡o
ĠF r
Ġ4 6
c háºŃt
en z
Ġg hen
q ua
Ġl ed
ĠPHÃģ T
Ġ200 5
ĠPr em
Ġchi Ãª
c Ãłnh
ĠMá» ĺT
Tá »ĳi
Uá º¬N
ĠÄĲ Æ¯á»¢C
ĠT Ã¹y
ĠB ÃĮNH
ĠC Å©
Ġl Ã¡nh
Ġm uá»
ĠNhÃ £
t Ãº
ĠH IV
ĠCh iá»ģu
Ġlá »Ļt
on ic
Ġ cháºŃt
Ġo an
Ġk iá»ģm
Ġtá º£n
ĠTrá» £
Ġcháº ±m
K em
ĠK Ã´ng
uá »Ļm
ĠCh uáº©n
ow er
k ia
ĠÄĳi Ãªu
f o
ĠL and
is tan
Æ¡ m
P N
ĠM C
Ġná º¿n
Ġtr Ã¡n
ĠTRá» Ĭ
ĠPhÃ ¹
Ġkh uáº¥t
Ġ cÃłnh
Ġr Ã©t
Ġsá» ıi
ĠNHá º¬N
Ġd Ã¢
Ġrá º½
Giá» Ŀ
ĠÄĲ á»Ļc
ĠCh elsea
Ġchá» Ńi
D I
4 1
Ġ tÃº
Khá» Łi
_ _
ĠÂ «
D S
k há»
Ġal bum
5 7
y a
ĠCá» ©
com bank
b iz
Ġv Ã£
Ġd Ãª
ĠH N
Tr ao
T iá»ģn
ĠLá» Ľp
UYá º¾N
ĠÄĳ inh
áº¡ y
ĠTh ao
Trá» Ł
ĠC Æ°Æ¡ng
C ÃģC
ĠBl ue
Ġr áº¡p
ĠG o
ĠNg Æ°Æ¡i
c ed
ĠVá º·t
ĠSai gon
ne y
ĠS ang
Ġg as
cÃ¡ ch
Ġs Ãłnh
ĠH ÃĮNH
Ġb Ã¡u
el a
l ash
ĠH uá»ĩ
Ġg ay
ĠRá º»
ĠT Æ°á»Ľng
Ġs eo
Ġnháº· t
ite d
ĠHÄĲ ND
k ra
ĠL on
ĠMá» ©c
Th iÃªn
Ġl en
ĠmÃ£ nh
ĠJ u
R O
ĠTr Äĥng
ĠM ang
Â ·
N T
ĠÄĳ Ã¹i
6 4
c i
ĠÄĲ Ãªm
ĠT witter
Ġw ifi
ĠB ÃĢI
Ġb Æ°u
Ġlá» Ł
8 4
8 5
h ay
Ġn iá»ģng
Ġlo Ã©t
PhÃ¡ p
Ġd Ãło
gá »
ĠvÃł nh
Ġl e
Ġ5 1
I ÃĬU
ĠP a
ĠVN ÄĲ
ĠD an
Ġx Æ°á»Ľc
ĠL u
Ġn háº¥p
ĠBá» ĺ
ĠGi Ã¡p
ĠH e
v ent
Lá º¥y
en a
Ġx Ã´
ĠTo k
Ġcu Ã´
ĠTHá» °C
p age
ĠHo me
D A
ĠMá» Ŀi
ĠTá» Ĳ
S N
ĠG T
Ġkh ao
N Ã³
ĠK ong
ĠTo ur
Iá»Ĩ T
Ġfor um
ar i
Ġngá» ±
Ġlá º·n
ĠHO á
Ġgá º§y
ĠT i
ĠNg Ãłnh
orn ia
ĠT Ã¡m
ĠH Ã¡n
Ġl aser
Ġngh iá»ĩt
ĠSp a
eal and
Ġto Ãł
ĠChamp i
ĠT ÃŃch
Ġk Ã©p
ĠBra zil
Ġv Æ°á»£ng
th eo
Ng Ã¢n
if ornia
ĠRiver side
ĠPhÃ ¹ng
ĠTr áº¡ch
Ġquá º§y
ĠA S
Ġvá» īa
Ġ4 4
c Ãµi
il i
ĠchÃ ´n
ĠTR ANG
s ter
Má º¹o
ĠTá» ¬
Ġgi Ã²n
ĠC T
Ġdá º£i
Äĳ Ã£
ĠDá» ±ng
Ġ tui
Ġr anh
ĠL uáºŃn
Ġnh Æ°á»Ŀng
Ġgá »Ļi
ĠOlymp ic
ĠHy undai
Tag s
ĠB Ã¡i
Ġm Ã¢
Ġngá º¥t
Ġm uá»Ĺi
ThÃ¡ i
th i
T Ã¢m
ĠE l
Ġn i
nh Æ°
Lá» £i
A U
Ġbá» ±c
á º£nh
ĠIs rael
w a
ĠhÃ ©t
v al
Ġngá »ĳc
Ġ uáº¥t
en ce
6 3
Ġ cÃµi
Ġf ull
5 2
ÄĲ Ãł
. [
ĠM ong
w er
ĠTh o
Q uá»ĳc
Ġv uá»ĳt
Ġrá» ħ
t Ãł
ĠThu Ãª
Äĳ Æ°á»£c
R e
t Ãºng
ĠKháº ¯c
le c
ĠTH Uáº¬T
Ġng áº¡ch
Ġco ll
c Æ°ng
ĠThÃ ¹
ĠVin a
Ġ tÃºng
ĠTH Iáº¾T
ĠCom p
ĠHá» ¢P
S cript
Ġi phone
ĠL áº¡ng
Ká» ³
Trá º£
Ġxá» ĭt
Ġkhi Ãªm
Ġcá» į
ĠK HÃ
ĠNGá »
Ġ8 8
b i
' s
Ġch uyÃª
Ġ <
Ġbá º©m
ĠVi Ãªm
Ġmuá» Ĺng
Ġdá» Ŀi
c ity
ĠcÃº m
ĠNo kia
ĠB V
Ġn uá»ĳt
ĠX E
T B
ĠÄĳo an
Ġs h
ĠN ay
... ]
ĠBá» Ĭ
Ġ ðŁ
an e
Ġvá» ±ng
ĠLon don
up er
ĠNá» ķi
ĠL Ãªn
m er
ĠVi ew
ĠC or
ĠT Ãį
Ġtháº £n
Ġl Æ°á»Ŀi
t le
Ġgi Ãłn
ĩ m
Ġk iá»ģu
Ġngá» ¡
Ġ cÆ°ng
Ġá» Ĳ
ĠN Ã¢ng
ĠS y
ĠChampi ons
S D
ĠGI ÃģO
Ġs Æ°á»Ŀn
o an
f or
chá» ī
Ġh Æ°Æ¡
Ġcoll agen
w ay
ĠDá ºªN
ĠThÃ ¬
ĠÃģ p
ĠPl ay
ĠghÃ ª
Ġhá» ĳ
C ao
Ġ: :
TV T
D i
Ġá» §
ĠUá »
Ġ1 10
ĠM áº¡c
ĠD Ã²ng
Ġlo g
Ġv Ã²
d u
Ãĵ A
ĠD uyÃªn
ro me
Äĳá» ĥ
ĠS P
Ġ tÃł
Ġv Ã¡n
Ġs Ã¡p
Ġg olf
Ġtr Ã¢u
ĠCal ifornia
Ġ5 2
ĠNh iá»ĩt
ĠD r
ĠS al
ĠCHÃ į
ĠTh iá»ĩu
Ġ36 0
ĠJava Script
ĠÄĳ uá»ĳi
= =
º¢ M
ĠnhÃ ¡y
ĠÄĲ Ãĥ
ĠU kra
Ġ4 1
i ano
ĠK on
ÄĲ ÄĤNG
ĠC ÃģO
Ġtr iÃª
Ġlá» ¥a
ĠZ ealand
ĠHo Ã¡
ol y
ĠÄĳÃ£ n
ĠÄĲá» ı
g l
ĠM V
ĠÄĳ Ã¨
ĠSá» ¹
ĠS i
Ġ7 2
V ÃŃ
ĠT ÃĢI
ak i
ĠÄĲ Ãģ
Ġb Ã¢
Ġxá º£o
v en
Ġk iÃªu
T iáº¿n
ĠS am
z on
ĠM áº¡i
Uá º¤T
ĠS E
ĠL Ã´
Â «
Ġlá »Ļi
Ġs i
t uá»³
ĠÄĳÃ£n g
ĠV n
iz e
x in
ĠÄĲá» ķi
on d
ĠP er
Ġbá» įt
Rá »
i ver
ÄĲ Ã´i
ig n
ĠTá º·ng
K T
Ġ5 4
ÄĲá º¥t
Ġgá» ī
Q uáºŃn
UYá»Ĩ N
ĠB Ã¡nh
Ġvá»¥ n
Ġn an
j i
ĠÄĳá» ¥c
ĠT uyáº¿n
Ġs tress
ÃĶ N
ĠG reen
Tr Ã²
Ġ ^
to oth
Ġte en
ĠC Æł
Ġlá º«y
, ..
l am
Ġkhuy a
sen al
ĠP M
ĠnhÃ ¬
ĠL iÃªu
Cá º§u
Ġs Æ°á»Łi
ĠV ua
ĠTHá» Ĭ
ĠP la
Ġ Ã¡
Ã įNH
ĠH an
Ġlá »Ļng
âĢ Ķ
ĠRes ort
ĠC ty
ĠH ÃĵA
Ġho Ã£n
Ġnhá» įn
Ġd Æ°ng
ou t
Ġcá» Ľ
l Ãł
ĠkhÃ¡ nh
ĠCHá» Ī
Ġxo ang
Ġv Æ°
t Ã¡t
Ġn Ãłn
ĠC Ãºc
Ġâ ĨĴ
Nháº ¡c
M Ãłn
Ġlá ºŃn
ĠCá» ķng
6 2
Lá» ±a
Ġchá» Ľp
tion al
Kh ai
... "
ĠHá» ĺ
M P
ĠJ e
ĠBá º¯t
gi Ã¡
Ġv oi
á º¯n
Ġb Ã³c
ĠM r
Ġr Ã¡ch
X u
T áº¡p
ĠR onaldo
uild ing
U R
Ná º±m
Qu Ã¡
ĠÃĤ n
¸ P
ĠgÃ³ t
p ort
Ġl anh
Ġ tuá»³
ĠMá» «ng
ĠC háº¥p
Ġká» µ
Ġqu ÃŃ
ĠT ÃģC
ĠQ uáº§n
ĠL ang
ĠGi ai
Į N
ĠMU A
r on
Ì Ĥ
Ġg iáº¿ng
ĠChÃ ¹a
Ġnh uá»Ļm
Ġngá º¯t
i el
ĠR AM
Ġmá ºŃp
Ġho áº¡
ĠTr i
Ġl Ã¬
T inh
ĠS ch
K ÃŃnh
ĠhÃ ¢n
Ġr Ã²
C lick
NhÃ ³m
V I
Ġngá» ¥c
Ġ5 8
ĠD Ä©
Q G
Iá»Ĥ U
ĠPu tin
ĠB iá»ĥu
ĠTHá º¾
ĠâĢ Ķ
Ng Ãłnh
ĠTh a
ĠTá ºłO
et s
B TC
em ail
ĠTrá º£
ĠTh uyáº¿t
Ġb Ã¹n
ĠÄĲá» Ģ
Cháº ³ng
ĠTO ÃĢN
ĠÄĲ Iá»ĢU
ĠB Ã¡t
Ġch Ãł
Ġn Æ°
ĠM Ãłn
Ġsá º¿p
ĠV ND
Ġbá »Ļc
au l
Tá» ·
ĠRá» ĭa
en c
Æ¯á» Ľc
b on
5 3
ho t
7 8
ĠM c
ĠL áº¡p
ĠCh ar
ĠkÃŃ p
ĠTá »ĳ
ob ot
ĠX Ã¡c
ĠthÆ° Æ¡
th u
ĠkhÃ Ńa
ĠVIá»Ĩ C
D L
Ġg om
p ool
Æ¯á» ŀ
l es
Ãģ I
Ãĵ NG
G I
D N
ĠH Iá»ĨU
ĠX Ãĥ
Nghá» ĭ
á º£
ĠChá» ¯a
ĠKho áº£ng
ĠH iá»ĥn
T X
to re
ĠCh Ãło
Ġ card
Ĩ NH
M B
Ġnhá» ķ
Ġn iá»ĩu
U n
Ng Æ°Æ¡i
Ġ5 9
Ġb Æ°á»Łi
ĠNg Ãµ
Ġquy Ãª
ĠL uÃ¢n
ĠM Ãª
m Ã¡y
l er
t Äĥm
Ng Ã´i
Ġkh inh
Ġg Ã²
Ġquá» µ
ĠÄĲáº ¸P
Ġ5 6
Gi Ã¡m
ÃĤ U
ĠD av
ĠN Há»®NG
M áº¡ng
Ġkhá» ĳc
te s
ĠÃĲá »
ĠW i
ĠXá »Ń
b r
Ġxo áº¯n
Ġ tÄĥm
Ġ200 3
T Ã¢n
ĠhÃ ´ng
Ġsá» ¥t
Ġlá »ĳp
B Ã¢y
ĠC B
ĠT Q
ĠTok yo
ĠXi aomi
P P
ĠA NH
Ġp ost
u ter
ĠF ire
ĠÄĲ Æ°a
ĠM Iá»ĦN
B uá»ķi
Æ¯á»ŀ NG
D C
Chá» ©c
Ġk e
ĠM áº¡ch
ĠTO ÃģN
Ġng Æ¡
ĠChá» ĳng
ĠTá» ©
Kho áº£ng
Ġvá»ĭ nh
Ġsá º§m
ĠT háº¥y
ĠCH UYÃĬN
ĠS t
Ġ ....
Ġngo áº¡n
k hÃ
ĠC Ã´n
gr am
Ġx uÃ´i
ĠR ed
Ġr ang
ĠVi ll
Ġl Ã©n
ĠÃ ģn
if one
E x
C HÃ
D F
k o
Ġcháº £i
ĠthÃª u
ĠS hi
p a
Há º£i
ĠAr senal
ĠVIá»Ĩ N
in s
Ġl iá»ħu
aph one
ĠK Há»
Ġ5 7
Ġvá»£ t
ced es
® A
k ing
Tr iá»ĥn
Ġchá» ĳc
\ \
C o
s hop
ĠK Iá»ĨN
D Ã²ng
ĠTe ch
â Ļ
t Æ°á»Ľc
ĠLe e
Thá» ıa
% /
uk i
Ġgi rl
tr i
Ġn ew
ĠX II
vá» Ľi
ĠCá ºŃn
an mar
Ġcá º©m
ĠPh u
Ġthi s
4 00
ĠD V
ĠVá» ĭnh
Ġmá» ĵi
Ġ9 8
ĠCHá º¤T
Ġb áº¡t
L ieu
Ġ200 4
Ġvá» ©t
ĠCh inh
Ġtháº ¡o
T Há»
h ttp
Ġn Ãłnh
ĠM os
Ġo ff
Ch uáº©n
Ġ tÆ°á»Ľc
ĠBá º¿p
V iáº¿t
ĠnghÃª nh
Æ°Æ¡ m
ĠThÃ¹ y
ĠVá» £
ĠKH OA
Ġn Ã¡o
ĠC EO
Ġkhá» ĳn
b ur
Å© a
ĠC ap
cá» §a
ĠTH ANH
ĠGr and
ĠKhÃ ª
Ġdá» ¡
ĠB us
i tal
ĠD Æ°á»¡ng
ĠMá» ¤C
ĠR om
ĠAn d
ĠLá º¥y
ĠÄĲá »ĳc
ĠS apa
Bá º±ng
Ġlo Ã£ng
Ġtá» ĭ
D iá»ĩn
Ġr ong
Tá º§ng
ĠTo wer
b áº¡n
c Ãºp
ĠL Æ°á»£t
ĠF an
ĠTai Lieu
ĠGIá» ļI
O L
t d
Ġ6 3
ĠT um
ĠK Há
Ã ©c
Trá º§n
ĠM il
ĠD inh
L Ã£nh
Tr iá»ĩu
ĠV an
D Ãłnh
H y
T Æ°Æ¡ng
ĠJ ong
Ġ19 75
200 7
ĠTá º¬P
Ġm ail
y l
TT ÄĲT
B Ã©
ĠH Ã´
ĠVi tamin
Ġgá »ĳm
N Ãłng
ĠLá º¯k
ÄĲ a
Ġ cÃºp
Cá º©m
t p
ĠÄĲ Ã¡ng
ĠM u
ĠA g
Ġ ;
K S
ĠB M
L e
v o
kho áº£ng
b ps
ĠUá» ·
tain er
Iá»Ĩ M
C L
ĠCá º¦N
ĠUn ited
b le
ĠL aser
ĠM T
ĠÄĳ Æ¡
ĠB ro
Ġquá º¥y
ix el
C á»Ļng
ĠH Ã¢n
ĠtÆ° Æ¡
ĠBá» ī
L IÃĬN
ĠL Uáº¬T
Ġ18 0
Ġ19 00
k hi
ĠQu Ã´
B iá»ĥu
Ġrá» §
th o
ĠB uÃ´n
ĠTHá» ¨C
ĠE co
ĠHO T
ĠCh rome
ĠB Ã£i
ĠÄĲá º£m
Ġd Ã¬
ĠCá» ©u
ĠJ ack
ĠV Æ°á»Ŀn
av el
ĠL Æ¯á»¢NG
ho o
viet nam
Ġgá º¥u
ĠF ran
ĠThÃ ´i
ĠK ang
Ġr Ã¡t
ĠNHá º¬T
C Ã¡
ĠD A
Ġtá»¥ i
ĠO s
ĠV y
S iÃªu
ÄĲ Ã¨n
as e
? âĢĿ.
ĠK iá»ĥu
ĠÃ į
á»Ļ p
Ìī ,
Ġá º¨m
5 1
Ġngá º·t
ĠTr Ã²
ing roup
t áº¡ng
Ġres erved
ĠGiá º£ng
ĠC A
or a
T A
Ġvá º·n
8 6
Ġh Äĥng
ĠN S
k hÃ¡
Bá º¥m
Ġ táº¡ng
ĠLá» Ľn
ĠCH I
Ġdi Ãª
Ġgá» ¥c
n y
ĠCen ter
Ġvá º¯t
ig h
b in
Ġthoá º£
Ġr áº¡n
ĠC ro
ĠT áº¡
L o
Ġr ights
z e
Ġac id
ÄĲ au
ĠD es
Ġtháº ¡c
Ġmá º¯ng
ĠKá» ĥ
Ġ6 9
ester ol
Ġy ou
ĠN Ãło
ĠNá º±m
Ġsá ºŃp
ĠA p
ĠCá» ±c
Ġ6 7
ĠT iá»ĩn
ĠHá» ıa
m ua
Ŀ n
Há» ĸ
ĠS U
Ġngo a
Tr uy
ĠB ig
ĠchÃ¹ m
ĠY o
Ġg ym
6 00
ĠNh ung
Ġgá º§m
Ġ Ã¢
od y
te ch
Ġm Ã¢m
Ġb Ã©n
ĠGi an
R E
ĠW il
ĠM in
ĠÄĲ en
Ġl Ã¡ng
Ġ6 2
Cháº ¯c
ex ico
ĠCh ris
ĠHÄĲ QT
ol i
uá» ĵi
c Ãło
Nhá» Ŀ
Ġh ack
w ord
á º¤
âĢ ĺ
inh o
ĠN Ã´
ĠS how
ĠS Ãłn
Ġnh uyá»ħn
s inh
D Æ°Æ¡ng
I P
ĠGIá º¢I
Ġad min
Nháº ±m
ĠV ic
ĠG B
ºł NH
Pháº «u
ĠÄĳ ao
Ġlá» ¥t
Vá ºŃt
Ho Ãłn
Ġl uá»Ļc
ĠB er
Ġj e
ĠPrem ier
ĠC M
Ġlá» Ńng
nh Æ°ng
ĠSá» ŀ
ĠQUá º¢NG
ĠG TVT
ĠW ik
Ġ cÃło
Ġxu Ã¢
Ġb Æ°á»Ľ
Ġquá» ³
Æł I
Vá» £
ĠDá»° NG
T o
Ġná º£n
Ġ- -
ĠCá º£ng
ĠMy anmar
Ġl iáº¿c
ĠX ÃĤY
w ood
ĠÄĲá º±ng
Tá» §
Ġgi eo
Ġtháº ¯n
p earl
q ue
ĠTr uy
Trá º£i
Sá» ¯a
ĠPla za
ĠMá» ¸
Ġh u
Ġh e
Ġgi Ã¡ng
Ġrá º£nh
ĠKháº £o
Dá» ĬCH
* )
ĠÄĳ Ã¡n
lan t
Ġph iÃªu
ĠK em
ĠKhá» ĳi
ĠSá º¯c
Ġ ~
% )
os a
ĠAP EC
ĠD is
ĠI D
giá» Ŀ
ĠSá» ¯a
Ġn Ãª
re am
p o
O V
ĠPhÃ Ńa
Ġr obot
am il
ĠchÃ ©o
Ġn Ã£y
ĠA ma
Ġb Ãºn
ºł C
Ġchá» Ľ
ĠLi ver
Ġgi u
Ġco de
Ġs al
t en
ĠUá »ĳng
Ãģ T
f ord
ĠW ar
Ġcá» Ĺ
ĠÄĳ iá»ģm
lin g
Ġg oogle
ĠT uyá»ĩt
ĠÄĲ Ã¨n
ĠPh a
Ġtr u
tá» ±
ĠMar k
Ġbá» ĩ
Ġ tÃ¡t
ĠCHá» ¨C
er t
ĠH Ã´n
ĠS Ã¡t
ĠÄĲá º¾N
L E
ĠV Ã²ng
F i
T iáº¿t
ĠJ un
ĠW E
ĠM B
ĠI N
ber g
ĠB os
ĠHá» §y
ÄĲ Ãªm
x em
ĠP ower
s ub
m y
ĠthÃ Ńnh
ĠSá» ķ
ºł NG
ĠB u
ĠB en
º¶ C
ĠLiver pool
ĠL iá»ħu
si c
ĠGiá º£
s hi
ÃĢ NG
ĠYou tube
Q uyá»ģn
ĠÄĲ Ã¡p
Ká» ĥ
Ġ5 3
ĠKH I
Ġs et
Ġ^ ^
Ġch at
p há»
Ġg el
ĠH ill
pháº §n
Ġm iÃªu
T uá»ķi
ĠBH YT
Ġ 00
ĠKh Æ°Æ¡ng
ĠTá» °
ÃĮ M
tu dio
ĠchÃ ³i
ĠâĢ º
Há º§u
Kh uyáº¿n
ol a
r m
\Ā\Ā\Ā\Ā \Ā\Ā\Ā\Ā
Ch a
Ġh iÃªn
ĠM el
ĠNh iá»ĩm
.... ..
ĠV u
ĠhÃ £m
ĠTá»Ĳ T
ĠchÃ ¨n
ĠÄĲ I
Ġch ui
ĠTr Ãłng
p hÃ¡
y Ãªu
A V
ĠTR Iá»ĤN
ĠM exico
ip edia
ti s
Ġtr Ãªu
Ġrá º£i
ĠNG AY
ĠG a
ĠTá» §
Ġng uá»Ļi
Ġm obile
Ġ uá»·
Ġcho Ã¡ng
tic s
Rá »ĵi
ĠAng el
Ġháº ¯c
Do wnload
ĠTr Ã£i
ĠP in
ĠÄĲ O
ĠQUá º¢N
ĠA I
Ġx Ãłi
Ġcho l
Th Æ°á»Ŀng
ĠIn tel
ĠQUá º¢
Ġthi Ãªu
ĠK y
ĠH áº¡o
Ġnh ai
ĠH Iá»ĨN
ĠV ingroup
ĠKHÃģ C
ĠI V
Ġrá» Ĺi
ĠTh iá»ģn
N L
Ġg en
º ©ng
Ġthá» ı
t te
ĠC Ã¢n
ĠVin aphone
Ġn u
ĠVI P
7 1
do tel
º °
Ġmu Ã´
ĠNgh iá»ĩm
L inh
Ġd áº¡n
Má» ©c
Ìģ .
ĠnhÃ ³c
ĠLá» ±a
Ġto Ã¡t
h y
ĠhÃ ©
ĠX a
ĠPhÃ ³ng
ĠTá »ĳng
s ting
Ġ9 00
ĠGI AO
Ng a
Sá º½
¹ t
Ġ3 50
ĠC D
Ġl Ãµ
ĠMer cedes
Ī NH
ĠV Ã©
Uá» ĺC
ĠS uper
8 00
ĠÄĲá º¥u
ĠE M
Ġbá º«y
Ġ! !!
ĠTR ÃĬN
K im
b ia
Má ºŃt
ĠÄĲá º¥ng
ĠRá» ĵng
s ang
ĠC ÃģCH
ty le
H z
Xá »Ń
Ġmá» §
ĠCá» §
Dá º¥u
ĠMob ifone
C ÄĲ
g an
ĠnháºŃ u
as hi
ra q
s au
Ġl iÃª
âĢ¦ )
ĠTR Ãį
f ox
c l
ĠbÃ¬ a
ed u
Ġcon tainer
ĠC lick
ĠÃģ i
Ġ12 8
ĠP o
ĠOff ice
¡ u
P H
ĠK a
ĠX Uáº¤T
ĠMá º¯t
ĠUy Ãªn
ĠW hi
T ai
t áº¡c
Ġl ay
Ġl im
ĠL iá»ĩt
c alo
ĠM P
P ress
ĠchÃ ´
bá º¯t
ĠUkra ine
ĠN ÄĤNG
Ġho áº¡n
tt on
ĠL Ä©nh
l ad
Ġ táº¡c
Ġchol esterol
ĠÄĳ Ã¡i
Ġx Ã©
ĠA b
F C
ĠV AT
ĠG eo
?? ?
Uá »ĳng
B Ã¡nh
ĠBlog ger
Ġmod el
ĠTh iÃªm
ĠV isa
Ġtá»ĳn g
Ġnh ung
ĠG P
Ġb Ãºp
ĠA lex
X Ã¡c
ĠL Iá»ĨU
ĠTim es
Ġsá» «ng
Pháº £n
n hÃ
ĠTrá º¥n
Ġch Äĥ
TT g
ĠF LC
CO M
th e
M iá»ħn
ĠTá »ĳc
ÃĢ NH
Ġnh iá»ħu
Ġn Ã¨
¡ p
Ġcá» «u
Tr anh
ĠPHÃ ļ
ĠS V
ĠT uáº¥t
ĠâĢ ĭ
c c
tr ang
x e
Ġview s
Ġ7 9
Ġtá º·c
8 3
B iá»ĩt
ĠMar ia
tion s
f Ã©
201 9
ChÃ ¢n
Ġsá º£nh
ĠkhÃŃ t
ub a
ÄĲ á»Ļ
ĠM at
ĠCh Ãłng
b ox
ch er
ĠnhÃł m
ĠY ÃĬU
ĠGD P
ĠW al
S G
Ġká º¹p
Ġbiáº¿n g
Ġtháº ¯p
h an
H Ãłn
ĠX Ã©t
Gi Ãºp
M ang
C hÃ¡
ĠLá º¯p
ub e
ĠN et
Tá »Ń
if e
Ġo Ã¡n
ĠTh uá»Ļt
ºł CH
Quá º£
uá» Ł
ĠL CD
ĠS ou
Ġx ua
ĠM Ã´ng
ĠTrá» Ł
ew s
entin a
Ġ6 6
B log
T Ã³m
ui s
ĠL Ãłng
Ġx Ã´n
ĠV P
ĠRá ºº
l Ã´
k s
Ġngá º©ng
Lá º¯p
ª NG
ĠRe ad
ĠÄĲ ÃĤY
ĠI raq
Ġnhá» įc
ec t
Ġg Ã¢n
Ġquá º¥n
M Ã´i
z u
Ġkáº½ m
ĠP R
Ġá º§m
ĠX u
ĠM Ã£i
ĠK o
º¤ U
Th iáº¿u
ĠTr Ã¡ch
Sá »ĳng
ll y
ĠKhu Ãª
Ġd ang
ĠTr Ã¡nh
b al
7 4
7 6
Æ°á»Ŀ m
V TV
M Ãł
ĠL in
ĠÄĳ Ãłng
Ġngá ºŃm
ĠÄĲ ÄĤNG
ĠL uÃ´n
ht ml
H O
ak a
chá» ĭ
UYá º¾T
Ì£ ,
ĠGold en
IN E
T Ã¹y
ÃĤ m
ÄĲ Ã´ng
ĠQ L
Tr a
EL TS
ĠW in
Ġm Ã¡c
Ġtá º¥u
Ġ calo
ĠTR UYá»ĢN
ĠB B
ĠT om
em o
th iáº¿t
ĠL Uáº¬N
ĠIS O
ĠS ex
9 5
ĠD Ãłnh
Ġmá º©n
Ġch en
R a
pp o
co r
Ġsá º§u
ĠK ing
ĠM iss
200 6
Ġkh an
Ġli ke
Ġprote c
ĠI mp
w ard
Ġl Æ°á»£n
Bá »ĳ
ĠS n
H iá»ĩu
ĠM Å©i
Ġrá» Ľt
ĠV H
ĠTRá» °C
ĠM á»Ļ
ÄĲ á»Ļng
Ġná» ©c
ĠNhá» Ľ
' ,
Ġche ck
ui tar
Ġ13 0
Ġm icro
Ġ Æ°á»Ľp
am i
ĠH Ã¡t
ĠTháº ¡c
tar t
Äĳá »ĳi
>> >
s an
ĠL Ã¡ng
H Ã£ng
ĠE ver
ĠG Ã³c
UYá» ĦN
Ġpháº Ńt
ĠphÃ¡ c
Ġcá» ĳi
ĠAma zon
ÄĲá» ķi
= >
ĠK CN
i Phone
ĠB TC
] .
ĠPhÃ ª
ĠD Æ°
p ad
Ġe uro
Ġnh Ãłn
C Ã¡m
ĠTHá» ĲNG
R ao
ĠB uá»ķi
ĠC ON
ĠV er
th Ãłnh
Ġtrá º§y
ĠS ta
os ted
V P
Ä ĳi
ĠPh Ãłm
U B
ĠnhÃ ¡i
Ġcháº §n
ĠÄĳ Å©a
US D
ĠG ames
Ġtu Ã½
c Ãºc
m es
N et
Ġáº¢ NH
our inho
N Ã´ng
Ġb us
Ġkh ay
ĠMá ºłI
j et
ĠCá º£i
co py
Ġth iáº¿p
Ġs ite
ĠMá º¥y
ĠM aster
ĠTá» ĶNG
» Ł
Ġs Äĥ
ĠKh anh
Ġ cÃºc
ĠWord Press
Ġlo an
ĠmÃŃ a
ĠB uilding
ĠL ink
k ok
ĠTrá» ¥
b ai
Ġr uá»ĵi
id a
Ãĵ C
Ġná º¥y
D T
ĠFor m
ĠDá º¥u
Ġ6 1
Ġv Ã¡c
I NG
ÄĲá» Ŀi
Â ²
Ġtá»¥ t
Ġvá» įt
x Ã£
ĠNh u
e i
Ġngá º«m
Ġ tp
Ġthá» ĳi
C Há»
ĠC lin
Ġâ ľ
ĠMáº¹ o
k inh
Nh a
Ġfor m
ĠDav id
Lá ºŃp
m o
Ġd Æ°Æ¡
T háº¥y
ph a
ĠNH Iá»ĢU
Ġcá º©u
cÃ¡ i
ĠphÃ ´ng
ĠL aptop
ĠAu to
ĠTá» ĪNH
ĠEx p
ĠR ang
ĠS on
6 1
ua r
ĠFire fox
ĠliÃªn g
ĠCS VN
O p
ĠH Ã¨
Ġsá» ¥n
m g
Ġthu Ã¢
ĠChá» ¯
A d
L O
q uá
Cá º£i
) -
ĠGiá» ĳng
Tháº ©m
ĠVá º«n
Ġprotec ted
Ġthá» §ng
ĠL ed
sá »ĳ
Ġ8 9
Ġ @
á »Ł
T Ã¢y
Chá» ¯a
ĠNg hÃ
Ġho i
ĠI ELTS
Ġ12 5
Ġr Ã£
Ġ at
ĠN Ãºi
Thu Ãª
Ġngháº ½
H D
av e
an ce
Ġngháº ¹t
ĠH áº¡n
II I
d ex
X Ã©t
há» įc
Tháº §y
Ã Ĳ
ĠK Ãªnh
Ġph Æ°á»Ľc
Qu Ãł
ĠH Ãłi
Trá» ĭ
ThÃ Ńch
P háºŃt
ĠVin pearl
us t
ĠÄĲ Iá»ĤM
ĠL Ã¡
et te
ĠnhÃ ¡t
Q uáº§n
n háº
ĠQ UYá»ĢN
ĠK Iáº¾N
Ġnh e
Ġnhá» ĵi
ĠKháº ©u
Cá» ©
ĠGi Ã³
ĠchÃ ²
ĠG en
c Ã²i
ĠTo Ãł
Ġr Ã²ng
ĠS G
Ġ %
Ġ7 3
Ġng Ãłng
c r
Ġlá» ¯
ĠS mart
T E
cel ona
we i
ĠAr g
ĠÄĲá º¤T
Ġm iÃªn
D ANH
ĠTHá» ¦
on t
Ġmá »ĳt
ĠMá º¶T
P C
ÄĲá» ĭnh
ĠB TTTT
ĠGá º·p
ĠUn g
ĠN Ãły
ÃĴ A
ĠU N
ĠPho to
ĠC R
ĠH Ã²n
ĠKá» ¸
ĠTIáº¾ NG
T uyÃªn
ĠD Ã¢y
c au
Ġl Å©ng
CH Æ¯ÆłNG
Q H
Ġthá» ĳt
am in
ĠTHá» ľI
el la
Ġ199 9
Ġcáº¡ o
Cá» ¥c
ĠV Ã¹ng
d ong
ĠVá» įng
L Ã¢m
Ġ cÃ²i
Ġtá» ĭnh
ĠNg Æ°
Ġr Æ°á»Ľc
v Ã¬
Ġmen u
Ġphá» Ł
Ġmá º§u
ĠÄĳá»ĳ m
ĠH áº¡t
ĠQu Ãł
Ġb alo
CC C
da te
ĠM Æ¡
Ġá º¿
khá» §ng
c Ã²
á º£i
ĠS ol
Ġngháº½ n
Ġgi Ã£
Ġthá» ģ
ï ¸
ĠC ÄĤN
ĠGá» Ĺ
ĠT Ã³c
7 3
is si
ĠS AO
V Ã²ng
qu an
ĠM essi
ĠH TC
ĠD ao
Ġte st
H S
ĠG Ã³p
ĠS w
â ĺ
Má º¥y
ĠL Ã¢u
Ġho rm
ĠTHá º¤T
Ġvá º¥p
et er
ĠA T
Bá» ı
ĠSeo ul
ili con
er e
Ġcháº £o
Ġ Æ¯á»Ľc
ï¸ ı
ĠG Ã¬
g u
od e
ĠVic tor
uá º¥y
ĠG u
Ġgiá º·c
V ÄĤN
ĠT Iá»ĢN
! âĢĿ.
ĠH u
q uáºŃn
g g
ĠNg Æ°á»£c
Ġ200 2
Ġg Ã¡y
Ġch Æ°á»Ľng
Ġhá» ķng
Ġv n
Ġsá º¥u
ĠTHÃģ NG
Ġbá» ķn
ch ester
Tr Ã¡i
ĠBá» ĨNH
Ġm Ã¹ng
Ġshow room
ua wei
ĠR anh
X Ã£
m en
Ġhá» ĳt
Ġphá»ĳ t
º° NG
ĠthÃ ²
M a
háº¥ c
Ġtháº £y
Ġháº¡ m
ĠDá» ħ
ĠT áº¡ng
Ġ2 20
ĠC i
Ġ[ ...]
ĠP GS
Uá»Ĳ N
ĠA C
ĠM Æ°á»Ŀng
C Ãĵ
ĠSá» ©
ĠCá º¦U
ĠTHU ÃĬ
Ġ8 6
Ġres ort
Ġ ]
Ġtá º¥p
o id
Ġy oga
ĠB OT
Ġrá» ķ
ĠvÃ² m
ĠG MT
£ nh
ĠCá» ±u
ĠF u
Ġthá» ¥c
ĠÄĲ Æ¯á»ľNG
Ġnhá» §
l Æ°á»£ng
cha in
Ġhá»ĩ t
ĠR Äĥng
ĠBlue tooth
Ġr u
Ġh uyá»ĩt
Ġk Ã¬m
Ġthu Ã´
ĠBM W
ĠHá º£o
ÄĲ Ãłn
Ġmá»ĵ m
Ġgá ºŃy
Ġp iano
tal ia
e on
ĠMob i
ĠD Æ¯ÆłNG
Ġ7 8
dá» ĭch
ĠChÃ ¡u
tin e
Ġrá» Ĺng
ĠW est
ĠÄĲ au
ĠB iáº¿n
ĠMa z
Ġto an
ĠT C
º® T
Ãģ p
ĠF I
B iáº¿t
ĠTá» ĭnh
ĠUn iver
n gh
Ġvi et
Ġ Æł
ĠM edia
ĠM ourinho
Ġgá º·t
t v
D inh
Ġshow biz
Ġh en
Ġx Ã¡t
ĠÄĳá º¥m
ĠÄĳá ºŃy
t us
w are
j ob
Ġng áº¡o
Ġqu e
L Ãª
¬ A
ĠTH Æ¯
A tom
cha el
is hi
ĠGá» įi
G oogle
Ġ au
Ġm ore
Ġb lock
x á
Ġ Ãª
ĠL Ã²
Â Ń
ĠhÃ ³c
ĠT ÃįNH
Æ¡n g
ĠM Ã¹i
N Há»®NG
Ġl Ã¡ch
H ay
U I
I ÃĬ
c s
Ġm Ä©
sá» Ńa
Ġ7 1
ĠBang kok
ĠTO P
co la
ĠCom ment
Ġá º£
ĠPHá» Ĳ
Ġch Æ°ng
Ġch uá»ĵng
ĠA sia
z z
ĠT UYá»ĤN
Ġho Äĥ
ĠB Ã¨
th anh
ĠM á»Ļng
º¨ N
Ġngá» Ńa
ĠPhá» ĳi
ĠÄĲá» ĵn
Ġv Ã´i
V Å©
L Æ°á»£t
Ġtr Äĥn
ĠSá» ĲNG
Ġs ize
ĠPhá» ¥ng
v el
ĠTá» Ķ
ĠKá º»
Ġcá º·n
ÄĲ o
Ġtá» §y
Ġkháº ¯t
ĠP as
te in
ĠTá» Ľi
and al
Ã ĴNG
Ġph iáº¿n
ĠL uyá»ĩn
T uáº§n
ĠC uba
ĠArg entina
ti ve
ĠCS GT
Ġn uá»ĳi
c al
d uc
ĠC u
ĠB inh
Sá º¯p
Ex press
Ġbá º»
Ġpháº «n
âĢĻ .
ĠNghi Ãªm
S ong
ĠL Ã²ng
H a
Nh anh
Ġ Ã¹n
ĠCH UNG
ĠBar celona
ĠU p
Ġgá ºŃp
Ġná» ĥ
Ġngá º£
Ġná º¿m
M ay
ĠE s
A h
O O
Ġ16 0
ĠBan k
ĠNo el
ĠDáº¡ y
ĠCá» ĺNG
T p
Ng hi
i ta
Ġná» ĩm
y n
ĠAr chi
Cá» ķng
Ch u
Ġg Ã¢
sta gram
ĠKh a
Ch Ãłng
ĠG Ã¡i
L áº¡i
ĠU V
ĠTrá º£i
g ht
ĠTrá ºŃn
Ġk Ã©t
Xá º¿p
Ġb Ã¨n
i an
h ai
S A
lin k
sá» ±
ĠG ate
ĠBá» įn
H N
S amsung
8 2
ĠL Ã´i
Cam era
Lá» Ľp
oo t
P V
w ork
M C
ĠJ an
Ġxá º»
Ġ24 7
ĠS ec
Ġquá º¿
ĠQ uá»·
Ġn Ã©
Ġ1 01
Q L
E W
B I
z ada
ĠTh ai
Ġph ai
ĠTÃį N
S C
F one
ĠxÃŃ u
ĠB Æ°u
Ġser ver
Pháº ¡m
Ãĵ I
Ġb uá»ĳt
M I
ĠK ar
T ube
ĠHá» ©a
Ġlá» «ng
Kháº £
ĠCá º¢
ĠH al
Ġ199 0
ĠA pp
ĩ n
Ġlá º©u
ĠÄĳ Æ°
ĠP CCC
ÃĴ N
Ġnh Å©
C Ãł
ĠChÃŃ n
TH Iáº¾T
ĠLá º§u
ĠTH EO
r am
ĠN iá»ĩm
ĠV ÄĲ
ĠH ung
ĠLá» ļ
ĠBar ca
co re
Ġsáº£n g
Ġf lash
Ġg Ã²n
ĠA TM
ĠQ UY
Ġngá º©n
ĠCh iá»ĥu
ĠR O
º¤ Y
7 00
ĠE lec
ĠD iá»ħm
h uyá»ĩn
PhÃ Ńa
n gá»
Bá º¯c
Ġ20 01
lor er
Ġx Æ°á»Ľng
Ġ9 2
tr Ãªn
Äĳ áº¡i
Ġ14 0
Há »ĵi
áº¤ n
Ġthá» ģm
Ġkho Ã¡t
ĠMaz da
âĢĿ :
20 20
ÌĢ ,
B ook
d r
ĠT háºŃp
ĠM it
ĠJ a
H áº¡
Ġ8 4
ta ly
ĠGiá» ¯
Dá º§u
j a
D a
ÄĲá º£ng
S T
ĠRo y
' .
1 50
ĠD el
Ġlá» Ŀ
ĠT K
ĠQUá º¬N
Ġná» ī
Ġn háº¥c
em e
Ká» ·
ĠVá» Ĭ
a hoo
ĠI phone
IT E
ĠSp ort
Ġkh uáº¥y
ĠNá» ĶI
ĠO anh
ĠB Ãłng
Ġxá »ĳp
Ġngá» Ŀi
ĠG Ãł
ro let
ĠV Ä©
ĠTá» ĭch
ĠJ ose
ĠHo tel
Ġth uá»Ł
ĠH áº¡ng
N V
Ġ8 1
y s
ad o
ĠB BC
Un g
ĠhÃ¨ n
ĠÄĳá º£
ĠT ÃĮNH
ĠE r
Nhá» Ľ
g hi
Ġmá º«n
Rá »ĳi
ĠF lor
Ġco mp
Ġb ack
n i
ĠHOá ºłT
Viet nam
9 8
issi ons
ĠCá º§m
ĠV TC
Tá »ĳt
V iá»ĩn
ĠNg Æ°u
ĠC Ã¡n
Ġw indow
b it
İ I
m Ã¬nh
ĠThÃ Ń
Ġ8 7
Ġ7 6
mar k
lo ud
. -
ĠL áº¡nh
ĠÄĲ ÃĢO
Ġtr Ã¹
ĠT Æ°á»£ng
ĠGeo r
N háº¥n
Ãģ NG
ĠExp lorer
ĠC Ã¡m
ĠCom m
ĠCá »ĳc
Cá» ±u
Ġ4 50
? !
ĠB ill
erm issions
ĠL Ã¡i
Ġ Ãºy
ĠDá» ¤C
Ġ9 6
ĠG ÃĮ
Ġd Ã´ng
G Ã³p
ĠH uÃ¢n
an i
ĠI T
.. ...
ĠL en
ĠT Iáº¾T
P hi
B A
b Ã¡n
P ermissions
Ã Ĺ
Ġ app
200 5
âĢ¦ ,
ÃŃ u
Ġ3 20
ĵ A
Ġtuy Ãª
ĠTá º§m
Chá» ĳng
ĠhÃ ¡o
ĠC V
M A
Ġgá» įt
Ġca fÃ©
ĠHo lly
Ġr en
Ġg Ã´
S Ãłn
Ġbá» ĵng
s iÃªu
Ġgi Ã²
ĠL os
Ġs iáº¿t
ĠTháº »
H uyá»ĩn
µ m
ĠV e
ĠQuá º¿
ua l
M E
ff et
Ġsex y
L a
ĠN N
H P
Ġphoto copy
ĠchÃ¹ i
Ġg Ãło
ĠnhÃ ºng
chÃ Ńnh
ĠÄĳo a
ĠÄĲáº ³ng
L iá»ĩu
C K
L A
Ng Ã´n
uter s
t Ã¡ng
ev rolet
M inh
ĠMan chester
ĠX I
â Ĩ
ĠH am
ĠÄĳá º½
Ġta b
ĠThÃ¡ m
ĠKhÃ ºc
ĠM en
Ġxá» ĩ
ho use
U A
ĠH er
tr ung
Ġ8 3
âĸ ª
ĠH iÃªn
Ġ tÃ¡ng
Ġkh iáº¿m
ĠH el
og en
ĠV o
Giá» ı
d ay
ĠA f
³ t
ĠMá º§m
ĠBá» ķ
x x
Ġkhá» ī
ĠNh Æ°á»¡ng
Ġp háº¥t
Ġgi Æ°
ĠGiá» įng
Ġtr Æ°
ĠGT GT
it an
em ber
Qu ay
B T
H Ã³a
Ng oáº¡i
ĠHá» ķ
Ġngá» ı
T e
h Ãłng
Ġphá» ĵng
ec al
ĠÄĳáº «m
Ġr áº¡ch
ĠI talia
ĠC TC
ĠB AN
Ġá º¥u
ĠNHá º¬P
, "
Ġvá» Ŀ
X EM
Ĺ ı
ĠÄĲ Ã¢u
ĠN V
L i
ĠHO A
Ġ cau
ĠA li
ĠM ag
as onic
ĠbÃª nh
Ġ7 7
M ong
K D
ĠT Ãºi
ĠK e
Vá º«n
ĠP or
ĠCen tral
na tional
ĠH Æ¯á»ļNG
Ġvá º¯c
ĠRe uters
ĠÄĲ Ã³ng
Ãģ nh
âľ ¿
º ¸
e ed
ĠT UYáº¾N
Ġq uyá»ĩn
ĠÄĲá» ĺ
Ġxo Ã¡y
ĠSu z
A pple
Ġphá»¥ n
Há ºŃu
Ġ11 5
thÃ ´ng
Y ou
Ġ ).
Ġphá»¥n g
is ta
ĠGiá» ¯a
ĠNH NN
o un
ĠNá» ģn
Ġb l
Ã Ī
Ġná ºµng
ĠÄĲá» ĩ
thá» ±c
de p
giá º£i
h u
8 7
ÄĲ H
ĠS c
phÃ ºt
Ġn Äĥ
ĠÄĲá» ĶI
ĠM as
Į I
ĠÄĲO ÃĢN
Ġs áº¡m
is co
ĠBá» ı
one y
Tháº §n
ĠÃĲá» ©c
ĠB Iá»ĨT
Bá» ©c
» ¦y
á »¦y
Th Æ°a
M ar
ama ha
d s
ĠS áº¡n
ĠThá» Ń
S Ã¢n
Ġv Ã¡
c um
K iá»ĥu
Äĳá» ĵng
ĠArchi ves
Ġm Ã©p
ĠJ ames
ĠNH ANH
Gá» £i
ĠK ia
Ġsá» įc
Ġ cÃ²
Ġtá»¥ y
f i
ĠRi ch
ºł M
s er
k bps
Ġ8 2
ĠM ini
Ġngo á
Ġs áº¡t
y e
E X
O P
V in
Ġp l
ĠÄĳ Ã¨o
Bá ºŃt
ti co
Ġhá» §
ĠM un
ĠMi chael
ÄĲ Ã¡p
Ġqu Ã´
ĠZ ing
b Ãłi
ĠS Ã¢m
ĠTH Iá»ĨU
i i
o us
ua t
Cá »ĳ
ĠP en
c er
li e
T iá»ĩn
ĠS T
Ġnháº ¹n
g is
ĠkhÃ³ e
ĠBá ºŃt
ĠVi e
ĠDo wnload
tháº §n
ĠChá»ĭ u
ĠNghá» ģ
ã Ģ
Ġbá» Ľi
G A
Ġng áº¡t
g as
Ġg Äĥ
tre am
ĠHar ry
Ġ us
Ġná» Ľi
Ġmi x
thá» Ŀi
Ġkhuy nh
ĠYou Tube
ĠN T
ĠNh Æ°á»£c
c Ãły
ĠF ri
H LV
ĠNGH Ä¨
Th o
N ext
âĢ¦ ..
Dá» ¥ng
ĠC re
ĠD ell
entin e
co w
Ġtá º©m
p ro
ĠÄĲá º¶T
ĠT uá»ĩ
ĵ m
Ġvá º«y
ĠHá»Ļ p
S Æ¡n
Ġsu Ã½t
ÄĲ Ã¡ng
ĠS IM
Ġr Ã³t
ĠP DF
ĠLá ºłI
Ġs Ãłi
c Æ°a
T Ãºi
ĠHá º¯c
tr y
V Æ°Æ¡ng
ol l
L Ä©nh
Ġn ick
Äĳ Æ°á»Ŀng
+ +
ĠPHÃ ĤN
ĠÄĲ ÃĢ
Ġv Äĥng
Ġs hip
ĠNG UYá»ĦN
Ġm y
ti m
ĠChá» ĵng
ĠH ÃĴA
A l
and a
ĠÄĲá»Ĭ A
H iá»ĩp
S S
id an
Ġd Ã¨
ĠÄĲá» Ĵ
âĢĻ ,
ĠD Ãłi
ĠVÃĢ O
Ġ Ãºt
ch Æ°a
ĠB lock
Ġchá» įi
ĠL Ã¢n
ĠBá º°NG
c Äĥm
ĠNH Æ¯
ĠC Ãłng
Ġs Ã¡o
ĠTr Ã¢n
Tr uyen
ĠM Ãĥ
Ġtá º£o
N Q
Ġph Æ°á»£t
Ġn Ã£
Ġbá»ĭ t
Ġng Ã³
ai r
ĠÄĲ ÃĢN
ĠÄĲá» ĲI
ĠH TX
Q uÃ¢n
X D
lo m
ĠL ÄĲ
ĠNhá» ĭ
ĠIn stagram
T W
Ġb Ãºa
ĠN ÃĢO
N ET
ĠCh e
ĠT AND
á º¨m
ĠWik ipedia
Ġx oÃłi
Ġtrá º·c
Op ens
ĠTh Æ°a
ĠN or
R iÃªng
Äĳ iá»ģu
ĠTr áº¡m
ĠF ed
ĠHolly wood
Ġtháº ³m
Ġ cÄĥm
ĠTá» «ng
b ay
ik i
Ġtr Ã³i
th an
Ġth Ãł
ĠG e
ĠRes id
Ġngháº ¹n
ĠKhÃ ´i
ĠS co
ĠI r
ĠB ur
Ġsp am
ĠNG UYÃĬN
M O
Å ¨
ĠF DI
c Ã´i
ĠH uawei
Ġr Äĥ
Ġs tart
ĠZ en
ĠVictor ia
ĠKH U
Ġ cÃ´i
Ġg iá»ģng
Cá º¯t
ov o
ĠC Ãºp
ĠW on
v il
ĠD H
Ġmá» ³
Ġbi k
Ġh uá»·
Ġtr au
Ġta g
Ho t
en ger
L uÃ´n
Le ague
ĠC Ãłi
ĠBá º¬T
ĠT A
uá» µ
Ġvá» Ľt
N uÃ´i
ĠT ao
bá º£n
ĠTr ao
h iá»ĩn
Ġs Ãºp
Lá» ±c
ĠEx cel
Cá º¥u
Ġtá» ³
ĠH AY
PhÃ º
Ì Ľ
ĠlÃµ m
X VN
ĠcÆ° Æ¡
b ab
ĠnÃ³ c
ĠGi Ã¡c
Ġtá»ī a
ĠS il
ĠH Ãło
Ġnh Æ¡
Ġlá» ¥y
F I
ĠF er
Ã ķ
tá» ©c
ĠX EM
Vá» Ģ
ĠTr avel
Ġxo Ã¡
º ¼
Ġn ung
] [
ÄĲ Æ°a
Ġmá» ©t
ĠQ uyÃªn
Ġhorm one
ĠVn Express
ĠK r
Ġkhi Ãª
M Ãºi
ĠTIáº¾ P
ĠX X
ĠTH AM
S hop
Ġchá» «
ri ver
ĠW AS
ph ong
Ġfan page
ĠCá º¥u
d y
CHÃ įNH
r en
t iá»ĩt
Ġn Ãªm
gh an
ch uyá»ĩn
ĠG Ã³i
T Ãłu
ĠÄĲá» ģn
ĠP aul
KhÃ¡ c
ce an
Ġs Ã²ng
Ġg u
ĠÃ įt
ĠB as
Ġa h
Ġ tiá»ĩt
C V
ĠmÃª nh
sá º£n
T Æ¯
ĠA t
Ġrá º©y
ĠhÃ ¢
ÄĲ á»Ļc
Tháº »
ĠT Ã¡o
app y
ĠI taly
Ġ9 7
ĠThá» ¥
Ġd es
ĠCHá» ®A
Ġ cÆ°a
Giá» ĳng
... )
ĠL ig
Ġ36 5
ĠM Uá»ĲN
Ġ7 4
ĠWhi te
ĠBá º¥m
sub ishi
G háº¿
ĠM ore
ĠDV D
L uáºŃn
Ġkh ang
ĠViet jet
ĠÄĲ ÃĶNG
ThÃ Ń
V Ãłi
t Ã©
ÃŃ a
ĠNhá» ı
es h
H i
b á»Ļ
ID V
phÃ ²ng
Ġth ung
ºª U
Vá» ĩ
Ġto Ã¡i
Ġ cÃły
L L
ĠNo v
ĠG rab
Ġv Ã¹i
T Ã´
H áº¡t
Į NG
per ia
âĢĿ ?
Ġ10 5
m s
ex us
chá» §
T hÃ¢n
ay a
ĠÄĲ Ã´n
p hi
ĠMil an
Äĳ áº·c
ĠMos cow
ĠhÃ £nh
% ;
Ġhá» ©c
Ġtháº ¯m
ĠPH Æ¯ÆłNG
ĠL ux
B V
ĠD UNG
ĠY oga
chÃ ºng
ĠTRá ºº
r Ã´
ĠSou th
ĠSá»¬ A
V n
Ġbá» «a
ĠR A
iel d
Ġco py
Vá º»
ĠF ace
Ġd ong
m Ãł
Ġr Ã¡n
ĠM A
ĠT IÃĬU
B M
ĠH uyáº¿t
N Äĥng
p lay
ĠU l
ĠCHá» ĮN
Äĳ Ã¡nh
Ch Æ¡i
Ġ9 3
Ġrá º§m
Ġv Ã¡ng
Ġca s
sá º½
Ġb ox
ĠL Ã£ng
ĠÄĲ iá»ĩp
pháº £i
ĠN iÃª
Ġm g
H en
em on
ĠA F
ĠcháºŃ p
ĠT á»Ļi
ĠWAS D
Ġqu ai
c y
Ġl Äĥ
ĠFran c
ĠNghá» ī
Ġs Ãło
ĠnhÃ ¡
Ġ12 3
âĢ¦âĢ¦ âĢ¦âĢ¦
ĠB T
Ġtr Ã¡
ĠbÆ°á»Ľ m
el f
ĠCá» ¨
c uá»ĳng
L and
N Ãły
ĠCh an
ĠM or
go v
Ġlu Ã¢
Æ°á»Ľ u
ĠÄĲá ºŃu
ĠS tore
ĠIn c
ÄĲ áº¡o
Ġcá»Ń u
Ìī .
ĠB ox
ĠW ifi
Ġtá º¯n
n ing
ĠPh ao
low job
ĠÄĲá» ¨C
Ġl Ãºng
Ġlá» ĵi
ĠL ONG
lá º§n
to ry
ĠR am
ĠhÃ² m
ĠnhÃ ²
Gá º·p
Ġ cuá»ĳng
Ġtr Æ°á»Ľng
ĠHo use
ĠthÃ ©t
ĠchÃ ¨o
bur g
H iá»ĥu
Tá º·ng
Ġco tton
ĠD iá»ĩm
Ġdá» ©a
g or
Ġq uyÃªn
TR UNG
Ġl Ã³c
q uy
em ent
ĠX S
ĠRá» Ńa
n há»
ĠnhÃ© t
ail y
ro m
ĠV ol
Ġbá º§y
Ġm iá»ĩt
Ġgiá º¥m
C Æł
g en
Ġkhoá º¯n
ĠB A
Ġp oly
Ġ háº¥u
¹ m
Ġb itcoin
Ġr Ã£nh
D Ã¢y
s y
S TTTT
as p
Chá» ¥p
ĠLi ke
A r
' '
ĠhÃ ¡
b our
Ġng Ã¡n
ic s
---- ----
ĠN ob
Ġl Ã³
ig er
Ġl Äĥm
ĠG am
ĠnhÃŃ u
ĠthÃ ¢u
PT NT
T Há
** *
ĠC Æ¯
Ġim p
Ġcá»¥ t
B erry
ing s
ĠNGHIá»Ĩ M
Trá ºŃn
Tá º§m
Ġlá »ĳc
ĠCh evrolet
ĠS uy
Ġquá ºŃt
ĠT TT
ĠLá» ¯
khÃ¡ ch
S a
li ght
ĠKá» ²
Giá» ¯a
ĠM S
ĠM ed
in ess
ĠInter national
Ġngá» ¥y
ĠC Ã¹
Sá º¢N
Ġthá» Ńa
D O
Ġ ar
p him
Gi ai
ĠS MS
ĠVN PT
ĠH Ã³c
I K
Ġlá»ģ u
ĠMá» ħ
9 2
ĠB Iáº¾T
an y
ĠLá» Ĺi
Ġnhá»Ľ t
ĠP ak
200 3
ĠTr Ã¹ng
ĠâĢ¦ .
ĠSn ap
S ai
al a
F acebook
Ġp lay
Ġkhá» ıa
Ġá» ĵ
Ġ Æ¯
L ong
Cá» ķ
Ġ áº¡t
ĠKhÃ ³
k ong
L ink
ĠS at
Ġláº½ o
ĠKang nam
U N
iss an
ap hi
ĠC Ã¡nh
Ġcá »Ļ
ĠDá ºŃu
ĠXá º¿p
ĠFI FA
ĠÄĲá º¶C
ĠDá º§n
Ġ199 7
Ġb Ã¡i
ĠN Há»
ĠPan asonic
ĠK en
ĠPháº £n
ĠB Ã´
ĠchÃ³ t
8 1
ÄĲ Ãłi
S V
T uyá»ĩt
ĠÄĳá» Ŀ
Äĥ k
ĠV ai
ĠB Ãª
º¦ M
ĠMá» ģm
Ġ199 2
ĠF ree
ĠThá» Ľi
ĠRá ºŃp
ĠNá º¥m
ĠQU A
ĠX inh
ĠForm osa
as on
ĠCa fe
ĠR Ãµ
Ļ i
Ġng Ã¡ch
ĠÄĳá» ĳn
ar m
Ġhá» ĳc
ĠS O
ĠT uyá»ģn
ĠK T
S uy
9 6
ĠP ost
ĠX IV
Bá» ķ
Ġ= >
ĠThá»ĭ t
Ġd ay
Ġ9 1
ĠVá »ĳn
ur y
Tá º¿t
S P
ĠT or
ĠA ug
ĠD ai
ĠD ec
Ġv Ã¢ng
ĠD ong
el and
C Ãłi
P HÃ
Ġxo Äĥn
ĠTá ºŃn
Ġg uitar
Ġco m
enn is
Trá» Ŀi
ĠC ÃĻNG
Ġnh Ãło
ĠBá º¤T
ĠGI AN
ĠC háº¥n
ÄĲá º£m
P ro
ĠG ar
ĠT uÃ¢n
H Æ¯á»ļNG
n es
ĠHá» ĵn
Ãģ NH
ĠK IM
ĠPV C
ĠD ay
ĠD Æ¯á»
Ġsá» ¯ng
Th Äĥm
Ġs Ã¹ng
ĠD ig
ĠCH Æ¯ÆłNG
ou cher
n hÃ¢n
Ġ10 8
B iÃªn
ĠÄĳ Ã´n
Ġv ung
ĠBá» ©c
a ter
ĠÄĲ ÆłN
t ent
Äĳá º§u
Ġs c
ĠT D
B ÃģO
ĠSU V
Ġvá º£y
Ġvá» Ľ
Ġngá º¥m
200 4
ĠHa w
º¨ n
hÃ ¬nh
S Æ°
ĠA rab
D ung
s eo
Phá» ¥c
ĠTh Æ°á»Łng
b ie
es ti
ĠMod el
S L
ard core
ĠH im
ĠW e
ĠA R
ĠTH OáºłI
Ġte am
Ġm Ã©o
Qu Ã¡n
PhÃ ³ng
ĠCH UYá»ĤN
o to
H T
ĠB al
ĠD C
ĠT ag
Ġr Æ°á»¡i
Ġtá »Ļt
Ãµ n
Ġsá º£o
E U
Ãļ C
ĠTh uá»·
Trá» įng
Ġbá» į
k er
te ur
ĠCá º¬P
Tr Æ°á»Łng
B iáº¿n
ĠCháº ¿t
ĠSá º»
bá º£o
ĠB ook
ĠY amaha
BS ITE
ĠCan on
ĠT ur
ĠÄĲ A
ĠÃ Ģ
ĠNgh Ä©
ES CO
ĠW ed
ĠTr iáº¿t
Ġ30 4
ĠHo á
¢ I
c ent
D U
ĠchÃ² m
2 000
l ic
phÃ¡ t
rid ge
ĠX Ã¡
ĠU ber
Ġimp lant
Ġbá º©y
ĠD I
Ġtrá» ķ
ho a
G Iá»
Ġ20 30
ĠV ang
Ġm iÃª
l im
Ġ24 0
ĠÄĲ ÃĮNH
ĠSuz uki
ĠnghÄ© nh
ĠClin ton
ĠN ik
g ame
24 7
Ġg háº
Dá» ±a
ThÃ ¬
V Ã´
Ġv ÃŃt
Ġs uÃ´n
... ,
ĠCá º©n
Trá» ±c
ĠG PS
ĠN ÃĬN
t Ã¡nh
ĠÄĲ Æ°Æ¡ng
Æ¯ A
â ŀ
ã ģ
H á»Ļp
d an
Ġph en
Ġm Æ°
ĠNgá» į
ĠP age
ĠSer ver
há» ĩ
Í ģ
ĠvÃµ n
ĠNgá» §
Gi Ãły
G Ã³c
tre et
ĠX Æ°Æ¡ng
is e
gi ao
ĠL OáºłI
ĠÄĲo áº¡n
Ġv Ã£n
X X
Ġgiá» ¥c
Äĳá» ģ
ĠTh an
ĠvÃµn g
Tr Æ°Æ¡ng
ĠE li
ĠEn ter
âĢĿ âĢ¦
Ġv est
ĠNg on
ĠTO E
Ġph Æ°á»£ng
ĠtÆ° n
lo bal
Ġl uyáº¿n
ĠZ alo
ĠNGHÄ¨ A
Ġ tÃ©
L Ã£o
ĠTr Ã¢m
ĠH ÆłN
Ġtrá» £n
ĠtÆ°n g
Ġph ao
ĠPhan xi
Ġr Ã¬
Ġ ex
ĠAngel es
ati a
un t
Ġn Ã´i
ĠX peria
Ġ199 5
ĠNg Ã£
Ġhá» ķi
ĠQu ay
Ġph Ãłn
Ġ tÃ¡nh
z er
at s
ĠL um
ĠHo an
ĠL A
Ġcháº£ nh
ĠCháº ¡y
ĠD uáº©n
ĠF in
ĠB ol
ĠC os
Tr ÃŃch
Nh u
F or
tiáº¿n g
Ġ17 0
H Ã²a
ag o
ĠBá »ĳn
ĠÄĳá º¥ng
ĠC Uá»ĺC
Ġvá º§n
ĠRoy al
: :
ĠMá º¥t
ag a
L ao
Ġng Ã¹ng
Ġd ecal
qu ang
ĠM TV
ĠNg uy
ĠI CP
ĠVá» Ĩ
Ġth Äĥ
Ġr Äĥn
ĠL Ãłnh
9 00
ĠO ppo
Â °
d ney
ĠN e
ĠMobi Fone
ĠI d
Ġm ÃŃt
ĠThÃ ºc
TP HCM
ĠA V
Ġch Æ°á»Ľc
ĠÄĲá º§m
Ġrá ºŃm
Ġcas ino
Ġtr Ã³c
el le
w eb
ĠÄĲá» īnh
ĠViet combank
t anh
ĠSE A
ĠU Y
H áº¡nh
ĠCh iáº¿t
ank s
g in
n gu
Ġn Ãºm
S h
kh u
ĠJ i
ĠCh ina
ĠO cean
Ġtr Ã¡m
ĠS ub
ĠT ÃĶ
Ġ3 000
Ġngá»§ i
Ġsá» į
uáº¿ ch
ĠC ore
ĠL im
ĠV Ã¢ng
ĠH Ãĥ
ĠAm er
ĠCá»¨ U
ĠTRá º¦N
an t
ĠC Æ°á»Ľi
ĠP ok
ĠB Iáº¾N
ĠN uÃ´i
ĠVÄĲ V
ĠMo tor
Ġr Ã¹a
Ġx ui
in fo
º¶ NG
ĠSh in
ĠLo a
Ġco ok
ĠV a
» Ĳ
P A
Ġtá º»
au ty
al axy
á »Ĳ
ĠBá º§u
Ġ is
Ġtruy Ãª
ĠQu Ãªn
Ġv ali
Ġ19 45
ĠVal entine
Giá» ¯
ĠÄĲ Ãª
Ġng uyá»ģn
Ġ199 8
... âĢĿ
ĠL au
w in
ĠS Ã©c
ĠCá º¥m
ĠR áº¡ch
ĠhÃ ¡n
Ġ( *)
ĠS Æ¯
c Æ°á»¡i
Ġch uá»Ļc
Ġsá» ¡
ĠTP P
Ġtr Ãºt
Ġtr Ã¢
bá º¥t
º ´
Nháº ¯c
ĠTá» Ŀ
Ġbik ini
ĠCÄĲ V
Ġs Ã³i
ĠÄĲ K
Ġ18 8
t one
Tr Ãł
ĠSá º¯p
ĠÄĳ iáº¿u
ĠVá» ±c
amil k
T ÃĢI
ĠWil li
Ġvá» ¯a
ĠH AG
ĠNháº ±m
ĠBlack Berry
ĠÄ ĤN
ĠthÃ² i
ĠR os
ĠG olf
Ġm Ãºt
ĠDu bai
ĠM Ãły
ĠC lip
Ġrá ºŃp
ĠTrá º§m
88 8
ĠM ao
º® NG
B ul
r u
ĠÃį ch
ĠphÃ ´i
âľ Ķ
trol ux
ch iáº¿n
ĠAd min
Ħ ¢
Bá º¿p
ĠNh an
ĠD on
vá» ģ
Ġda ta
h ang
Ġng Ã³i
Ġch ap
ĠComp lex
nh am
AT O
ĠS A
ĠSh are
ĠChi Ãªu
Ġtrá» ı
ï ¿
ĠGi Ãły
ĠB in
v ic
ĠP N
ĠAu di
ĠTHÃ Ĭ
ĠQ ui
n Ã³ng
Ġser ies
ĠâĢĭ âĢĭ
t ua
ĠS uá»ĳi
ĠTá º¥m
Ġn Æ¡
Iáº¾ M
Tá» «ng
B iá»ĥn
ĠCon dotel
Ġph Ãłm
t Ã¬
Ġmá» įt
ĠB ÃŃnh
ĠB Ã´ng
D áº¡
Ġng Ã¡y
ĠG V
o y
Ġ- >
Ġá»Ĳ c
Ġb Ã³i
Ġ uá»
ĠDá» ±a
Ġx Ãª
thÃ ¬
Ġv in
ĠS ak
n gá
ĠDá ºŃt
Ä¨ NH
Ġháº ¯t
ĠthÃ ¡n
Ġn oi
Ġtá» µ
ed an
In dex
ĠN iá»ģm
ĠPhi lip
Ġr eo
B áº¡ch
t eo
P osted
ĠNh o
ĠKhi Ãªm
ĠP earl
m ay
ĠMit subishi
ĠphÃ¡ ch
ThÃ¡ nh
Tá º©y
Ġ' '
Ġn Æ°á»Ľu
ĠH en
Ġb ody
ºł Y
ĠCá» ±
Ġcho Ãłng
ĠM Ã¡c
ĠPak istan
ĠR Æ°á»£u
Uá º¨N
ver t
Ġ tanh
Ġn áº¡o
b es
âĢĿ ;
Ngá» įc
th ay
le tin
v in
Cá ºŃn
V iÃªn
ĠVN CH
ĠPHá ºłM
ĠS AU
ChÃº a
Ì£ .
ĠB AO
ÄĲ Ã³ng
ĠV ene
ĠCTC P
Cá º·p
ĠPhanxi cÃ´
Ġbá» ©t
Ġ cl
Ġ tÃ¬
Cá º¥p
ĠKHÃ ĵA
Thá» Ń
Bá »ĳn
bo ard
Tá» Ľi
â Ŀ
ĠPh one
rá º¥t
ĠQu Ãª
? .
ĠL AO
n Æ°á»Ľc
ï¿ ½
Ġb iáº¿u
ĠS um
Ġl Ãºm
Ġ19 80
ĠS X
ÃŃ p
vent us
Ġ cÆ°á»¡i
m obile
ĠSy dney
ÃĢ U
ĠTh uá»Ļc
to ur
ll a
Gá» įi
ĠCP U
ĠT Ã¡t
ĠDr agon
ĠR ights
ĠV Æ°á»£ng
ĠLo ve
ĠÄĲá» ©ng
Ġyá º¿m
ĠWE BSITE
ĠSau di
C lip
Ġb Äĥm
ĠCá» Ŀ
ac t
% ).
K iáº¿m
Ġtu Ã´
D áº¡y
TM L
a th
Ġbá º§m
Ġlog ic
ĠB IDV
ĠC uá»ĳn
Ġá» Ķ
ĠS ur
ĠJ W
R P
T ÄĲ
Ġcháº ¡p
Ìĥ ,
2 50
OA D
ĠUN ESCO
ĠG háº¿
Ġtá»ĩ p
dá» ±
ĠTHÃ į
ĠY ahoo
TT Q
ĠF C
Ġca bin
ĠS martphone
ĠA D
ĠA BS
ĠHO ÃĢNG
ĠLa zada
Ġb lowjob
il et
ĠNhÃ ¢
ĠTr ai
g uyen
ĠM XH
or i
ĠIn f
v Äĥn
ĠHá º¢I
sh ine
ĠMi ch
Äĳ a
ĠCro atia
q ui
ĠV CC
ĠchÃ ¡t
Ġg Äĥng
gá º§n
tá º¥n
ĠDá» ĭ
ĠT itan
Bul letin
Ġn ÃŃu
ĠThá» ıa
end er
Ġsáº ¯n
Ġ es
Ġan droid
si ty
Ġsh are
u le
Ġngo Ã£n
b et
H Æ°Æ¡ng
tháº ¿
Chá» ĵng
ĠnhÃ ´
Ġ199 6
!! !!
er al
ĠS Æł
y an
ĠH uáº¥n
s ao
® U
Ġv Bulletin
Ġx Ã¡o
Ġn ano
Há» ĵng
ĠÄĲá º¯c
G ÄĲ
Ġli ves
ĠYo ung
12 3
l ess
Ġqu Ã¢
Ġstart up
Tá» īnh
Ġch an
» ĥn
C E
ĸ I
Ġlá» ĵn
V ai
Ġho sting
e z
ĠP ay
ĠT ex
ká º¿t
ta log
ThÃ ´i
ĠCHÃ Ĥ
tr ogen
il a
ĠTe am
C an
Ġtá º©u
âĻ ¦
x a
ĠÃ Ĭ
Ġn eo
ti f
ĠchÃ Ńch
J C
L T
ĠGeor ge
ĠHuy nh
GD VN
ab e
ł NG
Ġ: )
ĠHá» ®U
ĠMo on
Ġje ans
Ġn et
te c
9 7
ets tar
v Ã´
Ġquá º¥t
ĠT X
ĠNH A
Ġthá» ĳn
all et
Ġp lus
Ġ9 4
ĠL AN
ĠÄĲ ÃĢI
Ã² e
Ġsá º£y
ĠCol l
ĠThÃ ©p
ĠQ UYáº¾T
Ġb ÃŃt
ĠÄĳ Ã²
ĠC Ã¡p
L S
ro s
ĠHá» įa
Ġb ook
Ġgiá º§y
d inh
ca st
ĠCá º¯t
p op
t Äĥ
ĠP i
M ÃģY
ĠPháº «u
ĠY áº¿u
ĠTHá» ¨
Ġá »ĳ
c ty
Ġnhá» ĳt
Ġr Ã¹ng
ĠV Ãłi
ĠM us
TO P
Ġquá º§ng
Ġ10 2
em ix
Ġo áº£i
Ġsá º£
esti val
· n
ĠPHá» ¤
Ġto áº£
Ġquá º©n
Tá» įa
v at
ĠM Iá»ĢN
Ġsá º·c
K Ãªnh
n Ã³i
Ġo to
ĠNá» ®
W C
Cá º¥m
ghan istan
Ġ tÄĥ
Ġdá º¥n
Ch uyáº¿n
Ġcá »Ļi
Ġm Ã¨
Ġ199 4
ĠF A
ĠO S
ĠW C
Ġsá»Ń n
ĠT iáº¿u
Ġsá»Ńn g
ĠS C
ĠQ Ãºy
Ġvá»¥n g
Ġn áº¡t
Ġk ali
ĠB re
W NL
ke y
9 3
l iÃªn
Ġá ºŃp
il la
ĠPas teur
ĠVá º»
ĠS tr
B l
Ġ7 50
ĠAs us
ĠBay ern
á »ĥn
ĠGi oan
WNL OAD
n ghi
ĠN Ãł
Ġgi un
Ká º»
Ġblog ger
ĠmÃ¡ ch
Ġ tua
T ÃĮM
cá ºŃu
ÃĬ M
ĠU td
t Ã²i
ĠM I
n guyen
sá »ĳng
ĠTe le
Ġg Ãºt
ĠquÃ½ t
Bá º§u
Ġsá» §a
Ġ tÃ²i
Vá »ĳn
ĠN ano
am ond
ĠC ard
ĠD J
r es
ĠN u
Ġ- --
lo t
Ġl on
tr Æ°á»Ŀng
G Iá
Tá »ĳc
Ġlá» ±u
X B
word s
Ġ Æ°Æ¡m
ĠC Æ°á»Ŀi
âĢ º
ĠBá »Ļt
ho c
ĠMá »ĳi
Th Æ°á»£ng
Ġk Ã¨
ĠX Ãºc
si s
ĠV IN
st em
ĠL O
es el
M ai
U P
HÃģ NH
Ġxá º¥p
ĠTh ang
Ġáº¿ ch
ĠkÃ¬ a
ĠStar t
l as
ri ve
ĠTr áº¡i
ĠFr ank
há» ģ
th a
ĠRo ck
ĠMe tro
ph en
in ch
ĠKh ung
12 0
ĠT ÃĮM
ĠS tudio
ĠEx press
ĠVin city
ĠLig a
Ġ un
ĠS ÆłN
ĠMar tin
em a
if ic
Ġb Ãºi
v ÃŃ
c en
l ist
\Ā\Ā\Ā\Ā\Ā\Ā\Ā\Ā \Ā\Ā\Ā\Ā\Ā\Ā\Ā\Ā
ĠC anh
Ġs ho
ca d
ĠHá» ĸ
ĠSá º¼
Ġr Ãªn
ĠVi r
L Æ°Æ¡ng
Æ¯ NG
Má º¯t
Ġs ilicon
ar u
ÄĲá» ©ng
Ġ. "
ĠÄĲ am
Ġbu Ã´
ĠC le
Ġm l
th Æ°á»Ŀng
ĠD Iá»ĦN
i th
ĠB L
ĠOp en
P L
ĠKH Oá
ur i
ĠI m
ĠKhá» ķng
ĠT ÃĤN
ud io
ĠThá» ¥c
ĠHAG L
b ack
Ġx á»Ļn
Ġcháº ±ng
Ġth ong
Ġcá» ĵng
ĠTM CP
ĠRes erved
. (
Ġl iáº¿m
C A
Ġb ung
ĠRed mi
ĠPHá º¢I
T i
Ġje an
Ġh an
ĠCHá º¾
ĠS Ä¨
G Ã³i
ĠXá» ©
Ġ199 3
S im
ĠTh om
K Ã½
ĠG Æ°Æ¡ng
ĠvÃª nh
Ġmá º£i
Ġkh uáº¿ch
z o
Ġmá» įng
Ġtr Ã¨o
Ġdá º»
Ġ19 68
ĠJu ventus
Ná º¥m
Ġh anh
ĠP ac
ĠAf ghanistan
M e
ĠO ut
S Ãłi
ĠT TC
ĠTÃį CH
ĠL Æ¯U
ĠCh Äĥn
Ġ Ãºp
m ade
CH O
ĠT an
l Ãªn
ĠC C
Ġbe ta
Ġgá º¯m
ĠLá º¬P
a tar
M o
t Æ¡i
R I
Ġg ang
v Ãłng
ĠNGHá» Ĭ
ĠcÃ¡ u
Ġxá»ī u
) âĢ¦
cá º£m
bá» ĩnh
TH Æ¯
Ġ city
ĠCh uyáº¿n
Tr iá»ģu
Ġ6 70
os ter
ĠRob ert
ĠBer lin
z y
Ġtrá» įt
ev el
ĠT B
Ġm ag
ĠhÃ Ń
ĠS ÃĵC
H Ã´n
Ġ tÆ¡i
ĠCHá» ¨NG
ĠP A
ĠbÃ¨ o
ĠDO WNLOAD
r et
ĠTHÃĬ M
Ġná ºŃp
9 4
ĠTháº ±ng
Ġth en
Ġin fo
Ġr i
ĠH Ãºt
H ÄĲ
Bá» ¯a
ers on
Ġ Æ¯U
ĠP P
Ġ cty
ĠColl agen
Ġá» ¨NG
Ġnh eo
Ġngá» Ńi
Uá» ĶI
ĠV en
Ġá º¨n
ĠS K
Äĳ Äĥng
D iá»ĩp
ĠMá º«n
ĠC Ãģ
Má º¥t
Ġbá ºŃy
Ġá» ¦
ĠH iá»ĥm
ĠS et
ĠCh iáº¿u
ĠCor p
ĠTa b
ĠNob el
T am
g uyÃªn
ĠÄĳÃ´ la
id s
Ġmáº ©u
»Ń u
V OV
ĠG re
NG ÃĢY
ĠC UNG
n guyÃªn
Ġho Ã¡n
ĠÃį CH
ĠT AY
c ess
19 75
T ay
ChÃ¡ u
ĠT W
º® P
AS A
CH I
T Q
Ġvá º¯n
ĠTá» įa
ey mar
Dá» °
trá» «
Ġh Å©
ĠS ÃģNG
ĠS N
ĠSá» ¨C
L Ã¡
ĠF lash
ĠN ext
do anh
Ġx Ã¹
Ĥ «
ĠS D
dr agon
Ġdá º§m
ĠN issan
ĠNh iá»ħm
co s
tÃŃ nh
Ġng Ã²i
M icro
Ġkáº» o
M an
o ff
ĠB I
Ġbl ue
Ġhack er
Ġchá» ¯ng
no log
ĠA k
Ġ enz
ĠÄĳá» ±c
us hi
B L
ĠL ife
ĠTex as
ĠN háº¥n
Ġmá» ĭ
ĠQU ÃĿ
ĠS Æ°Æ¡ng
Ġf ol
ĠLH Q
ĠTo tte
Ġvá º§y
ĠResid ence
Ġgi Ã¢
ĠMá» ªNG
ĠSh ar
ĠH TML
Ġá» ©
ĠHá º¿t
ĠPHá» ¤C
ĠThá» ±
tr ic
ĠL as
b log
Ġ26 0
ĠnhÃ ºn
ĠTotte nham
ĠT iÃª
ĠÄĲ Ã¡n
Ġb ai
ĠB at
ch uyÃªn
âĢ¦ âĢĿ.
Ġ en
ĠVá º¬T
T Ã´n
Äĳ iá»ĥm
PhÃ Ń
â Ĺı
Q U
Ġv un
Ġng Ãł
º´ NG
ĠV FF
x t
N Há
Ġma ke
Ġ Ã´i
ĠJ enn
ik a
Ġ10 3
un a
ĠCl ub
ĠLo uis
ĠTN CS
Ġsc andal
ĠLen ovo
ear ch
ag er
ĠÄĲá »Ļt
it amin
ĠNá º´NG
V inh
N o
ĠS k
f er
9 1
ĠFor um
Sá º¯c
Ġná º·n
c ial
Kháº £o
ĠComment s
ĠHo áº¡ch
ĠN INH
âĨ Ĳ
ĠNá» Ĺi
Ġm Æ°á»Ľt
ká» ¹
Ġg he
co l
ÄĲ Æ°Æ¡ng
ak u
Ġtr Ã²ng
ĠTá» Ľ
Ġtá»§ i
ĠG uar
ĠS I
H áº¡n
ff ee
el s
% ),
Ġtrá» ĩ
V A
v ard
S H
Ġ oli
Ġs um
ĠTRá» ĮNG
KhÃ ³
Ġ199 1
Ġ13 5
1 000
ĠP ep
ĠC op
ĠR ad
re ad
Ġngá» «
gl ish
Ġnh Ä©
ĠCHÃĤ U
ĠO k
Äĳá º¿n
Ġbá»Ļ n
Ġngh iáº¿n
Ġá º¯t
ĠS ep
Thá» ĭt
Ġkho anh
ĠHO ÃĢN
Ġrá »ĳn
Ġn Ã²ng
Ġb en
B H
ĠPhÃ¡ i
ĠNg uyÃª
Ġá º¯c
ĠC AM
Ġ19 0
Má »ĳi
ÃĶ i
BS CL
ap an
org an
ĠX H
al k
P Há
ĠNG O
Ġsá» §ng
ĠT á»Ļc
C l
ĠL ight
TR ANG
ĠPhao lÃ´
ĠF ort
Ġáº¤ y
on i
Ġ ur
ĠT Ã½
ĠF i
Ġn Äĥn
si t
ĠM Æ°a
ĠK Ãª
ĠÄĲá ºłO
vi e
ĠChá» Ŀ
ĠT Ãł
ĠX U
Ġr Ãªu
Ġsá º§n
ĠTr ans
Ġw in
ĠCas io
Ch at
ĠnhÃ µm
g ar
º¨ U
ChÃ ¢u
Ġ are
ÄĲo áº¡n
ĠS M
Bá ºłN
Ġto ilet
Tr Ã¡nh
âĢĿ -
ĠÆł n
ĠNá º¯m
ĠNH Iá»ĨM
Ġrá º«y
Ġb Ãłnh
Ġthá» ıi
Ġng Æ°á»£ng
ĠR au
Ġl ine
ĠAnd re
Ġcá» §i
Nh iá»ĩt
ĠLá» °C
Ġs tyle
th uá»Ļc
F L
ĠGIá º¢M
ord er
S oi
ĠCH Iáº¾N
AI DS
Ġo i
n ews
ĠDÆ¯á» łNG
ÌĢ .
ĠVH TT
ĠC ry
ĠB el
Ġxá»ī n
ĠCH Uáº¨N
t uá»Ļt
to x
ĠNg á»Ļ
th am
ĠV lad
S e
O n
Ġgá» Ľm
v ia
ĠJ er
h m
ĠN Iá»ĨM
ĠLá» ĩnh
if t
ĠN ÃĢY
ĠNg uyá»ĩn
Ġho ay
ĠQu Ã¡ch
ĠC áº¡nh
Ġ or
Ġdá º«u
Chá» £
Ġtháº ¹n
ri bank
Ġm el
S how
ĠVie tin
ĠGiá º£n
ĠBa by
ol et
Ġsá» ¥c
ĠUy á»ĥn
ĠK Iáº¾M
Ġr Ãłnh
² NG
GIá» ļI
ĠTp HCM
Ġvá º©y
ĠKhÃ ¡ng
Ġtr iá»ģn
z en
ĠH T
ĠW all
Ġh cm
d en
Ġlá º§y
ĠDig ital
Ġp ixel
ĠO K
Ġv v
TT P
Ġ2 30
Ġng Ã³ng
f r
S I
re vi
ca tion
Ġmá» ¥
ti me
ĠKHá» İ
b ar
j u
Ġ* **
ĠCá º·p
ĠHá» £i
ĠElec trolux
ĠW atch
Tá º¥m
ĠTT XVN
Ġtráº» o
ch ung
Ġn e
cháº ¿t
o C
ĠTi vi
Ġqu Ã¢y
Ġth uyÃªn
ĠhÆ°Æ¡ u
g io
ĠSá º§m
ta ct
Ġi on
Ġmá» ĭt
n ess
Bá» įn
ĠS ung
ĠÄĲ B
il m
ĠTHÃģ I
Ġm iá»ĩn
ĠTh oa
ĠK ÃĬ
ĠÂ ·
Ġyou tube
T háºŃm
ĠBá º®C
Ġd c
Ġ5 000
Ġo k
revi ous
tá» īnh
Ġr Æ¡m
V Ã¹ng
Dá» ħ
s to
ĠTR A
ĠGi rl
Ġbá º£
Ġw ord
iz za
Ġsá» ĩt
ang e
Ġ tuá»Ļt
ĠSG K
ax i
Má» ¥n
ĠBS T
b Ã¬nh
Ġngoá º·t
ĠTHÃį CH
us tin
Ġnh Äĥ
ĠI Q
d am
ĠKHá»İ E
ĠtuÃ½ p
Ġh Äĥ
s m
u z
ĠH Æ¡i
and er
ĠP eter
ĠD ream
ĠX P
S ang
Ġph Ãło
V C
" :
tá º¥t
ĠU r
ĠTHá º¢O
ĠM O
ĠT el
ĠL Ãĥ
Ġv Ã©t
Ġ6 50
zu ela
ĠKH AI
Ġcon vert
ĠV ista
Ġs Æ°a
ĠB R
ĠT Ãª
ĠÄĳ ay
S er
ĠV KS
ĠSnap dragon
ĠL Æ°
ĠR ub
Ġlá º«m
c n
Qu ang
Ġch Æ¡
ĠN ÃĵI
ĠD aily
Ġx Æ°
tr Æ°á»Ľc
ĠMÃĥ I
ob i
Ġgi o
ĠQ atar
ok ia
p ho
k top
ĠQu e
ĠTH IÃĬN
pp ing
p i
ĠVin com
ĠNh iáº¿p
ĠMac book
ĠVá º¬N
Ġam in
ĠÄĲá º¥y
ashi on
Ġd uá»Ĺi
ĠSun shine
Iáº¾ U
ĠnhÃ Ńch
Ġp ass
ĠÄĲ ÃĶ
Ġb Æ°ng
ĠKhÃ¡ i
ati can
ĠNG ÃĢNH
ĠG Ã¢y
ĠÄĲÃĥ I
b Ãł
n ay
¬ I
ĠPal ace
ı m
Ġcháº ¯p
Äĳá º¥t
ff e
ĠS Ã³ng
Ġv Æ¡i
ver ter
Ġb anh
â Ħ¢
g he
Ġsá »Ļ
ua ry
ĠThÃ ª
ĠLá» Ħ
tá» ķng
r ay
ĠD ANH
Ġá» ıi
CHá» ¦
Ġi tem
ĠH A
ĠN AY
ĠE VN
Ġsh ort
Ġr Ã¢m
ĠG iÃªng
Ġ11 1
no va
c up
hÃ ´
C uá»ĳn
ĠhÃ ¬
elf ie
ĠN ap
f ile
ĠLá»ļ P
Ġláº¡ y
" ...
Ġcá º¥n
ĠP le
ome ga
Y áº¿u
k en
ĠTá º£
ĠJ ob
ĠUS A
ati ve
Ġ10 80
ĠnháºŃ m
Ġng Æ°á»Ľc
Ġr ÃŃt
m Ã´n
b u
Giá» įng
ĠM ap
s k
ch ia
we en
ik u
Ġsá» ĵi
Ġ18 00
Ġ09 8
c us
ĠCol or
u el
Ġ Ã¡t
Ġ5 50
ĠTo uch
ĠG lobal
ĠPh iáº¿u
ĠGate s
p to
ĠGiá º¥c
t ennis
Ġ uyÃªn
ĠK ey
Ġre ad
ĠJ ung
ĠS and
uá» ĵm
Ġg lu
ĠÃĶ i
» ª
ĠTá» ¤C
Æ°á»£ m
36 0
á »ª
ĠNhá» ±a
Ĳ C
Ġ tone
ĠtÃŃ t
Ná» Ĺi
Th Æ¡
Ġd áº¡t
ĠH igh
ĠF ile
cá º§n
on es
R Ãµ
ĠE X
S p
ĠKH O
ĠP T
tá º£i
Ġv áº¡t
ĠUniver sity
Ng uy
ĠH H
Ġ19 60
Ġm Ãºi
P I
Ġ9 99
N ew
ĠG ym
ĠM Ä©
im ir
Ġxá» ĭn
ĠChá» ¥p
Ġ? ??
ĠJ etstar
ĠHD MI
ĠS L
Ġx iáº¿t
Ġ= ))
Ngh Ä©
Ġe vent
Äĳá» ĭa
ÄĲ Ã¡m
d ia
ĠN áº¡n
bab a
Ġ19 70
s al
ĠM ur
ĠChá» Ĺ
ĠkhÃ ¢
d ung
ĠO ld
c are
ĠÄĳÃ³ a
L á»Ļ
cola te
ĠF B
¿ ch
ĠDi amond
C ity
Ġ11 6
ÄĲ Ã´
ĠX ung
c ur
Ġhá» ·
Ġx Ã²e
Ġrá» £n
ĠM Ã¢y
Ġ tennis
T áº¡m
Tá ºŃn
ĠDá» ¯
Ġn ao
ro w
thá» §
X Æ°á»Łng
ĠRom a
ĠE p
p tion
ĠEd ge
om a
Ġ 000
( *)
ĠGuar di
ĠG em
ik o
b at
Tá» Ŀ
Tá º§n
ĠÄĲ ANG
Ġoff line
ĠSte ve
háºŃ u
ug in
Ġá» ª
al y
ÄĲá »Ļt
L uyá»ĩn
is m
Ġup date
Ġ cr
Ġh and
ĠT ang
ĠÄĲ BSCL
GI Ãģ
g et
º¾ U
ná» ¯
ĠNgá »ĵi
Ġs uyá»ħn
ĠOs car
tu c
tle tico
ĠJ ul
,âĢ¦ .
bá º±ng
ĠÄĲH QG
Ġd iá»ħu
Ġmá º¥u
u li
Ġmá» Ľ
ĠV UI
Ġs ta
ĠC ur
ĠbÆ°á»Ľ u
ĠP háºŃn
s ai
ĠN eymar
ĠA B
Äĳ iá»ĩn
Ġ omega
P in
V ay
f ield
Com ment
Ġ19 54
ī P
L oa
l oáº¡i
Ġ teo
un e
ĠK TS
ĠL Æ°á»£c
Ġf ree
? ".
ĠmÃ¬ n
ĠCh Æ°
ĠN ATO
Å ¨NG
b Ãªn
ĠM s
ĠCo lom
ĠM ail
ĠCh Ãłm
ĠB QT
ĠVá» °C
Ġngá» £p
ĠA ward
Ġ Ãºng
ĠTr ade
ĠMo to
ĠC ang
Ġkh Äĥng
ĠKH UYáº¾N
ĠlÃ³ e
n Ãªn
ĠBe ach
ĠN ÃĵNG
ĠÄĳá» Ĺi
p m
ti al
P R
má» Ľi
Ġyá »
Nh iá»ĩm
ĠN Ã©
Í Ģ
b s
ĠE ther
ch en
Äĳ á»Ļc
ĠB CH
ĠV Æ°á»£t
ĠLum ia
Ġthá» «ng
t Ã£
Ġnhá» ĩn
ĠT ÃĤY
N A
ÄĲá º©y
Ġr ay
su lin
Ġchu Ã¢
Ġ Æ
ĠV Ãłnh
ĠK áº¡n
ĠN ang
ĠNghÃ ©
Ġk Ã©n
ĠBá »ĵi
N iá»ģm
ĠTá º©y
Ká º¾T
Ġp H
Ġn em
ĠX K
ĠPac ific
Ġs edan
l ong
ĠKHá º¨U
E A
ĠIr eland
ĠlÃ¬ a
ĠM TTQ
ĠTo shi
ĠSer ies
Ġ198 9
er y
ĠRang er
Ġhá» Ŀn
Ġn ai
vi en
ĠPH ONG
g ap
Ġl Ã¹n
ĠX Æ°á»Łng
ĠðŁ ĺ
od a
tr Ã¡i
ĠÄĲ iÃª
V TC
Ġ19 88
) ...
g Ã¢y
ĠM ess
ĠHá» İI
ĠM ir
Ġ tÃ£
Ġkh Äĥ
ir l
Ng Ãłi
ĠT ue
Ġh it
Ġn il
ro p
ĠM Ã¡i
ĠÄĲo an
Ġlo ay
Ġná º»o
Ġsáº «m
ĠT Ã¡i
c Ã¹
Ngá º¯m
200 2
ĠS JC
or p
Khá» ĳi
ĠE L
Ġv Ã£ng
Ġm p
v u
Ġch Ãłi
Ġv áº¡
Ł m
ĠN Ã³ng
ĠG ÃĴN
1 01
Nghá» ģ
Ġsá» Łi
Ġvá º©n
i on
M Ã¡ch
ĠN at
ĠP SG
bour ne
ĠS to
Ġcook ie
d Ã¢n
Ġk ey
ĠPHá» ĲI
ĠN on
ph Æ°Æ¡ng
ĠVill a
Ġr oi
ĠA udio
Äĳ ang
g ed
Ġy Ãª
U D
Ġdá º±n
ĠCHá» ĲNG
ĠB AY
th iÃªn
s ch
ĠO ai
Ġtr Æ°á»£ng
P G
c in
ĠÆ¯ Æ¡ng
Ġp ar
B i
ĠFranc isco
Ġo ai
Ġl Ãºt
ĠHan oi
Ġb Ã¹i
ĠMá» ĩnh
ĠFan page
Ġ! !
T u
ĠVene zuela
Ġrá »ĵ
j ect
ĠBe ta
NH ÃĢ
ĠÄĳÆ°Æ¡ c
ĠMá» ¥n
ĠR io
com m
Ġbá º§n
ĠIn ox
Há» Ĩ
ĠS ite
s et
ĠS uá»ĳt
id o
if f
ĠTim e
ĠHung ary
ĠCHÃļ A
ĠDo Ã£n
h Ãłnh
bá» ĭ
A A
ĠD Iá»ĨN
ĠÄĲ Ã¡m
KhÃ¡ nh
ĠNh au
ĠS ing
ĠC ÃĤU
Ġná º¥c
Ġ Ã³ng
ĠG el
Ġnháº ½
ĠL exus
ĠVÃĢ NG
ic an
ká» ĥ
M obile
um i
ĠV atican
ĠTá º¯c
L áº¡c
ĠEn g
ĠB Iá»ĤU
sp ot
giá º£m
ĠTH Æ¯á»ľNG
Ãĵ N
Äĳá »ĵ
E B
Ġ as
ĠBar ack
Kháº ¯c
v is
ĠK Ã¬
Ġd Æ¡
ph u
Q UY
ĠCá» ¬A
ĠH un
ĠVlad imir
ĠComm ons
Ġ cÃ¹
Ġ7 20
ĠImp lant
d es
ĠNGO ÃĢI
º ³n
ĠK yo
nh iá»ģu
ĠAl bum
rá »
Ġ Ã¹
ĠTR Iá»ĨU
Ca fe
Ġ< <
ĠTo wn
talog ue
ĠPhoto shop
ĠMá º¸
es e
B e
ĠH appy
Ná º¯m
t uÃ´n
ĠNgá» ¥y
M y
ĠHÃĢ N
Ġz in
V itamin
ÃĤ NG
an ia
ĠM Ã¨o
Ġho á
ĠNg Äĥn
M i
£ c
Ná» ģn
ĠN hÃ¡
Ġdá »Ļt
ĠCá» «
s che
ir st
lo ween
Ġg ram
eal th
Ġnháº §y
Ġd iá»ģu
on n
ĠnghÃ ©n
Ġngh Ãłnh
ĠVI D
Ġs Ã²
t uáº¥n
º¬ U
ĠA tletico
Ġ tuÃ´n
ĠTa e
ĠL ad
ĠtÃŃ a
b ong
ber ry
Ĵ N
Ġ10 6
Re view
Ġn ail
ĠM iáº¿u
Ġcar bon
ail er
v Ãło
ĠEn glish
ĠT Iáº¾N
ĠF estival
p le
ĠBus iness
KhÃ ´i
Ġá» ķi
ĠBá» ¯a
Ġ15 00
ĠD uá»ĩ
Ġf ont
CHÃ ļ
ĠLá» Ĺ
ĠAl pha
ĠMu sic
Äĳ Ã¢y
ĠNg uyen
cá º£
, ,
ĠLi ve
Ġx ÃŃt
== ==
ĠhÃ º
ĠC ook
â Ī
Tr áº¡ng
phá» ¥
Ġ tuáº¥n
Ġso da
Ġh ardcore
ĠV C
c Ã¢m
Ġmá» ĵng
Ġ âĸ
b ÃŃ
ĠÄĳ ong
Ġ197 9
.... ....
36 5
Ġvi r
ĠO ri
ĠÄĲ Äĥk
ĠVin amilk
20 01
má º¥t
Ã įt
Ġhá» Ŀ
ĠM Ã¡u
Ngá »ĵi
for um
ĠW at
G Æ°Æ¡ng
ĠLá» ¢I
Ġho c
og r
Ġthá» Ľt
ĠTá º¶NG
ĠTá» ģ
ĠNá »ĳi
ĠTech nolog
ĠDes ign
L INE
ĠS tu
má ºŃt
ĠW TO
ĠÄĳ Ãły
Ġm Ã¡ng
ĠId ol
Ġ11 2
GD ÄĲT
w i
ĠY u
ĠM Ã³ng
ĠD Æ°á»Ŀng
Ġ20 25
ĠAp r
Ġs uÃ´ng
Ġlog is
s ky
v ui
R au
má º·t
Ġhuy Ãª
ĠNhÃ ¬
ĠCH ÆłI
t áº¡t
tá »ĳi
ĠAF P
Ġlá º¹
ĠRá» «ng
ĠS ÃĢI
X uÃ¢n
L Ã²ng
Ġnháº ±n
Ġrá º±m
Ġg out
ĠL Ã£
ĠL S
Ġná º¯n
Ĵ I
ĠLin ux
º¤ M
ĠK u
m inh
Ģ M
ĠSan ta
on line
ĠÄĳ Ã¹ng
ris ti
l anh
ĠBá »ĳi
Ġ09 09
Ġtr Ã´
w an
Bá» ĺ
ĠL ÃĴNG
R Æ°á»£u
Ġchá» ķi
Ļn g
D R
Ġb ÃŃch
se y
ĠL U
ĠB ack
ur ity
gá »ĵm
ĠÄĲá» ĮC
Ġlá º©n
Tá» ĶNG
Ġvi p
Ng Ã´
ta p
ĠTH AO
ĠGi use
¬ a
Ġo ut
ĠK an
Ġ13 8
n ghe
tin a
Bá º¢NG
me ga
ĠchÃ³ c
ĠB ri
Ġm ac
ĠH inh
ĠQ H
ĠTH Æł
ĠMe kong
ĠN Ãª
b Ã¡o
ĠS tan
Ġâ Ļ
ĠTá º¢I
ĠHar vard
id er
Ġná» ±c
ee k
d ai
Ġam idan
o site
Ġre view
C Ãłng
N inh
ĠJe an
Ġdá º¿
ĠH Æ°á»Łng
tÃ¹ y
Ġ táº¡t
k háº
ak er
ĠSá ºº
Ġl iÃªm
Ġ09 37
ĠÄĲÃģ NH
Má» ĺT
L áº¡y
ĠBe auty
ĠThÃ ¢m
P lus
d anh
ĠCh ap
E G
ĠTá» ī
Ġcomment s
âĢ İ
ĠN XB
lin a
ĠTh uáº§n
ĠTrá» ¯
Ġphá» ĵn
Ġ20 21
en tal
ĠÄĲá º¢NG
N iá»ģng
gá» įi
ĠS ho
Ġ ass
s tan
ĠMe ga
Ġh d
ĠÃļ t
Ng Æ°á»£c
ĠChi le
ĠThÃ¡ c
ĠTrá» ĵng
Ġ cÃ¢m
ĠP re
ħ u
ĠMun ich
N K
? âĢĿ,
ph Æ°á»Ŀng
ĠK Iá»ĤM
ĠMá ºłNG
K INH
ĠC Ã¢
Â º
Ġ Ã¡ch
ÄĲ Ã¢u
Ġh uá»³nh
ĠT em
__ __
ï ¼
Ġ11 3
di en
Ġro ck
ĠS ÃģT
ĠSak ura
ĠHD V
Ġl Ãºn
Ná» ķi
V Æ°á»£t
Tr Ã¢n
ĠJa e
ĠP háº¥n
ĠP oly
ĠTOE IC
ĠB y
Ġtop ic
Ġgiá» Ĺ
Ġgá º£
lá» ĭch
t ail
ĠJ in
li ch
ĠT áº¡m
ĠLá º¦N
Ġdo áº¡
Ġ198 6
ĠCM ND
a ke
Ġv Å©ng
f ace
ĠG l
Ġgiá» ¡n
ĠÄĲá º©y
Ġg Æ°á»£ng
ĠDis ney
Ġ2 10
ĠHOá ºłCH
ĠB ern
d ing
Ġrá» §a
NhÃ £n
am ine
D V
ĠTrá» įn
ed it
mes tay
Ãµn g
ĠThá» Ŀ
ĠCi ti
Ġá º£m
Ãī T
P revious
Ġká»ģ nh
ĠCá º¢M
in ja
ĠP L
nh anh
g irl
Ġngá»¥ m
ĠHy un
Thá» ©c
Ġtá º¥y
ĠLá» įc
Ġ10 7
ĠCá »ĳng
Ġtá º¥c
Ġp an
im ex
tr on
is on
·n g
ĠMal l
Sá» ķ
ĠX V
ĠE B
ĠNh Ãłn
Ġblock chain
Ġ28 0
Ph an
ĠS treet
Ġâľ ħ
ĠthÃ¬ nh
ĠE di
° A
ĠR od
ĠG ÄĲ
Ġlá º³ng
Ġd Ã£i
Ġdá º¥y
Ġs tudio
N LÄĲ
ĠBl u
Ġ198 2
ĠN HÃģNH
Ġblue tooth
ĠK it
ĠC ÄĲT
ĠS IÃĬU
ĠÄĲá» £t
Ġdá º§y
V Æ°á»Ŀn
nh o
ĠS m
Ġâ ĺ
má º¹
Uá º¾
Ġhá»Ļ t
v iá»ĩc
h at
u da
ta s
ĠVID EO
c Ãºt
d or
Ġchá» ķ
Ġá»Ĳ n
ĠU B
Bá »Ļt
C Ã¡n
ĠKHOá º¢N
S EO
ĠI C
Ġm iáº¿u
Ġá»Ĳn g
Sá» °
ĠJob s
j o
Ġ09 38
Ġrá» Ĺ
ĠAli baba
pp er
Ġs ub
ĠAS IA
Ġnhá» £t
ĠL ÃĬN
ĠBá» ĥ
th Æ°Æ¡ng
Thá» §y
ĠO f
f one
ĠBá» Ĳ
Ġb it
Ġti tan
ĠColom bia
ĠIn nova
ĠChi m
ĠD ie
Ġr Ã¹i
f acebook
ta ge
ĠCre ative
V Ã¢n
Ġdá º³ng
Ġ order
Ġ0 24
ĠPHÃļ C
Ġ \\
da tion
ĠHá» Į
ĠC L
W ik
ĠÄĲá» ľI
ĠK ÄĲT
ĠFlor ida
lo s
G M
Ġgiá» Ł
ĠAn ti
Ġco in
ĠP S
Ġin sulin
ĠM áº¡n
Xá »
má» Ł
Ġká» ĭ
Ġ háº¥t
º® N
ĠLo tte
ĠF e
Ġnu de
Ġch Æ°á»Łng
ĠRich ard
V Ä©nh
ĠPal m
ĠPal es
Ġban ner
nh a
ĠTá» µ
ĠLe g
ĠT es
ĠBlock chain
un ette
n al
im edia
ĠM id
m ang
ĠLá» ľI
má» Ĺi
el ly
kho a
si an
W orld
Re ad
ĠCN C
um a
ĠM ÃĶI
Ãķ I
Ġ cÃºt
ĠPH P
ĠNG OáºłI
º» m
ĠDa ta
ĠTR Æ¯á»ļC
Ġco r
ĠL INH
»Ļ p
Ġnho Ã¡ng
ĠB ia
p r
Ġk Ã¨n
ĠMá ºªU
? )
g oo
Ġes trogen
n háº¥t
Ġbá»ĭ a
T im
Ġra dio
ÄĲá» Ĭ
ĠTá» ¥c
ĠTá» ³
ĠT er
ĠF oun
ĠVá» ı
s tar
ur t
ov ic
ĠAg ribank
Ġmá ºŃn
Ġrá º§y
ĠNhÃ £n
Ġbá»ģ nh
T Rá»
ĠBu ffet
v ice
Ġch ao
ĠCh ay
Ġng uyá»ħn
Ġrá»Ļ p
ĠBus h
ĠNá º¥u
ON E
ĠT Uá
" ?
Ġr Ã¬nh
i or
aphi c
Ãļ P
Há» ĺI
ĠB ir
ĠT ar
Thá» «a
way s
o int
L Ã¢u
h Æ°á»Ľng
ĠC Æ¡n
âĢĿ !
Ġ12 00
ĠÄĲá» ĭch
Ġnháº µn
T U
ĠThom as
ī u
ĠdÃ¹ m
ĠMel bourne
ĠCá»¥ m
Ġ10 4
ĠI CO
N ews
Ġb Æ°Æ¡
Ġlá º©m
ĠCap ital
? ...
Tá º¯t
Ġ10 9
ĠÄĳá»ĭ t
ĠTr Ãłm
ĠNgá» ±
C Æ¡n
ĠMá» ±c
cá» ķ
âĢ¦ ).
ĠD en
b us
ĠB ÃĵNG
D Ãłn
Ġb Ã¹a
ĠBe ck
ord an
Ġlá» £p
C Ã¢n
Ġto áº¡
ĠC el
b ra
C Ã¡nh
ĠPhÃ¡ o
gap ixel
Ġ cup
ĠCS ÄĲT
D e
ĠC X
ĠM Ã£o
ĠSa int
R L
H onda
ĠGi Ãłu
há» £p
ĠChÃ ¡y
ĠPHá» Ķ
l ÃŃt
Ġng ao
ĠhÃ ³t
L ED
ĠCam b
c ell
ĠPhilip s
T á»Ļi
Ġs elfie
Ġb uá»ĵm
ĠÄĲ Æ°
ĠO DA
x u
tá» ·
ĠS ev
O M
ĠT Æ¯á»ŀNG
B Ã£i
Ġm il
ua la
ï Ĥ
ĠF eb
ĠBá» Ŀ
Ġtr Ãłm
r ic
ĠBos ch
ph am
C ÃģCH
] ,
il y
ĠA v
ĠA ri
th ong
ill er
ris e
Ġv oucher
Tr iáº¿t
ĠNH IÃĬN
ĠPrem ium
ĠToshi ba
ĠC are
ĠNá» ¥
ÄĲ B
ĠXU ÃĤN
N S
T Æ°á»Łng
ĠD Ã£
B ÃģN
ĠKh uáº¥t
ĠG mail
tá ºŃp
ĠG áº¡o
KhÃ¡ i
ĠLo ck
him a
Ġná º»
ĠK m
Ġ25 6
Ġcá º±n
Trá» ĵng
os s
ĠBB Q
ká» ³
il le
z i
Ġch Ãłm
Ġquá º·ng
und er
w on
ĠL oÃłi
Ġr Æ¡
ĠThÃ ¬n
N háº¥t
d ra
ĠImp er
ĠI M
ĠK ore
ur n
ĠK araoke
enc y
ĠB Ã²
ĠÄĲá» £i
ĠB uá»ĵn
ĠT Æ°á»Ľc
L an
Ġng Ã¹i
ĠB ÃĢN
http s
ĠSch ool
Äĳ á»Ļng
ting s
ĠD ÃĢNH
Äĳ Æ¡n
ĠCon trol
M UA
ĠShow room
Ġw indows
Ġmuá»ĳn g
Tháº £m
Ġná» ¡
Ġho áº£
M Æ°a
Ġnháº ¿ch
ĠMá» ĢM
ĠphÃ ¨n
ump ur
Ġcháº ¯t
Ġo xi
ĠP VN
: âĢĿ
Ġ ),
ĠTHá º¬T
ff ord
h Æ¡n
V T
ĠR Ãºt
ĠÃģ O
Ġqu Äĥng
Ġpháº£n g
ĠCN N
ÄĲ Iá»ĢU
ĠW ater
ĠB Iá»ĤN
ÃĻ A
Lá» ¥c
Ġlogis tics
ch Æ¡i
R Äĥng
n Ã³
º¾ P
ĠX IN
ĠF re
ch inh
ĠTr á»Ļn
ĠNá» ĲI
ĠSá»Ń u
Ġgi Ã¹m
ter s
ĠT Ã¡
T Ã¡i
H I
ĠPales tine
Te ch
ĠTRá º¢
ĠK S
ĠP ri
Ġvá»¥ t
k u
Ġp op
Ġtho i
ĠLá» Ńa
ĠVHTT DL
ĠP iano
cá» Ńa
ĠM ul
Ġng Ã¡t
ĠD ÃĻNG
G b
Ġ09 02
w atch
ĠHal loween
ic al
V ID
em y
an n
id as
Ġgá» ıi
ĠH K
c ra
Ġchá» ĵn
ĠG er
Äĳ á»Ļ
w ell
Tá» Ľ
ĠB iá»ĩn
app hi
ĠNg o
ĠP ol
Ġsá º¥m
Micro soft
ĠS oo
Cháº ¡y
Th Æ°á»Łng
ĠA DN
Ġbá»ī m
ĠT Ã³m
ĠT Ãło
Ġf uck
ĠNg áº¡o
c Äĥ
ĠM assage
Ġm Æ°á»Ľp
ĠN ick
ar is
ai i
n á»Ļi
ĠVá º£i
D Ä©
ĠLá»ļ N
Ġoli u
ĠVill as
ĠChar les
ĠSol u
B O
an in
T D
ĠA ven
bá» Łi
E P
bá» ı
Ġtrá º§u
ĠV B
ĠÄĳá» į
ĠTá º¯m
Ġnil on
1 10
ĠB Äĥ
nh an
P M
d ar
th uc
emo te
qu Ã¡
ĠThá» īnh
ĠTrá» ©ng
t Ã½
ĠT al
Ġn iÃª
ar ch
thÃ ¹ng
Ġ uyá»ĥn
ĠHÄĲ XX
âĺ ħ
ĠO NL
ĠGi Ãł
X i
K HÃģ
ĠD Ã¢u
ĠL uc
H Ãºt
ĠK Ã©o
ĠKHÃ į
V Ãµ
Ġtrá» Ĺi
ti an
Ġmá» ģ
Ļ p
Ġdi esel
la v
ĠHo ang
ĠL áº¡
ĠM anh
ĠÄĲá» ĺC
ĠCá» ı
p n
ĠN ÃĶNG
Ġnh am
ĠNá º¯ng
Ġs amsung
Ġm at
Ãĵ P
ĠPr in
Ġcháº §m
Ġ cÄĥ
m on
ĠS he
t w
V ua
» Ķ
To yota
ĠKh uÃ´n
Ġdá º«m
g y
ĠTr áº¡ng
á »Ķ
sá »Ń
d f
ĠT iá»ĩp
Ġl iÃªu
Ġ tÃ½
Trá º¯c
c le
Ġphá» Ļng
ĠGi Ã¢y
if er
Ġtá º±m
ĠT IÃĬN
Ġl uá»ĵn
Ġg Ã¡n
E n
ĠWilli am
Y Ãªn
ĠAng ela
ĠCá» °C
H uy
Ġ: ))
ĠLá ºłNH
P od
r um
E F
ká º»
Ġp age
ĠFoun dation
ĠV R
Phá» ĳ
ĠkhÃ ¢m
ĠVCC orp
x anh
Ġrá» įi
G V
ĠT Ã¢
ĠPhÃª rÃ´
ĠNGá» ®
ĠO mega
ÄĲ Ã¡
Ġdo wn
º¦ Y
Ġ18 72
ĠNg áº¡n
B Ã£o
x ÃŃt
l comm
Ġch uá»ĳt
ĠL umpur
n ld
ĠP ass
NH NN
ber t
ĠThÃ ´n
ª A
ĠChá» ©
Ġhá» ħ
Ġi pad
ĠTR ANH
ĠONL INE
Ġn ÃŃn
ui t
T Ã³c
r ao
ĠJ apan
m Ãłu
ĠVe gas
Ġ11 7
ĠM ÃĶN
ĠViet Nam
ĠK uala
19 45
Ġbá»ĭ p
ĠUl tra
ĠHá º¹n
AR K
ĠC AND
ĠTay lor
ĠPle iku
ĠH Iá»ĤM
Ġvá º¹o
ĠP at
Há º¿t
ĠB est
CH UYÃĬN
khÃ ³a
Ġ11 8
ĠMá º¬T
Kh ung
x uáº¥t
Ġtrá» įc
L Ãłng
35 7
ĠÄĳ iáº¿c
as a
ĠHá» ĴNG
Ġá» £
Ġli u
ĠTr uyen
ĠHÃĥ NG
âĢľ .
º¶ P
ar o
S O
Ġgiá º±ng
ua tin
Ġgá »Ļp
ĠnhÃ ¢m
G o
ĠT Uá»ĶI
ĠFor bes
ĠTR UY
ĠCo un
Vi ew
l on
ĠL ÃŃ
Ġ cal
ver y
c Ãłn
v as
~ ~
ĠMar y
M Æ°á»Ŀi
Ġmi ca
ĠHar i
ce pt
ĠPhÃ ºt
Ġngu Ã´
n háºŃn
ĠN TM
Iá»Ĩ P
ĠBá» ģ
ĠB Ã©o
p ire
Ġbu ffet
ĠV es
ĠG Æ°Æ¡m
S K
TP O
Ġ4 000
Ġ90 01
ad er
ĠNG ÃĤN
risti ano
Ġngá ºŃy
al em
ĠX ANH
ak h
ĠA BC
ĠBá »Ńu
us h
+ )
ĠAd words
ÄĲá» £t
mi th
lo v
Ġca c
Ġgi Ã´ng
ĠB om
ĠDá» «a
chá» ĳng
ÄĲT B
ĠT ext
Ġ? ?
t iáº¿u
Ġm Ah
ĠÃģ c
c tor
le ge
ĠN an
B ET
p an
Ġcon dotel
ĠX o
g n
ĠG M
ĠS ilicon
ch uyá»ĥn
ĠL iá»ģn
ĠÄĲáº ²NG
do be
ĠN ÃĤNG
ĠPhÃ ©p
Ġh uá»ĩ
ĠÄĲá º§y
ĠS Ã´
Ġ12 6
Ġm ui
re ak
Ġ/ >
ĠT INH
Ġm as
Ġsal ad
Æ¯ T
im a
ĠChÃ ³
Ġháº ±n
ĠT ÃŃ
Ġxá º»o
Há» ĮC
ĠHá ºłN
! .
Ġ tiáº¿u
ĠCH UYá»ĨN
oid uatin
ĠLo go
Ġo anh
u ay
ĠASIA D
ĠCam ry
ĠC y
ĠTHÃ ĤN
ĠD iÃªn
Ġná º§n
Ġbá» Ŀi
Thá» £
ĠQ uyáº¿n
ĠÂ ®
ĠD am
ĠChá» īnh
ĠN Ã©t
D Æ°
ĠM Ã¢n
X ung
Ġsal on
ĠSec urity
ĠS Æ°u
ĠnhÃ ³i
ĠKh mer
Gi ang
C Äĥng
ĠR un
ĠH iÃª
N a
Ġdá »ĳt
ĠT L
F O
th ao
g ay
Bá º¢N
PhÃ ¹
â ĨĴ
Ġthu i
ĠchÃ ¹ng
Ġan ime
g oÃłi
Ġv Ãºt
[ /
ĠÃĤ M
ĠGá» ĮI
Ġvo an
L Æ°á»£ng
ĠJ am
ĠD ar
3 50
Ġte xt
Ġd river
Ġxu Ã´
ĠTho Ã¡t
ĠSo ft
ĠM Ã¢u
gi Ãºp
ĠArab ia
S ta
ĠKhá» ķ
ĠvÃŃ a
s tal
ĠDan iel
ĠDá º¦U
T ui
F ast
ca go
Ġb on
Ġng Ã¡c
quá º£n
Ãļ NG
ĠCá º¥n
Ġbá» ĭch
s hip
Ġ19 50
ell er
ĠSy stem
y me
tic le
ĠHo us
AM E
ar oo
n goÃłi
Ġ Ã²a
B ay
Ġch ang
ĠdÃ¬ u
ĠBl oom
ĠRe view
ĠÄĳá»Ŀ m
ĠT iá»ĩc
Ġ198 5
! ".
Ġm on
ĠJ im
Chi Ãªm
ThÃ º
ĠEd u
C AM
µn g
Ġbá» įng
ĠAward s
ĠR en
Ġ11 9
ĠV A
bo y
ĠL Å©
V Å©ng
Ġrá º§u
Ġh Äĥm
ĠS kin
Ġtab let
ĠGá »ĵm
ngu oiduatin
ĠUkra ina
cháº ¡y
Ġnháº £
F T
ed a
Ġm oi
e um
ĠA CB
Ġg há»ģ
t n
Ġv Æ°Æ¡
b Ãłn
ĠM ÃĮNH
Ng Äĥn
ĠF BI
a a
ĠTrá» «
ĠF un
tr uong
ĠK az
H A
Ġ17 5
Ġn áº¡c
ĠMac Book
ĠTr Ã¡c
ĠDá ºłY
ĠH Æ°
ma in
ĠC IA
ĠF ox
Ġ09 3
te x
ĠS SD
ĠB XH
Ġqu Ã¡ng
ĠX Æ°a
B Ã¡ch
Ġ197 2
ĠHo l
ĠB it
Ġnháº ¡o
n ik
Ġtá»ĳ p
ĠG hÃ
uck er
Ġng Ã³t
ĠJ ordan
Th uá»Ļc
H Ã©
ÄĲ C
ĠWE B
ĠK Ãį
ĠS ha
ĠÄĳ Ãºt
man n
h cm
k va
ĠL Ãłn
ĠY ang
Ġvi olet
ĠX ÃŃ
Ġtrá» ĵ
Ġnh uáº§n
Ġ198 7
ĠV ay
thá» ĭ
Ġ09 0
ĠV III
gi Ã¡o
e nh
ºł P
ĠLux ury
ĠÄĲá» ©a
ĠS qua
thá» ĥ
Th uáº¿
ic ester
C Æ°
ĠD ÃķI
ĠÄĲá» ķ
ĠChi Ãªm
ĠTr Æ°Æ¡
ĠM H
ĠM iá»ĩng
z one
ĠThÃ ¹ng
ĠCÆ¡ m
VID EO
av as
og ba
ĠK ao
ĠChris t
ĠKho Ã¡ng
Ġl Ã³ng
un es
ĠL Ã£i
ti en
khÃ ³
ĠB á»Ļi
Tr ÃŃ
Ġg r
ph at
ĠM ass
Giá º¥c
ĠB io
Ġcon tact
Ġvá» ın
t um
Ġli ve
ĠB Ãºt
ĠD y
ck er
L D
Â ł
b iáº¿n
m iá»ħn
C loud
Trá» £
Ġai r
ĠKHá º¢O
Ġnhá» įt
ĠCá »ĳt
ĠTra fford
-- -
ĠS ui
UYá»Ĩ T
º® M
Ġngá» Ľ
Oá ºłN
Ġd iá»ħm
Ġgá» Ŀ
ĠCos ta
b l
Ã¬ a
ĠAn n
Th ang
ĠB C
Ġ cÃłn
Q Uá
ÄĲá º¥u
. âĢĭ
Ġkh Ãłn
ĠTh Äĥm
ĠkhÃ ©t
ĠB K
ĠTH Uá»ĲC
ÄĲá»Ĭ A
âĢĶ âĢĶ
Ġdá» ĥ
ĠSá º®C
m Ah
T uyáº¿n
ĠV CK
Ġxá º©y
ĠHo Ãłnh
ĠG Ã£
ĠM iáº¿n
ĠN Æ°Æ¡ng
B enz
ĠPhi Ãªu
ph an
ĠSec ret
U M
Ġá» Ńng
Ġtá» ģ
Ġlá »ĳt
iá»ĥn g
Ġphá» Ľt
Ġvá»ĩ t
ĠS anh
ĠC ong
Ġp en
ĠÂ ½
ÃĶ tÃ´
Ġx uyáº¿n
t ur
Bá º¤T
ĠB or
d Ã¹ng
c lo
re y
Ġs ale
Ġm Æ°á»Ľn
ĠÄĳ iá»ĥu
ĠMaster i
Ġ09 06
orn ing
NLÄĲ O
ter ed
ĠB Ãī
Ká» ĩ
va tar
F E
ĠG an
Ġ11 4
ĠT CT
L H
PHá º¦N
Ġo p
ĠnhÃ ¡m
M Æ¡
ĠN O
b ang
Uá»Ĳ I
v Ã¹ng
G a
i ra
P r
Ġhy dro
ĠSa combank
Ġnháº· n
chÃ ¢n
ĠC ode
top ic
d Ã¹
on ia
Ġn ÃŃt
Ġng Ãºt
hÃ £y
ano to
Lá» ĬCH
Ġá» ī
ĠH it
ĠCh ang
ĠAT GT
S uá»ĳt
Phá» ĳi
th uy
ĠMá ºłNH
ch u
TT H
Ġ13 3
as sic
ĠÄĳá º£n
ĠCo co
Ġcho colate
ac era
ĠN m
Ġd uá»ĩ
ĠFor ex
Ġbo y
ĠGIá º¢
Ġngá º£i
x Ã¢y
ĠNhÃ¡ nh
ĠHaw aii
NHá º¬N
ĠMi ke
Chá» Ŀ
ĠNg u
C u
ĠGIá º¤Y
d t
lo tt
ĠÄĲ ÃŃnh
tá» ķ
A u
Ġ8 50
ĠC ream
ĠH ÃĶ
HÃ ĥ
Ġv ac
ĠÄĲ áº¡p
Ġ27 0
ag es
Ġs hi
ec tor
m ai
G H
ÃĲ á
Ġb Æ°
U y
ĠVá» ¹
Ġd iáº¿p
ĠChi cago
ĠnhÃ º
ĠQua lcomm
ĠB TS
ĠTrá ºŃt
ĠÄĳá»ģ m
Ġmua ban
thá» ©
C ar
ĠR ai
ap e
ĠhÃ ©o
Ġr Æ°á»Ŀm
Ġp oster
I L
apphi re
g el
Ġuá» ķng
Ġnháº £m
ĠX Ãª
Ġd t
ĠB ob
Ġ el
Tr Ã¡ch
ĠT Æ°Æ¡i
ĠMá» Ĺ
ĠG un
s Æ¡
Ġn om
om bie
y ou
ĠK ai
Q uá»¹
s ex
± t
ĠVI ET
la te
ĠSe a
ok o
Ġam p
Ġá º£i
H uyá»ģn
ĠB IÃĬN
ĠG O
ĠOs aka
_ --
ĠC K
ŀ I
ĠMar t
ĠL ine
ĠP op
Ná» ĺI
anoto vietnam
ĠGI ÃļP
enc ia
I ON
Ġr Ã´n
br unette
ĠG ra
ĠC ÃģI
ĠK P
Giá º£
M iá»ģn
K iÃªn
k ip
c p
em en
ĠSer ie
Ġf ax
ĠÄ ©
+ ,
ill s
Ġvá» «ng
ĠT Æ¯á»¢NG
ĠÃģ P
m und
g ro
ig o
ĠHo sting
Sá» ©
ĠBr un
Cá »Ń
Ġhá» ī
v ideo
c uá»ĳc
Ġs anotovietnam
ĠU Ã´ng
: "
Ġtá» Łm
ĠWal es
ĠS oi
Ġkho Ã©t
Ġl áº¡t
Ġd an
c ia
Ġgi Ã´
t Ãºm
n Æ¡i
Ġli p
Ġtá ºŃu
dá» ħ
ĠFer r
Ġ. âĢĿ
Ngh Ä©a
ĠS lim
Ġ15 5
ĠVill age
Ġchá» Ļi
o is
ĠTD TT
p hÃ¢n
W indows
R A
Ġg roup
to an
ĠMan ila
H uáº¿
ĠM ÃĢ
Ġx iÃªn
Äĳ Ã³
trá º£
Ġu Ã´
ĠÄĲ Ã³n
Ġm áº¡t
ĠCas ino
PHÃ ĴNG
ĠLá »ĳi
Ġd Ä©a
ĠMess enger
ch Äĥm
Ġá »ĳi
ĠTháº £m
Ġ197 4
C ap
b ac
ĠSky pe
ĠF it
Ġph Ãł
ti Ãªu
Ġ16 5
Ġca talogue
ĠSá» £
E E
Ġl Æ°Æ¡n
ÄĲ Ã³n
Ġv Ã©n
ĠM ona
ri o
. ]
TT T
Ġs Ã¡m
ĠP et
Ġg ara
Ġp a
p ot
ĠH il
ĠX ÃŃch
Ġh ero
ĥ nh
Äĳá º¹p
ĠR ose
Ġv Ã£i
ĠL td
ĠThÆ¡ m
ho st
ch iáº¿c
ĠH um
ĠIs land
Ġg anh
S on
ÄĲá º£o
ĠCáº¢ NH
ĠVo ice
Ġd ep
ĠAn ton
m oi
R S
ster one
ĠT ool
Ġcar ton
Ġhand made
Ġj ack
Ġrá» ¥i
ĠOn g
Ġbá» ¥c
M al
ĠC Ãº
ĠnhÃ ºc
99 9
ĠHo ld
ĠM iÃªn
ĠSá º¯t
Ġpl ugin
ĠS av
ĠH C
ĠKá» ¶
Ġthá»¥ t
ĠBol ero
ĠhÃ ²ng
ĠJ ustin
ĠNet work
uá»· u
ÄĲá» Ĺ
ch iáº¿m
ĠTr Ã¡ng
Ġs can
ĠHoá º±ng
Ġd Ã£n
r or
ucker berg
ĠO P
OO K
J o
Ġx iáº¿c
ĠT ak
Ġá» ķng
ĠS up
ĠNGH IÃĬN
ĠÂ» .
ĠUn i
val and
tr iá»ĩu
ĠT Ã´m
ThÃ ³i
Ãļ T
Äĳ Ãºng
B iá»ĩn
Ġph one
PT PP
Ph Æ°á»Ŀng
ĠHen ry
ĠLo áº¡n
Ġlá» ıi
Ġi t
Ġ12 1
ĠLe icester
Ġ tÃºm
Bá º¿n
Ġtháº «m
Ġ12 7
c uá
Ġg Ã£i
EW S
Ġbá º·m
Äĳ o
P GS
Ġ20 2
! ?
ĠÄĲá» ķng
Ġvá» ĵng
Ġ cuá»ĳc
ĠÄĳ Ãºp
ho me
ĠVá º½
ĠThá» £
B Äĥng
op hi
GIá º¢I
e ing
Ġg Ã¹
Ġ14 5
Ġm Æ°Æ¡ng
Ġ cuá
ĠK n
TR Æ¯á»ľNG
ĠAs s
ĠÃ ī
ĠQU ANG
Ġre gis
v v
âĢĿ ...
su zu
Tá º¯m
ĠSolu tions
P Há»
L Ã£i
HÃĥ Y
1 30
ĠN C
ĠVi p
v iáº¿t
vil le
Ġtho áº¡t
ĠHoá º¯c
H TT
Ġnh at
Ph a
ĠTHá»¦ Y
ĠS ar
r ing
ĠNT K
ĠO ct
ĠO li
ĠP ogba
ĠF DA
ĠCh uÃ´ng
Ġ16 7
ĠBá» ĵn
oc us
ĠTHá º¨M
o le
V Ãłng
ĠBá» ķn
ĠSá ºłN
ChÃ ¹a
ĠT Iá»ĨN
ĠD iá»ĩt
16 0
ĠVir gin
ĠA th
s us
T ER
c Ã¹i
ph p
Ġgiá» Ŀi
ĠhÃ ¹m
Há» Ĵ
Ġw ith
Äĳá» ĭnh
Ġhá» Ŀi
Ġd ÃŃ
âĢĭ âĢĭ
Ġnhá» ¡
ĠThÃ ¢
ĠCo ffee
ĠR ay
ĠXá» ¬
Ġ ap
Ġnhá» į
ĠB on
ĠS el
KhÃ Ń
tr uyen
Ġse e
g ra
Ġh ere
Show room
ĠH Q
ĠPhi l
Ġá º¯p
Chá» īnh
ĠVi os
M edia
ĠS ara
TH EO
ĠKh iáº¿t
Ġh on
Ġl Ã¹m
Ġni u
Ġ13 6
Ġco ck
Ġb ig
Tháº ¯c
ti es
ĠA z
L Ãłn
l Æ°á»£t
ĠA qua
ĠL Æ°á»Ľi
ĠC er
ĠT axi
Ġtr Äĥ
Ġtá» £n
ĠWord press
Ġshop house
tr anh
ĠSco t
o ta
Lá» Ĺi
ĠTh uyá»ģn
ch uáº©n
Ġkh uá»·u
b org
gi oi
uk a
ĠTá» ¶
ĠE V
ĠVina Phone
au s
Ġná º·c
ĠÄĲá º£n
ĠTTT M
W h
Ġ om
s Ã¡ng
ĠN ico
Ġrá» ¥t
âĪ Ĵ
Ġ id
ĠPr ime
ĠMá» ŀ
ĠZ uckerberg
Ġ13 2
? ,
q uá»ĳc
ĠCon tin
ĠJ ol
ĠPer u
ĠTr an
Ġk háº¥n
ÄĲá º¹p
co de
ĠHOT LINE
Ġp as
M r
ĠR ou
ĠF ood
ÃĢ M
Ġf ix
ĠBos ton
Tháº ±ng
e k
l inh
ĠJohn son
ĠD om
r t
ĠPHá» ¦
ĠCol lege
L Ã´
G VN
ĠX ÃģC
Ná »ĵi
ĠTele com
Ná» ¥
Ġvá º¿
ĠNo valand
ĠL ÃĬ
ĠDá º«u
ĵ NG
ĠS ÄĲT
Ġn Ãł
L Äĥng
k el
ĠK ur
Ġqu Ãłng
ĠCh uá»ĳi
Li ke
B YT
ĠBá º¢NG
há» Ļi
Ġ09 03
ĠP U
ĠV OV
ex press
L y
ĠV S
ĠB ali
it tle
re al
c ry
ho Ãłn
ĠC loud
ch an
ĠB KS
b Ã¡c
Ġx Ã³c
ĠC oi
ĠRá »ĳi
Ġp r
ĠV ÃĮ
Ġ197 3
O ne
Ġr iáº¿t
ĠQu ÃŃ
un er
ĠR emix
s ki
ĠP ot
T ÃŃn
G alaxy
b inh
Ġ cen
m ing
tr an
ĠGá »ĳc
ÄĲ iÃª
ĠDie go
IT Y
ĠP K
Ġphá» ī
ĠÆ ¯ng
Ġcá»ĳ p
Ġtá º§u
ĠQ uáº¥t
Ġ20 22
C ÄĤN
ĠâĢĶ âĢĶ
v ing
Ġb Ã¡ng
Tho Ã¡t
Ġngá» £m
en se
ĠTH AY
ĠKá» ĩ
ĠPhá» ī
Ġx uá»ĵng
ĠTr iá»ĩt
ĠR an
Ġquá ºŃy
ĠTHá» °
ĠCH IA
ĠA sian
So áº¡n
B K
Ġtrá» Ľ
Ġ cÃ¹i
ĠRob ot
X Ã³a
Ġser um
b ien
ĠCh at
Ġtr Ã³t
ĠXH CN
ĠM Ã¡t
G O
ĠB O
Ġl Ã©p
ĠGI ANG
Ġdá º¥m
Ġ cum
âľ ħ
ĠCon n
d iá»ħn
Nh an
ĠO xy
ĠÄĲ CS
ĠH CV
NH Iá»ĢU
ĠS ri
ES S
ÄĲ TT
ĠNi ke
ThÃ ¹ng
Ġr Æ°ng
ĠI X
Ġbá»ĭ nh
nhÃ ¬n
Ho an
ĠMi x
ĠB il
ĠG uitar
ĠT TH
ĠO x
ĠPháº ¡t
A g
Qu áº¡t
Ġcuá º£
ĠN áº¡p
ĠLi on
ĠN ASA
ca p
ta chi
Uá» ĴN
Ġngá º§u
Ġhá»Ļ c
ĠNhá» ĭp
Ġm in
Ġvir ut
[ ...]
tháº Ńt
Ġenz yme
con s
asp ers
H OT
ĠLá º½
ox y
ĠI suzu
Ġkháº ¿
G hÃ
u la
v Ã©
B N
n gay
Ġquá º·c
ĠPok emon
ĠAr t
M ac
ĠH on
w agen
Ġlá» ĭ
ĠSo áº¡n
Äĳ Ã³ng
Ġr Ã¨
ĠA dobe
ĠI l
k im
ĠCo ca
ĠGá» ¬I
Ġz alo
AT A
ĠCá» ¤
Ġs am
á»Ļ m
N háº¥p
Ġs mart
Chá» ¯
ĠEU RO
ĠM ÃĻA
HÃ Į
Ġáº¤ t
ĠTá º¾T
ĠGIá» ľ
Ġch Æ°á»Ŀm
sá» ©c
M Ã¡i
Ġ12 2
ĠU RL
ba ch
ĠchÃ ´ng
ĠRad io
lá» Ľp
Ġr Ãª
ĠD S
ĠC ristiano
Æ¯á» ļI
ĠAir ways
che z
ĠH uyÃªn
ĠJ es
Tr Æ°a
ĠKhá» §ng
ester n
ĠTh ung
O r
Ph un
ĠÄĳ iáº¿m
cháº ³ng
ĠG ran
ĠBá» İ
Ġli ch
Ġcáº¡ p
P E
Ġsá º¥p
P HÃģ
ĠG ÃĵP
ĠH Iá»ĤU
AI L
ĠOp era
v ang
vá» ĭ
ĠSP F
Ìĥ .
on to
um e
ĠN ep
âĻ ¥
ĠSw ift
ĠNgá º¯n
ĠF l
gl acera
ÌĢ ?
Ġ Ã³i
Ġdá» Ĺi
Ġtu Ã´ng
ĠLeg end
ĠN LÄĲ
ĠMan ager
ĠLa b
Ġg ao
Ġ09 6
T UYá»ĤN
Ġ ebook
ĠO LED
om o
y u
ho ang
dow n
ĠSt and
ĠNGHá» Ģ
Ġ all
Ġso Ã¡i
Ġpháº £
Ġd Äĥm
ĠV II
Ġmá ºŃu
ĠD L
ĠÄĲá» §
p al
Ġ12 4
n oi
aspers ky
Ġmá» Ńa
Ġ15 2
, ....
Ġ09 7
ks wagen
ch at
ĠKhÃ ¢m
Ġng Ã³c
Ġ198 4
ĠÄĲ ai
Ġlives how
ĠK Ã¨m
âľ ĵ
Tá ºłI
ac y
ĠCá »Ļt
Ġb ass
ĠS mith
Ġl uá»ĳng
ĠE va
ci ter
K HÃĶNG
Ġmel anin
Ġ16 8
· t
ĠGá» ĸ
Ġl Ã¡o
ĠAmer ican
ĠT ui
ĠNh ac
Ġv on
R eal
L aptop
ĠG ood
N AM
ÄĲ Ãª
Ġp osted
Ġgiao duc
Ġb Æ°á»Ľng
ĠN iger
Ġm ic
ĠN av
ĠL eo
l Ãºc
ig an
Ġá º©u
ĠTTT T
Ġp orn
Ġra dar
ĠA be
ĠJ ones
ĠK ate
ĠF U
C EO
THá» ľI
ĠCháº £
n b
2 12
Ġte sto
Viet Q
ĠK pop
ĠR ap
Ġná º¥p
! )
f s
cum in
quá º£
ĠW enger
Ġs iÃªng
Ġ3 30
ĠKhÃ ´
ĠvÃŃ u
AM A
ĠThÃ¡ o
ĠC ÃĶ
vá» «a
ĠTh anks
Ad d
L am
ĠNhÃ ¢m
ab y
Ġcá» ıi
s hot
PP O
N okia
V isa
th uá»ĳc
ĠTh S
and y
IK E
il ia
Ġng uÃ´i
Ġn Ãºp
ĠB ul
Ġl Ã¹a
Ġcháº »
l ide
ĠPhÃ ¢
Æ¯á»¢ T
ĠT on
an na
ĠL áº¡y
B AN
ã ĥ
Ġup load
cá º§u
ĠÄĲá º¤U
b iáº¿t
abe th
ĠHá º»m
Ġr ep
Ġg old
= "
ĠD uyá»ĩt
ĠHá»į p
ĠGá º¶P
ar ta
ĠT ÄĤNG
ĠU E
Ġe p
Y Y
ĠM is
im er
In f
ĠB ÃĢ
ĠnhÃ ¨
ĠLa w
Ġ cs
ĠD ev
Ġdi en
ĠB all
Tr i
ĠTTC K
ĠB ody
ĠD iÃªm
Ġcá» £t
ti e
Ġbá» ¡
Ġtá» ĥ
ĠN IÃĬN
ĠK DC
ĠV OA
Ġh un
Ġcá º·c
ĠC ÃĤY
ĠÄĳ uá»
Ġpháº ©y
ĠR ome
Ġná» ĭnh
ĠN ÆłI
ÄĲá ºłI
ĠTUá º¦N
ĠVKS ND
ĠB oo
ĠPHá º¬T
?? ??
âĢĻ âĢĻ
ĠRe p
Ġgá º¯p
Ġdes ktop
ĠH AI
P ho
S an
ĠKHÃģ M
ĠÄĲ em
tr ick
ĠPor sche
uá» Ŀi
Ġp allet
by a
ĠNGá» ¦
avas cript
ĠN ad
Ġgam es
ĠX Ã³a
ĠTM ÄĲT
Ġl em
ĠlÃŃ u
UB G
S ingapore
to l
ĠK iÃª
wit ch
Ġth Æ¡i
Ġxá» ı
Ġr Ã´m
ĠAr ena
Ġlo Ã¡ng
ĠHá º¥p
ĠUS S
nghi ep
ĠTH A
D onald
ĠKá» ĭch
ĠHá» Ľi
S tar
ĠRo ver
co unt
ĠS ale
c háº¥u
ĠGuardi ola
O ff
G el
ĠCháº £i
a e
amil y
ĠTh y
Cá º©n
Ġ cháº¥u
âĢĿ )
ĠcÃ²n g
B ar
ĠM áº¡t
ĠA K
ĠPo int
os hi
, .
Ġfol ic
ĠR á»Ļng
Ġláº» o
ĠTh un
d uong
ĠGIÃģ M
Ġglu co
Ġ197 6
á»Ĳ n
á»Ĳn g
tr op
Ġ15 6
ed y
Ġho mestay
phÃ ª
ĠJe ff
Ġgi Äĥng
tr avel
Ġkháº £i
19 99
Bá º¢O
ĠNg ang
ĠB Ã£o
ĠP E
ĠBá» Ĺng
oun ce
ug h
Ġi T
ĠSH B
ĠQ uá»³
ĠBo eing
» Ĵ
ĠD or
ti tu
n go
ĠW oo
má» įi
ĠnhÃ ºt
g b
gor y
ĠH ee
Ġtim e
ĠViet lott
ĠBr ad
ĠBloom berg
ã Ĥ
ort mund
Ġx Ã¨o
Ġm Ã³
Ġcomp osite
Ġkh Æ¡
á »Ĵ
H C
Ġd Ã¡t
ĠHill ary
ĠAmer ica
Ġhá» «
M V
D Æ°á»Ŀng
ĠD ia
Æ £
Ŀn g
ĠX Ãł
18 0
ĠT ony
Ġ0 28
at t
ĠV PS
ĠTr Ã´ng
ĠG et
ĠZen fone
ĠðŁ Ļ
or s
HÃĮ NH
Ġtr ailer
ĠT as
ĠN K
Ġgiá» ħu
: -
as oan
ab le
ĠQu áº¡t
Ġback link
ÄĲ Ãłm
ĠV Ãī
thá» ©c
tr uc
ÄĲTB XH
ER A
Ãļ c
ĠJ our
U p
G Hz
ĠD ol
ĠBas ic
kh ai
Ġau to
ĠnhÃ² a
ĠAd am
B GDÄĲT
ĠC ÃĴN
g oáº¡i
ĠX D
amp ton
id ane
ĠG ene
ĠNo va
Ġd r
ĠD UY
Ġg alaxy
Ġh inh
Qu Ãª
n goáº¡i
ĠhÃ £n
á º»
T Æ°á»Ľng
ĠQU ÃĢ
ĠV T
âĢ ³
ĠGIá º¢NG
Ġp izza
Ġx y
ĠB ag
ĠS hip
for m
ĠScot land
Ġxo an
Ġ3 80
s how
ĠT háºŃn
ĠC oo
ĠAn na
el lo
ĠVi sion
ĠF ashion
li fe
ná» ģn
ĠÃĤ U
ĠM Ã£n
ĠS earch
ĠSte phen
ĠEli te
ĠTá º£o
ĠP it
Ġbá» Ł
Ġ ton
ĠPh un
F TA
ĠN ou
Ġáº¤ p
ec ta
ĠAven ue
ĠE ar
ou th
Ġno te
: âĢľ
F ree
ing er
Kh uÃ´n
f ood
d Æ°á»Ľi
ĠImper ia
ĠBro wn
ĠM ÃĶ
Ġnhá» ©t
am b
ĠThÃ ³i
12 5
Kho áº£nh
Ġ08 1
AR E
ĠKh iáº¿u
O W
ĠXII I
Ġdá º¥p
ĠEther eum
ĠH ÃĻNG
ĠEuro pa
Ġâ Ĺı
N Ã©t
Ġvn Äĳ
Ġl Ã¬nh
¥ m
Ġnhá» ĳi
im bank
F S
cá º¥p
ĠÃģ m
is ton
essi ca
ĠNg Æ°ng
ND N
m áº·c
Ġ4 80
ĠH TV
á º¿n
Ġlo ss
L Ãło
Ġto asoan
ĠH ealth
Ġ19 63
d om
Al bum
ar ry
Ġ09 36
ĠNg Æ°Æ¡
Ġcá º³ng
Ġk aki
ĠG Hz
b rid
Ġl ick
Ġ197 8
M Ãły
vá º«n
ES T
ĠL Ã´ng
ĠC all
ĠBr and
qu oc
f ia
Ġlá» µ
l ar
Ġad d
ĠHous ton
Ġchá» «a
ĠLa ke
ĠLi bya
ĠGal a
10 2
ĠW ay
Å ©n
ĠN oo
S port
ĠO h
ĠG ab
ĠK IA
ĠS in
ĠÄĲB QH
Ġs Ã¡n
V ND
ĠB ong
ĠHy e
ĠL Æ¯á»¢C
ÄĲ K
c re
aul t
uy nh
Ġw hi
tr onic
ĠN ight
ĠT Iá»ĤU
ĠSan chez
gi ai
ĠF ut
L ÃĢM
ĠN á»Ļp
ĠA tom
Ġr Ã¡ng
ĠF ar
d ao
Äĳá» ķi
ĠkhÃ ª
N E
w ich
m Ã³n
ĠMus k
ĠCh anh
ĠX NK
Ġin ter
Ġlo ad
Ġ19 30
ĠV GA
Ġch uá»ĵn
ya hoo
D Iá»ĦN
ĠS AI
Ġ organ
ĠSo fa
ĠI BM
Ġsta tus
ub lic
m Ã£
Ġn ua
ĠNHá ºłC
Ġgi Æ°Æ¡ng
Ġkhá» Ŀ
Ġcom bo
ĠSá» Ľm
Ġba be
ĠS áº¡c
Phá» ķ
ĠDH A
D Æ°á»¡ng
ĠD rive
ĠQu Ã¡i
ĠN ÄĲT
Äĳá º·t
C ÃĤU
ĠM orning
ĠC áº¡p
el ine
ĠphÃ ¬nh
C LB
ta g
lá» £i
P oint
ĠOr ch
G roup
ĠJol ie
ĠD áº¡ng
S ub
Ġti ts
Ġhá» ¯ng
Ġth inh
ĠNiger ia
R C
Th a
199 8
ĠLa v
ĠTH O
ĠEver ton
ĠSqua re
ĠKá» µ
ĠmÃ´ t
Ġng Ã²
Ġg Æ°
ĠÃĲ áº¡i
Ġâ Ĥ«
D r
Cháº ©n
Ġb in
trá º»
ĠGá º¥u
ĠTr u
g roup
Ġmá»ī a
ĠHill s
ĠVietin Bank
ÄĲá ºŃu
ĠTH Uá»ĺC
Ġso cola
ĠTR ÃļC
l ish
Ġdá» ım
ĠMen u
ĠH Æ¯NG
ĠH Ã£n
ĠTH Æ¯á»ŀNG
ĠTá º¬N
B TN
Ġth eme
ĠTá» ĲI
Ġ ï
lá º¥y
F an
ĠPH IM
O K
ack er
M en
ĠTO UR
Ġtr Ã¡o
ĠUniver se
H Ã´
m ec
Ġ12 9
Ġ13 9
ĠEver est
ĠÃ´ xy
ĠThÃ¡ ch
S un
ĠS Ã¢u
M ax
T háº¥t
Ġd eal
ĠT Ãºc
ĠPl an
ĠR u
us ta
ĠCá» ĵn
ÄĲTT CO
Ġ09 04
tá »ĳt
Ġx Ã¹m
\Ā\Ā\Ā\Ā\Ā\Ā\Ā\Ā\Ā\Ā\Ā\Ā\Ā\Ā\Ā\Ā \Ā\Ā\Ā\Ā\Ā\Ā\Ā\Ā\Ā\Ā\Ā\Ā\Ā\Ā\Ā\Ā
ca s
ĠRá º«y
Ġ198 3
ĠD iÃªu
ĠMá º¯c
Ġca ffe
ad i
Ä ģ
Ġsá ºŃm
Ġa b
Ġm ust
r in
tre tho
ĠF ly
N C
ĠCH ÄĤM
Ġl áº¡ng
ĠD ortmund
chÃ º
ĠV NG
ĠTá º¤T
Ġur ic
ĠH ap
ĠCar l
» ©ng
ĠI t
nh at
Ġr Æ°
ĠShar p
Xi aomi
F ord
Ġv at
Ġtá º¯p
ut nik
Ġlá »ĳ
ĠV L
re z
ĠLi en
um ber
Ġ14 1
Ġ09 12
si ze
ĠTech combank
d au
Ġn háº¥m
ĠHá ºłNH
ĠKH CN
ĠNháº ¯c
C Há
or y
ĠT U
om an
TT O
ĠRo oney
ĠH Æ°á»Ŀng
ĠC Ã´i
ĠTR Æ¯á»ŀNG
ĠÄĲ ÃĤU
ĠE ri
Ġmod ule
ĠTr ip
TN T
v y
Ġnam e
ĠOr gan
C ua
M Ã´n
Ġvá»ĭ n
Ġb ro
B ÃĮNH
ĠR S
Ġg Æ°Æ¡m
ĠTHÃģ NH
T Ã¡o
ĠH UY
B o
ĠK ids
Ġâ Ĩ
ĠKang aroo
4 50
Ġ? âĢĿ
w ar
ĠCar o
ÄĲ en
ĠK D
ĠRub y
ĠNep al
ĠÄĲÃģ P
cháº ¿
v est
ĠJack son
ĠB Ãį
h ar
Ġp o
Ġ19 65
lad esh
ĠY e
Rá» Ńa
ĠPHá º¢N
ĠK enn
car a
Ġdi Ãªm
ĠSa f
má º«u
ĠN eo
l ook
a ther
Ġh Ãłu
ĠLe on
Cháº ¿t
po int
L u
ĠMona co
ĠV Æ¡
Ġz oom
to s
Ġs k
Ngá» §
ĠNá» ĢN
ĠJes us
ok er
Ġrá ºŃn
ĠTy pe
Ġgá º¥c
Ġchá»ī n
UR L
ĠHá» Ĺn
ĠQ ÄĲ
ĠT Æ¡
¤ ı
ĠG ai
h d
ĠCol um
h ini
ti a
ad at
ÄĲá º§m
ter te
- >
t uyá»ģn
Ġyá» ĥm
G Ãł
T I
J et
há» į
t Ã©p
v et
g uá»ĵn
î ¡
N Ã³ng
ĠSá ºµn
ĠRo lex
ĠGá º¥p
ĠS ANG
G Ã£
Ġ30 6
ðŁ ĺ
ĠS áº¡ch
b uck
ĠQue en
n guá»ĵn
Bl ack
Lo áº¡t
ins tein
ĠFort uner
ĠN D
ĠVal encia
ĠTruyen YY
E V
b or
ĠTrá º£ng
Ġ tuyá»ģn
ĠD al
ĠZ idane
ĠNa tional
PhÃ ºc
Ġh uyÃªn
ĠKh iáº¿n
o z
Ġ13 1
ĠCon te
ĠTor onto
W W
î ¤ı
C Æ°á»Ŀi
î¡ ½
ĠV INH
ĠDá» ĩt
Ġtu Ã¢
g am
uc ci
ĠchÃ² i
ĠTháº ¯m
c ine
ĠG ÃĵI
Ġan al
c to
ĠL M
ĠEdi tion
Nghá» ī
pháº £n
ĠV Ã¢
ĠLÄĲ LÄĲ
ĠE S
L G
Ãªn g
ĠNS Æ¯T
ĠTes la
ĠNháº «n
ĠLá º®P
ĠÄĳo Ã¡i
M áº¡nh
ĠT est
Ġloss less
ro la
Ġ ten
Ġ" .
2 20
ChÃ¡ y
k av
ĠCry stal
Ġviet tel
p on
Ġngá» Ľt
Ġtrá» «u
Nhá» ĭp
Ġlá» ±
Ġ198 1
TO UR
V an
ĠEx citer
ĠQ C
Ġcá »Ļm
Ġm Ãºc
as ka
ĠT phcm
ĠchÃ³ p
Viet tel
j an
âĢ¦ ),
Ġsáº ©y
ĠW ill
ĠTr Ãło
ĠCamb ridge
el o
ĠTN CN
ĠLan ka
ĠTH Iá»ĨN
On line
ĠA h
ĠCi vic
ĠUp date
ĠMá» ĮI
ĠP ixel
z abeth
ĠCH Æ¯A
Ġvá º§ng
ĠÄĲá»ģ u
Hot line
ĠTr o
s ong
Ġáº¤ m
Ġsá º£i
Ġthá» ĩ
ĠC AN
ĠMá º®T
c es
cá» ©u
ĠD em
Ġco ver
ĠNor th
Ġ tÃ©p
Ġ19 20
ĠCa tal
Ġ09 08
ĠM Ã¹
ĠX Ã¡ch
ÄĲá º±ng
K N
R es
Ġdá º·t
ug uay
Ġgá» £n
ĠVin Fast
Ġd en
do c
T Rá
Ġme gapixel
B B
ĠkhÃ ¹ng
ĠÄĳá» įa
Ġb iáº¿c
Ġlo ve
L Ã²
ĠE D
Ġ14 8
Ġi Cloud
ĠKho an
ðŁ Ĵ
ĠK iá»ĩm
Ġmo tor
Ġvá» ī
em an
ev in
l áº¡i
ĠPlay er
ĠE b
XH CN
Ġm ao
ĠU PS
ĠW ork
ĠCO D
Ġco up
n el
V Ã¡y
H e
ĠKa w
n om
tho use
borg hini
Ġ Ġ
ĠlÃł o
g al
M EN
ĠM iÃªu
ĠG ui
ĠCh uá»Ļt
Äĳ Ãªm
Ġi Pod
ĠTrá »ĳng
ĠPhÃ ¡n
ĠChan el
ĠH áº¡c
ĠSport s
Ġtrá»¥ i
ĠB ac
Ġlo ang
as aki
li an
t Ã¡p
h ung
T Æ°á»£ng
chá» įn
Ġ Ã©o
Dá» ¯
ĠS ir
Ġau dio
D ÄĲ
c Ãºn
bo hy
l Äĥng
c Ãµng
Ġba king
Ġgá »ĵ
I G
ĠF uk
vi rus
ĠLá ºŃy
r Ãª
Ġword press
ĠHP V
Ġmang a
ĠDN A
Ġgá º·m
Ġv Ã¡t
Ġá» ·
s Ã¢n
tr uyá»ĩn
tin tuc
ad min
ģ u
AR T
ĠT iá»ģm
Tr iá»ĩt
Ġf e
ĠTrá º¯c
B G
ĠTR ÃģCH
x b
Ġs ter
Ġbá º¹p
f an
cháº ¯c
R onaldo
L Uáº¬N
ĠBre xit
in son
Ch ap
Ġregis tered
ĠM p
ĠVi glacera
Ġ9 50
ĠHá» ģ
rid ay
ĠY oo
ĠXá» ķ
Ġ tÃ¡p
ĠP om
kh eo
ĠP RO
to wn
r ent
ĠDu terte
vá ºŃy
ĠB Æ°á»Łi
ĠKh Äĥn
az z
h ong
Ġp er
Ġs Ã¡
ĠFerr ari
b om
Ġ ÃŃ
ĠD ur
Ġl ac
ĠTH Uáº¾
ĠP G
ĠMá» ĭ
Ġbá º¿t
ĠC Æ°ng
ĠS tyle
ĠG ÃŃa
Ġ Ã¹a
ĠColor ado
tr uyá»ģn
Ġ ed
ĠS AM
Ná» Ńa
vá» £
Ġ14 4
ĠSh er
ĠTh uá»µ
Ġá» Ĵ
Ġtr áº¡ch
Ġkh Æ°
tr l
co very
Ġdi ch
ĠA cad
Ġlá º£
Ġhi u
ĠM AI
Ġ3 10
ĠTrá» Ĺi
Ġ.. ...
Mar keting
Ġ19 69
Ġcá» įng
Ġcon tent
Ġlog ged
Ġáº¢ o
ThÃ¡ m
S te
B NN
vá ºŃt
ĠE RP
ĠB ÄĲ
ID S
Ġ09 13
THá» ĲNG
Ġthi et
ĠD Ã¡n
CH ÄĤM
ĠQU ÃĤN
ĠLo tus
nhÃ ³m
ster dam
ĠXI X
ĠVol kswagen
ĠM ANG
Ġ15 9
Ġm em
Vá» ı
ĠN Ãºt
ĠC Uá»ĲI
ĠâĢ İ
L oÃłi
ĠBá» ¥i
Ã ¼
ui se
Ġ19 67
Ġl evel
Thá» ķ
Ġhá» ±c
VI ET
ĠÄĲ Ãłng
Ġnguy en
ĠTag s
Ġm iáº¿n
Ġng ai
D es
d ang
Ġso lo
Ġngo áº·c
ĠSw an
ĠBá» ģn
ÄĲá» £i
ĠHi tachi
Ġmá» ģn
ĠNh am
Ġháº «ng
M ark
ĠCo in
ie v
Ġhero in
» ¦
ĠN iáº¿t
ĠthÃ¢ y
á »¦
Th ai
Bá» ĨNH
ĠnhÃ £o
ĠW estern
ĠBang ladesh
ĠNghÃ ª
Ġ cÃºn
ĠTHá º¦N
Ġ18 5
â Ĺ
ien ce
ĠMar i
ĠB Æ¡m
ĠBeck ham
D an
Ġv er
ĠphÃ Ńch
Há»į p
Y M
trol imex
Ġ8 88
m ond
Ġgi Ã£y
Äĳ au
ĠTH E
si e
ĠÄĲ TC
Ġng uá»Ŀi
ĠGi Æ°á»Ŀng
ĠJenn ifer
Ġk Ã¬nh
S et
ĠDo wn
ĠNhi Ãªu
º¦ NG
BV HTT
Äĳ Ã¡ng
R SS
r ad
n ame
N ay
ĠchÃ £i
ĠTá º¯t
Ġ7 68
q uyá»ģn
ĠBr ight
Ġm edia
X Ãºc
uy a
ĠSp ace
ĠhÃ ¡ng
as ma
chá» ĵng
m Ã´
ĠT iger
ĠAt lan
ri e
Ġch Ãły
ĠLand mark
ĠiT unes
id i
g hÃ
Cá» ©u
M od
ĠR og
l ai
lá» Ŀi
ĠnhÃ ¡c
E book
ĠchÃŃ t
ĠMar ina
T Æ°á»Ŀng
ĠT s
ĠC PTPP
xá »Ń
Ġgi Ãªng
Ġl Ã¢ng
I CO
n u
ĠR ol
ĠRod r
thÃ ¢n
Ġna tri
Ġgháº »
Ġrá º¯m
ĠF AC
ĠEp son
ĠVietNam Net
ĠQU Ãģ
Ġn Ã¡y
ĠNH TM
ĠK iáº¿p
ck ho
si l
we et
Oá ºłT
ĠNá» £
ĠU A
Ġlives tream
â Ĥ«
Ġth au
ĠchÃ ´m
art ment
iz u
M Ã£i
ĠN inja
Gi Æ°á»Ŀng
Ġlo ck
ĠWi Fi
ĠFed er
do or
ĠphÃ¹ n
ĠSi ri
ĠA lo
ĠNá» Ńa
Ġm Ã³m
Ġ22 5
ĠMer kel
ir in
Ġma in
Ġ09 4
Trá» ĭnh
gr aph
% -
I O
ĠT Ãłng
ĠL Å©ng
k k
ĠD Ä©nh
Ġháº» o
Ġtag s
ogr aphic
H Ãłm
Cl ass
ĠAd d
ĠMB A
ĠM uá»ĳi
Ġnh Æ¡n
ĠD ep
ĠG as
** **
ĠUr uguay
ĠSp ec
dra te
CH IA
I m
ĠAc id
ĠCHÃ ĤN
B XD
ĠM ÃĢU
col n
Tá» ī
ĠB ridge
ĩ ch
ĠP ap
ThÃ¡ ch
Ġbá» ĩt
cá» ±c
ĠEx imbank
ud d
Ġx Ã¢u
Ġch iÃªng
ChÃ ³
Ġcá» ¯
f ree
N áº¡n
ĠX ong
ĠHá»Ĵ I
ĠM Ã¡
Ġy our
Äĳá»ģ u
ĠD Ã¬
ĠL uk
ing o
ĠAc er
ĠX L
Ġx Ãºi
ĠB Ã´i
Ġ uáº¿
vi sion
T iÃªn
ĠP ort
ĠB ale
ĠG or
ĠW ood
ĠCh uá»Ĺi
ing le
VN ÄĲ
ĠÄĳ uá»ĳc
V a
ĠnhÃł u
U T
ĠP ie
ĠMod e
ĠÄĲ ua
ĠRá »ĳt
ĠVá º¶T
t ure
Ġi con
ĠGá º¤P
ĠhÃ ºng
s Äĥn
Ġlip id
Ġho st
ĠB enz
C háº¥p
ch ure
M N
Ġca p
ĠX oÃłi
Ġg ene
tr Ã¬nh
Ġtesto sterone
co p
ká º¿
ĠT ÃĬN
Ġtháº£ nh
ĠB Ãłu
b áº£ng
á »©ng
Ġ4 20
ĠVi rus
7 50
log an
ĠTRá º®NG
Ã ļI
ĠSev illa
Ġpháº §m
ĠMar io
ch Æ°Æ¡ng
Ġ19 58
Ġph iáº¿m
Ġr Æ°á»£t
I s
Ġh ecta
ĠJo e
ÄĲá º¯k
ĠD Æ¯á»¢C
ĠÄĲHQG HN
ĠH UYá»ĨN
ĠTo áº£n
ĠD Ã¡ng
ĠR F
ĠBl ade
ĠthÃ ³c
Ġd emo
on et
ĠTe en
ĠD j
ĠDN NN
ĠT NDN
Ġg h
Nh Æ°á»£c
Äĳá» ©ng
Ġlá» ©t
Trá» įn
ĠO PPO
ĠCH XHCN
ĠI E
Ġg Ãłu
Ġphoto shop
Bá» Ĺng
ĠHS SV
Ġtháº ¡nh
TRá» ¤
11 5
ĠMo ham
l Ã½
Ġb uilding
ĠS ize
Ġkh uyÃª
B ÄĲ
Th uáºŃt
ĠLad y
m aster
á º¹t
Ġthá» īu
M t
» ĭ
Ġ cry
ĠR us
Ġbá» £
ĠMá» ı
Ġkháº£ m
ĠN A
Ġuá» ĥ
ĠHá ºł
N Ãª
ĠAs h
ĠDai kin
s ha
ĠPhá» ıng
it z
r and
chÃ ºc
P lay
ĠðŁĻ Ĥ
ĠÄĳá»ĥ u
ĠTRá» ľI
In ternet
Ġg Ã¡p
el d
Ġp ark
ĠL ÃģI
Gi an
ĠB our
Ġ one
Ġ15 8
háº¿ ch
ang nam
Ġpro file
ĠIn s
Ġ09 34
ĠGD ÄĲT
F ile
ĠSN SD
Ġvá» ©c
tan a
ĠAm sterdam
IC E
it em
u te
Ġkh iÃªn
o T
os h
ĠD Ãłn
ĠRo ad
l Ãª
ĠhÃ ³i
ĠBá» į
Ġty pe
Ġkh ong
Ġ29 0
ĠEli zabeth
NG UYá»ĦN
g Ã´i
L Ã¡i
et ail
ĠK Ä©
ĠO d
: ...
ĠTTH C
con om
Ġv Äĥ
Ä© u
ĠL es
Ġk iá»ĩu
Ġr am
Ġrá» £
n gÃ´i
11 1
háº ¡
ĠG iáº¿t
ĠEng ine
ĠAd idas
á »ĭ
ĠtrÄ© u
z an
chá» ©ng
Ġd Æ¡i
Ġ Ã¡y
ĠS or
ĠNGá» ĮC
» §a
ĠL ittle
á »§a
ĠÃĶ tÃ´
b ama
RO UP
ĠA TTP
Ġx Ã³i
Tr áº¡m
Ġ19 46
ĠK iÃªu
Trá» ©ng
ĠNháº ¯n
ĠV ar
Ġr ou
ur s
0 01
nhÃ ´m
ĠI bra
ĠM AY
c all
la ke
Q uá»·
l Æ°u
Ġex cel
Ġ13 4
] :
ĠN ail
blog spot
Cá» ĺNG
ĠCS S
at on
ĠH áº¡m
ĠNg Ãłn
Ġlá º±n
S ony
ĠSun rise
ĠAc tive
ho i
ĠG od
g iá»Ľi
ĠP UBG
D Æ°á»£c
ĠTR UYá»ĨN
Ġtr Ã£i
rus h
l en
ÄĲ iá»ģn
ĠÄĳá º§n
Ġp art
evel op
CN V
á º¢
v Ã²ng
Q uyá»ĥn
ĠrÃ¬ a
r Ãºt
ĠH Ãºc
ĠK M
b ase
ĠFu j
Ġ09 88
ĠCan xi
ĠV ÃĶ
Ġho me
Ġi p
khÃ¡ c
ho u
nh e
Ġng Äĥ
enc es
C HÃĢ
b en
Y áº¿n
ĠShop house
ThÃ ºc
ĠS S
Ġl ist
ĠnhÃ ¡p
L Æ¯U
ĠY ÃĬN
Ġ10 24
ĠGam uda
ĠCr ime
k ÃŃp
ĠSá»ĳ t
C Ã¡p
ĠT UYá»ĨT
b all
ĠLi te
ĠK háº¥u
Ġe lec
? -
as u
ĠVi en
Má» «ng
Nghi Ãªm
Ġchap ter
f ect
ĠB Ã¹
cel and
Ġs up
off ice
ĠAn aly
Ġ! "
w ang
ĠDá» ±c
- âĢľ
ĠGS M
ĠJ ane
ĠNhÃ ´m
t c
ĠMag ic
THá» ¦
Ń m
ĠH R
Äĳ á»Ļi
Giá º£ng
ĠH and
es a
ĠB ÃĬN
HÃ ĵA
Ġw c
Gá» Ĺ
tw alk
L ib
D áº¡o
ĠW eek
Ġma x
Ġhá» ¡i
K iá»ģu
ná º±m
ĠKore a
AN O
PhÃ ª
Ġ Ãºc
ĠC ÃĤN
ĠS om
Ġme tro
ĠY ong
ĠBá º¯n
tá »ĳ
ĠT AI
gro und
ĠM and
ĠSá» ī
ĠVP Bank
ĠEd ward
ĠB ou
ĠTr Ã¢u
Ġp re
ĠTechnolog ies
^ ^
ĠB Æ¡
Ġ09 17
ĠCá» Ĳ
G áº¡o
ĠGiá º·t
Ġs kin
phÃ ¹
Ġm ap
w o
ĠnhÃ ¡o
NG Æ¯á»ľI
ĠÄĳuá» £c
ĠÂ °
ĠT IM
Ġe kip
Ġf r
Ġm Ã£ng
ĠD iá»ĩc
qu Ã½
yl on
ung on
G old
Ġch Æ°á»Ŀng
Ġ( +
ĠF OR
Ġca twalk
en tial
ok a
ĠEm pire
KHÃģ CH
ĠQu Ã¢
ĠHD D
ĠÄĲ iÃªu
ĠMar vel
Ġ09 07
Ġ16 6
i ro
ĠNháº ¹
ĠIn n
ĠR Ã´
ĠHN X
ĠH Æ¯ÆłNG
ĠLin coln
ĠVI SA
TT XVN
C are
ĠJun ior
há» Ĺ
ĠB alo
Ġn Ãµn
ĠMax mobile
il es
a tion
ĠW HO
ĠKho ai
Ġg Ãłi
Th uáºŃn
ĠCl assic
Ġsu Ã¢
ĠGi u
10 5
n Ã¢ng
le d
be k
ĠVá º¿t
ĠG ri
s c
ĠP au
buck s
la w
tain ment
ĠF ocus
ĠGá» £i
Ġthá»ı m
ĠPh nom
Ġs tream
ĠÃĶ NG
Ġnh en
ĠhÃ ¹
G Ã¢y
ÃĲá »
m ax
F PT
m it
T ao
âĢľ âĢ¦
el ess
co idan
ĠVirgin ia
ĠS ua
thÃ Ńch
t uá»Ļc
Ġs tar
ĠF ast
ĠKhÃ ´n
ĠMap s
us alem
ĠHÃĥ Y
C ard
Ġsal es
Ġ tuá»Ļc
ĠPháº £
Ġus b
ĠÄĲá »ĵi
Ġtrá» ©
Ġ19 66
k iá»ĥm
ĠNGH E
ĠJour nal
c uá»ĵn
c d
Ġ13 7
ĠI PS
Lá º§u
oma in
ĠRa in
cor d
ĠNg oa
ĩ Ĵ
ĠCH LB
Hy undai
ĠK ÃįNH
ĠTr Ã¢
Ġ2 12
Ġ197 1
Ġkh anh
CHÃĢ O
v ua
Ġb iáº¿m
E d
Ġl Ã¡c
Ġl Æ°á»£m
ĠS UY
R o
10 8
ak ia
ch Ãło
ná» ķi
ĠB DS
ĠFu ji
Ġl Ã²a
cu t
ĠC Äĥng
n ic
to t
ti ck
ĠH p
ĠI ris
cto ber
ĠTRá» ĮN
ĠTá º¦NG
ĠC our
cast le
er on
T iÃª
ĠK Ã¬nh
ĠR on
Ġ clo
ĠS uk
ĠPar t
ĠL TE
Ġd el
Ġ cuá»ĵn
ĠGá º¦N
ĠN ag
Äĳ Ã´
Thá» ¥y
ĠKh e
Nh iáº¿p
Ġv eo
24 0
" )
ĠPot ter
âĸ ¼
ĠF riday
Ġquá º¹t
ĠA y
ĠNS ND
Ġbá» ±
ĠÄĲ ÃĬM
ĠU z
Äĳá» «ng
Ġlo Ã¡t
ĠLam borghini
ĠX iá»ĥn
ĠTh iÃª
ÄĲ Iá»ĨN
ĠStand ard
Ġ22 1
ĠN Ã£o
Ġpháº ¿t
ĠM ade
Th iá»ģn
ĠA L
18 8
ĠEdu cation
Ġchá» ĵi
ry lic
Ġcon cept
ĠR oll
HP GVN
Ġhá» Ľn
b iá»ĥu
d ie
ĠJ essica
ĠLá» °A
ĠB ai
ÄĲá» ĮC
Ġ21 5
ĠX A
Ĳ N
T K
ĠSe ason
Ban Nhanh
ĠTHÃ Į
Ġná» Ľt
. :
ĠTRá» ŀ
ch im
ĠVes pa
Ġng Ã¢
Ġgluco se
Ġchá» Ńa
ĠHel lo
Iáº¾ NG
or o
Ġtrá º«m
ĠM D
ĠVá º£
f u
ĠÄĳá º·ng
Ġdo main
ĠS car
Iá»Ģ M
A pp
ar do
Ġ ÆłN
Ġs il
ÄĲá º¶T
xá »
at tle
ÄĲ inh
ĠChi p
ĠBook ing
ĠI OS
H uáº¥n
Ġse arch
ĠTh Æ°á»Ľc
Ġd au
ĠF ac
EB OOK
t Ãłnh
n m
Äĳ Ãło
m uá»ĳn
ff ic
ĠSo und
-------- --------
Ġvi lla
Ġ cÃµng
ĠSp am
T iá»ģm
A X
ĠV is
Ġ tÃłnh
ĠKHÃ ĵ
Tháº ¡c
Ġ197 7
ĠCháº ©n
Ġ19 64
ĠCan nes
== >
ĠSur face
Ġ5 12
Ġ19 56
ĠX en
Ġ14 7
Ngá» ¯
ĠU P
ĠNg Ãł
H á»Ļ
3 70
ĠHá º¤P
ĠTr eo
ĠI pad
Ġngá» ķn
ĠC ali
ĠO ver
dong san
6 50
Ġk iá»ĥng
A m
k iáº¿n
R Ã¨m
ĠVi vo
ĠNS NN
ph y
ĠT Ãłn
v id
Ġar ticle
ies ta
ĠChÃ ¢
ĠG ro
eb er
Tháº ¯ng
CO N
ĠSil ver
V L
b Ã¡nh
ĠV oi
ĠGi o
Äĳ Ã¡
ĠIn verter
ĠTá» ĩ
Ġchá»Ŀ n
n n
N Ãło
Ġth Ãły
ĠC lo
ĠÄĲá» ĺI
IÃĬ NG
Ġgá» ĵng
ĠAV G
ĠChá» §ng
Äĳ Ãłn
Ġ ãĢ
Ġsho pping
Ġa e
Ġtu c
ĠKhÃ ¡n
s in
ĠR yan
Wik ipedia
Ļ t
sp ort
ĠAndre w
ĠSaf ari
ĠÄĲ Ã¢
m áº¡ng
ĠStart up
ĠÄĲ Äĥ
th iáº¿u
ĠLá ºłC
w c
V Æ¡
ĠN Äĥ
Ġ háº¥n
ĠL B
Ġba by
av en
Lá» ĩ
ĠO m
Ġf ake
lov akia
ĠC F
Ġ20 3
ĠZ in
ĠDec ember
Vá º½
Q uá»³nh
z he
ĠN Ãªu
Ġcháº §u
ĠI celand
Ġmod em
ĠC AD
ĠB kav
M L
gi Ã¢y
Mal aysia
há» ĵ
ĠCHÃ Ģ
ĠB und
ĠTá» ļI
to Ãłn
iá º¹
ChÃ ¹m
at tan
ĠTCT D
ĠTh iá»ģu
vi ch
ĠUE FA
ĠMá» ¡
ĠF irst
ĠBuffet t
. <
ĠM em
con ex
ĠC Q
V ina
ĠK aspersky
LO G
gia re
ĠK id
ĠV O
Ġ14 2
ĠH I
Ġnhá» īnh
ĠTRá ºłNG
n Äĥng
Ġ14 6
Th uyáº¿t
ĠÄĳ ÃŃt
ĠX Ã³t
Ġ10 84
Ġsá» ©t
Ġtr an
ch iá»ģu
ĠAlex ander
ĠLo gis
ĠTR I
ĠA U
.... ...
ĠG áº¡ch
l at
Ġn ong
ĠV Ã£n
PHá» ¤
do ch
n Ãły
20 21
Ġâ Ŀ
Ġcá»ĳ m
ĠNg Ã¢m
ĠQ R
ĠS Uáº¤T
u tion
ĠCrime a
id es
th at
Ġcar bohy
Ġ16 4
ngh Ä©a
B Ã¹i
W ord
el in
ag ement
ĠJ ak
Ch inh
y es
ĠÄĲ Æ°Æ¡
ĠP ia
Ġd Æ°á»£ng
ĠN DT
ĠOx ford
ĠÄĳ anh
ĠT NG
l it
bien tap
ĠVI ÃĬM
ĠEL LE
14 0
ĠJer usalem
ĠÄĲ iá»ģm
ÃĪ N
º µm
ĠâĻ ¥
ĠR Ã¹a
Ġta p
Ch iáº¿t
M bps
Ph u
Äĳá» įc
V ie
Ġcá»į p
ĠBá º®T
ĠX Äĥng
item ap
l em
Há» §y
Ġtrá» ģ
ĠEnter tainment
M u
Ġnháº½ o
s im
M er
Æ°á»£ i
Cho Ã¡ng
ĠC in
ĠT ÃĢU
Ġgá º¥m
Ĵ M
ĠT en
ĠCh ai
B itcoin
ĠBá º¾P
ĠâĢ ŀ
BH XH
ĠBe e
d iá»ĩn
ĠAl ice
ĠÄĲ ao
ĠChar lie
EN T
Cafe F
Ġ09 01
Chá» Ĺ
va te
m u
- "
M Å©
Ġ3 11
ĠG A
th ang
Ġtr Å©ng
cá º£i
3 20
Ġnh oi
ĠK evin
ĠTR ÃĴ
BC T
ĠR y
! ...
,âĢ¦ )
ĠChi ang
ĠSco tt
ĠW el
ĠSet tings
ĠH Ãª
Dá º«u
m ong
t Ã³
ĠJose ph
t to
ĠA le
Ġx iÃªm
ĠhÃ ³ng
chá» ©c
ĠTá» ĵn
ĠÄĲT QG
ĠL AI
ĠL or
ĠR áº¡ng
00 00
Ġs v
ĠA mi
ĠTOE FL
b iá»ĩt
ir m
Ġ15 1
aru to
b Ã³ng
ĠIn si
Ġr an
v Å©
ĠNháº £y
ĠR M
n háºŃp
Ġng háº¿ch
Äĳ Ã´i
Lá» ľI
ĠLÃªn in
P Y
ĠAn th
j in
Ġlo i
ĠMac ron
ĠSH OP
ĠTHá»Ĭ NH
Ġrá º·ng
Ġná º¿t
ag i
ĠM W
ĠTr ÃŃch
Há º±ng
Ġ_ _
ĠÄĲá º¢O
ĠJ ac
Can ada
ĠCon s
Ġ14 9
Ġxo ong
T áº¡
ĠPan ama
cá »ĳ
ĠCon tent
Ġhá» ķn
cá º¯t
B et
Ġ- ...
Ġn Ã¢
ĠSL NA
A sia
Ġhá» «ng
ĠD K
Ġw orld
Ġkhá» ĥnh
... ).
ĠK al
Ġn Ãłi
a f
ick s
om en
ĠOp tion
x cÆ¡
ĠW ang
ĠLi ber
[ âĢ¦]
Ġph om
ĠL ung
ĠÄĲá ºłT
ĠQ uyá»ĥn
ĠNG Uá»ĴN
ĠHD R
ĠL uis
Ġban bientap
ĠX ÃīT
bek istan
ĠNgá» įt
ĠAn ime
in ity
ĠlÃª nh
ÃĤ n
le an
ĠMoto rola
ĠG HPGVN
Ġá» «
vá» ¥
ĠE a
ðŁ ĳ
ĠPh uk
ĠT iáº¿c
ĠWik imedia
Ġgiá º«m
ĠkhÃ ²
ĠMá º¤T
g uy
ï Ģ
ĠM Å©
as y
Ġlá»ĭ m
ĠKr Ã´ng
Ġlá» įn
ĠR em
AR D
ĠFran ce
ĠC HÃģ
ĠG lu
Ġh p
ĠCar ina
Bá »ĵ
ĠP OS
5 50
T uáº¥n
ak ing
Ġcá» «
ĠE vent
Ng Æ°Æ¡
ĠÄĲá» ĩm
ĠP IN
ĠAd van
ĠMar x
lá »Ļt
Ġ14 3
b ot
Vinh omes
d Ãłi
Ġh at
ĠGen eral
ĠX s
ĠmÃ´ tÃ´
Ġx uáº©n
ĠTC VN
M art
ĠDi re
Ġghi m
ĠN EW
Ġgi Å©
Ġgá» įng
ĠBos s
Ġr inh
Äĳ en
! âĢĿ,
ac le
ĠDe f
Ġoff ice
ĠM b
ĠLÃĥ NH
Ġcock tail
âĢ¦âĢ¦âĢ¦âĢ¦ âĢ¦âĢ¦âĢ¦âĢ¦
Ń p
Lá »ĳi
Ġi u
Ġpoly p
A ir
ear t
ĠÄĲ Ä©a
Ġph Å©
P e
ĠlÃµ n
l ao
ĠVÄĲ QG
ĠKo h
Ġb oo
ĠH eo
ĠNew castle
t iá»ģu
Ġr emote
ĠBá» Ķ
er to
zhe imer
To Ã¡n
ÄĲá» ©a
10 6
C Ãº
háº ¿t
ĠZ e
or ama
Ġ3 40
Ġvi sit
US B
ĠE v
Ng Å©
ĠSim on
Ġlá» įi
ĠS apphire
Ġv Ã¹
ĠB U
ĠFeder er
v Æ°á»£t
Ġchu Ã´
bong da
ĠP ad
Ġlá º¥m
ĠG AME
ĠNgá» ±a
Ġ17 8
N hi
Ġnhá» «
ĠD ak
Ġ5 55
ĠcháºŃ n
ĠVal ley
Ã ¶
Ġr ub
ĠlÃµn g
cá ºŃp
Ġl uá»¹
Ġtr uá»ĵng
199 5
ye ong
ĠAcad emy
ĠTo day
giá» ĳng
Ġ tÃ³
Ġ6 000
X E
G C
k et
ĠP enn
ĠH ero
ho áº¡t
ĠT háº¥p
Ġhá»į at
ĠF ED
ĠB Ã¢n
Ġáº¤ N
' t
ĠNap oli
vá ºŃn
Ġ3 16
Ġmag ie
ĠCHÃļ C
Ġs t
Ġ tiá»ģu
ĠLH PN
ĠÄĲ eo
ĠÄĲ ÃļNG
ĠC Æ¯á»ľNG
ĠÄĳ Äĥm
Äĳ Ãª
l áº¡
IC A
ĠDN S
ĠLi p
Ġng Äĥm
ĠRom an
Ġ19 62
ĠC ua
Ġngu oi
H uyáº¿t
ĠNá »ĵi
ĠB TV
g sm
Ġngá» Ĺng
ĠN áº¡i
ub lish
ĠC Æ¯á»ļI
g Ãł
ĠK er
ĠAm en
m ore
S áº¡c
ĠPHÃ īP
ĠN U
ER S
ĠA IDS
ĠCH DC
ĠMark et
Ġd Ã´
ĠL Æ¯ÆłNG
Ġhi hi
Ġp ic
giá º¥y
ĠFAC EBOOK
ern and
Ġ19 6
K A
ĠT ank
ĠM AC
ĠS Äĥn
ĠLá º»
le ct
R Ãºt
Ġs n
' :
ĠP ier
f ol
b io
Em dep
ĠD Æ°a
ĠF M
ĠNgá º¯m
Dá º«n
Ġna ungon
ĠB ÃģC
ĠnhÃ² e
H OáºłT
Ġ15 3
p in
ĠL ÃĤM
X a
d at
H áº¡ng
ĠB Ã¬
Ġ Ã¬
ĠP ra
Ġ: "
ob e
Ġn Ã²i
ĠT IÃĬ
Ch e
ĠS lovakia
ĠAM D
ĠTH UYá»ĢN
Ġtháº ·ng
Äĳ áº¡o
Ġho m
P LO
Ġá»Ĳ p
Ãģ U
t ong
Ġcry pto
Há» ¢P
Ġkiáº¿n g
ĠTHá» ¬
Sá »ĳt
Ġch au
ĠG ot
eral d
ĠD river
co u
ph iÃªn
ĠkhÃ³ m
ĠN Ã´m
id el
ĠY our
ĠCHá» Ĭ
9 71
Ġlá º£ng
ĠKhÃ¡ t
B y
Äĳ Ã¨n
ĠS tam
ĠGiá» ıi
in ing
g há»ĩ
Ġ ago
Ġl áº¡p
ĠÄĥn g
ĠÃĲ Ã´ng
ĠK elly
ÄĲ Ã¬nh
k ien
E CH
ĠG L
Ġin box
ĠT iki
Ġch on
Ġ! âĢĿ
ĠBá» ľ
ĠSá º¯m
ĠTh iá»ĩp
ĠAnton io
AS S
or th
Phá» ıng
V ir
ĠAr ch
v iÃªn
ĠS ÃĤN
Cua Tui
gi an
ĠP ic
ĠHa z
n ghá»ĩ
S u
ĠâĢľ .
ĠM ik
ĠJ et
H Æ°ng
ĠCho i
ĠSer ge
tin ental
C ty
ĠHá º§m
Ġx Ã©o
THá ºłC
ÄĲá º¥y
ĠGene va
f urt
Ġph an
ĠK os
Há» ©a
ĠD un
K E
Ġph iá»ĩn
h ara
Ġ Ã¡ng
ĠAc cess
ĠthÃ Ńa
C Ã¢
Ġ25 00
ob ifone
at ure
ut ter
M Ã¹i
ĠJe ju
ĠH ub
Ġb la
h ardcore
n ong
A c
A SEAN
i v
Bá» įc
Ġd iá»ĩp
ĠÃļ y
T iÃªm
X P
ĠR AO
S al
ĠSer vice
b reak
Ġ28 6
ĠView s
l uáºŃt
Há» įa
t uá»ĵng
io t
ĠL is
ar us
ĠBá» ķng
ĠColum bia
ĠTT ÄĲT
nháº ±m
Ġxá º¯t
ĠR ÄĤNG
ĠBlu es
Ġbá» īnh
P K
on o
ĠHo r
Ch uá»Ĺi
ĠTrá» ©
uá» Ľi
Ġx Ã©p
THá º¾
hÃ ³a
m al
³ p
Ġm al
ĠS ay
ĠTÃŃ m
ĠNHÃ ĮN
Ġ09 89
ĠNhac CuaTui
ĠÄĲ AU
ĠUz bekistan
Ġ: (
Ġná» įc
Rá »ĳt
ĠG ear
ĠW h
tay a
ĠF ab
H an
Ġl Ã¨o
ĠMi ura
ĠH Y
I R
HÄĲ ND
ĠNgá» įn
li ga
ĠD ark
ĠV Ä¨NH
E VN
id get
ĠFr ed
" !
ĠC háº¥m
ent s
¨ c
Ġ( âĢľ
Dá» ĭp
ĠNá º¾U
ĠWar ren
ĠC U
V Ã¡ch
Ġ19 2
C R
ĠSui te
Ì Ĩ
99 0
Ġ5 20
ol la
ĠStar bucks
ĠS uáº¥t
ĠB ec
Ġph Ãłng
ph er
V iÃª
S mart
B uÃ´n
ĠMan or
ĠCon an
g us
T Iáº¾N
ĠI R
c ert
âŀ ¡
ĠNHá» İ
k ov
Ìģ :
Nháº ¯n
ĠH ack
ĠT GÄĲ
ĠTh ink
Ġde tox
h iá»ĩu
ind ex
ĠT G
Ġ cn
ĠPe nh
ÃĤ u
T HÃģ
ĠM Æ°u
g há»
Ġso a
Ġ tuá»ĵng
ĠN Ã¡m
ĠGirl s
ĠAS US
ĠGIá» ®A
ĠPHÃ Ĭ
Ġs ushi
Ġm áº¡p
ĠB iz
ĠH uá»ĳng
log y
H Ãłi
ĠSp eed
hÃ ºt
ĠG on
old er
ĠKh en
d Ãłnh
Ġkh Æ°á»Ľc
ĠLá» Ĩ
ĠG ard
ĠG áº¡c
ĠV el
Ġdá» ģn
Ġ3 01
te k
Ġ16 2
... âĢĿ.
ĠThu Ã½
M aster
Ġ23 6
B KH
ĠK iev
V ÄĲ
Ġp ol
ti ma
ar in
Tháº ¡ch
ĠLÃ£ m
ĠPro tein
ĠKh inh
ĠC E
ÄĲ D
Ġr Æ°á»£i
ĠD áº¡o
G áº¡ch
ĠC at
âĻ £
k em
ĠE instein
ĠT Ãły
ĠTHá º®NG
ĠPe tro
ĠTechnolog y
ĠDá» ¥
ĠB Ãło
Ġcháº µn
ĠL I
L uat
j e
ĠAn a
IN K
n ghá»
o lin
Ġno el
rá »ĵi
K Ã©o
g ui
Ġrá» ©t
19 54
Ġs ky
f it
th Æ¡
TE CH
ĠR Ã¨m
ĠGIá º¢N
ĠC ES
ĠH Æ°á»Ľc
tr ai
Ġ27 5
G iáº¿t
ĠÄĳáº ±m
Ġ19 59
ĠMos kva
en ix
Ġá»Ķ n
ĠLogis tics
er by
Phi lipp
ĠPhuk et
g ate
ĠM ic
tá º§ng
10 3
Tr ump
trá» ĭ
ĠS QL
ĭ u
P al
ĠOut look
Ġsáº ¯ng
199 7
ĠF ur
âĢĿ (
Ġs Ãªn
ĠT un
ĠDá» «ng
Ġ? "
Ġ um
ĠSouth ampton
ĠBrun ei
uli co
ĠWeb tretho
ĠKHá» ŀI
thu oc
Ġháº¡ c
in al
Ph iáº¿u
ĠC Å¨NG
ĠÄĲ áº¡m
ĠF al
ĠH ÄĲT
Ġgá»Ŀ m
ĠLan e
Ġg ar
AD A
Ġf ilm
Ġus d
ĠRá º¤T
ĠJ ang
ĠMon te
Ġg ran
tin o
ĠG h
ĠT I
X anh
ĠS can
ĠCh Ãł
Ġ22 2
Äĳá» ķ
M á»Ļ
ĠHÃĶ M
U E
ĠU s
Gi Ã³
tháº £
Ġkhá» ĳ
Ġk háº¥t
am o
sá» Ł
ĠTo a
Ġnh Äĥng
Q S
ĠT Ã²ng
Ġth iá»ĥn
ĠVietin bank
Ġ19 55
Ser ies
17 17
66 6
B Ã´
Ġmag iÃª
ĠH V
ĠB phone
. âĢĻ
B D
ĠSun ny
ĠPe trolimex
ĠM E
Ãģ M
n gon
Ġl Ã²i
ĠWilli ams
ĠW ave
11 2
t Ã²ng
Ġy ahoo
Bá »ĵi
ti sh
ĠVI E
ĠH ÃĪ
ĠMá» ĸI
Cá º§m
ĠZ ika
k ÃŃch
ĠR Æ¡i
than ol
P ark
th ai
Ġmá» įn
giá º£
ĠC ITY
ĠW I
ĠNGHá» Ī
ĠC Ãłn
Ġs y
ĠManh attan
ĠÄĲá» ¦
ĠCHá» ¢
ĠHá º³n
Q Ãºy
Ġ cur
Ġ19 5
ĠF ul
Ġ( *
ve y
11 6
Ġn Ã¡u
ĠGá» ĴM
ĠJ avascript
Ġb Ã©t
ÄĲá» ķ
r ed
Ġr Ãºng
Ġ3 70
v it
p ark
ĠNhÃ ©
10 4
ĠThá» ı
ĠContin ue
Äĳ t
ĠLá» ĸI
ĠN háºŃm
Ġcum shot
b ro
ĠL h
há» Ļp
ĠI NT
ĠMa in
g ie
Ġl Ã³a
ĠM Äĥng
ta x
n guy
Ġm Æ¡n
ĠÄĲá» İ
ĠR E
N áº¡p
W B
ĠÃ ĵ
ĠR in
p es
L iá»ģu
Ġe Lib
ĠViet sub
ĠL Æ°ng
l ia
tra tor
Ġtá»Ń u
N á»Ļp
ĠV Ã¡y
Kho ai
ĠHold ings
10 01
ĠVina conex
ĠKenn edy
s Ã¡t
ĠAl zheimer
end an
ĠX VI
ĠC ay
el en
ĠPet ers
od ia
k or
ĠKyo to
ĠL ist
Ġcá ºŃt
Jo hn
Ġbá»ĩ ch
Ġn Ã©p
Ġxá º¹p
16 8
ĠDo ctor
ĠM ill
Ġtho ai
Ġhorm on
ĠD ÃĢI
G on
T L
r ac
us se
Tr á»Ļn
Ġ4 30
S Äĥn
Ġdá»¥ m
Ġ tÃ²ng
Ġsáº ³n
11 9
Ġb oot
Â §
Ġ2 19
ĠTur bo
GI ÃģO
Tho Ã¡i
ĠNik on
ĠN y
ĠFU LL
Ġbá º½
S Ã¡u
º¨ Y
âĨ ³
ĠL et
ĠTh or
ĠN ar
G IA
Ġth Æ°á»Ľt
im i
ĠHit ler
ĠÄĲK KD
ĠL N
ĠMay a
ĠC ou
A us
m as
ĠLá º¯c
f l
Ġh ong
xcÆ¡ va
a w
V H
Ġr Äĥm
ĠÄĳá» ±
vn n
Ġr áº¡c
Ġw ork
EL L
ĠA Z
Ġf lan
ĠK om
ĠLi po
g Ã£
Ġ24 5
ak ao
ad ing
ĠV Æ°Æ¡n
ĠF el
ĠP TNT
bá »ĳ
Ġh uÃ¢n
ĠKr em
ĠTá» ĬCH
ĠH Æ¯á»ŀNG
w orld
X S
Ġ20 8
ĠhÃ ©c
ĠD SL
au x
ĠNad al
tem ber
kin s
to y
Ġkh am
bat dongsan
ĠL ÃĶ
Ġ {
ĠNgá» ±c
Ġlá» ¥i
ĠR ong
Ġnh uá»ĩ
cou ver
Ġth at
H ONE
Tá» ª
CHÃļ NG
02 22
ĠSer bia
g s
ĠIn vest
ĠB áº¡o
ĠKhÃ ¢u
$ /
Ġg mail
ĠE C
Ġlá» ķ
Cá» §
com e
thÃ ªm
ĠAl aska
ÄĲ áº¡t
11 3
ĠL op
ĠJack pot
ĠK lo
ĠEr ic
B ong
ĠHap ulico
ĠCH U
P ost
ĠChar m
Ġnh Å©n
ĠK ane
Ġtá» ħ
Ġm iáº¿t
ha ha
Ġ18 9
GhÃ ©
al d
Trá º¯ng
TC O
ĠT iÃªm
ĠT Æ¯ÆłNG
M D
ĠV Å¨
ĠI oT
ĠS ophi
Ġrá º£
sen se
ame x
In ter
h iá»ĩp
$ $
ĠSh ang
ĠDis play
B E
Ġná» ĭt
ĠG ang
O X
ĠBund es
âĢ¦ âĢĿ,
l ang
ash in
ĠM Ã¬
Ġcá» Ĺi
ĠSá» Ī
ĠAlex and
at su
Ġ16 00
ti mes
are th
Nh iá»ħm
ĠC Æ°á»£c
Cá º¦N
r ency
ĠChris tian
ĠL iá»ģu
ĠS ul
Ġcl ass
Ġâĸ ł
uá» Ľc
ĠH Æ°u
m x
Ġvac cine
ag an
M á»Ļc
Ġcar ot
ĠSe attle
Bá º£y
ath on
han oi
B Ãºp
Ġbá» Ľ
f ast
Ġcháº ¡c
Ná »ĳi
) ?
Ġ17 6
ĠX box
ons ai
ma tic
be nh
Ġhá» ĥn
ĠVCC I
N ov
ĠH Iá»ĨP
Æ£ á
Æ£á »
ĠthÃŃ m
ĠTr Æ°a
ĠnhÃ¬ u
ĠD Ã¢m
Ġ cell
ĠCh en
Tá» Ķ
Bá º¿
st one
M U
ĠMe trop
ĠV oucher
m Ãª
ĠG OL
ĠW B
Ġviet nam
__ --
ĠGl ass
Ġx iÃªu
" -
ĠNg oan
ĠNh Æ°á»£ng
J u
be co
V áº¡n
Ġxá»ķ m
Ġn Ã´m
Ġ15 4
Ná» £
p or
si ve
Ġweb cam
ĠT ung
h ad
2 30
H Æ°á»Łng
Ġkh iÃªng
Ġ tv
th y
ĠV at
ĠD t
ĠQu en
g Ã¡i
n on
ĠM Ã³c
ĠUA E
Ġgá º«u
Ġmas cara
Ġxá» Ľi
U TC
Ġ17 1
ĠQU ÃģN
ĠPro ject
ĠBan king
Ġv Ã¡nh
Ġmá »ĳng
ĠC ad
Off ice
B áº¡c
ĠN exus
Ġgháº ¹o
ĠNháº ¡
K o
Ġdá» ģ
ĠCHDC ND
Ġr Ãº
Ġrá» £p
ĠC Ã²
ĠBo y
Äĳo áº¡n
ĠLá» ©c
n ang
G Ã¡i
AS T
ĠA la
Ġs ne
Ġngá» į
ĠW ei
... ".
ĠTHÃ ļ
IV E
Ġg ly
Ġrá º§n
ĠF TA
ĠIP O
ĠN xb
ĠTS CÄĲ
ĠHOá º¶C
ĠK in
m at
ĠthÃº y
ĠL E
ĠY ear
ĠCB CNV
ĠÃģn g
ĠHu Ãª
ª nh
L I
ĠChÃ ¬a
ĠAl an
ĠL ak
Ġg uá»ĵng
. /
ĠTH Uáº¬N
Ġn anh
ĠDel hi
ĠTR ÃģI
no ck
ĠMul ti
KH U
ĠB Æ¡i
Ġgiá º§u
ach us
ĠBá» īnh
ĠRi co
ĠY uri
Ġv al
ip s
sai gon
ri ch
ĠCR M
ĠA o
Ca in
ĠK O
Ġbá º¥p
v ar
n d
ĠK erry
Ġx xx
qu Ã¡i
Ġ call
phá» ¥c
ĠSal ah
ĠGá º¯n
Ch Äĥn
ARK ET
ĠIn dex
ĠVIN A
ĠY emen
ĠW indow
Ġ38 9
R oy
Ġs un
ra ft
ĠSoft ware
2 888
ĠN ev
Äĳ iÃªn
Ġa xÃŃt
Ġf l
ĠH ino
S UNG
ÄĲá» Ģ
ew oo
ora tion
Ġ20 23
giá» ¯
Äĳ áº¡t
sp ir
Ġghá»ģ nh
ĠCá º¤U
uck y
Ġv ol
ĠM Æł
Ġr Ã´ng
Ġid ol
b Ã©
ĠCom bo
Ġh igh
º¬ Y
si pan
Cá»¥ m
S hi
ĠK ris
Ġlá º·t
Ġá»¦ Y
KhÃ ¡n
C amp
Ġ17 3
D P
ĠCá» ¤C
Ġ9 11
Q ui
ĠSp ark
ĠA mp
Ġh uyá»ħn
Ġsu Ã´
di ves
Ġá »ĳt
ĠR onald
ĠOrch id
ĠB Ãºp
ĠCo up
Ġm aster
Æ¡ c
as tic
Ġg áº¡c
12 4
t k
Ká º¾
An droid
Sá ºµn
Ġ âĸº
L M
ĠS us
ĠL Äĥk
Ġg áº¡
AG E
ĠNH M
Ġ17 2
¤ N
ĠBá» ¥ng
b ul
Ġch Ä©a
ĠÄĳ Ã¡t
Ġ3 33
ur es
ĠÄĲo Ã¡n
ĠT CN
12 8
ĠDH L
Kho e
Ġplay er
Ġg Äĥm
ira tes
ir eless
th ing
x o
ĠX Ã³m
ĠJ ay
gar ia
Bá» ĥ
ĠE OS
p lus
Ġhá» īnh
ĠCro ss
Ġ19 40
et t
ĠL ew
Ġl uyÃª
Ġhá» Łi
quá º£ng
Ġp e
ĠS ud
ĠPr es
ĠD ual
p l
ĠSe ung
á »ĳt
ĠÄĲá º¯p
ĠÄĳá» ¥
ĠC ell
ĠTá» ıi
b un
ĠÄĲ Ãºc
Ġres et
Ġ15 7
ĠCP I
ĠA re
xi te
el li
Ġtr end
ĠSta lin
B Æ¡m
ĠL áº¡m
ĠFrank furt
ĠRO M
shi re
Ġto ken
Ġ> >>
thÃ Ń
ÄĲ em
ĠM iáº¿ng
sá» ķ
ĠM ak
M c
x Ãª
Ġ23 5
ĠCH A
ĠF o
ĠNat ure
ĠBr ook
Ġd is
w en
ĠE un
li ent
17 9
ĠCB RE
ĠCá» ©ng
ĠJak arta
ĠC trl
ĠEd en
ĠTNG T
Ġn ylon
H Æ°Æ¡
Ġhot girl
ĠN áº·c
Ġ16 9
IV I
ĠBundes liga
Ġvin tage
ĠKho áº£nh
L c
Ġta l
Ġ09 83
ai re
ĠAnth ony
ta ry
gá »Ńi
Vá º£i
ĠT Ã¹
Ġ( )
en o
ĠIn di
do thi
T HÃĢNH
Ġhá» £t
io us
Ġvinh omes
NG H
ir u
ĠA FC
17 0
Ġb oss
Ġ( -
ĠUn it
Ġtrá»¥ y
t Äĥn
ĠB uá»Ļc
Ġcor tico
ĠNo Ã£n
Ġná º¹p
Ġbá»ĭ u
Chi m
ĠÄĲ OáºłN
Ġthu e
ĠPok er
ĠLuk aku
M Ãª
Ġ19 61
Ġ20 5
ĠMa h
ĠÄĲ Ã£i
Trá» «
ĠT iá»ĩm
Inf ographic
ĠT Æ¯á»ļNG
Ġ18 1
ĠTr ue
Kho áº£n
ĠÄĲ V
ca te
ĠNHÃ ī
Ġ tÄĥn
ĠT ia
Ġ tum
Ġep oxy
PH Æ¯ÆłNG
ĠDe ad
Ġto e
m icro
ĠÄĳ Æ°á»£m
Trá º§m
ĠOlymp ia
ĠTh iá»ĥn
ĠI U
li ty
Ġthá» ķn
Ġth uyÃª
Ġl and
Ġti p
che on
nhá» ı
Ġ ï»¿
B ÄĲS
ÄĲá» ĩ
s ho
ĠCop y
ĠG R
is o
ĠGP U
ĠQui ck
ĠCHÃĢ O
Ġháº ¿
ĠÄĳ Ã¹m
NH ÃĤN
Ġcar o
ĠMc Cain
ARKET ING
Ġcáº¡ m
ĠHá» «
u ze
Ġto anh
ĠCas tro
âĢ¦ âĢ¦.
ĠEn d
IS A
L Å©
Ġ17 9
chá»ĭ u
kho e
tá »Ń
Ġx Ã©n
ĠBe au
ig ner
ĠStam ford
Ġ3 90
Ġ19 1
K Há»
Tá» ıi
ĠH all
ĠC Å¨
Ġ30 3
Ġnh ac
tháº »
Ġchá» Ľm
K i
v inh
Kh a
th Æ°
Ġná º©y
ĠÄĳ Ãªn
ĠÄĲ u
G reen
m Ã¹a
Ġ18 18
g Ã¢n
au xite
ĠL UYá»ĨN
ĠSua rez
Ġd on
Ġvá º¹t
ĠTrá» ¥c
V ÃĮ
Ġrou ter
AM C
02 8
Ġl um
d in
VN PT
S Ã³ng
let te
ĠHO Ãģ
Ġsá» §i
ĠLe ave
Ġngo áº£nh
Ġ/ /
ĠG ucci
tÃŃ n
ĠP y
P or
ĠBá ºŃc
ĠnhÃ² m
ĠS ter
S ex
So fa
ĠL ay
IC K
la za
Má» ±c
Ġá º¯ng
ff ilia
" ;
am ic
rus s
Ġ3 25
H iÃª
ĠVan couver
ĠDSL R
ĠR Ã¨n
11 8
ĠTá º¤N
H oÃłi
ĠFan sipan
ĠNov ember
ĠB Ãłnh
al ur
Au to
W HO
Tá »ĳng
Ġ: -
ĠTháº ¯c
Ġkho m
X T
Ġxu Ã½t
C oi
$ .
ĠT ÃĵC
ĠKho áº»
ud ential
ĠMass achus
? (
ngh iá»ĩp
Ġw on
ch ua
ĠT ed
giá» ¯a
ur al
Ġ ci
et ts
Sá »ĳc
ĠcÃ³ p
ĠComp uter
ĠF ind
ĠN oi
hu tan
ĠGá» ĲC
C Ã¡t
ĠB N
ĠtrÃ¬ u
ĠA ki
ĠSer um
ĠÄĲá º¢M
ol is
P ay
Æ°á»Ľ m
Sá» ¬A
ĠWon der
Ġm Ãłnh
ĠD ÃĤY
W E
bour g
Ġ20 50
Ķ Ģ
ĠIbra him
ĠOr ig
ĠLion el
199 6
Dá» «ng
van ia
f ix
Ġpas tel
Ġ09 18
l uÃ´n
ĠOri ent
Ġph iá»ĩt
ĠthÃ¹ y
ĠCháº ¡p
A F
ĠnghÃ Ńa
PhÃ ºt
ĠYá º¾U
Äĳ un
i us
ĠM N
ĠLy on
ĠQ T
ĠPro duc
ĠPH A
W in
p late
ĠCle an
ĠCl ass
má» ©c
Ġan ti
ĠNgá» ¥c
trá» Ł
ĠC ent
ĠLa tinh
J ack
ĠâĢ¦ ..
ĠK eo
ĠK ir
ĠP ink
Ġ Æ°Æ¡
Ġmá» ĭch
w ah
ĠK N
ĠAngel ina
D rive
n háº¥p
es ar
ĠCá º¢I
ĠEar th
ĠJan uary
ĠM IN
ĠAl bert
199 3
ĠMar ie
um an
j p
ĠK B
ĠEl on
ĠTha co
L ee
G AP
tronic s
ĠTá» ĺC
ĠAnd y
is ia
en to
Gá» ¬I
l Ã¡
chÃ ¡y
THá» °C
GI AO
sá »ĳt
ĠL Ä¨NH
ĠSav ills
to se
ĠX áº¡
f essi
ĠP ack
âĢ¦ ;
ĠtÃ¹ m
ĠE book
O C
ĠIM F
av an
Ġn Å©ng
cra ft
ri end
ĠCaro lina
Ġthoá º¯t
ab a
ub le
Philipp ines
ĠShop ee
ĠÄĲÃģ NG
ĠMar ch
Wik imedia
Ġv Ã³n
th uat
z ing
ĠY O
Ġcarbohy drate
¦ NG
10 7
19 90
Ġtho ang
Ġs áº¡p
â ĩĴ
ĠT Æ¯á»ľNG
J an
ĠPeters burg
Ġk iáº¿t
n ia
you tube
ĠB is
Ġenz ym
Ġs ul
ĠN aruto
Ġ6 68
E l
L Uáº¬T
ĠGe a
ĠGa al
ĠNG UY
ĠShi ft
ter est
rao vat
S Ã´ng
ĠY an
ðŁ ı
Ġtr ans
ĠKur d
? ",
ĠW ell
ĠLH P
s w
Tá» ©c
ĠT Ãºy
ĠOP EC
Ġhe he
ĠTá» ¥i
Ná º¥u
ti t
thi et
ĠC isco
Bá» ģ
ar ning
ðŁ Į
q uáº§n
w all
av id
P i
ĠCr edit
n Ãłng
Ġd iáº¿m
tháº £o
ĠQ Q
ļ P
our ce
ĠN ak
C ola
ĠPat taya
ĠPC I
si o
la zada
há» ĵi
ĠKrem lin
trá º¯ng
Ġng Ã´ng
ĠCHá º¤P
Ãµ m
ph uong
ĠVin City
ĠSa beco
Ġread ing
ĠVen ice
ph uc
et am
ĠLU ÃĶN
ÄĲá» ģn
ti va
Ġg Ã´n
Ġchá» ĩch
TT LT
ĠOr der
Ġ cre
Ġ cent
TC T
ĠP os
Ġs logan
ĠG ÃģI
Ġs ms
C I
lam bao
ÄĲá» ĲI
Ġng Æ°u
se ido
Ká» ¸
ch ai
ÄĲá» Ĵ
Ġ09 16
ĠS ad
10 9
app e
Ġ4 60
Ġá» ¨c
W S
Ġcac bon
ĠB ella
ĠthÃ ³t
ĠCen tr
te dothi
sh are
ĠL Ã¡t
cá» ©
Ġ29 9
ngh iÃªn
ck et
c Æ°u
ĠCh iÃªn
Ġ09 32
ĠPHá º¬N
S eo
tháº §y
Ġdes ign
ĠBul garia
Ġgá º«y
Ġchá» ±c
BTN MT
M iáº¿ng
ĠMá» ¤N
ĠM K
19 0
Ġ16 3
U K
ĠF ax
ĠVin mec
ĠTM V
ĠHS BC
ĠM om
ĠNo w
ĠB ell
w indow
Ġcá »Ļc
Ġf rom
ĠL em
Gi Æ¡
ĠTh iá»ĩt
ĠKHÃģ NH
Ġph Äĥng
ffilia te
ĠHá º¬U
ĠBur n
ĠS ON
Ġun lock
Ġâ ī
ĠSo cial
Ġtra de
13 5
ĠBus an
á»Ĳ p
ÄĲá» ĴNG
ux e
Ġd iáº¿t
Ġquá» ī
it su
n ow
ĠCAM ERA
ĠTal ent
ĠÄĳ t
ĠC MT
Ġbá»ĳ t
Ġm Ã³i
ĠBi eber
H Ã²n
N Ãºi
tháº¥ y
Vn Media
tÃŃ ch
ĠW olf
ĠBá» ĶNG
ini chi
if lex
M assage
ĠY am
Ġ16 1
ĠKh uyáº¿t
ro ad
Ġ6 60
C anh
ti que
ĠI CT
u tra
Ngh iá»ĩp
dá» ¥ng
ro i
Ġá º¨M
H uawei
L ife
ĠTá» ±a
ĠEm irates
ĠCHá º¾T
vi p
ĠNh ai
s cri
ĠHong kong
ĠMan agement
ĠmÄ© m
ĠD ÃĴNG
ĠSp utnik
ai s
ĠA eon
C as
ĠH E
ĠAb u
ĠK am
Ġfe et
J I
ĠAir bus
Kinh tedothi
ĠTR AO
ĠLá º·p
lo p
ĠL ar
n gÃ¢n
B Ãį
ĠhÃ Ńch
vá »ĳn
ĠResid ences
ĠYá º¿t
ĠJ ag
uá º«n
Ġso p
ThÃ¡ p
Ġ18 7
Ġq Ãºy
W D
h p
ĠB ull
D Æ°a
Ġn okia
Ġ cÆ°u
ĠhÃ ¡ch
ap ter
S Ã¡t
RE A
Ġ28 8
Ġqu Æ¡
ĠB iÃª
ĠVi ta
ChÃ ¬a
ĠdÃ¹ i
T Y
Ġ19 57
Ġz ombie
ca t
Tr Ãło
ĠE PI
AC K
ma tion
ĠÄĲT DÄĲ
RE E
Ġ* *
Ġb b
ĠBá º¥y
ĠV D
Ġbá ºŃp
B R
ĠDa ewoo
Ġgá» Ł
ra in
ĠRe port
ĠJo ong
má» ¹
ĠNá» Ł
ĠJu an
Ġplay list
ĠS Ã¹ng
Ġlá» «
L en
K Ä©
H ung
ch ool
Ġl ag
Ġto ol
Há º¹n
Sá» £
ĠSá º§u
ĠDi ana
G an
P a
so ver
Å ©m
Â» Â
ĠF amily
Ġa vatar
ĠO FF
Ġb ac
Ġ26 4
Ġhá» Ńng
ĠPower Point
ĠM DF
T HÃ
ĠV ers
ĠCh Æ¡n
ĠX uá»ĳng
Ġca se
ĠSara h
M áº¡c
yl vania
sta ll
ĠC Ãły
Ġcaffe ine
Ġng Æ°á»Łng
ap o
B Ã´ng
ĠDes ktop
x uá»ĳng
ĠM t
m ed
u an
us tic
ze ch
Ġdo c
Ġpass word
Vá» Ĭ
u lo
Tá» ©
ex e
ĠKho Ã¡n
ĠE P
g es
ĠStan ford
Ġlo anh
âĢľ ,
ĠOff line
ĠBH TN
ĠB russ
ĠChÃ ¨
CÆ¡ m
as ia
ĠCa fÃ©
ĠV Ã¡ch
s Ãª
K HÃĵA
To Ãł
âĢ ²
ĠB áº¡i
Ķ N
en do
vic es
th yl
ĠH U
ĠLá» ĵng
Ġkh eo
Ġphá»§ i
P háº¥n
Bá» ĵn
ĠIn d
Ġ09 33
ĠC e
ĠE CO
ĠMo z
19 88
má» ¥c
D is
Ġ09 86
ĠgÃ³ a
ĠCr uise
ch el
h l
Ġs lide
gg io
In donesia
ĠB et
ĠMotor s
ĠF idel
ĠC ÃĢ
ĠA xit
ĠDi or
r ia
Ġcá» ±a
ĠNH Iá»ĨT
Ġ09 1
ĠF E
ĠSal on
Ġká» īnh
ĠLá ºłT
ĠðŁĺ Ģ
ĠBel arus
Ġ: âĢĿ
ĠKh uynh
th ur
ĠBl an
ĠAP I
ĠRi ca
ï»¿ ï»¿
ĠSAM SUNG
Ġtr Ãª
Ġs ua
ĠGr am
ĠCorp oration
IN A
Ġfan s
Aus tralia
ĠAp artment
Dr agon
! -
ĠSi em
Ġmil f
Ġká» ģn
ĠGiá» Ĺ
ĠD eb
ĠPer fect
ĠCafe Land
and ah
ĠLá» į
ĠTHá» ¤
ĠQu anh
Ġb ot
ch ar
Ġnh ao
11 7
ĠClin ics
ĠF ield
Ġth Ãło
C háº¥n
Ġx Ã¢
Ġ19 53
cá º£nh
ĠT uá»³
ĠK iss
ĠM ons
ĠÄĳ Ä©
K TS
Ġquá º·n
r uary
ĠhÃ ³m
ĠBe at
low er
ĠB ris
ĠR um
G Ã²
ĠTá º£n
ĠD Ãły
ĠEb ola
se an
ĠG ÃĤY
eo ple
ĠCiti zen
Ġtrá»ĭ a
Ġtruy en
ĠGá »ĳm
ĠV ong
A ll
ox ide
ĠmÃ¡ nh
ĠCHá» ®
ism et
ĠPh Æ°Æ¡
» ªm
á »ªm
ĠKh uyÃªn
Ġláº» n
ĠSta te
TH ANH
T uyáº¿t
ĠDam as
ĠR IÃĬNG
ĠHu go
i Pad
nh h
11 4
K g
Khá» §ng
ĠBá º¿
Tr Æ°Æ¡
B ig
T G
li ke
ĠCo ver
B ack
ĠT háº¥m
Ġp oker
Ġhá» Ľt
ĠX PS
n ie
ĠHaw king
q uÃ¢n
Ġ18 2
ĠQ Uá»
ĠMal dives
Ġ7 77
if a
Dá» ĭ
ĠCoun ty
M Å©i
Ġ asp
ĠK Ãī
Ġvá º±ng
ĠK ay
ue z
ĠMassachus etts
Vin amilk
ĠmÃŃ m
Ġb Ã¢ng
ĠC ash
hi eu
ngá» §
vi Ãªm
==== ====
ĠChÃ ¢m
hÃ ´m
Ġ17 4
d áº¡y
Ġoff set
dro p
ĠÃ Ĺ
tu an
ĠO il
ĠG ROUP
Ġs Ãł
ĠAk ismet
ĠTe a
M ail
Ġcá» Ł
ĠK ÃŃ
uá» ģ
ĠCHÃģ Y
Ġrá »ĳng
ĠchÃŃ p
ĠNG UYá»ĨN
PR ESS
ĠH ans
Ġ37 8
ĠtÆ° Æ¡m
Ġká» ģm
Ġ2 18
Ġchá»ĭ t
ĠC ool
Ġgames how
ĠT iá»ħn
Ġ5 40
Ġmá º£
W ork
P an
Ġg iáº¿m
ĠHá» ·
ĠS ign
b Ã£o
Ġg l
ĠPhÃŃ m
ĠHá º¾T
Ġ98 1
ĠSte ven
to ri
vis or
ĠK oi
Ġyá» ĥu
cá º¡
ĠPan el
ĠHá» įng
Ġ28 2
Ġab out
ĠCHá ºłY
Ġ17 7
Ġnguy Ãª
G E
ĠVi ber
S tart
Ġ18 6
ĠE sp
Ġmake up
Ġsop cast
Ch anh
ĠTh iáº¿n
ĠR SS
th ium
CC I
ĠEU R
spir on
Ġ19 49
Ġqu áº¡
Ġhoá º±ng
) /
ĠS ÃĶNG
Ná» Ĺ
ĠR áº¡p
ĠPit t
ÄĲá º·ng
Ġ18 3
x co
Ġm ÃŃch
ĠPHÃ Ļ
ĠnhÃ ³t
es p
ĠAsia d
ol lo
ÄĲ ÆłN
as ed
Há º³n
Ġth iá»ģu
R obot
Ġr Æ°Æ¡
ĠT UYÃĬN
ĠH anh
AL O
com Bank
M M
ĠBa h
g oogle
Ġm Ãºn
Ġkhu Ã¢n
PT OP
ĠJu li
ĠR Ã´m
ĠS Ãºng
ĠCr uze
ĠPho enix
ĠÄĳá» ħ
sch ool
ĠhÃŃ p
Ġg Æ¡
al aya
ĠOp tim
ĠWar s
ĠI v
K Iáº¾N
nho use
S martphone
Ġden im
Ġnháº ©m
C r
T Iáº¾NG
b el
á º¯c
ther n
Ġ19 3
ĠSn ow
Ġbá» §a
ĠMá» ĭch
ĠV PN
B inh
th en
ĠÄĲ N
ĠNá» Ĺ
) âĢĿ
Ġbro chure
all as
ĠC av
ĠMá ºŃp
ĠNghi Ãª
ok ovic
ĠY eon
Ġch uá»ĳc
ĠâĢľ âĢ¦
t Ãło
S ky
ina te
V Iá»ĨT
ĠMi ami
ĠN AI
B ox
Ká» ĭch
ĠNH AU
má º¯t
ĠTK V
13 8
onn vn
26 0
ĠHá ºŃn
Ġba onnvn
AI D
Iá»Ĩ C
Ġm un
th read
tor ia
ĠBern ab
ĠU NG
Cá» ĶNG
ia gra
Ġs m
Ġb r
Ġamp ly
p ing
g iáº¿t
BG TVT
vi er
d uy
R ob
B Ãª
Tr ans
Ná º¯ng
n Ã©m
chá» £
ĠL uÃ´ng
as tin
ca ch
ĠT ÃĴA
f ire
Ġ6 30
m edia
ina wa
sá »ĳc
ĠGi ov
Ġcomp act
Ch uá»Ļt
tá» §
ph e
ĠD evelop
ĠLá» «a
Ġmá» Ĺ
ur ai
v ina
Ġ cp
ĠAss ad
ĠAl tis
ĠH ÃļT
Ġpháº ©n
28 0
thÃ ª
ĠN háº¥p
ĠBá» ĵng
Ġch ong
o f
. âĢ¦
ĠÃĲ Ã³
ĠTá» ¦
Ãĥ I
ĠEs sen
Ġf ace
Cháº £
ĠNgá º£i
Ġdá ºŃt
ch uyen
et ta
li u
ĠFranc is
ÄĲ N
s Ã¡ch
Ġngo ai
z io
ED IA
ĠnhÃ ³
ĠTab let
ĠÄĲá º¦Y
C áº¡nh
Ġx Ã³
ym er
m Ãłn
Ġ-- >
ear s
ĠNC KH
Ġá» Ľn
ĠInf onet
Ġrá» ĭch
Com bo
ĠT háº¥u
ĠMi u
Ġr áº¡
Ġni tr
ll ar
A Bank
ip utra
th ien
ix on
b b
12 9
Ġcháº ¡nh
ĠHaz ard
Ġb ol
ĠLÅ© y
ĠTá º§u
mi en
s ay
Ġs andal
ĠLá» ¤C
Ġná» ©ng
nh ap
ĠBat tle
ĠDá º£i
Má º¯c
Ġp c
T Ã¢
Ġbo ong
ĠHo m
ĠCTC K
ĠTHá º¬N
ĠB ent
c z
ĠD R
vá» ĩ
ĠB hutan
phÃ Ńa
Ġq uyá»ĩt
T F
ĠU K
ĠðŁ Ĵ
in er
ĠMc Donald
ĠH ad
ai t
s áº¡ch
Ġn Ã¡
ĠJ Ãª
ĠApr il
gá º·p
c ream
hi hi
D avid
dá º¥u
ĠVin as
di ch
ĠCá» ¬
thÃ ¡nh
ĠNG ON
ĠÄĲá» ĲC
ĠVietnam obile
ĠDÆ¯á» ļI
C AO
ĠKá ºº
Sá» Ĳ
A s
Ġ Ãº
ĠShin zo
ĠGate way
ĠYo on
ĠN est
ĠGuardi an
V D
ĠKlo pp
us a
ĠPH Æ¯á»ľNG
ĠR eb
Ġ8 20
ĠphÃ ºng
ĠV AL
ĠBernab eu
ĠLa tin
Ġxá »ĳi
gi ang
u u
Vá º¿t
AT E
Ġd Ãł
ĠB ÃģNH
Ġ18 4
Ġlá» ¯ng
V u
ĠGeor gia
gus on
Ġw ax
ĠP ur
B ang
ĠKing s
20 22
ĠMua BanNhanh
7 68
Ġ25 8
er i
id ong
Há» «
199 4
ĠtÃ² an
ĠKho Ã¡
Ġh al
ĠBruss els
l ac
Ãį CH
ĠHD Bank
th or
B uá»ĵn
ĠS SL
tic al
Ġr uá»ķi
eng ers
ĠT ÃĶN
Ġo ver
ĠMa ch
26 4
ĠChÃ ³ng
m b
ĠTr Ã²n
ĠDá» Ĭ
lá ºŃp
ĠC TV
H iáº¿n
ĠâĢĿ .
vi ta
ĠlÃ² e
C ong
ĠS Ãª
ĠD iÃª
ĠH av
Ġgháº ¹
F ull
th ro
ĠP av
ar ma
ĠSp e
Ġ20 9
ph ap
ĠX ay
º¿ ch
ĠDá º¤U
Ġsup port
ta sy
Há» ķ
ĠC zech
2 88
ĠRoll s
B BC
Ġh er
Lá º½
s Ãłn
ĠM áº¡o
ðŁ İ
b ara
li x
ĠAg oda
it ch
ĠDa e
ĠN Ã¢u
Ġ01 212
ĠComm un
ĠH is
ora ta
ĠG in
cur rency
Cá º¥y
ĠNG A
B Ãºt
ĠÄĲ S
Ġph ui
Ġv Ã¡i
ĠVer sion
16 9
Ġvo te
ĠhÆ¡ p
yo ung
B u
bá »ĳc
Æł n
cá »Ļng
ĠV AY
ĠP ow
cl ub
ĠGi l
chá» ¯a
co ustic
ĠEM AIL
Ġn Ãºc
ĠkhÃ ¨
ĠL T
ĠK Q
Ġ cc
vil a
ĠAN TT
ĠPar ad
ad ow
phá» ĳ
K y
ĠM M
' ?
Ġbl ack
H Ã¨
C al
ÄĲ ÃģNH
ĠM uá»Ļi
háº ¡t
ĠhÃ ºc
ĠB ud
ome z
Ġd Ã¬m
us sy
v c
ĠS Ã³i
ĠT Ã¡n
ĠÆł i
T Ã´m
ĠKhá» Ľp
ĠS tory
ĠTr á»Ļm
Ġngá º©m
lan tra
ĠHO ÃĢ
ĠH as
ĠM R
xá º¥u
Ġl uáº©n
ĠTH ÄĤM
Ġs ty
ĠE o
Ġbá º£nh
Ġmá º£y
ĠN L
º° M
X N
4 34
O bama
Gá º¯n
Ġv Ã´ng
ĠL X
S pa
ĠT ap
te en
ĠBec amex
ĠAC E
Ġâĺ ħ
thÃ ¡i
ĠS tor
Ġp ower
Äĳ Æ°a
ĠGet ty
ĠTR ÃĢ
ĠphÃ ²
Ġ8 02
Ġ19 47
3 30
Ġ3 45
ĠJ BL
ĠâĢĺ âĢĻ
ĠW r
ther ine
ĠM ia
Ġrá» ¥c
L iá»ĩt
Ġh is
du lich
ame work
ĠB Æ¯á»ļC
et on
ĠB G
ĠFin al
Ġtra der
Ġqu áº¡nh
lav on
ĠUn der
Ġph iÃª
hÃ ²
K Ãª
19 89
199 1
OR E
ĠWi th
ĠCoco bay
ĠLe ad
car at
ĠT Ã¡nh
Ġtr uáº¥t
/ -
Ġ3 99
Ġsilicon e
... ?
ĠSt one
ĠDi esel
ĠXá º¥u
Ġ tÃło
ĠÄĲ ÃĵNG
Ġ23 2
ĠDá» ĭp
ra w
ĠF ernand
7 20
Ġk oi
Ġ09 66
Sai gon
ĠGal ler
f ull
Ġy en
ĠY el
So ft
Ġus er
tan t
amb oo
ĠÄĲ iáº¿u
Q P
ĠBu ff
Ġlay er
Ġtrá» ģn
ĠMar c
tháº ¯ng
Ġgá º«m
K ien
Ġdá»¥ i
alur onic
ĠNHá» ļ
C Ãºp
rá ºŃp
aphi cs
t g
S U
ti er
ThÃ ª
ĠO hi
v anh
ĠLu ca
t uá»ĳt
trá» įng
ĠZ ING
ĠTH AI
ti ca
Ġngá º¯c
ĠFu coidan
ChÃ¡ nh
fi ra
ĠTh er
Ġcá» ¯u
ĠÄĲo a
ĠKhá» ıi
Ġ21 7
ĠA sean
199 2
p df
357 357
º½ m
Ġ01212 357357
ĠL áº¡ch
ĠC ÃģN
Äĳá» īnh
thá» ĳng
ug eo
ĠSil va
ĠMá º®C
ĠTR ÃĮ
Ġsá» ģn
ĠSV ÄĲ
tá »Ļi
ĠHÄĲ H
ĠF ai
Ġnháº ±ng
PhÃ¡ c
ĠQue ens
Y ÃĬU
ĠK Iá»ĨM
d d
ĠTe h
ĠBL HS
ĠB Ãºn
Kho Ã¡
ĠC au
ĠK G
Lá» Ĺ
ul ar
ĠVI B
ĠCS DL
ĠX Ã¡m
ap er
x inh
ĠCar ter
ĠE conom
Ġr Æ°á»Ľi
Ġná»Ļ m
Ġvá º©u
Ġng Ã¡p
\\ "
ĠSá» Ķ
ĠDá ºłNG
Ġdi gi
GB T
tal k
8 50
l m
H uá»³nh
h z
ĠSal es
Ġma xi
ĠAd ri
ĠrÃ¬ u
Ġ09 14
Tr Ã´ng
j ec
tr Ã²
ĠN Æ°á»Ľng
ĠPep si
t Ã³t
ĠS W
ĠG omez
iz ed
ĠKhÃ ³c
Cho i
Ġngá º¥y
atch back
Ġ alo
h uong
Ġ6 36
ĠGold mark
Ġ Ð
Ġto áº¡i
ĠRá» ĴI
ĠChris to
ĠR ON
vá º¥n
ĠFer guson
ou gh
âĢ¦ .âĢĿ
ĠC CB
ĠB QL
M obi
ĠLim ited
ĠUá» ĲNG
Ġr ia
Ġbá º·t
Ġná» ĩn
ĠAug ust
ĠV ÃĴNG
ĠI ron
¬ m
Ġ19 48
Ġ tÃ³t
ĠTh uá»³
BN EWS
z os
ĠPom p
ol ic
ĠCle ar
nh iá»ĩm
Ġ... )
ĠhÃ² i
ĠJ oo
iff any
OL ED
ĠÄĲá ºŃp
ĠTr end
m áº¡nh
ĠL ÃŃnh
ĠPin terest
Ġph ung
ĠX ing
phÃ¡ p
vi co
Ġ25 5
f in
ĠInf inity
Ġá ºµm
ÄĲá »ĳng
ĠPower ed
Ġs ingle
QUá º¢N
q uyáº¿t
Mer cedes
ĠTá º®C
ri er
Ġ6 66
ĠBri tish
C Æ°á»Ŀng
ĠGá» ¡
ĠT Ä¨NH
ĠÄĳá» īa
ĠGá» «ng
ĠJ on
era tion
ĠRe tina
p en
ĠDN SG
Ġvá º±n
KH UYáº¾N
ĠÂ» ,
ĠHar ris
ll and
Ġ Î
ĠJ SC
C ry
ĠH in
ĠC ir
G en
ĠChe ck
Th ao
ĠKen ya
ĠJa co
bá ºŃt
zil la
Ġch uyen
ĠMir ror
ĠBá» ĢN
ĠM ARKETING
bur y
ĠSe iko
ĠAs ton
ĠN umber
ĠF lam
ail break
BC K
Ġ20 7
ip e
ĠKH XH
Ġ tuá»ĳt
âĢĿ ).
ĠPan orama
ĠVá» ĲN
c rom
ĠKho Ã¡i
ĠVIET NAM
ĠE PS
ĠGab ri
K ia
l uat
ĠD Å©
Tim es
? âĢ¦
nháº ¡c
ĠC Æ°á»Ľp
ĠDo c
Ġ5 70
Y o
Ġdá »Ļng
ĠSá º¿p
iru lina
ĠH erm
K ong
Cá» ±c
ĠR T
âŀ ¤
ĠN ice
so le
2 10
Ġthá» ī
Ġac count
ĠCHá» ĸ
ĠT ill
Ġk it
Äĳá º§y
ĠÄĲ ÃĵN
I F
al t
ĠA ce
Ġ3 15
ĠMax Mobile
Ġcl ub
º¢ NH
ĠBV TV
DO ANH
ĠR ex
ĠEn er
Â ¡
ĠKhi Ãªu
ta ble
Ġvi ets
ĠSá» ®A
gg ing
ĠP TTH
ĠÄĲ Ã¨o
ĠTr iÃª
â ļ
ĠJ ar
Ìī :
ĠLig ue
akh stan
BL ÄĲTBXH
il li
ĠN ixon
s ylvania
ch ange
ĠSel ena
ĠP izza
ĠÃĲ Ã¢y
ĠSh ark
ĠS ONG
Ġtr Ã¢m
N Ãºt
ĠAb d
ĠAdvan ced
ile y
ĠTool s
k ara
º¢ Y
ad y
Ġsá» ±c
P O
i to
tháº ©m
ÄĲá» Ĥ
Ch uá»ĳi
R emix
ĠHá»Į P
Ġn ot
ĠComp any
L iá»ħu
Äĳá º¥u
t au
ngá» ¥
lam y
IS T
ĠH Ã¡ch
į p
ĠC AS
ĠC háºŃm
ĠLu ang
ĠMb appe
ĠL ucky
ĠKhá» ī
Ġtr Ã¡t
lá» Ľn
... !
ĠN as
ĠGi ft
ĠL áº·c
D H
ÄĲ an
ĠS itemap
Ġfor ex
ĠVin ashin
Má ºªU
ĠNhá» ±t
ĠQu Ã¡t
ĠCM C
ĠÄĳá» Ŀn
Ġl iáº¿ng
ro ss
ĠE lantra
an cial
Z A
ĠI a
ol ution
Ph Æ°á»£ng
S am
ĠPhá» Ł
ĠM Ãºa
Ġmac book
Ġnh Ãłi
ĠMa th
ĠJ ason
Ġ20 4
ĠL isa
ĠSou l
L áº¡m
M Ã£n
S ho
Äĳá »ĳt
ĠDj okovic
ĠN Ã©n
ul ti
Ġv Ã¨o
M Ã´ng
Lá º¯ng
ĠCN VC
ĠXK LÄĲ
ĠTr Ä©
ÄĲá º¿
Ġ4 10
B r
or ies
Ġ09 75
ĠS AL
con n
le e
Ng u
ĠAnaly tics
Ġ6 40
H ang
Ġ" "
Ġr om
ĠÄĲ Ã©c
ĠM Äĥ
22 2
gi ay
ĠPH Æ¯á»ļC
ĠM organ
Ġph Æ°Æ¡
m obi
ĠÄĳ Ã©o
ĠN ON
trá ºŃn
ĠAc tion
ĠLo u
K K
ĠX Z
ine a
ĠD DR
Tá» ±a
) (
G am
ĠM ÃģU
ĠHim alaya
Ġ09 19
Ġ uáº©n
Ġcá º§y
ĠÄĲ un
Äĳá º£m
ĠÄĳÃª nh
qu ay
ĠN CT
ĠSá ºłCH
ti so
thuy et
TP P
Kho an
ĠDy nam
co i
Thá» īnh
ous ine
p ar
Ġvan i
ĠB LOG
ĠMa te
Ġthi u
Ġsk ill
Ġs and
Ġdigi tal
ch iÃªu
al ty
Ġrá» ı
c rop
S QL
Ġlá» ĥ
ĠPN J
ĠH at
b Ãª
ĠViet Jet
ĠFlor ence
tháº £m
ĠLo w
ĠLá º¯ng
VN CH
ĠT ali
ĠTá» ¥
p ick
h anh
h em
ĠRom ania
ÄĲá» ªNG
ĠB ad
Ġb Ä©u
ĠVá» ªA
z ona
tr eo
T om
Q C
S ung
g reen
M ade
ĠM ÃĵN
ĠnhÃ¢ p
ura tion
Ġanal og
ĠNam e
Ġbá º¹n
ĠGi Æ¡
ĠÄĲK VÄĲ
â ĶĢ
Ġf re
Ġph am
uá»ĳ m
ĠIbrahim ovic
el y
23 2
45 6
ĠIn spiron
Ġq á»§a
ua ge
ĠHun ter
G L
Ġto i
Ġ7 000
ĠK um
j amin
ĠS ym
ĠMich elle
ĠGard ens
ĠLá» ĺC
ĠÄĳá º£nh
ĠGOL D
P ower
Ġ tur
ĠL IKE
Há º¾
irm ware
Ġrá» ¯a
ĠTr Äĥm
Ġ Ãºa
ÄĲ iá»ĥn
ĠW ol
ĠchÃ ¹n
ĠAl ger
ĠJÃª sus
T axi
ĠA TV
Ġqu oc
ĠN ich
ĠCá »ĵ
ĠKho ang
Ġchá» Ļt
ĠCT Y
ĠY un
ĠPe tr
ĠE ll
n an
ĠÄĲ iá»ĥu
19 68
ĠMas an
Ġl Æ¡i
ĠTH UYáº¾T
chá» ©
ĠA A
ĠPar agon
X o
ĠtÃ³ e
Ġchá» Ńng
tif y
Viet combank
ĠPro per
Ġki wi
ĠMay o
ĠPenn sylvania
ca pe
te lla
ĠS AN
Ġm Æ°á»Ŀng
Há º¹p
Kh Äĥn
Ġnháº £nh
ĠVer andah
b ol
Ngá» įn
M az
12 2
ĠGá »ĳi
Ġr oom
ĠNháº ¡n
ĠH ard
ĠNghi Ãªu
Bl ue
Ġ6 20
ĠQUá º¦N
ĠKore an
TH I
Lá» Ħ
ĠMá» ľI
ĠL Æ¡
CHÃļ C
ĠB rid
ĠPie ce
Ġs treet
ĠL Ã¹ng
Ġtá º¹o
ĠX Ã¬
Ġxá »ĳt
Ġ29 8
Ġset up
ĠK ei
x Ã¡c
ĠN iá»ģng
ĠJu ly
Ġth em
Ġ( ~
ĠVin al
Ġim age
Ġb al
ĠSá» £i
âĸ ł
x ml
ta c
F ed
Ġ09 05
ĠL ac
Ġ23 4
ĠW OR
ĠRÃ´m a
ĠÃļ C
ĠA G
ĠMa ke
Há º¯c
ĠM SN
ĠS Ãło
ĠÄĲ Iá»ĤN
Ġmicro SD
ugeo t
____ ____
Ġ20 6
13 3
b is
ĠcÃ³ n
b ds
V S
trá» Ŀi
ĠGi Ã´
ĠFri end
ĠSal a
ri que
ĠB ing
Thi Ãª
le ep
Ġthá» Ľ
IÃĬ M
ĠB ite
OR T
Ġbá º¹
Ġháº¿ n
ĠTN T
Ġ7 30
Kháº ©u
ĠI sa
ĠL ap
ĠK g
Ġgiá» ±t
Ġ.... ..
Ġ01 6
Cá» §a
R ad
cá º·p
ĠRol and
Há» ¡i
trá» ±c
ĠâĨ Ĳ
ĠSud an
ĠV Iá»ĦN
ĠW an
ĠDá» Ħ
ĠCentr osa
Ġ[ +
y áº¿u
ĠTá» ĺI
ĠTH Iáº¾U
Ġo x
en ing
ĠG OO
R Ãł
ti eng
ak o
cá º¯m
Ġto uch
ĠF il
ĠJo on
H Æ¡i
Ġ22 9
it s
Ġ cream
ĠKh iá»ĥn
9 50
ĠDan ang
Vá» ĭnh
X U
g ic
PV C
ĠH Iáº¾N
Ġ cy
ĠX Ã´ng
ĠEm ma
ur u
do gan
ke i
ĠLá ºº
ĠIn doch
Ġgiá º»
ĠF air
ĠÃī p
ĠAS P
ly cer
AC E
Ġcook ies
Ġtrá» ĵi
Ġq Ãºa
ĠH UD
ak ura
Ġtá º¹t
Rá» Ŀi
Ġsho ck
un k
eb u
Ġâľ ĵ
ĠHá» §
ĠÄĲá» Ĩ
Ã² m
Ġ et
gg y
Ġ12 80
ĠRe gis
Ġf ut
se ille
Ġph ay
Ġn uÃ´ng
ĠChá» Ľ
om i
Ġthá» ĳ
Ġlá» īnh
ĠthÃª nh
ĠVá» ®NG
as ho
ĠTHá ºº
ĠRog er
hÃ² a
ok u
thu Ãª
âĢ¦âĢ¦ âĢĿ
ĩ p
ĠZ oom
b Ã¢y
Ġin dex
ĠSum mer
ĠA vi
ĠB áº¡t
ĠRá» §i
h uy
tuy en
ĠTill erson
ĠÃĲ áº£ng
iá»ħn g
b Æ°á»Ľc
ĠCh Æ°á»Łng
f ul
fessi onal
ĠD E
S uper
H arry
Ġcur cumin
Ġngá º¥n
Ġcr ack
Nhá» ķ
ĠG YM
Ná» ķ
Âł Âł
ĠDamas cus
K ey
T y
ĠRead ing
ur ch
th ua
ĠNhÃ Ń
Ġb Ã´n
ïĤ ¤
ĠD MC
ĠL il
Ġ9 90
ĠChá» ©a
ĠTh eme
ĠHy dro
ĠcÅ© i
ĠZ ombie
AL L
Z E
ĠC Æ¯ÆłNG
N O
Ġs Äĥm
Y O
VP ÄĲD
Ġk nock
p ol
19 46
le te
ĠRá» ĺNG
Ġ cer
ĠVá» ĮNG
Ġmá» £
ĠNá º¿p
19 79
ĠGre at
Ìģ !
ThÃ ©p
ĠbÃ¬ u
I CP
ie p
tay nguyen
Ġ09 15
S Æ°u
K m
ĠG ad
ĠX Æ¡
Ġkh em
ĠRes earch
x ay
si ana
ĠV as
Ġs in
k iá»ĥu
ĠZ im
V B
ĠT w
ĠG areth
ĠS R
Ġá» Ŀ
H Ã¡t
ĠC UP
ĠD Ãµi
ÄĲá º¶C
tá º§m
Ġlá º¿t
ĠHe ad
12 6
á º£o
ti ce
19 30
ĠCen tre
S Ã´i
t Ã©t
g ang
l ux
N Ã¡m
Ġgi Ã£i
ĠF O
Ġ21 6
Ġcn c
ĠK ent
B Ã¡t
ĠKHá» ¦NG
ĠComp osite
g Ã²n
Ġr uá»ĳc
ĠL at
ĠSa ch
chá» ¯
qu es
Ġlá»į ai
ĠAP P
Ġ crop
lá º¯p
y on
+ .
ĠPier re
th Æ°á»£ng
ĠWil d
º ²NG
F e
thuyet tinh
ch au
Gi Ã¡ng
Cá» ı
Ġâ Ī
ĠTran sit
ÃĻ I
ĠGam ing
ĠL Y
Ġho e
Ġ^^ !!!
Ġquá º»
cá º§m
all ad
y ang
Ġco ffee
il ity
Ġxá» Ł
Ġho p
Ġth anks
ĠPa trick
Ġch iá»ģn
ĠDan ce
Ġ ama
ĠG Ãµ
il lo
B en
ĠnhÃŃ m
ĠG host
ĠChan nel
Ġba bes
Ġcoup on
ag ship
eu thuyettinh
Ġviets ub
Bá º¥y
euthuyettinh cam
Ġl un
qu in
Ġhoá º¯c
ĠS AP
ĠJ AV
Ġm Ã¹n
ĠO N
qu Ãª
titu de
Tá º¥n
ĠC iputra
Ġca ch
ĠSa fe
ngá »ĵi
ut en
ĠCl au
ĠElec tric
ĠS AT
Ġ09 69
3 000
Ġd ance
ĠLu ke
ĠQu oc
h r
ĠL Æ°á»¡i
ĠJ azz
ĠnhÃº m
ĠK or
ĠEm man
Ġxá»ī a
ĠW ind
Ġtra ffic
ĠCar los
ĠP ul
ling ton
ĠCh ol
ĠBri an
Ġgar age
ĠAn ne
Ġxá º¹t
ĠIn te
ĠF ish
Ġcá» ©a
Ġ crom
ChÃ ¢m
ĠK ard
Ġlá» ³
ĠS em
b Ã¡
Ġv Ã¨
ĠTho Ã¡i
ess a
Khá» ķ
Ġn Ã¡i
Ġl h
ĠAri zona
ĠNU ÃĶI
Li ve
ĠPhil lip
ĠCh ao
TH U
ĠLÄĲ BÄĲ
ĠBlack berry
ĠMá º¿n
ĠM um
in ner
ĠA DS
k V
Ġ30 2
Nhá» ı
ĠTar ot
ĠGrand e
av y
Ġpháº Ńp
ĠT BT
ĠD uáºŃt
Ġti ps
Gá »ĵm
H TC
ĠI ll
ÄĲB P
Ġ tÃ©t
ĠY es
ĠINT ER
PHÃ ĤN
Ġná» ©a
ĠTHá º¦Y
Ġchá» Ļp
i tor
Ġphá» Ľi
ĠâĢ Ļ
Ãµ a
C Uá»ĺC
ĠG AS
Cá »Ńu
id ay
ĠNá ºłN
Ġdu c
B ÃĬN
T iá»ĩc
ĠK FC
Ġj ava
ĠMar ry
ĠChi Ãª
E co
ta tion
phi a
ĠLy n
ĠN in
Ġb ill
Ġs ingapore
bal ife
ĠMari time
Ġto ang
it Æ¡
S ite
Ng uyá»ĩn
ĠÄĲ Ã¡o
TR A
ĠE ff
Ġs Ã¢
ĠhÃ ¡m
Ġra p
ĠKháº ³ng
D ONG
k an
ĠÄĲ Ãĵ
ĠH ÃĶN
01 0
ĠH ik
L ab
ĠV AMC
º¸ N
ĠPomp eo
ĠGi Ã£n
ĠMac au
ĠV M
Ġf ashion
Cháº £y
ĠE ast
ĠKS ND
ĠviÃª c
G Ãµ
L X
ĠSp ider
ÄĲ ÃĢO
P VN
ÄĲ TC
ĠGa za
ĠL ex
Æ¯á»ľ N
Ġn s
bá» ķ
xy z
tháº ±ng
V e
ĠA TP
ĠNG ÃĶN
Ġpan el
Maz da
ĠCar r
Ġngh en
ĠC Æ°á»Ľc
ĠC uá»ĵng
ri ting
th on
Ġrá º¯t
um in
ĠMon tr
Ġgi Ãª
Ġp df
ĠÃĶ N
tel li
ten ing
OT A
ĠInsi der
Ġgame play
D uyÃªn
Ġvá» ĵ
s Æ°
ĠL GBT
Ġ10 01
ĠGIá» ®
ph in
es co
ur l
ĠLM HT
Ġster oid
ir d
ĠS Ãªnh
ĠC EN
ĠMá» ¥
ĠAd s
má» ģm
ĠLá» ĮC
Ġ ace
Ġdá º£
ĠMich igan
ĠM ig
ĠGI AI
ĠAM OLED
Ġ100 00
hi te
ĠLá» ¥a
ĠMat th
r d
M on
ĠPhÃ ¨o
Ġgiá º£o
Ġ27 9
ĠCam eron
ĠCy ber
f un
ĠNghá» ĭch
Ġs lot
" ]
Ġná º¥ng
Ġho Ã³c
ĠM Ãłng
! ).
cá º¥m
0 50
ĠNá »ĳt
ĠÄĲ iÃªn
te co
ĠPhÃ ´
ĠMIN I
ĠRe g
13 6
Ġco re
ĠâĢ¦ )
ĠPia ggio
Ãĥ O
Ġf b
ĠOr ange
Ġkhoá º£i
Ġform at
ĠSy n
ĠZ i
IC T
ĠG lo
M Iá»ĦN
ĠMat tis
há» Ļ
Ġnh uá»ĳm
13 2
ĠApp s
chá» ¥p
ĠH iáº¿m
Ġmod e
or m
ĠChÃ ¹m
ĠTh uyÃªn
Ġcan on
ĠS UNG
L ÃŃ
ĠEther net
Ġngá »ĳn
ĠTN R
ĠB D
... ),
ĠÄĳo áº£n
Cá »Ļt
h ua
Ġal pha
ĠDes ire
G LE
ĠTun isia
ĠKaz akhstan
W A
Ad min
ĠParad ise
Ġs Ãº
ĠH eart
6 04
T Ã´ng
tá º¯t
Ġa k
ĠMas k
Ġhy brid
ĠBro ther
r ence
ĠChÃ ºt
háº ¡nh
EO N
ĠB OS
Ġhe ad
N i
33 3
ĠV Ãª
ĠP PP
ĠDo w
n em
t nhh
âĢ¦ ?
Pho to
Ġ4 40
Ġcáº£ o
c v
ien co
ĠGT X
D at
ĠTali ban
im ax
ĠS lo
Ġdá» Ńng
ĠC and
ĠmÃ£ o
ĠFor ce
Ġ5 30
ĠXo ay
ĠcÃ² m
ĠD allas
ĠÄĲ iá»ĩu
ĠL Ãºa
ĠS him
Ġ13 00
w iki
ĠSun wah
ĠÄĲO ÃģN
" "
th uong
Ġdá º¹t
ĠMá º£nh
h er
B ra
ca ster
ĠTP CN
ĠKn ight
ĠN áº¡
Ġ28 5
so cia
ro v
U ND
Ġ2 11
ĠGu inea
. !
ĠWay ne
T em
D ell
13 1
ĠHO SE
Ġk Wh
Ġng an
ĠGiá» ı
ĠTá º¢
nb sp
iz ation
ĠH em
_ ^
Ġl iá»ģm
ĠRang e
ĠchÃ ¡c
land o
ĠLi ves
ca ke
cua dor
Ġser i
ĠPH I
13 9
ul es
ĠEm erald
min ster
ĠVen us
ar en
K G
E uro
ĠB ot
ĠGaller y
ĠKing dom
P D
ĠTr Ãº
Ġs Äĳt
B IDV
H GÄĲ
F M
ĠA j
ik ipedia
ĠR oo
Ġ5 60
âĢĻ :
R Ã¨n
k iáº¿m
ĠLA PTOP
ĠTop az
Ġth uy
ĠV id
ĠX ÄĤNG
Ġchá» £p
Ġh em
ĠCor olla
ĠS ams
h h
g ement
ĠÄĳÃ³ m
ĠHá»Į A
k Ã½
ĠH Uáº¾
ĠP I
ĠTHO ÃģT
ĠJag uar
Ġ\\ "
ĠO l
esp ace
ĠA vatar
lo c
ĠV Æ¯á»¢T
Ġr ed
ĠPhilipp e
M in
ĠV ÃĻNG
S hip
ĠNá ºŃm
For ce
ĠThá» Ł
ļ t
TV QH
KH OA
Ġch rome
em ay
ĠPHÃ ĵNG
ĠR ac
ĠF all
ez mann
ĠSe lect
ĠS ÃĢN
hy un
Ġbol ero
S HO
Ġinch es
uk u
ĠBe zos
B alo
ros sover
Ġr Æ°á»Łi
ĠLe go
ia s
Ġ4 99
ĠÃ ±
ĠTháº £i
ĠO ctober
B iz
f en
tinh o
ĠCa te
V iá»ħn
ĠJ r
down load
n uÃ´i
ĠW he
ĠNG Å¨
ĠKh an
ĠTon ing
Ġngo Ã¡y
n s
V al
Ġho en
ĠSa fira
23 5
ĠNHÃ ĵ
the gioi
Ġth iáº¿c
cá» ¥
Ġ09 68
Ġ8 000
Ġ tnhh
20 5
ĠT uc
ĠM uÃ´n
p son
Ġ3 75
ĠÃĲá» ĵng
Ġton er
Ġ9 60
âĢ¦ "
ĠS l
Ġgi Ã²ng
ĠVI ÃĬ
t Ã¨
s ua
m or
ĠGIÃģ P
ay roi
b and
ri es
ly n
ĠCá» «u
N e
Kháº ©n
ĠR h
id d
ĠM orata
ot ti
ĠZ ara
am an
ĠSP A
ĠHá» ¡i
ĠÄĲ ÃŃch
Ġsne aker
Ġb onsai
Ġmang an
ĠCry pto
ĠSc ience
ĠT ien
ĠBro ad
ĠTh Æ°Æ¡
b anh
ps et
ĠR ick
Ġm eo
Ġtá» ĭt
ÄĲ u
ho Ãłng
X L
nhá» Ľ
Ġh iflex
r ang
Ġch un
Má ºłNG
12 7
ĠPl ace
à ¸
ĠBent ley
Ġ0 30
ĠMS I
V ic
ĠGu in
Ġdá ºŃm
ĠTr uyÃª
Th iá»ĩp
I ran
ĠK Ã¨o
ai gon
ĠHá »ĳ
ĠTá º»
ĠKho Ã¡c
A ss
cháº ·t
ĠBen jamin
ĠÄĲ EN
ĠMar seille
Ġâľ Ķ
ĠRam os
ĠP ET
ĠÄĳá ºŃn
ĠStan ley
ĠBro w
ĠdÃ² m
Ġquá º«n
ĠN CS
bun tu
Ġ4 32
ĠW eed
Ġ09 78
ĠBite xco
Q UYáº¾T
ĠHá »ĳi
ĠRá º±m
23 4
Ġr Ä©
p ut
u o
ĠPH AN
DV D
ï ĥ
ĠViÃª t
Ġ23 1
PhÃ¡ i
Ġ9 000
ĠBir d
19 63
ĠMun chen
ĠSX KD
ĠBá» įc
ĠO Ã¡nh
ĠN FC
ĠCur cumin
Ġvá» ±a
Ġhá» Ľp
ĠD rop
ch t
C TC
Tá »ĳ
ĠTháº £
ĠKe angnam
ĠPhÃ ¬
ĠCH Iáº¾U
to v
ĠE asy
enz o
q lo
áº¤ y
15 5
Ġson y
ĠS Y
ĠXV III
ĠTV B
S i
ĠSp r
\Ā\Ā\Ā\Ā\Ā\Ā\Ā\Ā\Ā\Ā\Ā\Ā\Ā\Ā\Ā\Ā\Ā\Ā\Ā\Ā\Ā\Ā\Ā\Ā\Ā\Ā\Ā\Ā\Ā\Ā\Ā\Ā \Ā\Ā\Ā\Ā\Ā\Ā\Ā\Ā\Ā\Ā\Ā\Ā\Ā\Ā\Ā\Ā\Ā\Ā\Ā\Ā\Ā\Ā\Ā\Ā\Ā\Ā\Ā\Ā\Ā\Ā\Ā\Ā
ĠDo ug
B ia
ĠX oa
ĠLá º¤Y
ĠG ary
ĠLu Ã¢
ĠSan yo
No te
ĠSm ile
ran t
Ġ22 6
ĠP ure
ĠEmman uel
tor s
ĠL ast
O k
lá» ±c
vi an
5 000
PhÃ¡ o
ĠK ap
B áº¡o
ĠHo p
ĠIn ax
ĠFit ness
ĠCoo p
ĠM es
25 6
c uá»Ļi
Ġn inja
A B
sil k
ĠMin zy
ĠG ua
ĠTHá» Į
ĠÄĳ Ã¹n
ĠOhi o
ĠST EM
Ġh ic
Ġoli ve
s uy
g gi
ĠBill board
is to
ĠBan d
ĠlÃµ a
Lá ºŃt
dá º§u
Chi Ãªu
ĠGe lex
ĠKháº ¯p
ĠJohn ny
Ngá» ©a
R áº¡ng
ĠDá» įc
V OA
Ġ21 4
ĠL ind
D E
Ġ eng
Ġcáº£ u
lar gement
tr inh
Ti vi
ĠMar sh
ank a
ĠC áº¡n
scri be
ĠcÃ¡n g
la b
C AD
ĠA e
ĠâĢ¦ âĢĿ
Há» ¯u
ĠI DC
S t
ĠWil son
ĠLá º·ng
if y
ĠDan Luat
ðŁ Ķ
L Æ°á»Ľi
ĠÄĳ Ã¬a
d Ã²ng
Ġcon cert
Ġti en
M s
16 5
Ġdu ong
Ġso ft
ĠBro m
ĠQ G
Ġ Ã³
)) ))
lavon oid
¤ P
ĠAlex is
Ġ09 79
ĠÃĵ c
ĠThÃ Ńnh
ĠC orn
web site
M essi
ĠHá ºłI
Lá» ĩnh
ĠW WW
ĠW anna
un i
D iá»ĩt
Ġtrá»ĭ nh
ĠVP F
Ġtr uong
ĠMá ºłCH
ĠBá» ¥t
cos amine
r Æ¡
ĠVis ual
ed ic
f uck
ĠIn cheon
Ġ( "
ĠnghÃª u
L OR
ap on
M Ã¢m
ĠNHÃĵ M
BM W
kh anh
nh adat
b iá»ĥn
Ġd Ã³
int endo
et ti
ĠM ÃĬ
r as
Ġkhá» īnh
Ġca cao
Ġgh iá»ģn
GD P
Ġr uy
ĠHol mes
ĠC MS
ĠH Æ°Æ¡
ĠBK F
ig uez
Ġ01 66
l Ã©
ĠP on
ĠK Ãªu
ch y
á º¨n
ĠR emote
Ġ14 00
ĠHD PE
ĠCh am
Ġ3 19
ĠAll en
aki ta
ĠTas k
i ti
ĠV E
Ġvá º³ng
ĠWh ats
b re
lec tion
t ta
k es
lo tte
ĠPass port
ÄĲá º§y
F u
19 72
Ġ cuá»Ļi
ĠE le
v d
Jan uary
h al
C háº¥m
CHá» Ī
ĠS ag
K M
ot un
ĠB ow
ĠNH U
ĠSP KT
ĠL áº¡n
14 8
13 4
ĠKy ung
iff el
ĠkhÃª u
ĠRá» Ŀi
ĠNg áº¡c
er ma
tr Ãº
ois ong
ĠMA X
L AND
thá» ĭt
ĠRá º±ng
ĠKháº ©n
IM F
v ad
ĠRa fa
cor p
ĠLi u
Ġgran ite
âĿ ¤
kháº £
ĠTrá» ĩt
Ġpixel s
ĠSer gio
View er
CH UYá»ĨN
Nháº «n
xx x
ĠTeh ran
ĠA E
Ġ45 8
ĠS EN
ĠIs tan
s un
Iáº¾ C
ĠZ ero
Ġ end
micro soft
ĠN Iá»ĢM
Ġchi u
Ġnick name
ĠAM G
ĠLiber ty
Ġl Ã¡n
ĠS ME
ĠX Äĥm
ĠM Ã¢m
Ġm uá»ĳt
ĠGP MB
ĠN PH
Ġ5 80
ĠR X
ĠN ANG
S tore
us hima
,... )
Ġd eb
TR E
Há» İI
HÃĢ NG
b uy
al bum
ĠAng kor
Ġá» ©a
ĠHá º¢O
ig e
ĠÄĲCS VN
ĠS ave
ĠPark inson
ĠB E
QUá º¢NG
ĠD Ãª
ĠIstan bul
ĠS B
ĠN Ã³n
Ng oa
Ġpar ty
ĠS witch
C oll
i phone
3 80
ĠDel uxe
g Ã´n
U SE
Ġkhá» ı
Ġr Æ°Æ¡ng
ĠTá º®T
ĠT iffany
K e
H Ã¹ng
Ġm om
Ġda t
l Ã£nh
ĠIsa ac
háº ¯n
Ġca che
ĠhÃª n
V o
ĠChá» «ng
ĠRá º¯n
Roy ce
R eu
ĠEr dogan
Ġm Å©m
c tion
ĠSh inichi
Ġd erby
Ġsá» ©a
ĠK ali
Sta tion
áº¤ m
ĠE cuador
Tr áº¡i
ĠT E
Ġshi sha
el son
20 2
N Ã´
is ong
T háºŃn
ĠFut ure
ĠBin omo
ĠPla tin
12 1
ĠSp or
Ġb ina
ĠT ÃļI
Ch ar
ta rio
ĠArch ite
ĠI Phone
Ng hÃ
Ġd am
Ġcortico id
ĠTR Æ¯ÆłNG
gi Ãł
y to
ĠL ag
Sh are
ĠR ho
Rá» «ng
ĠNG ÃĶI
ĠthÃŃ t
ĠV U
Ġvi en
p u
ĠVá»ĭ t
Ġ24 9
Ġnh Æ°á»¡ng
Ġr oot
ĠBá ºłC
ĠR C
ĠConn ec
ĠT ÄĲ
Ġ23 3
Äĳ oÃłn
ĠchÃ ¬nh
Ġ09 43
ĠY i
ĠAp ollo
ĠA er
Camp uchia
ĠK V
Lo go
Ġngh iá»ħm
R ed
uá» Ŀng
Ġo ption
ĠHil ton
Ġ ter
Ġgi en
ĠMat t
ĠKit ty
ĠHá» Ľn
Ġ22 8
ĠH oney
Ġnew s
ChÃ Ń
Ġg ÃŃa
ĠAlger ia
Ġk ich
ĠKHá º®C
0 24
ĠD ro
Ġb uá»Ļt
ĠFi ve
ĠF S
ĠFin ancial
d Ã¢y
e f
Ġl Ã¡y
Ġ19 4
MA X
Ġ3 38
Ġsá» ı
kh am
Ġngá »ĳ
Ġ19 51
Ġcho i
ĠLá» ĺ
ĠK L
Ġ09 77
Ġ tong
ĠK ÃĪ
Ġho k
ĠLeon ardo
cÃ¡ nh
Ġ21 3
ĠS eb
qu Ãł
TO ÃĢN
ĠXing fa
15 2
Ġv Ã³
ĠB ÃģCH
ĠIm age
ĠT F
A lex
ta b
v ai
M Ã¨o
ĠNh uáº¿
Ġin verter
NhÃ £
r au
ðŁ į
H H
K L
ca fe
Ġ å
ĠFan tasy
ĠD ang
O lymp
ĠChe fs
ĠNgá» Ŀ
f ly
the thao
ĠJ osh
Reu ters
cÃ¡ m
Kháº ³ng
d al
thá» ķi
T an
ĠM X
nh iá»ĩt
om b
ug ht
Ġgiá» ¥a
M au
X IN
uck ho
n in
ĠH ig
ĠShi seido
ĠE iffel
Ġ19 52
Ġlá º£o
n Ã´ng
AP EC
Ġy eu
ĠMat xcÆ¡va
C háºŃm
ĠE F
Ġ30 5
ug a
ĠCHÃ ĵNG
ĠTHá º¤P
6 68
Äĳá» §
ĠGuin ness
pp y
ĠF ore
ĠJ P
n Ãª
Ġte aser
Ġho tel
Ġng Ã¡o
u to
ĠL Ãģ
ra ham
ĠMur ray
ID E
ĠH ab
Â ´
ĠViet GAP
Ġ11 00
ĠGiov ani
Cá» Ŀ
Äĳá» ı
Ġpre fix
Ġâ Ħ¢
Ġg uá»ĳc
ĠMill enn
ow ski
ai do
c rossover
Ng uyá»ĩt
tr ao
C X
S Ã¹i
Ġ ic
ĠMá º¦M
Ġtháº ©n
Ġ26 8
ĠÄĳ ung
Ġtrá ºŃp
ĠP anda
ona than
ĠK as
asho ggi
ĠJ ur
ĠP CT
19 73
ĠGri ezmann
ĠâĢ¦ âĢ¦
ÄĲá»ģ u
ĠNHÆ¯ NG
ĠS ÃģNH
un ch
ĠÂ ±
Ġ999 9
ĠCh ua
ĠM MO
ĠS tream
T háº¥u
el phia
Vir us
C ate
ai se
ĠJ erry
ĠIP HONE
ĠM ol
ĠXX I
qu ot
is free
C ol
Ġpic nic
ÄĲT ÄĲ
Ġed ge
ĠthÃ ³p
s mart
ĠMo vie
ĠF a
Word s
Ġchá» ĵm
con d
Ġver sion
p ec
B lock
Ĥ ¬
che ck
to ma
ÄĲá» §
ĠChampions hip
E Y
Ġ6 80
in f
ĠVá» Ŀi
lo y
Ġx Ãµa
ud ung
F r
ĠOr acle
ĠâĢĵ ...
ver se
D ong
k ha
3 10
v ay
Do c
ĠS Æ¯U
Ġ26 5
ĠF our
J e
bo tt
12 00
P er
d ieu
m ad
ĠDel ta
us tom
X ong
s or
ĠPr udential
Is rael
ab ook
ĠS F
Ġquá º±n
ĠCháº £y
' m
Ġdá»¥ a
op y
ĠSe as
ĠNo t
ĠPl asma
] ]
G US
t Ãły
CH Q
ĠH M
Ġl es
T ÃĶI
Ġ4 70
ĠthÃº n
Ġk et
ĠE N
ĠH Ã©
Ġ5 10
let t
ĠPar ty
ĠCá º©u
Ġtrá» Ľn
Ġw e
L ang
ĠRM IT
ĠV og
d is
ÄĲá º¯p
ĠthÃºn g
ĠS ING
19 86
s oi
to sa
Ġr iver
ĠÄĲá» ªNG
Ġnháº¹ t
tif ica
Ġ88 00
nam espace
ĠHá ºłNG
L au
cu oc
ĠUV B
ĠP B
in am
ĠEuro window
Ġ28 3
ood y
G ON
ĠL ily
ĠJer sey
ĠSu u
ĠT win
Ġ6 25
. âĢľ
os o
B ill
ĠS lam
08 0
ĠBá º¯p
Â Ķ
ĠKy i
ĠSerge i
ĠS ig
Äĳá» ©a
M ag
ĠW ireless
ĠG CN
rus alem
t Ã¢ng
Ġx Ãºm
Xá» ķ
AR A
30 4
N Ãªu
Ġl ens
ĠG Háº¾
ĠFran co
ĠHar m
ĠVien na
k Ã©o
R ich
emay bay
ĠPháº ¿
us d
b Äĥng
c ing
it on
A ma
ens or
ĠM F
ĠGOO GLE
ĠSá» ¨
L IKE
ĠG out
em b
ĠHon or
R FI
ĠW ho
so Ã¡i
ĠCá» §ng
ĠSer vices
kh ong
rt z
it subishi
ĠPhi lad
ti st
ĠNá» ¯a
ĠÄĲ Ã¡y
.. )
M iss
Ch evrolet
Ġtr uc
Ġs ur
Ġkhá» ±ng
Ġtr uÃ¢n
ĠCar ib
ÄĲá» ĩm
ĠQu in
Ch elsea
Ġf irst
ĠPe ugeot
M uá»ĳi
ĠAr thur
ĠK ans
Ġd z
T ime
ĠBig C
ĠQ uá»Ľi
ĠX ÃļC
p x
ar ia
Ġsv BK
ĠNG HÃ
ĠHÄĲT V
VP CP
Ġh iá»ģm
Ġ8 10
ná» Ńa
ĠTá» ķn
ĠAs socia
Ġtháº «n
t ual
Ġasp irin
( )
d ge
tr ix
ĠGhÃ ©p
Ġhá» Ń
ill on
ĠB ÃĬ
ĠL igh
ĠYang on
ÄĲá» īnh
Ġs uper
tima te
ĠD eal
Ġco ca
Ġac c
et z
vn Äĳ
i ji
Nhá» ĭ
ĠAl t
ļ M
H R
Ġ crossover
ĠMe g
S Ã´
ĠB ÃĪ
THÃģ NG
Ġr iÃªu
ĠR FA
2 25
T Æ°ng
m au
14 3
y eu
Ġ22 3
CN TT
l áº¡c
Ġtrá º¥u
ĠD Æ¡i
14 5
re w
zz i
ĠRi pple
ĠE ye
ĠDá ºŃy
ĠE ti
cam era
ĠnhÃ¢ t
Ġfl agship
ĠTHá º¤Y
ĠKar l
ke Viet
sá» £
cá» ©ng
B NV
ĠVi k
VP GD
m ap
Ġ19 39
ĠI van
Ġ3 35
K O
c Ã¹a
Äĳ Ã¡p
ĠC háºŃu
v ÃŃt
ĠDá» įn
ĠC ÃģT
ĠMar co
ĠD up
ĠCB NV
D iÃª
Ġtá» Ŀi
Ġpháº ©u
C háºŃu
ĠSp ring
Qu e
Ġ cÃ¹a
ĠD omain
ĠP ress
Ġph in
ĠB ung
l uong
ĠKaw asaki
ĠM Å¨
ĠCar bon
ens inh
][ /
ĠDe ep
Ġ24 6
h iá»ĥn
ĠCa esar
ĠB Ãły
ĠJo y
min o
ĠUniver sal
ĠXá º£
Vin pearl
ä ¸
Ġback up
ak s
ĠM ind
ĠÄĲá º©u
ĠSep tember
ĠA ND
ĠF iesta
ig a
V ol
thá» Ń
ĠCatal an
Ġr ÃŃch
Ãĵ T
O h
ĠTP Bank
id en
ublish ed
tr uy
EC T
ĠCM OS
ĠA ur
ĠOr lando
Ġs uit
ĠNá» ķ
ĠV Æ¯á»ľN
ĠK un
ia t
ĠZen Fone
17 5
Uá º¤N
Ġamp li
Ġnu oc
em as
ĠH ak
Coll agen
oot ball
ĠLi ch
Ä¨ A
ĠVá ºªN
ĠVin school
55 5
ĠKh ashoggi
ĠChristo pher
AN TV
ĠK l
at ti
ĠTO A
az ine
má º¥y
ĠCo ast
Ġquá º©y
m Ã´i
ĠP LC
ĠF ol
ta h
k w
Ġ tÃ¨
ĠSte am
ĠP ARK
IN O
A ug
Ġcho áº¡ng
nháº £y
CH C
br ight
bab we
İ NG
Ġá»Ĳ C
ĠHar t
Ġsá» įt
ĠHÃĢ I
Ġtra ck
Ġco l
ĠB amboo
ĠN M
vn express
ĠMe ghan
Ġg arden
Ġb est
Ġlá» §i
el an
ĠG H
Ġca ption
Ġ40 2
ĠMá» ĩt
ĠPro fessional
hen g
ĠO R
ĠPay pal
ĠTh Ãł
ĠO re
ĠEx tr
ĠJun e
Ġmo to
ĠWal ker
ĠRodr iguez
ĠL Ã¢
ĠTo w
ke toan
13 7
Ġlá º¯t
Ġ23 9
ĠLá» ±u
khá» Łi
Ġo á
Pháº ¡t
ĠU buntu
an th
ĠSi ber
tháº Ńm
ĠA CC
ĠF arm
ĠS cr
19 82
ĠOn tario
Com p
ig i
4 10
un tain
ab o
Ġtá»ī m
Ġqu áº¡i
ĠTo tal
ck y
Ġk háºŃp
ĠAc rylic
ĠD ecal
ĠSá» ļM
Ġ tÃ¢ng
Ġs apphire
ĠM áº¡
o und
ĠG ÃĵC
ob ic
ĠEX O
Ġp p
ĠBas el
ĠH Æ¡
ĠGi Ãłng
W e
ĠB ug
ord on
iss ot
ĠH L
Ġcon trol
77 7
S INH
ĠRa j
S M
t Æ°á»Łi
S IM
ĠB un
ar on
ThÃ¡ c
ĠG HÃ
ĠBC TC
Ġ Æ¯ÆłNG
ĠS ene
ĠK le
ĠJ en
ĠB oot
ĠLAO DONG
Ġ tÆ°á»Łi
ĠX R
ĠE PA
ĠSc en
ĠP ico
ĠO NE
H AM
ĠB áº¡
Ġf un
nháº ¡y
ĠT ÃĻ
ĠUn lock
phen ol
ĠM Ã¢
cÃ´ la
ĠHai r
g ers
F U
14 1
ac etam
sá» ¯a
Ġwhi te
al ia
Ġ tÃły
g háº¿
ĠM iz
el i
Ġho use
Ġmá» į
ĠTR Æ¯NG
ĠStu d
ĠSwan sea
ĠH ÆłI
15 6
ĠÄĳá º«n
Ġlá» §ng
us tr
22 7
im co
16 2
Ġtrá º±n
ed i
Ġv Ã³t
Tr Ã¡m
ĠGu am
ĠHum an
4 20
ĠOcean Bank
S en
ĠNH I
ĠDav is
ĠMe izu
ĠNico las
Ã© e
ĠÄĳáº½ o
>> >>
Ġj o
ĠNá» ĩm
Ġl Ã¨
ĠV Ãķ
AT ION
ĠNHá» °A
Ġ22 4
Ġen largement
Ġs Ã©c
Iá» Ħ
3 01
LV T
ĠN eu
Ġ7 48
Ġh atchback
ĠPhilad elphia
ĠBr u
ĠEco park
* ]
ii i
ĠT alk
ta thi
es is
ĠRob in
Ġs g
p od
ÄĲ Æ°Æ¡
ĠTo e
Ġd icks
ĠAd Words
Ġnháº £n
ĠZ o
ĠT erry
Ġ23 8
26 8
27 0
ca c
ĠM oney
N m
Uá» ·
V Ã¢
V CCI
ĠS ide
X ÃĤY
am oto
g Ãłnh
15 1
ĠLad en
ĠX O
ĠR Ãł
C G
SE R
ĠHi ros
Ġbao tintuc
er ing
ĠPer ez
L Ã´ng
ĠThÃª u
us o
Ad visor
14 7
NhÃ ¢
G ÃŃa
23 3
Ġel astin
enc ent
ĠWik i
tá» «ng
ĠD TS
ĠHo lland
ĠBá» ĩ
T Iá»ĨN
Uá» Ĩ
Ġ9 80
ĠRodr igo
ĠHy brid
de al
M as
ĠS ina
I phone
ĠTHá» Ķ
P DF
ĠN intendo
Ġ24 8
TT S
ĠMe ta
un ce
ĠbiÃª t
ON T
ĠGi uá»Ļc
ĠM Ã¡ch
ĠD W
ĠPh Æ°á»£t
âľ ª
Ġph Æ¡
ĠT Æ°Æ¡
im o
ĠS ty
ĠCo tton
ĠIm ages
i chi
thÃ ´i
Ġm Ã³p
ĺ N
ab i
ĠW hat
NV V
ĠðŁ ĳ
ĠPhoto copy
ĠSil k
n gÃ´n
ĠG HI
bá» ©c
l Ã´ng
h ao
ĠTá º·c
n gÃłnh
ĠC I
14 9
ĠXV II
Ġquá» ĩ
N ASA
ol as
ĠNew ton
ĠS ac
/ ?
pp i
Ġ19 41
Ġ35 5
Ġ edit
Ġxá »ĳc
ĠÂ ¼
ĠD um
tho Ã¡t
ĠA H
Äĳ Ãł
10 80
Ġ6 55
Ġ09 85
tr Ã¡nh
00 2
ĠHo mestay
ĠBe an
PHÃģ P
S ÃģCH
Ġm Ã²i
ĠSC IC
G Äĥng
a eda
Ġca sting
B ÄĲT
ĠCou tinho
Ġgi Å©a
as il
ĠPen tax
. +
Ġá»¦ n
so v
Ġá» ľ
Ġtá» §a
ĠK PI
ĠÄĲ Æ¯A
ĠCA FE
ey eon
Ġ09 39
co tt
ĠVá» ¯ng
ĠMi ca
Ġto Ã©t
pp el
ĠWest minster
ã ħ
b uilding
Ġph at
Ġqu Ã¨
ul u
ĠMá º¯n
Ġ( .
te st
ĠDN NVV
ĠQueens land
Ġs tt
ic ial
Ġlá» įng
Ġme ta
ĠHy per
ĠHuy n
al og
ĠStar s
Ġn ico
Ġra pper
m Ã¡u
Ġm t
Ġn uá»Ļt
ĠEdi tor
is ter
ĠGiá» ĳc
ĠTim or
Ì£ :
Ġw as
Ġw ap
Ġad words
. âĢĿ.
X uyÃªn
Ġla zada
ĠOp al
tr ans
Ġtá» §m
ĠMa j
ĠHo w
ung e
Ġ inh
ÄĲ Æ¯á»¢C
Ġph os
ĠÄĳá»± Æ¡c
ðŁĳ ī
phÃ Ń
ĠphÃ¹n g
Ġn iÃªu
ĠLá º§m
ï¿½ ï¿½
ca ti
ĠBM I
Ġfut sal
ĠP and
ĠL Ãµi
AP ORE
ĠVin cent
Ġ... "
ĠS Ã¹i
f lix
ĠD mi
trá» ¥
Ġsá º¿n
ĠÄĲ ÃĪN
ĠSam uel
Äĳá» Ŀi
ti tle
ĠCh uyá»ģn
má »ĳi
Ġk Ã©
qu Ãªn
ed oisong
THá» Ĥ
PHÃģ T
ĠTHá º¢I
ĠPhÃ¡ c
ĠHÃłn á»Ļi
IS O
ĠEco Sport
Res ort
ĠB ond
Ng uyen
ĠJenn er
ĠB ash
ĠP AN
li b
Ġr áº¡o
NG UYÃĬN
ĠM ÃŃ
Ġ09 11
ĠGiÃª rusalem
tr um
ĠA ge
Äĳá º¯t
ĠH UYáº¾T
ĠM ÃĢN
D ec
Ġm ade
ĠS Ã¡p
ĠK ra
tr ib
Ġx iá»ģng
19 8
al ign
Lá» įc
ĠAmi A
ail and
L ai
ĠÄĲ ÃĶI
ĠP ed
nem outh
Bá º¯n
Ġnhá»Ļn g
Im age
ĠNgá »ĳc
Ġl áº¡n
ta t
ĠOffice tel
ĠcÃ³n g
ĠNghÃ ¨o
Ġsand wich
cri ption
ĠF eed
Chá» ĳt
ĠJo han
Th read
ĠL OáºłN
f ort
Ġ" ,
V R
ĠB uk
ĠKh ay
ig ital
iz er
ĠP LA
Ġâ ŀ
? ).
K Ã¨m
ĠMed ic
ĠK ind
ChÃ ¨
ngh iá»ĩn
ole on
ĠD z
m un
ĠTá»ª NG
ThÃ¡ o
chÃ ¡u
% ...
Nh au
ĠDire ct
Ġma fia
Ġtr iá»ħn
ĠH ÃģT
nh u
Des ign
ID IA
X K
land er
ĠA hm
ĠK iÃªng
n hÃ¡
ĠSá º£nh
ĠElec tronics
ate d
ĠLan caster
19 74
M Ã¡u
ĠG ol
ĠN Ã´i
for mation
in et
ĠTB N
Ġb im
lá» Ĺi
ĠSte el
IT A
tour ist
ĠC ub
Ġpen alty
um er
oo p
ĠIns titu
ĠGabri el
P aris
ĠP O
ĠBá» ĴI
Sta tus
29 0
el ai
ĠNGH I
thi op
Ġr ich
S y
ĠConn ect
ĠtÃŃ p
D áº¡ng
Ġnh Æ°á»Ľng
Ġr Ãºc
Ġr iá»ģng
ĠTá»Ĳ C
g Ã³i
Há» Ĺn
ĠVer tu
Ġhá» ¥c
F ox
ĠÃĲ iá»ģu
Ġs ec
Ġp ussy
ĠTu Ã¢
tho ai
4 80
uk o
tr ÃŃ
ĠLink ed
Ġno Ã£n
ÄĲá» ĺI
ĠNg ao
ĠD at
ïĢ °
Ġ09 46
us k
tif ul
ÌĢ :
ĠDis covery
, )
ĠTr Ã¹m
Äĳ Ã´ng
ĠI con
Ð °
ĠVAL GUS
ĠS ER
Ġ24 2
ĠcÃ³ i
i que
ĠOrgan ic
18 9
ĠTHÃ Ļ
Nov ember
ĠSto ke
sá º¯p
Ġla v
Ġ--- -
Ġmá º§y
ĠTá »ĳn
ĠL eb
ĠS und
Sá» ŀ
ĠCá º¯m
Te am
16 6
ĠWat ford
Ġen try
ĠH au
23 6
S Ã¢u
d B
ti vi
ĠHar vey
Vie tin
bo w
Ġst and
ĠVinal ines
ĠLo áº¡t
Ġcá»¥ p
ĠMid d
ĠAth ens
Ġl Ãº
ĠTá º¦M
ĠÄĳÃ¡ u
ĠAb bott
ĠRo h
d n
14 4
rac ial
el ts
ĠMar tial
Viet jet
Ġng áº¡nh
ĠB ass
Ġ26 6
ĠD INH
V ang
ĠNhi Ãª
.. âĢĿ
Ġv Ã³i
Ġr ÃŃu
Ġs w
Ġi os
ĠCN XH
M Ã¡
th al
ĠCá» ĺT
l Ã²ng
ĠFeb ruary
Ġr Ã³i
CS XH
Ġ Æ¯á»ļC
ĠSc reen
Ġnh oÃłi
ĠGIá» ĲNG
l aptop
ĠPor to
ĠPL US
p ost
ĠC ienco
mua ban
ĠGI ÃģC
nghá» ī
o tion
° NG
ĠÄĲ Ã²i
ĠMá» ¨C
ĠM akita
ik en
sch emas
fr ed
ĠTitan ium
o cm
ĠCh all
ĠR ash
ap y
ĠJu ve
Ġs ide
dr at
ĠBr ent
ĠT au
ĠM am
Ġphu c
ĠPrin ce
ĠCháº ¡m
ĠY oko
ĠUV A
ĠAv engers
S c
ĠChá» £t
vid ia
ĠStu dy
ĠB ÃĮ
âĿ ĸ
W ER
khá» ĳi
ĠXá º¾P
ĠMar cel
Ġm Æ°Æ¡
ckho e
j ack
ĠMich el
16 3
? âĢĻ
Ĩ T
ĠLá º¯m
up us
ĠLav ender
Ġmi en
ĠL ÃĤU
ĠT issot
ven pick
¢ T
ĠÄĲ ak
ĠCu Ã´
ph un
ĠSh ell
ĠÃģ NH
ĠH ind
ĠCH Iá»ĢU
RE EN
ĠD B
Ġ26 2
ĠG MP
ĠZim babwe
ĠGi Ã³ng
F un
T ÃĮNH
Ġpl asma
ĠLink s
ĠG aga
ĠM G
ĠG au
ĠCon f
DI NG
Z alo
Ġdá º±ng
ĠUni qlo
ĠR uá»Ļng
KhÃ ºc
ĠA ero
PhÃ ©p
ĠAnd erson
ĠHiros hima
ĠThÃ ´
ĠcÃ³ t
ĠMá º§u
ĠY aris
p lex
ĠAm y
Ġ45 6
th inh
ĠV ÃĤN
ĠGiá» ĵng
ĠF REE
ĠAc cord
ĠB P
ĠSh u
enn y
ĺ P
Ġlo áº¹t
G re
ĠC ebu
ĠJo h
T UYÃĬN
ĠJ Y
im ble
ĠW oman
ĠMod ric
ná º·ng
Ġr Ã²i
ĠÃĤ N
en ge
M W
N u
Ġ6 99
Ġhá» Ľ
Ġk ien
Sá» Ľm
ĠTRá» ĴNG
ti l
Ġcu te
Z U
Ġm iá»ģu
Ġgi ft
ĠL K
ĠPh am
Ġmá»ı m
Ġs he
ab et
ĠK et
star s
ĠLá» ¡
vi ec
tá» Ľi
Ġj av
< <
trá» £
Ġ22 7
& #
ĠAtlan ta
ĠK TX
Ġs Ãłm
ĠW is
te am
ĠB le
ĠI an
f ps
ĠWhi tening
ĠSat an
Ch Æ°
ĠSá »ĳc
Ġ40 4
Ġboo ts
di um
ĠAl ban
Ġcr Ã´m
PH ONG
ĠZ hang
lin s
ĠHo c
th uáºŃn
ĠTr ay
k ÃŃnh
Ġu Ã½
ĠL ing
Iáº¾ P
ĠF ro
ĠEm ily
Ġkhu Ãª
Ġz ona
Ġs s
Ġg Ã¡o
ĠDá ºł
ĠS GD
ĠÃĶ m
ĠK iá»ĥn
Ã©m on
ĠBr it
Ġ9 20
ĠK EM
ĠD uration
K CN
ĠThu Ã¢
ĠL arry
Ġn Ã¡n
Ġduy Ãª
Gi Ãłn
uch i
ĠEx change
Ġda te
Ĳ T
ĠTrá» «ng
ĠA UD
ĠVol vo
19 47
X Æ°a
H Ã¢n
Ġ09 82
ĠF ati
ĠD ora
ĠMi G
Ġthá» ĭch
Ġs Ãª
ĠM iller
c loud
n Ã´
NG ÃĤN
ĠL D
ĠD ra
oom la
tathi one
Ġdá º«y
ĠhÃ² an
Ġv ina
ĠAr sen
ĠTuc son
eb e
Äĳá» £t
ĠCh erry
ton ia
Ġrá º£o
ĠNu keViet
ĠEn rique
ĠHi ro
uar d
Giá ºŃt
Ġb reak
n ew
Ġhá» ¥i
T iáº¿c
ĠLO AN
3 21
jp g
ĠHerm es
ĠRico h
ĠTh uáº¥n
ĠhÃ £o
t uáº¥t
is ha
Ġlink s
ĠRob erto
ĠWei bo
ĠR ank
ĠR al
nháº ¹
ĠM Y
Cá º¢M
ĠMo untain
pe tro
ĠJ onathan
Th oa
º½ n
ban e
Y oga
pho to
ĠLe vel
ĠAb raham
Ġtho ught
b uild
p rise
ĠH ir
ĠSub aru
15 9
ĠF R
kh iáº¿n
Ġcrypto currency
ĠÄĳ iáº¿ng
thá» §y
Ġ tuáº¥t
Ġquá º¹o
Ġtrá »ĳi
Ġp ep
Ġá º¾
ĠRa ting
B QT
há» ıi
Tá º£
dá º«n
ĠDá» ®
kk aido
ká» ·
l eo
8 70
ĠB IM
S ize
Ġ under
c lient
el p
ĠAth ena
Ġ25 7
ĠTá ºłP
Ġr eal
: .
D on
Ġ19 44
ĠAc cent
ĠÄĲá» Ľi
Æ°á» ¡n
ĠI ME
ĠA AA
mer ce
as m
D M
ĠUn ion
Ngá» ¡
Ġsty list
q q
ĠGar ena
P ar
ĠSO FL
Ġx uyáº¿t
ĠS ATA
ĠP AR
D Ã¡ng
ĠI ce
17 8
fol low
Th an
C en
L iá»ģn
ĠMon t
Gá» «ng
Má» ĩt
tam ine
Dá» įn
Vi en
ron t
Ġngá» įng
ĠB Ã³i
ĠK CB
ĠSON Y
b ell
ĠLa titude
ĠV AI
est one
ĠK at
Ġ25 2
Ġam ino
ĠHo ward
ĠTUá º¤N
ĠCá ºłNH
ĠLá º£i
Ġe Bay
Trá º¥n
Ġká»ĩ ch
ĠLu cas
U X
TH AM
tá º·ng
Nháº ¹
Len ovo
n ghÃ
ĠSen tosa
S Ã³c
Ġxáº¿ ch
D Å©ng
fr esh
2 24
Ġxá º¯c
ĠJim my
Se ason
15 8
ĠKhÃ ³i
ĠGr ay
ĠPHá ºªU
ĠSÃłi gÃ²n
ĠDo uble
ĠD Ã¡m
F DI
Ġ? !
Ġl Æ°á»Ŀm
ĠT su
ĠHá º¸N
B Ãºn
n gÃ£
Ġb s
ĠG oo
Ġra ting
W atch
bá» ¯a
Ġtrá» įi
Ġl ia
ĠF ilm
ĠN Æ¡
work s
K V
ĠBour nemouth
Ġ00 7
ĠHel en
ĠInvest ment
Gá »ĳi
Lá» «a
20 4
ao vat
Ãģ P
Add ress
ĠPark er
ĠLN ST
an et
ĠCamb odia
Ġ3 22
ĠH Ã¢m
Ġs l
essi on
G R
ĠLen in
M Uá»ĲN
B aby
ĠFor est
Ġs elen
Äĳ an
Ġ tt
ĠSá º¥u
Ġ19 42
ĠXá» ĭt
ord e
KH O
H ello
ĠÄĳá» Ł
ĠImper ial
Ġ4 25
ĠGIá º¶T
car bon
ĠVui tton
x Ã³a
? '
ĠTh erm
¨ A
Ġx Ã²a
Ġxáº» n
Ġ25 4
acetam ol
ĠEri k
ļ C
U L
ha w
ĠÄĲá »ĳt
Ġde ep
Ð ¾
ĠSá» ¸
Ġ19 32
thread s
Ġgi ay
Ġmuá» ĵi
Ġ19 25
Cá º£ng
amil ton
ĠH ÃŃt
ĠV Æ¯ÆłNG
Ġg ood
ĠNá º¯p
Ġad s
ĠEti had
g Ãµ
s burg
ĠDan ny
F ood
Th iá»ĩn
Ġ0 88
ĠClin ic
Gia dinh
ti de
ĠG LC
ĠTH ÄĤNG
ĠHa teco
ĠâĿ ¤
ĠTR AI
i j
ĠN ÄĲ
ti um
Ġl ife
Ġ@ @
Ġv Æ°á»£n
ĠTeam Viewer
b lowjob
ĠSING APORE
nh ung
BC A
z ar
ĠnhÃ £ng
Ġ09 65
ĠRead er
ĠHá» ī
ĠLá» £n
Ġelec tron
ĠQÄĲ ND
ngu oi
Ġblowjob s
T iáº¿u
4 04
con tinental
ĠYel low
Ġo a
ĠÄĲH CÄĲ
k Ã¨m
Ġhi p
Ġmáº «m
ĠLá º©u
14 2
Ġx áº¡c
Nháº £y
QU AN
ĠTr ee
ĠK ab
l iá»ĩu
ĠL V
00 7
b Ã¡t
Ġ09 87
Ġf older
ĠPen thouse
W OR
Ġx Æ¡i
li on
ĠL Ã³t
ĠBurn ley
ĠC ome
17 2
ĠOne Plus
v s
r al
Ġsi ro
ĠKÃį CH
Ġtu lip
ĠKhÃ Ńch
ĠL P
Ġngoá º±n
Ġbá»ĩ n
) âĢĿ.
ĠTá» ĥ
ĠPau lo
Qu Ã¡i
ĠV Ã¡n
ĠW D
ĠT MS
ĠMi y
ĠD D
ĠAr ticle
ai d
ĠGra ham
bi ke
ĠU C
c Æ¡i
ĠTHÃ ĶN
ĠMal ta
M áº¡ch
C Æ°á»Ľc
ĠW W
Ġam i
Ġá»¦n g
ĠH áº¡ch
Ġrá º·n
ÄĲ Æ¡
Ġs dt
M ÃĶ
Ġp iston
b ig
L AN
Ġ27 8
19 1
Lo ve
ĠMoon light
ĠMa ta
f ish
cu ong
ĠTe ka
Ġ38 5
V ER
ĠAn kara
abe co
ĠÄĲ C
ĠK el
ĠHS G
L Æ°
th ers
is er
ĠMe gapixel
Ġo Ã¡i
ĠSpec ial
Æ¯Æł I
P u
Ġcáº¡ ch
ĠT ÃĶNG
Má» ĮI
KhÃ¡ t
Lá» Ľn
Ġ4 23
ĠAd ayroi
c g
ĠB uá»ĵng
ĠH Uáº¤N
Ġ( ...)
Ġr uá»ĵng
t m
Ġs tore
R Y
ĠT AM
ĠGer man
Ġp Ã´
Ġk ing
IS S
ĠNg Ã³n
za wa
ĠH Ã²
Ġchá» ģ
ĠB LÄĲ
Ġ9 25
ĠCon tainer
ca b
ĠCol a
ĠChÃ ¡o
Ng á»Ļ
19 56
ĠYo ona
Ġchá» ĭch
bor ough
Viet Post
ĠA ung
ĠV ent
20 3
H appy
ĠMontr eal
c f
16 4
ĠMoham ed
ĠWin ner
ĠTele graph
ĠnghiÃª p
Ġchi pset
ĠNg Ã¡ch
NGH IÃĬN
Co in
ĠSev en
qu o
ĠATV S
Ar senal
d ÃŃnh
Ġr Ã¡y
ita le
ĠBa ch
ĠP eople
Ġha ve
Ġtháº ±n
ĠRos s
Tai chinh
ĠC ra
Ġkh ua
tom o
ĠH TT
Ġf ac
ĠT FT
io a
V er
as o
... (
İ A
h iá»ĥu
ĠS SI
I E
Ġ áº¡ch
S uckho
p ts
ĠCh iáº¿m
dá» ĭ
Ġx á»Ļc
land s
ĠM ST
ĠQuy Ãª
Ġ29 5
lá» «a
car ot
ĠD Ãłng
ĠMed ved
Ġ35 6
ĠN Q
ĠOk inawa
ĠChÃ ²
Ġbla zer
Ġb et
ĠKHá» ļP
ĠV CB
H os
ĠTr ust
19 87
AT GT
b ok
ĠN Y
ĠÄĲ ÃģO
ĠY oshi
du oc
ĠJenn y
Ġdo i
ĠV GP
ĠK Iá»ĤU
ĠChar lotte
won do
Ch iáº¿u
Tháº ¯t
h Æ¡i
ĠL Ãłi
ĠTV C
Ġm obifone
15 4
G eo
T ang
N ho
ĠPh arma
ĠF ir
ĠAd sense
ĠTow ers
ĠTao bao
ĠF L
KTS G
ĠP es
ĠW a
Ġá» ¶
6 60
ĠG E
20 7
Ġháº¡ p
ĠAnti virus
B Ã²
nhá» Ŀ
Ġrá» īnh
KHá» ĲI
be an
vietnam gsm
f ur
ĠRe covery
rá º»
CTC P
em bourg
ck s
ThÃ ¹
O FF
Ġf pt
C Ã´n
Ġrá º¿t
ĠY a
Ġpa tin
4 30
vn d
Ch ris
ĠY ing
i OS
thiop ia
Ġlá» £m
ss ori
khÃ Ń
ter y
ĠF X
s ac
ĠK obe
ĠBá º¦U
ĠCá º®T
Ġ+ +
ĠCa therine
Ġ= =>
Ġch Æ¡n
ĠKard ashi
lin ks
ĠÄĲá»Ĩ M
Ġpen thouse
ate s
âĢ¦ !
Ġw a
f eng
I X
z ig
ĠT encent
ĠX UYÃĬN
ĠTRá º¢I
ĠB au
, [
Ġkhu Ã¢
ch ang
ĠCl ark
Ġf iller
ĠLa zio
ĠBag hd
ĠsÆ¡ mi
sp lay
Ġr Ã©o
ĠD Ã©p
ĠR FI
ĠSai Gon
en os
l uáºŃn
o ter
ĠD Ã¢
ĠTHÃ īP
Bá »ĳi
Ġinter racial
ĠVL XD
T uÃ¢n
Ġso cial
Ġtr Æ°á»Ŀn
Uá»Ĳ NG
L áº¡
ĠFati ma
36 8
ĠÄĲV TN
li ve
od ka
ĠC od
ĠAg u
is u
D ou
AS H
ĠHil ux
in da
ĠIndoch ina
Ġfol low
ĠComp act
ĠID M
Ġ4 90
Ġquá º³ng
t uá»ĵn
m iá»ģn
D D
ĠH ugh
Ama zon
âĺ Ĩ
Ġ30 8
ĠBright on
Ġná» ĭch
ĠÄĲ Ã³a
ĠB Iá»ĨN
ag or
n háºŃt
Ġm Ã©
19 60
B Æ¡
Ġ24 3
Ġg on
ĠB Ã³
ĠT aka
Ch Æ°á»Ľng
ĠX INH
Ġac rylic
ĠCon tact
ĠH B
Má» ¤C
C UNG
ĠTh ong
L ÃĿ
l ap
ĠLight ning
ÄĲ Äĥ
Ġm ember
68 6
ĠB DO
ĠArab ica
ol ar
A sus
ĠT ip
âľĶ ï¸ı
ĠSou thern
ite ch
Ġv áº¡m
ĠVel vet
ĠOre gon
ĠRash ford
ná º¥u
ra h
Ġser vice
ki em
Rá» §i
VietPost Bank
ĠHa e
ver a
ĠNV IDIA
ĠX ML
Ġd iÃªn
ĠRe v
Ġ ag
Ġng áº¡n
A FF
M G
Nghá» ĭch
Ġl Æ¡n
Ho c
ĠLH TN
ĠI g
ĠCS KH
ĠNá» ĵng
Ġad idas
ĠG oth
Ġban k
M b
ĠÄĲ Ä¨A
chá» Ĺ
ĠH z
in ter
tr ac
ĠHo kkaido
Ġ19 38
Tháº ¯p
Ġl Ã¹
ĠE TF
l ene
ĠTRá º¬N
Ġl ight
ĠTR ÃĻNG
Mi chael
ĠBat man
ets k
ĠT ig
Ġsex toy
T háºŃp
M Ãłng
ĠK ÃĮ
Cap ital
An g
ĠChÃ ¡n
Tá º¢I
su la
ĠGhÃ ©
AV EL
ĠSh ort
20 23
m Ã¡t
ag ne
2 18
ĠPri vate
ĠAn field
gio id
ĠB ran
ĠKá º½m
Ġ3 12
Ġtuy en
Kien thuc
( (
ĠTO TO
Há º£
N oi
ĠFuk ushima
eb le
ess age
Ġ19 17
Ġch eo
kh uyáº¿n
. '
ná» ķ
ch Ãłng
im al
ĠW omen
ĠR el
Ġn itÆ¡
and ro
US T
w ait
Ġkhu Ã¢ng
ĠBah rain
C Æ°á»Ľp
ip er
Ġxá» ©c
ĠBaby lon
ogr aph
K on
ĠDi en
Ġ24 1
M IN
ch ip
c ium
T Ã¡m
K Ã¨o
Ãĥ N
h on
ĠR IM
ĠâĪ Ĵ
ita s
Ġvá» ĳi
Ġlac tic
ri te
t Ã¢u
ĠH áº¡i
ĠBá º¾N
ĠMedved ev
Ng Ã£
Ġ09 72
Ġs tr
Ġ cÆ¡i
Ġti t
ĠCon stan
háº ¡ng
Ġin f
s Ã´
P o
ĠÃĲá º¥ng
ĠY as
ĠDu o
si ble
ĠO to
ĠVá» ľI
... ;
T Ãº
Ġnháº ¡i
ĠNGá º®N
09 0
Ġch erry
ĠPay Pal
ĠT Iá»ĨC
âĢĻ ?
ĠTN XP
Ġ^^ !
ess e
L IVE
26 6
ĠSan ti
EX PRESS
tric t
ĠTh inh
Che ck
cate gor
ĠCh on
ĠSach s
tu dy
Ġ ang
Ġb uild
P ublished
li g
ĠthÃ £i
H V
ĠPhan tom
enc er
tr iá»ĥn
Ã¨n g
Ġhi en
ĠTr op
ĠTom a
Tr eo
Bá ºŃc
ons top
Ġvin aphone
ĠTho áº¡t
ĠPass word
he ad
ĠSus an
Ġkhá» ©u
ĠPhÃ¡ ch
ĠDO JI
b as
Ġgá» ķ
H u
khi Ãªu
ĠT ong
ĠÄĳáº µng
Ġr Ã³c
ĠS OS
ĠAl ph
ĠR GB
ĠLá ºł
Ġ28 9
ĠCro wn
d ore
al es
lin ois
dan tri
ĠPHÃļ T
ĠBar bie
ĠSui tes
L áº¡ng
ĠLá ºŃt
ĠMua ban
h in
la k
Ġlo e
to day
ĠSá º®M
v áº¡n
Ġ tÃ¢u
ĠP ao
ĠNap oleon
ĠT ennis
ĠÄĳá»§ i
ĠZ TE
et ch
ÄĲ am
ĠG Ãłnh
Ã ĺ
T ok
m ac
Ġ5 90
lo ve
sp ace
ĠnghÃ ©
H ong
ĠGI S
14 55
S uc
ĠLaw rence
ĠCate gory
ĠTHU N
X inh
ĠL Iá»ĢN
ĠR ung
ĠStu di
Bá» ī
20 8
s tr
ĠGe un
ĠV iagra
cá º©m
ĠE ra
ĠHá ºłT
19 5
ĠADS L
cá» ±u
25 5
ĠInn isfree
17 3
l Æ°Æ¡ng
Ġhá» §i
W TO
ĠG Æ¯ÆłNG
t z
ĠViet Sub
ĠH ua
Ġcam p
ĠR IV
ti ts
ĠTRá» ®
c cm
ĠN ia
V at
ĠB ose
entin o
c Æ°á»Ŀm
Ġn tn
R ep
ĠC Ã³c
Ġcá»¥ i
oc co
ĠFu sion
h ama
...... ...
« y
ĠÄĲH SP
ro t
ĠTour ist
Ġr Ã¡m
Ġf u
Ġmar k
ĠChÃ ªnh
ĠN EWS
D ep
Ġk W
Ãģ m
Ġ36 8
ĠGiá º§y
gi Ã¡m
T AND
Ġlá» £
ĠCá» ¡
ĠKá º¹o
Ġ27 2
ÄĲá º¯m
ĠOp tions
ĠLegend s
ĠNev ada
H er
Ġkh iá»ħng
' '.
âĢĶâĢĶ âĢĶâĢĶ
Th uyá»ģn
Ġcan vas
ĠA qu
ĠPh iáº¿n
Ġmá º¥p
Ġbá» ¥t
lá» ħ
ĠJam ie
M oi
ĠAs sis
16 1
t weet
ĠPro gram
ĠR Ã¡c
Ġs Å©ng
ĠÄĲ Ã¡i
ĠA EON
ĠM ina
N issan
ĠBe ats
Ã ¤
ãĢ Ĳ
R un
ĠKá» ī
ĠNgá º«u
t uáº¿
Ġsp ort
Ġh iá»ģu
Cu Ã´
19 65
Ġban d
K B
ĠLau ra
ĠS ix
Rad io
ĠNá º·ng
and i
ĠkhÃ¡ u
ĠGá» įn
ĠVie travel
ĠXi ao
Dá» įc
B est
Ġá» ªm
V IN
Ã¬ n
ĠKardashi an
ĠSp irulina
ĠVin Group
ĠTh under
ĠSha w
Ġ09 35
Start up
imble don
th oi
ĠU m
ĠHo áº£
ĠMap le
ĠU FO
tu oi
lamy dia
P op
Ġ34 3
n Ãºi
ĠC HÃģNH
ĠVin fast
2 99
ĠE A
he he
ĠC GV
ĠÄĲá º«y
ĠHá» ±u
ĠK Y
Ġvn d
C opy
ĠFlam ingo
ĠHer balife
A Z
ĠLuc y
ile ver
ui te
mar ks
ĠMc C
Ġ tuáº¿
Chá» ©a
Äĳá º£o
ĠN em
ĠNg Ãło
is trator
ĠH amilton
khá» ķ
Ġ client
dá» ±a
Ġph ot
Ġ29 2
e er
ĠP ica
ĠB INH
ĠCo tec
ĠAD B
Ġl áº¡ch
GIá º¢M
ĠAR M
ĠCV T
ĠPra ha
uis er
l á»Ļ
ll er
ĠV Ãłm
Ġthu oc
Ġ8 30
ÄĲ CÄĲ
ĠQu Ã£ng
ch ui
ĠAr iston
ĠPlatin um
Ġb Ä©nh
ĠThink Pad
r Äĥng
ĠPlay Station
in ar
O H
ĠS ÃŃp
ou k
co lor
ĠY G
ĠEx per
Ġf irmware
AN A
Ass ad
ĠFrank lin
For o
Ġváº» n
ĠMod ule
tie udung
ĠK ob
n en
ĠF AS
ĠKHá º¤U
G et
s Æ¡n
k ook
Ġqu Ã¡ch
do t
ines e
ĠVin ci
cÃ¡ n
ĠBU ÃĶN
N U
el ia
ĠTh ua
ĠMonte ssori
man i
ti cker
c co
ĠTh ank
ĠDi ode
ĠPro tec
Ġb auxite
ï¿½ ...
ĠBash ar
OS T
ðŁ ĵ
ĠCh eng
ĠF AN
ĠFernand o
ĠS BS
Ġ! !!!
Ġnhá» ¥y
ĠB ÆłI
f at
Ġh t
ÄĲ Iá»ĤM
ĠN Ã¹ng
Ġ3 26
ĠÄĳ Ã¡c
ĠP erry
is tar
ĠHe ights
Ġá» īa
ĠNá» ®A
á»Ķ n
ThÃ ¢
TH PT
Ġw iki
ĠDis k
ĠÄĲ á»Ļn
ĠHÃłná»Ļi má»Ľi
Ġ7 80
Ġnghá» ħ
ÄĲá º¤T
* .
lá» Ĺ
ĠCr es
Ġtem plate
for man
ĠPl ugin
g ester
Ãĵ M
ĠW idget
Ġs te
Con tinental
ĠEver on
D ao
ĠHarm ony
ĠT ÃĻNG
ĠBá»Ļ c
enn ess
% :
ĠE Q
ĠD Å¨NG
19 6
Ġ cÆ°á»Ŀm
Ġ35 00
ĠQ S
F ire
âĢ¦âĢ¦ ..
Nhi Ãª
ĠMÅ¨ I
Ġ8 35
P age
bi an
m Ã©t
ĠL C
T iá»ĩm
36 6
bá º§u
ĠMu eller
67 8
ĠQC VN
O s
ĠL Æ¯NG
tá º¿
ĠnhÃŃ p
Ġ40 9
Sho ck
ĠCho colate
Ġpoly ester
ĠS Æ°á»Ľng
Ġch um
Ã ģn
if ilm
ĠSH R
M Ã¢u
ĠM bps
Kh iáº¿u
dien tu
Ġk a
Ġcomp uter
ĠÃĲ áº¡o
Ġster eo
Ġ7 60
Con dotel
ĠNGá» ľ
ĠXen Foro
ĠT á»Ļ
ĠT uáº¿
º¤ C
P en
ĠO a
ĠS as
m et
Ġn Æ¡m
Sá» ¨C
âĢĭâĢĭ âĢĭâĢĭ
ĠT MT
L DING
ĠSá »ĵi
Ġco splay
ĠNgá º§m
ĠTr Æ¡
Ġph Æ°
chÃ ¢u
H am
Ġ50 2
Ġlo áº¡ng
HAM IVI
t l
18 1
Ho ang
Ġngo c
T CHQ
ĠSene gal
OS E
ĠB oni
ĠNgá» «ng
ĠU ser
» ķ
ĠAgu ero
ĠI F
ĠCle ans
ĠA br
? !âĢĿ
15 7
uá» ĥ
ĠCHá»Ī NH
Ch ai
Mod el
V Ãª
ĠG AL
ĠNo vo
ĠTá» ĭ
ĠAr n
ĠDe tox
ĠHol iday
G AME
ah u
H Q
L iver
Ġte ch
Ġpl ug
ĠBenz ema
Ġkháº £n
ink i
ĠVá» ¡
P aul
17 1
ĠSAL E
háº ¡n
19 2
ĠNH Uáº¬N
ĠInter continental
Ġpháº ¯t
z in
ht m
B om
d aily
ĠMá »ĵ
V ingroup
Å į
ri ter
Ġ os
ol on
26 5
48 5
ĠB uÃ´ng
Ġ Æ°á»¡n
Ngá» ±c
Ġr im
ĠA ffiliate
t Ãºt
20 6
b ana
ĠV SA
G r
Ġ26 7
ic y
D Ã¡n
ĠEs tonia
r á»Ļng
) "
Má» ¡
ĠMang a
Ġd Ãºi
ig lycer
háº §u
Ġ3 88
ĠD F
Ġlá ºµng
ai g
Ġrá» §ng
ĠI de
ĠSi ro
ĠZ a
ĠPH IÃĬN
c ui
ĠÂ £
ĠIl linois
Ġs ieu
Ġkháº ¡c
li ca
gi am
ĠRá» ¬A
TH Æ¯ÆłNG
s ung
ĠMatth ew
ĠNHÃ Ĥ
Ġph p
ĠS amp
ar n
ĠK DL
Ġ50 8
il ac
Ġmá º¿u
t Ãºp
ĠK ul
01 5
th s
Ġdo llar
Į T
ine ken
ĠTh ailand
Ġl ap
Ġ3 24
ĠAs pire
ĠSiem ens
s te
19 69
ĠE thiopia
ĠCN BC
Ġg reen
Ġqu ÃŃt
SD ÄĲ
ĠÃī n
ĠTo to
ĠZ one
ĠDar win
Ġtrá» ĭch
ĠMar cus
ou ch
16 7
ĠNT D
ĠKh al
hi ll
15 3
.. ,
á »ķ
Ġná» ĭu
ia r
ĠM ing
ĠP yeong
ff y
ĠJul ia
ĠTrip Advisor
ĠChá» ĳt
Ġ^ _^
ĠBaghd ad
K Ã¬
Ġporn stars
ÂŃ ÂŃ
Ng Æ°
com real
ĠSc and
ĠT Æ°ng
Ġli en
EC D
Ġpol ymer
ĠDMC A
ĠPl ac
cel otti
to k
Ġ3 17
ĠD im
ĠTh iÃªu
ĠAc count
I B
Ġphu ong
up date
ĠSol ar
eb ec
ĠCH UYáº¾N
ĠCre a
Ġ5 25
Ġnh Ãłnh
ĠSp o
BKH CN
Ġbe nh
ĠTom my
Ġhy undai
Ġb ra
ĠW es
Ġd Æ°á»£t
vi r
pp a
Ġkinh doanh
ĠÄĲ Ä©nh
Ch uyÃª
Th Äĥng
02 1455
l Æ¡
en ch
18 6
Ġle gging
s ur
Gá º¥u
our i
R Æ¡i
ĠBÄĲ KH
ver n
ĠVI C
g há»ģ
Ġnh em
I U
cen ter
Ch uÃ´ng
Tháº £
ĠVN CB
OO D
Ġ0917 021455
28 2
ĠAN Z
Ġ64 66
O ctober
V Ã²i
Ġá» ¥
Ġ09 73
ĠTho Ã¡ng
Ġthá» §a
le g
Ġ Æ¯á»
Ġk ay
ili on
ĠNet flix
Suckho edoisong
Ġp oint
qu Ã¡n
Y amaha
ĠBa k
ĠWed ding
ĠRa chel
Ġop era
ĠYe ah
ĠM AR
l áº¡nh
press o
99 99
y en
Olymp ic
ĠDe ath
Ġcen ter
ri an
Ġf lavonoid
ĠÄĲá» ±ng
Ġ ccm
Ġ19 43
Ġe Pi
ĠCh urch
B Ã¹ng
ĠAl ber
ĠPro file
T ÃģC
Ġ09 31
ide a
Æł M
CS VN
ĠSU N
L ÄĲTÄĲ
l Ã²
ĠC yr
ĠTu vien
B oo
ĠXá» ¨
Ġ24 4
Ġh uáº¿
ĠV G
ĠRá» ĲI
. *
ĠB ry
gr aphic
K I
ĠW H
co t
19 70
Há º¥p
Ġ39 5
Ġo zone
em i
ĠInstitu te
ĠIP v
thu do
Ġte le
m ag
há» ¯u
ĠGi Ãłn
ĠBo tan
H g
n ghá»ģ
ĠSophi a
ĠMá» °C
1717 17
ĠF lip
s tore
ĠFuk u
kháº ¯c
Ġ0907 171717
tu ong
s at
T uá»³
Ġphá» ħu
ĠHo Ã¡n
ĠRob usta
r it
ĠGelex imco
ĠTr Ãºng
ĠHy o
Ġ tweet
hi ro
ĠUl timate
ĠD X
ĠD M
ĠH ur
Cá »ĳc
ĠK amp
Ġp or
Ġo xit
s el
ĠRe agan
jo ong
Ġ tuá»ĵn
cz ema
Ġ7 10
17 6
ĠU BCK
ĠV os
ĠÃ Ħ
Ġkha ch
tá º¥m
M Hz
ĠMo ore
ĠSiri us
ĠTo an
Liver pool
Ġccm n
gi tech
ĠS top
sta tion
ĠDon etsk
Nh Æ°á»£ng
º´ N
Ġp ay
ĠSá» §ng
Ġrá º¯p
ĠL if
ĠW IN
Há» ıa
elai de
ĠTh uy
Con n
ind y
ĠAn to
ĠSo lo
ĠPHÃį A
ĠngÃ² ai
d áº¡ng
ĠSan tos
yn os
ĠE Z
ĠNhÃ ³c
ĠAsh ley
ĠSá º¥y
d it
ĠB ÄĲBP
ĠTHI ÃĬ
v l
ĠCNVC LÄĲ
Ġth pt
ĠVe am
ap os
18 5
ĠOp toma
r iÃªng
ĠQL DA
29 4
Ġgam er
A udio
H ar
op mart
D B
sa ch
ĠG Äĥng
ad dy
b au
b ui
ĠG y
AS C
ĠTá» ±u
Ġd ia
end y
H acker
ĠR ES
PH IM
14 6
ĠI B
ĠCoo per
ĠB CÄĲ
Ġ19 36
ĠCook ie
ĠX uyáº¿n
01 2
ĠKiss inger
ĠDo t
ĠTHá º¦U
Ġcá»© t
ers in
ĠJe ep
ĠLop ez
ĠW ins
Ġco ol
ĠMy SQL
Ġcarot en
s Ã³ng
ĠSá º¹o
ĠhÃº p
Ġkhá» ©a
gia dinh
S il
ĠJ os
tt vn
5 20
F ONT
aa aa
w ap
ĠW u
6 88
ÄĲá »ĳt
ĠN vidia
ĠHel s
âĺħ âĺħ
ĠTHÃģ M
DI O
ĠKh Æ¡
ĠLux embourg
Ġ27 3
V AT
ĠMo zilla
ĠDá» ©t
ĠghÃ ¬
ĠWI FI
ĠHam burg
ĠK us
ĠÄĲCS TQ
Ġná» ĵm
tr Æ°á»Łng
ĠR ing
ĠCharm ington
Ġ3 36
Phi Ãªu
Ġthought s
Ġ6 05
ckho lm
tá ºŃn
Tr Æ°ng
6 30
ĠTH ANG
ĠKu wait
ĠGiá» įt
Tá º¿
Ġapp le
ĠEd it
ĠChi ld
For m
ĠGi Ã¡n
ĠD uáº«n
É ĳ
Ġng Æ°á»Ŀ
ĠB oli
ĠS ÃĤU
KhÃ ¡ng
Äĳá »ĳn
tr ip
Ġná» Ľp
ĠK IÃĬN
ĠBar bara
ĠCh er
ĠRou ter
ĠNH CSXH
Aug ust
s uáº¥t
ĠEl le
ĠX oan
ĠTor res
ĠM Æ°Æ¡
4 26
trá» ĵng
Ã¨ ve
ach u
ĠKÃĬ NH
ĠMons ter
ĠMá» ĨNH
T Ã¹ng
J une
ĠÄĲá» ¡
K ing
Ġ01 68
ĠAl li
con tent
ĠX iÃªm
ĠPark son
th ue
for ce
In tel
ĠBris bane
Má» ŀ
ĠAndre a
ĠCin ema
L á»Ļc
ĠMaster s
Ġ09 63
Ġlo tion
co un
ĠFr ac
ĠK op
ĠY uki
tis ol
Į A
ĠW imbledon
ĠDmi try
ĠJ ew
23 7
ĠQU ÃĬ
ĠKe nh
2 19
ĠB h
² NH
ĠM ÃŃt
Ġcá º·m
ĠO tto
s tel
ĠL LVT
ĠKhá» Ń
ĠXá º£y
S ep
ear ning
S Æł
g ai
ĠN PC
g Ã³c
Ġco lor
ĠhÃ ¹a
R áº¡p
ĠAir Asia
Ġpass port
Ġp ort
Tho áº¡t
bur gh
Ġ9 30
ïĤ ·
ti v
ĠG X
Tá» ĩ
ĠE TH
Ġ26 9
ĠTher esa
! ,
ĠTitan ic
ĠF PS
Ġnhá» Ń
ĠSa to
ĠTuy Ãª
ĠSen se
k t
ĠCá º¦M
pe ed
n inh
ĠO zil
Ġdá º·c
Ġxo e
K araoke
vi val
ano v
TT M
Ġ cv
ĠCoup e
Ġz á
» ľ
ChÃ¡ o
28 5
ĠCá» ĶNG
S ec
ĠM et
tail ieu
BAN K
ĠBá »ĳt
Ng Ãµ
thÃ ´n
ĠÄĳáº ©u
it le
Ġ6 10
ĠHá º£
ĠG AN
ĠChá» Ń
K eo
ĠLang uage
ĠLÃĥ M
ĠBá ºłI
ĠB Ãģ
Ġkáº¿ ch
ĠTHá» ľ
19 67
á »ľ
Ġtr Ã¹n
Ġhal ogen
Ġb ÃŃnh
ĠC ustom
ĠLim ousine
ĠSophi e
Ġr ai
ĠCá» ľ
ip zig
l Ã£o
F in
ĠBI OS
ĠWar ri
ĠH XH
ĠHai ti
Ġvat gia
23 8
y ama
ad on
ĠB uild
ĠV áº¡c
ĠsÃ´ cÃ´la
Ġm Ãµm
ĠSá» ıi
ĠP ix
orde aux
ĠJe ans
Ġquá» Ł
ĠB UI
ĠY H
ĠPok Ã©mon
ïĤ §
ĠRob o
ur as
ĠBá» ıng
Ġcar b
ey ser
ĠB Uá»ĶI
Ġ? .
ĠCare er
c Ã¹m
Ġvá» £i
ĠD oll
ĠDV B
4 90
19 80
24 6
ĠC ris
ĠFlor a
S ay
Ġ ul
m and
Ġ28 4
ĠCHá»Ĭ U
» įc
P RO
V KS
ĠT CP
ĠHind u
CL OS
ĠCoun try
Ġ tÃºp
ter n
b lock
ĠCatal onia
ĠAs cent
ĠCar lo
bur ger
F LC
under land
ĠA sa
ĠJaco b
ĠG iáº¿ng
ĠS ÃĵNG
ĠComm and
22 6
ĠTR E
Ng Ã¢m
29 5
ĠÂ ĵ
z alo
ĠN ode
to ck
ĠCai ro
ĠEs tella
Ã¡ Âº
2 15
ĠGr ace
de f
Ġ5 99
Ġtr Ã©t
ĠRiver view
Ġru Ã´
ĠS AR
ĠS Ã´i
n ar
ch em
ĠRen ault
18 2
Ġ3 34
ĠbÃŃ m
ĠM TP
ĠCH QS
Ġx um
forman ce
ĠAn celotti
4 40
ãĢ į
Ġg oi
Ġmicro phone
ĠDrop box
ĠOli ver
ĠWE F
ĠNam i
t ney
B TTT
Ġ22 00
ĠKá» ģ
19 50
Ġrá» ģn
M Ã¢y
á »įc
Ġ4 01
ĠH ao
ĠFul bright
ĠÄĲá» ¢T
is k
ĠED M
ĠSh adow
p Ã´
ĠM FC
Ġr ob
ĠhÃ ¢u
PhÃ ¹ng
ĠCQ ÄĲT
ĠN X
ĠCl ar
Ġquá» ĩt
ĠGe Force
ĠBá»ī m
ĠToe ic
L ine
ĠMil k
ĠÄĲo Ã²ng
Ġxáº»n g
# #
B us
m os
ĠTin taynguyen
Ġdi e
ĠQL TT
ta te
ĠL ui
M Ã¬
ĠM AS
c ie
li en
á»Ĳ c
M uÃ´n
Ġgiá º¯c
cÆ¡ m
Ġli thium
ĠCop a
Ġqu Ã¡nh
ha bi
ĠEx ynos
ĠF on
n áº¡n
ãĢ ĳ
ĠT v
Ġ7 33
g Ã³p
m Ãły
yl ic
SK ÄĲS
nh i
ĠB eng
ĠDe cor
M F
X Ã´ng
ushi on
oo f
do i
dá ºŃy
hÃ ´n
Ġkháº£ nh
ĠH ey
ĠH ana
Ġ cÃ¹m
s tyle
ĠTa eyeon
er r
Ġmá º§n
ĠD Ã£y
ĠT ÃŃt
Ġ25 9
b ad
ĠV Å¨NG
ĠBin ance
s ell
Lá º·ng
ĠQuá º§y
Ġr ank
ĠSE X
ming ham
ĠH AC
m od
Ġph uy
L Ã´i
Ġbá» £m
nong nghiep
ĠSiber ia
22 8
ĠVi va
de hy
ĠÄĳ Æ¡m
Ġke nh
Ġ5 35
ĠSho pping
Ġoffice tel
d l
t áº¡nh
x on
ĠT ec
Äĳ Ã¡m
ĠN Ãī
Ġ25 1
Ġh s
ĠGP RS
Giadinh Net
ĠCong o
3 40
S Ã¢m
3 99
ĠF ix
ĠTai wan
% );
khÃ¡ m
Cá º¢NH
âĸ Ī
GIá º¤Y
ĠCap e
Ġb Ãªu
28 4
ĠGIá» İI
Ġk en
Ġ táº¡nh
ĠIn dia
j ero
Ġban king
à ¹
ĠHo ri
la in
o ton
z el
Ġd Ã´i
17 7
ĠQL VNCH
ĠVene er
bá º¿p
Uá» ĺT
ĠDoug las
ĠVS IP
Ġven eer
ĠÄĲ AI
k it
Tá º£o
ĠL Ãį
ĠINTER NET
ĠV J
ĠK háº¿
ANO I
á º¿
ĠQ TV
" (
ĠH Ã´i
Ġ09 64
ĠN elson
HAMIVI EXPRESS
22 1
Ġná» ĩ
ĠL EG
ed o
X Ãĥ
ĠSá»Ĳ C
Ġvac xin
ĠR Ã¢u
ut s
Gá» Łi
ĠBac carat
M el
ĠTravel us
ig ame
For um
22 9
ĠCr uz
jec ts
tu d
Ð ¸
ĠWat son
5 10
ty l
ĠRafa el
r n
ĠÄ ĥ
ĠLis bon
ĠB elle
09 8
ĠCa bin
ĠB s
ĠKa th
Ġfol ate
ĠC NH
ĠX Æ¯á»ŀNG
Ġop en
ĠC Uá»ĲN
! âĢĻ
ĠTH Æ¯á»¢NG
ĠGÄĲ PT
h au
ĠK w
iá» ĳt
ĠG ay
Ġvá» ĥ
Ġeng ine
Ġp lan
pháº «u
Ġl in
Ġth uá»ĵng
k Ãªu
ĠKHá» ĲI
Th uy
ĠÄĲá »ĳn
ac tion
l uck
ĠKH ANG
ĠÃł h
ĠLav rov
ĠPen ang
ĠS tress
ĠÃ´ liu
Ġl uat
ch oi
ĠhÃ¨ m
L ÃŃnh
ĠWar ner
ĠSu nhouse
x ia
ĠCh un
ĠCHÃ ĵ
asu ke
ĠNhá» ĩn
háº ¹n
ĠB ik
ĠG U
Y S
w ikipedia
19 85
23 9
Bra zil
Tr e
ĠGi r
67 9
ĠHuyn dai
h inh
An gel
Ġs Ã¡i
ĠA vila
w art
ta ra
Ġd Äĥ
ĠT Uá»Ĩ
ĠHen ri
ig ar
ĠD ÃĢY
cá» ¥c
tá »ĳc
. ?
: âľħ
Ġcar am
ĠVá ºłN
ĠKH KT
ĠVI EW
ĠEx po
ĠBV MT
h and
Ġd im
rio tt
Ġ0 01
ĠN P
F DA
ĠV ime
Cháº ·ng
ĠHong Kong
Ġvá º¥y
Ġtr on
Ġx uá»ĥ
.[ /
l Ã¢u
ĠLew is
ĠRio t
Ġm id
ĠR B
ĠSeb as
ĠHer mi
Ġ6 90
Ġf ly
ĠE lly
ĠU X
ĠDo ve
ace ae
Mar ch
An d
Ġv ector
TH O
D Ã¬
ĠV Ã²i
H E
Dan lambao
cc ess
á»¦ n
ĠPháº ¡n
ĠKÃī O
g un
Ġthá» įc
ĠW P
ak es
Tr o
ĠT Ãļ
ĠLe ipzig
ĠTháº ¯t
ĠGram my
Ġ19 37
Ġch Ãłnh
de au
ĠL ÃĶNG
ĠGP LX
us trator
ĠCHá» ¤P
ĠGarden ia
ĠI mm
l iá»ģu
KHÃģ M
en ne
ĠR oom
ĠC Ãºng
ĠArsen e
il d
ĠL Iá»ĨT
m t
ak y
ĠKle in
Ġlá» ĭnh
ida e
ĠC ul
ĠSK Y
Ġad apter
ic ar
Ġká» ĭt
thÃª u
ĠQu Ã©t
KhÃ ´
ĠKar o
Ġkh Æ°u
ĠDu cati
V E
p ass
ĠchÃ ©t
ĠBru ce
W ill
Ġb allad
f ica
ĠCal vin
pp on
ĠUn ilever
ĠBB T
Ġï ģ
ĠSto ckholm
S tudio
Ġf ic
ĠĠ ĠĠ
ĠSam Sung
Ġ4 88
Ġná º±ng
L aren
ĠL Æ°á»¡ng
ĠNan cy
ĠÄĳu Ã´
ers field
ĠUB KT
Ġp al
ĠYo nhap
ĠBern ard
ĠBil bao
Xá º£
VI EW
ĠVá ºº
ĠEng land
ĠW ong
ĠAn land
Ġ30 7
3 45
ĠAus tin
ĠnhÆ° Æ¡
Ġ09 84
Ġpl astic
v ov
Ġ cui
Ġlá» ©c
á»¦n g
Ġgi Äĥ
ĠW y
ĠG ÃĢ
ĠAng ola
u f
ĠP osted
ĠKHÃ ļC
ĠMax im
ĠFr amework
ĠNik kei
7 89
ĠVietnam ese
Ġhu Ã½t
W ashington
ĠCas e
ĠVá» ¢
m ir
Ġtrá» Ŀ
ĠMa ha
en ta
ĠSum mit
Ġsho ot
ao c
ĠR ush
ck ing
ĠEner gy
categor ized
Ġb ased
B ro
Ġv ao
Ġá» Ľ
ĠSe an
ĠG há»ģ
ĠAuto matic
M itsubishi
ĠSe ag
Ġx Æ°Æ¡
ĠLo ui
Ġ23 7
ĠMary land
Ġv iá»ĥn
T Ãłn
AD E
ĠVietnam net
tá» Ľ
ĠNg Æ°á»¡ng
ĠL PG
Ġx sm
ĠN au
BVHTT DL
ins k
ÄĲá ºŃp
ĠCAN ADA
ĠSpe aking
H OA
l uyá»ĩn
li cation
Ġback ground
cop ene
ĠM Hz
Ġh ash
ĠC AR
Ġm r
ch uyáº¿n
Ġ8 70
ĠZ an
º® c
ĠKHá» İI
Cá» ±
Ġm s
D Ãłi
* ,
ĠRes et
5 70
Ġo Äĥm
Ġg et
17 4
!! !!!
ĠG á»Ļi
ÄĲá º³ng
ĠH us
C ode
E le
ĠC Äĥm
M os
ĠK TV
ÄĲ akao
00 5
ti vo
Ho use
19 76
ne ider
ĠM ug
ĠK I
Y OTA
ov en
nu oc
B uÃ´ng
Ġthu ong
bur n
Ġl Ã©t
an on
Ġi b
Ġ8 45
SE M
ar s
cáº¡ nh
ĠLinked In
ĠGi Ã£
Ġb Æ°Æ¡n
g áº¡ch
G u
Cá» ¬A
b uá»ķi
ĠT ol
Ġcen tral
15 00
TB TCO
K a
h ail
98 1
ĠAF S
ĠM Ã£nh
ĠW o
ĠN PK
Ġm ass
Ġe va
ĠLex ington
ĠM WC
ik achu
19 55
el ing
Ġ er
d im
Ġ3 21
Má º£nh
ĠCr ack
ĠAs p
ĠWal t
Ġk iá»ģng
ĠU cra
ĠF ont
ĠY ale
usse in
ĠG C
19 48
ĠÄĲ ÃįCH
N ick
âĢ¦âĢ¦ âĢ¦
v isa
ĠK Ã©t
ĠTHÃ Ĥ
ĠP ence
ĠA ud
Ġn m
" >
khoa hoc
25 8
ĠIN OX
F ran
ĠGen Ã¨ve
ĠId lib
Ġn eon
ed om
ĠEd ison
ed s
ĠX Ã¢m
L in
I t
Ġcarot ene
ĠN BC
ĠNat ural
han na
ui l
3 90
Can on
ox in
ĠFr esh
ĠRá º¯c
ĠC AI
ĠFut sal
ai a
ĠM ine
ĠJ al
id ge
ĠPH O
Ġ- ----
tr Ãºc
X Ã³t
li o
Ġs x
ĠBil ly
Iá»Ħ M
iz z
Ġ36 4
ĠAd elaide
ĠÄĲ Ãłnh
ĠNa than
TB T
ná» Ĺi
ĠPer th
Ġquá º¯t
ĠG uy
ĠBrow ser
ĠH TTP
? :
H Ãª
00 3
ĠS Ãºc
Ġ09 74
c lor
en te
ĠAj ax
ĠR etail
38 6
ĠGI F
r il
ĠTá» ıa
d em
ĠC um
Ġ3 18
ic ense
m el
thá» £
ĠCa talogue
D ay
Ġbo ard
ĠVog ue
ĠHÄĲ LÄĲ
Ġgi Ã³ng
ĠBiz web
ĠS underland
Q aeda
Ġtrá º½n
ĠVIE TT
A lo
k us
Ġngá» ¥t
m Æ°a
om on
Ġti eng
mp ho
ap est
ĠO an
ĠGIÃģ NG
Ġtr Ã¡c
ĠAr men
le ase
ON IC
ĠCA TP
ĠthÆ° c
ĠIP L
ĠX ÃģCH
j k
im et
tr ÃŃch
ac in
Tr á»Ļm
ĠF ootball
ĠShow biz
Ġchá» ¥m
id ent
FI FA
ĠS ona
ĠFin ance
y er
ĠTr Æ°
ĠM L
Ġ20 35
B Iá»ĨT
ÄĲ Ä©a
ĠBa ker
Ġca t
ĠTR ÃģNH
Ġ38 4
ĠSeas ons
S MS
ĠU BM
ĠA AG
Ġrá» ¥m
Sá º¿p
Giá» įt
ĠE VA
ĠL ook
Ġbá»ĳn g
Tá» °
Ch Ãł
Äĳá »Ļt
er ts
Ġbá º±m
ĠEnter prise
ĠJ otun
44 4
K VA
ĠDO C
ĠInter Continental
5 60
mi um
Ġnet work
Ġng Ã¹n
Ġvá» ¹
mp ic
ĠChÃ ©n
âĺ ĳ
Ġ1900 6
ĠKe ppel
H U
ĠVin son
ĠDol by
Ġorgan ic
l s
let on
g ab
KH I
30 6
ĠNN PTNT
dá» Ł
ĠC CHC
Ġnghi ep
ARD EN
thro at
and om
ĠBir mingham
Ġgá »Ļt
R i
Ġrá» ĩp
M ourinho
Ġ10 50
tim edia
lo ca
P oly
ams ao
la zer
Tr ai
fer ence
ĠSanti ago
B it
Ġsy stem
Th iá»ĩt
ĠS leep
TB KTSG
01 8
R T
n ai
z ania
Ġgolf er
ĠMO D
ĠAg ency
ĠOptim us
ná »ĳi
us hu
º¸ O
20 9
ĠFrac tional
Ġd ua
ThÃº y
ĠPo lo
y Ãªn
k eo
Ġ28 1
ĠHo sp
ri viet
Ġ3 39
ĠTok en
Ġbá º¥n
Æ°á»£ p
Ġnháº ©y
ĠXá º£o
S W
: *
ĠSH TT
ĠSer ena
K Ã©t
ĠSo ci
. _
old id
KH HGÄĲ
ati e
ĠAle ppo
ĠMel ania
ĠCO M
e a
Ġná» ı
Ġga to
âĢ¦ (
word press
ĠHá»ĺ P
ĠT GM
ĠN E
ĠH AN
eb ack
UR E
ĠMar riott
ard y
ĠWOR LD
ĠR Ãķ
ĠMal i
ut ch
di em
88 0
ĠAlex a
Ġâī ¥
ĠTá º®M
ĠCHá» ĴNG
Ġá» ļt
Ġ æ
ĠTR U
F B
ĠAlexand re
ĠBook marks
hen ko
Ġsay s
Lo ck
Au di
á ¹
Ġd pi
ĠGr aphics
Ġvi ec
ĠG and
ĠDo ta
30 5
ĠM AN
c il
ĠHotel s
s uit
ĠB oom
Ġskin ny
ĠÃģ C
udd ersfield
Ġback drop
ĠCar ol
y eon
pon sive
ĠC G
ĠGold man
in sula
ĠGI ÃĢU
y ad
Ġl Ã¬m
Ġvá» Ŀn
ĠC ass
26 9
ĠCap tain
Ġelec trolux
Ġr emix
ĠGre y
ĠSá º®P
ĠKh uyÃª
Ġdeb ut
ĠNgh iá»ĩn
ch on
35 5
f il
Ġs lim
ĠTr Äĥn
mar keting
M at
y te
xá º¿p
DO C
; ...
el sen
ĠBI G
Ç İ
ĠHe ineken
Ġthu Ã´n
! '
Ġb ob
Ho Ãł
Ġj ailbreak
CHá º¤T
le ans
19 4
ĠH ond
oton in
24 2
Ġ27 6
ĠLin da
: (
ĠC ÃĢI
K W
Ġrá º±n
ĠGeo graphic
Ġvideo s
ĠB um
ro ll
k aku
Ġlá º±ng
co ok
OL ET
Th ung
Ġmac ro
Ġi Co
ĠD Æ°Æ¡
ĠF TP
ak ers
ãĢ Į
Ġlo ai
Ġbá º¥u
th ane
ĠRiver a
Ġmas k
ĠRegis try
Ġgá º±n
Ġa er
ĠS Ãłng
ĠF en
US A
ann el
Ġ6 06
ĠUá º©n
ĠBr uy
Äĳ em
LÃªn in
ĠCarib bean
? _
Ġf eed
kho an
Ġmat cha
i ter
Ġs at
k W
Tá º¤T
D Y
ÄĲá» ı
ĠMe tal
ĠSter ling
ĠBG K
Ġvo tes
Ġ8 80
ĠN im
ĠKind le
Ġthá» «
ĠPHÃ ĵ
ĠGran t
ber ra
l ua
Ġ19 29
GIá» ľ
ĠShang hai
18 3
ĠO EM
Ġh onda
wa ter
24 5
ĠPa jero
ĠTrá» į
ĠPh iá»ģn
ce p
king s
ĠLos s
ĠT Iá»ĦN
ĠM IT
li te
° U
Ġdata base
tr ee
ch amp
Ag ribank
ĠD oo
xá» ©
d el
! ",
Ġcm t
ĠWel lington
ĠKÃĪ M
K iáº¿p
ĠDur ex
ĠAlban ia
Ãģ c
Ġv Ã©o
23 1
ĠS Ãºp
Kh en
Tá ºłP
Ġm Ã¢n
sto ck
ĠFri ed
ĠMan uel
ĠG row
má º¹o
ĠHolland e
igh ter
b Ã¹ng
ĠM oo
E s
t b
S ale
TH Uá»ĲC
CH UYá»ĤN
ĠD habi
ĠBo ys
ĠN Ãĵ
BI LE
Tr ail
ĠCon cept
Te k
ĠDis trict
h uyá»ģn
ore a
ĠY ersin
n Ãºt
ĠG az
er ox
ĠKap lan
Ġá º¨N
vel t
ĠYoko hama
Ġtr c
ĠCap i
Chinh phu
Tr ailer
ĠN ÃĥO
ĠDora emon
b ep
Äĳá º£ng
c ro
ago ya
ni val
Ġ. -
Ġ tn
ĠRap tor
ĠR ab
com p
L INH
Ġ4 35
g re
ĠCHÃ Ļ
S yria
ĠM ED
ĠMor ris
ĠM RI
ĠSuz y
X Ãł
24 4
ad ep
Äĳ Ã¬nh
ĠVN A
ĠCh in
ĠI vy
Ġ40 5
ĠU TC
T Iá»ĤU
ĠÄĲ TM
elan cer
Sá ºŃp
ĠH ussein
Ġso Ã¡n
Ġ8 40
Ġch lor
Ġ4 45
ĠR ic
19 78
Suc Khoe
19 64
ĠTh is
Ġcaffe in
S uá»ĳi
V M
Ġp y
L og
ĠAtlan tic
ĠTr Ã¹
ĠTer ra
N Æ¯á»ļC
ĠF und
ĠLá »ĳp
ĠGh ana
d ap
ĠChrist mas
ĠV Iá»
ff in
s so
ck land
pháº ©m
nolog y
Ġ5 15
D ai
ĠPav ilion
ĠC Æ¯á»ľI
Ġho ocm
Ġblog spot
ĠÄĳo m
W ap
Ġval entine
ĠH Ã¬
ĠMid u
ĠNH IÃĬU
ĠBá ºłCH
Ġ29 4
19 3
ox ana
ou lette
ĠT Ã¡ch
B TP
ĠB ordeaux
Ġf ire
Ġ50 5
fr ame
Ġs apa
n Ãło
ĠP ig
Ġpro ject
ĠVers ace
ÃŃ c
ÄĲ Ã¢
Ġcáº¡ y
C or
c ang
ĠPu erto
v ung
S iáº¿t
cháº ¡m
ĠWhats App
ĠPhá» ©c
ĠPh e
S Ãºng
e co
Ph ap
ĠN BA
ĠTr ail
Ġ09 45
ï ģ
it te
ĠðŁ Į
ĠAt ta
R Ã²
ĠÄĲH ÄĲCÄĲ
ĠG AM
ĠNá º¤U
h Ãł
ch or
ĠHá» ħ
lin d
ĠTru deau
02 5
ĠÃ ©n
Ġlá» ¥ng
Ġlá º¥t
ĠS ed
Ġg host
ĠTr ading
ĠIn fo
33 9
Há» ĵn
is sion
Ġ26 3
ĠS ushi
-- >
Ġâĺ İ
ch ay
Ġn áº¡m
ĠG yeong
ĠFort une
Ġ %.
Ho w
t uá»·
ĠAir line
ĠS ee
le ic
Ġg Ã´ng
Ġgá» «
ĠKHO ÃģN
ĠS ti
ĠRac ing
CHá º¾
ĠDá »ĳc
Æ¯á»¢ U
Ġe thanol
ĠLam inate
ĠCH Iáº¾C
Ġá»¦ NG
Ġpro gester
ĠH uyá»ħn
) !
Gi Ã¢
Ġcal ories
ĠK ub
ĠKH Iá»ĤN
Ġp u
R M
Ġthá»§ i
Ġbe auty
L ed
eo l
Ã¨ re
ĠBou tique
ii ii
ĠB ÃĢO
Ġo unce
qu est
sá º¯c
s ar
ĠTrá »ĳn
Ġmá »Ļi
ĠTÃª rÃª
ff le
ĠJ elly
ĠChamp a
ĠBan ner
ĠBor is
âĶĢ âĶĢ
TS C
s um
v oi
ĠL L
ĠS J
vá º½
ĠHo st
ĠC ast
ĠR Ãło
Ġ tuá»·
Ġmar athon
Ġh Ä©nh
Th anks
ĠC J
bio tic
ĠR ag
enh agen
H iáº¿m
Ġtu an
ĠA zer
ĠC era
tri ke
Ġháº ¯ng
ĠLo zi
Tr Äĥm
Ġb Ãºng
ag as
ĠL una
Xá» ©
ĠBro s
Ar t
Por tal
giá ºŃt
2 75
a wa
r ine
ch Äĥn
ĠÄĲo áº¡t
18 7
s ol
ĠPas cal
ĠD ick
ĠF lex
ĠJ us
is sa
PhÃ ¢
ĠK ov
n gan
ĠMod ern
U ZU
Ġdá º©n
Ġan ten
ir th
Ġ5 32
19 81
Âº C
ĠDes igner
d áº¡
ĠM ONG
ĠTHá ºłC
18 4
ĠK BS
28 9
Tá» ¥i
Ġj azz
ĠAssis tant
er ic
ĠXá» īu
Ġ7 37
ĠMag n
ĠJ oomla
ĠTae k
ĠBruy ne
Tá º¬P
SE P
h eo
vá» ¡
ĠHond uras
x Ã©t
Ð µ
og lo
Ġ19 31
Chi Ãª
Ġ25 3
B ÃĢN
he y
ĠTháº ³ng
Ġ17 00
P ass
Ġb ida
Ġre tro
G Ã¬
Cafe Land
ĠCá º¬N
ĠKi en
ar real
Ġ09 67
ĠPed ro
ers onal
duc t
ĠLau ren
ĠSo ha
Ġbook ing
ĠP á
ĠPap ua
Ġ09 76
ĠL AND
Äĳá º©y
ier ra
ĠTu lip
ta dor
Chá» Ľ
H iá»ģn
k un
to sterone
ĠHar per
bá» įn
b uá»ĵn
u tes
á»¦ Y
ĠL Äĥn
Ġvi e
ĠTr Ã´i
job a
ĠBUI LDING
Ġr on
ĠBV ÄĲK
ĠTR AVEL
es te
iz on
Ġba t
b Ã³c
Ċ Ċ
ĠLu ther
Ġ" ...
ĠDevelop ment
K ÃŃ
ĠSo Ã¡t
kháº ©u
giá º¥c
ĠB Ã¢
lu or
ĠCM CN
xay dung
19 84
Ń Ĳ
apon in
28 6
30 2
b ic
Ġac tive
tur es
ĠQu ebec
ĠR im
ĠSher aton
Ġs it
ĠMi ra
n t
For ex
B Ã©o
ĠR osa
ĠNHÃ ĥ
ĠCo le
ĠXS MB
to u
ĠD ash
ĠJane iro
Ġxá» ¥p
Ġkho Ã©
ĠCá º¥y
Ġ34 9
van te
lo i
ĠVN M
Ġp ri
RO M
Ġl ie
Ġw ill
ĠK end
ĠÄĳ Ã¬
ĠLe arning
asp x
ĠSO ÃģT
ĠH uddersfield
su ckhoe
Ġ ct
ho l
Má» įc
Ġd Ãµng
ĠA Q
25 9
ĠMillenn ium
66 7
ĠEB D
ĠMar athon
G rab
ĠK uro
Ġkay ak
ĠQua rtz
k ai
á º©n
Ġn en
.. !
ĠNghÃ ¨
p ur
Cas ino
ĠnhÃ© o
ĠBack up
Ġmá»Ł n
lo a
ri pal
Ng on
++ +
K Ãªu
ĠL AM
Ġbox ing
Ġ3 13
ĠKon tum
h j
Ġbá» ±a
Ġw ed
Ġweb game
há» ĵng
ĠL uyáº¿n
ĠngÆ° Ã²i
ĠUBM TTQ
L K
ld er
ĠD ÃģNG
ĠO F
ĠB ÆłM
ĠE do
ĠTHá» ªA
ĠJu lie
gg s
ĠPr ice
ĠRep ublic
ia h
ĠK iá»ģn
Ġ37 1
B ÃģC
ĠB uá»ĵm
ĠPa tr
ĠM ull
Ġ09 48
ĠAu ckland
Ġg ala
ĠStor m
f ig
89 5
ĠN I
ĠMo venpick
ĠC BS
ĠX Ã´i
ĠOr leans
Ġg Ã¡
chá» Ŀ
vanh oa
ĠCHá º¨N
Ġhigh light
ĠY eu
ĠZi ppo
tro it
Ġgio Äĥng
ĠMich elin
is te
ĠY ak
Äĳá» ¥ng
ĠV ape
re a
Ġbaonnvn ts
Ġ09 71
ĠCL ICK
J un
ĠEl ement
30 3
Ġbá» §n
ĠSom alia
s am
Han oi
ĠNa vi
S ÃĢN
ta k
IA L
ĠMiss ouri
ĠMur ad
ĠT Ã¨o
ĠBal tic
tháº¥ p
ĠAn alog
lo ss
ĠG ARDEN
ĠI CC
Ġha ha
thá» «a
Ġl Ã³i
ĠSpo tify
Ġh ard
5 01
Ġng Ã¡i
19 00
at form
TR ONG
ĠB es
2 13
ĠChall enge
U kra
Ġ3 28
Ġá» ĲNG
ĠOn ly
ĠPrin cess
Ġv uá»Ļt
ĠKHÃ Ķ
ĠMir anda
Ġ7 89
ĠAl fred
w s
ĠGun ny
ov inam
ĠNe il
A li
ag le
ent ment
any ahu
QU ÃĢ
Ġtu ong
ĠD ELL
ĠPer sie
ch et
âĢĿ ),
ÄĲ iÃªu
ĠLien VietPostBank
ĠArmen ia
A mer
p ard
ĠJ S
Ġ19 33
vis align
oth y
to c
ĠLá» ģ
ĠRes entment
ĠS ÃĢNG
Ġ36 6
Cháº ¡m
ĠB uck
se velt
phá» §
ĠMed i
ed ad
Ser um
Dec ember
g art
Ná» ĩm
Ġp vc
Ngá» «ng
ĠðŁ İ
ĠE ly
V FF
ver s
ĠBrook lyn
ĠK TT
si eu
ĠCard iff
N XB
Ġama zon
B Ãły
ĠH ag
Ġn uá»Ľc
Ġmat xa
t uá»µ
ĠC ÃĤ
ĠK ÃŃn
ĠFai ry
H AI
nh ac
Ġs tory
Ġ7 90
Ġf ood
Ġs ÃŃnh
P re
cháº £y
ti zen
Inter national
ĠWeb Site
com a
ĠHo i
AL A
ic in
g ara
ĠGI ÃĢY
!!!! !!!!
L aser
OR PG
ĠSá º´N
Ġ ub
am ide
Ġmar ket
dan ang
ĠO NG
tr ex
) [
Ġ tuá»µ
ĠNá» ¢
t witter
Ġal u
y al
ĠE yes
z h
C Q
24 8
ĠPlan et
, âĢľ
nh au
one er
ĠthÃ ²ng
ang aroo
ĠS ime
» £c
á »£c
est au
Ġlá º£nh
ĠBoli via
ĠH ass
ĠMar ine
... ",
ĠSk ripal
k n
ch ame
K R
ĠK il
ĠC ÃĢNG
Ġph ang
Ġba ht
G N
ĠSam urai
T Tr
Ġg all
ĠM Æ°Æ¡i
com in
ĠD Iá»ĨT
má» Ŀi
Dou ble
ĠMc K
Ġtu oi
ĠSex y
ĠUcra ina
ĠV K
ĠBá» ŀI
ĠSta tion
29 8
qui d
B Æ°Æ¡
K Iá»ĤM
ĠCO MP
ĠNet anyahu
ĠÃĲá» ĥ
27 9
Gi Ã¢y
Ngá» ¥y
ar io
A p
K enh
ĠCÄĲ CS
ĠK iá»ĥng
Äĳá ºŃp
T v
ĠK ag
ĠSAI GON
ThÃ¹ y
ĠDev il
ĠÃ °
ER T
ĠM iley
ĠVi olet
QU ÃĿ
ĠU I
ĠTr Æ°á»£t
ĠTr ack
ĠDi ch
âĸ ¶
ĠProper ties
X I
N on
to uch
.... "
ari ta
ET A
ĠHO ME
ĠPr ide
tra com
Ġ8 08
ĠM ÃģT
ĠHo pe
ĠRe cor
4 32
ĠKa ty
ĠCC TV
B ÃŃch
tim et
ĠPH U
Ho áº¯c
,âĢ¦ ).
ĠBr asil
Ġkhu Ã¢y
ĠV AR
Ag riviet
CH UNG
Ġ0 888
01 9
Ìģ ?
Ġl upus
ĠR ice
be e
C PTPP
Ġ( ?)
ĠH ud
ven ia
ĠD Ã¢ng
ĠViet build
k ar
ĠVá» Ł
ĠF agor
thÃ º
ĠSá ºŃp
Cá º¬P
c end
Má» ķ
Ġcal ci
ĠTag ged
há» ĵn
hi en
ĠSo le
t ender
e te
dep end
Ġm n
19 18
â ķ
ĠAr k
Vic toria
ĠB Ã¬a
l Ãłng
w ick
ill ac
b iÃªn
ĠC andy
ĠPV D
ĠK iÃªm
ĠÄĲá »ĳ
ĠSw iss
Ġ4 75
ĠN agoya
Ġs witch
Ìī ?
A v
ĠcÃ¢ p
ĠAN TV
" ).
Ġto áº¡c
ĠNá º®NG
19 66
ĠE PC
Ġr Ãºm
ĠThi et
Ġgl uten
ĠNG ÃĶ
d Æ°Æ¡ng
onia c
ĠM ÃŃa
Ġse al
ĠOcean bank
Vá º¬N
ĠV ung
Ġht ml
Ġl Ãºp
lan e
b ass
ĠPV F
ĠS lide
na h
Äĳ Ã²i
ĠS edan
ĠNh uá»ĩ
ĠFuku oka
Ġ30 9
Ġsá»Ŀ n
l Ã¢m
Ġcoup e
T ia
ĠS lot
nes ota
ĠChap ter
01 6
ĠNi elsen
ĠIntel lig
vi vu
fe le
19 31
ĠC Æ¯á»¢C
au to
ĠDu b
ĠSo Ã¡i
Dá» ©t
ĠEm ery
ĠT at
Ġrá» į
ĠNG Ãķ
Ġdá º¿n
ĠÄĲT VN
30 8
ĠMag azine
S uz
Lá» Ńa
ĠHermi one
ĠS cu
ĠHá»Ĵ N
ĠÄĳá ºŃt
ĠHy aluronic
ĠGui de
ĠQua d
Ġl Ã©m
ĠVi OLET
ĠYing luck
chÃ ©m
S ch
Cate gory
Ġcor tisol
Ġngo i
ĠBá» ĺT
kh ut
ĠNu tri
ĠKar en
Ġw idget
S n
ĠG Ã¡c
Hos ting
ĠBlog SucKhoe
ĠW ai
ĠCapi tol
haw k
Ġ23 72
ĠNav ara
Â ķ
ĠWal mart
Ġmal ware
Ġy ear
B Y
ĠSol id
n iá»ģm
ĠM Ã¹ng
AN S
Ġk V
da ta
ĠDi p
ĠLo gitech
ĠIn iesta
Ġth g
S IÃĬU
Ġkh Ãł
H ub
Bá» ĩ
ic ylic
ĠFranco is
ĠMo yes
ĠC AT
r ar
Ġti tle
ĠR ss
25 2
ĠChi vas
Ġch ar
Ġ40 3
Ná º¾U
ĠCop enhagen
Lo áº¡n
Ġgi Æ°Æ¡
ĠChol esterol
ĠEco sport
tr abook
ĠSa hara
ĠC lay
Ġr Ã©n
ĠTrá º«m
ĠTá º¥u
ĠNH Iá»ĦM
ĠMá» ł
H K
tr oulette
tour s
Ġháº ¿ch
tam a
or ie
Ġl iá»ĩn
ĠC ÃļC
ãħ ĭ
pts hop
ĠLá º¥p
Cá º¨M
Ġtháº £ng
ĠGIá º¤C
bai jan
ĠH UYá»ĢN
ĠG eyser
r ong
sa w
ngh Ä©
d h
ĠG ara
ĠKH ÄĤN
Ġs ticker
e ah
ĠS id
br and
8 10
ĠB am
C Æ°á»Ľi
ĠC ÃĶN
Ġtin bds
ĠN AS
L ight
Ġsmart watch
ĠPar ag
ok emon
ing ay
6 10
Ġf t
ĠDynam ic
ĠRich mond
TC ARE
Ġbá º«m
ĠV áº¡ch
ĠDoc bao
ĠCon verter
N Ã³n
h el
ĠI A
Ġpháº £m
( *
ĠSoo bin
ĠL ÃļC
Ġphá» Ŀ
ĠV pop
4 60
ĠTr iton
Ġi M
R AM
ĠA ch
Ġso ur
Ġ3 14
pháº ¡m
H igh
si um
ĠShang ri
ac ca
ĠStudi os
Ġb eo
is en
lo or
nh iÃªn
Ġtu Ãª
ĠAs en
ĠMad uro
Ġs Ã¬nh
In fo
Ġas en
ĠRich ter
Gi Ãłu
ĠcháºŃ c
[ *]
p ack
ĠK ÃĬU
Ġv áº¡c
ĠV ali
h ack
ĠR oi
00 6
ĠW riting
ĠVá º¢I
d ic
Ã §
Ġr Ã³n
M H
ĠCr uiser
Ġth read
v re
to o
Ġl uá»µ
ĠRes tore
ĠG ordon
ĠTháº §m
Â» .
t Ä©u
amil a
BO X
ĠAr c
Ġp ur
ĠRho des
xá» ĭn
Ġ tÄ©u
88 6
N ATO
Ġ27 7
ĠrÃ¢ t
Ġ3 32
68 9
2 16
ĠH CB
ĠVN N
G XN
ĠSing le
ed ine
ar ov
Ġ tw
go c
ĠSoci edad
ĠJung kook
ĠCop ac
k ule
ĠBol ton
ĠF le
Ġso und
D ÃĢNH
ĠTh s
Ġ ce
ĠDan i
M Ã³ng
ĠHels inki
is ao
ĠMc Laren
ĠB Ã¡u
UND AI
SHO P
bá º¯n
d ale
Dá º§n
ĠH Ã¢
Ġx Ã¬nh
ĠNap ol
ĠÄĲá ºłP
Ġ5 45
hÃ¡ t
á »ĳng
c Ãłu
ĠV EC
ĠKHá º¢
ĠLives how
27 7
V Ãłnh
ĠVill arreal
Ġtr iglycer
Ġd iÃªu
de le
ĠB old
av is
ĠMer c
Ġxá»ĩ ch
ĠF ake
ĠRoo sevelt
ach er
Ġ24 00
tor ial
ĠR uá»Ļt
ĠGal il
i os
ĠTN MT
phÃ ©p
p as
ĠVi l
T Ä©nh
ÄĲ Ã¡i
38 3
ĠCan berra
Ãģ i
4 07
ĠÃĲ oÃłn
ĠPhoto s
an ne
Ġta r
Ġbá» ¥
ĠP il
Ġbus ty
Ġ3 31
ĠKHOá º¢NG
Sá» ıi
ĠSur vival
Tá º£n
Ġa tiso
Ġ36 9
ella ini
ĠPower point
ĠGian t
ĠXá» ©ng
Ġair lines
T VN
á º¥n
Ġso áº¡ng
SG TT
A b
T ÃĶ
v t
ĠH iáº¿p
ĠB PA
B TS
IP O
ik es
ĠJan et
ĠB ase
__ _
CHá» ¨NG
Sp ace
$ ,
ĠQU AY
Ġn ext
ĠGre g
ĠL Æ¯á»¢T
Ġ40 8
aga wa
ĠCor el
ĠMor occo
Ġ cÃłu
ed onia
3 75
Ng Ã³n
Ġ19 19
ĠVH NT
KH AI
tá» ©
ĠP ir
g Äĥn
ĠST AR
L Äĥn
Ġxá ºŃp
F BI
v itamin
Ġb enz
S GDÄĲT
ur umi
bá º«y
ĠMin nesota
Ġ8 60
ĠFuj ifilm
Cá» ¦A
l au
TC N
ĠCar ne
ĠCha troulette
ĠScen ia
ĠNico le
Ġx Ã©m
Ġ4 11
il lin
ĠPen insula
R ay
ĠT ECH
Ġpoly phenol
ty pe
Ġ care
ch es
» Ŀi
Ġ3 27
Ġapp ly
ĠVin tage
ĠG lor
Ġ27 4
m Æ¡
ĠMang khut
ĠDo an
Ġser otonin
Ġlink hay
Ġr ua
ĠS BTN
ĠSign ature
Ġá» Ľi
al ke
app er
log ne
j aya
ĠVÃĢ I
ĠSá º®T
ngo c
ĠTh iá»ĥu
Gá» ¡
ĠFriend s
kule le
ĠEm p
ĠVá º¬Y
bl r
as ic
mien phi
ĠP ick
Ġm et
v Ãłi
88 9
7 30
ĠMum bai
Gold en
A pr
ĠMI X
ĠmÄĥ t
ĠMá» ĲI
al ine
Ġ01 0
Ġnh Äĥm
Ġdu lich
ĠBR G
Ch ina
lo ur
ĠD P
ND A
Ġtrá »ĳ
Ġm obi
ĠS ug
u oc
ĠC ob
ĠT ÃģI
C all
ĠSp ir
Kh ay
ĠDal at
N Æ°Æ¡ng
Kh ang
ab elle
lá» ±a
ĠN Æ°Æ¡
Ġkh ui
p os
ĠTa j
ot te
Ġl iá»ĩm
ĠG og
ĠQU ANH
m iáº¿ng
ĠV AN
ĠMor i
ĠLau rent
se e
him i
Huy nh
n gÄĥn
ĠB ut
ĠNH ÆłN
ĠA ga
ĠJ ab
Op en
ĠCS ND
9 20
Ġs top
Ġl Æ°a
W ar
THá» Ĭ
ĠV iÃªng
ĠCotec cons
ĠI z
R FA
ĠÄĲ Æ¡
ĠM iÃª
ec ca
19 58
ĠAnto ine
ĠK C
ĠH cm
ĠO ak
19 77
ĠIS UZU
24 9
Ġco w
Ġf ran
ra tion
ĠBob by
ĠE H
Ġ19 35
Chá» £t
rá »ĳi
ĠG Ã´
ĠNich olas
re x
º«n g
ĠMM ORPG
ĠÄĲá» Ķ
f est
Má» ¸
Ġk eng
Ġ37 9
ÄĲo Ã¡n
ĠQu ai
ĠPH UN
Ġh iÃªu
ĠBá »ĳc
Ġngo Ã¨o
X Æ°Æ¡ng
ná º¥m
xu an
Ġn Ãºng
Rá» ¥ng
ĠTháº ¯p
ĠK ung
han ouk
H Ã´i
ĠthÃ ºt
ÄĲ eo
Ġbi o
vi es
ĠCho ice
tá º©y
Ġcon sole
Ġho tro
ĠTh at
ĠGor illa
ĠBR T
ĠDu ty
ĠB ANG
ĠLe ver
ĠF V
ĠBud apest
ĠÄĲ ÃĬ
nh y
ĠDá»ĭ u
2 17
ĠM ÃģI
cum ent
Ġná º£i
ĠMá º¬U
rá» «ng
ĠRum ani
Ste ve
ĠL c
19 59
Ġ3 37
on so
Ġy o
AD B
f ic
J ames
ai c
ÄĲá º¦U
ĠCh ong
g Ã´
Ġ cle
19 20
bá »ĳn
Quá º§y
ĠSp ot
27 6
Ġx áº¡o
ĠVina Capital
ĠFA Q
F X
ĠP ublic
ĠJae joong
ĠS ÄĲ
p c
Ġrá» Łm
B er
ĠháºŃ m
vá º¿t
ĠÄĲ uá»ķi
OT E
24 3
lick r
OV A
ch uong
ĠCa thay
Vin anet
c Ã¹n
Ġtrá º£m
ĠGI Ãĵ
ĠRo w
ĠDe troit
Ġf in
C inet
Ġ- ----------------
Kh Æ°Æ¡ng
gar et
ase a
Ġsá» ¯
ĠBe ver
Ġk háº¥p
CP I
IG N
Ġ09 81
ĠGiá º¥u
Ġg ÃŃ
kho áº£n
Ġpo und
ĠTr oy
» µ
ĠGI ÃĥN
Ġcafe in
ĠLÃĥ I
Ġe czema
Ġcháº¿ ch
ĠBe th
ĠMod i
tr Ã¡ch
ĠGi Äĥng
Ho Ã¡
ĠTho áº£i
Da ta
Ġdi va
AX Y
NG Há»
Ġfuck ing
ĠÄĲá» ĺT
Ġ78 7
S ÆłN
ĠDai sy
ĠV ac
ĠAr mani
y ong
ĠBo ard
ther apy
Ġ7 70
ĠA HA
ĠF one
ĠK ok
Up date
TT C
ĠIME I
Ġ4 44
and ra
Ġtur bo
L Ã£ng
ĠÄĲ e
áº¢ NH
ĠPand ora
ĠLá º¦M
á »µ
Ġf il
ics son
ĠB utter
am y
ĠK ol
ĠAd vent
ĠG REEN
ĠLa bs
Ġb eng
ĠTHá º¢M
oni tor
âĢĿ [
B ac
d pi
T ON
ĠS XH
ĠV UA
ĠZ ur
pe i
ÄĲ iá»ĩp
DN SG
ÄĲH QG
ed e
Phá» §
Ġm Ãº
Tr inh
Ġdo isong
ĠMem ory
iz ard
ĠSi u
in z
ĠAf ter
ĠTá» ¥ng
19 83
VN N
q i
ĠKaro fi
w p
P ing
ĠhÃ² e
re gas
ī m
ĠP ES
h Æ°
Ġbo tox
S oc
Ġ3 23
Ġxem phim
ĠOd ys
b Ã´ng
up p
AR L
ĠÄĲT ÄĲ
graph y
ĠNi ppon
onn aise
ĠW yn
o ver
C ab
Ġta ke
ĠInf ini
m A
ar p
ĠNhá» Ļn
ĠLeb anon
ĠEssen tial
eng en
Ġca d
ĠÄĲ UA
ĠY uk
BS T
B Ã¢
P ER
ĠS ierra
Ġchá» į
Ġ5 75
khÃ ´
ĠEs trogen
19 7
âĪ ļ
TR O
Ġo ang
L on
Ġ34 8
ĠN Æ°
P l
an to
ĠLo tion
g il
ĠE sta
ÃĶ m
ĠKH Iáº¾N
ĠDá»Ĭ P
Ã© on
ĠCB CC
LH Q
Ġse ver
ĠÄĳ Ä©nh
Ġ09 44
Ġ38 6
ĠMoham med
C lean
ĠBOS S
CH A
P B
Ġngá»Ļ p
ĠC ÃģNH
. =
ĠWeb ketoan
ĠH Ã²e
do u
Ġtrá º¯m
Ġ^^ .
ĠM uá»Ļn
ĠMad ison
ĠChar tered
H M
ĠJ or
cá º¥u
Ġj avascript
IM O
ĠK BNN
ĠAir port
ĠTop er
ens tein
Ġlá»Ł m
AD S
ĠKh ao
ĠTHÃ ĶI
ĠQU EN
ĠLe vi
erm o
ĠJ ust
19 57
Ġkhoá º£
ĠJe on
Ġfashion ista
ThÃ ¢m
ĠTháº £n
ĠK od
ro ud
da fi
ĠVir tual
ĠSand ers
30 9
log ram
Ġp ad
ĠRá» ±c
ro e
ra k
ĠN ÃģM
Ġdo ping
Ġ) :
ĠNháº ¯m
ĠOut lander
F OR
ĠO CB
ĠBur berry
ĠCo ach
x áº£
Ġk ar
cons in
ĠCir cle
Ġgi oi
PV comBank
ĠNgá» «a
g ing
ĠBrun o
M iá»ĩng
Ġ5 01
ĠTá º¤M
ĠcÆ¡n g
ĠAd ams
Ġnh om
TR UYá»ĢN
00 4
Ġrep ort
c and
Ġ26 1
ĠInd ustr
ĠM Ãło
ĠQU ÃģT
ĠSá º£ng
Ġtra ding
ĠN iÃªm
IC EF
Tá» ¥c
Ġ clor
ĠCh au
Ġthi en
estau rant
Ġ7 99
khÃ¡ t
há» §y
Viet Nam
s ama
ad ona
B U
gioid idong
ĠS ne
Ġphá» ĩ
al dehy
Ġh appy
Ġngá º¥u
n ed
ti ep
Ġgá» ¥
Comp uter
Má» ĩnh
CO LOR
n ga
Ed ge
ar es
UB TVQH
ĠS asuke
co gi
ĠGiá º½
Ġgly co
oo th
en ko
Ġ3 29
W hat
ĠC Ãłnh
et urn
ĠWal ter
ĠTan zania
áº¢ o
; âĢ¦
U ber
ĠD id
ĠSp y
Ġd B
F R
W hite
ĠF rom
ti d
Ġ35 7
ĠVn express
x Ã¢m
ĠReview ed
ÄĲá» ĺC
O cean
ĠSch neider
IM E
ĠCP C
d ham
Ġtr y
Q UYá»ĢN
ch ell
D igital
Ġ7 47
Ġv ape
Ġm ulti
ĠHo mes
ĠAmp ly
Ġto m
Ġnhá» ĳ
Ġrep ly
VP Bank
Qu Ã¡ch
ĠD Æ¯
Trá» ¥c
vad or
ĠR uá»ĵi
ve z
Ġto Ã¡ng
v Æ°á»Ŀn
ĠBS R
L eo
ĠArchite ct
th uáº¿
ĠXá º¤U
IS ION
ĠMetrop ole
ĠHuy Ãª
ĠYou th
ĠH Ã¹m
Ġ09 62
Nh ung
ĠD TTS
ĠInte la
T est
Ġs hot
ĠH ear
K Y
ĠVá º¼
ĠGi Ã¢
ĠSebas tian
ĠCyr us
ch in
loy d
Ġp laza
ĠS tick
cus tom
up load
S Ã¡p
n ien
ou l
n gÃµ
ĠG ul
ow a
Ġ[ /
si p
n gang
Ġm uÃ´ng
Ġe Book
ĠB ÃĴ
N CT
ĠD ana
hi ba
cl ass
ĠHer r
Ġlá º©y
Ġbá» ¡n
ĠO wen
ĠI on
ná º¯m
âĿ¤ ï¸ı
ĠW igo
se i
Ġl Å©i
Ġd ell
ĠT ÄĲC
Ġher pes
co pe
Kh Æ¡i
IM G
kh ung
ĠToper Land
j on
z ip
Ġ19 18
Ġv anh
ĠC uÃ´ng
ĠTHá º®C
ĠGD TX
tn ers
ĠScar borough
ĠchÃ¢ y
Ġtr áº¡c
ĠGro ve
g lobal
Ġvi olin
ĠCháº ·ng
Ġ ÆłI
ĠAn t
Ġgift code
ĠNháº §m
ĠCre ed
dim y
ĠR Æ¯á»¢U
5 35
ĠFi or
w orth
ĠTá ºŃt
ĠCr aig
You Tube
Ġ( %)
ca de
ĠKQ XS
33 8
ĠJP EG
ĠK KT
ĠD Iá»ĨU
yr on
ĠLat via
) ",
Ġvin city
Sa combank
ĠSh el
ĠPar tners
ĠÄĲÃĢ M
ĠKy lie
ĠV á»Ļi
Chi p
Q D
Ġrá» ıi
v Ãª
ĠH aus
Sep tember
ĠBa e
D iá»ħm
ĠS ic
ti tion
C uba
j ib
ab en
U C
am ax
ĠN ao
Ġ35 4
ĠGá º¥m
ĠCommun ity
ĠLoss less
ĠÄĲá» ĪNH
Ġ ck
ĠÄĳ ep
CM P
ÄĲ O
Lab els
ĠD ic
Pu tin
19 53
ĠChÃ ©p
Má º¶T
any ol
ib al
ĠB ed
ĠMá º£ng
» ¥
ĠCera to
ĠPr im
Ġ tau
ĠâĢľ ,
Nha Dat
Ġca talog
AS US
ĠJe ong
ka wa
S ense
Ġ45 7
ĠFur ious
ĠMy ster
Ġf riend
ĠtÃŃ u
co ol
00 8
ĠTRá» ¤
ĠH Äĥ
Ġs chool
G hz
P art
My anmar
le arning
ĠThom pson
ass in
Ġcu t
to i
ĠS BT
Q B
Ġ09 47
ĠAvi v
Ġs Æ°Æ¡
Ġgold en
ĠTR EO
Ġng uá
Ġchá» ı
ĠMo cha
ĠAnn ie
ĠH ell
U s
t Ã³p
ĠTO YOTA
app oro
Ġd áº¡c
ĠHÄĲ MB
CH Iáº¾N
ĠL ord
er ia
ĠEver y
bá »Ļt
khÃ ³c
ĠKans as
ĠHe aven
M Äĥ
4 000
he e
Lá» ¢I
Ġquá º¯p
ĠDisney land
v tv
Ġcen timet
ĠGAL AXY
LC L
Sport s
ĠH unt
nhe im
Ġh uong
ĠCong dong
ÌĢ ...
he al
» ¨NG
á »¨NG
Ġ cÃ¹n
Y ahoo
ĠU tah
alo w
Blog ger
tá º¯m
Ġ6 45
Ġ? ???
ry s
ĠFore ver
Ġbi en
ĠTh uá»Ł
Ġwhi sky
Ġ13 74
ĠTrop ic
5 40
Mu sic
B at
Cá »ĳt
Ġn Æ°á»£p
Ġh Æ°á»Ŀng
ĠS OL
B OT
Sp utnik
Ġng uá»µ
ĠNor ton
ĠAl v
ĠA CT
C ai
Ġ49 1
hy ung
Ġ19 27
mo on
ĠN ara
b uÃ´n
as i
M Ã³c
Ġly mpho
ĠÄĲá» ¨NG
ĠMis sion
ĠGhá»ģ nh
âľ §
Ġrub ella
L TS
ĠGhÃ ©t
Ġ eb
p ay
r Æ°á»£u
era tor
S m
G ames
Sá º¹o
F ED
ĠLÃĢ NH
ĠKhÃ ©o
ĠSona ta
ĠR ud
ĠSG TT
ĠL Ã¬
ĠTH VL
Ġlac tose
ĠMo tion
Ġp n
Ġp ap
Ġp ick
M obifone
Ġr el
ĠMá ºłC
ĠIn tracom
25 4
ĠWeb master
âĢ¢ âĢ¢
ĠAuto cad
ĠRain bow
Ġcháº· c
Ġ35 2
un o
ĠNh ang
ĠD IC
ĠF ellaini
Be auty
Bá» Ŀ
T ouch
ch ong
69 5
ĠCome y
b let
ĠI Z
Ġz ip
N ÃĵNG
ĠEr n
V ÃĢ
Ġxen on
Ġ tÃ³p
Ġhoocm on
ĠQ N
M K
ĠMand ela
C ur
Ī O
26 3
ĠCol lection
ch id
ur g
Ġw ar
ĠSH OW
ĠH CÄĲ
ĠH MO
B Ã³i
ta ro
din and
Ġ! .
ĠA W
Ġnh iá»ĥu
ĠÃĲ Ãł
CP U
ĠRal ph
2 14
Ġbik er
ĠSpr int
¨ T
chi en
Ġrich ter
. âĢĿ,
ĠGI ÃĢ
ĠH ip
C ÃĻNG
ĠBuff on
6 80
ĠE SP
ite z
ter ia
ĠMarsh all
ĠVin ate
ĠIndi ana
oc al
ĠZ lat
ĠSh an
ĠPa th
Men u
ĠNhá» ¥c
ĠPica sso
ĠF ig
ĠP eng
ĠMiz uki
Ġ tÃºt
ĠH ere
ĠDa te
ck tail
ĠTHÃģ C
des k
ĠSen kaku
ĠN ÃĶ
ĠtÃ¢ t
Tá» ģ
Xá» ĭt
Nhá» ±a
Vá» ¡
Ġgam ing
in ic
Ġ Ï
Ġde cor
ĠZ E
ke nh
ĠH acker
TR OL
Ġá»¦ a
Ġw ater
Ġbr unette
SH B
ĠQ i
ĠDig i
X Uáº¤T
âľ ¨
ĠA ra
c eton
Ġv es
m Æ°á»Ŀi
Ġ01 06
ĠVer de
Ġo il
ĠMos ul
ĠhÃ ¹n
Ġweb master
Ġ6 02
trib ution
x en
Tr avel
ĠKings ton
ĠS Ã©t
2 11
~~ ~~
ĠTa ke
ĠBO X
carot ene
ĠSnap chat
ĠSh en
ĠK ik
Ġpas te
T or
Ġ %,
ĠV era
ĠÄĲ uÃ´i
ĠMo ther
ĠPhá» ķi
Ġmil imet
ĠCap tiva
B ER
ĠHa j
ĠLG VIET
L INK
ĠS eal
ĠScar lett
ĠAzer baijan
Ġn Æ°á»Ŀm
ĠW er
Ġjack et
ĠGiá ºŃn
d g
19 61
ĠU AV
ĠSal vador
36 9
27 3
ĠVinas un
6 000
má º¯c
lor i
ĠCommun ica
ĠMos s
h un
Ġ Æ°Æ¡i
/ ,
ĠE y
Z en
B ÃĵNG
b Ã£i
co ver
ĠHo áº£ng
Ġdr ap
b Ã³
Ġd uá»Ľi
... -
Ġb Ãµ
ro und
Ġ ts
VI P
Ġ `
ï¼ ļ
ĠHar ley
L Æ¡
ĠDe an
V Iáº¾T
ĠT Æ¯ÆłI
ĠHÃĢ M
ĠUn categorized
ĠT ara
Ġdo ggy
Ġ8 01
ÄĲ ua
ĠO TP
ĠÃĲ á»Ļ
ĠCO C
Ġpha blet
ĠÄĳá»į an
ĠVat gia
ĠTho áº£
ĠCour t
39 8
F estival
ĠGT A
C BC
6 90
Sá º¯t
Ġ7 40
ngá º¯m
ĠAU X
ĠTHÃļ C
ĠE R
ĠSao star
ĠÃĲá» ĭnh
ĠLa vie
Un ited
Th uá»Ł
ĠA ub
thá» ıa
ĠS od
lá º§y
cháºŃ m
Ph Æ°á»Ľc
ĠDav e
Ġm er
agen cy
gui hang
ES IGN
Ġhu Ã¢
ĠDem i
ĠR is
ĠFul ham
ĠHori zon
Ġ6 65
z za
ĠSanta Fe
ĠM ID
Ġ! ?
Q A
Ġngá» ķ
Ġ13 66
que z
En glish
HO ME
Ġ8 05
ĠDol ce
Ġtá»¥ m
shi rt
Ser ver
hÃ ª
tá» ī
ĠHam as
Ġsour ce
Ġ27 1
ĠF UN
l b
háº ¹t
ĠH alo
and owski
ĠU g
Ġv áº¡i
ĠSch alke
Ch ang
ĠV biz
ĠTr Æ¡n
ĠDu ke
ĠP Ã´n
ĠSul li
Ð ½
27 8
AN K
Ġ04 3
ĠLB P
s top
J enn
ĠR Ãª
ĠTHÃģ CH
ĠNovo tel
ĠB GH
ĠParag uay
ĠTháº §u
ta sia
ĠMá» µ
d c
tr om
Ng áº¡c
Ġph uá»Ļc
ĠMus tang
ĠPort land
ĠWood s
Ġn umber
BNN PTNT
T ip
Ġ19 28
TC VN
ĠDep or
ĠK EY
C U
Ġtao bao
O ppo
Ġmon ths
oo s
ĠSlo venia
ĠRá» ħ
R ong
Rá» ĵng
Ġch iá»ĥu
ChÃ ¡n
trá º£i
Ġg áº¡n
Ġ29 7
Ġcá»Ļ p
ĠTR Ãļ
ĠN ET
NhÃ ´m
guihang dimy
Ġti euthuyettinhcam
el u
ĠV Ãº
Ġi bongda
TS UB
ĠAki ra
Vietnam gsm
ĠÄĲá º¨Y
ĠKHO Ãģ
ĠV uÃ´ng
Ġ5 67
Ġth Å©ng
ĠH ic
ti euthuyettinhcam
li ft
25 1
Ġthá»¥ y
ve gas
ĠAs si
ĠS ap
G IS
b sp
3 88
Ġpan asonic
ĠSad dam
ĠJew el
ĠHo ts
Ġin stagram
ĠHam mer
cuoc guihangdimy
Gi oi
Ġtoe ic
Ġb ul
Ġ55 9
Ġsky pe
ĠR Æ¡m
aton in
Ġv áº¡ng
ĠTR ÃĢO
Ġâ Ĥ¬
ĠGi ggs
Cá º¯m
ĠBlog spot
9 10
G MT
ete gui
Ġly ric
Ġnhá» ĳn
ĠK A
ĠNá» ĺP
si us
ec tin
ĠMO BA
ĠTá» ĴN
ĠCapital and
º¬ M
on na
Black Berry
ĠVIá» ĩt
ĠMig uel
ĠTT ÄĲB
os henko
ĠR oc
ĠArchi ve
ĠP oster
forum vi
lo e
ĠWis consin
ĠMal aga
ĠSole il
ĠCres cent
ĠPV I
ĠCarne gie
ĠCad illac
ĠO M
Ġta sk
ĠChÃ ¬
Ġhá» ĳng
Ġsa ch
x h
Suz uki
Ġtr Ã¡p
ĠMá º®N
ĠMed ical
7 80
19 62
Ġ09 42
mo tion
ĠY ul
oglo bin
ĠÄĲ áº¡
thu vien
ĠB Ã¹ng
K Q
ĠE vil
ĠLá »ĵ
ĠMic key
ĠLe ica
ĠMach ine
Ġn eu
gi Æ°á»Ŀng
G er
fe ed
b áº¡c
ĠF at
ĠBro thers
m em
ĠKent on
ĠBook s
OV E
Ġhash tag
ĠZur ich
Ġcow girl
H Ãło
Ġ4 68
ĠPhi en
B Æ°u
te xt
ĠMr s
ĠOdys sey
ĠTHO ÃģI
Uá» ¶
B Ã¡
ĠâĢĺ âĢĺ
T ÃįNH
am bi
ĠW as
Ġti ch
ĠVIETT EL
W ifi
ĠTem p
ĠSams on
ser ies
m anh
ĠR J
ĠSá» ¢
ĠZin edine
mark et
ĠK ick
ĠSC TV
Ġmá» ĵn
Ġáº¢ i
av ia
ĠL DL
Ġná» įt
Ġly copene
ĠF lower
ĠCHá º¤M
ĠGi Ãłnh
ĠA aron
Ġáº¾ ch
IG HT
Ġau di
cs cs
ĠL ÄĲTB
carbon ate
H al
Ġ8 99
ĠFab regas
m Ã³c
cÃ¡ t
Ká º¹o
di ent
ĠD emo
NS Æ¯T
ĠA O
Ġcan ada
ĠLoui siana
Ġdi oxin
au se
ĠHal ogen
S he
ĠE SL
ĠMoz art
Vietin Bank
Ġchá» Ľi
Lá» ¯
PP L
Ġr Ãºp
ĠB uy
ĠGen eration
Ġth Äĥn
Ġ38 3
amp ire
ĠHS C
< /
ĠEsp anyol
ĠLo t
ĠD er
ĠCamp bell
ĠChi bi
26 1
Ġho oc
ĠL iÃª
Ġpar acetamol
ÄĲ I
ĠE z
Or der
NG Há»Ĩ
ĠDu lux
ĠNGá» ĺ
Bi ke
ĠDe ut
ĠPlay boy
pa che
Ġprogester one
sov petro
y y
Ġci tric
ĠTR ÃļNG
P OS
ĠJam ona
/ )
ĠO man
ĠCar i
v ong
ĠCent ury
g Ã¡nh
ĠD AC
ĠB Ã³n
Ġthi ch
Ġ4 15
ĠT wo
ik h
Ġsá» §
bá »ĵ
Tr Ãºc
Qu Ã©t
es ca
ho tel
5 30
ĠSing h
w al
Nháº ¯m
Ġ19 34
us er
ĠLá º¦U
up ro
Ġz ing
ĠS is
Ġb h
26 2
ĠVik tor
V Ã¡n
ĠÆ¯á» Ľp
gg ed
ĠNá º¤M
Ġngá»į ai
tral ian
A o
Mua BanNhanh
TRá º¦N
Ġchá» įt
ĠFr ont
m id
ĠB erm
co li
L Æ°á»£c
Ġd em
ta d
ph or
Ch am
ĠVN EN
ita ge
Ġ35 9
Ġ6 75
! _
W N
ĠLi cogi
Ġcard igan
ĠK ors
Ã ±
ĠSte in
qua re
ĠthÃ ³a
trá º§n
ĠM EN
ks how
n au
ĠÄĲá º¾
ol s
} }
6 20
e cu
m Æ°á»£n
ang i
champ s
pe are
MB O
ĠRi hanna
ĠThá» ĳt
ĠPhilipp ine
p aper
Khá» ķng
m Å©i
ph on
ri co
s Ä©
ÄĲá º¥ng
ĠSim ple
w oo
Ġo Ãł
Ġphot pho
ĠÃĲ Ãłi
ĠLu ffy
ĠN ex
ĠO TT
ĠVin mart
ĠSc Tech
ĠTrade Portal
Ġ art
Ġbi et
ĠH eb
ĠFAS TCARE
Ġrá» Ľm
Ġdes igner
ĠP allet
D iá»ĩu
Bar celona
Ġ; )
Ġtr en
ire ct
H ÃŃt
n ight
noi that
ĠS EC
ĠJ ade
28 7
Ġb iá»ģn
ĠVi king
Co M
Ġbus iness
ĠTá ºłM
ĠL LC
b est
ĠCh em
ai ca
X uá»ĳng
ĠÃĲ a
ĠA coustic
Kh uyáº¿t
ĠRA W
ĠMobile City
ĠTh iÃªng
ĠSP AM
ĠR aul
Ġáº¤ u
ĠAir es
ĠY os
ÄĲB QH
M AT
Ġph il
ĠChar ge
ĠT one
Ġ39 1
ĠCH Iáº¾T
ĠVai o
ĠLEG O
ÃĲá» ©c
Ġsá» ¥
W est
ĠN ÃīT
Tr Äĥng
ĠCh uyÃª
Ġso c
ĠM use
o ji
Ġ50 6
ff er
dá» įn
âĸ ¬
Ġclo se
9 80
38 5
ĠM IC
Geo r
ĠghÃ ©m
Tá» ķn
ÃĴ I
ĠSc ien
Ġxá» Ńa
CS GT
Ġáº¤ Y
op e
th oc
ĠDo i
stan t
ĠY en
H iáº¿p
MS T
Ġfuck ed
ĠB Y
ĠBre ak
ĠD in
ĠhoÄĥ c
á º¥y
ĠM issi
ĠAk ari
ĠMetrop olis
ĠAFS VN
S ol
ĠS ien
Ġ=)) )
Ġ Æ°Æ¡n
ĠlÃł i
ĠC Ãµi
Q uáº¿
cr ack
co ck
Ġ19 26
ĠDr ag
ĠBeau tiful
f ac
» m
D Ã¢u
ita Land
ĠSi hanouk
gi Ãły
Ġs Ã¬
Ġa coustic
ĠÄĳáº «y
trá »ĳn
Ħ ĥ
Ġ4 22
ĠSystem s
ĠTh ings
Ġngá» ¥p
Ġrá» įc
at ta
ĠPh y
ĠH end
ĠEssen ce
Ġháº µng
Ġdi eu
li eu
ĠEV FTA
ĠC TR
lo l
ĠBK AV
ĠX erox
ur er
ĠLop etegui
r Ã©
Tok yo
Z oom
can o
âĺ ŀ
S top
Â ³
tr u
r ics
ĠAu thor
Ġsit com
07 0
H iáº¿u
ĠxÃ¬ u
ĠnhÃ ©p
Ñ Ģ
ĠK atie
ĠNa ta
Ġh ieu
ĠRO G
tr and
Ġ: .
ĠRi yad
end ung
ĠIs lam
ĠEuro pe
f riend
Ġtu k
Æ¯á» łNG
Ġam oniac
it ness
Ñ ĥ
ĠDay s
2 23
3 15
: )
ĠTh iáº¿p
Ġaer obic
Ġ6 28
Ġn ia
ĠMar garet
ĠÄĲáº¿ m
Ġtr uá»Ľc
Ġâĸ ¼
ĠTHá º¬P
ev o
ĠW S
W I
ĠCav ani
t iá»ĥn
ho ma
ICT news
ĠIS IS
ac ific
ĠTRá» ¨NG
ĠTá º¬T
ĠCa ta
Ġ twitter
Gi rl
ĠWanna Cry
ĠM ou
ĠE cho
B P
do an
ĠMar tine
ĠPHÃ Ĥ
ĠVang a
p ower
MB A
Ġch uÃ´i
bá º©n
ĠBen itez
ĠShi eld
uá» £ng
ĠR AU
x Ã¬
ans om
GP S
= >>
ĠK ara
ĠKH A
áº» n
akes peare
end ar
ĠDup lex
Th Ãł
AC B
Ġ56 1
ĠCl aire
es o
ĠJ amila
ĠRos si
N ÄĤM
as si
P ort
33 7
ĠVÃµ n
ĠKá» Ģ
ĠVÃµn g
ĠChÃ ¨o
row ser
Ġb ep
), âĢ¦
t iá»ĩp
ĠTaek wondo
Ġ8 90
ĠEv ans
ĠAr ts
Ġd Å©a
ĠI CE
ĠUn ico
ĠCh op
Ġriver side
ĠL Æ°á»Ŀng
30 7
iá º¡
end ing
ĠAm ber
4 01
up h
L Æ°á»¡i
ĠChÃ ª
ad in
ĠLO GO
ĠBoo st
Ġ tiá»ĥn
ĠGad dafi
P eter
Ġtr eble
ĠR OS
ĠTRá» Į
Ġho áº¡c
Ġ4 12
ĠNGHÃ ĪO
tr Ãł
Ġgiá ºŃm
ĠRock et
AR M
Ġ3 200
ÃĲ iá»ģu
ran a
ĠP un
ĠPro cess
ĠHS K
il yn
UY ÃĬ
M iÃªu
ĠÄĳo Ã¡
od ie
Ġm ot
ĠVSA TTP
g Ã¬
ĠNgá º«m
ĠNest lÃ©
Ġr Ã¢y
Ġquá»µ t
ĠN Æł
ÄĲS PL
35 3
B Æ¯á»ļC
phÃ ³ng
ĠN ord
cc c
ĠlÃł u
ĠE CB
ĠL ÄĲTBXH
ĠJu lian
Lá º®P
Ġi SÃ¡ch
rá» Ńa
Ġ tel
dro i
ĠR ail
ĠHY UNDAI
pn g
Ġ tiá»ĩp
ĠTh ak
ĠGar cia
ĠSund ay
Ġa f
F ace
ĠTop ic
HN X
Ì£ ÌĤ
ĠKer r
ĠDy lan
ĠBug atti
ĠKhá» ĳn
eb ra
r Ã´n
Ķ M
S chool
I mp
Ìģ ...
Ġvi ber
ĠAven tador
ĠS apporo
ĠM Æ¯A
ci sion
c ss
chÃ ¬a
3 25
ĠMark le
ri ed
ĠB udd
Ġdoisong vov
ĠTR Æ¯A
!! âĢĿ
ĠhÃ ¡c
ĠÄĲ áº¡n
B AO
ol es
Ġnitr at
Ġxá» ĭ
¤ I
Tr an
b lo
ĠKi wi
ĠMon ica
mon ella
ĠSch engen
ĠSy l
A xit
m Ã¢y
X Ã´n
qua t
an ta
Ġl iá»ĩng
ĠOm ron
ĠHome page
ĠM Uá»
ĠM oody
we ather
ern ame
ĠFly nn
U l
conn ect
ĠTh iá»ĥm
Chá» įc
in ts
ĠB eo
Ġi Mac
ĠV im
Lá» ĵng
aster n
h Æ°á»Łng
ĠAus t
ĠB ÃĢY
Ġb Ã²n
ĠUr ban
Ġdi oxide
ĠBos nia
ac tive
ĠAI R
ĠP v
ĠV Æ°u
ĠK ÃŃp
ĠMe th
ĠTHá ºłCH
ĠNh uá»Ļm
M ix
w ide
b Ã´
Ch iáº¿m
19 71
Ġ35 8
inh ac
SK KN
Ġ19 24
âĸĪ âĸĪ
ĠD erby
ĠPoly ester
ĠâĻ ¦
ĠSe ABank
L Y
ĠR ED
ĠAr tem
F eb
Ġ38 1
ĠL ens
ĠBrit ney
ÄĲá »ĳ
it t
ĠCa che
ĠCar a
R R
» ķn
ĠOr eo
ĠS EM
........ ........
ĠR at
ĠDu c
Ġcup cake
j ong
ĠDo ha
ĠBu enos
Ġin ax
ĠWr ight
r ung
ĠchÃº i
l um
pon se
M ao
á »ķn
Ġ5 89
n ite
ĠHav ana
IS H
Ġtra ining
á »¥
ter ial
tary an
ĠCo hiba
ĠFer dinand
ĠO SC
Ju ly
Ġ~ ~
ĠRus sell
ĠCháº ¯n
T ÃĤM
ĠG Ã¡nh
Th S
ĠAuto CAD
Ġ09 49
TH A
ĠContin ental
ĠG aul
ĠBuk it
Ġti e
ĠQU ÃĬN
ĠCá» į
v ine
Ġbook mark
Ġd etail
Ġ9 70
ĠG um
ĠÄĳ k
ĠN Ã¡
kus en
Ġmáº ©y
ĠHold ing
c uá»
em es
ĠMal acca
ĠSe ine
ĠXX X
ĠC ot
ĠLi thium
ĠV ovinam
ĠAr ms
n háº¥n
01 1
h Æ°Æ¡ng
bab y
WE BSITE
tr Ã¹m
ĠRoy ce
X Ã¡ch
ĠK ool
ĠCh Äĥ
Khá» Ń
Chá» «ng
7 70
ĠW ook
Ġ40 6
D K
id th
ail les
ĠTr ader
khi taryan
Ġk on
ĠEr icsson
Ġ Ã£
ĠPV comBank
Ping back
ĠVTV cab
d uyÃªn
Ġto r
ĠSpor ting
W P
ĠC uá»Ļi
C F
khá» ķng
ĠNg oc
ĠGor bach
r inh
tem ala
Ġ9 15
yn c
Ġca sio
ĠDi et
ero on
tivi ty
g at
Ġth ank
ĠtÃª nh
ĠRF ID
ĠF F
ĠEs cape
ĠEp oxy
5 99
ĠR and
Ġkhá»ı ang
it ure
ĠSk ull
ĠCo logne
s he
ĠX Æ¯A
Ġnháº¹ m
Gi Ãłnh
Ġrá» Ŀn
ĠDá» ©a
ĠChÃ ©m
ĠOlymp us
9 60
n is
Ġ6 88
ĠNá º¿n
Ġxá º©m
ĠJur gen
" âĢ¦
Ġlá º£m
ĠYá º¾N
ĠTHá»Ĭ T
Ġr em
Ġn Ã£i
m Ã´ng
Phá» Ł
ĠKÃī M
ĠC CD
Ġhy aluronic
ĠPe ak
Ġl Ãªu
d ak
ĠL Æ°á»Ľt
vi k
AT M
L N
x ung
ĠP ew
ĠT CM
es i
b Æ¡m
ĠJ O
Ġland ing
B Ã´i
KhÃ ³i
ĠGi ll
ster oid
H ack
ĠBe tis
ĠMo Mo
ĠSá» ¥p
5 80
D J
G TVT
ĠSp arta
Ġ5 11
Ġhá»Ń u
ĠGoth ic
ĠI K
ch am
Rá º¯n
Ġ49 5
T Ãª
Ġp ano
ÄĲ Ãĥ
ĠGr uz
g Ãłn
) _
ĠÄĲ Iá»ĢN
Ġqu Ä©
Ġf ast
ĠDepor tivo
ro li
Cá» ĵn
Ġ* .
Ġláº¹ m
Ġ5 49
Ġoá º±n
ĠCongdong truyen
ĠRom eo
ĠF older
ĠDo or
ul t
ĠL ÃĴ
n av
ĠDá »ĳi
M ap
ĠR I
dan et
ĠPor oshenko
ag ar
ĠNHÃĥ N
ĠSouth gate
f eld
Ġdr ama
Ġ[âĢ¦] ...
Ġnh iáº¿c
ĠMod em
Th ua
ĠVic tory
T ap
Ġn y
lam dep
ĠSime one
Ġd evelop
chá» īnh
ĠTh in
PhÃŃ m
ĠD AI
Ġ21 00
Ġle go
ĠTur in
ch ina
ĠVos tro
ĠLo cal
m ob
Ġl et
Giá º·t
ag h
ĠH wang
Ġ cloud
Ġhen tai
ĠK ry
al and
ĠNá» ĸI
Ġp pi
ĠG N
ĠS onic
H iÃªn
01 7
ĠBro chure
CO P
ĠMar s
f al
m iá»ĩng
...... âĢĿ
Ġe Truyá»ĩn
Ġá» ³
Ġ19 23
Ġl ast
ima tion
ĠAd ren
Ġk now
TA GS
ke ley
tr ade
Ele ven
Ġ, ...
ĠL ost
ĠÆ ¯a
8 30
ĠB og
ĠN CB
lo use
tta wa
Ġ34 2
NHá º¬T
ĠYH CT
ĠP ing
tra tion
ĠH ER
ĠT AN
ĠChris tine
Ġrub y
ĠD Ã²
b nb
ĠÄĳ Æ°á»Ľc
ĠSuper ior
ho an
K ar
ĠC Æ¯á»ļC
Ġmix er
ĠÄĲá»Ģ U
ĠBuff alo
G ood
K iÃª
u th
ĠI ND
g uyá»ħn
ĠP sy
ĠWin ter
ĠCB CS
Rob ert
ĠSand y
ĠGruz ia
Ġmay onnaise
7 60
Ġno w
N ER
» ī
Ġ19 14
ĠThu Ã´
ĠGr im
ĠCL IP
G rand
Ġstand ee
h man
Ġly rics
ĠSo cie
m Ã¡i
ĠWins ton
s Ã¢u
ĠU HD
ĠPhá» ĳt
eb o
no te
inh an
KhÃ ³c
ĠSag ami
S tress
LE X
Ġtra vel
ná »ĵi
qu en
ĠEx tra
Ġgá º·ng
um b
q l
ĠTRá º¦M
ĠGar age
ĠP uma
Ġph yto
ĠP OP
ĠGand hi
ĠCHá» ľ
Sun shine
Ġ16 88
za ar
OM ES
ĠL anh
ifi ed
ÄĲá» ¨C
Ġ68 6
e Truyá»ĩn
tin y
Ġg ra
w as
ĠN Ã¨
ĠM Ã©p
D el
ĠK won
ĠJ ICA
ĠO ECD
ĠVo IP
ĠW ap
8 90
Ã¨ s
ke e
dá» ±ng
ĠV BA
ĠÄĲ Ã¹a
P s
uyá º¿ch
ĠNgh inh
Ġk il
n uá»ĳt
ĠS oda
er an
ĠM aker
Äĳ Ã¢u
8 40
ĠM EDIA
Ná º¯p
ĠMar adona
ĠAl ba
ĠBe a
C ore
ĠChang i
Ho REA
ac are
ĠCH ÄĤN
Ġga te
ĠLas vegas
Ġ34 6
ChÃ Ńn
Ġ4 65
º¬ C
ĠGi roud
Ġnico tine
ĠA TTT
66 4
ĠPh uong
ĠS ok
T Ã¡n
ĠHero es
ĠSuper man
6 40
ĠPow ell
ĠS Ã¡nh
lin i
ĠR oot
Cháº ·n
ck en
Ġrá» Ŀ
ĠLU ÃĤ
Ng Ãłn
ĠKi lo
u oi
ĠO hay
Ľn g
ï¿½ ?
ĠLane ige
ĠCh ron
B uild
ĠAnd ers
ĠÄĲS Q
ĠPre view
Ġï ĥ
Ġvol ume
no wn
ĠYu nho
ĠBl ood
ĠAC V
ĠN ur
Ġmark eter
ĠTá º£ng
Tá º¯c
r ard
ĠMon itor
bo und
Cap itale
net t
C Ã¡o
um ina
ĠMo ving
H im
ill as
r un
29 2
ĠJosh ua
Ġ36 7
Ġj ob
ĠV est
ĠMaster Card
G ate
ĠKh am
n guyá»ħn
ĠS op
ĠHa ha
Apr il
Ġbá»ī u
Ġw atch
ĠA LA
ĠRob inson
ĠHe at
ĠIn depend
ĠJac ques
es tyle
Ġnhá»Ł n
ĠB ÄĤNG
Ġlá» ım
ĠTr Ãłn
ĠnhÃ £i
E r
ĠMi pec
ĠM im
ĠPor ter
ĠN ina
ĠDesign ed
ver de
ĠDom ini
ĠCP H
ĠTá º±m
ĠCar itas
ĠBen fica
Ġ39 2
3 36
M exico
ĠU L
50 5
fuck ing
Ġs cript
ĠVi talk
L td
ĠG uild
EN CO
S um
k id
ĠDes champs
Z ing
to is
7 10
Ġx uá»ģ
th Æ°á»Łng
ĠEl sa
ĠTRá º®C
ĠA pache
Ġk iot
ĠN ÃļI
Ġnhu Ã¢
Man chester
ĠX Æ¯ÆłNG
r ene
ĠLite coin
ĠÃĲ iá»ĩn
ĠTum blr
ela tin
ĠNHá º°M
ĠÄĲ Iá»ĨP
ĠI G
ĠcÃº u
s elf
ĠBalo telli
ĠSo fia
g Æ°Æ¡ng
l Ã£i
á º©m
ĠTr uong
Ġb allet
ĠTR ÄĤNG
ĠKan te
ĠLew andowski
Ná »ĳt
H áº¡ch
ĠAP K
ģ nh
ĠNH Æ¯á»¢NG
ĠE van
ĠCar nival
ĠPan ther
ĠOli via
Å© y
Ġsa tin
ÄĲ ÃŃnh
V O
Ġm Ãµi
ĠTR Ä¨
ĠCo hen
x Æ¡
ĠCHÃĻ A
ĠV CS
Ġox al
ĩ u
ĠD iá»ģu
37 9
g p
d Ä©
ĠD ÃĢNG
ï¼ ®
Bá º¯p
ĠKhá» ©
ate k
H Ã¬
R Ã¹ng
GT GT
K IA
c io
k Wh
ĠPy thon
08 8
Ġmu sic
Ġâī ¤
ĠCh ange
Sá» £i
usk ds
dient uskds
Ġban dientuskds
ĠLo unge
ĠMan e
Äĳá º³ng
F ly
ĠInter pol
ite s
Ġfr uc
Ġl uc
ĠLÃĢ NG
Ġcan o
ĠV ector
th uyáº¿t
ĠMon de
ĠPr int
gá »ĳc
r im
ÄĲTC K
ĠC CN
in stall
ĠBen edic
Ġ55 8
Ġki tÃ´
Ġkháº ¯n
l Ãłn
Ġz i
L uc
ou d
ï¼® ï¼
ĠÄĳ ui
c ino
» ĥm
ĠC ac
ĠLim a
Ġháº µn
aldehy de
ĠPri v
N eymar
Ġk Ã´
Ġg ps
ĠGen esis
! âĢ¦
em ier
ĠTherm age
ĠJ ump
ĠProper ty
ĠX M
Má» ļI
ĠMel ody
K Há
16 00
Kháº £i
oo c
X oa
Â £
ĠE ug
lá ºŃt
Ġ agency
ĠSa Pa
ĠIll ustrator
ĠMá» įc
º® K
Ġ14 40
ĠMá »ĳc
t xt
ic illin
gi Ãłu
ĠCá ºŃy
ĠD re
Ãī p
ĠJor ge
J SC
w ak
Ġ19 11
THá º¢O
la tor
ĠHis tory
ĠPLA ZA
ĠDoctor s
ĠÄĲK XT
Ġhot boy
s n
Ġ28 7
ĠB if
ĠSte wart
ĠOrch ard
ĠÄĳá»ĭ u
ic ia
ĠphÃ ¨o
en sis
ĠRai der
ĠM IK
r at
Ġtouch pad
em ic
\Ā\Ā\Ā\Ā\Ā\Ā\Ā\Ā\Ā\Ā\Ā\Ā\Ā\Ā\Ā\Ā\Ā\Ā\Ā\Ā\Ā\Ā\Ā\Ā\Ā\Ā\Ā\Ā\Ā\Ā\Ā\Ā\Ā\Ā\Ā\Ā\Ā\Ā\Ā\Ā\Ā\Ā\Ā\Ā\Ā\Ā\Ā\Ā\Ā\Ā\Ā\Ā\Ā\Ā\Ā\Ā\Ā\Ā\Ā\Ā\Ā\Ā\Ā\Ā \Ā\Ā\Ā\Ā\Ā\Ā\Ā\Ā\Ā\Ā\Ā\Ā\Ā\Ā\Ā\Ā\Ā\Ā\Ā\Ā\Ā\Ā\Ā\Ā\Ā\Ā\Ā\Ā\Ā\Ā\Ā\Ā\Ā\Ā\Ā\Ā\Ā\Ā\Ā\Ā\Ā\Ā\Ā\Ā\Ā\Ā\Ā\Ā\Ā\Ā\Ā\Ā\Ā\Ā\Ā\Ā\Ā\Ā\Ā\Ā\Ā\Ā\Ā\Ā
ĠDTS D
Ġnghá»ĭ t
tt le
f arm
ĠKh Æ¡i
ĠS Ã¡n
pp e
ĠÃ īP
Ġthi Ãªm
há» įa
Ngá» įt
og as
Ġk raft
ĠTon er
Ġl Ã¡p
Ġl cd
s can
ĠM AL
ĠCo lin
Que en
r el
ĠWeb tailieu
ĠKaw ai
N ik
te au
X Äĥng
Ġ34 1
Ġb rand
ĠDub lin
Ġkháº ©y
log ger
ĠAli en
ĠPHÃģ I
Ġb uy
ĠMá ºŃn
ÃĪ O
ĠH itech
ĠCHXHCN VN
F re
ĠPa int
dau tu
ĠC indy
ĠOne Drive
ĠTá» ľ
Ġsai gon
nghi Ãªm
C IA
ĠDá º¿
ĠNG ÃĢN
S w
ĠPhilipp in
ĠE SC
âľ ¦
Mobi Fone
Ġná ºŃu
Ġnhá»Ľ p
ĠJa ke
ĠLÃĢ O
Ġvi ll
7 36
Ġwork shop
ĠNg Ã¢y
ĠBe nh
Ġ29 1
Ġgroup sex
Ġn Ä©a
ĠB ui
ĠSerge y
ĠIs hi
Ġcl assic
ĠW ard
Ġmin utes
ĠkhÃ¡ o
Ġ37 6
5 90
ĠN ino
ĠGold Season
ly wood
Ġ7 75
NH A
Ġlá º£i
ĠHad id
TS KH
ĠMá º½
Ġg ui
ĠC ag
Ġ4 19
ĠVI T
Ġ50 4
» §y
á »§y
emb ley
ĠX Ã¡n
ad s
ND H
ĠðŁ ĵ
ĠTC CN
C y
I Z
ĠFlor es
X Äĥm
ĠHá º°NG
M á»Ļng
ĠB erry
ĠDH C
emo ve
Ġf o
ia z
ĠTá» Ĩ
ERS IDE
ĠK X
ĠChÃ ¨n
ĠTu an
ĠÄĳá»ĵ m
ĠSon asea
Ġngá»« Æ¡i
] )
ad es
om oto
Ġn bsp
M Ã¢
00 9
tt gart
ĠCam eroon
c ip
ĠL ol
ĠStr ai
ra tes
H F
ĠMa fia
ĠB ub
ĠTÃ´m a
Ġde ad
Ġp ack
E CO
ĠSte phan
ch un
uli fe
M oto
j s
ĠnhÃ ³n
ĠN ishi
37 7
ĠH ANOI
ĠGlu cosamine
Ġ tk
ĠZlat an
ĠP X
X Æ¡
ill us
ay ama
ĠBá º¬C
Ġbá º¥c
TR UY
ti ane
ĠLay er
ĠZ am
ĠEL EC
p ai
Ġâŀ ¡
3 12
ĠS Ã²ng
ĠR ight
ick y
ĠSÃłn Nháº¡c
ĠNg Ã²i
ĠÄĲÃģ M
tr Ã´ng
s ing
tr og
ĠChu ck
ĠBL TT
Tr Ä©
ĠM Ãį
¹ p
gor ies
hi t
Ġcal orie
ĠLever kusen
di an
ĠBar ry
ĠDI Y
p re
Kh iáº¿n
Lá º¯c
ĠP TC
Uá» ²NH
: \\
Ġsn ack
ĠC uá»Ļn
35 8
ĠX Ã¡t
ĠSar ri
s si
ĠE vo
.. "
Ġs Ã³n
CO D
Un iver
ĠMa tic
ĠVers ailles
ĠSo chi
B Æ¡i
ĠHTT PS
H VN
ĠVer izon
D ich
b ine
Ġngoá º¯t
ĠL ÃŃt
Ġ36 2
p laza
Ġac tion
â ģ
Ġr up
ĠPor tal
ĠFish er
ĠU hm
Ġsil ica
ĠPh anh
Ġhis tamin
4 99
ble dore
Ġxsm b
ĠlÃ¡ u
ĠSo on
s uper
ĠBa king
ĠB Æ°á»Ľm
ĠMá º¯m
ÄĲá» ĭch
ĠMyster y
ĠNhá» ķ
ic es
ĠM n
ĠD ÃģN
Ġ5 22
ĠJer emy
tr ieu
Ġn áº¡ng
ti le
ĠTHA CO
Ġlo Ã©
ĠLá» ł
Ġquá º¯c
Ġnho áº»n
ĠBe yon
Ġta gged
ĠTá»Ń u
ĠBH L
ĠH VN
ĠF ami
ĠKn ow
Ġ+ ,
ĠMu ay
09 9
ĠA PS
ĠNob ita
M Ã¡t
á »Ŀi
ĠLÃĥ O
S apa
ĠP elle
Ġlie nhe
ĠKho e
ĠSh akespeare
02 1
p ly
Ġ ãģ
ĠW embley
3 11
8 000
mo ingay
ĠMad agas
apo va
Ġgá º§u
" ),
tin ol
ĠRá» ¥ng
ÄĲ Æ°
tuy ensinh
Ġ48 6
ĠC lient
ĠNá ºł
ĠOri ental
ĠF iles
Ġlo w
ĠB Ã´n
ĠSet up
ĠEngine ering
Ġi elts
um bo
Â ¬
8 60
M p
Ġsub jects
G ai
Vá» ĭt
AL AND
th uáºŃt
Qu ÃŃ
Ġcu oi
C ristiano
Ġv ec
chÃ Ńn
th es
25 7
ĠDevelop er
ĠS end
SI ZE
ĠO áº£i
tr im
Ġchá» ħ
la homa
Quy Ãª
ĠKe gel
Xo ay
ĠClau de
UB E
ĠLe vante
D aily
Ġ024 3
ĠCS CÄĲ
ĠGua temala
ĠthÃº i
ĠVin Mart
ká» ĭch
ĠM khitaryan
ĠAssocia tion
ĠEd in
gab it
ĠD au
ĠRá» ªNG
Thá» Ł
ĠFi ber
K EM
Ġngá» Ĺ
ĠZ ar
C re
ĠOrig inal
o h
ĠS uc
F ix
Ġnháº £i
N ob
g om
ĠGá ºŃy
as is
Ġá ºł
ná» Ł
ĠSAP A
T háº¥m
ĠSte p
Xá» ¬
Ġp ublic
ĠP ull
ĠDi aoc
ĠÄĲ akao
el come
ĠHoney well
Ġthá» ĳc
Ġrá» §n
ĠÄĲam inh
g hen
ĠAla bama
ĠTRá º¤N
6 06
Ġs ave
n gÃłn
ĠHerr era
ti p
ew ay
ĠPCT N
li k
ĠÄĳá» ķng
ĠN á»Ļ
ĠSt anda
P AGE
ĠTá» ı
ĠAn y
ĠBa th
tr ap
Ġ5 65
AD O
ĠPl ant
ĠBe ar
Phap Luat
4 70
Ġ29 6
ĠF iat
ĠSá º¥m
SH I
ĠCh iá»ģng
bi et
V Ãī
ĠSafe ty
ys tyle
Ġ ui
Ġ cang
S ur
ĠS CB
ĠTT ATGT
Ġ19 10
z hou
th oven
Ġv Ã¹n
Thu Vien
ĠbÃª tÃ´ng
ĠCAS IO
Ġs Æ°á»Ľt
Ġpro xy
3 16
ĠMull er
7 11
ĠTRá ºłI
Ġm Æ°ng
ĠRIV ERSIDE
ambi que
ĠB ok
Ġro ad
ĠKHá» Ķ
ser ver
ĠFood s
ĠCá»Ĳ T
ĠM AU
20 25
os ch
ĠCá» įc
ĠN EX
Boo st
Ġp et
thyl ene
era ti
ur ing
ĠChe f
ansom ware
f lot
ĠhÃª nh
Ġsá» Ľt
f ore
Ġr ender
Nh adat
ĠCh lor
ĠUBCK NN
ĠH ull
âĸº âĸº
phá» ķ
Ġd Ã¡i
ĠRi vi
ĠAng ry
ĠHo b
ĠAd apter
37 8
Ġ08 3
ĠRed dit
ulo se
Ġngo áº¡c
ĠM MA
Ġz ai
IN T
VI E
Khá» ıi
tr act
A mp
ph ony
Mod ule
Kho ang
ĠAD MIN
ĠBe ast
om as
ĠSim ilac
es trogen
ĠHD TV
[...]
