{"<|endoftext|>":0,"!":1,"\"":2,"#":3,"$":4,"%":5,"&":6,"'":7,"(":8,")":9,"*":10,"+":11,",":12,"-":13,".":14,"/":15,"0":16,"1":17,"2":18,"3":19,"4":20,"5":21,"6":22,"7":23,"8":24,"9":25,":":26,";":27,"<":28,"=":29,">":30,"?":31,"@":32,"A":33,"B":34,"C":35,"D":36,"E":37,"F":38,"G":39,"H":40,"I":41,"J":42,"K":43,"L":44,"M":45,"N":46,"O":47,"P":48,"Q":49,"R":50,"S":51,"T":52,"U":53,"V":54,"W":55,"X":56,"Y":57,"Z":58,"[":59,"\\":60,"]":61,"^":62,"_":63,"`":64,"a":65,"b":66,"c":67,"d":68,"e":69,"f":70,"g":71,"h":72,"i":73,"j":74,"k":75,"l":76,"m":77,"n":78,"o":79,"p":80,"q":81,"r":82,"s":83,"t":84,"u":85,"v":86,"w":87,"x":88,"y":89,"z":90,"{":91,"|":92,"}":93,"~":94,"¡":95,"¢":96,"£":97,"¤":98,"¥":99,"¦":100,"§":101,"¨":102,"©":103,"ª":104,"«":105,"¬":106,"®":107,"¯":108,"°":109,"±":110,"²":111,"³":112,"´":113,"µ":114,"¶":115,"·":116,"¸":117,"¹":118,"º":119,"»":120,"¼":121,"½":122,"¾":123,"¿":124,"À":125,"Á":126,"Â":127,"Ã":128,"Ä":129,"Å":130,"Æ":131,"Ç":132,"È":133,"É":134,"Ê":135,"Ë":136,"Ì":137,"Í":138,"Î":139,"Ï":140,"Ð":141,"Ñ":142,"Ò":143,"Ó":144,"Ô":145,"Õ":146,"Ö":147,"×":148,"Ø":149,"Ù":150,"Ú":151,"Û":152,"Ü":153,"Ý":154,"Þ":155,"ß":156,"à":157,"á":158,"â":159,"ã":160,"ä":161,"å":162,"æ":163,"ç":164,"è":165,"é":166,"ê":167,"ë":168,"ì":169,"í":170,"î":171,"ï":172,"ð":173,"ñ":174,"ò":175,"ó":176,"ô":177,"õ":178,"ö":179,"÷":180,"ø":181,"ù":182,"ú":183,"û":184,"ü":185,"ý":186,"þ":187,"ÿ":188,"Ā":189,"ā":190,"Ă":191,"ă":192,"Ą":193,"ą":194,"Ć":195,"ć":196,"Ĉ":197,"ĉ":198,"Ċ":199,"ċ":200,"Č":201,"č":202,"Ď":203,"ď":204,"Đ":205,"đ":206,"Ē":207,"ē":208,"Ĕ":209,"ĕ":210,"Ė":211,"ė":212,"Ę":213,"ę":214,"Ě":215,"ě":216,"Ĝ":217,"ĝ":218,"Ğ":219,"ğ":220,"Ġ":221,"ġ":222,"Ģ":223,"ģ":224,"Ĥ":225,"ĥ":226,"Ħ":227,"ħ":228,"Ĩ":229,"ĩ":230,"Ī":231,"ī":232,"Ĭ":233,"ĭ":234,"Į":235,"į":236,"İ":237,"ı":238,"Ĳ":239,"ĳ":240,"Ĵ":241,"ĵ":242,"Ķ":243,"ķ":244,"ĸ":245,"Ĺ":246,"ĺ":247,"Ļ":248,"ļ":249,"Ľ":250,"ľ":251,"Ŀ":252,"ŀ":253,"Ł":254,"ł":255,"Ń":256,"há":257,"Ġn":258,"ĠÄ":259,"ĠÄĳ":260,"Ãł":261,"iá":262,"hÃ":263,"há»":264,"Æ°":265,"Ġv":266,"nh":267,"Ġl":268,"iá»":269,"Ã¡":270,"Ġk":271,"Ġb":272,"Ġm":273,"ĠÄĳá":274,"háº":275,"tr":276,"Ġtr":277,"Æ°á":278,"Æ°á»":279,"Ġs":280,"ch":281,"º¡":282,"º¿":283,"Ġg":284,"cá":285,"Ġcá":286,"Ãª":287,"Ġd":288,"áº¡":289,"Ġng":290,"ĠÄĳá»":291,"Ġh":292,"º£":293,"´n":294,"iá»ĩ":295,"Ġvá":296,"Ġp":297,"Ã³":298,"tá":299,"Ġtá":300,"ĠT":301,"th":302,"uá":303,"Ġth":304,"Ġmá":305,"´ng":306,"Ãªn":307,"Ġsá":308,"Ġch":309,"»Ļ":310,"Ġnh":311,"Ġvá»":312,"Ġbá":313,"Æ¡":314,"Ġcá»":315,"ĠvÃł":316,"an":317,"º¥":318,"»ĳ":319,"Ã¢":320,"thá»":321,"Ġthá»":322,"ĠkhÃ":323,"on":324,"uy":325,"iáº¿":326,"Ġq":327,"ĠlÃł":328,"Ġhá»":329,"Æ°á»Ŀ":330,"ĠN":331,"Ľi":332,"Ã¬":333,"ĥn":334,"Ġr":335,"Ġtá»":336,"cÃ¡":337,"ĠcÃ¡":338,"ĠC":339,"º§":340,"Ġx":341,"Ãłn":342,"Æ°á»£":343,"§a":344,"Ġcá»§a":345,"cÃ³":346,"Ġlá":347,"chá»":348,"ĠcÃ³":349,"ºŃ":350,"Ġchá»":351,"Ġgi":352,"áº¡i":353,"thÃ":354,"ĠthÃ":355,"Ġdá":356,"ong":357,"Æ¡n":358,"Ã´":359,"Ġkh":360,"ĠH":361,"âĢ":362,"¯n":363,"Ġtrá":364,"Ã´ng":365,"iá»ģ":366,"ĠphÃ":367,"Ã£":368,"Æ°á»£c":369,"uyá":370,"Äĥn":371,"º£n":372,"Ġdá»":373,"Ġá":374,"áº¡n":375,"iÃªn":376,"háº¥":377,"»Ļt":378,"ĠkhÃ´ng":379,"Ã¬nh":380,"Ġsá»":381,"ĠÄĲ":382,"ĠcÃ¡c":383,"iá»ĩn":384,"Ġcho":385,"Ġqu":386,"ĠV":387,"chÃ":388,"¯ng":389,"ĠchÃ":390,"ĠÄĳÆ°á»£c":391,"Ãły":392,"inh":393,"Ġmá»":394,"ĠB":395,"Ġbá»":396,"Ġlá»":397,"ay":398,"º¥t":399,"Ġnhá»":400,"©n":401,"Æ°á»Ŀi":402,"ÃŃ":403,"anh":404,"Ġtrong":405,"Ġmá»Ļt":406,"Æ°á»Ľ":407,"Ġpháº":408,"ao":409,"º·":410,"ang":411,"in":412,"Ġná":413,"Ġvá»Ľi":414,"iá»ģu":415,"Æ°á»Ŀn":416,"ĥm":417,"ĠM":418,"Ãłnh":419,"Ãłng":420,"uyá»":421,"Æ°á»Ŀng":422,"ĠngÆ°á»Ŀi":423,"Ġ1":424,"Ãłi":425,"ĠhÃ":426,"uá»ĳ":427,"Ġtrá»":428,"©ng":429,"Ġrá":430,"am":431,"Ã¹":432,"²n":433,"tháº":434,"Æ°Æ¡n":435,"Ġtháº":436,"un":437,"Ã¡n":438,"Æ°Æ¡ng":439,"Ġ2":440,"ai":441,"iáº¿t":442,"ĠL":443,"©c":444,"ĠnhÆ°":445,"º§n":446,"ĠÄĳá»Ļ":447,"Ġnhá»¯ng":448,"Ã¢y":449,"º¯":450,"háº¥t":451,"Ġá»":452,"ĠS":453,"Æ°á»Ľc":454,"Ġká":455,"ung":456,"±c":457,"º§u":458,"Ãº":459,"Äĥng":460,"º¿n":461,"Ã´i":462,"Ã½":463,"Ġho":464,"ĠÄĳá»ĥ":465,"iáº¿n":466,"ĠÄĳÃ£":467,"ĠP":468,"Ã¢n":469,"Ġthá»ĥ":470,"Ŀi":471,"ĵn":472,"¢n":473,"Ġbáº¡n":474,"Ġngh":475,"ĠkhÃ¡":476,"ĠK":477,"..":478,"háºŃ":479,"Ġsáº":480,"įc":481,"iá»ĩt":482,"au":483,"cÃ´ng":484,"ĠTr":485,"ĠcÃ´ng":486,"£i":487,"ĠnhÃ":488,"ĠâĢ":489,"Ã¡c":490,"Ġgá":491,"ĠnÃły":492,"Ã²n":493,"«n":494,"Ã¹n":495,"Ã¹ng":496,"Ġ(":497,"Äĥm":498,"Ġkhi":499,"Ġgiá»":500,"Ġvá»ģ":501,"Ġsá»ĳ":502,"Ġcáº£":503,"ĠG":504,"ĠÄĳáº¿n":505,"ĠlÃłm":506,"ĠD":507,"iá»ĩu":508,"Ġgiá":509,"Ġ-":510,"Ġsáº½":511,"ÄĲ":512,"Ġdá»¥":513,"Ġháº":514,"Å©ng":515,"Ġra":516,"±n":517,"táº¡i":518,"Ġtáº¡i":519,"ĵng":520,"±ng":521,"º¿t":522,"Ġá»Ł":523,"ºŃt":524,"em":525,"Ãªu":526,"ĠphÃ¡":527,"ĠQ":528,"ĠÄĳÃ³":529,"01":530,"Ġphá»":531,"ĠhÃłng":532,"įn":533,"ĠNg":534,"á»Ļ":535,"ĠgiÃ¡":536,"Ġná»":537,"Ġtá»«":538,"cÅ©ng":539,"eo":540,"Ġnhiá»ģu":541,"ĠcÅ©ng":542,"ĠmÃł":543,"cháº":544,"ĠvÃło":545,"Ġláº¡i":546,"Ãło":547,"ºŃn":548,"Ġcháº":549,"ĠÄĳá»ĭ":550,"ĠtrÃªn":551,"Ġph":552,"ĠnhÃł":553,"Ġnháº¥t":554,"Ġquá":555,"iá»ĩc":556,"ĠÄĲá":557,"Ġchá»ī":558,"ĭch":559,"Ńnh":560,"to":561,"Ġdá»¥n":562,"Ġdá»¥ng":563,"ĠÄĳá»Ļn":564,"ĠTh":565,"ĠÄĳá»Ļng":566,"Ġhá»įc":567,"Ġbá»ĭ":568,"Ġsá»±":569,"ĠÄĳáº§u":570,"ĠA":571,"¡n":572,"¥c":573,"ĠnÃ³":574,"ķi":575,"ĠnháºŃ":576,"Ä©":577,"Ġhiá»ĩn":578,"º£i":579,"uá»ĳc":580,"âĢĿ":581,"Æ¡i":582,"ºŃp":583,"ĠnÄĥm":584,"Ġviá»ĩc":585,"©m":586,"Ìģ":587,"Ġpháº£i":588,"º·c":589,"tÃ´i":590,"ĠthÃłnh":591,"ĠtÃ´i":592,"º·t":593,"tÃŃ":594,"uyÃªn":595,"ĠtÃŃ":596,"Æ°á»£n":597,"ĠchÃº":598,"Ġtá»ĳ":599,"Ã¢m":600,"tin":601,"Æ°á»£ng":602,"uá»":603,"Ġngá":604,"00":605,"ĠngÃły":606,"Ġdo":607,"ĠÄĳi":608,"ģn":609,"ĳn":610,"º±ng":611,"ĠÄĳáº¡":612,"iá»ĥm":613,"ĠnÆ°á»Ľc":614,"Ġto":615,"º»":616,"º¹":617,"oáº¡i":618,"Ã¡o":619,"»ĵ":620,"Ġquan":621,"ĠthÃ¬":622,"uyá»ĩ":623,"ĠNam":624,"ĠmÃ¡":625,"£p":626,"ĠTá":627,"Ã©":628,"Ġsáº£n":629,"Ġnghiá»ĩ":630,"Ġ3":631,"ĠchÃŃnh":632,"ta":633,"Ġtin":634,"Ġy":635,"§n":636,"º«n":637,"ĠnhÃ¢n":638,"ĠViá»ĩt":639,"¡ng":640,"Ġhá»Ļ":641,"º¯t":642,"»Ļc":643,"Ġmá»Ľi":644,"ĠâĢľ":645,"uá»ĳn":646,"ĠhÆ¡n":647,"ĠMá":648,"Ġkho":649,"Ġhá»£p":650,"Ġká»":651,"Æ°a":652,"Ġtháº¿":653,"ĠHá":654,"ĠÄĳá»ģ":655,"Ã¢u":656,"Ġgia":657,"º£o":658,"en":659,"ĠÄĳá»ĭnh":660,"ĠthÃ´ng":661,"º£ng":662,"er":663,"º¥y":664,"Ġsinh":665,"Ì£":666,"ÌĢ":667,"ĠmÃ¬nh":668,"Ġsá»Ń":669,"¯a":670,"ĠnÃªn":671,"cao":672,"iá»ĥn":673,"ĳng":674,"Ġcao":675,"º¥p":676,"iá»ģn":677,"Ã´n":678,"ħn":679,"con":680,"º¥n":681,"Ġthuá":682,"ĠcÃ¡ch":683,"ĠtrÆ°á»Ŀng":684,"º¿u":685,"Ã¡ng":686,"ĠÄĳiá»ģu":687,"cÃ²n":688,"ĳi":689,"Ġráº¥t":690,"ĠcÃ²n":691,"Ġthá»Ŀi":692,"cÆ¡":693,"Ã¡ch":694,"hi":695,"Ġcon":696,"ĠBá":697,"ti":698,"ĠcÆ¡":699,"Ġkháº":700,"ĠÄĳá»ĵng":701,"Æ°á»Ł":702,"Ġtheo":703,"ĥu":704,"...":705,"iá»ĥu":706,"Ġsau":707,"Ġthá»±c":708,"Æ°á»Łn":709,"Æ°á»Łng":710,"¬nh":711,"uyá»ģn":712,"ĠviÃªn":713,"ĠhÃ¬nh":714,"ua":715,"Ã¡nh":716,"tÆ°":717,"ĠtÆ°":718,"uáº¥t":719,"ĠkhÃ¡ch":720,"Ġ201":721,"Ġnghá»":722,"Ġpháº©m":723,"Ġkhá»":724,"Ġvá»¥":725,"áº¡o":726,"ĠlÃ½":727,"ĠchÃºn":728,"ĠchÃºng":729,"Ġbiáº¿t":730,"á»Ļi":731,"Ġta":732,"ia":733,"uyá»ĩn":734,"ĠÄĳang":735,"ĠtrÃ¬nh":736,"tháº¥":737,"Ġtháº¥":738,"ĠÄĳÃ¢y":739,"ĠnÃło":740,"²ng":741,"ĠChÃ":742,"cÃ¹ng":743,"Ńa":744,"Ġcáº¥p":745,"ĠcÃ¹ng":746,"ĠkhÃ¡c":747,"Ġngá»":748,"ĠhÃłnh":749,"º¯c":750,"«ng":751,"ĠÄĲá»":752,"ĩnh":753,"ĠnhÆ°n":754,"ĠnhÆ°ng":755,"Ã¡i":756,"Ġqua":757,"ĠnÃ³i":758,"Ġcáº§n":759,"ĠnÄĥng":760,"ĠphÃ¡t":761,"ĠnháºŃn":762,"Tr":763,"įng":764,"Ġnghiá»ĩp":765,"ĠlÃªn":766,"ķn":767,"ĠmÃ¡y":768,"Ġxá":769,"Ġgá»":770,"Ã²ng":771,"³n":772,"Ġlá»Ľ":773,"NG":774,"iáº¿p":775,"ĠlÆ°á»£ng":776,"Ġnháº":777,"ĠCá":778,"áº¡t":779,"ĠâĢĵ":780,"Ã²":781,"cháº¥t":782,"Ġtá»±":783,"įi":784,"Ġti":785,"hÃ¡":786,"Ġanh":787,"Ġcháº¥t":788,"Æ°á»Ľn":789,"Ãºc":790,"áº¡ng":791,"Æ°á»Ľng":792,"Ġkáº¿t":793,"Ġem":794,"ĠX":795,"tiáº¿n":796,"º£m":797,"º¥u":798,"Ġtiáº¿n":799,"Ġgian":800,"Ġhay":801,"Ġmáº·t":802,"ĠgÃ¬":803,"Ãºp":804,"ĠtrÆ°á»Ľc":805,"ĠNh":806,"Ġbá»Ļ":807,"ĠtoÃłn":808,"ar":809,"tÃ¢m":810,"Ġbáº£o":811,"ĠtÃ¢m":812,"Ġtáº¿":813,"hÃ´ng":814,"Ġhá»Ļi":815,"º£nh":816,"áº·c":817,"³ng":818,"ºŃy":819,"Ġthiáº¿t":820,"Ġkinh":821,"ĠvÃ¬":822,"Há":823,"ĠdÃ¢n":824,"Ġhiá»ĩu":825,"Ġbáº±ng":826,"Ġtá»ĳt":827,"Ġ4":828,"ĠphÃ²ng":829,"Ġxuáº¥t":830,"Ġ5":831,"Ġhá»ĩ":832,"Ġthá»ĭ":833,"ĠThá»":834,"ĠÃ½":835,"Ġquáº£":836,"Ġxe":837,"uyáº¿t":838,"iá»ħn":839,"uá»Ļc":840,"ĠÄĳiá»ĥm":841,"ĠTá»":842,"tÃ¬nh":843,"Ġtháº¥y":844,"³a":845,"táº¡o":846,"Ġbáº£n":847,"º¹p":848,"ĠtÃ¬nh":849,"Ġtáº¡o":850,"oÃłi":851,"»Ļi":852,"Ã³n":853,"ĠMá»":854,"ĠSá":855,"tÃ¡c":856,"Ġchá»§":857,"ĠtÃ¡c":858,"ĠÄĳá»ĳi":859,"co":860,"ĠÃ´ng":861,"ĠgiÃºp":862,"Ã¡t":863,"uyá»ĥn":864,"Ġgiá»Ľi":865,"Ġloáº¡i":866,"»ĵi":867,"ĠÄĥn":868,"ĠtÃŃnh":869,"ty":870,"Ġthu":871,"tiáº¿p":872,"Ġtiáº¿p":873,"ĠÄĳÆ°á»Ŀng":874,"ıi":875,"Å©":876,"Ġhá»į":877,"Ĺi":878,"Ġkáº¿":879,"âĢ¦":880,"Æ°u":881,"Ġcáº§u":882,"ĠÄĳiá»ĩn":883,"Ġnay":884,"Ġvá»ĭ":885,"ķng":886,"Ã¬m":887,"«a":888,"Ġtrang":889,"ĠÄĳáº¹p":890,"Ġtrá»ĭ":891,"Ġbá»ĩnh":892,"©u":893,"ÄĲá":894,"ĠnhiÃªn":895,"Ġvi":896,"ĠthÆ°á»Ŀng":897,"ÃŃch":898,"cÃ´":899,"Ġhoáº·c":900,"Ġchá»©c":901,"ĠVá":902,"Ġdá»±":903,"uá»ķi":904,"áº¿u":905,"Ìī":906,"»ĳi":907,"ĠliÃªn":908,"ĠÃ":909,"201":910,"áº¡ch":911,"Ġtá»Ľi":912,"Th":913,"im":914,"ĠQuá»ĳc":915,"Ġthá»©c":916,"Ġdoanh":917,"ĠcÃ´":918,"Ġpháº§n":919,"ĠCh":920,"áº¡nh":921,"Ġcháº¿":922,"ĠR":923,"ĠHá»":924,"tÃłi":925,"Ġcáº£m":926,"Ġsá»ĳn":927,"Ġsá»ĳng":928,"ĠyÃªu":929,"Ġáº£nh":930,"ĠtÃłi":931,"ĠphÃ¡p":932,"ĠÄĳo":933,"ĠÄĳáº¡i":934,"Ġlá»Ľn":935,"ĠHÃł":936,"»Ļn":937,"ĠthÃ¡ng":938,"Łi":939,"ĠGi":940,"ĠdÃ¹ng":941,"Ãªm":942,"Ġkhoá":943,"Ġ\"":944,"Ġgiáº£i":945,"ĠbÃłi":946,"te":947,"iá»ĩm":948,"Æ°n":949,"Æ°ng":950,"tiá»ģn":951,"Ġmuá»ĳn":952,"Ng":953,"Ġtiá»ģn":954,"ĠtháºŃ":955,"Ġváº¥n":956,"uáºŃn":957,"ĠtáºŃp":958,"ĠbÃ¡n":959,"ĠquÃ¡":960,"Ġchá»įn":961,"al":962,"Ġtriá»ĥn":963,"Ġty":964,"uÃ´n":965,"Ġváº«n":966,"ĠÃ¡n":967,"Ġdá»ĭch":968,"Ġsao":969,"Ġhai":970,"Ãµ":971,"ĠdÆ°á»":972,"º©n":973,"ĠHo":974,"ĠNá»Ļi":975,"ĠbÃ¡o":976,"tÄĥng":977,"ĠváºŃy":978,"ĠtÄĥng":979,"Ġmua":980,"or":981,"ĠthÃª":982,"tay":983,"es":984,"ĠthÆ°Æ¡ng":985,"ĠhÃ³a":986,"Ġthá»ĳng":987,"Ġan":988,"Ġtrá»įng":989,"cuá»Ļc":990,"Ġtay":991,"Ġcuá»Ļc":992,"Ġ6":993,"Ġdáº«n":994,"ĠtiÃªu":995,"Ġláº§n":996,"ĠTrung":997,"¯c":998,"Ã¡p":999,"Ã³c":1000,"Ġmang":1001,"Ġtrá»Ł":1002,"tÃ¬m":1003,"Ġthi":1004,"Ńch":1005,"Ġháº¡":1006,"ĠtÃ¬m":1007,"Ġlá»ĭch":1008,"Ġbiá»ĩt":1009,"ho":1010,"ĠCÃ´ng":1011,"Ġhoáº¡t":1012,"Ġda":1013,"ĠPhÃ":1014,"ĠnghÄ©":1015,"ĠvÄĥn":1016,"Ġthá»§":1017,"Ġchá»ĭ":1018,"Ġchi":1019,"º¯ng":1020,"Ġquá»ĳc":1021,"Ġtiáº¿ng":1022,"»Ļng":1023,"Ġtráº»":1024,"Ġliá»ĩu":1025,"Ġbao":1026,"Ġbáº¥t":1027,"ĠcÃ¡i":1028,"Ġrá»ĵi":1029,"ĠtrÃŃ":1030,"Ġlá»±c":1031,"uá»ĳng":1032,"Ġchiáº¿":1033,"īnh":1034,"Ġhá»ĵ":1035,"ĠÄĳÆ¡n":1036,"eb":1037,"Ġviáº¿t":1038,"uyáº¿n":1039,"ĠthÃªm":1040,"ĠI":1041,"Ġná»Ļi":1042,"Ġgiá»Ŀ":1043,"¬n":1044,"ĠchÆ°a":1045,"ĠÄĳá»ģu":1046,"Má":1047,"Ġgiao":1048,"Ã¨":1049,"Ġnhau":1050,"Há»":1051,"ĠhoÃłn":1052,"Ġrá»":1053,"há»¯ng":1054,"º§m":1055,"ĠÄĳá»ĭa":1056,"Ġtham":1057,"ĠphÃŃ":1058,"ĠchuyÃªn":1059,"ĠÄĳá»ķi":1060,"Ãºn":1061,"ĠbÃªn":1062,"ui":1063,"ĠChá»":1064,"Ġtrung":1065,"Ġráº±ng":1066,"ĠngoÃłi":1067,"Ġquy":1068,"ĠphÆ°Æ¡ng":1069,"ĠU":1070,"Ġkhu":1071,"et":1072,"Ġxem":1073,"ĠsÃ¡ng":1074,"ĠÄĳáº¥t":1075,"ĠF":1076,"ĠsÃ¡ch":1077,"ĠnháºŃp":1078,"Ġnghá»ĩ":1079,"Ġdu":1080,"ĠkhÃ³":1081,"Tá":1082,"£o":1083,"Ġ10":1084,"Ġmáº¯t":1085,"Ãºng":1086,"Ġmá»įi":1087,"ĠPh":1088,"Ġ7":1089,"Ġsá»Ł":1090,"Ġsá»©c":1091,"ĠthÃ¢n":1092,"Ġlo":1093,"ĠE":1094,"£n":1095,"ÄĲá»":1096,"º¯m":1097,"ĠtÃŃch":1098,"ĠthÃŃch":1099,"Ġá»©ng":1100,"Ġquyá»ģn":1101,"ĠthuáºŃt":1102,"Ġquyáº¿t":1103,"ca":1104,"Ġ0":1105,"ĠVá»":1106,"º¯n":1107,"Ġnáº¿u":1108,"Ã³ng":1109,"Ġtá»Ń":1110,"Ġlá»Ŀi":1111,"»Ń":1112,"Ġthá»©":1113,"Ġnhanh":1114,"ºc":1115,"Ġgiáº£m":1116,"ĠLá":1117,"tuá»ķi":1118,"Iá":1119,"º·n":1120,"Ġtuá»ķi":1121,"Ġvá»«a":1122,"Ġso":1123,"Ġchuyá»ĥn":1124,"tiáº¿t":1125,"háºŃt":1126,"Ġtrá»£":1127,"ĠkÃ½":1128,"Ġdá»±ng":1129,"Ġtiáº¿t":1130,"ĠÄĳáº·c":1131,"Ġtá»ķ":1132,"uáºŃt":1133,"áº¡c":1134,"«u":1135,"ĠbÃ¬nh":1136,"NH":1137,"ĠTrá":1138,"ĠMá»¹":1139,"º·p":1140,"ĠluÃ´n":1141,"ĠAnh":1142,"Ġ8":1143,"Ġngay":1144,"ĠlÃ²ng":1145,"Ã©t":1146,"ĠváºŃt":1147,"iÃªu":1148,"HÃ":1149,"±m":1150,"le":1151,"ĠhÆ°á»Ľng":1152,"Ġbáº¯t":1153,"Ġná»¯":1154,"Ġphá»ĳ":1155,"Ġphá»¥":1156,"ĠÄĳáº·t":1157,"Ã¡m":1158,"ĠnÆ¡i":1159,"Ġkiáº¿n":1160,"ĠnhÃ¬n":1161,"Ġmáº¡nh":1162,"ĠÄĳÄĥng":1163,"Ġtá»¥c":1164,"©p":1165,"Ġnhá»ı":1166,"ĠÄĳÃ¬nh":1167,"Ġphá»¥c":1168,"±a":1169,"uáº©n":1170,"Ġnghiá»ĩm":1171,"ĠxÃ£":1172,"Ġmáº¹":1173,"ĠÄĳÃ¡nh":1174,"ĠxÃ¢y":1175,"Bá":1176,"Ġgáº§n":1177,"ĠW":1178,"ĠmÃłu":1179,"ĠlÃºc":1180,"Ġká»³":1181,"uá»ĵn":1182,"cung":1183,"Ġkiá»ĩn":1184,"iáº¿u":1185,"Ch":1186,"ĠthÃ¡":1187,"uá»ĳi":1188,"Ġbiáº¿n":1189,"¯u":1190,"ĠgÃ¢y":1191,"Ġcung":1192,"ĠtháºŃt":1193,"ĠsÄ©":1194,"£y":1195,"Ġchá»©ng":1196,"ĠY":1197,"ĠlÃ£":1198,"ĠláºŃp":1199,"Ġthay":1200,"º§y":1201,"ĠDá":1202,"ĠSá»":1203,"¿t":1204,"tiÃªn":1205,"ºt":1206,"ĠtiÃªn":1207,"cÄĥn":1208,"ĠÄĳáº¡o":1209,"Vá":1210,"ĠTháº":1211,"Ġdiá»ħn":1212,"ĠgiÃ¡o":1213,"Ġdá»ħ":1214,"Ġbá»Łi":1215,"ĠQu":1216,"Ġvá»±c":1217,"Ġthanh":1218,"uyá»ħn":1219,"ĠCá»":1220,"ĠchÆ¡i":1221,"Ġkhiáº¿n":1222,"ĠÄĳá»ĵ":1223,"Ġná»¯a":1224,"ĠcÄĥn":1225,"ĠbÃ©":1226,"Ġchuyá»ĩn":1227,"Ġdiá»ĩn":1228,"Sá":1229,"ĠnguyÃªn":1230,"Ġtá»īnh":1231,"¡m":1232,"Ġháº¿t":1233,"ĠKá":1234,"Ġw":1235,"º¥m":1236,"Ġ,":1237,"iáº¿m":1238,"el":1239,"Ġlá»£i":1240,"Ġ9":1241,"ĠÄĳÆ°a":1242,"ĠÄĳá»§":1243,"ÃĢ":1244,"Ġtriá»ĩu":1245,"Ġvá»ĩ":1246,"Ġca":1247,"ĠchÃŃ":1248,"as":1249,"Ġ:":1250,"tÆ°á»£ng":1251,"Ġchung":1252,"º·ng":1253,"Ġbá»ı":1254,"ĠtÆ°á»£ng":1255,"Ġquáº£n":1256,"Ġbá»ĳ":1257,"ĠvÃ´":1258,"Ġtra":1259,"ĠcÃ¡o":1260,"ĠphÃ¢n":1261,"Ġtá»«ng":1262,"ĠBá»Ļ":1263,"oo":1264,"tinh":1265,"tÃªn":1266,"Ġmáº":1267,"Ġtruyá»ģn":1268,"ĠthÆ°":1269,"Ġtrá»±c":1270,"Ġmá»Ĺi":1271,"Ġchiáº¿n":1272,"uyá»ĩt":1273,"Ġcá»©u":1274,"ĠtÃªn":1275,"º¯p":1276,"Ä©nh":1277,"Ġhiá»ĥu":1278,"Ġthuá»Ļc":1279,"Ġhá»ıi":1280,"ĠTP":1281,"Ġtinh":1282,"si":1283,"Ġai":1284,"Ġmá»¥c":1285,"ĠNguyá»ħn":1286,"Ġcá»Ńa":1287,"Ġná»ķi":1288,"Ġchiáº¿c":1289,"háº¥p":1290,"ĠÄĳa":1291,"ĠMinh":1292,"¡y":1293,"Ġcáº£nh":1294,"ro":1295,"Ġtho":1296,"Ġdung":1297,"ĠhÃ´":1298,"ĠbÃłn":1299,"ĠÄĳá»Ŀi":1300,"Ġ2018":1301,"ÃŃnh":1302,"ºŃu":1303,"ĠBÃ¬nh":1304,"Ġnhiá»ĩm":1305,"ĠdÃłi":1306,"ĠdÆ°á»Ľi":1307,"Ġtáº¥t":1308,"CÃ¡c":1309,"Ġ_":1310,"Thá»":1311,"Ã£i":1312,"Ġcá»ķ":1313,"Ġhá»¯u":1314,"ÃŃt":1315,"cÃ¢u":1316,"iÃªng":1317,"ac":1318,").":1319,"§y":1320,"ĠAn":1321,"ĠcÃ¢u":1322,"Ġgáº·p":1323,"Ġkhai":1324,"Ãģ":1325,"Ġco":1326,"000":1327,"ĠVÄĥn":1328,"ĠLá»":1329,"Ãłm":1330,"Ġchuáº©n":1331,"Iá»":1332,"Ġsáº¯c":1333,"ĠsÃ¡t":1334,"Ġtráº£":1335,"Æ¯":1336,"©a":1337,"Ġba":1338,"º¿p":1339,"Ġhoa":1340,"Ġgiá»¯a":1341,"ic":1342,"Ġvui":1343,"Ìĥ":1344,"Ġkhoáº£ng":1345,"Ġtá»©c":1346,"ĠchÃ¢n":1347,"Ġbay":1348,"ıe":1349,"º¢":1350,"Ġmá»©c":1351,"Ġdá»¥c":1352,"Ġmáº¥t":1353,"Ġchia":1354,"ĠxÃ¡c":1355,"ĠÄĳáº§y":1356,"âĢľ":1357,"Ġphong":1358,"Ġáº¥y":1359,"ĠÄĳÃºng":1360,"Ġmáº¡ng":1361,"Ãłu":1362,"Ġkháº©u":1363,"ĠÄĳÃłn":1364,"Tá»":1365,"ĠÄĳá»Ļi":1366,"ĠkhÃŃ":1367,"Æ°á»£t":1368,"ĠDá»":1369,"ĠquÃ½":1370,"ĠluáºŃn":1371,"Ġ19":1372,"ĠÄĳÃ³n":1373,"Ġcá»ĳ":1374,"Ġtá»·":1375,"ĠmÃ¹":1376,"Ġ12":1377,"Ġthoáº¡i":1378,"ĠrÃµ":1379,"ĠNá":1380,"Ġká»¹":1381,"Nhá»¯ng":1382,"Ġkiá»ĥm":1383,"Cá":1384,"Vá»":1385,"Ġthuá»ĳc":1386,"ĠO":1387,"¥n":1388,"Ġhá»Ĺ":1389,"ad":1390,"ĠlÆ°u":1391,"ĠÃ¡p":1392,"Ġban":1393,"cÆ°":1394,"ĠgÃ³":1395,"Ġkhá»ıe":1396,"Ġmá»Ł":1397,"ĠcÆ°":1398,"Ġkháº£":1399,"Ã²a":1400,"Ġtranh":1401,"Ġgá»įi":1402,"Ġweb":1403,"cÃłng":1404,"ĠtoÃ¡n":1405,"ĠcÃłng":1406,"Ġ.":1407,"¢u":1408,"ĠbÃł":1409,"Ġchá»ĳng":1410,"Ġminh":1411,"Ġkhoa":1412,"ĠÄĲáº¡i":1413,"Ġkhoáº£n":1414,"Ġlá»±a":1415,"Nh":1416,"Ã¢ng":1417,"âĢĵ":1418,"Ġtá»ĳi":1419,"cÃ¢y":1420,"ĠChÃº":1421,"Ġ20":1422,"us":1423,"ĠcÃ¢y":1424,"Báº¡n":1425,"tiá»ĩn":1426,"ĠluáºŃt":1427,"ĠtrÆ°á»Łng":1428,"Ġtiá»ĩn":1429,"Ġháº¡n":1430,"ĠCÃ¡c":1431,"Ġcáº¡":1432,"ĠÄĳáº£m":1433,"ĠhÆ°á»Łng":1434,"CM":1435,"tÆ°Æ¡ng":1436,"Ġsáº»":1437,"Äĳ":1438,"Ġsang":1439,"ĠThÃ¡":1440,"Ġcá»©":1441,"Ġtá»ķng":1442,"Ã¡y":1443,"»ĳn":1444,"ĠchÆ°Æ¡ng":1445,"ĠhÃ£y":1446,"is":1447,"Ġláº¥y":1448,"ĠÄĳÃ¢u":1449,"Ġin":1450,"Ġcá»±c":1451,"ĠgÃ¡i":1452,"ĠdÆ°á»¡ng":1453,"Ġbiá»ĥu":1454,"ChÃ":1455,"Ġgiá»¯":1456,"Ġyáº¿u":1457,"Ġgiáº£":1458,"ĠÄĳá»Ļc":1459,"ĠtÆ°Æ¡ng":1460,"Ġmáº«u":1461,"tÆ°á»Łng":1462,"ĠBá»":1463,"ĠtÆ°á»Łng":1464,"iá»ĩp":1465,"º½":1466,"ĠphÃ©p":1467,"âĢĿ.":1468,"Chá»":1469,"Ġnguá»ĵn":1470,"ter":1471,"ĠÃŃt":1472,"Ġkiáº¿m":1473,"10":1474,"Ġdi":1475,"ĠngÃłnh":1476,"ÃĶ":1477,"ĠJ":1478,"tháº¥t":1479,"Ńi":1480,"ĠnghÄ©a":1481,"Ġtháº¥t":1482,"Ġdanh":1483,"cuá»ĳi":1484,"Ġviá»ĩn":1485,"ĠÄĳáº¥u":1486,"Ġnghe":1487,"Ġcuá»ĳi":1488,"µn":1489,"id":1490,"uáº§n":1491,"ĠsÆ¡":1492,"Ġcá»¥":1493,"ĠbÃ³ng":1494,"ĠÄĳoÃłn":1495,"ĠHá»ĵ":1496,"ĠtÃŃn":1497,"ĠThÃ":1498,"ĠphÃ¹":1499,"uÃ¢n":1500,"ĠÃ´":1501,"Ġnghi":1502,"¡t":1503,"tÃ´":1504,"),":1505,"Ġxin":1506,"ĠNháºŃt":1507,"lo":1508,"ĠdÃ¹":1509,"lin":1510,"ĠÃŃch":1511,"Ġcáº¡nh":1512,"ĠÄĳáº¡t":1513,"ĠÃ¢m":1514,"ur":1515,"ĠÄĳáº":1516,"Ġnam":1517,"ĠthuÃª":1518,"Ġxá»Ń":1519,"ĠNhÃł":1520,"Ġrá»Ļng":1521,"Ġchá»ĭu":1522,"Ġtráº¡ng":1523,"»ĳc":1524,"ĠmáºŃt":1525,"one":1526,"ĠTrong":1527,"ĠváºŃn":1528,"Ġráº»":1529,"ĠHá»Ļi":1530,"ĠPhÃ¡":1531,"ĠdÃłnh":1532,"Ġtháº§n":1533,"ĠChÃŃnh":1534,"Ġgá»Ńi":1535,"ĠÄĳÃ¡":1536,"ĠvÃ¹ng":1537,"ĠriÃªng":1538,"com":1539,"ap":1540,"ĠÄĳÃ¡ng":1541,"ĠThanh":1542,"ĠTR":1543,"Ġxuá»ĳng":1544,"¡c":1545,"ĠÄĳau":1546,"º§ng":1547,"ĠlÃ¢u":1548,"ĠÄĳÃ´":1549,"Ġchá»¯a":1550,"site":1551,"º±m":1552,"ĠmÃ´i":1553,"ĠcáºŃp":1554,"ĠNáº¿u":1555,"Ġbiá»ĥn":1556,"Ãºi":1557,"º£y":1558,"Ġhoáº¡ch":1559,"ĠphÃŃa":1560,"ing":1561,"»ĵm":1562,"ĠKhÃ´ng":1563,"Ãºt":1564,"ail":1565,"Ġpháº¡m":1566,"TT":1567,"Dá":1568,"Ġlá»Ľp":1569,"Ġ15":1570,"ĠÃ¡o":1571,"Ã£y":1572,"ĠThÃłnh":1573,"ĠÄĲá»©c":1574,"2018":1575,"Ġuá»ĳng":1576,"Ġnghá»ĭ":1577,"Ġxa":1578,"ĠmÃ´":1579,"ĠÄĲÃ´ng":1580,"Ġngá»§":1581,"´i":1582,"Trong":1583,"om":1584,"ag":1585,"ĠvÃłn":1586,"ol":1587,"Ġgá»ĵm":1588,"ĠQuá":1589,"ĠnhÃ©":1590,"Ġcháº¯c":1591,"Æ°Æ¡":1592,"Ġphim":1593,"ĠquÃ¢n":1594,"º¾":1595,"Ġháº¯n":1596,"ĠKá»":1597,"ĠnÃ¢ng":1598,"Ġphá»§":1599,"ĠPháº":1600,"BÃłi":1601,"Æ°á»Ľi":1602,"ĠTH":1603,"©y":1604,"ĠmÃ³n":1605,"tuyáº¿n":1606,"ĠsÆ°":1607,"Ġtuyáº¿n":1608,"º¤":1609,"Ġká»ĥ":1610,"ĠvÃłng":1611,"ĠhÃ´m":1612,"ĠhÃ²":1613,"ĠCÃ³":1614,"Ġcháº¿t":1615,"ĠbÆ°á»Ľc":1616,"Ġtáº£i":1617,"ĠÃģ":1618,"ĠVi":1619,"ĠChÃŃ":1620,"ĠÆ°u":1621,"Ġhá»ĵi":1622,"um":1623,"ĠháºŃ":1624,"Tin":1625,"ĠÄĳá»įc":1626,"Ġgiáº£n":1627,"Ġnhu":1628,"ĠBáº¡n":1629,"tuyá»ĩt":1630,"ºł":1631,"ĠKh":1632,"ĠÄĳÃ´i":1633,"Ġtuyá»ĩt":1634,"Ġf":1635,"Ġthiá»ĩn":1636,"Dá»":1637,"»ĳng":1638,"Ġ2017":1639,"tuáº§n":1640,"Ġdáº¡ng":1641,"ĠTuy":1642,"ģm":1643,"Ġ30":1644,"ĠtÃ´":1645,"ĠtrÃ²":1646,"Ġváº»":1647,"ĠbÃ¡c":1648,"ĠChá»§":1649,"Ġtráº¯ng":1650,"ĠMá»Ļt":1651,"ĭa":1652,"Má»Ļt":1653,"Ã£n":1654,"ĠBáº£n":1655,"ĭp":1656,"ed":1657,"Ġtuáº§n":1658,"Theo":1659,"ĠtrÃ¡ch":1660,"ĠBáº¯c":1661,"§ng":1662,"³m":1663,"Ġnhá»Ľ":1664,"Ġvá»ĳn":1665,"Â»":1666,"Ġ...":1667,"ĠdÃ²ng":1668,"ĠxÃ©t":1669,"Ġ11":1670,"Lá":1671,"ĠmÃ¹a":1672,"ĠTo":1673,"Ġ&":1674,"ĠsÃ¢n":1675,"Ġlá»ĩ":1676,"ĠTrá»":1677,"tuyá»ĥn":1678,"Ġcá»Ļng":1679,"Ġdáº¡":1680,"ĠGiá":1681,"Ġmáº¡i":1682,"ĠtráºŃn":1683,"Ġtuyá»ĥn":1684,"Ġthiáº¿u":1685,"ĠnÃłng":1686,"Ġchá»ĵng":1687,"¹n":1688,"ĠnháºŃt":1689,"ĠÄĳoáº¡n":1690,"Ġkhá»ıi":1691,"Ġngoáº¡i":1692,"ĠNhÆ°ng":1693,"ĠTÃ´i":1694,"ĠvÃ²ng":1695,"ĠÄĳÃ´ng":1696,"ĠHoa":1697,"ĠkÃŃch":1698,"Ã©o":1699,"Ġmá»ģm":1700,"Ġxanh":1701,"Iá»Ĩ":1702,"ĠÄĳÃ¡p":1703,"háº¥n":1704,"Ġcháº¡y":1705,"CÃ´ng":1706,"ĠTá»ķng":1707,"ĠNgÆ°á»Ŀi":1708,"Ġnáº±m":1709,"ame":1710,"11":1711,"cÃ¢n":1712,"Ġtáº§ng":1713,"Ġlao":1714,"Ġmiá»ħn":1715,"il":1716,"Ġtrá»Ŀi":1717,"Ġláº¡nh":1718,"ĠhÃ²a":1719,"ĠcÃ¢n":1720,"ĠtrÃ¡i":1721,"á»Ļn":1722,"Má»":1723,"ĠhÃºt":1724,"ĠvÃłi":1725,"ĠmÃ´n":1726,"Ġhiá»ĥm":1727,"ĠTÃ¢y":1728,"ĠNhá»¯ng":1729,"12":1730,"Ġgiá»ĳng":1731,"Ġi":1732,"ThÃ´ng":1733,"háº¿":1734,"Ph":1735,"iá»ģm":1736,"HCM":1737,"ĠgiÃ¡c":1738,"ĠháºŃu":1739,"vn":1740,"CÃ³":1741,"ĠÄĳÃ³ng":1742,"ĠDÆ°Æ¡ng":1743,"Ġvá»£":1744,"ĠphÃºt":1745,"ĠHÃłn":1746,"Ġmá»¹":1747,"ĠThÃ´ng":1748,"Ġnguy":1749,"ĠchÃºt":1750,"¥ng":1751,"KhÃ´ng":1752,"Ġnhiá»ĩt":1753,"Ġpháº£n":1754,"line":1755,"iÃª":1756,"ĠgÃ³p":1757,"ĠÄĳá»ĳ":1758,"Ġsá»Ńa":1759,"Ġvá»įng":1760,"ÃĬ":1761,"ĠrÄĥng":1762,"Ġ200":1763,"ĠDo":1764,"ĠthÆ¡":1765,"hÃ¢n":1766,"ĠÄĳá»©ng":1767,"ĠdÃłng":1768,"á»Ļng":1769,"ĠnghiÃªn":1770,"Ġcháº³ng":1771,"ĠThÃ¡i":1772,"uÃ´i":1773,"Ġgiáº¥y":1774,"ĠHoÃłng":1775,"CH":1776,"at":1777,"Ġná»ģn":1778,"ĠnÃ³n":1779,"ĠHáº£i":1780,"Ġnháº¡c":1781,"Gi":1782,"Ġtá»ĭch":1783,"ĠthuáºŃn":1784,"ĠlÃłn":1785,"Ġla":1786,"ĠthÃ´i":1787,"Ġmong":1788,"ĠtrÃ¡nh":1789,"Sá»":1790,"áº¡p":1791,"ĠLong":1792,"Ġlá»ħ":1793,"Æ°Æ¡i":1794,"Ġdáº¥u":1795,"Ġxá»":1796,"ĠkhÄĥn":1797,"ĠÄĲiá»ģu":1798,"Ġdáº§u":1799,"ĠIn":1800,"ĠlÃ£nh":1801,"ĠkhÃ³a":1802,"re":1803,"£ng":1804,"ĠchÄĥm":1805,"Ġghi":1806,"Ġkháº£o":1807,"ĠQuáºŃn":1808,"ĠsÃ¢u":1809,"ĠÄĲá»ĵng":1810,"ĠSau":1811,"ĠkhÃ¡m":1812,"Uá":1813,"Ã¨n":1814,"ĠÄĳÃło":1815,"ĠKhi":1816,"Ġwebsite":1817,"Ġbá»ķ":1818,"âĢĿ,":1819,"Ġnghá»ī":1820,"up":1821,"ĠsÃ³c":1822,"Ġháº¡i":1823,"Ġphá»ĳi":1824,"ĠngÃ¢n":1825,"Ġháº¥p":1826,"įt":1827,"ĠnÃ³ng":1828,"ĠhÃ£ng":1829,"Ġthiá»ĩu":1830,"iá»ħ":1831,"cÆ°á»Ŀi":1832,"Ġchiá»ģu":1833,"ĠchÃ³ng":1834,"ĠÄĳÃªm":1835,"ĠThá»ĭ":1836,"ĠNghá»":1837,"ĠnhÃ³m":1838,"Ġsáº¡ch":1839,"ĠquáºŃn":1840,"it":1841,"ND":1842,"Ġtrai":1843,"Ġ100":1844,"ĠNgá":1845,"ĠcÆ°á»Ŀi":1846,"ĠmÃłn":1847,"Ľm":1848,"ĠBan":1849,"ĠLiÃªn":1850,"ın":1851,"ıa":1852,"ĠTrÆ°á»Ŀng":1853,"Ġsuáº¥t":1854,"Ġnháº¹":1855,"Ġmáº¯c":1856,"cam":1857,"ĠSÆ¡n":1858,"ĠTrang":1859,"Æ¯á":1860,"Æ¯á»":1861,"Ġcáº£i":1862,"li":1863,"ĠÃ¡nh":1864,"ĠbáºŃt":1865,"Ġnghá»ģ":1866,"ĠmÃ¡u":1867,"Ġthai":1868,"Náº¿u":1869,"Ġxáº£y":1870,"Ġtháº©m":1871,"ıng":1872,"Ġchá»Ĺ":1873,"Ġnháº±m":1874,"Ġthá»Ń":1875,"ĠkÃª":1876,"Ġquáº£ng":1877,"ĠUS":1878,"ĠthiÃªn":1879,"20":1880,"ĠVá»Ľi":1881,"ĠNG":1882,"©t":1883,"tÆ°á»Ľng":1884,"ĠKhÃ¡":1885,"ĠtÆ°á»Ľng":1886,"ĠPhÃº":1887,".âĢĿ":1888,"Ġduy":1889,"ĠÄĳáº£o":1890,"ĠkÃŃnh":1891,"Ġhuyá»ĩn":1892,"Ġ18":1893,"ew":1894,"Ġuy":1895,"Ġchá»īnh":1896,"ĠPhá»":1897,"ĠtáºŃn":1898,"ĠthÃº":1899,"ĠthÃ¡i":1900,"ĠlÄ©nh":1901,"Ġcam":1902,"ĠÄĲÃ¢y":1903,"ph":1904,"cu":1905,"ĠnÃ´ng":1906,"Ġ24":1907,"º©m":1908,"Ġsá»Ľm":1909,"ĠÄĲÃł":1910,"tu":1911,"tai":1912,"ĠÃĶ":1913,"ĠkÃ©o":1914,"áº¡m":1915,"ĠhÆ¡i":1916,"Ká":1917,"ook":1918,"Ġbuá»ķi":1919,"uá»ĳt":1920,"tÃ³c":1921,"Äĥ":1922,"TÃ´i":1923,"Ġtháº¥p":1924,"ig":1925,"ĠcáºŃu":1926,"ĠtÃ³c":1927,"and":1928,"ĠNgá»":1929,"Ġná»ĳi":1930,"Ġmáº·c":1931,"ĠtrÃ¬":1932,"tiá»ĥu":1933,"ĠmÃ¡i":1934,"ĠTin":1935,"ĠxuyÃªn":1936,"iáº¿ng":1937,"ĠPhÃ¡p":1938,"Ġma":1939,"Trang":1940,"tÃ¹":1941,"ĠÃĤ":1942,"Ġngá»Ŀ":1943,"ĠÆ¡n":1944,"ĵi":1945,"Ġquanh":1946,"Ġtiá»ĥu":1947,"Ġtháº£o":1948,"cháº¥p":1949,"ĠÄĳá»ı":1950,"ĠVÃł":1951,"ĠsiÃªu":1952,"Ġtai":1953,"Ġcháº¥p":1954,"Ġká»·":1955,"ĠVÃ¬":1956,"os":1957,"ĠÄĳem":1958,"cÆ°á»Ŀng":1959,"Ġlá»Ļ":1960,"Ġkiá»ĥu":1961,"ĤN":1962,"ĠTráº§n":1963,"ĠngÃ´i":1964,"ĠcÆ°á»Ŀng":1965,"ĠtÃ¹":1966,"Ġ/":1967,"ĠthÆ°á»Łng":1968,"Ġthuáº¿":1969,"Ġtháº¯ng":1970,"Ġthao":1971,"Ġtráº£i":1972,"Ġquen":1973,"Sau":1974,"ĠTháº¿":1975,"ĠÄĲÄĥng":1976,"Ġsuy":1977,"ĠxÃºc":1978,"ĠEm":1979,"Lá»":1980,"Ġkháº¯c":1981,"Ġngá»ĵi":1982,"Vá»Ľi":1983,"cÅ©":1984,"ĠmÃ£":1985,"ĠcÅ©":1986,"Ġlá»Ĺi":1987,"ĠThá»§":1988,"ĠnghÃ":1989,"Ġhuy":1990,"Ġlinh":1991,"Ġthá»§y":1992,"Ġsai":1993,"Ġcháº¯n":1994,"ĠTÃ¢n":1995,"Ġcu":1996,"Ġ16":1997,"ĠKinh":1998,"ĠGiÃ¡o":1999,"ĠthÄĥm":2000,"Ġ13":2001,"Ġláº¡c":2002,"Ġniá»ĩm":2003,"Ġmiá»ģn":2004,"Ġcháº·":2005,"ĠKho":2006,"ÄĲÄĥng":2007,"Å©i":2008,"Ġngon":2009,"ĠChi":2010,"ĠdÃ¢y":2011,"Ġvai":2012,"Ã£o":2013,"ĠviÃªm":2014,"Ġláº½":2015,"Ġdáº¡y":2016,"Ġquáº§n":2017,"Ġkhá»Łi":2018,"Ġo":2019,"ĠChÃºa":2020,"Ġsáº¡n":2021,"ĠniÃªn":2022,"Ġquay":2023,"Ġkia":2024,"ĠPhÃ²ng":2025,"º¬":2026,"Ġnhá»Ŀ":2027,"Ġnáº¡n":2028,"ĠhÃ¡t":2029,"ĠChÃ¢u":2030,"Ġva":2031,"Ġáº¥n":2032,"ÄĲá»ĭa":2033,"ke":2034,"ĠLan":2035,"Ġtá»ĳc":2036,"ĠÂ»":2037,"ĠvÆ°á»£t":2038,"Ġsá»£":2039,"ĠChÃºn":2040,"ĠChÃºng":2041,"Ġmay":2042,"ĠThiÃªn":2043,"ĠNá»":2044,"Ġgame":2045,"ĠbÃ¡nh":2046,"NgÆ°á»Ŀi":2047,"Ġchá»©":2048,"Ġtáº·ng":2049,"19":2050,"ĠnuÃ´i":2051,"iá»ħm":2052,"Khi":2053,"Giá":2054,"Ġ2016":2055,"CÃ¡ch":2056,"§u":2057,"Ãµi":2058,"net":2059,"Ġ14":2060,"Ġphá»ķ":2061,"Bá»":2062,"2017":2063,"Ġtruy":2064,"Ġnáº·ng":2065,"ĠÄĳáº©y":2066,"ĠLÃª":2067,"ºµn":2068,"Ġmáº¥y":2069,"ex":2070,"ĠQuáº£ng":2071,"ĠphiÃªn":2072,"Ġ?":2073,"ĭnh":2074,"ĠUSD":2075,"Ġchá»Ŀ":2076,"ĠkhÃ¡n":2077,"Ġgá»Ĺ":2078,"Ġsá»¯a":2079,"ĠgiÃ¡m":2080,"ÄĲá»ĥ":2081,"ra":2082,"Æł":2083,"Ġbáº¿p":2084,"Ġcha":2085,"ĠXuÃ¢n":2086,"¥p":2087,"ĠRá":2088,"do":2089,"ĠKá»³":2090,"UY":2091,"ĠÄĳen":2092,"ĠphÃºc":2093,"ĠGia":2094,"ĠphÃª":2095,"Trá":2096,"Ġluyá»ĩn":2097,"ĠTá»«":2098,"ºµng":2099,"Ġngá»¯":2100,"Ã³a":2101,"Ġ09":2102,"Ġláº¡":2103,"ĠbÃŃ":2104,"ĠHá»įc":2105,"LiÃªn":2106,"ĠÄĳá»ĳc":2107,"Ńn":2108,"ĠDu":2109,"Ġchá»¯":2110,"Ġ25":2111,"Ġtruyá»ĩn":2112,"Ã¨m":2113,"Ġliá»ģn":2114,"Ġtáº¥n":2115,"Ho":2116,"Ġsáºµn":2117,"Ã©m":2118,"Ġsung":2119,"Ġchá»©a":2120,"¢m":2121,"iá»Ľi":2122,"Ġcáº¥u":2123,"ĠHÃ²a":2124,"ĠthÃºc":2125,"ÃĬN":2126,"Ġtim":2127,"ĠPhi":2128,"Ġxáº¿p":2129,"ĠhÃłi":2130,"ĠdÃ¡ng":2131,"tÃłu":2132,"TÃ¬m":2133,"ĠBáº£o":2134,"ĠlÃ¡":2135,"ĠhÃ´n":2136,"ĠSá»Ł":2137,"ĠmÆ¡":2138,"ĠmÃ£i":2139,"ĠNgh":2140,"Ġthoá":2141,"ĠtÃłu":2142,"ĠchÃ¡":2143,"ĠngÄĥn":2144,"Ġháº¡nh":2145,"ĠNga":2146,"Thiáº¿t":2147,"Ġbá»©c":2148,"ĠchÃ¢u":2149,"Ġ50":2150,"ĠNguyÃªn":2151,"Xem":2152,"ĠtÆ°Æ¡i":2153,"ob":2154,"ĠngÆ°Æ¡i":2155,"ĠNáºµng":2156,"Ġbáº£ng":2157,"ĠCH":2158,"ĠtrÃºc":2159,"ĠÃĶn":2160,"ÄĲiá»ģu":2161,"Ġtá»Ļi":2162,"ĠGiang":2163,"Ġsáº¯p":2164,"\".":2165,"ĠÄĳÃŃch":2166,"Ġgiai":2167,"Ġbáº§u":2168,"ĠquÃ¡n":2169,"Ġnhiá»ħm":2170,"ver":2171,"Ġtá»Ļc":2172,"Ġkáº»":2173,"Ã¹i":2174,"Ġpha":2175,"Ġá»ķn":2176,"ĠhÆ°Æ¡ng":2177,"Ġtáº§m":2178,"ĩt":2179,"vi":2180,"ChÃŃnh":2181,"ĠTÃłi":2182,"ĠSá»ĳ":2183,"ĠyÃªn":2184,"Ġtháº³ng":2185,"ĠTheo":2186,"Ġtrao":2187,"¹ng":2188,"iá»ĩng":2189,"Ġ17":2190,"âĢĻ":2191,"ºn":2192,"ll":2193,"ĠÃĶng":2194,"ĠBa":2195,"ĠÄĳáº³ng":2196,"Dá»ĭch":2197,"ĠcÃ¡n":2198,"ĠTÆ°":2199,"Ã³i":2200,"Ġdá»¯":2201,"ĠÄĳÃ¨n":2202,"ĠvÃ©":2203,"Ġcá»Ń":2204,"Ġkiá»ĩm":2205,"pp":2206,"ĠHÃ£y":2207,"cÃł":2208,"ĠNhÃ¢n":2209,"ĠPháºŃt":2210,"uáº¥n":2211,"Ġxo":2212,"Ġon":2213,"Ã²i":2214,"uá»Ļt":2215,"ĠcÃł":2216,"Ġgá»ĳc":2217,"Ġláº¯m":2218,"IN":2219,"Ġa":2220,"Ġngáº¯n":2221,"ĠNgoÃłi":2222,"ebook":2223,"ĠnghiÃªm":2224,"Ġthá»ĭt":2225,"Ġcáº¯t":2226,"Ġkhuyáº¿n":2227,"Ġmá»ĳi":2228,"Ġsuá»ĳt":2229,"ĠbÃły":2230,"ĠnhiÃªu":2231,"HÆ°á»Ľng":2232,"op":2233,"Ġcoi":2234,"Ġmiá»ĩng":2235,"ĠÄĳá»«ng":2236,"ĠmÅ©i":2237,"ĠÄĲiá»ĩn":2238,"ĠPhÆ°Æ¡ng":2239,"ri":2240,"ºng":2241,"Ġdá»ĭ":2242,"30":2243,"ĠChá»ī":2244,"ĠÄĲá»ĥ":2245,"Ġbuá»Ļc":2246,"Æ°á»¡ng":2247,"ĠcÃ¡nh":2248,"ĠmÃ¡t":2249,"ĠpháºŃn":2250,"Ġ[":2251,"ĠGá":2252,"Chi":2253,"Ġxong":2254,"NgÃły":2255,"Ġ'":2256,"tuy":2257,"º¢nh":2258,"ĠNinh":2259,"»ĳt":2260,"ĠNgá»įc":2261,"acebook":2262,"Ġninh":2263,"ĠBÃ¡o":2264,"Ġláº¯p":2265,"ĠdÆ°Æ¡ng":2266,"Qu":2267,"ĠsoÃ¡t":2268,"ĠkÃŃ":2269,"Ġvá»Ŀi":2270,"ĠquÃªn":2271,"ĠlÆ°Æ¡ng":2272,"ĠLÃ½":2273,"ĠCao":2274,"Iáº¾":2275,"Ġtáº¯c":2276,"Ġhá»ĵng":2277,"Ġbá»ģn":2278,"Ġháº¡ng":2279,"Ġdáº§n":2280,"ĠngÅ©":2281,"Ġlai":2282,"Ġcáº§m":2283,"Ã©p":2284,"ĠNha":2285,"Ġtuy":2286,"ĠquÃł":2287,"cháºŃ":2288,"ĠLuáºŃt":2289,"ĠSÃłi":2290,"ĠÃĤu":2291,"Ġkim":2292,"Ġháº¡t":2293,"ĠGiÃ¡":2294,"Cho":2295,"cÆ°á»Ľi":2296,"ĠgÃ³i":2297,"Hiá»ĩn":2298,"Tá»ķng":2299,"ĠcÆ°á»Ľi":2300,"oÃłn":2301,"AN":2302,"ĠcháºŃ":2303,"ĠCon":2304,"Ġhá»įa":2305,"ĠmÃª":2306,"Ġchuyáº¿n":2307,"ck":2308,"ĠbiÃªn":2309,"iÃªm":2310,"¡nh":2311,"Ġchu":2312,"ĠÄĳáº¥y":2313,"ĠPhong":2314,"ĠghÃ":2315,"ĠCho":2316,"ĠnÃ©t":2317,"Ġtu":2318,"ĠÄĳÃ¡o":2319,"ĠGÃ²n":2320,"50":2321,"Ġchá»¥p":2322,"Ġchiáº¿u":2323,"§m":2324,"Tá»«":2325,"ĠkÃ¨m":2326,"ĠâĢ¦":2327,"ĠÄĲáº£ng":2328,"ĠvÅ©":2329,"Phone":2330,"BND":2331,"ĠKim":2332,"ĠkhÃ´":2333,"ĠSáº£n":2334,"Ġláº¯ng":2335,"ThÃ":2336,"ĠrÃłng":2337,"Ġmá»¥n":2338,"Ġung":2339,"ĠCÃ´":2340,"iáº¿c":2341,"Ġ!":2342,"Ġhuyáº¿t":2343,"Ġmáº¡ch":2344,"Ġáº¥m":2345,"tÃ²a":2346,"Ġtrá»ĵng":2347,"Ġxu":2348,"ĠsÃ´ng":2349,"ĠtÃ²a":2350,"Ġxáº¥u":2351,"ĠkÃ©m":2352,"Æ°á»£u":2353,"ĠTáº¡i":2354,"tt":2355,"Ġmá»«ng":2356,"ĠThÃ¡ng":2357,"Ġvá»¯ng":2358,"tÃ¡i":2359,"era":2360,"Ġniá»ģm":2361,"la":2362,"ĠdÃµi":2363,"tan":2364,"HÃģ":2365,"tÃ´n":2366,"ĠhÃ¨":2367,"Ġnha":2368,"ĠmÆ°a":2369,"ĠLinh":2370,"¯p":2371,"ĠÄĳá»Ļt":2372,"PhÃ":2373,"ĠLo":2374,"ĠtÃ¡i":2375,"ĠNgÃły":2376,"ĠbÃ¨":2377,"Ġ2015":2378,"ĠÄĲÆ°á»Ŀng":2379,"ĠThá»Ŀi":2380,"AM":2381,"ĠlÃ¡i":2382,"Ġtháº»":2383,"ĠtÃ´n":2384,"ir":2385,"VN":2386,"Äĳá":2387,"ĠhoÃłng":2388,"ĠQuang":2389,"Ġtháº§y":2390,"cuá»ĳn":2391,"ĠbÃło":2392,"ĠGI":2393,"ĠgiÃ³":2394,"ĠgiÃłu":2395,"ÃĶn":2396,"tuyÃªn":2397,"Ľp":2398,"Ġgháº¿":2399,"ĠQuÃ½":2400,"Ġcuá»ĳn":2401,"tÃºi":2402,"º¦":2403,"ou":2404,"ĠthÆ°á»Ľc":2405,"PT":2406,"ĠHÃłng":2407,"ĠtuyÃªn":2408,"Ã³t":2409,"Ġgiáº£ng":2410,"ĠSá»±":2411,"Ġha":2412,"ent":2413,"ĠlÆ°á»£c":2414,"ĠtÃºi":2415,"Táº¡i":2416,"ĠlÃłnh":2417,"ĠHá»ĵng":2418,"ĠchÃłng":2419,"Ġrá»Ńa":2420,"ChÆ°Æ¡ng":2421,"Ġxung":2422,"Ġáº©m":2423,"ĠthoÃ¡t":2424,"Ġkhá»ĳi":2425,"ĠÆ°á»Ľc":2426,"ChÃºng":2427,"ĠÄĲÃ¬nh":2428,"ÃĶng":2429,"ĠPhÃ³":2430,"ĠThiáº¿t":2431,"ĠchÃ¡y":2432,"Ġthá»¥":2433,"tam":2434,"ĠlÆ°á»£t":2435,"--":2436,"ĠdÃły":2437,"ak":2438,"Ġthá»«a":2439,"Ġkhá»ķ":2440,"ĠtÃ¹y":2441,"Ġchá»£":2442,"ĠsÃ³ng":2443,"Ġhá»įp":2444,"Ġthoáº£i":2445,"ĠVN":2446,"Ġngo":2447,"VÄĥn":2448,"Thá»Ŀi":2449,"can":2450,"Ġnáº¯ng":2451,"18":2452,"Pháº":2453,"Du":2454,"ĠKhoa":2455,"ĠHai":2456,"ĠZ":2457,"Ġnáº¯m":2458,"Ġvay":2459,"ĠTHá»":2460,"ĠchÃ¡u":2461,"ĠVÅ©":2462,"ĠtháºŃn":2463,"MÃ¡y":2464,"ºłI":2465,"ard":2466,"ĠÄĳoÃ¡n":2467,"Ġgáº¯n":2468,"Ġlá»Ńa":2469,"NhÃł":2470,"ile":2471,"ĠThu":2472,"log":2473,"Ġmá»Ŀi":2474,"ĠsÃłn":2475,"ĠMar":2476,"ĠtrÃ¹ng":2477,"Ġonline":2478,"ĠthÃŃ":2479,"Bá»Ļ":2480,"ĠThÆ°Æ¡ng":2481,"ĠrÆ°á»£u":2482,"ĠBÃł":2483,"ĠtháºŃm":2484,"Ġbiá»ĩn":2485,"ĶNG":2486,"Gá":2487,"ÃĶNG":2488,"ĠÄĳá»ķ":2489,"Ġbáº¡c":2490,"Ġ22":2491,"Ġtháº£":2492,"Ġxinh":2493,"ĠNghá»ĩ":2494,"Ġphi":2495,"ĠbÃ¢y":2496,"ĠLa":2497,"ÄĤ":2498,"tÆ°á»Ŀng":2499,"ĠnÃºi":2500,"ĠBÃłi":2501,"Ġtáº¯m":2502,"ĠÄĳÃ£i":2503,"Ġnháº¯c":2504,"ĠngÃ´n":2505,"ĠtÆ°á»Ŀng":2506,"Ġsá»ķ":2507,"200":2508,"ĠViet":2509,"Ä©a":2510,"Ġkháº³ng":2511,"Ġcá»©ng":2512,"ĠMÃ¡y":2513,"Ġthuyáº¿t":2514,"háºŃn":2515,"ĠCá»Ļng":2516,"Ġtá»§":2517,"Ġtáº¥m":2518,"ĠgÃł":2519,"Ġ21":2520,"ht":2521,"ĠiPhone":2522,"Ġchiáº¿m":2523,"NgoÃłi":2524,"Ġbá»¥ng":2525,"ÃĮ":2526,"ĠKhu":2527,"Ġdá»ĭp":2528,"ĠÄĳÃ¡m":2529,"Ġ+":2530,"ĠHCM":2531,"ĠÄĳá»©a":2532,"cm":2533,"Ġtá»ĵn":2534,"Ľt":2535,"º©y":2536,"....":2537,"2016":2538,"Ġthá»±":2539,"Ġly":2540,"ĠrÆ¡i":2541,"Ġbuá»ĵn":2542,"ĠTáº¿t":2543,"Ġháº£o":2544,"ick":2545,"ĠphÃ³ng":2546,"ĠhoÃ¡":2547,"º¤T":2548,"Ġháº§u":2549,"Ġtá»ı":2550,"ĠLÃ¢m":2551,"ternet":2552,"ĠLÃłm":2553,"ie":2554,"ĠÄĳá»£i":2555,"Cá»":2556,"ĠkÃ¬":2557,"ĠcáºŃn":2558,"ess":2559,"ĠPhÃ¡t":2560,"Ġ40":2561,"Ġmáº½":2562,"Ġnháº¥n":2563,"gle":2564,"ue":2565,"mar":2566,"Ġrau":2567,"ÃĿ":2568,"Ġquá»":2569,"15":2570,"ĠCÆ¡":2571,"ld":2572,"ÃĤ":2573,"Ġlá»įc":2574,"Ġgá»įn":2575,"ĠlÃ´ng":2576,"Â©":2577,"ĠViá»ĩc":2578,"ĠRe":2579,"ĠÄĳÃª":2580,"ĠCÃ¡ch":2581,"Ġváº¿t":2582,"oogle":2583,"ĠUBND":2584,"ĠGiÃ¡m":2585,"ĠPháº¡m":2586,"Ġliá»ĩt":2587,"įa":2588,"ĠTá»ķ":2589,"Ġtá»Ŀ":2590,"\",":2591,"Ġdá»±a":2592,"Ġphiáº¿u":2593,"ÄĲÃ¢y":2594,"Ġngáº¡i":2595,"Ġtá»ī":2596,"ĠHiá»ĩn":2597,"ĠthÃ¡c":2598,"Anh":2599,"ore":2600,"24":2601,"Tuy":2602,"ĠTáºŃp":2603,"Ġtri":2604,"ĠlÃ£o":2605,"ax":2606,"Ġbá»¯a":2607,"Em":2608,"á»Ļc":2609,"Ġbá»įn":2610,"HÃ£y":2611,"ĠDá»ĭch":2612,"Ġnháº¯n":2613,"ĠsÃłng":2614,"od":2615,"ĠtrÄĥm":2616,"ĠTiÃªn":2617,"Ġloáº¡t":2618,"ĠrÃºt":2619,"ĠHÃĢ":2620,"Ġnguyá»ĩn":2621,"ĠlÆ°ng":2622,"UYá":2623,"Ġháº£i":2624,"Ġgáº¥p":2625,"Ġká»ĭp":2626,"if":2627,"ĠÄĳá»¡":2628,".\"":2629,"Ġhá»ģ":2630,"oi":2631,"Ġkháº¯p":2632,"Ġgáº¯ng":2633,"ĠMai":2634,"Ġnáº¥u":2635,"Ġcá»¥c":2636,"ĠmÃ¹i":2637,"Sáº£n":2638,"¨o":2639,"?âĢĿ":2640,"ºŃc":2641,"ĠNgÃ¢n":2642,"ack":2643,"LÃłm":2644,"ĠÆ°Æ¡ng":2645,"av":2646,"KhÃ¡":2647,"º«u":2648,"Ġduyá»ĩt":2649,"ĠPhÆ°á»Ŀng":2650,"Ġtá»¥":2651,"Ġtrá»©ng":2652,"ĠkhuÃ´n":2653,"ĠgÃ³c":2654,"Ġrá»ĳi":2655,"ĠTruyá»ģn":2656,"ĠchÃło":2657,"ity":2658,"ĠlÃłng":2659,"ĠYÃªn":2660,"Ã¹a":2661,"Danh":2662,"Ġloáº¡n":2663,"Ãĵ":2664,"Ġdinh":2665,"ĠFacebook":2666,"ĠGiáº£i":2667,"º¥c":2668,"ÄĲÆ°á»£c":2669,"uáº¿":2670,"Ġcháº·t":2671,"BÃ¡n":2672,"09":2673,"ĠSinh":2674,"ĠdÆ°":2675,"ĠÄĲÃ³":2676,"23":2677,"Ġrá»«ng":2678,"tion":2679,"Ġsa":2680,"Ná":2681,"ĠtrÆ°ng":2682,"ĠbáºŃc":2683,"Ġsá»©":2684,"16":2685,"Ġpháº¡t":2686,"ĠKhÃ":2687,"ord":2688,"ĠTRá":2689,"ĠÄĳÆ°Æ¡ng":2690,"ĠQuy":2691,"Chá»ī":2692,"ĠHÆ°ng":2693,"ĠvÆ°á»Ŀn":2694,"ĠNÄĥm":2695,"ĠTÃ¢m":2696,"Ġháº³n":2697,"Ġ23":2698,"táº¡m":2699,"ĠNháº¥t":2700,"TC":2701,"Kinh":2702,"Ġcan":2703,"ting":2704,"Ġ>":2705,"ĠcháºŃm":2706,"2015":2707,"Ġná»Ńa":2708,"Quy":2709,"ĠÄĲáº§u":2710,"Kh":2711,"ĠVÃĢ":2712,"táº¡p":2713,"TÆ°":2714,"áº£ng":2715,"cÆ¡n":2716,"Ġvid":2717,"Ġná»£":2718,"Ġkhiá»ĥn":2719,"Ġtáº¡p":2720,"Ġemail":2721,"HÃĶNG":2722,"ĠxÆ°Æ¡ng":2723,"Ġvideo":2724,"ĠquÃª":2725,"ĠkhÃºc":2726,"Ġngá»±c":2727,"Ġhiá»ĥn":2728,"Ġsong":2729,"17":2730,"Ġá»ŀ":2731,"INH":2732,"ub":2733,"IÃĬN":2734,"ĠÄĳá»©c":2735,"!!":2736,"Ġtáº¡m":2737,"ÄĲT":2738,"Ġtha":2739,"uá»ĵng":2740,"ĠkhÃ¡ng":2741,"ĠChÆ°Æ¡ng":2742,"Ġláº«n":2743,"EO":2744,"ĠGiáº¥y":2745,"ĠCHÃ":2746,"Ġná»Ĺi":2747,"Ġe":2748,"ĠngÆ°á»£c":2749,"Ġ01":2750,"TrÆ°á»Ľc":2751,"Chá»§":2752,"ff":2753,"ĠDá»±":2754,"//":2755,"ĠBá»ĩnh":2756,"ĠcÆ¡n":2757,"Ġ2014":2758,"cÄĥng":2759,"ĠsÆ¡n":2760,"Ġbá»Ļt":2761,"Ġá»§y":2762,"ĠCáº§u":2763,"Ġtrá»«":2764,"ĠPar":2765,"ĠÄĲa":2766,"ĠCá»ķ":2767,"Ġdá»«ng":2768,"Ġtrá»¥":2769,"Ġhá»Ļp":2770,"³i":2771,"ĠTá»Ń":2772,"Ġkem":2773,"Vá»ģ":2774,"Ġmá»¡":2775,"Ġcháº£y":2776,"Ġxá»©":2777,"Ġáº©n":2778,"Ġtháº£i":2779,"ĠcÄĥng":2780,"ĠCam":2781,"ĠSa":2782,"ĠÄĳiá»ĥn":2783,"Ġtá»ĩ":2784,"05":2785,"07":2786,"ĠphÆ°á»Ŀng":2787,"Ġtáº£":2788,"ĭn":2789,"Ã´m":2790,"ĠCáº§n":2791,"ĠcÆ¡m":2792,"08":2793,"Sá»±":2794,"ĠThÃ¡nh":2795,"Ġkhá»§ng":2796,"ĠNhÃ":2797,"má":2798,"uá»ĩ":2799,"ĠXe":2800,"Ġná»Ļ":2801,"Ġhy":2802,"ttp":2803,"Ġngá»įt":2804,"Ã¡u":2805,"ĠNhÆ°":2806,"Ġhá»ĵn":2807,"ĠPháº§n":2808,"Ġthang":2809,"uá»³":2810,"Ġpháº«u":2811,"ºŃm":2812,"GiÃ¡":2813,"ĠOn":2814,"Ká»":2815,"da":2816,"Ġbi":2817,"ĠÄĲáº·c":2818,"ļI":2819,"age":2820,"06":2821,"ThÃłnh":2822,"Trung":2823,"://":2824,"º¢N":2825,"ĠNghá»ĭ":2826,"ĠÄĳÃ²i":2827,"ĠgÆ°Æ¡ng":2828,"ĠÄĲoÃłn":2829,"ĠHá»į":2830,"Ġrá»Ŀi":2831,"Do":2832,"ĠthoÃ¡ng":2833,"Tháº":2834,"CÆ¡":2835,"ĠVáºŃy":2836,"ĠphÃº":2837,"14":2838,"ĠnghÃ¨o":2839,"ĠthÃ´n":2840,"ĠQuáº£n":2841,"Ġngá»«ng":2842,"Ġche":2843,"ĠHÃ³a":2844,"ine":2845,"Ġáº¢nh":2846,"Ġthá»ıa":2847,"Trá»":2848,"TV":2849,"VÃ¬":2850,"Ġá»ĳng":2851,"ĠThá»±c":2852,"Ġháº¹n":2853,"Ġ26":2854,"ĠBiÃªn":2855,"ĠÄĲá»ĭnh":2856,"ĠhÃło":2857,"ĠNÃ³":2858,"ry":2859,"cÃłi":2860,"ton":2861,"nam":2862,"ĠxÆ°a":2863,"Ġgan":2864,"ĠQuÃ¢n":2865,"Ġthá»Ł":2866,"ight":2867,"Ġ28":2868,"Ġbáº¡i":2869,",âĢ¦":2870,"ĠÄĳá»ĩ":2871,"»Ńi":2872,"Ġcáº·p":2873,"Ġtrá»¯":2874,"ĠTPHCM":2875,"ĠWeb":2876,"ĠgiÃł":2877,"ĠcÃłi":2878,"ĠngÃłn":2879,"ĠNew":2880,"Ġmá»Ļ":2881,"ĠbÄĥng":2882,"Ġtáº¯t":2883,"hop":2884,"io":2885,"ĠdáºŃy":2886,"ĠLe":2887,"Ġlan":2888,"ly":2889,"ĠnhÃłng":2890,"ĠKH":2891,"Ġhiá»ĩp":2892,"¡i":2893,"Ġ)":2894,"ĠâĢĺ":2895,"13":2896,"ce":2897,"02":2898,"ĠCHá»":2899,"ĠXem":2900,"¦y":2901,"ass":2902,"phone":2903,"ĠNHá":2904,"ĠCÃ²n":2905,"bá":2906,"ĠNo":2907,"Ġbinh":2908,"ĠViá»ĩn":2909,"ww":2910,"ĠTp":2911,"ĠGoogle":2912,"ĠMa":2913,"Ġ60":2914,"ĠKhÃ¡ch":2915,"ĺI":2916,"tÄ©nh":2917,"ĠÄĲÃło":2918,"ox":2919,"Ġcháº·n":2920,"ĠGiá»Ľi":2921,"§i":2922,"ĠÄĲá»ĳi":2923,"ĠtÄ©nh":2924,"Ġlá»ĳi":2925,"ĠchÃºc":2926,"Ġmi":2927,"ĠthÆ¡m":2928,"Ġ27":2929,"Ġmai":2930,"04":2931,"ĠVin":2932,"ĠmÃły":2933,"Ġko":2934,"º¨":2935,"03":2936,"ank":2937,"Ġtá»ķn":2938,"Há»įc":2939,"Ã¨o":2940,"Uá»":2941,"Ġsáº¯t":2942,"tel":2943,"ĠVinh":2944,"ĠVÆ°Æ¡ng":2945,"Ġtrá»įn":2946,"Quá":2947,"Ġmáº¯n":2948,"ĠkÃŃn":2949,"ĠtrÃł":2950,"ĠloÃłi":2951,"25":2952,"de":2953,"Ġngang":2954,"ĠBÃªn":2955,"Ġáº¤":2956,"ĠDÃ¢n":2957,"Ġváº·t":2958,"ĠhÃłm":2959,"Ġthá»Ŀ":2960,"ĠDoanh":2961,"£t":2962,"Báº£n":2963,"ĠCháº":2964,"Ġnhá»±a":2965,"yr":2966,"háº¥m":2967,"ĠÄĲá»Ļ":2968,"ĠMáº¹":2969,"ĠbÆ¡":2970,"tamin":2971,"se":2972,"ĠÄĳÆ°Æ¡":2973,"ĠKáº¿":2974,"Ġlá»ĩnh":2975,"ĠVIá»Ĩ":2976,"ĠtrÃ´ng":2977,"ĠbÃ©o":2978,"ĠÄĲá»Ļng":2979,"ĠbÃª":2980,"ĠdÆ°á»£c":2981,"ve":2982,"Ġnhi":2983,"ĠÄĳÃłi":2984,"NhÆ°ng":2985,"ĠdÃ¡m":2986,"¥i":2987,"ĠVÃ¢n":2988,"PhÃ¡":2989,"ĠNH":2990,"ĠgiÃłnh":2991,"Ġkhung":2992,"háº¥u":2993,"º«":2994,"ĠThe":2995,"ĠTÃ¬nh":2996,"ĠkÃªu":2997,"ĠbÃ£i":2998,"ÃĮNH":2999,"Ġbá»ģ":3000,"ĠLá»ĭch":3001,"TÃłi":3002,"Ã©n":3003,"ams":3004,"Ġkhuáº©n":3005,"Ġláº§m":3006,"Ã£ng":3007,"tar":3008,"Ġgiáº¿t":3009,"ĠKháº":3010,"ĠPhÃºc":3011,"ĠTáº¥t":3012,"ĠgiÆ°á»Ŀng":3013,"ĠHÆ°Æ¡ng":3014,"ĠHáº¡":3015,"Ġquang":3016,"ĠHiá»ĩp":3017,"âĸ":3018,"Dá»±":3019,"Ġtá»ĳn":3020,"ĠthÆ°á»£ng":3021,"ĠXÃ£":3022,"ÃĢI":3023,"ĠlÃ£i":3024,"ĠnÃ£o":3025,"ĮC":3026,"ĠKhá»":3027,"ĠhÆ°":3028,"Ġlá»¥c":3029,"ĠPhan":3030,"Sá»ĳ":3031,"Ġná»ķ":3032,"Ĺn":3033,"ĠMá»Ľi":3034,"Ġná»Ļp":3035,"ĠgiÃ¢y":3036,"ĠÃ©p":3037,"ĠmÆ°á»Ŀi":3038,"Ġhá»©ng":3039,"ort":3040,"uÃ´ng":3041,"Ġmá»ĩnh":3042,"ÄĲá»ĳi":3043,"Ġmá»ĩt":3044,"ĠthÃ¹":3045,"22":3046,"ec":3047,"Ġlá»Ĺ":3048,"ĠÄĳáº£ng":3049,"Ġthiá»ĥu":3050,"Ġsá»ĳt":3051,"CÃ¢u":3052,"Ġá»¦y":3053,"ĠPHá":3054,"ĠTiá»ĥu":3055,"UYá»":3056,"ĠTa":3057,"Káº¿t":3058,"Ġ29":3059,"Ġsáº¯m":3060,"Ġá»§ng":3061,"ĠtrÆ°Æ¡ng":3062,"sá":3063,"Ná»Ļi":3064,"ĠÄĳua":3065,"dow":3066,"ĠÄĳáºŃu":3067,"Ġhttp":3068,"Æ¯Æł":3069,"Giá»Ľi":3070,"Viá»ĩc":3071,"ĠBÃŃ":3072,"Ġgiáº¥c":3073,"ĠkhoÃ¡n":3074,"ĠlÃ´":3075,"Ġ2013":3076,"tÃ¢y":3077,"ĠXÃ¢y":3078,"Ġnon":3079,"ĠÄĲÃłi":3080,"ĠNhiá»ģu":3081,"ik":3082,"Ġgiá»ıi":3083,"ink":3084,"ĠchÃ³":3085,"Æ¯á»ľ":3086,"ĠGiá»":3087,"ĠCup":3088,"Ġláº»":3089,"Ã³m":3090,"ĠTiáº¿ng":3091,"ĠtÃ¢y":3092,"Kho":3093,"ĠchÃ¹":3094,"ĠvÃŃ":3095,"ĠÄĳá»īnh":3096,"Ãºa":3097,"ÄĲáº¡i":3098,"Ġvong":3099,"ump":3100,"CÃ´":3101,"ĠkhuyÃªn":3102,"Ġna":3103,"Ġcamera":3104,"Chia":3105,"Ġáº¡":3106,"tÃ´ng":3107,"ĠgiÃły":3108,"ĠDiá»ħn":3109,"Ġthiá»ĩt":3110,"top":3111,"ÃģC":3112,"Ġtan":3113,"ĠphÃ¡i":3114,"ĠnhuáºŃn":3115,"háºŃp":3116,"Ġsá»¹":3117,"Phá»":3118,"Ġgiá»įng":3119,"ĠÄĳá»ĭch":3120,"Ĺng":3121,"ideo":3122,"Ġ199":3123,"AO":3124,"±u":3125,"ĠGiao":3126,"TÃªn":3127,"ul":3128,"II":3129,"Ġmá»ıi":3130,"ĠKáº¿t":3131,"Bá»ĩnh":3132,"indow":3133,"Ġngá»«a":3134,"¡ch":3135,"lick":3136,"HÃ¬nh":3137,"ĠtrÃło":3138,"ĠBÃ¡n":3139,"ĠtÃ´ng":3140,"cháº¥m":3141,"Ġ*":3142,"mart":3143,"ANH":3144,"º¬T":3145,"tiá»ģm":3146,"ĠTiáº¿n":3147,"uá»Ĺi":3148,"Æ¯ÆłNG":3149,"ĠPHÃ":3150,"tÃłn":3151,"Ġdiá»ĩt":3152,"ĠHá»ĩ":3153,"ĠÄĲá»ĭa":3154,"Giáº¥y":3155,"Ġtiá»ģm":3156,"88":3157,"ĠAr":3158,"ĠLÃł":3159,"ĠtháºŃp":3160,"ĠNgoáº¡i":3161,"Há»Ĺ":3162,"Ġláº·ng":3163,"Ġpin":3164,"Ġcháº¥m":3165,"ĠViÃªn":3166,"tá»":3167,"Ġkhá»Ľp":3168,"ĠtÃłn":3169,"ĠtrÃłn":3170,"ĠÄĲáº¿n":3171,"ĠNhá»":3172,"ĠtrÃ²n":3173,"BÃ¡o":3174,"ha":3175,"Ġchua":3176,"Ġmáº¡c":3177,"ĠrÃ£i":3178,"ĠlÃŃ":3179,"ĠHÃ¬nh":3180,"ĠkhÃ³c":3181,"ĠtrÃº":3182,"âĢ¢":3183,"Ġ500":3184,"Thá»±c":3185,"ĠBá»Łi":3186,"Giáº£i":3187,"ĠVá»ģ":3188,"¨n":3189,"me":3190,"ĠVÄ©nh":3191,"Rá":3192,"ĠKhÃ¡nh":3193,"amsung":3194,"BÆ°á»Ľc":3195,"ĠÄĲáº¥t":3196,"Ġsu":3197,"HÃĢ":3198,"ĠÃļ":3199,"ĠbÃ²":3200,"Ġtháº¯c":3201,"gi":3202,"Ġtráº§n":3203,"TrÃªn":3204,"Thá»§":3205,"ĠCá»¥c":3206,"ĠMáº·t":3207,"ĠTRá»":3208,"ot":3209,"ĠHÃ¹ng":3210,"uá»Ļng":3211,"ĠÃ´m":3212,"ĠÄĲÆ°á»£c":3213,"ĠmÃ£n":3214,"ĠkÃªnh":3215,"Ġmá»±c":3216,"orld":3217,"Ġbá»Ŀ":3218,"Nhiá»ģu":3219,"ĠvÆ¡":3220,"Ġcháº¡m":3221,"Ġtreo":3222,"ĠgiÃ£n":3223,"our":3224,"ĠchÃ¬":3225,"Ġváº½":3226,"tÃ¢n":3227,"ĠhÃ´i":3228,"ber":3229,"ĠSá»Ń":3230,"Ġ2012":3231,"ĠTrÆ°á»Ľc":3232,"Ġtráº§m":3233,"Ġvá»¡":3234,"mm":3235,"ĠhÃ¹ng":3236,"Ġhá»§y":3237,"21":3238,"Mua":3239,"Iáº¾T":3240,"Ġphá»©c":3241,"Tháº¿":3242,"ĠlÆ°á»Ľi":3243,"ĠThá»§y":3244,"ĠÆ°a":3245,"ĠthÃ©p":3246,"ªm":3247,"ĠCa":3248,"Ġvitamin":3249,"ĠÃĿ":3250,"ĠTÃ²a":3251,"Ġná»Ĺ":3252,"ĠtÃ¢n":3253,"ĠCÃĶNG":3254,"ĠTháº§n":3255,"ĠDi":3256,"ĠThá»ĥ":3257,"ĠPhá»¥":3258,"ĠTriá»ģu":3259,"ĠbÆ¡i":3260,"ĠmÃŃ":3261,"Iá»ĨN":3262,"»Ļm":3263,"ĠLao":3264,"Æ°á»Ľp":3265,"ĠbÃ³":3266,"uá»³nh":3267,"GP":3268,"Ġbá»¥i":3269,"ĠCan":3270,"ĠÄĳáº¿":3271,"ĳt":3272,"Ġcáº©n":3273,"ĠphÃ³":3274,"how":3275,"go":3276,"ĠQU":3277,"ĠVá»¥":3278,"º¦N":3279,"ÃģO":3280,"Ġbá»ĵi":3281,"BÃªn":3282,"lip":3283,"ĠnÃªu":3284,"Ġthua":3285,"ĠHÃłnh":3286,"Ġvá»ı":3287,"Ġphu":3288,"ĠTuáº¥n":3289,"ĠÄĳiá»ĩu":3290,"Ġ36":3291,"ĠMá»Ĺi":3292,"dro":3293,"¥y":3294,"ĠBáº¥t":3295,"ĠHy":3296,"wn":3297,"ĠThá»©":3298,"Ġgá»£i":3299,"Con":3300,"ĠTiá»ģn":3301,"ĠÄĳá»±ng":3302,"ĠTá»±":3303,"su":3304,"ĠdÃ¢u":3305,"Ġro":3306,"Ġchuá»Ļt":3307,"Ġdá»©t":3308,"TP":3309,"ĠthÃ³i":3310,"ĠsÃ¡nh":3311,"ĠQuan":3312,"2014":3313,"tung":3314,"Ġ70":3315,"ĠInternet":3316,"Ãºy":3317,"ĠCity":3318,"Ġhá»ıng":3319,"ĠthÃ¡ch":3320,"ĠÄĲH":3321,"Äĳá»":3322,"Ġbá»ĳn":3323,"ÄĲang":3324,"ĠTNH":3325,"Ġkháº¥u":3326,"Ġcáº¥m":3327,"Ġhuynh":3328,"ĠnghÃ¬n":3329,"Ġpháº¥n":3330,"ĠTrump":3331,"Ġváº£i":3332,"ĠTNHH":3333,"xi":3334,"him":3335,"Pháº§n":3336,"ĠNá»¯":3337,"ĠlÅ©":3338,"ĠkiÃªn":3339,"):":3340,"LV":3341,"ĠnÃºt":3342,"Há»Ļi":3343,"Ġáº¤n":3344,"ĠHO":3345,"HÃł":3346,"Ġtháº£m":3347,"ĠLi":3348,"uá»·":3349,"pple":3350,"ingap":3351,"tiá»ĩc":3352,"ĠPl":3353,"ĠÄĳuá»ķi":3354,"Ġtung":3355,"Ġse":3356,"Ġmá»ĭn":3357,"ĠHuy":3358,"cÆ°Æ¡ng":3359,"Ġtiá»ĩc":3360,"Ġbáº¯n":3361,"%.":3362,"ĠcÆ°Æ¡ng":3363,"ĠNgÃłi":3364,"ĠbÃ£o":3365,"Ġong":3366,"ĴNG":3367,"ĠHá»ĮC":3368,"Ġhuáº¥n":3369,"ĠMua":3370,"NÄĥm":3371,"ÄĲá»ĵng":3372,"ĠdÃ¢m":3373,"ab":3374,"ingapore":3375,"Ġchá»¥c":3376,"ĠSp":3377,"ĠNháº":3378,"º¬N":3379,"ĠLÆ°u":3380,"ĠxÃ¢m":3381,"ĠBÃ¡c":3382,"Há»ĩ":3383,"Ġhoang":3384,"¨C":3385,"ĠxuÃ¢n":3386,"ĠHoÃłn":3387,"UNG":3388,"Ġhot":3389,"ĠThÆ¡":3390,"ĠlÃ£n":3391,"Ġáº£o":3392,"¦A":3393,"ĠÄĳáºŃm":3394,"ĠThÆ°á»Ŀng":3395,"ĠlÃ£ng":3396,"ĠTrá»įng":3397,"ada":3398,"ĠHÆ°á»Ľng":3399,"ĠkhÃŃch":3400,"Ġviá»ĩt":3401,"ĠphÃ¡n":3402,"CP":3403,"Ġká»ĭch":3404,"uá»Ļn":3405,"ĠTIN":3406,"ĠÃļc":3407,"ĬCH":3408,"Ġbá»ĳi":3409,"tÃ¡n":3410,"ini":3411,"ĠEmail":3412,"keting":3413,"Báº£o":3414,"Ġli":3415,"ĠCá»¦A":3416,"ĠHD":3417,"ĠgiáºŃn":3418,"Ġga":3419,"khÃ´ng":3420,"ĠtÃ¡n":3421,"ĠÄĳáº¡p":3422,"ĠWorld":3423,"ĠngÃ£":3424,"Ġtháº§u":3425,"indows":3426,"Ġdao":3427,"ĠThuáºŃn":3428,"Ġhiáº¿m":3429,"Æ°á»Ľt":3430,"sia":3431,"Ná»":3432,"Ãĥ":3433,"Ġcá»Ļt":3434,"ĠMal":3435,"ep":3436,"ĠYÃªu":3437,"Ġtráº¥n":3438,"tÃºc":3439,"ĠtáºŃt":3440,"ĠtÃºc":3441,"ĠÄĳá»£t":3442,"¯t":3443,"ĠHuáº¿":3444,"Ġgá»¡":3445,"iz":3446,"ĠNÃ´ng":3447,"ĠTHPT":3448,"Ġ300":3449,"Ġ80":3450,"ĠrÃ¡c":3451,"kg":3452,"Báº¥t":3453,"ĠKá»¹":3454,"NhÆ°":3455,"ĠOnline":3456,"ma":3457,"ĠsÃºng":3458,"ĠDuy":3459,"Ġtáº©y":3460,"ĠthÃ¢m":3461,"ĠCo":3462,"!âĢĿ":3463,"ĠnhÃ¡nh":3464,"Ġhuá»ĳng":3465,"Ġgiáº·t":3466,"ĠxÃ³a":3467,"»ŀ":3468,"ĠmÃłng":3469,"ĠQuyáº¿t":3470,"ĠbuÃ´n":3471,"ĠÃ¡c":3472,"ĠnhÃ£n":3473,"ĠHá»£p":3474,"ĠMan":3475,"Ľn":3476,"Ġhi":3477,"Ġloa":3478,"ĠToÃłn":3479,"yo":3480,"ĠTHá":3481,"he":3482,"TiÃªu":3483,"ĠlÃ¢m":3484,"ĠLá»ħ":3485,"ĠNÆ°á»Ľc":3486,"á»ŀ":3487,"canh":3488,"ĠDÅ©ng":3489,"ĠVÃµ":3490,"ĠSingapore":3491,"âĸº":3492,"ĠsÃ´i":3493,"cÃ¢":3494,"ĠTá»īnh":3495,"Ġ90":3496,"ĠsÆ°u":3497,"Cáº§n":3498,"2013":3499,"Ġtráº¡i":3500,"ĠnÆ°á»Ľng":3501,"ĠMi":3502,"CN":3503,"Ġ35":3504,"Ġsim":3505,"ĠÄĳáºŃp":3506,"ĠTrÃªn":3507,"ĠBiá»ĥn":3508,"Ġcá»ķng":3509,"ĠcÃ¢":3510,"¥t":3511,"ĠLoan":3512,"ChuyÃªn":3513,"Iá»Ģ":3514,"ĠUn":3515,"ĠTO":3516,"ok":3517,"Ġhá»©a":3518,"ĠAl":3519,"ĠgiÃ¡p":3520,"sa":3521,"ĠmÃ³c":3522,",...":3523,"va":3524,"Ġrao":3525,"vá":3526,"ĠthÃ¡nh":3527,"26":3528,"Ġsoáº¡n":3529,"ĠNAM":3530,"Ġâ":3531,"Ġ2011":3532,"tor":3533,"ĠThÆ°":3534,"ĠSamsung":3535,"Ġbang":3536,"Ġu":3537,"LÆ°u":3538,"tÃ¡o":3539,"ĠngÆ°Æ¡":3540,"Ġtáº¿t":3541,"Ġbá»ķng":3542,"įNH":3543,"Ġná»Ł":3544,"PhÃ²ng":3545,"Ġthuyá»ģn":3546,"ĠRá»":3547,"tiáº¿c":3548,"ĠChiáº¿n":3549,"ĠBáº¡ch":3550,"Ġtáº£ng":3551,"ĠHá»¯u":3552,"Ġvinh":3553,"ĠÆ¡i":3554,"Ġtiáº¿c":3555,"VÃ©":3556,"ĠtÃ¡o":3557,"Ġnháº£y":3558,"LÃł":3559,"Ġchá»«ng":3560,"ĠchÄĥn":3561,"ÄĲáº¿n":3562,"99":3563,"ĠngÆ°á»¡ng":3564,"ĠbÆ¡m":3565,"so":3566,"ĠÄĳá»ĳt":3567,"TS":3568,"Ġphá»ıng":3569,"ĠCáº£nh":3570,"cÃº":3571,"Ġngáº¡c":3572,"ĠÄĳÄ©a":3573,"droid":3574,"Táº¥t":3575,"ill":3576,"og":3577,"ĠGal":3578,"Ġcanh":3579,"ĠDN":3580,"Ġvang":3581,"Ġno":3582,"ĠnhÃ¢":3583,"ĠÃ¡i":3584,"45":3585,"ĠCháº¥t":3586,"Ġthá»ķ":3587,"Gá»Ńi":3588,"ft":3589,"ĠvÃ¡y":3590,"ÄĤN":3591,"Ġmuá»ĳi":3592,"NhÃ":3593,"ĠXin":3594,"ĠlÃ£m":3595,"Giá»":3596,"PhÃ¡t":3597,"ĠTrÆ°á»Łng":3598,"ĠHÃĢNG":3599,"CO":3600,"Ġvua":3601,"est":3602,"ĠVIá»ĨT":3603,"ĠWebsite":3604,"ĠngáºŃp":3605,"di":3606,"ĠBáº±ng":3607,"Ġgáº¡o":3608,"ĠcÃº":3609,"ĠPhÆ°á»Ľc":3610,"AY":3611,"Ġcá»Ŀ":3612,"ĠLÆ°Æ¡ng":3613,"28":3614,"KhÃ¡ch":3615,"Ġvá»Ļi":3616,"NháºŃn":3617,"XH":3618,"ĠCÃ¹ng":3619,"ĠBl":3620,"ThÆ°":3621,"Ġcá»ĳt":3622,"ĠphÃŃm":3623,"ĠchÃŃn":3624,"Ġviá»ħn":3625,"ĠhÃł":3626,"are":3627,"ĠbÃ¬":3628,"CÄĥn":3629,"ĠchÃ¹a":3630,"Diá»ħn":3631,"ĠApple":3632,"ull":3633,"Ġtrá»Ļn":3634,"ĠTrÆ°Æ¡ng":3635,"Ġcáº£n":3636,"Uá»Ĳ":3637,"mp":3638,"Ġchá»Ł":3639,"ĠÄĳe":3640,"ĠSÆ°":3641,"Ġkhen":3642,"ĠbÃ´ng":3643,"Ġ2010":3644,"Ġ31":3645,"aptop":3646,"Ġlá»«a":3647,"ĠSao":3648,"?\"":3649,"Ġruá»Ļt":3650,"ĠxÄĥng":3651,"VÃł":3652,"ne":3653,"Ġsex":3654,"ĠDÃ¹":3655,"fe":3656,"ĠAir":3657,"Ġyá":3658,"ĠÄĳai":3659,"BÃ¬nh":3660,"©o":3661,"ÄĲÃ¡nh":3662,"Ġ45":3663,"ĠKiáº¿n":3664,"Ã£nh":3665,"ĠThÆ°á»£ng":3666,"ĠthÃ¡o":3667,"ĠTÃłu":3668,"ĠNgÃ´":3669,"ĠTrá»ĭ":3670,"AI":3671,"ĠWindows":3672,"be":3673,"TrÆ°á»Ŀng":3674,"ĠchÃª":3675,"ge":3676,"An":3677,"ĠTÃ¬m":3678,"ash":3679,"Ġnáº¥m":3680,"ĠdÆ°á»Ŀng":3681,"axy":3682,"ĠKiá»ĥm":3683,"Ġbáº¡o":3684,"ama":3685,"Vi":3686,"ina":3687,"ĠÄĲá»ģ":3688,"ĠTÃŃnh":3689,"áº¢nh":3690,"lá":3691,"ĠtrÃŃch":3692,"Ġmáº£nh":3693,"Má»įi":3694,"ĠtrÆ°a":3695,"¨ng":3696,"Ġmiáº¿ng":3697,"ĠCuá»Ļc":3698,"ĠMáº·c":3699,"Ġphun":3700,"Cuá»Ļc":3701,"ĠgiáºŃt":3702,"ĠÄĳam":3703,"TH":3704,"ĠxÃ¡ch":3705,"Ġmá»ĵ":3706,"ĠAi":3707,"km":3708,"ĠtiÃª":3709,"ĠÄĳÃłm":3710,"BÃŃ":3711,"ĠLai":3712,"ĠkhoÃ¡ng":3713,"Ġhá»Ĺn":3714,"st":3715,"Phá»¥":3716,"ºłN":3717,"Ġrá»§i":3718,"Æ¯á»ļ":3719,"ĠLáº¡t":3720,"ĠduyÃªn":3721,"ĠÃł":3722,"ĠGD":3723,"Ġtá»±a":3724,"ĠkÄ©":3725,"Viá»ĩt":3726,"ÃĢN":3727,"ĠMy":3728,"Ġngáº¯m":3729,"Ġtrá»ĳng":3730,"PhÆ°Æ¡ng":3731,"º¹n":3732,"ĠÄĳeo":3733,"Hai":3734,"ONG":3735,"ĠsÄĥn":3736,"Ġ02":3737,"ĠTÃ´":3738,"TÃ¬nh":3739,"ĠHLV":3740,"ĠNGH":3741,"ĠTiÃªu":3742,"ome":3743,"load":3744,"ĠPro":3745,"Ġcá»ı":3746,"Ġxoay":3747,"Ġquá»¹":3748,"OS":3749,"Ġtrá»¥c":3750,"don":3751,"ĠdÃ¡n":3752,"ran":3753,"qu":3754,"ANG":3755,"ĠHa":3756,"martphone":3757,"ĠSh":3758,"CS":3759,"º«y":3760,"75":3761,"tuá»ĩ":3762,"Ġkha":3763,"Ġtuá»ĩ":3764,"Ġtrá»Ļi":3765,"ut":3766,"all":3767,"Ġbá»įc":3768,"ĠChuyÃªn":3769,"ĠnÃ¡m":3770,"ĠPark":3771,"ÄĤNG":3772,"roup":3773,"»ĳp":3774,"ĠTáº¿":3775,"Ġcá»¡":3776,"ĠXá":3777,"º®":3778,"ĠCá»§a":3779,"Ġthá»į":3780,">>":3781,"Ġkm":3782,"º¶":3783,"Top":3784,"Ġtá»ıa":3785,"ĠMá»įi":3786,"Lá»ĭch":3787,"ĠThi":3788,"ĠÄĲáº¡o":3789,"Æ¯á»¢":3790,"\\Ā":3791,"ĠÄĳÃ¢":3792,"Ġbáº¡ch":3793,"ĠxÆ°á»Łng":3794,"Ġhoáº£ng":3795,"ĠtrÃºng":3796,"ĠCÄĥn":3797,"Ġmá»ıng":3798,"ÄĲá»ģ":3799,"Ġte":3800,"35":3801,"\\Ā\\Ā":3802,"ĠrÅ©":3803,"Ġtháº¥m":3804,"ĠHay":3805,"ĠCP":3806,"Xin":3807,"ĠVI":3808,"ano":3809,"ĠSo":3810,"ĠLÃºc":3811,"cÆ°á»Ľp":3812,"Hoáº¡t":3813,"ĠHÆ¡n":3814,"%,":3815,"Ġnáº¡":3816,"ĠCS":3817,"ĠRi":3818,"Ġxá»©ng":3819,"icro":3820,"ĠCha":3821,"thÃ¡ng":3822,"onal":3823,"Chá»ĭ":3824,"Ġdá»ĭu":3825,"ĠTiáº¿p":3826,"ĠngÆ¡i":3827,"CÅ©ng":3828,"tal":3829,"ĠCÃ¡i":3830,"ĠTrÃŃ":3831,"ers":3832,"Ġam":3833,"ĠÄĳáº¯c":3834,"ĠÄĳáº¯t":3835,"und":3836,"ĠCÅ©ng":3837,"ĠChá»ĭ":3838,"27":3839,"ite":3840,"Ġpro":3841,"SE":3842,"ĠhiÃª":3843,"80":3844,"ĠQUá":3845,"36":3846,"ĠPhim":3847,"ĠvÃµ":3848,"ĠlÃ²":3849,"cháº¥n":3850,"NhÃ¢n":3851,"Khu":3852,"Ġná»¥":3853,"obile":3854,"ĠTy":3855,"Ġchá»ĳi":3856,"ÃĤN":3857,"NguyÃªn":3858,"ĠÂ©":3859,"Ġfile":3860,"ĠTháº£o":3861,"Ġcá»§":3862,"40":3863,"Ġbá»Ľt":3864,"ĠvÃª":3865,"Ġgá»ĳi":3866,"Æ¯á»ľNG":3867,"ĠcÆ°á»Ľp":3868,"Ġcháº¥n":3869,"Ġchuá»Ļng":3870,"Ġsay":3871,"mail":3872,"Ġmáº¡n":3873,"ĠAndroid":3874,"ĠÄĳiá»ĩp":3875,"º¹o":3876,"Ġháº±ng":3877,"ĠSá»©c":3878,"ĠMá»¥c":3879,"ĠbÃ¡":3880,"ĠTÃ´n":3881,"Há»ĵ":3882,"ĠGá»":3883,"ĠbÃ¡t":3884,"ĠcÃ¡p":3885,"Ġquyáº¿n":3886,"Ġtrá»Ļm":3887,"ĠHiá»ĩu":3888,"ĠThuáºŃt":3889,"ĠMÃ£":3890,"ĠghÃ©p":3891,"ĠvÆ°Æ¡ng":3892,"ress":3893,"ĠSEO":3894,"ĠVá»ĭ":3895,"ĠÄĲÃ´":3896,"ĠNháºŃn":3897,"ell":3898,"ĠTam":3899,"ĠTY":3900,"ĠMÆ°á»Ŀi":3901,"âĢ¦]":3902,"ĠGIÃģ":3903,"tÃ¡ch":3904,"ĺNG":3905,"ÄĲáº·c":3906,"iá»ħu":3907,"°C":3908,"ĠChu":3909,"ĠNai":3910,"Tham":3911,"ĠCN":3912,"Ġmáº§m":3913,"29":3914,"ĠtÃ¡ch":3915,"Phim":3916,"Xe":3917,"ĠhÃ¢m":3918,"Ġtháº±ng":3919,"TTTT":3920,"ĠDÆ°á»£c":3921,"ĠngÃµ":3922,"Ġ=":3923,"ĠGiÃª":3924,"click":3925,"ĠQua":3926,"ĠNgay":3927,"ĠTT":3928,"ĠmÆ°u":3929,"ĠthÄĥng":3930,"ĠCÃ¢u":3931,"ĠcÃ¡t":3932,"Ġmá»įc":3933,"ÃģN":3934,"ĠÄĳÃł":3935,"??":3936,"ĠbÃ¡m":3937,"CC":3938,"ĠGalaxy":3939,"Æ°á»¡i":3940,"mi":3941,"Ġnháº¡y":3942,"Ġmá»Ŀ":3943,"ĠTháº¯ng":3944,"Ġngá»Ļ":3945,"fa":3946,"ice":3947,"Ġháº§m":3948,"alo":3949,"In":3950,"ĠbáºŃn":3951,"aysia":3952,"ĠthÃ¹ng":3953,"Ġ_--":3954,"ĠCung":3955,"Ġtrá»ĳn":3956,"ĠngÃłi":3957,"ĠBe":3958,"CÃ²n":3959,"Cháº":3960,"uc":3961,"ĠchÄĥng":3962,"ĠÃ¢n":3963,"¯m":3964,"Ġtriá»ĩt":3965,"ÄĲiá»ĥm":3966,"Ġbáº¥m":3967,"Ġbáº©n":3968,"ĠmÃ¬":3969,"ĠdÃŃnh":3970,"ĠTáºłI":3971,"Ġdá»įa":3972,"ĠSong":3973,"Ġchuá»Ĺi":3974,"ĠchÃ¡n":3975,"Ġbá»ĥ":3976,"ĠtrÃ´i":3977,"Ġlink":3978,"ork":3979,"´m":3980,"ip":3981,"Ġchim":3982,"Ġclick":3983,"ĠTÄ©nh":3984,"ChÃło":3985,"ĠLÃło":3986,"ĠcáºŃy":3987,"uk":3988,"ĠPhá»ĳ":3989,"ĠMo":3990,"Ġá»ĳc":3991,"Ġcá»±u":3992,"Ġrá»¡":3993,"ĠthÃ´":3994,"ĠÃĲ":3995,"ons":3996,"Thá»©":3997,"Ġnhá»ĭp":3998,"ĠÄĲá»ĵ":3999,"ĠchÃ©p":4000,"Ġim":4001,"rus":4002,"ĠTráº»":4003,"ĠPHÃģ":4004,"Ġbia":4005,"ĠChung":4006,"ĠNhi":4007,"ĠKiáº¿m":4008,"Ġá»ķ":4009,"ĠHá»Ĺ":4010,"ear":4011,"KhÃ":4012,"Ká»¹":4013,"Ġhá»ĳi":4014,"ĠÄĳiÃª":4015,"ĠngÃ³n":4016,"Ġ[âĢ¦]":4017,"ThÃ¡ng":4018,"ĠThá»ĳng":4019,"ON":4020,"tÃłng":4021,"uch":4022,"ĠKHÃģ":4023,"ĠchÃºa":4024,"ED":4025,"Ġcáº¥t":4026,"Ġmen":4027,"Ġ03":4028,"ĠlÆ¡":4029,"ĠNÃªn":4030,"Ġphiá»ģn":4031,"CÃ¹ng":4032,"ĠlÃ¡t":4033,"70":4034,"AT":4035,"Ġtháº§m":4036,"Ġ2019":4037,"Ġinternet":4038,"ĠtÃłng":4039,"ĠsÃ´":4040,"Ġmá»ī":4041,"VáºŃy":4042,"AS":4043,"tÃºy":4044,"Ġváº¹n":4045,"ĠtÃºy":4046,"ĠEx":4047,"ĠDung":4048,"ĠNghÄ©a":4049,"ĠNÃ³i":4050,"ĠCom":4051,"Ban":4052,"ĠÄĲi":4053,"Ġtop":4054,"GiÃ¡o":4055,"Ġthan":4056,"tÃ¡":4057,"ĠDa":4058,"ĠDiá»ĩn":4059,"º¦U":4060,"ĠCáº£m":4061,"ĠHuyá»ĩn":4062,"60":4063,"Nghá»":4064,"wnload":4065,"Ġkháº©n":4066,"Ġnháº«n":4067,"ĠtÃ´m":4068,"ĠtÃ¡":4069,"cong":4070,"ĠvÃ¢":4071,"ĠMáºŃt":4072,"ĠkhÃ¡t":4073,"¹o":4074,"ÃģCH":4075,"Má»¹":4076,"Ġháº¹":4077,"Ġmáº»":4078,"ĠToÃ¡n":4079,"ÄĲiá»ĩn":4080,"ĠMalaysia":4081,"ĠsÃ³t":4082,"Ġnho":4083,"ĠThá»į":4084,"ĠvÄ©":4085,"ĠnhÆ°á»£ng":4086,"Ġlang":4087,"ĠPr":4088,"ĠMe":4089,"ĠLÃĢ":4090,"Ġsmartphone":4091,"ĠDanh":4092,"Ġ08":4093,"º¾T":4094,"yright":4095,"âĢ¦.":4096,"Nháº":4097,"old":4098,"ĠÄĲÃ£":4099,"ĠÄĲiá»ĥm":4100,"ĠBar":4101,"Ġchanh":4102,"ĠquÃ¡i":4103,"ĠHÄĲ":4104,"Ãį":4105,"gá":4106,"ĠxÆ¡":4107,"ĠBlog":4108,"ĠLáº¡c":4109,"Ġhiáº¿n":4110,"Ġsá»£i":4111,"ĠbiÃª":4112,"2012":4113,"ĠVáº¥n":4114,"car":4115,"ix":4116,"opyright":4117,"ĠNghiá»ĩp":4118,"DÃ¹":4119,"Khoa":4120,"ĠII":4121,"ĠBáº¿n":4122,"º¢I":4123,"ĠTriá»ĩu":4124,"Iá»ĨU":4125,"ĠAd":4126,"ĠthÃ¢":4127,"SÃ¡ng":4128,"Thanh":4129,"Ġpho":4130,"Ġfan":4131,"ĠCHO":4132,"Ġlá»ĩch":4133,"68":4134,"ĠÄĲá»«ng":4135,"ĠCanada":4136,"ĠhÃłn":4137,"Ġ32":4138,"ĠtráºŃt":4139,"son":4140,"ĠNHáº¤T":4141,"ĠChÃºc":4142,"Ġmuá»Ļn":4143,"ĠvÃ¢n":4144,"ĠTÄĥng":4145,"Ġnáº¡p":4146,"LB":4147,"ĠPháº©m":4148,"tic":4149,"ĠMÃ¬nh":4150,"ĠÄĳá»ģn":4151,"cÆ°á»Ľc":4152,"Ġngá»įn":4153,"end":4154,"ĠÄĲá»Ļi":4155,"oc":4156,"Æ¯u":4157,"ĠcÆ°á»Ľc":4158,"Ġháº¹p":4159,"ĠÂ":4160,"ĠVietnam":4161,"ĠBH":4162,"ĠTinh":4163,"ĠTe":4164,"assage":4165,"ÃĤY":4166,"ĠdÄ©":4167,"Má»Ĺi":4168,"Ġmáº¡o":4169,"Ġká»ĩ":4170,"ĠMÃ´i":4171,"Ġgiáº¥u":4172,"ĠTáº§ng":4173,"¤C":4174,"ĠdÃłn":4175,"Ġtháº¡ch":4176,"ĠÄĲáº¹p":4177,"bo":4178,"xy":4179,"tuÃ¢n":4180,"ug":4181,"Ġkhuyáº¿t":4182,"ĠThá»¥y":4183,"Ġsáº¹o":4184,"Gia":4185,"Ġchá»§ng":4186,"cÃ£i":4187,"Video":4188,"Ġá»©c":4189,"Ġlá»ĵ":4190,"ĠghÃ©":4191,"ĠÄĳá»ĩm":4192,"Ġthuáº§n":4193,"ev":4194,"ĠtuÃ¢n":4195,"ĠTham":4196,"ague":4197,"ÃŃn":4198,"Ġ05":4199,"ĠcÃ£i":4200,"33":4201,"Ġlong":4202,"Ġsáº¡c":4203,"º¬P":4204,"500":4205,"ĠÃĤm":4206,"ĠviÃª":4207,"Ġbáº¯c":4208,"Ġfor":4209,"Sá»Ń":4210,"cá»":4211,"ĠSan":4212,"ĠCáº£":4213,"Sá»©c":4214,"Ġdá»«a":4215,"ud":4216,"ĠLá»Ļc":4217,"ace":4218,"Ġ150":4219,"NÃ³i":4220,"Ġbá»Ĺng":4221,"Cáº£m":4222,"ĠTÆ¯":4223,"Ġ2009":4224,"ĠnhiÃª":4225,"Ġj":4226,"Ġnga":4227,"ĭt":4228,"ChÄĥm":4229,"BÃł":4230,"dá":4231,"ĠÄĳoáº¡t":4232,"100":4233,"Ġof":4234,"Ġthiá»ĩp":4235,"ĠPH":4236,"º¨M":4237,"ĠTháºŃt":4238,"Ġhá»ķ":4239,"ĠÃ¡m":4240,"Ã¹m":4241,"TR":4242,"Ġká»ģ":4243,"tÃª":4244,"ĠRo":4245,"GB":4246,"ĠViáº¿t":4247,"Ġnang":4248,"ĠsÃ¡u":4249,"Ġxáº¿":4250,"ĠÄĲÃłn":4251,"Ġlaptop":4252,"vá»":4253,"clip":4254,"Uá»ĲC":4255,"Ġtour":4256,"Ġcáº¯m":4257,"QÄĲ":4258,"Ġthá»£":4259,"Ġgáº¡ch":4260,"ĠMiá»ģn":4261,"ÃĶI":4262,"Ġrá»±c":4263,"ĳc":4264,"Ġkhoáº»":4265,"Ġtá»įa":4266,"Ġbu":4267,"ml":4268,"Ġdá»įc":4269,"Ġsoi":4270,"Ġkhá»ķng":4271,"ris":4272,"Ġson":4273,"ĠCáº¥p":4274,"ines":4275,"ger":4276,"ky":4277,"ĠRes":4278,"ĠTháº¥t":4279,"º©u":4280,"ĠbÃºt":4281,"Ġkhá»©":4282,"IM":4283,"Ġnháº¡t":4284,"Máº·c":4285,"ĠmÆ°Æ¡i":4286,"ĠÆ¡":4287,"Ġvu":4288,"Quáº£n":4289,"ĦN":4290,"55":4291,"Ġtrá»į":4292,"chi":4293,"ĠVui":4294,"ĠtÃª":4295,"Ta":4296,"Lá»Ŀi":4297,"ĠnÃ©n":4298,"ate":4299,"ĠÄĲinh":4300,"Ġngáº§m":4301,"Ġhá»ıa":4302,"HÃ´m":4303,"ĠCÆ°á»Ŀng":4304,"38":4305,"ĠMá»ļI":4306,"ĠcÃ¡m":4307,"Ġclip":4308,"Ġmá»Ļng":4309,"ĠmÃ¢y":4310,"ĠTháº§y":4311,"ĠThay":4312,"Ġshow":4313,"ĠTáº¥n":4314,"Ġcong":4315,"edia":4316,"»ĳm":4317,"gÆ°á»Ŀi":4318,"Ġnhá»ī":4319,"66":4320,"ĠchiÃªu":4321,"ĠUy":4322,"ngÆ°á»Ŀi":4323,"Ġcháº£":4324,"!\"":4325,"ĠDO":4326,"uyen":4327,"Ġnáº¿p":4328,"tang":4329,"ĠtrÃ¡ng":4330,"ĠXuáº¥t":4331,"ĠhÃ£i":4332,"ÄĲÃ£":4333,"ĠchÆ°":4334,"Ġgiam":4335,"Ġlau":4336,"ĠTHÃĶNG":4337,"ĠNá»ĺI":4338,"man":4339,"ĠSáº¢N":4340,"Æ°á»Łi":4341,"Ġchai":4342,"Ġváº¡n":4343,"ĠNHÃ":4344,"ĠLiá»ĩu":4345,"IV":4346,"ĠNháº¡c":4347,"Web":4348,"ĠHáºŃu":4349,"ĠnÃ´":4350,"Ġbáº£y":4351,"ĠTá»©c":4352,"ĠÄĲÆ¡n":4353,"ĠBÃ¹i":4354,"Ġná»ĵng":4355,"Báº£ng":4356,"ĠÄĳÃ³i":4357,"iá»ģng":4358,"ĠTrá»Ŀi":4359,"Tiáº¿p":4360,"ER":4361,"ÄĲáº·t":4362,"º¢O":4363,"ĠnhÅ©ng":4364,"Ġmáº¿n":4365,"tao":4366,"ĠbÃ³n":4367,"ĠÄĳá»ĵn":4368,"Ġhoan":4369,"ĠPháº£i":4370,"ĠÄĲá»ĳng":4371,"ester":4372,"Ġsp":4373,"ĠCá»¥":4374,"ĠCÃ¡t":4375,"ĠVáºŃt":4376,"ĠdÃ£":4377,"rid":4378,"oom":4379,"Ġchuyá»ģn":4380,"ĠChá»©ng":4381,"Ngh":4382,"Ġráº¯n":4383,"ĠHuyá»ģn":4384,"ĠJo":4385,"ĠÄĳÃ¢m":4386,"ĠVá»¤":4387,"Ġleo":4388,"Ġtráº¡m":4389,"Ġblog":4390,"ĠNháºŃp":4391,"TM":4392,"âĢĭ":4393,"ĠlÃ¢y":4394,"ow":4395,"Ġtia":4396,"Ġcháº½":4397,"ee":4398,"ĠLam":4399,"ĠPHá»":4400,"Ġvisa":4401,"Iá»Ĥ":4402,"Thay":4403,"ĠkhoÃ¡c":4404,"Ġtá»Ľ":4405,"na":4406,"ĠCar":4407,"nÄĥm":4408,"ĠKÃ½":4409,"ĠÄĤ":4410,"uá»Ļi":4411,"ĠSá»ĳng":4412,"ThÃªm":4413,"ĠlÃºa":4414,"ĠÄĤn":4415,"Ġmar":4416,"trá":4417,"Ġdá»įn":4418,"ĠÄĳáº¯p":4419,"Ġ04":4420,"ÄĲáº§u":4421,"Ġ38":4422,"Iá»ĢU":4423,"ĠTop":4424,"ĠPlus":4425,"ĠlÃ¹i":4426,"ĠvÄ©nh":4427,"Ġcáº£ng":4428,"HÃłng":4429,"BC":4430,"cÃºng":4431,"ĠTrÃł":4432,"Ġtháº¯t":4433,"Ngay":4434,"lipp":4435,"Hoa":4436,"ĠtÃŃm":4437,"IA":4438,"ĠcÃºng":4439,"Ġná»ĵi":4440,"ĠSun":4441,"ĠkhÃ©o":4442,"ov":4443,"ðŁ":4444,"Ngá":4445,"uro":4446,"ĠtiÃªm":4447,"ĠDáº§u":4448,"ÄĤM":4449,"Iáº¾N":4450,"ĠLá»£i":4451,"Ba":4452,"tem":4453,"ĠÃ´n":4454,"gÃły":4455,"ĠdÃ²":4456,"ĠThÄĥng":4457,"**":4458,"2011":4459,"ĠÄĳá»Ľn":4460,"ngÃły":4461,"Ġshop":4462,"Nam":4463,"Ġchá»ĳt":4464,"º¯k":4465,"ĠngÃło":4466,"ĠlÃŃnh":4467,"ĠTÃ¡c":4468,"tral":4469,"ans":4470,"EC":4471,"Ġbáº¯p":4472,"Ġngá»įc":4473,"ĠchÃ¬m":4474,"ts":4475,"AR":4476,"ĠÄĲá»Ĺ":4477,"ĠtrÃłng":4478,"ĠÄĳáº¡n":4479,"Giao":4480,"Ġtang":4481,"coin":4482,"amp":4483,"Máº«u":4484,"Ġthe":4485,"ĠGame":4486,"ĠbÃ¹":4487,"Email":4488,"BS":4489,"ood":4490,"Ġxáº£":4491,"bank":4492,"eal":4493,"ĠTV":4494,"Ġhuyá»ģn":4495,"ĠrÃło":4496,"ĠRáº¥t":4497,"Ġchiáº¿t":4498,"Ġxáº¡":4499,"ĲNG":4500,"yria":4501,"ĠchÃ¢m":4502,"ĠháºŃn":4503,"ĠTháº¡nh":4504,"uyÃª":4505,"ĠBá»ĭ":4506,"Ġliá»ģu":4507,"ĠkhÃ´n":4508,"ĠVÅ©ng":4509,"cay":4510,"Ġhá»įng":4511,"ĠNHÃĢ":4512,"ĠLoáº¡i":4513,"MÃ´":4514,"ĠÄĲá»įc":4515,"ĠkhÃ³i":4516,"ÄĲá»«ng":4517,"ÃĢY":4518,"VÃło":4519,"37":4520,"Ńt":4521,"ĠHá»ĺI":4522,"ba":4523,"ĠSÃ¡ng":4524,"Ġtao":4525,"ĠÄĳiÃªn":4526,"Ġláº§u":4527,"ĠMáº¡nh":4528,"ĠnhÃ´m":4529,"ĠlÃ³t":4530,"ĠSÄ©":4531,"º¤N":4532,"ĠTim":4533,"ĠCHÃįNH":4534,"ĠTrÆ°ng":4535,"ĠtrÄ©":4536,"tiá»ħn":4537,"Nguá»ĵn":4538,"ĠthoÃ¡i":4539,"ĠNGHIá»Ĩ":4540,"háºŃm":4541,"ĠÄĳÃºc":4542,");":4543,"Ġcá»ĳc":4544,"ĠbÃ´i":4545,"Home":4546,"Vá»ĭ":4547,"Ġtiá»ħn":4548,"za":4549,"lor":4550,"ĠtrÆ°Æ¡":4551,"ĠGIá":4552,"ĠKi":4553,"Ġmassage":4554,"aser":4555,"ĠNghiÃªn":4556,"Ġkhiáº¿u":4557,"Ġlá»ıng":4558,"Ġrung":4559,"Ġ06":4560,"ET":4561,"FF":4562,"Thá»ĥ":4563,"ĠHÃ´m":4564,"ĠlÃ´i":4565,"MÃ¬nh":4566,"Ġmá»ĳc":4567,"ĠxÄĥm":4568,"ĠVá»Ģ":4569,"ĠxÃ³m":4570,"min":4571,"xit":4572,"ony":4573,"ĠPhÃ¢n":4574,"ĠQUá»ĲC":4575,"ĠFor":4576,"ĠTháº©m":4577,"Quáº£ng":4578,"Sá»Ńa":4579,"Ġngá»±a":4580,"Ġlá»¡":4581,"ĠmÃ³ng":4582,"£m":4583,"ĠÃªm":4584,"ĠHáº¡nh":4585,"Ġbom":4586,"Vui":4587,"ĠVÃłng":4588,"ĠVÃło":4589,"Ġcay":4590,"Ġ198":4591,"ĠCÃģC":4592,"ES":4593,"IC":4594,"Ġ2008":4595,"Ġview":4596,"ĠSyria":4597,"ens":4598,"Ġal":4599,"ĠSÃ¡ch":4600,"Ġtáº§n":4601,"Ġven":4602,"º¹t":4603,"ĠthÃ¡p":4604,"ĠTáº¡o":4605,"34":4606,"Ġ#":4607,"ĠCá»Ńa":4608,"Ġngu":4609,"ĠChÃ¡nh":4610,"use":4611,"Thá»ĭ":4612,"ĠngÆ°":4613,"UYÃĬN":4614,"Ġthoa":4615,"Ġnháº§m":4616,"ĠChá»įn":4617,"ĠQuyá»ģn":4618,"ĠTÃ¹ng":4619,"Ġprote":4620,"ara":4621,"ĠÄĳá»Ĺ":4622,"ÄĲS":4623,"Ġá»ĵn":4624,"ĠkhÃ¡i":4625,"ĠQUAN":4626,"TÃ¡c":4627,"ĠngÃ¢m":4628,"Ġláº¯c":4629,"Ġbo":4630,"TIN":4631,"ool":4632,"land":4633,"ĠThÃ¢n":4634,"ºº":4635,"Ġsofa":4636,"90":4637,"º¾N":4638,"Oá":4639,"sá»":4640,"Nhá»":4641,"ChÆ°a":4642,"ĢN":4643,"ThÃ¡":4644,"ĠxÃ´ng":4645,"Doanh":4646,"ĠPhilipp":4647,"Ġnháº¯m":4648,"EM":4649,"Tuyá»ĥn":4650,"lex":4651,"cÆ°á»£c":4652,"Ġmáº£ng":4653,"º¢NG":4654,"ĠÄĲá»ĺNG":4655,"ĠcÆ°á»£c":4656,"soft":4657,"Sá»Ł":4658,"US":4659,"ChÃºc":4660,"Ġbáº¿n":4661,"ÄĲÃ³":4662,"ĠVáºŃn":4663,"Ġbá»ĳc":4664,"ĠÄĳÃŃnh":4665,"ĠLá»Ŀi":4666,"ĠKhai":4667,"ĠNghi":4668,"ĠhoÃł":4669,"ĠniÃªm":4670,"Ġdáº¡o":4671,"Ġkhoe":4672,"Æ¯á»ļC":4673,"Ġ400":4674,"pt":4675,"ĠsÆ°á»Ľng":4676,"ĠngoÃ¡i":4677,"Ġtháº¥u":4678,"ĠCamp":4679,"ĠAs":4680,"ĠMay":4681,"ĠDá»°":4682,"¡o":4683,"ĠtrÆ°á»£t":4684,"ĠDá»¥ng":4685,"Ã½t":4686,"ĠDÆ°á»Ľi":4687,"ĠYá":4688,"ĠHá»ĵi":4689,"EN":4690,"ĠTrÃ¬nh":4691,"ĠNÆ¡i":4692,"ĠlÃ¹ng":4693,"ĠkhÃ´i":4694,"ĠKiá»ģu":4695,"Ġváº¯ng":4696,"ĠHar":4697,"Uáº¬T":4698,"âĢ¦âĢ¦":4699,"ĠThiáº¿u":4700,"ĠBáºłN":4701,"kh":4702,"Website":4703,"Ġkhoan":4704,"ĠCLB":4705,"Ġ34":4706,"ľI":4707,"ká":4708,"ĠNÄĥng":4709,"ĠgiÆ¡":4710,"SEAN":4711,"Thu":4712,"NÄĲ":4713,"ĠmÃ©t":4714,"º«m":4715,"ĠCáºŃp":4716,"ĠVideo":4717,"ĠÄĲT":4718,"ĠThÃº":4719,"ĠEn":4720,"ĠÄĳáº»":4721,"ĠphÃ¢":4722,"ÄĲi":4723,"Ġmá»ķ":4724,"ĠPHáº¨M":4725,"ĠtrÃ¢n":4726,"Ġmáº¹o":4727,"ĠTÃªn":4728,"ĠlÃª":4729,"Ġhung":4730,"Ġphá»ķi":4731,"ĠLáºŃp":4732,"ĠÄĳÃ¹a":4733,"Ġná»ģ":4734,"ĠÃ³c":4735,"ĠSer":4736,"OA":4737,"Ai":4738,"ĠDÃ¹ng":4739,"ĠnhÄĥn":4740,"Ġváº£":4741,"Ġbá»ın":4742,"orn":4743,"Ġcá»¥m":4744,"LÃºc":4745,"Ġme":4746,"Ġbá»ıng":4747,"NhÃ¬n":4748,"Ġkg":4749,"Ġvirus":4750,"Ġpháº¿":4751,"ĠLiÃªm":4752,"lan":4753,"ĠSe":4754,"ĠNa":4755,"ĠrÃ¨n":4756,"ĠâĢĿ":4757,"má»":4758,"Ġ07":4759,"ĠTuyá»ĥn":4760,"onda":4761,"Ġheo":4762,"ÃĬU":4763,"ĠGiÃªsu":4764,"ĠquÃ©t":4765,"ĠvuÃ´ng":4766,"NN":4767,"Ġmu":4768,"BÃ³ng":4769,"ĠGá»Ńi":4770,"dá»":4771,"Ġbá»ĵn":4772,"má»Ļt":4773,"ĠThá»ĭnh":4774,"âľ":4775,"ĠCHá":4776,"ĠLIÃĬN":4777,"TáºŃp":4778,"Ġrá»ĳt":4779,"32":4780,"Ġmau":4781,"ÄĲá»įc":4782,"ĠlÄĥn":4783,"Ġinch":4784,"PS":4785,"QuÃ½":4786,"gmail":4787,"39":4788,"ĠquÃ¡t":4789,"ux":4790,"ĠgÃ£":4791,"www":4792,"bá»":4793,"Ġcá»ĳng":4794,"ĠvÃº":4795,"ĠMicro":4796,"ĠMÃł":4797,"ga":4798,"Máº·t":4799,"ĠUá":4800,"hn":4801,"HÃĢNH":4802,"Tháº£o":4803,"ÄĲá»ĵ":4804,"Ġtá»©":4805,"ID":4806,"app":4807,"Ġ37":4808,"CÃ¡i":4809,"ÄĲÆ°á»Ŀng":4810,"ĠLy":4811,"Khá»":4812,"HÆ¡n":4813,"ĠkhÃ¢u":4814,"Ca":4815,"ĠnÃ¢u":4816,"THÃĶNG":4817,"ĠBá»ĵ":4818,"Ġláº¡m":4819,"náº¿u":4820,"ĠTá»ĳt":4821,"Ġchinh":4822,"Chuyá»ĩn":4823,"ĠLeague":4824,"CÃĶNG":4825,"ĠTrÃ¡i":4826,"ĠGiá»Ŀ":4827,"Ġhang":4828,"ĠQuá»³nh":4829,".)":4830,"ÄĲÆ¡n":4831,"ĠCÃł":4832,"MT":4833,"31":4834,"ino":4835,"ĠÄĲá»Ŀi":4836,"phÃ":4837,"itcoin":4838,"ĠMáº«u":4839,"ĠCHÃļ":4840,"ĠghÃ©t":4841,"ÃģY":4842,"Ġngháº":4843,"ĠmÃ²n":4844,"KhÃ¡m":4845,"Viet":4846,"ĠHot":4847,"Ġháº£":4848,"ĠkhoÄĥn":4849,"Ghi":4850,"Ġkhe":4851,"ĠnÆ°Æ¡ng":4852,"ĠTS":4853,"ĠÄĲáº·ng":4854,"GT":4855,"ies":4856,"Tag":4857,"ĠHuá»³nh":4858,"º»o":4859,"org":4860,"tÆ¡":4861,"iss":4862,"³c":4863,"ĠBao":4864,"ĠnhÆ°á»£c":4865,"Chá»įn":4866,"ona":4867,"tÃ¢":4868,"agen":4869,"enn":4870,"ĠDiá»ĩp":4871,"ÃĤM":4872,"ĠIs":4873,"esia":4874,"uchia":4875,"Ġxay":4876,"NÆ°á»Ľc":4877,"ÃĻ":4878,"LuáºŃt":4879,"Máº¹":4880,"ĠNGHá»":4881,"ĠASEAN":4882,"tre":4883,"ĠTÃŃn":4884,"ĠTuyÃªn":4885,"Ġngoan":4886,"ĠbuÃ´ng":4887,"Ġnguyá»ĩt":4888,"Ã¹y":4889,"Kiáº¿n":4890,"ĠtrÆ¡n":4891,"cha":4892,"ÄĤn":4893,"PhÃ¢n":4894,"ĠtÃ¢":4895,"cel":4896,"Ġres":4897,"ĠmÅ©":4898,"ĠlÆ°á»¡i":4899,"ĠCháº³ng":4900,"cÆ°á»¡ng":4901,"ey":4902,"Ġmarketing":4903,"ĠTrinh":4904,"ĠnÃ¡t":4905,"Ġmini":4906,"ĠláºŃu":4907,"ĠlÄĥng":4908,"ĠBr":4909,"Tiáº¿ng":4910,"press":4911,"ĠbÄĥn":4912,"Ġlá»įt":4913,"ĲI":4914,"ĠPhilippines":4915,"ĠCá»Ń":4916,"ĠTai":4917,"Tá»ķ":4918,"ĠdÃ¢ng":4919,"ĠxÃŃ":4920,"vÃł":4921,"viet":4922,"Ġlá»Ļc":4923,"Chuyá»ĥn":4924,"gon":4925,"Ġrá»¥ng":4926,"Hiá»ĥn":4927,"Ġrá»Ļn":4928,"ĠSá»Ńa":4929,"Ġ2020":4930,"ym":4931,"ĠVÃŃ":4932,"ted":4933,"ĠHá»Ļ":4934,"ĠbÃ´":4935,"ĠlÃµi":4936,"ost":4937,"ĠQuáº£":4938,"º¤P":4939,"ĠHáº¯n":4940,"lá»":4941,"Ġpm":4942,"ĠcÆ°á»¡ng":4943,"BÃ¡c":4944,"Ġbe":4945,"Xá":4946,"Ġnhá»ĭ":4947,"Ġ55":4948,"ĠHáº±ng":4949,"ĠMU":4950,"LÃ½":4951,"ps":4952,"ĠLÃ£nh":4953,"ali":4954,"48":4955,"Ġgiá»įt":4956,"ĠThÃŃch":4957,"Thuá»ĳc":4958,"ĠXanh":4959,"Ġoxy":4960,"Ġtá»±u":4961,"Ġlá»£n":4962,"ĠgáºŃt":4963,"Ġfacebook":4964,"Há»į":4965,"Ġthá»ķi":4966,"ĠgÃ¬n":4967,"ĠDe":4968,"ĠRa":4969,"yota":4970,"ĠvÆ°Æ¡n":4971,"Cháº¥t":4972,"donesia":4973,"ĠÃģo":4974,"ĠYou":4975,"Ġtivi":4976,"Ġnhá»©c":4977,"ĠNHÃĤN":4978,"Ġthun":4979,"Má»Ľi":4980,"ĠphÆ¡i":4981,"ĠmÃ¨o":4982,"ĠÄĲÃ¡nh":4983,"IT":4984,"Ġnhang":4985,"Ġz":4986,"omes":4987,"ĠChuyá»ĥn":4988,"ĠNhÃ¬n":4989,"ĠCuá»ĳi":4990,"ade":4991,"Ġlá»ĵng":4992,"ĠTháº¡ch":4993,"ĠlÃŃt":4994,"Ġre":4995,"Ġkhoai":4996,"Ġdá»ĳi":4997,"ĠÄĳáº§m":4998,"ĠLÄĥng":4999,"Ġlá»©a":5000,"gr":5001,"ĠTáº¡p":5002,"cÃ´n":5003,"ĠmÄĥ":5004,"ná":5005,"cho":5006,"ĠChia":5007,"ĠChÃ¢n":5008,"ĠHi":5009,"ĠThÃªm":5010,"Ġ197":5011,"kho":5012,"ĠSeo":5013,"ĠPV":5014,"sen":5015,"ĠGr":5016,"ĠMarketing":5017,"Táº£i":5018,"EL":5019,"ĠÄĳá»ĵi":5020,"ĠphÃ¡o":5021,"ĠSiÃªu":5022,"Ġcafe":5023,"BTTTT":5024,"onald":5025,"ment":5026,"ĠgÅ©i":5027,"ĠbÃ¹ng":5028,"º·m":5029,"ĠCáºŃu":5030,"ĠcÃ´n":5031,"ĠTHÃ":5032,"ĠÄĳu":5033,"ÄĲá»Ļi":5034,"ĠvÃ¡ch":5035,"ĠthÆ°a":5036,"Ġváº¥t":5037,"ĠÆ°á»Ľt":5038,"ĠrÃ´":5039,"ire":5040,"TháºŃt":5041,"DÃ¢n":5042,"Ġcm":5043,"Ġláº¥p":5044,"Ġsá»ĳc":5045,"Ġnáº¡i":5046,"ĠMÃłu":5047,"trong":5048,"ĠÄĲáº":5049,"ĠÄĳáº±ng":5050,"tiá»ĩm":5051,"Chiá»ģu":5052,"¨m":5053,"ĠdÆ°a":5054,"ifi":5055,"ĠMiá»ħn":5056,"Ġá»¨ng":5057,"ĠKHÃĶNG":5058,"¤NG":5059,"ĠchuÃ´ng":5060,"ÆłN":5061,"Ġ48":5062,"ĠHá»Ĩ":5063,"ĠThá»ķ":5064,"XÃ¢y":5065,"CT":5066,"ĠtÆ¡":5067,"ĠBÄĲS":5068,"ĠsÆ°Æ¡ng":5069,"ĠnÃ©m":5070,"ĠIS":5071,"Ġtiá»ĩm":5072,"ĠTRONG":5073,"Ġtriá»ģu":5074,"ĠDáº¡":5075,"Æ¯á»ľI":5076,"ÃĴ":5077,"ĠHoáº¡t":5078,"ĠAN":5079,"uá»¹":5080,"Ġsá»ī":5081,"ĠCen":5082,"ure":5083,"cÃ¡c":5084,"Vá»¥":5085,"Sinh":5086,"ĠÄĳÃ¡y":5087,"ĠCÃĵ":5088,"Ġngá»£i":5089,"Ġlá»Ļn":5090,"ĠgÃµ":5091,"Iá»ĦN":5092,"ĠgÃ¡nh":5093,"GD":5094,"Xuáº¥t":5095,"tÃ¡m":5096,"Ġcáº¯p":5097,"ĠtrÄĥng":5098,"tuyáº¿t":5099,"ien":5100,"2010":5101,"KH":5102,"Ġtam":5103,"ĠÄĲá»Ĭ":5104,"ĠVÃ´":5105,"ĠSai":5106,"UYá»ĢN":5107,"ĠVÄĤN":5108,"ĠMac":5109,"lock":5110,"Ġhao":5111,"ĠCampuchia":5112,"YÃªu":5113,"Ġxá»ī":5114,"Ġtuyáº¿t":5115,"ĠTHÃĢNH":5116,"bum":5117,"Ġad":5118,"ĠcháºŃu":5119,"ĠVáº¤N":5120,"Ġquá»·":5121,"ĠlÆ°á»¡ng":5122,"Ġgam":5123,"ĠPhÆ°á»£ng":5124,"ĠlÆ°á»Ŀng":5125,"ĠKiá»ĩn":5126,"ĠKiÃªn":5127,"Ġ75":5128,"ĠParis":5129,"Tour":5130,"Ġnhan":5131,"ĠBay":5132,"ĠGroup":5133,"ĠnghÃª":5134,"So":5135,"ĠChuyá»ĩn":5136,"ĠTÃº":5137,"46":5138,"ene":5139,"Cung":5140,"ĠNhá»Ŀ":5141,"Qua":5142,"Ná»¯":5143,"ana":5144,"ĠtÃ¡m":5145,"ĠMá»Ļc":5146,"ĠPhá»§":5147,"ĠSINH":5148,"ĠHoÃłi":5149,"ĠBÃ¢y":5150,"Ġmo":5151,"Ġham":5152,"ĠAm":5153,"Ġ..":5154,"ĠAll":5155,"ºª":5156,"Ġdiá»ĩu":5157,"Ġcháº©n":5158,"ĠvÆ°á»Ľng":5159,"ĠNGHIá»ĨP":5160,"IS":5161,"Ġsen":5162,"Ġchuá»ĳi":5163,"Ġquyá»ĥn":5164,"ico":5165,"ĠGiáº£m":5166,"Ġquáº¡t":5167,"TÄĥng":5168,"ĠIndonesia":5169,"ĠÄĲáº·t":5170,"ĺT":5171,"ĠTrá»ĭnh":5172,"ĠkiÃªng":5173,"we":5174,"49":5175,"ĠkhoÃ¡":5176,"ĠLá»¥c":5177,"ĠThá»©c":5178,"Ġ39":5179,"ĠChá»©c":5180,"ĠgiÃ¡n":5181,"pe":5182,"ĠBáº£ng":5183,"Ġ120":5184,"tÃ¹ng":5185,"MÃ³n":5186,"ĠkhoÃ¡i":5187,"pháº":5188,"áº£n":5189,"Ãļ":5190,"ĠMÃ´n":5191,"ĠtÃ¹ng":5192,"ĠÄĳuÃ´i":5193,"Ġváº¡ch":5194,"º¶T":5195,"TO":5196,"olf":5197,"Tiá»ĥu":5198,"Ġkhoáº£nh":5199,"ĠthÃ¡m":5200,"Ġ33":5201,"ChÃº":5202,"Ġá»Ľt":5203,"Ġtre":5204,"ĠGold":5205,"Ráº¥t":5206,"Ġ2000":5207,"ĠhoÃłi":5208,"ĠhÆ°u":5209,"ĠYáº¿n":5210,"Ġ2007":5211,"ĠShop":5212,"ĠYork":5213,"ĶI":5214,"Æ¯á»¢C":5215,"âĢ¦âĢĿ":5216,"ieu":5217,"ĠphÃ´":5218,"ĠthÃ¨m":5219,"ĠSu":5220,"ĠTriá»ĥn":5221,"hen":5222,"Pad":5223,"ĠmÃ²":5224,"/.":5225,"TÃŃnh":5226,"ĠTuyáº¿t":5227,"ĠnhÃ£":5228,"NÃªn":5229,"Ġlu":5230,"let":5231,"ĠLáº§n":5232,"47":5233,"Ġxi":5234,"VÃ¢ng":5235,"Ġká»ī":5236,"Ļn":5237,"ĠÃ´tÃ´":5238,"tra":5239,"Kháº":5240,"65":5241,"ĠNÄĤM":5242,"Ġláº·p":5243,"Ġthoáº£ng":5244,"Ġthuáº«n":5245,"ĠÃģnh":5246,"ĠLÃĿ":5247,"Gá»":5248,"®NG":5249,"ĠRá»ĵi":5250,"Nguyá»ħn":5251,"ĠÄĳiá»ģn":5252,"ĠViÃª":5253,"Ġaxit":5254,"Ġlá»ģ":5255,"ĠChÆ°a":5256,"DÆ°á»Ľi":5257,"háº¥y":5258,"ĠthiÃª":5259,"cua":5260,"ĠUSB":5261,"ĠÄĲo":5262,"Ġhoáº¡i":5263,"Ġráº¡ng":5264,"ĠRiver":5265,"ĠViettel":5266,"Ġvs":5267,"ves":5268,"!!!":5269,"ĠkiÃª":5270,"ĠMÃ¹a":5271,"ĠSÃ³c":5272,"ĠmÃ´ng":5273,"ĠFPT":5274,"ĠFull":5275,"ĠBÃłn":5276,"ĠTÃĶI":5277,"Ġlung":5278,"Ġdáº¯t":5279,"Ġchay":5280,"ĠNhÆ¡n":5281,"Ġlogo":5282,"ĠTáº§n":5283,"ĠnhÃŃ":5284,"Lá»ħ":5285,"ĠIP":5286,"Ġrun":5287,"Ġtoa":5288,"Ġser":5289,"ĠhÃª":5290,"Ġhiáº¿u":5291,"ĠrÃł":5292,"Ġ600":5293,"ĠDá»¤NG":5294,"Ġgiang":5295,"Ġtráº¯c":5296,"bao":5297,"Ġhiá»ģn":5298,"ĠKHÃģCH":5299,"Ġcá»ĵn":5300,"ĠÄĲáº£o":5301,"Ġ65":5302,"cuá»ĵng":5303,"ĠchiÃªn":5304,"ĠCÃ¡":5305,"ĠReal":5306,"ĠÄĲáºłI":5307,"ĠvÃ³c":5308,"ĠBÃ©":5309,"ĠKhÃ¡c":5310,"ĠPC":5311,"ĠTuá»ķi":5312,"NháºŃp":5313,"Ġwww":5314,"ToÃłn":5315,"Ġrá»ī":5316,"ĠMad":5317,"ĠNguyá»ĩt":5318,"Ġngá»©a":5319,"Ġkhuy":5320,"Ġcáº¯n":5321,"Ġ99":5322,"Ãģo":5323,"Ġbá»Ļi":5324,"ĠsÃ¢m":5325,"ĠRao":5326,"Ġtá»ıi":5327,"Ġtrá»«ng":5328,"ĠkhÃ©p":5329,"ĠCÃ¢y":5330,"»¨ng":5331,"á»¨ng":5332,"Ġchá»£t":5333,"Ä¨":5334,"Ġthá»ĭnh":5335,"ĠPhÃŃ":5336,"ĠHonda":5337,"ava":5338,"ĠchÃ©n":5339,"Ġlam":5340,"Ġmá»ı":5341,"ĠÄĲIá»ĨN":5342,"ĠrÃ¡p":5343,"Duy":5344,"ĠTN":5345,"QuÃªn":5346,"ĠsÆ°ng":5347,"Cuá»ĳi":5348,"ĠAc":5349,"ĠÃ¢u":5350,"ĠbÃº":5351,"Ġáº¢":5352,"cri":5353,"ĠBang":5354,"uong":5355,"Ġ64":5356,"sp":5357,"ĠlÃ¢n":5358,"\\Ā\\Ā\\Ā\\Ā":5359,"ĠThoáº¡i":5360,"Ġcuá»ĵng":5361,"arao":5362,"ĠStar":5363,"tro":5364,"Chiáº¿n":5365,"gh":5366,"Ġhá»Ł":5367,"ĠCáº©m":5368,"Phong":5369,"ĠSá»Ĳ":5370,"ĠLH":5371,"ĠnÃ´n":5372,"Ã³p":5373,"ĠTu":5374,"Ġxoa":5375,"ĠVIáº¾T":5376,"PhÃ³":5377,"ĠÄĳÃłnh":5378,"phcm":5379,"ĠhÃ²n":5380,"Ġkáº½":5381,"Quan":5382,"ĠAP":5383,"Ġdá»ĳc":5384,"Ġsáº¥y":5385,"by":5386,"ĠLED":5387,"Tá»±":5388,"ĠBÃģO":5389,"ĠÄĲiá»ģn":5390,"ĠAus":5391,"Ġsan":5392,"ĠCol":5393,"ĠkhiÃªu":5394,"ĠNguá»ĵn":5395,"ĠBi":5396,"67":5397,"ĠNote":5398,"AL":5399,"ĠPHáº¦N":5400,"QT":5401,"ĠBÃ¡ch":5402,"ĠÄĲáº¦U":5403,"ĠGIá»":5404,"Truyá»ĩn":5405,"ĠmuÃ´n":5406,"Há»®NG":5407,"ĠNÃłng":5408,"ĠCal":5409,"Cáº£nh":5410,"ĠÆ°":5411,"ĠlÃ©o":5412,"ĠÄĳáº¯n":5413,"ĠlÃ¢":5414,"ĠMicrosoft":5415,"AC":5416,"Ġngá»Ļt":5417,"Ġnáº£y":5418,"ĠGÃ²":5419,"ĠLá»ĩ":5420,"ĠVá»ļI":5421,"araoke":5422,"ĠCai":5423,"ĠmÄĥng":5424,"Ġtá»¥ng":5425,"Â®":5426,"Ġnáº¯p":5427,"ĠtrÆ¡":5428,"ĠTÃĤM":5429,"ĠMau":5430,"ington":5431,"ĠHoáº·c":5432,"cai":5433,"Ġqui":5434,"ĠMob":5435,"Copyright":5436,"Ġráº¯c":5437,"Ġnghiá»ĩn":5438,"ĠsÃºt":5439,"NghiÃªn":5440,"eng":5441,"Ġbá»ī":5442,"ĠMon":5443,"44":5444,"oa":5445,"Ġtro":5446,"ĠvÃ¢y":5447,"ĠVIÃĬN":5448,"ĠTRÃĮNH":5449,"ĠMáº¡ng":5450,"ĠGiÃ¡ng":5451,"Ġmá»Ļc":5452,"ati":5453,"Hoáº·c":5454,"Thá»ĳng":5455,"Ġac":5456,"ĠÃģN":5457,"ĠchÃ¨":5458,"»¿":5459,"ï»¿":5460,"ĠÆ°ng":5461,"ĠToyota":5462,"ĠHS":5463,"ier":5464,"Ġand":5465,"ka":5466,"Ġvan":5467,"ĠTháºŃm":5468,"ĠTRUNG":5469,"lymp":5470,"ÄĲÃºng":5471,"ĠCá»ĳ":5472,"cÃºi":5473,"Kiá»ĥm":5474,"ĠTHá»Ĥ":5475,"ĠViá»ħn":5476,"ViÃªm":5477,"Ġhttps":5478,"Cam":5479,"ĠhÆ¡":5480,"ĠSÃ¡u":5481,"ĠMÃģY":5482,"Ġnáº§y":5483,"ĠNGÆ¯á»ľI":5484,"ĠThÃ¡p":5485,"ĠÄĲiá»ĥn":5486,"ames":5487,"ĠhÆ°á»Ľc":5488,"ĠcÃºi":5489,"ĠChÄĥm":5490,"ĠThiá»ĩn":5491,"ĠNhÄ©":5492,"ĠxÃ¡":5493,"ĠÄĲÃºng":5494,"Ġmá»īm":5495,"Ġtem":5496,"ĠnghiÃªng":5497,"LC":5498,"UBND":5499,"tralia":5500,"ĠchÃ¡nh":5501,"reen":5502,"ĠÄĳáº·n":5503,"arden":5504,"ĠnÆ°Æ¡":5505,"ĠLÆ°á»£ng":5506,"Thi":5507,"ĠÄĲáº¡t":5508,"sh":5509,"ĠCháº¿":5510,"77":5511,"ĠKhá»Łi":5512,"ĠOb":5513,"ĠGIA":5514,"ĠchiÃªm":5515,"ner":5516,"ĠNhanh":5517,"Quyáº¿t":5518,"ĠEd":5519,"GS":5520,"Ġmanh":5521,"LÄĲ":5522,"ºłO":5523,"Ġná»ĳt":5524,"Ġbuá»ĵng":5525,"ĠSá»¬":5526,"Ġmod":5527,"Ġcai":5528,"ĠBÆ°á»Ľc":5529,"Ġphanh":5530,"Ġvo":5531,"ĠthÃ¬a":5532,"ther":5533,"ĠdáºŃp":5534,"ĠKhang":5535,"TÃŃch":5536,"Ġgiá»ı":5537,"ĠCá»Ķ":5538,"ĠTáº¾":5539,"lay":5540,"ĠBiáº¿t":5541,"ĠCÃ¡o":5542,"ĠNhiÃªn":5543,"Ġdownload":5544,"Ńng":5545,"ĠngÃ¢y":5546,"Ġáº¥p":5547,"ĠKÃĿ":5548,"ĠVinhomes":5549,"69":5550,"ĠTay":5551,"Táº¡o":5552,"ĠPHÃģP":5553,"Ġdá»Ł":5554,"ĠKhá»ıe":5555,"giá":5556,"ĠKáº¾":5557,"ĠÄĳáº¯ng":5558,"Ġ250":5559,"ĠGiÃºp":5560,"ĠchÃªnh":5561,"ero":5562,"Ġláº¥n":5563,"Ġbar":5564,"Ġpháº³ng":5565,"ĠLÃĢM":5566,"ĠAu":5567,"ĠKhuyáº¿n":5568,"ĠPHÃĴNG":5569,"Ġnhá»Ł":5570,"º¥ng":5571,"ich":5572,"ĠCá»Ńu":5573,"Ġmáº·n":5574,"ĠDonald":5575,"ĠMobile":5576,"gia":5577,"89":5578,"Ġup":5579,"º±n":5580,"Sao":5581,"ĠmÆ°á»£n":5582,"ĠlÆ°á»Ľt":5583,"Ġgai":5584,"Ġsanh":5585,"entin":5586,"ĠnghiÃª":5587,"ĠVTV":5588,"Ġde":5589,"int":5590,"ĠGáº§n":5591,"ĠPu":5592,"Ġlui":5593,"ĠLá»ĬCH":5594,"wit":5595,"ĠTÆ°á»Ŀng":5596,"ĠBÃ³ng":5597,"SÆ¡":5598,"ĠBÄĥng":5599,"Ġ800":5600,"Ãºm":5601,"ĠÄĲang":5602,"ĠMÃ´":5603,"ĠláºŃt":5604,"Káº¿":5605,"ĠTHÃģ":5606,"HÃłnh":5607,"lines":5608,"ÃĢO":5609,"ĠOlymp":5610,"Ġngá»¥":5611,"ĠCháº¯c":5612,"ĠMer":5613,"tÃ³m":5614,"ark":5615,"ĠEU":5616,"Ġvá»Ł":5617,"Ġháº»":5618,"Ġ1000":5619,"Ġná»©t":5620,"ĠPHÃį":5621,"ĠQuÃ¡n":5622,"ĠPhá»¥c":5623,"Ġbong":5624,"ban":5625,"ĠTuáº§n":5626,"ved":5627,"Trá»¥":5628,"ĠrÃ¨m":5629,"ights":5630,"ĠnÃ¡ch":5631,"ĠngÃ´":5632,"54":5633,"Ġngáº§n":5634,"ĠKhÃ¡m":5635,"Ġhiáº¿p":5636,"ĠiOS":5637,"Ġmáº¯m":5638,"Ġá»ĳp":5639,"ĠÄĲÃ¡":5640,"Ġdá»Ļi":5641,"Cá»Ńa":5642,"Ġcar":5643,"ĠAng":5644,"ĠmÃºa":5645,"ĠVá»ĩ":5646,"ĠThá»«a":5647,"ĠngÆ°ng":5648,"ĠBra":5649,"ĠDU":5650,"Ġprotein":5651,"Há»ıi":5652,"Ġman":5653,"īa":5654,"ree":5655,"ĠchÃ¢":5656,"ĠNgá»¯":5657,"KhÃ³a":5658,"Ġxá»ķ":5659,"Ġdá»ĵi":5660,"ĠÄĳáº¡c":5661,"ĠSH":5662,"ĠTRÆ¯á»ľNG":5663,"ĠÃło":5664,"ĠFord":5665,"º¨m":5666,"Ġcá»§ng":5667,"ĠluÃ¢n":5668,"Ġmm":5669,"ĠTRá»¢":5670,"rá":5671,"ĠÄĳá»Ľi":5672,"UYá»ĤN":5673,"dio":5674,"ĠtÃ³m":5675,"Ġby":5676,"TN":5677,"Ngá»":5678,"ĠSá»°":5679,"Ġyáº¿n":5680,"tphcm":5681,"táº¡":5682,"ĠLá»Ļ":5683,"ley":5684,"isa":5685,"ĠSÃ´ng":5686,"ĠiPad":5687,"Ġdáº¡i":5688,"Ġbáº¿":5689,"OT":5690,"ĠÄĳá»¥ng":5691,"tá»«":5692,"Ãªnh":5693,"ĠCl":5694,"ĠCHá»¦":5695,"Cá»¥":5696,"Ġkhá»ĳng":5697,"ĠmÃ¢u":5698,"¨NG":5699,"ĠChá»£":5700,"ĠKiá»ĩt":5701,"lÃłm":5702,"ĠNhuáºŃn":5703,"Iá»ĤM":5704,"zil":5705,"ĠÄĳc":5706,"ĠxÃł":5707,"Ġngáº«u":5708,"view":5709,"ĠTáº£i":5710,"ĠJava":5711,"trá»":5712,"LÃªn":5713,"ĠxÃ¡m":5714,"Ġrá»ĵng":5715,"Ġtáº¡":5716,"ĠNghe":5717,"Ġkiá»ĩt":5718,"Ġcua":5719,"ast":5720,"./.":5721,"ĠchÃ¬a":5722,"ĠWord":5723,"no":5724,"Ġyáº¿t":5725,"Ġ49":5726,"py":5727,"ĠHiá»ģn":5728,"aph":5729,"MS":5730,"ĠNgÃ£i":5731,"ĺC":5732,"MÃ£":5733,"tain":5734,"«m":5735,"ĠCHÃļNG":5736,"ĠTre":5737,"ext":5738,"Ġinox":5739,"ĠdÃ£y":5740,"Ġkiáº¿p":5741,"Ġtrinh":5742,"AD":5743,"Game":5744,"uck":5745,"Bank":5746,"Ġeo":5747,"Ġhá»¥t":5748,"ĠCO":5749,"Tráº»":5750,"che":5751,"ĠKÃŃch":5752,"ah":5753,"ĠQuá»¹":5754,"ale":5755,"ĠAustralia":5756,"ĠÄĲan":5757,"rl":5758,"ĠHoÃł":5759,"aster":5760,"Ġcá»Łi":5761,"ĠSÆ¡":5762,"ĠNews":5763,"ĠSte":5764,"ĠDá»ĬCH":5765,"Ġnghá»ĭch":5766,"ĠLáº¡i":5767,"ĠBáº£y":5768,"ĠXi":5769,"ThÆ°Æ¡ng":5770,"Bá»ĭ":5771,"ĠTrÃºc":5772,"hip":5773,"der":5774,"Ġao":5775,"AP":5776,"Ġthon":5777,"Ġnháº·":5778,"58":5779,"ĠhÃ¡i":5780,"ĠmÃło":5781,"300":5782,"ĠCNTT":5783,"Ġki":5784,"----":5785,"ĠLá»±c":5786,"Giáº£m":5787,"ĠÄĲÃ´i":5788,"ĠSony":5789,"sea":5790,"ĠVáº¥p":5791,"Cháº¿":5792,"ĠKÃŃnh":5793,"ĠÆ¯u":5794,"tom":5795,"tube":5796,"ĠTÃ´ng":5797,"giá»":5798,"Ġ$":5799,"ĠOr":5800,"Ġdá»ĵn":5801,"ĠSen":5802,"cript":5803,"low":5804,"ĠrÃ¢":5805,"Ġruá»Ļng":5806,"ĠgÃ¡c":5807,"ĠTrÃ¬":5808,"ĠmÆ°á»£t":5809,"ĠMuá»ĳn":5810,"Ġ42":5811,"ĠCAO":5812,"The":5813,"ĠThÃºy":5814,"ĠBáº¡c":5815,"ĠdÅ©ng":5816,"ĠphÃ¬":5817,"tÃ²":5818,"ĠHP":5819,"ĠÄĳáº¡m":5820,"Ġmáº¡":5821,"ĠJohn":5822,"per":5823,"ĠbÃ³p":5824,"Ġtphcm":5825,"Ġtaxi":5826,"Ġnhá»ĭn":5827,"Ġsuá»ĳi":5828,"ĠBiá»ĩt":5829,"ĠhÆ°ng":5830,"Ġtriáº¿t":5831,"az":5832,"ĠbÄĥ":5833,"ĠKá»·":5834,"art":5835,"ĠHá»Ĵ":5836,"ĠsÃ¹i":5837,"ĠCÆ°":5838,"ĠtrÃ¹m":5839,"ĠtÃ²":5840,"ĠTráº¯ng":5841,"ĠTranh":5842,"Ġ700":5843,"ĠBá»ĳ":5844,"Láº§n":5845,"side":5846,"Ġxáº¯n":5847,"ĠGarden":5848,"Iá»ĤN":5849,"Iá»ĢN":5850,"earl":5851,"Ġthiá»ģn":5852,"ĠOp":5853,"ĠChiáº¿c":5854,"ĠÄĲáº¿":5855,"ĠxÃŃch":5856,"ide":5857,"Ġkhá»Ń":5858,"ĠVáº¡n":5859,"ĠHá»ıi":5860,"Gáº§n":5861,"ÄĲá»©c":5862,"BÃĢI":5863,"ĠTá»·":5864,"Ġluá»ĵng":5865,"uild":5866,"Chá»ĭu":5867,"ĠNiÃªn":5868,"ĠTruyá»ĩn":5869,"¹a":5870,"TÃ²a":5871,"Ìģ,":5872,"59":5873,"undai":5874,"Ġviáº¿ng":5875,"TrÃ¬nh":5876,"ime":5877,"Ġcanxi":5878,"ĠAM":5879,"CáºŃp":5880,"NÆ¡i":5881,"Ġdai":5882,"ĠAirlines":5883,"AND":5884,"Ġsá»¥p":5885,"Nghá»ĩ":5886,"Æ¯á»¢NG":5887,"ĠKINH":5888,"Ġve":5889,"Ġá»ĳm":5890,"ĠxÃ³t":5891,"ist":5892,"Chiáº¿c":5893,"ÃĻNG":5894,"ĠHiá»ĥu":5895,"ĠmÃłi":5896,"Ġkhiáº¿p":5897,"ĠBitcoin":5898,"ĠThuá»ĳc":5899,"ĠXuyÃªn":5900,"ĠObama":5901,"Cáº£":5902,"ĠHotline":5903,"¥a":5904,"Bá»Łi":5905,"ĠPan":5906,"ĠAFF":5907,"essi":5908,"ica":5909,"ĠhoÃłnh":5910,"ial":5911,"Ġkháº½":5912,"ĠBHXH":5913,"ĠNÆ¯á»ļC":5914,"ĠÄĳáº¿m":5915,"ĠPal":5916,"Pháº£i":5917,"Ġbáº¥y":5918,"eu":5919,"Ġnhá»Ļn":5920,"ĠÄĳun":5921,"Nghe":5922,",âĢĿ":5923,"oga":5924,"ĠTá»ĳi":5925,"))":5926,"ĠcÃ³c":5927,"ĠKhÃŃ":5928,"ĠkhÆ¡i":5929,"ĠKitÃ´":5930,"ĠHÃĢNH":5931,"Ġrá»ĥ":5932,"ĠkÃ¨o":5933,"CB":5934,"ĠTHÆ¯ÆłNG":5935,"ct":5936,"ĠRiÃªng":5937,"DÃ¹ng":5938,"ach":5939,"ĠNGÃĢY":5940,"ĠBÃģN":5941,"ĠNgÃ´i":5942,"ĠlÆ°Æ¡":5943,"ĠBÃŃch":5944,"MÃ¹a":5945,"ĠNGá":5946,"ĠNi":5947,"Ġcá»įc":5948,"Ġphe":5949,"79":5950,"Ġvá»Ĺ":5951,"ĠgÃ£y":5952,"ĠHiáº¿u":5953,"ĠBo":5954,"Ġthuá»·":5955,"ĠNhÃ³m":5956,"Ġnhá»¥c":5957,"Ġky":5958,"book":5959,"ary":5960,"2008":5961,"Ġkhiáº¿t":5962,"ĠSáº½":5963,"ĠTÆ°á»Łng":5964,"ĠPhiÃªn":5965,"ĠBáº¢N":5966,"ĠÄĳá»©t":5967,"ĠÄĳÄĥ":5968,"Ġthá»īnh":5969,"nhá»¯ng":5970,"erved":5971,"ĠsÃ©t":5972,"Ġdáº»o":5973,"oth":5974,"ĠâĢ¢":5975,"ĠSÃģCH":5976,"OáºłI":5977,"Ġchá»ĳn":5978,"2009":5979,"Ġcomm":5980,"Ġtrá»ĩt":5981,"UYá»Ĩ":5982,"ĠGS":5983,"ern":5984,"ĠÄĳáº¯m":5985,"Háº¯n":5986,"room":5987,"ĠÃĲá":5988,"Ġ43":5989,"ĠHiáº¿n":5990,"ĠPe":5991,"Ġháº»m":5992,"ium":5993,"ĠCáº¤P":5994,"ose":5995,"ĠMINH":5996,"Má»¥c":5997,"Æ¯á»ļNG":5998,"Ġxao":5999,"Ġdáº¹p":6000,"Ġgáº¯t":6001,"erry":6002,"Loáº¡i":6003,"ĠOff":6004,"ĨĴ":6005,"CÃ¢y":6006,"ĠMáºŃu":6007,"Ġtrá»ħ":6008,"ĠTiáº¿t":6009,"ĠMadrid":6010,"ĠSÃ¢n":6011,"ĠTá»¨C":6012,"ĠthiÃªng":6013,"OR":6014,"SÃ¡ch":6015,"43":6016,"ĠHáº§u":6017,"BÃłn":6018,"ĠSky":6019,"ĠBÃ¡":6020,"Ġcháº·ng":6021,"Ġnghiá»ģn":6022,"FA":6023,"ĠIII":6024,"cuá»Ļn":6025,"Ġ95":6026,"NháºŃt":6027,"ºłT":6028,"ĠsÃºc":6029,"ĠVal":6030,"Ġcá»±":6031,"ĠGhi":6032,"ĠbÃłng":6033,"ĠTHU":6034,"ĠHong":6035,"ki":6036,"Ġxen":6037,"Ġháº¡ch":6038,"Ġdáº·m":6039,"ĠKháº£i":6040,"CáºŃu":6041,"ĠQuÃ¡":6042,"Chá»©ng":6043,"ĠTrá»±c":6044,"NÃ¢ng":6045,"ĠDT":6046,"sta":6047,"ĠTra":6048,"ashington":6049,"CD":6050,"atch":6051,"ĠXÃ´":6052,"Truyá»ģn":6053,"elsea":6054,"ĠBáº¢O":6055,"ĠkiÃªm":6056,"kin":6057,"ĠTIáº¾":6058,"ĠThuáº¿":6059,"ĠDiá»ĩu":6060,"Com":6061,"ĠrÃ¢u":6062,"Ġcáº¡n":6063,"lu":6064,"ĠMÃ³n":6065,"Vá»«a":6066,"ĠÄĲá»ĬNH":6067,"ĠHang":6068,"ĠDOANH":6069,"ĠgÃłng":6070,"ĠBlack":6071,"KÃŃch":6072,"ĠTM":6073,"Ġuá»ĳn":6074,"hoáº·c":6075,"Chung":6076,"Ġrá»Ļ":6077,"ĠchÃ©m":6078,"ĠLÃ£o":6079,"Ġbá»ĵ":6080,"ĠChamp":6081,"Báº¯t":6082,"Ġcuá»Ļn":6083,"ĠCÄĲ":6084,"ĠhÃŃt":6085,"Æ¯U":6086,"42":6087,"56":6088,"ĠÄĲá»ĴNG":6089,"ĠchÃ¡o":6090,"Má»Ł":6091,"ĠNgÃ´n":6092,"Ġdáº·n":6093,"YT":6094,"ĠRob":6095,"ĠvÃ²i":6096,"Ġphoto":6097,"HoÃłng":6098,"ĠHÃłm":6099,"ĠlÅ©y":6100,"ĠXá»":6101,"ĠTHCS":6102,"ĠSim":6103,"Ġchip":6104,"aomi":6105,"ĠPhá»ķ":6106,"ss":6107,"ĠÄĲá»Ĥ":6108,"Ġdá»ĩt":6109,"ĠInter":6110,"72":6111,"Ġkaraoke":6112,"ĠxÃ´i":6113,"erm":6114,"ĠNgÅ©":6115,"ĠquÃ£ng":6116,"ish":6117,"ĠVá»«a":6118,"¢P":6119,"Ľc":6120,"rab":6121,"ĠbÃ¡ch":6122,"Ġná»į":6123,"van":6124,"ĠlÆ°":6125,"Ġ2006":6126,"ĠLG":6127,"Ġhotline":6128,"ĠDáº«n":6129,"ĠChÆ¡i":6130,"Ãī":6131,"Ġbáº¡":6132,"ĠDÃĤN":6133,"agon":6134,"ĠMax":6135,"Váº¥n":6136,"Ġgo":6137,"ĠMod":6138,"Ġtá»ĵi":6139,"ind":6140,"ĠKháº£":6141,"ĠxÃ¬":6142,"º¿m":6143,"ĠxÃło":6144,"Ġmuá»Ļi":6145,"ĠOne":6146,"Ġkáº¹t":6147,"ĠCopyright":6148,"Ġrá»ĩt":6149,"ĠTÆ°Æ¡ng":6150,"ĠÄĳá»ĳng":6151,"MÃłu":6152,"ĠbuÃ½t":6153,"ĠbÃ£":6154,"ĠIran":6155,"tÆ°á»Ľi":6156,"Bao":6157,"ºªN":6158,"ĠKhoáº£n":6159,"Ġvá»ĭt":6160,"º³ng":6161,"ĠNGHá»Ĩ":6162,"witter":6163,"Ġdá»Ĺ":6164,"ĠÄĲáº¯k":6165,"Há»£p":6166,"Ġviá»ģn":6167,"ĠCamera":6168,"Ġgáº¡t":6169,"Ġá»§i":6170,"Ġsá»Ŀ":6171,".,":6172,"ura":6173,"ĠTá»ª":6174,"ham":6175,"ĠÄĳá»įng":6176,"Ġlá»į":6177,"º®C":6178,"ĠÄĲÃłm":6179,"Ġkeo":6180,"ÄĲoÃłn":6181,"ĠtÆ°á»Ľi":6182,"ĠEuro":6183,"VáºŃn":6184,"PhiÃªn":6185,"apa":6186,"ĠKáº¾T":6187,"199":6188,"Ġ47":6189,"tui":6190,"Ġgá»«ng":6191,"ĠMá»Ł":6192,"Ġkáº¹o":6193,"card":6194,"Ġcomment":6195,"ká»":6196,"Ġbá»«ng":6197,"Ġnhá»Ŀn":6198,"Ġkhoang":6199,"ná»":6200,"onaldo":6201,"Ġ85":6202,"Má»Ŀi":6203,"Ġcáº¥y":6204,"Ġcáº±m":6205,"ĠBS":6206,"trol":6207,"ĠÄĳan":6208,"ĠDá»¥c":6209,"Ġnhiáº¿p":6210,"ib":6211,"Ġ68":6212,"ĠPho":6213,"Ġgá»Łi":6214,"ĠKhÃ³a":6215,"tress":6216,"ĠCr":6217,"sion":6218,"rael":6219,"ĠTHI":6220,"ĠCas":6221,"nhÃł":6222,"ĠxÆ°ng":6223,"ĠWashington":6224,"lus":6225,"ĠÄĳÃ²n":6226,"ĠHÃ£ng":6227,"ÄĲÃło":6228,"AG":6229,"Ġ>>":6230,"Muá»ĳn":6231,"Ġchá»įc":6232,"Ġspa":6233,"ĠdÃ©p":6234,"ĠrÃ¡o":6235,"ĠFr":6236,"Ġ46":6237,"cháºŃt":6238,"enz":6239,"Ġghen":6240,"qua":6241,"Ġled":6242,"ĠPHÃģT":6243,"Ġ2005":6244,"ĠPrem":6245,"ĠchiÃª":6246,"cÃłnh":6247,"ĠMá»ĺT":6248,"Tá»ĳi":6249,"Uáº¬N":6250,"ĠÄĲÆ¯á»¢C":6251,"ĠTÃ¹y":6252,"ĠBÃĮNH":6253,"ĠCÅ©":6254,"ĠlÃ¡nh":6255,"Ġmuá»":6256,"ĠNhÃ£":6257,"tÃº":6258,"ĠHIV":6259,"ĠChiá»ģu":6260,"Ġlá»Ļt":6261,"onic":6262,"ĠcháºŃt":6263,"Ġoan":6264,"Ġkiá»ģm":6265,"Ġtáº£n":6266,"ĠTrá»£":6267,"Ġcháº±m":6268,"Kem":6269,"ĠKÃ´ng":6270,"uá»Ļm":6271,"ĠChuáº©n":6272,"ower":6273,"kia":6274,"ĠÄĳiÃªu":6275,"fo":6276,"ĠLand":6277,"istan":6278,"Æ¡m":6279,"PN":6280,"ĠMC":6281,"Ġnáº¿n":6282,"ĠtrÃ¡n":6283,"ĠTRá»Ĭ":6284,"ĠPhÃ¹":6285,"Ġkhuáº¥t":6286,"ĠcÃłnh":6287,"ĠrÃ©t":6288,"Ġsá»ıi":6289,"ĠNHáº¬N":6290,"ĠdÃ¢":6291,"Ġráº½":6292,"Giá»Ŀ":6293,"ĠÄĲá»Ļc":6294,"ĠChelsea":6295,"Ġchá»Ńi":6296,"DI":6297,"41":6298,"ĠtÃº":6299,"Khá»Łi":6300,"__":6301,"ĠÂ«":6302,"DS":6303,"khá»":6304,"Ġalbum":6305,"57":6306,"ya":6307,"ĠCá»©":6308,"combank":6309,"biz":6310,"ĠvÃ£":6311,"ĠdÃª":6312,"ĠHN":6313,"Trao":6314,"Tiá»ģn":6315,"ĠLá»Ľp":6316,"UYáº¾N":6317,"ĠÄĳinh":6318,"áº¡y":6319,"ĠThao":6320,"Trá»Ł":6321,"ĠCÆ°Æ¡ng":6322,"CÃģC":6323,"ĠBlue":6324,"Ġráº¡p":6325,"ĠGo":6326,"ĠNgÆ°Æ¡i":6327,"ced":6328,"ĠVáº·t":6329,"ĠSaigon":6330,"ney":6331,"ĠSang":6332,"Ġgas":6333,"cÃ¡ch":6334,"ĠsÃłnh":6335,"ĠHÃĮNH":6336,"ĠbÃ¡u":6337,"ela":6338,"lash":6339,"ĠHuá»ĩ":6340,"Ġgay":6341,"ĠRáº»":6342,"ĠTÆ°á»Ľng":6343,"Ġseo":6344,"Ġnháº·t":6345,"ited":6346,"ĠHÄĲND":6347,"kra":6348,"ĠLon":6349,"ĠMá»©c":6350,"ThiÃªn":6351,"Ġlen":6352,"ĠmÃ£nh":6353,"ĠJu":6354,"RO":6355,"ĠTrÄĥng":6356,"ĠMang":6357,"Â·":6358,"NT":6359,"ĠÄĳÃ¹i":6360,"64":6361,"ci":6362,"ĠÄĲÃªm":6363,"ĠTwitter":6364,"Ġwifi":6365,"ĠBÃĢI":6366,"ĠbÆ°u":6367,"Ġlá»Ł":6368,"84":6369,"85":6370,"hay":6371,"Ġniá»ģng":6372,"ĠloÃ©t":6373,"PhÃ¡p":6374,"ĠdÃło":6375,"gá»":6376,"ĠvÃłnh":6377,"Ġle":6378,"Ġ51":6379,"IÃĬU":6380,"ĠPa":6381,"ĠVNÄĲ":6382,"ĠDan":6383,"ĠxÆ°á»Ľc":6384,"ĠLu":6385,"Ġnháº¥p":6386,"ĠBá»ĺ":6387,"ĠGiÃ¡p":6388,"ĠHe":6389,"vent":6390,"Láº¥y":6391,"ena":6392,"ĠxÃ´":6393,"ĠTok":6394,"ĠcuÃ´":6395,"ĠTHá»°C":6396,"page":6397,"ĠHome":6398,"DA":6399,"ĠMá»Ŀi":6400,"ĠTá»Ĳ":6401,"SN":6402,"ĠGT":6403,"Ġkhao":6404,"NÃ³":6405,"ĠKong":6406,"ĠTour":6407,"Iá»ĨT":6408,"Ġforum":6409,"ari":6410,"Ġngá»±":6411,"Ġláº·n":6412,"ĠHOá":6413,"Ġgáº§y":6414,"ĠTi":6415,"ĠNgÃłnh":6416,"ornia":6417,"ĠTÃ¡m":6418,"ĠHÃ¡n":6419,"Ġlaser":6420,"Ġnghiá»ĩt":6421,"ĠSpa":6422,"ealand":6423,"ĠtoÃł":6424,"ĠChampi":6425,"ĠTÃŃch":6426,"ĠkÃ©p":6427,"ĠBrazil":6428,"ĠvÆ°á»£ng":6429,"theo":6430,"NgÃ¢n":6431,"ifornia":6432,"ĠRiverside":6433,"ĠPhÃ¹ng":6434,"ĠTráº¡ch":6435,"Ġquáº§y":6436,"ĠAS":6437,"Ġvá»īa":6438,"Ġ44":6439,"cÃµi":6440,"ili":6441,"ĠchÃ´n":6442,"ĠTRANG":6443,"ster":6444,"Máº¹o":6445,"ĠTá»¬":6446,"ĠgiÃ²n":6447,"ĠCT":6448,"Ġdáº£i":6449,"ÄĳÃ£":6450,"ĠDá»±ng":6451,"Ġtui":6452,"Ġranh":6453,"ĠLuáºŃn":6454,"ĠnhÆ°á»Ŀng":6455,"Ġgá»Ļi":6456,"ĠOlympic":6457,"ĠHyundai":6458,"Tags":6459,"ĠBÃ¡i":6460,"ĠmÃ¢":6461,"Ġngáº¥t":6462,"Ġmuá»Ĺi":6463,"ThÃ¡i":6464,"thi":6465,"TÃ¢m":6466,"ĠEl":6467,"Ġni":6468,"nhÆ°":6469,"Lá»£i":6470,"AU":6471,"Ġbá»±c":6472,"áº£nh":6473,"ĠIsrael":6474,"wa":6475,"ĠhÃ©t":6476,"val":6477,"Ġngá»ĳc":6478,"Ġuáº¥t":6479,"ence":6480,"63":6481,"ĠcÃµi":6482,"Ġfull":6483,"52":6484,"ÄĲÃł":6485,".[":6486,"ĠMong":6487,"wer":6488,"ĠTho":6489,"Quá»ĳc":6490,"Ġvuá»ĳt":6491,"Ġrá»ħ":6492,"tÃł":6493,"ĠThuÃª":6494,"ÄĳÆ°á»£c":6495,"Re":6496,"tÃºng":6497,"ĠKháº¯c":6498,"lec":6499,"ĠTHUáº¬T":6500,"Ġngáº¡ch":6501,"Ġcoll":6502,"cÆ°ng":6503,"ĠThÃ¹":6504,"ĠVina":6505,"ĠtÃºng":6506,"ĠTHIáº¾T":6507,"ĠComp":6508,"ĠHá»¢P":6509,"Script":6510,"Ġiphone":6511,"ĠLáº¡ng":6512,"Ká»³":6513,"Tráº£":6514,"Ġxá»ĭt":6515,"ĠkhiÃªm":6516,"Ġcá»į":6517,"ĠKHÃ":6518,"ĠNGá»":6519,"Ġ88":6520,"bi":6521,"'s":6522,"ĠchuyÃª":6523,"Ġ<":6524,"Ġbáº©m":6525,"ĠViÃªm":6526,"Ġmuá»Ĺng":6527,"Ġdá»Ŀi":6528,"city":6529,"ĠcÃºm":6530,"ĠNokia":6531,"ĠBV":6532,"Ġnuá»ĳt":6533,"ĠXE":6534,"TB":6535,"ĠÄĳoan":6536,"Ġsh":6537,"ĠNay":6538,"...]":6539,"ĠBá»Ĭ":6540,"ĠðŁ":6541,"ane":6542,"Ġvá»±ng":6543,"ĠLondon":6544,"uper":6545,"ĠNá»ķi":6546,"ĠLÃªn":6547,"mer":6548,"ĠView":6549,"ĠCor":6550,"ĠTÃį":6551,"Ġtháº£n":6552,"ĠlÆ°á»Ŀi":6553,"tle":6554,"ĠgiÃłn":6555,"ĩm":6556,"Ġkiá»ģu":6557,"Ġngá»¡":6558,"ĠcÆ°ng":6559,"Ġá»Ĳ":6560,"ĠNÃ¢ng":6561,"ĠSy":6562,"ĠChampions":6563,"SD":6564,"ĠGIÃģO":6565,"ĠsÆ°á»Ŀn":6566,"oan":6567,"for":6568,"chá»ī":6569,"ĠhÆ°Æ¡":6570,"Ġcollagen":6571,"way":6572,"ĠDáºªN":6573,"ĠThÃ¬":6574,"ĠÃģp":6575,"ĠPlay":6576,"ĠghÃª":6577,"Ġhá»ĳ":6578,"Cao":6579,"Ġ::":6580,"TVT":6581,"Di":6582,"Ġá»§":6583,"ĠUá»":6584,"Ġ110":6585,"ĠMáº¡c":6586,"ĠDÃ²ng":6587,"Ġlog":6588,"ĠvÃ²":6589,"du":6590,"ÃĵA":6591,"ĠDuyÃªn":6592,"rome":6593,"Äĳá»ĥ":6594,"ĠSP":6595,"ĠtÃł":6596,"ĠvÃ¡n":6597,"ĠsÃ¡p":6598,"Ġgolf":6599,"ĠtrÃ¢u":6600,"ĠCalifornia":6601,"Ġ52":6602,"ĠNhiá»ĩt":6603,"ĠDr":6604,"ĠSal":6605,"ĠCHÃį":6606,"ĠThiá»ĩu":6607,"Ġ360":6608,"ĠJavaScript":6609,"ĠÄĳuá»ĳi":6610,"==":6611,"º¢M":6612,"ĠnhÃ¡y":6613,"ĠÄĲÃĥ":6614,"ĠUkra":6615,"Ġ41":6616,"iano":6617,"ĠKon":6618,"ÄĲÄĤNG":6619,"ĠCÃģO":6620,"ĠtriÃª":6621,"Ġlá»¥a":6622,"ĠZealand":6623,"ĠHoÃ¡":6624,"oly":6625,"ĠÄĳÃ£n":6626,"ĠÄĲá»ı":6627,"gl":6628,"ĠMV":6629,"ĠÄĳÃ¨":6630,"ĠSá»¹":6631,"ĠSi":6632,"Ġ72":6633,"VÃŃ":6634,"ĠTÃĢI":6635,"aki":6636,"ĠÄĲÃģ":6637,"ĠbÃ¢":6638,"Ġxáº£o":6639,"ven":6640,"ĠkiÃªu":6641,"Tiáº¿n":6642,"ĠSam":6643,"zon":6644,"ĠMáº¡i":6645,"Uáº¤T":6646,"ĠSE":6647,"ĠLÃ´":6648,"Â«":6649,"Ġlá»Ļi":6650,"Ġsi":6651,"tuá»³":6652,"ĠÄĳÃ£ng":6653,"ĠVn":6654,"ize":6655,"xin":6656,"ĠÄĲá»ķi":6657,"ond":6658,"ĠPer":6659,"Ġbá»įt":6660,"Rá»":6661,"iver":6662,"ÄĲÃ´i":6663,"ign":6664,"ĠTáº·ng":6665,"KT":6666,"Ġ54":6667,"ÄĲáº¥t":6668,"Ġgá»ī":6669,"QuáºŃn":6670,"UYá»ĨN":6671,"ĠBÃ¡nh":6672,"Ġvá»¥n":6673,"Ġnan":6674,"ji":6675,"ĠÄĳá»¥c":6676,"ĠTuyáº¿n":6677,"Ġstress":6678,"ÃĶN":6679,"ĠGreen":6680,"TrÃ²":6681,"Ġ^":6682,"tooth":6683,"Ġteen":6684,"ĠCÆł":6685,"Ġláº«y":6686,",..":6687,"lam":6688,"Ġkhuya":6689,"senal":6690,"ĠPM":6691,"ĠnhÃ¬":6692,"ĠLiÃªu":6693,"Cáº§u":6694,"ĠsÆ°á»Łi":6695,"ĠVua":6696,"ĠTHá»Ĭ":6697,"ĠPla":6698,"ĠÃ¡":6699,"ÃįNH":6700,"ĠHan":6701,"Ġlá»Ļng":6702,"âĢĶ":6703,"ĠResort":6704,"ĠCty":6705,"ĠHÃĵA":6706,"ĠhoÃ£n":6707,"Ġnhá»įn":6708,"ĠdÆ°ng":6709,"out":6710,"Ġcá»Ľ":6711,"lÃł":6712,"ĠkhÃ¡nh":6713,"ĠCHá»Ī":6714,"Ġxoang":6715,"ĠvÆ°":6716,"tÃ¡t":6717,"ĠnÃłn":6718,"ĠCÃºc":6719,"ĠâĨĴ":6720,"Nháº¡c":6721,"MÃłn":6722,"ĠláºŃn":6723,"ĠCá»ķng":6724,"62":6725,"Lá»±a":6726,"Ġchá»Ľp":6727,"tional":6728,"Khai":6729,"...\"":6730,"ĠHá»ĺ":6731,"MP":6732,"ĠJe":6733,"ĠBáº¯t":6734,"giÃ¡":6735,"Ġvoi":6736,"áº¯n":6737,"ĠbÃ³c":6738,"ĠMr":6739,"ĠrÃ¡ch":6740,"Xu":6741,"Táº¡p":6742,"ĠRonaldo":6743,"uilding":6744,"UR":6745,"Náº±m":6746,"QuÃ¡":6747,"ĠÃĤn":6748,"¸P":6749,"ĠgÃ³t":6750,"port":6751,"Ġlanh":6752,"Ġtuá»³":6753,"ĠMá»«ng":6754,"ĠCháº¥p":6755,"Ġká»µ":6756,"ĠquÃŃ":6757,"ĠTÃģC":6758,"ĠQuáº§n":6759,"ĠLang":6760,"ĠGiai":6761,"ĮN":6762,"ĠMUA":6763,"ron":6764,"ÌĤ":6765,"Ġgiáº¿ng":6766,"ĠChÃ¹a":6767,"Ġnhuá»Ļm":6768,"Ġngáº¯t":6769,"iel":6770,"ĠRAM":6771,"ĠmáºŃp":6772,"Ġhoáº¡":6773,"ĠTri":6774,"ĠlÃ¬":6775,"Tinh":6776,"ĠSch":6777,"KÃŃnh":6778,"ĠhÃ¢n":6779,"ĠrÃ²":6780,"Click":6781,"NhÃ³m":6782,"VI":6783,"Ġngá»¥c":6784,"Ġ58":6785,"ĠDÄ©":6786,"QG":6787,"Iá»ĤU":6788,"ĠPutin":6789,"ĠBiá»ĥu":6790,"ĠTHáº¾":6791,"ĠâĢĶ":6792,"NgÃłnh":6793,"ĠTha":6794,"ĠTáºłO":6795,"ets":6796,"BTC":6797,"email":6798,"ĠTráº£":6799,"ĠThuyáº¿t":6800,"ĠbÃ¹n":6801,"ĠÄĲá»Ģ":6802,"Cháº³ng":6803,"ĠTOÃĢN":6804,"ĠÄĲIá»ĢU":6805,"ĠBÃ¡t":6806,"ĠchÃł":6807,"ĠnÆ°":6808,"ĠMÃłn":6809,"Ġsáº¿p":6810,"ĠVND":6811,"Ġbá»Ļc":6812,"aul":6813,"Tá»·":6814,"ĠRá»ĭa":6815,"enc":6816,"Æ¯á»Ľc":6817,"bon":6818,"53":6819,"hot":6820,"78":6821,"ĠMc":6822,"ĠLáº¡p":6823,"ĠChar":6824,"ĠkÃŃp":6825,"ĠTá»ĳ":6826,"obot":6827,"ĠXÃ¡c":6828,"ĠthÆ°Æ¡":6829,"thu":6830,"ĠkhÃŃa":6831,"ĠVIá»ĨC":6832,"DL":6833,"Ġgom":6834,"pool":6835,"Æ¯á»ŀ":6836,"les":6837,"ÃģI":6838,"ÃĵNG":6839,"GI":6840,"DN":6841,"ĠHIá»ĨU":6842,"ĠXÃĥ":6843,"Nghá»ĭ":6844,"áº£":6845,"ĠChá»¯a":6846,"ĠKhoáº£ng":6847,"ĠHiá»ĥn":6848,"TX":6849,"tore":6850,"ĠChÃło":6851,"Ġcard":6852,"ĨNH":6853,"MB":6854,"Ġnhá»ķ":6855,"Ġniá»ĩu":6856,"Un":6857,"NgÆ°Æ¡i":6858,"Ġ59":6859,"ĠbÆ°á»Łi":6860,"ĠNgÃµ":6861,"ĠquyÃª":6862,"ĠLuÃ¢n":6863,"ĠMÃª":6864,"mÃ¡y":6865,"ler":6866,"tÄĥm":6867,"NgÃ´i":6868,"Ġkhinh":6869,"ĠgÃ²":6870,"Ġquá»µ":6871,"ĠÄĲáº¸P":6872,"Ġ56":6873,"GiÃ¡m":6874,"ÃĤU":6875,"ĠDav":6876,"ĠNHá»®NG":6877,"Máº¡ng":6878,"Ġkhá»ĳc":6879,"tes":6880,"ĠÃĲá»":6881,"ĠWi":6882,"ĠXá»Ń":6883,"br":6884,"Ġxoáº¯n":6885,"ĠtÄĥm":6886,"Ġ2003":6887,"TÃ¢n":6888,"ĠhÃ´ng":6889,"Ġsá»¥t":6890,"Ġlá»ĳp":6891,"BÃ¢y":6892,"ĠCB":6893,"ĠTQ":6894,"ĠTokyo":6895,"ĠXiaomi":6896,"PP":6897,"ĠANH":6898,"Ġpost":6899,"uter":6900,"ĠFire":6901,"ĠÄĲÆ°a":6902,"ĠMIá»ĦN":6903,"Buá»ķi":6904,"Æ¯á»ŀNG":6905,"DC":6906,"Chá»©c":6907,"Ġke":6908,"ĠMáº¡ch":6909,"ĠTOÃģN":6910,"ĠngÆ¡":6911,"ĠChá»ĳng":6912,"ĠTá»©":6913,"Khoáº£ng":6914,"Ġvá»ĭnh":6915,"Ġsáº§m":6916,"ĠTháº¥y":6917,"ĠCHUYÃĬN":6918,"ĠSt":6919,"Ġ....":6920,"Ġngoáº¡n":6921,"khÃ":6922,"ĠCÃ´n":6923,"gram":6924,"ĠxuÃ´i":6925,"ĠRed":6926,"Ġrang":6927,"ĠVill":6928,"ĠlÃ©n":6929,"ĠÃģn":6930,"ifone":6931,"Ex":6932,"CHÃ":6933,"DF":6934,"ko":6935,"Ġcháº£i":6936,"ĠthÃªu":6937,"ĠShi":6938,"pa":6939,"Háº£i":6940,"ĠArsenal":6941,"ĠVIá»ĨN":6942,"ins":6943,"Ġliá»ħu":6944,"aphone":6945,"ĠKHá»":6946,"Ġ57":6947,"Ġvá»£t":6948,"cedes":6949,"®A":6950,"king":6951,"Triá»ĥn":6952,"Ġchá»ĳc":6953,"\\\\":6954,"Co":6955,"shop":6956,"ĠKIá»ĨN":6957,"DÃ²ng":6958,"ĠTech":6959,"âĻ":6960,"tÆ°á»Ľc":6961,"ĠLee":6962,"Thá»ıa":6963,"%/":6964,"uki":6965,"Ġgirl":6966,"tri":6967,"Ġnew":6968,"ĠXII":6969,"vá»Ľi":6970,"ĠCáºŃn":6971,"anmar":6972,"Ġcáº©m":6973,"ĠPhu":6974,"Ġthis":6975,"400":6976,"ĠDV":6977,"ĠVá»ĭnh":6978,"Ġmá»ĵi":6979,"Ġ98":6980,"ĠCHáº¤T":6981,"Ġbáº¡t":6982,"Lieu":6983,"Ġ2004":6984,"Ġvá»©t":6985,"ĠChinh":6986,"Ġtháº¡o":6987,"THá»":6988,"http":6989,"ĠnÃłnh":6990,"ĠMos":6991,"Ġoff":6992,"Chuáº©n":6993,"ĠtÆ°á»Ľc":6994,"ĠBáº¿p":6995,"Viáº¿t":6996,"ĠnghÃªnh":6997,"Æ°Æ¡m":6998,"ĠThÃ¹y":6999,"ĠVá»£":7000,"ĠKHOA":7001,"ĠnÃ¡o":7002,"ĠCEO":7003,"Ġkhá»ĳn":7004,"bur":7005,"Å©a":7006,"ĠCap":7007,"cá»§a":7008,"ĠTHANH":7009,"ĠGrand":7010,"ĠKhÃª":7011,"Ġdá»¡":7012,"ĠBus":7013,"ital":7014,"ĠDÆ°á»¡ng":7015,"ĠMá»¤C":7016,"ĠRom":7017,"ĠAnd":7018,"ĠLáº¥y":7019,"ĠÄĲá»ĳc":7020,"ĠSapa":7021,"Báº±ng":7022,"ĠloÃ£ng":7023,"Ġtá»ĭ":7024,"Diá»ĩn":7025,"Ġrong":7026,"Táº§ng":7027,"ĠTower":7028,"báº¡n":7029,"cÃºp":7030,"ĠLÆ°á»£t":7031,"ĠFan":7032,"ĠTaiLieu":7033,"ĠGIá»ļI":7034,"OL":7035,"td":7036,"Ġ63":7037,"ĠTum":7038,"ĠKHá":7039,"Ã©c":7040,"Tráº§n":7041,"ĠMil":7042,"ĠDinh":7043,"LÃ£nh":7044,"Triá»ĩu":7045,"ĠVan":7046,"DÃłnh":7047,"Hy":7048,"TÆ°Æ¡ng":7049,"ĠJong":7050,"Ġ1975":7051,"2007":7052,"ĠTáº¬P":7053,"Ġmail":7054,"yl":7055,"TTÄĲT":7056,"BÃ©":7057,"ĠHÃ´":7058,"ĠVitamin":7059,"Ġgá»ĳm":7060,"NÃłng":7061,"ĠLáº¯k":7062,"ÄĲa":7063,"ĠcÃºp":7064,"Cáº©m":7065,"tp":7066,"ĠÄĲÃ¡ng":7067,"ĠMu":7068,"ĠAg":7069,"Ġ;":7070,"KS":7071,"ĠBM":7072,"Le":7073,"vo":7074,"khoáº£ng":7075,"bps":7076,"ĠUá»·":7077,"tainer":7078,"Iá»ĨM":7079,"CL":7080,"ĠCáº¦N":7081,"ĠUnited":7082,"ble":7083,"ĠLaser":7084,"ĠMT":7085,"ĠÄĳÆ¡":7086,"ĠBro":7087,"Ġquáº¥y":7088,"ixel":7089,"Cá»Ļng":7090,"ĠHÃ¢n":7091,"ĠtÆ°Æ¡":7092,"ĠBá»ī":7093,"LIÃĬN":7094,"ĠLUáº¬T":7095,"Ġ180":7096,"Ġ1900":7097,"khi":7098,"ĠQuÃ´":7099,"Biá»ĥu":7100,"Ġrá»§":7101,"tho":7102,"ĠBuÃ´n":7103,"ĠTHá»¨C":7104,"ĠEco":7105,"ĠHOT":7106,"ĠChrome":7107,"ĠBÃ£i":7108,"ĠÄĲáº£m":7109,"ĠdÃ¬":7110,"ĠCá»©u":7111,"ĠJack":7112,"ĠVÆ°á»Ŀn":7113,"avel":7114,"ĠLÆ¯á»¢NG":7115,"hoo":7116,"vietnam":7117,"Ġgáº¥u":7118,"ĠFran":7119,"ĠThÃ´i":7120,"ĠKang":7121,"ĠrÃ¡t":7122,"ĠNHáº¬T":7123,"CÃ¡":7124,"ĠDA":7125,"Ġtá»¥i":7126,"ĠOs":7127,"ĠVy":7128,"SiÃªu":7129,"ÄĲÃ¨n":7130,"ase":7131,"?âĢĿ.":7132,"ĠKiá»ĥu":7133,"ĠÃį":7134,"á»Ļp":7135,"Ìī,":7136,"Ġáº¨m":7137,"51":7138,"Ġngáº·t":7139,"ĠTrÃ²":7140,"ingroup":7141,"táº¡ng":7142,"Ġreserved":7143,"ĠGiáº£ng":7144,"ĠCA":7145,"ora":7146,"TA":7147,"Ġváº·n":7148,"86":7149,"ĠhÄĥng":7150,"ĠNS":7151,"khÃ¡":7152,"Báº¥m":7153,"Ġtáº¡ng":7154,"ĠLá»Ľn":7155,"ĠCHI":7156,"ĠdiÃª":7157,"Ġgá»¥c":7158,"ny":7159,"ĠCenter":7160,"Ġváº¯t":7161,"igh":7162,"bin":7163,"Ġthoáº£":7164,"Ġráº¡n":7165,"ĠCro":7166,"ĠTáº¡":7167,"Lo":7168,"Ġrights":7169,"ze":7170,"Ġacid":7171,"ÄĲau":7172,"ĠDes":7173,"Ġtháº¡c":7174,"Ġmáº¯ng":7175,"ĠKá»ĥ":7176,"Ġ69":7177,"esterol":7178,"Ġyou":7179,"ĠNÃło":7180,"ĠNáº±m":7181,"ĠsáºŃp":7182,"ĠAp":7183,"ĠCá»±c":7184,"Ġ67":7185,"ĠTiá»ĩn":7186,"ĠHá»ıa":7187,"mua":7188,"Ŀn":7189,"Há»ĸ":7190,"ĠSU":7191,"Ġngoa":7192,"Truy":7193,"ĠBig":7194,"ĠchÃ¹m":7195,"ĠYo":7196,"Ġgym":7197,"600":7198,"ĠNhung":7199,"Ġgáº§m":7200,"ĠÃ¢":7201,"ody":7202,"tech":7203,"ĠmÃ¢m":7204,"ĠbÃ©n":7205,"ĠGian":7206,"RE":7207,"ĠWil":7208,"ĠMin":7209,"ĠÄĲen":7210,"ĠlÃ¡ng":7211,"Ġ62":7212,"Cháº¯c":7213,"exico":7214,"ĠChris":7215,"ĠHÄĲQT":7216,"oli":7217,"uá»ĵi":7218,"cÃło":7219,"Nhá»Ŀ":7220,"Ġhack":7221,"word":7222,"áº¤":7223,"âĢĺ":7224,"inho":7225,"ĠNÃ´":7226,"ĠShow":7227,"ĠSÃłn":7228,"Ġnhuyá»ħn":7229,"sinh":7230,"DÆ°Æ¡ng":7231,"IP":7232,"ĠGIáº¢I":7233,"Ġadmin":7234,"Nháº±m":7235,"ĠVic":7236,"ĠGB":7237,"ºłNH":7238,"Pháº«u":7239,"ĠÄĳao":7240,"Ġlá»¥t":7241,"VáºŃt":7242,"HoÃłn":7243,"Ġluá»Ļc":7244,"ĠBer":7245,"Ġje":7246,"ĠPremier":7247,"ĠCM":7248,"Ġlá»Ńng":7249,"nhÆ°ng":7250,"ĠSá»ŀ":7251,"ĠQUáº¢NG":7252,"ĠGTVT":7253,"ĠWik":7254,"ĠcÃło":7255,"ĠxuÃ¢":7256,"ĠbÆ°á»Ľ":7257,"Ġquá»³":7258,"ÆłI":7259,"Vá»£":7260,"ĠDá»°NG":7261,"To":7262,"Ġnáº£n":7263,"Ġ--":7264,"ĠCáº£ng":7265,"ĠMyanmar":7266,"Ġliáº¿c":7267,"ĠXÃĤY":7268,"wood":7269,"ĠÄĲáº±ng":7270,"Tá»§":7271,"Ġgieo":7272,"Ġtháº¯n":7273,"pearl":7274,"que":7275,"ĠTruy":7276,"Tráº£i":7277,"Sá»¯a":7278,"ĠPlaza":7279,"ĠMá»¸":7280,"Ġhu":7281,"Ġhe":7282,"ĠgiÃ¡ng":7283,"Ġráº£nh":7284,"ĠKháº£o":7285,"Dá»ĬCH":7286,"*)":7287,"ĠÄĳÃ¡n":7288,"lant":7289,"ĠphiÃªu":7290,"ĠKem":7291,"ĠKhá»ĳi":7292,"ĠSáº¯c":7293,"Ġ~":7294,"%)":7295,"osa":7296,"ĠAPEC":7297,"ĠDis":7298,"ĠID":7299,"giá»Ŀ":7300,"ĠSá»¯a":7301,"ĠnÃª":7302,"ream":7303,"po":7304,"OV":7305,"ĠPhÃŃa":7306,"Ġrobot":7307,"amil":7308,"ĠchÃ©o":7309,"ĠnÃ£y":7310,"ĠAma":7311,"ĠbÃºn":7312,"ºłC":7313,"Ġchá»Ľ":7314,"ĠLiver":7315,"Ġgiu":7316,"Ġcode":7317,"Ġsal":7318,"ten":7319,"ĠUá»ĳng":7320,"ÃģT":7321,"ford":7322,"ĠWar":7323,"Ġcá»Ĺ":7324,"ĠÄĳiá»ģm":7325,"ling":7326,"Ġgoogle":7327,"ĠTuyá»ĩt":7328,"ĠÄĲÃ¨n":7329,"ĠPha":7330,"Ġtru":7331,"tá»±":7332,"ĠMark":7333,"Ġbá»ĩ":7334,"ĠtÃ¡t":7335,"ĠCHá»¨C":7336,"ert":7337,"ĠHÃ´n":7338,"ĠSÃ¡t":7339,"ĠÄĲáº¾N":7340,"LE":7341,"ĠVÃ²ng":7342,"Fi":7343,"Tiáº¿t":7344,"ĠJun":7345,"ĠWE":7346,"ĠMB":7347,"ĠIN":7348,"berg":7349,"ĠBos":7350,"ĠHá»§y":7351,"ÄĲÃªm":7352,"xem":7353,"ĠPower":7354,"sub":7355,"my":7356,"ĠthÃŃnh":7357,"ĠSá»ķ":7358,"ºłNG":7359,"ĠBu":7360,"ĠBen":7361,"º¶C":7362,"ĠLiverpool":7363,"ĠLiá»ħu":7364,"sic":7365,"ĠGiáº£":7366,"shi":7367,"ÃĢNG":7368,"ĠYoutube":7369,"Quyá»ģn":7370,"ĠÄĲÃ¡p":7371,"Ká»ĥ":7372,"Ġ53":7373,"ĠKHI":7374,"Ġset":7375,"Ġ^^":7376,"Ġchat":7377,"phá»":7378,"Ġgel":7379,"ĠHill":7380,"pháº§n":7381,"ĠmiÃªu":7382,"Tuá»ķi":7383,"ĠBHYT":7384,"Ġ00":7385,"ĠKhÆ°Æ¡ng":7386,"ĠTá»°":7387,"ÃĮM":7388,"tudio":7389,"ĠchÃ³i":7390,"ĠâĢº":7391,"Háº§u":7392,"Khuyáº¿n":7393,"ola":7394,"rm":7395,"\\Ā\\Ā\\Ā\\Ā\\Ā\\Ā\\Ā\\Ā":7396,"Cha":7397,"ĠhiÃªn":7398,"ĠMel":7399,"ĠNhiá»ĩm":7400,"......":7401,"ĠVu":7402,"ĠhÃ£m":7403,"ĠTá»ĲT":7404,"ĠchÃ¨n":7405,"ĠÄĲI":7406,"Ġchui":7407,"ĠTrÃłng":7408,"phÃ¡":7409,"yÃªu":7410,"AV":7411,"ĠTRIá»ĤN":7412,"ĠMexico":7413,"ipedia":7414,"tis":7415,"ĠtrÃªu":7416,"Ġráº£i":7417,"ĠNGAY":7418,"ĠGa":7419,"ĠTá»§":7420,"Ġnguá»Ļi":7421,"Ġmobile":7422,"Ġuá»·":7423,"ĠchoÃ¡ng":7424,"tics":7425,"Rá»ĵi":7426,"ĠAngel":7427,"Ġháº¯c":7428,"Download":7429,"ĠTrÃ£i":7430,"ĠPin":7431,"ĠÄĲO":7432,"ĠQUáº¢N":7433,"ĠAI":7434,"ĠxÃłi":7435,"Ġchol":7436,"ThÆ°á»Ŀng":7437,"ĠIntel":7438,"ĠQUáº¢":7439,"ĠthiÃªu":7440,"ĠKy":7441,"ĠHáº¡o":7442,"Ġnhai":7443,"ĠHIá»ĨN":7444,"ĠVingroup":7445,"ĠKHÃģC":7446,"ĠIV":7447,"Ġrá»Ĺi":7448,"ĠThiá»ģn":7449,"NL":7450,"Ġgen":7451,"º©ng":7452,"Ġthá»ı":7453,"tte":7454,"ĠCÃ¢n":7455,"ĠVinaphone":7456,"Ġnu":7457,"ĠVIP":7458,"71":7459,"dotel":7460,"º°":7461,"ĠmuÃ´":7462,"ĠNghiá»ĩm":7463,"Linh":7464,"Ġdáº¡n":7465,"Má»©c":7466,"Ìģ.":7467,"ĠnhÃ³c":7468,"ĠLá»±a":7469,"ĠtoÃ¡t":7470,"hy":7471,"ĠhÃ©":7472,"ĠXa":7473,"ĠPhÃ³ng":7474,"ĠTá»ĳng":7475,"sting":7476,"Ġ900":7477,"ĠGIAO":7478,"Nga":7479,"Sáº½":7480,"¹t":7481,"Ġ350":7482,"ĠCD":7483,"ĠlÃµ":7484,"ĠMercedes":7485,"ĪNH":7486,"ĠVÃ©":7487,"Uá»ĺC":7488,"ĠSuper":7489,"800":7490,"ĠÄĲáº¥u":7491,"ĠEM":7492,"Ġbáº«y":7493,"Ġ!!!":7494,"ĠTRÃĬN":7495,"Kim":7496,"bia":7497,"MáºŃt":7498,"ĠÄĲáº¥ng":7499,"ĠRá»ĵng":7500,"sang":7501,"ĠCÃģCH":7502,"tyle":7503,"Hz":7504,"Xá»Ń":7505,"Ġmá»§":7506,"ĠCá»§":7507,"Dáº¥u":7508,"ĠMobifone":7509,"CÄĲ":7510,"gan":7511,"ĠnháºŃu":7512,"ashi":7513,"raq":7514,"sau":7515,"ĠliÃª":7516,"âĢ¦)":7517,"ĠTRÃį":7518,"fox":7519,"cl":7520,"ĠbÃ¬a":7521,"edu":7522,"Ġcontainer":7523,"ĠClick":7524,"ĠÃģi":7525,"Ġ128":7526,"ĠPo":7527,"ĠOffice":7528,"¡u":7529,"PH":7530,"ĠKa":7531,"ĠXUáº¤T":7532,"ĠMáº¯t":7533,"ĠUyÃªn":7534,"ĠWhi":7535,"Tai":7536,"táº¡c":7537,"Ġlay":7538,"Ġlim":7539,"ĠLiá»ĩt":7540,"calo":7541,"ĠMP":7542,"Press":7543,"ĠchÃ´":7544,"báº¯t":7545,"ĠUkraine":7546,"ĠNÄĤNG":7547,"Ġhoáº¡n":7548,"tton":7549,"ĠLÄ©nh":7550,"lad":7551,"Ġtáº¡c":7552,"Ġcholesterol":7553,"ĠÄĳÃ¡i":7554,"ĠxÃ©":7555,"ĠAb":7556,"FC":7557,"ĠVAT":7558,"ĠGeo":7559,"???":7560,"Uá»ĳng":7561,"BÃ¡nh":7562,"ĠBlogger":7563,"Ġmodel":7564,"ĠThiÃªm":7565,"ĠVisa":7566,"Ġtá»ĳng":7567,"Ġnhung":7568,"ĠGP":7569,"ĠbÃºp":7570,"ĠAlex":7571,"XÃ¡c":7572,"ĠLIá»ĨU":7573,"ĠTimes":7574,"Ġsá»«ng":7575,"Pháº£n":7576,"nhÃ":7577,"ĠTráº¥n":7578,"ĠchÄĥ":7579,"TTg":7580,"ĠFLC":7581,"COM":7582,"the":7583,"Miá»ħn":7584,"ĠTá»ĳc":7585,"ÃĢNH":7586,"Ġnhiá»ħu":7587,"ĠnÃ¨":7588,"¡p":7589,"Ġcá»«u":7590,"Tranh":7591,"ĠPHÃļ":7592,"ĠSV":7593,"ĠTuáº¥t":7594,"ĠâĢĭ":7595,"cc":7596,"trang":7597,"xe":7598,"Ġviews":7599,"Ġ79":7600,"Ġtáº·c":7601,"83":7602,"Biá»ĩt":7603,"ĠMaria":7604,"tions":7605,"fÃ©":7606,"2019":7607,"ChÃ¢n":7608,"Ġsáº£nh":7609,"ĠkhÃŃt":7610,"uba":7611,"ÄĲá»Ļ":7612,"ĠMat":7613,"ĠChÃłng":7614,"box":7615,"cher":7616,"ĠnhÃłm":7617,"ĠYÃĬU":7618,"ĠGDP":7619,"ĠWal":7620,"SG":7621,"Ġkáº¹p":7622,"Ġbiáº¿ng":7623,"Ġtháº¯p":7624,"han":7625,"HÃłn":7626,"ĠXÃ©t":7627,"GiÃºp":7628,"Mang":7629,"ChÃ¡":7630,"ĠLáº¯p":7631,"ube":7632,"ĠNet":7633,"Tá»Ń":7634,"ife":7635,"ĠoÃ¡n":7636,"ĠThuá»Ļt":7637,"ºłCH":7638,"Quáº£":7639,"uá»Ł":7640,"ĠLCD":7641,"ĠSou":7642,"Ġxua":7643,"ĠMÃ´ng":7644,"ĠTrá»Ł":7645,"ews":7646,"entina":7647,"Ġ66":7648,"Blog":7649,"TÃ³m":7650,"uis":7651,"ĠLÃłng":7652,"ĠxÃ´n":7653,"ĠVP":7654,"ĠRáºº":7655,"lÃ´":7656,"ks":7657,"Ġngáº©ng":7658,"Láº¯p":7659,"ªNG":7660,"ĠRead":7661,"ĠÄĲÃĤY":7662,"ĠIraq":7663,"Ġnhá»įc":7664,"ect":7665,"ĠgÃ¢n":7666,"Ġquáº¥n":7667,"MÃ´i":7668,"zu":7669,"Ġkáº½m":7670,"ĠPR":7671,"Ġáº§m":7672,"ĠXu":7673,"ĠMÃ£i":7674,"ĠKo":7675,"º¤U":7676,"Thiáº¿u":7677,"ĠTrÃ¡ch":7678,"Sá»ĳng":7679,"lly":7680,"ĠKhuÃª":7681,"Ġdang":7682,"ĠTrÃ¡nh":7683,"bal":7684,"74":7685,"76":7686,"Æ°á»Ŀm":7687,"VTV":7688,"MÃł":7689,"ĠLin":7690,"ĠÄĳÃłng":7691,"ĠngáºŃm":7692,"ĠÄĲÄĤNG":7693,"ĠLuÃ´n":7694,"html":7695,"HO":7696,"aka":7697,"chá»ĭ":7698,"UYáº¾T":7699,"Ì£,":7700,"ĠGolden":7701,"INE":7702,"TÃ¹y":7703,"ÃĤm":7704,"ÄĲÃ´ng":7705,"ĠQL":7706,"Tra":7707,"ELTS":7708,"ĠWin":7709,"ĠmÃ¡c":7710,"Ġtáº¥u":7711,"Ġcalo":7712,"ĠTRUYá»ĢN":7713,"ĠBB":7714,"ĠTom":7715,"emo":7716,"thiáº¿t":7717,"ĠLUáº¬N":7718,"ĠISO":7719,"ĠSex":7720,"95":7721,"ĠDÃłnh":7722,"Ġmáº©n":7723,"Ġchen":7724,"Ra":7725,"ppo":7726,"cor":7727,"Ġsáº§u":7728,"ĠKing":7729,"ĠMiss":7730,"2006":7731,"Ġkhan":7732,"Ġlike":7733,"Ġprotec":7734,"ĠImp":7735,"ward":7736,"ĠlÆ°á»£n":7737,"Bá»ĳ":7738,"ĠSn":7739,"Hiá»ĩu":7740,"ĠMÅ©i":7741,"Ġrá»Ľt":7742,"ĠVH":7743,"ĠTRá»°C":7744,"ĠMá»Ļ":7745,"ÄĲá»Ļng":7746,"Ġná»©c":7747,"ĠNhá»Ľ":7748,"',":7749,"Ġcheck":7750,"uitar":7751,"Ġ130":7752,"Ġmicro":7753,"ĠÆ°á»Ľp":7754,"ami":7755,"ĠHÃ¡t":7756,"ĠTháº¡c":7757,"tart":7758,"Äĳá»ĳi":7759,">>>":7760,"san":7761,"ĠLÃ¡ng":7762,"HÃ£ng":7763,"ĠEver":7764,"ĠGÃ³c":7765,"UYá»ĦN":7766,"ĠpháºŃt":7767,"ĠphÃ¡c":7768,"Ġcá»ĳi":7769,"ĠAmazon":7770,"ÄĲá»ķi":7771,"=>":7772,"ĠKCN":7773,"iPhone":7774,"ĠBTC":7775,"].":7776,"ĠPhÃª":7777,"ĠDÆ°":7778,"pad":7779,"Ġeuro":7780,"ĠnhÃłn":7781,"CÃ¡m":7782,"ĠTHá»ĲNG":7783,"Rao":7784,"ĠBuá»ķi":7785,"ĠCON":7786,"ĠVer":7787,"thÃłnh":7788,"Ġtráº§y":7789,"ĠSta":7790,"osted":7791,"VP":7792,"Äĳi":7793,"ĠPhÃłm":7794,"UB":7795,"ĠnhÃ¡i":7796,"Ġcháº§n":7797,"ĠÄĳÅ©a":7798,"USD":7799,"ĠGames":7800,"ĠtuÃ½":7801,"cÃºc":7802,"mes":7803,"Net":7804,"Ġáº¢NH":7805,"ourinho":7806,"NÃ´ng":7807,"Ġbus":7808,"Ġkhay":7809,"ĠMáºłI":7810,"jet":7811,"ĠCáº£i":7812,"copy":7813,"Ġthiáº¿p":7814,"Ġsite":7815,"ĠMáº¥y":7816,"ĠMaster":7817,"ĠTá»ĶNG":7818,"»Ł":7819,"ĠsÄĥ":7820,"ĠKhanh":7821,"ĠcÃºc":7822,"ĠWordPress":7823,"Ġloan":7824,"ĠmÃŃa":7825,"ĠBuilding":7826,"ĠLink":7827,"kok":7828,"ĠTrá»¥":7829,"bai":7830,"Ġruá»ĵi":7831,"ida":7832,"ÃĵC":7833,"Ġnáº¥y":7834,"DT":7835,"ĠForm":7836,"ĠDáº¥u":7837,"Ġ61":7838,"ĠvÃ¡c":7839,"ING":7840,"ÄĲá»Ŀi":7841,"Â²":7842,"Ġtá»¥t":7843,"Ġvá»įt":7844,"xÃ£":7845,"ĠNhu":7846,"ei":7847,"Ġngáº«m":7848,"Ġtp":7849,"Ġthá»ĳi":7850,"CHá»":7851,"ĠClin":7852,"Ġâľ":7853,"ĠMáº¹o":7854,"kinh":7855,"Nha":7856,"Ġform":7857,"ĠDavid":7858,"LáºŃp":7859,"mo":7860,"ĠdÆ°Æ¡":7861,"Tháº¥y":7862,"pha":7863,"ĠNHIá»ĢU":7864,"Ġcáº©u":7865,"cÃ¡i":7866,"ĠphÃ´ng":7867,"ĠLaptop":7868,"ĠAuto":7869,"ĠTá»ĪNH":7870,"ĠExp":7871,"ĠRang":7872,"ĠSon":7873,"61":7874,"uar":7875,"ĠFirefox":7876,"ĠliÃªng":7877,"ĠCSVN":7878,"Op":7879,"ĠHÃ¨":7880,"Ġsá»¥n":7881,"mg":7882,"ĠthuÃ¢":7883,"ĠChá»¯":7884,"Ad":7885,"LO":7886,"quá":7887,"Cáº£i":7888,")-":7889,"ĠGiá»ĳng":7890,"Tháº©m":7891,"ĠVáº«n":7892,"Ġprotected":7893,"Ġthá»§ng":7894,"ĠLed":7895,"sá»ĳ":7896,"Ġ89":7897,"Ġ@":7898,"á»Ł":7899,"TÃ¢y":7900,"Chá»¯a":7901,"ĠNghÃ":7902,"Ġhoi":7903,"ĠIELTS":7904,"Ġ125":7905,"ĠrÃ£":7906,"Ġat":7907,"ĠNÃºi":7908,"ThuÃª":7909,"Ġngháº½":7910,"HD":7911,"ave":7912,"ance":7913,"Ġngháº¹t":7914,"ĠHáº¡n":7915,"III":7916,"dex":7917,"XÃ©t":7918,"há»įc":7919,"Tháº§y":7920,"ÃĲ":7921,"ĠKÃªnh":7922,"ĠphÆ°á»Ľc":7923,"QuÃł":7924,"ĠHÃłi":7925,"Trá»ĭ":7926,"ThÃŃch":7927,"PháºŃt":7928,"ĠVinpearl":7929,"ust":7930,"ĠÄĲIá»ĤM":7931,"ĠLÃ¡":7932,"ette":7933,"ĠnhÃ¡t":7934,"Quáº§n":7935,"nháº":7936,"ĠQUYá»ĢN":7937,"ĠKIáº¾N":7938,"Ġnhe":7939,"Ġnhá»ĵi":7940,"ĠKháº©u":7941,"Cá»©":7942,"ĠGiÃ³":7943,"ĠchÃ²":7944,"ĠGen":7945,"cÃ²i":7946,"ĠToÃł":7947,"ĠrÃ²ng":7948,"ĠSG":7949,"Ġ%":7950,"Ġ73":7951,"ĠngÃłng":7952,"cr":7953,"Ġlá»¯":7954,"ĠSmart":7955,"TE":7956,"celona":7957,"wei":7958,"ĠArg":7959,"ĠÄĲáº¤T":7960,"ĠmiÃªn":7961,"DANH":7962,"ĠTHá»¦":7963,"ont":7964,"Ġmá»ĳt":7965,"ĠMáº¶T":7966,"PC":7967,"ÄĲá»ĭnh":7968,"ĠBTTTT":7969,"ĠGáº·p":7970,"ĠUng":7971,"ĠNÃły":7972,"ÃĴA":7973,"ĠUN":7974,"ĠPhoto":7975,"ĠCR":7976,"ĠHÃ²n":7977,"ĠKá»¸":7978,"ĠTIáº¾NG":7979,"TuyÃªn":7980,"ĠDÃ¢y":7981,"cau":7982,"ĠlÅ©ng":7983,"CHÆ¯ÆłNG":7984,"QH":7985,"Ġthá»ĳt":7986,"amin":7987,"ĠTHá»ľI":7988,"ella":7989,"Ġ1999":7990,"Ġcáº¡o":7991,"Cá»¥c":7992,"ĠVÃ¹ng":7993,"dong":7994,"ĠVá»įng":7995,"LÃ¢m":7996,"ĠcÃ²i":7997,"Ġtá»ĭnh":7998,"ĠNgÆ°":7999,"ĠrÆ°á»Ľc":8000,"vÃ¬":8001,"Ġmenu":8002,"Ġphá»Ł":8003,"Ġmáº§u":8004,"ĠÄĳá»ĳm":8005,"ĠHáº¡t":8006,"ĠQuÃł":8007,"Ġbalo":8008,"CCC":8009,"date":8010,"ĠMÆ¡":8011,"Ġáº¿":8012,"khá»§ng":8013,"cÃ²":8014,"áº£i":8015,"ĠSol":8016,"Ġngháº½n":8017,"ĠgiÃ£":8018,"Ġthá»ģ":8019,"ï¸":8020,"ĠCÄĤN":8021,"ĠGá»Ĺ":8022,"ĠTÃ³c":8023,"73":8024,"issi":8025,"ĠSAO":8026,"VÃ²ng":8027,"quan":8028,"ĠMessi":8029,"ĠHTC":8030,"ĠDao":8031,"Ġtest":8032,"HS":8033,"ĠGÃ³p":8034,"ĠSw":8035,"âĺ":8036,"Máº¥y":8037,"ĠLÃ¢u":8038,"Ġhorm":8039,"ĠTHáº¤T":8040,"Ġváº¥p":8041,"eter":8042,"ĠAT":8043,"Bá»ı":8044,"ĠSeoul":8045,"ilicon":8046,"ere":8047,"Ġcháº£o":8048,"ĠÆ¯á»Ľc":8049,"ï¸ı":8050,"ĠGÃ¬":8051,"gu":8052,"ode":8053,"ĠVictor":8054,"uáº¥y":8055,"ĠGu":8056,"Ġgiáº·c":8057,"VÄĤN":8058,"ĠTIá»ĢN":8059,"!âĢĿ.":8060,"ĠHu":8061,"quáºŃn":8062,"gg":8063,"ĠNgÆ°á»£c":8064,"Ġ2002":8065,"ĠgÃ¡y":8066,"ĠchÆ°á»Ľng":8067,"Ġhá»ķng":8068,"Ġvn":8069,"Ġsáº¥u":8070,"ĠTHÃģNG":8071,"Ġbá»ķn":8072,"chester":8073,"TrÃ¡i":8074,"ĠBá»ĨNH":8075,"ĠmÃ¹ng":8076,"Ġshowroom":8077,"uawei":8078,"ĠRanh":8079,"XÃ£":8080,"men":8081,"Ġhá»ĳt":8082,"Ġphá»ĳt":8083,"º°NG":8084,"ĠthÃ²":8085,"Ma":8086,"háº¥c":8087,"Ġtháº£y":8088,"Ġháº¡m":8089,"ĠDá»ħ":8090,"ĠTáº¡ng":8091,"Ġ220":8092,"ĠCi":8093,"Ġ[...]":8094,"ĠPGS":8095,"Uá»ĲN":8096,"ĠAC":8097,"ĠMÆ°á»Ŀng":8098,"CÃĵ":8099,"ĠSá»©":8100,"ĠCáº¦U":8101,"ĠTHUÃĬ":8102,"Ġ86":8103,"Ġresort":8104,"Ġ]":8105,"Ġtáº¥p":8106,"oid":8107,"Ġyoga":8108,"ĠBOT":8109,"Ġrá»ķ":8110,"ĠvÃ²m":8111,"ĠGMT":8112,"£nh":8113,"ĠCá»±u":8114,"ĠFu":8115,"Ġthá»¥c":8116,"ĠÄĲÆ¯á»ľNG":8117,"Ġnhá»§":8118,"lÆ°á»£ng":8119,"chain":8120,"Ġhá»ĩt":8121,"ĠRÄĥng":8122,"ĠBluetooth":8123,"Ġru":8124,"Ġhuyá»ĩt":8125,"ĠkÃ¬m":8126,"ĠthuÃ´":8127,"ĠBMW":8128,"ĠHáº£o":8129,"ÄĲÃłn":8130,"Ġmá»ĵm":8131,"ĠgáºŃy":8132,"Ġpiano":8133,"talia":8134,"eon":8135,"ĠMobi":8136,"ĠDÆ¯ÆłNG":8137,"Ġ78":8138,"dá»ĭch":8139,"ĠChÃ¡u":8140,"tine":8141,"Ġrá»Ĺng":8142,"ĠWest":8143,"ĠÄĲau":8144,"ĠBiáº¿n":8145,"ĠMaz":8146,"Ġtoan":8147,"ĠTC":8148,"º®T":8149,"Ãģp":8150,"ĠFI":8151,"Biáº¿t":8152,"ĠTá»ĭnh":8153,"ĠUniver":8154,"ngh":8155,"Ġviet":8156,"ĠÆł":8157,"ĠMedia":8158,"ĠMourinho":8159,"Ġgáº·t":8160,"tv":8161,"Dinh":8162,"Ġshowbiz":8163,"Ġhen":8164,"ĠxÃ¡t":8165,"ĠÄĳáº¥m":8166,"ĠÄĳáºŃy":8167,"tus":8168,"ware":8169,"job":8170,"Ġngáº¡o":8171,"Ġque":8172,"LÃª":8173,"¬A":8174,"ĠTHÆ¯":8175,"Atom":8176,"chael":8177,"ishi":8178,"ĠGá»įi":8179,"Google":8180,"Ġau":8181,"Ġmore":8182,"Ġblock":8183,"xá":8184,"ĠÃª":8185,"ĠLÃ²":8186,"ÂŃ":8187,"ĠhÃ³c":8188,"ĠTÃįNH":8189,"Æ¡ng":8190,"ĠMÃ¹i":8191,"NHá»®NG":8192,"ĠlÃ¡ch":8193,"Hay":8194,"UI":8195,"IÃĬ":8196,"cs":8197,"ĠmÄ©":8198,"sá»Ńa":8199,"Ġ71":8200,"ĠBangkok":8201,"ĠTOP":8202,"cola":8203,"ĠComment":8204,"Ġáº£":8205,"ĠPHá»Ĳ":8206,"ĠchÆ°ng":8207,"Ġchuá»ĵng":8208,"ĠAsia":8209,"zz":8210,"ĠTUYá»ĤN":8211,"ĠhoÄĥ":8212,"ĠBÃ¨":8213,"thanh":8214,"ĠMá»Ļng":8215,"º¨N":8216,"Ġngá»Ńa":8217,"ĠPhá»ĳi":8218,"ĠÄĲá»ĵn":8219,"ĠvÃ´i":8220,"VÅ©":8221,"LÆ°á»£t":8222,"ĠtrÄĥn":8223,"ĠSá»ĲNG":8224,"Ġsize":8225,"ĠPhá»¥ng":8226,"vel":8227,"ĠTá»Ķ":8228,"ĠKáº»":8229,"Ġcáº·n":8230,"ÄĲo":8231,"Ġtá»§y":8232,"Ġkháº¯t":8233,"ĠPas":8234,"tein":8235,"ĠTá»Ľi":8236,"andal":8237,"ÃĴNG":8238,"Ġphiáº¿n":8239,"ĠLuyá»ĩn":8240,"Tuáº§n":8241,"ĠCuba":8242,"ĠArgentina":8243,"tive":8244,"ĠCSGT":8245,"Ġnuá»ĳi":8246,"cal":8247,"duc":8248,"ĠCu":8249,"ĠBinh":8250,"Sáº¯p":8251,"Express":8252,"Ġbáº»":8253,"Ġpháº«n":8254,"âĢĻ.":8255,"ĠNghiÃªm":8256,"Song":8257,"ĠLÃ²ng":8258,"Ha":8259,"Nhanh":8260,"ĠÃ¹n":8261,"ĠCHUNG":8262,"ĠBarcelona":8263,"ĠUp":8264,"ĠgáºŃp":8265,"Ġná»ĥ":8266,"Ġngáº£":8267,"Ġnáº¿m":8268,"May":8269,"ĠEs":8270,"Ah":8271,"OO":8272,"Ġ160":8273,"ĠBank":8274,"ĠNoel":8275,"ĠDáº¡y":8276,"ĠCá»ĺNG":8277,"Tp":8278,"Nghi":8279,"ita":8280,"Ġná»ĩm":8281,"yn":8282,"ĠArchi":8283,"Cá»ķng":8284,"Chu":8285,"ĠgÃ¢":8286,"stagram":8287,"ĠKha":8288,"ChÃłng":8289,"ĠGÃ¡i":8290,"Láº¡i":8291,"ĠUV":8292,"ĠTráº£i":8293,"ght":8294,"ĠTráºŃn":8295,"ĠkÃ©t":8296,"Xáº¿p":8297,"ĠbÃ¨n":8298,"ian":8299,"hai":8300,"SA":8301,"link":8302,"sá»±":8303,"ĠGate":8304,"ĠBá»įn":8305,"HN":8306,"Samsung":8307,"82":8308,"ĠLÃ´i":8309,"Camera":8310,"Lá»Ľp":8311,"oot":8312,"PV":8313,"work":8314,"MC":8315,"ĠJan":8316,"Ġxáº»":8317,"Ġ247":8318,"ĠSec":8319,"Ġquáº¿":8320,"ĠQuá»·":8321,"ĠnÃ©":8322,"Ġ101":8323,"QL":8324,"EW":8325,"BI":8326,"zada":8327,"ĠThai":8328,"Ġphai":8329,"ĠTÃįN":8330,"SC":8331,"Fone":8332,"ĠxÃŃu":8333,"ĠBÆ°u":8334,"Ġserver":8335,"Pháº¡m":8336,"ÃĵI":8337,"Ġbuá»ĳt":8338,"MI":8339,"ĠKar":8340,"Tube":8341,"ĠHá»©a":8342,"Ġlá»«ng":8343,"Kháº£":8344,"ĠCáº¢":8345,"ĠHal":8346,"Ġ1990":8347,"ĠApp":8348,"ĩn":8349,"Ġláº©u":8350,"ĠÄĳÆ°":8351,"ĠPCCC":8352,"ÃĴN":8353,"ĠnhÅ©":8354,"CÃł":8355,"ĠChÃŃn":8356,"THIáº¾T":8357,"ĠLáº§u":8358,"ĠTHEO":8359,"ram":8360,"ĠNiá»ĩm":8361,"ĠVÄĲ":8362,"ĠHung":8363,"ĠLá»ļ":8364,"ĠBarca":8365,"core":8366,"Ġsáº£ng":8367,"Ġflash":8368,"ĠgÃ²n":8369,"ĠATM":8370,"ĠQUY":8371,"Ġngáº©n":8372,"ĠChiá»ĥu":8373,"ĠRO":8374,"º¤Y":8375,"700":8376,"ĠElec":8377,"ĠDiá»ħm":8378,"huyá»ĩn":8379,"PhÃŃa":8380,"ngá»":8381,"Báº¯c":8382,"Ġ2001":8383,"lorer":8384,"ĠxÆ°á»Ľng":8385,"Ġ92":8386,"trÃªn":8387,"Äĳáº¡i":8388,"Ġ140":8389,"Há»ĵi":8390,"áº¤n":8391,"Ġthá»ģm":8392,"ĠkhoÃ¡t":8393,"ĠMazda":8394,"âĢĿ:":8395,"2020":8396,"ÌĢ,":8397,"Book":8398,"dr":8399,"ĠTháºŃp":8400,"ĠMit":8401,"ĠJa":8402,"Háº¡":8403,"Ġ84":8404,"taly":8405,"ĠGiá»¯":8406,"Dáº§u":8407,"ja":8408,"Da":8409,"ÄĲáº£ng":8410,"ST":8411,"ĠRoy":8412,"'.":8413,"150":8414,"ĠDel":8415,"Ġlá»Ŀ":8416,"ĠTK":8417,"ĠQUáº¬N":8418,"Ġná»ī":8419,"Ġnháº¥c":8420,"eme":8421,"Ká»·":8422,"ĠVá»Ĭ":8423,"ahoo":8424,"ĠIphone":8425,"ITE":8426,"ĠSport":8427,"Ġkhuáº¥y":8428,"ĠNá»ĶI":8429,"ĠOanh":8430,"ĠBÃłng":8431,"Ġxá»ĳp":8432,"Ġngá»Ŀi":8433,"ĠGÃł":8434,"rolet":8435,"ĠVÄ©":8436,"ĠTá»ĭch":8437,"ĠJose":8438,"ĠHotel":8439,"Ġthuá»Ł":8440,"ĠHáº¡ng":8441,"NV":8442,"Ġ81":8443,"ys":8444,"ado":8445,"ĠBBC":8446,"Ung":8447,"ĠhÃ¨n":8448,"ĠÄĳáº£":8449,"ĠTÃĮNH":8450,"ĠEr":8451,"Nhá»Ľ":8452,"ghi":8453,"Ġmáº«n":8454,"Rá»ĳi":8455,"ĠFlor":8456,"Ġcomp":8457,"Ġback":8458,"ni":8459,"ĠHOáºłT":8460,"Vietnam":8461,"98":8462,"issions":8463,"ĠCáº§m":8464,"ĠVTC":8465,"Tá»ĳt":8466,"Viá»ĩn":8467,"ĠNgÆ°u":8468,"ĠCÃ¡n":8469,"Ġwindow":8470,"bit":8471,"İI":8472,"mÃ¬nh":8473,"ĠThÃŃ":8474,"Ġ87":8475,"Ġ76":8476,"mark":8477,"loud":8478,".-":8479,"ĠLáº¡nh":8480,"ĠÄĲÃĢO":8481,"ĠtrÃ¹":8482,"ĠTÆ°á»£ng":8483,"ĠGeor":8484,"Nháº¥n":8485,"ÃģNG":8486,"ĠExplorer":8487,"ĠCÃ¡m":8488,"ĠComm":8489,"ĠCá»ĳc":8490,"Cá»±u":8491,"Ġ450":8492,"?!":8493,"ĠBill":8494,"ermissions":8495,"ĠLÃ¡i":8496,"ĠÃºy":8497,"ĠDá»¤C":8498,"Ġ96":8499,"ĠGÃĮ":8500,"ĠdÃ´ng":8501,"GÃ³p":8502,"ĠHuÃ¢n":8503,"ani":8504,"ĠIT":8505,".....":8506,"ĠLen":8507,"ĠTIáº¾T":8508,"Phi":8509,"BA":8510,"bÃ¡n":8511,"Permissions":8512,"ÃĹ":8513,"Ġapp":8514,"2005":8515,"âĢ¦,":8516,"ÃŃu":8517,"Ġ320":8518,"ĵA":8519,"ĠtuyÃª":8520,"ĠTáº§m":8521,"Chá»ĳng":8522,"ĠhÃ¡o":8523,"ĠCV":8524,"MA":8525,"Ġgá»įt":8526,"ĠcafÃ©":8527,"ĠHolly":8528,"Ġren":8529,"ĠgÃ´":8530,"SÃłn":8531,"Ġbá»ĵng":8532,"siÃªu":8533,"ĠgiÃ²":8534,"ĠLos":8535,"Ġsiáº¿t":8536,"ĠTháº»":8537,"Huyá»ĩn":8538,"µm":8539,"ĠVe":8540,"ĠQuáº¿":8541,"ual":8542,"ME":8543,"ffet":8544,"Ġsexy":8545,"La":8546,"ĠNN":8547,"HP":8548,"Ġphotocopy":8549,"ĠchÃ¹i":8550,"ĠgÃło":8551,"ĠnhÃºng":8552,"chÃŃnh":8553,"ĠÄĳoa":8554,"ĠÄĲáº³ng":8555,"Liá»ĩu":8556,"CK":8557,"LA":8558,"NgÃ´n":8559,"uters":8560,"tÃ¡ng":8561,"evrolet":8562,"Minh":8563,"ĠManchester":8564,"ĠXI":8565,"âĨ":8566,"ĠHam":8567,"ĠÄĳáº½":8568,"Ġtab":8569,"ĠThÃ¡m":8570,"ĠKhÃºc":8571,"ĠMen":8572,"Ġxá»ĩ":8573,"house":8574,"UA":8575,"ĠHer":8576,"trung":8577,"Ġ83":8578,"âĸª":8579,"ĠHiÃªn":8580,"ĠtÃ¡ng":8581,"Ġkhiáº¿m":8582,"ĠHel":8583,"ogen":8584,"ĠVo":8585,"Giá»ı":8586,"day":8587,"ĠAf":8588,"³t":8589,"ĠMáº§m":8590,"ĠBá»ķ":8591,"xx":8592,"Ġkhá»ī":8593,"ĠNhÆ°á»¡ng":8594,"Ġpháº¥t":8595,"ĠgiÆ°":8596,"ĠGiá»įng":8597,"ĠtrÆ°":8598,"ĠGTGT":8599,"itan":8600,"ember":8601,"Quay":8602,"BT":8603,"HÃ³a":8604,"Ngoáº¡i":8605,"ĠHá»ķ":8606,"Ġngá»ı":8607,"Te":8608,"hÃłng":8609,"Ġphá»ĵng":8610,"ecal":8611,"ĠÄĳáº«m":8612,"Ġráº¡ch":8613,"ĠItalia":8614,"ĠCTC":8615,"ĠBAN":8616,"Ġáº¥u":8617,"ĠNHáº¬P":8618,",\"":8619,"Ġvá»Ŀ":8620,"XEM":8621,"Ĺı":8622,"ĠÄĲÃ¢u":8623,"ĠNV":8624,"Li":8625,"ĠHOA":8626,"Ġcau":8627,"ĠAli":8628,"ĠMag":8629,"asonic":8630,"ĠbÃªnh":8631,"Ġ77":8632,"Mong":8633,"KD":8634,"ĠTÃºi":8635,"ĠKe":8636,"Váº«n":8637,"ĠPor":8638,"ĠCentral":8639,"national":8640,"ĠHÆ¯á»ļNG":8641,"Ġváº¯c":8642,"ĠReuters":8643,"ĠÄĲÃ³ng":8644,"Ãģnh":8645,"âľ¿":8646,"º¸":8647,"eed":8648,"ĠTUYáº¾N":8649,"Ġquyá»ĩn":8650,"ĠÄĲá»ĺ":8651,"ĠxoÃ¡y":8652,"ĠSuz":8653,"Apple":8654,"Ġphá»¥n":8655,"HáºŃu":8656,"Ġ115":8657,"thÃ´ng":8658,"You":8659,"Ġ).":8660,"Ġphá»¥ng":8661,"ista":8662,"ĠGiá»¯a":8663,"ĠNHNN":8664,"oun":8665,"ĠNá»ģn":8666,"Ġbl":8667,"ÃĪ":8668,"Ġnáºµng":8669,"ĠÄĲá»ĩ":8670,"thá»±c":8671,"dep":8672,"giáº£i":8673,"hu":8674,"87":8675,"ÄĲH":8676,"ĠSc":8677,"phÃºt":8678,"ĠnÄĥ":8679,"ĠÄĲá»ĶI":8680,"ĠMas":8681,"ĮI":8682,"ĠÄĲOÃĢN":8683,"Ġsáº¡m":8684,"isco":8685,"ĠBá»ı":8686,"oney":8687,"Tháº§n":8688,"ĠÃĲá»©c":8689,"ĠBIá»ĨT":8690,"Bá»©c":8691,"»¦y":8692,"á»¦y":8693,"ThÆ°a":8694,"Mar":8695,"amaha":8696,"ds":8697,"ĠSáº¡n":8698,"ĠThá»Ń":8699,"SÃ¢n":8700,"ĠvÃ¡":8701,"cum":8702,"Kiá»ĥu":8703,"Äĳá»ĵng":8704,"ĠArchives":8705,"ĠmÃ©p":8706,"ĠJames":8707,"ĠNHANH":8708,"Gá»£i":8709,"ĠKia":8710,"Ġsá»įc":8711,"ĠcÃ²":8712,"Ġtá»¥y":8713,"fi":8714,"ĠRich":8715,"ºłM":8716,"ser":8717,"kbps":8718,"Ġ82":8719,"ĠMini":8720,"Ġngoá":8721,"Ġsáº¡t":8722,"ye":8723,"EX":8724,"OP":8725,"Vin":8726,"Ġpl":8727,"ĠÄĳÃ¨o":8728,"BáºŃt":8729,"tico":8730,"Ġhá»§":8731,"ĠMun":8732,"ĠMichael":8733,"ÄĲÃ¡p":8734,"ĠquÃ´":8735,"ĠZing":8736,"bÃłi":8737,"ĠSÃ¢m":8738,"ĠTHIá»ĨU":8739,"ii":8740,"ous":8741,"uat":8742,"Cá»ĳ":8743,"ĠPen":8744,"cer":8745,"lie":8746,"Tiá»ĩn":8747,"ĠST":8748,"Ġnháº¹n":8749,"gis":8750,"ĠkhÃ³e":8751,"ĠBáºŃt":8752,"ĠVie":8753,"ĠDownload":8754,"tháº§n":8755,"ĠChá»ĭu":8756,"ĠNghá»ģ":8757,"ãĢ":8758,"Ġbá»Ľi":8759,"GA":8760,"Ġngáº¡t":8761,"gas":8762,"ĠgÄĥ":8763,"tream":8764,"ĠHarry":8765,"Ġus":8766,"Ġná»Ľi":8767,"Ġmix":8768,"thá»Ŀi":8769,"Ġkhuynh":8770,"ĠYouTube":8771,"ĠNT":8772,"ĠNhÆ°á»£c":8773,"cÃły":8774,"ĠFri":8775,"HLV":8776,"ĠNGHÄ¨":8777,"Tho":8778,"Next":8779,"âĢ¦..":8780,"Dá»¥ng":8781,"ĠCre":8782,"ĠDell":8783,"entine":8784,"cow":8785,"Ġtáº©m":8786,"pro":8787,"ĠÄĲáº¶T":8788,"ĠTuá»ĩ":8789,"ĵm":8790,"Ġváº«y":8791,"ĠHá»Ļp":8792,"SÆ¡n":8793,"ĠsuÃ½t":8794,"ÄĲÃ¡ng":8795,"ĠSIM":8796,"ĠrÃ³t":8797,"ĠPDF":8798,"ĠLáºłI":8799,"ĠsÃłi":8800,"cÆ°a":8801,"TÃºi":8802,"ĠHáº¯c":8803,"try":8804,"VÆ°Æ¡ng":8805,"oll":8806,"LÄ©nh":8807,"Ġnick":8808,"ÄĳÆ°á»Ŀng":8809,"++":8810,"ĠPHÃĤN":8811,"ĠÄĲÃĢ":8812,"ĠvÄĥng":8813,"Ġship":8814,"ĠNGUYá»ĦN":8815,"Ġmy":8816,"tim":8817,"ĠChá»ĵng":8818,"ĠHÃĴA":8819,"Al":8820,"anda":8821,"ĠÄĲá»ĬA":8822,"Hiá»ĩp":8823,"SS":8824,"idan":8825,"ĠdÃ¨":8826,"ĠÄĲá»Ĵ":8827,"âĢĻ,":8828,"ĠDÃłi":8829,"ĠVÃĢO":8830,"ĠÃºt":8831,"chÆ°a":8832,"ĠBlock":8833,"Ġchá»įi":8834,"ĠLÃ¢n":8835,"ĠBáº°NG":8836,"cÄĥm":8837,"ĠNHÆ¯":8838,"ĠCÃłng":8839,"ĠsÃ¡o":8840,"ĠTrÃ¢n":8841,"Truyen":8842,"ĠMÃĥ":8843,"Ġtáº£o":8844,"NQ":8845,"ĠphÆ°á»£t":8846,"ĠnÃ£":8847,"Ġbá»ĭt":8848,"ĠngÃ³":8849,"air":8850,"ĠÄĲÃĢN":8851,"ĠÄĲá»ĲI":8852,"ĠHTX":8853,"QuÃ¢n":8854,"XD":8855,"lom":8856,"ĠLÄĲ":8857,"ĠNhá»ĭ":8858,"ĠInstagram":8859,"TW":8860,"ĠbÃºa":8861,"ĠNÃĢO":8862,"NET":8863,"ĠChe":8864,"ĠTAND":8865,"áº¨m":8866,"ĠWikipedia":8867,"ĠxoÃłi":8868,"Ġtráº·c":8869,"Opens":8870,"ĠThÆ°a":8871,"ĠNor":8872,"RiÃªng":8873,"Äĳiá»ģu":8874,"ĠTráº¡m":8875,"ĠFed":8876,"ĠHollywood":8877,"Ġtháº³m":8878,"ĠcÄĥm":8879,"ĠTá»«ng":8880,"bay":8881,"iki":8882,"ĠtrÃ³i":8883,"than":8884,"ĠthÃł":8885,"ĠGe":8886,"ĠResid":8887,"Ġngháº¹n":8888,"ĠKhÃ´i":8889,"ĠSco":8890,"ĠIr":8891,"ĠBur":8892,"Ġspam":8893,"ĠNGUYÃĬN":8894,"MO":8895,"Å¨":8896,"ĠFDI":8897,"cÃ´i":8898,"ĠHuawei":8899,"ĠrÄĥ":8900,"Ġstart":8901,"ĠZen":8902,"ĠVictoria":8903,"ĠKHU":8904,"ĠcÃ´i":8905,"Ġgiá»ģng":8906,"Cáº¯t":8907,"ovo":8908,"ĠCÃºp":8909,"ĠWon":8910,"vil":8911,"ĠDH":8912,"Ġmá»³":8913,"Ġbik":8914,"Ġhuá»·":8915,"Ġtrau":8916,"Ġtag":8917,"Hot":8918,"enger":8919,"LuÃ´n":8920,"League":8921,"ĠCÃłi":8922,"ĠBáº¬T":8923,"ĠTA":8924,"uá»µ":8925,"Ġvá»Ľt":8926,"NuÃ´i":8927,"ĠTao":8928,"báº£n":8929,"ĠTrao":8930,"hiá»ĩn":8931,"ĠsÃºp":8932,"Lá»±c":8933,"ĠExcel":8934,"Cáº¥u":8935,"Ġtá»³":8936,"ĠHAY":8937,"PhÃº":8938,"ÌĽ":8939,"ĠlÃµm":8940,"XVN":8941,"ĠcÆ°Æ¡":8942,"bab":8943,"ĠnÃ³c":8944,"ĠGiÃ¡c":8945,"Ġtá»īa":8946,"ĠSil":8947,"ĠHÃło":8948,"ĠnhÆ¡":8949,"Ġlá»¥y":8950,"FI":8951,"ĠFer":8952,"Ãķ":8953,"tá»©c":8954,"ĠXEM":8955,"Vá»Ģ":8956,"ĠTravel":8957,"ĠxoÃ¡":8958,"º¼":8959,"Ġnung":8960,"][":8961,"ÄĲÆ°a":8962,"Ġmá»©t":8963,"ĠQuyÃªn":8964,"Ġhormone":8965,"ĠVnExpress":8966,"ĠKr":8967,"ĠkhiÃª":8968,"MÃºi":8969,"ĠTIáº¾P":8970,"ĠXX":8971,"ĠTHAM":8972,"Shop":8973,"Ġchá»«":8974,"river":8975,"ĠWAS":8976,"phong":8977,"Ġfanpage":8978,"ĠCáº¥u":8979,"dy":8980,"CHÃįNH":8981,"ren":8982,"tiá»ĩt":8983,"ĠnÃªm":8984,"ghan":8985,"chuyá»ĩn":8986,"ĠGÃ³i":8987,"TÃłu":8988,"ĠÄĲá»ģn":8989,"ĠPaul":8990,"KhÃ¡c":8991,"cean":8992,"ĠsÃ²ng":8993,"Ġgu":8994,"ĠÃįt":8995,"ĠBas":8996,"Ġah":8997,"Ġtiá»ĩt":8998,"CV":8999,"ĠmÃªnh":9000,"sáº£n":9001,"TÆ¯":9002,"ĠAt":9003,"Ġráº©y":9004,"ĠhÃ¢":9005,"ÄĲá»Ļc":9006,"Tháº»":9007,"ĠTÃ¡o":9008,"appy":9009,"ĠItaly":9010,"Ġ97":9011,"ĠThá»¥":9012,"Ġdes":9013,"ĠCHá»®A":9014,"ĠcÆ°a":9015,"Giá»ĳng":9016,"...)":9017,"ĠLig":9018,"Ġ365":9019,"ĠMUá»ĲN":9020,"Ġ74":9021,"ĠWhite":9022,"ĠBáº¥m":9023,"subishi":9024,"Gháº¿":9025,"ĠMore":9026,"ĠDVD":9027,"LuáºŃn":9028,"Ġkhang":9029,"ĠVietjet":9030,"ĠÄĲÃĶNG":9031,"ThÃŃ":9032,"VÃłi":9033,"tÃ©":9034,"ÃŃa":9035,"ĠNhá»ı":9036,"esh":9037,"Hi":9038,"bá»Ļ":9039,"IDV":9040,"phÃ²ng":9041,"Ġthung":9042,"ºªU":9043,"Vá»ĩ":9044,"ĠtoÃ¡i":9045,"ĠcÃły":9046,"LL":9047,"ĠNov":9048,"ĠGrab":9049,"ĠvÃ¹i":9050,"TÃ´":9051,"Háº¡t":9052,"ĮNG":9053,"peria":9054,"âĢĿ?":9055,"Ġ105":9056,"ms":9057,"exus":9058,"chá»§":9059,"ThÃ¢n":9060,"aya":9061,"ĠÄĲÃ´n":9062,"phi":9063,"ĠMilan":9064,"Äĳáº·c":9065,"ĠMoscow":9066,"ĠhÃ£nh":9067,"%;":9068,"Ġhá»©c":9069,"Ġtháº¯m":9070,"ĠPHÆ¯ÆłNG":9071,"ĠLux":9072,"BV":9073,"ĠDUNG":9074,"ĠYoga":9075,"chÃºng":9076,"ĠTRáºº":9077,"rÃ´":9078,"ĠSouth":9079,"ĠSá»¬A":9080,"Vn":9081,"Ġbá»«a":9082,"ĠRA":9083,"ield":9084,"Ġcopy":9085,"Váº»":9086,"ĠFace":9087,"Ġdong":9088,"mÃł":9089,"ĠrÃ¡n":9090,"ĠMA":9091,"ĠTIÃĬU":9092,"BM":9093,"ĠHuyáº¿t":9094,"NÄĥng":9095,"play":9096,"ĠUl":9097,"ĠCHá»ĮN":9098,"ÄĳÃ¡nh":9099,"ChÆ¡i":9100,"Ġ93":9101,"Ġráº§m":9102,"ĠvÃ¡ng":9103,"Ġcas":9104,"sáº½":9105,"Ġbox":9106,"ĠLÃ£ng":9107,"ĠÄĲiá»ĩp":9108,"pháº£i":9109,"ĠNiÃª":9110,"Ġmg":9111,"Hen":9112,"emon":9113,"ĠAF":9114,"ĠcháºŃp":9115,"ĠTá»Ļi":9116,"ĠWASD":9117,"Ġquai":9118,"cy":9119,"ĠlÄĥ":9120,"ĠFranc":9121,"ĠNghá»ī":9122,"ĠsÃło":9123,"ĠnhÃ¡":9124,"Ġ123":9125,"âĢ¦âĢ¦âĢ¦âĢ¦":9126,"ĠBT":9127,"ĠtrÃ¡":9128,"ĠbÆ°á»Ľm":9129,"elf":9130,"ĠCá»¨":9131,"cuá»ĳng":9132,"Land":9133,"NÃły":9134,"ĠChan":9135,"ĠMor":9136,"gov":9137,"ĠluÃ¢":9138,"Æ°á»Ľu":9139,"ĠÄĲáºŃu":9140,"ĠStore":9141,"ĠInc":9142,"ÄĲáº¡o":9143,"Ġcá»Ńu":9144,"Ìī.":9145,"ĠBox":9146,"ĠWifi":9147,"Ġtáº¯n":9148,"ning":9149,"ĠPhao":9150,"lowjob":9151,"ĠÄĲá»¨C":9152,"ĠlÃºng":9153,"Ġlá»ĵi":9154,"ĠLONG":9155,"láº§n":9156,"tory":9157,"ĠRam":9158,"ĠhÃ²m":9159,"ĠnhÃ²":9160,"Gáº·p":9161,"Ġcuá»ĳng":9162,"ĠtrÆ°á»Ľng":9163,"ĠHouse":9164,"ĠthÃ©t":9165,"ĠchÃ¨o":9166,"burg":9167,"Hiá»ĥu":9168,"Táº·ng":9169,"Ġcotton":9170,"ĠDiá»ĩm":9171,"Ġdá»©a":9172,"gor":9173,"ĠquyÃªn":9174,"TRUNG":9175,"ĠlÃ³c":9176,"quy":9177,"ement":9178,"ĠXS":9179,"ĠRá»Ńa":9180,"nhá»":9181,"ĠnhÃ©t":9182,"aily":9183,"rom":9184,"ĠVol":9185,"Ġbáº§y":9186,"Ġmiá»ĩt":9187,"Ġgiáº¥m":9188,"CÆł":9189,"gen":9190,"Ġkhoáº¯n":9191,"ĠBA":9192,"Ġpoly":9193,"Ġháº¥u":9194,"¹m":9195,"Ġbitcoin":9196,"ĠrÃ£nh":9197,"DÃ¢y":9198,"sy":9199,"STTTT":9200,"asp":9201,"Chá»¥p":9202,"ĠLike":9203,"Ar":9204,"''":9205,"ĠhÃ¡":9206,"bour":9207,"ĠngÃ¡n":9208,"ics":9209,"--------":9210,"ĠNob":9211,"ĠlÃ³":9212,"iger":9213,"ĠlÄĥm":9214,"ĠGam":9215,"ĠnhÃŃu":9216,"ĠthÃ¢u":9217,"PTNT":9218,"THá":9219,"***":9220,"ĠCÆ¯":9221,"Ġimp":9222,"Ġcá»¥t":9223,"Berry":9224,"ings":9225,"ĠNGHIá»ĨM":9226,"TráºŃn":9227,"Táº§m":9228,"Ġlá»ĳc":9229,"ĠChevrolet":9230,"ĠSuy":9231,"ĠquáºŃt":9232,"ĠTTT":9233,"ĠLá»¯":9234,"khÃ¡ch":9235,"Sa":9236,"light":9237,"ĠKá»²":9238,"Giá»¯a":9239,"ĠMS":9240,"ĠMed":9241,"iness":9242,"ĠInternational":9243,"Ġngá»¥y":9244,"ĠCÃ¹":9245,"Sáº¢N":9246,"Ġthá»Ńa":9247,"DO":9248,"Ġar":9249,"phim":9250,"Giai":9251,"ĠSMS":9252,"ĠVNPT":9253,"ĠHÃ³c":9254,"IK":9255,"Ġlá»ģu":9256,"ĠMá»ħ":9257,"92":9258,"ĠBIáº¾T":9259,"any":9260,"ĠLá»Ĺi":9261,"Ġnhá»Ľt":9262,"ĠPak":9263,"2003":9264,"ĠTrÃ¹ng":9265,"ĠâĢ¦.":9266,"ĠSnap":9267,"Sai":9268,"ala":9269,"Facebook":9270,"Ġplay":9271,"Ġkhá»ıa":9272,"Ġá»ĵ":9273,"ĠÆ¯":9274,"Long":9275,"Cá»ķ":9276,"Ġáº¡t":9277,"ĠKhÃ³":9278,"kong":9279,"Link":9280,"ĠSat":9281,"Ġláº½o":9282,"ĠKangnam":9283,"UN":9284,"issan":9285,"aphi":9286,"ĠCÃ¡nh":9287,"Ġcá»Ļ":9288,"ĠDáºŃu":9289,"ĠXáº¿p":9290,"ĠFIFA":9291,"ĠÄĲáº¶C":9292,"ĠDáº§n":9293,"Ġ1997":9294,"ĠbÃ¡i":9295,"ĠNHá»":9296,"ĠPanasonic":9297,"ĠKen":9298,"ĠPháº£n":9299,"ĠBÃ´":9300,"ĠchÃ³t":9301,"81":9302,"ÄĲÃłi":9303,"SV":9304,"Tuyá»ĩt":9305,"ĠÄĳá»Ŀ":9306,"Äĥk":9307,"ĠVai":9308,"ĠBÃª":9309,"º¦M":9310,"ĠMá»ģm":9311,"Ġ1992":9312,"ĠFree":9313,"ĠThá»Ľi":9314,"ĠRáºŃp":9315,"ĠNáº¥m":9316,"ĠQUA":9317,"ĠXinh":9318,"ĠFormosa":9319,"ason":9320,"ĠCafe":9321,"ĠRÃµ":9322,"Ļi":9323,"ĠngÃ¡ch":9324,"ĠÄĳá»ĳn":9325,"arm":9326,"Ġhá»ĳc":9327,"ĠSO":9328,"ĠTuyá»ģn":9329,"ĠKT":9330,"Suy":9331,"96":9332,"ĠPost":9333,"ĠXIV":9334,"Bá»ķ":9335,"Ġ=>":9336,"ĠThá»ĭt":9337,"Ġday":9338,"Ġ91":9339,"ĠVá»ĳn":9340,"ury":9341,"Táº¿t":9342,"SP":9343,"ĠTor":9344,"ĠAug":9345,"ĠDai":9346,"ĠDec":9347,"ĠvÃ¢ng":9348,"ĠDong":9349,"eland":9350,"CÃłi":9351,"PHÃ":9352,"ĠxoÄĥn":9353,"ĠTáºŃn":9354,"Ġguitar":9355,"Ġcom":9356,"ennis":9357,"Trá»Ŀi":9358,"ĠCÃĻNG":9359,"ĠnhÃło":9360,"ĠBáº¤T":9361,"ĠGIAN":9362,"ĠCháº¥n":9363,"ÄĲáº£m":9364,"Pro":9365,"ĠGar":9366,"ĠTuÃ¢n":9367,"HÆ¯á»ļNG":9368,"nes":9369,"ĠHá»ĵn":9370,"ÃģNH":9371,"ĠKIM":9372,"ĠPVC":9373,"ĠDay":9374,"ĠDÆ¯á»":9375,"Ġsá»¯ng":9376,"ThÄĥm":9377,"ĠsÃ¹ng":9378,"ĠDig":9379,"ĠCHÆ¯ÆłNG":9380,"oucher":9381,"nhÃ¢n":9382,"Ġ108":9383,"BiÃªn":9384,"ĠÄĳÃ´n":9385,"Ġvung":9386,"ĠBá»©c":9387,"ater":9388,"ĠÄĲÆłN":9389,"tent":9390,"Äĳáº§u":9391,"Ġsc":9392,"ĠTD":9393,"BÃģO":9394,"ĠSUV":9395,"Ġváº£y":9396,"Ġvá»Ľ":9397,"Ġngáº¥m":9398,"2004":9399,"ĠHaw":9400,"º¨n":9401,"hÃ¬nh":9402,"SÆ°":9403,"ĠArab":9404,"Dung":9405,"seo":9406,"Phá»¥c":9407,"ĠThÆ°á»Łng":9408,"bie":9409,"esti":9410,"ĠModel":9411,"SL":9412,"ardcore":9413,"ĠHim":9414,"ĠWe":9415,"ĠAR":9416,"ĠTHOáºłI":9417,"Ġteam":9418,"ĠmÃ©o":9419,"QuÃ¡n":9420,"PhÃ³ng":9421,"ĠCHUYá»ĤN":9422,"oto":9423,"HT":9424,"ĠBal":9425,"ĠDC":9426,"ĠTag":9427,"ĠrÆ°á»¡i":9428,"Ġtá»Ļt":9429,"Ãµn":9430,"Ġsáº£o":9431,"EU":9432,"ÃļC":9433,"ĠThuá»·":9434,"Trá»įng":9435,"Ġbá»į":9436,"ker":9437,"teur":9438,"ĠCáº¬P":9439,"TrÆ°á»Łng":9440,"Biáº¿n":9441,"ĠCháº¿t":9442,"ĠSáº»":9443,"báº£o":9444,"ĠBook":9445,"ĠYamaha":9446,"BSITE":9447,"ĠCanon":9448,"ĠTur":9449,"ĠÄĲA":9450,"ĠÃĢ":9451,"ĠNghÄ©":9452,"ESCO":9453,"ĠWed":9454,"ĠTriáº¿t":9455,"Ġ304":9456,"ĠHoá":9457,"¢I":9458,"cent":9459,"DU":9460,"ĠchÃ²m":9461,"2000":9462,"lic":9463,"phÃ¡t":9464,"ridge":9465,"ĠXÃ¡":9466,"ĠUber":9467,"Ġimplant":9468,"Ġbáº©y":9469,"ĠDI":9470,"Ġtrá»ķ":9471,"hoa":9472,"GIá»":9473,"Ġ2030":9474,"ĠVang":9475,"ĠmiÃª":9476,"lim":9477,"Ġ240":9478,"ĠÄĲÃĮNH":9479,"ĠSuzuki":9480,"ĠnghÄ©nh":9481,"ĠClinton":9482,"ĠNik":9483,"game":9484,"247":9485,"Ġgháº":9486,"Dá»±a":9487,"ThÃ¬":9488,"VÃ´":9489,"ĠvÃŃt":9490,"ĠsuÃ´n":9491,"...,":9492,"ĠCáº©n":9493,"Trá»±c":9494,"ĠGPS":9495,"ĠNÃĬN":9496,"tÃ¡nh":9497,"ĠÄĲÆ°Æ¡ng":9498,"Æ¯A":9499,"âŀ":9500,"ãģ":9501,"Há»Ļp":9502,"dan":9503,"Ġphen":9504,"ĠmÆ°":9505,"ĠNgá»į":9506,"ĠPage":9507,"ĠServer":9508,"há»ĩ":9509,"Íģ":9510,"ĠvÃµn":9511,"ĠNgá»§":9512,"GiÃły":9513,"GÃ³c":9514,"treet":9515,"ĠXÆ°Æ¡ng":9516,"ise":9517,"giao":9518,"ĠLOáºłI":9519,"ĠÄĲoáº¡n":9520,"ĠvÃ£n":9521,"XX":9522,"Ġgiá»¥c":9523,"Äĳá»ģ":9524,"ĠThan":9525,"ĠvÃµng":9526,"TrÆ°Æ¡ng":9527,"ĠEli":9528,"ĠEnter":9529,"âĢĿâĢ¦":9530,"Ġvest":9531,"ĠNgon":9532,"ĠTOE":9533,"ĠphÆ°á»£ng":9534,"ĠtÆ°n":9535,"lobal":9536,"Ġluyáº¿n":9537,"ĠZalo":9538,"ĠNGHÄ¨A":9539,"ĠtÃ©":9540,"LÃ£o":9541,"ĠTrÃ¢m":9542,"ĠHÆłN":9543,"Ġtrá»£n":9544,"ĠtÆ°ng":9545,"Ġphao":9546,"ĠPhanxi":9547,"ĠrÃ¬":9548,"Ġex":9549,"ĠAngeles":9550,"atia":9551,"unt":9552,"ĠnÃ´i":9553,"ĠXperia":9554,"Ġ1995":9555,"ĠNgÃ£":9556,"Ġhá»ķi":9557,"ĠQuay":9558,"ĠphÃłn":9559,"ĠtÃ¡nh":9560,"zer":9561,"ats":9562,"ĠLum":9563,"ĠHoan":9564,"ĠLA":9565,"Ġcháº£nh":9566,"ĠCháº¡y":9567,"ĠDuáº©n":9568,"ĠFin":9569,"ĠBol":9570,"ĠCos":9571,"TrÃŃch":9572,"Nhu":9573,"For":9574,"tiáº¿ng":9575,"Ġ170":9576,"HÃ²a":9577,"ago":9578,"ĠBá»ĳn":9579,"ĠÄĳáº¥ng":9580,"ĠCUá»ĺC":9581,"Ġváº§n":9582,"ĠRoyal":9583,"::":9584,"ĠMáº¥t":9585,"aga":9586,"Lao":9587,"ĠngÃ¹ng":9588,"Ġdecal":9589,"quang":9590,"ĠMTV":9591,"ĠNguy":9592,"ĠICP":9593,"ĠVá»Ĩ":9594,"ĠthÄĥ":9595,"ĠrÄĥn":9596,"ĠLÃłnh":9597,"900":9598,"ĠOppo":9599,"Â°":9600,"dney":9601,"ĠNe":9602,"ĠMobiFone":9603,"ĠId":9604,"ĠmÃŃt":9605,"ĠThÃºc":9606,"TPHCM":9607,"ĠAV":9608,"ĠchÆ°á»Ľc":9609,"ĠÄĲáº§m":9610,"ĠráºŃm":9611,"Ġcasino":9612,"ĠtrÃ³c":9613,"elle":9614,"web":9615,"ĠÄĲá»īnh":9616,"ĠVietcombank":9617,"tanh":9618,"ĠSEA":9619,"ĠUY":9620,"Háº¡nh":9621,"ĠChiáº¿t":9622,"anks":9623,"gin":9624,"ngu":9625,"ĠnÃºm":9626,"Sh":9627,"khu":9628,"ĠJi":9629,"ĠChina":9630,"ĠOcean":9631,"ĠtrÃ¡m":9632,"ĠSub":9633,"ĠTÃĶ":9634,"Ġ3000":9635,"Ġngá»§i":9636,"Ġsá»į":9637,"uáº¿ch":9638,"ĠCore":9639,"ĠLim":9640,"ĠVÃ¢ng":9641,"ĠHÃĥ":9642,"ĠAmer":9643,"ĠCá»¨U":9644,"ĠTRáº¦N":9645,"ant":9646,"ĠCÆ°á»Ľi":9647,"ĠPok":9648,"ĠBIáº¾N":9649,"ĠNuÃ´i":9650,"ĠVÄĲV":9651,"ĠMotor":9652,"ĠrÃ¹a":9653,"Ġxui":9654,"info":9655,"º¶NG":9656,"ĠShin":9657,"ĠLoa":9658,"Ġcook":9659,"ĠVa":9660,"»Ĳ":9661,"PA":9662,"Ġtáº»":9663,"auty":9664,"alaxy":9665,"á»Ĳ":9666,"ĠBáº§u":9667,"Ġis":9668,"ĠtruyÃª":9669,"ĠQuÃªn":9670,"Ġvali":9671,"Ġ1945":9672,"ĠValentine":9673,"Giá»¯":9674,"ĠÄĲÃª":9675,"Ġnguyá»ģn":9676,"Ġ1998":9677,"...âĢĿ":9678,"ĠLau":9679,"win":9680,"ĠSÃ©c":9681,"ĠCáº¥m":9682,"ĠRáº¡ch":9683,"ĠhÃ¡n":9684,"Ġ(*)":9685,"ĠSÆ¯":9686,"cÆ°á»¡i":9687,"Ġchuá»Ļc":9688,"Ġsá»¡":9689,"ĠTPP":9690,"ĠtrÃºt":9691,"ĠtrÃ¢":9692,"báº¥t":9693,"º´":9694,"Nháº¯c":9695,"ĠTá»Ŀ":9696,"Ġbikini":9697,"ĠCÄĲV":9698,"ĠsÃ³i":9699,"ĠÄĲK":9700,"Ġ188":9701,"tone":9702,"TrÃł":9703,"ĠSáº¯p":9704,"ĠÄĳiáº¿u":9705,"ĠVá»±c":9706,"amilk":9707,"TÃĢI":9708,"ĠWilli":9709,"Ġvá»¯a":9710,"ĠHAG":9711,"ĠNháº±m":9712,"ĠBlackBerry":9713,"ĠÄĤN":9714,"ĠthÃ²i":9715,"ĠRos":9716,"ĠGolf":9717,"ĠmÃºt":9718,"ĠDubai":9719,"ĠMÃły":9720,"ĠClip":9721,"ĠráºŃp":9722,"ĠTráº§m":9723,"888":9724,"ĠMao":9725,"º®NG":9726,"Bul":9727,"ru":9728,"ĠÃįch":9729,"ĠphÃ´i":9730,"âľĶ":9731,"trolux":9732,"chiáº¿n":9733,"ĠAdmin":9734,"Ħ¢":9735,"Báº¿p":9736,"ĠNhan":9737,"ĠDon":9738,"vá»ģ":9739,"Ġdata":9740,"hang":9741,"ĠngÃ³i":9742,"Ġchap":9743,"ĠComplex":9744,"nham":9745,"ATO":9746,"ĠSA":9747,"ĠShare":9748,"ĠChiÃªu":9749,"Ġtrá»ı":9750,"ï¿":9751,"ĠGiÃły":9752,"ĠBin":9753,"vic":9754,"ĠPN":9755,"ĠAudi":9756,"ĠTHÃĬ":9757,"ĠQui":9758,"nÃ³ng":9759,"Ġseries":9760,"ĠâĢĭâĢĭ":9761,"tua":9762,"ĠSuá»ĳi":9763,"ĠTáº¥m":9764,"ĠnÆ¡":9765,"Iáº¾M":9766,"Tá»«ng":9767,"Biá»ĥn":9768,"ĠCondotel":9769,"ĠphÃłm":9770,"tÃ¬":9771,"Ġmá»įt":9772,"ĠBÃŃnh":9773,"ĠBÃ´ng":9774,"Dáº¡":9775,"ĠngÃ¡y":9776,"ĠGV":9777,"oy":9778,"Ġ->":9779,"Ġá»Ĳc":9780,"ĠbÃ³i":9781,"Ġuá»":9782,"ĠDá»±a":9783,"ĠxÃª":9784,"thÃ¬":9785,"Ġvin":9786,"ĠSak":9787,"ngá":9788,"ĠDáºŃt":9789,"Ä¨NH":9790,"Ġháº¯t":9791,"ĠthÃ¡n":9792,"Ġnoi":9793,"Ġtá»µ":9794,"edan":9795,"Index":9796,"ĠNiá»ģm":9797,"ĠPhilip":9798,"Ġreo":9799,"Báº¡ch":9800,"teo":9801,"Posted":9802,"ĠNho":9803,"ĠKhiÃªm":9804,"ĠPearl":9805,"may":9806,"ĠMitsubishi":9807,"ĠphÃ¡ch":9808,"ThÃ¡nh":9809,"Táº©y":9810,"Ġ''":9811,"ĠnÆ°á»Ľu":9812,"ĠHen":9813,"Ġbody":9814,"ºłY":9815,"ĠCá»±":9816,"ĠchoÃłng":9817,"ĠMÃ¡c":9818,"ĠPakistan":9819,"ĠRÆ°á»£u":9820,"Uáº¨N":9821,"vert":9822,"Ġtanh":9823,"Ġnáº¡o":9824,"bes":9825,"âĢĿ;":9826,"Ngá»įc":9827,"thay":9828,"letin":9829,"vin":9830,"CáºŃn":9831,"ViÃªn":9832,"ĠVNCH":9833,"ĠPHáºłM":9834,"ĠSAU":9835,"ChÃºa":9836,"Ì£.":9837,"ĠBAO":9838,"ÄĲÃ³ng":9839,"ĠVene":9840,"ĠCTCP":9841,"Cáº·p":9842,"ĠPhanxicÃ´":9843,"Ġbá»©t":9844,"Ġcl":9845,"ĠtÃ¬":9846,"Cáº¥p":9847,"ĠKHÃĵA":9848,"Thá»Ń":9849,"Bá»ĳn":9850,"board":9851,"Tá»Ľi":9852,"âĿ":9853,"ĠPhone":9854,"ráº¥t":9855,"ĠQuÃª":9856,"?.":9857,"ĠLAO":9858,"nÆ°á»Ľc":9859,"ï¿½":9860,"Ġbiáº¿u":9861,"ĠSum":9862,"ĠlÃºm":9863,"Ġ1980":9864,"ĠSX":9865,"ÃŃp":9866,"ventus":9867,"ĠcÆ°á»¡i":9868,"mobile":9869,"ĠSydney":9870,"ÃĢU":9871,"ĠThuá»Ļc":9872,"tour":9873,"lla":9874,"Gá»įi":9875,"ĠCPU":9876,"ĠTÃ¡t":9877,"ĠDragon":9878,"ĠRights":9879,"ĠVÆ°á»£ng":9880,"ĠLove":9881,"ĠÄĲá»©ng":9882,"Ġyáº¿m":9883,"ĠWEBSITE":9884,"ĠSaudi":9885,"Clip":9886,"ĠbÄĥm":9887,"ĠCá»Ŀ":9888,"act":9889,"%).":9890,"Kiáº¿m":9891,"ĠtuÃ´":9892,"Dáº¡y":9893,"TML":9894,"ath":9895,"Ġbáº§m":9896,"Ġlogic":9897,"ĠBIDV":9898,"ĠCuá»ĳn":9899,"Ġá»Ķ":9900,"ĠSur":9901,"ĠJW":9902,"RP":9903,"TÄĲ":9904,"Ġcháº¡p":9905,"Ìĥ,":9906,"250":9907,"OAD":9908,"ĠUNESCO":9909,"ĠGháº¿":9910,"Ġtá»ĩp":9911,"dá»±":9912,"ĠTHÃį":9913,"ĠYahoo":9914,"TTQ":9915,"ĠFC":9916,"Ġcabin":9917,"ĠSmartphone":9918,"ĠAD":9919,"ĠABS":9920,"ĠHOÃĢNG":9921,"ĠLazada":9922,"Ġblowjob":9923,"ilet":9924,"ĠNhÃ¢":9925,"ĠTrai":9926,"guyen":9927,"ĠMXH":9928,"ori":9929,"ĠInf":9930,"vÄĥn":9931,"ĠHáº¢I":9932,"shine":9933,"ĠMich":9934,"Äĳa":9935,"ĠCroatia":9936,"qui":9937,"ĠVCC":9938,"ĠchÃ¡t":9939,"ĠgÄĥng":9940,"gáº§n":9941,"táº¥n":9942,"ĠDá»ĭ":9943,"ĠTitan":9944,"Bulletin":9945,"ĠnÃŃu":9946,"ĠThá»ıa":9947,"ender":9948,"Ġsáº¯n":9949,"Ġes":9950,"Ġandroid":9951,"sity":9952,"Ġshare":9953,"ule":9954,"ĠngoÃ£n":9955,"bet":9956,"HÆ°Æ¡ng":9957,"tháº¿":9958,"Chá»ĵng":9959,"ĠnhÃ´":9960,"Ġ1996":9961,"!!!!":9962,"eral":9963,"ĠSÆł":9964,"yan":9965,"ĠHuáº¥n":9966,"sao":9967,"®U":9968,"ĠvBulletin":9969,"ĠxÃ¡o":9970,"Ġnano":9971,"Há»ĵng":9972,"ĠÄĲáº¯c":9973,"GÄĲ":9974,"Ġlives":9975,"ĠYoung":9976,"123":9977,"less":9978,"ĠquÃ¢":9979,"Ġstartup":9980,"Tá»īnh":9981,"Ġchan":9982,"»ĥn":9983,"CE":9984,"ĸI":9985,"Ġlá»ĵn":9986,"Vai":9987,"Ġhosting":9988,"ez":9989,"ĠPay":9990,"ĠTex":9991,"káº¿t":9992,"talog":9993,"ThÃ´i":9994,"ĠCHÃĤ":9995,"trogen":9996,"ila":9997,"ĠTeam":9998,"Can":9999,"Ġtáº©u":10000,"âĻ¦":10001,"xa":10002,"ĠÃĬ":10003,"Ġneo":10004,"tif":10005,"ĠchÃŃch":10006,"JC":10007,"LT":10008,"ĠGeorge":10009,"ĠHuynh":10010,"GDVN":10011,"abe":10012,"łNG":10013,"Ġ:)":10014,"ĠHá»®U":10015,"ĠMoon":10016,"Ġjeans":10017,"Ġnet":10018,"tec":10019,"97":10020,"etstar":10021,"vÃ´":10022,"Ġquáº¥t":10023,"ĠTX":10024,"ĠNHA":10025,"Ġthá»ĳn":10026,"allet":10027,"Ġplus":10028,"Ġ94":10029,"ĠLAN":10030,"ĠÄĲÃĢI":10031,"Ã²e":10032,"Ġsáº£y":10033,"ĠColl":10034,"ĠThÃ©p":10035,"ĠQUYáº¾T":10036,"ĠbÃŃt":10037,"ĠÄĳÃ²":10038,"ĠCÃ¡p":10039,"LS":10040,"ros":10041,"ĠHá»įa":10042,"Ġbook":10043,"Ġgiáº§y":10044,"dinh":10045,"cast":10046,"ĠCáº¯t":10047,"pop":10048,"tÄĥ":10049,"ĠPi":10050,"MÃģY":10051,"ĠPháº«u":10052,"ĠYáº¿u":10053,"ĠTHá»¨":10054,"Ġá»ĳ":10055,"cty":10056,"Ġnhá»ĳt":10057,"ĠrÃ¹ng":10058,"ĠVÃłi":10059,"ĠMus":10060,"TOP":10061,"Ġquáº§ng":10062,"Ġ102":10063,"emix":10064,"Ġoáº£i":10065,"Ġsáº£":10066,"estival":10067,"·n":10068,"ĠPHá»¤":10069,"Ġtoáº£":10070,"Ġquáº©n":10071,"Tá»įa":10072,"vat":10073,"ĠMIá»ĢN":10074,"Ġsáº·c":10075,"KÃªnh":10076,"nÃ³i":10077,"Ġoto":10078,"ĠNá»®":10079,"WC":10080,"Cáº¥m":10081,"ghanistan":10082,"ĠtÄĥ":10083,"Ġdáº¥n":10084,"Chuyáº¿n":10085,"Ġcá»Ļi":10086,"ĠmÃ¨":10087,"Ġ1994":10088,"ĠFA":10089,"ĠOS":10090,"ĠWC":10091,"Ġsá»Ńn":10092,"ĠTiáº¿u":10093,"Ġsá»Ńng":10094,"ĠSC":10095,"ĠQÃºy":10096,"Ġvá»¥ng":10097,"Ġnáº¡t":10098,"Ġkali":10099,"ĠBre":10100,"WNL":10101,"key":10102,"93":10103,"liÃªn":10104,"ĠáºŃp":10105,"illa":10106,"ĠPasteur":10107,"ĠVáº»":10108,"ĠStr":10109,"Bl":10110,"Ġ750":10111,"ĠAsus":10112,"ĠBayern":10113,"á»ĥn":10114,"ĠGioan":10115,"WNLOAD":10116,"nghi":10117,"ĠNÃł":10118,"Ġgiun":10119,"Káº»":10120,"Ġblogger":10121,"ĠmÃ¡ch":10122,"Ġtua":10123,"TÃĮM":10124,"cáºŃu":10125,"ÃĬM":10126,"ĠUtd":10127,"tÃ²i":10128,"ĠMI":10129,"nguyen":10130,"sá»ĳng":10131,"ĠTele":10132,"ĠgÃºt":10133,"ĠquÃ½t":10134,"Báº§u":10135,"Ġsá»§a":10136,"ĠtÃ²i":10137,"Vá»ĳn":10138,"ĠNano":10139,"amond":10140,"ĠCard":10141,"ĠDJ":10142,"res":10143,"ĠNu":10144,"Ġ---":10145,"lot":10146,"Ġlon":10147,"trÆ°á»Ŀng":10148,"GIá":10149,"Tá»ĳc":10150,"Ġlá»±u":10151,"XB":10152,"words":10153,"ĠÆ°Æ¡m":10154,"ĠCÆ°á»Ŀi":10155,"âĢº":10156,"ĠBá»Ļt":10157,"hoc":10158,"ĠMá»ĳi":10159,"ThÆ°á»£ng":10160,"ĠkÃ¨":10161,"ĠXÃºc":10162,"sis":10163,"ĠVIN":10164,"stem":10165,"ĠLO":10166,"esel":10167,"Mai":10168,"UP":10169,"HÃģNH":10170,"Ġxáº¥p":10171,"ĠThang":10172,"Ġáº¿ch":10173,"ĠkÃ¬a":10174,"ĠStart":10175,"las":10176,"rive":10177,"ĠTráº¡i":10178,"ĠFrank":10179,"há»ģ":10180,"tha":10181,"ĠRock":10182,"ĠMetro":10183,"phen":10184,"inch":10185,"ĠKhung":10186,"120":10187,"ĠTÃĮM":10188,"ĠStudio":10189,"ĠExpress":10190,"ĠVincity":10191,"ĠLiga":10192,"Ġun":10193,"ĠSÆłN":10194,"ĠMartin":10195,"ema":10196,"ific":10197,"ĠbÃºi":10198,"vÃŃ":10199,"cen":10200,"list":10201,"\\Ā\\Ā\\Ā\\Ā\\Ā\\Ā\\Ā\\Ā\\Ā\\Ā\\Ā\\Ā\\Ā\\Ā\\Ā\\Ā":10202,"ĠCanh":10203,"Ġsho":10204,"cad":10205,"ĠHá»ĸ":10206,"ĠSáº¼":10207,"ĠrÃªn":10208,"ĠVir":10209,"LÆ°Æ¡ng":10210,"Æ¯NG":10211,"Máº¯t":10212,"Ġsilicon":10213,"aru":10214,"ÄĲá»©ng":10215,"Ġ.\"":10216,"ĠÄĲam":10217,"ĠbuÃ´":10218,"ĠCle":10219,"Ġml":10220,"thÆ°á»Ŀng":10221,"ĠDIá»ĦN":10222,"ith":10223,"ĠBL":10224,"ĠOpen":10225,"PL":10226,"ĠKHOá":10227,"uri":10228,"ĠIm":10229,"ĠKhá»ķng":10230,"ĠTÃĤN":10231,"udio":10232,"ĠThá»¥c":10233,"ĠHAGL":10234,"back":10235,"Ġxá»Ļn":10236,"Ġcháº±ng":10237,"Ġthong":10238,"Ġcá»ĵng":10239,"ĠTMCP":10240,"ĠReserved":10241,".(":10242,"Ġliáº¿m":10243,"CA":10244,"Ġbung":10245,"ĠRedmi":10246,"ĠPHáº¢I":10247,"Ti":10248,"Ġjean":10249,"Ġhan":10250,"ĠCHáº¾":10251,"ĠSÄ¨":10252,"GÃ³i":10253,"ĠXá»©":10254,"Ġ1993":10255,"Sim":10256,"ĠThom":10257,"KÃ½":10258,"ĠGÆ°Æ¡ng":10259,"ĠvÃªnh":10260,"Ġmáº£i":10261,"Ġkhuáº¿ch":10262,"zo":10263,"Ġmá»įng":10264,"ĠtrÃ¨o":10265,"Ġdáº»":10266,"Ġ1968":10267,"ĠJuventus":10268,"Náº¥m":10269,"Ġhanh":10270,"ĠPac":10271,"ĠAfghanistan":10272,"Me":10273,"ĠOut":10274,"SÃłi":10275,"ĠTTC":10276,"ĠTÃįCH":10277,"ĠLÆ¯U":10278,"ĠChÄĥn":10279,"ĠÃºp":10280,"made":10281,"CHO":10282,"ĠTan":10283,"lÃªn":10284,"ĠCC":10285,"Ġbeta":10286,"Ġgáº¯m":10287,"ĠLáº¬P":10288,"atar":10289,"Mo":10290,"tÆ¡i":10291,"RI":10292,"Ġgang":10293,"vÃłng":10294,"ĠNGHá»Ĭ":10295,"ĠcÃ¡u":10296,"Ġxá»īu":10297,")âĢ¦":10298,"cáº£m":10299,"bá»ĩnh":10300,"THÆ¯":10301,"Ġcity":10302,"ĠChuyáº¿n":10303,"Triá»ģu":10304,"Ġ670":10305,"oster":10306,"ĠRobert":10307,"ĠBerlin":10308,"zy":10309,"Ġtrá»įt":10310,"evel":10311,"ĠTB":10312,"Ġmag":10313,"ĠhÃŃ":10314,"ĠSÃĵC":10315,"HÃ´n":10316,"ĠtÆ¡i":10317,"ĠCHá»¨NG":10318,"ĠPA":10319,"ĠbÃ¨o":10320,"ĠDOWNLOAD":10321,"ret":10322,"ĠTHÃĬM":10323,"ĠnáºŃp":10324,"94":10325,"ĠTháº±ng":10326,"Ġthen":10327,"Ġinfo":10328,"Ġri":10329,"ĠHÃºt":10330,"HÄĲ":10331,"Bá»¯a":10332,"erson":10333,"ĠÆ¯U":10334,"ĠPP":10335,"Ġcty":10336,"ĠCollagen":10337,"Ġá»¨NG":10338,"Ġnheo":10339,"Ġngá»Ńi":10340,"Uá»ĶI":10341,"ĠVen":10342,"Ġáº¨n":10343,"ĠSK":10344,"ÄĳÄĥng":10345,"Diá»ĩp":10346,"ĠMáº«n":10347,"ĠCÃģ":10348,"Máº¥t":10349,"ĠbáºŃy":10350,"Ġá»¦":10351,"ĠHiá»ĥm":10352,"ĠSet":10353,"ĠChiáº¿u":10354,"ĠCorp":10355,"ĠTab":10356,"ĠNobel":10357,"Tam":10358,"guyÃªn":10359,"ĠÄĳÃ´la":10360,"ids":10361,"Ġmáº©u":10362,"»Ńu":10363,"VOV":10364,"ĠGre":10365,"NGÃĢY":10366,"ĠCUNG":10367,"nguyÃªn":10368,"ĠhoÃ¡n":10369,"ĠÃįCH":10370,"ĠTAY":10371,"cess":10372,"1975":10373,"Tay":10374,"ChÃ¡u":10375,"ĠTW":10376,"º®P":10377,"ASA":10378,"CHI":10379,"TQ":10380,"Ġváº¯n":10381,"ĠTá»įa":10382,"eymar":10383,"Dá»°":10384,"trá»«":10385,"ĠhÅ©":10386,"ĠSÃģNG":10387,"ĠSN":10388,"ĠSá»¨C":10389,"LÃ¡":10390,"ĠFlash":10391,"ĠNext":10392,"doanh":10393,"ĠxÃ¹":10394,"Ĥ«":10395,"ĠSD":10396,"dragon":10397,"Ġdáº§m":10398,"ĠNissan":10399,"ĠNhiá»ħm":10400,"cos":10401,"tÃŃnh":10402,"ĠngÃ²i":10403,"Micro":10404,"Ġkáº»o":10405,"Man":10406,"off":10407,"ĠBI":10408,"Ġblue":10409,"Ġhacker":10410,"Ġchá»¯ng":10411,"nolog":10412,"ĠAk":10413,"Ġenz":10414,"ĠÄĳá»±c":10415,"ushi":10416,"BL":10417,"ĠLife":10418,"ĠTexas":10419,"ĠNháº¥n":10420,"Ġmá»ĭ":10421,"ĠQUÃĿ":10422,"ĠSÆ°Æ¡ng":10423,"Ġfol":10424,"ĠLHQ":10425,"ĠTotte":10426,"Ġváº§y":10427,"ĠResidence":10428,"ĠgiÃ¢":10429,"ĠMá»ªNG":10430,"ĠShar":10431,"ĠHTML":10432,"Ġá»©":10433,"ĠHáº¿t":10434,"ĠPHá»¤C":10435,"ĠThá»±":10436,"tric":10437,"ĠLas":10438,"blog":10439,"Ġ260":10440,"ĠnhÃºn":10441,"ĠTottenham":10442,"ĠTiÃª":10443,"ĠÄĲÃ¡n":10444,"Ġbai":10445,"ĠBat":10446,"chuyÃªn":10447,"âĢ¦âĢĿ.":10448,"Ġen":10449,"ĠVáº¬T":10450,"TÃ´n":10451,"Äĳiá»ĥm":10452,"PhÃŃ":10453,"âĹı":10454,"QU":10455,"Ġvun":10456,"ĠngÃł":10457,"º´NG":10458,"ĠVFF":10459,"xt":10460,"NHá":10461,"Ġmake":10462,"ĠÃ´i":10463,"ĠJenn":10464,"ika":10465,"Ġ103":10466,"una":10467,"ĠClub":10468,"ĠLouis":10469,"ĠTNCS":10470,"Ġscandal":10471,"ĠLenovo":10472,"earch":10473,"ager":10474,"ĠÄĲá»Ļt":10475,"itamin":10476,"ĠNáº´NG":10477,"Vinh":10478,"No":10479,"ĠSk":10480,"fer":10481,"91":10482,"ĠForum":10483,"Sáº¯c":10484,"Ġnáº·n":10485,"cial":10486,"Kháº£o":10487,"ĠComments":10488,"ĠHoáº¡ch":10489,"ĠNINH":10490,"âĨĲ":10491,"ĠNá»Ĺi":10492,"ĠmÆ°á»Ľt":10493,"ká»¹":10494,"Ġghe":10495,"col":10496,"ÄĲÆ°Æ¡ng":10497,"aku":10498,"ĠtrÃ²ng":10499,"ĠTá»Ľ":10500,"Ġtá»§i":10501,"ĠGuar":10502,"ĠSI":10503,"Háº¡n":10504,"ffee":10505,"els":10506,"%),":10507,"Ġtrá»ĩ":10508,"VA":10509,"vard":10510,"SH":10511,"Ġoli":10512,"Ġsum":10513,"ĠTRá»ĮNG":10514,"KhÃ³":10515,"Ġ1991":10516,"Ġ135":10517,"1000":10518,"ĠPep":10519,"ĠCop":10520,"ĠRad":10521,"read":10522,"Ġngá»«":10523,"glish":10524,"ĠnhÄ©":10525,"ĠCHÃĤU":10526,"ĠOk":10527,"Äĳáº¿n":10528,"Ġbá»Ļn":10529,"Ġnghiáº¿n":10530,"Ġáº¯t":10531,"ĠSep":10532,"Thá»ĭt":10533,"Ġkhoanh":10534,"ĠHOÃĢN":10535,"Ġrá»ĳn":10536,"ĠnÃ²ng":10537,"Ġben":10538,"BH":10539,"ĠPhÃ¡i":10540,"ĠNguyÃª":10541,"Ġáº¯c":10542,"ĠCAM":10543,"Ġ190":10544,"Má»ĳi":10545,"ÃĶi":10546,"BSCL":10547,"apan":10548,"organ":10549,"ĠXH":10550,"alk":10551,"PHá":10552,"ĠNGO":10553,"Ġsá»§ng":10554,"ĠTá»Ļc":10555,"Cl":10556,"ĠLight":10557,"TRANG":10558,"ĠPhaolÃ´":10559,"ĠFort":10560,"Ġáº¤y":10561,"oni":10562,"Ġur":10563,"ĠTÃ½":10564,"ĠFi":10565,"ĠnÄĥn":10566,"sit":10567,"ĠMÆ°a":10568,"ĠKÃª":10569,"ĠÄĲáºłO":10570,"vie":10571,"ĠChá»Ŀ":10572,"ĠTÃł":10573,"ĠXU":10574,"ĠrÃªu":10575,"Ġsáº§n":10576,"ĠTrans":10577,"Ġwin":10578,"ĠCasio":10579,"Chat":10580,"ĠnhÃµm":10581,"gar":10582,"º¨U":10583,"ChÃ¢u":10584,"Ġare":10585,"ÄĲoáº¡n":10586,"ĠSM":10587,"BáºłN":10588,"Ġtoilet":10589,"TrÃ¡nh":10590,"âĢĿ-":10591,"ĠÆłn":10592,"ĠNáº¯m":10593,"ĠNHIá»ĨM":10594,"Ġráº«y":10595,"ĠbÃłnh":10596,"Ġthá»ıi":10597,"ĠngÆ°á»£ng":10598,"ĠRau":10599,"Ġline":10600,"ĠAndre":10601,"Ġcá»§i":10602,"Nhiá»ĩt":10603,"ĠLá»°C":10604,"Ġstyle":10605,"thuá»Ļc":10606,"FL":10607,"ĠGIáº¢M":10608,"order":10609,"Soi":10610,"ĠCHIáº¾N":10611,"AIDS":10612,"Ġoi":10613,"news":10614,"ĠDÆ¯á»łNG":10615,"ÌĢ.":10616,"ĠVHTT":10617,"ĠCry":10618,"ĠBel":10619,"Ġxá»īn":10620,"ĠCHUáº¨N":10621,"tuá»Ļt":10622,"tox":10623,"ĠNgá»Ļ":10624,"tham":10625,"ĠVlad":10626,"Se":10627,"On":10628,"Ġgá»Ľm":10629,"via":10630,"ĠJer":10631,"hm":10632,"ĠNIá»ĨM":10633,"ĠLá»ĩnh":10634,"ift":10635,"ĠNÃĢY":10636,"ĠNguyá»ĩn":10637,"Ġhoay":10638,"ĠQuÃ¡ch":10639,"ĠCáº¡nh":10640,"Ġor":10641,"Ġdáº«u":10642,"Chá»£":10643,"Ġtháº¹n":10644,"ribank":10645,"Ġmel":10646,"Show":10647,"ĠVietin":10648,"ĠGiáº£n":10649,"ĠBaby":10650,"olet":10651,"Ġsá»¥c":10652,"ĠUyá»ĥn":10653,"ĠKIáº¾M":10654,"ĠrÃłnh":10655,"²NG":10656,"GIá»ļI":10657,"ĠTpHCM":10658,"Ġváº©y":10659,"ĠKhÃ¡ng":10660,"Ġtriá»ģn":10661,"zen":10662,"ĠHT":10663,"ĠWall":10664,"Ġhcm":10665,"den":10666,"Ġláº§y":10667,"ĠDigital":10668,"Ġpixel":10669,"ĠOK":10670,"Ġvv":10671,"TTP":10672,"Ġ230":10673,"ĠngÃ³ng":10674,"fr":10675,"SI":10676,"revi":10677,"cation":10678,"Ġmá»¥":10679,"time":10680,"ĠKHá»İ":10681,"bar":10682,"ju":10683,"Ġ***":10684,"ĠCáº·p":10685,"ĠHá»£i":10686,"ĠElectrolux":10687,"ĠWatch":10688,"Táº¥m":10689,"ĠTTXVN":10690,"Ġtráº»o":10691,"chung":10692,"Ġne":10693,"cháº¿t":10694,"oC":10695,"ĠTivi":10696,"ĠquÃ¢y":10697,"ĠthuyÃªn":10698,"ĠhÆ°Æ¡u":10699,"gio":10700,"ĠSáº§m":10701,"tact":10702,"Ġion":10703,"Ġmá»ĭt":10704,"ness":10705,"Bá»įn":10706,"ĠSung":10707,"ĠÄĲB":10708,"ilm":10709,"ĠTHÃģI":10710,"Ġmiá»ĩn":10711,"ĠThoa":10712,"ĠKÃĬ":10713,"ĠÂ·":10714,"Ġyoutube":10715,"TháºŃm":10716,"ĠBáº®C":10717,"Ġdc":10718,"Ġ5000":10719,"Ġok":10720,"revious":10721,"tá»īnh":10722,"ĠrÆ¡m":10723,"VÃ¹ng":10724,"Dá»ħ":10725,"sto":10726,"ĠTRA":10727,"ĠGirl":10728,"Ġbáº£":10729,"Ġword":10730,"izza":10731,"Ġsá»ĩt":10732,"ange":10733,"Ġtuá»Ļt":10734,"ĠSGK":10735,"axi":10736,"Má»¥n":10737,"ĠBST":10738,"bÃ¬nh":10739,"Ġngoáº·t":10740,"ĠTHÃįCH":10741,"ustin":10742,"ĠnhÄĥ":10743,"ĠIQ":10744,"dam":10745,"ĠKHá»İE":10746,"ĠtuÃ½p":10747,"ĠhÄĥ":10748,"sm":10749,"uz":10750,"ĠHÆ¡i":10751,"ander":10752,"ĠPeter":10753,"ĠDream":10754,"ĠXP":10755,"Sang":10756,"ĠphÃło":10757,"VC":10758,"\":":10759,"táº¥t":10760,"ĠUr":10761,"ĠTHáº¢O":10762,"ĠMO":10763,"ĠTel":10764,"ĠLÃĥ":10765,"ĠvÃ©t":10766,"Ġ650":10767,"zuela":10768,"ĠKHAI":10769,"Ġconvert":10770,"ĠVista":10771,"ĠsÆ°a":10772,"ĠBR":10773,"ĠTÃª":10774,"ĠÄĳay":10775,"Ser":10776,"ĠVKS":10777,"ĠSnapdragon":10778,"ĠLÆ°":10779,"ĠRub":10780,"Ġláº«m":10781,"cn":10782,"Quang":10783,"ĠchÆ¡":10784,"ĠNÃĵI":10785,"ĠDaily":10786,"ĠxÆ°":10787,"trÆ°á»Ľc":10788,"ĠMÃĥI":10789,"obi":10790,"Ġgio":10791,"ĠQatar":10792,"okia":10793,"pho":10794,"ktop":10795,"ĠQue":10796,"ĠTHIÃĬN":10797,"pping":10798,"pi":10799,"ĠVincom":10800,"ĠNhiáº¿p":10801,"ĠMacbook":10802,"ĠVáº¬N":10803,"Ġamin":10804,"ĠÄĲáº¥y":10805,"ashion":10806,"Ġduá»Ĺi":10807,"ĠSunshine":10808,"Iáº¾U":10809,"ĠnhÃŃch":10810,"Ġpass":10811,"ĠÄĲÃĶ":10812,"ĠbÆ°ng":10813,"ĠKhÃ¡i":10814,"atican":10815,"ĠNGÃĢNH":10816,"ĠGÃ¢y":10817,"ĠÄĲÃĥI":10818,"bÃł":10819,"nay":10820,"¬I":10821,"ĠPalace":10822,"ım":10823,"Ġcháº¯p":10824,"Äĳáº¥t":10825,"ffe":10826,"ĠSÃ³ng":10827,"ĠvÆ¡i":10828,"verter":10829,"Ġbanh":10830,"âĦ¢":10831,"ghe":10832,"Ġsá»Ļ":10833,"uary":10834,"ĠThÃª":10835,"ĠLá»Ħ":10836,"tá»ķng":10837,"ray":10838,"ĠDANH":10839,"Ġá»ıi":10840,"CHá»¦":10841,"Ġitem":10842,"ĠHA":10843,"ĠNAY":10844,"ĠEVN":10845,"Ġshort":10846,"ĠrÃ¢m":10847,"ĠGiÃªng":10848,"Ġ111":10849,"nova":10850,"cup":10851,"hÃ´":10852,"Cuá»ĳn":10853,"ĠhÃ¬":10854,"elfie":10855,"ĠNap":10856,"file":10857,"ĠLá»ļP":10858,"Ġláº¡y":10859,"\"...":10860,"Ġcáº¥n":10861,"ĠPle":10862,"omega":10863,"Yáº¿u":10864,"ken":10865,"ĠTáº£":10866,"ĠJob":10867,"ĠUSA":10868,"ative":10869,"Ġ1080":10870,"ĠnháºŃm":10871,"ĠngÆ°á»Ľc":10872,"ĠrÃŃt":10873,"mÃ´n":10874,"bu":10875,"Giá»įng":10876,"ĠMap":10877,"sk":10878,"chia":10879,"ween":10880,"iku":10881,"Ġsá»ĵi":10882,"Ġ1800":10883,"Ġ098":10884,"cus":10885,"ĠColor":10886,"uel":10887,"ĠÃ¡t":10888,"Ġ550":10889,"ĠTouch":10890,"ĠGlobal":10891,"ĠPhiáº¿u":10892,"ĠGates":10893,"pto":10894,"ĠGiáº¥c":10895,"tennis":10896,"ĠuyÃªn":10897,"ĠKey":10898,"Ġread":10899,"ĠJung":10900,"ĠSand":10901,"uá»ĵm":10902,"Ġglu":10903,"ĠÃĶi":10904,"»ª":10905,"ĠTá»¤C":10906,"Æ°á»£m":10907,"360":10908,"á»ª":10909,"ĠNhá»±a":10910,"ĲC":10911,"Ġtone":10912,"ĠtÃŃt":10913,"Ná»Ĺi":10914,"ThÆ¡":10915,"Ġdáº¡t":10916,"ĠHigh":10917,"ĠFile":10918,"cáº§n":10919,"ones":10920,"RÃµ":10921,"ĠEX":10922,"Sp":10923,"ĠKHO":10924,"ĠPT":10925,"táº£i":10926,"Ġváº¡t":10927,"ĠUniversity":10928,"Nguy":10929,"ĠHH":10930,"Ġ1960":10931,"ĠmÃºi":10932,"PI":10933,"Ġ999":10934,"New":10935,"ĠGym":10936,"ĠMÄ©":10937,"imir":10938,"Ġxá»ĭn":10939,"ĠChá»¥p":10940,"Ġ???":10941,"ĠJetstar":10942,"ĠHDMI":10943,"ĠSL":10944,"Ġxiáº¿t":10945,"Ġ=))":10946,"NghÄ©":10947,"Ġevent":10948,"Äĳá»ĭa":10949,"ÄĲÃ¡m":10950,"dia":10951,"ĠNáº¡n":10952,"baba":10953,"Ġ1970":10954,"sal":10955,"ĠMur":10956,"ĠChá»Ĺ":10957,"ĠkhÃ¢":10958,"dung":10959,"ĠOld":10960,"care":10961,"ĠÄĳÃ³a":10962,"Lá»Ļ":10963,"colate":10964,"ĠFB":10965,"¿ch":10966,"ĠDiamond":10967,"City":10968,"Ġ116":10969,"ÄĲÃ´":10970,"ĠXung":10971,"cur":10972,"Ġhá»·":10973,"ĠxÃ²e":10974,"Ġrá»£n":10975,"ĠMÃ¢y":10976,"Ġtennis":10977,"Táº¡m":10978,"TáºŃn":10979,"ĠDá»¯":10980,"Ġnao":10981,"row":10982,"thá»§":10983,"XÆ°á»Łng":10984,"ĠRoma":10985,"ĠEp":10986,"ption":10987,"ĠEdge":10988,"oma":10989,"Ġ000":10990,"(*)":10991,"ĠGuardi":10992,"ĠGem":10993,"iko":10994,"bat":10995,"Tá»Ŀ":10996,"Táº§n":10997,"ĠÄĲANG":10998,"Ġoffline":10999,"ĠSteve":11000,"háºŃu":11001,"ugin":11002,"Ġá»ª":11003,"aly":11004,"ÄĲá»Ļt":11005,"Luyá»ĩn":11006,"ism":11007,"Ġupdate":11008,"Ġcr":11009,"Ġhand":11010,"ĠTang":11011,"ĠÄĲBSCL":11012,"GIÃģ":11013,"get":11014,"º¾U":11015,"ná»¯":11016,"ĠNgá»ĵi":11017,"Ġsuyá»ħn":11018,"ĠOscar":11019,"tuc":11020,"tletico":11021,"ĠJul":11022,",âĢ¦.":11023,"báº±ng":11024,"ĠÄĲHQG":11025,"Ġdiá»ħu":11026,"Ġmáº¥u":11027,"uli":11028,"Ġmá»Ľ":11029,"ĠVUI":11030,"Ġsta":11031,"ĠCur":11032,"ĠbÆ°á»Ľu":11033,"ĠPháºŃn":11034,"sai":11035,"ĠNeymar":11036,"ĠAB":11037,"Äĳiá»ĩn":11038,"Ġomega":11039,"Pin":11040,"Vay":11041,"field":11042,"Comment":11043,"Ġ1954":11044,"īP":11045,"Loa":11046,"loáº¡i":11047,"Ġteo":11048,"une":11049,"ĠKTS":11050,"ĠLÆ°á»£c":11051,"Ġfree":11052,"?\".":11053,"ĠmÃ¬n":11054,"ĠChÆ°":11055,"ĠNATO":11056,"Å¨NG":11057,"bÃªn":11058,"ĠMs":11059,"ĠColom":11060,"ĠMail":11061,"ĠChÃłm":11062,"ĠBQT":11063,"ĠVá»°C":11064,"Ġngá»£p":11065,"ĠAward":11066,"ĠÃºng":11067,"ĠTrade":11068,"ĠMoto":11069,"ĠCang":11070,"ĠkhÄĥng":11071,"ĠKHUYáº¾N":11072,"ĠlÃ³e":11073,"nÃªn":11074,"ĠBeach":11075,"ĠNÃĵNG":11076,"ĠÄĳá»Ĺi":11077,"pm":11078,"tial":11079,"PR":11080,"má»Ľi":11081,"Ġyá»":11082,"Nhiá»ĩm":11083,"ĠNÃ©":11084,"ÍĢ":11085,"bs":11086,"ĠEther":11087,"chen":11088,"Äĳá»Ļc":11089,"ĠBCH":11090,"ĠVÆ°á»£t":11091,"ĠLumia":11092,"Ġthá»«ng":11093,"tÃ£":11094,"Ġnhá»ĩn":11095,"ĠTÃĤY":11096,"NA":11097,"ÄĲáº©y":11098,"Ġray":11099,"sulin":11100,"ĠchuÃ¢":11101,"ĠÆ":11102,"ĠVÃłnh":11103,"ĠKáº¡n":11104,"ĠNang":11105,"ĠNghÃ©":11106,"ĠkÃ©n":11107,"ĠBá»ĵi":11108,"Niá»ģm":11109,"ĠTáº©y":11110,"Káº¾T":11111,"ĠpH":11112,"Ġnem":11113,"ĠXK":11114,"ĠPacific":11115,"Ġsedan":11116,"long":11117,"ĠKHáº¨U":11118,"EA":11119,"ĠIreland":11120,"ĠlÃ¬a":11121,"ĠMTTQ":11122,"ĠToshi":11123,"ĠSeries":11124,"Ġ1989":11125,"ery":11126,"ĠRanger":11127,"Ġhá»Ŀn":11128,"Ġnai":11129,"vien":11130,"ĠPHONG":11131,"gap":11132,"ĠlÃ¹n":11133,"ĠXÆ°á»Łng":11134,"ĠðŁĺ":11135,"oda":11136,"trÃ¡i":11137,"ĠÄĲiÃª":11138,"VTC":11139,"Ġ1988":11140,")...":11141,"gÃ¢y":11142,"ĠMess":11143,"ĠHá»İI":11144,"ĠMir":11145,"ĠtÃ£":11146,"ĠkhÄĥ":11147,"irl":11148,"NgÃłi":11149,"ĠTue":11150,"Ġhit":11151,"Ġnil":11152,"rop":11153,"ĠMÃ¡i":11154,"ĠÄĲoan":11155,"Ġloay":11156,"Ġnáº»o":11157,"Ġsáº«m":11158,"ĠTÃ¡i":11159,"cÃ¹":11160,"Ngáº¯m":11161,"2002":11162,"ĠSJC":11163,"orp":11164,"Khá»ĳi":11165,"ĠEL":11166,"ĠvÃ£ng":11167,"Ġmp":11168,"vu":11169,"ĠchÃłi":11170,"Ġváº¡":11171,"Łm":11172,"ĠNÃ³ng":11173,"ĠGÃĴN":11174,"101":11175,"Nghá»ģ":11176,"Ġsá»Łi":11177,"Ġváº©n":11178,"ion":11179,"MÃ¡ch":11180,"ĠNat":11181,"ĠPSG":11182,"bourne":11183,"ĠSto":11184,"Ġcookie":11185,"dÃ¢n":11186,"Ġkey":11187,"ĠPHá»ĲI":11188,"ĠNon":11189,"phÆ°Æ¡ng":11190,"ĠVilla":11191,"Ġroi":11192,"ĠAudio":11193,"Äĳang":11194,"ged":11195,"ĠyÃª":11196,"UD":11197,"Ġdáº±n":11198,"ĠCHá»ĲNG":11199,"ĠBAY":11200,"thiÃªn":11201,"sch":11202,"ĠOai":11203,"ĠtrÆ°á»£ng":11204,"PG":11205,"cin":11206,"ĠÆ¯Æ¡ng":11207,"Ġpar":11208,"Bi":11209,"ĠFrancisco":11210,"Ġoai":11211,"ĠlÃºt":11212,"ĠHanoi":11213,"ĠbÃ¹i":11214,"ĠMá»ĩnh":11215,"ĠFanpage":11216,"Ġ!!":11217,"Tu":11218,"ĠVenezuela":11219,"Ġrá»ĵ":11220,"ject":11221,"ĠBeta":11222,"NHÃĢ":11223,"ĠÄĳÆ°Æ¡c":11224,"ĠMá»¥n":11225,"ĠRio":11226,"comm":11227,"Ġbáº§n":11228,"ĠInox":11229,"Há»Ĩ":11230,"ĠSite":11231,"set":11232,"ĠSuá»ĳt":11233,"ido":11234,"iff":11235,"ĠTime":11236,"ĠHungary":11237,"ĠCHÃļA":11238,"ĠDoÃ£n":11239,"hÃłnh":11240,"bá»ĭ":11241,"AA":11242,"ĠDIá»ĨN":11243,"ĠÄĲÃ¡m":11244,"KhÃ¡nh":11245,"ĠNhau":11246,"ĠSing":11247,"ĠCÃĤU":11248,"Ġnáº¥c":11249,"ĠÃ³ng":11250,"ĠGel":11251,"Ġnháº½":11252,"ĠLexus":11253,"ĠVÃĢNG":11254,"ican":11255,"ká»ĥ":11256,"Mobile":11257,"umi":11258,"ĠVatican":11259,"ĠTáº¯c":11260,"Láº¡c":11261,"ĠEng":11262,"ĠBIá»ĤU":11263,"spot":11264,"giáº£m":11265,"ĠTHÆ¯á»ľNG":11266,"ÃĵN":11267,"Äĳá»ĵ":11268,"EB":11269,"Ġas":11270,"ĠBarack":11271,"Kháº¯c":11272,"vis":11273,"ĠKÃ¬":11274,"ĠdÆ¡":11275,"phu":11276,"QUY":11277,"ĠCá»¬A":11278,"ĠHun":11279,"ĠVladimir":11280,"ĠCommons":11281,"ĠcÃ¹":11282,"Ġ720":11283,"ĠImplant":11284,"des":11285,"ĠNGOÃĢI":11286,"º³n":11287,"ĠKyo":11288,"nhiá»ģu":11289,"ĠAlbum":11290,"rá»":11291,"ĠÃ¹":11292,"ĠTRIá»ĨU":11293,"Cafe":11294,"Ġ<<":11295,"ĠTown":11296,"talogue":11297,"ĠPhotoshop":11298,"ĠMáº¸":11299,"ese":11300,"Be":11301,"ĠHappy":11302,"Náº¯m":11303,"tuÃ´n":11304,"ĠNgá»¥y":11305,"My":11306,"ĠHÃĢN":11307,"Ġzin":11308,"Vitamin":11309,"ÃĤNG":11310,"ania":11311,"ĠMÃ¨o":11312,"Ġhoá":11313,"ĠNgÄĥn":11314,"Mi":11315,"£c":11316,"Ná»ģn":11317,"ĠNhÃ¡":11318,"Ġdá»Ļt":11319,"ĠCá»«":11320,"sche":11321,"irst":11322,"loween":11323,"Ġgram":11324,"ealth":11325,"Ġnháº§y":11326,"Ġdiá»ģu":11327,"onn":11328,"ĠnghÃ©n":11329,"ĠnghÃłnh":11330,"ĠVID":11331,"ĠsÃ²":11332,"tuáº¥n":11333,"º¬U":11334,"ĠAtletico":11335,"ĠtuÃ´n":11336,"ĠTae":11337,"ĠLad":11338,"ĠtÃŃa":11339,"bong":11340,"berry":11341,"ĴN":11342,"Ġ106":11343,"Review":11344,"Ġnail":11345,"ĠMiáº¿u":11346,"Ġcarbon":11347,"ailer":11348,"vÃło":11349,"ĠEnglish":11350,"ĠTIáº¾N":11351,"ĠFestival":11352,"ple":11353,"ĠBusiness":11354,"KhÃ´i":11355,"Ġá»ķi":11356,"ĠBá»¯a":11357,"Ġ1500":11358,"ĠDuá»ĩ":11359,"Ġfont":11360,"CHÃļ":11361,"ĠLá»Ĺ":11362,"ĠAlpha":11363,"ĠMusic":11364,"ÄĳÃ¢y":11365,"ĠNguyen":11366,"cáº£":11367,",,":11368,"ĠLive":11369,"ĠxÃŃt":11370,"====":11371,"ĠhÃº":11372,"ĠCook":11373,"âĪ":11374,"Tráº¡ng":11375,"phá»¥":11376,"Ġtuáº¥n":11377,"Ġsoda":11378,"Ġhardcore":11379,"ĠVC":11380,"cÃ¢m":11381,"Ġmá»ĵng":11382,"Ġâĸ":11383,"bÃŃ":11384,"ĠÄĳong":11385,"Ġ1979":11386,"........":11387,"365":11388,"Ġvir":11389,"ĠOri":11390,"ĠÄĲÄĥk":11391,"ĠVinamilk":11392,"2001":11393,"máº¥t":11394,"Ãįt":11395,"Ġhá»Ŀ":11396,"ĠMÃ¡u":11397,"Ngá»ĵi":11398,"forum":11399,"ĠWat":11400,"GÆ°Æ¡ng":11401,"ĠLá»¢I":11402,"Ġhoc":11403,"ogr":11404,"Ġthá»Ľt":11405,"ĠTáº¶NG":11406,"ĠTá»ģ":11407,"ĠNá»ĳi":11408,"ĠTechnolog":11409,"ĠDesign":11410,"LINE":11411,"ĠStu":11412,"máºŃt":11413,"ĠWTO":11414,"ĠÄĳÃły":11415,"ĠmÃ¡ng":11416,"ĠIdol":11417,"Ġ112":11418,"GDÄĲT":11419,"wi":11420,"ĠYu":11421,"ĠMÃ³ng":11422,"ĠDÆ°á»Ŀng":11423,"Ġ2025":11424,"ĠApr":11425,"ĠsuÃ´ng":11426,"Ġlogis":11427,"sky":11428,"vui":11429,"Rau":11430,"máº·t":11431,"ĠhuyÃª":11432,"ĠNhÃ¬":11433,"ĠCHÆłI":11434,"táº¡t":11435,"tá»ĳi":11436,"ĠAFP":11437,"Ġláº¹":11438,"ĠRá»«ng":11439,"ĠSÃĢI":11440,"XuÃ¢n":11441,"LÃ²ng":11442,"Ġnháº±n":11443,"Ġráº±m":11444,"Ġgout":11445,"ĠLÃ£":11446,"ĠLS":11447,"Ġnáº¯n":11448,"ĴI":11449,"ĠLinux":11450,"º¤M":11451,"ĠKu":11452,"minh":11453,"ĢM":11454,"ĠSanta":11455,"online":11456,"ĠÄĳÃ¹ng":11457,"risti":11458,"lanh":11459,"ĠBá»ĳi":11460,"Ġ0909":11461,"ĠtrÃ´":11462,"wan":11463,"Bá»ĺ":11464,"ĠLÃĴNG":11465,"RÆ°á»£u":11466,"Ġchá»ķi":11467,"Ļng":11468,"DR":11469,"ĠbÃŃch":11470,"sey":11471,"ĠLU":11472,"ĠBack":11473,"urity":11474,"gá»ĵm":11475,"ĠÄĲá»ĮC":11476,"Ġláº©n":11477,"Tá»ĶNG":11478,"Ġvip":11479,"NgÃ´":11480,"tap":11481,"ĠTHAO":11482,"ĠGiuse":11483,"¬a":11484,"Ġout":11485,"ĠKan":11486,"Ġ138":11487,"nghe":11488,"tina":11489,"Báº¢NG":11490,"mega":11491,"ĠchÃ³c":11492,"ĠBri":11493,"Ġmac":11494,"ĠHinh":11495,"ĠQH":11496,"ĠTHÆł":11497,"ĠMekong":11498,"ĠNÃª":11499,"bÃ¡o":11500,"ĠStan":11501,"ĠâĻ":11502,"ĠTáº¢I":11503,"ĠHarvard":11504,"ider":11505,"Ġná»±c":11506,"eek":11507,"dai":11508,"Ġamidan":11509,"osite":11510,"Ġreview":11511,"CÃłng":11512,"Ninh":11513,"ĠJean":11514,"Ġdáº¿":11515,"ĠHÆ°á»Łng":11516,"tÃ¹y":11517,"Ġtáº¡t":11518,"kháº":11519,"aker":11520,"ĠSáºº":11521,"ĠliÃªm":11522,"Ġ0937":11523,"ĠÄĲÃģNH":11524,"Má»ĺT":11525,"Láº¡y":11526,"ĠBeauty":11527,"ĠThÃ¢m":11528,"Plus":11529,"danh":11530,"ĠChap":11531,"EG":11532,"ĠTá»ī":11533,"Ġcomments":11534,"âĢİ":11535,"ĠNXB":11536,"lina":11537,"ĠThuáº§n":11538,"ĠTrá»¯":11539,"Ġphá»ĵn":11540,"Ġ2021":11541,"ental":11542,"ĠÄĲáº¢NG":11543,"Niá»ģng":11544,"gá»įi":11545,"ĠSho":11546,"Ġass":11547,"stan":11548,"ĠMega":11549,"Ġhd":11550,"ĠÃļt":11551,"NgÆ°á»£c":11552,"ĠChile":11553,"ĠThÃ¡c":11554,"ĠTrá»ĵng":11555,"ĠcÃ¢m":11556,"ĠPre":11557,"ħu":11558,"ĠMunich":11559,"NK":11560,"?âĢĿ,":11561,"phÆ°á»Ŀng":11562,"ĠKIá»ĤM":11563,"ĠMáºłNG":11564,"KINH":11565,"ĠCÃ¢":11566,"Âº":11567,"ĠÃ¡ch":11568,"ÄĲÃ¢u":11569,"Ġhuá»³nh":11570,"ĠTem":11571,"____":11572,"ï¼":11573,"Ġ113":11574,"dien":11575,"Ġrock":11576,"ĠSÃģT":11577,"ĠSakura":11578,"ĠHDV":11579,"ĠlÃºn":11580,"Ná»ķi":11581,"VÆ°á»£t":11582,"TrÃ¢n":11583,"ĠJae":11584,"ĠPháº¥n":11585,"ĠPoly":11586,"ĠTOEIC":11587,"ĠBy":11588,"Ġtopic":11589,"Ġgiá»Ĺ":11590,"Ġgáº£":11591,"lá»ĭch":11592,"tail":11593,"ĠJin":11594,"lich":11595,"ĠTáº¡m":11596,"ĠLáº¦N":11597,"Ġdoáº¡":11598,"Ġ1986":11599,"ĠCMND":11600,"ake":11601,"ĠvÅ©ng":11602,"face":11603,"ĠGl":11604,"Ġgiá»¡n":11605,"ĠÄĲáº©y":11606,"ĠgÆ°á»£ng":11607,"ĠDisney":11608,"Ġ210":11609,"ĠHOáºłCH":11610,"ĠBern":11611,"ding":11612,"Ġrá»§a":11613,"NhÃ£n":11614,"amine":11615,"DV":11616,"ĠTrá»įn":11617,"edit":11618,"mestay":11619,"Ãµng":11620,"ĠThá»Ŀ":11621,"ĠCiti":11622,"Ġáº£m":11623,"ÃīT":11624,"Previous":11625,"Ġká»ģnh":11626,"ĠCáº¢M":11627,"inja":11628,"ĠPL":11629,"nhanh":11630,"girl":11631,"Ġngá»¥m":11632,"ĠHyun":11633,"Thá»©c":11634,"Ġtáº¥y":11635,"ĠLá»įc":11636,"Ġ107":11637,"ĠCá»ĳng":11638,"Ġtáº¥c":11639,"Ġpan":11640,"imex":11641,"tron":11642,"ison":11643,"·ng":11644,"ĠMall":11645,"Sá»ķ":11646,"ĠXV":11647,"ĠEB":11648,"ĠNhÃłn":11649,"Ġblockchain":11650,"Ġ280":11651,"Phan":11652,"ĠStreet":11653,"Ġâľħ":11654,"ĠthÃ¬nh":11655,"ĠEdi":11656,"°A":11657,"ĠRod":11658,"ĠGÄĲ":11659,"Ġláº³ng":11660,"ĠdÃ£i":11661,"Ġdáº¥y":11662,"Ġstudio":11663,"NLÄĲ":11664,"ĠBlu":11665,"Ġ1982":11666,"ĠNHÃģNH":11667,"Ġbluetooth":11668,"ĠKit":11669,"ĠCÄĲT":11670,"ĠSIÃĬU":11671,"ĠÄĲá»£t":11672,"Ġdáº§y":11673,"VÆ°á»Ŀn":11674,"nho":11675,"ĠSm":11676,"Ġâĺ":11677,"máº¹":11678,"Uáº¾":11679,"Ġhá»Ļt":11680,"viá»ĩc":11681,"hat":11682,"uda":11683,"tas":11684,"ĠVIDEO":11685,"cÃºt":11686,"dor":11687,"Ġchá»ķ":11688,"Ġá»Ĳn":11689,"ĠUB":11690,"Bá»Ļt":11691,"CÃ¡n":11692,"ĠKHOáº¢N":11693,"SEO":11694,"ĠIC":11695,"Ġmiáº¿u":11696,"Ġá»Ĳng":11697,"Sá»°":11698,"ĠJobs":11699,"jo":11700,"Ġ0938":11701,"Ġrá»Ĺ":11702,"ĠAlibaba":11703,"pper":11704,"Ġsub":11705,"ĠASIA":11706,"Ġnhá»£t":11707,"ĠLÃĬN":11708,"ĠBá»ĥ":11709,"thÆ°Æ¡ng":11710,"Thá»§y":11711,"ĠOf":11712,"fone":11713,"ĠBá»Ĳ":11714,"Ġbit":11715,"Ġtitan":11716,"ĠColombia":11717,"ĠInnova":11718,"ĠChim":11719,"ĠDie":11720,"ĠrÃ¹i":11721,"facebook":11722,"tage":11723,"ĠCreative":11724,"VÃ¢n":11725,"Ġdáº³ng":11726,"Ġorder":11727,"Ġ024":11728,"ĠPHÃļC":11729,"Ġ\\\\":11730,"dation":11731,"ĠHá»Į":11732,"ĠCL":11733,"Wik":11734,"ĠÄĲá»ľI":11735,"ĠKÄĲT":11736,"ĠFlorida":11737,"los":11738,"GM":11739,"Ġgiá»Ł":11740,"ĠAnti":11741,"Ġcoin":11742,"ĠPS":11743,"Ġinsulin":11744,"ĠMáº¡n":11745,"Xá»":11746,"má»Ł":11747,"Ġká»ĭ":11748,"Ġháº¥t":11749,"º®N":11750,"ĠLotte":11751,"ĠFe":11752,"Ġnude":11753,"ĠchÆ°á»Łng":11754,"ĠRichard":11755,"VÄ©nh":11756,"ĠPalm":11757,"ĠPales":11758,"Ġbanner":11759,"nha":11760,"ĠTá»µ":11761,"ĠLeg":11762,"ĠTes":11763,"ĠBlockchain":11764,"unette":11765,"nal":11766,"imedia":11767,"ĠMid":11768,"mang":11769,"ĠLá»ľI":11770,"má»Ĺi":11771,"elly":11772,"khoa":11773,"sian":11774,"World":11775,"Read":11776,"ĠCNC":11777,"uma":11778,"ĠMÃĶI":11779,"ÃķI":11780,"ĠcÃºt":11781,"ĠPHP":11782,"ĠNGOáºłI":11783,"º»m":11784,"ĠData":11785,"ĠTRÆ¯á»ļC":11786,"Ġcor":11787,"ĠLINH":11788,"»Ļp":11789,"ĠnhoÃ¡ng":11790,"ĠBia":11791,"pr":11792,"ĠkÃ¨n":11793,"ĠMáºªU":11794,"?)":11795,"goo":11796,"Ġestrogen":11797,"nháº¥t":11798,"Ġbá»ĭa":11799,"Tim":11800,"Ġradio":11801,"ÄĲá»Ĭ":11802,"ĠTá»¥c":11803,"ĠTá»³":11804,"ĠTer":11805,"ĠFoun":11806,"ĠVá»ı":11807,"star":11808,"urt":11809,"ovic":11810,"ĠAgribank":11811,"ĠmáºŃn":11812,"Ġráº§y":11813,"ĠNhÃ£n":11814,"Ġbá»ģnh":11815,"TRá»":11816,"ĠBuffet":11817,"vice":11818,"Ġchao":11819,"ĠChay":11820,"Ġnguyá»ħn":11821,"Ġrá»Ļp":11822,"ĠBush":11823,"ĠNáº¥u":11824,"ONE":11825,"ĠTUá":11826,"\"?":11827,"ĠrÃ¬nh":11828,"ior":11829,"aphic":11830,"ÃļP":11831,"Há»ĺI":11832,"ĠBir":11833,"ĠTar":11834,"Thá»«a":11835,"ways":11836,"oint":11837,"LÃ¢u":11838,"hÆ°á»Ľng":11839,"ĠCÆ¡n":11840,"âĢĿ!":11841,"Ġ1200":11842,"ĠÄĲá»ĭch":11843,"Ġnháºµn":11844,"TU":11845,"ĠThomas":11846,"īu":11847,"ĠdÃ¹m":11848,"ĠMelbourne":11849,"ĠCá»¥m":11850,"Ġ104":11851,"ĠICO":11852,"News":11853,"ĠbÆ°Æ¡":11854,"Ġláº©m":11855,"ĠCapital":11856,"?...":11857,"Táº¯t":11858,"Ġ109":11859,"ĠÄĳá»ĭt":11860,"ĠTrÃłm":11861,"ĠNgá»±":11862,"CÆ¡n":11863,"ĠMá»±c":11864,"cá»ķ":11865,"âĢ¦).":11866,"ĠDen":11867,"bus":11868,"ĠBÃĵNG":11869,"DÃłn":11870,"ĠbÃ¹a":11871,"ĠBeck":11872,"ordan":11873,"Ġlá»£p":11874,"CÃ¢n":11875,"Ġtoáº¡":11876,"ĠCel":11877,"bra":11878,"CÃ¡nh":11879,"ĠPhÃ¡o":11880,"gapixel":11881,"Ġcup":11882,"ĠCSÄĲT":11883,"De":11884,"ĠCX":11885,"ĠMÃ£o":11886,"ĠSaint":11887,"RL":11888,"Honda":11889,"ĠGiÃłu":11890,"há»£p":11891,"ĠChÃ¡y":11892,"ĠPHá»Ķ":11893,"lÃŃt":11894,"Ġngao":11895,"ĠhÃ³t":11896,"LED":11897,"ĠCamb":11898,"cell":11899,"ĠPhilips":11900,"Tá»Ļi":11901,"Ġselfie":11902,"Ġbuá»ĵm":11903,"ĠÄĲÆ°":11904,"ĠODA":11905,"xu":11906,"tá»·":11907,"ĠSev":11908,"OM":11909,"ĠTÆ¯á»ŀNG":11910,"BÃ£i":11911,"Ġmil":11912,"uala":11913,"ïĤ":11914,"ĠFeb":11915,"ĠBá»Ŀ":11916,"ĠtrÃłm":11917,"ric":11918,"ĠBosch":11919,"pham":11920,"CÃģCH":11921,"],":11922,"ily":11923,"ĠAv":11924,"ĠAri":11925,"thong":11926,"iller":11927,"rise":11928,"Ġvoucher":11929,"Triáº¿t":11930,"ĠNHIÃĬN":11931,"ĠPremium":11932,"ĠToshiba":11933,"ĠCare":11934,"ĠNá»¥":11935,"ÄĲB":11936,"ĠXUÃĤN":11937,"NS":11938,"TÆ°á»Łng":11939,"ĠDÃ£":11940,"BÃģN":11941,"ĠKhuáº¥t":11942,"ĠGmail":11943,"táºŃp":11944,"ĠGáº¡o":11945,"KhÃ¡i":11946,"ĠLock":11947,"hima":11948,"Ġnáº»":11949,"ĠKm":11950,"Ġ256":11951,"Ġcáº±n":11952,"Trá»ĵng":11953,"oss":11954,"ĠBBQ":11955,"ká»³":11956,"ille":11957,"zi":11958,"ĠchÃłm":11959,"Ġquáº·ng":11960,"under":11961,"won":11962,"ĠLoÃłi":11963,"ĠrÆ¡":11964,"ĠThÃ¬n":11965,"Nháº¥t":11966,"dra":11967,"ĠImper":11968,"ĠIM":11969,"ĠKore":11970,"urn":11971,"ĠKaraoke":11972,"ency":11973,"ĠBÃ²":11974,"ĠÄĲá»£i":11975,"ĠBuá»ĵn":11976,"ĠTÆ°á»Ľc":11977,"Lan":11978,"ĠngÃ¹i":11979,"ĠBÃĢN":11980,"https":11981,"ĠSchool":11982,"Äĳá»Ļng":11983,"tings":11984,"ĠDÃĢNH":11985,"ÄĳÆ¡n":11986,"ĠControl":11987,"MUA":11988,"ĠShowroom":11989,"Ġwindows":11990,"Ġmuá»ĳng":11991,"Tháº£m":11992,"Ġná»¡":11993,"Ġhoáº£":11994,"MÆ°a":11995,"Ġnháº¿ch":11996,"ĠMá»ĢM":11997,"ĠphÃ¨n":11998,"umpur":11999,"Ġcháº¯t":12000,"Ġoxi":12001,"ĠPVN":12002,":âĢĿ":12003,"Ġ),":12004,"ĠTHáº¬T":12005,"fford":12006,"hÆ¡n":12007,"VT":12008,"ĠRÃºt":12009,"ĠÃģO":12010,"ĠquÄĥng":12011,"Ġpháº£ng":12012,"ĠCNN":12013,"ÄĲIá»ĢU":12014,"ĠWater":12015,"ĠBIá»ĤN":12016,"ÃĻA":12017,"Lá»¥c":12018,"Ġlogistics":12019,"chÆ¡i":12020,"RÄĥng":12021,"nÃ³":12022,"º¾P":12023,"ĠXIN":12024,"ĠFre":12025,"chinh":12026,"ĠTrá»Ļn":12027,"ĠNá»ĲI":12028,"ĠSá»Ńu":12029,"ĠgiÃ¹m":12030,"ters":12031,"ĠTÃ¡":12032,"TÃ¡i":12033,"HI":12034,"ĠPalestine":12035,"Tech":12036,"ĠTRáº¢":12037,"ĠKS":12038,"ĠPri":12039,"Ġvá»¥t":12040,"ku":12041,"Ġpop":12042,"Ġthoi":12043,"ĠLá»Ńa":12044,"ĠVHTTDL":12045,"ĠPiano":12046,"cá»Ńa":12047,"ĠMul":12048,"ĠngÃ¡t":12049,"ĠDÃĻNG":12050,"Gb":12051,"Ġ0902":12052,"watch":12053,"ĠHalloween":12054,"ical":12055,"VID":12056,"emy":12057,"ann":12058,"idas":12059,"Ġgá»ıi":12060,"ĠHK":12061,"cra":12062,"Ġchá»ĵn":12063,"ĠGer":12064,"Äĳá»Ļ":12065,"well":12066,"Tá»Ľ":12067,"ĠBiá»ĩn":12068,"apphi":12069,"ĠNgo":12070,"ĠPol":12071,"Ġsáº¥m":12072,"Microsoft":12073,"ĠSoo":12074,"Cháº¡y":12075,"ThÆ°á»Łng":12076,"ĠADN":12077,"Ġbá»īm":12078,"ĠTÃ³m":12079,"ĠTÃło":12080,"Ġfuck":12081,"ĠNgáº¡o":12082,"cÄĥ":12083,"ĠMassage":12084,"ĠmÆ°á»Ľp":12085,"ĠNick":12086,"aris":12087,"aii":12088,"ná»Ļi":12089,"ĠVáº£i":12090,"DÄ©":12091,"ĠLá»ļN":12092,"Ġoliu":12093,"ĠVillas":12094,"ĠCharles":12095,"ĠSolu":12096,"BO":12097,"anin":12098,"TD":12099,"ĠAven":12100,"bá»Łi":12101,"EP":12102,"bá»ı":12103,"Ġtráº§u":12104,"ĠVB":12105,"ĠÄĳá»į":12106,"ĠTáº¯m":12107,"Ġnilon":12108,"110":12109,"ĠBÄĥ":12110,"nhan":12111,"PM":12112,"dar":12113,"thuc":12114,"emote":12115,"quÃ¡":12116,"ĠThá»īnh":12117,"ĠTrá»©ng":12118,"tÃ½":12119,"ĠTal":12120,"ĠniÃª":12121,"arch":12122,"thÃ¹ng":12123,"Ġuyá»ĥn":12124,"ĠHÄĲXX":12125,"âĺħ":12126,"ĠONL":12127,"ĠGiÃł":12128,"Xi":12129,"KHÃģ":12130,"ĠDÃ¢u":12131,"ĠLuc":12132,"HÃºt":12133,"ĠKÃ©o":12134,"ĠKHÃį":12135,"VÃµ":12136,"Ġtrá»Ĺi":12137,"tian":12138,"Ġmá»ģ":12139,"Ļp":12140,"Ġdiesel":12141,"lav":12142,"ĠHoang":12143,"ĠLáº¡":12144,"ĠManh":12145,"ĠÄĲá»ĺC":12146,"ĠCá»ı":12147,"pn":12148,"ĠNÃĶNG":12149,"Ġnham":12150,"ĠNáº¯ng":12151,"Ġsamsung":12152,"Ġmat":12153,"ÃĵP":12154,"ĠPrin":12155,"Ġcháº§m":12156,"ĠcÄĥ":12157,"mon":12158,"ĠShe":12159,"tw":12160,"Vua":12161,"»Ķ":12162,"Toyota":12163,"ĠKhuÃ´n":12164,"Ġdáº«m":12165,"gy":12166,"ĠTráº¡ng":12167,"á»Ķ":12168,"sá»Ń":12169,"df":12170,"ĠTiá»ĩp":12171,"ĠliÃªu":12172,"ĠtÃ½":12173,"Tráº¯c":12174,"cle":12175,"Ġphá»Ļng":12176,"ĠGiÃ¢y":12177,"ifer":12178,"Ġtáº±m":12179,"ĠTIÃĬN":12180,"Ġluá»ĵn":12181,"ĠgÃ¡n":12182,"En":12183,"ĠWilliam":12184,"YÃªn":12185,"ĠAngela":12186,"ĠCá»°C":12187,"Huy":12188,"Ġ:))":12189,"ĠLáºłNH":12190,"Pod":12191,"rum":12192,"EF":12193,"káº»":12194,"Ġpage":12195,"ĠFoundation":12196,"ĠVR":12197,"Phá»ĳ":12198,"ĠkhÃ¢m":12199,"ĠVCCorp":12200,"xanh":12201,"Ġrá»įi":12202,"GV":12203,"ĠTÃ¢":12204,"ĠPhÃªrÃ´":12205,"ĠNGá»®":12206,"ĠOmega":12207,"ÄĲÃ¡":12208,"Ġdown":12209,"º¦Y":12210,"Ġ1872":12211,"ĠNgáº¡n":12212,"BÃ£o":12213,"xÃŃt":12214,"lcomm":12215,"Ġchuá»ĳt":12216,"ĠLumpur":12217,"nld":12218,"ĠPass":12219,"NHNN":12220,"bert":12221,"ĠThÃ´n":12222,"ªA":12223,"ĠChá»©":12224,"Ġhá»ħ":12225,"Ġipad":12226,"ĠTRANH":12227,"ĠONLINE":12228,"ĠnÃŃn":12229,"uit":12230,"TÃ³c":12231,"rao":12232,"ĠJapan":12233,"mÃłu":12234,"ĠVegas":12235,"Ġ117":12236,"ĠMÃĶN":12237,"ĠVietNam":12238,"ĠKuala":12239,"1945":12240,"Ġbá»ĭp":12241,"ĠUltra":12242,"ĠHáº¹n":12243,"ARK":12244,"ĠCAND":12245,"ĠTaylor":12246,"ĠPleiku":12247,"ĠHIá»ĤM":12248,"Ġváº¹o":12249,"ĠPat":12250,"Háº¿t":12251,"ĠBest":12252,"CHUYÃĬN":12253,"khÃ³a":12254,"Ġ118":12255,"ĠMáº¬T":12256,"Khung":12257,"xuáº¥t":12258,"Ġtrá»įc":12259,"LÃłng":12260,"357":12261,"ĠÄĳiáº¿c":12262,"asa":12263,"ĠHá»ĴNG":12264,"Ġá»£":12265,"Ġliu":12266,"ĠTruyen":12267,"ĠHÃĥNG":12268,"âĢľ.":12269,"º¶P":12270,"aro":12271,"SO":12272,"Ġgiáº±ng":12273,"uatin":12274,"Ġgá»Ļp":12275,"ĠnhÃ¢m":12276,"Go":12277,"ĠTUá»ĶI":12278,"ĠForbes":12279,"ĠTRUY":12280,"ĠCoun":12281,"View":12282,"lon":12283,"ĠLÃŃ":12284,"Ġcal":12285,"very":12286,"cÃłn":12287,"vas":12288,"~~":12289,"ĠMary":12290,"MÆ°á»Ŀi":12291,"Ġmica":12292,"ĠHari":12293,"cept":12294,"ĠPhÃºt":12295,"ĠnguÃ´":12296,"nháºŃn":12297,"ĠNTM":12298,"Iá»ĨP":12299,"ĠBá»ģ":12300,"ĠBÃ©o":12301,"pire":12302,"Ġbuffet":12303,"ĠVes":12304,"ĠGÆ°Æ¡m":12305,"SK":12306,"TPO":12307,"Ġ4000":12308,"Ġ9001":12309,"ader":12310,"ĠNGÃĤN":12311,"ristiano":12312,"ĠngáºŃy":12313,"alem":12314,"ĠXANH":12315,"akh":12316,"ĠABC":12317,"ĠBá»Ńu":12318,"ush":12319,"+)":12320,"ĠAdwords":12321,"ÄĲá»£t":12322,"mith":12323,"lov":12324,"Ġcac":12325,"ĠgiÃ´ng":12326,"ĠBom":12327,"ĠDá»«a":12328,"chá»ĳng":12329,"ÄĲTB":12330,"ĠText":12331,"Ġ??":12332,"tiáº¿u":12333,"ĠmAh":12334,"ĠÃģc":12335,"ctor":12336,"lege":12337,"ĠNan":12338,"BET":12339,"pan":12340,"Ġcondotel":12341,"ĠXo":12342,"gn":12343,"ĠGM":12344,"ĠSilicon":12345,"chuyá»ĥn":12346,"ĠLiá»ģn":12347,"ĠÄĲáº²NG":12348,"dobe":12349,"ĠNÃĤNG":12350,"ĠPhÃ©p":12351,"Ġhuá»ĩ":12352,"ĠÄĲáº§y":12353,"ĠSÃ´":12354,"Ġ126":12355,"Ġmui":12356,"reak":12357,"Ġ/>":12358,"ĠTINH":12359,"Ġmas":12360,"Ġsalad":12361,"Æ¯T":12362,"ima":12363,"ĠChÃ³":12364,"Ġháº±n":12365,"ĠTÃŃ":12366,"Ġxáº»o":12367,"Há»ĮC":12368,"ĠHáºłN":12369,"!.":12370,"Ġtiáº¿u":12371,"ĠCHUYá»ĨN":12372,"oiduatin":12373,"ĠLogo":12374,"Ġoanh":12375,"uay":12376,"ĠASIAD":12377,"ĠCamry":12378,"ĠCy":12379,"ĠTHÃĤN":12380,"ĠDiÃªn":12381,"Ġnáº§n":12382,"Ġbá»Ŀi":12383,"Thá»£":12384,"ĠQuyáº¿n":12385,"ĠÂ®":12386,"ĠDam":12387,"ĠChá»īnh":12388,"ĠNÃ©t":12389,"DÆ°":12390,"ĠMÃ¢n":12391,"Xung":12392,"Ġsalon":12393,"ĠSecurity":12394,"ĠSÆ°u":12395,"ĠnhÃ³i":12396,"ĠKhmer":12397,"Giang":12398,"CÄĥng":12399,"ĠRun":12400,"ĠHiÃª":12401,"Na":12402,"Ġdá»ĳt":12403,"ĠTL":12404,"FO":12405,"thao":12406,"gay":12407,"Báº¢N":12408,"PhÃ¹":12409,"âĨĴ":12410,"Ġthui":12411,"ĠchÃ¹ng":12412,"Ġanime":12413,"goÃłi":12414,"ĠvÃºt":12415,"[/":12416,"ĠÃĤM":12417,"ĠGá»ĮI":12418,"Ġvoan":12419,"LÆ°á»£ng":12420,"ĠJam":12421,"ĠDar":12422,"350":12423,"Ġtext":12424,"Ġdriver":12425,"ĠxuÃ´":12426,"ĠThoÃ¡t":12427,"ĠSoft":12428,"ĠMÃ¢u":12429,"giÃºp":12430,"ĠArabia":12431,"Sta":12432,"ĠKhá»ķ":12433,"ĠvÃŃa":12434,"stal":12435,"ĠDaniel":12436,"ĠDáº¦U":12437,"Tui":12438,"Fast":12439,"cago":12440,"Ġbon":12441,"ĠngÃ¡c":12442,"quáº£n":12443,"ÃļNG":12444,"ĠCáº¥n":12445,"Ġbá»ĭch":12446,"ship":12447,"Ġ1950":12448,"eller":12449,"ĠSystem":12450,"yme":12451,"ticle":12452,"ĠHous":12453,"AME":12454,"aroo":12455,"ngoÃłi":12456,"ĠÃ²a":12457,"Bay":12458,"Ġchang":12459,"ĠdÃ¬u":12460,"ĠBloom":12461,"ĠReview":12462,"ĠÄĳá»Ŀm":12463,"ĠTiá»ĩc":12464,"Ġ1985":12465,"!\".":12466,"Ġmon":12467,"ĠJim":12468,"ChiÃªm":12469,"ThÃº":12470,"ĠEdu":12471,"CAM":12472,"µng":12473,"Ġbá»įng":12474,"ĠAwards":12475,"ĠRen":12476,"Ġ119":12477,"ĠVA":12478,"boy":12479,"ĠLÅ©":12480,"VÅ©ng":12481,"Ġráº§u":12482,"ĠhÄĥm":12483,"ĠSkin":12484,"Ġtablet":12485,"ĠGá»ĵm":12486,"nguoiduatin":12487,"ĠUkraina":12488,"cháº¡y":12489,"Ġnháº£":12490,"FT":12491,"eda":12492,"Ġmoi":12493,"eum":12494,"ĠACB":12495,"Ġghá»ģ":12496,"tn":12497,"ĠvÆ°Æ¡":12498,"bÃłn":12499,"ĠMÃĮNH":12500,"NgÄĥn":12501,"ĠFBI":12502,"aa":12503,"ĠTrá»«":12504,"ĠFun":12505,"truong":12506,"ĠKaz":12507,"HA":12508,"Ġ175":12509,"Ġnáº¡c":12510,"ĠMacBook":12511,"ĠTrÃ¡c":12512,"ĠDáºłY":12513,"ĠHÆ°":12514,"main":12515,"ĠCIA":12516,"ĠFox":12517,"Ġ093":12518,"tex":12519,"ĠSSD":12520,"ĠBXH":12521,"ĠquÃ¡ng":12522,"ĠXÆ°a":12523,"BÃ¡ch":12524,"Ġ1972":12525,"ĠHol":12526,"ĠBit":12527,"Ġnháº¡o":12528,"nik":12529,"Ġtá»ĳp":12530,"ĠGhÃ":12531,"ucker":12532,"ĠngÃ³t":12533,"ĠJordan":12534,"Thuá»Ļc":12535,"HÃ©":12536,"ÄĲC":12537,"ĠWEB":12538,"ĠKÃį":12539,"ĠSha":12540,"ĠÄĳÃºt":12541,"mann":12542,"hcm":12543,"kva":12544,"ĠLÃłn":12545,"ĠYang":12546,"Ġviolet":12547,"ĠXÃŃ":12548,"Ġtrá»ĵ":12549,"Ġnhuáº§n":12550,"Ġ1987":12551,"ĠVay":12552,"thá»ĭ":12553,"Ġ090":12554,"ĠVIII":12555,"giÃ¡o":12556,"enh":12557,"ºłP":12558,"ĠLuxury":12559,"ĠÄĲá»©a":12560,"ĠSqua":12561,"thá»ĥ":12562,"Thuáº¿":12563,"icester":12564,"CÆ°":12565,"ĠDÃķI":12566,"ĠÄĲá»ķ":12567,"ĠChiÃªm":12568,"ĠTrÆ°Æ¡":12569,"ĠMH":12570,"ĠMiá»ĩng":12571,"zone":12572,"ĠThÃ¹ng":12573,"ĠCÆ¡m":12574,"VIDEO":12575,"avas":12576,"ogba":12577,"ĠKao":12578,"ĠChrist":12579,"ĠKhoÃ¡ng":12580,"ĠlÃ³ng":12581,"unes":12582,"ĠLÃ£i":12583,"tien":12584,"khÃ³":12585,"ĠBá»Ļi":12586,"TrÃŃ":12587,"Ġgr":12588,"phat":12589,"ĠMass":12590,"Giáº¥c":12591,"ĠBio":12592,"Ġcontact":12593,"Ġvá»ın":12594,"tum":12595,"Ġlive":12596,"ĠBÃºt":12597,"ĠDy":12598,"cker":12599,"LD":12600,"Âł":12601,"biáº¿n":12602,"miá»ħn":12603,"Cloud":12604,"Trá»£":12605,"Ġair":12606,"ĠKHáº¢O":12607,"Ġnhá»įt":12608,"ĠCá»ĳt":12609,"ĠTrafford":12610,"---":12611,"ĠSui":12612,"UYá»ĨT":12613,"º®M":12614,"Ġngá»Ľ":12615,"OáºłN":12616,"Ġdiá»ħm":12617,"Ġgá»Ŀ":12618,"ĠCosta":12619,"bl":12620,"Ã¬a":12621,"ĠAnn":12622,"Thang":12623,"ĠBC":12624,"ĠcÃłn":12625,"QUá":12626,"ÄĲáº¥u":12627,".âĢĭ":12628,"ĠkhÃłn":12629,"ĠThÄĥm":12630,"ĠkhÃ©t":12631,"ĠBK":12632,"ĠTHUá»ĲC":12633,"ÄĲá»ĬA":12634,"âĢĶâĢĶ":12635,"Ġdá»ĥ":12636,"ĠSáº®C":12637,"mAh":12638,"Tuyáº¿n":12639,"ĠVCK":12640,"Ġxáº©y":12641,"ĠHoÃłnh":12642,"ĠGÃ£":12643,"ĠMiáº¿n":12644,"ĠNÆ°Æ¡ng":12645,"Benz":12646,"ĠPhiÃªu":12647,"phan":12648,"ĠSecret":12649,"UM":12650,"Ġá»Ńng":12651,"Ġtá»ģ":12652,"Ġlá»ĳt":12653,"iá»ĥng":12654,"Ġphá»Ľt":12655,"Ġvá»ĩt":12656,"ĠSanh":12657,"ĠCong":12658,"Ġpen":12659,"ĠÂ½":12660,"ÃĶtÃ´":12661,"Ġxuyáº¿n":12662,"tur":12663,"Báº¤T":12664,"ĠBor":12665,"dÃ¹ng":12666,"clo":12667,"rey":12668,"Ġsale":12669,"ĠmÆ°á»Ľn":12670,"ĠÄĳiá»ĥu":12671,"ĠMasteri":12672,"Ġ0906":12673,"orning":12674,"NLÄĲO":12675,"tered":12676,"ĠBÃī":12677,"Ká»ĩ":12678,"vatar":12679,"FE":12680,"ĠGan":12681,"Ġ114":12682,"ĠTCT":12683,"LH":12684,"PHáº¦N":12685,"Ġop":12686,"ĠnhÃ¡m":12687,"MÆ¡":12688,"ĠNO":12689,"bang":12690,"Uá»ĲI":12691,"vÃ¹ng":12692,"Ga":12693,"ira":12694,"Pr":12695,"Ġhydro":12696,"ĠSacombank":12697,"Ġnháº·n":12698,"chÃ¢n":12699,"ĠCode":12700,"topic":12701,"dÃ¹":12702,"onia":12703,"ĠnÃŃt":12704,"ĠngÃºt":12705,"hÃ£y":12706,"anoto":12707,"Lá»ĬCH":12708,"Ġá»ī":12709,"ĠHit":12710,"ĠChang":12711,"ĠATGT":12712,"Suá»ĳt":12713,"Phá»ĳi":12714,"thuy":12715,"ĠMáºłNH":12716,"chu":12717,"TTH":12718,"Ġ133":12719,"assic":12720,"ĠÄĳáº£n":12721,"ĠCoco":12722,"Ġchocolate":12723,"acera":12724,"ĠNm":12725,"Ġduá»ĩ":12726,"ĠForex":12727,"Ġboy":12728,"ĠGIáº¢":12729,"Ġngáº£i":12730,"xÃ¢y":12731,"ĠNhÃ¡nh":12732,"ĠHawaii":12733,"NHáº¬N":12734,"ĠMike":12735,"Chá»Ŀ":12736,"ĠNgu":12737,"Cu":12738,"ĠGIáº¤Y":12739,"dt":12740,"lott":12741,"ĠÄĲÃŃnh":12742,"tá»ķ":12743,"Au":12744,"Ġ850":12745,"ĠCream":12746,"ĠHÃĶ":12747,"HÃĥ":12748,"Ġvac":12749,"ĠÄĲáº¡p":12750,"Ġ270":12751,"ages":12752,"Ġshi":12753,"ector":12754,"mai":12755,"GH":12756,"ÃĲá":12757,"ĠbÆ°":12758,"Uy":12759,"ĠVá»¹":12760,"Ġdiáº¿p":12761,"ĠChicago":12762,"ĠnhÃº":12763,"ĠQualcomm":12764,"ĠBTS":12765,"ĠTráºŃt":12766,"ĠÄĳá»ģm":12767,"Ġmuaban":12768,"thá»©":12769,"Car":12770,"ĠRai":12771,"ape":12772,"ĠhÃ©o":12773,"ĠrÆ°á»Ŀm":12774,"Ġposter":12775,"IL":12776,"apphire":12777,"gel":12778,"Ġuá»ķng":12779,"Ġnháº£m":12780,"ĠXÃª":12781,"Ġdt":12782,"ĠBob":12783,"Ġel":12784,"TrÃ¡ch":12785,"ĠTÆ°Æ¡i":12786,"ĠMá»Ĺ":12787,"ĠGun":12788,"sÆ¡":12789,"Ġnom":12790,"ombie":12791,"you":12792,"ĠKai":12793,"Quá»¹":12794,"sex":12795,"±t":12796,"ĠVIET":12797,"late":12798,"ĠSea":12799,"oko":12800,"Ġamp":12801,"Ġáº£i":12802,"Huyá»ģn":12803,"ĠBIÃĬN":12804,"ĠGO":12805,"ĠOsaka":12806,"_--":12807,"ĠCK":12808,"ŀI":12809,"ĠMart":12810,"ĠLine":12811,"ĠPop":12812,"Ná»ĺI":12813,"anotovietnam":12814,"ĠGIÃļP":12815,"encia":12816,"ION":12817,"ĠrÃ´n":12818,"brunette":12819,"ĠGra":12820,"ĠCÃģI":12821,"ĠKP":12822,"Giáº£":12823,"Miá»ģn":12824,"KiÃªn":12825,"kip":12826,"cp":12827,"emen":12828,"ĠSerie":12829,"Ġfax":12830,"ĠÄ©":12831,"+,":12832,"ills":12833,"Ġvá»«ng":12834,"ĠTÆ¯á»¢NG":12835,"ĠÃģP":12836,"mund":12837,"gro":12838,"igo":12839,"ĠHosting":12840,"Sá»©":12841,"ĠBrun":12842,"Cá»Ń":12843,"Ġhá»ī":12844,"video":12845,"cuá»ĳc":12846,"Ġsanotovietnam":12847,"ĠUÃ´ng":12848,":\"":12849,"Ġtá»Łm":12850,"ĠWales":12851,"ĠSoi":12852,"ĠkhoÃ©t":12853,"Ġláº¡t":12854,"Ġdan":12855,"cia":12856,"ĠgiÃ´":12857,"tÃºm":12858,"nÆ¡i":12859,"Ġlip":12860,"ĠtáºŃu":12861,"dá»ħ":12862,"ĠFerr":12863,"Ġ.âĢĿ":12864,"NghÄ©a":12865,"ĠSlim":12866,"Ġ155":12867,"ĠVillage":12868,"Ġchá»Ļi":12869,"ois":12870,"ĠTDTT":12871,"phÃ¢n":12872,"Windows":12873,"RA":12874,"Ġgroup":12875,"toan":12876,"ĠManila":12877,"Huáº¿":12878,"ĠMÃĢ":12879,"ĠxiÃªn":12880,"ÄĳÃ³":12881,"tráº£":12882,"ĠuÃ´":12883,"ĠÄĲÃ³n":12884,"Ġmáº¡t":12885,"ĠCasino":12886,"PHÃĴNG":12887,"ĠLá»ĳi":12888,"ĠdÄ©a":12889,"ĠMessenger":12890,"chÄĥm":12891,"Ġá»ĳi":12892,"ĠTháº£m":12893,"Ġ1974":12894,"Cap":12895,"bac":12896,"ĠSkype":12897,"ĠFit":12898,"ĠphÃł":12899,"tiÃªu":12900,"Ġ165":12901,"Ġcatalogue":12902,"ĠSá»£":12903,"EE":12904,"ĠlÆ°Æ¡n":12905,"ÄĲÃ³n":12906,"ĠvÃ©n":12907,"ĠMona":12908,"rio":12909,".]":12910,"TTT":12911,"ĠsÃ¡m":12912,"ĠPet":12913,"Ġgara":12914,"Ġpa":12915,"pot":12916,"ĠHil":12917,"ĠXÃŃch":12918,"Ġhero":12919,"ĥnh":12920,"Äĳáº¹p":12921,"ĠRose":12922,"ĠvÃ£i":12923,"ĠLtd":12924,"ĠThÆ¡m":12925,"host":12926,"chiáº¿c":12927,"ĠHum":12928,"ĠIsland":12929,"Ġganh":12930,"Son":12931,"ÄĲáº£o":12932,"ĠCáº¢NH":12933,"ĠVoice":12934,"Ġdep":12935,"ĠAnton":12936,"moi":12937,"RS":12938,"sterone":12939,"ĠTool":12940,"Ġcarton":12941,"Ġhandmade":12942,"Ġjack":12943,"Ġrá»¥i":12944,"ĠOng":12945,"Ġbá»¥c":12946,"Mal":12947,"ĠCÃº":12948,"ĠnhÃºc":12949,"999":12950,"ĠHold":12951,"ĠMiÃªn":12952,"ĠSáº¯t":12953,"Ġplugin":12954,"ĠSav":12955,"ĠHC":12956,"ĠKá»¶":12957,"Ġthá»¥t":12958,"ĠBolero":12959,"ĠhÃ²ng":12960,"ĠJustin":12961,"ĠNetwork":12962,"uá»·u":12963,"ÄĲá»Ĺ":12964,"chiáº¿m":12965,"ĠTrÃ¡ng":12966,"Ġscan":12967,"ĠHoáº±ng":12968,"ĠdÃ£n":12969,"ror":12970,"uckerberg":12971,"ĠOP":12972,"OOK":12973,"Jo":12974,"Ġxiáº¿c":12975,"ĠTak":12976,"Ġá»ķng":12977,"ĠSup":12978,"ĠNGHIÃĬN":12979,"ĠÂ».":12980,"ĠUni":12981,"valand":12982,"triá»ĩu":12983,"ĠTÃ´m":12984,"ThÃ³i":12985,"ÃļT":12986,"ÄĳÃºng":12987,"Biá»ĩn":12988,"Ġphone":12989,"PTPP":12990,"PhÆ°á»Ŀng":12991,"ĠHenry":12992,"ĠLoáº¡n":12993,"Ġlá»ıi":12994,"Ġit":12995,"Ġ121":12996,"ĠLeicester":12997,"ĠtÃºm":12998,"Báº¿n":12999,"Ġtháº«m":13000,"Ġ127":13001,"cuá":13002,"ĠgÃ£i":13003,"EWS":13004,"Ġbáº·m":13005,"Äĳo":13006,"PGS":13007,"Ġ202":13008,"!?":13009,"ĠÄĲá»ķng":13010,"Ġvá»ĵng":13011,"Ġcuá»ĳc":13012,"ĠÄĳÃºp":13013,"home":13014,"ĠVáº½":13015,"ĠThá»£":13016,"BÄĥng":13017,"ophi":13018,"GIáº¢I":13019,"eing":13020,"ĠgÃ¹":13021,"Ġ145":13022,"ĠmÆ°Æ¡ng":13023,"Ġcuá":13024,"ĠKn":13025,"TRÆ¯á»ľNG":13026,"ĠAss":13027,"ĠÃī":13028,"ĠQUANG":13029,"Ġregis":13030,"vv":13031,"âĢĿ...":13032,"suzu":13033,"Táº¯m":13034,"ĠSolutions":13035,"PHá»":13036,"LÃ£i":13037,"HÃĥY":13038,"130":13039,"ĠNC":13040,"ĠVip":13041,"viáº¿t":13042,"ville":13043,"Ġthoáº¡t":13044,"ĠHoáº¯c":13045,"HTT":13046,"Ġnhat":13047,"Pha":13048,"ĠTHá»¦Y":13049,"ĠSar":13050,"ring":13051,"ĠNTK":13052,"ĠOct":13053,"ĠOli":13054,"ĠPogba":13055,"ĠFDA":13056,"ĠChuÃ´ng":13057,"Ġ167":13058,"ĠBá»ĵn":13059,"ocus":13060,"ĠTHáº¨M":13061,"ole":13062,"VÃłng":13063,"ĠBá»ķn":13064,"ĠSáºłN":13065,"ChÃ¹a":13066,"ĠTIá»ĨN":13067,"ĠDiá»ĩt":13068,"160":13069,"ĠVirgin":13070,"ĠAth":13071,"sus":13072,"TER":13073,"cÃ¹i":13074,"php":13075,"Ġgiá»Ŀi":13076,"ĠhÃ¹m":13077,"Há»Ĵ":13078,"Ġwith":13079,"Äĳá»ĭnh":13080,"Ġhá»Ŀi":13081,"ĠdÃŃ":13082,"âĢĭâĢĭ":13083,"Ġnhá»¡":13084,"ĠThÃ¢":13085,"ĠCoffee":13086,"ĠRay":13087,"ĠXá»¬":13088,"Ġap":13089,"Ġnhá»į":13090,"ĠBon":13091,"ĠSel":13092,"KhÃŃ":13093,"truyen":13094,"Ġsee":13095,"gra":13096,"Ġhere":13097,"Showroom":13098,"ĠHQ":13099,"ĠPhil":13100,"Ġáº¯p":13101,"Chá»īnh":13102,"ĠVios":13103,"Media":13104,"ĠSara":13105,"THEO":13106,"ĠKhiáº¿t":13107,"Ġhon":13108,"ĠlÃ¹m":13109,"Ġniu":13110,"Ġ136":13111,"Ġcock":13112,"Ġbig":13113,"Tháº¯c":13114,"ties":13115,"ĠAz":13116,"LÃłn":13117,"lÆ°á»£t":13118,"ĠAqua":13119,"ĠLÆ°á»Ľi":13120,"ĠCer":13121,"ĠTaxi":13122,"ĠtrÄĥ":13123,"Ġtá»£n":13124,"ĠWordpress":13125,"Ġshophouse":13126,"tranh":13127,"ĠScot":13128,"ota":13129,"Lá»Ĺi":13130,"ĠThuyá»ģn":13131,"chuáº©n":13132,"Ġkhuá»·u":13133,"borg":13134,"gioi":13135,"uka":13136,"ĠTá»¶":13137,"ĠEV":13138,"ĠVinaPhone":13139,"aus":13140,"Ġnáº·c":13141,"ĠÄĲáº£n":13142,"ĠTTTM":13143,"Wh":13144,"Ġom":13145,"sÃ¡ng":13146,"ĠNico":13147,"Ġrá»¥t":13148,"âĪĴ":13149,"Ġid":13150,"ĠPrime":13151,"ĠMá»ŀ":13152,"ĠZuckerberg":13153,"Ġ132":13154,"?,":13155,"quá»ĳc":13156,"ĠContin":13157,"ĠJol":13158,"ĠPeru":13159,"ĠTran":13160,"Ġkháº¥n":13161,"ÄĲáº¹p":13162,"code":13163,"ĠHOTLINE":13164,"Ġpas":13165,"Mr":13166,"ĠRou":13167,"ĠFood":13168,"ÃĢM":13169,"Ġfix":13170,"ĠBoston":13171,"Tháº±ng":13172,"ek":13173,"linh":13174,"ĠJohnson":13175,"ĠDom":13176,"rt":13177,"ĠPHá»¦":13178,"ĠCollege":13179,"LÃ´":13180,"GVN":13181,"ĠXÃģC":13182,"Ná»ĵi":13183,"ĠTelecom":13184,"Ná»¥":13185,"Ġváº¿":13186,"ĠNovaland":13187,"ĠLÃĬ":13188,"ĠDáº«u":13189,"ĵNG":13190,"ĠSÄĲT":13191,"ĠnÃł":13192,"LÄĥng":13193,"kel":13194,"ĠKur":13195,"ĠquÃłng":13196,"ĠChuá»ĳi":13197,"Like":13198,"BYT":13199,"ĠBáº¢NG":13200,"há»Ļi":13201,"Ġ0903":13202,"ĠPU":13203,"ĠVOV":13204,"express":13205,"Ly":13206,"ĠVS":13207,"ĠBali":13208,"ittle":13209,"real":13210,"cry":13211,"hoÃłn":13212,"ĠCloud":13213,"chan":13214,"ĠBKS":13215,"bÃ¡c":13216,"ĠxÃ³c":13217,"ĠCoi":13218,"ĠRá»ĳi":13219,"Ġpr":13220,"ĠVÃĮ":13221,"Ġ1973":13222,"One":13223,"Ġriáº¿t":13224,"ĠQuÃŃ":13225,"uner":13226,"ĠRemix":13227,"ski":13228,"ĠPot":13229,"TÃŃn":13230,"Galaxy":13231,"binh":13232,"Ġcen":13233,"ming":13234,"tran":13235,"ĠGá»ĳc":13236,"ÄĲiÃª":13237,"ĠDiego":13238,"ITY":13239,"ĠPK":13240,"Ġphá»ī":13241,"ĠÆ¯ng":13242,"Ġcá»ĳp":13243,"Ġtáº§u":13244,"ĠQuáº¥t":13245,"Ġ2022":13246,"CÄĤN":13247,"ĠâĢĶâĢĶ":13248,"ving":13249,"ĠbÃ¡ng":13250,"ThoÃ¡t":13251,"Ġngá»£m":13252,"ense":13253,"ĠTHAY":13254,"ĠKá»ĩ":13255,"ĠPhá»ī":13256,"Ġxuá»ĵng":13257,"ĠTriá»ĩt":13258,"ĠRan":13259,"ĠquáºŃy":13260,"ĠTHá»°":13261,"ĠCHIA":13262,"ĠAsian":13263,"Soáº¡n":13264,"BK":13265,"Ġtrá»Ľ":13266,"ĠcÃ¹i":13267,"ĠRobot":13268,"XÃ³a":13269,"Ġserum":13270,"bien":13271,"ĠChat":13272,"ĠtrÃ³t":13273,"ĠXHCN":13274,"ĠMÃ¡t":13275,"GO":13276,"ĠBO":13277,"ĠlÃ©p":13278,"ĠGIANG":13279,"Ġdáº¥m":13280,"Ġcum":13281,"âľħ":13282,"ĠConn":13283,"diá»ħn":13284,"Nhan":13285,"ĠOxy":13286,"ĠÄĲCS":13287,"ĠHCV":13288,"NHIá»ĢU":13289,"ĠSri":13290,"ESS":13291,"ÄĲTT":13292,"ĠNike":13293,"ThÃ¹ng":13294,"ĠrÆ°ng":13295,"ĠIX":13296,"Ġbá»ĭnh":13297,"nhÃ¬n":13298,"Hoan":13299,"ĠMix":13300,"ĠBil":13301,"ĠGuitar":13302,"ĠTTH":13303,"ĠOx":13304,"ĠPháº¡t":13305,"Ag":13306,"Quáº¡t":13307,"Ġcuáº£":13308,"ĠNáº¡p":13309,"ĠLion":13310,"ĠNASA":13311,"cap":13312,"tachi":13313,"Uá»ĴN":13314,"Ġngáº§u":13315,"Ġhá»Ļc":13316,"ĠNhá»ĭp":13317,"Ġmin":13318,"Ġvirut":13319,"[...]":13320,"tháºŃt":13321,"Ġenzyme":13322,"cons":13323,"aspers":13324,"HOT":13325,"ĠLáº½":13326,"oxy":13327,"ĠIsuzu":13328,"Ġkháº¿":13329,"GhÃ":13330,"ula":13331,"vÃ©":13332,"BN":13333,"ngay":13334,"Ġquáº·c":13335,"ĠPokemon":13336,"ĠArt":13337,"Mac":13338,"ĠHon":13339,"wagen":13340,"Ġlá»ĭ":13341,"ĠSoáº¡n":13342,"ÄĳÃ³ng":13343,"ĠrÃ¨":13344,"ĠAdobe":13345,"ĠIl":13346,"kim":13347,"ĠCoca":13348,"ĠGá»¬I":13349,"Ġzalo":13350,"ATA":13351,"ĠCá»¤":13352,"Ġsam":13353,"á»Ļm":13354,"Nháº¥p":13355,"Ġsmart":13356,"Chá»¯":13357,"ĠEURO":13358,"ĠMÃĻA":13359,"HÃĮ":13360,"Ġáº¤t":13361,"ĠTáº¾T":13362,"ĠGIá»ľ":13363,"ĠchÆ°á»Ŀm":13364,"sá»©c":13365,"MÃ¡i":13366,"Ġ122":13367,"ĠURL":13368,"bach":13369,"ĠchÃ´ng":13370,"ĠRadio":13371,"lá»Ľp":13372,"ĠrÃª":13373,"ĠDS":13374,"ĠCristiano":13375,"Æ¯á»ļI":13376,"ĠAirways":13377,"chez":13378,"ĠHuyÃªn":13379,"ĠJes":13380,"TrÆ°a":13381,"ĠKhá»§ng":13382,"estern":13383,"ĠThung":13384,"Or":13385,"Phun":13386,"ĠÄĳiáº¿m":13387,"cháº³ng":13388,"ĠGran":13389,"ĠBá»İ":13390,"Ġlich":13391,"Ġcáº¡p":13392,"PE":13393,"Ġsáº¥p":13394,"PHÃģ":13395,"ĠGÃĵP":13396,"ĠHIá»ĤU":13397,"AIL":13398,"ĠOpera":13399,"vang":13400,"vá»ĭ":13401,"ĠSPF":13402,"Ìĥ.":13403,"onto":13404,"ume":13405,"ĠNep":13406,"âĻ¥":13407,"ĠSwift":13408,"ĠNgáº¯n":13409,"ĠFl":13410,"glacera":13411,"ÌĢ?":13412,"ĠÃ³i":13413,"Ġdá»Ĺi":13414,"ĠtuÃ´ng":13415,"ĠLegend":13416,"ĠNLÄĲ":13417,"ĠManager":13418,"ĠLab":13419,"Ġgao":13420,"Ġ096":13421,"TUYá»ĤN":13422,"Ġebook":13423,"ĠOLED":13424,"omo":13425,"yu":13426,"hoang":13427,"down":13428,"ĠStand":13429,"ĠNGHá»Ģ":13430,"Ġall":13431,"ĠsoÃ¡i":13432,"Ġpháº£":13433,"ĠdÄĥm":13434,"ĠVII":13435,"ĠmáºŃu":13436,"ĠDL":13437,"ĠÄĲá»§":13438,"pal":13439,"Ġ124":13440,"noi":13441,"aspersky":13442,"Ġmá»Ńa":13443,"Ġ152":13444,",....":13445,"Ġ097":13446,"kswagen":13447,"chat":13448,"ĠKhÃ¢m":13449,"ĠngÃ³c":13450,"Ġ1984":13451,"ĠÄĲai":13452,"Ġliveshow":13453,"ĠKÃ¨m":13454,"âľĵ":13455,"TáºłI":13456,"acy":13457,"ĠCá»Ļt":13458,"Ġbass":13459,"ĠSmith":13460,"Ġluá»ĳng":13461,"ĠEva":13462,"citer":13463,"KHÃĶNG":13464,"Ġmelanin":13465,"Ġ168":13466,"·t":13467,"ĠGá»ĸ":13468,"ĠlÃ¡o":13469,"ĠAmerican":13470,"ĠTui":13471,"ĠNhac":13472,"Ġvon":13473,"Real":13474,"Laptop":13475,"ĠGood":13476,"NAM":13477,"ÄĲÃª":13478,"Ġposted":13479,"Ġgiaoduc":13480,"ĠbÆ°á»Ľng":13481,"ĠNiger":13482,"Ġmic":13483,"ĠNav":13484,"ĠLeo":13485,"lÃºc":13486,"igan":13487,"Ġáº©u":13488,"ĠTTTT":13489,"Ġporn":13490,"Ġradar":13491,"ĠAbe":13492,"ĠJones":13493,"ĠKate":13494,"ĠFU":13495,"CEO":13496,"THá»ľI":13497,"ĠCháº£":13498,"nb":13499,"212":13500,"Ġtesto":13501,"VietQ":13502,"ĠKpop":13503,"ĠRap":13504,"Ġnáº¥p":13505,"!)":13506,"fs":13507,"cumin":13508,"quáº£":13509,"ĠWenger":13510,"ĠsiÃªng":13511,"Ġ330":13512,"ĠKhÃ´":13513,"ĠvÃŃu":13514,"AMA":13515,"ĠThÃ¡o":13516,"ĠCÃĶ":13517,"vá»«a":13518,"ĠThanks":13519,"Add":13520,"Lam":13521,"ĠNhÃ¢m":13522,"aby":13523,"Ġcá»ıi":13524,"shot":13525,"PPO":13526,"Nokia":13527,"Visa":13528,"thuá»ĳc":13529,"ĠThS":13530,"andy":13531,"IKE":13532,"ilia":13533,"ĠnguÃ´i":13534,"ĠnÃºp":13535,"ĠBul":13536,"ĠlÃ¹a":13537,"Ġcháº»":13538,"lide":13539,"ĠPhÃ¢":13540,"Æ¯á»¢T":13541,"ĠTon":13542,"anna":13543,"ĠLáº¡y":13544,"BAN":13545,"ãĥ":13546,"Ġupload":13547,"cáº§u":13548,"ĠÄĲáº¤U":13549,"biáº¿t":13550,"abeth":13551,"ĠHáº»m":13552,"Ġrep":13553,"Ġgold":13554,"=\"":13555,"ĠDuyá»ĩt":13556,"ĠHá»įp":13557,"ĠGáº¶P":13558,"arta":13559,"ĠTÄĤNG":13560,"ĠUE":13561,"Ġep":13562,"YY":13563,"ĠMis":13564,"imer":13565,"Inf":13566,"ĠBÃĢ":13567,"ĠnhÃ¨":13568,"ĠLaw":13569,"Ġcs":13570,"ĠDev":13571,"Ġdien":13572,"ĠBall":13573,"Tri":13574,"ĠTTCK":13575,"ĠBody":13576,"ĠDiÃªm":13577,"Ġcá»£t":13578,"tie":13579,"Ġbá»¡":13580,"Ġtá»ĥ":13581,"ĠNIÃĬN":13582,"ĠKDC":13583,"ĠVOA":13584,"Ġhun":13585,"Ġcáº·c":13586,"ĠCÃĤY":13587,"ĠÄĳuá»":13588,"Ġpháº©y":13589,"ĠRome":13590,"Ġná»ĭnh":13591,"ĠNÆłI":13592,"ÄĲáºłI":13593,"ĠTUáº¦N":13594,"ĠVKSND":13595,"ĠBoo":13596,"ĠPHáº¬T":13597,"????":13598,"âĢĻâĢĻ":13599,"ĠRep":13600,"Ġgáº¯p":13601,"Ġdesktop":13602,"ĠHAI":13603,"Pho":13604,"San":13605,"ĠKHÃģM":13606,"ĠÄĲem":13607,"trick":13608,"ĠPorsche":13609,"uá»Ŀi":13610,"Ġpallet":13611,"bya":13612,"ĠNGá»¦":13613,"avascript":13614,"ĠNad":13615,"Ġgames":13616,"ĠXÃ³a":13617,"ĠTMÄĲT":13618,"Ġlem":13619,"ĠlÃŃu":13620,"UBG":13621,"Singapore":13622,"tol":13623,"ĠKiÃª":13624,"witch":13625,"ĠthÆ¡i":13626,"Ġxá»ı":13627,"ĠrÃ´m":13628,"ĠArena":13629,"ĠloÃ¡ng":13630,"ĠHáº¥p":13631,"ĠUSS":13632,"nghiep":13633,"ĠTHA":13634,"Donald":13635,"ĠKá»ĭch":13636,"ĠHá»Ľi":13637,"Star":13638,"ĠRover":13639,"count":13640,"ĠSale":13641,"cháº¥u":13642,"ĠGuardiola":13643,"Off":13644,"Gel":13645,"ĠCháº£i":13646,"ae":13647,"amily":13648,"ĠThy":13649,"Cáº©n":13650,"Ġcháº¥u":13651,"âĢĿ)":13652,"ĠcÃ²ng":13653,"Bar":13654,"ĠMáº¡t":13655,"ĠAK":13656,"ĠPoint":13657,"oshi":13658,",.":13659,"Ġfolic":13660,"ĠRá»Ļng":13661,"Ġláº»o":13662,"ĠThun":13663,"duong":13664,"ĠGIÃģM":13665,"Ġgluco":13666,"Ġ1976":13667,"á»Ĳn":13668,"á»Ĳng":13669,"trop":13670,"Ġ156":13671,"edy":13672,"Ġhomestay":13673,"phÃª":13674,"ĠJeff":13675,"ĠgiÄĥng":13676,"travel":13677,"Ġkháº£i":13678,"1999":13679,"Báº¢O":13680,"ĠNgang":13681,"ĠBÃ£o":13682,"ĠPE":13683,"ĠBá»Ĺng":13684,"ounce":13685,"ugh":13686,"ĠiT":13687,"ĠSHB":13688,"ĠQuá»³":13689,"ĠBoeing":13690,"»Ĵ":13691,"ĠDor":13692,"titu":13693,"ngo":13694,"ĠWoo":13695,"má»įi":13696,"ĠnhÃºt":13697,"gb":13698,"gory":13699,"ĠHee":13700,"Ġtime":13701,"ĠVietlott":13702,"ĠBrad":13703,"ĠBloomberg":13704,"ãĤ":13705,"ortmund":13706,"ĠxÃ¨o":13707,"ĠmÃ³":13708,"Ġcomposite":13709,"ĠkhÆ¡":13710,"á»Ĵ":13711,"HC":13712,"ĠdÃ¡t":13713,"ĠHillary":13714,"ĠAmerica":13715,"Ġhá»«":13716,"MV":13717,"DÆ°á»Ŀng":13718,"ĠDia":13719,"Æ£":13720,"Ŀng":13721,"ĠXÃł":13722,"180":13723,"ĠTony":13724,"Ġ028":13725,"att":13726,"ĠVPS":13727,"ĠTrÃ´ng":13728,"ĠGet":13729,"ĠZenfone":13730,"ĠðŁĻ":13731,"ors":13732,"HÃĮNH":13733,"Ġtrailer":13734,"ĠTas":13735,"ĠNK":13736,"Ġgiá»ħu":13737,":-":13738,"asoan":13739,"able":13740,"ĠQuáº¡t":13741,"Ġbacklink":13742,"ÄĲÃłm":13743,"ĠVÃī":13744,"thá»©c":13745,"truc":13746,"ÄĲTBXH":13747,"ERA":13748,"Ãļc":13749,"ĠJour":13750,"Up":13751,"GHz":13752,"ĠDol":13753,"ĠBasic":13754,"khai":13755,"Ġauto":13756,"ĠnhÃ²a":13757,"ĠAdam":13758,"BGDÄĲT":13759,"ĠCÃĴN":13760,"goáº¡i":13761,"ĠXD":13762,"ampton":13763,"idane":13764,"ĠGene":13765,"ĠNova":13766,"Ġdr":13767,"ĠDUY":13768,"Ġgalaxy":13769,"Ġhinh":13770,"QuÃª":13771,"ngoáº¡i":13772,"ĠhÃ£n":13773,"áº»":13774,"TÆ°á»Ľng":13775,"ĠQUÃĢ":13776,"ĠVT":13777,"âĢ³":13778,"ĠGIáº¢NG":13779,"Ġpizza":13780,"Ġxy":13781,"ĠBag":13782,"ĠShip":13783,"form":13784,"ĠScotland":13785,"Ġxoan":13786,"Ġ380":13787,"show":13788,"ĠTháºŃn":13789,"ĠCoo":13790,"ĠAnna":13791,"ello":13792,"ĠVision":13793,"ĠFashion":13794,"life":13795,"ná»ģn":13796,"ĠÃĤU":13797,"ĠMÃ£n":13798,"ĠSearch":13799,"ĠStephen":13800,"ĠElite":13801,"ĠTáº£o":13802,"ĠPit":13803,"Ġbá»Ł":13804,"Ġton":13805,"ĠPhun":13806,"FTA":13807,"ĠNou":13808,"Ġáº¤p":13809,"ecta":13810,"ĠAvenue":13811,"ĠEar":13812,"outh":13813,"Ġnote":13814,":âĢľ":13815,"Free":13816,"inger":13817,"KhuÃ´n":13818,"food":13819,"dÆ°á»Ľi":13820,"ĠImperia":13821,"ĠBrown":13822,"ĠMÃĶ":13823,"Ġnhá»©t":13824,"amb":13825,"ĠThÃ³i":13826,"125":13827,"Khoáº£nh":13828,"Ġ081":13829,"ARE":13830,"ĠKhiáº¿u":13831,"OW":13832,"ĠXIII":13833,"Ġdáº¥p":13834,"ĠEthereum":13835,"ĠHÃĻNG":13836,"ĠEuropa":13837,"ĠâĹı":13838,"NÃ©t":13839,"ĠvnÄĳ":13840,"ĠlÃ¬nh":13841,"¥m":13842,"Ġnhá»ĳi":13843,"imbank":13844,"FS":13845,"cáº¥p":13846,"ĠÃģm":13847,"iston":13848,"essica":13849,"ĠNgÆ°ng":13850,"NDN":13851,"máº·c":13852,"Ġ480":13853,"ĠHTV":13854,"áº¿n":13855,"Ġloss":13856,"LÃło":13857,"Ġtoasoan":13858,"ĠHealth":13859,"Ġ1963":13860,"dom":13861,"Album":13862,"arry":13863,"Ġ0936":13864,"ĠNgÆ°Æ¡":13865,"Ġcáº³ng":13866,"Ġkaki":13867,"ĠGHz":13868,"brid":13869,"Ġlick":13870,"Ġ1978":13871,"MÃły":13872,"váº«n":13873,"EST":13874,"ĠLÃ´ng":13875,"ĠCall":13876,"ĠBrand":13877,"quoc":13878,"fia":13879,"Ġlá»µ":13880,"lar":13881,"Ġadd":13882,"ĠHouston":13883,"Ġchá»«a":13884,"ĠLake":13885,"ĠLibya":13886,"ĠGala":13887,"102":13888,"ĠWay":13889,"Å©n":13890,"ĠNoo":13891,"Sport":13892,"ĠOh":13893,"ĠGab":13894,"ĠKIA":13895,"ĠSin":13896,"ĠÄĲBQH":13897,"ĠsÃ¡n":13898,"VND":13899,"ĠBong":13900,"ĠHye":13901,"ĠLÆ¯á»¢C":13902,"ÄĲK":13903,"cre":13904,"ault":13905,"uynh":13906,"Ġwhi":13907,"tronic":13908,"ĠNight":13909,"ĠTIá»ĤU":13910,"ĠSanchez":13911,"giai":13912,"ĠFut":13913,"LÃĢM":13914,"ĠNá»Ļp":13915,"ĠAtom":13916,"ĠrÃ¡ng":13917,"ĠFar":13918,"dao":13919,"Äĳá»ķi":13920,"ĠkhÃª":13921,"NE":13922,"wich":13923,"mÃ³n":13924,"ĠMusk":13925,"ĠChanh":13926,"ĠXNK":13927,"Ġinter":13928,"Ġload":13929,"Ġ1930":13930,"ĠVGA":13931,"Ġchuá»ĵn":13932,"yahoo":13933,"DIá»ĦN":13934,"ĠSAI":13935,"Ġorgan":13936,"ĠSofa":13937,"ĠIBM":13938,"Ġstatus":13939,"ublic":13940,"mÃ£":13941,"Ġnua":13942,"ĠNHáºłC":13943,"ĠgiÆ°Æ¡ng":13944,"Ġkhá»Ŀ":13945,"Ġcombo":13946,"ĠSá»Ľm":13947,"Ġbabe":13948,"ĠSáº¡c":13949,"Phá»ķ":13950,"ĠDHA":13951,"DÆ°á»¡ng":13952,"ĠDrive":13953,"ĠQuÃ¡i":13954,"ĠNÄĲT":13955,"Äĳáº·t":13956,"CÃĤU":13957,"ĠMorning":13958,"ĠCáº¡p":13959,"eline":13960,"ĠphÃ¬nh":13961,"CLB":13962,"tag":13963,"lá»£i":13964,"Point":13965,"ĠOrch":13966,"Group":13967,"ĠJolie":13968,"ĠDáº¡ng":13969,"Sub":13970,"Ġtits":13971,"Ġhá»¯ng":13972,"Ġthinh":13973,"ĠNigeria":13974,"RC":13975,"Tha":13976,"1998":13977,"ĠLav":13978,"ĠTHO":13979,"ĠEverton":13980,"ĠSquare":13981,"ĠKá»µ":13982,"ĠmÃ´t":13983,"ĠngÃ²":13984,"ĠgÆ°":13985,"ĠÃĲáº¡i":13986,"ĠâĤ«":13987,"Dr":13988,"Cháº©n":13989,"Ġbin":13990,"tráº»":13991,"ĠGáº¥u":13992,"ĠTru":13993,"group":13994,"Ġmá»īa":13995,"ĠHills":13996,"ĠVietinBank":13997,"ÄĲáºŃu":13998,"ĠTHUá»ĺC":13999,"Ġsocola":14000,"ĠTRÃļC":14001,"lish":14002,"Ġdá»ım":14003,"ĠMenu":14004,"ĠHÆ¯NG":14005,"ĠHÃ£n":14006,"ĠTHÆ¯á»ŀNG":14007,"ĠTáº¬N":14008,"BTN":14009,"Ġtheme":14010,"ĠTá»ĲI":14011,"Ġï":14012,"láº¥y":14013,"Fan":14014,"ĠPHIM":14015,"OK":14016,"acker":14017,"Men":14018,"ĠTOUR":14019,"ĠtrÃ¡o":14020,"ĠUniverse":14021,"HÃ´":14022,"mec":14023,"Ġ129":14024,"Ġ139":14025,"ĠEverest":14026,"ĠÃ´xy":14027,"ĠThÃ¡ch":14028,"Sun":14029,"ĠSÃ¢u":14030,"Max":14031,"Tháº¥t":14032,"Ġdeal":14033,"ĠTÃºc":14034,"ĠPlan":14035,"ĠRu":14036,"usta":14037,"ĠCá»ĵn":14038,"ÄĲTTCO":14039,"Ġ0904":14040,"tá»ĳt":14041,"ĠxÃ¹m":14042,"\\Ā\\Ā\\Ā\\Ā\\Ā\\Ā\\Ā\\Ā\\Ā\\Ā\\Ā\\Ā\\Ā\\Ā\\Ā\\Ā\\Ā\\Ā\\Ā\\Ā\\Ā\\Ā\\Ā\\Ā\\Ā\\Ā\\Ā\\Ā\\Ā\\Ā\\Ā\\Ā":14043,"cas":14044,"ĠRáº«y":14045,"Ġ1983":14046,"ĠDiÃªu":14047,"ĠMáº¯c":14048,"Ġcaffe":14049,"adi":14050,"Äģ":14051,"ĠsáºŃm":14052,"Ġab":14053,"Ġmust":14054,"rin":14055,"tretho":14056,"ĠFly":14057,"NC":14058,"ĠCHÄĤM":14059,"Ġláº¡ng":14060,"ĠDortmund":14061,"chÃº":14062,"ĠVNG":14063,"ĠTáº¤T":14064,"Ġuric":14065,"ĠHap":14066,"ĠCarl":14067,"»©ng":14068,"ĠIt":14069,"nhat":14070,"ĠrÆ°":14071,"ĠSharp":14072,"Xiaomi":14073,"Ford":14074,"Ġvat":14075,"Ġtáº¯p":14076,"utnik":14077,"Ġlá»ĳ":14078,"ĠVL":14079,"rez":14080,"ĠLien":14081,"umber":14082,"Ġ141":14083,"Ġ0912":14084,"size":14085,"ĠTechcombank":14086,"dau":14087,"Ġnháº¥m":14088,"ĠHáºłNH":14089,"ĠKHCN":14090,"ĠNháº¯c":14091,"CHá":14092,"ory":14093,"ĠTU":14094,"oman":14095,"TTO":14096,"ĠRooney":14097,"ĠHÆ°á»Ŀng":14098,"ĠCÃ´i":14099,"ĠTRÆ¯á»ŀNG":14100,"ĠÄĲÃĤU":14101,"ĠEri":14102,"Ġmodule":14103,"ĠTrip":14104,"TNT":14105,"vy":14106,"Ġname":14107,"ĠOrgan":14108,"Cua":14109,"MÃ´n":14110,"Ġvá»ĭn":14111,"Ġbro":14112,"BÃĮNH":14113,"ĠRS":14114,"ĠgÆ°Æ¡m":14115,"ĠTHÃģNH":14116,"TÃ¡o":14117,"ĠHUY":14118,"Bo":14119,"ĠKids":14120,"ĠâĨ":14121,"ĠKangaroo":14122,"450":14123,"Ġ?âĢĿ":14124,"war":14125,"ĠCaro":14126,"ÄĲen":14127,"ĠKD":14128,"ĠRuby":14129,"ĠNepal":14130,"ĠÄĲÃģP":14131,"cháº¿":14132,"vest":14133,"ĠJackson":14134,"ĠBÃį":14135,"har":14136,"Ġpo":14137,"Ġ1965":14138,"ladesh":14139,"ĠYe":14140,"Rá»Ńa":14141,"ĠPHáº¢N":14142,"ĠKenn":14143,"cara":14144,"ĠdiÃªm":14145,"ĠSaf":14146,"máº«u":14147,"ĠNeo":14148,"look":14149,"ather":14150,"ĠhÃłu":14151,"ĠLeon":14152,"Cháº¿t":14153,"point":14154,"Lu":14155,"ĠMonaco":14156,"ĠVÆ¡":14157,"Ġzoom":14158,"tos":14159,"Ġsk":14160,"Ngá»§":14161,"ĠNá»ĢN":14162,"ĠJesus":14163,"oker":14164,"ĠráºŃn":14165,"ĠType":14166,"Ġgáº¥c":14167,"Ġchá»īn":14168,"URL":14169,"ĠHá»Ĺn":14170,"ĠQÄĲ":14171,"ĠTÆ¡":14172,"¤ı":14173,"ĠGai":14174,"hd":14175,"ĠColum":14176,"hini":14177,"tia":14178,"adat":14179,"ÄĲáº§m":14180,"terte":14181,"->":14182,"tuyá»ģn":14183,"Ġyá»ĥm":14184,"GÃł":14185,"TI":14186,"Jet":14187,"há»į":14188,"tÃ©p":14189,"vet":14190,"guá»ĵn":14191,"î¡":14192,"NÃ³ng":14193,"ĠSáºµn":14194,"ĠRolex":14195,"ĠGáº¥p":14196,"ĠSANG":14197,"GÃ£":14198,"Ġ306":14199,"ðŁĺ":14200,"ĠSáº¡ch":14201,"buck":14202,"ĠQueen":14203,"nguá»ĵn":14204,"Black":14205,"Loáº¡t":14206,"instein":14207,"ĠFortuner":14208,"ĠND":14209,"ĠValencia":14210,"ĠTruyenYY":14211,"EV":14212,"bor":14213,"ĠTráº£ng":14214,"Ġtuyá»ģn":14215,"ĠDal":14216,"ĠZidane":14217,"ĠNational":14218,"PhÃºc":14219,"ĠhuyÃªn":14220,"ĠKhiáº¿n":14221,"oz":14222,"Ġ131":14223,"ĠConte":14224,"ĠToronto":14225,"WW":14226,"î¤ı":14227,"CÆ°á»Ŀi":14228,"î¡½":14229,"ĠVINH":14230,"ĠDá»ĩt":14231,"ĠtuÃ¢":14232,"gam":14233,"ucci":14234,"ĠchÃ²i":14235,"ĠTháº¯m":14236,"cine":14237,"ĠGÃĵI":14238,"Ġanal":14239,"cto":14240,"ĠLM":14241,"ĠEdition":14242,"Nghá»ī":14243,"pháº£n":14244,"ĠVÃ¢":14245,"ĠLÄĲLÄĲ":14246,"ĠES":14247,"LG":14248,"Ãªng":14249,"ĠNSÆ¯T":14250,"ĠTesla":14251,"ĠNháº«n":14252,"ĠLáº®P":14253,"ĠÄĳoÃ¡i":14254,"Máº¡nh":14255,"ĠTest":14256,"Ġlossless":14257,"rola":14258,"Ġten":14259,"Ġ\".":14260,"220":14261,"ChÃ¡y":14262,"kav":14263,"ĠCrystal":14264,"Ġviettel":14265,"pon":14266,"Ġngá»Ľt":14267,"Ġtrá»«u":14268,"Nhá»ĭp":14269,"Ġlá»±":14270,"Ġ1981":14271,"TOUR":14272,"Van":14273,"ĠExciter":14274,"ĠQC":14275,"Ġcá»Ļm":14276,"ĠmÃºc":14277,"aska":14278,"ĠTphcm":14279,"ĠchÃ³p":14280,"Viettel":14281,"jan":14282,"âĢ¦),":14283,"Ġsáº©y":14284,"ĠWill":14285,"ĠTrÃło":14286,"ĠCambridge":14287,"elo":14288,"ĠTNCN":14289,"ĠLanka":14290,"ĠTHIá»ĨN":14291,"Online":14292,"ĠAh":14293,"ĠCivic":14294,"ĠUpdate":14295,"ĠMá»ĮI":14296,"ĠPixel":14297,"zabeth":14298,"ĠCHÆ¯A":14299,"Ġváº§ng":14300,"ĠÄĲá»ģu":14301,"Hotline":14302,"ĠTro":14303,"song":14304,"Ġáº¤m":14305,"Ġsáº£i":14306,"Ġthá»ĩ":14307,"ĠCAN":14308,"ĠMáº®T":14309,"ces":14310,"cá»©u":14311,"ĠDem":14312,"Ġcover":14313,"ĠNorth":14314,"ĠtÃ©p":14315,"Ġ1920":14316,"ĠCatal":14317,"Ġ0908":14318,"ĠMÃ¹":14319,"ĠXÃ¡ch":14320,"ÄĲáº±ng":14321,"KN":14322,"Res":14323,"Ġdáº·t":14324,"uguay":14325,"Ġgá»£n":14326,"ĠVinFast":14327,"Ġden":14328,"doc":14329,"TRá":14330,"Ġmegapixel":14331,"BB":14332,"ĠkhÃ¹ng":14333,"ĠÄĳá»įa":14334,"Ġbiáº¿c":14335,"Ġlove":14336,"LÃ²":14337,"ĠED":14338,"Ġ148":14339,"ĠiCloud":14340,"ĠKhoan":14341,"ðŁĴ":14342,"ĠKiá»ĩm":14343,"Ġmotor":14344,"Ġvá»ī":14345,"eman":14346,"evin":14347,"láº¡i":14348,"ĠPlayer":14349,"ĠEb":14350,"XHCN":14351,"Ġmao":14352,"ĠUPS":14353,"ĠWork":14354,"ĠCOD":14355,"Ġcoup":14356,"nel":14357,"VÃ¡y":14358,"He":14359,"ĠKaw":14360,"nom":14361,"thouse":14362,"borghini":14363,"ĠĠ":14364,"ĠlÃło":14365,"gal":14366,"MEN":14367,"ĠMiÃªu":14368,"ĠGui":14369,"ĠChuá»Ļt":14370,"ÄĳÃªm":14371,"ĠiPod":14372,"ĠTrá»ĳng":14373,"ĠPhÃ¡n":14374,"ĠChanel":14375,"ĠHáº¡c":14376,"ĠSports":14377,"Ġtrá»¥i":14378,"ĠBac":14379,"Ġloang":14380,"asaki":14381,"lian":14382,"tÃ¡p":14383,"hung":14384,"TÆ°á»£ng":14385,"chá»įn":14386,"ĠÃ©o":14387,"Dá»¯":14388,"ĠSir":14389,"Ġaudio":14390,"DÄĲ":14391,"cÃºn":14392,"bohy":14393,"lÄĥng":14394,"cÃµng":14395,"Ġbaking":14396,"Ġgá»ĵ":14397,"IG":14398,"ĠFuk":14399,"virus":14400,"ĠLáºŃy":14401,"rÃª":14402,"Ġwordpress":14403,"ĠHPV":14404,"Ġmanga":14405,"ĠDNA":14406,"Ġgáº·m":14407,"ĠvÃ¡t":14408,"Ġá»·":14409,"sÃ¢n":14410,"truyá»ĩn":14411,"tintuc":14412,"admin":14413,"ģu":14414,"ART":14415,"ĠTiá»ģm":14416,"Triá»ĩt":14417,"Ġfe":14418,"ĠTráº¯c":14419,"BG":14420,"ĠTRÃģCH":14421,"xb":14422,"Ġster":14423,"Ġbáº¹p":14424,"fan":14425,"cháº¯c":14426,"Ronaldo":14427,"LUáº¬N":14428,"ĠBrexit":14429,"inson":14430,"Chap":14431,"Ġregistered":14432,"ĠMp":14433,"ĠViglacera":14434,"Ġ950":14435,"ĠHá»ģ":14436,"riday":14437,"ĠYoo":14438,"ĠXá»ķ":14439,"ĠtÃ¡p":14440,"ĠPom":14441,"kheo":14442,"ĠPRO":14443,"town":14444,"rent":14445,"ĠDuterte":14446,"váºŃy":14447,"ĠBÆ°á»Łi":14448,"ĠKhÄĥn":14449,"azz":14450,"hong":14451,"Ġper":14452,"ĠsÃ¡":14453,"ĠFerrari":14454,"bom":14455,"ĠÃŃ":14456,"ĠDur":14457,"Ġlac":14458,"ĠTHUáº¾":14459,"ĠPG":14460,"ĠMá»ĭ":14461,"Ġbáº¿t":14462,"ĠCÆ°ng":14463,"ĠStyle":14464,"ĠGÃŃa":14465,"ĠÃ¹a":14466,"ĠColorado":14467,"truyá»ģn":14468,"Ġed":14469,"ĠSAM":14470,"Ná»Ńa":14471,"vá»£":14472,"Ġ144":14473,"ĠSher":14474,"ĠThuá»µ":14475,"Ġá»Ĵ":14476,"Ġtráº¡ch":14477,"ĠkhÆ°":14478,"trl":14479,"covery":14480,"Ġdich":14481,"ĠAcad":14482,"Ġláº£":14483,"Ġhiu":14484,"ĠMAI":14485,"Ġ310":14486,"ĠTrá»Ĺi":14487,"Ġ.....":14488,"Marketing":14489,"Ġ1969":14490,"Ġcá»įng":14491,"Ġcontent":14492,"Ġlogged":14493,"Ġáº¢o":14494,"ThÃ¡m":14495,"Ste":14496,"BNN":14497,"váºŃt":14498,"ĠERP":14499,"ĠBÄĲ":14500,"IDS":14501,"Ġ0913":14502,"THá»ĲNG":14503,"Ġthiet":14504,"ĠDÃ¡n":14505,"CHÄĤM":14506,"ĠQUÃĤN":14507,"ĠLotus":14508,"nhÃ³m":14509,"sterdam":14510,"ĠXIX":14511,"ĠVolkswagen":14512,"ĠMANG":14513,"Ġ159":14514,"Ġmem":14515,"Vá»ı":14516,"ĠNÃºt":14517,"ĠCUá»ĲI":14518,"ĠâĢİ":14519,"LoÃłi":14520,"ĠBá»¥i":14521,"Ã¼":14522,"uise":14523,"Ġ1967":14524,"Ġlevel":14525,"Thá»ķ":14526,"Ġhá»±c":14527,"VIET":14528,"ĠÄĲÃłng":14529,"Ġnguyen":14530,"ĠTags":14531,"Ġmiáº¿n":14532,"Ġngai":14533,"Des":14534,"dang":14535,"Ġsolo":14536,"Ġngoáº·c":14537,"ĠSwan":14538,"ĠBá»ģn":14539,"ÄĲá»£i":14540,"ĠHitachi":14541,"Ġmá»ģn":14542,"ĠNham":14543,"Ġháº«ng":14544,"Mark":14545,"ĠCoin":14546,"iev":14547,"Ġheroin":14548,"»¦":14549,"ĠNiáº¿t":14550,"ĠthÃ¢y":14551,"á»¦":14552,"Thai":14553,"Bá»ĨNH":14554,"ĠnhÃ£o":14555,"ĠWestern":14556,"ĠBangladesh":14557,"ĠNghÃª":14558,"ĠcÃºn":14559,"ĠTHáº¦N":14560,"Ġ185":14561,"âĹ":14562,"ience":14563,"ĠMari":14564,"ĠBÆ¡m":14565,"ĠBeckham":14566,"Dan":14567,"Ġver":14568,"ĠphÃŃch":14569,"Há»įp":14570,"YM":14571,"trolimex":14572,"Ġ888":14573,"mond":14574,"ĠgiÃ£y":14575,"Äĳau":14576,"ĠTHE":14577,"sie":14578,"ĠÄĲTC":14579,"Ġnguá»Ŀi":14580,"ĠGiÆ°á»Ŀng":14581,"ĠJennifer":14582,"ĠkÃ¬nh":14583,"Set":14584,"ĠDown":14585,"ĠNhiÃªu":14586,"º¦NG":14587,"BVHTT":14588,"ÄĳÃ¡ng":14589,"RSS":14590,"rad":14591,"name":14592,"Nay":14593,"ĠchÃ£i":14594,"ĠTáº¯t":14595,"Ġ768":14596,"quyá»ģn":14597,"ĠBright":14598,"Ġmedia":14599,"XÃºc":14600,"uya":14601,"ĠSpace":14602,"ĠhÃ¡ng":14603,"asma":14604,"chá»ĵng":14605,"mÃ´":14606,"ĠTiger":14607,"ĠAtlan":14608,"rie":14609,"ĠchÃły":14610,"ĠLandmark":14611,"ĠiTunes":14612,"idi":14613,"ghÃ":14614,"Cá»©u":14615,"Mod":14616,"ĠRog":14617,"lai":14618,"lá»Ŀi":14619,"ĠnhÃ¡c":14620,"Ebook":14621,"ĠchÃŃt":14622,"ĠMarina":14623,"TÆ°á»Ŀng":14624,"ĠTs":14625,"ĠCPTPP":14626,"xá»Ń":14627,"ĠgiÃªng":14628,"ĠlÃ¢ng":14629,"ICO":14630,"nu":14631,"ĠRol":14632,"ĠRodr":14633,"thÃ¢n":14634,"Ġnatri":14635,"Ġgháº»":14636,"Ġráº¯m":14637,"ĠFAC":14638,"ĠEpson":14639,"ĠVietNamNet":14640,"ĠQUÃģ":14641,"ĠnÃ¡y":14642,"ĠNHTM":14643,"ĠKiáº¿p":14644,"ckho":14645,"sil":14646,"weet":14647,"OáºłT":14648,"ĠNá»£":14649,"ĠUA":14650,"Ġlivestream":14651,"âĤ«":14652,"Ġthau":14653,"ĠchÃ´m":14654,"artment":14655,"izu":14656,"MÃ£i":14657,"ĠNinja":14658,"GiÆ°á»Ŀng":14659,"Ġlock":14660,"ĠWiFi":14661,"ĠFeder":14662,"door":14663,"ĠphÃ¹n":14664,"ĠSiri":14665,"ĠAlo":14666,"ĠNá»Ńa":14667,"ĠmÃ³m":14668,"Ġ225":14669,"ĠMerkel":14670,"irin":14671,"Ġmain":14672,"Ġ094":14673,"Trá»ĭnh":14674,"graph":14675,"%-":14676,"IO":14677,"ĠTÃłng":14678,"ĠLÅ©ng":14679,"kk":14680,"ĠDÄ©nh":14681,"Ġháº»o":14682,"Ġtags":14683,"ographic":14684,"HÃłm":14685,"Class":14686,"ĠAdd":14687,"ĠMBA":14688,"ĠMuá»ĳi":14689,"ĠnhÆ¡n":14690,"ĠDep":14691,"ĠGas":14692,"****":14693,"ĠUruguay":14694,"ĠSpec":14695,"drate":14696,"CHIA":14697,"Im":14698,"ĠAcid":14699,"ĠCHÃĤN":14700,"BXD":14701,"ĠMÃĢU":14702,"coln":14703,"Tá»ī":14704,"ĠBridge":14705,"ĩch":14706,"ĠPap":14707,"ThÃ¡ch":14708,"Ġbá»ĩt":14709,"cá»±c":14710,"ĠEximbank":14711,"udd":14712,"ĠxÃ¢u":14713,"ĠchiÃªng":14714,"ChÃ³":14715,"Ġcá»¯":14716,"free":14717,"Náº¡n":14718,"ĠXong":14719,"ĠHá»ĴI":14720,"ĠMÃ¡":14721,"Ġyour":14722,"Äĳá»ģu":14723,"ĠDÃ¬":14724,"ĠLuk":14725,"ingo":14726,"ĠAcer":14727,"ĠXL":14728,"ĠxÃºi":14729,"ĠBÃ´i":14730,"Ġuáº¿":14731,"vision":14732,"TiÃªn":14733,"ĠPort":14734,"ĠBale":14735,"ĠGor":14736,"ĠWood":14737,"ĠChuá»Ĺi":14738,"ingle":14739,"VNÄĲ":14740,"ĠÄĳuá»ĳc":14741,"Va":14742,"ĠnhÃłu":14743,"UT":14744,"ĠPie":14745,"ĠMode":14746,"ĠÄĲua":14747,"ĠRá»ĳt":14748,"ĠVáº¶T":14749,"ture":14750,"Ġicon":14751,"ĠGáº¤P":14752,"ĠhÃºng":14753,"sÄĥn":14754,"Ġlipid":14755,"Ġhost":14756,"ĠBenz":14757,"Cháº¥p":14758,"chure":14759,"MN":14760,"Ġcap":14761,"ĠXoÃłi":14762,"Ġgene":14763,"trÃ¬nh":14764,"Ġtestosterone":14765,"cop":14766,"káº¿":14767,"ĠTÃĬN":14768,"Ġtháº£nh":14769,"ĠBÃłu":14770,"báº£ng":14771,"á»©ng":14772,"Ġ420":14773,"ĠVirus":14774,"750":14775,"logan":14776,"ĠTRáº®NG":14777,"ÃļI":14778,"ĠSevilla":14779,"Ġpháº§m":14780,"ĠMario":14781,"chÆ°Æ¡ng":14782,"Ġ1958":14783,"Ġphiáº¿m":14784,"ĠrÆ°á»£t":14785,"Is":14786,"Ġhecta":14787,"ĠJoe":14788,"ÄĲáº¯k":14789,"ĠDÆ¯á»¢C":14790,"ĠÄĲHQGHN":14791,"ĠHUYá»ĨN":14792,"ĠToáº£n":14793,"ĠDÃ¡ng":14794,"ĠRF":14795,"ĠBlade":14796,"ĠthÃ³c":14797,"Ġdemo":14798,"onet":14799,"ĠTeen":14800,"ĠDj":14801,"ĠDNNN":14802,"ĠTNDN":14803,"Ġgh":14804,"NhÆ°á»£c":14805,"Äĳá»©ng":14806,"Ġlá»©t":14807,"Trá»įn":14808,"ĠOPPO":14809,"ĠCHXHCN":14810,"ĠIE":14811,"ĠgÃłu":14812,"Ġphotoshop":14813,"Bá»Ĺng":14814,"ĠHSSV":14815,"Ġtháº¡nh":14816,"TRá»¤":14817,"115":14818,"ĠMoham":14819,"lÃ½":14820,"Ġbuilding":14821,"ĠSize":14822,"ĠkhuyÃª":14823,"BÄĲ":14824,"ThuáºŃt":14825,"ĠLady":14826,"master":14827,"áº¹t":14828,"Ġthá»īu":14829,"Mt":14830,"»ĭ":14831,"Ġcry":14832,"ĠRus":14833,"Ġbá»£":14834,"ĠMá»ı":14835,"Ġkháº£m":14836,"ĠNA":14837,"Ġuá»ĥ":14838,"ĠHáºł":14839,"NÃª":14840,"ĠAsh":14841,"ĠDaikin":14842,"sha":14843,"ĠPhá»ıng":14844,"itz":14845,"rand":14846,"chÃºc":14847,"Play":14848,"ĠðŁĻĤ":14849,"ĠÄĳá»ĥu":14850,"ĠTRá»ľI":14851,"Internet":14852,"ĠgÃ¡p":14853,"eld":14854,"Ġpark":14855,"ĠLÃģI":14856,"Gian":14857,"ĠBour":14858,"Ġone":14859,"Ġ158":14860,"háº¿ch":14861,"angnam":14862,"Ġprofile":14863,"ĠIns":14864,"Ġ0934":14865,"ĠGDÄĲT":14866,"File":14867,"ĠSNSD":14868,"Ġvá»©c":14869,"tana":14870,"ĠAmsterdam":14871,"ICE":14872,"item":14873,"ute":14874,"ĠkhiÃªn":14875,"oT":14876,"osh":14877,"ĠDÃłn":14878,"ĠRoad":14879,"lÃª":14880,"ĠhÃ³i":14881,"ĠBá»į":14882,"Ġtype":14883,"Ġkhong":14884,"Ġ290":14885,"ĠElizabeth":14886,"NGUYá»ĦN":14887,"gÃ´i":14888,"LÃ¡i":14889,"etail":14890,"ĠKÄ©":14891,"ĠOd":14892,":...":14893,"ĠTTHC":14894,"conom":14895,"ĠvÄĥ":14896,"Ä©u":14897,"ĠLes":14898,"Ġkiá»ĩu":14899,"Ġram":14900,"Ġrá»£":14901,"ngÃ´i":14902,"111":14903,"háº¡":14904,"ĠGiáº¿t":14905,"ĠEngine":14906,"ĠAdidas":14907,"á»ĭ":14908,"ĠtrÄ©u":14909,"zan":14910,"chá»©ng":14911,"ĠdÆ¡i":14912,"ĠÃ¡y":14913,"ĠSor":14914,"ĠNGá»ĮC":14915,"»§a":14916,"ĠLittle":14917,"á»§a":14918,"ĠÃĶtÃ´":14919,"bama":14920,"ROUP":14921,"ĠATTP":14922,"ĠxÃ³i":14923,"Tráº¡m":14924,"Ġ1946":14925,"ĠKiÃªu":14926,"Trá»©ng":14927,"ĠNháº¯n":14928,"ĠVar":14929,"Ġrou":14930,"urs":14931,"001":14932,"nhÃ´m":14933,"ĠIbra":14934,"ĠMAY":14935,"call":14936,"lake":14937,"Quá»·":14938,"lÆ°u":14939,"Ġexcel":14940,"Ġ134":14941,"]:":14942,"ĠNail":14943,"blogspot":14944,"Cá»ĺNG":14945,"ĠCSS":14946,"aton":14947,"ĠHáº¡m":14948,"ĠNgÃłn":14949,"Ġláº±n":14950,"Sony":14951,"ĠSunrise":14952,"ĠActive":14953,"hoi":14954,"ĠGod":14955,"giá»Ľi":14956,"ĠPUBG":14957,"DÆ°á»£c":14958,"ĠTRUYá»ĨN":14959,"ĠtrÃ£i":14960,"rush":14961,"len":14962,"ÄĲiá»ģn":14963,"ĠÄĳáº§n":14964,"Ġpart":14965,"evelop":14966,"CNV":14967,"áº¢":14968,"vÃ²ng":14969,"Quyá»ĥn":14970,"ĠrÃ¬a":14971,"rÃºt":14972,"ĠHÃºc":14973,"ĠKM":14974,"base":14975,"ĠFuj":14976,"Ġ0988":14977,"ĠCanxi":14978,"ĠVÃĶ":14979,"Ġhome":14980,"Ġip":14981,"khÃ¡c":14982,"hou":14983,"nhe":14984,"ĠngÄĥ":14985,"ences":14986,"CHÃĢ":14987,"ben":14988,"Yáº¿n":14989,"ĠShophouse":14990,"ThÃºc":14991,"ĠSS":14992,"Ġlist":14993,"ĠnhÃ¡p":14994,"LÆ¯U":14995,"ĠYÃĬN":14996,"Ġ1024":14997,"ĠGamuda":14998,"ĠCrime":14999,"kÃŃp":15000,"ĠSá»ĳt":15001,"CÃ¡p":15002,"ĠTUYá»ĨT":15003,"ball":15004,"ĠLite":15005,"ĠKháº¥u":15006,"Ġelec":15007,"?-":15008,"asu":15009,"ĠVien":15010,"Má»«ng":15011,"NghiÃªm":15012,"Ġchapter":15013,"fect":15014,"ĠBÃ¹":15015,"celand":15016,"Ġsup":15017,"office":15018,"ĠAnaly":15019,"Ġ!\"":15020,"wang":15021,"ĠDá»±c":15022,"-âĢľ":15023,"ĠGSM":15024,"ĠJane":15025,"ĠNhÃ´m":15026,"tc":15027,"ĠMagic":15028,"THá»¦":15029,"Ńm":15030,"ĠHR":15031,"Äĳá»Ļi":15032,"Giáº£ng":15033,"ĠHand":15034,"esa":15035,"ĠBÃĬN":15036,"HÃĵA":15037,"Ġwc":15038,"Gá»Ĺ":15039,"twalk":15040,"Lib":15041,"Dáº¡o":15042,"ĠWeek":15043,"Ġmax":15044,"Ġhá»¡i":15045,"Kiá»ģu":15046,"náº±m":15047,"ĠKorea":15048,"ANO":15049,"PhÃª":15050,"ĠÃºc":15051,"ĠCÃĤN":15052,"ĠSom":15053,"Ġmetro":15054,"ĠYong":15055,"ĠBáº¯n":15056,"tá»ĳ":15057,"ĠTAI":15058,"ground":15059,"ĠMand":15060,"ĠSá»ī":15061,"ĠVPBank":15062,"ĠEdward":15063,"ĠBou":15064,"ĠTrÃ¢u":15065,"Ġpre":15066,"ĠTechnologies":15067,"^^":15068,"ĠBÆ¡":15069,"Ġ0917":15070,"ĠCá»Ĳ":15071,"Gáº¡o":15072,"ĠGiáº·t":15073,"Ġskin":15074,"phÃ¹":15075,"Ġmap":15076,"wo":15077,"ĠnhÃ¡o":15078,"NGÆ¯á»ľI":15079,"ĠÄĳuá»£c":15080,"ĠÂ°":15081,"ĠTIM":15082,"Ġekip":15083,"Ġfr":15084,"ĠmÃ£ng":15085,"ĠDiá»ĩc":15086,"quÃ½":15087,"ylon":15088,"ungon":15089,"Gold":15090,"ĠchÆ°á»Ŀng":15091,"Ġ(+":15092,"ĠFOR":15093,"Ġcatwalk":15094,"ential":15095,"oka":15096,"ĠEmpire":15097,"KHÃģCH":15098,"ĠQuÃ¢":15099,"ĠHDD":15100,"ĠÄĲiÃªu":15101,"ĠMarvel":15102,"Ġ0907":15103,"Ġ166":15104,"iro":15105,"ĠNháº¹":15106,"ĠInn":15107,"ĠRÃ´":15108,"ĠHNX":15109,"ĠHÆ¯ÆłNG":15110,"ĠLincoln":15111,"ĠVISA":15112,"TTXVN":15113,"Care":15114,"ĠJunior":15115,"há»Ĺ":15116,"ĠBalo":15117,"ĠnÃµn":15118,"ĠMaxmobile":15119,"iles":15120,"ation":15121,"ĠWHO":15122,"ĠKhoai":15123,"ĠgÃłi":15124,"ThuáºŃn":15125,"ĠClassic":15126,"ĠsuÃ¢":15127,"ĠGiu":15128,"105":15129,"nÃ¢ng":15130,"led":15131,"bek":15132,"ĠVáº¿t":15133,"ĠGri":15134,"sc":15135,"ĠPau":15136,"bucks":15137,"law":15138,"tainment":15139,"ĠFocus":15140,"ĠGá»£i":15141,"Ġthá»ım":15142,"ĠPhnom":15143,"Ġstream":15144,"ĠÃĶNG":15145,"Ġnhen":15146,"ĠhÃ¹":15147,"GÃ¢y":15148,"ÃĲá»":15149,"max":15150,"FPT":15151,"mit":15152,"Tao":15153,"âĢľâĢ¦":15154,"eless":15155,"coidan":15156,"ĠVirginia":15157,"ĠSua":15158,"thÃŃch":15159,"tuá»Ļc":15160,"Ġstar":15161,"ĠFast":15162,"ĠKhÃ´n":15163,"ĠMaps":15164,"usalem":15165,"ĠHÃĥY":15166,"Card":15167,"Ġsales":15168,"Ġtuá»Ļc":15169,"ĠPháº£":15170,"Ġusb":15171,"ĠÄĲá»ĵi":15172,"Ġtrá»©":15173,"Ġ1966":15174,"kiá»ĥm":15175,"ĠNGHE":15176,"ĠJournal":15177,"cuá»ĵn":15178,"cd":15179,"Ġ137":15180,"ĠIPS":15181,"Láº§u":15182,"omain":15183,"ĠRain":15184,"cord":15185,"ĠNgoa":15186,"ĩĴ":15187,"ĠCHLB":15188,"Hyundai":15189,"ĠKÃįNH":15190,"ĠTrÃ¢":15191,"Ġ212":15192,"Ġ1971":15193,"Ġkhanh":15194,"CHÃĢO":15195,"vua":15196,"Ġbiáº¿m":15197,"Ed":15198,"ĠlÃ¡c":15199,"ĠlÆ°á»£m":15200,"ĠSUY":15201,"Ro":15202,"108":15203,"akia":15204,"chÃło":15205,"ná»ķi":15206,"ĠBDS":15207,"ĠFuji":15208,"ĠlÃ²a":15209,"cut":15210,"ĠCÄĥng":15211,"nic":15212,"tot":15213,"tick":15214,"ĠHp":15215,"ĠIris":15216,"ctober":15217,"ĠTRá»ĮN":15218,"ĠTáº¦NG":15219,"ĠCour":15220,"castle":15221,"eron":15222,"TiÃª":15223,"ĠKÃ¬nh":15224,"ĠRon":15225,"Ġclo":15226,"ĠSuk":15227,"ĠPart":15228,"ĠLTE":15229,"Ġdel":15230,"Ġcuá»ĵn":15231,"ĠGáº¦N":15232,"ĠNag":15233,"ÄĳÃ´":15234,"Thá»¥y":15235,"ĠKhe":15236,"Nhiáº¿p":15237,
[...]
